<unk>	0
<s>	0
</s>	0
،	-3.47516
.	-3.57697
▁في	-3.72271
▁من	-3.98427
▁	-4.0237
ة	-4.50421
▁و	-4.55485
▁على	-4.74722
ه	-4.77459
▁ال	-4.94716
▁إلى	-4.96229
ت	-5.06626
ها	-5.11333
ي	-5.13619
ا	-5.19144
ات	-5.21548
ية	-5.23105
▁أن	-5.32324
▁وال	-5.39894
▁ب	-5.40104
▁ل	-5.45686
ين	-5.46696
▁(	-5.50838
م	-5.6547
▁عام	-5.66353
#	-5.68523
▁#	-5.72337
▁التي	-5.7496
▁م	-5.77364
▁لل	-5.77689
ًا	-5.79123
)	-5.8353
▁أو	-5.84976
:	-5.85905
ون	-5.88136
▁مع	-5.90716
▁عن	-5.91419
▁ت	-5.91463
"	-5.93432
▁«	-5.93631
▁الم	-5.94103
اً	-5.99235
وا	-5.9934
▁بين	-6.06798
▁كان	-6.07447
هم	-6.1021
▁ما	-6.11
▁بال	-6.11356
▁بعد	-6.15458
▁ي	-6.16239
ال	-6.17514
="	-6.24601
»	-6.29251
▁الذي	-6.31762
▁ذلك	-6.31917
▁هذه	-6.32168
▁بن	-6.33984
▁حيث	-6.48323
▁هو	-6.48791
ى	-6.48886
▁هذا	-6.50371
▁لا	-6.52119
▁كما	-6.52959
▁كانت	-6.54674
▁هي	-6.57061
ان	-6.61641
▁وفي	-6.61894
ِ	-6.63455
▁لم	-6.64356
▁قبل	-6.67573
▁وقد	-6.69374
َ	-6.69496
doc	-6.71963
>	-6.72371
و	-6.73597
▁ف	-6.73959
▁وت	-6.78497
ُ	-6.79462
▁كل	-6.79623
ما	-6.80221
ن	-6.8263
ب	-6.82745
س	-6.83531
▁مثل	-6.84349
▁سنة	-6.84926
▁خلال	-6.85572
/	-6.8855
s	-6.8954
▁ك	-6.91055
ٍ	-6.91966
▁أ	-6.92706
▁تم	-6.93993
▁وي	-6.94887
▁بعض	-6.96864
▁حتى	-6.99544
▁قد	-7.01009
▁وهو	-7.01156
ته	-7.03357
).	-7.06644
d	-7.06949
▁القرن	-7.07628
▁وكان	-7.07725
ّ	-7.08189
▁ثم	-7.09546
)،	-7.10001
▁المدينة	-7.10242
ـ	-7.1235
-	-7.12471
▁وهي	-7.12503
▁أي	-7.12965
▁غير	-7.12996
▁-	-7.139
▁عدد	-7.14123
؛	-7.14422
▁أكثر	-7.14916
▁وم	-7.16403
▁العالم	-7.16602
▁الدولة	-7.17033
ك	-7.1868
د	-7.18881
▁ومن	-7.19251
▁والم	-7.20523
ar	-7.20717
▁والتي	-7.2144
نا	-7.2197
▁"	-7.22271
ز	-7.2282
▁الله	-7.2332
▁المتحدة	-7.24223
▁عشر	-7.2691
يا	-7.28311
▁عبد	-7.29554
▁مدينة	-7.29957
ح	-7.30892
▁أنه	-7.32386
▁الت	-7.32666
ج	-7.33073
▁يمكن	-7.33181
اء	-7.33496
▁الحرب	-7.36292
ع	-7.3652
▁له	-7.3675
ف	-7.37015
▁العديد	-7.37247
▁أخرى	-7.38697
▁بشكل	-7.39119
ies	-7.39947
org	-7.4063
http	-7.40788
?	-7.40853
://	-7.4096
wiki	-7.41325
curi	-7.41519
▁id	-7.41559
▁categor	-7.41605
wikipedia	-7.41605
▁<	-7.4161
▁url	-7.41648
▁title	-7.41691
▁البلاد	-7.41722
▁</	-7.41772
▁أول	-7.42118
▁إلا	-7.4228
ل	-7.42637
▁وأ	-7.42833
▁عند	-7.43991
▁ولكن	-7.44412
▁الأ	-7.45708
».	-7.4644
▁ا	-7.47952
▁بها	-7.49196
▁تلك	-7.50206
▁ن	-7.50614
▁فيها	-7.5077
يين	-7.51778
▁منذ	-7.51906
▁العربية	-7.52659
▁الأول	-7.53591
▁عليه	-7.54111
▁فإن	-7.54483
▁فقد	-7.5557
▁هناك	-7.55874
تها	-7.5758
▁الذين	-7.57657
▁وا	-7.57864
▁18	-7.58123
ق	-7.58377
▁يُ	-7.59047
▁الدين	-7.59477
▁أكبر	-7.59514
▁تحت	-7.59536
▁محمد	-7.59832
▁الثاني	-7.59844
▁مصر	-7.60124
يات	-7.61567
▁جميع	-7.61812
َّ	-7.6222
▁ابن	-7.62248
ص	-7.62652
▁العام	-7.63403
▁عندما	-7.64801
يَّة	-7.65168
▁مما	-7.65545
▁حوالي	-7.65745
▁أما	-7.66549
ر	-7.67049
▁الأولى	-7.67934
▁إن	-7.70055
»،	-7.7029
▁أحد	-7.70967
▁ولا	-7.71823
غ	-7.72103
▁الملك	-7.7332
ش	-7.74114
▁باسم	-7.74296
=	-7.7556
▁الأخرى	-7.76245
▁سي	-7.76606
خ	-7.76865
ً	-7.77004
▁بسبب	-7.77059
▁[[	-7.77146
▁كبير	-7.77316
▁منطقة	-7.77546
ط	-7.77617
َّة	-7.7782
▁عليها	-7.77895
▁منها	-7.77926
▁لها	-7.78296
وس	-7.78322
▁إ	-7.78638
▁حول	-7.78974
▁يكون	-7.79506
▁يتم	-7.79516
▁به	-7.80172
▁وب	-7.81038
ث	-7.8112
▁الحكومة	-7.82144
أ	-7.8243
▁مُ	-7.83198
▁بِ	-7.83503
▁3	-7.83771
▁السكان	-7.83784
▁طريق	-7.83807
▁المنطقة	-7.83847
|	-7.83878
▁أيضًا	-7.83942
تين	-7.84227
▁اللغة	-7.8463
▁الأرض	-7.85547
▁ذات	-7.8597
▁وذلك	-7.86068
▁ع	-7.86549
▁يوم	-7.86632
▁لكن	-7.8694
▁اليوم	-7.87371
▁وكانت	-7.87446
في	-7.89201
▁علي	-7.89222
▁والذي	-7.89245
▁لي	-7.89834
▁اسم	-7.89876
▁ق	-7.90173
ض	-7.90321
▁مليون	-7.90439
▁الولايات	-7.90726
على	-7.91233
▁قام	-7.92224
▁الجيش	-7.93164
▁نحو	-7.93479
▁قال	-7.93715
▁نظام	-7.93929
▁تكون	-7.94371
ئ	-7.94634
▁أنها	-7.94737
▁كم	-7.94799
▁1	-7.9516
▁الوقت	-7.95753
▁2	-7.95784
ْ	-7.95809
بر	-7.96515
▁الدول	-7.9679
▁فقط	-7.97156
▁والأ	-7.97371
اد	-7.98243
▁ومع	-7.98323
▁حين	-7.98713
▁كبيرة	-7.98846
ام	-7.99117
ول	-8.00293
2	-8.00377
]]	-8.00522
▁الفترة	-8.0055
ذ	-8.00669
▁بما	-8.00798
▁آخر	-8.0099
▁بل	-8.01069
▁الن	-8.02462
▁معظم	-8.04097
▁بي	-8.04251
▁5	-8.04295
▁فترة	-8.05346
▁المُ	-8.05402
▁عدة	-8.05403
▁ولم	-8.05477
▁الرغم	-8.05481
▁الإ	-8.05702
▁المناطق	-8.05893
▁وجود	-8.05941
▁ضد	-8.06566
▁ان	-8.06602
▁بالإضافة	-8.06978
▁عبر	-8.07016
▁البحر	-8.07337
▁سكان	-8.08327
▁الع	-8.08517
▁بأن	-8.08608
▁10	-8.08652
▁4	-8.08742
▁دولة	-8.08945
ير	-8.08975
ور	-8.09086
▁الاتحاد	-8.09433
▁رئيس	-8.09451
▁است	-8.10318
▁درجة	-8.10447
يون	-8.10472
▁وبعد	-8.10745
وي	-8.10826
▁الثانية	-8.11163
وم	-8.11377
▁6	-8.11473
▁علم	-8.11747
▁15	-8.11832
ّة	-8.12094
يل	-8.12441
▁أبو	-8.13069
▁جنوب	-8.13346
▁العالمية	-8.13707
▁القديمة	-8.13868
لي	-8.14152
ود	-8.14176
لا	-8.14201
▁للم	-8.14219
▁أيضا	-8.15135
▁إسرائيل	-8.15167
▁الحكم	-8.15241
▁دون	-8.15747
▁أوروبا	-8.1594
▁مجموعة	-8.16272
ٌ	-8.16707
▁تُ	-8.1686
▁العمل	-8.16867
▁السنة	-8.17433
,	-8.17438
▁شركة	-8.17642
▁يت	-8.18195
اس	-8.18305
▁أد	-8.18385
▁ه	-8.18403
▁النظام	-8.18521
▁الإسلام	-8.19168
▁أنَّ	-8.19622
وف	-8.1965
ظ	-8.19792
▁12	-8.19814
▁شمال	-8.19819
▁لِ	-8.19895
▁القوات	-8.20505
▁با	-8.22393
▁العرب	-8.22958
▁الغربية	-8.23014
▁إذ	-8.23191
▁عمل	-8.23594
تي	-8.23812
▁المسلمين	-8.24176
▁داخل	-8.24192
▁17	-8.24321
ني	-8.24399
وب	-8.24414
▁13	-8.24717
▁واحدة	-8.2472
▁7	-8.24765
▁فيه	-8.24827
▁تاريخ	-8.24932
▁التاريخ	-8.24977
▁العربي	-8.25053
من	-8.2527
يّة	-8.25452
اب	-8.25912
▁بم	-8.25991
▁شهر	-8.26194
▁عهد	-8.26197
▁مجلس	-8.26317
▁الكثير	-8.26732
▁واحد	-8.26761
▁نفس	-8.26774
▁دي	-8.26791
▁س	-8.26823
▁الرئيس	-8.27375
▁أهم	-8.27615
▁لت	-8.27696
دي	-8.28212
▁حكم	-8.28322
▁أبي	-8.28451
▁فيما	-8.28528
ار	-8.28814
▁إذا	-8.29293
▁استخدام	-8.29454
▁حرب	-8.29655
يد	-8.29989
▁لأن	-8.30123
▁الناس	-8.30247
▁وقت	-8.30423
▁9	-8.30476
▁سنوات	-8.30555
▁نهر	-8.30909
▁أيضاً	-8.30976
▁مرة	-8.31371
▁أصبحت	-8.32028
▁شكل	-8.32315
▁الأمر	-8.32461
▁الس	-8.32537
▁ألف	-8.32896
▁أصبح	-8.33081
يس	-8.33111
جر	-8.33491
▁نسبة	-8.33552
▁مت	-8.33734
▁العراق	-8.34494
▁الب	-8.34505
▁الوطني	-8.34543
▁والت	-8.34675
▁أثناء	-8.34694
▁العامة	-8.35174
▁يوجد	-8.35204
▁تقع	-8.35624
اح	-8.3576
▁11	-8.36298
▁8	-8.36411
▁وأن	-8.36676
ست	-8.36742
▁14	-8.36821
1	-8.37078
▁وكذلك	-8.37459
▁دول	-8.37579
▁المن	-8.38092
▁إليه	-8.38217
▁الأمريكية	-8.38233
▁نفسه	-8.38816
▁المت	-8.39206
▁وما	-8.39253
▁الشرق	-8.39346
▁جانب	-8.39404
▁الإنسان	-8.39571
فر	-8.39732
▁المدن	-8.39998
▁الق	-8.40444
▁الميلاد	-8.40463
▁الثالث	-8.40611
▁الإسلامية	-8.41054
▁الشمال	-8.41155
▁العصر	-8.41197
▁خاصة	-8.41206
▁أحمد	-8.41398
▁نهاية	-8.41753
▁بدأت	-8.41806
اني	-8.41915
▁عملية	-8.42004
▁الخاصة	-8.42224
▁الشمس	-8.42548
يه	-8.42571
تهم	-8.4275
▁فأ	-8.43126
▁حد	-8.43144
▁بدأ	-8.4345
▁الغربي	-8.43476
▁أهل	-8.43819
▁ج	-8.43851
هما	-8.43924
▁التعليم	-8.44032
▁الأراضي	-8.44275
▁ألمانيا	-8.4466
▁ضمن	-8.44762
▁سو	-8.44768
▁الإمبراطورية	-8.45297
يك	-8.45588
▁المملكة	-8.45673
الم	-8.45959
▁الحياة	-8.45998
▁السلطان	-8.46209
▁بناء	-8.4698
▁16	-8.47086
▁الجزيرة	-8.47438
3	-8.47558
▁أجل	-8.47928
▁الخ	-8.48054
بي	-8.48219
▁عمر	-8.48522
▁الش	-8.49025
▁الشمالية	-8.49233
▁بداية	-8.49349
▁الأمم	-8.49362
▁التاسع	-8.50032
▁مناطق	-8.50044
▁شخص	-8.50282
c	-8.50591
مر	-8.50683
«	-8.5091
▁أصل	-8.51167
▁ش	-8.51255
▁منهم	-8.51257
يف	-8.51378
▁فرنسا	-8.51499
▁الشرقية	-8.52295
كل	-8.52489
▁ثلاثة	-8.52806
▁حركة	-8.52943
▁الوطنية	-8.53002
▁السلطة	-8.53215
▁جديدة	-8.5322
▁إي	-8.53295
جل	-8.53309
▁شرق	-8.53488
▁بلاد	-8.53656
▁إحد	-8.53663
▁الآن	-8.53675
▁لهم	-8.53776
بة	-8.5398
▁الا	-8.5432
▁نسمة	-8.54402
▁يد	-8.54518
▁ول	-8.5458
ري	-8.54792
▁كذلك	-8.54946
▁حسب	-8.55999
▁الجنوب	-8.56047
در	-8.56182
بل	-8.56236
▁الج	-8.56413
تان	-8.566
▁الحديث	-8.5662
▁دور	-8.56649
▁20	-8.5668
▁مختلفة	-8.56784
▁الر	-8.57089
▁مركز	-8.57539
▁أقل	-8.5754
▁شبه	-8.57583
يق	-8.57661
▁ملك	-8.57682
لو	-8.57696
مثل	-8.57884
▁خط	-8.58159
▁الدولي	-8.58357
▁العثمانية	-8.58446
▁ر	-8.58504
▁الجنوبية	-8.58693
▁أم	-8.58776
▁العسكرية	-8.58852
▁الك	-8.58971
▁الغ	-8.59326
▁السياسية	-8.59363
▁مارس	-8.59512
يب	-8.59545
▁فلسطين	-8.59576
▁أفريقيا	-8.59634
ؤ	-8.59828
وه	-8.6
▁الف	-8.60078
▁أكتوبر	-8.60107
يم	-8.60388
▁كتاب	-8.60777
▁نتيجة	-8.60808
▁جزء	-8.61244
▁الإسلامي	-8.61568
▁قامت	-8.61684
▁ولاية	-8.624
▁يكن	-8.62477
حل	-8.62522
▁لكل	-8.62544
دة	-8.62565
▁بت	-8.62663
▁الرئيسية	-8.62887
ند	-8.62948
حت	-8.62972
▁وهذا	-8.62989
كر	-8.63005
دين	-8.63055
▁الأوروبي	-8.63094
▁الدولية	-8.63253
▁غرب	-8.63482
▁أشهر	-8.6376
دا	-8.63808
٪	-8.63819
▁وقال	-8.64031
▁فت	-8.64517
▁جامعة	-8.64653
▁الأكثر	-8.64658
▁الجديدة	-8.64698
▁تعتبر	-8.64779
▁سبيل	-8.65025
يًا	-8.65046
يان	-8.65109
▁دولار	-8.65155
▁خ	-8.65258
▁وضع	-8.6533
▁أمر	-8.65343
▁حالة	-8.65438
▁الحزب	-8.65516
▁بلغ	-8.65785
▁يوليو	-8.66022
▁ست	-8.66035
▁جمهورية	-8.66143
▁أعلى	-8.66325
▁كانوا	-8.66533
رو	-8.66547
▁ص	-8.66591
▁أنحاء	-8.66614
▁اليهود	-8.66625
اق	-8.66665
▁السُلطان	-8.66689
▁توجد	-8.66715
▁وصل	-8.66734
▁الهند	-8.67155
رة	-8.67209
▁بالنسبة	-8.67236
▁ثلاث	-8.67284
▁العشرين	-8.67341
▁وتم	-8.67466
▁كال	-8.67545
▁يونيو	-8.68025
▁يناير	-8.68053
▁نظر	-8.68076
▁متر	-8.68203
▁الطاقة	-8.68326
▁سن	-8.68427
▁مايو	-8.68573
▁وفق	-8.68757
▁وإ	-8.68846
▁المياه	-8.691
▁فا	-8.69114
▁حزب	-8.69178
وع	-8.69199
وية	-8.69282
▁الحديثة	-8.6933
وت	-8.69568
▁الح	-8.69643
كو	-8.69795
▁أنواع	-8.69804
▁الوسطى	-8.70301
▁إليها	-8.70314
▁بالم	-8.70349
▁المسيحية	-8.70484
▁ديسمبر	-8.70551
▁سبتمبر	-8.70818
▁قدم	-8.70837
▁عدم	-8.71042
▁العزيز	-8.71176
وز	-8.71235
▁سطح	-8.71282
كي	-8.71526
سم	-8.71536
▁نقل	-8.71643
▁خارج	-8.7172
▁فوق	-8.71771
يت	-8.72003
▁العاصمة	-8.72061
سب	-8.72173
▁يبلغ	-8.7245
طل	-8.72716
▁ح	-8.7272
▁الأمير	-8.72841
فل	-8.7294
▁ليس	-8.73028
وق	-8.73684
▁الرئيسي	-8.738
▁الحرارة	-8.74161
دو	-8.74166
▁جديد	-8.7422
▁الفلسطينية	-8.74243
▁آل	-8.74271
▁الاقتصاد	-8.74312
b	-8.74431
▁السنوات	-8.74675
▁الشيخ	-8.74801
▁نوفمبر	-8.74824
تا	-8.74927
▁جزيرة	-8.74936
19	-8.75154
▁وح	-8.7526
▁طول	-8.75262
▁مستوى	-8.75315
▁مر	-8.75351
▁ميل	-8.75535
ياً	-8.75587
سا	-8.75709
ولى	-8.7576
▁قوات	-8.75805
لة	-8.75849
▁كتب	-8.7591
▁أعمال	-8.76024
▁الغرب	-8.76372
▁لذلك	-8.76435
▁معركة	-8.76529
با	-8.76613
▁مجال	-8.76784
▁د	-8.76838
▁حل	-8.77024
▁الفرنسية	-8.77084
▁فال	-8.77264
20	-8.77294
شي	-8.77297
▁وسط	-8.77333
دن	-8.77399
▁الز	-8.77589
▁السادس	-8.7763
▁وغيرها	-8.77739
زا	-8.77751
▁لغة	-8.78095
كس	-8.78218
▁الماء	-8.78413
▁فتح	-8.78841
▁إضافة	-8.79136
▁منظمة	-8.79154
▁الجديد	-8.79347
▁الكبرى	-8.79493
سي	-8.79514
▁أمام	-8.79518
▁الاسم	-8.79693
بو	-8.80002
▁المتوسط	-8.80215
▁عرض	-8.80252
▁يعتبر	-8.80335
قا	-8.80539
▁السياسي	-8.80619
▁الصين	-8.8064
اج	-8.81122
▁اليابان	-8.81153
▁ذكر	-8.81211
▁مكان	-8.81223
مان	-8.81313
▁خاص	-8.81329
دى	-8.81444
▁الل	-8.81579
▁مساحة	-8.81611
▁آسيا	-8.81753
▁أواخر	-8.81801
▁الحدود	-8.82129
▁المصرية	-8.82199
▁نوع	-8.82366
▁أيام	-8.82516
4	-8.8282
زي	-8.8293
▁المثال	-8.83156
▁تعد	-8.8323
▁المجتمع	-8.83352
▁الأخيرة	-8.83425
فا	-8.8345
ةً	-8.83485
از	-8.83568
▁الشعب	-8.8389
مة	-8.83916
▁كثير	-8.84118
▁إنتاج	-8.84151
▁المغرب	-8.84204
▁الحركة	-8.84481
;	-8.84576
▁بني	-8.84641
▁الكبير	-8.8467
▁عاصمة	-8.84762
لدى	-8.8483
هُ	-8.84881
▁أبريل	-8.84975
غا	-8.84977
▁النبي	-8.85006
▁أُ	-8.85037
▁الاقتصادية	-8.8505
▁حكومة	-8.85114
▁بو	-8.85121
▁إنشاء	-8.85143
▁البعض	-8.85234
مي	-8.85477
تر	-8.85697
▁العلماء	-8.85746
▁أغسطس	-8.85784
ائي	-8.85843
▁الميلادي	-8.85986
اف	-8.86077
▁الشام	-8.86128
▁البريطانية	-8.86272
▁الدينية	-8.86299
ِّ	-8.86932
▁الرابع	-8.86976
▁دمشق	-8.87147
▁بواسطة	-8.8733
▁يقول	-8.87579
▁السلام	-8.87755
▁اللغات	-8.8779
▁الكتاب	-8.88091
8	-8.88166
أو	-8.88178
مل	-8.88331
▁الخارجية	-8.88457
▁الكنيسة	-8.88607
يوم	-8.88649
▁الشرقي	-8.8865
كت	-8.88827
▁الخامس	-8.88889
▁يجب	-8.88907
▁الخليفة	-8.89108
▁العلم	-8.8911
اته	-8.89268
▁وبين	-8.89282
جم	-8.89403
رس	-8.89439
▁الثورة	-8.89491
هر	-8.89657
▁نصف	-8.90033
▁كلمة	-8.90174
▁تت	-8.9031
▁تأثير	-8.90736
▁تستخدم	-8.90774
كا	-8.90836
نت	-8.90906
▁واست	-8.91137
▁الص	-8.91217
▁الأوروبية	-8.91303
انية	-8.91383
▁لو	-8.91536
▁مملكة	-8.91581
فت	-8.91724
عة	-8.91724
▁الحسن	-8.91758
▁30	-8.91872
▁القانون	-8.91878
▁بِال	-8.91983
n	-8.92001
en	-8.92125
▁بقيادة	-8.92258
▁الوزراء	-8.92269
اط	-8.92366
▁موقع	-8.92616
▁أر	-8.92751
▁مليار	-8.92999
يّ	-8.93015
▁إعادة	-8.93047
▁المختلفة	-8.9305
▁حي	-8.93126
▁القدس	-8.93154
▁رأس	-8.93264
▁لِل	-8.93502
▁تن	-8.93546
قت	-8.93574
قر	-8.93616
▁القديم	-8.93834
جي	-8.94123
▁لمدة	-8.94124
▁فهي	-8.94227
بان	-8.94257
▁القرآن	-8.94329
▁مختلف	-8.94632
▁السعودية	-8.94738
▁طلب	-8.94964
▁الإسرائيلي	-8.95018
▁جيش	-8.95178
▁المحيط	-8.95194
▁فبراير	-8.95259
▁بذلك	-8.9532
يو	-8.95639
▁وهناك	-8.9564
بت	-8.95751
▁مدن	-8.95843
▁آ	-8.95845
o	-8.95881
دل	-8.95906
▁أمريكا	-8.95948
▁بغداد	-8.96038
اع	-8.9604
سو	-8.96181
▁مقر	-8.96192
▁باشا	-8.96205
رت	-8.96221
▁صغيرة	-8.96265
▁قوة	-8.96275
▁يصل	-8.96345
▁الثقافة	-8.96371
▁عنه	-8.96444
▁فعل	-8.96469
كن	-8.97182
▁يقوم	-8.97184
▁بأ	-8.97189
▁جبل	-8.97208
بط	-8.97394
▁25	-8.97498
▁الأمريكي	-8.97615
▁تشمل	-8.97878
را	-8.98083
▁تشكل	-8.98143
▁الأكبر	-8.98316
▁الجزء	-8.98374
حتى	-8.98381
▁الرومانية	-8.98391
دية	-8.98465
نة	-8.98478
y	-8.98493
▁يعود	-8.98616
▁بر	-8.98701
▁بأنه	-8.9883
▁عاد	-8.98952
▁الأعمال	-8.99027
▁يعرف	-8.99045
دار	-8.99071
▁–	-8.99095
▁الفرنسي	-8.99098
▁أربعة	-8.99145
▁وفاة	-8.99148
صل	-8.99153
▁الأردن	-8.99226
▁العالمي	-8.99335
كان	-8.99346
حة	-8.99348
▁حدود	-8.99443
▁هم	-8.9953
▁ط	-8.99542
▁ز	-8.99654
▁باستخدام	-8.99746
▁المحلي	-8.99778
▁الألمانية	-8.99929
بار	-8.9994
ائية	-9.00077
▁التجارية	-9.00122
▁القدم	-9.0015
▁/	-9.00164
▁وجه	-9.0018
▁التجارة	-9.0022
f	-9.00268
▁الحديد	-9.00328
▁السابق	-9.0063
▁جاء	-9.00671
▁الآخر	-9.00773
▁كا	-9.00818
▁بريطانيا	-9.00886
▁للأ	-9.01069
بن	-9.01285
▁فهو	-9.01294
▁(19	-9.01477
رد	-9.01574
▁جو	-9.01717
▁بيت	-9.01761
▁يعد	-9.02101
كم	-9.02181
جو	-9.02225
p	-9.02291
▁نطاق	-9.02303
اك	-9.02578
▁أعضاء	-9.02643
▁يستخدم	-9.02757
▁معدل	-9.02917
▁تطوير	-9.03019
صر	-9.03247
▁عادة	-9.03325
▁المحلية	-9.03403
▁الطبيعية	-9.03432
0	-9.03523
▁ظل	-9.03527
▁العليا	-9.03543
أي	-9.03557
▁والح	-9.0363
▁الأمن	-9.0368
▁الداخلية	-9.03768
ائه	-9.03813
نو	-9.03854
غو	-9.0393
▁هؤلاء	-9.04027
▁أقدم	-9.04078
▁تقوم	-9.04179
▁الد	-9.04179
▁عليهم	-9.04245
▁الأخير	-9.0428
قل	-9.04324
عت	-9.04422
▁النفط	-9.04479
▁حياته	-9.04482
▁الط	-9.04631
فو	-9.04744
شت	-9.04781
▁أعلن	-9.04821
سن	-9.04883
كون	-9.05057
▁وبالتالي	-9.05127
▁يقع	-9.05365
تو	-9.05459
▁الاستقلال	-9.05634
▁تقدم	-9.05683
▁أرض	-9.05713
▁العهد	-9.0574
000	-9.05904
▁المدارس	-9.06055
قي	-9.061
▁سوريا	-9.06313
▁تضم	-9.06476
وري	-9.06478
▁العصور	-9.06484
▁غ	-9.06634
▁ارتفاع	-9.06655
▁الخاص	-9.06725
▁عصر	-9.07017
زم	-9.0706
▁المع	-9.07123
اه	-9.07161
ُّ	-9.07207
▁واسع	-9.07232
▁الدفاع	-9.07386
▁أفضل	-9.07399
قد	-9.07416
▁الجمهورية	-9.07513
▁علماء	-9.07649
▁الشعبية	-9.07771
▁مربع	-9.07779
▁الرسمية	-9.07939
▁غزة	-9.07945
بس	-9.07954
عندما	-9.07981
50	-9.08025
لت	-9.08226
▁المواد	-9.08267
▁لبنان	-9.08327
▁أوائل	-9.08372
▁فكان	-9.08444
جن	-9.08528
▁عقد	-9.0862
▁وصف	-9.08827
10	-9.0891
دت	-9.08982
▁البريطاني	-9.09122
▁الثامن	-9.09137
18	-9.09251
▁الاقتصادي	-9.09296
▁الأبيض	-9.09376
▁وس	-9.09379
رق	-9.09463
▁c	-9.09482
▁المجلس	-9.09482
▁للت	-9.09486
▁رو	-9.09501
▁ويُ	-9.09723
▁كي	-9.09726
سل	-9.09766
▁البر	-9.09824
▁يست	-9.09976
▁2000	-9.1021
رب	-9.10376
▁والده	-9.10636
▁القاهرة	-9.10729
▁العلاقات	-9.10826
▁ظهرت	-9.11015
غل	-9.11022
اش	-9.11028
▁الإمبراطور	-9.11042
طي	-9.11052
▁جبال	-9.11139
6	-9.11229
▁فقال	-9.11265
▁القمر	-9.11296
▁والس	-9.1138
▁ويمكن	-9.11442
k	-9.11563
▁زيادة	-9.11671
بال	-9.11738
سون	-9.11773
▁2008	-9.11827
▁دراسة	-9.11849
نس	-9.11933
قة	-9.11944
ّر	-9.12002
دم	-9.1205
▁طويلة	-9.12061
25	-9.12063
طر	-9.12145
▁سلسلة	-9.12383
_	-9.12449
m	-9.12565
▁حجم	-9.1268
▁قانون	-9.12685
▁تطور	-9.12865
▁البلدان	-9.12932
▁تحديد	-9.12983
▁لهذا	-9.12985
▁رغم	-9.13068
▁المصري	-9.13369
▁البابا	-9.13712
▁البحرية	-9.13724
▁أغلب	-9.1377
▁جعل	-9.13944
▁رفض	-9.13999
رف	-9.1406
▁2005	-9.14075
▁نشر	-9.14142
بع	-9.14187
▁الطرق	-9.14412
▁السابع	-9.14528
أن	-9.14567
▁أربع	-9.14575
▁الإمام	-9.14701
علم	-9.14938
▁الديمقراطية	-9.14967
بين	-9.15275
▁لأ	-9.15406
دير	-9.15467
▁طالب	-9.15484
صف	-9.15535
(	-9.15573
▁أساس	-9.15633
هن	-9.15699
حي	-9.15851
▁عنها	-9.15897
▁تبلغ	-9.15934
▁روسيا	-9.15992
▁الانتخابات	-9.16063
▁الواقع	-9.16111
▁التاريخية	-9.16326
▁كرة	-9.16411
▁تسمى	-9.16475
اتها	-9.1651
ايا	-9.16603
شر	-9.16611
▁عالم	-9.16639
ران	-9.16681
▁نفسها	-9.16681
▁توفي	-9.16745
▁قتل	-9.16783
▁النيل	-9.16805
ثر	-9.16924
▁النقل	-9.16962
▁إدارة	-9.17006
▁قطر	-9.17069
سر	-9.17074
▁بحيث	-9.1712
يته	-9.17299
▁2007	-9.17314
▁ولد	-9.17321
▁الأساسية	-9.17341
▁المعلومات	-9.17357
َّا	-9.17365
▁صناعة	-9.17376
عب	-9.17442
▁جمع	-9.17506
▁العسكري	-9.17586
رك	-9.17595
▁٪	-9.1762
▁بنسبة	-9.17628
▁أثر	-9.1774
ائر	-9.17741
ارة	-9.17779
▁اليهودية	-9.17796
▁جي	-9.17799
جد	-9.17829
▁أطلق	-9.17868
▁وإن	-9.1797
نج	-9.18012
▁المناخ	-9.1807
▁دفع	-9.18092
▁دخل	-9.1832
▁لما	-9.18357
▁الأحمر	-9.18378
g	-9.18423
▁العلوم	-9.18482
▁عشرة	-9.18657
15	-9.18684
تم	-9.18713
▁الروم	-9.18782
▁الإسرائيلية	-9.18863
▁24	-9.18912
▁ثاني	-9.18989
▁تصل	-9.19017
وى	-9.19184
راب	-9.19209
▁أنّ	-9.19246
رات	-9.19247
▁الناتج	-9.19361
30	-9.19364
▁درجات	-9.19383
▁مدار	-9.19481
▁نظرية	-9.19483
▁وجد	-9.19543
▁إيطاليا	-9.19642
جا	-9.19653
▁محافظة	-9.19789
▁عديدة	-9.19811
باب	-9.19898
▁الكبيرة	-9.1991
لم	-9.1993
▁جر	-9.1999
▁اليونانية	-9.20077
كار	-9.20097
▁بكر	-9.20114
▁عبارة	-9.20256
▁وزير	-9.20261
5	-9.2029
l	-9.20315
▁وبعض	-9.20367
▁الشهر	-9.20368
ضم	-9.20402
▁قائمة	-9.20422
h	-9.2046
▁الألماني	-9.20524
▁بحر	-9.20534
▁2006	-9.20612
▁اليمن	-9.20654
▁متوسط	-9.2073
جان	-9.20851
▁بحلول	-9.20872
جمع	-9.20915
▁حياة	-9.2115
▁الأسود	-9.21218
زل	-9.21234
▁تكن	-9.21242
قول	-9.21441
▁نقطة	-9.21475
▁مشروع	-9.215
▁وك	-9.2154
▁كامل	-9.21561
40	-9.21567
▁السياسة	-9.21716
إن	-9.2175
اسم	-9.21901
▁الو	-9.21918
وان	-9.2193
▁الشركة	-9.22139
اري	-9.22151
▁لعام	-9.22202
▁قطاع	-9.22291
يز	-9.22369
▁أراضي	-9.2249
▁الدم	-9.22634
▁الحالي	-9.22668
▁21	-9.22739
▁إبراهيم	-9.22745
▁الاجتماعية	-9.22756
▁أرسل	-9.22808
▁أمير	-9.22886
▁الضوء	-9.22979
▁القبائل	-9.23016
▁عالية	-9.2302
▁2004	-9.23052
▁المح	-9.23088
▁حق	-9.23146
▁الجزائر	-9.23247
▁التقليدية	-9.23371
▁منتصف	-9.23388
▁تنظيم	-9.23393
▁سبب	-9.23429
خل	-9.23464
▁الزراعة	-9.23474
▁سم	-9.23553
▁حرارة	-9.23559
اغ	-9.23563
▁دو	-9.23581
▁الجوي	-9.23622
t	-9.2367
ستر	-9.2374
▁الشمالي	-9.23748
▁وفاته	-9.23839
▁لقد	-9.23928
▁تأسيس	-9.24103
هد	-9.2421
▁الكون	-9.24292
▁أهمية	-9.24306
▁نو	-9.24347
عد	-9.24376
▁مو	-9.24409
▁السيطرة	-9.24428
al	-9.24495
▁اكتشاف	-9.24499
▁حال	-9.24502
▁خلف	-9.24557
عا	-9.24563
لاند	-9.24659
▁هتلر	-9.24753
▁تحتوي	-9.24804
▁عين	-9.24854
0,000	-9.24924
▁عمليات	-9.25037
▁الجنوبي	-9.25038
▁الاست	-9.25123
▁بالت	-9.25124
▁حصل	-9.25126
▁دعم	-9.2516
▁والد	-9.25259
بير	-9.25293
▁السوفيتي	-9.25336
تل	-9.25395
▁آلاف	-9.25478
عي	-9.25621
-19	-9.25646
e	-9.25656
▁ففي	-9.25751
▁تعرف	-9.25863
ولي	-9.26087
▁أخذ	-9.26186
▁الطريق	-9.26245
رن	-9.26297
▁يجعل	-9.26323
ستان	-9.264
وها	-9.2654
▁تزال	-9.26561
▁بأنها	-9.2678
▁لأنه	-9.26805
▁المعروف	-9.26878
▁تعمل	-9.27082
▁19	-9.27152
▁23	-9.27219
▁التالي	-9.27304
دون	-9.27387
▁2011	-9.27438
▁عرف	-9.27439
▁22	-9.27481
▁برنامج	-9.27528
▁وكل	-9.27538
▁النظر	-9.27567
▁والإ	-9.27626
▁تمثل	-9.2776
▁إس	-9.27823
▁المركز	-9.27906
▁دار	-9.2793
يكا	-9.28137
خر	-9.28156
r	-9.28176
مع	-9.28371
▁المست	-9.28618
▁العناصر	-9.28651
▁سواء	-9.28763
▁لهذه	-9.289
▁ظهر	-9.2891
▁البشر	-9.28957
▁خمسة	-9.28977
▁2009	-9.29022
▁الخليج	-9.29062
60	-9.29099
▁النهر	-9.2911
▁انتشار	-9.29165
▁فن	-9.29242
ائع	-9.29264
▁بالقرب	-9.29274
▁الموجودة	-9.29279
صد	-9.29437
▁المسلحة	-9.29511
بور	-9.29559
▁ظهور	-9.2961
▁مباشرة	-9.29624
7	-9.29642
▁الصغيرة	-9.29715
▁البرلمان	-9.29757
شير	-9.29779
ارات	-9.29825
▁شيء	-9.29832
رم	-9.29851
طب	-9.29885
a	-9.29983
مو	-9.30063
▁تمكن	-9.30228
▁حقوق	-9.30313
▁شهدت	-9.30375
▁سليم	-9.30515
▁الأوسط	-9.30604
▁السابقة	-9.30627
▁معاهدة	-9.30645
▁وش	-9.3069
▁26	-9.3091
&	-9.3093
▁ابنه	-9.30954
▁بك	-9.30972
فن	-9.311
شو	-9.31236
▁المجموعة	-9.31326
▁النجوم	-9.31436
▁مقابل	-9.31558
اخ	-9.3157
▁الإنتاج	-9.3159
▁أل	-9.316
مير	-9.31728
▁الأقل	-9.31736
شار	-9.31749
▁واسعة	-9.31771
▁روما	-9.31882
ُر	-9.31891
▁المسلمون	-9.32061
▁مجموع	-9.32067
▁وع	-9.32094
▁المرحلة	-9.32178
▁تعود	-9.32385
u	-9.32479
رج	-9.32624
▁جهة	-9.32659
▁ترك	-9.32702
▁المجال	-9.32708
▁ني	-9.32732
▁هيئة	-9.32741
فقًا	-9.32795
ئة	-9.32866
▁والع	-9.32889
▁أجزاء	-9.32904
▁العثماني	-9.33095
▁وصول	-9.33122
▁الكويت	-9.33149
▁البحث	-9.33192
▁الإنجليزية	-9.33412
▁يسمى	-9.33422
▁كثيرة	-9.33443
شق	-9.33543
▁شبكة	-9.33543
حر	-9.33633
▁صاحب	-9.33668
▁اقتصاد	-9.33713
▁ذو	-9.33866
▁يعتقد	-9.33923
▁لكنه	-9.33944
اث	-9.33951
▁رجال	-9.33968
▁عضو	-9.33992
▁لقب	-9.34007
داء	-9.34007
▁العملية	-9.34019
9	-9.34032
طو	-9.34037
▁مح	-9.34069
▁معينة	-9.34126
▁وليس	-9.34129
يرة	-9.3414
▁شي	-9.34351
وني	-9.34389
▁إل	-9.34423
شا	-9.34492
رية	-9.34497
إ	-9.3458
قيم	-9.34619
▁أعلنت	-9.34671
12	-9.34753
وش	-9.34765
95	-9.34791
▁قيادة	-9.34873
▁فصل	-9.34911
%	-9.34935
▁آنذاك	-9.34953
▁تشكيل	-9.35104
–	-9.35129
▁أنهم	-9.35131
▁بلد	-9.35147
▁يزيد	-9.35206
نغ	-9.35248
▁كيلومتر	-9.35302
▁القوى	-9.35369
▁الحال	-9.35447
صرف	-9.35461
24	-9.3548
=1	-9.35503
▁يشكل	-9.35599
▁الدستور	-9.3567
ائها	-9.35724
▁الأم	-9.35805
او	-9.35846
▁الشعر	-9.35937
▁حدث	-9.35942
▁الساحل	-9.35968
▁قائد	-9.36025
▁البشرية	-9.361
اتهم	-9.36139
▁وسائل	-9.36218
▁صالح	-9.36247
▁وزارة	-9.3629
▁s	-9.36296
▁العلمية	-9.36359
نك	-9.36454
سان	-9.36536
▁قيام	-9.3661
▁أدت	-9.36625
▁100	-9.36643
غن	-9.36761
يج	-9.36775
الي	-9.36793
▁27	-9.36851
يع	-9.36866
ملك	-9.36866
▁مرحلة	-9.36887
▁يزال	-9.36917
▁وق	-9.37038
وك	-9.37054
▁تحقيق	-9.37177
تصنيف	-9.37187
خت	-9.37225
▁طرق	-9.37264
به	-9.3733
▁الجسم	-9.37338
▁لديها	-9.37391
▁الموقع	-9.37447
صاب	-9.37519
▁ولكنه	-9.37523
▁2003	-9.37551
26	-9.3757
▁الآثار	-9.37613
لين	-9.3772
اوي	-9.37721
جه	-9.37867
▁الخط	-9.37925
▁تشير	-9.37929
▁مصطلح	-9.37949
▁والق	-9.37985
▁لن	-9.38028
▁السودان	-9.38029
▁الحيوانات	-9.38156
▁متعددة	-9.38159
▁حسن	-9.38217
قو	-9.38226
راد	-9.38232
▁النوع	-9.38317
بد	-9.38529
راف	-9.38544
▁وقام	-9.38591
13	-9.38602
▁إيران	-9.38607
▁باللغة	-9.3861
▁والن	-9.38618
اعت	-9.38691
]	-9.38735
▁نور	-9.38766
▁الإجمالي	-9.38775
▁الفلسطيني	-9.38856
14	-9.38896
▁المقدس	-9.38917
▁إطلاق	-9.3892
▁كتابه	-9.38994
طا	-9.39016
▁قرار	-9.39074
▁وأصبح	-9.39079
▁وحدة	-9.39089
▁مدرسة	-9.39227
▁خمس	-9.39409
▁القارة	-9.39541
▁حلب	-9.39542
▁أبرز	-9.39597
▁لإ	-9.39609
تش	-9.39658
▁مست	-9.39699
ارت	-9.39762
▁الماضي	-9.39851
▁انتقل	-9.3988
▁البلد	-9.39927
▁الصحية	-9.39929
▁بإ	-9.39953
▁أمريكي	-9.39982
▁را	-9.3999
▁محل	-9.40043
قال	-9.4009
قسم	-9.40129
▁الروماني	-9.40168
▁القوة	-9.40182
▁ليست	-9.40227
99	-9.40261
▁سكانها	-9.4038
كين	-9.40527
▁تعني	-9.40559
▁الإنترنت	-9.40569
le	-9.40634
▁تمتلك	-9.4068
▁وهذه	-9.40767
▁a	-9.40835
رون	-9.40876
ريك	-9.40892
▁الثالثة	-9.4092
▁مرض	-9.40938
23	-9.40942
يلي	-9.4095
▁محاولة	-9.4104
▁مهمة	-9.41139
▁أصول	-9.41229
حوالي	-9.41319
▁بهذا	-9.41458
▁الحاسوب	-9.41516
▁منصب	-9.41586
▁المرض	-9.41615
ّا	-9.41615
▁تو	-9.41727
▁حاكم	-9.41931
▁يعني	-9.41967
▁رجل	-9.42008
▁فر	-9.42046
وال	-9.42063
صب	-9.42197
17	-9.42206
22	-9.42233
▁باريس	-9.42368
▁آثار	-9.42382
▁يعمل	-9.42427
▁مياه	-9.42438
إلى	-9.42447
▁تل	-9.4254
▁مصدر	-9.42634
▁بدل	-9.42655
▁لاحق	-9.42742
▁الفن	-9.4278
▁مؤتمر	-9.42857
▁قسم	-9.42893
مس	-9.42927
فار	-9.42994
gt	-9.43057
▁الولاية	-9.43111
▁الأطفال	-9.43115
▁الث	-9.43187
▁وخاصة	-9.43207
16	-9.43244
خط	-9.43258
▁قصر	-9.43351
▁العمال	-9.43406
فيد	-9.43418
▁رقم	-9.43502
▁كون	-9.43531
▁التالية	-9.43565
▁بالأ	-9.43612
▁لأول	-9.43613
يوس	-9.4363
صح	-9.43641
▁المعروفة	-9.43674
▁الوحيد	-9.43718
▁تونس	-9.43788
وح	-9.43852
21	-9.43855
▁الهيدروجين	-9.43863
▁أشكال	-9.44002
▁سياسي	-9.44083
▁أسس	-9.44207
حق	-9.44267
▁50	-9.44337
عر	-9.44465
يط	-9.44546
▁مُحمَّد	-9.44593
ضي	-9.44619
45	-9.44652
▁يؤدي	-9.44673
▁المصادر	-9.44769
▁بلغت	-9.44792
▁الاحتلال	-9.44871
▁بوش	-9.44903
▁إقليم	-9.44905
an	-9.44918
▁فرض	-9.44975
▁التسمية	-9.45101
▁فارس	-9.4528
27	-9.45296
داد	-9.45336
زو	-9.4534
▁فإنه	-9.45362
▁رئيسي	-9.45408
▁b	-9.45434
هل	-9.45434
▁استخدم	-9.45515
▁عسكرية	-9.45525
▁المرتبة	-9.45542
مت	-9.45608
مار	-9.45611
ّد	-9.45664
▁اللاتينية	-9.45692
▁فلا	-9.45703
انت	-9.45749
▁الصينية	-9.45763
ورد	-9.45947
▁حتَّى	-9.45979
▁تظهر	-9.45993
▁صلاح	-9.46015
مد	-9.46093
49	-9.46104
▁الحصول	-9.4625
عقد	-9.46268
▁مطار	-9.46303
▁تمت	-9.46341
▁الطبيعي	-9.46391
▁اعتبار	-9.46404
▁وهم	-9.46457
▁وراء	-9.4653
▁الواقعة	-9.4663
▁كوكب	-9.46711
63	-9.46738
▁المر	-9.46749
90	-9.46798
▁مدى	-9.4683
▁ورد	-9.46941
▁بعضها	-9.46968
▁مكة	-9.4697
▁ملايين	-9.46984
70	-9.47066
سير	-9.47125
وج	-9.47171
11	-9.47178
َّر	-9.47242
00	-9.47257
▁تحدث	-9.47293
▁الأحيان	-9.4732
▁قناة	-9.47343
فور	-9.47367
يش	-9.47372
شكل	-9.47419
z	-9.47613
▁الشكل	-9.47758
▁إسبانيا	-9.47879
طلق	-9.47964
▁المادة	-9.47984
وط	-9.47989
▁عثمان	-9.48037
▁يطلق	-9.48047
▁الخلافة	-9.4807
▁السفن	-9.48101
لك	-9.48103
▁ثورة	-9.48113
▁الكم	-9.48129
▁موسى	-9.48172
▁التحرير	-9.48188
▁العدد	-9.48224
▁تحمل	-9.48329
لق	-9.4835
in	-9.48353
▁وادي	-9.48475
▁الوصول	-9.48518
▁وأصبحت	-9.48519
▁تقسيم	-9.48584
ورة	-9.4866
▁الوضع	-9.48733
جة	-9.48794
▁ثُمَ	-9.48853
▁الأحداث	-9.48886
جب	-9.48907
▁28	-9.4896
▁أس	-9.48971
آ	-9.49018
قطع	-9.49033
3"	-9.49098
80	-9.49099
بري	-9.4915
▁اتحاد	-9.49202
▁الغلاف	-9.4921
▁وصلت	-9.49214
▁رد	-9.49259
▁الحملة	-9.49282
بك	-9.49287
شع	-9.49322
▁مقاطعة	-9.49351
▁النار	-9.49412
▁ستالين	-9.49421
▁الإعلام	-9.49446
▁يمثل	-9.49448
▁آي	-9.4947
▁الموسيقى	-9.49516
▁خالد	-9.49533
▁المؤتمر	-9.49543
▁ساحل	-9.49544
▁بعده	-9.49558
▁الألعاب	-9.4959
▁الناصر	-9.49669
▁ري	-9.49852
▁الحالية	-9.49885
عم	-9.49907
re	-9.49946
▁المجاورة	-9.49983
▁فكرة	-9.50005
▁الجامعة	-9.50016
شد	-9.50074
▁أفراد	-9.50108
▁تنفيذ	-9.50117
▁خان	-9.50171
▁يقرب	-9.50195
94	-9.50215
ذر	-9.50216
▁والف	-9.50315
▁الطب	-9.50334
▁29	-9.50436
▁الثقافية	-9.50451
اض	-9.50487
ُل	-9.50488
روب	-9.50502
38	-9.50504
▁والب	-9.50602
طة	-9.50684
▁جون	-9.50748
▁الكربون	-9.50759
1"	-9.50785
وفي	-9.50794
2"	-9.50935
▁سعود	-9.50953
▁الأمطار	-9.50953
▁الحكومية	-9.51083
▁إم	-9.51085
86	-9.51093
▁الروسية	-9.51098
▁الشركات	-9.51131
▁الزراعية	-9.51148
▁طريقة	-9.51169
▁الهجرة	-9.51201
فصل	-9.51237
▁للدولة	-9.51279
▁أساسي	-9.51321
▁المالية	-9.51323
صور	-9.51376
92	-9.5146
بيع	-9.51532
رش	-9.51585
▁انتخابات	-9.51623
بيل	-9.51637
▁القتال	-9.51642
▁الحادي	-9.51645
▁سياسة	-9.51662
4"	-9.51671
▁استطاع	-9.51728
جز	-9.51768
▁وخ	-9.51803
▁مئوية	-9.51812
▁جماعة	-9.51876
▁زمن	-9.51912
▁غزو	-9.5198
▁الملكية	-9.52044
اي	-9.52046
▁حساب	-9.52071
formula	-9.52161
الت	-9.52196
▁شعبية	-9.52215
▁الأصل	-9.52246
▁البداية	-9.52246
ّل	-9.52316
▁الأدب	-9.52386
▁الزمن	-9.52445
ضع	-9.52462
er	-9.52595
▁ناحية	-9.52651
نتج	-9.52756
8"	-9.52785
▁دخول	-9.52845
▁كو	-9.5287
حسن	-9.52905
▁المسيحيين	-9.53
راء	-9.53037
29	-9.53116
رض	-9.53126
▁وقعت	-9.53163
عين	-9.5317
▁نص	-9.53178
▁دا	-9.53193
▁نمو	-9.53285
▁قليل	-9.53335
▁عسكري	-9.53396
ـ«	-9.53468
▁فلم	-9.53502
▁مل	-9.53605
44	-9.53632
دان	-9.53633
lt	-9.53674
▁الأساسي	-9.53766
75	-9.53768
▁تركيا	-9.53791
46	-9.53807
▁سليمان	-9.53836
▁الكهربائية	-9.53908
▁الأسرة	-9.53921
شك	-9.53996
دور	-9.54005
x	-9.54009
مور	-9.54025
تز	-9.54057
▁الجانب	-9.54318
▁وغير	-9.54321
▁بايزيد	-9.54324
سك	-9.54359
▁ومنها	-9.54369
▁والر	-9.54437
▁مي	-9.54449
▁نجد	-9.54474
جين	-9.54484
▁الأعلى	-9.54597
▁ضم	-9.54634
نظر	-9.54704
▁والك	-9.54747
مرة	-9.54814
▁الض	-9.54912
لام	-9.55057
▁الرحمن	-9.5506
47	-9.55075
▁الجوية	-9.55084
▁الرومان	-9.55117
وث	-9.55154
w	-9.55173
▁السا	-9.55233
ريس	-9.55307
▁أسماء	-9.55348
▁الرسمي	-9.55361
ائل	-9.55382
▁سير	-9.55419
▁علاقة	-9.55513
فرد	-9.55569
▁وهكذا	-9.55585
▁تتكون	-9.55588
▁قياس	-9.55616
▁المد	-9.55617
▁المذهب	-9.55655
▁الكتب	-9.55663
يث	-9.55701
▁التابعة	-9.55721
▁حملة	-9.5573
عاد	-9.55737
جمهورية	-9.55745
▁تقريبًا	-9.5577
نق	-9.55771
▁الموصل	-9.55805
جاب	-9.55895
فاق	-9.55919
85	-9.56053
▁حر	-9.56063
رام	-9.56106
▁السلطات	-9.56139
5"	-9.56172
نش	-9.56273
7"	-9.56376
▁محمود	-9.56381
؟	-9.56398
وجه	-9.56463
▁عامي	-9.56487
▁رسول	-9.56498
▁علاقات	-9.56505
روس	-9.56565
▁مد	-9.56661
ريد	-9.56666
▁تقديم	-9.56693
ضر	-9.56702
دد	-9.56792
▁التعاون	-9.56821
شن	-9.56822
▁اختيار	-9.56878
▁المدرسة	-9.5688
▁المال	-9.56904
▁2001	-9.56954
▁إجمالي	-9.56976
▁1991	-9.57071
▁بقي	-9.57084
▁الصناعية	-9.57129
98	-9.57144
▁المماليك	-9.57202
▁سر	-9.57244
▁يوسف	-9.5736
▁غاز	-9.57531
روم	-9.57619
▁1990	-9.57632
جاز	-9.5766
▁العالي	-9.57667
▁الكاثوليكية	-9.5767
36	-9.57723
87	-9.57875
ذهب	-9.57898
تون	-9.57914
▁الضفة	-9.57923
غر	-9.57928
37	-9.58018
28	-9.5804
▁(2	-9.58063
ذكر	-9.58133
▁مواقع	-9.58153
▁1948	-9.58193
▁استمر	-9.58265
نز	-9.58335
▁يو	-9.58345
▁إله	-9.58377
▁الأن	-9.58389
▁الكيميائية	-9.58408
▁إسماعيل	-9.58427
▁اتفاقية	-9.5847
35	-9.58483
▁جدا	-9.58506
▁النساء	-9.58597
▁المعركة	-9.58663
▁عرفت	-9.58712
▁[	-9.58717
▁بسرعة	-9.58752
▁الفلك	-9.58795
▁سقوط	-9.58946
طور	-9.58977
طلب	-9.58985
ادي	-9.58992
▁الإسكندرية	-9.59086
▁قطع	-9.59217
ولد	-9.59245
يرا	-9.59285
▁بعدها	-9.59329
▁سان	-9.59335
▁تي	-9.59341
▁الأعضاء	-9.59378
عرف	-9.59395
▁الأندلس	-9.59504
▁حسين	-9.59508
هو	-9.59546
▁قبائل	-9.59606
▁يتكون	-9.59608
فق	-9.59645
▁فل	-9.59645
▁ولي	-9.59668
▁الان	-9.59682
▁أب	-9.59845
▁العلاج	-9.59893
انغ	-9.59944
▁يشير	-9.60012
قبل	-9.60041
▁البيانات	-9.60061
▁اليونان	-9.60073
▁ث	-9.601
▁لندن	-9.60125
▁عقب	-9.60149
▁40	-9.60236
غي	-9.60271
▁1967	-9.60285
▁قيمة	-9.60361
▁حاول	-9.6051
▁عُ	-9.60578
ويل	-9.60585
▁إعلان	-9.60674
▁الهواء	-9.60697
بق	-9.60709
حدث	-9.60743
▁محطة	-9.60762
كة	-9.60768
قية	-9.60824
▁انت	-9.60858
▁يحدث	-9.60879
▁كنيسة	-9.60909
34	-9.60915
الية	-9.61009
▁تع	-9.61021
▁تأسست	-9.61074
يدي	-9.61184
▁الطريقة	-9.61185
61	-9.61196
▁المركزية	-9.61221
▁فان	-9.61303
َّت	-9.61311
▁استمرت	-9.61323
▁ستة	-9.61335
▁الأوَّل	-9.61439
▁الأهلية	-9.61447
▁شر	-9.61526
دعى	-9.61564
عبد	-9.6157
▁جزر	-9.61593
الأ	-9.61615
▁الأطلسي	-9.61634
▁الإسكندر	-9.6178
▁سُ	-9.61816
▁تعتمد	-9.61885
حاد	-9.61905
لف	-9.61926
فة	-9.62
زر	-9.62102
▁قاد	-9.62122
▁كلا	-9.62123
i	-9.6213
قابل	-9.62143
▁الحل	-9.62163
▁تش	-9.62164
▁معه	-9.62166
▁مصادر	-9.62175
65	-9.62179
▁تسبب	-9.62282
▁كتلة	-9.6232
▁الرياضيات	-9.62329
▁الكوكب	-9.62341
لب	-9.62376
▁2013	-9.62436
عود	-9.62467
62	-9.62479
▁يَ	-9.62499
▁شعب	-9.62507
خص	-9.62508
▁قرب	-9.62741
96	-9.62761
صول	-9.62772
▁السورية	-9.62779
▁وخلال	-9.62808
لح	-9.62835
▁هما	-9.62853
▁باب	-9.62871
▁2002	-9.62896
▁النهاية	-9.62905
▁حجر	-9.62958
▁خطوط	-9.62974
▁اتجاه	-9.63011
▁أبناء	-9.63065
حم	-9.63081
▁دين	-9.6321
▁الكر	-9.63256
▁الشمسية	-9.63299
▁الضغط	-9.63367
عرض	-9.63498
▁بدون	-9.63527
▁الكونغو	-9.63538
64	-9.63569
91	-9.63571
▁مستقلة	-9.63608
▁بينها	-9.63769
مَّا	-9.63814
ترك	-9.63839
▁يبقى	-9.63927
33	-9.63939
▁النمسا	-9.6394
ولا	-9.63941
▁اله	-9.63948
▁نجاح	-9.63971
▁الجو	-9.64017
▁أعداد	-9.64116
or	-9.64158
فين	-9.64166
▁برلين	-9.64222
▁سعيد	-9.64228
▁بحيرة	-9.64249
58	-9.64255
▁الحروب	-9.64268
▁البيزنطية	-9.64289
▁بينهم	-9.64309
▁2010	-9.64345
▁تعريف	-9.64351
بعد	-9.64358
▁:	-9.64359
▁لغات	-9.64407
▁المكان	-9.64436
="9	-9.64436
▁السن	-9.64506
▁الخدمات	-9.64597
6"	-9.64598
▁القطاع	-9.64661
حب	-9.64662
▁الصراع	-9.64734
▁مجموعات	-9.64805
66	-9.64836
▁الشباب	-9.64838
لكرة	-9.64874
▁عاش	-9.64929
▁المس	-9.64967
▁مرور	-9.64997
▁الثلاثة	-9.64999
نوع	-9.65046
▁لكنها	-9.65131
81	-9.65138
39	-9.6516
▁يحمل	-9.6517
▁الجبهة	-9.65179
▁الحر	-9.65186
▁الطبيعة	-9.65187
▁الكواكب	-9.65203
▁نموذج	-9.65239
▁نائب	-9.65253
88	-9.65474
زن	-9.65513
▁بيروت	-9.65516
▁الصحراء	-9.65534
▁اللجنة	-9.65596
سام	-9.65605
▁للغاية	-9.65606
▁وان	-9.65618
▁والخ	-9.65701
▁مكتب	-9.65747
▁الحاكم	-9.65798
▁السوق	-9.65925
,000	-9.65932
▁جهاز	-9.65979
▁العمليات	-9.6604
▁سا	-9.66065
قص	-9.66086
▁قرية	-9.66104
ةٍ	-9.6611
▁ميناء	-9.66168
▁طويل	-9.66281
▁ثانية	-9.66364
▁ويتم	-9.66427
▁الحديدية	-9.66435
▁مجتمع	-9.6647
▁للبلاد	-9.66532
ًّا	-9.66612
▁إفريقيا	-9.66623
79	-9.66657
▁سورة	-9.66668
▁يعتمد	-9.66673
78	-9.66699
▁شديد	-9.66716
فتح	-9.66751
67	-9.66756
77	-9.66764
▁فمن	-9.66802
▁الجمعية	-9.66802
48	-9.66893
ِل	-9.66915
▁التركية	-9.66943
▁الديمقراطي	-9.66962
تن	-9.66963
وسي	-9.66973
▁دستور	-9.67016
▁أبا	-9.67064
ّت	-9.67074
ّي	-9.67135
▁جائزة	-9.67146
83	-9.67186
▁وعند	-9.67218
يتها	-9.67219
▁يرجع	-9.67232
غير	-9.67258
9"	-9.67313
رين	-9.67322
▁صغير	-9.67404
▁السياحة	-9.67421
▁المُوافقة	-9.67424
▁تشرشل	-9.67443
قار	-9.67463
▁الأكسجين	-9.67467
▁فريق	-9.67477
▁تغيير	-9.67482
▁العمر	-9.67532
▁وقع	-9.67577
▁بد	-9.67585
▁يظهر	-9.6762
زين	-9.67654
▁الكلمة	-9.67664
▁مؤسس	-9.6774
▁جورج	-9.67743
[[	-9.67745
▁المغول	-9.67746
97	-9.67751
▁كور	-9.6778
▁السيارات	-9.67843
▁طن	-9.67879
▁يذكر	-9.67887
رع	-9.67921
93	-9.67939
▁صورة	-9.67953
▁الصليبيين	-9.67988
▁p	-9.6803
▁المنظمة	-9.68103
▁الاجتماعي	-9.68131
▁النمو	-9.68225
وخ	-9.68268
ائب	-9.68368
▁(3	-9.68376
▁قاعدة	-9.68398
▁تعداد	-9.68473
▁غو	-9.68491
▁السم	-9.68492
مكان	-9.68497
74	-9.68575
▁الكرة	-9.6863
قدم	-9.68709
32	-9.68736
▁الدراسات	-9.68755
▁قدر	-9.68764
▁ضعف	-9.68806
▁بور	-9.68847
▁الإيطالية	-9.68877
▁برامج	-9.68901
▁عامًا	-9.68972
▁ناصر	-9.69059
▁الملكي	-9.69094
▁نسب	-9.69204
us	-9.69236
▁الأناضول	-9.69318
ومي	-9.69334
▁سرعة	-9.6934
▁كأس	-9.69387
▁هدف	-9.6941
رز	-9.69441
▁الإدارة	-9.69459
تحد	-9.69465
▁النظرية	-9.69485
▁القضاء	-9.69551
▁بهم	-9.69562
وقف	-9.69662
صدر	-9.69664
عمل	-9.69668
▁الرياضية	-9.69675
▁وبال	-9.69706
▁يرى	-9.69707
▁فهم	-9.69718
ناس	-9.6976
▁مسجد	-9.69775
▁حدوث	-9.69779
ميل	-9.69852
عمار	-9.69857
▁مرات	-9.69857
انا	-9.69977
▁جداً	-9.70028
▁إلي	-9.70037
▁تسمية	-9.70148
▁الفضاء	-9.7017
▁وغيرهم	-9.70238
▁الحالة	-9.70248
▁رسمية	-9.70261
▁مك	-9.70307
▁الإله	-9.70339
برا	-9.70388
▁عكس	-9.70413
▁الهرم	-9.70417
ذا	-9.70426
دري	-9.70703
41	-9.70741
▁عناصر	-9.70748
▁مفهوم	-9.70895
▁الشخصية	-9.71001
▁اسمه	-9.71006
68	-9.71031
▁البناء	-9.71075
43	-9.71081
قوم	-9.71096
صم	-9.71134
سور	-9.71159
▁لفترة	-9.71202
▁المستوى	-9.71212
▁الإسبانية	-9.71232
▁خير	-9.71232
▁الغزو	-9.71238
قط	-9.71259
54	-9.71323
▁سار	-9.71372
▁السبب	-9.71381
▁لِسن	-9.71407
▁صوت	-9.7142
▁يحتوي	-9.71448
▁قوي	-9.71471
53	-9.71575
="10	-9.71607
قارب	-9.71642
فع	-9.71642
▁وتعتبر	-9.71744
جيل	-9.71792
زال	-9.71795
▁شو	-9.71862
▁وعدد	-9.71872
▁والعشرين	-9.71875
▁وبذلك	-9.7189
▁بموجب	-9.71891
▁أنَّهُ	-9.71908
▁المشروع	-9.71958
▁النفس	-9.72036
▁السويد	-9.7206
▁المُسلمين	-9.72091
امي	-9.72099
بول	-9.72181
بات	-9.72228
▁الصيف	-9.72276
▁نجم	-9.72326
ابة	-9.72355
حال	-9.72389
▁إما	-9.72413
لات	-9.72463
زار	-9.72464
▁الشر	-9.72473
▁أف	-9.72531
▁الأهلي	-9.72543
▁لصالح	-9.72596
▁سيما	-9.72682
▁وأكثر	-9.72697
عن	-9.7282
سكي	-9.72823
84	-9.72862
▁عربية	-9.72862
▁الأب	-9.72882
▁الحق	-9.72897
▁جا	-9.72918
▁البا	-9.73005
▁صور	-9.7303
▁أخيه	-9.73032
▁القومي	-9.73041
▁العظمى	-9.73047
تشي	-9.73062
▁ض	-9.73176
▁بلا	-9.73201
▁الإخوان	-9.73221
▁نابليون	-9.73235
▁اليابانية	-9.73279
▁الثلاث	-9.7328
▁الصحة	-9.73293
اذ	-9.73305
وطن	-9.73349
ضا	-9.73399
محافظة	-9.73416
▁تعرض	-9.73431
▁اتفاق	-9.73449
وكالة	-9.7346
▁القيادة	-9.7348
باء	-9.73489
▁وسي	-9.73495
▁شا	-9.73551
ثق	-9.73618
أس	-9.73628
▁حديث	-9.73647
▁باقي	-9.73654
▁اعتبر	-9.73686
▁قبيلة	-9.73691
▁حب	-9.73768
▁الجنود	-9.73815
▁الأصلية	-9.73943
طول	-9.74031
▁قُ	-9.74072
69	-9.74144
▁طرف	-9.74184
قُ	-9.74226
▁الكبريت	-9.74253
▁العاشر	-9.74278
▁يسمح	-9.74332
▁ذهب	-9.74346
▁تعيين	-9.74355
▁لجنة	-9.74381
▁الفيزياء	-9.74384
راج	-9.74449
دام	-9.74495
▁أنفسهم	-9.74498
▁الفريق	-9.74503
▁شعر	-9.74568
لل	-9.74597
▁تر	-9.74605
▁القوانين	-9.74608
كور	-9.74626
▁نشاط	-9.74712
▁الداخلي	-9.74734
▁رمز	-9.74737
تبع	-9.74751
89	-9.74782
▁31	-9.74858
▁وعمل	-9.74876
▁القسم	-9.74887
اكس	-9.74891
▁الشتاء	-9.74944
▁وفقا	-9.74957
▁ود	-9.75025
▁2012	-9.75032
is	-9.75093
▁الرياح	-9.75191
▁جد	-9.75237
▁اللا	-9.7531
ده	-9.75327
كثر	-9.75336
▁h	-9.75337
ينا	-9.75347
▁تختلف	-9.75389
▁رفع	-9.75421
▁عنصر	-9.75447
▁الإن	-9.75499
▁المسجد	-9.75545
▁وجعل	-9.75552
▁المحكمة	-9.75629
▁نوبل	-9.75644
▁المريخ	-9.75668
اليوم	-9.75693
رجع	-9.75748
▁الإيطالي	-9.75788
▁(1	-9.75809
▁ويعتبر	-9.75912
▁فرق	-9.75923
▁معروف	-9.75949
▁العلاقة	-9.75978
▁كانون	-9.76019
▁الحلفاء	-9.76067
▁قلب	-9.76072
▁النسبية	-9.76077
ائد	-9.76129
ri	-9.76156
▁تجمع	-9.76313
▁اهتمام	-9.76323
▁إطار	-9.76325
▁فور	-9.76381
افي	-9.76463
سيل	-9.76515
▁البحرين	-9.76611
▁بكل	-9.76651
غول	-9.76692
▁الأشخاص	-9.76729
قب	-9.76742
▁بار	-9.76746
فيل	-9.76928
▁بمعنى	-9.76928
▁الرجال	-9.76957
▁البنية	-9.76979
▁بصورة	-9.76984
▁البيضاء	-9.7701
▁تطبيق	-9.77021
▁أيرلندا	-9.77058
▁سوق	-9.77099
سكن	-9.77133
▁ذي	-9.77215
لاحظ	-9.77232
▁(18	-9.77278
▁عائلة	-9.77305
=10	-9.77309
▁الأولمبية	-9.77314
▁إجراء	-9.7733
عتقد	-9.7734
عيد	-9.77366
▁ويت	-9.77375
▁طاقة	-9.77443
▁الجبال	-9.77459
▁أولى	-9.7746
▁القائد	-9.77485
▁خلاف	-9.77492
طار	-9.77571
▁تفسير	-9.77594
▁كوريا	-9.77732
▁البل	-9.77751
وغ	-9.77761
▁الإدارية	-9.77797
▁بعيد	-9.77861
ِ]]	-9.77964
▁يبدو	-9.77975
بيت	-9.78012
56	-9.78021
▁نتائج	-9.78043
▁خرج	-9.78062
شور	-9.78168
▁المجموعات	-9.78281
▁البرية	-9.78302
▁جنب	-9.78321
▁القديس	-9.78372
▁تمتد	-9.78374
▁الرسول	-9.78386
▁بدء	-9.78392
▁الوحدة	-9.78421
▁لهُ	-9.78427
▁مقارنة	-9.78477
▁تقريبا	-9.78529
▁الشعوب	-9.78538
ندي	-9.78576
▁بكثير	-9.7859
▁والش	-9.786
سين	-9.78617
ِي	-9.78621
▁الناحية	-9.78636
صي	-9.78719
▁كمية	-9.78728
▁تعليم	-9.78795
لاء	-9.7882
▁f	-9.78824
حد	-9.78853
نطق	-9.78901
أت	-9.78908
▁ولقد	-9.78926
▁يا	-9.79024
▁بطريقة	-9.79048
57	-9.79085
▁السوري	-9.7911
▁الوحيدة	-9.79198
اسي	-9.79208
55	-9.79224
▁المكسيك	-9.79278
▁موقف	-9.79362
▁الحسين	-9.79368
▁الأنواع	-9.79412
▁الواحد	-9.79426
▁أنظمة	-9.79459
▁ضرب	-9.79529
روح	-9.79539
ّب	-9.79621
▁تصنيف	-9.79626
▁الغابات	-9.79702
درج	-9.79783
▁الألمان	-9.7984
حرف	-9.7987
▁الممكن	-9.79895
▁خلق	-9.79908
تراوح	-9.79952
▁التشغيل	-9.79959
72	-9.7996
پ	-9.80002
▁معبد	-9.80062
شرف	-9.80114
▁الكتابة	-9.80135
قدس	-9.80148
▁بشأن	-9.80194
ائهم	-9.80217
▁أراد	-9.80217
زون	-9.8022
▁ومنذ	-9.8027
ضيف	-9.80271
▁بحسب	-9.80406
▁تتراوح	-9.80473
on	-9.80484
بية	-9.80528
▁المش	-9.80644
▁النصف	-9.80663
▁المؤسسات	-9.80665
0"	-9.80678
▁لح	-9.80764
▁كبيرًا	-9.80877
▁الشَّام	-9.809
▁تحويل	-9.81032
يري	-9.81033
▁مناخ	-9.8108
▁فيلم	-9.81082
▁إنه	-9.81108
▁حُ	-9.81118
بون	-9.81136
▁العلمي	-9.81151
▁أصغر	-9.81182
▁وجنوب	-9.8122
▁سياسية	-9.81232
▁الجزر	-9.81322
▁الخارج	-9.81398
ُن	-9.81409
▁g	-9.81463
قتل	-9.81501
▁ور	-9.81508
ثير	-9.81517
▁اكتشف	-9.81536
▁الموافق	-9.81638
▁أقصى	-9.81639
▁القاعدة	-9.81712
مات	-9.81795
▁المق	-9.81819
▁فاز	-9.81859
▁حماس	-9.81889
▁رأي	-9.81891
▁إثر	-9.81927
▁الصف	-9.81932
ثا	-9.81937
▁يلي	-9.8195
▁كار	-9.81989
▁الصناعة	-9.82006
▁الحضارة	-9.8201
حضر	-9.82024
▁مؤسسة	-9.82071
ضاف	-9.8211
▁فو	-9.82139
▁قليلة	-9.82181
حفظ	-9.82186
▁قصيرة	-9.82192
▁استقلال	-9.82246
▁1999	-9.82341
▁عيد	-9.82355
▁الشرطة	-9.8239
▁حاليا	-9.82415
كري	-9.82466
موس	-9.82513
▁العُثمانيَّة	-9.82588
▁أجهزة	-9.82617
▁حالياً	-9.8264
▁اقت	-9.82733
▁إصدار	-9.82746
▁الحرة	-9.82768
▁تحول	-9.828
▁كبار	-9.82822
جاه	-9.82828
دافع	-9.8284
▁سوف	-9.82877
▁العظيم	-9.82914
▁الشعبي	-9.8293
دس	-9.82937
▁تشرين	-9.82972
▁رواية	-9.83014
▁تبع	-9.8303
▁الغاز	-9.83041
لقى	-9.83076
▁وقتل	-9.83094
بعث	-9.83161
▁البعث	-9.832
صو	-9.8322
ra	-9.83227
▁الساعة	-9.83238
▁الهندسة	-9.83285
▁باعتباره	-9.83307
▁تقريباً	-9.83336
▁هنا	-9.83338
▁وبلغ	-9.83354
▁ووضع	-9.83399
ديان	-9.83429
▁دخلت	-9.83432
ic	-9.83475
▁باكستان	-9.8352
▁نفوذ	-9.83525
▁ثالث	-9.83531
▁انتهت	-9.83543
▁المقدسة	-9.83551
▁الأربعة	-9.8356
▁الكلاسيكية	-9.83563
▁الجنسية	-9.83568
▁دعا	-9.83595
▁عز	-9.83607
ائم	-9.83661
قاتل	-9.83688
▁الحد	-9.83767
ء	-9.83815
▁تابعة	-9.83859
▁تك	-9.83872
▁ولل	-9.83885
▁المجر	-9.83911
واء	-9.83919
="11	-9.83924
▁الأو	-9.83937
▁الاشتراكية	-9.83938
▁قلعة	-9.83969
▁موضوع	-9.83974
▁يومًا	-9.84046
تصل	-9.84072
76	-9.84119
▁قوية	-9.84134
▁انتهاء	-9.84168
فض	-9.84247
فاء	-9.8426
تس	-9.84306
▁قر	-9.84318
52	-9.84323
▁مقتل	-9.8435
ّى	-9.84353
▁الآ	-9.84367
▁وأنه	-9.84377
سخ	-9.84501
▁كتابة	-9.84508
▁السي	-9.84514
▁الروح	-9.84526
▁سلطة	-9.84536
▁طبقة	-9.84539
ro	-9.84649
▁60	-9.84656
▁جُ	-9.84663
▁الأصلي	-9.84715
▁انخفاض	-9.84719
توضيح	-9.84751
ُم	-9.84757
▁1994	-9.84764
82	-9.84788
▁حالات	-9.84794
بغ	-9.84864
▁خدمة	-9.84876
73	-9.84876
▁وتُ	-9.84931
▁البيزنطي	-9.84946
▁المقاومة	-9.84962
قدر	-9.84967
▁واضح	-9.8497
▁البيئة	-9.85004
غالبية	-9.85035
▁البرازيل	-9.85046
▁فشل	-9.85077
59	-9.8512
يكو	-9.85133
▁مايكروسوفت	-9.85156
▁شارك	-9.8519
▁تقرير	-9.85198
▁يح	-9.85202
ونغ	-9.85225
▁لذا	-9.8533
توفر	-9.85372
▁الجهاز	-9.85376
▁النووي	-9.85397
▁ساعة	-9.85436
▁اعتماد	-9.8551
سبب	-9.85582
كوم	-9.85586
▁ربما	-9.8562
▁الشمسي	-9.85628
▁تعالى	-9.85738
▁الطبية	-9.85765
▁الكتلة	-9.85818
▁الأثرية	-9.85859
▁خطاب	-9.85879
▁العرض	-9.85889
سار	-9.85992
▁ولذلك	-9.85994
▁m	-9.8601
رسل	-9.86014
▁مهم	-9.86145
▁الاتصال	-9.86192
باع	-9.86201
5%	-9.86218
▁شاه	-9.86233
42	-9.86247
▁سل	-9.86342
حرب	-9.86371
ّع	-9.86381
▁أنشأ	-9.86384
▁قادة	-9.86417
▁التجاري	-9.86421
▁المو	-9.86421
▁المئة	-9.86444
▁الحجاز	-9.86538
▁عباس	-9.86588
▁تح	-9.86593
ne	-9.866
▁الأحزاب	-9.86669
▁وص	-9.86749
▁واستمر	-9.86777
▁فكانت	-9.86783
َّى	-9.86785
رمز	-9.86813
▁الياباني	-9.8684
▁المعرفة	-9.86857
▁العرش	-9.86883
غور	-9.86971
31	-9.87004
▁المحافظة	-9.87041
راك	-9.87062
▁ربيع	-9.87077
▁صحيح	-9.87089
حركة	-9.87132
▁البرامج	-9.87136
فكر	-9.87167
▁الرياضة	-9.87206
▁دورة	-9.87211
راس	-9.87228
▁الشيعة	-9.87255
لوك	-9.87311
▁أسرة	-9.8739
▁لبعض	-9.87408
▁الجامعات	-9.87503
▁جسم	-9.87517
يتي	-9.87587
▁بعضهم	-9.87705
▁°	-9.87784
▁اضطر	-9.87801
▁وأرسل	-9.87805
هار	-9.87806
▁الفرق	-9.87965
▁للمدينة	-9.87974
05	-9.88011
▁استعمال	-9.88029
▁تتبع	-9.8809
▁تصميم	-9.88123
تاريخ	-9.88173
▁عمان	-9.88184
▁الليل	-9.88192
جون	-9.88195
ظهر	-9.88232
▁بهدف	-9.88294
َل	-9.88366
▁الأمور	-9.88379
جمعية	-9.88448
عل	-9.88467
▁وذكر	-9.88477
▁نقص	-9.88547
ـ/	-9.88576
▁غالبًا	-9.88578
▁النص	-9.88581
▁المتعلق	-9.8859
▁المدنية	-9.88608
▁المعارضة	-9.88666
خن	-9.88671
▁حا	-9.88675
▁النشاط	-9.88738
ثور	-9.88747
▁تكوين	-9.88765
▁انتقال	-9.88768
li	-9.88799
سجل	-9.88825
▁شهد	-9.88828
▁مق	-9.88828
▁المساحة	-9.88856
▁مادة	-9.88881
ِهِ	-9.88923
71	-9.88976
▁نادي	-9.88983
▁آب	-9.88997
وصل	-9.89016
▁وابن	-9.89017
▁إقامة	-9.89034
▁ليبيا	-9.89052
▁سوني	-9.89101
▁فرع	-9.89106
▁ويبلغ	-9.8911
روي	-9.89117
فير	-9.89181
▁عهده	-9.89233
▁سيطرة	-9.89251
▁1945	-9.89284
▁النجم	-9.8936
▁تتميز	-9.89414
تشابه	-9.89448
ليس	-9.89452
▁الثقافي	-9.89458
▁الدنمارك	-9.89509
▁حلف	-9.8953
▁هجوم	-9.89536
▁بينهما	-9.8955
▁الصناعات	-9.89659
سلط	-9.89671
جير	-9.89673
▁صدر	-9.89674
v	-9.89708
▁=	-9.89737
▁انتخاب	-9.8975
▁مثال	-9.89773
يح	-9.89789
صنع	-9.89794
▁اسمها	-9.89802
نزل	-9.89822
▁الأسد	-9.89874
▁الفلسفة	-9.90029
▁الهجوم	-9.90046
ياء	-9.90067
لر	-9.90087
▁يتعلق	-9.90117
▁الأرضية	-9.90138
اقة	-9.90151
مجلة	-9.90194
وة	-9.90195
▁المهاجرين	-9.90205
▁الذاتي	-9.90214
▁السلة	-9.9022
▁العراقي	-9.90256
درس	-9.9029
▁كثافة	-9.90301
▁كافة	-9.90302
▁جمال	-9.90307
▁1992	-9.90315
▁جندي	-9.90323
▁المخ	-9.90394
▁هزيمة	-9.90396
▁المغناطيسي	-9.90507
▁الدو	-9.90519
ادة	-9.90519
▁جل	-9.90534
▁الشيوعي	-9.90642
بلغ	-9.90657
▁قرر	-9.90658
زة	-9.90679
▁تتم	-9.90706
▁احتلال	-9.90756
▁رسالة	-9.90759
▁وعن	-9.90766
▁الوسط	-9.90767
▁سيف	-9.90789
▁وتشمل	-9.90828
▁المستخدمة	-9.90871
▁دائرة	-9.90898
el	-9.90947
دراسة	-9.90972
درجة	-9.90981
▁أور	-9.91113
ضرب	-9.91146
▁t	-9.91235
▁يعيش	-9.91245
▁أحداث	-9.91254
داع	-9.91332
▁موجودة	-9.9136
▁حصار	-9.91394
▁سلطان	-9.91427
تسع	-9.91433
▁الطبقة	-9.91459
جع	-9.91481
="4	-9.91511
▁حماية	-9.91533
▁السل	-9.91545
▁مسلم	-9.91622
▁وبدأ	-9.91649
▁باستثناء	-9.91712
▁النووية	-9.91731
la	-9.91748
▁مراكز	-9.91777
رأس	-9.91826
▁شركات	-9.9184
▁مالك	-9.91843
سيا	-9.91869
▁التحتية	-9.91872
▁أتباع	-9.91912
قوا	-9.91937
▁أقام	-9.91995
▁الذهب	-9.92022
▁بيد	-9.92045
th	-9.92058
▁حوض	-9.92082
▁عامل	-9.92181
ابي	-9.92196
▁الجماعة	-9.92226
▁الإصابة	-9.9224
▁زار	-9.92266
حافظ	-9.92279
▁ولو	-9.92286
خبر	-9.92307
▁أخ	-9.92347
▁المحيطة	-9.92379
▁فرد	-9.92387
▁عمرو	-9.92421
▁بهذه	-9.92462
▁بلدان	-9.92485
حات	-9.92508
▁القصر	-9.92519
▁تحالف	-9.92556
▁القسطنطينية	-9.92663
▁الهندية	-9.92691
▁وظل	-9.92701
▁وعلم	-9.92713
▁وأما	-9.92723
صة	-9.92728
▁الحجر	-9.92754
بوب	-9.92792
▁والج	-9.92896
▁تركيب	-9.92898
▁1995	-9.92946
▁أينشتاين	-9.92956
▁مقاومة	-9.92976
▁الحين	-9.93011
نسب	-9.93052
▁بري	-9.93083
تار	-9.93131
وشي	-9.93151
دمج	-9.93168
صلح	-9.93176
▁الديانة	-9.93207
▁2017	-9.93228
▁الكهرباء	-9.93285
▁لديه	-9.93315
رار	-9.93325
▁النصوص	-9.934
ضة	-9.93414
▁التحالف	-9.93418
▁وعدم	-9.93434
▁منح	-9.93445
حرق	-9.93469
▁العضوية	-9.9348
كب	-9.93492
قام	-9.93497
▁نشأت	-9.93544
هور	-9.93595
▁200	-9.93599
▁غر	-9.93605
مارس	-9.93731
▁الجهاد	-9.93792
▁جدًا	-9.93835
="6	-9.9384
▁الخدمة	-9.93848
رحل	-9.93876
▁وقيل	-9.93896
▁قوانين	-9.93935
▁بابل	-9.93966
▁المسيح	-9.9397
▁الجر	-9.94029
▁مسار	-9.94076
at	-9.94093
▁مستويات	-9.94118
نظم	-9.94143
باس	-9.94149
حكم	-9.94183
جامعة	-9.94244
نمو	-9.94258
▁الطلاب	-9.94272
▁بمثاب	-9.94278
▁عدا	-9.94296
▁المجتمعات	-9.94296
نيا	-9.94297
▁الأسلحة	-9.94334
▁حفظ	-9.94337
وار	-9.94353
زع	-9.9451
▁خطر	-9.94539
▁زالت	-9.94565
▁ـ	-9.94594
▁سمح	-9.94617
شتهر	-9.94624
برمج	-9.94644
▁الخطاب	-9.94657
▁رئيسية	-9.94693
حمل	-9.94694
▁البن	-9.94712
دّ	-9.94742
▁أهمها	-9.9481
▁التأثير	-9.94815
▁طوال	-9.9484
حاول	-9.94854
="7	-9.94892
▁الكريم	-9.94927
▁رأى	-9.94937
▁صد	-9.9495
مُ	-9.95007
دق	-9.95083
▁1998	-9.95097
▁شك	-9.95128
▁التراث	-9.95138
▁سبع	-9.95223
▁أصدر	-9.95282
▁توفر	-9.95295
▁متحف	-9.95315
▁تشغيل	-9.95357
فس	-9.95362
▁البوسنة	-9.9537
▁أح	-9.95374
▁الهندي	-9.95383
▁الاستعمار	-9.95391
▁فيروس	-9.95417
قرب	-9.9542
َّل	-9.9546
▁المركزي	-9.95478
▁ضغط	-9.95526
الف	-9.95527
▁فيصل	-9.95535
▁الدراسة	-9.95543
▁المواقع	-9.95546
▁تغطي	-9.95557
▁وغ	-9.95578
▁العراقية	-9.95631
نى	-9.95685
▁0	-9.95803
وص	-9.95807
يبة	-9.95839
عرب	-9.95847
خو	-9.95888
لحق	-9.95892
ديد	-9.95906
▁تغير	-9.95934
▁العمارة	-9.95939
▁فضل	-9.95951
حام	-9.95954
عامل	-9.95961
▁العشر	-9.95963
▁المصدر	-9.95997
حداث	-9.96026
▁موطن	-9.96032
▁النباتات	-9.96098
اقت	-9.96134
▁رمضان	-9.96177
▁الرأي	-9.96226
هي	-9.96263
▁مدة	-9.96303
▁تدخل	-9.96382
▁الأجنبية	-9.96398
▁المستقبل	-9.96405
▁لاحقًا	-9.9643
▁الغذائية	-9.96432
▁وط	-9.96432
هاجم	-9.96438
▁الأرثوذكسية	-9.96479
رى	-9.96483
te	-9.966
جار	-9.9663
▁يضم	-9.96702
تابع	-9.96784
▁هولندا	-9.96833
راق	-9.96869
لقي	-9.96961
▁اختلاف	-9.96965
َّع	-9.96991
▁تست	-9.96993
نف	-9.97058
▁الورق	-9.9706
وتو	-9.97084
دفع	-9.97089
سلم	-9.97119
دود	-9.97176
▁الموارد	-9.97203
▁القول	-9.97273
▁بول	-9.97316
غني	-9.9733
▁تجارية	-9.97358
▁ويندوز	-9.97389
▁يستطيع	-9.97391
▁العرقية	-9.97454
▁معرفة	-9.97492
▁الحب	-9.97501
▁الفنون	-9.97503
▁العثمانيين	-9.97528
▁التيار	-9.97534
▁القومية	-9.9757
رمي	-9.97655
▁الحي	-9.97696
▁يقدر	-9.97809
▁الفاتيكان	-9.97841
▁تناول	-9.97842
▁سهل	-9.97843
▁للأمم	-9.97845
▁دقيقة	-9.97882
اشي	-9.97928
▁المسيحي	-9.97944
واجهة	-9.98
كاف	-9.98044
▁زاد	-9.98049
▁وتعد	-9.98076
▁الكنائس	-9.98112
▁وجدت	-9.98113
الغريغوري	-9.98121
ّف	-9.98136
▁الدعم	-9.98146
ليف	-9.98169
▁المُوافق	-9.98172
▁لويس	-9.98201
▁مش	-9.9825
▁وقف	-9.98262
علن	-9.98282
▁الضرائب	-9.98402
▁الدروز	-9.9842
حن	-9.98441
▁أكسيد	-9.98448
▁بحث	-9.98453
غان	-9.98533
▁شخصية	-9.98558
وحد	-9.98563
زوج	-9.98579
▁متنوعة	-9.98607
▁أسباب	-9.98638
▁البيت	-9.98675
▁وعاد	-9.98693
▁القر	-9.9872
)"	-9.98764
شية	-9.9877
▁الصومال	-9.98808
▁فقام	-9.98814
ينغ	-9.98818
كشف	-9.98852
▁الديني	-9.98913
كول	-9.98915
▁السويس	-9.98952
رسم	-9.98974
▁الأصليين	-9.98975
▁تراجع	-9.9899
▁قواعد	-9.98992
▁اقترح	-9.98993
▁مواد	-9.99042
▁أطول	-9.9909
▁القناة	-9.99152
▁تبقى	-9.99195
▁الفرد	-9.9921
▁الحج	-9.99218
▁بوجود	-9.99224
باني	-9.99234
09	-9.99259
▁ملوك	-9.99273
▁سبعة	-9.99377
▁أصحاب	-9.99508
04	-9.99577
زان	-9.99582
▁الشيوعية	-9.99599
06	-9.99624
يتو	-9.9966
تقويم	-9.99684
▁سكن	-9.99699
▁معين	-9.99709
▁الدوري	-9.99727
نفذ	-9.99833
▁سلم	-9.99837
▁للإ	-9.99859
▁للعمل	-9.9986
حارب	-9.99862
شب	-9.99952
▁تحرير	-9.99957
▁رئاسة	-9.99957
وء	-9.99964
▁الأمراض	-9.99977
▁الحالات	-10.0001
▁الرعاية	-10.0002
كتب	-10.0007
▁الكبيسة	-10.001
فاد	-10.0011
▁1996	-10.0012
شف	-10.0013
▁حمل	-10.0014
▁المؤرخين	-10.0018
▁ثقافة	-10.0019
▁آر	-10.002
▁دليل	-10.0023
▁الخارجي	-10.0026
شهر	-10.0039
تقى	-10.0045
▁ثمانية	-10.0045
▁بالرغم	-10.005
it	-10.0052
الذي	-10.0057
جيب	-10.0063
▁البشري	-10.0063
بيا	-10.0064
سمى	-10.0068
▁علاج	-10.0069
ادية	-10.0069
▁يعيشون	-10.007
▁2014	-10.0077
َّم	-10.0082
▁وأمر	-10.0082
إقامة	-10.0084
na	-10.009
▁التر	-10.0092
▁عاماً	-10.0094
▁حرف	-10.0098
▁وفر	-10.0098
سكو	-10.0098
▁نهائي	-10.0098
▁المشتركة	-10.0106
َّد	-10.011
▁التقليدي	-10.0111
▁إليهم	-10.0114
▁توحيد	-10.0114
▁الرياض	-10.0116
▁الكل	-10.0116
▁بث	-10.0116
كاد	-10.0119
▁نيويورك	-10.0119
st	-10.0124
روا	-10.0124
صنف	-10.0126
▁تتضمن	-10.0127
مركز	-10.0133
عان	-10.0134
▁جاءت	-10.0135
كرم	-10.0146
له	-10.0149
▁خلالها	-10.0156
▁الحفاظ	-10.0158
▁الكهربائي	-10.0161
▁e	-10.0162
حا	-10.0163
ربما	-10.0166
▁القدرة	-10.0167
▁عا	-10.0169
▁لك	-10.017
▁المركبات	-10.0171
▁المسرح	-10.0172
ماء	-10.0173
▁مذهب	-10.0173
شعر	-10.0174
▁الإمارات	-10.0184
راع	-10.0193
▁الفنية	-10.0194
سف	-10.0195
ستون	-10.0197
")	-10.0202
قم	-10.0206
▁بطولة	-10.0207
ّن	-10.0211
▁الميت	-10.0212
ٍّ	-10.0212
▁الأتراك	-10.0213
▁1993	-10.0214
▁حاليًا	-10.0217
هب	-10.0217
▁بقية	-10.0223
▁بس	-10.0225
▁مجالات	-10.0226
▁نصر	-10.0227
نية	-10.0232
عز	-10.0241
خرج	-10.0242
▁خليج	-10.0242
▁تجاه	-10.0246
▁الأفريقي	-10.025
غار	-10.0257
▁2015	-10.0257
▁خطة	-10.0258
سود	-10.0264
▁بان	-10.0264
مح	-10.0265
▁الأماكن	-10.0272
ma	-10.0274
▁أمن	-10.0278
انس	-10.0278
خدم	-10.0284
▁المك	-10.0286
▁المواطنين	-10.0286
لمان	-10.0289
▁تيمية	-10.0293
وسط	-10.0297
▁الحصار	-10.0298
▁القيام	-10.0298
▁أقرب	-10.0306
▁مشكلة	-10.0307
▁الخلايا	-10.0319
▁ويقول	-10.0324
حاكم	-10.0327
▁أفغانستان	-10.033
▁ملحوظ	-10.033
ظم	-10.0331
▁مؤلف	-10.0331
▁خلدون	-10.0331
▁الصليبية	-10.0331
صار	-10.0336
▁أخذت	-10.0343
▁السكانية	-10.0344
▁يتحدث	-10.0348
▁التعبير	-10.0353
▁الوطن	-10.0359
▁اللون	-10.036
▁الظروف	-10.0361
▁2018	-10.0365
▁سلام	-10.0368
▁خدمات	-10.0374
▁البرتغال	-10.0376
لقب	-10.038
▁رب	-10.0382
▁يسوع	-10.0388
ديم	-10.039
▁الإقليمية	-10.0398
هرب	-10.0405
▁الأسر	-10.0407
يكي	-10.0408
▁لأي	-10.0409
▁حافظ	-10.0409
▁قل	-10.0414
▁بلدية	-10.0419
▁زعيم	-10.0424
▁والولايات	-10.0427
▁العين	-10.0428
تعلم	-10.0434
▁المهمة	-10.0435
وضع	-10.0435
▁اعت	-10.0437
▁القطبية	-10.0438
تك	-10.0438
سوس	-10.044
▁المرأة	-10.0444
خير	-10.0449
▁بولندا	-10.045
▁العالية	-10.0451
▁رام	-10.0452
▁تخل	-10.0454
طبق	-10.0457
▁والز	-10.0457
▁وأو	-10.0458
▁العاملة	-10.0459
▁كاملة	-10.0459
▁جرى	-10.0461
▁أعماله	-10.0464
▁رسم	-10.0465
جيش	-10.0465
▁وضعت	-10.0471
▁الاستخدام	-10.048
عتبر	-10.048
▁القادة	-10.0481
▁العثور	-10.0483
▁ترتيب	-10.0483
▁الاشتراكي	-10.0484
▁مسرح	-10.0498
صا	-10.05
▁الإداري	-10.0501
▁الأفريقية	-10.0501
ساعد	-10.0503
زيم	-10.0508
▁اليوناني	-10.0508
▁الصحابة	-10.0509
▁الجغرافيا	-10.0512
▁صنع	-10.0512
وحدة	-10.0513
▁الفلسطينيين	-10.0521
▁موسم	-10.0523
▁كيف	-10.0524
الا	-10.0527
▁كيلو	-10.0528
▁المزيد	-10.0537
جت	-10.0542
▁التو	-10.0542
▁اثنين	-10.0542
▁الأساس	-10.0542
ولة	-10.0548
▁الحجم	-10.0555
عام	-10.0556
▁يع	-10.0558
ثار	-10.0558
▁مسؤول	-10.0558
▁سجل	-10.0562
باط	-10.0563
▁هاجر	-10.0564
▁مس	-10.0565
لان	-10.0566
كال	-10.0569
▁وأم	-10.0571
▁الصلاة	-10.0572
▁الري	-10.0577
يني	-10.0597
▁مبكر	-10.0601
التي	-10.0602
▁السكك	-10.0607
▁معروفة	-10.0608
ذب	-10.0613
▁دم	-10.0614
غرب	-10.0618
يغ	-10.0624
▁الرابعة	-10.0626
▁الطوائف	-10.0631
ڤ	-10.0636
وتر	-10.0639
روج	-10.0642
بني	-10.0643
ئت	-10.0648
▁البسيطة	-10.0648
▁الإعلان	-10.0649
▁يصبح	-10.0652
▁الساحلية	-10.0661
▁بشدة	-10.0662
خلف	-10.0664
تبادل	-10.0665
▁يوما	-10.0666
رمان	-10.0667
▁يُعرف	-10.0669
▁قريب	-10.067
شاعر	-10.0676
▁انه	-10.0677
▁مدير	-10.0677
▁تس	-10.0681
▁ببعض	-10.0683
▁الهدف	-10.0683
الب	-10.0683
▁قصة	-10.0685
زيد	-10.0689
ربط	-10.0691
▁القرار	-10.0696
▁احت	-10.07
▁جنرال	-10.0702
عهد	-10.0703
03	-10.0704
سة	-10.0705
▁عادةً	-10.0708
▁تنتج	-10.0708
▁التنمية	-10.0708
▁ماركس	-10.0711
حظ	-10.0713
▁ممثل	-10.0719
▁حصلت	-10.0722
▁1960	-10.0724
▁القانوني	-10.0725
▁قبرص	-10.0728
▁كندا	-10.073
خطوط	-10.0731
▁الدنا	-10.0738
▁2010،	-10.074
▁إمارة	-10.0744
▁الاجتماع	-10.0747
باد	-10.0748
فون	-10.0751
▁يأتي	-10.0754
▁إسطنبول	-10.0754
عش	-10.0754
▁لكي	-10.0757
إمكانية	-10.0759
▁الشاعر	-10.0761
▁1980	-10.0762
ريح	-10.0762
▁وتقع	-10.0763
▁سعد	-10.0763
جور	-10.0768
▁بنحو	-10.077
▁لديهم	-10.077
▁500	-10.0775
▁التطور	-10.0776
▁مباشر	-10.078
▁أع	-10.0781
قاع	-10.0783
▁نيجيريا	-10.0783
▁جعفر	-10.0784
▁يختلف	-10.0784
▁السوداء	-10.0788
راي	-10.079
كرة	-10.079
mi	-10.0793
ِّي	-10.0793
يًّا	-10.0794
▁عرب	-10.0794
▁حار	-10.0796
قصر	-10.0796
07	-10.0799
▁كونغ	-10.0802
لاك	-10.0804
▁والط	-10.081
▁تعدّ	-10.0811
ياس	-10.0812
▁الحقوق	-10.0818
▁أعقاب	-10.0819
▁الجبل	-10.0822
▁الفر	-10.0823
▁توزيع	-10.0825
▁السلاجقة	-10.0826
يض	-10.0839
▁الفيروس	-10.0841
▁حينها	-10.0844
▁والص	-10.0846
▁بالكامل	-10.085
▁القرون	-10.085
▁الشبكة	-10.0858
ورا	-10.0859
▁مانديلا	-10.0861
ِّر	-10.0862
▁الزكاة	-10.0863
وكو	-10.0865
برز	-10.0869
▁كلها	-10.087
▁السطح	-10.0874
▁الآخرين	-10.0876
▁الحضرية	-10.0879
إزالة	-10.088
▁حرية	-10.0881
▁حضر	-10.0881
▁ويوجد	-10.0883
▁الإسباني	-10.0883
▁جامع	-10.0886
فارق	-10.0888
▁السماء	-10.0889
▁المتوقع	-10.0891
شاهد	-10.0891
▁وعبد	-10.0891
تدفق	-10.0893
▁نظم	-10.0895
▁البحري	-10.0897
▁الأولية	-10.0897
▁الفتح	-10.09
▁القلب	-10.0902
لَّا	-10.0907
▁يقارب	-10.0908
سلام	-10.0909
▁1989	-10.0909
▁نق	-10.0913
بَ	-10.0913
▁ظلت	-10.0914
▁يبدأ	-10.0926
▁والغرب	-10.093
صال	-10.0932
▁قادر	-10.0933
سية	-10.0933
▁للحصول	-10.094
▁of	-10.094
▁النطاق	-10.0941
▁كُل	-10.0943
▁السير	-10.0944
أخذ	-10.0945
08	-10.0945
▁2020	-10.0946
▁كلم	-10.0948
▁الأسنان	-10.0951
تقدم	-10.0954
▁مخ	-10.0957
▁موجود	-10.0957
▁بيل	-10.0958
ندر	-10.0958
▁وبدأت	-10.0958
▁الإصلاح	-10.0959
▁الغالب	-10.096
▁للس	-10.0962
▁الطائرة	-10.0962
▁وإذا	-10.0963
▁الكيمياء	-10.0963
▁إف	-10.0968
▁الصوديوم	-10.0971
▁النهضة	-10.0971
▁ثابت	-10.0975
▁قدمت	-10.0977
▁("	-10.0981
▁لعب	-10.0983
▁معدلات	-10.0986
شارك	-10.0988
▁أهداف	-10.0989
51	-10.0989
▁الجنسي	-10.0993
▁الطعام	-10.0996
وادي	-10.0996
▁البي	-10.0997
▁جين	-10.0997
▁النرويج	-10.1002
▁فاست	-10.1003
عمر	-10.1005
▁محددة	-10.1006
▁الفرس	-10.101
خان	-10.1011
صيب	-10.1012
▁البرنامج	-10.1013
▁الإنسانية	-10.1013
▁الصيني	-10.1016
▁سمع	-10.102
▁الشخص	-10.1024
▁تتمتع	-10.1024
▁ورئيس	-10.1025
▁المبكرة	-10.1029
لون	-10.1031
▁الشريعة	-10.1031
▁منزل	-10.1034
▁موتورز	-10.1034
▁التحليل	-10.1034
موقع	-10.1034
▁1997	-10.1035
قانون	-10.1036
▁الطائرات	-10.1036
▁تحليل	-10.1037
▁الأمة	-10.1038
جمال	-10.1039
▁حفل	-10.1044
كاتب	-10.1045
▁النقد	-10.1047
▁حو	-10.105
تشر	-10.1051
▁صح	-10.1054
▁الجنس	-10.1056
▁سك	-10.1058
▁رسمي	-10.1058
ّه	-10.1058
دعي	-10.1061
▁وله	-10.1062
▁الأخضر	-10.107
▁ام	-10.107
▁بير	-10.1073
▁ومصر	-10.1075
▁صار	-10.1077
صن	-10.1079
▁الداخل	-10.108
▁تعديل	-10.1084
ce	-10.1086
▁التنظيم	-10.1089
ni	-10.1089
ورو	-10.1095
صالح	-10.1096
▁عامة	-10.1099
▁عم	-10.1103
ماس	-10.1105
يتا	-10.1107
▁عمره	-10.1107
▁الإغريق	-10.1107
▁الأر	-10.1111
▁فإنّ	-10.1113
يلة	-10.1114
▁الباحثين	-10.1114
▁وفرنسا	-10.112
رياض	-10.1122
▁أعاد	-10.1127
يتش	-10.1128
قاء	-10.113
رافق	-10.113
▁سلالة	-10.113
▁دوري	-10.1134
▁وحدات	-10.1138
▁معنى	-10.114
▁لاعب	-10.1142
▁الأعظم	-10.1143
▁دولية	-10.1145
كوس	-10.1152
▁صحيفة	-10.1154
داخل	-10.1161
1,	-10.1166
01	-10.1168
▁المطاف	-10.1171
▁الإي	-10.1174
▁الذ	-10.1174
▁السوفيتية	-10.1175
▁شديدة	-10.1181
▁لاحقاً	-10.1183
▁300	-10.1184
▁عربي	-10.119
يلا	-10.1194
▁الإذاعة	-10.1194
امة	-10.1194
▁موضع	-10.1195
ظل	-10.1205
▁تنقسم	-10.1207
لى	-10.1209
▁العباسي	-10.1211
▁سانت	-10.1212
▁وكتب	-10.1215
▁أستراليا	-10.1217
ُو	-10.1219
▁بيع	-10.1221
صيد	-10.1222
▁سام	-10.1223
▁المنتجات	-10.1223
راح	-10.1231
▁القرنين	-10.1236
▁النصر	-10.1237
▁اقتصادي	-10.1238
ودي	-10.1241
قض	-10.1242
مون	-10.1242
▁الثانوية	-10.1243
▁قديمة	-10.1243
▁قمة	-10.1258
▁ثنائي	-10.1258
▁والهند	-10.1259
▁فأرسل	-10.1261
▁السجن	-10.1263
▁البيض	-10.1264
ساك	-10.1267
▁أج	-10.1271
▁ويعتقد	-10.1273
▁فروع	-10.1273
إي	-10.128
▁نُ	-10.1283
▁رُ	-10.1286
عزل	-10.129
▁للح	-10.1293
▁إرسال	-10.1293
▁فترات	-10.1297
عيش	-10.1302
اضطراب	-10.1307
يرو	-10.1325
▁وو	-10.1328
ref	-10.1328
▁الصهيونية	-10.1329
▁اليهودي	-10.1332
سند	-10.1333
▁بلدة	-10.1335
ing	-10.1342
▁يحصل	-10.1342
▁التقدم	-10.1343
▁الصناعي	-10.1345
▁وث	-10.1347
▁الربيع	-10.1354
▁باتجاه	-10.1357
▁أفكار	-10.1358
▁70	-10.1358
▁تاريخها	-10.136
▁الأس	-10.1364
▁المقام	-10.1365
لاحق	-10.1365
▁الصيد	-10.1372
انج	-10.1375
▁فيروز	-10.1376
▁الآلهة	-10.138
بنى	-10.1384
▁مجرد	-10.139
زرع	-10.1393
▁وبسبب	-10.1394
جهاد	-10.1394
▁كبيراً	-10.1396
فان	-10.1398
طف	-10.1402
قصد	-10.1403
▁المختار	-10.1403
شعب	-10.1408
▁العائلة	-10.1409
▁هيكل	-10.141
▁الخامسة	-10.141
▁المباني	-10.1419
▁قرابة	-10.1421
▁استخدمت	-10.1422
شركة	-10.1423
▁الفيلم	-10.1427
كية	-10.1434
▁أماكن	-10.1437
▁الحيوية	-10.1439
حدود	-10.144
▁الرشيد	-10.144
صاحب	-10.1448
فصيل	-10.145
▁التعامل	-10.1451
مدينة	-10.1452
▁أيدي	-10.1454
▁المؤرخ	-10.1462
فضل	-10.1464
ضار	-10.1465
▁العقد	-10.1469
▁سفر	-10.1471
▁وأد	-10.1475
تغير	-10.1478
▁العقل	-10.1479
خار	-10.1487
▁الخام	-10.1487
▁عمله	-10.1488
▁1956	-10.1489
▁1975	-10.149
شاء	-10.1494
▁المقابل	-10.1497
يار	-10.1499
العديد	-10.15
▁الفارسية	-10.1502
▁الأقصى	-10.1503
▁حدثت	-10.1504
نفس	-10.1509
▁زال	-10.151
▁البالغ	-10.1511
ُّون	-10.1517
▁عُثمان	-10.1517
عمال	-10.152
▁شؤون	-10.1521
▁المنظمات	-10.1521
▁الأفلام	-10.1521
▁مسافة	-10.1522
▁استول	-10.1523
▁تحوي	-10.1523
▁80	-10.1528
▁الحاضر	-10.1529
تواصل	-10.1529
تسو	-10.153
▁خال	-10.1534
▁وقبل	-10.1537
ايت	-10.1538
▁معلومات	-10.1539
▁بالإ	-10.1539
كمل	-10.1544
▁طبيعي	-10.1545
شغل	-10.1548
تطور	-10.1549
▁لجميع	-10.1554
▁تابع	-10.1556
▁1918	-10.1557
▁المائية	-10.1557
▁كرو	-10.1558
كلي	-10.156
▁تصبح	-10.1562
يتين	-10.1563
▁&	-10.1566
▁دينية	-10.1566
▁الوقود	-10.157
▁الدور	-10.1575
▁وج	-10.1578
▁الجماعات	-10.158
▁الذهبي	-10.1582
فهم	-10.1583
▁مراحل	-10.1588
▁قوله	-10.1591
▁الحقبة	-10.1591
▁الأنهار	-10.1594
▁زوجته	-10.1594
الة	-10.1596
روض	-10.1597
لد	-10.1601
▁شُ	-10.1602
زيل	-10.1605
▁المؤلف	-10.1606
▁الجاذبية	-10.161
▁تق	-10.1611
▁سفينة	-10.1619
▁الموت	-10.1621
▁تأتي	-10.1622
▁مدريد	-10.1623
▁مقدار	-10.1628
تيار	-10.163
ur	-10.1634
▁توجه	-10.1635
▁الكائنات	-10.1638
▁الجنرال	-10.1639
شهد	-10.1642
عسكر	-10.1642
▁النمط	-10.1648
▁يدخل	-10.1648
▁الزراعي	-10.1648
▁النحو	-10.1651
▁هام	-10.1651
▁المكتب	-10.1654
▁الكلمات	-10.1656
طرد	-10.1657
ti	-10.1662
▁غي	-10.1664
بناء	-10.1665
▁المصريين	-10.1672
صيف	-10.1674
▁d	-10.1675
▁الهيكل	-10.1679
▁طبيعة	-10.1681
شيد	-10.1681
▁الروسي	-10.1681
أرض	-10.1682
دول	-10.1687
▁مشاكل	-10.1689
يعة	-10.1693
ia	-10.1694
سنة	-10.1702
وين	-10.1704
▁k	-10.1705
صدق	-10.1707
▁الدعوة	-10.1708
▁صف	-10.1713
▁الموضوع	-10.1713
زمن	-10.1715
▁العلوي	-10.1717
▁طائرة	-10.1717
se	-10.1718
جرى	-10.1723
▁المساجد	-10.1723
▁البوذية	-10.1723
▁1973	-10.1724
▁قتال	-10.1728
مكن	-10.1729
▁مُراد	-10.1732
ol	-10.1733
▁ساعد	-10.1734
نين	-10.1738
to	-10.1743
▁إنّ	-10.1743
اوية	-10.1747
▁غا	-10.1749
ta	-10.1751
▁تزوج	-10.1756
▁ديزني	-10.1757
▁الزواج	-10.1759
بحث	-10.1763
▁ساهم	-10.1764
تكرر	-10.1766
اور	-10.1769
▁الأسماء	-10.1772
▁مستقل	-10.1773
▁بالفعل	-10.1777
▁السلطنة	-10.1782
▁تبدأ	-10.1782
درا	-10.1783
°	-10.1785
وكا	-10.1785
▁خصائص	-10.1789
▁وأخذ	-10.179
▁الأرجنتين	-10.1791
▁المعادن	-10.1791
ستقبل	-10.1798
خيل	-10.1801
خي	-10.1802
نان	-10.1802
no	-10.1802
▁الإشارة	-10.1804
▁سريع	-10.1806
بلد	-10.1806
▁التق	-10.181
راعي	-10.1813
ندو	-10.1814
يسي	-10.1815
▁بتاريخ	-10.1817
▁سميت	-10.1821
صبح	-10.1823
▁قول	-10.1823
▁الحجري	-10.1823
ّم	-10.1825
▁وجهة	-10.1826
▁والذين	-10.1833
ترا	-10.1835
دخل	-10.1839
▁وعد	-10.1839
▁فهرنهايت	-10.184
▁وأبو	-10.1841
▁مئات	-10.1842
▁الألومنيوم	-10.1845
▁جنو	-10.1848
▁إيزيس	-10.185
▁السوفييتي	-10.185
تأثير	-10.1855
▁العُثمانيين	-10.1856
▁مستخدم	-10.1859
▁القائمة	-10.1861
حاج	-10.1862
▁الأجانب	-10.1863
▁المنورة	-10.1865
حكام	-10.1866
▁ببناء	-10.187
▁الأنظمة	-10.1878
خراج	-10.1879
▁صيف	-10.188
▁القطط	-10.188
طريق	-10.1891
ميز	-10.1892
▁جهود	-10.1894
▁القضايا	-10.1895
▁الحمراء	-10.1897
▁وزن	-10.1897
▁التقويم	-10.1899
ساب	-10.19
▁وترك	-10.19
▁اتخذ	-10.1901
هجوم	-10.1901
▁تقول	-10.1902
سوق	-10.1903
▁الجمهور	-10.1906
راض	-10.1912
▁وإنما	-10.1915
▁يوحنا	-10.1917
اتٍ	-10.1917
▁كلية	-10.1918
▁الرقم	-10.1919
▁مسيحي	-10.1921
▁الصور	-10.1921
بيان	-10.1924
▁بطول	-10.1927
تأثر	-10.1928
َيْ	-10.193
▁صفر	-10.1933
▁ينتج	-10.1936
بحر	-10.1936
▁اقتصادية	-10.1938
▁الوجود	-10.1942
صوم	-10.1942
▁تذكر	-10.1944
▁سويسرا	-10.1945
▁دُ	-10.1946
رغب	-10.1947
▁ورو	-10.1947
▁انهيار	-10.195
▁وف	-10.1951
حديث	-10.1951
قطاع	-10.1956
▁وأكبر	-10.1956
ليل	-10.1957
▁سب	-10.1958
فرق	-10.1959
▁جورجيا	-10.1961
▁خل	-10.1962
▁واقع	-10.1963
sa	-10.1968
▁مجمع	-10.1977
لوث	-10.1977
مدرسة	-10.1979
▁أشار	-10.198
ره	-10.1988
▁وضم	-10.1993
وافق	-10.1995
▁المنطق	-10.1998
إجماع	-10.1998
▁الكندي	-10.2003
▁وشمال	-10.2003
▁المستخدم	-10.2004
▁مار	-10.2005
▁الجغرافي	-10.2007
▁الصدر	-10.2008
رفض	-10.2009
▁الآلاف	-10.2015
جامع	-10.2015
عارض	-10.2018
▁سمي	-10.2021
▁الجن	-10.2026
دب	-10.2027
▁تؤدي	-10.2028
أمر	-10.203
انو	-10.2033
▁ومُ	-10.2037
▁العلاء	-10.2038
نبي	-10.2038
مستخدم	-10.2041
▁انقلاب	-10.2043
▁خليفة	-10.2053
▁تطورت	-10.2054
أمير	-10.2056
تنا	-10.2061
▁والعراق	-10.2062
▁المقاطعات	-10.2067
▁الرجل	-10.2069
▁الاستقرار	-10.207
▁حروب	-10.2072
ستعمل	-10.2073
▁الأرمن	-10.2078
لغات	-10.2081
▁1920	-10.2083
▁انتصار	-10.2084
▁1000	-10.2085
▁الشهيرة	-10.2089
واد	-10.2098
▁والأدب	-10.2098
▁يمر	-10.2102
▁والتعليم	-10.2103
▁الأدنى	-10.2103
▁وأعلن	-10.2108
دني	-10.2108
▁وأُ	-10.2117
▁كاليفورنيا	-10.2117
▁حكمه	-10.2121
▁معهم	-10.2123
▁أسر	-10.2123
وجب	-10.2125
بث	-10.2127
رُ	-10.2128
▁إنسان	-10.2129
هيئة	-10.2133
▁(4	-10.2139
▁نيسان	-10.2141
▁التقاليد	-10.2143
▁أش	-10.2144
بسط	-10.2147
ِم	-10.2147
▁انضم	-10.2148
▁اي	-10.2149
▁قرون	-10.2155
▁ممارسة	-10.2158
▁التفاعل	-10.2159
=5	-10.216
▁المصطلح	-10.2162
موت	-10.2162
فرض	-10.2163
▁الفيروسات	-10.2165
▁ورغم	-10.2166
تلك	-10.2167
▁البحار	-10.217
▁تجاري	-10.2171
▁سيطر	-10.2174
▁البخاري	-10.2174
ِر	-10.2175
▁مبدأ	-10.218
▁أمثال	-10.2184
الس	-10.2184
▁دورًا	-10.2191
نشر	-10.2192
نيو	-10.2193
نهار	-10.2195
خطط	-10.2198
ضح	-10.2204
▁النموذج	-10.2205
تخصص	-10.2208
lo	-10.2209
▁الاعتراف	-10.221
▁فنزويلا	-10.221
▁المشاكل	-10.221
▁الهادئ	-10.221
▁للع	-10.221
▁أعظم	-10.221
▁الكثافة	-10.2211
▁التوالي	-10.2216
▁والشرق	-10.222
▁وأطلق	-10.2222
▁أذربيجان	-10.223
▁التقسيم	-10.2231
▁اللبنانية	-10.2238
الق	-10.2241
مثال	-10.2241
▁تعيش	-10.2242
▁الاتفاق	-10.2243
▁ليكون	-10.2243
▁الجسيمات	-10.2247
▁منخفضة	-10.2252
قاط	-10.2257
▁كونها	-10.226
▁لكنَّ	-10.226
▁الإسبان	-10.226
ch	-10.2261
▁يعدّ	-10.2262
▁الأحياء	-10.2263
▁المدني	-10.2263
▁العودة	-10.2269
▁جلب	-10.2269
▁النتائج	-10.227
▁الأيام	-10.2271
وكس	-10.2276
▁شيخ	-10.2276
ريش	-10.2279
رفع	-10.2279
▁النهائي	-10.228
▁الأيوبي	-10.2281
▁موت	-10.2283
▁النواب	-10.2283
▁1970	-10.2283
تحكم	-10.2284
▁منصبه	-10.2285
▁المنخفضة	-10.2288
دخول	-10.2289
▁مقاتل	-10.2293
="3	-10.2293
▁القيمة	-10.2294
▁الكامل	-10.2296
ناه	-10.2296
▁احتلت	-10.2297
▁يمتد	-10.2298
▁اليومية	-10.231
حالة	-10.231
▁بح	-10.2312
▁وطنية	-10.2313
سيف	-10.2317
أم	-10.2318
▁1988	-10.2319
▁جيوش	-10.232
▁يدعى	-10.2322
حكومة	-10.2326
▁ويكون	-10.2329
▁شهرة	-10.2331
▁نجح	-10.2331
ُس	-10.2331
▁المعبد	-10.2332
▁صراع	-10.2334
▁كرا	-10.2339
تدخل	-10.2341
▁سبق	-10.2344
▁أزمة	-10.2345
▁طبقات	-10.2346
عصر	-10.2347
▁إمبراطورية	-10.2352
▁400	-10.2353
▁تدمير	-10.2353
▁الأثر	-10.2357
▁عُمان	-10.2357
▁الحاجة	-10.2358
مول	-10.2358
▁أك	-10.236
ربة	-10.2363
▁الأصوات	-10.2369
▁كثيرًا	-10.2369
▁منع	-10.238
خلق	-10.2382
▁حص	-10.2386
il	-10.2387
▁برا	-10.2391
▁الإقليم	-10.2395
▁مالي	-10.2395
حار	-10.2404
▁الكا	-10.2407
▁فلما	-10.241
▁الزي	-10.2412
▁المعدنية	-10.2415
▁الوجه	-10.2416
▁والبحر	-10.2421
تحول	-10.2422
رجح	-10.2427
▁رسميًا	-10.2427
خلص	-10.2434
▁وأهم	-10.2435
▁احتمال	-10.2446
▁القرى	-10.2449
▁ونتيجة	-10.2451
فريق	-10.2455
فات	-10.2455
▁امتداد	-10.2458
▁الغزنوي	-10.2462
▁مسعود	-10.2463
▁الطرفين	-10.2464
▁النواة	-10.2465
▁انتهى	-10.2466
غزو	-10.2468
▁the	-10.247
▁عكا	-10.2476
▁المغ	-10.2477
عمق	-10.248
فعل	-10.2485
▁المراكز	-10.2487
02	-10.249
هذه	-10.2491
▁جسر	-10.2493
مجلس	-10.2498
▁بعنوان	-10.2499
▁الجيوش	-10.2499
▁الحقيقي	-10.25
كسر	-10.2501
سقط	-10.2503
▁الأفراد	-10.2505
▁الشريف	-10.2509
▁كجزء	-10.2509
▁بنفس	-10.251
▁تسمح	-10.2511
صير	-10.2513
▁استمرار	-10.2514
▁البار	-10.2521
ثبت	-10.2522
▁توفير	-10.2524
سط	-10.2525
▁الجلد	-10.2527
ريف	-10.2534
▁بالمدينة	-10.2535
▁للقوات	-10.2537
▁رسوم	-10.2537
▁وبحلول	-10.2538
شخص	-10.2539
▁الاتصالات	-10.2543
▁إنجلترا	-10.2544
▁الشاي	-10.2546
▁أمّ	-10.2546
شيخ	-10.2546
عوا	-10.2547
الك	-10.2549
▁والغ	-10.2551
▁تفاعل	-10.2555
▁التوراة	-10.2556
خضع	-10.2557
طبيعة	-10.2558
▁أبيه	-10.2559
ونية	-10.2562
ديس	-10.257
▁أثار	-10.2573
▁بإنشاء	-10.2573
▁ساعات	-10.2573
▁السائل	-10.2574
▁شارع	-10.2576
▁هرم	-10.2576
▁السريع	-10.2578
▁طبق	-10.2579
ثي	-10.2588
صاف	-10.2588
وارد	-10.2593
علوم	-10.2595
باحث	-10.2595
تفاعل	-10.2606
▁طب	-10.2607
أبو	-10.2608
▁جنود	-10.2609
▁بقايا	-10.261
▁محاولات	-10.261
▁محكمة	-10.261
جبر	-10.2611
انات	-10.2612
▁مغ	-10.2613
▁شن	-10.2614
ُور	-10.2617
جزء	-10.2617
نيل	-10.2618
▁أرمينيا	-10.2619
برت	-10.2621
▁الدار	-10.2622
▁الخر	-10.2623
َد	-10.2623
عاصمة	-10.2624
▁وز	-10.2624
▁عالمية	-10.2626
قع	-10.2628
▁تأثر	-10.263
▁حقق	-10.2634
▁المعالم	-10.2635
▁الجبلية	-10.2638
▁مال	-10.2638
▁المل	-10.2639
▁تاريخية	-10.2641
▁يحكم	-10.2642
▁35	-10.2645
▁وتت	-10.2647
▁المحتمل	-10.2647
▁النحاس	-10.265
▁الأموال	-10.265
▁الصغير	-10.2651
نصر	-10.2652
▁شمس	-10.2655
▁محلية	-10.2657
»)	-10.2657
▁الخطوط	-10.266
روف	-10.2665
▁تدفق	-10.2668
▁الصباح	-10.2669
قاف	-10.2672
▁بنفسه	-10.2674
▁حمص	-10.2674
▁المستقلة	-10.2678
كلف	-10.2678
لعدة	-10.2679
▁سقطت	-10.268
1%	-10.2681
▁آن	-10.2681
▁عل	-10.2682
▁تميز	-10.2683
▁الإلكترونية	-10.2686
▁الأشجار	-10.2686
تنسيق	-10.2686
قبض	-10.2689
▁القلعة	-10.2689
▁وسيلة	-10.2695
بدأ	-10.2696
يء	-10.2696
▁السنين	-10.2697
▁الفقر	-10.271
▁de	-10.271
▁نسخة	-10.2714
▁مدارس	-10.2714
سعى	-10.2717
افتراض	-10.2721
▁أوكرانيا	-10.2722
▁الرسوم	-10.2722
▁الوليد	-10.2723
تعرض	-10.2723
▁التعريف	-10.2726
▁آخرون	-10.2726
▁اس	-10.273
▁التحكم	-10.2731
طبع	-10.2734
شرق	-10.2735
واقع	-10.2736
▁كميات	-10.2739
▁الجمهوري	-10.2744
▁عثر	-10.2744
▁برج	-10.2747
j	-10.275
نادي	-10.2751
▁للحكومة	-10.2753
▁ولما	-10.2754
▁العثمانيون	-10.2756
▁ولايات	-10.2756
▁الحقيقة	-10.2757
▁الإيمان	-10.276
▁الهجري	-10.2761
▁قرن	-10.2762
▁ضخمة	-10.2762
▁فإذا	-10.2763
▁اعتمد	-10.2769
▁العنف	-10.2771
▁الاتجاه	-10.2781
2%	-10.2781
▁سلاح	-10.2782
▁الحدث	-10.2785
والد	-10.2786
▁قصير	-10.2787
اؤه	-10.2789
▁سفن	-10.279
▁بعث	-10.2792
▁الحرية	-10.2792
▁معاوية	-10.2793
جري	-10.2797
ابات	-10.2797
▁الإمارة	-10.2798
▁الظواهر	-10.2798
▁فنلندا	-10.2799
▁مريم	-10.2801
▁بيان	-10.2801
▁انتشرت	-10.2801
▁ويبدو	-10.2802
▁القطب	-10.2812
▁أسلوب	-10.2812
نظرية	-10.2813
ركب	-10.2816
▁متزايد	-10.2818
▁بوصفه	-10.2818
▁الأجهزة	-10.2823
ّق	-10.2825
فراد	-10.2829
حور	-10.2836
▁1974	-10.2837
▁ذر	-10.2841
▁وأول	-10.2846
▁التاريخي	-10.2848
▁سيكون	-10.285
▁(15	-10.2853
ؤمن	-10.2855
▁عبادة	-10.2855
▁الفلكية	-10.2857
▁جزءاً	-10.2859
▁الطبقات	-10.2859
▁سد	-10.2861
▁وحصل	-10.2861
et	-10.2862
▁الشاه	-10.2867
▁الأمين	-10.2868
▁ماء	-10.2873
▁الشيوخ	-10.2873
بشر	-10.2878
▁عودة	-10.2878
▁الصوت	-10.2879
▁بلوتو	-10.288
▁بحرية	-10.288
توجه	-10.2882
ستا	-10.2889
ازي	-10.2889
▁تقدير	-10.2891
▁w	-10.2891
ضغط	-10.2893
▁منهما	-10.2896
▁يجد	-10.2898
▁تنتشر	-10.29
▁آخرين	-10.2902
▁الدينِ	-10.2904
غاز	-10.2906
جزيرة	-10.2909
▁2016	-10.291
▁إشارة	-10.291
▁مساحتها	-10.291
لغ	-10.2911
▁الدخل	-10.2915
▁سيد	-10.2917
محاولة	-10.2923
▁تملك	-10.2924
▁المنزل	-10.2926
رث	-10.2932
▁ممن	-10.2933
▁العوامل	-10.2937
ساو	-10.2938
▁العظم	-10.294
ظاهر	-10.2942
أر	-10.2943
آل	-10.2944
▁فع	-10.2947
▁الأسماك	-10.2949
▁المعارك	-10.295
▁1979	-10.2951
▁الفكر	-10.2953
لزم	-10.2954
نشأ	-10.2958
="5	-10.2958
صادر	-10.2959
▁الرياضي	-10.297
طوب	-10.297
طن	-10.2971
▁هن	-10.2974
▁الموجود	-10.2975
َّف	-10.2975
▁اختار	-10.2975
ثيو	-10.2978
▁قابل	-10.2981
ُق	-10.2982
توافق	-10.2988
▁يشمل	-10.2989
▁الأجسام	-10.2989
▁الرادون	-10.2989
نتقل	-10.2991
سمي	-10.2996
▁جيد	-10.2999
▁طبيعية	-10.2999
است	-10.3002
رح	-10.3002
▁السنوي	-10.3003
دَّ	-10.3005
جعل	-10.3015
▁معهد	-10.3023
▁قدرة	-10.3025
ضعف	-10.3027
▁تربط	-10.3028
▁شروط	-10.3028
▁خبر	-10.3029
▁مشتركة	-10.3029
مجموعة	-10.303
▁بالله	-10.3031
صلاح	-10.3031
▁غيرها	-10.3032
8%	-10.3034
ذو	-10.3036
▁ونظر	-10.3036
ألف	-10.3038
تحالف	-10.304
▁المائة	-10.3043
▁طور	-10.3046
ab	-10.3048
ضمن	-10.3054
وتي	-10.3055
▁القاضي	-10.3055
▁المحاكم	-10.3061
يدة	-10.3061
▁الانتداب	-10.3065
▁اللاحقة	-10.3066
▁1947	-10.3067
▁موسكو	-10.3068
▁المعاهدة	-10.3079
▁شكلت	-10.308
▁هاجم	-10.3081
نسي	-10.3081
▁تدعى	-10.3082
▁الحضارات	-10.3083
▁صباح	-10.3083
▁تجارة	-10.3084
▁المنصب	-10.309
▁الصرب	-10.3093
قرار	-10.3097
▁التوسع	-10.3097
▁التنفيذية	-10.3099
▁الانقلاب	-10.3101
ينو	-10.3101
▁الإرهاب	-10.3101
سطو	-10.3102
▁التشريعية	-10.3104
▁ليوناردو	-10.3104
▁البلقان	-10.3105
▁زو	-10.3105
▁الأسواق	-10.3106
▁الكيميائي	-10.3107
رِ	-10.3108
▁اخت	-10.3108
▁الأردنية	-10.3111
▁حضارة	-10.3112
قلب	-10.3117
▁أقر	-10.3118
▁العنصر	-10.3118
▁لتصبح	-10.3121
▁مهرجان	-10.3121
▁تحتل	-10.3127
▁وهما	-10.3129
▁أنصار	-10.3133
صوف	-10.3134
3%	-10.3137
يِّ	-10.3137
▁قديم	-10.3137
كث	-10.3138
غلب	-10.3139
▁كثيراً	-10.3139
خذ	-10.3142
▁عرفات	-10.3142
▁والا	-10.3144
▁زيارة	-10.3145
▁تتألف	-10.3145
شرب	-10.3147
▁أقسام	-10.3147
▁السعودي	-10.3151
وسع	-10.3159
▁عددًا	-10.3168
▁فرقة	-10.3168
▁البو	-10.3169
▁تمثيل	-10.3172
▁جرت	-10.3174
▁تعرضت	-10.3181
▁بنت	-10.3182
رجم	-10.3183
▁الباردة	-10.3185
▁طراز	-10.3185
ed	-10.3192
▁تمامًا	-10.3193
ذي	-10.3196
▁النازي	-10.3197
▁الجليد	-10.3199
▁تقل	-10.3199
▁يملك	-10.3199
ناظر	-10.3205
▁سجن	-10.3205
▁المشاركة	-10.321
▁المجالات	-10.3211
▁القياس	-10.3211
سرعان	-10.3213
▁يتميز	-10.3218
▁لفظ	-10.3218
▁قار	-10.322
▁البرمجيات	-10.3222
▁اختراع	-10.3224
ونات	-10.3227
نحن	-10.3228
سَ	-10.323
▁السوفياتي	-10.323
تطبيق	-10.3231
َّن	-10.3233
ائف	-10.3233
="1	-10.3235
▁اللبناني	-10.3238
me	-10.3244
▁يؤمن	-10.3245
ss	-10.3247
os	-10.3247
▁المباشر	-10.3248
أذن	-10.3254
▁بنو	-10.3256
▁محطات	-10.3257
لندا	-10.326
▁شرقي	-10.3263
▁كلمات	-10.3263
▁الأصول	-10.327
افة	-10.3271
▁روح	-10.3271
▁المطبخ	-10.3277
▁الصخور	-10.3277
غز	-10.3281
▁سابق	-10.3282
▁قيد	-10.3283
▁عزل	-10.3284
▁ألا	-10.3284
▁النزاع	-10.3286
▁ووفق	-10.3287
كيو	-10.3287
▁الأزمة	-10.3289
▁ظاهرة	-10.3291
▁لتكون	-10.3291
▁المشرق	-10.3291
▁حمض	-10.3292
▁الكاثوليك	-10.3293
مالك	-10.3297
▁القضية	-10.3298
حدد	-10.33
▁الصورة	-10.33
▁الذكور	-10.3302
▁وزراء	-10.3302
▁1958	-10.3303
▁يجري	-10.3303
دَ	-10.3304
سيد	-10.3305
▁أهلها	-10.3307
نجد	-10.3309
▁ونقل	-10.3314
▁الناصرة	-10.3315
▁كن	-10.3318
▁زيد	-10.3326
▁القدماء	-10.3326
▁النمساوية	-10.3331
▁جال	-10.3331
▁فكر	-10.3331
-18	-10.3332
▁الأك	-10.3337
▁السر	-10.3337
▁اللازمة	-10.3339
▁ألاسكا	-10.3341
▁1941	-10.3343
▁الحركات	-10.3343
▁محور	-10.3347
ليت	-10.3348
فك	-10.3349
دولة	-10.335
دُ	-10.3354
▁أق	-10.3355
▁يحتاج	-10.3356
▁الفلكي	-10.3358
ينية	-10.336
▁الاحتفال	-10.3364
▁الذرة	-10.3372
▁الاهتمام	-10.3377
▁وأل	-10.3377
▁أطراف	-10.3381
راث	-10.3382
ba	-10.3382
▁رصد	-10.3386
راجع	-10.3386
تداول	-10.3388
▁مبارك	-10.3393
▁لتلك	-10.3395
so	-10.3397
▁لاحقا	-10.3397
▁تسع	-10.3398
كوب	-10.3399
▁زي	-10.3399
جلد	-10.3402
▁كبيرا	-10.3404
أل	-10.3409
خارج	-10.3411
تقدير	-10.3412
▁v	-10.3415
▁ظروف	-10.3421
توزع	-10.3421
co	-10.3422
▁يقدم	-10.3423
لّ	-10.3423
كتاب	-10.3423
="8	-10.3428
▁شملت	-10.3433
▁بناءً	-10.3437
▁(5	-10.3437
▁أَ	-10.3441
ريم	-10.3443
▁قائم	-10.3443
▁كشف	-10.3444
▁المقر	-10.3446
▁الانتقال	-10.3449
طعم	-10.3449
▁البدو	-10.345
▁البيزنطيين	-10.345
مختلف	-10.3454
▁الشخصيات	-10.346
قن	-10.346
▁فما	-10.3463
▁الصفر	-10.3463
es	-10.3465
وهم	-10.3465
▁جوزيف	-10.3466
واصل	-10.3467
▁سيناء	-10.3468
ريا	-10.3469
▁التنوع	-10.3469
▁توقيع	-10.3475
▁السلاح	-10.3481
2,	-10.3483
لج	-10.3483
▁بقيت	-10.3484
▁n	-10.3485
▁ويست	-10.3487
▁التابع	-10.3491
▁المشتري	-10.3494
ثم	-10.3499
▁الخل	-10.3499
َر	-10.35
▁الليثيوم	-10.3502
▁الروايات	-10.3502
▁1962	-10.3504
▁الإطلاق	-10.3504
ورية	-10.3506
▁ليصبح	-10.3507
▁القانونية	-10.3507
▁الملوك	-10.351
قان	-10.3515
نسبة	-10.3515
▁جيشه	-10.3518
▁ذوي	-10.3521
أنصار	-10.3522
▁الزئبق	-10.3523
▁غادر	-10.3525
▁الاتحادية	-10.3526
▁كارل	-10.3534
بروتين	-10.3535
▁الأقاليم	-10.3543
مكافحة	-10.3543
▁ربط	-10.3544
▁1917	-10.3545
رعاية	-10.3545
de	-10.3545
▁القراءة	-10.3545
▁وظهر	-10.3547
ng	-10.3548
نيس	-10.3549
▁جدة	-10.3553
▁أمور	-10.3554
▁التربة	-10.3554
as	-10.3554
▁دير	-10.3554
▁قوى	-10.3557
تبلغ	-10.3559
عاء	-10.3559
كثير	-10.3562
▁يتبع	-10.3564
لوم	-10.3565
▁مطلع	-10.3569
▁لأكثر	-10.357
ولو	-10.3571
▁حم	-10.3572
▁الطرف	-10.3573
▁أظهرت	-10.3574
إس	-10.3576
▁الصحف	-10.3577
▁مؤشر	-10.3577
▁دولي	-10.3578
▁رسمياً	-10.3581
▁بوليفار	-10.3584
▁تدريب	-10.3584
▁لإنتاج	-10.3584
▁1963	-10.3586
▁1949	-10.3586
▁المسافة	-10.3587
▁السويدية	-10.359
▁المؤ	-10.3595
▁وقامت	-10.3596
توس	-10.3596
▁الدي	-10.36
▁150	-10.3601
▁أسبوع	-10.3603
جاج	-10.3604
▁ذا	-10.3606
▁الدكتور	-10.3606
▁تحسين	-10.3607
▁ومركز	-10.3607
▁وثيقة	-10.3611
▁توسع	-10.3613
فرة	-10.3614
un	-10.3614
mo	-10.3616
▁والأم	-10.3617
تري	-10.3624
▁كبرى	-10.3625
▁يدعو	-10.3625
▁1964	-10.3626
▁بيانات	-10.3626
▁هزم	-10.3627
افا	-10.3634
ساء	-10.364
▁لابن	-10.3642
▁خروج	-10.3642
▁ومنهم	-10.3648
دوا	-10.3649
▁درس	-10.3649
تعاون	-10.3651
▁الحرف	-10.3657
▁نمط	-10.3664
▁هل	-10.3664
عكس	-10.3667
▁مواجهة	-10.367
▁عظيم	-10.3671
▁الفضل	-10.3673
▁مساعد	-10.3675
▁حقيقة	-10.368
▁بفضل	-10.3681
▁ترتبط	-10.3687
بوت	-10.3688
▁الصالح	-10.3689
▁محلي	-10.369
▁الممالك	-10.3693
▁يستعمل	-10.3694
fe	-10.3696
▁مواطن	-10.3697
▁التصوير	-10.3697
سد	-10.37
▁المُت	-10.37
ذرة	-10.3701
درو	-10.3704
▁وتع	-10.3706
▁دراسته	-10.3707
▁1982	-10.3708
▁ارتباط	-10.3709
▁الأمريكيين	-10.3711
ظهور	-10.3716
▁الروس	-10.3719
▁قيل	-10.3723
مشاركة	-10.3727
▁سيارة	-10.3727
رجل	-10.3727
▁45	-10.3728
▁هجمات	-10.3728
▁مارك	-10.373
▁مماثلة	-10.373
▁الأغلبية	-10.373
▁أولاد	-10.3734
اكا	-10.3735
▁الإصلاحات	-10.3737
كنيسة	-10.3737
▁عددهم	-10.3738
▁ومنظمة	-10.3738
▁مرتفعة	-10.3739
سلك	-10.374
ميد	-10.3741
عادة	-10.3744
▁بدوره	-10.3746
▁أحيانًا	-10.3746
صوص	-10.3748
▁1939	-10.375
▁إثيوبيا	-10.375
▁الفصل	-10.3754
توجد	-10.3755
حملة	-10.3761
▁ودخل	-10.3762
تير	-10.3763
▁الصلب	-10.3768
عقب	-10.377
▁استقلالها	-10.3772
▁إستونيا	-10.3775
▁سور	-10.3779
▁العُ	-10.3781
▁العبرية	-10.3783
ديو	-10.3792
▁آذار	-10.3793
▁تركيز	-10.3793
▁دل	-10.3795
تعدد	-10.3797
حضارة	-10.3797
▁الخمسة	-10.3802
وكي	-10.3804
▁وتضم	-10.3807
▁يُع	-10.3809
▁يعادل	-10.3811
فاعل	-10.3811
▁والمعروف	-10.3813
إيطالي	-10.3814
▁الحم	-10.3817
غم	-10.3818
▁افتتاح	-10.382
▁بضعة	-10.382
بورغ	-10.3821
▁الفت	-10.3825
أنواع	-10.3828
▁السريعة	-10.3832
▁المفاوضات	-10.3832
▁o	-10.3833
▁البصرة	-10.3833
▁الوهاب	-10.3834
▁مقياس	-10.3834
▁يقل	-10.384
▁دمج	-10.384
▁أقوى	-10.3841
إدارة	-10.3842
َّق	-10.3847
ارا	-10.3847
تفق	-10.3847
سياس	-10.3848
أجهزة	-10.3849
▁التقنية	-10.3849
▁وطلب	-10.3853
تُ	-10.3854
نر	-10.3858
سلاف	-10.386
▁التطبيقات	-10.3861
ضى	-10.3864
▁والثقافة	-10.3867
حصل	-10.3868
هدف	-10.3868
لبي	-10.3869
▁عشرين	-10.387
وبي	-10.387
▁مات	-10.3871
▁1981	-10.3876
جميع	-10.3878
تمتع	-10.3879
لغة	-10.3881
▁الهامة	-10.3885
▁تلا	-10.3886
▁واضحة	-10.3886
مسجد	-10.389
سيطرة	-10.389
يتهم	-10.3892
▁الصحافة	-10.3893
▁ميز	-10.3894
▁الأشياء	-10.3894
كوف	-10.3895
▁المطر	-10.3895
▁ينص	-10.3895
▁تنوع	-10.3896
▁وتكون	-10.3897
▁كتابات	-10.3897
عادل	-10.3902
إمبراطور	-10.3904
▁التلفزيون	-10.3904
درك	-10.3905
▁باكو	-10.3906
▁المؤرخون	-10.3909
▁مور	-10.3914
▁اليد	-10.3916
▁أُخرى	-10.3916
ليم	-10.3917
▁الوزير	-10.3917
▁1971	-10.3918
▁1961	-10.3918
▁السفر	-10.3918
▁الحماية	-10.392
تعامل	-10.3925
▁رئيسًا	-10.3925
▁ذاته	-10.3929
▁ويعد	-10.3929
▁مير	-10.3931
▁(17	-10.3933
▁المنتخب	-10.3933
▁اجتماع	-10.3933
فى	-10.3935
ذان	-10.3935
▁الإلكترونات	-10.3936
طريقة	-10.3939
▁يتمتع	-10.3942
▁الأخ	-10.3942
▁مستشفى	-10.3943
▁الفور	-10.3943
دوم	-10.3944
باك	-10.3944
▁دوران	-10.3951
▁والصين	-10.3951
▁الإنجليزي	-10.3951
▁يسبب	-10.3952
قف	-10.3954
درع	-10.3955
▁تزيد	-10.3956
▁أمين	-10.3957
▁بات	-10.3957
▁استقر	-10.3957
▁تسجيل	-10.3959
أهل	-10.396
▁1965	-10.3961
عق	-10.3961
▁أدنى	-10.3963
▁يريد	-10.3969
▁الهولندية	-10.3972
▁قبول	-10.3973
▁تيار	-10.3973
▁رؤية	-10.3973
▁المعمارية	-10.3975
▁باي	-10.3975
▁البرتغالية	-10.3979
▁عادت	-10.3981
▁غالباً	-10.3982
▁عوامل	-10.3985
▁تقنية	-10.3985
▁مرت	-10.3986
▁i	-10.399
شاب	-10.3991
خيم	-10.3992
▁النازية	-10.3992
▁السكر	-10.3996
▁امرأة	-10.3996
▁السياحية	-10.3999
صناعة	-10.4001
▁نيو	-10.4001
▁بقوة	-10.4002
▁النيجر	-10.4005
ليون	-10.4008
▁أز	-10.401
▁لمدينة	-10.4013
▁الشهير	-10.4017
كسب	-10.4018
▁جيدة	-10.402
▁الرا	-10.4027
▁90	-10.4028
▁منتج	-10.4031
▁مقعد	-10.4037
▁جعلت	-10.404
▁1.	-10.404
جذب	-10.4043
▁كرواتيا	-10.4044
تشجيع	-10.4044
▁الأفكار	-10.4044
▁32	-10.4045
▁1972	-10.4045
صورة	-10.4051
لانتهاء	-10.4052
إعلان	-10.4055
▁ثلث	-10.4056
2)	-10.4057
▁بمدينة	-10.4059
كُ	-10.4062
▁خسر	-10.4064
▁الزيتون	-10.4065
▁واستمرت	-10.4069
قناة	-10.4069
جام	-10.4069
▁المعدل	-10.407
▁لحم	-10.4074
▁التن	-10.4075
▁مصطفى	-10.4076
كتشف	-10.4079
▁أغلبية	-10.408
▁بجانب	-10.408
▁حفر	-10.4084
▁زيت	-10.4088
الد	-10.4092
▁النسبة	-10.4094
▁تقدر	-10.4094
▁هونغ	-10.4095
تور	-10.4097
▁المغربية	-10.4097
▁محيط	-10.4102
عظ	-10.4105
▁دائم	-10.4112
مكتب	-10.4113
▁أبواب	-10.4114
▁أنقرة	-10.4115
▁بروسيا	-10.4117
ريان	-10.4118
▁فون	-10.412
▁اتصال	-10.4121
شعار	-10.4122
▁كوبا	-10.4123
▁فئة	-10.4124
▁العدو	-10.4127
▁الطيران	-10.4131
▁الطلب	-10.4135
حيل	-10.4137
التهاب	-10.4137
أول	-10.4138
▁معالم	-10.4139
▁القواعد	-10.414
▁كولومبيا	-10.4144
▁رشيد	-10.4144
▁قضية	-10.4144
برامج	-10.4147
▁أدرك	-10.415
▁أطلقت	-10.415
▁الشديد	-10.4153
هذا	-10.4155
رصد	-10.4155
▁صديق	-10.4156
تمركز	-10.4157
سطح	-10.416
▁يربط	-10.4161
▁حدد	-10.4162
▁التركي	-10.4163
▁بدلا	-10.4164
-35	-10.4168
مود	-10.4172
حيث	-10.4172
إله	-10.4175
خصص	-10.4175
▁مسألة	-10.4175
▁محدودة	-10.4176
▁عدّة	-10.4178
4%	-10.4178
▁نقاط	-10.4181
▁الشؤون	-10.4182
▁وإي	-10.4189
▁البصري	-10.4189
▁عد	-10.419
▁أعيد	-10.4195
▁وطني	-10.4199
▁in	-10.4201
▁قوم	-10.4202
▁السبع	-10.4203
▁الرأس	-10.4204
▁الأسباب	-10.4205
ناقش	-10.4205
رتبة	-10.4205
▁والجماعة	-10.4211
نوس	-10.4213
▁المز	-10.4213
▁ونشر	-10.4214
يزيد	-10.4215
اعي	-10.4215
▁وسوريا	-10.4217
▁للجيش	-10.4217
▁زياد	-10.4218
▁رحلة	-10.422
▁ياسين	-10.422
▁%	-10.4221
لشركة	-10.4222
▁والو	-10.4225
سيس	-10.4226
▁نواة	-10.4226
▁والعلوم	-10.4226
▁عنوان	-10.4231
▁الصحي	-10.4232
▁ذكرت	-10.4232
تميز	-10.4236
▁اللاجئين	-10.4238
قوى	-10.4239
▁مكتبة	-10.424
▁وإعادة	-10.4241
تردد	-10.4244
▁الملح	-10.4246
▁صلاة	-10.4248
▁الرواية	-10.4249
▁الأديان	-10.425
▁ليلة	-10.425
▁القرية	-10.4253
شتر	-10.4254
▁مشترك	-10.4258
▁والاتحاد	-10.4259
انة	-10.426
▁اتخاذ	-10.426
▁الفلبين	-10.426
▁للاتحاد	-10.426
ثقل	-10.4261
▁الحربية	-10.4262
▁كاف	-10.4268
▁بفعل	-10.427
▁تموز	-10.4271
▁الألف	-10.4276
▁إصلاح	-10.4279
َب	-10.4284
▁لعبة	-10.4285
▁ووصل	-10.4288
ِن	-10.4289
▁أساسية	-10.4294
تناول	-10.4294
▁بأي	-10.4295
▁وبقي	-10.4298
▁ولعل	-10.4299
▁لاتفيا	-10.4304
إنقاذ	-10.4305
▁الهيئة	-10.4305
▁طنجة	-10.4306
▁محاكم	-10.4307
▁كيفية	-10.4307
▁الخشب	-10.4307
▁القادمة	-10.431
▁عارض	-10.4311
▁سيطرت	-10.4312
100	-10.4313
جلس	-10.4314
▁الحص	-10.4315
شرك	-10.4315
كوك	-10.4316
تجار	-10.4318
تناسب	-10.4319
وض	-10.432
كيل	-10.432
لاق	-10.4324
عودة	-10.4328
▁الإسلاميَّة	-10.4331
▁العقيدة	-10.4334
▁الأل	-10.4334
غلي	-10.4335
▁الإكوادور	-10.4335
▁تماما	-10.4337
▁العبيد	-10.434
▁التجار	-10.4346
▁الأُمراء	-10.4348
▁نابلس	-10.4348
▁وعشرين	-10.4348
▁للعديد	-10.4349
آثار	-10.4351
▁الدنيا	-10.4351
▁1940	-10.4351
▁يعقوب	-10.4352
▁الأكاديمية	-10.4354
▁مكون	-10.4356
3,	-10.436
▁والمُ	-10.4362
نص	-10.4364
▁الموسيقي	-10.4365
يدات	-10.437
▁حديثة	-10.4371
حصن	-10.4375
▁يهود	-10.4377
طاعة	-10.4379
▁رق	-10.4382
جاد	-10.4383
▁أنّه	-10.4384
رود	-10.4387
▁رسميا	-10.4388
▁التُرك	-10.439
▁السامية	-10.439
▁والهرسك	-10.4392
▁مشاريع	-10.4392
▁الكوفة	-10.4393
▁وحل	-10.4394
▁إسلامية	-10.4394
عالج	-10.4395
الح	-10.4397
▁آدم	-10.4398
▁تُعرف	-10.4399
متوسط	-10.44
ُد	-10.44
▁السلوك	-10.4401
▁الرابطة	-10.4402
▁الألفية	-10.4403
▁عرش	-10.4404
▁الأحوال	-10.4405
َت	-10.4408
▁باست	-10.441
▁المهدي	-10.4416
▁وجاء	-10.4416
▁تدور	-10.4417
▁الدر	-10.4424
▁أصدرت	-10.4424
▁خارجية	-10.4427
▁نظرا	-10.4427
▁دام	-10.443
جنوب	-10.4431
▁الجل	-10.4431
جوز	-10.4433
▁والدول	-10.4433
▁المعاصرة	-10.4436
فاوض	-10.4436
بالغ	-10.4438
▁فرانس	-10.444
▁السرعة	-10.4441
▁فوز	-10.4442
▁بدايات	-10.4442
▁القضائية	-10.4444
لع	-10.4445
,5	-10.4451
▁تجاوز	-10.4453
قبول	-10.4456
▁ومنطقة	-10.4457
استقلال	-10.446
▁بيرو	-10.4466
راقب	-10.4468
▁الحيوي	-10.447
بصر	-10.447
حين	-10.447
منح	-10.4473
▁ووصف	-10.4476
▁العدل	-10.4476
ّات	-10.4477
ئية	-10.448
يتان	-10.4482
▁واستطاع	-10.4483
▁1976	-10.4483
▁شعار	-10.4486
▁ودول	-10.4486
▁عيسى	-10.4489
.5%	-10.4489
▁مكانة	-10.4495
▁الزبير	-10.4497
▁عصبة	-10.4498
▁قم	-10.4499
طال	-10.4499
ريز	-10.45
▁وقر	-10.4501
فلسطين	-10.4503
▁مَ	-10.4503
▁هرب	-10.4503
عتاد	-10.4503
دعوة	-10.4504
▁مطالب	-10.4504
▁القائم	-10.451
نح	-10.4512
شط	-10.4514
▁مهد	-10.4514
▁الأوروبيين	-10.4516
شراف	-10.4516
▁الفا	-10.4516
▁الحية	-10.4517
▁قرطاج	-10.4519
▁ممكن	-10.4521
▁أيلول	-10.4523
)؛	-10.4523
▁المجمع	-10.4526
▁يحيى	-10.4527
▁المتعددة	-10.4527
▁يدل	-10.4528
▁يهودي	-10.4529
▁معظمها	-10.4529
▁وسلم	-10.4531
▁أموال	-10.4532
اكي	-10.4534
ho	-10.4542
▁شائع	-10.4544
▁(10	-10.4546
▁الأع	-10.4546
▁طرد	-10.4547
▁نشرت	-10.4547
▁بدورها	-10.4552
▁لعدد	-10.4555
▁كثيرا	-10.4558
لس	-10.4559
▁اشتهر	-10.4561
▁لادن	-10.4561
▁خطط	-10.4565
▁بولس	-10.4568
▁المملوكي	-10.457
▁الأطراف	-10.4572
صاص	-10.4572
▁الحكومات	-10.4573
▁الفرنسيين	-10.4573
دنا	-10.4574
▁استعادة	-10.4575
▁نسبياً	-10.4578
▁وبشكل	-10.4582
▁والاست	-10.4582
▁تعلم	-10.4583
َلَ	-10.4588
▁الابتدائية	-10.4589
▁الحاكمة	-10.4591
نتاج	-10.4591
كاثوليك	-10.4591
▁الريحاني	-10.4592
▁الموسيقية	-10.4594
▁منفصلة	-10.4595
▁بَابِل	-10.4597
▁بمساعدة	-10.4597
رتب	-10.4601
▁جول	-10.4602
▁ساحة	-10.4602
▁لوحة	-10.4604
▁الفارسي	-10.461
▁نار	-10.461
▁الفكرة	-10.4611
▁غار	-10.4612
▁منهج	-10.4613
▁التصويت	-10.4616
▁الشافعي	-10.4616
▁القيصر	-10.4617
▁الصعب	-10.4618
▁أفلام	-10.4618
▁1987	-10.4619
▁بنيت	-10.4623
▁اندلعت	-10.4629
▁تعزيز	-10.463
غلق	-10.4633
▁تخ	-10.4637
إسكندر	-10.4637
اتفاق	-10.4638
إعدام	-10.4638
▁تويوتا	-10.4639
بود	-10.464
▁أوستن	-10.4643
▁ضوء	-10.4651
▁معالجة	-10.4653
▁واجه	-10.4657
حاق	-10.4658
▁حظر	-10.466
▁كلينتون	-10.4662
شاد	-10.4662
▁بسهولة	-10.4662
متياز	-10.4662
▁معتدل	-10.4663
▁العاص	-10.4665
▁1950	-10.4666
▁الجزائرية	-10.4667
▁بالذكر	-10.4668
محمد	-10.4671
ka	-10.4672
▁استعمل	-10.4677
يَّات	-10.4678
▁بالغ	-10.4679
قيمة	-10.4679
▁جزئي	-10.4682
ميكانيكا	-10.4683
▁ويرجع	-10.4683
▁شغل	-10.4684
▁تعطي	-10.4688
ُوا	-10.4692
▁الإصدار	-10.4694
▁كونه	-10.4695
am	-10.4696
▁نصوص	-10.47
توسع	-10.4701
ُع	-10.4702
أنظمة	-10.4704
)|	-10.4704
▁وجامعة	-10.4705
▁أغ	-10.4706
▁وتحديد	-10.4708
▁تنتمي	-10.4708
انيين	-10.4717
▁هار	-10.4717
▁للحرب	-10.4718
والي	-10.4726
▁الأدبية	-10.4728
▁الليبي	-10.4728
▁أدب	-10.4729
▁الصوم	-10.473
نجم	-10.4731
▁الفو	-10.4732
▁عُرف	-10.4737
معركة	-10.4739
▁صرح	-10.4739
▁عالي	-10.474
▁الجبر	-10.474
▁المجرية	-10.4745
▁مطلق	-10.4748
▁مز	-10.4749
▁مهام	-10.4749
▁القرص	-10.4751
▁وآ	-10.4752
▁ينبغي	-10.4753
ختلط	-10.4755
▁بصفة	-10.4756
▁الريفية	-10.4759
لحن	-10.476
▁الكاتب	-10.4765
▁الفاطمي	-10.4768
خا	-10.4769
▁احتفال	-10.477
▁المعنى	-10.477
اخر	-10.4771
▁معارك	-10.4774
he	-10.4784
▁تهدف	-10.4785
▁المعماري	-10.479
▁الرئاسية	-10.4791
▁الأسطول	-10.4791
▁صحة	-10.4796
▁غالبا	-10.4796
▁الهيليوم	-10.48
▁العُثماني	-10.48
▁الأمثلة	-10.48
▁الوحدات	-10.48
▁يقود	-10.48
▁مزيج	-10.4801
▁الأساطير	-10.4802
▁بطرس	-10.4802
▁ma	-10.4802
▁صفوف	-10.4804
فول	-10.4805
زية	-10.4807
▁الزهرة	-10.4808
جهاز	-10.4809
▁نادر	-10.4811
▁نصيب	-10.4813
▁ونصف	-10.4816
▁توقف	-10.4817
بايع	-10.4817
▁شهادة	-10.4819
▁سنويًا	-10.4819
ليزي	-10.4821
سفر	-10.4825
▁استخدامها	-10.4827
▁النشيد	-10.4827
▁التصنيف	-10.4828
شيع	-10.4834
▁ومعظم	-10.4836
إضافة	-10.4836
فوز	-10.4837
▁جزءا	-10.4837
حول	-10.4838
▁احتل	-10.4838
▁هامة	-10.4838
▁والجنوب	-10.4839
▁لتحقيق	-10.4842
▁المزارع	-10.4846
▁الأدوات	-10.4851
▁الأدوية	-10.4853
▁وعرض	-10.4853
ليب	-10.4854
▁المجرات	-10.4858
متد	-10.4859
نوب	-10.4859
تعد	-10.4862
▁تلت	-10.4866
▁الانفجار	-10.4866
▁أحدث	-10.4867
طان	-10.4869
▁استفتاء	-10.487
,7	-10.4875
▁القل	-10.4875
▁حديقة	-10.4877
▁أكد	-10.4877
▁أجريت	-10.4879
اسة	-10.4879
▁اغتيال	-10.4879
▁2012،	-10.4879
بديل	-10.4884
▁مستمر	-10.4886
▁الأور	-10.4887
تساقط	-10.4894
▁1978	-10.4895
▁الثقافات	-10.4895
▁الصعيد	-10.4895
▁الحجاج	-10.4897
طاق	-10.491
▁القريبة	-10.4911
▁سنوياً	-10.4913
▁الذاكرة	-10.4916
فتاح	-10.4916
ll	-10.4917
▁وحوالي	-10.4924
▁البنا	-10.4925
▁الحساب	-10.4926
▁الأمازيغ	-10.4927
▁البلدين	-10.4929
تفسير	-10.4929
▁يتمكن	-10.4931
فورد	-10.4934
رسي	-10.4936
▁الخلاف	-10.4937
▁ضخم	-10.4938
▁درا	-10.4938
▁مراد	-10.4938
▁الرئاسة	-10.4939
▁الزهري	-10.4941
▁وبي	-10.4941
▁1986	-10.4942
▁بأمر	-10.4942
▁طيلة	-10.4942
▁ينتمي	-10.496
َن	-10.4961
عاقب	-10.4962
▁البورون	-10.4963
باي	-10.4964
▁اندلاع	-10.4966
زمان	-10.4968
▁منتجات	-10.4968
▁تأسس	-10.4969
إعداد	-10.497
▁تيتان	-10.4976
قوانين	-10.4977
▁أدوات	-10.4981
▁ثابتة	-10.4981
▁النظريات	-10.4982
▁للأرض	-10.4986
▁المؤمنين	-10.4986
▁وبالرغم	-10.4987
نكر	-10.4987
▁هنالك	-10.4988
▁1955	-10.4988
▁1944	-10.4989
▁الاستيلاء	-10.4989
فشل	-10.4991
فيزياء	-10.4992
تحقيق	-10.4993
▁التجارب	-10.4999
▁أصيب	-10.5
▁تشا	-10.5
شم	-10.5005
▁إداري	-10.5007
سهل	-10.5011
▁2019	-10.5015
عبر	-10.5016
▁عدو	-10.5017
ندا	-10.5018
فال	-10.5018
▁الموحد	-10.5019
▁يصف	-10.502
ter	-10.5021
شاور	-10.5021
▁الأطباء	-10.5025
معرفة	-10.5026
وهو	-10.5027
▁الفعل	-10.5028
ِد	-10.503
▁مبنى	-10.503
وحي	-10.503
طلع	-10.5033
▁الفساد	-10.5033
▁(6	-10.5034
▁أرسطو	-10.5035
▁المناعة	-10.5036
شبه	-10.5038
▁قبر	-10.5038
▁بلغراد	-10.5039
▁لعبت	-10.5044
▁قط	-10.5046
تِ	-10.5047
عشر	-10.5048
▁وهران	-10.5049
▁وتن	-10.5051
يّن	-10.5052
وقود	-10.5053
▁البيئية	-10.5054
▁تشي	-10.5055
▁الدورة	-10.5056
جسم	-10.5057
جية	-10.5057
▁مروان	-10.5057
▁الزاوية	-10.5058
▁بوضع	-10.5058
▁طابع	-10.506
▁الهولندي	-10.5066
▁بحكم	-10.5067
▁المشترك	-10.5067
يجي	-10.507
▁ضدَّ	-10.5072
فضلاً	-10.5076
▁ثلاثين	-10.5079
▁تحرك	-10.5081
▁الكار	-10.5083
▁قُتل	-10.5083
▁الساماني	-10.5083
▁الكهر	-10.5085
▁1919	-10.5086
▁حكام	-10.5088
سحب	-10.509
تراكم	-10.5091
▁العادية	-10.5097
سُ	-10.5097
إمام	-10.5098
جراء	-10.51
▁أوروبية	-10.5101
ساوي	-10.5102
▁تحولت	-10.5114
▁الجدار	-10.5121
▁دينار	-10.5124
▁محدود	-10.5124
▁اليسار	-10.5124
▁هنري	-10.5127
▁وآخر	-10.5127
وجي	-10.5127
تعويض	-10.5128
▁الغذاء	-10.5128
▁الماضية	-10.5128
▁الخلفاء	-10.5129
▁مائة	-10.5131
▁والعمل	-10.5131
▁الفيزيائية	-10.5132
تخفيف	-10.5132
▁لنا	-10.5134
▁وتعني	-10.514
▁الكلي	-10.5142
▁مقال	-10.5146
حضور	-10.5148
▁يرتبط	-10.5149
▁ومحمد	-10.5149
فلسف	-10.5152
تضح	-10.5152
▁الوثائق	-10.5153
فترض	-10.5153
ga	-10.5156
يران	-10.5157
َة	-10.5158
▁زراعة	-10.5158
▁الموافقة	-10.5158
بيرو	-10.5169
▁البنك	-10.5171
سترا	-10.5172
▁دفاع	-10.5174
▁ساهمت	-10.5174
توحيد	-10.5175
▁غوبلز	-10.5176
فية	-10.5176
▁1953	-10.5178
▁1983	-10.5178
▁قرأ	-10.5179
▁ولهذا	-10.5179
هزم	-10.518
▁الأصغر	-10.5182
راغ	-10.5182
▁لينين	-10.5183
شل	-10.5189
▁إضافية	-10.5193
تطوع	-10.5194
إعلام	-10.5203
تفوق	-10.5205
ولاية	-10.5205
بوذي	-10.5208
نقل	-10.5215
مسح	-10.5216
▁طفل	-10.5221
▁اهتم	-10.5221
▁البلطيق	-10.5224
▁غينيا	-10.5225
▁الارتفاع	-10.5226
▁r	-10.5226
شاه	-10.5226
▁1968	-10.5226
▁1936	-10.5227
َم	-10.5227
▁أداء	-10.5228
▁إنجيل	-10.5229
كَ	-10.5229
▁الزوج	-10.523
▁يُعتقد	-10.523
▁فيينا	-10.5232
6%	-10.5234
رَ	-10.5234
▁وانضم	-10.5235
▁يس	-10.5236
▁فس	-10.5236
▁موجات	-10.5237
▁الجدول	-10.5237
▁للحزب	-10.5242
زراعة	-10.5243
▁نظير	-10.5246
ئات	-10.5246
ذيب	-10.5248
▁رياضي	-10.525
▁مؤسسات	-10.5251
▁والبر	-10.5252
▁الهجمات	-10.5253
▁الخمس	-10.5255
تاح	-10.5256
سفن	-10.5257
▁مرتبطة	-10.526
يسر	-10.526
▁السينما	-10.5261
▁الفقه	-10.5263
تمرد	-10.5263
▁الجسر	-10.5264
▁المنصور	-10.5268
▁الإيرانية	-10.5269
▁المغربي	-10.5269
▁البحيرات	-10.5272
7%	-10.5273
▁المقدوني	-10.5273
▁الطول	-10.5274
▁الأبحاث	-10.5275
▁الريف	-10.528
▁أعطى	-10.5281
="12	-10.5284
▁استقرار	-10.5286
حَ	-10.5286
▁بخ	-10.5288
▁حامل	-10.5289
ad	-10.5289
حياة	-10.529
سمع	-10.5293
▁فإنَّ	-10.5299
ؤدي	-10.5302
▁أظهر	-10.5302
شرع	-10.5303
▁برئاسة	-10.5303
▁تصف	-10.5306
▁بارز	-10.5307
▁ريتشارد	-10.5307
▁الخصائص	-10.531
تقريب	-10.5311
زج	-10.5311
شمال	-10.5315
ستين	-10.5319
▁لتحديد	-10.5321
▁تيانجين	-10.5321
▁طائرات	-10.5322
▁تسعة	-10.5323
▁الأعداد	-10.5324
ضل	-10.5324
▁أسرع	-10.5324
كف	-10.5325
▁اختبار	-10.5325
فسر	-10.5327
▁الأشعة	-10.5327
ِّد	-10.5327
َهُ	-10.533
▁فك	-10.5332
▁القُ	-10.5333
▁وأسس	-10.5337
▁أطفال	-10.534
▁وبناء	-10.5345
صغر	-10.5346
▁المحور	-10.5347
▁الاستوائية	-10.5347
▁عامر	-10.5348
▁هجرة	-10.5349
▁السكري	-10.5352
▁العملة	-10.5354
▁تجعل	-10.5356
▁انضمت	-10.5359
ونه	-10.5359
▁أجر	-10.536
▁دورا	-10.5361
▁عدن	-10.5362
▁بدعم	-10.5363
▁سحب	-10.5364
▁واصل	-10.5365
فص	-10.5365
▁تَ	-10.5365
▁كافية	-10.5366
▁يمتلك	-10.537
▁الخروج	-10.5374
رور	-10.5374
▁اجتمع	-10.5375
لاف	-10.5376
▁فض	-10.5377
كبر	-10.5378
▁يُعتبر	-10.5378
um	-10.538
▁وأقام	-10.5381
▁إد	-10.5383
▁الكلية	-10.5384
ثو	-10.5391
▁يقال	-10.5392
vi	-10.5393
▁ألماني	-10.5394
▁القليل	-10.5397
ليا	-10.5402
فد	-10.5402
▁كاتب	-10.5407
طلاق	-10.5408
▁الزمان	-10.5408
▁شرع	-10.5409
▁الرمز	-10.5413
▁الأرثوذكس	-10.5416
▁إلغاء	-10.5419
▁تصوير	-10.5419
▁سواحل	-10.542
▁يعطي	-10.5421
▁تحكم	-10.5421
▁الفي	-10.5422
▁الأجزاء	-10.5422
▁كارلوس	-10.5424
ha	-10.5425
▁الخبر	-10.5427
▁سائر	-10.5429
▁دراسات	-10.5432
▁هجر	-10.5433
▁الميثان	-10.5434
دروس	-10.5435
مش	-10.5436
▁والتنمية	-10.5436
▁سين	-10.544
▁إحصاء	-10.5442
▁وأس	-10.5443
▁أولئك	-10.5444
حذر	-10.5446
واحد	-10.545
]]،	-10.5451
▁يأخذ	-10.5453
تباين	-10.5454
عتقل	-10.5454
قوق	-10.5457
فترة	-10.546
طابق	-10.5463
▁وافق	-10.5463
▁التعليمية	-10.5464
أسماء	-10.5466
نيك	-10.5467
فظ	-10.547
▁وست	-10.547
قاعدة	-10.5471
▁انطلاق	-10.5471
▁سلطات	-10.5472
▁يتألف	-10.5472
▁جيمس	-10.5472
قوس	-10.5473
▁السد	-10.5475
▁يتطلب	-10.5476
واجه	-10.5479
▁ألعاب	-10.5481
▁القاسم	-10.5481
▁المرضى	-10.5481
▁جبهة	-10.5482
▁اليمين	-10.5484
▁حملات	-10.5485
▁يُعد	-10.5487
حسان	-10.5491
▁يونس	-10.5494
قير	-10.5496
▁الانتفاضة	-10.5496
بيد	-10.5497
▁تلعب	-10.55
فتر	-10.551
▁السيد	-10.5511
▁أحيانا	-10.5513
▁ميلادي	-10.5514
▁ترجمة	-10.5516
فيروس	-10.5516
▁مستقبل	-10.5516
▁الفحم	-10.5517
▁القوقاز	-10.5518
▁وظائف	-10.5518
▁الاعتقاد	-10.5518
▁الجولان	-10.5519
▁الحرارية	-10.5519
وهي	-10.552
▁السيادة	-10.5521
▁المؤسسة	-10.5521
▁معظمهم	-10.5522
شرطة	-10.5522
خطر	-10.5524
▁وسار	-10.5526
▁فضلا	-10.5527
▁الآية	-10.553
▁الباب	-10.5531
▁يتجاوز	-10.5532
تنافس	-10.5532
▁راي	-10.5533
نعم	-10.5534
جائزة	-10.5534
▁كانَ	-10.5542
وجود	-10.5547
▁نسخ	-10.5549
▁بالن	-10.5552
▁الأمازيغية	-10.5558
▁re	-10.5558
مؤسس	-10.5558
500	-10.5562
ستن	-10.5564
▁ورفض	-10.5566
▁الضوئي	-10.5567
▁هامبورغ	-10.5568
▁المشاريع	-10.5569
▁الحيوان	-10.5569
▁سنغافورة	-10.557
كاس	-10.5571
):	-10.5571
▁موجة	-10.5572
تصميم	-10.5572
▁كوم	-10.5572
▁أشد	-10.5573
▁لبناء	-10.5578
▁رفضت	-10.5584
نهاية	-10.5586
روسية	-10.5586
▁الجماعية	-10.5586
300	-10.5588
▁تمر	-10.5591
▁العادي	-10.5591
▁يشبه	-10.5592
▁السورة	-10.5593
▁ولمَّ	-10.5596
سليم	-10.5597
ليك	-10.5598
▁ويعود	-10.5598
▁وَ	-10.56
▁الفرع	-10.56
▁الفلور	-10.5602
نظام	-10.5604
▁والمملكة	-10.5605
▁والثاني	-10.561
▁أبرزها	-10.5612
▁الأوائل	-10.5615
كما	-10.5617
▁ومجلس	-10.5619
▁1959	-10.5619
▁1984	-10.562
▁1966	-10.562
▁مكعب	-10.562
▁السادات	-10.562
▁1946	-10.562
▁تطبيقات	-10.5625
▁وفتح	-10.5625
حاسب	-10.5626
si	-10.5628
▁خاض	-10.5629
لعب	-10.5631
▁بدور	-10.5632
ابن	-10.5633
▁والمع	-10.5634
جول	-10.5637
▁الأسبرين	-10.564
يقة	-10.5641
▁أسود	-10.5643
▁كفر	-10.5644
▁ويذكر	-10.5644
▁أثينا	-10.5646
▁سينا	-10.5648
▁الحقل	-10.5649
▁النجاح	-10.5651
▁يجمع	-10.5651
▁سنويا	-10.5652
▁الهاتف	-10.5654
▁تلق	-10.5658
ّاً	-10.5661
ir	-10.5661
▁وحاول	-10.5662
تلف	-10.5664
القوات	-10.5666
سلاح	-10.5667
▁للسلام	-10.5667
▁تواجد	-10.5669
▁1969	-10.567
ساس	-10.5671
ارد	-10.5671
;/	-10.5675
لائم	-10.568
أب	-10.5683
▁التصميم	-10.5688
غري	-10.5689
▁وحده	-10.569
▁الكشف	-10.5695
مهرجان	-10.5697
▁حُكم	-10.5698
روع	-10.5698
خلاف	-10.5702
ou	-10.5703
▁بالر	-10.5707
حسين	-10.5711
▁وجو	-10.5714
▁مكونات	-10.5714
▁مثلا	-10.5715
▁مركب	-10.5715
▁الصغرى	-10.5718
▁الكاملة	-10.5721
▁معرض	-10.5722
ملاح	-10.5723
▁تيمور	-10.5723
▁خص	-10.5725
▁33	-10.5726
▁أسفل	-10.5726
▁ناتج	-10.5727
▁الجمعة	-10.5727
▁واعتبر	-10.5729
ويد	-10.573
▁تام	-10.5738
▁قمر	-10.5738
▁الألب	-10.5739
قلاع	-10.5739
▁نشط	-10.5741
▁شرح	-10.5742
نوي	-10.5742
▁التفسير	-10.5743
▁أمَّ	-10.5744
أصل	-10.5746
ثني	-10.5747
كويت	-10.5749
▁باعتبار	-10.5752
غادر	-10.5755
2.	-10.5756
يشي	-10.5757
يقع	-10.5758
▁مجد	-10.576
▁شق	-10.5761
عاش	-10.5762
▁نسبته	-10.5763
▁التركيز	-10.5764
▁مبادئ	-10.5764
ناخ	-10.5765
▁سيل	-10.5768
▁للولايات	-10.5769
▁الشحنة	-10.5769
كاي	-10.577
خلو	-10.577
▁السكاني	-10.5772
روق	-10.5773
سقف	-10.5774
▁وبا	-10.5774
▁فلوريد	-10.5774
فري	-10.5775
شبكة	-10.5779
be	-10.5783
▁رومانيا	-10.5783
▁ولها	-10.5786
▁لله	-10.5786
▁الهو	-10.5791
أمراض	-10.5791
▁بنية	-10.5793
▁هان	-10.5799
%)	-10.5801
رأى	-10.5802
▁تشبه	-10.5803
▁مضاد	-10.5803
▁الضخمة	-10.5804
-1	-10.5805
▁عنهم	-10.5806
▁المسار	-10.5807
▁تدمر	-10.5807
▁يكتب	-10.5808
▁الدرجة	-10.581
▁المتقدمة	-10.5814
مئتين	-10.5816
جرة	-10.5817
حوا	-10.5819
=12	-10.5821
▁1985	-10.5823
▁1921	-10.5823
▁الاصطناعي	-10.5823
▁جنسي	-10.5826
-2	-10.5828
مشروع	-10.5831
▁المغنيسيوم	-10.5833
▁أحياء	-10.5833
▁الدقيقة	-10.5834
▁البلدية	-10.5836
▁لمن	-10.5841
▁بشر	-10.5842
احتلال	-10.5844
مائة	-10.5844
قيادة	-10.5847
ؤلف	-10.5849
▁تخرج	-10.5849
op	-10.5849
▁البريطانيين	-10.5853
▁زوج	-10.5855
ؤل	-10.5855
واني	-10.586
▁الإلكتروني	-10.5861
عزز	-10.5864
▁الطويل	-10.5867
5,000	-10.5868
▁الحُ	-10.5868
▁يسكن	-10.587
▁الانسحاب	-10.5871
▁الأشكال	-10.5872
ضيق	-10.5872
▁بسيطة	-10.5872
▁الشرعي	-10.5874
▁غربي	-10.5876
▁انتخب	-10.5876
▁وقوع	-10.5877
نتر	-10.5878
▁للملك	-10.5879
فُ	-10.5881
▁لإعادة	-10.5883
▁الخوارزمي	-10.5883
▁الترتيب	-10.5884
ثنائي	-10.5885
▁تصدر	-10.5887
ذهاب	-10.5891
رسال	-10.5893
جماعة	-10.5893
وغو	-10.5898
▁الأرقام	-10.59
tr	-10.5902
▁لدراسة	-10.5903
▁ديمقراطية	-10.5904
▁الدستورية	-10.5907
ساح	-10.5914
▁مركبات	-10.5914
ــ	-10.5915
▁المذكور	-10.5916
صراع	-10.5918
▁المتحف	-10.5921
وفر	-10.5922
▁البضائع	-10.5923
▁الهنود	-10.5923
▁الطيور	-10.5923
▁المستعمرات	-10.5925
ns	-10.5927
ملف	-10.5927
قاليد	-10.5927
تحقق	-10.5927
باغ	-10.5928
مارك	-10.5928
▁زا	-10.593
▁إكس	-10.5932
▁هيل	-10.5932
▁زحل	-10.5932
▁مصنع	-10.5933
صحة	-10.5935
لوس	-10.5935
▁لون	-10.5937
▁معها	-10.5938
▁الجامع	-10.594
▁هضبة	-10.5941
بشير	-10.5947
شرح	-10.5948
تطرف	-10.5951
▁مرتين	-10.5952
جال	-10.5954
▁المرتبطة	-10.5962
▁حديد	-10.5967
▁القبض	-10.5968
▁طائفة	-10.597
▁وتش	-10.5971
▁صيد	-10.5971
جُ	-10.5975
▁ضمت	-10.5977
▁ديني	-10.5978
عناصر	-10.5978
▁السور	-10.5978
▁محت	-10.5981
▁غرار	-10.5982
▁يطلب	-10.5982
▁الموقف	-10.5985
▁جوهر	-10.5985
▁سلوك	-10.5988
ممّا	-10.5988
غالب	-10.5988
فرع	-10.5989
▁الرسم	-10.5991
صديق	-10.5991
▁رسائل	-10.5991
خدمة	-10.5993
تحرك	-10.5994
▁65	-10.5994
▁مركّبات	-10.5996
▁التوحيد	-10.5998
▁آلة	-10.6001
ولوجية	-10.6002
▁ثور	-10.6006
▁أراضيها	-10.6007
فارس	-10.6008
يلية	-10.6009
▁عرقية	-10.6011
▁والمناطق	-10.6017
▁استبدال	-10.6018
▁بطل	-10.6019
▁بنظام	-10.6022
▁السود	-10.6022
طع	-10.6023
▁المدار	-10.6024
عطاء	-10.6025
▁الاستثمار	-10.6026
▁مقدونيا	-10.6027
▁ماليزيا	-10.6027
▁عطارد	-10.6029
▁البروتستانت	-10.603
▁أبحاث	-10.6031
▁وبعدها	-10.6033
▁المدنيين	-10.6036
▁الجمع	-10.6037
▁جابر	-10.604
▁الأمازون	-10.6042
▁الحار	-10.6043
ديمقراطية	-10.6044
▁الكلام	-10.6046
▁عميق	-10.6048
وير	-10.6049
▁السك	-10.605
▁تستطيع	-10.6052
بوس	-10.6053
نيت	-10.6057
▁السلع	-10.6057
▁الحمض	-10.606
طيف	-10.6064
▁الحاج	-10.6067
▁الأخبار	-10.6068
فرانك	-10.6068
▁يمارس	-10.6071
▁قطعة	-10.6071
نهج	-10.6075
▁الاستعمارية	-10.6075
▁الدخول	-10.6076
▁وشرق	-10.6076
▁باستمرار	-10.608
بروتون	-10.6081
ac	-10.6083
▁بالع	-10.6083
▁الأوراق	-10.6084
▁والاجتماعية	-10.6085
سكا	-10.6086
▁الأحكام	-10.6087
▁التدخل	-10.6088
▁الاتفاقية	-10.6096
▁يمنع	-10.6098
▁الأموي	-10.6099
عجز	-10.6101
جادل	-10.6102
خضر	-10.6103
تصف	-10.6105
قيد	-10.6106
▁ووقع	-10.6106
▁نزل	-10.6106
▁العبادة	-10.6107
▁التنفيذي	-10.6108
▁الناتجة	-10.611
▁تنص	-10.611
▁اكت	-10.611
im	-10.6112
اعة	-10.6115
نقص	-10.6115
برغ	-10.612
▁إمام	-10.6123
▁الأربع	-10.6124
▁الصفوي	-10.6126
ستخدم	-10.613
▁التفكير	-10.613
▁إندونيسيا	-10.6131
▁تشريع	-10.6132
▁إدخال	-10.6132
▁روايات	-10.6132
▁اقتراح	-10.6132
▁وجيزة	-10.6133
▁التحق	-10.6135
▁الأقليات	-10.6139
عه	-10.6143
▁ترجع	-10.6145
▁قارة	-10.6147
▁الخوارج	-10.6148
دراسات	-10.6156
▁عمومًا	-10.6157
زول	-10.6157
▁واشنطن	-10.6159
طبقة	-10.6159
راكب	-10.6161
رتبط	-10.6163
▁وتل	-10.6166
▁والطب	-10.6166
يّات	-10.6166
▁لحماية	-10.6166
▁البط	-10.6167
▁الأنشطة	-10.617
▁بارد	-10.6172
▁سلطنة	-10.6175
▁أجبر	-10.6176
▁بالس	-10.6176
ملاحظات	-10.6176
جمل	-10.6177
▁مخطط	-10.6178
▁صلب	-10.6179
▁يش	-10.6179
▁كيان	-10.618
عُ	-10.618
▁شاركت	-10.6181
▁التمييز	-10.6182
▁والعالم	-10.6184
حسب	-10.6184
▁فرانسيسكو	-10.6184
▁جوانب	-10.6185
▁ليل	-10.6186
▁التمثيل	-10.6187
▁السفلي	-10.6187
▁وبر	-10.6189
▁مُن	-10.6189
▁قريش	-10.6192
▁ينظر	-10.6195
▁والثانية	-10.6196
▁الثنائي	-10.6199
برنامج	-10.6203
▁فاس	-10.6206
▁فرصة	-10.6209
هان	-10.6209
جانب	-10.6209
▁منافس	-10.621
▁السائدة	-10.6211
شجاع	-10.6211
▁خوف	-10.6211
▁ربع	-10.6213
▁مغناطيسي	-10.6216
▁رع	-10.6219
▁النظم	-10.6219
كهرباء	-10.6221
▁أمل	-10.6222
▁أسابيع	-10.6222
▁التركيب	-10.6223
▁الإغريقية	-10.6225
▁وألمانيا	-10.6225
▁(13	-10.6226
▁2014،	-10.6228
بدل	-10.623
▁موارد	-10.623
ّان	-10.6231
حساب	-10.6232
ثقافة	-10.6236
▁حاف	-10.6236
▁الفيزيائي	-10.6236
▁السادسة	-10.6237
▁بلجيكا	-10.6238
▁غضون	-10.6238
▁تهديد	-10.6239
▁نجوم	-10.6239
▁مشهور	-10.6239
▁ميلاد	-10.6239
ضبط	-10.6239
إسلام	-10.6242
▁واستخدام	-10.6243
▁يُمكن	-10.6245
▁الصخر	-10.6253
▁الهوية	-10.6254
▁المعابد	-10.6257
علي	-10.626
ربين	-10.626
▁والمن	-10.626
▁اللقب	-10.6261
▁الإشعاع	-10.6262
▁وكما	-10.6264
▁القطع	-10.6265
وران	-10.6265
ائن	-10.6266
▁الأرز	-10.6267
▁والاقتصادية	-10.6269
▁قادرة	-10.6273
▁(16	-10.6273
▁يساعد	-10.6277
▁لدعم	-10.6278
▁قريبة	-10.6281
▁وتطور	-10.6284
▁الحملات	-10.6286
▁جذور	-10.6286
▁الآسيوية	-10.6288
وجد	-10.6288
▁العباسية	-10.6289
▁قراءة	-10.6291
▁الخِلافة	-10.6291
▁أعوام	-10.6291
▁علاوة	-10.6292
▁الجزائري	-10.6295
ca	-10.6298
معنى	-10.6298
أوساط	-10.6299
ورات	-10.63
▁فريد	-10.6302
▁ألب	-10.6302
▁حاد	-10.6305
▁الثلاثي	-10.6306
صعد	-10.631
▁الشيعي	-10.6312
تكلم	-10.6312
▁الإنجليز	-10.6313
توقف	-10.6313
امية	-10.6314
▁الشعراء	-10.6314
أمين	-10.6322
آن	-10.6323
وجين	-10.6324
دوس	-10.6328
▁المحتلة	-10.6328
دلالة	-10.633
▁تبادل	-10.6331
▁التبت	-10.6332
▁العكس	-10.6335
▁وأر	-10.6336
▁لنظام	-10.6337
9%	-10.6337
حى	-10.6338
▁وأيضا	-10.6341
▁السنوية	-10.6342
▁أخبار	-10.6343
▁طرابلس	-10.6344
▁مرسوم	-10.6346
▁حركات	-10.6347
▁1952	-10.6347
▁يتضمن	-10.6349
▁أعد	-10.635
▁co	-10.6351
▁عمق	-10.6352
▁حصول	-10.6354
بلا	-10.6356
▁علوم	-10.6358
رسو	-10.6358
▁تماماً	-10.6363
عدل	-10.6363
▁المايا	-10.637
سعة	-10.6375
أعضاء	-10.6375
ألعاب	-10.6378
▁أدلة	-10.6379
▁أنشأت	-10.638
تغيير	-10.638
ستمر	-10.6381
▁(14	-10.6382
▁المؤسس	-10.6385
▁الشرعية	-10.6388
▁متن	-10.6392
فلا	-10.6393
▁روس	-10.6394
▁نشأ	-10.6394
▁سوء	-10.6395
▁تحدد	-10.6395
da	-10.6395
▁الفاتح	-10.6398
▁التدريب	-10.6399
▁والعشرون	-10.6399
▁خواص	-10.6399
▁خُ	-10.64
▁شب	-10.64
▁لاحظ	-10.6402
▁وظيفة	-10.6403
▁الميناء	-10.6404
▁القادر	-10.6405
دال	-10.6409
▁الجهة	-10.6409
▁الشامل	-10.641
▁شعوب	-10.641
▁سراح	-10.641
▁صدام	-10.6411
▁تشو	-10.6411
تحدث	-10.6412
▁جان	-10.6416
فائدة	-10.6416
▁وأعاد	-10.6421
▁خر	-10.6423
▁الأردني	-10.6427
▁وكثير	-10.6427
ومة	-10.6429
لط	-10.643
▁فيليب	-10.6435
صريح	-10.6437
بيزنطي	-10.6437
▁غزا	-10.6438
شاط	-10.644
▁تستعمل	-10.6444
▁وسم	-10.6444
▁مُت	-10.6445
نقوش	-10.6446
▁جماعات	-10.6451
▁فب	-10.6452
▁جوبز	-10.6453
▁توسيع	-10.6453
▁اختصار	-10.6454
▁الواضح	-10.6454
▁الأوضاع	-10.6454
▁والفرنسية	-10.6454
▁مكونة	-10.6454
▁الطائف	-10.6454
▁روبرت	-10.6455
▁بالق	-10.6457
▁أوراق	-10.646
▁الحراري	-10.646
▁تزايد	-10.646
▁كسر	-10.6461
▁عودته	-10.6462
روك	-10.6465
▁الوادي	-10.6471
سلسلة	-10.6474
▁بدا	-10.6477
ورك	-10.6477
▁وتطوير	-10.6478
▁48	-10.6479
▁ألفا	-10.648
بحيرة	-10.648
بما	-10.6481
بدء	-10.6483
▁تدهور	-10.6483
▁عاصمتها	-10.649
▁الحدائق	-10.649
تراجع	-10.6492
▁الشيء	-10.6493
▁شف	-10.6494
▁قضى	-10.6494
▁سابقًا	-10.6496
سافر	-10.6496
تونس	-10.6497
توازن	-10.6501
▁النقطة	-10.6502
▁وعادة	-10.6503
▁خصوصًا	-10.6508
▁التكوين	-10.6509
▁بمعدل	-10.6511
▁1922	-10.6511
.6%	-10.6512
▁يشار	-10.6513
▁المحليين	-10.6514
شاش	-10.6515
عاب	-10.6518
حادث	-10.6523
فئ	-10.6525
بلاد	-10.6529
▁فعال	-10.6533
▁ويقوم	-10.6535
▁الحو	-10.6535
▁فول	-10.6536
▁مسيحية	-10.6536
▁تور	-10.6536
شام	-10.6538
▁المدى	-10.6541
ثناء	-10.6541
▁يوماً	-10.6542
يلو	-10.6547
▁الإمبراطوري	-10.6548
▁المرور	-10.6553
يبي	-10.6553
مناطق	-10.6557
▁حققت	-10.6558
▁الرب	-10.656
خوف	-10.6564
▁الديانات	-10.6564
▁الخصوص	-10.6566
▁الخضراء	-10.6568
▁سابقا	-10.6568
▁قاموا	-10.657
▁إيه	-10.657
▁مضيق	-10.6571
▁أمه	-10.6571
▁يبق	-10.6572
▁جذب	-10.6572
▁طر	-10.6573
إل	-10.6575
▁واللغة	-10.6583
▁والتر	-10.6585
▁وتسمى	-10.6585
▁وانت	-10.6588
▁الموجات	-10.6591
▁جن	-10.6592
مقاومة	-10.6594
حلف	-10.6594
▁حصن	-10.6598
▁المساعدة	-10.6601
ذاب	-10.6603
▁العبَّاسي	-10.6605
▁طوله	-10.6609
دبلوماسي	-10.6615
راسل	-10.6618
▁الإخشيد	-10.6618
▁فهناك	-10.6618
▁تايلاند	-10.6619
▁الهلال	-10.6619
تفاوت	-10.662
مثّل	-10.6621
تجنيد	-10.6621
▁1933	-10.6621
▁رئيسا	-10.6622
▁شقيق	-10.6623
▁والفن	-10.6625
▁للغة	-10.6627
مقابر	-10.6628
▁فقر	-10.663
▁القدر	-10.6633
جورج	-10.6634
بحوث	-10.6634
▁المعتمد	-10.6634
طائر	-10.6636
عالم	-10.6636
إدراك	-10.6636
▁صلى	-10.6636
▁بعدم	-10.6637
▁سهول	-10.664
▁الإنجيل	-10.664
▁وتشكل	-10.6644
ضطر	-10.6645
▁بلاده	-10.6647
▁أدخل	-10.6649
▁المعاصر	-10.6651
رخ	-10.6653
▁واليابان	-10.6656
▁لعدم	-10.6657
▁x	-10.666
▁تجري	-10.6661
كش	-10.6666
▁الدع	-10.6669
▁البقاء	-10.667
▁والدته	-10.667
▁بولاية	-10.6671
▁شجرة	-10.6672
▁أمستردام	-10.6674
▁تصنيع	-10.6674
▁للطاقة	-10.6674
▁حزيران	-10.6675
▁عَ	-10.6675
▁البروتستانتية	-10.6676
▁1957	-10.6676
▁ازدهار	-10.6677
▁التخطيط	-10.6677
▁وحكم	-10.6677
▁ميدان	-10.6678
▁طرح	-10.6678
▁نبي	-10.6679
عجب	-10.668
مطار	-10.6683
▁تصور	-10.6685
▁ملكية	-10.6687
رابط	-10.6689
بلي	-10.6692
▁وفد	-10.6692
دعم	-10.6692
إلقاء	-10.6692
رُو	-10.6694
▁تتعلق	-10.6694
▁بالعديد	-10.6695
ميني	-10.6698
▁(12	-10.6701
▁عمال	-10.6708
▁متعدد	-10.6708
▁أصاب	-10.6709
▁البروتينات	-10.6711
▁كيميائي	-10.6712
▁محدد	-10.6713
▁واجب	-10.6713
▁(7	-10.6716
▁تخضع	-10.6717
▁الضباط	-10.6717
▁السو	-10.6717
▁يخرج	-10.6717
▁(9	-10.6719
وفرة	-10.6723
تحويل	-10.6725
ريق	-10.6725
ادات	-10.6726
▁شاب	-10.6728
ge	-10.673
▁والخدمات	-10.673
▁توجيه	-10.673
▁اللغوي	-10.6733
▁بالتالي	-10.6734
▁خام	-10.6734
▁وبهذا	-10.6735
▁التحول	-10.6737
▁القوية	-10.6739
▁لتطوير	-10.674
▁تف	-10.6741
▁هطول	-10.6741
تكامل	-10.6742
▁علامة	-10.6742
▁ارت	-10.6742
▁بع	-10.6742
▁مستعمرة	-10.6743
▁اللعبة	-10.6743
▁ملم	-10.6746
▁سُلطان	-10.6747
▁ازدهرت	-10.6748
عطى	-10.6755
▁الكمبيوتر	-10.6757
▁لمصر	-10.6757
▁لعمل	-10.676
زهر	-10.676
▁مؤقت	-10.6762
ولف	-10.6765
▁أسطول	-10.6766
▁لب	-10.6766
ذلك	-10.6766
ترتيب	-10.6767
رقص	-10.6769
▁البد	-10.677
▁تفوق	-10.677
su	-10.6772
▁ثماني	-10.6772
▁تبعد	-10.6773
▁السفينة	-10.6773
شة	-10.6773
▁مساعدة	-10.6775
▁مركزية	-10.6776
نصب	-10.6776
يمي	-10.6777
▁واليونان	-10.6779
▁صوم	-10.6781
▁والرومان	-10.6786
▁دفن	-10.6786
▁الضروري	-10.6786
▁اللوحة	-10.6786
▁أرسلان	-10.6787
ph	-10.6788
▁تقليد	-10.6789
طوّر	-10.679
▁إنها	-10.6794
▁والث	-10.6794
تسارع	-10.6795
نار	-10.6798
ّح	-10.6798
رُغم	-10.6799
▁بإعادة	-10.68
يٍّ	-10.6801
جميل	-10.6806
تقليل	-10.6808
دُّ	-10.6812
▁ذاك	-10.6812
توصل	-10.6812
▁(20	-10.6813
▁شأن	-10.6816
أسلحة	-10.6825
حرم	-10.6826
▁الممثل	-10.6828
رست	-10.6831
▁l	-10.6834
تزايد	-10.6837
▁التل	-10.6838
حلق	-10.6839
▁رئيساً	-10.6842
▁خسائر	-10.6842
▁طوكيو	-10.6842
▁وزيادة	-10.6842
▁الأفارقة	-10.6842
▁للإمبراطورية	-10.6842
▁جزيئات	-10.6843
تسهيل	-10.6844
▁البطالة	-10.6844
▁1932	-10.6845
▁التشيك	-10.6846
توقيت	-10.6847
▁البلاط	-10.6848
▁السنغال	-10.6848
اريا	-10.6851
داس	-10.6852
▁كلغة	-10.6859
▁التوجه	-10.6859
طرح	-10.6861
▁600	-10.6861
▁اعتقد	-10.6861
▁حقل	-10.6865
▁لليهود	-10.6865
▁تولي	-10.6868
صخر	-10.6871
▁محرك	-10.6873
عراق	-10.6874
▁تسليم	-10.6874
▁محمية	-10.6882
كانت	-10.6882
▁بعيدة	-10.6887
▁الهي	-10.6891
انتهاك	-10.6892
▁غضب	-10.6893
َّار	-10.6894
▁غرفة	-10.6895
ِّل	-10.6899
▁قيصر	-10.6899
▁وقتها	-10.6899
▁ثقافي	-10.6899
قائد	-10.6899
سكان	-10.69
▁الشوارع	-10.69
▁سلف	-10.6903
▁تحتاج	-10.6904
▁المرة	-10.6905
▁التام	-10.6908
▁الإيراني	-10.691
▁الأسبوع	-10.691
▁يضع	-10.691
▁طُ	-10.6911
اوة	-10.6912
عرق	-10.6914
▁سيدي	-10.6915
▁هندسة	-10.6915
▁كين	-10.6921
▁(8	-10.6923
▁لأسباب	-10.6923
▁للمر	-10.6924
▁منتخب	-10.6927
▁السيارة	-10.6928
▁التكنولوجيا	-10.6928
ساق	-10.6932
▁القبيلة	-10.6934
0.000	-10.6935
قواعد	-10.6941
▁الظاهرة	-10.6942
شين	-10.6945
إحد	-10.6946
تاجر	-10.6947
فاف	-10.695
فوس	-10.6951
▁السرطان	-10.6951
بالإضافة	-10.6952
▁لنقل	-10.6955
▁تلفزيون	-10.6956
▁1954	-10.6959
▁1914	-10.696
▁كارتر	-10.696
▁رحلات	-10.6961
تناقض	-10.6961
حاضر	-10.6961
حج	-10.6962
▁غياب	-10.6962
▁برو	-10.6964
▁جيل	-10.6966
▁موسيقى	-10.6967
▁الأموية	-10.6969
▁آمن	-10.6973
بقى	-10.6974
▁تتجاوز	-10.6978
عارف	-10.6979
▁أشخاص	-10.698
▁الصحيح	-10.698
▁خشب	-10.6983
تيك	-10.6983
تقام	-10.6985
خام	-10.6985
ِّم	-10.6986
▁عالمي	-10.699
▁وروسيا	-10.6992
▁بديل	-10.6993
صوت	-10.6999
وما	-10.7002
▁احتياطي	-10.7009
▁مُنذ	-10.7009
حرك	-10.7011
▁كائن	-10.7011
▁وجمع	-10.7012
▁المخابرات	-10.7014
▁يوغوسلافيا	-10.7014
▁أنطاكية	-10.7014
▁الممتدة	-10.7014
▁معارضة	-10.7014
فريد	-10.7014
▁مترًا	-10.7016
▁الاضطرابات	-10.7016
▁نظريات	-10.7016
▁أسعار	-10.7018
▁النبوي	-10.7021
رته	-10.7023
▁وأخ	-10.7023
▁عقود	-10.7027
▁الحميد	-10.7028
قصف	-10.7028
▁800	-10.7028
▁رأسه	-10.7033
مبا	-10.7033
▁ومجموعة	-10.7036
▁علمية	-10.7038
دف	-10.704
▁خدم	-10.704
شوغون	-10.7041
▁المشكلة	-10.7041
▁يُطلق	-10.7042
▁إمبراطور	-10.7042
▁الأدلة	-10.7042
نون	-10.7043
▁الدائرة	-10.7044
▁الفني	-10.7046
▁زواج	-10.7047
ْل	-10.7047
ستقر	-10.7049
ولوجيا	-10.705
▁المحاصيل	-10.705
▁الصلبة	-10.7051
▁والمدن	-10.7051
قات	-10.7052
▁ديار	-10.7053
جبل	-10.7056
▁تحقق	-10.7057
سق	-10.7057
▁اختلف	-10.7058
▁السياح	-10.7058
▁الإثني	-10.7058
▁الأبجدية	-10.7059
▁عظم	-10.706
بيريا	-10.7061
▁وغرب	-10.7061
▁وحيد	-10.7062
كتشاف	-10.7063
قدّم	-10.7063
▁اليمنية	-10.7065
▁القطري	-10.7066
امه	-10.7066
▁خصوصاً	-10.7067
▁المذاهب	-10.7071
▁الانتشار	-10.7072
▁الجهود	-10.7074
▁1938	-10.7075
▁عما	-10.7076
▁نتج	-10.7076
طالب	-10.7077
▁العبَّاسيَّة	-10.7077
▁مزيد	-10.7078
▁بصفته	-10.7078
ستهدف	-10.708
ماري	-10.7081
لازم	-10.7084
▁عدَّة	-10.7084
ملة	-10.7086
▁واستول	-10.7089
▁الجند	-10.7093
▁الإف	-10.7095
▁وحد	-10.7101
▁منخفض	-10.7101
▁السلف	-10.7102
▁وبِ	-10.7104
▁تعادل	-10.7113
▁ديل	-10.7113
▁امتد	-10.7115
▁ولأن	-10.7123
▁ورق	-10.7123
▁جنين	-10.7125
رابطة	-10.7125
▁المطار	-10.7131
▁قرص	-10.7131
▁المريض	-10.7131
▁الاستواء	-10.7132
▁1977	-10.7132
▁75	-10.7134
▁توماس	-10.7134
▁الأمان	-10.7135
▁الحكومي	-10.7137
▁لمنع	-10.7138
▁واستخدم	-10.7139
شبيه	-10.7139
▁للحكم	-10.7141
▁توقع	-10.7141
▁الجاف	-10.7141
▁موقعها	-10.7145
▁الحرير	-10.7148
▁الطبي	-10.7149
▁سافر	-10.715
▁تمييز	-10.7151
▁المسائل	-10.7152
au	-10.7154
▁وجميع	-10.7155
اكو	-10.7156
▁الرو	-10.7156
▁الأزرق	-10.7157
▁وغيره	-10.7157
ستطيع	-10.7159
وصف	-10.7161
باشر	-10.7161
▁أساسا	-10.7162
pe	-10.7164
تاي	-10.7166
▁2015،	-10.7166
ثلاثمائة	-10.7167
▁البولندية	-10.7167
▁البري	-10.7169
ريث	-10.717
سيب	-10.7171
تداخل	-10.7172
▁شرف	-10.7173
▁المستمر	-10.7173
▁بدرجة	-10.7174
▁الصرف	-10.7175
▁كلفن	-10.7175
▁وطالب	-10.7176
إخوان	-10.7178
تواجد	-10.7178
▁تساعد	-10.7184
يتس	-10.7186
▁لإنشاء	-10.7188
▁ألبانيا	-10.7189
▁الطراز	-10.7189
ve	-10.7189
محاكاة	-10.7189
▁إسحاق	-10.7189
حجر	-10.719
▁الأحساء	-10.7191
▁النادي	-10.7191
▁1923	-10.7192
▁نب	-10.7193
حرير	-10.7193
▁نسبيًا	-10.7194
تغطية	-10.7195
يفة	-10.7196
▁أركان	-10.7196
▁الطويلة	-10.7196
▁اتفق	-10.72
▁البرونزي	-10.7201
توافر	-10.7202
▁اتفاقيات	-10.7202
▁معارض	-10.7204
▁المنازل	-10.7205
▁البث	-10.7205
▁التوتر	-10.7207
▁بشكلٍ	-10.7207
▁شبكات	-10.7207
▁وعُ	-10.721
▁العدوى	-10.721
▁مؤ	-10.7211
▁جميل	-10.7212
▁هائلة	-10.7212
ولين	-10.7212
▁طولون	-10.7212
▁ابت	-10.7216
▁الإجراءات	-10.7217
▁والسياسية	-10.7218
تْ	-10.7218
رنا	-10.722
▁تجربة	-10.7221
▁الشائعة	-10.7225
طاط	-10.7225
▁إدارية	-10.7226
وعد	-10.7227
▁يهودية	-10.7228
زير	-10.7228
▁مظاهر	-10.7229
▁وفيما	-10.7229
▁دائمًا	-10.723
▁الواحدة	-10.7231
▁قصيدة	-10.7239
▁وعين	-10.724
خفض	-10.7241
▁حكومية	-10.7246
▁الجمل	-10.7246
ربي	-10.7247
▁أوراكل	-10.7247
▁جبران	-10.7247
▁رواندا	-10.7248
▁1943	-10.725
▁استعداد	-10.725
فرج	-10.7252
▁انتشر	-10.7252
حجار	-10.7252
▁البلدة	-10.7252
▁قطار	-10.7254
▁حلقة	-10.7258
▁ويستخدم	-10.7259
خزان	-10.7264
كلفة	-10.7266
▁ذاتها	-10.7269
▁المُست	-10.727
▁بأنهم	-10.7271
ضخ	-10.7272
▁حصر	-10.7272
▁حاولت	-10.7273
أفضل	-10.7277
ie	-10.7278
lu	-10.7282
جات	-10.7282
▁شمالي	-10.7283
▁فشلت	-10.7285
وافد	-10.7285
▁اتهم	-10.7286
فيس	-10.7288
▁الذاتية	-10.7288
▁يعملون	-10.7291
▁الأخلاق	-10.7291
لَّ	-10.7293
▁قررت	-10.7295
ائط	-10.7295
منظمة	-10.73
▁المنتج	-10.7301
خليج	-10.7302
▁النتروجين	-10.7306
▁بمن	-10.7306
خاف	-10.7307
▁البندقية	-10.7307
▁تسيطر	-10.7307
▁أهالي	-10.7307
▁طلاب	-10.7307
▁وبحسب	-10.7311
▁المبكر	-10.7315
▁كرئيس	-10.7316
▁التج	-10.7317
▁التواصل	-10.7322
▁بحق	-10.7326
اعتبار	-10.7329
▁الملكة	-10.7331
▁تُعد	-10.7332
▁إجراءات	-10.7334
▁حج	-10.7335
▁حاسوب	-10.7336
▁للسكان	-10.7339
▁إنما	-10.734
▁عماد	-10.7345
ميت	-10.7346
▁نماذج	-10.735
خوارزم	-10.7351
▁أساليب	-10.7352
مؤتمر	-10.7357
▁المغولي	-10.7358
▁يورو	-10.7362
▁الوزن	-10.7364
▁المستشفيات	-10.7366
▁العذراء	-10.7366
▁الطقس	-10.7367
▁إسلامي	-10.7368
▁اشتر	-10.737
▁يدرس	-10.7371
ex	-10.7371
تشكل	-10.7372
▁الكلاسيكي	-10.7375
▁وحسب	-10.7378
▁فحسب	-10.7379
▁القليلة	-10.7381
▁صربيا	-10.7387
▁مستشار	-10.7387
▁فُ	-10.7389
▁السواحل	-10.739
زف	-10.7392
توج	-10.7395
▁فرنسي	-10.7395
▁للشمس	-10.7395
▁تدعم	-10.7396
▁الرسائل	-10.7398
▁التح	-10.7399
▁الفرقة	-10.7399
▁الثروة	-10.74
يمان	-10.7401
▁u	-10.7402
مجال	-10.7403
▁مقاطعات	-10.7403
▁ومنع	-10.7404
دفاع	-10.7404
▁مشتق	-10.7405
سعيد	-10.7408
▁المثلية	-10.7409
بقية	-10.7411
▁تمثال	-10.7412
▁أشعة	-10.7413
▁القا	-10.7419
▁بورصة	-10.7424
▁قضايا	-10.7426
▁عائلته	-10.7426
▁مفاوضات	-10.7426
▁منغوليا	-10.7426
▁أشجار	-10.7426
▁ضروري	-10.7427
قَ	-10.7428
ُها	-10.7432
▁ديفيد	-10.7435
▁تعاني	-10.7435
▁وقاد	-10.7437
▁وتمكن	-10.7437
▁الاعتماد	-10.7437
▁برز	-10.744
صفر	-10.744
▁قاتل	-10.7441
▁الأمراء	-10.7441
▁استغلال	-10.7446
▁الذهبية	-10.7446
▁فقدت	-10.7448
▁تجارب	-10.7448
▁ممر	-10.7448
▁مج	-10.7449
▁وشارك	-10.745
▁النتيجة	-10.7453
▁القوي	-10.7453
▁وأسر	-10.7453
ناز	-10.7455
▁العقود	-10.7455
منع	-10.7457
عنف	-10.7458
▁وبو	-10.746
▁أنشئت	-10.7461
▁الأهداف	-10.7463
▁المساواة	-10.7464
fi	-10.7464
▁لحركة	-10.7465
▁عضوية	-10.7466
دستور	-10.7467
▁استقال	-10.7467
▁صندوق	-10.7468
▁قطب	-10.7473
▁الطفل	-10.7473
▁وبن	-10.7478
استفادة	-10.7479
إبراهيم	-10.7482
▁المرتفعات	-10.7482
▁إر	-10.7482
ارية	-10.7483
أنَّهُ	-10.7486
▁انسحاب	-10.7486
▁اعتقال	-10.7487
▁نبتون	-10.7489
سؤال	-10.749
▁الأهمية	-10.749
أصحاب	-10.7491
▁غلاف	-10.7491
يرى	-10.7492
▁المسيحيون	-10.7493
▁2021	-10.7493
▁محفوظ	-10.7493
▁فار	-10.7493
▁كلّ	-10.7493
▁j	-10.7494
فحص	-10.7494
ci	-10.7496
اجتماع	-10.7496
نهر	-10.7496
شيوعي	-10.7496
▁الويب	-10.7497
متع	-10.7497
▁تتمثل	-10.7499
ريج	-10.7501
▁وخمس	-10.7501
امين	-10.7501
▁بقوله	-10.7501
روز	-10.7502
▁تعاون	-10.7502
▁تؤثر	-10.7503
▁(«	-10.7504
▁الجمال	-10.7504
▁النور	-10.7506
▁اد	-10.7507
▁تبين	-10.7508
▁حلول	-10.7512
فرقة	-10.7512
▁مركزًا	-10.7514
▁ودور	-10.7517
ونها	-10.7519
ساحل	-10.752
▁يستمر	-10.7521
▁كول	-10.7523
▁وعمر	-10.7524
▁وسيطر	-10.7524
▁وجر	-10.7525
جاو	-10.7525
▁؛	-10.7526
▁اجتماعية	-10.7527
▁زادت	-10.7528
▁آشور	-10.7528
مملكة	-10.7528
▁العد	-10.7531
▁شائعة	-10.7531
سورة	-10.7534
▁بقدر	-10.7537
هيدروجين	-10.7537
▁تشهد	-10.7538
طق	-10.7539
▁الإلكترون	-10.7539
▁الخطر	-10.7539
عداد	-10.7541
▁المستشار	-10.7541
امتدت	-10.7542
▁الانتصار	-10.7544
▁الغوري	-10.7545
انخفاض	-10.7545
▁الحقيقية	-10.7546
▁روزفلت	-10.7546
▁ضرورة	-10.7546
▁قِبل	-10.7546
▁ينتشر	-10.7548
▁اللفظ	-10.7548
▁الدماغ	-10.7551
▁أحياناً	-10.7551
▁قابلة	-10.7554
▁ساد	-10.7554
.4%	-10.7555
▁جنيه	-10.7556
▁السامري	-10.7557
▁الأجنبي	-10.7558
ديب	-10.756
▁دائما	-10.756
▁ذكره	-10.7562
▁وفيها	-10.7562
▁al	-10.7563
أدوية	-10.7563
▁أحكام	-10.7564
▁وأع	-10.7564
▁الخطة	-10.7567
تخذ	-10.7567
3)	-10.7567
▁نس	-10.7568
▁والبن	-10.757
▁تقنيات	-10.7572
▁توصل	-10.7574
▁واليهود	-10.7574
غراف	-10.7576
بيب	-10.7576
حظر	-10.7577
▁شاهد	-10.7578
فلور	-10.7578
▁المصابين	-10.7578
▁أربعين	-10.7579
▁يقيم	-10.7579
▁التفاعلات	-10.758
▁التمرد	-10.758
سبق	-10.7582
بعض	-10.7583
َرَ	-10.7584
▁استخدامه	-10.7585
▁الفخار	-10.7585
حروب	-10.7585
▁الإقليمي	-10.7588
▁البيرو	-10.7589
▁ميد	-10.7592
▁النفوذ	-10.7594
do	-10.7595
▁سابقة	-10.7595
▁البربر	-10.7601
زهرة	-10.7603
▁السهول	-10.7604
▁توليد	-10.7604
▁الأمنية	-10.7606
▁القصور	-10.7607
حث	-10.7607
▁فايزر	-10.7607
▁الكونغرس	-10.7608
▁بعدد	-10.7608
▁لحقوق	-10.7608
▁الدبلوماسية	-10.7608
▁تمرد	-10.7611
تظاهر	-10.7612
▁رابطة	-10.7612
▁وخط	-10.7613
▁2010.	-10.7615
▁العرقي	-10.7616
▁التع	-10.7624
برج	-10.7624
▁صياغة	-10.7625
▁بالمقارنة	-10.7626
▁التنجيم	-10.7627
رغم	-10.7629
نقش	-10.7632
ig	-10.7632
▁الثامنة	-10.7637
▁لواء	-10.7638
▁زين	-10.7638
حتاج	-10.764
شركات	-10.7641
▁رموز	-10.7642
▁تضمنت	-10.7642
▁الصادق	-10.7643
ّار	-10.7643
غضب	-10.7644
▁الأق	-10.7646
▁لقاء	-10.7647
فرو	-10.7649
وتس	-10.7649
▁فخر	-10.7651
▁شاعر	-10.7651
▁المخطط	-10.7652
▁غيره	-10.7652
▁تاريخه	-10.7655
va	-10.7657
خور	-10.7657
▁الهادي	-10.7657
▁العادة	-10.7658
▁ودعا	-10.7658
عدم	-10.7659
▁افتتح	-10.766
▁درب	-10.7663
▁دعوة	-10.7664
▁أغنية	-10.7665
▁ماري	-10.7666
▁مول	-10.7668
▁النهرين	-10.7669
فرنسا	-10.7669
تآكل	-10.7669
خزن	-10.7671
▁الهائل	-10.7673
▁شهور	-10.7673
▁أوَّل	-10.7674
جاري	-10.7674
نجا	-10.7677
▁انخفض	-10.7677
▁حقيقي	-10.7678
عبارة	-10.768
غرق	-10.768
▁الفعلي	-10.768
▁الثمانينات	-10.7681
رئيس	-10.7681
نشط	-10.7682
▁وصار	-10.7682
▁المثلث	-10.7683
▁وأوروبا	-10.7689
▁دقيق	-10.7695
▁التقليد	-10.7697
▁تأمين	-10.7701
صالات	-10.7704
نقض	-10.7705
▁الهندوسية	-10.7706
▁أمراض	-10.7708
مئوي	-10.7708
▁ديوان	-10.7708
ul	-10.7709
شان	-10.7709
▁المتبقية	-10.7711
▁بنى	-10.7712
لبس	-10.7712
▁لمنظمة	-10.7713
▁مركزاً	-10.7713
▁البريد	-10.7715
900	-10.772
▁وآل	-10.7726
الله	-10.7727
▁تعبير	-10.7727
▁الهزيمة	-10.7727
▁ودعم	-10.7727
تأكد	-10.773
مقاييس	-10.773
▁مقبرة	-10.7731
▁بالعمل	-10.7734
▁بدقة	-10.7735
▁الكورية	-10.7737
▁السلم	-10.7738
▁نقد	-10.7739
▁بلة	-10.7741
▁المالي	-10.7742
يمة	-10.7746
لذين	-10.7747
▁مص	-10.7751
▁المادية	-10.7752
دفن	-10.7753
▁الجُند	-10.7758
▁المتزايد	-10.7759
]].	-10.7767
▁الجميع	-10.777
مناقشة	-10.7771
▁ملح	-10.7771
▁للفرد	-10.7773
مدارس	-10.7773
▁المسؤول	-10.7773
▁اليونانيين	-10.7774
توفيق	-10.7776
▁الظهر	-10.7777
نتي	-10.778
كامي	-10.778
لحفاظ	-10.778
أراضي	-10.7784
▁حوله	-10.779
▁التسعينات	-10.7793
▁المستوطنات	-10.7794
▁السماوية	-10.7794
▁لتحرير	-10.7796
ربو	-10.7807
▁لاستخدام	-10.7807
أخ	-10.7808
▁الغازات	-10.7809
▁العصبي	-10.7809
▁نسبيا	-10.781
▁پ	-10.7812
رشد	-10.7816
▁إبان	-10.7818
ذات	-10.7819
▁قبيل	-10.7821
جح	-10.7829
▁سعى	-10.783
▁الطابع	-10.7832
مرحلة	-10.7834
▁عضوا	-10.7836
▁تدل	-10.7838
▁الذكاء	-10.7843
▁(11	-10.7843
ذار	-10.7844
▁صلة	-10.7846
▁أقلية	-10.7846
▁يحدد	-10.7846
▁الزعيم	-10.7847
انتخابات	-10.7847
0000	-10.7851
قطر	-10.7852
▁مهما	-10.7853
▁بعمل	-10.7853
▁البلماح	-10.7855
▁العظام	-10.7855
▁مساحات	-10.7855
▁اللاهوت	-10.7855
▁رولينغ	-10.7855
▁ملاحظة	-10.7856
▁البور	-10.7856
▁يكفي	-10.7856
▁إفريقية	-10.7856
▁الآراء	-10.7857
شى	-10.7857
تحصين	-10.7857
▁الإناث	-10.7858
▁الذرات	-10.7859
▁اعتبرت	-10.7859
▁الفراغ	-10.786
wa	-10.786
▁وتوفي	-10.7863
▁الشو	-10.7863
قارن	-10.7864
ذك	-10.7865
600	-10.7865
▁حقبة	-10.7865
▁دوم	-10.7865
▁حاسم	-10.7867
▁والغاز	-10.7869
▁الآلي	-10.787
▁جسد	-10.787
مَ	-10.787
▁كهربائي	-10.7871
رتفع	-10.7871
▁وإسرائيل	-10.7872
▁حبيب	-10.7878
▁كاس	-10.7879
قلة	-10.788
▁العمود	-10.788
▁وثيق	-10.7881
▁مرشح	-10.7883
▁تتخذ	-10.7886
▁خلايا	-10.7887
▁العصبة	-10.7889
▁إنترنت	-10.7889
▁الأف	-10.7892
ربع	-10.7902
▁العصبية	-10.7903
▁الفضائية	-10.7904
شمس	-10.7908
▁لوجود	-10.7909
رتي	-10.791
جرام	-10.7912
ْم	-10.7912
▁المعهد	-10.7914
▁كلما	-10.7916
أكسجين	-10.7918
▁أسست	-10.7918
▁بونابرت	-10.7918
▁تبليسي	-10.7918
▁للتعليم	-10.7918
▁الملاريا	-10.7918
▁اتباع	-10.792
▁سياسات	-10.7921
▁الرسالة	-10.7922
▁لكنهم	-10.7923
▁ووجد	-10.7923
▁واتخذ	-10.7925
▁الساحة	-10.7925
▁أوامر	-10.7926
أطلس	-10.7926
▁سعر	-10.7929
▁عبيد	-10.7929
▁يؤ	-10.7932
حاصر	-10.7932
▁الغير	-10.7932
▁الحمل	-10.7932
▁وتستخدم	-10.7932
▁إلكترون	-10.7933
تنقل	-10.7934
مقاطعة	-10.7934
▁النشط	-10.7935
درب	-10.7937
ختار	-10.7938
صحيفة	-10.7938
جتمع	-10.7939
▁شمالاً	-10.7941
▁أسد	-10.7944
بته	-10.7944
ومو	-10.7947
▁ويعمل	-10.7947
▁تركز	-10.7949
▁أفلاطون	-10.795
▁التقسيمات	-10.7951
▁مليارات	-10.7951
▁محافظات	-10.7953
مسلم	-10.7953
▁مقام	-10.7954
▁المنهج	-10.7955
بادر	-10.7955
▁والهندسة	-10.7956
شاري	-10.7956
مناهج	-10.7957
▁لأغراض	-10.796
▁ولادة	-10.7963
we	-10.7963
▁والتجار	-10.7965
▁والتاريخ	-10.7967
▁المباشرة	-10.7967
هَا	-10.7969
▁قرى	-10.7969
▁للعلوم	-10.797
▁مميزة	-10.7971
عضو	-10.7972
جند	-10.7972
▁يدفع	-10.7974
▁للاست	-10.7975
مز	-10.7976
توقع	-10.7976
جواز	-10.798
▁السابعة	-10.7981
ber	-10.7981
تطهير	-10.7981
▁المعتقدات	-10.7982
▁السياسات	-10.7982
▁الخلفية	-10.7983
▁البيان	-10.7983
▁لعلاج	-10.7983
▁وجزر	-10.7983
▁الجزيئات	-10.7983
▁أسوان	-10.7985
▁37	-10.7986
▁جيشًا	-10.7987
إقليم	-10.7988
فتي	-10.7988
▁ونظام	-10.7988
تحمل	-10.7988
ردي	-10.7988
الدولة	-10.7991
ّج	-10.7991
▁بكتاب	-10.7991
▁يستطع	-10.7991
▁للإشارة	-10.7992
▁الحروف	-10.7993
▁أمريكية	-10.7994
أدوات	-10.7994
ومن	-10.7995
▁عمران	-10.8
▁العز	-10.8
▁اليمني	-10.8001
▁الموانئ	-10.8003
وزي	-10.8006
▁الممر	-10.8008
ation	-10.8012
▁والسل	-10.8015
تمهيد	-10.8015
▁1930	-10.8019
▁طبع	-10.802
▁للنظام	-10.8021
سْ	-10.8022
▁الرد	-10.8023
▁شعبي	-10.8024
bi	-10.8026
▁الذكر	-10.8026
▁الثقب	-10.8027
▁مطر	-10.8031
▁والدين	-10.8035
هتم	-10.8036
▁لحل	-10.8037
قسيم	-10.8038
بروتستانت	-10.8038
▁الظاهر	-10.8039
تمكن	-10.804
sh	-10.804
ke	-10.804
تربية	-10.8042
استئناف	-10.8045
▁وأخرى	-10.8045
▁وانتهت	-10.8046
أكبر	-10.8047
ملوك	-10.805
طاحة	-10.8051
▁المذكورة	-10.8053
▁ارتفع	-10.8053
ظف	-10.8054
▁النو	-10.8055
▁نجيب	-10.8058
يسمى	-10.8059
▁رؤساء	-10.806
تعريف	-10.8063
▁لسنة	-10.8065
الإ	-10.8066
حمد	-10.8066
▁ترا	-10.8066
▁المرشح	-10.8069
ot	-10.8069
سوء	-10.807
▁الانفصال	-10.8072
▁شرط	-10.8075
جيو	-10.8076
أشعة	-10.8076
أغراض	-10.8076
وغراف	-10.8078
▁الغاب	-10.808
▁وتقوم	-10.808
عنصر	-10.8082
لجأ	-10.8083
▁36	-10.8087
خلط	-10.8088
▁120	-10.8089
خال	-10.809
غون	-10.8096
▁وتر	-10.8098
قلعة	-10.8099
▁2006.	-10.81
▁2008.	-10.8101
▁النبوية	-10.8103
محرر	-10.8104
▁اللات	-10.8104
ُّه	-10.8106
▁مصالح	-10.8108
▁حنيفة	-10.8109
▁سفيان	-10.8109
▁دجلة	-10.8109
▁المفتوحة	-10.8109
▁وبريطانيا	-10.811
▁الفلز	-10.811
▁العم	-10.8111
▁وأنَّ	-10.8111
▁الزجاج	-10.8112
▁مناصب	-10.8113
▁وفرض	-10.8117
وجَّه	-10.8117
▁الدموية	-10.8118
▁الفئة	-10.8119
▁الست	-10.8119
.2%	-10.812
▁الصادر	-10.8122
▁الفنانين	-10.8126
دائي	-10.8127
▁صمم	-10.8129
200	-10.8132
زور	-10.8132
صانع	-10.8138
أكل	-10.8138
▁شكسبير	-10.8141
▁المنافسة	-10.8141
▁قانوني	-10.8142
▁سيارات	-10.8144
نتخب	-10.8146
▁وكتاب	-10.8147
تمدد	-10.8148
قديس	-10.8148
بولي	-10.8151
▁عشرات	-10.8151
▁قسمين	-10.8151
▁المرئي	-10.8153
▁ترى	-10.8157
زق	-10.8157
سأل	-10.8157
▁يحاول	-10.8161
▁لوصف	-10.8164
po	-10.8167
إستراتيجي	-10.8172
▁بحري	-10.8172
▁إيجاد	-10.8173
▁فهد	-10.8173
▁تقارير	-10.8174
▁القنوات	-10.8174
▁الخواص	-10.8175
▁مقدمة	-10.8175
▁البرمجة	-10.8175
ذبح	-10.8177
▁ضيق	-10.8178
▁تضمن	-10.8179
▁والثقافية	-10.8179
ِيَّة	-10.8181
حاط	-10.8185
▁الرق	-10.8185
▁الجزيئي	-10.8187
▁الصلة	-10.819
حط	-10.8194
▁التسعينيات	-10.8196
فيضان	-10.8197
▁الدوران	-10.8197
تأسيس	-10.8198
فقد	-10.8198
▁الخلية	-10.8198
▁الليبية	-10.8199
▁فيقول	-10.82
▁يلعب	-10.8203
▁اشتهرت	-10.8204
di	-10.8205
زيت	-10.8205
عدّ	-10.8206
▁لحزب	-10.8207
كتلة	-10.8209
▁عموم	-10.821
▁نف	-10.821
▁أخو	-10.822
▁بضع	-10.8221
▁المبادئ	-10.8223
▁عضواً	-10.8224
▁تقسم	-10.8228
▁لف	-10.8228
▁المشاهد	-10.8229
▁ولبنان	-10.8229
▁الفرات	-10.8234
▁الزنجبيل	-10.8238
▁المباراة	-10.8239
▁لان	-10.8239
▁علاقته	-10.8239
نجي	-10.824
▁أسم	-10.8241
▁المص	-10.8241
▁الإنفاق	-10.8242
▁المرتفعة	-10.8243
▁التخلي	-10.8246
▁حاجة	-10.8246
▁الجغرافية	-10.8248
ّين	-10.8252
ِب	-10.8253
com	-10.8255
▁القيم	-10.8256
صندوق	-10.8257
▁عدداً	-10.8258
▁الباحثون	-10.8261
تاب	-10.8263
صلاة	-10.8265
▁العائلات	-10.8266
▁الصواريخ	-10.8267
▁الذرية	-10.8267
حماية	-10.8268
▁بدر	-10.8269
ستخدام	-10.8271
▁أبيض	-10.8273
▁الأميركي	-10.828
▁يسير	-10.8286
كسي	-10.8286
وبو	-10.8289
متابعة	-10.8289
▁حرة	-10.8295
▁مسقط	-10.8295
أكاديمي	-10.8297
▁ابتداء	-10.8301
▁كشفت	-10.8303
▁البترول	-10.8304
▁التلفاز	-10.8304
انتظار	-10.8304
▁وآسيا	-10.8305
▁البارزة	-10.8305
▁توأمة	-10.8305
▁واجهت	-10.8305
▁1937	-10.8307
أعمارهم	-10.8308
▁كتبه	-10.8308
▁الحكام	-10.8309
▁يميل	-10.831
▁الخيار	-10.8311
لوح	-10.8314
موند	-10.8317
io	-10.8318
▁والدولة	-10.8318
أدب	-10.8321
▁دع	-10.8327
▁النسخة	-10.8331
▁أبنائه	-10.8331
▁القرم	-10.8333
▁يساوي	-10.8334
ناصر	-10.8335
▁وعم	-10.8335
▁أبعد	-10.8338
بيض	-10.8338
جنس	-10.834
▁البرتغالي	-10.834
▁تساوي	-10.8342
▁بمنطقة	-10.8345
▁الجماهير	-10.8347
▁شأنه	-10.8349
▁أولاً	-10.8349
▁and	-10.8349
▁الجامعي	-10.8351
▁ومر	-10.8352
6,	-10.8352
▁أتباعه	-10.8355
▁يترك	-10.8356
▁المطلق	-10.836
tu	-10.8361
▁للسيطرة	-10.8363
▁سريعة	-10.8364
دعوى	-10.8364
شعل	-10.8366
▁العاملين	-10.8368
▁وجب	-10.8369
▁هلسنكي	-10.837
▁الزرقاء	-10.837
▁سُليمان	-10.837
استيعاب	-10.8371
بالإنجليزية	-10.8371
▁الاختلاف	-10.8374
▁النهار	-10.8376
▁اليورو	-10.8378
▁نزاع	-10.8381
▁ويتكون	-10.8381
تكوّن	-10.8381
اؤها	-10.8383
ki	-10.8384
▁المطالب	-10.8385
روسيا	-10.8385
▁عقل	-10.8386
▁عبور	-10.8388
نحاس	-10.8388
▁رعاية	-10.8389
▁اللهجة	-10.8391
▁تبدو	-10.8392
إذاعة	-10.8393
عني	-10.8395
▁الطائفة	-10.8395
قوت	-10.8396
▁التهاب	-10.8397
▁لدول	-10.8399
▁كتبت	-10.8399
▁بجيش	-10.8401
▁السُ	-10.8402
ُهُ	-10.8402
▁للدفاع	-10.8404
▁القشرة	-10.8404
▁المالكي	-10.8405
▁250	-10.8407
▁يوفر	-10.8408
▁والفلسفة	-10.841
▁يعلم	-10.8421
▁مم	-10.8422
▁منفصل	-10.8423
▁الثورات	-10.8425
ip	-10.8427
محاربة	-10.8428
1)	-10.8429
▁يكونوا	-10.8434
نور	-10.8436
▁الأفغان	-10.8436
زواج	-10.8437
▁الرحلة	-10.8438
▁وقطاع	-10.8438
▁العامل	-10.8438
▁3000	-10.8439
▁الشروط	-10.844
▁تتطلب	-10.8441
عمارة	-10.8443
▁رابع	-10.8444
آر	-10.8447
▁السويدي	-10.8449
ضاء	-10.8451
خاص	-10.8451
.3%	-10.8452
▁والكر	-10.8454
▁البابلي	-10.8457
▁الحس	-10.8459
▁التقنيات	-10.846
▁المفاهيم	-10.8461
▁المحافظات	-10.8461
▁معسكر	-10.8462
حديقة	-10.8462
بطولة	-10.8462
▁ودي	-10.8463
▁ترتفع	-10.8465
▁لمجلس	-10.8466
زحف	-10.8466
▁استضافت	-10.8468
▁جند	-10.8468
▁مؤيد	-10.8469
كاب	-10.847
▁بطليموس	-10.8471
▁وزاد	-10.8473
▁ومقر	-10.8475
▁كير	-10.8475
▁اعتقاد	-10.8479
بريد	-10.8479
▁عمه	-10.8479
▁جار	-10.848
بمرور	-10.8481
▁سنتين	-10.8482
▁التحقيق	-10.8483
▁الابن	-10.8487
▁قب	-10.8487
لندية	-10.8488
▁العرق	-10.8489
▁الطين	-10.8492
▁مشتقة	-10.8493
▁فيتنام	-10.8494
▁وتشير	-10.8495
▁الزيت	-10.8499
▁ازداد	-10.8501
▁السوداني	-10.8503
▁التأثيرات	-10.8504
ستهلك	-10.8506
▁صل	-10.8506
▁المسبار	-10.8507
واسط	-10.8508
▁المحل	-10.8511
بيري	-10.8512
▁أسوار	-10.8513
▁ستكون	-10.8515
▁الآشورية	-10.8517
▁السلسلة	-10.8522
آي	-10.8524
▁القمة	-10.8525
▁700	-10.8526
▁حكمت	-10.8526
درة	-10.8526
▁البُويهي	-10.8527
▁البولندي	-10.8528
▁الجيولوجي	-10.8528
▁قالت	-10.8529
فَ	-10.8529
▁السلالة	-10.8531
▁سجلت	-10.8533
▁جريدة	-10.8533
▁معان	-10.8535
▁النس	-10.8536
▁النمساوي	-10.8539
▁إدوارد	-10.854
ريو	-10.8541
▁الغالبية	-10.8541
مركبات	-10.8542
.8%	-10.8543
▁الأنف	-10.8545
▁للزراعة	-10.8545
▁فأمر	-10.8548
▁السهل	-10.8548
قِ	-10.8548
▁أوقات	-10.8549
▁ملعب	-10.855
▁الفلسفية	-10.8553
تمثيل	-10.8553
tor	-10.8555
▁مدرس	-10.8555
باقي	-10.8556
▁الانتهاء	-10.8556
▁هاي	-10.856
▁ونهر	-10.856
▁اعتمدت	-10.856
▁فلسطيني	-10.856
▁الصادرات	-10.856
▁وأحد	-10.856
فرنسي	-10.8562
▁زوجة	-10.8562
▁خلع	-10.8563
▁المهنية	-10.8563
غريب	-10.8565
▁الحمداني	-10.8566
الج	-10.8567
أساطير	-10.8567
يمين	-10.8568
▁الفردية	-10.8568
▁الوظائف	-10.857
▁جير	-10.857
▁الخمسين	-10.857
▁الإباضية	-10.857
▁بليز	-10.8571
فاصل	-10.8572
▁ورفع	-10.8573
نخفض	-10.8574
عبادة	-10.8574
نظيف	-10.8574
▁عضوًا	-10.8575
▁تُعتبر	-10.8576
تسامح	-10.8577
▁الفطر	-10.858
▁ومدينة	-10.858
خبز	-10.8582
▁العنب	-10.8583
▁الأشهر	-10.8584
▁يؤثر	-10.8586
▁وهزم	-10.8587
▁استقبال	-10.8587
ايد	-10.8588
ضد	-10.8589
▁ماك	-10.859
▁الصديق	-10.8594
▁المشهور	-10.8596
▁منْ	-10.8598
▁إحياء	-10.8601
ندل	-10.8602
أثر	-10.8604
▁الشائع	-10.8605
▁وحمل	-10.8609
▁المتحدث	-10.8612
▁مف	-10.8616
▁فقدان	-10.8616
فيتامين	-10.8617
▁وخرج	-10.8618
▁الأميركية	-10.8618
صيغ	-10.8621
تشرين	-10.8624
مسرح	-10.8624
ميناء	-10.8625
▁ودفع	-10.8627
▁الأش	-10.8627
▁السياسيين	-10.8627
▁زعماء	-10.8629
cl	-10.8629
▁لتر	-10.8634
▁تفاصيل	-10.8637
▁تأليف	-10.8637
▁الهيثم	-10.8638
▁بإرسال	-10.8638
سيادة	-10.8639
▁مراقبة	-10.8642
▁إثبات	-10.8643
▁شباط	-10.8643
▁الأولي	-10.8644
▁إنهاء	-10.8646
▁الدولتين	-10.8647
▁الثماني	-10.8647
رسالة	-10.8653
▁تعدد	-10.8654
▁بيئة	-10.8654
حمي	-10.8655
▁البُ	-10.8658
شريف	-10.8658
ذنب	-10.866
تخلص	-10.8666
عدد	-10.8667
مصطلح	-10.8671
بُو	-10.8672
ؤول	-10.8672
شوف	-10.8672
▁ككل	-10.8675
ُه	-10.8677
فيزيائي	-10.8678
▁عمود	-10.8678
▁يفعل	-10.8679
حمام	-10.8679
صاعد	-10.8682
▁وتعرف	-10.8682
▁1500	-10.8682
▁صفة	-10.8682
▁فخرج	-10.8683
▁صحراء	-10.8684
▁مشاركة	-10.8687
▁والتجارة	-10.8688
قضي	-10.8693
ent	-10.8695
جموع	-10.8699
▁ثقافية	-10.8705
▁كلثوم	-10.8705
▁لضمان	-10.8706
▁الانضمام	-10.8706
▁للجمهورية	-10.8706
▁أعلاه	-10.8707
▁وإنشاء	-10.8707
▁لكتاب	-10.8709
▁رائد	-10.8711
▁المتحركة	-10.8712
▁أورانوس	-10.8713
▁تخصص	-10.8714
▁مميز	-10.8714
▁الخلافات	-10.8717
▁يومنا	-10.8719
_1	-10.872
▁صفات	-10.8723
id	-10.8724
ارك	-10.8727
تقاعد	-10.8727
رياح	-10.8728
▁للمنطقة	-10.8735
▁غازي	-10.8741
▁أحادي	-10.8743
آخر	-10.8746
▁ويشكل	-10.8746
▁الدفع	-10.8747
▁حضور	-10.8747
▁كيلومترا	-10.8747
▁مركزا	-10.8748
كير	-10.8751
طلاع	-10.8757
َتْ	-10.8763
▁حدودها	-10.8763
المعروف	-10.8766
▁دائمة	-10.8766
▁رياضية	-10.877
▁وضعها	-10.877
▁التم	-10.877
لندي	-10.8772
َ]]	-10.8773
خليفة	-10.8773
▁السند	-10.8773
موري	-10.8774
▁للمسلمين	-10.8774
▁الفيديو	-10.8774
▁أعراض	-10.8775
▁وإيطاليا	-10.8775
▁نيوتن	-10.8775
▁زعم	-10.8776
▁فولتير	-10.8776
أضحى	-10.8776
▁وأمريكا	-10.8776
▁الأبعاد	-10.8776
▁كنت	-10.8778
▁1924	-10.8778
▁لسان	-10.8778
▁وفاز	-10.8778
▁ممالك	-10.8779
▁الشخصي	-10.8779
▁الفاصل	-10.8779
▁السرية	-10.878
أبي	-10.878
▁يشارك	-10.8784
▁وأنشأ	-10.8784
▁التشريع	-10.8785
▁الصحفي	-10.8785
▁علامات	-10.8786
▁ومما	-10.8789
▁والمواد	-10.8789
▁والحكومة	-10.879
▁المائي	-10.8793
▁مسجل	-10.8793
الش	-10.8793
▁بمقدار	-10.8794
▁عصره	-10.8795
▁عملت	-10.8795
▁زيدان	-10.8799
▁الولادة	-10.8801
ساحة	-10.8804
▁صناعية	-10.8804
▁الدائم	-10.8805
قطار	-10.8808
سكون	-10.8809
▁السبعينيات	-10.881
أكثر	-10.881
▁خلفه	-10.881
إمارة	-10.8812
▁للثقافة	-10.8814
▁والمحيط	-10.8814
▁يعبر	-10.8815
▁إشعاع	-10.8817
▁لحكم	-10.8817
طبخ	-10.8821
▁الثوري	-10.8823
اله	-10.8829
ويك	-10.883
تعارض	-10.883
▁ثبت	-10.8831
▁والكتابة	-10.8837
▁الباقي	-10.8841
▁الحن	-10.8841
▁ليون	-10.8842
▁زلزال	-10.8843
إضراب	-10.8846
▁1935	-10.8846
▁موريتانيا	-10.8848
▁أمتار	-10.8848
der	-10.8849
▁وتحت	-10.8849
▁أخوه	-10.8857
عظم	-10.8857
▁التعرض	-10.8859
▁التحويل	-10.8859
نشئ	-10.886
▁شباب	-10.886
▁برلمان	-10.8861
▁وحدها	-10.8861
▁لاي	-10.8863
▁وفلسطين	-10.8865
▁تنازل	-10.8866
مريض	-10.8866
▁تسلسل	-10.8866
▁واستقر	-10.8867
شهدت	-10.8869
حقق	-10.8869
ثيل	-10.887
▁المريني	-10.8871
▁تقليل	-10.8872
▁الفكرية	-10.8873
ڤي	-10.8873
▁الأئمة	-10.8877
▁التنفيذ	-10.8879
تدهور	-10.8883
تيل	-10.8883
▁معلم	-10.8884
▁قيم	-10.8884
▁شخصيات	-10.8888
▁والآخر	-10.889
البحر	-10.8893
▁ينتم	-10.8893
▁مستعمرات	-10.8894
▁إعداد	-10.8897
▁مين	-10.8898
▁التك	-10.8899
▁الاختبار	-10.8906
▁أداة	-10.8908
عمد	-10.8908
▁الجسد	-10.8908
▁القتل	-10.8908
▁الرافدين	-10.8912
▁الهدنة	-10.8912
اجتهاد	-10.8913
▁التقديرات	-10.8913
▁الفرصة	-10.8913
▁الألوان	-10.8914
داب	-10.8915
▁قرارات	-10.8915
تزويد	-10.8916
▁اتجه	-10.8917
ئذ	-10.8918
إثارة	-10.8919
▁إخراج	-10.892
▁مِن	-10.8921
▁مالكوم	-10.8921
ممارسة	-10.8922
▁اللهجات	-10.8923
▁وأنها	-10.8924
سيما	-10.8926
جديد	-10.8926
قصة	-10.8927
▁10%	-10.8932
▁السماح	-10.8932
▁التقرير	-10.8935
جود	-10.8937
▁قليلاً	-10.894
▁القطر	-10.8943
▁الثمانينيات	-10.8944
▁يجوز	-10.8946
▁لقي	-10.8947
▁يدعم	-10.8949
المسيح	-10.895
▁النظير	-10.8952
▁الطيف	-10.8955
خوض	-10.8956
▁بعثة	-10.8956
لأ	-10.8956
▁زر	-10.8957
▁للتقوي	-10.8958
▁تحصل	-10.8962
pro	-10.8966
▁أيوب	-10.8966
▁سيادة	-10.8967
تتكون	-10.8968
▁للا	-10.8969
نفق	-10.8972
رئاسة	-10.8974
تيس	-10.898
بأ	-10.8981
فاس	-10.8981
▁التنقيب	-10.8982
تصغير	-10.8983
▁الكاريبي	-10.8983
▁واضطر	-10.8984
▁الآلات	-10.8985
▁1942	-10.8985
▁الْ	-10.8986
▁النهائية	-10.8986
ko	-10.8987
▁ياسر	-10.8987
استيراد	-10.8988
▁وأيضاً	-10.8988
▁المناعي	-10.8988
▁نزول	-10.8991
▁وارسو	-10.8991
دبابات	-10.8991
▁ترب	-10.8992
▁الجهات	-10.8993
▁وبحر	-10.8993
▁بئر	-10.8994
▁مهندس	-10.8994
كيا	-10.8995
▁خطأ	-10.8995
ورق	-10.8999
▁البحوث	-10.9001
منحوت	-10.9003
▁المجري	-10.9004
▁البلديات	-10.9006
هاجر	-10.9006
مغناطيس	-10.901
▁بالسكان	-10.901
▁عوض	-10.9011
▁مؤرخ	-10.9011
▁الجدل	-10.9014
▁لِمُ	-10.9016
▁الثقيلة	-10.9018
هيمنة	-10.9018
حصان	-10.9018
ٌّ	-10.9022
▁شراء	-10.9022
▁المؤيد	-10.9022
داي	-10.9023
▁خي	-10.9024
▁خرجت	-10.9025
▁وسُ	-10.9028
▁مُست	-10.9028
▁أث	-10.903
▁المكونات	-10.9031
▁أسسها	-10.9032
▁يتعرض	-10.9033
ريل	-10.9036
وضح	-10.9037
▁مرتبة	-10.9037
per	-10.9038
طير	-10.904
▁المصالح	-10.9041
▁ويجب	-10.9043
▁تأخذ	-10.9044
▁والشمال	-10.9048
ستثمر	-10.9049
▁الجفاف	-10.9049
▁الاستراتيجي	-10.9052
▁الشاهزاده	-10.9052
▁بتقديم	-10.9052
قُوَّات	-10.9052
▁تعاليم	-10.9053
حلول	-10.9053
نيوترون	-10.9053
▁الصخرية	-10.9054
▁تحيط	-10.9055
▁كيلومترًا	-10.9056
قاطع	-10.9056
▁1934	-10.9056
▁الحيوانية	-10.9059
نزاعات	-10.9059
▁يقبل	-10.9061
▁وعام	-10.9062
▁برزت	-10.9063
▁بإمكان	-10.9064
▁2016،	-10.9064
▁لِت	-10.9064
▁سرية	-10.9064
▁أحوال	-10.9066
▁الفيل	-10.9066
بيك	-10.9067
▁للأطفال	-10.907
كام	-10.907
▁حولها	-10.9071
نَّ	-10.9071
▁لبث	-10.9071
▁حملته	-10.9073
حمض	-10.9075
كربون	-10.9075
مطر	-10.9075
▁فدخل	-10.9077
▁والآ	-10.9077
ائض	-10.9079
صى	-10.9079
شاي	-10.9082
▁إنَّ	-10.9083
▁ابنة	-10.9084
قبائل	-10.9086
▁تكلفة	-10.9086
▁اكتشفت	-10.9086
▁الانتخابية	-10.9087
نافذ	-10.9087
توازي	-10.909
مشتق	-10.9091
▁خيرُ	-10.9091
▁الأسلوب	-10.9092
▁جدار	-10.9092
▁تواجه	-10.9093
غنى	-10.9093
▁تستمر	-10.9094
▁أقيمت	-10.9094
حلّ	-10.9095
▁بشار	-10.9095
▁حيوان	-10.9096
▁التجربة	-10.9097
▁حزام	-10.9097
▁لِي	-10.9098
قرر	-10.9099
▁مشابهة	-10.91
▁ورث	-10.9101
▁والعلم	-10.9103
▁مركبة	-10.9105
كتور	-10.9107
يناير	-10.9108
▁وكو	-10.9111
▁كلام	-10.9114
▁لعل	-10.9116
داو	-10.9118
om	-10.9119
▁الكهرومغناطيسية	-10.9121
جبال	-10.9122
▁نصب	-10.9123
▁استهلاك	-10.9123
odice	-10.9123
▁أسواق	-10.9124
▁الأسترالي	-10.9124
عذر	-10.9124
عقوبة	-10.9124
▁الزيادة	-10.9125
▁الستة	-10.9125
▁اعتراف	-10.9125
▁التنبؤ	-10.9127
▁جامعات	-10.9128
▁قضاء	-10.9128
▁وارتفاع	-10.9129
كتمل	-10.9129
لوحة	-10.9129
▁80%	-10.9129
▁والسياسة	-10.913
رشح	-10.913
▁2009.	-10.9131
▁الشفق	-10.9132
▁قواته	-10.9135
▁وأضاف	-10.9141
▁المضادة	-10.9141
▁تنقل	-10.9143
▁ريال	-10.9144
▁أشهرها	-10.9144
.7%	-10.9147
▁فلسطينية	-10.9149
ورث	-10.9149
▁عانت	-10.9149
rd	-10.9152
▁وأشار	-10.9153
0%	-10.9156
ابو	-10.9159
ِّه	-10.916
▁التونسي	-10.916
▁حمد	-10.916
تأكيد	-10.9161
إحصاء	-10.9162
▁الإعدام	-10.9162
توسط	-10.9165
بريطاني	-10.9165
▁بخط	-10.9165
ُف	-10.9166
▁تحسن	-10.9168
▁ومنح	-10.9171
▁كازاخستان	-10.9172
▁المستعمر	-10.9172
▁يشغل	-10.9172
▁النقدية	-10.9174
رحم	-10.9175
▁إيمان	-10.9179
▁يعتقدون	-10.9188
▁خِلال	-10.9195
▁الترفيه	-10.9195
لجنة	-10.9195
أحمد	-10.9197
▁بروتوكول	-10.9197
▁الأهالي	-10.9197
▁مترا	-10.9197
▁الأندلسي	-10.9197
▁المسؤولين	-10.9198
▁1925	-10.9201
▁الفرعية	-10.9202
▁انتصر	-10.9203
▁يحوي	-10.9205
▁رغبة	-10.9205
صيانة	-10.9208
▁الاعتبار	-10.9208
▁42	-10.921
▁حصة	-10.9213
▁طبيب	-10.9215
▁بسيط	-10.9219
ستو	-10.9221
▁أثرت	-10.9222
▁واقتصادي	-10.9224
▁2011.	-10.9225
▁مناسب	-10.9228
▁والجزر	-10.9228
▁تتواجد	-10.9229
ثبات	-10.9229
▁الشاب	-10.923
عانى	-10.923
▁الصيفية	-10.9231
▁43	-10.9231
▁تقليدي	-10.9235
▁لهجة	-10.9235
شاع	-10.9236
▁كييف	-10.9236
مقارنة	-10.9236
▁عالمياً	-10.9239
▁لآخر	-10.9239
كنائس	-10.924
▁الفلاسفة	-10.9241
▁سالم	-10.9243
▁جعله	-10.9243
كِ	-10.9245
▁st	-10.9245
شهادة	-10.9251
▁سنوي	-10.9254
▁الأربعين	-10.9256
ركود	-10.9256
▁أستاذ	-10.9257
▁سباق	-10.9257
موظف	-10.9258
▁واقت	-10.9258
▁34	-10.926
باحة	-10.9261
▁أوجه	-10.9261
خف	-10.9262
▁والي	-10.9262
منطقة	-10.9264
▁فم	-10.9266
▁المواصلات	-10.9267
▁مباراة	-10.9267
▁الطقوس	-10.9269
خاب	-10.9271
pa	-10.9272
▁ونجح	-10.9273
▁أرجاء	-10.9275
▁الكبد	-10.9277
▁الثانوي	-10.928
َمَ	-10.9281
غرام	-10.9282
▁للتجارة	-10.9282
▁عصور	-10.9282
▁ولايته	-10.9283
لاط	-10.9285
داني	-10.9287
▁التوازن	-10.9287
▁والعرب	-10.929
▁الفجر	-10.9291
▁يدور	-10.9294
▁ثار	-10.9297
▁والأردن	-10.9297
▁العسكريين	-10.9297
حكيم	-10.9299
▁لينكس	-10.9302
▁سورية	-10.9307
sp	-10.9307
خاصة	-10.9308
▁سياق	-10.9309
مفهوم	-10.931
▁البطن	-10.931
أشخاص	-10.9313
▁للحياة	-10.9313
▁الحُكم	-10.9313
▁يخ	-10.9313
▁ويقال	-10.9317
بارا	-10.9319
▁الكوبي	-10.9319
▁يقومون	-10.932
▁عقدت	-10.932
▁المسلسل	-10.9322
▁السري	-10.9324
▁مثلاً	-10.9324
▁لأحد	-10.9324
انتصار	-10.9325
▁استناد	-10.9331
تقن	-10.9331
▁وتقدم	-10.9334
▁انتخابه	-10.9336
▁الأندلُس	-10.9339
▁غرناطة	-10.9339
▁وأيضًا	-10.9339
▁الشيطان	-10.9339
▁المار	-10.9339
موسوعة	-10.9339
▁ضفاف	-10.934
▁الحضاري	-10.9341
▁أمثلة	-10.9341
▁الأقمار	-10.9342
▁أرسلت	-10.9343
▁الفوز	-10.9344
▁معناه	-10.9347
▁النُ	-10.9348
قرآن	-10.935
▁يذهب	-10.9351
▁للوزراء	-10.9351
▁فوج	-10.9351
▁تشاد	-10.9352
قرض	-10.9353
▁كتبها	-10.9357
▁السوفييت	-10.9359
▁صن	-10.9361
عاف	-10.9362
ec	-10.9362
خترع	-10.9363
»؛	-10.9365
▁شدة	-10.9367
▁معتمد	-10.9368
وزير	-10.9371
▁المسلح	-10.9379
مسمى	-10.9382
▁سلاطين	-10.9382
فطر	-10.9382
▁دفعت	-10.9383
▁البولي	-10.9384
▁الرموز	-10.9385
▁نفط	-10.9389
▁التضخم	-10.939
▁والسياسي	-10.9392
400	-10.9395
▁بارزة	-10.9397
▁المعاهد	-10.9398
▁القرارات	-10.9399
▁أحدهما	-10.9399
▁جعلها	-10.94
▁عظيمة	-10.9402
tion	-10.9403
▁ضباط	-10.9405
▁التوزيع	-10.9407
▁توم	-10.9409
▁الإحصاء	-10.9411
▁بوروندي	-10.9412
▁تأييد	-10.9412
▁سيراليون	-10.9412
▁المعتدل	-10.9412
▁المراحل	-10.9412
▁1951	-10.9415
▁الحرس	-10.9415
بوك	-10.9416
▁حلقات	-10.9416
▁أصوات	-10.9417
رفق	-10.9417
سكر	-10.9421
تفكير	-10.9422
إرشاد	-10.9422
شيش	-10.9423
وتشي	-10.9424
▁الميدان	-10.9427
▁السلاطين	-10.943
▁يؤكد	-10.9431
▁والمغرب	-10.9431
▁آراء	-10.9434
-10	-10.9435
تأخر	-10.9435
▁دافع	-10.9435
▁الشق	-10.9436
▁وتمت	-10.9438
قرأ	-10.944
▁ورجال	-10.9442
▁حاز	-10.9443
▁منصور	-10.9445
أغلبية	-10.9449
▁الصليبي	-10.945
غاري	-10.9451
عَ	-10.9452
▁والموسيقى	-10.9453
▁2007.	-10.9457
▁السائد	-10.9457
▁الوزارة	-10.9457
▁تجميع	-10.946
▁العباد	-10.9461
اللواء	-10.9461
إنسان	-10.9461
▁الفرنسيون	-10.9462
▁مساهم	-10.9463
القرن	-10.9468
أسر	-10.9468
▁38	-10.9471
▁مخيم	-10.9476
أعداد	-10.9476
▁إير	-10.9477
▁أخرج	-10.9478
▁وأهل	-10.9478
▁مناسبة	-10.9479
▁مدخل	-10.9482
هزيمة	-10.9484
▁الاحتجاجات	-10.9486
ديك	-10.9486
▁أقاليم	-10.9486
▁تثبيت	-10.9486
رائحة	-10.9486
▁التشكيل	-10.9486
▁نيكسون	-10.9486
توثيق	-10.9487
▁وُلد	-10.9488
▁خضعت	-10.9488
▁انتقد	-10.949
▁الفول	-10.9491
▁البطولة	-10.9491
▁عمد	-10.9491
▁أسلحة	-10.9492
▁وصفه	-10.9493
▁الكافي	-10.9494
▁رجب	-10.9495
man	-10.9496
واجهات	-10.9497
▁الحبوب	-10.9497
▁مبلغ	-10.9498
▁خفض	-10.95
▁شامل	-10.95
▁قمع	-10.9504
▁قائلاً	-10.9505
زخم	-10.9505
تحرر	-10.9506
ؤسس	-10.9507
▁داخلية	-10.9507
وصية	-10.9508
▁بلادهم	-10.9508
▁الأحمدي	-10.9511
▁بثلاث	-10.9512
▁تطل	-10.9512
con	-10.9515
قلق	-10.9519
مذبحة	-10.9522
ادته	-10.9526
▁التونسية	-10.9526
تنفيذ	-10.9527
؟»	-10.9529
▁يوناني	-10.9529
▁وكا	-10.953
▁الفنان	-10.9535
▁الفرعون	-10.9535
صحيح	-10.9537
سيط	-10.9537
▁وسرعان	-10.9537
▁سابقاً	-10.9539
احتكار	-10.954
قور	-10.9542
▁ca	-10.9542
▁الرأسمالية	-10.9543
▁تأثرت	-10.9544
فتقر	-10.9545
▁وقل	-10.9546
َّان	-10.9549
▁ومناطق	-10.9551
طالما	-10.9552
▁الرياضات	-10.9553
go	-10.9553
بيس	-10.9556
ضارب	-10.9557
ue	-10.9558
▁آيسلندا	-10.956
▁ستيشن	-10.956
▁للميلاد	-10.956
▁تصدير	-10.956
▁قنوات	-10.956
▁أنماط	-10.956
سائل	-10.9561
ؤخذ	-10.9561
▁دان	-10.9562
▁واحدًا	-10.9564
▁لأنهم	-10.9564
▁ألبرت	-10.9564
خالد	-10.9566
▁الأزهر	-10.9567
طارد	-10.9569
تأمل	-10.957
▁ريو	-10.9571
أقل	-10.9571
نهي	-10.9573
▁ومت	-10.9574
rt	-10.9574
بربر	-10.9574
▁خليل	-10.9576
ut	-10.9584
▁ينتخب	-10.9585
▁الإست	-10.9587
▁الأداء	-10.9588
▁كينيا	-10.959
▁عُرفت	-10.959
▁الأوامر	-10.9592
▁وردت	-10.9593
الع	-10.9598
▁والفنون	-10.96
▁يهدف	-10.96
▁استطاعت	-10.96
عقاب	-10.96
▁ضمان	-10.9601
أحد	-10.9603
▁بيوت	-10.9607
▁الباقية	-10.9608
▁ch	-10.961
▁أخبر	-10.961
▁يعين	-10.9611
تمييز	-10.9612
نتسب	-10.9614
▁يخدم	-10.9615
▁جدل	-10.9616
▁الحادث	-10.9619
ظر	-10.9619
▁صدرت	-10.9621
ِع	-10.9624
▁القصيرة	-10.9625
▁مرتبط	-10.9626
▁الخلق	-10.9627
▁إيل	-10.9628
▁السلفية	-10.963
▁التوقيع	-10.963
▁المقاطعة	-10.9631
▁باراغواي	-10.9632
صعوبات	-10.9634
▁والثالث	-10.9634
▁name	-10.9635
▁للهجرة	-10.9635
▁بروناي	-10.9635
▁فريدريك	-10.9636
▁إستراتيجية	-10.9637
▁الأعراض	-10.9637
▁الركاب	-10.9637
تصريف	-10.9637
عرّف	-10.9638
قادة	-10.964
▁الآلة	-10.9641
▁اعتنق	-10.9642
تناقص	-10.9642
▁2022	-10.9644
تعلق	-10.9644
وتون	-10.9645
إيمان	-10.9645
▁ديانة	-10.9649
متر	-10.9649
▁وأشهر	-10.965
▁دامت	-10.9652
▁انضمام	-10.9654
▁نادرة	-10.9655
▁تردد	-10.9659
▁تمويل	-10.966
▁جماد	-10.9661
▁مؤكد	-10.9661
▁الأفضل	-10.9662
▁الستينيات	-10.9665
▁ثنائية	-10.9667
شهير	-10.9667
▁روى	-10.9668
▁مدغشقر	-10.967
ممارسات	-10.9672
عابد	-10.9673
▁العظيمة	-10.9676
▁التغيير	-10.9676
▁البابلية	-10.9684
▁39	-10.9684
▁كله	-10.9686
▁إصلاحات	-10.9686
احتفال	-10.9688
▁بأكثر	-10.9688
توقيع	-10.9689
تقلص	-10.969
▁ظاهر	-10.9692
▁البرلمانية	-10.9694
دج	-10.9696
ظلم	-10.9699
▁أحزاب	-10.9699
▁مستمرة	-10.9702
▁الفاطميين	-10.9703
▁الكي	-10.9704
قيل	-10.9705
▁وبلاد	-10.9705
▁العنصري	-10.9708
انبعاث	-10.9708
جفاف	-10.9709
▁شوارع	-10.971
▁للوصول	-10.971
تجاوز	-10.971
▁عشيرة	-10.971
▁الأقباط	-10.971
▁يهوه	-10.9713
▁عزم	-10.9715
▁استخراج	-10.9716
▁ألغ	-10.9717
▁الأفق	-10.9717
▁التركيبة	-10.9718
بْ	-10.972
▁القصة	-10.9721
يهما	-10.973
نهض	-10.973
2،	-10.9733
▁والملك	-10.9736
توزيع	-10.9736
فلسفة	-10.9736
حجة	-10.9737
▁الخضر	-10.9738
تنقسم	-10.974
▁الإقامة	-10.9742
▁للرئيس	-10.9748
▁وقدم	-10.9748
وضوح	-10.9749
▁ستيف	-10.9751
▁الإيدز	-10.9752
رحب	-10.9752
▁أخت	-10.9752
▁مسؤولية	-10.9753
▁ساعدت	-10.9753
▁أنتجت	-10.9757
▁المشهورة	-10.9757
▁الصلح	-10.9758
▁المطلقة	-10.9762
أخو	-10.9762
▁الأجرام	-10.9763
تعليق	-10.9764
▁الفم	-10.9765
▁وحلف	-10.9766
▁عددها	-10.9768
طئ	-10.9773
▁تصرف	-10.9774
لوف	-10.9774
▁الفيدرالية	-10.9775
▁أرضية	-10.9775
يّاً	-10.9776
تضرر	-10.9776
رامية	-10.9776
▁المميزة	-10.9777
▁55	-10.9777
ِيَ	-10.9778
حقيقة	-10.978
▁استغل	-10.978
سهول	-10.9781
▁خصوصا	-10.9781
▁الصبي	-10.9782
اندا	-10.9785
▁إغلاق	-10.9785
▁دقائق	-10.9785
▁bbc	-10.9786
جسيم	-10.9786
▁مولد	-10.9786
▁الكسوف	-10.9786
▁شاطئ	-10.9786
▁تخزين	-10.9787
▁بإجراء	-10.9787
▁تكنولوجيا	-10.9787
▁وكندا	-10.9787
▁1931	-10.9788
▁جرائم	-10.9789
▁1916	-10.979
▁الدوائر	-10.979
▁محركات	-10.9791
▁كثرة	-10.9793
▁جاك	-10.9793
ديناميكي	-10.9794
▁صيغة	-10.9795
▁الاس	-10.9797
▁داود	-10.9799
▁القط	-10.9799
▁المجموع	-10.9803
▁ميت	-10.9803
▁زوجها	-10.9804
▁المناسبة	-10.9811
▁مشابه	-10.9812
▁مستقر	-10.9813
▁ماريا	-10.9814
▁الاندماج	-10.9815
▁اما	-10.9816
إرهاب	-10.9819
▁مادي	-10.982
▁نهج	-10.9821
▁الساحلي	-10.9822
gu	-10.9822
▁قدرها	-10.9822
كبير	-10.9824
▁أسهم	-10.9825
▁ناب	-10.9826
حزن	-10.9829
▁يرون	-10.983
طاب	-10.9832
-3	-10.9835
▁صناعي	-10.984
▁الأوربي	-10.9841
▁للكتاب	-10.9843
▁المؤقتة	-10.9844
▁البكر	-10.9847
▁الاختلافات	-10.9849
▁صعوبة	-10.9849
▁المتاحف	-10.985
▁بنقل	-10.9851
▁مكانه	-10.9853
▁وبني	-10.9856
▁بنغلاديش	-10.9856
▁المحطة	-10.9858
▁غابات	-10.9859
▁يتحدثون	-10.986
pi	-10.986
▁دمياط	-10.9862
▁المنتشرة	-10.9862
▁للجدل	-10.9862
▁شتاء	-10.9863
▁الثابتة	-10.9863
فوسفات	-10.9863
▁هايدن	-10.9864
▁التعدين	-10.9865
ادو	-10.9866
▁1926	-10.9867
▁إعطاء	-10.9868
شئ	-10.9869
صادف	-10.9869
▁الثقة	-10.987
▁بالمقابل	-10.987
جزاء	-10.9871
em	-10.9878
▁المستخدمين	-10.9878
▁واشتهر	-10.9879
▁قصص	-10.9881
▁جهد	-10.9881
▁قائلًا	-10.9882
يهود	-10.9885
فكرة	-10.9891
حيوان	-10.9891
▁سيتم	-10.9891
▁ويمثل	-10.9899
▁عجز	-10.99
▁السبعة	-10.9902
غناء	-10.9903
محيط	-10.9904
▁الرقمية	-10.9905
▁تتحرك	-10.9906
▁البيئي	-10.9906
▁دولته	-10.9908
-15	-10.9909
▁الأحماض	-10.991
▁القضاة	-10.991
▁نت	-10.9912
▁يرت	-10.9915
▁بتأسيس	-10.9915
▁li	-10.9915
فبراير	-10.9916
▁وحين	-10.9917
▁النقي	-10.9919
تشكّل	-10.9921
▁قاضي	-10.9923
رجال	-10.9924
▁الخير	-10.9924
▁مخصصة	-10.9926
سجن	-10.9926
صعب	-10.9926
كلوريد	-10.9927
▁الواسعة	-10.9935
▁مرتفع	-10.9935
توري	-10.9936
▁الحواسيب	-10.9939
تخصيص	-10.9939
ستخرج	-10.9939
▁الفارابي	-10.9939
▁الجميلة	-10.994
▁الارتباط	-10.994
▁احترام	-10.994
▁قسطنطين	-10.9941
▁والطاقة	-10.9941
▁الجد	-10.9941
نصح	-10.9943
▁تكريم	-10.9943
▁الجزية	-10.9944
ميس	-10.9946
▁محب	-10.9947
▁جملة	-10.9948
ذاع	-10.995
"&	-10.9953
▁صليب	-10.9953
هندسة	-10.9955
▁المغناطيسية	-10.9956
▁القتلى	-10.9956
▁كامب	-10.9957
▁100,000	-10.996
غالبًا	-10.996
▁قاسم	-10.996
▁عنابة	-10.996
▁وحزب	-10.9961
رير	-10.9961
وحش	-10.9962
ؤرخ	-10.9964
سمّى	-10.9964
▁يقضي	-10.9965
▁للسلطة	-10.9966
▁النزاعات	-10.9967
▁السمك	-10.9967
▁180	-10.9972
▁السويسرية	-10.9972
▁سلبي	-10.9973
▁بعين	-10.9976
▁الحادثة	-10.9977
سلطان	-10.9977
▁المفترض	-10.9981
▁بِمُ	-10.9982
▁للعراق	-10.9982
▁بكونه	-10.9983
▁نمت	-10.9987
▁موظف	-10.9987
▁الموسم	-10.9993
▁والشعر	-10.9994
▁القطاعات	-10.9994
▁القطن	-10.9995
تقييم	-11
أبريل	-11
كتف	-11
َلْ	-11.0001
يوليو	-11.0002
انقلاب	-11.0003
▁الضعف	-11.0003
▁بتر	-11.0004
▁شاملة	-11.0008
▁بفيروس	-11.001
▁مرافق	-11.0012
▁يتفق	-11.0012
خسر	-11.0014
▁عضُد	-11.0016
ترخيص	-11.0016
▁هكتار	-11.0016
▁أنجلينا	-11.0016
▁الشاطئ	-11.0016
▁المساعدات	-11.0017
▁زيارته	-11.0017
▁يونكس	-11.0017
▁أبطال	-11.0018
▁يده	-11.0019
▁المشاة	-11.002
▁صيني	-11.002
▁التعرف	-11.0021
▁تمارس	-11.0021
▁وبما	-11.0021
▁الحفر	-11.0021
▁المدعو	-11.0021
▁هشام	-11.0023
عضلات	-11.0023
▁الخيال	-11.0023
▁التزام	-11.0025
▁مصاب	-11.0026
جبهة	-11.0026
حفز	-11.0027
▁سال	-11.0027
▁والبو	-11.0027
▁محتمل	-11.0031
▁حروف	-11.0031
انظر	-11.0032
▁فريدة	-11.0032
▁دقة	-11.0036
▁وفن	-11.0039
▁الوصف	-11.0041
▁الكروات	-11.0044
▁وافقت	-11.0045
▁يتواجد	-11.0045
▁حيز	-11.0049
أوروبا	-11.005
ترابط	-11.0052
▁العلامة	-11.0054
▁المهام	-11.0054
عاطف	-11.0055
فرسان	-11.0056
شريعة	-11.0059
لاس	-11.0061
▁الرمل	-11.0062
▁ازدياد	-11.0063
▁مفتوحة	-11.0063
▁العموم	-11.0064
▁السويسري	-11.0069
▁غاية	-11.007
▁وبداية	-11.0072
▁نجحت	-11.0074
استقبال	-11.0075
رؤساء	-11.0076
سوار	-11.0076
▁المرافق	-11.0078
▁الجُ	-11.0078
▁البيولوجي	-11.0079
اختبار	-11.0081
▁هائل	-11.0081
▁قاع	-11.0084
سرطان	-11.0087
▁جدول	-11.009
▁أنهار	-11.0091
▁الصحيحة	-11.0091
▁المفهوم	-11.0092
▁يريفان	-11.0094
▁آية	-11.0097
▁النصارى	-11.0097
▁جناح	-11.0098
▁1929	-11.0099
▁أجنبية	-11.0099
▁الوسائل	-11.0099
بارد	-11.01
▁حتّ	-11.0101
▁صعود	-11.0102
▁أبل	-11.0103
▁التراب	-11.0109
▁زيوس	-11.011
▁الأدبي	-11.0111
▁اكتسبت	-11.0112
▁اليو	-11.0113
▁خمسين	-11.0114
تفرع	-11.0114
▁وأصدر	-11.0116
▁يهتم	-11.0123
▁فلسفة	-11.0125
▁أرقام	-11.0126
▁المعدن	-11.0128
▁ناجحة	-11.0129
▁مجتمعات	-11.0131
سرع	-11.0132
▁ويعرف	-11.0136
▁تجد	-11.0137
▁أسرته	-11.0139
ليز	-11.0139
غالي	-11.014
عاصر	-11.014
▁والمجر	-11.0141
▁النسخ	-11.0142
▁معا	-11.0143
كيفية	-11.0144
لَ	-11.0146
▁سنين	-11.0147
▁فعاد	-11.0148
قضية	-11.0148
▁والمجتمع	-11.0149
يَّةٍ	-11.0153
▁كهربائية	-11.0153
وزع	-11.0154
▁جاف	-11.0154
▁الجيل	-11.0154
أكتوبر	-11.0154
▁والعربية	-11.0154
يكون	-11.0156
▁أخر	-11.016
▁أيار	-11.0162
ram	-11.0165
▁شأنها	-11.0168
▁تجار	-11.0168
قوي	-11.017
▁جنوبي	-11.0171
▁غنية	-11.0172
▁جامايكا	-11.0173
تسونامي	-11.0174
▁أوسلو	-11.0174
▁الاستيطان	-11.0174
▁موافقة	-11.0174
▁الراديو	-11.0176
▁مارتن	-11.0176
فقهاء	-11.0176
▁آمون	-11.0177
▁الذري	-11.0178
▁مباني	-11.018
ولية	-11.018
▁تدرس	-11.0181
دِّ	-11.0181
▁النبات	-11.0182
▁الثلاثين	-11.0182
▁بيو	-11.0184
حرص	-11.0186
غلو	-11.0186
▁تُوفي	-11.0186
▁الزمنية	-11.0188
▁النسبي	-11.0189
▁41	-11.0194
تشو	-11.0197
اختلاف	-11.0198
▁المكونة	-11.0199
سيارات	-11.0201
▁تيم	-11.0202
بلدان	-11.0204
▁البريطانيون	-11.0206
▁هدم	-11.0208
نقطة	-11.0208
▁الأسطورة	-11.021
▁وبقيت	-11.0211
محطة	-11.0213
▁التغيرات	-11.0214
▁بابا	-11.0218
▁غاب	-11.0218
▁الربو	-11.022
ميزانية	-11.0222
▁تتحدث	-11.0222
▁الابتدائي	-11.0222
▁الجماعي	-11.0222
وزن	-11.0222
.9%	-11.0228
▁والتكنولوجيا	-11.0228
رخص	-11.0228
▁البابوية	-11.0229
ياما	-11.0229
▁مالية	-11.0232
تكرار	-11.0232
▁آيات	-11.0234
res	-11.0237
دليل	-11.0238
▁كف	-11.0241
اقتصاد	-11.0244
زاز	-11.0246
▁المعالجة	-11.0247
▁تيمورلنك	-11.0252
▁مشاهد	-11.0252
▁بزيادة	-11.0252
▁السفلى	-11.0252
▁الميكانيكية	-11.0253
جني	-11.0253
▁الاستهلاك	-11.0254
▁الجوفية	-11.0254
▁تعليمه	-11.0255
▁1915	-11.0259
▁أتى	-11.0259
▁يعاني	-11.0259
▁40%	-11.026
▁بأنَّ	-11.0263
موسيقي	-11.0264
▁وغالبا	-11.0265
▁ملكي	-11.0266
▁64	-11.0266
ديل	-11.0269
فرط	-11.027
▁الحنفي	-11.027
أمازيغ	-11.0271
▁غور	-11.0279
▁قدرته	-11.0281
▁التطبيق	-11.0282
▁الألبان	-11.0284
▁تحتفظ	-11.0284
▁للإنسان	-11.0286
▁الجيد	-11.0288
▁العلامات	-11.029
مايو	-11.0293
▁والسنة	-11.0294
نشتاين	-11.0295
▁بالتعاون	-11.0295
▁فَ	-11.0296
▁الأسرى	-11.0296
▁ضريح	-11.0299
▁قاعة	-11.0303
▁الثقوب	-11.0305
▁المتوسطة	-11.0305
▁شعره	-11.0308
▁القريب	-11.0308
تقاسم	-11.0308
▁أقوال	-11.0311
نزا	-11.0312
▁نشأة	-11.0313
▁عموما	-11.0318
لعلماء	-11.0319
▁العربيَّة	-11.032
أصول	-11.0322
▁الكمية	-11.0326
نموذج	-11.0326
▁وضعه	-11.0327
بدع	-11.0328
بالنسبة	-11.0329
▁والحرب	-11.033
▁أمراء	-11.0331
▁ناميبيا	-11.0332
جُنُود	-11.0332
سُكَّان	-11.0332
▁روابط	-11.0333
▁كثيف	-11.0333
▁أقمار	-11.0334
▁لقياس	-11.0336
▁شامير	-11.0336
شعوب	-11.0338
▁الوفد	-11.0338
▁منزله	-11.0339
▁زمنية	-11.0339
▁اخترع	-11.0341
▁تبني	-11.0342
جوع	-11.0342
▁وكذا	-11.0344
▁وأبرز	-11.0347
لُّ	-11.0347
▁أثبتت	-11.0348
▁شمل	-11.0348
▁الحمام	-11.035
▁الغازية	-11.0352
ذُ	-11.0352
▁تقييم	-11.0354
▁والحديث	-11.0357
عثر	-11.0358
ُود	-11.0361
▁نزلت	-11.0363
▁اتبع	-11.0364
▁عجل	-11.0365
قاب	-11.037
ts	-11.0373
▁القبطية	-11.0376
▁البيوت	-11.0378
ستقل	-11.0381
ers	-11.0381
▁ويطلق	-11.0382
▁للعالم	-11.0383
▁وثلاث	-11.0383
عْ	-11.0383
▁تلف	-11.0384
▁دائماً	-11.0385
معاهدة	-11.0386
تبرع	-11.0387
▁يقصد	-11.0388
ion	-11.0389
▁الصراعات	-11.039
▁أوّل	-11.0391
▁وعليه	-11.0392
رتفاع	-11.0395
▁المحتوى	-11.0395
أغسطس	-11.0398
شحن	-11.0398
ُّع	-11.0401
▁الأرضي	-11.0401
▁تتغير	-11.0404
▁اتخذت	-11.0408
▁تقديرات	-11.0409
▁تكتب	-11.0409
طين	-11.041
▁مساء	-11.0413
▁كمبوديا	-11.0413
▁الأنبياء	-11.0413
▁الملائكة	-11.0413
موسيقى	-11.0413
▁النعمان	-11.0413
▁هذين	-11.0413
▁ماكاو	-11.0415
عالي	-11.0415
▁الباحث	-11.0415
▁طيران	-11.0416
▁الرصاص	-11.0416
خترق	-11.0417
▁تشييد	-11.0418
▁رؤيته	-11.0419
▁التربية	-11.0424
راهب	-11.0424
▁الإطار	-11.0424
▁وثاني	-11.0431
▁خوفو	-11.0432
جسد	-11.0432
▁قانونية	-11.0433
آب	-11.0433
▁الصحراوية	-11.0435
وفاة	-11.0436
▁البحيرة	-11.0437
▁التطوير	-11.0437
اللغة	-11.0439
نّ	-11.0441
أواسط	-11.0444
▁المسألة	-11.0447
▁مئة	-11.0447
▁أحب	-11.0447
▁بنجاح	-11.0448
▁شحنة	-11.0448
▁خلافة	-11.0453
▁مدينتي	-11.0455
▁حرم	-11.0455
▁تقاليد	-11.0457
▁الشديدة	-11.0457
تحتوي	-11.0459
▁قطاعات	-11.0465
▁وخارج	-11.0465
▁الما	-11.0465
▁ويليام	-11.0466
دوار	-11.047
▁هارون	-11.0471
وقع	-11.0471
▁تحظ	-11.0473
▁ثلاثي	-11.0477
▁تعبر	-11.0477
▁مقطع	-11.0479
مصر	-11.0481
▁مجاني	-11.0482
صمم	-11.0484
تعيين	-11.0485
▁تأثيرات	-11.0489
▁الممارسات	-11.049
مجتمع	-11.0494
▁تزداد	-11.0494
▁بخصوص	-11.0495
▁أوضح	-11.0496
السويد	-11.0496
▁بلغاريا	-11.0497
▁حادثة	-11.0498
▁والحيوانات	-11.0498
▁معقدة	-11.0498
▁الحجارة	-11.0499
▁هول	-11.05
▁بوصة	-11.0501
زعيم	-11.0501
حزب	-11.0503
▁واليمن	-11.0504
ماثل	-11.0504
خاطب	-11.0504
أبراج	-11.0505
لتزام	-11.0506
▁العلمانية	-11.0507
كنيس	-11.0509
ja	-11.051
▁20%	-11.051
▁تُستخدم	-11.0512
▁يرد	-11.0513
خلع	-11.0513
▁فئات	-11.0518
▁النماذج	-11.0518
تسي	-11.0519
ضاع	-11.052
▁مواطني	-11.052
▁ويظهر	-11.0527
▁يحل	-11.053
▁عقيدة	-11.0531
▁1900	-11.0533
▁المادي	-11.0536
▁ودار	-11.0536
▁النسب	-11.0539
▁النجمي	-11.0539
▁إنجاز	-11.0539
▁الرباط	-11.054
َح	-11.0541
▁ميثاق	-11.0543
▁الدائمة	-11.0543
▁الطلبة	-11.0544
كات	-11.0544
أحفاد	-11.0545
▁العادل	-11.0545
▁الثورية	-11.0546
سجون	-11.0549
ضُ	-11.0549
الولايات	-11.0551
▁نزع	-11.0552
▁فسار	-11.0552
▁مايكل	-11.0556
▁النباتية	-11.0556
▁تعكس	-11.0556
▁توليه	-11.0557
فندق	-11.0559
▁المدخل	-11.056
▁الكتابات	-11.0561
كريست	-11.0561
▁أنشطة	-11.0562
▁حَ	-11.0565
أوائل	-11.0569
nt	-11.057
▁المستمرة	-11.0571
▁بقتل	-11.0571
4)	-11.0572
▁اليُونان	-11.0576
▁يسيطر	-11.0577
▁الفوضى	-11.0577
▁قيود	-11.0577
قصور	-11.0578
ag	-11.0578
ناك	-11.0579
▁صادرات	-11.058
▁خلفية	-11.058
▁ناقل	-11.0581
▁الهندسية	-11.0582
▁ضمنها	-11.0582
زاد	-11.0584
▁فندق	-11.0585
▁وأثناء	-11.0585
▁كواكب	-11.0585
▁الشرع	-11.0586
▁الدقة	-11.0588
▁الأرجح	-11.059
▁فحص	-11.059
ment	-11.0591
▁وانتقل	-11.0591
▁النارية	-11.0593
▁المكثف	-11.0593
▁بركان	-11.0594
مسابقة	-11.0599
مجرى	-11.0601
▁بذل	-11.0601
▁عندها	-11.0602
▁النبلاء	-11.0602
▁المصريون	-11.0603
رنج	-11.0607
▁كتلته	-11.0608
▁وتمتد	-11.0609
وّن	-11.0615
▁مشارك	-11.0616
▁تأكيد	-11.0616
▁الفلاحين	-11.0618
▁كربون	-11.0618
▁عنيفة	-11.0623
▁يعكس	-11.0625
▁فبعد	-11.0627
ديون	-11.0629
▁الأعياد	-11.063
▁جم	-11.0631
لسان	-11.0633
▁وعلي	-11.0635
قوط	-11.0636
▁الخيرية	-11.0636
▁التغييرات	-11.0637
▁نبات	-11.064
▁جمهور	-11.064
▁جنس	-11.0644
إسرائيل	-11.0647
▁الكوني	-11.0647
▁دوق	-11.0648
َنْ	-11.065
▁شيئا	-11.0655
تحلل	-11.0656
▁جميعها	-11.0657
▁المكتوبة	-11.0659
▁سلوفينيا	-11.0659
▁غيفارا	-11.0659
▁البلجيكي	-11.0659
أساقفة	-11.0659
▁ضابط	-11.0659
▁قيس	-11.0659
▁المناهض	-11.0659
▁بكثرة	-11.0661
▁المناسب	-11.0661
▁الفيلسوف	-11.0661
▁البروتين	-11.0662
▁جدران	-11.0663
▁90%	-11.0665
▁المعلق	-11.0665
▁وأجزاء	-11.0665
▁الغرض	-11.0668
▁عمّان	-11.0668
▁فرعية	-11.0671
شغال	-11.0671
all	-11.0673
ماذا	-11.0674
ستغرق	-11.0676
▁الاستفتاء	-11.0676
ئيل	-11.0678
▁سياسته	-11.068
▁تعترف	-11.068
▁المصاب	-11.0683
▁المقرر	-11.0684
بقاء	-11.0686
▁المواطن	-11.0686
▁السبت	-11.0686
▁الصو	-11.0687
▁الأحد	-11.0689
▁المهندس	-11.0689
▁الجليدية	-11.0689
▁الشب	-11.07
مستوى	-11.07
▁الشبكات	-11.0703
▁تشارلز	-11.0703
▁ولدت	-11.0705
شينغ	-11.0706
مستشار	-11.0709
أنثى	-11.0712
قرة	-11.0714
▁والسي	-11.0714
ليث	-11.0716
▁بمرض	-11.0718
▁بنك	-11.0718
▁النقود	-11.0718
آداب	-11.0719
بطل	-11.0719
▁المتخصصة	-11.0719
▁تري	-11.0719
▁شارل	-11.072
▁عبيدة	-11.0723
▁وتبع	-11.0726
▁مماثل	-11.0729
إمداد	-11.0729
نسق	-11.0731
وارث	-11.0733
طح	-11.0733
▁اشتراك	-11.0734
▁كيب	-11.0736
▁وفرة	-11.0739
▁اللغوية	-11.0739
تصفح	-11.074
▁شيوعًا	-11.0742
▁المظلمة	-11.0743
▁hiv	-11.0743
▁الآتي	-11.0743
▁الآونة	-11.0743
▁النوميدي	-11.0744
▁خليط	-11.0744
قترح	-11.0745
▁الزنكي	-11.0745
▁النسيج	-11.0746
▁تغييرات	-11.0746
▁بوس	-11.0746
لهجة	-11.0749
▁ياباني	-11.0749
▁وأعلنت	-11.0749
▁انفجار	-11.0751
▁واحتل	-11.0751
▁قتيل	-11.0751
▁تاي	-11.0753
متاحف	-11.0758
▁تركي	-11.0759
مرض	-11.076
عميد	-11.076
▁سقط	-11.0762
▁أئمة	-11.0763
▁يُذكر	-11.0765
▁داخلي	-11.0766
▁منحت	-11.0768
نحو	-11.0769
▁خطيرة	-11.0769
▁بعيدًا	-11.077
▁قادم	-11.077
▁البقر	-11.0775
تقاطع	-11.0775
▁التلال	-11.0776
▁المحيطات	-11.0776
ev	-11.0777
▁الجائزة	-11.0778
▁فأخذ	-11.0779
▁الإفريقي	-11.0779
نتظر	-11.078
▁الآرامية	-11.0781
▁مستقرة	-11.0781
▁كتل	-11.0782
▁القصص	-11.0784
▁الفلاح	-11.0785
▁المنح	-11.0786
▁وثلاثين	-11.0787
▁يدير	-11.0787
▁عاشت	-11.0787
بحار	-11.0789
▁القياسية	-11.0791
▁الملابس	-11.0791
ْرَ	-11.0792
دلائل	-11.0792
▁يخضع	-11.0793
▁يرفض	-11.0794
▁مجمل	-11.0795
▁حملت	-11.0796
ver	-11.0796
▁المستشفى	-11.0797
▁ولكنهم	-11.0801
▁عال	-11.0802
تميزت	-11.0803
▁مسرحية	-11.081
▁الناقل	-11.0811
يُقال	-11.0812
حامل	-11.0814
▁جسيمات	-11.0815
▁للبحر	-11.0817
وظيفة	-11.0821
▁بعل	-11.0824
▁بكين	-11.0826
▁الأحاديث	-11.0826
▁اليونسكو	-11.0826
▁للقيام	-11.0826
▁إقامته	-11.0827
بونساي	-11.0827
▁تساهم	-11.0827
▁يوميا	-11.0828
▁انخفضت	-11.0828
قفز	-11.0829
إبعاد	-11.0829
▁أسامة	-11.0829
يسار	-11.0829
▁وقطع	-11.0832
▁صعيد	-11.0833
▁يعرض	-11.0834
صَ	-11.0835
▁الرحم	-11.0837
▁مستوطنة	-11.0839
▁تنمو	-11.0839
▁z	-11.084
حوادث	-11.0841
▁الجهد	-11.0841
أقليات	-11.0841
▁المعدة	-11.0842
▁المنفى	-11.0843
▁وقض	-11.0847
▁بِقياد	-11.0847
▁أوسع	-11.0847
▁العميق	-11.0849
روان	-11.0852
▁بالقاهرة	-11.0853
▁والله	-11.0854
▁الصليبيون	-11.0861
جاع	-11.0863
▁ضعيف	-11.0864
▁بأكملها	-11.0864
▁خسارة	-11.0865
▁ولن	-11.0865
▁التنافس	-11.0867
نافس	-11.0872
▁الجنة	-11.0872
عتماد	-11.0873
▁اللاعب	-11.0874
▁تميل	-11.0874
▁الملعب	-11.0874
▁لمنطقة	-11.0877
▁ويضم	-11.088
إثبات	-11.0882
▁ويصل	-11.0883
▁وسام	-11.0883
ry	-11.0884
تسبب	-11.0889
▁الفعال	-11.0891
خطب	-11.0899
▁الخطأ	-11.09
▁أفق	-11.0904
▁me	-11.0906
▁للشعب	-11.0906
تحضير	-11.0908
قمع	-11.0911
▁أضعاف	-11.0911
▁لتشكيل	-11.0911
▁خوسيه	-11.0911
▁كفاءة	-11.0912
أحواض	-11.0912
▁مدنها	-11.0913
▁رباعي	-11.0914
▁بأعمال	-11.0914
▁مسيرة	-11.0916
▁مرجع	-11.0916
أغنى	-11.0917
▁المركبة	-11.0917
▁الجناح	-11.0917
▁شجع	-11.0918
br	-11.0918
▁بوابة	-11.0919
▁غد	-11.0921
▁المسرحية	-11.0922
َّهُ	-11.0924
تشخيص	-11.0926
▁كوي	-11.0926
mu	-11.0927
▁والأمن	-11.0927
▁صارت	-11.0929
ِنْ	-11.0931
انتهى	-11.0932
▁الكرك	-11.0932
مواطن	-11.0932
▁الرَّ	-11.0933
▁فأصبح	-11.0936
▁إياه	-11.0937
لكنَّهُ	-11.0937
يَّ	-11.0942
▁مواقف	-11.0942
▁مهمًا	-11.0942
▁أضاف	-11.0945
خيانة	-11.0951
▁أساسًا	-11.0953
▁القطار	-11.0956
▁الميكانيكا	-11.0958
▁وقرأ	-11.0959
▁السَّ	-11.096
▁غني	-11.0961
▁السني	-11.0962
▁2019،	-11.0964
▁وعرف	-11.0965
▁والشام	-11.0966
كُل	-11.0969
▁الأسبان	-11.097
ـ)،	-11.0972
▁الجامعية	-11.0973
▁العمراني	-11.0973
حدوث	-11.0974
▁مرّ	-11.0975
ضاعف	-11.0976
▁كأن	-11.0978
▁العقائد	-11.0979
▁سبقت	-11.098
▁قصد	-11.098
▁بِأ	-11.0988
▁والزراعة	-11.0991
▁نوعها	-11.0991
▁تراث	-11.0991
ابية	-11.0992
▁الإلهي	-11.0993
▁المسلم	-11.0993
▁زاوية	-11.0995
▁اليابسة	-11.0997
▁الحاصل	-11.0997
▁مقاعد	-11.0997
▁الهاشمي	-11.0997
▁بذور	-11.0997
لقد	-11.0997
▁الملاحة	-11.0998
▁حيوي	-11.0998
▁ذروة	-11.0998
إنتروبي	-11.0998
▁مصير	-11.0999
▁الساساني	-11.0999
▁الوفيات	-11.0999
▁شريط	-11.1001
▁التاج	-11.1003
▁النقاط	-11.1004
▁الأحجار	-11.1004
▁وتنظيم	-11.1005
شفاء	-11.1005
▁الراين	-11.1006
▁رحلته	-11.1006
▁يستخدمون	-11.1008
اغتيال	-11.101
▁بلغة	-11.1011
أطباء	-11.1015
▁انقسم	-11.1015
▁صنعاء	-11.1016
▁44	-11.1016
▁المكون	-11.1017
▁الويكا	-11.1018
باه	-11.1022
▁الآخرة	-11.1023
شراء	-11.1026
ine	-11.1028
جنود	-11.1028
▁متراً	-11.1029
▁اصط	-11.1031
لُو	-11.1032
▁مصمم	-11.1033
▁متأخر	-11.1033
▁وصلوا	-11.1034
▁قصف	-11.1035
▁الضرب	-11.1035
▁فرو	-11.1036
لدرجة	-11.1036
▁السلمي	-11.1038
▁مصانع	-11.1038
▁جسيم	-11.104
پول	-11.104
▁وذهب	-11.1041
قدّر	-11.1048
▁ترجم	-11.1052
▁الصحراوي	-11.1059
▁الآسيوي	-11.1059
ربيع	-11.1059
▁الصادرة	-11.106
▁يشعر	-11.1065
▁لنهر	-11.1066
▁للبشر	-11.1068
▁المحرك	-11.1068
برو	-11.1068
▁اللاتيني	-11.1069
ربح	-11.1069
▁وسياسي	-11.1072
▁أمان	-11.1075
▁منتظمة	-11.1078
▁ناسا	-11.1082
▁الشطرنج	-11.1083
▁لتقديم	-11.1083
▁المجاهدين	-11.1083
▁قصائد	-11.1083
▁التدريس	-11.1083
▁الملايو	-11.1083
▁اللحوم	-11.1083
▁الموظفين	-11.1083
▁ركز	-11.1084
▁الشورى	-11.1084
▁إلكتروني	-11.1085
▁التضاريس	-11.1085
▁الرحلات	-11.1086
▁منظمات	-11.1087
▁النقاب	-11.1088
▁أحمر	-11.1089
▁الفترات	-11.109
ُّوا	-11.1093
ولوجي	-11.1093
▁حزم	-11.1094
▁غالي	-11.1094
صهيون	-11.1097
▁mo	-11.1099
▁جودة	-11.1101
▁تدريجيًا	-11.1105
بانيا	-11.1108
أهرام	-11.1108
▁ذاكرة	-11.1109
▁اعترف	-11.1109
▁فتم	-11.111
▁المسرحي	-11.1111
▁وشبه	-11.1111
اتفاقية	-11.1112
▁وجي	-11.1113
▁الدقيق	-11.1113
▁ألقى	-11.1117
▁تنمية	-11.1117
▁1.5	-11.1118
▁المنزلية	-11.1119
الكواكب	-11.1119
▁وأستراليا	-11.112
▁المولد	-11.1121
▁حقول	-11.1121
▁جنبا	-11.1122
▁والبي	-11.1122
عداء	-11.1123
▁تمنع	-11.1123
▁لمواجهة	-11.1124
▁السياسيَّة	-11.1125
زوار	-11.1126
▁بريد	-11.1126
حافلات	-11.1126
▁وإس	-11.1133
▁وأحمد	-11.1133
▁الناطقة	-11.1138
▁يميز	-11.1141
أربع	-11.1141
▁وليست	-11.1145
▁وجزيرة	-11.1146
▁بغض	-11.1146
▁غيرهم	-11.1146
▁المنشآت	-11.1147
مسيح	-11.1147
▁ومملكة	-11.1148
▁القيامة	-11.1148
▁للكنيسة	-11.1148
سكري	-11.1148
بنية	-11.1149
gi	-11.1149
ؤكد	-11.115
ختصر	-11.1152
▁الحافلات	-11.1154
▁العنصرية	-11.1156
▁لدولة	-11.116
▁عاصمته	-11.116
بلدية	-11.1164
▁موحدة	-11.1166
بغداد	-11.1166
▁السابقين	-11.1168
▁يعتبرون	-11.1168
les	-11.1169
▁المسير	-11.117
▁الزعفران	-11.117
▁اليورانيوم	-11.117
▁التقارير	-11.117
▁ممتلكات	-11.117
▁المتمردين	-11.117
▁يعانون	-11.117
▁هرقل	-11.1172
▁الطيب	-11.1172
▁دائري	-11.1173
,500	-11.1173
شارع	-11.1174
▁لولا	-11.1175
تعميم	-11.1176
▁استثمار	-11.1176
▁لمجموعة	-11.1177
ألحان	-11.1177
▁أساساً	-11.118
▁لوحات	-11.118
▁الكنسي	-11.1181
واقف	-11.1183
ؤن	-11.1184
▁بتطوير	-11.1187
▁إلزامي	-11.1187
▁بارتفاع	-11.119
▁أسلاف	-11.119
▁السينمائي	-11.1191
▁الطبري	-11.1193
▁الدا	-11.1197
▁ولديه	-11.1198
▁الإفريقية	-11.1198
▁صلاحيات	-11.12
كرد	-11.12
▁استقبل	-11.12
▁مدنية	-11.1203
▁مكتوبة	-11.1203
حفر	-11.1204
▁51	-11.1204
زيران	-11.1204
▁تخفيض	-11.1205
رجاء	-11.1207
يحتوي	-11.1208
▁يتحرك	-11.1212
▁وزو	-11.1215
قارة	-11.1218
تسديد	-11.1219
عسل	-11.122
▁للإسلام	-11.1222
صبر	-11.1223
▁زن	-11.1225
.1%	-11.1225
▁مجالس	-11.1228
▁والجزائر	-11.1229
طيب	-11.1231
▁وثلاثة	-11.1231
▁صغر	-11.1232
▁الخيل	-11.1232
نبات	-11.1234
▁سأل	-11.1236
▁ابتداءً	-11.1236
يونيو	-11.1242
ay	-11.1242
▁الفنلندية	-11.1246
▁الوفاة	-11.1246
َّةً	-11.1248
▁أمة	-11.125
سرعات	-11.125
800	-11.125
لسياسة	-11.1251
▁بفترة	-11.1251
ضب	-11.1253
▁تصنف	-11.1254
▁أهلية	-11.1255
▁الحجة	-11.1256
▁حمورابي	-11.1257
▁الزلزال	-11.1257
▁انفصال	-11.1257
▁الروابط	-11.1257
هؤلاء	-11.1258
▁مزارع	-11.1258
▁أيَّام	-11.1258
▁السبعينات	-11.1258
▁الممارسة	-11.1259
▁البوابة	-11.1259
▁تلو	-11.1259
▁معتقدات	-11.126
▁الطباعة	-11.1262
▁الراحل	-11.1262
▁تليها	-11.1263
▁وحي	-11.1263
▁الفروع	-11.1266
▁ولذا	-11.1267
▁الدرزية	-11.1267
َّةٍ	-11.127
▁وأنجب	-11.1272
▁السودانية	-11.1272
بدو	-11.1273
▁الموحدة	-11.1273
معايير	-11.1274
▁والإسلام	-11.1282
▁فرص	-11.1283
▁نواب	-11.1283
▁بنتيجة	-11.1283
▁الكالسيوم	-11.1285
▁تفكك	-11.1285
▁pa	-11.1285
ذكاء	-11.1288
▁يختار	-11.1289
تنازل	-11.1289
▁تاريخيًا	-11.1292
▁حديثًا	-11.1293
▁مخالف	-11.1298
لاع	-11.1298
▁وقرر	-11.1301
▁وساعد	-11.1301
ap	-11.1305
▁والبرتغال	-11.1308
▁أري	-11.1309
▁مؤلفاته	-11.1311
▁بارك	-11.1312
▁ضريبة	-11.1313
▁يرغب	-11.1314
ru	-11.132
▁لاوس	-11.1321
▁سكة	-11.1321
غطاء	-11.1325
▁وراثي	-11.1327
▁البرازيلي	-11.1328
▁سامي	-11.133
▁تنافس	-11.1331
▁البرتغاليين	-11.1331
البندق	-11.1332
▁أغاني	-11.1332
▁وإيران	-11.1332
مراجعة	-11.1333
▁العاج	-11.1333
▁قادته	-11.1335
▁سنتي	-11.1338
تعادل	-11.1339
هرتز	-11.134
لول	-11.134
▁حظي	-11.1341
▁حياتهم	-11.1343
فاني	-11.1345
jpg	-11.1346
▁الأوروپي	-11.1346
▁ليتوانيا	-11.1346
▁ميشيغان	-11.1346
▁لزيادة	-11.1346
▁هُناك	-11.1346
▁شيئًا	-11.1346
▁الجوانب	-11.1346
انشقاق	-11.1346
▁الرايخ	-11.1346
▁بربروس	-11.1346
▁المُسلمون	-11.1346
▁الضعيف	-11.1347
اختصار	-11.1347
▁المضاد	-11.1347
▁الكتل	-11.1348
▁صفحة	-11.135
▁رياضة	-11.1351
▁نووية	-11.1354
▁رؤوس	-11.1355
▁الرقيق	-11.1355
▁الأثناء	-11.1355
▁عفان	-11.1357
▁وقوة	-11.1359
▁قلة	-11.1359
لسكك	-11.136
▁سيطرته	-11.136
▁الحارث	-11.1362
مهندس	-11.1363
▁رأسها	-11.1364
▁يُستخدم	-11.1366
▁وسبع	-11.1367
▁كيميائية	-11.1367
▁وأعمال	-11.1367
▁سلطته	-11.1369
▁استفاد	-11.1369
▁إقليمية	-11.137
▁فرضت	-11.1371
ندة	-11.1371
▁حزمة	-11.1371
▁وعاش	-11.1374
▁العيش	-11.1376
▁الانتقالية	-11.1376
▁الجليل	-11.1378
tra	-11.1379
ثورات	-11.1381
▁المصانع	-11.1382
▁فجر	-11.1383
▁سائل	-11.1385
▁لتنظيم	-11.1385
-16	-11.1387
سماها	-11.1389
مواصلة	-11.139
▁تحل	-11.1391
ترجمة	-11.1392
▁بتعيين	-11.1393
متغيرات	-11.1395
▁فخ	-11.1397
▁شريك	-11.1402
▁الماركسية	-11.1403
▁تشكّل	-11.1405
تماثل	-11.1406
▁لرئيس	-11.1407
▁الأساليب	-11.1409
صحب	-11.141
▁المسؤولة	-11.1414
▁جديدًا	-11.1415
▁ثقب	-11.1416
▁مصب	-11.142
▁وجهات	-11.142
فخر	-11.1421
▁كوب	-11.1422
▁تمنح	-11.1423
▁الميزانية	-11.1426
ليو	-11.1427
آس	-11.1429
سيلي	-11.1432
▁الطبيب	-11.1432
▁ومدرسة	-11.1435
▁الأنثروبولوجيا	-11.1435
▁بيبرس	-11.1435
▁فعالية	-11.1435
ميثولوجيا	-11.1436
▁وثقافي	-11.1436
▁معايير	-11.1436
▁المقدمة	-11.1436
▁أصحابه	-11.1437
بخ	-11.1437
▁ريغان	-11.1438
مضي	-11.1438
▁عملاق	-11.1438
رماد	-11.1439
▁الموجة	-11.144
▁رشد	-11.1441
▁الزهور	-11.1441
▁الاثنين	-11.1441
▁قُر	-11.1443
▁علو	-11.1444
سلاسل	-11.1444
▁أثبت	-11.1445
▁أولا	-11.1447
َق	-11.1447
كلاهما	-11.1448
شتغل	-11.1448
تحريك	-11.1449
مُسلم	-11.1449
▁وتركيا	-11.1454
أبجدية	-11.1455
▁طويلاً	-11.1456
▁الناطقين	-11.1457
نفوذ	-11.1458
▁نساء	-11.1458
▁الحجرية	-11.1459
▁وثائق	-11.146
▁توافق	-11.1461
▁اللعب	-11.1464
▁العولمة	-11.1464
lin	-11.1465
▁وأغلب	-11.1465
▁الصفات	-11.1468
▁الأمل	-11.147
▁العسكريَّة	-11.1471
▁الناشئة	-11.1471
ناقل	-11.1471
▁والقانون	-11.1473
▁النفسية	-11.148
حماس	-11.1482
نسخ	-11.1484
▁جوز	-11.1485
دماء	-11.1485
▁ضعيفة	-11.1485
مراقبة	-11.1486
▁الرسولي	-11.1487
▁ومثل	-11.1488
▁زحف	-11.1491
▁دب	-11.1492
▁وعضو	-11.1493
نازل	-11.1494
والتي	-11.1494
ظفر	-11.1496
▁يخص	-11.1496
▁دالة	-11.1497
▁للدول	-11.1498
▁وتمثل	-11.1499
رص	-11.1502
▁الحاوي	-11.1502
▁القياسي	-11.1504
▁يتغير	-11.1506
▁الأوكرانية	-11.1512
قراطي	-11.1514
▁التشريعي	-11.1515
يكية	-11.1517
▁الحوار	-11.1517
▁أيد	-11.1522
ميكانيكي	-11.1523
طهر	-11.1523
▁القذافي	-11.1525
▁المركّبات	-11.1525
▁الخفيفة	-11.1525
▁قرطبة	-11.1525
▁وتقديم	-11.1525
▁بجوار	-11.1525
▁لإدارة	-11.1526
فاكهة	-11.1526
▁يغطي	-11.1526
▁طارق	-11.1526
تعبئة	-11.1526
▁المكرمة	-11.1526
▁الستينات	-11.1527
▁الاحتفاظ	-11.1527
▁كمّيّ	-11.1528
▁تشترك	-11.1529
▁تمّ	-11.1529
▁تحضير	-11.153
▁أوروبي	-11.1531
▁الإجمالية	-11.1531
▁الموز	-11.1533
عابر	-11.1537
محتوى	-11.1538
▁الخبراء	-11.1539
▁السياق	-11.154
▁أُطلق	-11.154
عتمد	-11.1541
كفر	-11.1546
حصار	-11.1546
▁والشيخ	-11.1547
▁السلبي	-11.1548
▁تنتهي	-11.1549
تكون	-11.155
خصائص	-11.155
جماعات	-11.155
عاهد	-11.155
▁الجيري	-11.155
▁بناؤه	-11.1552
▁المقترح	-11.1554
▁الهندوس	-11.1556
▁وانتشر	-11.1557
عمدة	-11.1557
▁الآشوري	-11.156
▁الوسائط	-11.1561
▁المستويات	-11.1561
▁يتخذ	-11.1565
▁وزار	-11.1566
نجو	-11.1567
▁اعتبارا	-11.1568
▁غرام	-11.1568
▁اللاعبين	-11.1572
▁حليف	-11.1574
▁الهضبة	-11.1574
▁الأغلب	-11.1575
▁متكامل	-11.1577
▁فصول	-11.1579
ُّر	-11.1581
رجي	-11.1586
▁وهب	-11.1589
نقد	-11.1592
▁إنجازات	-11.1592
▁فرعون	-11.1594
وائل	-11.1594
▁التطورات	-11.1596
▁السوفياتية	-11.1596
▁حث	-11.16
-6	-11.1602
▁جليد	-11.1604
▁فسي	-11.1605
▁بعملية	-11.1605
مكَّن	-11.1606
▁النفطية	-11.1606
أمواج	-11.1607
▁للبحث	-11.1607
▁المطارات	-11.1612
▁اندماج	-11.1614
▁مكاتب	-11.1614
▁تحد	-11.1616
▁ببساطة	-11.1616
▁الأطباق	-11.1616
▁يقتصر	-11.1616
▁مدعوم	-11.1616
▁النيجيري	-11.1616
▁كاسترو	-11.1616
▁المناصب	-11.1616
▁يؤدّي	-11.1617
انحراف	-11.1617
▁نيكولا	-11.1618
▁مبيعات	-11.1618
▁الفسطاط	-11.1618
▁الاختراع	-11.1618
▁تفاعلات	-11.1619
▁نُشر	-11.1619
▁1905	-11.162
▁الكحول	-11.162
لابتكار	-11.162
غنائم	-11.162
▁ينقسم	-11.1621
أتباع	-11.1621
▁القطبي	-11.1622
▁وضرب	-11.1623
يَّته	-11.1624
▁وتاريخ	-11.1626
جذور	-11.1626
▁العباس	-11.1627
▁القائل	-11.1627
▁بالمئة	-11.1627
▁عروج	-11.1628
▁العسكر	-11.1631
▁شعبان	-11.1631
▁الكبار	-11.1632
▁بفتح	-11.1633
خفي	-11.1634
▁كأ	-11.1634
▁الإسرائيليين	-11.1635
نمط	-11.1636
▁وصفت	-11.1637
▁هر	-11.1637
▁الإقطاعي	-11.1639
▁وعقد	-11.164
نصف	-11.1646
▁أكمل	-11.1647
▁يقف	-11.1647
وڤ	-11.1648
سفينة	-11.1648
▁صحفي	-11.1648
▁ساي	-11.1649
▁تاريخياً	-11.1652
▁انتفاضة	-11.1654
▁لدور	-11.1654
▁جوي	-11.1659
amp	-11.166
▁أسير	-11.166
▁أعلام	-11.1663
برد	-11.1664
َرْ	-11.1669
▁الوعي	-11.1676
▁بورما	-11.1677
▁المناظر	-11.1677
▁بلقب	-11.1678
سرد	-11.168
▁القوافل	-11.1682
▁الرصد	-11.1684
فجر	-11.1685
ist	-11.1685
▁صدق	-11.1687
▁ودفن	-11.1687
كيمياء	-11.1688
أش	-11.1688
▁المراقبة	-11.1691
bu	-11.1691
هُم	-11.1691
ثمر	-11.1692
رسول	-11.1693
باش	-11.1694
أخبار	-11.1696
▁حقيقية	-11.1696
▁ومح	-11.1697
▁توصي	-11.1697
▁والاقتصاد	-11.1699
▁ذكرها	-11.1705
ألوف	-11.1705
نيتروجين	-11.1708
▁السلوفيني	-11.1708
▁ينحدر	-11.1708
▁التهديد	-11.1708
▁تعقيد	-11.1709
▁بجاية	-11.171
▁مرج	-11.171
▁فوائد	-11.171
▁شتى	-11.1712
▁1927	-11.1713
▁متى	-11.1714
▁معاهد	-11.1715
راش	-11.1715
▁والمدينة	-11.1716
طعام	-11.1717
▁استسلم	-11.1718
oc	-11.172
▁فأن	-11.1722
▁حساس	-11.1723
▁المرجع	-11.1727
توني	-11.1727
▁شل	-11.1727
▁التخلص	-11.173
▁المثليين	-11.1732
▁مصنوعة	-11.1735
▁التبادل	-11.1735
إلكترون	-11.1735
▁الأغاني	-11.1737
▁الفرسان	-11.1738
مبادئ	-11.174
▁المُع	-11.1741
توليد	-11.1743
وفيتش	-11.1746
▁كنائس	-11.1746
▁الحاسب	-11.1746
▁صنف	-11.1747
▁خامس	-11.1748
حراسة	-11.1748
اختراق	-11.175
بذل	-11.1752
▁المصل	-11.1753
▁بأنّ	-11.1755
▁للمملكة	-11.1755
نازع	-11.1756
ِهِم	-11.1757
أوروبي	-11.1758
▁تدير	-11.1763
أعشاب	-11.1764
▁تربية	-11.1766
▁جلال	-11.1767
مطالب	-11.177
▁أسفرت	-11.177
▁خيار	-11.1772
▁وحاصر	-11.1772
▁شم	-11.1777
نزو	-11.1779
يمون	-11.1779
بتعد	-11.1782
▁والإمبراطورية	-11.1787
▁أملاك	-11.1794
ماني	-11.1797
▁المراد	-11.1797
▁نجا	-11.1797
▁الفقهاء	-11.1799
▁لشبونة	-11.1801
▁المظاهرات	-11.1801
تأريخ	-11.1801
▁بالعربية	-11.1801
▁الرهبان	-11.1801
▁الفرنجة	-11.1801
▁وانتشار	-11.1802
▁الثلج	-11.1803
▁وأكد	-11.1803
▁الالتزام	-11.1803
▁أكاديمية	-11.1803
▁جغرافية	-11.1805
▁عائلات	-11.1805
▁الرقابة	-11.1805
▁المرء	-11.1805
ـ/19	-11.1806
▁عُمر	-11.1809
كروم	-11.1812
▁سرت	-11.1817
wi	-11.182
رمون	-11.182
▁وأظهر	-11.1822
▁المنخفض	-11.1822
▁يفصل	-11.1822
زاوية	-11.1824
nc	-11.1829
▁يحدها	-11.1829
▁أبيب	-11.1832
▁تعليق	-11.1832
▁ذروتها	-11.1836
▁الصربية	-11.1836
▁تركت	-11.1837
▁وجوب	-11.1841
▁بقليل	-11.1841
▁الغييشا	-11.1841
اصر	-11.1843
▁التجمعات	-11.185
▁التسلسل	-11.1851
▁المدير	-11.1855
ختام	-11.1856
▁اجتماعي	-11.186
5)	-11.1863
▁المناسبات	-11.1864
▁الرائدة	-11.1864
▁التطبيقية	-11.1865
▁الموسمية	-11.1866
▁العملات	-11.1866
▁تفيد	-11.1867
قائه	-11.1869
▁ونشأ	-11.187
▁فأصبحت	-11.1872
▁المفضل	-11.1875
▁مبني	-11.1876
حرار	-11.1878
▁شحن	-11.188
▁الصهيوني	-11.1881
▁شهود	-11.1883
نطبق	-11.1884
sta	-11.1887
▁كمال	-11.1887
-8	-11.1887
سمح	-11.189
مماليك	-11.1892
▁الأناجيل	-11.1894
▁اثنان	-11.1894
▁لتشمل	-11.1894
▁حكومات	-11.1894
▁برمجيات	-11.1894
▁القيود	-11.1894
عتنق	-11.1895
▁إصابة	-11.1895
▁حمزة	-11.1895
▁المقيمين	-11.1895
هضاب	-11.1897
طعن	-11.1897
راز	-11.1898
▁أعطت	-11.1898
▁الأسعار	-11.1898
▁لِذلك	-11.1899
▁العدوان	-11.19
▁والقضاء	-11.1902
▁المنحدر	-11.1902
▁50%	-11.1904
▁إش	-11.1905
-4	-11.1909
▁نال	-11.1911
▁المراجع	-11.1912
▁القارات	-11.1913
ائيل	-11.1913
ستير	-11.1915
▁الميثاق	-11.1916
إفريقي	-11.1921
إبقاء	-11.1924
▁الهول	-11.1929
▁يتسبب	-11.1931
▁الديموقراطي	-11.1931
▁رود	-11.1932
▁فكتب	-11.1933
▁الصوتية	-11.1934
▁لوضع	-11.1935
▁كاتدرائية	-11.1935
شهود	-11.1936
حذف	-11.1937
نتو	-11.1939
آلهة	-11.194
▁باز	-11.1941
che	-11.1941
▁المربع	-11.1941
▁يتناول	-11.1941
دئ	-11.1941
▁يمنح	-11.1942
ضباط	-11.1942
▁po	-11.1945
ئس	-11.1946
▁تأسيسها	-11.1947
لقضاء	-11.1948
▁انطلقت	-11.1948
▁نوح	-11.1952
▁نواحي	-11.1953
▁وخلف	-11.1956
▁حدائق	-11.196
▁الكويتي	-11.1963
▁na	-11.1969
▁مبنية	-11.1971
▁دورها	-11.1972
▁القضائي	-11.1973
▁أمية	-11.1975
▁مسلح	-11.1977
فاه	-11.1978
▁تشارك	-11.1981
خصوصاً	-11.1981
▁قالوا	-11.1985
تركيز	-11.1987
▁محط	-11.1988
عجل	-11.1988
▁المغاربة	-11.1988
▁إديسون	-11.1988
▁مساجد	-11.1988
▁والمواصلات	-11.1988
▁يقطن	-11.1989
▁المعادلة	-11.1989
تحريض	-11.1989
تحذير	-11.1989
▁بإطلاق	-11.199
▁احتياجات	-11.199
استكمال	-11.199
إقبال	-11.1992
▁يصدر	-11.1992
▁الوشم	-11.1992
▁وساهم	-11.1992
ستبدل	-11.1993
▁الكيان	-11.1995
▁صواريخ	-11.1996
برك	-11.1997
▁حيوانات	-11.1998
▁ذراع	-11.1999
▁بشرية	-11.1999
▁مسؤولة	-11.2
▁التأمين	-11.2001
▁أخاه	-11.2001
ِّف	-11.2006
بيوس	-11.2009
لمحكمة	-11.2011
حتفظ	-11.2012
مجزرة	-11.2016
مواليد	-11.2018
طاف	-11.202
تايوان	-11.2025
▁شخصي	-11.2026
أحزاب	-11.2026
▁معيار	-11.2028
وثق	-11.2029
▁مسائل	-11.2029
▁الأمد	-11.2032
▁الليبرالية	-11.2032
▁الهام	-11.2033
▁ووزير	-11.2035
سابق	-11.2035
▁فقتل	-11.2037
▁لإسرائيل	-11.2037
▁تارك	-11.204
▁التجريبية	-11.2041
ai	-11.2043
زب	-11.2043
▁تاريخيا	-11.2046
اجين	-11.2049
▁الظهور	-11.2052
▁إضافي	-11.2053
سيوس	-11.2055
▁ليتم	-11.2056
واقي	-11.2056
▁ذرات	-11.2057
▁والنمسا	-11.2057
▁المعالج	-11.2062
▁مفتوح	-11.2063
▁الترجمة	-11.2064
▁الصفويين	-11.2064
▁لجأ	-11.2066
رضى	-11.2067
▁شمالا	-11.2067
▁بالحكم	-11.2067
▁موانئ	-11.2069
أساس	-11.2069
▁عرق	-11.207
▁معامل	-11.2071
تقوية	-11.2074
gr	-11.2075
▁فاعل	-11.2075
▁ونزل	-11.2076
▁تضع	-11.2078
▁واحداً	-11.208
نقذ	-11.2082
▁se	-11.2083
جُيُوش	-11.2084
▁التصنيع	-11.2084
▁بانتظام	-11.2084
▁الإلخان	-11.2084
▁الثلوج	-11.2084
▁يشكّل	-11.2084
▁المتنوعة	-11.2084
▁تماثيل	-11.2084
▁المحاولات	-11.2084
▁والمؤسسات	-11.2084
▁أريحا	-11.2084
▁المعيشة	-11.2085
▁قاسية	-11.2085
▁الزوار	-11.2085
▁بأس	-11.2089
▁غزت	-11.209
▁القمح	-11.2091
▁اليونانيون	-11.2092
▁النخيل	-11.2092
عبيد	-11.2095
▁استوطن	-11.2097
وقد	-11.2097
عزيز	-11.2097
▁معسكرات	-11.21
استبدال	-11.2101
واكب	-11.2101
أزياء	-11.2102
عقل	-11.2103
▁للحركة	-11.2104
تقنية	-11.2108
منشآت	-11.2109
يانغ	-11.211
لطائرات	-11.2112
رالي	-11.2112
بلو	-11.2113
▁الطولوني	-11.2114
▁سمك	-11.2114
▁الحرام	-11.2114
جزيئ	-11.2116
تعبير	-11.2118
▁فنون	-11.2119
▁استكشاف	-11.2119
▁انسحب	-11.212
▁تجنب	-11.212
▁ارتفاعها	-11.212
▁طال	-11.2121
▁محافظ	-11.2121
تنظيم	-11.2124
شتاين	-11.2124
▁الانقسام	-11.2125
▁السّ	-11.2128
▁شرقا	-11.2133
خادم	-11.2135
▁الكهنة	-11.2135
▁شرعية	-11.2136
دَّد	-11.2137
فاضل	-11.2138
▁أراض	-11.2139
▁تسميته	-11.214
▁البركانية	-11.2144
اشتراكي	-11.2144
▁طبية	-11.2144
▁الزمني	-11.2145
▁قتله	-11.2146
▁الكرواتية	-11.215
▁مجرة	-11.215
مؤشر	-11.2151
▁أجرت	-11.2152
▁المختبر	-11.2154
ستفيد	-11.2157
محرك	-11.2159
▁وخلفه	-11.216
قرية	-11.2165
فحم	-11.2165
▁قائلا	-11.2166
▁لكونه	-11.2167
رَّب	-11.2168
▁بخلاف	-11.2171
بيرغ	-11.2173
▁سلاجقة	-11.2174
▁لعملية	-11.2177
فيف	-11.2177
▁ارتفعت	-11.2178
سريلانكا	-11.218
صفائح	-11.218
▁الديموغرافي	-11.218
اسكتلندا	-11.218
▁لاستعادة	-11.218
▁الخسائر	-11.218
▁بزيارة	-11.218
▁التبانة	-11.2181
▁متميزة	-11.2181
▁العذبة	-11.2181
قنابل	-11.2182
▁الفضي	-11.2182
▁الملفات	-11.2182
▁طقوس	-11.2182
▁الماشية	-11.2183
▁بريطانية	-11.2185
▁والصناعة	-11.2186
بوليس	-11.2188
▁انقسام	-11.2188
▁ليصل	-11.2188
مئات	-11.2188
معالجة	-11.219
▁والكنيسة	-11.219
▁وقوات	-11.2192
إصابات	-11.2193
مصارع	-11.2194
▁لغزو	-11.2195
[	-11.2195
صعوبة	-11.2196
▁البيزنطيَّة	-11.2197
▁الحرم	-11.2199
▁ساكن	-11.22
▁يعترف	-11.22
▁الجدد	-11.2201
عقائد	-11.2202
▁وليام	-11.2202
إنهاء	-11.2203
أرمن	-11.2206
وكان	-11.2206
▁رضا	-11.2208
▁لألمانيا	-11.2209
أقراص	-11.221
▁تؤكد	-11.2211
▁سكك	-11.2212
▁قضائية	-11.2215
عاقبة	-11.2215
▁يزور	-11.2216
▁تسمي	-11.2216
the	-11.2218
▁فنية	-11.2219
موضوع	-11.2224
إدراج	-11.2224
▁القادم	-11.2224
▁عائد	-11.2224
تمويل	-11.2226
سلطنة	-11.2229
رؤية	-11.2231
▁وأب	-11.2233
▁تصاعد	-11.2235
▁يديه	-11.2238
▁نشأته	-11.2238
▁سمات	-11.2239
▁استقرت	-11.2239
▁محرم	-11.224
انتقادات	-11.2241
▁جوية	-11.2242
ميّز	-11.2242
▁جزئيًا	-11.2244
توضع	-11.2246
▁الإبادة	-11.2247
▁ديمقراطي	-11.2248
▁الأقراص	-11.225
▁مقابلة	-11.2251
▁المليون	-11.2252
▁رئاسية	-11.2256
]]َ	-11.2258
زكي	-11.2258
▁حرص	-11.2259
▁ابنته	-11.2259
▁ووفقا	-11.2261
ُ]]	-11.2262
▁المنتجة	-11.2264
▁عديد	-11.2265
▁أشارت	-11.2266
▁مرئي	-11.2267
▁جنوبًا	-11.227
▁تطلق	-11.227
▁الفنزويلي	-11.2277
▁هكذا	-11.2277
▁أُمراء	-11.2277
▁ذُكر	-11.2277
▁زراعية	-11.2277
▁ويشمل	-11.2277
توظيف	-11.2277
▁الأعوام	-11.2277
▁غامض	-11.2277
▁المهرجانات	-11.2278
▁هدنة	-11.2278
▁البوسني	-11.2278
مشاهير	-11.2279
توفى	-11.2281
▁الخطوة	-11.2281
باليونانية	-11.2283
▁الحفريات	-11.2284
▁فكل	-11.2286
▁حفيد	-11.2287
▁المطلوبة	-11.2287
▁استغرق	-11.2289
▁وصفها	-11.2291
▁اُ	-11.2293
▁خوان	-11.2294
▁اعتقل	-11.2294
تكيف	-11.2296
▁حس	-11.2296
▁وخصوصا	-11.2297
▁والواقع	-11.2298
▁راديو	-11.2299
زخر	-11.2302
▁البالغين	-11.2303
▁المجيد	-11.2307
افات	-11.2307
▁المسلمة	-11.2307
▁لثلاث	-11.2311
▁الزلازل	-11.2313
▁للرجال	-11.2317
تنامي	-11.2317
▁عموماً	-11.232
▁الاتجاهات	-11.232
الط	-11.2321
▁القلاع	-11.2322
كرا	-11.2324
▁السكنية	-11.2326
كنتيجة	-11.2326
-11	-11.2327
أنشطة	-11.2338
▁بمجرد	-11.2338
تبنى	-11.2339
chi	-11.2339
▁دمرت	-11.2339
▁تسميتها	-11.234
▁الفرن	-11.234
▁لهما	-11.2341
▁فدان	-11.2344
▁الدستوري	-11.2344
▁تغلب	-11.2347
▁نوعا	-11.2347
▁معاصر	-11.2349
▁والبعض	-11.2349
حاء	-11.2351
▁مضى	-11.2351
▁المبنى	-11.2353
▁قلق	-11.2354
▁الخلوي	-11.2355
زلي	-11.2355
▁المشهد	-11.2355
▁شخصًا	-11.2356
▁خادم	-11.2357
▁يسود	-11.2359
▁فعالة	-11.2361
ْتُ	-11.2361
▁إلاّ	-11.2361
وكل	-11.2365
▁الأكاديمي	-11.2369
▁العقيد	-11.237
▁عمارة	-11.237
فاض	-11.2371
تحوّل	-11.2371
▁خراسان	-11.2373
▁والاجتماعي	-11.2374
▁بطريرك	-11.2375
▁وعاصمتها	-11.2375
▁بتشكيل	-11.2375
▁فاطمة	-11.2375
▁الإشارات	-11.2375
▁أخيرًا	-11.2375
▁والاتصالات	-11.2375
▁ترميم	-11.2375
▁للفنون	-11.2375
تأميم	-11.2376
▁الجيزة	-11.2376
هندوراس	-11.2376
▁معدنية	-11.2377
▁البَابِلي	-11.238
▁طيبة	-11.2382
شتعل	-11.2383
▁العادات	-11.2383
▁وعالم	-11.2384
▁وبالمثل	-11.2384
▁كيلومترات	-11.2384
▁شرعي	-11.2385
▁التعداد	-11.2388
▁وابنه	-11.2389
▁بغير	-11.2392
▁الفار	-11.2393
▁الإشعاعي	-11.2394
ديسمبر	-11.2396
▁صدور	-11.2396
▁مظهر	-11.2396
▁لغتهم	-11.2397
▁خطب	-11.2399
▁لكلمة	-11.24
▁زرع	-11.2401
▁مخاطر	-11.2405
استجابة	-11.2406
حشد	-11.2409
▁ورقة	-11.241
قوافل	-11.2413
▁البلغار	-11.2413
▁كونت	-11.2414
قيس	-11.2417
▁ألم	-11.2418
▁هاتين	-11.2418
متحف	-11.2419
▁نشيد	-11.2419
▁هاما	-11.2421
▁بتنظيم	-11.2421
▁تصريح	-11.2425
▁كريم	-11.2428
▁بأربع	-11.2428
▁آلية	-11.243
فوني	-11.2435
▁المُح	-11.2436
▁يعت	-11.2437
▁القطارات	-11.244
ْتَ	-11.244
▁يمثلون	-11.2441
tt	-11.2442
الاستعداد	-11.2442
▁الوالي	-11.2445
▁تنشأ	-11.2446
شمول	-11.2449
راءات	-11.245
▁حمام	-11.2453
▁المعايير	-11.2454
▁والحكم	-11.2454
ّةِ	-11.2457
▁بروز	-11.2458
▁الكويتية	-11.2458
تجمد	-11.2459
▁يصنع	-11.2459
تنبأ	-11.246
nd	-11.2462
▁المطلوب	-11.2463
امتداد	-11.2464
▁والدينية	-11.2467
مدح	-11.247
▁140	-11.2473
▁مأهولة	-11.2474
▁الوثيقة	-11.2474
▁تلميذ	-11.2474
▁الرطوبة	-11.2474
▁جبريل	-11.2474
▁أبدًا	-11.2474
تجزئة	-11.2474
تسليح	-11.2475
▁مجهول	-11.2475
▁للثورة	-11.2475
▁والرابع	-11.2476
▁الهوائية	-11.2476
▁بالقوة	-11.2477
▁ازدادت	-11.2477
كمية	-11.2477
▁1906	-11.2477
استضافة	-11.2479
▁1911	-11.248
▁1913	-11.248
▁ترأس	-11.248
▁شقيقه	-11.2482
قاضي	-11.2483
▁بلاط	-11.2483
▁الأعراق	-11.2485
▁كلاهما	-11.2485
▁عروض	-11.2485
▁اتساع	-11.2487
▁الغنية	-11.2487
▁العائد	-11.2488
أسباب	-11.2489
كائن	-11.249
▁مُع	-11.2491
▁واتفق	-11.2491
▁ارتد	-11.2491
▁جغرافيا	-11.2491
▁لنفسه	-11.2495
▁المعارض	-11.2496
▁الآيات	-11.2496
روبي	-11.2499
▁أنتج	-11.25
▁ونحو	-11.2501
▁الأقدم	-11.2502
▁سُل	-11.2508
جيد	-11.2511
ستثمار	-11.2513
طائرة	-11.2516
▁للمجتمع	-11.2518
▁دمر	-11.2518
▁ثروة	-11.2518
▁المتواجد	-11.2519
▁الراديوم	-11.2519
▁للقضاء	-11.2519
▁استطلاع	-11.2522
▁وهنا	-11.2522
▁la	-11.2523
▁بمصر	-11.2525
▁المهندسين	-11.2525
▁الجراح	-11.2526
وسفير	-11.2527
أساليب	-11.2528
▁نفق	-11.2528
ؤثر	-11.2529
▁قومية	-11.2529
▁السليم	-11.253
رواية	-11.2532
▁بتهم	-11.2535
نقود	-11.2537
▁الأيرلندية	-11.2538
▁الجريمة	-11.254
fa	-11.254
▁جنوباً	-11.2542
نخرط	-11.2543
sch	-11.2546
▁والأراضي	-11.2547
▁be	-11.255
▁التمويل	-11.255
▁أهميتها	-11.2551
نط	-11.2553
▁الأمويين	-11.2554
▁الإسماعيلية	-11.2555
ساف	-11.2556
وريس	-11.2557
▁موظفي	-11.2559
▁مهمته	-11.256
تعاطف	-11.256
▁للعام	-11.2564
▁متأثر	-11.2565
أزواج	-11.2569
يديا	-11.2569
▁الدرزي	-11.2569
▁تُع	-11.2569
-17	-11.2573
ii	-11.2573
▁لصناعة	-11.2574
▁ميخائيل	-11.2574
▁المزدوج	-11.2574
▁تجهيز	-11.2574
▁الهياكل	-11.2574
▁بغرض	-11.2574
▁للاستخدام	-11.2574
▁الدانوب	-11.2575
▁المخصصة	-11.2575
▁وكوريا	-11.2575
▁المتاحة	-11.2575
▁متقدمة	-11.2575
▁الأوقات	-11.2575
▁صاروخ	-11.2576
▁الحلقات	-11.2576
▁الوسيط	-11.2577
▁والقرى	-11.2578
رِّ	-11.2578
▁والرياضيات	-11.2578
▁شيوخ	-11.2578
▁الإضافي	-11.2578
▁تنظم	-11.2579
▁استقل	-11.2579
▁راح	-11.2581
▁برمجة	-11.2581
تسمية	-11.2585
وتش	-11.2586
▁60%	-11.2586
▁صاغ	-11.2588
▁نوعية	-11.2589
▁مسلحة	-11.259
أمن	-11.2593
▁شرطة	-11.2597
▁أعقب	-11.2599
▁1848	-11.2599
▁كدولة	-11.26
جوس	-11.2602
حجب	-11.2602
net	-11.2602
تتميز	-11.2603
▁تقارب	-11.2604
▁قوس	-11.2604
▁الماليزي	-11.2605
▁فبدأ	-11.2606
▁بالسجن	-11.2606
▁سرير	-11.2606
▁الجانبين	-11.2607
▁روز	-11.2607
▁سالف	-11.261
▁للسيارات	-11.2613
▁ثلثي	-11.2613
▁وأفريقيا	-11.2615
▁ولعب	-11.2616
▁معابد	-11.2619
طيء	-11.2621
فرح	-11.2622
▁ومعدل	-11.2624
▁صيغ	-11.2624
▁البني	-11.2628
▁والحزب	-11.263
▁مكن	-11.2633
أور	-11.2634
▁بوضوح	-11.2634
▁السحب	-11.2636
ِلَ	-11.2638
▁الانهيار	-11.2639
سيان	-11.2639
▁القبلية	-11.2641
▁هاري	-11.2642
▁تقليدية	-11.2648
▁رياح	-11.2649
ستور	-11.265
لوط	-11.2652
▁تتحول	-11.2654
▁العيون	-11.2654
▁تتأثر	-11.2655
▁ستيفن	-11.2655
▁اكتسب	-11.2655
▁يرأس	-11.2657
بحاث	-11.2659
قاعة	-11.2666
▁والثقافي	-11.2666
▁وذات	-11.2667
ودع	-11.2668
إثيوبي	-11.2671
▁القارية	-11.2672
▁البكتيريا	-11.2675
كولا	-11.2675
▁بالضرورة	-11.2675
▁ضواحي	-11.2675
▁الفصائل	-11.2675
▁العبودية	-11.2675
▁اليمامة	-11.2675
▁المحافظين	-11.2675
▁لمساعدة	-11.2675
▁صقلية	-11.2676
▁خفيفة	-11.2676
غسل	-11.2676
▁العُماني	-11.2677
▁الاستمرار	-11.2677
▁إسقاط	-11.2677
▁أبعاد	-11.2679
دوافع	-11.2679
▁للحد	-11.2679
هُما	-11.268
▁براءة	-11.268
▁دلتا	-11.2682
▁أفريقي	-11.2684
▁الرازي	-11.2685
▁أعمدة	-11.2686
▁درهم	-11.2686
▁رطب	-11.2688
▁رؤ	-11.2689
إصدار	-11.269
تاج	-11.2691
ركوب	-11.2691
▁الناخبين	-11.2693
▁مؤخرا	-11.2694
▁الحمر	-11.2695
▁أكل	-11.2699
▁وكون	-11.2701
▁حمدان	-11.2703
▁سعت	-11.2704
افتتاح	-11.2704
لأسرة	-11.2706
سكرتير	-11.2709
▁ذكرى	-11.2709
هاتف	-11.271
▁أوضاع	-11.2712
إبادة	-11.2715
▁موري	-11.2715
▁ويقدر	-11.2717
اشتقاق	-11.272
تضخم	-11.2721
▁الصم	-11.2722
▁غُ	-11.2726
▁التكنولوجي	-11.2726
▁استقالته	-11.2727
▁الربع	-11.2727
▁الصليب	-11.273
سحق	-11.2731
▁ينتقل	-11.2733
▁تكاليف	-11.2733
▁سمرقند	-11.2735
3.5	-11.2735
▁ومتحف	-11.2736
▁العفو	-11.2737
▁موعد	-11.2739
▁العقلية	-11.274
▁يفضل	-11.2743
▁جري	-11.2743
▁وشكل	-11.2745
▁ثانوية	-11.2746
▁جوائز	-11.275
▁مقبول	-11.275
▁والرئيس	-11.275
tic	-11.275
قنع	-11.2751
كفاح	-11.2755
iv	-11.2755
▁والجو	-11.2755
نتائج	-11.2756
مسماة	-11.2759
مساهمة	-11.2764
▁وجبال	-11.2765
بارك	-11.2769
▁بولي	-11.277
▁مفاهيم	-11.277
▁فلور	-11.2772
ستقطب	-11.2774
فنانين	-11.2774
▁آلهة	-11.2776
▁وسبب	-11.2777
ُصُول	-11.2777
▁اللجوء	-11.2777
▁شواطئ	-11.2777
ماسينيسا	-11.2777
▁الكاميرون	-11.2777
▁تخطيط	-11.2777
▁الوثنية	-11.2777
▁مباريات	-11.2777
انعكاس	-11.2777
▁هولاكو	-11.2777
إحساس	-11.2777
▁معادلات	-11.2777
▁التجمع	-11.2778
▁تدفع	-11.2778
▁التخصصات	-11.2778
▁ارتكب	-11.2778
▁العدالة	-11.2778
▁استوائي	-11.2779
ثعبان	-11.278
▁موسيقية	-11.278
▁مفيدة	-11.278
▁الاستثمارات	-11.2781
▁حديدية	-11.2782
▁والتقاليد	-11.2782
▁والفضة	-11.2782
2000	-11.2785
▁فساد	-11.2785
ضوء	-11.2786
▁المدافع	-11.2786
▁لنفس	-11.2786
▁يحتل	-11.2786
▁إشراف	-11.2787
▁خطوة	-11.2788
▁لمرض	-11.279
▁بسط	-11.2791
نضج	-11.2794
▁الخطيب	-11.2799
وبخاصة	-11.28
▁المبدأ	-11.28
جهل	-11.28
▁مسلمة	-11.28
▁منازل	-11.28
▁فرس	-11.2801
▁تدريجياً	-11.2802
▁أوتو	-11.2804
▁البوتاسيوم	-11.2804
▁سرطان	-11.2805
▁إتش	-11.2806
▁بحي	-11.2806
لمس	-11.281
ثقب	-11.2811
▁علاء	-11.2814
▁الاحتفالات	-11.2815
رقم	-11.2815
▁الوراثية	-11.2815
إرادة	-11.2819
▁النباتي	-11.282
▁مغادرة	-11.282
أرواح	-11.282
▁بوجه	-11.2821
▁القادمين	-11.2822
تميّز	-11.2827
▁المحطات	-11.283
▁مان	-11.2831
خاطر	-11.2832
▁الإغريقي	-11.2834
أداة	-11.2836
▁دستورية	-11.2838
▁وأقل	-11.2839
▁طبقا	-11.2839
اصطدام	-11.284
▁مكتوب	-11.284
▁انظر	-11.2849
سعد	-11.2854
▁الفائقة	-11.2854
ترويج	-11.2855
محمية	-11.2856
▁المرتفع	-11.2861
▁الغار	-11.2863
أعط	-11.2864
▁حمو	-11.2864
▁المحددة	-11.2865
وجو	-11.2871
▁صام	-11.2872
▁تاج	-11.2879
▁والبرازيل	-11.288
▁ببطء	-11.288
▁عشوائي	-11.288
▁...	-11.288
▁إنشاؤه	-11.288
أزمة	-11.288
▁الجزئي	-11.2881
▁هزيمته	-11.2881
▁لقتال	-11.2881
▁حامية	-11.2882
▁القمع	-11.2882
تفتيش	-11.2882
▁مندوب	-11.2883
▁فاضطر	-11.2883
▁اثني	-11.2884
▁المدارية	-11.2885
▁1928	-11.2885
▁إيقاف	-11.2886
▁الرحالة	-11.2886
▁قدرات	-11.2886
▁النامية	-11.2887
▁1912	-11.2887
▁المجرة	-11.2887
▁تصنع	-11.2888
▁إخضاع	-11.2888
▁1910	-11.2889
mon	-11.2889
▁يبعد	-11.289
▁والأعمال	-11.2891
▁سائد	-11.2893
▁النشاطات	-11.2893
▁المركب	-11.2895
▁وأجبر	-11.2897
▁الحضري	-11.2898
▁5000	-11.2898
hu	-11.2898
▁خشي	-11.2906
▁تشيلي	-11.2909
▁للضوء	-11.2912
▁تحدي	-11.2912
بروتوكولات	-11.2913
▁تغيرت	-11.2916
▁الكليات	-11.2917
ضايق	-11.2917
لمسافة	-11.2919
▁عادية	-11.2919
▁الخمسينيات	-11.2921
▁السيدة	-11.2922
▁الطلاق	-11.2925
لمّا	-11.2928
▁العمران	-11.293
▁ينقل	-11.2933
▁الاكتشافات	-11.2933
أقوال	-11.2935
ls	-11.2938
▁تظل	-11.2939
حدائق	-11.2945
▁موته	-11.2946
▁الجيولوجية	-11.2947
مضادات	-11.2949
▁يسمي	-11.2949
قمر	-11.295
▁عالميًا	-11.2952
▁للكون	-11.2952
▁مقاطع	-11.2953
▁لسكان	-11.2954
▁سعة	-11.2954
▁قدره	-11.2959
▁نفي	-11.2964
▁لحساب	-11.2964
▁وتسبب	-11.2965
أيام	-11.2965
▁تحديث	-11.2968
▁ونُ	-11.2969
▁حاصر	-11.2971
▁تدعي	-11.2971
▁يتلق	-11.2971
▁di	-11.2972
ian	-11.2973
ِمَ	-11.2977
▁الكنعاني	-11.2979
▁داي	-11.298
ly	-11.2983
▁أوروپَّا	-11.2984
▁الائتلاف	-11.2984
▁التايلاندي	-11.2984
▁الخرطوم	-11.2984
▁طوائف	-11.2984
▁المقصود	-11.2984
▁فصائل	-11.2984
▁الكعبة	-11.2984
▁النقاد	-11.2984
▁والمسلمين	-11.2985
▁بشعبية	-11.2985
▁يفوق	-11.2985
تحفيز	-11.2985
▁تكساس	-11.2985
▁المعدات	-11.2986
▁المعقدة	-11.2986
▁الاعتقال	-11.2986
▁الرباعي	-11.2986
▁الدائري	-11.2987
▁يحيط	-11.2988
▁الشجرة	-11.2989
▁صعب	-11.2989
▁الاستعمال	-11.2989
▁لوحظ	-11.2989
▁سطيف	-11.2989
▁مضت	-11.299
▁التحدي	-11.2993
ran	-11.2993
▁الثنائية	-11.2994
نفع	-11.2994
▁والتعاون	-11.2994
▁وسر	-11.2995
▁غاوس	-11.2998
▁البيزنطيون	-11.2999
▁خاصةً	-11.2999
▁الحظر	-11.3003
▁ينبع	-11.3004
▁والتطوير	-11.3004
▁وتصل	-11.3005
▁"«	-11.3007
▁الوكالة	-11.3008
▁وعبر	-11.3009
▁تكرار	-11.3011
▁البعثات	-11.3011
▁تولّ	-11.3012
متنزه	-11.3014
▁الفيوم	-11.3016
700	-11.3016
▁بالمنطقة	-11.3017
▁إقرار	-11.3018
حقائق	-11.3019
▁التعديلات	-11.3021
▁المُدن	-11.3024
▁عرقي	-11.3025
▁قصور	-11.3026
▁لتصل	-11.3027
▁إقناع	-11.3028
▁خف	-11.3029
▁للناس	-11.303
مراكش	-11.3031
▁يواجه	-11.3031
▁الكونية	-11.3032
▁بجمع	-11.3038
▁الأرمنية	-11.304
▁المصطلحات	-11.3041
شيء	-11.3041
▁الكوري	-11.3042
▁تتشكل	-11.3042
▁جولي	-11.3044
▁مؤثر	-11.3046
▁البدائية	-11.3047
وصاية	-11.3048
▁ساو	-11.3051
ريخ	-11.3053
العثماني	-11.3055
طام	-11.3058
▁الألبانية	-11.3059
▁انتقاد	-11.3059
▁والسلام	-11.3061
جزر	-11.3063
مراكز	-11.3063
jo	-11.3065
▁الشارع	-11.307
450	-11.3071
▁شرقاً	-11.3074
▁التنازل	-11.3077
ضمام	-11.3078
▁الغناء	-11.3081
▁بخار	-11.3082
▁حشد	-11.3082
▁ومست	-11.3083
▁يقتل	-11.3084
▁العبد	-11.3085
▁السمع	-11.3086
لاستيلاء	-11.3089
▁بالغة	-11.3089
حوّل	-11.3089
▁القُسطنطينيَّة	-11.3089
▁التعاليم	-11.3089
▁وتدمير	-11.309
▁البراكين	-11.309
▁حكومته	-11.309
▁الكثيف	-11.309
▁مشاهدة	-11.309
▁اللوحات	-11.309
▁الأخوين	-11.3091
▁مقسمة	-11.3092
معظم	-11.3092
▁يظل	-11.3092
منظومة	-11.3093
▁الأركان	-11.3094
▁البروسية	-11.3095
▁أدولف	-11.3095
▁تعهد	-11.3098
مرفأ	-11.3099
▁الجودة	-11.3101
▁عدل	-11.3101
▁جنيف	-11.3102
▁أمرًا	-11.3104
فيلد	-11.3106
تنتشر	-11.3107
▁فرنسية	-11.3107
▁أسقف	-11.3111
▁كرس	-11.3113
▁للتنمية	-11.3115
كبريتيد	-11.3119
▁متجه	-11.3122
▁البول	-11.3122
▁وتك	-11.3123
سرقة	-11.3123
▁يجتمع	-11.3125
خفف	-11.3126
▁الإنكليزية	-11.313
19"	-11.3133
َنَ	-11.3133
أفعال	-11.3135
▁مؤقتة	-11.3137
▁السياحي	-11.3142
▁نوعًا	-11.3144
حشر	-11.3146
▁وإسبانيا	-11.3146
▁بنغازي	-11.3146
▁اللقاء	-11.3149
▁الدراسية	-11.315
▁بقاء	-11.3152
▁شان	-11.3154
▁مراقب	-11.3154
▁وحقق	-11.3154
▁نشطة	-11.3155
▁الواجب	-11.3155
▁دارت	-11.3158
▁وشك	-11.3159
▁يشهد	-11.3159
▁وتعدّ	-11.3159
جاذبية	-11.3161
▁وحول	-11.3162
▁صحية	-11.3162
أمور	-11.3164
مسك	-11.3166
صحراء	-11.3167
▁السطحية	-11.3168
▁الرُّ	-11.3171
1.3	-11.3176
▁المعز	-11.3177
القيام	-11.318
▁الصوفية	-11.3183
▁دولتهم	-11.3184
▁فازت	-11.3188
▁والحياة	-11.319
▁الليبرالي	-11.3193
▁صخور	-11.3195
▁استراتيجي	-11.3196
عرَّض	-11.3196
▁دبلن	-11.3196
▁عفلق	-11.3196
▁مأخوذ	-11.3196
▁العصابات	-11.3196
▁يلبث	-11.3196
▁الشعور	-11.3196
▁الفلزّات	-11.3196
▁الفولاذ	-11.3197
جسر	-11.3197
▁معادلة	-11.3197
▁الصيغة	-11.3197
▁ألقاب	-11.3197
▁القوط	-11.3197
▁المولود	-11.3198
▁الاضطهاد	-11.3198
▁الجورجية	-11.3199
رتكز	-11.3199
▁مشير	-11.3199
▁مملكته	-11.32
▁معادن	-11.3201
▁النوبة	-11.3203
▁وأبي	-11.3203
▁لقوات	-11.3203
0.0	-11.3204
نصوص	-11.3204
قرن	-11.3205
آسيوية	-11.3205
بلازما	-11.3206
▁جرم	-11.3207
▁الصليبيَّة	-11.3207
▁رابين	-11.321
▁مزود	-11.321
نحصر	-11.3211
▁التفاوض	-11.3212
▁المؤتمرات	-11.3212
-14	-11.3213
▁المستوطنين	-11.3214
▁تستضيف	-11.3215
▁بوقت	-11.3218
▁بغزو	-11.322
▁غرف	-11.3221
تناوب	-11.3222
ساعة	-11.3223
ak	-11.3223
▁يقطع	-11.3224
land	-11.3226
▁اغتياله	-11.3229
▁المسيحيَّة	-11.3232
▁العضوي	-11.3233
مايكروسوفت	-11.3234
سطر	-11.3235
▁بتلك	-11.3237
▁توقفت	-11.3238
▁وتوزيع	-11.3238
لقراءة	-11.3239
▁القصف	-11.324
زوم	-11.324
▁تجديد	-11.3243
▁كوك	-11.3244
▁المساهم	-11.3246
▁والمست	-11.3246
انتهاء	-11.3246
▁عالميا	-11.3251
▁الاكتشاف	-11.3253
▁بريطاني	-11.3254
منتدى	-11.3255
شهادات	-11.3257
▁الشعرية	-11.3259
▁المعتاد	-11.326
▁استجابة	-11.3261
زعامة	-11.3264
▁الأمامي	-11.3264
▁بالماء	-11.3264
▁الصالحة	-11.327
▁350	-11.327
▁يتبعون	-11.3273
▁الرؤية	-11.3274
▁العقار	-11.3277
أخلاق	-11.3278
▁سنوية	-11.3279
▁برلمانية	-11.328
▁سياحية	-11.3281
and	-11.3281
نجاح	-11.3281
تسرب	-11.3282
ant	-11.3284
▁بيتر	-11.3288
اداة	-11.3289
ستمرار	-11.3289
▁وسكان	-11.329
▁الرسل	-11.3295
▁أجنبي	-11.3298
ستوعب	-11.3298
▁انتصارات	-11.3302
▁الثابت	-11.3302
▁السَلْجُوقي	-11.3303
▁الأُخرى	-11.3303
▁الاحتراق	-11.3303
▁ضوئية	-11.3303
▁كُتب	-11.3303
▁بُويه	-11.3303
تأهيل	-11.3304
استعراض	-11.3304
▁الاستخبارات	-11.3304
▁يثرب	-11.3304
▁كنعان	-11.3305
طيع	-11.3305
▁امتصاص	-11.3306
▁رفيع	-11.3307
مراسيم	-11.3307
▁الضنك	-11.3309
تعايش	-11.3309
▁لأبي	-11.3309
▁وجبل	-11.3309
▁ألوان	-11.3312
▁الجورجي	-11.3313
تطابق	-11.3314
▁ونص	-11.3318
▁قونية	-11.3321
مضاعفات	-11.3321
▁افتتحت	-11.3323
▁المسؤولية	-11.3323
▁العلوية	-11.3326
لتحق	-11.3326
▁الفرار	-11.3327
قضى	-11.3327
▁استعاد	-11.333
وفسكي	-11.333
▁تسي	-11.3331
آشور	-11.3334
مضيق	-11.3334
▁يوضح	-11.3338
▁للتعبير	-11.3338
▁ضبط	-11.3339
▁إيفا	-11.334
▁فهذا	-11.334
تجدد	-11.334
تفاهم	-11.334
طاو	-11.3341
جماهير	-11.3341
fr	-11.3341
ضريبة	-11.3346
ختل	-11.3347
▁الرنا	-11.335
سامر	-11.3354
ثقوب	-11.3355
تعرف	-11.3355
▁جهات	-11.3355
▁مترو	-11.3355
حزام	-11.3356
قليل	-11.3358
▁تطلب	-11.3359
▁واستعاد	-11.336
▁قاطع	-11.336
▁وأخذت	-11.3367
▁مواضيع	-11.3367
نبذ	-11.3368
▁الديوان	-11.3368
▁وتطبيق	-11.337
▁يوافق	-11.337
▁البعيدة	-11.3373
▁طالبان	-11.3373
▁خلية	-11.3373
▁الحزم	-11.3374
▁وعي	-11.3375
▁أسفر	-11.3375
جريمة	-11.3376
▁الأمية	-11.338
اردو	-11.3381
إشعاع	-11.3382
▁الفكري	-11.3382
▁والدفاع	-11.3386
▁الظل	-11.3388
مستشفى	-11.3388
عوامل	-11.3389
▁وأقر	-11.3391
▁طورت	-11.3391
▁جمهوري	-11.3392
ذل	-11.3392
▁يمين	-11.3393
نعكس	-11.3405
▁تسير	-11.3405
▁الفعلية	-11.3405
▁تخدم	-11.3406
▁يسار	-11.3408
بذ	-11.3411
▁الجنائزي	-11.3412
▁الخاضعة	-11.3412
▁النظائر	-11.3412
▁الاختيار	-11.3412
▁مجددًا	-11.3412
▁سورينام	-11.3412
تعرّض	-11.3412
▁وشملت	-11.3412
▁الدعاية	-11.3413
▁وُجد	-11.3413
▁إشارات	-11.3413
▁للمياه	-11.3414
▁العنيف	-11.3414
▁والنساء	-11.3415
▁الفاتحة	-11.3415
▁باستعمال	-11.3416
▁اليدوية	-11.3417
▁حاجز	-11.3418
▁بادئ	-11.3418
7)	-11.3418
▁ولِ	-11.3419
▁منتشرة	-11.342
تحميل	-11.3422
أطوال	-11.3423
التصدي	-11.3423
▁الفضة	-11.3424
تبخر	-11.3425
▁الكومنولث	-11.3429
تلاميذ	-11.343
▁30%	-11.3431
▁أسطورة	-11.3431
رواد	-11.3432
▁بابن	-11.3434
▁وأف	-11.344
▁بكامل	-11.3443
▁مثلث	-11.3445
▁النقوش	-11.3445
▁احتو	-11.3445
باريس	-11.3447
▁تضاعف	-11.3448
▁لتجنب	-11.3448
محاضرات	-11.3448
▁يضمن	-11.3454
▁أوزبكستان	-11.3455
أعياد	-11.3456
▁ضئيلة	-11.3457
▁بالمعنى	-11.3458
▁زكاة	-11.3459
▁بيزنطة	-11.3461
0)	-11.3465
▁مهاجر	-11.3466
أبدى	-11.3468
▁تمكّن	-11.3469
بروك	-11.347
إدارات	-11.3472
َّاب	-11.3472
▁ارتبط	-11.3474
▁لعلم	-11.3475
▁لمعظم	-11.3478
أسطول	-11.3478
تماسك	-11.3478
▁كافي	-11.348
▁انطلق	-11.3481
▁للنقل	-11.3485
▁جاذبية	-11.3485
▁يتفاعل	-11.3486
▁جيدا	-11.3488
▁إحصائيات	-11.3489
▁ودخلت	-11.3497
انهيار	-11.3499
▁مبادرة	-11.35
▁الحوادث	-11.3503
▁طعام	-11.3516
الاتحاد	-11.3522
اضمحلال	-11.3522
تشيكوسلوفاكيا	-11.3522
▁بيغوفيتش	-11.3522
▁طاجيكستان	-11.3522
▁أوبونتو	-11.3522
▁خريطة	-11.3522
▁للنفط	-11.3522
▁والسياحة	-11.3522
▁عريض	-11.3522
▁التصدير	-11.3522
▁تدريس	-11.3522
تصادم	-11.3523
▁أطاح	-11.3523
▁تعامل	-11.3523
▁السجلات	-11.3524
▁لإجراء	-11.3524
لتعزيز	-11.3524
▁العواصف	-11.3524
▁البرد	-11.3525
▁ملف	-11.3526
▁تسلم	-11.3526
غيل	-11.3526
▁جغرافي	-11.3526
ive	-11.3526
▁وإنتاج	-11.3527
▁المُؤرِّخ	-11.3527
▁استثناء	-11.3528
ومبي	-11.3528
▁لتحسين	-11.3528
▁شارون	-11.353
إضاءة	-11.353
▁والاقتصادي	-11.3533
تحضر	-11.3533
▁تكمن	-11.3535
▁إذن	-11.3535
▁إِل	-11.3538
▁والجنوبية	-11.3541
▁الفصح	-11.3541
▁ولادته	-11.3542
توغل	-11.3543
▁حراري	-11.3544
▁أورد	-11.355
نسج	-11.3551
▁أقيم	-11.3552
▁القهوة	-11.3554
علاقة	-11.3556
▁برون	-11.3557
▁قلج	-11.3557
▁الغرفة	-11.3561
▁تفجير	-11.3562
فلاسفة	-11.3563
▁أثارت	-11.3564
ازدياد	-11.3567
صالة	-11.3567
مساواة	-11.3569
▁تدريجيا	-11.3569
▁بإصدار	-11.3572
▁الشحن	-11.3573
▁ملابس	-11.3573
▁وتظهر	-11.3573
▁تهتم	-11.3575
▁أخلاقي	-11.3576
َةُ	-11.3577
▁المقالات	-11.3578
▁2.5	-11.3579
▁التراجع	-11.358
ُونَ	-11.358
▁وتأسيس	-11.3592
▁بنشر	-11.3592
عترف	-11.3593
▁بعام	-11.3594
▁وأدت	-11.3596
▁وسمح	-11.3597
nu	-11.3598
▁قوته	-11.3599
▁هيرودوت	-11.3599
▁الإصلاحية	-11.3601
▁متحدث	-11.3604
نبو	-11.361
ox	-11.3611
za	-11.3613
▁لأم	-11.3616
برهان	-11.3616
▁فقه	-11.3617
▁غرين	-11.3619
▁يرسل	-11.3619
▁استُ	-11.3621
▁للشركة	-11.3625
▁الصينيين	-11.3632
-7	-11.3633
▁بمناسبة	-11.3633
▁تروتسكي	-11.3633
▁عائشة	-11.3633
▁الصاروخ	-11.3633
▁وتختلف	-11.3633
▁الفائز	-11.3633
▁وأخيرًا	-11.3633
▁كوسيلة	-11.3633
▁يزداد	-11.3633
▁طاهر	-11.3633
▁وزوجته	-11.3633
▁الحشرات	-11.3634
▁السحاب	-11.3634
▁الهيئات	-11.3634
▁موزعة	-11.3634
▁المشكلات	-11.3634
▁الموجهة	-11.3635
إخبار	-11.3635
▁الفريدة	-11.3636
▁الانتخاب	-11.3637
▁بجميع	-11.3639
▁شيئاً	-11.3639
▁مختبر	-11.3639
الكترون	-11.3639
▁المندائي	-11.364
▁برميل	-11.364
▁أضرار	-11.3642
▁حرارته	-11.3646
▁الجذر	-11.3646
▁العملاقة	-11.3646
▁سفير	-11.3647
ضاد	-11.3648
قاعات	-11.3652
▁الحيرة	-11.3654
▁أشياء	-11.3656
شخصية	-11.366
أذربيجان	-11.366
▁وعلماء	-11.3661
نيق	-11.3662
نزيف	-11.3664
▁سيمون	-11.3664
▁الراشدين	-11.3666
▁التنقل	-11.3667
▁أقصر	-11.3671
▁الجدير	-11.3672
▁يأكل	-11.3673
عذب	-11.3673
كوكب	-11.3674
محاصيل	-11.3674
▁يحد	-11.3675
أحماض	-11.3675
ّط	-11.3678
▁صعبة	-11.3679
▁البيولوجية	-11.368
▁التغذية	-11.3681
▁ألي	-11.3681
▁بالمائة	-11.3682
▁المعارف	-11.3684
▁عديم	-11.3688
دز	-11.369
قضاة	-11.3691
pr	-11.3692
مهاجرين	-11.3695
▁باختلاف	-11.3697
▁تفصل	-11.3698
▁(200	-11.37
▁يأمر	-11.3703
خَ	-11.3705
▁لحوالي	-11.371
▁جيولوجي	-11.371
▁تتركز	-11.3711
▁وجاءت	-11.3712
▁والمدارس	-11.3714
تعمل	-11.3718
ثلث	-11.3718
▁الغطاء	-11.3721
غزل	-11.3723
▁مرتفعات	-11.3724
أهداف	-11.3724
▁الاغتيال	-11.3724
إنترنت	-11.3727
شمع	-11.3734
▁نوعاً	-11.3737
▁سلاسل	-11.3738
▁أسنان	-11.3739
لتخطيط	-11.374
إغريق	-11.3741
إنزال	-11.3743
تفجر	-11.3744
▁التأكيد	-11.3744
▁يراه	-11.3744
▁الجزائرِ	-11.3745
▁ستوكهولم	-11.3745
▁الضحايا	-11.3745
▁الإبداع	-11.3745
▁العشائر	-11.3745
▁تزامن	-11.3746
▁جوريون	-11.3746
▁بطرق	-11.3746
▁الأسطوري	-11.3746
▁المقال	-11.3746
▁والسودان	-11.3746
تغيّر	-11.3746
تزاوج	-11.3747
أكاسيد	-11.3747
▁شهاب	-11.3747
باز	-11.3747
▁بإنتاج	-11.3747
▁لحظة	-11.3748
▁هاشم	-11.3748
▁منظور	-11.3748
▁يسمون	-11.3749
▁1908	-11.3749
▁دبلوماسية	-11.3749
▁شبيهة	-11.3751
نادى	-11.3751
▁مسيرته	-11.3751
▁جمعت	-11.3751
▁الأقسام	-11.3752
▁1800	-11.3752
حمص	-11.3754
▁ساحق	-11.3754
▁الأندية	-11.3755
▁أفريقية	-11.3755
تمسك	-11.3756
▁ويعتمد	-11.3758
طابع	-11.3759
▁النشر	-11.376
▁نشاطات	-11.3761
▁حضارات	-11.3763
▁الديار	-11.3763
▁يولد	-11.3764
سحر	-11.3768
أشباه	-11.3768
▁بيرس	-11.3768
▁أنشئ	-11.377
▁أملاح	-11.3772
بطاقات	-11.3772
▁المواضيع	-11.3772
▁الكائن	-11.3774
مجيء	-11.3775
دقيق	-11.3776
-12	-11.3776
▁الحلول	-11.3776
▁خيال	-11.3777
▁ربح	-11.3777
طفل	-11.3777
▁نعرف	-11.3779
ضريح	-11.3779
▁علق	-11.3779
▁صناعات	-11.378
▁الزعماء	-11.3781
oo	-11.3784
▁أكدت	-11.3787
▁اختلافات	-11.3789
تمام	-11.379
ُمْ	-11.3794
▁أشرف	-11.3795
تقليد	-11.3796
فقر	-11.3801
دهن	-11.3802
كليف	-11.3802
حتفل	-11.3803
▁التحرك	-11.3804
▁تقبل	-11.3804
▁مقالات	-11.3805
▁مونت	-11.3805
▁اعتناق	-11.3806
▁بتنفيذ	-11.3814
إذا	-11.3814
▁والإسلامية	-11.3815
▁قدوم	-11.3816
▁وحماية	-11.3817
gen	-11.3818
رموز	-11.3818
▁قومي	-11.3819
▁أسوأ	-11.382
ّض	-11.3821
لخلافة	-11.3821
رغ	-11.3823
▁المحمولة	-11.3826
▁ويشير	-11.3827
▁تحدها	-11.3831
▁ريفي	-11.3831
▁أجمع	-11.3833
▁دال	-11.3833
▁النَّ	-11.3835
حُكم	-11.384
كوشي	-11.3842
تجربة	-11.3843
▁الديون	-11.3846
▁يضاف	-11.385
▁تشغل	-11.3851
▁الفتنة	-11.3851
▁رأسهم	-11.3852
▁المخرج	-11.3854
▁الغزل	-11.3855
حوض	-11.3856
▁الاستعماري	-11.3856
إثن	-11.3857
▁حذ	-11.3857
▁ائتلاف	-11.3859
▁تنزانيا	-11.3859
▁جنكيز	-11.3859
html	-11.3859
▁مفاجئ	-11.3859
▁الضواحي	-11.3859
▁سائح	-11.3859
▁والشَّام	-11.3859
▁مزدوج	-11.3859
▁الادعاء	-11.3859
▁الإتحاد	-11.3859
▁قزوين	-11.3859
▁بُعد	-11.386
انعدام	-11.386
▁الحبشة	-11.386
▁أقدام	-11.3861
▁البارزين	-11.3861
▁الفنادق	-11.3862
▁صلات	-11.3862
▁محايد	-11.3862
طاجيك	-11.3862
▁ميس	-11.3863
▁ونهب	-11.3864
▁خطوات	-11.3866
مفعول	-11.3869
▁1-	-11.387
▁ابتكر	-11.387
▁الفقهية	-11.3872
▁الجسور	-11.3874
أعلام	-11.3876
▁بِسبب	-11.3877
▁فقرر	-11.3878
▁فاتح	-11.3878
▁حوار	-11.3879
ذكرى	-11.3881
▁المجالس	-11.3883
لولاية	-11.3885
▁السُّ	-11.3885
▁وتحسين	-11.3886
▁اجتماعات	-11.3886
▁اعتل	-11.3887
▁ويلز	-11.389
قرص	-11.3892
▁1200	-11.3893
▁ويتميز	-11.3893
▁ووصلت	-11.3893
بابل	-11.3894
▁والصناعات	-11.3897
▁المنافس	-11.39
يوسف	-11.39
▁ينتهي	-11.39
▁الأغنية	-11.3901
▁احتفظ	-11.3901
▁تقرر	-11.3902
تجانس	-11.3903
▁كولوم	-11.3904
▁دستوري	-11.3909
▁كُلِّ	-11.391
احتمال	-11.3911
▁صبي	-11.3911
▁سيرته	-11.3913
▁الكهرومغناطيسي	-11.3913
6)	-11.3914
▁بهاء	-11.3915
▁يسع	-11.3915
تخرج	-11.3919
ترشح	-11.3919
▁دعت	-11.3922
▁الاستكشاف	-11.3922
وجّه	-11.3922
▁الصغار	-11.3922
▁الفتوحات	-11.3926
▁النوم	-11.3927
▁أكس	-11.3927
▁ظن	-11.3927
غطى	-11.3934
▁وبناءً	-11.3935
مملوكة	-11.3938
مستودع	-11.3939
وزارة	-11.394
▁المفروضة	-11.3942
شوار	-11.3944
▁العلي	-11.3944
▁التحقيقات	-11.3954
▁يعرفون	-11.3954
باح	-11.3956
تصور	-11.3958
▁الذكرى	-11.3959
▁الموضع	-11.3959
قائمة	-11.3961
قبيلة	-11.3962
▁الأبراج	-11.3962
▁الأخلاقية	-11.3964
▁أيديهم	-11.3968
▁تمام	-11.3971
2,000	-11.3973
▁ألكسندر	-11.3974
▁الصُلح	-11.3974
▁القدامى	-11.3974
▁الانتحار	-11.3974
▁موزيلا	-11.3974
▁القصيم	-11.3974
▁أدرنة	-11.3974
استقطاب	-11.3974
تحصيل	-11.3974
▁بكميات	-11.3974
▁المخطوطات	-11.3975
▁فريدريش	-11.3975
▁كسوف	-11.3975
▁الفينيقية	-11.3975
▁مصلحة	-11.3976
▁الكاميرا	-11.3976
مغطاة	-11.3976
▁أجسام	-11.3976
طوق	-11.3977
▁تغيرات	-11.3978
▁الفئات	-11.398
▁الواسع	-11.398
▁الأحرار	-11.3981
▁تبنت	-11.3982
▁مذكراته	-11.3983
▁والسلطة	-11.3984
بتكر	-11.3984
▁حائل	-11.3985
▁طيار	-11.3985
كاك	-11.3989
▁لتحل	-11.3989
▁رغبته	-11.399
▁علينا	-11.3991
▁سوداء	-11.3991
▁كارول	-11.3992
▁الدولار	-11.3993
▁بلانك	-11.3993
▁هابل	-11.3993
▁الفقراء	-11.3994
▁مناجم	-11.3996
سبّب	-11.3998
▁حميد	-11.3999
▁لسنوات	-11.4
▁توسعت	-11.4
▁سيوة	-11.4
▁ويتحدث	-11.4001
▁التسع	-11.4001
الهجرة	-11.4003
▁التكامل	-11.4006
▁برد	-11.4007
▁1870	-11.4009
▁نووي	-11.4011
▁معاملة	-11.4012
▁تجاهل	-11.4013
▁da	-11.4013
وراثة	-11.4015
▁البنفسجية	-11.4016
▁الفاطمية	-11.4017
فيروز	-11.4017
▁يسبق	-11.4019
▁أصناف	-11.4019
فيلم	-11.4019
عُلماء	-11.4019
▁10,000	-11.4023
ذهل	-11.4025
▁بالعالم	-11.4026
استشهاد	-11.4028
▁اللازم	-11.403
خطأ	-11.4033
▁يحقق	-11.4033
▁المقطع	-11.4035
ِّب	-11.4035
▁متوقع	-11.4035
▁اشتق	-11.4039
▁لتنفيذ	-11.4039
je	-11.404
▁مسلسل	-11.4041
▁والقمر	-11.4042
زخرفة	-11.4043
ستوديو	-11.4043
▁ميغا	-11.4045
أسرع	-11.4045
▁ممثلة	-11.4047
▁يبحث	-11.4048
واجب	-11.4049
▁الحسيني	-11.4051
▁الحقائق	-11.4052
▁حيوية	-11.4057
صقل	-11.4059
▁بعلم	-11.406
▁كاد	-11.4062
▁يصنف	-11.4063
▁قبة	-11.4063
▁قائل	-11.4071
نجلي	-11.4075
▁يرمز	-11.4075
▁والنظام	-11.408
▁الجينية	-11.4081
▁الدليل	-11.4083
▁التحرر	-11.4086
0.5	-11.4088
dr	-11.409
موزمبيق	-11.409
▁الطوارئ	-11.409
▁وبالأخص	-11.409
▁ترشيح	-11.409
▁اللحظة	-11.409
▁العصيان	-11.409
▁لتكوين	-11.409
▁ملامح	-11.409
▁والإنجليزية	-11.4091
▁بومدين	-11.4091
▁قلقيلية	-11.4091
▁الصيام	-11.4091
مؤامرة	-11.4091
▁اعتراض	-11.4092
▁صفحات	-11.4092
▁تورنغ	-11.4092
▁للعهد	-11.4093
▁طفيف	-11.4093
▁داعش	-11.4094
▁خاضعة	-11.4094
▁البنوك	-11.4094
▁نقاش	-11.4095
▁الحامية	-11.4096
▁دارفور	-11.4097
▁والنقل	-11.4097
سبائك	-11.41
▁العروض	-11.4101
▁منتظم	-11.4102
▁وتعزيز	-11.4105
منذ	-11.4106
▁وكلمة	-11.4106
▁الانخفاض	-11.4107
ُطلق	-11.4109
▁البيعة	-11.4109
صرح	-11.411
▁الثدييات	-11.4117
▁دينهم	-11.4117
▁بوتر	-11.4117
▁160	-11.4123
مبيدات	-11.4125
▁للقرن	-11.4125
▁يحب	-11.4126
▁فضاء	-11.4129
▁السكن	-11.4129
▁الأستاذ	-11.4131
▁قسنطينة	-11.4136
تناسق	-11.4136
▁1830	-11.4138
ae	-11.4138
ِّع	-11.4138
هجمات	-11.4138
شارلكان	-11.4142
▁صادق	-11.4142
▁العزل	-11.4147
أفلاطون	-11.4148
▁معلن	-11.4149
أولئك	-11.4151
▁البرتغاليون	-11.4153
▁الحياد	-11.4156
0،000	-11.4158
▁وباقي	-11.4159
عائلة	-11.4161
▁المملوكة	-11.4163
▁مسلمين	-11.4164
▁الشيوعيين	-11.4164
▁والمنطقة	-11.4165
بطن	-11.4165
▁فنان	-11.4172
▁الجذب	-11.4172
▁التحدث	-11.4173
ستيل	-11.4176
▁العيد	-11.4178
▁أتاح	-11.418
▁رودس	-11.4183
▁ينسب	-11.4196
▁جزئيا	-11.4196
حاسوب	-11.4198
▁السومرية	-11.4198
her	-11.4199
حصى	-11.4201
إسكان	-11.4204
▁ومراكز	-11.4206
عطف	-11.4207
▁قشتالة	-11.4208
▁امتلاك	-11.4208
▁فلورنسا	-11.4208
▁نوميديا	-11.4208
▁طفولته	-11.4208
ديكتاتور	-11.4208
▁تضاريس	-11.4208
▁مسحوق	-11.4208
▁الوقاية	-11.4208
▁وازداد	-11.4208
▁القيروان	-11.4208
▁متساوية	-11.4208
▁والمنتجات	-11.4208
▁الطاهر	-11.4208
▁للنساء	-11.4208
▁فيلهلم	-11.4208
▁المحاربين	-11.4208
حرمان	-11.4209
▁تدعو	-11.4209
▁الإذاعي	-11.4209
▁ياقوت	-11.421
▁الجدران	-11.421
▁بحاجة	-11.421
▁الواردة	-11.421
▁الرغبة	-11.4211
غموض	-11.4211
▁المستكشف	-11.4212
▁القابلة	-11.4213
▁الكنعانية	-11.4214
فاجأ	-11.4214
▁المعنية	-11.4215
ثاب	-11.4215
▁الحصن	-11.4216
▁70%	-11.4216
▁التفاضل	-11.4216
▁الغذائي	-11.4217
▁الزيارة	-11.4217
▁الأصفر	-11.4219
▁تمتاز	-11.4219
▁وسميت	-11.4222
▁واستغل	-11.4222
▁يُح	-11.4224
▁الاحتياطي	-11.4226
مجتهد	-11.4226
▁يحتفل	-11.4231
▁اتهام	-11.4231
▁لنشر	-11.4231
طبقات	-11.4232
▁وخمسين	-11.4239
▁المعيار	-11.4241
▁البدء	-11.4243
▁ويعيش	-11.4246
▁فراغ	-11.4246
▁قرا	-11.4247
▁جيرانها	-11.4248
▁بأسلوب	-11.425
▁حيدر	-11.4254
▁1.2	-11.4259
af	-11.426
▁واشتر	-11.4261
▁يفسر	-11.4263
سويسرا	-11.4269
▁برن	-11.427
▁الجاهلية	-11.4271
mp	-11.4272
جيز	-11.4273
▁يتوقف	-11.4275
▁وباكستان	-11.4276
توأم	-11.4277
▁سلب	-11.4279
▁والعسكرية	-11.4279
▁وتغطي	-11.4281
ميتر	-11.4282
▁عراقي	-11.4286
▁أبلغ	-11.4286
▁الأرواح	-11.429
▁البدع	-11.4291
pl	-11.4294
han	-11.4306
▁ليفي	-11.4308
▁سنان	-11.4313
▁وعرفت	-11.4314
▁التغير	-11.4316
▁كونان	-11.4317
ضطهاد	-11.4318
غيب	-11.4319
▁صافي	-11.4322
▁فمثلا	-11.4324
▁بخمس	-11.4326
▁زيمبابوي	-11.4327
▁عقوبات	-11.4327
▁فرديناند	-11.4327
▁مستوطنات	-11.4327
▁طموح	-11.4327
▁المحترف	-11.4327
حتجاج	-11.4327
▁الملايين	-11.4327
▁ويلسون	-11.4328
▁الجرمانية	-11.4328
▁السلافية	-11.4328
تجدر	-11.4328
▁متطورة	-11.4328
▁هريرة	-11.4329
باليابانية	-11.4329
▁قبالة	-11.4329
خلايا	-11.4329
▁النشأة	-11.4329
▁أُنشئ	-11.433
▁الأنباط	-11.433
مذابح	-11.433
▁لِيُ	-11.4331
ya	-11.4331
▁الجنائية	-11.4331
▁الشريط	-11.4332
▁الموالية	-11.4333
إكمال	-11.4333
▁الباطن	-11.4333
▁عُثر	-11.4334
▁ليبيريا	-11.4335
▁السومري	-11.4338
▁توتر	-11.4339
▁يصب	-11.434
▁مظاهرات	-11.434
▁تسوية	-11.434
▁أعدائه	-11.4344
▁البادية	-11.4347
▁قلت	-11.4353
▁الأمام	-11.4355
الإنسان	-11.4356
▁النفايات	-11.4357
▁اتصالات	-11.4358
▁للكوكب	-11.436
▁الفقري	-11.4361
▁الجوائز	-11.4362
▁شعراء	-11.4362
أجرام	-11.4364
uc	-11.4369
▁يقسم	-11.4375
اختزال	-11.4375
تحر	-11.4376
▁خطير	-11.4381
ty	-11.4383
ten	-11.4386
250	-11.4387
حتضن	-11.4388
ack	-11.4391
▁الألياف	-11.4391
تطلع	-11.4392
إحياء	-11.4393
غوط	-11.4395
▁مسافر	-11.4396
قسام	-11.4397
▁الناجمة	-11.4397
▁الذات	-11.4406
▁عائدات	-11.4413
▁الباكستانية	-11.4415
▁الرعي	-11.4415
▁للإله	-11.4416
▁الحوض	-11.4418
▁الفلسطينيون	-11.4423
لينكس	-11.4424
▁والأكثر	-11.4425
▁بتغيير	-11.4427
▁تجريبي	-11.4427
▁أمض	-11.4429
غالباً	-11.443
▁عباد	-11.4432
دكتور	-11.4432
▁الهيمنة	-11.4438
▁قَ	-11.444
▁سول	-11.4445
ملابس	-11.4446
▁تميم	-11.4447
▁اشتباك	-11.4447
▁الإسكندنافية	-11.4447
▁الرنتيسي	-11.4447
▁لوكسمبورغ	-11.4447
▁جزيء	-11.4447
▁المقاعد	-11.4448
▁الرطبة	-11.4448
▁المأمون	-11.4448
▁نشبت	-11.4448
▁قُوَّة	-11.4448
عجائب	-11.4448
▁الإثيوبية	-11.4448
▁أنابيب	-11.4448
▁البرمجية	-11.4449
▁ابتكار	-11.445
▁متاحة	-11.445
▁4000	-11.4452
▁تروي	-11.4452
ضاحية	-11.4453
▁نهضة	-11.4453
▁الأوردو	-11.4453
▁الشرف	-11.4454
▁الولاء	-11.4455
تخلف	-11.4456
▁بِذلك	-11.4456
▁مسلمون	-11.4457
▁تدريجي	-11.4457
صادق	-11.4457
المصري	-11.4463
▁اتسم	-11.4465
لغلاف	-11.4468
▁والعلماء	-11.4468
▁للإصابة	-11.4469
cu	-11.4469
▁سرعته	-11.447
قَّب	-11.4471
▁معدات	-11.4472
▁وتحتل	-11.4476
▁مكثف	-11.4477
سول	-11.448
▁الحقول	-11.4481
هيكل	-11.4482
▁نالت	-11.4482
▁التمر	-11.4484
فعاليات	-11.4485
ليكس	-11.4486
▁القصيدة	-11.4489
▁البلاي	-11.449
▁البنغالية	-11.4501
فتوحات	-11.4504
ثلاث	-11.4505
▁الموتى	-11.4506
▁والبنية	-11.4506
الحصول	-11.451
90"	-11.451
▁شين	-11.4512
▁واهتم	-11.4512
▁والأرض	-11.4514
▁المدفعية	-11.4514
▁ضئيل	-11.452
خسارة	-11.4523
▁تلقي	-11.4523
▁تتوقف	-11.4523
▁صنفت	-11.4526
▁لتأسيس	-11.4527
▁مستقيم	-11.4528
▁بدفع	-11.4529
▁وأحيانا	-11.4548
▁الإقطاع	-11.4549
▁الآداب	-11.4551
▁إيجابية	-11.4551
▁الكاب	-11.4552
صباح	-11.4552
▁الباي	-11.4554
▁فلكية	-11.456
▁الممتاز	-11.4569
زدهار	-11.4569
▁اجتاح	-11.4569
▁رحباني	-11.4569
▁خاطئ	-11.457
▁الرحيم	-11.457
استهداف	-11.457
▁الأهرامات	-11.457
▁الخديوي	-11.457
▁ضغوط	-11.457
▁سحاب	-11.457
▁البروتونات	-11.457
▁انتباه	-11.4571
▁إدريس	-11.4571
عقيدة	-11.4572
▁العقبة	-11.4572
▁الرمال	-11.4572
▁قرَّر	-11.4574
▁أنطونيو	-11.4574
نبثق	-11.4574
نظير	-11.4576
▁الأفيون	-11.4576
▁الشرائية	-11.4577
▁الأنفاق	-11.4577
▁الجمهوريات	-11.4578
▁النيران	-11.4578
▁بوذا	-11.4578
▁القرطاجي	-11.4579
▁زايد	-11.4579
ثروة	-11.458
▁الاتهام	-11.4581
تأويل	-11.4581
رزق	-11.4583
▁إقطاع	-11.4584
تصفية	-11.4585
▁اللحم	-11.4587
جراف	-11.4592
▁اختبارات	-11.4596
▁والكتاب	-11.4596
تبلور	-11.4598
▁أشبه	-11.4598
▁1896	-11.4601
▁الطالب	-11.4601
▁معترف	-11.4606
▁معلق	-11.4609
▁المعرض	-11.4611
▁أفروديت	-11.4613
▁الحمى	-11.4617
▁للسلطان	-11.4619
أسلاك	-11.462
▁الشتوية	-11.4621
ألومنيوم	-11.4622
▁احتجاجات	-11.4624
▁حالته	-11.4624
▁المتأخر	-11.4626
▁الآشوريين	-11.4627
▁القاري	-11.4627
▁الفتن	-11.4627
كاش	-11.4627
▁الكاثوليكي	-11.4629
لند	-11.4635
▁يلزم	-11.4639
كاتدرائية	-11.4639
ستقرار	-11.4639
فهرنهايت	-11.4639
▁أحسن	-11.4641
بعل	-11.4643
▁يثبت	-11.4643
▁المكتبات	-11.4646
hy	-11.4647
▁للفترة	-11.4648
▁المصنوعة	-11.4648
▁والرياض	-11.465
▁بطلب	-11.4653
▁البنغال	-11.4654
▁العمومية	-11.4655
▁فلكي	-11.4655
استطلاع	-11.4656
cy	-11.4663
▁تسقط	-11.4666
▁جماعية	-11.4666
▁وتحويل	-11.467
▁المعسكر	-11.467
▁إلخ	-11.4674
لبنان	-11.4674
الإمبراطورية	-11.4679
▁المتأخرة	-11.468
▁وتقل	-11.4681
▁يحضر	-11.4682
log	-11.4688
بكالوريوس	-11.4693
▁الأوروغواي	-11.4693
▁رئاسته	-11.4693
▁حنبعل	-11.4693
▁الإيرادات	-11.4693
▁ثقافات	-11.4693
امتحان	-11.4693
▁البذور	-11.4693
▁الزعتر	-11.4693
▁العشوائي	-11.4693
▁باسكال	-11.4693
▁والثلاثين	-11.4693
▁الغزاة	-11.4693
▁السلالات	-11.4693
▁اليزيدية	-11.4694
▁المحدودة	-11.4694
استبعاد	-11.4694
▁العاصفة	-11.4695
▁الإنشاء	-11.4695
▁السريانية	-11.4695
ختراع	-11.4699
▁مهارات	-11.47
▁طولكرم	-11.47
زكاة	-11.47
▁النقيض	-11.47
▁واعتمد	-11.4701
▁بمناخ	-11.4702
▁والإدارة	-11.4702
▁الزمكان	-11.4703
▁تنصيب	-11.4703
بيتر	-11.4708
▁شوال	-11.4712
▁لهجات	-11.4713
▁يتكلم	-11.4715
▁بنائها	-11.4717
▁الأذربيجاني	-11.4718
▁الدفن	-11.4723
▁عسكريَّة	-11.4723
▁المخاطر	-11.4725
▁أعداء	-11.4725
▁اختلفت	-11.4725
▁غلا	-11.4733
عقول	-11.4733
▁الإحصائي	-11.4735
لظروف	-11.4737
▁المهني	-11.4739
▁للموسيقى	-11.4741
▁ألحق	-11.4745
▁بزعامة	-11.4745
▁والأخلاق	-11.4746
▁المقياس	-11.4747
ضرار	-11.4749
▁110	-11.475
نفاذ	-11.4754
▁الإمبراطوريَّة	-11.4754
▁والكيمياء	-11.4755
▁130	-11.4756
سالم	-11.476
▁الريحان	-11.4761
إحصائية	-11.4763
بقعة	-11.4764
إقناع	-11.4765
أيرلندا	-11.4766
أصناف	-11.4769
لتقي	-11.4772
▁الخمر	-11.4773
نتصر	-11.4773
▁الاصطدام	-11.4777
▁قديما	-11.4783
▁بيرن	-11.4783
ite	-11.4788
إلكترونيات	-11.4789
▁رومانية	-11.4791
▁السحر	-11.4794
▁وقائد	-11.4794
▁ينظم	-11.4795
ريني	-11.4797
▁ترد	-11.48
▁واليهودية	-11.4804
▁الفدرالية	-11.4805
▁المميز	-11.4805
▁سري	-11.4811
صطدم	-11.4811
tur	-11.4814
▁مونتي	-11.4814
▁الملاك	-11.4814
▁والتلفزيون	-11.4818
▁للانضمام	-11.4818
▁كالتالي	-11.4818
▁للمساعدة	-11.4818
▁جاليليو	-11.4818
▁المقاتلين	-11.4818
▁الخصبة	-11.4819
▁مستطيل	-11.4819
▁المتكررة	-11.4819
▁شاسعة	-11.4819
تضامن	-11.482
جفف	-11.482
مغادرة	-11.4821
▁ونائب	-11.4822
انتفاضة	-11.4822
▁وحقوق	-11.4822
▁1904	-11.4822
▁الخميني	-11.4823
▁السوائل	-11.4823
▁والحديد	-11.4824
▁أسفار	-11.4824
▁الدوحة	-11.4824
▁اضطهاد	-11.4825
▁التابعين	-11.4825
▁نيابة	-11.4825
▁بيضاء	-11.4825
▁تستند	-11.4826
▁الأرستقراطي	-11.4829
▁الدالة	-11.483
▁الجمعيات	-11.4831
▁كأول	-11.4832
▁خطورة	-11.4833
جريدة	-11.4833
▁استبدل	-11.4834
▁اختير	-11.4834
[...]
