<unk>	0
<s>	0
</s>	0
،	-3.58827
.	-3.67359
▁	-3.73461
▁في	-3.8335
▁من	-4.08727
ة	-4.11139
▁ال	-4.34808
▁و	-4.48008
ه	-4.68366
ت	-4.75754
ي	-4.81481
ية	-4.85838
▁على	-4.86438
ات	-4.89687
ها	-5.05405
ا	-5.07895
▁إلى	-5.07924
▁م	-5.1996
ين	-5.26101
▁ب	-5.27253
▁وال	-5.2929
▁ل	-5.32789
▁ت	-5.36713
▁الم	-5.37594
▁أن	-5.41978
م	-5.4255
▁(	-5.57929
▁لل	-5.59039
▁ي	-5.62317
ون	-5.69298
▁عام	-5.75858
#	-5.79592
ًا	-5.80635
▁#	-5.84674
)	-5.86374
▁التي	-5.87033
وا	-5.8837
▁أو	-5.90735
ال	-5.94128
اً	-5.94181
:	-5.94455
▁مع	-5.95197
▁عن	-6.00243
"	-6.02056
هم	-6.0397
▁«	-6.05398
▁بال	-6.05723
▁أ	-6.14673
▁كان	-6.1786
▁بين	-6.19037
▁ما	-6.21655
▁بعد	-6.25031
ان	-6.28359
ب	-6.33223
▁بن	-6.36422
="	-6.36774
»	-6.38123
▁ف	-6.38759
ن	-6.38792
س	-6.40465
َ	-6.4081
ُ	-6.41131
▁الذي	-6.43422
▁ذلك	-6.43648
▁هذه	-6.43868
و	-6.46108
ى	-6.47724
د	-6.48397
ع	-6.51799
ما	-6.52057
ف	-6.54099
▁وت	-6.54365
ح	-6.5769
ِ	-6.57903
▁هو	-6.58518
▁لا	-6.58976
▁حيث	-6.60032
▁هذا	-6.62096
▁الأ	-6.62892
▁كما	-6.64101
▁لم	-6.65319
▁هي	-6.66463
▁كانت	-6.6668
▁الت	-6.69721
▁وفي	-6.70548
ز	-6.72355
نا	-6.72707
ج	-6.74342
▁ك	-6.75413
ك	-6.77912
ته	-6.79077
▁قبل	-6.79424
اء	-6.8014
▁وقد	-6.80236
ّ	-6.80543
▁وي	-6.80699
▁كل	-6.81688
doc	-6.83629
▁وأ	-6.83808
>	-6.84059
ل	-6.8629
يا	-6.87129
▁مثل	-6.91586
ق	-6.92939
s	-6.93365
ص	-6.95287
▁والم	-6.95925
▁سنة	-6.96923
▁خلال	-6.97236
▁تم	-6.98134
خ	-6.99323
/	-6.99624
▁ن	-7.00371
▁وم	-7.00809
ٍ	-7.014
-	-7.03483
ر	-7.07065
d	-7.07248
▁بعض	-7.08472
▁قد	-7.11057
▁حتى	-7.11318
▁وهو	-7.12959
ش	-7.13615
أ	-7.15204
).	-7.1551
ـ	-7.15812
ط	-7.16155
▁غير	-7.16552
)،	-7.16952
▁عدد	-7.17469
؛	-7.17817
ام	-7.18737
▁القرن	-7.19244
▁وكان	-7.19313
▁ثم	-7.19987
▁ع	-7.21187
يات	-7.21247
▁المدينة	-7.22012
▁أي	-7.22126
ث	-7.23108
▁إ	-7.23257
▁وهي	-7.23809
▁-	-7.25965
َّ	-7.26584
▁أكثر	-7.26716
▁ومن	-7.26781
▁العالم	-7.27968
▁الدولة	-7.2914
ئ	-7.29605
ar	-7.31127
وس	-7.3175
▁الق	-7.32839
▁ا	-7.32912
ذ	-7.33158
ول	-7.33316
▁والتي	-7.33513
▁الع	-7.34331
▁"	-7.34637
▁الله	-7.35007
▁عشر	-7.35111
يل	-7.35239
▁المتحدة	-7.35913
▁18	-7.36117
بر	-7.36646
ير	-7.36968
اد	-7.37607
تها	-7.37618
▁الن	-7.38519
ض	-7.39177
غ	-7.40307
▁ق	-7.40392
▁عبد	-7.40784
▁مدينة	-7.41843
يين	-7.42537
▁الحرب	-7.43546
▁أنه	-7.43851
▁يمكن	-7.44912
▁بشكل	-7.47364
▁له	-7.47463
▁أول	-7.47658
▁العديد	-7.49065
▁أخرى	-7.50384
يد	-7.5096
ies	-7.51621
▁عند	-7.51637
▁إلا	-7.51824
org	-7.52318
http	-7.52475
?	-7.52541
://	-7.52647
wiki	-7.53013
▁id	-7.53025
ود	-7.53202
curi	-7.53207
wikipedia	-7.53293
▁categor	-7.53293
▁<	-7.5331
▁url	-7.53334
▁title	-7.53379
▁</	-7.5345
▁البلاد	-7.53525
▁ولكن	-7.54119
▁است	-7.54508
ار	-7.54609
جر	-7.54763
يَّة	-7.5546
ْ	-7.55943
▁يُ	-7.56157
▁الإ	-7.56365
».	-7.57029
وب	-7.57957
مر	-7.58471
▁الب	-7.58727
▁والأ	-7.58863
▁الأول	-7.59188
ور	-7.5962
▁فقد	-7.59918
▁إن	-7.6051
اس	-7.60523
وم	-7.60713
▁وب	-7.60885
▁وا	-7.61573
▁تلك	-7.62176
▁بها	-7.62642
▁ش	-7.64104
▁منذ	-7.64504
▁فيها	-7.64541
▁العربية	-7.64774
َّة	-7.65141
▁سي	-7.65438
▁عليه	-7.65683
▁فإن	-7.66594
ست	-7.66887
▁الف	-7.67249
▁هناك	-7.67565
▁ابن	-7.67663
من	-7.68243
فر	-7.68497
▁الس	-7.68676
▁مُ	-7.68737
▁الدين	-7.68741
▁العام	-7.69573
▁الذين	-7.69602
▁جميع	-7.70782
▁الثاني	-7.70998
▁تحت	-7.71225
▁أكبر	-7.71232
▁محمد	-7.71579
ظ	-7.71581
لا	-7.71823
اب	-7.71865
▁مصر	-7.72165
في	-7.72417
▁الر	-7.72477
وف	-7.72589
▁الج	-7.75108
لي	-7.75547
▁أما	-7.76504
▁عندما	-7.76686
▁ولا	-7.77003
▁حوالي	-7.77746
▁مما	-7.78202
يون	-7.78205
تين	-7.78508
▁أحد	-7.79109
»،	-7.79546
▁الأولى	-7.79672
▁الملك	-7.79835
▁3	-7.80082
▁الح	-7.80185
اح	-7.8041
▁يوم	-7.80705
وي	-7.80824
▁بِ	-7.81154
ً	-7.81248
▁حول	-7.81861
بي	-7.82511
▁س	-7.83319
▁الك	-7.83467
▁ح	-7.84356
▁ذات	-7.84758
▁المُ	-7.85589
▁باسم	-7.86042
يم	-7.86145
2	-7.86369
▁يكون	-7.86643
▁ان	-7.86717
=	-7.86821
يس	-7.87137
▁للم	-7.87462
▁الأخرى	-7.87933
]]	-7.87951
▁كبير	-7.88217
▁مت	-7.88597
|	-7.88602
▁بسبب	-7.88844
▁[[	-7.88927
▁السكان	-7.89264
اق	-7.89419
▁عليها	-7.89716
▁منطقة	-7.89886
▁يتم	-7.9016
▁يت	-7.90418
تي	-7.91869
دي	-7.91972
▁منها	-7.91999
▁ص	-7.92473
▁لها	-7.92501
▁لت	-7.92626
▁بم	-7.92773
▁الأرض	-7.93068
▁به	-7.93112
▁الحكومة	-7.9395
▁لي	-7.9401
▁الخ	-7.94842
▁طريق	-7.94987
▁لكن	-7.94989
▁المت	-7.95116
▁الش	-7.95221
▁أيضًا	-7.95631
▁ج	-7.95943
▁المنطقة	-7.95974
يف	-7.96069
▁اللغة	-7.96203
اني	-7.96374
▁والت	-7.96677
لو	-7.96729
قل	-7.97176
▁قال	-7.97627
▁قام	-7.97776
بة	-7.978
▁وذلك	-7.97838
▁علي	-7.98607
▁الدول	-7.99192
▁بل	-7.99227
▁اليوم	-7.99298
▁وكانت	-7.99535
يب	-7.99912
▁معظم	-8
▁2	-8.00063
▁والذي	-8.00856
▁كم	-8.01343
على	-8.01441
▁اسم	-8.01711
▁بي	-8.01781
ري	-8.02165
▁ر	-8.02167
▁مليون	-8.0222
فا	-8.02329
▁الولايات	-8.02443
▁خ	-8.02866
يز	-8.02934
يك	-8.03928
▁1	-8.03973
ني	-8.04591
در	-8.04658
▁الجيش	-8.05049
رك	-8.05138
▁نحو	-8.05295
كل	-8.0555
▁4	-8.06112
دة	-8.06131
▁رئيس	-8.06168
▁أنها	-8.0617
▁حين	-8.06212
▁تكون	-8.06285
▁بأن	-8.06298
▁ومع	-8.06306
▁نظام	-8.06351
قا	-8.06375
هما	-8.07146
كس	-8.07365
▁الوقت	-8.07459
بل	-8.07471
▁تُ	-8.0757
رق	-8.08102
قر	-8.08811
▁فقط	-8.08946
دا	-8.09391
▁ط	-8.10051
سب	-8.10343
يت	-8.10403
سي	-8.10445
▁الاتحاد	-8.111
▁لِ	-8.11118
▁العمل	-8.11256
▁كبيرة	-8.11357
طر	-8.11442
▁جنوب	-8.11502
مل	-8.11661
دى	-8.11904
▁5	-8.12259
▁الفترة	-8.12389
▁آخر	-8.12842
▁شمال	-8.131
▁ه	-8.13559
مان	-8.13645
▁بما	-8.13756
از	-8.13911
جل	-8.14252
▁10	-8.14306
▁علم	-8.14321
دو	-8.14482
▁تاريخ	-8.14652
اف	-8.14807
▁وبعد	-8.14813
كر	-8.14899
اج	-8.14922
▁19	-8.15505
▁وإ	-8.16065
حل	-8.1635
▁عدة	-8.17083
▁الرغم	-8.17217
▁فترة	-8.17293
▁ولم	-8.17461
▁المناطق	-8.17701
رب	-8.17762
سم	-8.1785
▁وجود	-8.17889
وت	-8.18144
▁ضد	-8.1824
لة	-8.18461
بار	-8.18552
يو	-8.18554
▁البحر	-8.18676
▁بالإضافة	-8.18718
▁با	-8.18983
▁أم	-8.18985
صر	-8.18986
▁عبر	-8.19373
ٌ	-8.19476
مثل	-8.20038
مة	-8.20436
▁ز	-8.20456
▁سكان	-8.20725
سل	-8.20774
▁15	-8.21035
تر	-8.21341
▁6	-8.21428
▁دولة	-8.2178
▁عمل	-8.21919
ؤ	-8.22014
▁المن	-8.22043
▁أبو	-8.22082
يّة	-8.22169
ند	-8.22539
با	-8.22557
وز	-8.22704
خر	-8.22717
▁درجة	-8.22747
ِّ	-8.22764
▁استخدام	-8.231
▁غ	-8.23444
▁الثانية	-8.23776
▁12	-8.23886
▁داخل	-8.24135
اع	-8.24246
,	-8.24267
وية	-8.24968
▁شهر	-8.25264
رو	-8.25641
▁ول	-8.25786
▁القديمة	-8.25802
▁العالمية	-8.26297
▁واحد	-8.26358
عد	-8.26417
▁دون	-8.26647
▁أيضا	-8.26852
▁إسرائيل	-8.27222
بو	-8.27424
▁وأن	-8.27466
فل	-8.2752
▁الحكم	-8.2769
▁أوروبا	-8.27846
▁خط	-8.27971
طل	-8.28337
دور	-8.28347
▁مجموعة	-8.2856
▁شركة	-8.29093
تهم	-8.29141
قة	-8.29259
يان	-8.29551
ّة	-8.29591
▁السنة	-8.29675
▁إي	-8.29933
رد	-8.29986
▁إذ	-8.30019
▁الص	-8.30189
▁ألف	-8.30508
يق	-8.30553
▁بت	-8.30563
▁الإسلام	-8.30702
▁النظام	-8.30743
حت	-8.30777
▁الل	-8.31154
▁العرب	-8.31331
▁أبي	-8.31718
▁أنَّ	-8.31744
▁القوات	-8.32262
▁7	-8.32268
▁مركز	-8.32375
وه	-8.32392
▁الأمر	-8.32426
▁17	-8.3251
▁13	-8.32933
▁العربي	-8.33553
▁الغ	-8.33722
▁حكم	-8.33823
زا	-8.34065
هر	-8.34297
▁لأن	-8.34465
▁وقت	-8.34478
الم	-8.34481
ئة	-8.34535
▁وح	-8.3459
1	-8.34929
▁الغربية	-8.35299
▁أهم	-8.35311
ُّ	-8.35454
سا	-8.3578
▁المسلمين	-8.35841
y	-8.36086
شي	-8.36435
▁التاريخ	-8.36457
شار	-8.36765
▁تت	-8.36796
نو	-8.37031
نت	-8.37056
▁واحدة	-8.37296
حة	-8.3766
ائي	-8.38194
▁شخص	-8.38398
▁بر	-8.3851
▁عهد	-8.38515
▁مجلس	-8.38569
▁دي	-8.38679
▁الكثير	-8.38679
ائية	-8.38783
▁الرئيس	-8.38937
كو	-8.39062
▁نفس	-8.39079
▁إذا	-8.39183
وع	-8.39461
▁الط	-8.39549
▁شرق	-8.3977
▁الد	-8.39874
▁فأ	-8.40052
وق	-8.40076
c	-8.41141
دل	-8.41327
▁بأ	-8.41656
قد	-8.4181
▁حرب	-8.41848
يه	-8.41877
▁سنوات	-8.42198
اغ	-8.42208
اه	-8.42322
قت	-8.424
عل	-8.42404
▁الناس	-8.42431
كون	-8.42499
▁9	-8.42558
▁أيضاً	-8.42662
ائل	-8.42915
▁نهر	-8.43066
▁14	-8.43744
▁فيما	-8.43924
▁أصبحت	-8.43944
▁التعليم	-8.4421
▁11	-8.44233
▁بالم	-8.44234
▁أد	-8.44329
o	-8.4447
هن	-8.44561
▁أصبح	-8.44571
▁مرة	-8.44747
▁شكل	-8.44938
قو	-8.45189
▁نسبة	-8.45238
قي	-8.45464
دين	-8.45485
▁الوطني	-8.45745
▁8	-8.45784
▁بو	-8.45871
▁العراق	-8.46077
تل	-8.46126
«	-8.46159
نس	-8.46171
▁أثناء	-8.46432
▁سن	-8.46584
▁دول	-8.46649
بت	-8.46698
▁بلاد	-8.46931
▁يوجد	-8.46963
يًا	-8.47121
هد	-8.47345
▁تقع	-8.47436
u	-8.47527
دن	-8.4756
3	-8.47561
فت	-8.47684
زي	-8.4802
شر	-8.48057
▁فيه	-8.48062
زم	-8.48096
▁العامة	-8.48194
▁وس	-8.48276
▁المع	-8.48332
شت	-8.48667
▁وكذلك	-8.49151
%	-8.49231
▁أهل	-8.49247
▁دور	-8.49491
▁ست	-8.49527
كت	-8.49699
▁إليه	-8.49723
▁ضمن	-8.49849
رس	-8.49871
▁الأمريكية	-8.50223
غل	-8.50467
▁متر	-8.50475
صل	-8.50481
▁نفسه	-8.50514
كي	-8.50646
▁الإنسان	-8.50871
صب	-8.50916
▁الشرق	-8.50932
راء	-8.50986
رة	-8.50989
▁جانب	-8.51129
▁ملك	-8.51322
جم	-8.51332
▁المدن	-8.51438
▁عمر	-8.51701
▁الثالث	-8.51754
p	-8.51768
انية	-8.51773
ذا	-8.51812
▁ذكر	-8.51866
آ	-8.51895
▁الميلاد	-8.51964
بط	-8.52005
دير	-8.52031
▁الو	-8.52117
0	-8.52198
▁خاصة	-8.52358
▁الشمال	-8.52541
▁16	-8.52676
▁واست	-8.52804
▁سو	-8.53027
▁العصر	-8.5305
▁فلسطين	-8.53095
دار	-8.53211
▁أحمد	-8.53314
▁الإسلامية	-8.53504
▁نهاية	-8.5352
بان	-8.53536
6	-8.53691
▁بدأت	-8.53721
▁وك	-8.53733
▁وما	-8.53745
▁الشمس	-8.53799
▁ثلاث	-8.54014
▁حد	-8.54105
▁الخاصة	-8.54143
▁عملية	-8.54146
▁لأ	-8.54572
▁أقل	-8.5474
▁الغربي	-8.54782
وان	-8.55189
▁بدأ	-8.55443
▁الز	-8.55837
ائر	-8.55952
▁فا	-8.55996
اش	-8.56035
▁الأراضي	-8.56167
b	-8.56213
نة	-8.56357
غا	-8.56371
▁20	-8.56665
▁ألمانيا	-8.56816
لق	-8.5691
نج	-8.56933
علم	-8.56976
▁كتب	-8.57029
▁المست	-8.57284
▁الإمبراطورية	-8.57311
▁طول	-8.57346
ياً	-8.57555
▁المملكة	-8.5767
▁الا	-8.57732
▁الحياة	-8.57957
كا	-8.57987
▁السلطان	-8.58013
▁فت	-8.58294
جه	-8.58364
▁نوع	-8.58465
▁الهند	-8.58567
▁يد	-8.58601
▁جزء	-8.58656
▁وضع	-8.58899
▁بناء	-8.5931
▁الجزيرة	-8.59322
بع	-8.59423
▁أجل	-8.59958
20	-8.60093
▁إحد	-8.60132
t	-8.60169
▁نظر	-8.6048
ةً	-8.60551
بن	-8.60554
طي	-8.60669
سو	-8.60734
▁بداية	-8.60903
اط	-8.60935
جمع	-8.61021
تا	-8.61127
▁الأمم	-8.61253
خت	-8.61364
▁الشمالية	-8.61454
▁منهم	-8.61495
جي	-8.61586
▁التاسع	-8.61722
قول	-8.61881
▁وتم	-8.61952
هُ	-8.62002
سر	-8.62013
▁مناطق	-8.62026
تان	-8.62039
▁فر	-8.62178
جد	-8.62304
▁أُ	-8.62502
بين	-8.62533
▁المغرب	-8.62812
صف	-8.62888
▁آل	-8.62933
▁غرب	-8.63194
▁أصل	-8.63212
▁فرنسا	-8.6326
تو	-8.63439
▁آ	-8.63443
خرج	-8.63684
▁د	-8.64171
يّ	-8.64386
سان	-8.64451
▁الآ	-8.64604
▁الشرقية	-8.64655
▁أمر	-8.64744
4	-8.64906
▁السلطة	-8.64925
وري	-8.65058
يوم	-8.65064
حكم	-8.65294
▁حركة	-8.65332
▁ثلاثة	-8.65399
▁الوطنية	-8.65405
▁لهم	-8.65548
وح	-8.6559
▁جديدة	-8.65605
▁الآن	-8.65622
▁أشهر	-8.65713
f	-8.65769
ولى	-8.65999
ثر	-8.66077
▁نسمة	-8.66092
ايا	-8.66135
فو	-8.66242
عة	-8.66245
▁تن	-8.66449
▁كذلك	-8.66653
▁مكان	-8.66767
راب	-8.66834
طلق	-8.66995
▁خارج	-8.67298
زع	-8.6733
جو	-8.67405
▁الجنوب	-8.67411
5	-8.67426
i	-8.67453
▁جو	-8.67505
▁لكل	-8.67514
▁لو	-8.67624
لغ	-8.67764
▁حسب	-8.68071
n	-8.68085
▁الحديث	-8.68085
شا	-8.6843
▁كال	-8.68511
طب	-8.68661
قيم	-8.68766
▁مختلفة	-8.68875
جب	-8.69012
▁للأ	-8.69052
كان	-8.69099
صور	-8.69102
8	-8.69107
كن	-8.6913
سلم	-8.69154
مت	-8.69477
▁شبه	-8.69619
اك	-8.69714
000	-8.69871
يط	-8.69879
10	-8.69959
▁بلغ	-8.70047
▁الدولي	-8.70138
لام	-8.70183
عا	-8.70232
▁العثمانية	-8.70396
غن	-8.70494
▁وصل	-8.70772
▁الجنوبية	-8.70922
▁السياسي	-8.71019
▁البر	-8.71027
▁العسكرية	-8.71099
▁أفريقيا	-8.7133
أن	-8.71557
طا	-8.71624
▁مارس	-8.71694
رف	-8.71694
▁السياسية	-8.71803
▁أكتوبر	-8.71851
لين	-8.71943
▁نتيجة	-8.72415
19	-8.72723
قال	-8.72793
▁كتاب	-8.72866
▁مر	-8.72979
اته	-8.7299
▁الإسلامي	-8.73057
▁رو	-8.73159
عرف	-8.73496
يته	-8.73686
m	-8.73705
▁قامت	-8.73965
حد	-8.73974
g	-8.73999
ران	-8.74258
▁الأوروبي	-8.74313
▁يكن	-8.74414
▁أل	-8.74439
▁رأس	-8.74551
اي	-8.74614
▁السادس	-8.74645
▁وهذا	-8.74775
٪	-8.74887
اري	-8.75031
صح	-8.75132
▁أخ	-8.75269
▁الرئيسية	-8.75429
▁ولاية	-8.75584
▁أس	-8.7565
قص	-8.75684
▁مست	-8.75951
▁وع	-8.76133
▁الدولية	-8.76158
▁لإ	-8.76338
▁تعتبر	-8.76518
▁وقال	-8.76557
حي	-8.76566
▁قوات	-8.76574
▁الأكثر	-8.76653
▁سبيل	-8.76762
7	-8.76797
▁جديد	-8.76798
▁أساس	-8.76813
▁جامعة	-8.76813
انت	-8.76814
▁البلد	-8.76815
▁الجديدة	-8.76858
▁دولار	-8.76877
صاب	-8.77074
▁الحزب	-8.77645
بير	-8.77647
▁الث	-8.77726
لت	-8.77742
▁يوليو	-8.77759
▁حالة	-8.77893
▁العشرين	-8.77955
ستان	-8.77979
▁وفق	-8.78094
▁اليهود	-8.78117
ذر	-8.78131
رج	-8.7815
▁أنحاء	-8.78267
▁أعلى	-8.78267
▁كو	-8.78297
يع	-8.78311
▁جمهورية	-8.78358
را	-8.78394
شع	-8.78495
جا	-8.78568
▁توجد	-8.78581
▁السُلطان	-8.78645
▁كانوا	-8.78658
▁بإ	-8.78804
▁بالنسبة	-8.78945
▁قدم	-8.78967
مي	-8.78981
ظهر	-8.79111
▁دا	-8.79114
▁مجال	-8.79145
▁كا	-8.79269
شكل	-8.79335
دم	-8.7946
خل	-8.79468
▁يناير	-8.79554
▁يونيو	-8.79571
لم	-8.79592
شير	-8.7975
▁والس	-8.79995
▁الطاقة	-8.80028
يرة	-8.80166
▁الخط	-8.80215
▁ليس	-8.80237
▁مايو	-8.80331
▁والإ	-8.80352
▁فال	-8.80388
▁أر	-8.80409
▁عضو	-8.80553
ذكر	-8.80635
طلب	-8.80688
▁والح	-8.80761
▁المياه	-8.80815
أو	-8.80832
بد	-8.80921
▁حل	-8.81436
▁أنواع	-8.81626
▁الحديثة	-8.8164
▁حزب	-8.81666
طو	-8.81712
▁المتوسط	-8.81736
ضع	-8.81828
▁الاست	-8.81958
عت	-8.81959
▁الوسطى	-8.8199
▁إليها	-8.82113
جز	-8.82157
▁ديسمبر	-8.82289
وى	-8.82458
a	-8.82488
▁عدم	-8.82514
▁سبتمبر	-8.82539
▁يعتبر	-8.82591
تم	-8.82686
▁المسيحية	-8.82701
قسم	-8.82824
h	-8.82979
يوس	-8.8305
▁العزيز	-8.83128
زل	-8.83187
▁فوق	-8.83241
▁سطح	-8.83295
▁مح	-8.83312
▁العاصمة	-8.83884
عارض	-8.83956
▁يبلغ	-8.84308
▁الأمير	-8.8461
r	-8.84654
▁نقل	-8.84814
▁كي	-8.84912
k	-8.84938
وك	-8.8494
ضا	-8.85048
▁ث	-8.8512
لب	-8.85174
▁الرئيسي	-8.85199
▁بني	-8.85828
▁الحرارة	-8.8586
▁الاقتصاد	-8.85894
حم	-8.85911
ُر	-8.86204
جن	-8.86247
▁الفلسطينية	-8.86334
▁السنوات	-8.86335
خط	-8.864
▁تش	-8.86433
كم	-8.86481
▁نوفمبر	-8.86547
▁لِل	-8.86632
▁النبي	-8.86656
حر	-8.86661
▁الشيخ	-8.86748
وض	-8.86962
عمال	-8.86979
▁جزيرة	-8.86998
▁الأم	-8.87043
▁مستوى	-8.87078
رات	-8.87355
▁مدن	-8.8747
50	-8.87498
رت	-8.87608
دان	-8.87769
▁خاص	-8.87773
قطع	-8.87956
ورة	-8.87987
▁أعمال	-8.88121
▁لذلك	-8.88214
دية	-8.88275
▁الغرب	-8.88335
▁معركة	-8.88344
فصل	-8.88472
▁المح	-8.88705
▁البريطاني	-8.88767
إ	-8.88872
▁موقع	-8.88997
▁وصف	-8.89115
▁الكتاب	-8.89197
عاد	-8.8937
ائد	-8.89384
▁الفرنسية	-8.89404
باب	-8.89414
▁وغيرها	-8.89457
▁لغة	-8.89514
en	-8.89671
▁وسط	-8.9008
عب	-8.90231
▁مليار	-8.90263
▁الصين	-8.90537
▁العلم	-8.90675
بق	-8.90738
▁الجديد	-8.90753
▁سم	-8.90857
▁والن	-8.9087
غو	-8.90895
رض	-8.90951
▁إضافة	-8.91063
▁ميل	-8.91136
▁فتح	-8.91175
▁الكبرى	-8.91182
▁حي	-8.91201
▁منظمة	-8.9129
▁تأثير	-8.91437
بور	-8.91477
▁أمام	-8.91576
▁نو	-8.91731
عرض	-8.91844
عي	-8.91866
,000	-8.91883
▁الاسم	-8.91953
▁جي	-8.92005
▁قدر	-8.92019
ارات	-8.92083
فق	-8.92112
▁والب	-8.92115
▁دو	-8.92256
▁اليابان	-8.92296
غر	-8.92338
▁تعد	-8.92427
▁المحلي	-8.9255
▁30	-8.92556
اعت	-8.9267
▁جيش	-8.92746
نظر	-8.92776
نك	-8.92989
ابة	-8.9313
ُل	-8.93131
▁الأردن	-8.93139
▁الماء	-8.93225
الية	-8.9325
▁مساحة	-8.93267
▁أواخر	-8.93438
▁آسيا	-8.93442
▁عرض	-8.93607
بس	-8.93867
15	-8.93915
ارت	-8.93932
▁يست	-8.94021
▁بِال	-8.94049
ولي	-8.94056
▁الحدود	-8.9409
ساعد	-8.94156
▁تضم	-8.94242
▁أيام	-8.94245
طن	-8.94305
▁والق	-8.94309
حدد	-8.94338
الي	-8.94387
▁المصرية	-8.94571
اتها	-8.94622
يح	-8.94688
ّر	-8.94716
تش	-8.94853
داء	-8.94969
▁المثال	-8.95201
▁المجتمع	-8.95253
▁المحيط	-8.95403
زو	-8.95495
▁الأخيرة	-8.95562
▁الشعب	-8.95586
▁را	-8.95611
▁الإسرائيلي	-8.95656
كار	-8.95722
▁الكبير	-8.95769
▁يقوم	-8.95771
▁للت	-8.95829
▁كثير	-8.95842
▁إنتاج	-8.95866
ضم	-8.95889
▁الإمبراطور	-8.96023
▁جد	-8.96149
▁قانون	-8.96216
;	-8.96275
9	-8.96396
عين	-8.96418
▁جعل	-8.96499
▁عاصمة	-8.965
مس	-8.96528
بعد	-8.96639
▁أبريل	-8.96736
▁الحركة	-8.96784
▁المجر	-8.96797
▁اليمن	-8.96806
▁الفرنسي	-8.96832
▁إنشاء	-8.96839
زن	-8.96931
▁البعض	-8.97142
وط	-8.9719
▁حر	-8.97222
▁حكومة	-8.97298
▁حدود	-8.97308
غار	-8.97358
▁الاقتصادية	-8.97449
▁العلماء	-8.97501
▁أغسطس	-8.97543
an	-8.97582
▁وق	-8.97602
فار	-8.97654
شو	-8.97668
▁الميلادي	-8.97974
لعب	-8.98046
راد	-8.98091
ائه	-8.98126
▁الرابع	-8.98133
▁الشام	-8.98136
بال	-8.98251
عم	-8.98444
▁دمشق	-8.98837
▁البريطانية	-8.98889
صة	-8.98895
وني	-8.98948
▁بواسطة	-8.99018
▁الدينية	-8.99149
رم	-8.99196
إن	-8.99241
▁الأمن	-8.99433
مو	-8.99515
يار	-8.99574
▁تر	-8.99631
▁يقول	-8.99662
صرف	-8.99693
▁اللغات	-8.99738
▁السلام	-8.99933
▁الخامس	-9.00047
او	-9.00065
▁سر	-9.00066
سير	-9.00128
▁الشرقي	-9.00132
▁ري	-9.00263
▁السابق	-9.00333
▁الخارجية	-9.00424
▁والع	-9.0061
▁الكنيسة	-9.00708
يش	-9.00854
▁العسكري	-9.00971
▁الخليفة	-9.00974
حق	-9.00981
▁كيلومتر	-9.01027
▁الآخر	-9.01136
بيل	-9.01176
▁الثورة	-9.01207
اخ	-9.01324
جة	-9.01365
▁يجب	-9.01417
سخ	-9.01536
درس	-9.01608
▁ترك	-9.01666
▁نصف	-9.01671
▁وجه	-9.01806
يث	-9.02176
▁بالت	-9.02181
▁كلمة	-9.0221
▁فن	-9.02309
▁يعرف	-9.02449
بك	-9.02471
▁مقر	-9.02519
▁ويُ	-9.02576
▁تستخدم	-9.02654
▁يستخدم	-9.02703
▁25	-9.02705
▁وبين	-9.02767
فن	-9.02771
al	-9.02864
رون	-9.03006
قط	-9.03056
عيد	-9.03285
ميز	-9.0333
حمل	-9.03497
شق	-9.03525
▁الثامن	-9.03567
▁القانون	-9.03639
▁الأوروبية	-9.03723
▁إس	-9.0373
قتل	-9.03758
ثق	-9.03765
▁بأنه	-9.03766
▁عصر	-9.03778
▁المصري	-9.03869
فيد	-9.03936
▁الوزراء	-9.03955
▁بقيادة	-9.0396
00	-9.04042
▁الحسن	-9.04048
▁مملكة	-9.04092
▁c	-9.04127
▁أرض	-9.04225
فور	-9.04308
جري	-9.04396
سن	-9.04404
▁إعادة	-9.0468
▁النفط	-9.04739
▁المختلفة	-9.04742
عادل	-9.04748
وش	-9.04758
▁عاد	-9.04859
e	-9.04873
▁رفض	-9.04916
▁حياته	-9.04923
سون	-9.04978
▁القديم	-9.05004
ملك	-9.05099
▁القدس	-9.05133
11	-9.0518
13	-9.05278
16	-9.05281
فة	-9.05314
ضي	-9.05334
رى	-9.05374
▁ولد	-9.05562
نظام	-9.05607
شهد	-9.0577
▁الأن	-9.05889
▁مختلف	-9.0589
▁فهي	-9.05944
▁لمدة	-9.06009
▁القرآن	-9.06099
▁عُ	-9.0623
12	-9.06242
دفع	-9.06305
أي	-9.06413
▁2008	-9.06434
يلي	-9.06485
قبل	-9.06498
▁عقد	-9.06586
▁السعودية	-9.06611
▁فبراير	-9.07029
صد	-9.07112
▁بذلك	-9.07115
▁خلف	-9.07132
جان	-9.07228
▁ارتفاع	-9.07229
▁الجزائر	-9.07256
منطقة	-9.0732
▁وهناك	-9.0732
صدر	-9.07329
▁أمريكا	-9.07643
لف	-9.0789
▁باشا	-9.0789
▁بغداد	-9.0799
_	-9.08027
▁قوة	-9.08096
بيع	-9.08161
▁صغيرة	-9.08285
▁أربع	-9.0836
▁الأدب	-9.08362
▁الثقافة	-9.08373
روب	-9.08409
▁عنه	-9.08637
أس	-9.08642
▁السابع	-9.08655
▁الأمريكي	-9.08704
قدر	-9.08745
يكا	-9.08784
خدم	-9.0881
▁طلب	-9.08819
▁بالأ	-9.08877
in	-9.08891
مير	-9.08962
▁يصل	-9.08976
شك	-9.09063
▁الناتج	-9.09263
▁جبل	-9.0928
14	-9.09289
▁s	-9.09312
▁كون	-9.09343
نتج	-9.09535
▁تشمل	-9.09596
حتى	-9.0973
صار	-9.09965
▁الأكبر	-9.10131
▁بيت	-9.10182
بية	-9.10214
▁الجزء	-9.10234
رن	-9.10351
z	-9.10386
▁يعود	-9.10493
▁الرومانية	-9.1059
▁الدستور	-9.10612
▁أنّ	-9.10696
▁الأعمال	-9.10866
▁تشكل	-9.10963
▁الحر	-9.11049
بات	-9.11194
▁–	-9.11219
▁وفاة	-9.11253
▁باستخدام	-9.11434
اث	-9.11514
لس	-9.11569
وج	-9.11577
▁أربعة	-9.11651
▁التجارة	-9.11687
سكن	-9.11745
▁العالمي	-9.11803
▁الحديد	-9.11812
▁صح	-9.11915
▁التجارية	-9.11951
ضاف	-9.12071
▁أراضي	-9.12092
▁الألمانية	-9.12173
▁فعل	-9.12211
واجه	-9.12216
دت	-9.12232
ُم	-9.12323
▁بريطانيا	-9.12405
▁جاء	-9.12409
شارك	-9.12474
كتاب	-9.12483
عمل	-9.12548
دد	-9.12617
▁القدم	-9.12708
اذ	-9.12744
حوالي	-9.1283
نز	-9.12869
▁فهو	-9.13081
▁2007	-9.13138
▁أثر	-9.1315
re	-9.13241
▁المر	-9.13251
سبب	-9.13258
سور	-9.13284
▁الكون	-9.1333
بري	-9.13619
▁غا	-9.13664
▁(19	-9.13729
0,000	-9.13733
▁2006	-9.13794
▁نطاق	-9.14025
ّل	-9.14122
دول	-9.14176
ترك	-9.14186
▁أعضاء	-9.14461
زين	-9.14511
30	-9.14621
▁تطوير	-9.14627
▁معدل	-9.14766
▁يعد	-9.14859
سار	-9.1489
▁بحر	-9.14987
فض	-9.15113
▁والف	-9.1517
▁العليا	-9.1518
▁الأس	-9.15226
▁الإن	-9.15281
▁الطبيعية	-9.15477
اتهم	-9.15524
▁الأخير	-9.1556
▁السودان	-9.15629
▁دفع	-9.15717
▁هؤلاء	-9.15793
▁الداخلية	-9.15813
▁أقدم	-9.15917
غير	-9.15921
▁المحلية	-9.15924
ارة	-9.16003
▁تقوم	-9.1607
▁أعلن	-9.16405
صول	-9.16443
الت	-9.16473
▁ظل	-9.16654
▁سا	-9.16675
▁عليهم	-9.16743
▁وبالتالي	-9.16816
▁عادة	-9.16852
▁وج	-9.16982
▁/	-9.17188
▁يقع	-9.17266
فيل	-9.17276
▁أسس	-9.17332
مار	-9.17334
▁مل	-9.17463
▁الاستقلال	-9.17591
سك	-9.17791
▁أرسل	-9.17806
▁الفن	-9.17879
نوع	-9.17961
كين	-9.18011
▁المدارس	-9.18015
▁سوريا	-9.18071
▁طالب	-9.18123
دون	-9.18222
▁العصور	-9.18261
▁قتل	-9.18299
▁واسع	-9.18308
▁الخاص	-9.1831
▁العهد	-9.18347
▁أب	-9.1838
▁الكويت	-9.18452
اوي	-9.18582
فرد	-9.18603
▁تقدم	-9.18685
يتها	-9.18707
25	-9.19061
▁جمع	-9.19139
وة	-9.19183
تصنيف	-9.19291
سام	-9.19454
▁علماء	-9.19495
نظم	-9.19525
اسم	-9.19563
▁الدم	-9.19568
▁أفضل	-9.19605
▁غزة	-9.19664
▁مربع	-9.19791
▁لبنان	-9.19855
▁الدفاع	-9.19859
▁الرسمية	-9.1987
مون	-9.19901
وافق	-9.19948
ذب	-9.20019
▁الشعبية	-9.20039
▁فكان	-9.20076
لدى	-9.20091
جميع	-9.2012
▁قطاع	-9.20142
▁الجمهورية	-9.20145
▁المواد	-9.20153
▁أوائل	-9.2021
درجة	-9.20237
عندما	-9.20255
18	-9.20474
جيل	-9.20498
▁الطب	-9.20659
▁الاقتصادي	-9.20757
▁النهر	-9.2079
وسي	-9.20794
طة	-9.20796
▁حديث	-9.20837
صنع	-9.20925
ولا	-9.20952
▁الأبيض	-9.21044
نشأ	-9.21184
عمار	-9.21272
▁2011	-9.21367
قدم	-9.21442
▁2000	-9.21443
هل	-9.21466
عر	-9.21487
▁مو	-9.21487
▁دار	-9.21538
دعم	-9.21824
45	-9.21827
ائها	-9.21895
رجع	-9.21955
▁المجلس	-9.22011
▁والده	-9.22169
امي	-9.22194
وار	-9.22266
90	-9.22387
ائع	-9.2241
w	-9.22419
راك	-9.22465
ولد	-9.22486
▁العلاقات	-9.22522
▁2009	-9.22527
▁صف	-9.22632
▁تل	-9.22684
▁القاهرة	-9.22806
علوم	-9.22809
جاب	-9.22895
▁ظهرت	-9.229
l	-9.22902
▁ضم	-9.22994
▁الفر	-9.23002
غرب	-9.23043
دخل	-9.2306
▁(1	-9.2308
▁فقال	-9.23153
▁الماضي	-9.2316
خص	-9.23177
▁ويمكن	-9.23199
▁القمر	-9.23225
▁جبال	-9.23232
نغ	-9.23363
وفي	-9.23409
er	-9.23438
▁تأسيس	-9.23457
▁زيادة	-9.23533
مرة	-9.23605
▁الثلاث	-9.23698
قض	-9.23769
پ	-9.23806
▁دراسة	-9.23835
▁لن	-9.24048
كاتب	-9.24159
▁البرلمان	-9.24174
▁أبرز	-9.24224
▁حجم	-9.24267
ميل	-9.24366
وث	-9.24391
حاول	-9.24405
▁عالم	-9.24424
▁دائم	-9.24428
▁طويلة	-9.24432
▁حم	-9.24466
خطط	-9.24478
▁يح	-9.24502
▁شر	-9.24547
▁تحديد	-9.24649
▁سلسلة	-9.24649
&	-9.24659
▁البلدان	-9.24728
▁لهذا	-9.24832
به	-9.24855
▁رغم	-9.24922
صو	-9.24984
▁أح	-9.24988
60	-9.25091
رأس	-9.25113
خار	-9.25274
x	-9.25304
▁أغلب	-9.25363
▁جر	-9.25382
ائم	-9.25505
▁البابا	-9.25601
▁2005	-9.25643
▁وإن	-9.25655
حب	-9.25738
▁تطور	-9.25858
جاز	-9.25876
40	-9.26011
▁الطرق	-9.26169
رام	-9.2623
▁نشر	-9.26322
▁البحرية	-9.26364
قار	-9.26426
حكام	-9.26514
ادي	-9.26558
▁حال	-9.26587
35	-9.26592
(	-9.26641
فاق	-9.26653
▁وش	-9.26679
▁الإمام	-9.26739
▁بك	-9.26874
رية	-9.26921
▁يعتقد	-9.26923
باني	-9.26943
▁لما	-9.27025
ينا	-9.27045
وصف	-9.27172
قية	-9.2729
وال	-9.27334
▁الديمقراطية	-9.27359
راف	-9.27467
باط	-9.27504
▁الواقع	-9.27625
هو	-9.27639
ليل	-9.27736
فتح	-9.2775
▁وخ	-9.27802
ذهب	-9.2792
▁تبلغ	-9.27962
▁مد	-9.2801
▁الانتخابات	-9.28034
بول	-9.28069
خو	-9.28072
يدي	-9.281
يرا	-9.28117
خبر	-9.28188
▁أمير	-9.28351
▁روسيا	-9.28451
▁توفي	-9.28467
▁تسمى	-9.2849
َّا	-9.28523
▁نفسها	-9.28606
طول	-9.28636
عقد	-9.28699
▁خل	-9.2878
▁وكل	-9.28782
▁التاريخية	-9.28824
▁بحيث	-9.2884
تن	-9.28887
▁الرا	-9.28895
▁بار	-9.28924
مع	-9.28935
سكان	-9.28991
نقل	-9.29026
▁المعلومات	-9.29048
▁النيل	-9.29068
▁b	-9.2911
خير	-9.2916
▁بنسبة	-9.29189
▁قطر	-9.2919
▁عنها	-9.29239
هار	-9.29262
ويل	-9.29389
دولة	-9.29424
▁إدارة	-9.29484
نسب	-9.29493
▁كرة	-9.29513
▁الأساسية	-9.29513
▁أطلق	-9.29546
صم	-9.29549
▁الساحل	-9.29567
▁أمريكي	-9.29571
ّا	-9.29621
▁مقابل	-9.29658
▁خمس	-9.29661
▁ثاني	-9.29835
▁صناعة	-9.29885
▁الأحمر	-9.29925
▁النقل	-9.29955
▁المناخ	-9.29972
▁الزمن	-9.30024
لاند	-9.30063
▁اليهودية	-9.30119
صي	-9.30138
حسن	-9.3016
▁حق	-9.30176
صن	-9.30269
48	-9.30317
▁الكم	-9.30329
ثبت	-9.30363
▁٪	-9.30381
▁يعمل	-9.30397
▁24	-9.30424
وجه	-9.30446
▁لأنه	-9.3076
▁شي	-9.30792
▁وليس	-9.31015
▁درجات	-9.31084
حيوان	-9.31124
▁الروم	-9.31126
▁والك	-9.31304
ثور	-9.31308
▁عديدة	-9.31324
▁إيطاليا	-9.31336
كب	-9.31338
وطن	-9.31354
▁العلوم	-9.31357
▁الإسرائيلية	-9.31484
ستر	-9.31516
فير	-9.31524
▁محافظة	-9.31708
▁دخل	-9.3171
فاء	-9.3173
نفس	-9.31775
ريف	-9.31785
كري	-9.31828
▁اعت	-9.31937
دام	-9.31956
▁عبارة	-9.3208
▁قرار	-9.32083
▁قائمة	-9.32123
▁مدار	-9.32127
▁نظرية	-9.32146
▁الان	-9.32159
▁المجال	-9.32197
▁الجو	-9.32234
▁وبعض	-9.32242
80	-9.32335
▁الألماني	-9.3235
▁الكبيرة	-9.32379
▁الشر	-9.32395
▁الكر	-9.32417
▁كامل	-9.32432
le	-9.32502
▁وزير	-9.3252
▁متوسط	-9.3261
لك	-9.32639
▁بح	-9.32642
رش	-9.32706
طالب	-9.3271
▁اليونانية	-9.32711
▁بحلول	-9.32743
زوج	-9.32771
▁وان	-9.32816
▁تصل	-9.3282
عمر	-9.32854
▁الشهر	-9.32885
هب	-9.32942
ناس	-9.32965
▁بكر	-9.33
▁هم	-9.33031
▁الأسود	-9.3305
5%	-9.33061
بلغ	-9.33132
تميز	-9.33348
▁مشروع	-9.33353
▁السياسة	-9.3341
▁الشركة	-9.3359
حظ	-9.336
▁وجد	-9.33641
▁مباشرة	-9.33662
▁تكن	-9.33701
▁حياة	-9.33775
▁نقطة	-9.33854
ُن	-9.33974
▁الحالي	-9.34054
عامل	-9.34141
▁لعام	-9.34156
ّد	-9.34289
▁عالية	-9.34337
تحرك	-9.34352
ثلاث	-9.3447
▁21	-9.34483
▁عشرة	-9.34539
▁إبراهيم	-9.3457
▁الإجمالي	-9.34576
▁2004	-9.34597
يري	-9.34611
قاتل	-9.34758
▁تح	-9.3478
▁القبائل	-9.34815
▁قسم	-9.34834
ساء	-9.34892
▁الاجتماعية	-9.34901
▁منتصف	-9.35037
▁عم	-9.35061
▁البل	-9.35138
▁التقليدية	-9.35215
▁حرارة	-9.35275
▁قاد	-9.35277
▁الضوء	-9.35283
▁الشعر	-9.35305
70	-9.35424
▁الشمالي	-9.35434
▁السم	-9.35466
▁الجوي	-9.3561
طف	-9.35676
روح	-9.35716
95	-9.35721
▁دين	-9.35743
▁وفاته	-9.35762
or	-9.35775
▁جا	-9.35788
اسي	-9.3583
ِل	-9.35843
غني	-9.35946
ريس	-9.36059
ضر	-9.36074
▁الزراعة	-9.36159
▁اكتشاف	-9.36191
▁تنظيم	-9.3626
▁السوفيتي	-9.36423
تشر	-9.36432
▁هتلر	-9.36441
يران	-9.3646
فعل	-9.36472
رمز	-9.36538
▁آي	-9.36551
▁الجنوبي	-9.36566
▁عا	-9.36576
75	-9.36634
▁تحتوي	-9.3664
▁السيطرة	-9.3669
▁أهمية	-9.36788
▁عمليات	-9.36843
▁آلاف	-9.37052
تواجد	-9.37056
▁22	-9.37086
▁ني	-9.37119
ّب	-9.37135
َّل	-9.37142
▁50	-9.37145
▁1.	-9.37155
27	-9.37308
-19	-9.37318
حركة	-9.3733
شغل	-9.37341
▁الهو	-9.3738
تجار	-9.37381
حضر	-9.37402
طبق	-9.37446
▁سبب	-9.37506
الأ	-9.3752
▁حصل	-9.37522
عرب	-9.37612
▁الطريق	-9.37636
▁الفلسطيني	-9.37654
ليب	-9.37666
عكس	-9.37719
فع	-9.37722
▁والد	-9.37761
نق	-9.37851
▁سابق	-9.37877
▁ففي	-9.37918
صنف	-9.37955
▁تعرف	-9.38054
ذك	-9.38087
▁يجعل	-9.38151
▁المعروف	-9.38151
65	-9.3825
▁بعيد	-9.38287
سمى	-9.38443
▁تزال	-9.38455
روا	-9.38465
عهد	-9.38546
▁23	-9.38581
17	-9.38597
▁لكنه	-9.38614
▁والخ	-9.38615
▁التالي	-9.38657
تحدث	-9.3868
بني	-9.38694
وها	-9.38793
▁لقد	-9.3883
حاد	-9.38877
▁السا	-9.38897
تز	-9.38915
شور	-9.38929
غلب	-9.38945
▁تك	-9.38956
▁تعمل	-9.3899
▁أخذ	-9.39032
خذ	-9.39065
▁هام	-9.3907
▁بأنها	-9.39104
ليف	-9.39231
▁انت	-9.39275
▁الأقل	-9.39374
▁برنامج	-9.39382
38	-9.39471
▁دعم	-9.396
▁بلد	-9.39609
▁المركز	-9.39625
▁ض	-9.39659
▁مكتب	-9.39672
مَّا	-9.39697
▁إقليم	-9.39827
صوم	-9.39884
▁المال	-9.39902
شد	-9.39911
▁وغير	-9.39976
شرف	-9.39995
ريك	-9.40087
وص	-9.40234
اض	-9.40238
▁100	-9.40393
99	-9.4045
▁الصف	-9.40487
▁النظر	-9.405
▁تمثل	-9.405
▁العناصر	-9.405
غان	-9.40515
▁وبال	-9.40549
زر	-9.40559
▁سواء	-9.40599
▁لهذه	-9.40617
▁بور	-9.40627
▁الحاكم	-9.40628
▁البشر	-9.40645
صا	-9.40687
مد	-9.40794
▁احت	-9.40795
▁انتشار	-9.40872
زار	-9.40879
مح	-9.40882
▁الخليج	-9.40916
تطور	-9.40974
مكن	-9.40993
جار	-9.40997
▁بالقرب	-9.41004
▁الض	-9.41166
▁الموجودة	-9.41167
▁قليل	-9.4117
خلف	-9.41179
▁الحم	-9.41194
▁ورد	-9.41195
طار	-9.41204
▁فرض	-9.41279
▁تع	-9.41284
▁المسلحة	-9.41305
▁شيء	-9.41313
▁صلاح	-9.41416
فقًا	-9.41466
ِي	-9.41503
سائل	-9.41505
ةٍ	-9.41527
▁الصغيرة	-9.4161
▁خمسة	-9.41629
شحن	-9.41645
جمهورية	-9.41724
ch	-9.41811
▁ظهور	-9.41884
▁عين	-9.41885
▁شهدت	-9.41886
▁تمكن	-9.41968
▁حقوق	-9.42027
▁عرف	-9.4205
قب	-9.42059
v	-9.42063
▁الفكر	-9.42071
▁اعتبار	-9.42086
32	-9.4209
غي	-9.42097
▁استطاع	-9.42131
عالم	-9.42185
▁معاهدة	-9.42267
▁26	-9.42297
▁الأوسط	-9.42372
لوك	-9.42391
▁قطع	-9.42413
21	-9.42507
تحول	-9.42521
ڤ	-9.4255
كة	-9.4261
بحر	-9.42625
قابل	-9.42662
37	-9.42765
33	-9.42781
عود	-9.42783
مؤسس	-9.42883
▁الغاز	-9.42899
وخ	-9.42956
َّر	-9.4301
▁أع	-9.43081
▁مجموع	-9.43114
▁النجوم	-9.43127
درج	-9.43133
ادية	-9.43144
رابط	-9.43254
▁الإنتاج	-9.43312
▁السابقة	-9.43331
▁السن	-9.43494
▁سليم	-9.4351
▁الجن	-9.43512
لاك	-9.43536
▁ابنه	-9.4354
سيط	-9.43577
▁المجموعة	-9.43595
شعر	-9.43643
اعة	-9.43645
▁المسلمون	-9.43705
▁شا	-9.43728
زراعة	-9.43733
مور	-9.43734
▁ظهر	-9.43777
▁النار	-9.43787
ُو	-9.43841
قام	-9.43941
▁المرحلة	-9.44009
▁زمن	-9.44061
▁يو	-9.44148
▁العثماني	-9.44155
▁لقب	-9.44229
▁واسعة	-9.4429
حام	-9.44319
▁تعود	-9.444
فلسف	-9.44436
▁قر	-9.4446
دري	-9.44521
▁جهة	-9.44535
▁أجزاء	-9.44575
22	-9.44691
▁روما	-9.44717
عبر	-9.44722
▁هيئة	-9.44928
▁يسمى	-9.44981
ورد	-9.44988
▁ولكنه	-9.45061
▁مس	-9.45087
▁الإنجليزية	-9.45147
▁البو	-9.45193
▁القر	-9.45322
▁شبكة	-9.45414
تاريخ	-9.45418
سقط	-9.4545
▁اقتصاد	-9.45457
▁البحث	-9.4554
ء	-9.45557
▁m	-9.45603
▁صاحب	-9.45639
برز	-9.45639
▁وصول	-9.45656
24	-9.45695
؟	-9.4575
كث	-9.45754
▁البن	-9.45774
أمين	-9.45809
▁إل	-9.45821
▁ذو	-9.45848
▁يمثل	-9.45902
عتمد	-9.45905
سجل	-9.4591
▁حاول	-9.45945
ادة	-9.45954
نش	-9.46114
عن	-9.4612
▁كثيرة	-9.46152
▁غر	-9.46183
–	-9.46195
▁معينة	-9.46195
j	-9.46216
▁تست	-9.46237
داد	-9.46286
عظم	-9.46304
▁تمت	-9.46343
ريح	-9.46344
44	-9.46369
▁المؤتمر	-9.46371
▁بد	-9.46373
▁اقت	-9.464
نان	-9.46488
لاحظ	-9.46589
▁آنذاك	-9.46641
▁دستور	-9.46642
▁أعلنت	-9.46646
ضح	-9.46647
▁رجال	-9.46677
▁قيادة	-9.46734
▁p	-9.46735
▁تشكيل	-9.46798
▁a	-9.46834
▁27	-9.46987
▁العملية	-9.47032
رتفع	-9.4704
36	-9.47052
▁2010	-9.47053
▁أساسي	-9.47185
اقت	-9.47227
▁غاز	-9.4723
▁وف	-9.47357
جير	-9.47372
▁القوى	-9.47478
▁الحال	-9.47501
▁الأندلس	-9.4754
▁2012	-9.47569
▁إم	-9.47669
=1	-9.47678
▁يزيد	-9.47769
34	-9.47786
▁يشكل	-9.47847
ده	-9.47856
ديد	-9.47863
ئات	-9.47991
َّن	-9.48079
رز	-9.48119
شف	-9.48213
▁قائد	-9.48292
▁قيام	-9.4831
▁البشرية	-9.48347
سيل	-9.48374
▁حدث	-9.4842
28	-9.48426
روي	-9.48481
ظل	-9.48606
حن	-9.48656
▁وزارة	-9.48658
قاء	-9.48715
▁مرحلة	-9.48735
جين	-9.48765
▁يزال	-9.48803
▁العلمية	-9.48951
قطاع	-9.48959
سود	-9.48973
▁وسائل	-9.48984
▁السل	-9.49004
▁أدت	-9.49014
▁للإ	-9.49047
▁طرق	-9.49051
▁تحقيق	-9.49074
▁لديها	-9.49124
▁2003	-9.49235
نى	-9.49246
▁صالح	-9.49361
▁الجسم	-9.49362
دق	-9.49377
وارد	-9.494
▁الموقع	-9.49436
st	-9.49442
▁أنهم	-9.49477
▁المس	-9.49497
▁الآثار	-9.49522
▁متعددة	-9.49524
▁الجانب	-9.49621
لاء	-9.49632
تغير	-9.4965
▁فصل	-9.49651
▁الحيوانات	-9.49681
64	-9.49683
يج	-9.49701
باد	-9.49722
لح	-9.49742
▁المغول	-9.49755
▁مصطلح	-9.4979
دافع	-9.49929
▁شعر	-9.49971
مكان	-9.49976
شهر	-9.50008
إسلام	-9.50073
مدينة	-9.50091
غور	-9.50116
▁باللغة	-9.5014
كرة	-9.50155
حات	-9.50202
▁المقدس	-9.50209
علي	-9.50218
▁إيران	-9.50237
▁سُ	-9.50283
▁تشير	-9.50342
▁السي	-9.50418
]	-9.50426
▁الاستعمار	-9.50461
سحب	-9.50513
▁فلا	-9.50561
ظاهر	-9.50564
▁وأصبح	-9.50575
26	-9.5061
سلط	-9.50624
▁إطلاق	-9.50655
23	-9.50671
▁وقام	-9.5078
▁كتابه	-9.50816
▁مسلم	-9.50935
َل	-9.51005
▁ليست	-9.51038
تحد	-9.5106
رافق	-9.51066
▁عسكري	-9.51078
39	-9.51091
▁نور	-9.51115
▁ود	-9.5117
▁أف	-9.51176
وضع	-9.51183
▁القارة	-9.51197
▁سل	-9.5123
▁حسن	-9.5125
ضيف	-9.51276
دمج	-9.51296
▁مدرسة	-9.51337
▁النوع	-9.51351
▁والش	-9.5142
كشف	-9.51434
▁أور	-9.51493
▁وحدة	-9.51508
▁الروماني	-9.51511
لات	-9.51538
▁حلب	-9.51555
▁يع	-9.51623
▁انتقل	-9.51636
ضيق	-9.51653
▁والر	-9.51745
لقب	-9.51782
▁الصحية	-9.51836
عبد	-9.51868
▁شعب	-9.51932
تعاون	-9.51963
▁القوة	-9.52023
رسال	-9.52089
▁الحل	-9.52101
ياء	-9.52164
عام	-9.52166
▁الدو	-9.5217
▁سكانها	-9.52219
سين	-9.52287
▁تمتلك	-9.52418
▁تعني	-9.52421
▁وهذه	-9.52495
▁مي	-9.52521
كتب	-9.52559
صلح	-9.52667
▁الإنترنت	-9.52671
▁أصول	-9.52782
▁تطبيق	-9.52828
إلى	-9.52843
▁باب	-9.52845
واء	-9.52906
ساوي	-9.52913
نيا	-9.52983
رع	-9.52995
▁محاولة	-9.52996
ساس	-9.5312
انغ	-9.53125
▁محل	-9.53154
صالح	-9.5317
▁بهذا	-9.53322
ليم	-9.53347
▁مرض	-9.53369
▁العمال	-9.53402
▁الموافق	-9.53445
دفاع	-9.53448
قاع	-9.53481
بث	-9.53552
كوم	-9.53565
ساح	-9.53632
▁الحاسوب	-9.53636
98	-9.53668
سرع	-9.53736
is	-9.53738
كور	-9.53758
▁يعني	-9.538
▁باريس	-9.53848
شاهد	-9.53879
▁بلا	-9.53923
▁حاكم	-9.53956
▁رجل	-9.54007
▁الثالثة	-9.5411
ائب	-9.54132
تبادل	-9.54151
صير	-9.54176
▁مهمة	-9.54177
عيش	-9.54194
▁مياه	-9.54235
▁القطاع	-9.54303
▁آثار	-9.54315
▁الصراع	-9.54337
▁تو	-9.54395
دس	-9.54499
gt	-9.54505
ؤثر	-9.54505
▁سير	-9.54623
▁فل	-9.54634
▁مؤتمر	-9.54718
حافظ	-9.54757
▁المرض	-9.54839
▁الوحيد	-9.54863
حدث	-9.54916
▁مصدر	-9.54957
▁لاحق	-9.54957
▁لأول	-9.54973
▁قل	-9.55065
63	-9.55145
▁رقم	-9.5523
▁السويد	-9.55286
▁سياسي	-9.55289
▁مهم	-9.55306
علن	-9.55325
قوم	-9.55388
ريد	-9.55449
▁بدل	-9.55455
▁اعتبر	-9.55502
▁أشكال	-9.55689
▁الهيدروجين	-9.55711
▁البيزنطي	-9.55713
▁تونس	-9.55747
▁الولاية	-9.5576
▁الأطفال	-9.55788
▁قصر	-9.55929
▁فرع	-9.55951
▁فو	-9.5597
راث	-9.55979
▁المعروفة	-9.56012
▁التالية	-9.5613
▁استمر	-9.56141
▁ويت	-9.56149
▁مجتمع	-9.56165
la	-9.56174
▁مُحمَّد	-9.56179
رفض	-9.56227
ضرب	-9.56278
ri	-9.5629
تصل	-9.56364
▁وخاصة	-9.56376
ra	-9.56381
▁منصب	-9.56384
▁يؤدي	-9.56393
▁طويل	-9.56516
يغ	-9.56538
▁إجراء	-9.56555
▁والج	-9.56566
▁المصادر	-9.56575
▁المد	-9.56588
▁الأر	-9.56648
▁التسمية	-9.56679
مجلس	-9.56761
أت	-9.56797
▁سب	-9.56809
تقدم	-9.56867
41	-9.56895
▁فإنه	-9.56902
راح	-9.56908
▁الاحتلال	-9.56929
▁استخدم	-9.57017
ندي	-9.57065
▁بلغت	-9.57088
49	-9.57111
عز	-9.57199
قاط	-9.57282
تبع	-9.57288
43	-9.57289
on	-9.57314
▁المرتبة	-9.57322
نف	-9.57331
▁بوش	-9.57342
▁قُ	-9.57406
▁فارس	-9.57421
روس	-9.57477
▁اللاتينية	-9.57485
▁البا	-9.5751
▁الطبيعي	-9.57545
▁تغيير	-9.57583
صال	-9.57594
▁حتَّى	-9.57668
▁الحصول	-9.57757
▁مكون	-9.57777
▁عاش	-9.57805
باء	-9.57806
▁المو	-9.57808
هور	-9.57841
شن	-9.57859
▁الصيف	-9.57933
▁بير	-9.58021
▁كوكب	-9.58046
▁(2	-9.58057
▁الواحد	-9.58091
▁عسكرية	-9.58101
تعدد	-9.58114
سط	-9.58114
▁الإغريق	-9.58151
باس	-9.58187
لون	-9.58237
صعب	-9.58329
ic	-9.58363
فرض	-9.58373
▁الصينية	-9.58465
▁اجتماع	-9.58551
▁تظهر	-9.5856
▁كار	-9.58578
▁ملايين	-9.58674
راع	-9.58763
▁خير	-9.58806
▁جل	-9.58821
67	-9.58866
ّي	-9.5889
▁الأحيان	-9.59009
فاد	-9.59014
▁ولي	-9.59028
▁الواقعة	-9.59063
كوب	-9.59111
▁مطار	-9.59145
▁بعضها	-9.59157
96	-9.59172
▁إسبانيا	-9.59178
صيد	-9.5918
تلك	-9.59204
▁28	-9.59216
عوا	-9.59217
▁قناة	-9.59294
متد	-9.59318
افة	-9.59357
قرار	-9.5937
▁ثورة	-9.59443
لقى	-9.59513
عان	-9.59519
▁مسؤول	-9.59546
▁وث	-9.59641
▁العدد	-9.59668
▁مكة	-9.5972
▁نص	-9.59724
منح	-9.59801
تطبيق	-9.59814
▁موسى	-9.59867
▁التحرير	-9.5992
85	-9.59935
▁عثمان	-9.59985
▁المادة	-9.59986
▁السفن	-9.60057
ورو	-9.60101
نتاج	-9.6012
▁رئيسي	-9.60168
▁تحمل	-9.60229
▁الوصول	-9.60232
▁الإله	-9.60265
خام	-9.60313
روم	-9.60337
▁أنشأ	-9.60356
▁تقسيم	-9.6037
▁مدى	-9.60374
▁الخلافة	-9.60387
▁الحملة	-9.60443
▁وأصبحت	-9.60464
ينغ	-9.60475
▁يطلق	-9.60479
▁ثُمَ	-9.60555
▁الناصر	-9.60628
▁وراء	-9.60628
▁29	-9.60633
▁الأحداث	-9.6066
قُ	-9.60741
▁حا	-9.60781
باع	-9.60846
ساك	-9.60871
بنى	-9.60877
▁ستالين	-9.60889
▁الغلاف	-9.60898
▁اتحاد	-9.60906
3"	-9.60931
ولاية	-9.60957
▁وهم	-9.61141
▁رد	-9.61177
برا	-9.61182
▁سك	-9.61326
▁الإعلام	-9.61348
us	-9.61359
سكي	-9.61384
▁خالد	-9.61423
▁ساحل	-9.61453
▁وصلت	-9.61465
▁الوضع	-9.61499
▁المجاورة	-9.61573
▁مقاطعة	-9.61585
▁شارك	-9.61592
▁ور	-9.61605
▁تحدث	-9.61607
▁فكرة	-9.61652
▁اليوناني	-9.61652
▁الجامعة	-9.61726
▁الشكل	-9.61743
▁أفراد	-9.61856
▁حُ	-9.61876
▁المسرح	-9.61916
عادة	-9.61916
▁الألعاب	-9.61928
فكر	-9.61942
▁يقرب	-9.62063
4"	-9.62083
سنة	-9.62101
▁وادي	-9.62148
شتهر	-9.62185
▁صار	-9.62202
▁الموسيقى	-9.62219
2"	-9.62252
افي	-9.62268
92	-9.62286
1"	-9.6229
▁الثقافية	-9.62509
▁فشل	-9.62511
جيش	-9.6264
▁الحالية	-9.62668
▁سعود	-9.62671
▁الأمطار	-9.6269
صديق	-9.62746
فين	-9.62762
وتو	-9.62769
رغب	-9.62796
94	-9.62849
el	-9.6286
▁الكربون	-9.62928
▁الحكومية	-9.62935
حيل	-9.6294
▁الهجرة	-9.62982
مول	-9.63073
▁الزراعية	-9.63121
▁للدولة	-9.63148
▁الشركات	-9.63175
▁f	-9.63195
قطار	-9.63273
▁خان	-9.63274
▁تنفيذ	-9.63301
أخذ	-9.63338
▁سياسة	-9.63352
▁المسيحي	-9.63355
▁الخل	-9.63369
▁القتال	-9.63384
▁المخ	-9.63451
97	-9.63496
▁مئوية	-9.63497
ِن	-9.63572
▁النفس	-9.63577
زة	-9.63587
عسكر	-9.63601
47	-9.63612
تخصص	-9.63639
▁الروسية	-9.6365
خضع	-9.63672
▁تق	-9.63676
86	-9.63713
اؤه	-9.63768
▁الحادي	-9.63776
▁جماعة	-9.63791
formula	-9.63849
▁البداية	-9.63851
▁انتخابات	-9.63855
قارب	-9.63945
وغ	-9.63955
ربع	-9.63973
ارية	-9.63992
سمي	-9.64018
▁المالية	-9.6404
زيت	-9.64052
8"	-9.64064
▁الأصل	-9.6407
ؤكد	-9.64115
▁ناحية	-9.64209
▁اكتشف	-9.64265
▁حساب	-9.64381
مجموعة	-9.64421
ديان	-9.64529
▁بعده	-9.64566
▁شعبية	-9.64662
55	-9.64883
▁غزو	-9.64922
▁تعليم	-9.64936
▁المسيحيين	-9.64958
جع	-9.64977
▁الرسمي	-9.6502
رسل	-9.65037
▁وقعت	-9.65073
جامع	-9.65113
▁الأساسي	-9.65173
ـ«	-9.65173
ّن	-9.65187
46	-9.65209
▁خلاف	-9.65268
▁الأب	-9.65323
ضى	-9.65345
▁سليمان	-9.65362
خي	-9.65401
▁الذاتي	-9.65423
تشي	-9.65428
▁تركيا	-9.65442
29	-9.65487
▁جُ	-9.65539
قاطع	-9.65557
ma	-9.65613
▁الكل	-9.65687
راض	-9.65691
▁دخول	-9.65691
te	-9.65717
بلد	-9.65742
▁كلا	-9.6583
▁مش	-9.65867
42	-9.65882
▁الذ	-9.65919
بدأ	-9.65928
▁الكهربائية	-9.65935
▁الملكية	-9.65969
▁الرومان	-9.66007
▁بايزيد	-9.66019
▁وص	-9.66047
05	-9.66062
▁سان	-9.66075
▁جون	-9.66121
▁كن	-9.66139
رث	-9.66173
▁اليونان	-9.66174
▁الأو	-9.66178
قصد	-9.66184
برمج	-9.6622
▁طريقة	-9.66233
▁ذر	-9.66289
▁نمو	-9.66296
▁الأسرة	-9.66319
68	-9.66335
وكالة	-9.66431
▁جنب	-9.66455
▁والص	-9.66472
ثير	-9.66487
زون	-9.66503
قبول	-9.66525
7"	-9.66533
▁نجد	-9.66545
توقع	-9.66562
بوت	-9.66587
اقة	-9.66597
▁الأعلى	-9.66686
ليون	-9.66712
طور	-9.66723
▁العظيم	-9.66725
▁الرحمن	-9.66727
تون	-9.66801
▁ومنها	-9.66808
▁خرج	-9.66846
صلاح	-9.66865
▁اخت	-9.66897
5"	-9.66909
▁علاقة	-9.66916
▁جدا	-9.6692
كية	-9.67009
أحد	-9.6705
▁الرسول	-9.6712
▁وهكذا	-9.67273
▁والط	-9.67278
▁قياس	-9.67303
▁أسماء	-9.6732
6"	-9.67444
▁تقريبًا	-9.67459
▁تتكون	-9.67476
▁الموصل	-9.6766
رشح	-9.67688
فضل	-9.67697
▁المذهب	-9.67783
87	-9.67813
▁إما	-9.67823
▁محمود	-9.67835
▁رسول	-9.67837
▁السلطات	-9.67837
سليم	-9.67877
▁التابعة	-9.67903
▁حملة	-9.67916
▁فلم	-9.68002
ّع	-9.68026
له	-9.68052
▁المش	-9.68054
▁علاقات	-9.68195
9"	-9.68203
▁الجوية	-9.68315
▁تقديم	-9.68386
عالج	-9.68396
▁الكتب	-9.68425
▁نشاط	-9.68436
▁قرر	-9.68473
▁2001	-9.68529
▁إجمالي	-9.68568
▁اختيار	-9.68579
▁يوسف	-9.68774
▁1991	-9.68778
▁لح	-9.68797
وسط	-9.68898
فات	-9.68903
حارب	-9.68996
▁المماليك	-9.69007
▁الصناعية	-9.69135
▁فان	-9.69139
عترف	-9.6915
▁2014	-9.69158
هاجم	-9.69171
▁المدرسة	-9.69183
ضل	-9.69193
▁تغير	-9.69289
▁التر	-9.69305
▁1990	-9.69356
▁الكاثوليكية	-9.69431
زال	-9.69455
▁العالي	-9.69527
1,	-9.69579
قرأ	-9.69589
راج	-9.696
طلاق	-9.69611
مارس	-9.69612
هرب	-9.69616
حداث	-9.69618
خطوط	-9.69623
ونية	-9.69632
▁الضفة	-9.69689
▁نُ	-9.69723
▁التعاون	-9.69726
▁بقي	-9.6973
▁1948	-9.69916
89	-9.69923
▁شو	-9.69962
▁اتفاقية	-9.69996
دفن	-9.7003
▁ثابت	-9.70063
▁الفلك	-9.70066
▁مواقع	-9.70082
أمر	-9.70151
َّم	-9.70168
دُ	-9.70197
▁إسماعيل	-9.70202
▁أتباع	-9.7026
▁الاتفاق	-9.70333
▁النساء	-9.70348
▁بسرعة	-9.7045
وجب	-9.70459
ماس	-9.70464
▁الكيميائية	-9.70487
▁[	-9.70527
lt	-9.70527
شاب	-9.70549
صيب	-9.70555
▁أسر	-9.7056
▁إله	-9.70568
نتخب	-9.70587
▁المعركة	-9.706
▁انتخاب	-9.70612
أشعة	-9.7063
▁سقوط	-9.70655
ومي	-9.70701
تأثر	-9.70807
جبر	-9.70826
إشعاع	-9.70828
▁عرفت	-9.70841
▁غو	-9.70888
صخر	-9.70952
ينية	-9.71015
▁الإسكندرية	-9.71022
رئيس	-9.71041
▁40	-9.71052
▁60	-9.71109
61	-9.71123
ro	-9.71192
▁باعتباره	-9.71256
تزايد	-9.71259
دعى	-9.71274
▁الأعضاء	-9.71281
حزب	-9.71285
▁زاد	-9.71298
قرر	-9.71333
▁يتكون	-9.71349
▁قبائل	-9.71459
ابي	-9.71537
▁العلاج	-9.71583
صدق	-9.71584
يض	-9.71585
▁البيانات	-9.71591
▁لندن	-9.71624
آل	-9.71664
▁اكت	-9.71701
حديث	-9.71732
موسيقى	-9.71825
شعب	-9.71839
▁مسرح	-9.71856
وحد	-9.71889
62	-9.71939
▁g	-9.71953
شيد	-9.71971
▁1967	-9.71997
▁وط	-9.72004
قاف	-9.72006
يكي	-9.72017
راس	-9.72106
▁زوج	-9.72122
َّت	-9.72131
▁البرازيل	-9.72157
▁قيمة	-9.72173
ترا	-9.72227
▁حسين	-9.72263
مهندس	-9.7234
▁يشير	-9.72346
ستخدم	-9.72402
▁الهواء	-9.72525
ne	-9.72547
شعار	-9.72675
▁التأثير	-9.72696
قانون	-9.72702
▁تأسست	-9.72706
69	-9.72739
▁يحدث	-9.72805
لل	-9.7285
فى	-9.72874
▁بعدها	-9.72876
ستمر	-9.72924
▁محطة	-9.72975
▁عقب	-9.73003
▁إعلان	-9.73023
it	-9.7307
داع	-9.73106
▁الأوَّل	-9.73134
▁المغناطيسي	-9.73174
لج	-9.73194
▁الأطلسي	-9.73326
="9	-9.7335
▁استمرت	-9.73375
▁الحسين	-9.73383
▁قريب	-9.73383
جمل	-9.73522
كثير	-9.73526
جوز	-9.7354
▁0	-9.73549
▁2015	-9.73556
لمان	-9.73592
76	-9.73609
▁الإسكندر	-9.73609
أطفال	-9.73619
▁الأهلية	-9.73632
▁المركزية	-9.73653
جاه	-9.73803
▁فاز	-9.73831
كوك	-9.73842
▁كتلة	-9.7386
غول	-9.7387
06	-9.73887
li	-9.73896
▁الكوكب	-9.73916
▁الطريقة	-9.73924
▁كنيسة	-9.7395
▁أج	-9.73956
حرب	-9.74008
▁مصادر	-9.74037
▁النجم	-9.74098
ناه	-9.74102
▁2013	-9.74139
▁تعتمد	-9.74151
َّى	-9.74163
▁الرياضيات	-9.74165
▁المسؤول	-9.74173
ضار	-9.74189
▁تسبب	-9.74228
نزل	-9.74229
غالبية	-9.74249
▁نق	-9.74267
اختلاف	-9.74281
ثناء	-9.74285
واصل	-9.74286
محيط	-9.74339
شرق	-9.7434
يبة	-9.74357
▁حجر	-9.74357
وادي	-9.74403
▁ويتم	-9.74499
▁وخلال	-9.74502
روج	-9.74503
دّ	-9.74505
ماء	-9.7454
▁2002	-9.74562
الف	-9.74593
▁البعث	-9.74609
زيد	-9.74689
لان	-9.74691
سافر	-9.74693
▁اتجاه	-9.74711
جمال	-9.74718
▁أبناء	-9.74819
▁السورية	-9.74826
▁سار	-9.74836
▁النهاية	-9.7485
جزر	-9.7486
▁الكونغو	-9.75181
تمرد	-9.75208
66	-9.75251
81	-9.75263
91	-9.75266
▁الفرق	-9.7528
▁نجاح	-9.75292
▁العباسي	-9.75304
▁جزر	-9.7535
▁الضغط	-9.75368
▁صدر	-9.75431
▁قادر	-9.75477
شرك	-9.75513
رسم	-9.75517
04	-9.75518
88	-9.75581
▁النمسا	-9.75606
▁قوي	-9.75647
at	-9.75658
▁مستقلة	-9.75663
▁يبقى	-9.75672
▁بدون	-9.75749
▁برلين	-9.75755
▁طب	-9.75806
بحث	-9.75809
زهر	-9.75842
رياض	-9.75887
ضمن	-9.75898
ـ/	-9.75917
ثا	-9.75933
رفع	-9.75949
▁(3	-9.75963
توفر	-9.75963
▁قرب	-9.76024
ّه	-9.76028
▁معه	-9.76034
ِهِ	-9.76041
▁خطوط	-9.7607
▁بشر	-9.76083
▁أعداد	-9.76084
▁صور	-9.76128
أربع	-9.76137
عرق	-9.76174
▁تعريف	-9.76246
▁الحروب	-9.76266
▁الشمسية	-9.76277
▁الخدمات	-9.76303
▁ستة	-9.76324
▁سعيد	-9.76372
دال	-9.76388
▁الأخ	-9.76394
▁يَ	-9.76448
58	-9.76479
▁مك	-9.76504
وتر	-9.76506
▁بينهم	-9.76507
77	-9.76564
▁الشباب	-9.76571
تقويم	-9.76616
َن	-9.76647
▁h	-9.7668
سلام	-9.76685
فس	-9.76781
▁بحيرة	-9.7679
▁وتت	-9.76802
▁مجموعات	-9.76808
▁فمن	-9.76814
▁وعند	-9.76911
▁لغات	-9.76921
▁مرور	-9.76951
▁بينها	-9.76988
▁نائب	-9.77007
▁الكواكب	-9.77041
79	-9.77053
▁نموذج	-9.77088
▁الصحراء	-9.77089
▁البيزنطية	-9.77097
حال	-9.77102
تمييز	-9.77171
▁الطبيعة	-9.77216
شاعر	-9.77286
▁للغاية	-9.77301
▁لكنها	-9.77355
▁بيروت	-9.77386
سكو	-9.77402
عراق	-9.77448
بنية	-9.77515
▁يحمل	-9.7753
▁الجبهة	-9.7756
خيل	-9.77595
▁عل	-9.77615
▁اللجنة	-9.77646
واجهة	-9.77757
مائة	-9.77766
تعرض	-9.77774
▁المكان	-9.77782
▁شديد	-9.77846
وحدة	-9.77849
07	-9.77926
▁العمليات	-9.77927
▁كأس	-9.7794
▁جهاز	-9.77944
83	-9.77948
جسد	-9.78006
جذب	-9.78106
▁الديمقراطي	-9.78106
93	-9.78127
▁وابن	-9.78137
▁قرية	-9.78186
▁السوق	-9.78187
▁الرياض	-9.78198
78	-9.78257
ُس	-9.7828
تار	-9.78305
▁إفريقيا	-9.7832
إس	-9.7832
ادات	-9.7832
عتقد	-9.78341
نمو	-9.78342
▁النشاط	-9.78351
حظر	-9.78379
▁صغير	-9.78475
▁للبلاد	-9.78476
▁الثلاثة	-9.78502
نادي	-9.78533
ائهم	-9.78557
وقف	-9.7859
▁سورة	-9.78595
▁الحديدية	-9.78618
لقي	-9.78652
[[	-9.78814
▁يعتمد	-9.78834
سيادة	-9.7884
جون	-9.78846
▁التركية	-9.78922
▁ميناء	-9.78941
▁الفرد	-9.78981
رين	-9.78982
▁مقارنة	-9.79029
سعة	-9.79079
العديد	-9.79091
إقامة	-9.79103
▁تشرشل	-9.79132
▁القياس	-9.79189
54	-9.79217
ريا	-9.79235
▁ثانية	-9.79244
08	-9.79271
▁الأكسجين	-9.7935
▁الكلمة	-9.79384
بلاد	-9.79395
▁يرجع	-9.79397
ta	-9.79401
▁الاجتماعي	-9.79408
▁وقع	-9.79482
▁الجمعية	-9.79484
▁المُوافقة	-9.79515
▁العمر	-9.79517
09	-9.79547
▁الصليبيين	-9.79554
74	-9.79567
56	-9.79628
▁السياحة	-9.79631
▁جورج	-9.79655
غزو	-9.79692
▁جائزة	-9.79696
0"	-9.79703
▁صورة	-9.79711
▁تس	-9.79728
▁مرات	-9.79733
اوية	-9.79854
إحصاء	-9.79961
▁عز	-9.79963
بغ	-9.79993
يء	-9.8015
▁يظهر	-9.80163
ُور	-9.80171
▁ناصر	-9.80186
نهج	-9.8023
71	-9.80268
ضة	-9.80284
نفذ	-9.80329
▁قاعدة	-9.8035
▁يذكر	-9.80355
▁فريق	-9.80362
▁السيارات	-9.80372
نشر	-9.80405
طيف	-9.80417
نطق	-9.80437
▁المنظمة	-9.8047
▁تعداد	-9.80508
82	-9.80515
قوا	-9.80542
تعلم	-9.80779
نتقل	-9.80783
مملكة	-9.80784
▁إلي	-9.80813
▁المق	-9.8082
▁الكامل	-9.80837
▁عامًا	-9.80903
▁برامج	-9.80916
َّد	-9.80924
دخول	-9.8096
سيا	-9.80969
▁النمو	-9.80969
▁الأناضول	-9.81007
53	-9.81022
▁حدوث	-9.81042
▁الإيطالية	-9.8108
▁سرعة	-9.81105
▁الهي	-9.8111
أل	-9.81112
فوز	-9.81118
سلاف	-9.81119
ّف	-9.81122
سهول	-9.81165
▁وتُ	-9.81192
th	-9.81196
na	-9.81209
▁الدراسات	-9.81242
▁تسمية	-9.81251
▁القضاء	-9.8132
84	-9.81347
▁مؤسس	-9.81386
روض	-9.81403
▁يرى	-9.81424
▁وغيرهم	-9.81483
كاف	-9.81538
▁اللا	-9.81588
كنيسة	-9.8163
يفة	-9.81725
▁مسجد	-9.81819
▁مسيحي	-9.8186
ورا	-9.81861
▁الشيوعي	-9.81865
▁عامي	-9.81872
▁الفضاء	-9.81891
▁ضعف	-9.81922
▁النظرية	-9.8194
▁الإدارة	-9.81998
▁الحج	-9.82025
▁الرياضية	-9.82083
▁الهرم	-9.82084
▁جداً	-9.82091
▁سجل	-9.82111
ليس	-9.8221
▁الفرع	-9.8222
▁كُل	-9.82371
▁نسب	-9.8238
▁هدف	-9.82399
هندسة	-9.82446
▁هما	-9.82476
▁الملكي	-9.8253
▁رسمية	-9.82568
بقاء	-9.82589
▁صوت	-9.82599
▁الشخصية	-9.82631
ّم	-9.82635
▁عناصر	-9.82641
ّى	-9.82681
راق	-9.82718
تاح	-9.82742
▁الحق	-9.82768
قبض	-9.82771
ّت	-9.82776
خن	-9.8279
ثار	-9.82803
="10	-9.82834
كول	-9.82913
▁يتحدث	-9.82919
▁عالمي	-9.82928
▁نشأت	-9.82988
ضعف	-9.83012
صيغ	-9.83017
يتو	-9.83076
▁المستوى	-9.83093
▁اسمه	-9.83097
قرب	-9.83116
تأسيس	-9.83132
▁لفترة	-9.83134
es	-9.83217
▁البناء	-9.83283
▁يحتوي	-9.83289
▁الكرة	-9.83308
▁وعدد	-9.83309
ائف	-9.83321
▁الحالة	-9.83385
▁المؤ	-9.83401
ميد	-9.83425
▁مفهوم	-9.83436
ولة	-9.83436
▁وتعتبر	-9.83458
▁الإسبانية	-9.8347
▁والعشرين	-9.83564
▁وبذلك	-9.83606
▁بموجب	-9.83607
▁أبا	-9.83613
▁أنَّهُ	-9.8372
اكس	-9.8372
▁الأهلي	-9.83757
▁أصحاب	-9.83769
▁المُسلمين	-9.83781
▁لِسن	-9.83785
▁السري	-9.83792
▁الكا	-9.83813
▁الغزو	-9.83891
▁المشروع	-9.83902
الة	-9.83966
محافظة	-9.83993
سعى	-9.84025
▁بكل	-9.84122
ورية	-9.84212
▁بس	-9.84229
طال	-9.84279
▁القومي	-9.84353
بيت	-9.84396
مبادئ	-9.84454
▁سيما	-9.84488
تنفيذ	-9.84617
▁نجم	-9.84619
▁الشخص	-9.84642
▁نابليون	-9.84647
▁لصالح	-9.84662
إمبراطور	-9.84682
▁العظمى	-9.84736
▁الصحة	-9.84836
▁أخيه	-9.84918
▁جامع	-9.84982
ًّا	-9.84995
حصن	-9.85004
▁وأكثر	-9.85021
▁الأموي	-9.85041
▁الجمع	-9.85072
رجم	-9.85089
▁عربية	-9.85124
▁السبب	-9.85127
▁الإخوان	-9.85132
يتي	-9.85192
▁عكس	-9.85203
مشتق	-9.85231
مثال	-9.85233
▁قبيلة	-9.85237
▁شأن	-9.85239
عضو	-9.85344
▁وعلم	-9.85382
▁الجنود	-9.85389
▁النقد	-9.85397
▁القيادة	-9.85417
يدة	-9.85485
ديم	-9.85566
▁القيام	-9.85608
▁هار	-9.85705
▁طرف	-9.85737
▁القرار	-9.85771
▁اتفاق	-9.85775
سيطرة	-9.85823
▁طن	-9.8586
▁الداخلي	-9.85894
عمد	-9.85929
▁فور	-9.85953
▁يسمح	-9.8597
▁العاشر	-9.85971
دود	-9.8598
رمان	-9.86019
▁حص	-9.86096
▁اليابانية	-9.86103
خفض	-9.86129
دَّ	-9.86129
01	-9.86185
▁أنفسهم	-9.86188
▁مؤلف	-9.86216
▁البار	-9.86234
▁باقي	-9.86246
200	-9.86306
57	-9.86363
▁الفاطمي	-9.86408
▁الأصلية	-9.8644
رَ	-9.86491
▁وعاد	-9.86551
▁الفيزياء	-9.86577
▁القوانين	-9.86582
▁الأسر	-9.86587
مُ	-9.86625
▁الشتاء	-9.86642
▁لجنة	-9.86668
لندا	-9.86682
un	-9.86696
تنظيم	-9.86753
▁فهم	-9.86843
قيد	-9.86868
حياة	-9.869
▁تعيين	-9.86911
حتفظ	-9.86919
▁31	-9.86987
انس	-9.8699
▁معروف	-9.87017
▁الفريق	-9.87036
ليزي	-9.87036
حقق	-9.8707
▁تختلف	-9.87076
ُّون	-9.87116
ِ]]	-9.87149
طاق	-9.8715
حرم	-9.87245
▁المريخ	-9.87304
عمق	-9.87314
صناع	-9.87317
▁السوري	-9.87331
▁المحكمة	-9.87343
▁بالإ	-9.87356
▁الرياح	-9.87361
▁الإيطالي	-9.87378
▁تعرض	-9.87387
▁نوبل	-9.87389
▁حمل	-9.87434
تسع	-9.87491
▁العلاقة	-9.87525
آخر	-9.87536
غز	-9.87554
▁المسجد	-9.87575
▁وفقا	-9.87585
▁ويعتبر	-9.87614
غاز	-9.87668
ركب	-9.8768
▁وجعل	-9.87741
▁وعمل	-9.87741
▁الحلفاء	-9.87764
▁النسبية	-9.87802
▁بول	-9.87856
▁الكبريت	-9.87875
▁ابت	-9.87946
▁الحد	-9.87953
▁التفاعل	-9.87953
فون	-9.87958
قترح	-9.87968
▁اهتمام	-9.88018
▁سريع	-9.88023
ايت	-9.88079
▁إطار	-9.8809
قسام	-9.88113
▁إنه	-9.88127
▁عنصر	-9.88159
am	-9.88162
صناعة	-9.88174
▁ذهب	-9.88245
03	-9.88305
ti	-9.88307
51	-9.88327
▁بصورة	-9.88458
▁الحي	-9.88465
كال	-9.8847
▁الجغرافي	-9.88485
▁ذي	-9.88569
لحق	-9.88575
▁ثنائي	-9.88579
قع	-9.8858
=10	-9.88587
72	-9.88594
لَّا	-9.88615
تواصل	-9.88676
▁رفع	-9.88729
▁البيضاء	-9.88735
▁البحرين	-9.88738
▁بمعنى	-9.88759
شبه	-9.88773
إدارة	-9.888
▁السنوي	-9.88803
نبي	-9.88807
▁رمز	-9.88848
▁أيرلندا	-9.88859
▁الأولمبية	-9.8888
▁اختلاف	-9.88903
صاص	-9.88905
كثر	-9.88912
52	-9.88928
وشي	-9.88938
▁قلب	-9.89028
مستشار	-9.89101
▁الأشخاص	-9.89124
▁الإقليم	-9.89126
قف	-9.89132
▁التقسيم	-9.89172
▁كور	-9.89182
▁طاقة	-9.89203
▁الجر	-9.89209
خوف	-9.89219
يمي	-9.89239
مرض	-9.89241
▁تجمع	-9.89246
▁فرق	-9.89249
يكو	-9.89263
حول	-9.89301
▁نتائج	-9.89336
▁الحقيقي	-9.89344
بيا	-9.8938
وكو	-9.89384
▁كوريا	-9.89471
اليوم	-9.89479
▁للح	-9.89486
▁عائلة	-9.89537
▁أولى	-9.89539
▁القسم	-9.89571
▁الرجال	-9.89571
▁سوق	-9.89594
▁الفقر	-9.89595
▁دل	-9.89599
كرم	-9.896
▁بهم	-9.89655
▁أيدي	-9.89656
▁يبدو	-9.89665
▁صنع	-9.8969
▁الجبال	-9.89703
فاف	-9.89743
▁المجموعات	-9.8981
مركز	-9.89818
▁القائد	-9.89835
▁حقق	-9.89868
▁الإدارية	-9.89904
▁منزل	-9.89912
ur	-9.89916
ريش	-9.89943
▁الألمان	-9.8997
▁الشعوب	-9.90026
▁تقريبا	-9.90223
▁الناحية	-9.90259
2%	-9.90307
▁القديس	-9.90322
▁كانون	-9.9038
ُق	-9.90417
حكومة	-9.90428
▁ولقد	-9.90477
▁البنية	-9.90481
▁حب	-9.9054
نظير	-9.90541
ناز	-9.90566
إسرائيل	-9.90571
▁فاست	-9.9058
نهر	-9.90595
▁لهُ	-9.90612
شاء	-9.9063
▁تفسير	-9.90649
▁بكثير	-9.9065
بعث	-9.90656
ونغ	-9.90661
▁تمتد	-9.90701
ابات	-9.90765
▁بطريقة	-9.90776
ستا	-9.90818
▁بدء	-9.90832
نهار	-9.90917
▁المكسيك	-9.90952
شتر	-9.91023
▁آر	-9.91045
▁الوحدة	-9.91053
جرى	-9.91092
▁(18	-9.91166
حصل	-9.91238
ُع	-9.91269
رغ	-9.91313
▁البرية	-9.91322
مالك	-9.91324
قدس	-9.91334
عش	-9.91353
▁موقف	-9.91373
تراوح	-9.91429
عاهد	-9.91437
▁الأنواع	-9.91441
هتم	-9.91443
هدف	-9.91472
▁الغابات	-9.91478
▁أنظمة	-9.91485
خصص	-9.91529
حفظ	-9.91531
انا	-9.91553
▁التشغيل	-9.91648
▁الذهب	-9.91658
عق	-9.91665
▁الوحيدة	-9.91668
▁وو	-9.91712
طق	-9.91803
واد	-9.91817
حاصر	-9.91841
شية	-9.91858
▁التطور	-9.91859
▁بشأن	-9.91883
موت	-9.9189
تكامل	-9.91905
تيار	-9.91917
بَ	-9.91923
▁كمية	-9.91954
▁وأنه	-9.91964
رجح	-9.92105
ألف	-9.92113
▁ومنذ	-9.92118
▁المؤسسات	-9.92134
mo	-9.92156
▁الممكن	-9.92194
سهل	-9.922
لكرة	-9.92207
▁المسيح	-9.92317
ناخ	-9.92322
بون	-9.92367
▁بحسب	-9.92369
▁تتراوح	-9.92371
▁النصف	-9.92376
فريق	-9.92385
▁أراد	-9.92399
▁شك	-9.92462
وجد	-9.92505
رود	-9.9254
▁كبيرًا	-9.92555
▁الشَّام	-9.92589
سة	-9.92604
اقتصاد	-9.92604
▁معبد	-9.92619
صوف	-9.92712
▁تلق	-9.92915
▁تبع	-9.92921
▁وجنوب	-9.92977
▁أصغر	-9.92984
▁سال	-9.92997
أهل	-9.93036
▁ضرب	-9.93046
▁أقصى	-9.93062
حُكم	-9.93082
▁النهائي	-9.93124
▁التجاري	-9.93139
31	-9.93168
▁الرقم	-9.93174
▁حماس	-9.93239
▁العلمي	-9.93241
▁البي	-9.93249
دني	-9.93354
خان	-9.93375
خضر	-9.93403
شب	-9.93414
لوم	-9.93446
▁شاه	-9.93451
ترجمة	-9.93479
▁جيد	-9.93508
▁تصنيف	-9.9352
▁الخارج	-9.93521
▁خلق	-9.93539
co	-9.93623
▁رأي	-9.93638
▁القاعدة	-9.93691
▁الكتابة	-9.93693
ضباط	-9.93708
تدخل	-9.93739
▁الصادر	-9.93753
▁سياسية	-9.93794
▁إثر	-9.93804
حرف	-9.93825
="11	-9.93939
ضوء	-9.9395
كمل	-9.93982
حاج	-9.94042
▁الحضارة	-9.94046
▁1999	-9.94064
73	-9.94065
▁المستخدم	-9.94065
▁تشرين	-9.94066
تفسير	-9.94132
▁وترك	-9.94148
▁قابل	-9.94163
ِم	-9.94178
▁حاليا	-9.94194
▁قصيرة	-9.94275
وء	-9.94278
▁العُثمانيَّة	-9.94289
▁رواية	-9.94322
▁حالياً	-9.94338
▁تحويل	-9.94364
▁الشرطة	-9.94397
قصر	-9.94406
قاليد	-9.9442
يتش	-9.94437
▁مؤسسة	-9.94449
▁الحجر	-9.94451
▁الجزر	-9.94472
▁قار	-9.94472
رحل	-9.945
ثني	-9.94517
▁مناخ	-9.9452
تأخر	-9.94537
▁الشعبي	-9.94557
▁مساعد	-9.94562
▁تسع	-9.94576
▁الكلي	-9.94591
▁استقلال	-9.94641
َر	-9.94657
روز	-9.94663
▁أجهزة	-9.94671
▁الصناعة	-9.94689
▁كبار	-9.94714
امة	-9.94849
▁الساعة	-9.94854
▁اعتمد	-9.94891
لانتهاء	-9.94905
باك	-9.94926
وصل	-9.94956
▁باكستان	-9.94978
▁اتخذ	-9.9501
▁تقريباً	-9.95023
فلسطين	-9.95075
تقى	-9.95079
▁ولل	-9.95085
فترض	-9.95096
▁فيلم	-9.95106
▁إصدار	-9.95123
▁واستمر	-9.95125
▁الصلب	-9.95132
حط	-9.95154
جعل	-9.95183
▁مخ	-9.95184
أنشطة	-9.95206
▁ثالث	-9.9522
▁برا	-9.95221
مات	-9.95232
▁انتهت	-9.95243
قضي	-9.95248
▁سوف	-9.95261
توجه	-9.95272
▁خدمة	-9.9532
▁قليلة	-9.95323
جسيم	-9.95336
▁السطح	-9.95336
▁للع	-9.95349
▁الكلاسيكية	-9.95401
▁انتهاء	-9.95465
ختار	-9.95484
سف	-9.9552
تحويل	-9.95543
▁دخلت	-9.9557
قم	-9.95575
صوص	-9.95619
ليك	-9.95632
▁المباشر	-9.95657
دعي	-9.957
جتمع	-9.95711
تنافس	-9.95723
مراقبة	-9.95785
ِّي	-9.95792
▁الذهبي	-9.9581
▁موضوع	-9.95822
عقب	-9.95849
قَ	-9.95854
▁الجنسية	-9.9589
▁وفر	-9.95903
▁قلعة	-9.95923
▁هنا	-9.9595
▁قديم	-9.95987
▁الإصلاح	-9.95999
تلف	-9.96017
▁تابعة	-9.96019
▁واضح	-9.96023
▁ووضع	-9.96073
▁الاشتراكية	-9.96076
▁المقدسة	-9.96097
▁يومًا	-9.96146
▁الهندسة	-9.96237
▁طبقة	-9.96265
▁سلطة	-9.96288
▁الأصلي	-9.96293
▁الأربعة	-9.96298
▁السو	-9.96329
▁نفوذ	-9.96355
▁وبلغ	-9.96373
فترة	-9.96418
▁جزئي	-9.96441
توضيح	-9.96442
▁1994	-9.9648
▁النووي	-9.96529
توحيد	-9.96562
6%	-9.96576
تابع	-9.9666
رتبة	-9.96692
لشركة	-9.96714
▁البيئة	-9.96716
جلس	-9.96719
▁المقاومة	-9.96774
8%	-9.96775
▁قوم	-9.96778
سية	-9.96783
▁ساعة	-9.9681
▁ساعد	-9.96875
▁هجر	-9.96901
مدرسة	-9.96906
▁بعث	-9.96927
59	-9.96946
▁قوية	-9.96952
▁مايكروسوفت	-9.96987
▁الظاهر	-9.97009
تصميم	-9.97086
▁حالات	-9.97098
▁نجح	-9.97122
▁مقتل	-9.97126
▁الحرة	-9.97133
درب	-9.97176
▁انخفاض	-9.97184
▁اعتماد	-9.97218
بيان	-9.97295
عَ	-9.9734
▁الجهاز	-9.97388
▁الأل	-9.97399
زرع	-9.97404
▁الروح	-9.97423
بوس	-9.97424
▁تعالى	-9.97426
▁الكتلة	-9.97433
3%	-9.97435
▁2016	-9.97474
▁رب	-9.97479
▁ممثل	-9.97483
▁شرع	-9.97515
تقليد	-9.97516
▁وقتل	-9.97519
▁خطاب	-9.97591
▁وأعلن	-9.97595
▁وغ	-9.97631
▁تحول	-9.97654
▁الاتصال	-9.97682
▁البالغ	-9.97692
▁ولذلك	-9.97701
▁سام	-9.97705
سند	-9.97712
▁الأثرية	-9.97724
▁لذا	-9.97756
02	-9.9781
▁الشمسي	-9.97849
تفق	-9.97868
غالب	-9.97905
▁ربما	-9.97905
▁حو	-9.9794
▁عباس	-9.98046
كسر	-9.98051
اعتبار	-9.98055
سرطان	-9.98183
▁كتابة	-9.98191
▁يهودي	-9.98218
رعاية	-9.98236
▁تقرير	-9.98265
▁الحجاز	-9.98316
▁سيطرت	-9.98321
▁مركب	-9.98322
▁ربيع	-9.98326
برت	-9.98369
▁70	-9.98405
صبح	-9.98451
▁الياباني	-9.98538
▁العرش	-9.98557
4%	-9.98584
="4	-9.98709
▁العقل	-9.98736
▁وتعد	-9.9874
سد	-9.9874
توس	-9.9878
▁فكانت	-9.98821
سبق	-9.9886
▁الطبية	-9.98907
▁الجامعات	-9.98937
▁الأحزاب	-9.9895
▁الشيعة	-9.98973
▁فريد	-9.98997
▁دع	-9.99024
▁صحيح	-9.99025
▁تأثر	-9.99045
▁يلي	-9.99105
▁المعرفة	-9.99133
متحف	-9.99152
▁البرامج	-9.99181
دراسات	-9.99201
▁فعال	-9.9921
▁عيد	-9.9923
▁لبعض	-9.99262
▁قادة	-9.99352
▁المحافظة	-9.99428
▁دعا	-9.99534
زمان	-9.9956
▁وأرسل	-9.99583
أرقام	-9.99597
1%	-9.99645
حزم	-9.99686
▁غالبًا	-9.99689
▁جسم	-9.99727
▁تتم	-9.9976
التي	-9.99779
ميني	-9.99799
▁استعمال	-9.99844
بريطاني	-9.9987
)"	-9.99872
بيد	-9.99876
جت	-9.99906
▁°	-9.99935
نوب	-9.99949
▁المعارضة	-9.99959
▁الرياضة	-9.99976
باحث	-10.0003
▁للمدينة	-10.0005
ca	-10.0005
وضح	-10.0006
حرق	-10.0009
▁الشرعي	-10.0011
▁المئة	-10.0017
▁الأمور	-10.0018
بورغ	-10.0023
-1	-10.0024
فول	-10.0026
▁بهدف	-10.0028
▁تتبع	-10.0029
▁المتعلق	-10.0043
ألعاب	-10.0044
انتفاضة	-10.0044
▁المساحة	-10.0046
▁تكوين	-10.0046
▁انتقال	-10.0048
▁كشف	-10.0048
▁عمان	-10.0052
حلول	-10.0056
▁العرض	-10.0057
▁الزي	-10.0058
فيروس	-10.0059
▁الثقافي	-10.006
مشاركة	-10.0062
▁جندي	-10.0064
▁أسرة	-10.0069
▁ليبيا	-10.0076
▁الصحف	-10.0076
▁نقص	-10.0077
▁العادي	-10.0079
زواج	-10.0083
ديو	-10.0092
▁ويبلغ	-10.0094
خيم	-10.0095
غلق	-10.0095
▁الدنمارك	-10.0096
حدود	-10.0097
حسين	-10.0097
▁عهده	-10.0102
▁1945	-10.0102
شيخ	-10.0103
ha	-10.0104
ؤرخ	-10.0104
دعوة	-10.0106
يهود	-10.0107
▁بعضهم	-10.0108
▁سوني	-10.0109
▁تي	-10.0113
ابن	-10.0114
دراسة	-10.0122
▁الصناعات	-10.0122
تشابه	-10.0124
▁والثاني	-10.0127
▁اضطر	-10.0129
▁الأع	-10.013
▁تصميم	-10.0132
بديل	-10.0133
نيس	-10.0134
▁زيد	-10.0135
رتبط	-10.014
يلا	-10.014
فك	-10.015
أر	-10.0151
▁تتميز	-10.0151
▁الفلسفة	-10.0151
سرعان	-10.0156
خاص	-10.0158
▁شائع	-10.0158
▁العلوي	-10.0159
="6	-10.0163
▁وعن	-10.0172
▁هجوم	-10.0172
▁تدريجي	-10.0173
رار	-10.0176
▁أشار	-10.0178
▁بينهما	-10.018
▁المدنية	-10.0181
▁200	-10.0183
▁اسمها	-10.0186
▁وذكر	-10.0189
▁يتعلق	-10.0193
▁رسالة	-10.0194
▁إر	-10.0197
▁الأربع	-10.0198
حدائق	-10.0199
▁كثافة	-10.0199
تفوق	-10.0203
▁1992	-10.0203
▁المهاجرين	-10.0205
▁العراقي	-10.0206
▁وسي	-10.0211
▁مادة	-10.0212
▁إقامة	-10.0213
تربية	-10.0213
▁الليل	-10.0214
رجال	-10.0215
جراء	-10.0216
▁نادي	-10.0216
كاد	-10.0219
▁الهجوم	-10.0219
lo	-10.022
ol	-10.0224
▁دائرة	-10.0225
▁تقدير	-10.0227
ملاح	-10.0227
جزيرة	-10.023
▁الدي	-10.023
▁عدا	-10.0231
لازم	-10.0233
صانع	-10.0235
اشي	-10.0239
▁النص	-10.0239
▁الصيني	-10.0241
حرار	-10.0243
▁الأسد	-10.0244
روسيا	-10.0245
▁حضر	-10.0246
▁وتشمل	-10.0254
ستون	-10.0254
كلفة	-10.0256
▁دورة	-10.0261
▁حصار	-10.0271
شراف	-10.0272
▁الإيراني	-10.0281
▁يضم	-10.0284
▁سبق	-10.0285
▁كافة	-10.0285
▁الطبقة	-10.0287
فرع	-10.0288
وغو	-10.029
▁عموم	-10.0291
عزل	-10.0295
▁الحراري	-10.0301
لهجة	-10.0302
▁مراكز	-10.0303
▁مثال	-10.0304
طبع	-10.0306
600	-10.0316
▁أحداث	-10.0317
▁وأخذ	-10.0318
دائي	-10.0323
تفاعل	-10.0326
▁سيطرة	-10.0326
جمعية	-10.0327
هضبة	-10.033
أساليب	-10.0332
▁احتلال	-10.0333
▁حلف	-10.0333
▁يعيش	-10.0333
▁هزيمة	-10.0335
▁إداري	-10.0337
▁الأرمن	-10.0338
لوث	-10.0339
▁والغ	-10.034
مجلة	-10.034
▁تغطي	-10.0344
▁صد	-10.035
تكرر	-10.0353
▁باستثناء	-10.0353
▁حوض	-10.0354
▁المستخدمة	-10.0354
▁عظيم	-10.0356
▁التحتية	-10.0356
بدل	-10.0357
الك	-10.0358
▁t	-10.0359
▁موجودة	-10.0361
▁جمال	-10.0363
فهم	-10.0365
بشر	-10.0366
▁الأرضية	-10.0372
▁الوسط	-10.0374
▁بلدان	-10.0377
▁سيف	-10.0378
خارج	-10.038
▁وبقي	-10.0386
▁سلطان	-10.0387
ترتيب	-10.0393
▁أقام	-10.0396
واقع	-10.0399
▁النووية	-10.04
="7	-10.0401
▁السلة	-10.0406
▁حماية	-10.0407
▁آب	-10.0409
▁وبدأ	-10.0409
▁تفاعل	-10.041
حجار	-10.0411
ذلك	-10.0413
▁بهذه	-10.042
▁الجماعة	-10.0423
سيارات	-10.0425
▁شركات	-10.0431
▁القسطنطينية	-10.0436
▁عمرو	-10.0436
▁المصطلح	-10.0437
▁باست	-10.0443
▁اشتهر	-10.0448
▁تركيب	-10.0455
▁المنزل	-10.0456
▁تقل	-10.0464
▁أينشتاين	-10.0465
▁الجليد	-10.0465
▁1995	-10.0468
▁الإصابة	-10.0468
▁تحالف	-10.0469
▁وعدم	-10.0477
▁لديه	-10.0479
▁المكتب	-10.0481
وسع	-10.0481
عاقب	-10.0482
حالة	-10.0485
▁n	-10.0487
▁العضوية	-10.049
اور	-10.0491
▁2017	-10.0492
▁الديانة	-10.0492
500	-10.0494
▁النصوص	-10.0496
▁مقاومة	-10.0498
▁القطب	-10.0498
▁الفا	-10.05
▁مالك	-10.0507
خلق	-10.051
▁الباب	-10.0519
▁الخدمة	-10.0521
▁الكهرباء	-10.0527
زيم	-10.0529
جند	-10.0531
▁الصوت	-10.0538
نسي	-10.054
▁القصر	-10.0542
▁شهد	-10.0543
أكثر	-10.0545
توافق	-10.0549
▁التحالف	-10.0552
▁انتصار	-10.0553
▁سيد	-10.0557
▁القليل	-10.0557
بوب	-10.0558
▁وظل	-10.0569
ألمانيا	-10.0574
ساو	-10.0578
ظم	-10.058
روف	-10.0585
se	-10.059
تشكل	-10.0596
▁بمثاب	-10.0596
▁الطلاب	-10.0596
▁البروتستانت	-10.0597
زان	-10.0597
▁قوانين	-10.0599
▁الجهاد	-10.0601
وجود	-10.0602
▁جدًا	-10.0604
▁الليبي	-10.0606
▁المحيطة	-10.0607
▁بابل	-10.0609
أدوات	-10.0616
كتور	-10.0617
جامعة	-10.0622
▁وقيل	-10.063
توزيع	-10.063
▁وأما	-10.0634
▁الهندية	-10.0642
مارك	-10.0643
وجي	-10.0646
كتشف	-10.0647
▁زالت	-10.065
▁مستويات	-10.0651
تقن	-10.0651
▁الخطاب	-10.0656
بروتين	-10.0656
ce	-10.0658
▁طوال	-10.066
موظف	-10.0661
▁الخمس	-10.0661
▁المجتمعات	-10.0663
▁الكريم	-10.0666
▁زار	-10.0675
▁الاتجاه	-10.0679
▁الأسلحة	-10.0679
▁حفظ	-10.0682
▁1998	-10.0682
▁=	-10.0689
▁أهمها	-10.0691
▁المركزي	-10.0695
▁رأى	-10.0696
▁التراث	-10.0702
▁تشغيل	-10.0704
▁أصدر	-10.0707
me	-10.0707
▁البوسنة	-10.0707
التهاب	-10.0709
▁الدوري	-10.071
▁سمح	-10.0712
▁مسار	-10.0713
حديقة	-10.0714
to	-10.0718
et	-10.0722
▁الموت	-10.0734
▁سبع	-10.0736
شبكات	-10.0737
▁العمارة	-10.0737
▁الطويل	-10.0737
▁وتش	-10.0748
▁المواقع	-10.0753
▁d	-10.0753
▁الصرب	-10.0761
ناظر	-10.0762
▁ضغط	-10.0767
شخص	-10.0777
▁رمضان	-10.0787
▁السوفياتي	-10.0787
▁الدراسة	-10.0787
دقيق	-10.0788
الصليبي	-10.0791
▁الرأي	-10.08
▁سلم	-10.08
▁ولو	-10.0801
الد	-10.0802
▁ام	-10.0806
▁الحين	-10.0806
▁خطر	-10.0811
▁لاحقًا	-10.0811
▁الحجري	-10.0815
▁توفر	-10.082
▁الهندي	-10.0822
▁الغذائية	-10.0825
▁الأرثوذكسية	-10.0831
▁وآ	-10.0833
تنازل	-10.0833
▁المستقبل	-10.0833
▁النباتات	-10.0833
▁الأجنبية	-10.0833
▁العشر	-10.0834
جرام	-10.0835
▁(20	-10.0836
يعة	-10.0839
أكاديمي	-10.084
ِر	-10.0841
▁الانتقال	-10.0842
▁العرقية	-10.0844
إلكترون	-10.0844
▁أجر	-10.0848
▁الحب	-10.0848
تمويل	-10.085
▁إصلاح	-10.0853
▁المز	-10.0854
▁الخلاف	-10.0856
▁موطن	-10.0858
▁المصدر	-10.0859
▁هولندا	-10.0859
تردد	-10.0861
راجع	-10.0865
▁فيروس	-10.0868
▁أثار	-10.0871
إعدام	-10.0872
تعبير	-10.0873
▁تخل	-10.0887
ئت	-10.0893
الذي	-10.0893
عالي	-10.0893
▁السبع	-10.0897
إي	-10.0897
▁مواطن	-10.0899
▁المناسب	-10.09
▁الغالب	-10.0901
▁دقيقة	-10.0902
▁متحف	-10.0914
▁يستطيع	-10.0916
ثلث	-10.0917
▁العراقية	-10.092
قصور	-10.0921
▁ويندوز	-10.0921
ter	-10.093
▁الورق	-10.0934
▁المُوافق	-10.0939
▁تجارية	-10.094
يزيد	-10.0941
▁العثمانيين	-10.0941
▁البرتغال	-10.0945
موس	-10.0949
▁الفاتيكان	-10.0953
ندر	-10.0953
▁للأمم	-10.0954
▁الموارد	-10.0954
▁الفنون	-10.0956
أمراض	-10.0957
نين	-10.0959
▁منح	-10.096
قن	-10.0961
▁رئيسية	-10.0974
▁الميت	-10.0976
▁إد	-10.098
الغريغوري	-10.0981
▁أكسيد	-10.0981
▁أسباب	-10.0986
▁سور	-10.0995
▁القومية	-10.0998
▁لويس	-10.1
اضطراب	-10.1001
▁الدر	-10.1005
شمال	-10.1006
▁الضرائب	-10.1009
▁متنوعة	-10.1009
حضور	-10.1011
▁تجاه	-10.1011
▁الصومال	-10.1011
▁معرفة	-10.1012
▁ووفق	-10.1013
▁الدروز	-10.1015
قوس	-10.1017
شهادة	-10.1023
▁التقليدي	-10.1024
يًّا	-10.103
▁يقدر	-10.1032
شرح	-10.1034
▁السويس	-10.1035
▁الحُ	-10.1037
▁وجدت	-10.1038
لغات	-10.1038
▁تدخل	-10.1039
▁الكنائس	-10.1044
▁الشديد	-10.1045
لر	-10.1046
▁والاست	-10.1053
احتفال	-10.1057
وّل	-10.106
▁وقف	-10.1064
▁تناول	-10.1068
انو	-10.1071
▁تبقى	-10.1071
▁فقام	-10.1073
كائن	-10.1074
▁اقترح	-10.1077
عداد	-10.1079
▁الأصليين	-10.1079
ماثل	-10.1089
تحكم	-10.1096
▁ملوك	-10.1097
▁عُرف	-10.1099
▁قواعد	-10.11
اتٍ	-10.1102
800	-10.1111
▁بيد	-10.1111
▁طبق	-10.1111
▁أطول	-10.1114
▁دم	-10.1119
▁بوجود	-10.1121
نصب	-10.1123
▁القناة	-10.1126
▁فيصل	-10.1128
لندي	-10.1131
▁فض	-10.1132
تمام	-10.1135
▁مواد	-10.1136
َّف	-10.1137
فصيل	-10.1137
توقف	-10.1141
▁سهل	-10.1143
▁شخصية	-10.1144
لاحق	-10.1147
▁الخارجي	-10.1148
ظهور	-10.1149
تأكيد	-10.1151
▁المذكور	-10.1151
▁رياضي	-10.1152
إعداد	-10.1156
▁عامل	-10.1157
▁نادر	-10.1159
▁مناسب	-10.1162
▁فرد	-10.1164
▁سبعة	-10.1168
▁تراجع	-10.1179
▁الكبيسة	-10.1179
de	-10.118
▁1996	-10.1184
طرد	-10.1186
▁تحرير	-10.119
الب	-10.119
▁رئاسة	-10.1192
um	-10.1193
أراضي	-10.1194
▁المؤرخين	-10.1196
ثروة	-10.1196
▁للعمل	-10.1197
حسب	-10.1197
7%	-10.1198
روك	-10.1198
لاق	-10.1203
أرض	-10.1205
▁النبات	-10.121
▁الحالات	-10.1212
قصف	-10.1219
▁بالرغم	-10.122
نفق	-10.122
▁التع	-10.1222
نشط	-10.1223
ia	-10.1223
▁الشيوعية	-10.1229
لّ	-10.1235
▁البشري	-10.1236
▁بحث	-10.1237
دَ	-10.1241
▁علاج	-10.1242
▁القدرة	-10.1244
▁يعيشون	-10.1245
طرح	-10.1247
قير	-10.1248
ضاء	-10.1248
زير	-10.1251
▁الدعم	-10.1257
▁التو	-10.1257
نخفض	-10.126
▁البيت	-10.1261
▁الأمراض	-10.1262
▁نيويورك	-10.1265
سيد	-10.1266
▁ثمانية	-10.1268
▁نهائي	-10.127
▁الرعاية	-10.127
▁التيار	-10.1272
قوق	-10.1274
▁الكهربائي	-10.1275
▁دليل	-10.1281
بيرو	-10.1284
▁الديني	-10.1286
ربما	-10.1287
عبادة	-10.1288
▁خُ	-10.1295
▁تتضمن	-10.1298
نص	-10.1299
▁المشتركة	-10.1308
حمام	-10.1314
رح	-10.1314
سفر	-10.1318
جميل	-10.132
حاكم	-10.1324
طابق	-10.1324
▁الأور	-10.1325
▁ثقافة	-10.1327
▁الحفاظ	-10.1329
عجز	-10.1333
▁الاحتفال	-10.1338
▁طور	-10.134
سطح	-10.134
▁دُ	-10.1341
▁e	-10.1344
▁فضل	-10.1347
▁الإمارات	-10.1353
▁إليهم	-10.1362
▁الأفريقي	-10.1364
▁جاءت	-10.1364
ديمقراطية	-10.1366
▁مدة	-10.1367
تمثيل	-10.1367
▁وحده	-10.1368
لزم	-10.1368
▁التك	-10.137
يتين	-10.1381
ge	-10.1381
▁الأتراك	-10.1382
▁1993	-10.1386
▁حاليًا	-10.1387
موقع	-10.1388
▁ـ	-10.1389
َّع	-10.1397
▁مستمر	-10.14
بسط	-10.1401
▁المركبات	-10.1401
ثقافة	-10.1406
جموع	-10.1411
أول	-10.1412
▁الآشوري	-10.1412
▁القول	-10.1413
▁عاماً	-10.1415
▁الفنية	-10.1419
▁خلالها	-10.1425
▁مذهب	-10.1426
غضب	-10.1427
▁الطلب	-10.1434
▁الأماكن	-10.144
▁المواطنين	-10.1441
▁الصليبية	-10.1444
▁خليج	-10.1444
▁تيمية	-10.1446
▁مشكلة	-10.1447
▁وتع	-10.1453
▁الحصار	-10.1456
▁بارز	-10.1457
▁بث	-10.1457
صاف	-10.1458
▁توحيد	-10.146
سلسلة	-10.1461
▁بقية	-10.1461
▁500	-10.1463
▁الخلايا	-10.1473
▁حرف	-10.1475
▁لك	-10.1479
منظمة	-10.148
▁نصر	-10.149
رصد	-10.149
▁وأمر	-10.1492
▁أقرب	-10.1494
لتجارة	-10.1495
▁أفغانستان	-10.1499
▁ملحوظ	-10.1499
▁خلدون	-10.1502
▁مجالات	-10.1502
▁خدمات	-10.1507
درع	-10.1512
تناول	-10.1515
إفريقي	-10.152
▁بعمل	-10.1523
رمي	-10.1524
▁ويقول	-10.1525
▁استقر	-10.1528
▁ماري	-10.1528
افتراض	-10.1529
▁زعيم	-10.1529
▁يسوع	-10.153
▁الظروف	-10.1531
▁2018	-10.1534
▁العدو	-10.1542
كيل	-10.1544
▁بالغ	-10.1545
ac	-10.1547
ساب	-10.1547
اتفاق	-10.1547
▁بطولة	-10.1548
sa	-10.1554
▁أعماله	-10.1554
▁مباشر	-10.1555
▁يتبع	-10.1558
وران	-10.1558
ميكانيكا	-10.1558
▁انه	-10.1563
▁أخذت	-10.1569
لاف	-10.1571
▁الإقليمية	-10.1573
والي	-10.1573
زف	-10.1574
درو	-10.1579
▁المرأة	-10.1588
▁والفن	-10.1589
▁الطائف	-10.1591
▁بلدية	-10.1597
▁العاملة	-10.1598
ندو	-10.16
▁والولايات	-10.16
سوء	-10.1601
رِ	-10.1601
أسطول	-10.1613
لتزام	-10.1614
▁رق	-10.1614
فيزيائي	-10.1616
▁الاشتراكي	-10.1616
▁القطبية	-10.1617
▁مالي	-10.1621
▁بولندا	-10.1621
جبهة	-10.1621
أئمة	-10.1624
▁القادة	-10.1634
▁الإداري	-10.1638
▁المهمة	-10.1639
▁التعبير	-10.1639
▁الاستخدام	-10.1649
ؤل	-10.1653
إمام	-10.1655
▁الأساس	-10.1655
▁الفرس	-10.166
▁سكن	-10.1663
▁العثور	-10.1664
▁هاجر	-10.167
il	-10.1675
▁الصحابة	-10.1678
▁300	-10.1682
▁بري	-10.1683
▁الوطن	-10.1683
▁السلف	-10.1684
▁الكاثوليك	-10.1685
عتبر	-10.1692
▁أمن	-10.1693
▁مول	-10.1695
▁الفلسطينيين	-10.1703
▁حار	-10.1706
▁كيلو	-10.1707
▁اثنين	-10.1708
▁موسم	-10.1709
▁البرتغالي	-10.171
ئذ	-10.1711
وكس	-10.1724
تكلم	-10.1726
▁الأفريقية	-10.1726
▁السكانية	-10.1727
▁وأول	-10.1727
رسو	-10.1729
▁العالية	-10.173
فرة	-10.1737
قمع	-10.1747
▁الري	-10.1748
تسلسل	-10.1754
▁سلام	-10.1756
▁المزيد	-10.1757
المسيح	-10.1761
▁الجغرافيا	-10.1764
▁الحجم	-10.1767
▁موت	-10.1768
▁الصلاة	-10.1769
▁السكك	-10.1772
▁مبكر	-10.1773
▁الصالح	-10.1774
▁رسم	-10.1776
▁2019	-10.1777
▁النبوي	-10.1782
▁كاملة	-10.1795
يّن	-10.1799
▁الطوائف	-10.1799
▁البسيطة	-10.1799
▁جرى	-10.1802
حَ	-10.1803
▁قصة	-10.1809
▁الحو	-10.181
ميناء	-10.1817
▁حافظ	-10.1822
▁ترتيب	-10.1822
▁جنرال	-10.1829
راي	-10.183
▁بشدة	-10.1832
حج	-10.1835
▁تقليدي	-10.1838
شل	-10.1839
تدهور	-10.1839
ِّر	-10.1843
بريد	-10.1845
كاب	-10.1845
▁يصبح	-10.1846
▁توسع	-10.1847
▁اللون	-10.1848
▁الجزائري	-10.1851
▁يُعرف	-10.1853
▁التابع	-10.1856
ائن	-10.1857
▁of	-10.186
▁الجماعي	-10.186
معايير	-10.1862
تفكير	-10.1862
▁معروفة	-10.1869
▁الساحلية	-10.1869
▁ببعض	-10.1873
▁القانوني	-10.1873
▁ثلث	-10.1875
يتا	-10.1876
▁عادةً	-10.1878
▁الأك	-10.1883
▁الإسباني	-10.1884
▁كلم	-10.1885
▁ماركس	-10.1887
قوط	-10.1892
▁الإعلان	-10.1893
▁سين	-10.1895
▁كندا	-10.1898
جائزة	-10.1899
▁قبرص	-10.1899
سأل	-10.19
شط	-10.1901
▁كيف	-10.1902
▁الاجتماع	-10.1907
مناطق	-10.1909
خراج	-10.191
▁سعد	-10.191
▁1960	-10.1911
▁ودخل	-10.1916
▁يأتي	-10.1924
ستعمل	-10.1926
▁وضعت	-10.193
تقليل	-10.1932
▁يوما	-10.1934
▁إسطنبول	-10.1934
▁تور	-10.1938
▁السائد	-10.1939
▁إمارة	-10.1943
▁وتقع	-10.1944
▁لأي	-10.1945
▁حصلت	-10.1947
▁1980	-10.1947
خلاف	-10.1952
▁نيجيريا	-10.1952
▁يختلف	-10.1952
▁جعفر	-10.1953
▁السوداء	-10.1954
▁كونغ	-10.1957
▁بنحو	-10.196
▁لديهم	-10.1961
▁وله	-10.1961
as	-10.1962
ائط	-10.1962
إمكانية	-10.1966
▁سد	-10.197
▁الهدف	-10.197
▁تنتج	-10.1975
تسو	-10.1975
▁التنمية	-10.1976
▁الرابعة	-10.1977
بحوث	-10.198
▁ثقافي	-10.1984
داخل	-10.1988
سوار	-10.1989
▁الحقوق	-10.1991
▁أعقاب	-10.1992
خفي	-10.1998
▁الدنا	-10.1998
▁2010،	-10.1999
تدفق	-10.2003
▁تعدّ	-10.2004
▁وأُ	-10.2004
▁الكيميائي	-10.2006
مجتمع	-10.2007
▁مانديلا	-10.2014
▁بالكامل	-10.2014
▁الحضرية	-10.2017
انيين	-10.202
نيو	-10.2021
توازن	-10.2028
▁والز	-10.203
كف	-10.2032
▁("	-10.2033
▁الجنسي	-10.2042
صواريخ	-10.2045
▁البولندي	-10.2046
▁السلاجقة	-10.2047
▁الجبل	-10.2048
ni	-10.2048
▁لكي	-10.2053
إزالة	-10.2055
▁الشاعر	-10.2057
▁ويوجد	-10.2062
▁الشبكة	-10.2063
عائلات	-10.2068
▁حينها	-10.207
▁خطة	-10.2073
يِّ	-10.2075
صندوق	-10.2077
da	-10.2079
▁السماء	-10.2081
▁القرون	-10.2081
▁1989	-10.2082
فارق	-10.2082
▁الزكاة	-10.2084
▁العصبي	-10.2088
كُ	-10.2092
▁الآخرين	-10.2093
▁الفيروس	-10.2098
▁مدير	-10.21
ستقبل	-10.21
▁موجود	-10.2104
▁التركيب	-10.2106
▁وإذا	-10.2106
ربو	-10.2106
▁معين	-10.2106
تحقق	-10.2109
▁للحصول	-10.211
▁الطائرة	-10.211
▁محددة	-10.2112
▁يقارب	-10.2113
▁النطاق	-10.2117
▁2020	-10.2118
▁الشائع	-10.2118
حلف	-10.2124
جاج	-10.2124
▁وعبد	-10.2126
▁المتوقع	-10.2126
ربط	-10.2127
راسل	-10.213
فاوض	-10.213
نتي	-10.2137
▁هن	-10.2138
▁القلب	-10.2139
▁الصوديوم	-10.214
▁ظلت	-10.214
▁النهضة	-10.2141
عارف	-10.2141
أسر	-10.2143
▁يبدأ	-10.2143
روسية	-10.2143
▁وبدأت	-10.2149
▁الجمهوري	-10.215
▁إف	-10.2154
▁تولي	-10.2161
▁الطرف	-10.2164
عزيز	-10.2165
ing	-10.2167
▁الأسنان	-10.2167
▁التلفزيون	-10.2171
▁النرويج	-10.2171
▁البحري	-10.2173
▁الدكتور	-10.2174
حاق	-10.2181
▁الكيمياء	-10.2186
▁والغرب	-10.2187
▁رسمي	-10.2187
صغر	-10.2192
▁توزيع	-10.2196
إله	-10.2196
سُلطان	-10.22
▁مار	-10.2201
أشخاص	-10.2201
▁موتورز	-10.2203
▁التحليل	-10.2203
أسلحة	-10.2203
▁تحليل	-10.2205
▁الطائرات	-10.2206
▁اتصال	-10.2206
▁1997	-10.2208
فقد	-10.2208
اريا	-10.2209
▁صيف	-10.2211
بيب	-10.2211
▁تتمتع	-10.2213
▁البرنامج	-10.2217
▁معدلات	-10.2218
▁عرب	-10.2219
إعلان	-10.2221
اكي	-10.2222
▁الشريعة	-10.2225
▁الطعام	-10.2225
خور	-10.2225
▁المبكرة	-10.2227
راقب	-10.2232
▁ووصل	-10.2233
▁حفل	-10.2234
مود	-10.2236
أغراض	-10.2239
مريض	-10.2243
▁حرية	-10.2246
كوس	-10.2247
صاعد	-10.2247
نقطة	-10.2249
▁ومصر	-10.2253
▁الأخضر	-10.2254
لبي	-10.2254
▁غي	-10.2255
ؤمن	-10.2261
توصل	-10.2266
▁تعديل	-10.2267
▁الباحثين	-10.2267
شاط	-10.2268
▁سلالة	-10.2269
راغ	-10.2271
▁وجاء	-10.2271
▁وحدات	-10.2276
مرتفعات	-10.2281
▁الداخل	-10.2285
▁وفرنسا	-10.2295
▁قوله	-10.2297
ٍّ	-10.23
▁الفتح	-10.2303
▁أهداف	-10.2304
ريم	-10.2306
سَ	-10.2308
طعم	-10.2316
▁نف	-10.2318
▁كلها	-10.2324
▁الإنسانية	-10.2324
▁والهند	-10.2326
▁الأعظم	-10.2327
طع	-10.2328
يجي	-10.2329
▁ورئيس	-10.233
▁فع	-10.2331
▁المطاف	-10.2331
مفتوح	-10.2331
نر	-10.2333
▁وأم	-10.2333
ref	-10.2336
▁شن	-10.2338
▁فإنّ	-10.2341
ضطر	-10.2342
▁لاعب	-10.2343
▁النزاع	-10.2343
▁قدمت	-10.2348
بحيرة	-10.2352
▁لاحقاً	-10.2355
أسلوب	-10.2355
▁المقر	-10.2357
▁صحيفة	-10.2357
يرو	-10.2358
▁عربي	-10.2359
ازي	-10.2364
▁الثانوية	-10.2365
رحم	-10.2373
▁هرم	-10.2386
هذا	-10.2388
▁أعاد	-10.2389
▁الحار	-10.2389
▁الإذاعة	-10.2393
▁عمره	-10.2394
▁قمة	-10.2397
ذو	-10.24
عاش	-10.2404
▁تنقسم	-10.2409
▁الأولية	-10.2415
وكا	-10.242
▁التنظيم	-10.242
استقلال	-10.2421
▁الجنس	-10.2426
▁المنتجات	-10.2429
واقف	-10.2431
▁فأرسل	-10.2431
▁مؤ	-10.2435
▁سانت	-10.2439
▁w	-10.2443
▁والدول	-10.2444
▁معنى	-10.2445
▁خبر	-10.2446
▁نزل	-10.2446
▁ويعتقد	-10.2446
▁سمع	-10.2447
▁شديدة	-10.2447
▁موضع	-10.2451
▁خص	-10.2455
▁يقل	-10.2455
▁فروع	-10.2456
انتصار	-10.2457
▁بان	-10.2459
▁السوفيتية	-10.2464
▁الصناعي	-10.2468
▁فترات	-10.2471
شاد	-10.2473
▁والسياسي	-10.2474
▁إرسال	-10.2475
▁هيكل	-10.248
حاسب	-10.2483
▁أستراليا	-10.2485
كاس	-10.2488
▁80	-10.2496
▁وأد	-10.2497
▁والجنوب	-10.2498
▁النصر	-10.2499
▁وكتب	-10.2504
▁الربيع	-10.2507
▁السجن	-10.2512
▁دولية	-10.2516
▁الصهيونية	-10.2517
▁الفقه	-10.2518
▁شُ	-10.2521
▁اغتيال	-10.2523
▁رام	-10.2524
▁البيض	-10.2525
ثيو	-10.2525
▁باتجاه	-10.2526
▁أفكار	-10.2528
▁لعب	-10.2528
▁نظم	-10.2532
والد	-10.2532
▁اليهودي	-10.2533
تنقل	-10.2533
▁اقتصادي	-10.2535
▁العين	-10.2539
درا	-10.2542
بناء	-10.2546
▁يحصل	-10.2552
▁قديمة	-10.2552
2,	-10.2553
صاحب	-10.2556
▁الفيلم	-10.256
▁مجرد	-10.2561
▁قرابة	-10.2562
▁أكد	-10.2562
▁نشأ	-10.2565
وزارة	-10.2569
▁وبسبب	-10.2574
▁كبيراً	-10.2581
▁توقف	-10.2584
عدل	-10.2588
وظيفة	-10.2593
▁مغ	-10.2597
▁العنصر	-10.2597
عاء	-10.2598
▁الرشيد	-10.2599
▁الآلهة	-10.261
▁أماكن	-10.2612
يتس	-10.2614
▁المقام	-10.2619
▁القرنين	-10.262
▁المختار	-10.2623
هزيمة	-10.2624
▁العائلة	-10.2627
جديد	-10.2629
▁تاريخها	-10.2634
حادث	-10.2645
َيْ	-10.2648
جهاد	-10.265
▁الحيوية	-10.2651
▁استخدمت	-10.2652
روع	-10.2652
عتاد	-10.2654
os	-10.2656
بروتوكول	-10.2657
▁الأقصى	-10.2657
مفاهيم	-10.2657
▁التُرك	-10.2657
▁طبيعي	-10.2661
▁1956	-10.2661
▁فيروز	-10.2663
▁1975	-10.2664
▁المؤرخ	-10.2664
▁رُ	-10.2666
▁r	-10.2669
▁ويست	-10.2672
صادر	-10.2676
▁تحوي	-10.2682
▁جنو	-10.2686
▁سمي	-10.2686
ba	-10.2686
▁بلدة	-10.2687
جور	-10.2688
▁المباني	-10.2689
▁شؤون	-10.269
▁الأفلام	-10.269
▁المنظمات	-10.2691
▁معلومات	-10.2692
▁مسافة	-10.2692
▁المقابل	-10.2699
▁التق	-10.2701
▁العاص	-10.2706
▁الصحيح	-10.2707
▁الفارسية	-10.2712
قلاع	-10.2714
▁الأمة	-10.2715
▁التعامل	-10.2719
▁حدثت	-10.272
▁تصبح	-10.2722
▁التقدم	-10.2724
▁عُثمان	-10.2727
▁1918	-10.2732
▁الإف	-10.2737
▁السير	-10.2738
▁وأخ	-10.2739
▁خال	-10.2743
no	-10.2748
▁كاف	-10.2748
أكل	-10.2751
▁مراحل	-10.2757
▁مقدار	-10.2757
▁الصيد	-10.2757
9%	-10.2758
▁الأميركي	-10.276
▁الحقبة	-10.2763
▁الزراعي	-10.2763
▁اللغوي	-10.2764
▁الحاضر	-10.2767
▁(4	-10.2767
▁دينية	-10.2768
▁الخامسة	-10.2772
ed	-10.2775
فورد	-10.2775
▁تابع	-10.2776
▁زوجته	-10.2778
▁الوقود	-10.2779
▁الأنهار	-10.2779
▁السُ	-10.2787
▁عرقي	-10.2789
▁المؤلف	-10.2789
▁الجنرال	-10.279
▁ومُ	-10.2791
▁الكائنات	-10.2791
▁تأتي	-10.2792
تري	-10.2793
▁مدريد	-10.2793
▁i	-10.2793
جماعات	-10.2796
▁أعد	-10.2796
▁لحم	-10.2806
راعي	-10.2808
تداول	-10.281
ّق	-10.2823
اندماج	-10.2824
▁الكلمات	-10.2826
جذور	-10.2826
استبدال	-10.2826
▁طائرة	-10.2828
▁الهيكل	-10.2829
▁لجميع	-10.2833
▁سفر	-10.2838
▁الجاذبية	-10.2838
▁جين	-10.2839
▁النمط	-10.284
مواطن	-10.285
سترا	-10.285
▁الجماعات	-10.2852
عودة	-10.2854
▁سيطر	-10.2857
أوروبا	-10.2857
▁مشاكل	-10.2858
مقاطعة	-10.2858
مستعمرة	-10.2862
خطر	-10.2866
▁يؤ	-10.2876
▁عمله	-10.2877
طريق	-10.2878
اختصار	-10.2879
▁العقد	-10.2884
▁جول	-10.2891
°	-10.2892
▁المساجد	-10.2892
▁البوذية	-10.2893
▁1973	-10.2896
▁النحو	-10.2896
mi	-10.29
تأثير	-10.29
▁الروسي	-10.2901
▁الصفوي	-10.2902
▁الموضوع	-10.2903
▁المائية	-10.2904
▁المصريين	-10.2904
▁k	-10.2905
▁قتال	-10.2906
طلع	-10.2909
▁يدخل	-10.2909
▁مُراد	-10.2909
▁طبيعة	-10.291
▁مستقل	-10.2917
عاصر	-10.2917
▁وقبل	-10.2918
▁الجمهور	-10.2919
طاب	-10.2925
▁السلطنة	-10.2926
▁ديزني	-10.2926
▁الخام	-10.2935
▁de	-10.2942
هجوم	-10.2951
جول	-10.2955
▁قيل	-10.2955
▁ساهم	-10.2956
▁تجاري	-10.2957
▁سفينة	-10.2958
ستغرق	-10.2959
▁أغ	-10.2959
▁الأرجنتين	-10.296
▁كيميائي	-10.296
▁المملوكي	-10.296
▁المعادن	-10.296
▁الإشارة	-10.296
َهُ	-10.2962
▁زال	-10.2962
لقضاء	-10.2963
ملابس	-10.2965
▁والاجتماعي	-10.2971
▁مقال	-10.2972
سفينة	-10.2972
▁العُثماني	-10.2973
▁وبناء	-10.2977
▁إنّ	-10.298
▁خصائص	-10.2982
▁دوري	-10.2983
▁الأسماء	-10.2984
▁بالفعل	-10.2985
تنمية	-10.2987
▁&	-10.2988
▁إيزيس	-10.2994
فيزياء	-10.2995
▁الدعوة	-10.2995
فاصل	-10.2996
▁ذاك	-10.3007
فسر	-10.3008
po	-10.301
قيل	-10.3016
▁تبدأ	-10.3018
وجين	-10.3018
▁تزوج	-10.3019
▁فهرنهايت	-10.3026
▁السوفييتي	-10.3027
▁القطط	-10.3029
▁الألومنيوم	-10.303
▁سميت	-10.3032
▁المُت	-10.3033
▁الأجانب	-10.3037
▁المنورة	-10.3041
فتاح	-10.3041
زيل	-10.3043
▁400	-10.3045
▁حديد	-10.3045
▁بتاريخ	-10.3046
▁العُثمانيين	-10.3046
▁ببناء	-10.3048
بطولة	-10.3049
▁القائمة	-10.3051
شاش	-10.3052
ab	-10.3059
▁مئات	-10.3061
▁القضايا	-10.3063
▁يوحنا	-10.3063
▁توجه	-10.3064
▁جهود	-10.3064
▁والذين	-10.3064
▁الزواج	-10.3065
▁الاستثمار	-10.3065
▁الحمراء	-10.3068
▁1000	-10.3081
▁الأنظمة	-10.3093
▁الحساب	-10.3093
كربون	-10.3094
▁وإنما	-10.3096
زمن	-10.31
أولئك	-10.3102
▁وأبو	-10.311
▁بيع	-10.311
معرفة	-10.3113
▁بطول	-10.3114
فرقة	-10.312
حساب	-10.3122
سوس	-10.3123
ولوجية	-10.3126
▁سويسرا	-10.3132
▁وأكبر	-10.3133
▁جورجيا	-10.3136
َّار	-10.314
تعامل	-10.314
▁ممن	-10.3148
ديس	-10.3149
▁لعمل	-10.315
▁مستخدم	-10.3152
▁المنطق	-10.3155
إيطالي	-10.3162
▁الموحد	-10.3162
وافد	-10.3163
▁كهربائي	-10.3167
إجماع	-10.3167
أقليات	-10.3168
قوى	-10.3168
▁الآلاف	-10.3169
▁بيل	-10.3174
إنهاء	-10.3174
▁المستمر	-10.3178
▁الكندي	-10.3184
▁نشط	-10.3189
▁ينتج	-10.3192
▁السيد	-10.3197
شرب	-10.32
▁المقاطعات	-10.3203
▁وزن	-10.3204
▁تؤدي	-10.3215
▁التقويم	-10.3216
▁العلاء	-10.3218
▁خاض	-10.322
نحن	-10.322
=5	-10.3221
سوق	-10.3222
اعي	-10.3224
▁انهيار	-10.3224
▁الإسبان	-10.3225
▁اقتصادية	-10.3228
▁الوجود	-10.3231
▁إنسان	-10.3232
معنى	-10.3234
▁الناطق	-10.3238
أبجدية	-10.3239
▁وشمال	-10.3239
ستن	-10.324
أسطورة	-10.324
▁الاستقرار	-10.324
▁انقلاب	-10.324
▁الصفر	-10.3247
نظرية	-10.3251
رؤساء	-10.3254
▁وجهة	-10.3256
▁تقول	-10.3267
▁كاليفورنيا	-10.3272
فشل	-10.3272
▁والتعليم	-10.3272
▁الأدنى	-10.3272
▁1920	-10.3278
▁مور	-10.3279
▁تذكر	-10.328
▁والأدب	-10.3282
ؤدي	-10.3282
▁تطورت	-10.3287
▁واقع	-10.3291
صريح	-10.3291
▁الثنائي	-10.3292
▁والعراق	-10.3292
▁البابلي	-10.3293
فرانك	-10.3296
▁حروب	-10.3296
▁اختبار	-10.3298
▁انضم	-10.3302
▁الشهيرة	-10.3303
مركبات	-10.3304
▁المدار	-10.3314
▁نيسان	-10.3314
▁الرجل	-10.3316
▁خليفة	-10.332
▁التقاليد	-10.3328
ولو	-10.3328
يتهم	-10.3337
▁شقيق	-10.3343
▁البخاري	-10.3344
▁ورغم	-10.3346
di	-10.3346
عني	-10.3346
أبو	-10.3349
▁منخفضة	-10.3349
ph	-10.3355
▁الفيروسات	-10.3359
▁انخفض	-10.336
▁مجمع	-10.3368
هيئة	-10.3369
صيف	-10.3375
▁أمثال	-10.3377
▁فنزويلا	-10.3379
▁الكثافة	-10.3379
▁الاعتراف	-10.3379
▁المشاكل	-10.3379
▁الهادئ	-10.3379
▁المشهور	-10.3381
شرع	-10.3381
▁مبدأ	-10.3382
▁قرون	-10.3384
="3	-10.3385
▁البحار	-10.3391
نفوذ	-10.3392
▁عبيد	-10.3393
عاطف	-10.3394
▁أعظم	-10.3395
▁دورًا	-10.3398
▁التوالي	-10.3398
أفضل	-10.34
▁النموذج	-10.3401
خصوصاً	-10.3403
▁وضم	-10.3409
حرير	-10.341
▁ليكون	-10.341
▁حكمه	-10.3413
▁النتائج	-10.3414
▁الأحياء	-10.3414
▁المنخفضة	-10.3415
▁الجسيمات	-10.3416
ولوجيا	-10.3417
▁الأيام	-10.3419
خاطر	-10.3421
عدّ	-10.3431
لد	-10.3435
▁وأطلق	-10.3436
فيتنام	-10.3437
▁والشرق	-10.3445
حلق	-10.3446
▁المطلق	-10.345
▁الأيوبي	-10.3451
▁النواب	-10.3452
▁أزمة	-10.3453
ختلط	-10.3454
▁اللبنانية	-10.3456
▁1970	-10.3458
▁ممارسة	-10.3459
▁لكنَّ	-10.3459
▁يعدّ	-10.3465
▁طبقات	-10.347
شام	-10.3472
▁منصبه	-10.3472
▁الكهر	-10.3475
▁القيمة	-10.3477
so	-10.3478
▁كونها	-10.3481
فحص	-10.3484
ضبط	-10.3487
▁تعيش	-10.3489
▁إمبراطورية	-10.3489
سقف	-10.349
▁أذربيجان	-10.349
▁1988	-10.3491
▁جيوش	-10.3491
▁وآخر	-10.3492
▁المطار	-10.3496
▁ويكون	-10.3502
▁إلكترون	-10.3507
إضافة	-10.3508
▁احتلت	-10.3508
طائر	-10.3512
▁الأثر	-10.3517
▁تمر	-10.3518
رُو	-10.3519
رامية	-10.3519
نجا	-10.3522
▁يدعى	-10.3522
▁تدمير	-10.3523
▁العودة	-10.3523
استقبال	-10.3524
▁الفاتح	-10.3532
▁يمتد	-10.3533
نافس	-10.3533
▁عُمان	-10.3534
إيجاد	-10.3534
▁وطنية	-10.3535
بيض	-10.3535
فئ	-10.3536
▁كثيرًا	-10.3537
رسي	-10.3538
إسكندر	-10.3538
اختبار	-10.3539
▁فلما	-10.354
نقوش	-10.3541
تمتع	-10.3543
▁الصدر	-10.3549
▁صراع	-10.3553
احتلال	-10.3556
▁المعدنية	-10.3559
▁مقاتل	-10.3567
▁the	-10.3569
▁المعبد	-10.3569
▁الملح	-10.3571
رتب	-10.3576
زور	-10.3584
▁التونسي	-10.3585
▁نيو	-10.3585
▁ونتيجة	-10.3595
▁رسميًا	-10.3596
طبيعة	-10.3598
بروتون	-10.36
▁الحاجة	-10.3602
▁الصور	-10.3602
بعض	-10.3605
هذه	-10.3605
أمير	-10.3606
▁وأهم	-10.3611
▁الباقي	-10.3615
لسلطة	-10.3616
▁الأصوات	-10.3616
▁جسر	-10.3617
▁صفر	-10.3618
▁والبحر	-10.3619
▁المدني	-10.3622
▁عشرين	-10.363
▁الغزنوي	-10.3631
▁المراكز	-10.3631
تغيير	-10.3632
رشد	-10.3634
▁مسعود	-10.3634
ستين	-10.3635
وتس	-10.3637
أستاذ	-10.3638
▁صناعي	-10.364
▁النواة	-10.3641
▁شيخ	-10.3641
ورك	-10.3646
▁امتداد	-10.3647
▁الذري	-10.3651
وكي	-10.3651
تجنب	-10.3654
▁الطرفين	-10.3655
سلك	-10.3656
جزء	-10.3659
▁جلب	-10.3659
▁القرى	-10.366
▁انتهى	-10.3662
he	-10.3664
عابد	-10.3664
▁بعنوان	-10.3668
▁الجيوش	-10.3668
عاصمة	-10.3669
▁تسمح	-10.367
▁مؤقت	-10.3671
▁مشابه	-10.3671
سيف	-10.3671
خلص	-10.3671
▁عكا	-10.3672
▁احتمال	-10.3673
▁ورق	-10.3674
▁كجزء	-10.368
▁الأفراد	-10.3681
ناقش	-10.3683
كاي	-10.3684
▁الجلد	-10.3688
جيب	-10.369
▁الجامعي	-10.3691
▁ويعد	-10.3692
فرق	-10.3692
▁استمرار	-10.3695
▁توفير	-10.3698
▁الشاي	-10.3698
▁هيل	-10.3699
▁التوراة	-10.3705
▁للقوات	-10.3707
▁حقيقي	-10.3708
مستخدم	-10.3708
▁رسوم	-10.3708
▁وبحلول	-10.3712
شرطة	-10.3712
▁السريع	-10.3713
▁جنود	-10.3715
▁بالمدينة	-10.3724
▁الشريف	-10.3726
توقيع	-10.3727
ss	-10.3727
▁إنجلترا	-10.3728
بدء	-10.373
▁بإنشاء	-10.3742
▁ساعات	-10.3742
▁الاتصالات	-10.3743
▁نسخة	-10.3743
▁اليومية	-10.3754
مفهوم	-10.3764
محمية	-10.3767
▁المنتج	-10.377
افا	-10.377
▁الصغير	-10.3772
واحد	-10.3774
▁السياح	-10.3774
دبلوماسي	-10.3777
استكشاف	-10.3779
▁بقايا	-10.378
▁محاولات	-10.378
▁كرو	-10.3781
فارس	-10.3783
▁محكمة	-10.3785
غالي	-10.3793
تطوع	-10.3799
▁بنفس	-10.38
▁أرمينيا	-10.3803
▁ولما	-10.3809
حمد	-10.381
▁حمص	-10.3812
▁المحتمل	-10.3816
▁الصباح	-10.3816
إثبات	-10.3817
▁المستقلة	-10.3817
▁الأموال	-10.3821
▁سقطت	-10.3821
▁العُ	-10.3823
إمداد	-10.3825
▁بنفسه	-10.3831
▁شمس	-10.3834
▁الجبلية	-10.3837
▁الوجه	-10.3841
▁يمر	-10.3847
تقرير	-10.385
ضاعف	-10.3851
▁النحاس	-10.3852
▁الأشجار	-10.3855
▁ابتداء	-10.3855
▁الفعلي	-10.3856
تنسيق	-10.3858
كوف	-10.3858
▁عثر	-10.3859
▁الدائم	-10.3861
▁شارع	-10.3862
▁قصير	-10.3867
▁أبيه	-10.3869
▁وسيلة	-10.3873
▁الإلكترونية	-10.3875
ثيل	-10.3889
▁أوكرانيا	-10.3892
▁القلعة	-10.3892
be	-10.3892
▁الرسوم	-10.3893
▁الوليد	-10.3896
▁الفلور	-10.3904
▁المعالم	-10.3915
▁تدفق	-10.3916
ضخ	-10.3916
سمع	-10.3924
▁السنين	-10.3924
أخلاق	-10.3926
▁فإذا	-10.3928
▁التعريف	-10.3931
▁محلية	-10.3933
▁الهجري	-10.3934
هيمنة	-10.3936
ذان	-10.3938
ضغط	-10.3939
▁العثمانيون	-10.3941
▁كميات	-10.3944
▁انتشرت	-10.3946
نيل	-10.3947
▁للحكومة	-10.3952
▁آخرون	-10.3953
▁الحقيقة	-10.3956
غريب	-10.3958
يسر	-10.3959
ويد	-10.396
▁الظواهر	-10.3966
▁نبات	-10.3967
▁ويبدو	-10.3967
▁فنلندا	-10.3968
تعد	-10.3971
▁وخمس	-10.3972
▁ولايات	-10.3973
اكا	-10.3979
▁معاوية	-10.398
▁شامل	-10.398
إيمان	-10.398
▁ضخمة	-10.3983
▁العنف	-10.3983
▁يحكم	-10.3994
▁استقال	-10.3994
عصر	-10.3995
▁الإمارة	-10.4
أنماط	-10.4002
نشئ	-10.4003
▁قرن	-10.4005
▁الخطوط	-10.4005
▁الطبقات	-10.4007
▁سلاح	-10.4007
▁1974	-10.4009
▁تنتشر	-10.4009
="5	-10.4011
بود	-10.4017
دف	-10.4019
▁سفن	-10.4019
▁الإيمان	-10.402
▁مدارس	-10.4021
▁مريم	-10.4023
سطو	-10.4025
▁سيكون	-10.4039
محاصيل	-10.4042
▁مساحتها	-10.4042
▁الشيوخ	-10.4042
▁والعمل	-10.4043
▁إشارة	-10.4043
▁الأجهزة	-10.4046
▁الثوري	-10.4047
▁بلوتو	-10.405
حار	-10.405
▁جزءاً	-10.4052
شبيه	-10.4054
قائد	-10.4055
▁بوصفه	-10.4066
▁بحرية	-10.4067
▁التحكم	-10.4072
▁متزايد	-10.4077
تراجع	-10.4078
لعدة	-10.4078
تحالف	-10.4079
▁العوامل	-10.408
▁السائل	-10.4082
▁الدينِ	-10.409
زحف	-10.41
محاولة	-10.4104
▁الشاه	-10.4111
▁عالمية	-10.4112
نوي	-10.4114
▁الحادث	-10.4115
سنغافورة	-10.4118
▁الأسماك	-10.4118
▁المعارك	-10.4119
▁v	-10.412
▁1979	-10.4124
▁الفلكية	-10.4129
▁الحدث	-10.4131
▁وحصل	-10.4132
▁كرا	-10.4134
▁الموجود	-10.4136
▁ارتفع	-10.4139
▁وعد	-10.4142
pa	-10.4149
▁وقر	-10.415
أهداف	-10.4152
ممارسة	-10.4155
▁تاريخية	-10.4156
▁الأجسام	-10.4157
▁يشمل	-10.4157
▁التاريخي	-10.4158
توزع	-10.4159
درك	-10.416
▁الرادون	-10.4163
▁الحرية	-10.4163
▁آخرين	-10.417
▁عودة	-10.4172
▁فرنسي	-10.4177
▁درا	-10.4182
لجأ	-10.4193
▁اختار	-10.4194
▁صباح	-10.4196
غراف	-10.4198
▁شروط	-10.42
▁المعاصر	-10.4201
▁عبادة	-10.4204
▁هل	-10.4206
أبي	-10.4207
عظ	-10.4208
▁تجارة	-10.4209
فراد	-10.421
▁أسلوب	-10.4211
توسع	-10.4211
قيمة	-10.4212
▁تملك	-10.4218
تاي	-10.4219
▁المعاهدة	-10.4221
فنانين	-10.4224
▁تربط	-10.4226
▁برج	-10.4231
▁طبيعية	-10.4231
▁الانتداب	-10.4234
ضطهاد	-10.4234
تعويض	-10.4235
الجزائر	-10.4235
▁اللاحقة	-10.4237
▁موسكو	-10.4237
▁1947	-10.424
جبل	-10.4249
▁مشتركة	-10.4253
▁المحاكم	-10.4258
▁السعودي	-10.4266
▁ليوناردو	-10.4273
▁الأسواق	-10.4273
▁البلقان	-10.4273
طاط	-10.4274
▁التشريع	-10.4274
▁التشريعية	-10.4274
مساواة	-10.4275
بيريا	-10.4275
▁لتصبح	-10.4279
▁التنفيذية	-10.4282
▁السويسري	-10.4283
▁بالله	-10.4284
▁يجد	-10.4285
▁أمّ	-10.4287
وفرة	-10.4288
▁الرياضي	-10.4293
▁تدعى	-10.4294
ستثمار	-10.4294
▁الانقلاب	-10.43
حاسوب	-10.4303
▁افتتح	-10.4312
▁الحضارات	-10.4312
▁زيارة	-10.4313
▁القاضي	-10.4313
روق	-10.4314
▁كثيراً	-10.4314
تفاوت	-10.4315
قلب	-10.4316
▁تتألف	-10.4317
▁المنصب	-10.4318
▁تحتل	-10.4319
زج	-10.432
ممارسات	-10.432
مدارس	-10.4321
="8	-10.4322
▁آن	-10.4325
▁النازي	-10.4328
حاضر	-10.4328
▁فول	-10.433
▁الإرهاب	-10.4332
نصر	-10.4334
▁مهرجان	-10.4341
▁حضارة	-10.4342
أوروبي	-10.4344
▁اللبناني	-10.4345
▁أقسام	-10.4349
▁التوسع	-10.435
▁طراز	-10.4352
▁لفظ	-10.4353
▁تمامًا	-10.4353
▁الأردنية	-10.4353
▁كلمات	-10.4353
ng	-10.4356
▁الباردة	-10.4358
محطة	-10.436
بوذي	-10.4371
▁عرفات	-10.4373
صفر	-10.4374
حمي	-10.4379
توليد	-10.4386
▁أقر	-10.4386
▁عددًا	-10.439
انخفاض	-10.439
▁والثقافي	-10.4391
▁البرمجيات	-10.4391
▁اختراع	-10.4392
▁تعرضت	-10.4392
▁اختلف	-10.4393
▁حمض	-10.4397
تقييم	-10.4398
▁معسكر	-10.4398
3,	-10.4399
▁ظاهرة	-10.4402
▁بدوره	-10.4402
جام	-10.4407
▁الأخلاق	-10.4409
راكب	-10.4409
▁المائة	-10.441
انج	-10.441
▁العظم	-10.4414
▁المطبخ	-10.443
▁الأزمة	-10.4432
▁معهد	-10.4432
▁الصخور	-10.4434
▁والدين	-10.4439
▁القضية	-10.4439
▁الأصول	-10.4439
▁الدخل	-10.444
▁يؤمن	-10.4443
▁شكلت	-10.4447
تخلص	-10.445
▁التغيير	-10.4451
▁المعالج	-10.4452
▁لتكون	-10.4461
▁المجالات	-10.4464
▁يملك	-10.4467
تشكّل	-10.4471
▁أنصار	-10.4471
▁وزراء	-10.4472
▁بيان	-10.4472
▁الذكور	-10.4472
▁جرت	-10.4473
▁محت	-10.4473
▁اللازمة	-10.4473
▁1958	-10.4476
▁الصورة	-10.4477
▁الذرة	-10.4486
▁مظاهر	-10.4494
ومن	-10.4497
إنترنت	-10.4501
ذيب	-10.4508
أذن	-10.4509
▁الاهتمام	-10.451
▁ازداد	-10.451
▁يحتاج	-10.451
▁ألاسكا	-10.451
▁هاجم	-10.451
▁الحركات	-10.451
▁القدماء	-10.4512
▁محطات	-10.4514
▁المشاركة	-10.4515
عشر	-10.4515
▁سجن	-10.4515
▁1941	-10.4517
▁ورو	-10.452
متاحف	-10.4521
▁يتميز	-10.4526
تقدير	-10.453
▁الفلكي	-10.453
حاط	-10.4532
▁البدو	-10.4532
▁أهلها	-10.4532
▁فما	-10.4533
▁النمساوية	-10.4533
▁المشرق	-10.4534
▁وتحت	-10.4537
كلف	-10.4539
كنائس	-10.4541
عزز	-10.4545
ns	-10.4547
▁أطراف	-10.455
▁شملت	-10.4551
▁مبارك	-10.4551
▁الفلز	-10.4552
▁مستقر	-10.4553
▁الحاج	-10.4554
▁يجري	-10.4555
▁تمثيل	-10.4556
▁الأمين	-10.456
▁قائم	-10.4561
مختلف	-10.4563
▁وعُ	-10.4564
إصابة	-10.4565
فيس	-10.4583
▁لاحقا	-10.4583
▁ظروف	-10.459
▁جوزيف	-10.459
▁بناءً	-10.4599
si	-10.4605
▁الشخصيات	-10.4605
▁محور	-10.4611
▁الناصرة	-10.4611
-18	-10.4613
▁الفت	-10.4619
▁فرقة	-10.4619
▁ومعظم	-10.4621
▁حكومي	-10.4634
▁التنوع	-10.4639
▁لتلك	-10.464
▁المشتري	-10.464
سياس	-10.4642
,7	-10.4646
▁سيناء	-10.4646
ِّل	-10.4653
▁بيرو	-10.4656
أحمد	-10.4657
▁عزل	-10.4658
▁(15	-10.4663
بقى	-10.4666
▁كبيرا	-10.4666
▁هزم	-10.4669
▁أسم	-10.467
▁الليثيوم	-10.4671
كمبيوتر	-10.4671
▁الروايات	-10.4671
ation	-10.4673
▁1962	-10.4677
▁ليصبح	-10.4677
▁البيزنطيين	-10.4679
="1	-10.4679
▁بقيت	-10.4681
▁الإطلاق	-10.4682
▁يقدم	-10.4687
حماية	-10.4696
سيس	-10.4707
▁مرت	-10.4707
▁السلاح	-10.4708
▁الزئبق	-10.471
إندونيسيا	-10.4711
▁الأقاليم	-10.4711
مكافحة	-10.4713
▁الجيولوجي	-10.4715
▁القراءة	-10.4716
▁(5	-10.4718
إنجازات	-10.4718
▁1917	-10.472
▁التربة	-10.4723
▁الملوك	-10.4724
▁اشتر	-10.4725
▁رصد	-10.4727
وزير	-10.4733
▁أمور	-10.4734
▁رسمياً	-10.4752
▁بوليفار	-10.4752
▁أسبوع	-10.4752
جماهير	-10.4753
▁تدريب	-10.4753
▁لإنتاج	-10.4756
▁المسافة	-10.4758
▁ذوي	-10.4758
▁1949	-10.4759
▁1963	-10.476
▁أظهرت	-10.4765
▁كارل	-10.4766
▁ونقل	-10.477
▁مؤشر	-10.4773
▁مطلع	-10.4779
▁السويدية	-10.4788
عتقل	-10.4789
▁لأكثر	-10.4789
▁واليهود	-10.4789
▁غادر	-10.479
▁150	-10.4792
أفلاطون	-10.4793
▁كبرى	-10.4794
▁جيشه	-10.48
▁1964	-10.4801
كسب	-10.4805
▁طرد	-10.4805
▁خروج	-10.4806
▁توقيع	-10.4811
▁بيانات	-10.4816
وعد	-10.4818
▁فلور	-10.4818
▁ربط	-10.4819
الإ	-10.482
فندق	-10.4826
▁وثيقة	-10.4826
▁وقامت	-10.4828
متوسط	-10.4828
أهرام	-10.4829
▁يدعو	-10.4832
▁تحسين	-10.4833
▁ومركز	-10.4833
▁التصوير	-10.4834
▁هجمات	-10.4835
▁مماثلة	-10.4836
حيث	-10.4837
▁مرتفعة	-10.4837
com	-10.4845
حضارة	-10.4845
▁وتضم	-10.4855
▁سيارة	-10.4855
▁القانونية	-10.4856
▁نمط	-10.4862
▁قوى	-10.4862
طير	-10.4867
َلَ	-10.4873
▁ارتباط	-10.4876
ad	-10.4876
تعيين	-10.4877
▁دراسته	-10.4877
▁1982	-10.4881
أجهزة	-10.4882
▁حقيقة	-10.4883
▁قيد	-10.4884
▁تركيز	-10.489
▁يستعمل	-10.4892
▁ومنهم	-10.4893
أنواع	-10.4893
▁لابن	-10.4902
غلي	-10.4903
▁أولاد	-10.4905
fe	-10.4908
شركات	-10.4908
▁بفضل	-10.491
▁الأغلبية	-10.491
▁مواجهة	-10.491
جلد	-10.4911
▁ترتبط	-10.4912
أحزاب	-10.4914
▁إستونيا	-10.4917
▁الممالك	-10.4917
▁الفلاح	-10.4918
أنصار	-10.4919
▁آذار	-10.4919
▁الأمريكيين	-10.4921
▁العبرية	-10.4922
▁بضعة	-10.4922
▁إثيوبيا	-10.4923
▁1939	-10.4925
▁أحيانًا	-10.4929
وفاة	-10.4939
مسجد	-10.4946
▁استقلالها	-10.4947
لحفاظ	-10.4955
▁الصحراوي	-10.4959
خترع	-10.4959
▁التقنية	-10.4961
▁الإصلاحات	-10.4962
▁الإنجليزي	-10.4963
تعليق	-10.4973
ملف	-10.4974
ميزانية	-10.4976
▁أقوى	-10.4984
▁والمعروف	-10.4987
▁اصط	-10.4987
رياح	-10.4988
▁ومنظمة	-10.4996
حور	-10.4998
ازدهرت	-10.5001
▁المفاوضات	-10.5001
▁البصرة	-10.5002
▁التطبيقات	-10.5003
▁الوهاب	-10.5006
▁الهامة	-10.5014
▁الروس	-10.5014
تقام	-10.5015
▁افتتاح	-10.5015
جح	-10.5021
▁الكار	-10.5023
▁ينص	-10.5038
▁محلي	-10.5041
▁الصحافة	-10.5043
▁الإلكترونات	-10.5044
▁تقنية	-10.5047
▁برلمان	-10.5048
▁1981	-10.5049
طريقة	-10.5053
باقي	-10.5055
▁الفضل	-10.5055
▁فكر	-10.5055
أدب	-10.5057
▁السريعة	-10.5065
▁والثقافة	-10.5074
▁الحرف	-10.5078
▁وتكون	-10.5083
▁أُخرى	-10.5085
▁عوامل	-10.5085
▁المؤرخون	-10.5086
▁l	-10.5087
ِّد	-10.5088
▁غالباً	-10.509
الفينيقي	-10.509
▁للاست	-10.5091
▁1971	-10.5091
▁تلت	-10.5091
▁1961	-10.5091
نحو	-10.5093
▁مقياس	-10.5101
جبال	-10.5109
مطار	-10.5114
▁باكو	-10.5115
بطل	-10.5115
▁الموسم	-10.5118
▁التحقيق	-10.512
▁يعادل	-10.5121
▁جال	-10.5123
▁امرأة	-10.5127
ْل	-10.5128
▁الخمسة	-10.5128
▁الأشياء	-10.5129
▁تسجيل	-10.513
جنس	-10.513
▁يتمتع	-10.5132
▁أدنى	-10.5134
▁النسبة	-10.5136
▁1965	-10.5136
ci	-10.5137
تضخم	-10.5137
▁رئيسًا	-10.5139
▁السكر	-10.5141
ig	-10.5147
زول	-10.5147
قناة	-10.5149
▁خسر	-10.5156
محتوى	-10.5161
ul	-10.5162
▁الشهير	-10.5163
صعوبة	-10.517
▁يُع	-10.5171
▁مقعد	-10.5172
▁النيجر	-10.5173
▁الألف	-10.5173
▁السياحية	-10.5175
▁الآسيوي	-10.5175
▁واضحة	-10.5176
▁بقوة	-10.5177
0.000	-10.5178
▁الحماية	-10.5181
▁الوزير	-10.5181
vi	-10.5183
▁كوبا	-10.5188
▁المنتخب	-10.5189
▁الهولندية	-10.519
برامج	-10.519
▁تزيد	-10.5192
▁المعمارية	-10.5195
سجن	-10.5195
▁يريد	-10.52
▁تنوع	-10.5202
َّق	-10.5202
▁والصين	-10.5202
▁ألا	-10.5204
▁التركي	-10.5206
tr	-10.5206
▁دوران	-10.5207
▁كتابات	-10.521
▁الحص	-10.5212
▁مصطفى	-10.5212
▁الأفكار	-10.5213
▁كرواتيا	-10.5213
تشجيع	-10.5213
▁الزيتون	-10.5215
▁1972	-10.5218
▁النازية	-10.5223
▁قضية	-10.523
حزام	-10.5232
ir	-10.5234
زق	-10.5236
▁تنص	-10.5237
▁يسبب	-10.5239
غادر	-10.5239
كش	-10.5242
▁مارك	-10.5245
▁دولي	-10.5246
▁حفر	-10.525
▁بجانب	-10.5255
-35	-10.5257
▁الكروات	-10.5258
أداة	-10.5259
▁مستشفى	-10.526
▁رشيد	-10.5264
▁أنقرة	-10.5264
▁لمدينة	-10.5264
▁الانتخاب	-10.5266
رجل	-10.5269
▁هونغ	-10.5274
قاضي	-10.5276
▁واستمرت	-10.5284
▁السفر	-10.5288
,5	-10.5291
▁عادت	-10.5295
▁المعدل	-10.5296
▁ليلة	-10.53
▁مسألة	-10.53
إحياء	-10.5302
▁أبواب	-10.5303
▁الطيران	-10.5307
▁بمدينة	-10.5314
▁زياد	-10.5314
وضوح	-10.5316
▁وتوفي	-10.5322
▁رؤية	-10.5322
▁الصحي	-10.5323
im	-10.5331
▁كولومبيا	-10.5333
ho	-10.5339
▁بروسيا	-10.5342
▁منتج	-10.5347
▁عدّة	-10.5347
▁الأسباب	-10.5348
حافلات	-10.5349
▁أدرك	-10.5352
▁يربط	-10.5353
▁البصري	-10.5353
▁البرتغالية	-10.5354
▁القواعد	-10.5354
▁مشترك	-10.5368
▁الشؤون	-10.537
▁نقاط	-10.5371
ريق	-10.5374
▁أغلبية	-10.5382
▁والجماعة	-10.5385
فلاسفة	-10.5386
▁وسوريا	-10.5386
▁والاتحاد	-10.5387
▁ضعيف	-10.5388
▁ياسين	-10.5391
آثار	-10.5392
▁الرواية	-10.5392
▁وإعادة	-10.5393
▁رحلة	-10.5393
▁جيدة	-10.5394
▁محدودة	-10.5403
▁وطني	-10.5405
بذل	-10.5409
▁نواة	-10.5413
▁الأديان	-10.5418
va	-10.542
▁فئة	-10.542
ستهلك	-10.542
▁الطبي	-10.5424
▁اللاجئين	-10.5426
▁تقدر	-10.5429
▁البُويهي	-10.5429
▁اتخاذ	-10.5429
▁الفلبين	-10.5429
تحضير	-10.543
▁للاتحاد	-10.543
▁اللاعب	-10.5434
▁للجيش	-10.5436
▁أطلقت	-10.5436
▁مراد	-10.5441
▁رؤ	-10.5444
100	-10.5455
▁دب	-10.5456
▁أعيد	-10.5456
ستقر	-10.5457
▁صلاة	-10.5459
ريان	-10.5461
▁بدلا	-10.5461
▁جغرافي	-10.5462
طوب	-10.5467
عداء	-10.5467
▁الإكوادور	-10.5473
▁يعقوب	-10.5473
▁لاتفيا	-10.5473
جنوب	-10.5473
إنقاذ	-10.5474
ؤول	-10.5476
▁الأكاديمية	-10.5476
▁طنجة	-10.5476
▁الخشب	-10.5481
▁تماما	-10.5483
▁تموز	-10.5483
▁العبيد	-10.5486
▁الراديو	-10.5491
فقهاء	-10.5492
▁معالم	-10.5494
▁عنوان	-10.5501
▁(17	-10.5503
▁ونشر	-10.5507
تناسب	-10.5507
▁الإسلاميَّة	-10.5509
▁محاكم	-10.5514
بالغ	-10.5514
▁الأُمراء	-10.5517
▁نابلس	-10.5517
▁وعشرين	-10.5518
▁للعديد	-10.5519
▁البنك	-10.5519
▁ولعل	-10.5523
▁السامية	-10.5524
▁الرابطة	-10.5524
مسرح	-10.5525
▁الدنيا	-10.5527
▁1940	-10.5527
▁آدم	-10.5528
▁والعلوم	-10.5534
▁تصف	-10.554
▁لعبة	-10.5543
▁عرش	-10.5545
▁العقيدة	-10.5546
▁كيفية	-10.5546
▁الهيئة	-10.555
▁بفعل	-10.5552
كبر	-10.5552
▁والهرسك	-10.5561
▁الأحوال	-10.5561
▁مشاريع	-10.5561
▁بالذكر	-10.5563
▁الكوفة	-10.5565
ec	-10.5566
▁الموسيقي	-10.5569
نجد	-10.5572
▁رسميا	-10.5573
▁القادمة	-10.5575
▁القرية	-10.5576
▁تُعرف	-10.5581
▁السلوك	-10.5584
فرنسي	-10.5587
ka	-10.5594
▁الحيوي	-10.5597
موسيقي	-10.5602
▁الألفية	-10.5602
بايع	-10.5604
▁عيسى	-10.5606
▁بدايات	-10.5607
▁عصبة	-10.5607
▁إسلامية	-10.5609
نتصر	-10.561
▁فأصبح	-10.561
▁السرعة	-10.5612
ضرار	-10.5612
▁جعلت	-10.5613
▁فرانس	-10.5614
▁المهدي	-10.5624
قطر	-10.5625
فضلاً	-10.5637
▁القضائية	-10.5639
غناء	-10.5641
▁فإنَّ	-10.5643
▁القائم	-10.5645
جوائز	-10.565
▁قرطاج	-10.565
تلاميذ	-10.565
▁أصدرت	-10.565
▁واستطاع	-10.5651
▁الثابت	-10.5651
▁أيلول	-10.5651
▁1976	-10.5657
▁تجاوز	-10.5658
▁الزبير	-10.5663
ريج	-10.5666
غرام	-10.5668
▁منفصلة	-10.5671
▁ساحة	-10.5674
▁لوحة	-10.5676
زاوية	-10.5677
▁بدورها	-10.568
خليفة	-10.5694
▁يحيى	-10.5696
▁لعدد	-10.5696
▁المتعددة	-10.5697
كاثوليك	-10.5701
▁المعاصرة	-10.5706
▁أموال	-10.5708
▁استعادة	-10.5709
▁رع	-10.5719
أقوال	-10.5723
نقود	-10.5727
▁جنسي	-10.5736
▁الفارسي	-10.5739
▁بَابِل	-10.574
▁الأطراف	-10.574
▁الحكومات	-10.574
▁الريحاني	-10.574
▁بمساعدة	-10.574
▁معالجة	-10.5743
الثانوي	-10.5743
▁نسبياً	-10.5748
تحرر	-10.5748
▁الأوروبيين	-10.5749
أحياناً	-10.5755
▁مطالب	-10.5755
▁بولس	-10.5762
▁كثيرا	-10.5763
تكرار	-10.5766
▁لادن	-10.577
▁سنوي	-10.577
▁وبشكل	-10.5772
شئ	-10.578
▁تويوتا	-10.5785
▁اندلعت	-10.5785
▁التصويت	-10.5785
▁الشافعي	-10.5785
▁القيصر	-10.5786
أنظمة	-10.5787
▁أجنبي	-10.5787
▁الابتدائية	-10.5789
سبعينيات	-10.579
▁أفلام	-10.5791
ga	-10.5792
▁1987	-10.5792
حتجاج	-10.5796
معركة	-10.5796
▁ملم	-10.5797
▁العدل	-10.58
▁تعطي	-10.5805
▁نصوص	-10.5805
طاعة	-10.5811
▁الموسيقية	-10.5819
لحن	-10.5819
▁الفرنسيين	-10.582
▁أوستن	-10.5822
▁يا	-10.5826
▁ممكن	-10.583
▁كلينتون	-10.5831
منشآت	-10.5831
أحماض	-10.5832
▁بسهولة	-10.5833
▁معتدل	-10.5833
فيضان	-10.5836
ثقل	-10.584
▁الألبان	-10.5847
▁1950	-10.5847
برغ	-10.5847
ts	-10.5852
▁صرح	-10.5854
▁تعزيز	-10.5855
تمركز	-10.5864
▁استعمل	-10.5866
▁طُ	-10.587
ازدياد	-10.5876
▁تنتمي	-10.5877
▁وتحديد	-10.5877
▁ويرجع	-10.5879
▁الريفية	-10.5881
امتدت	-10.5891
▁وجامعة	-10.5891
▁يدل	-10.5891
▁مشاهد	-10.5899
▁نشرت	-10.59
شيوعي	-10.5903
▁عدو	-10.591
▁المعماري	-10.5918
▁ينبغي	-10.5922
▁معارك	-10.5925
▁للحرب	-10.5925
▁الزهرة	-10.5928
▁ونصف	-10.593
▁بصفة	-10.5931
▁منهج	-10.5934
▁القرص	-10.5936
▁المجمع	-10.5937
حث	-10.5939
▁الإصدار	-10.5945
▁البيولوجي	-10.5954
يَّات	-10.5955
▁الإلكتروني	-10.5955
جهاز	-10.5962
نزاعات	-10.5966
▁غالبا	-10.5967
▁الهيليوم	-10.5968
▁احتل	-10.5969
▁مزيج	-10.5969
▁بطرس	-10.597
▁الأمثلة	-10.5971
▁الوحدات	-10.5971
▁يقود	-10.5972
فتر	-10.5974
▁الرئاسية	-10.5978
▁مهام	-10.598
▁النشيد	-10.5985
▁صفوف	-10.5987
▁يترك	-10.5994
آن	-10.5997
▁سنويًا	-10.5999
▁الواسع	-10.6
▁نصيب	-10.6002
▁يُعد	-10.6008
▁الأساطير	-10.6012
▁استفتاء	-10.6015
فرسان	-10.6016
▁المزارع	-10.6016
▁القريبة	-10.6017
▁لتحقيق	-10.6018
تحقيق	-10.6018
▁تهدف	-10.6019
▁أجريت	-10.6023
قوانين	-10.6027
سلطان	-10.6041
▁ضخم	-10.6046
▁المعنى	-10.6053
مستشفى	-10.6057
▁الذاكرة	-10.6061
تساقط	-10.6063
▁الثقافات	-10.6064
▁أحدث	-10.6065
▁الأدوية	-10.6068
▁1978	-10.6068
-2	-10.6068
خلو	-10.6069
▁الصعيد	-10.6074
▁الحجاج	-10.6074
▁الأسطول	-10.6081
▁سنوياً	-10.6092
▁يتمكن	-10.6101
▁اندلاع	-10.6108
▁طيلة	-10.611
▁البورون	-10.6115
▁1986	-10.6116
▁تأسس	-10.6116
▁تيتان	-10.6117
▁الزهري	-10.6118
زوار	-10.612
▁الدرزي	-10.612
عقائد	-10.6121
▁الانفجار	-10.6126
▁الأمازيغ	-10.6128
▁النظريات	-10.6136
op	-10.6136
الله	-10.6138
شارع	-10.6142
▁ينتمي	-10.6144
شهود	-10.6146
▁الرئاسة	-10.6149
▁مُن	-10.6149
▁منافس	-10.6154
▁المؤمنين	-10.6155
▁وبالرغم	-10.6156
▁التجارب	-10.6156
▁طابع	-10.6157
▁هنالك	-10.6158
▁الإست	-10.6158
▁الاستيلاء	-10.6161
▁1955	-10.6163
▁1944	-10.6164
▁وهران	-10.6165
أعياد	-10.6166
▁نار	-10.617
▁منتجات	-10.617
▁للأرض	-10.6179
▁الهولندي	-10.6181
▁المشترك	-10.6184
▁الأدوات	-10.6185
▁ضدَّ	-10.619
لجنة	-10.6194
فريد	-10.6202
▁مكتوب	-10.6202
▁الفساد	-10.6203
▁أرسطو	-10.6204
▁الفيزيائية	-10.6205
دروس	-10.6207
▁أصيب	-10.6208
▁أوروبية	-10.6209
كير	-10.6209
تقريب	-10.621
▁بلغراد	-10.6211
▁المناعة	-10.6212
نهض	-10.6214
ذار	-10.6218
▁مروان	-10.6219
جسم	-10.6225
▁الأطباء	-10.6226
▁النور	-10.6228
▁بأمر	-10.6231
محمد	-10.6234
مبادرة	-10.6241
▁الفيدرالي	-10.6249
▁هنري	-10.6251
▁البيئية	-10.6256
▁الساماني	-10.6256
▁قُتل	-10.6256
قوافل	-10.6266
تراكم	-10.6269
▁1919	-10.6269
▁لعبت	-10.6271
▁دينار	-10.6273
▁الجدار	-10.6287
▁محدود	-10.629
سعيد	-10.6292
▁الغذاء	-10.6297
▁الزاوية	-10.6297
حوادث	-10.6298
▁العموم	-10.63
تخفيف	-10.63
▁الخلفاء	-10.63
▁مبنى	-10.631
▁قبر	-10.631
توجد	-10.6313
="12	-10.6318
إعلام	-10.632
▁وتعني	-10.6324
▁بوضع	-10.6327
▁شيئا	-10.6329
▁ومحمد	-10.6329
▁تحولت	-10.633
شاور	-10.6331
انظر	-10.6338
▁طفل	-10.6338
قسيم	-10.6339
شيع	-10.634
▁غوبلز	-10.6345
حرص	-10.6346
ثمانينيات	-10.6347
▁مرتبطة	-10.6347
اغتيال	-10.6347
▁موجات	-10.6348
▁وانضم	-10.6351
▁1953	-10.6352
▁1983	-10.6352
أبراج	-10.6352
▁ولهذا	-10.6353
▁يُعتقد	-10.6357
▁أحادي	-10.6363
كلاهما	-10.6363
▁الأصغر	-10.6365
▁حامل	-10.6366
▁إنجيل	-10.6366
▁يرتبط	-10.637
▁اليسار	-10.6373
جود	-10.6374
بدع	-10.6375
▁ساهمت	-10.6376
زدهار	-10.6387
▁النقي	-10.6391
▁إضافية	-10.6393
▁البلطيق	-10.6393
▁الهجمات	-10.6393
▁لينين	-10.6395
▁الارتفاع	-10.6395
▁غينيا	-10.6395
▁ساد	-10.6399
▁يصف	-10.64
▁1968	-10.6401
▁اهتم	-10.6402
▁1936	-10.6402
▁تسميته	-10.6408
▁الوثائق	-10.6412
▁المنصور	-10.6413
وهو	-10.6413
موند	-10.6426
▁الجسر	-10.6426
سفن	-10.6428
▁ريتشارد	-10.6441
▁البحيرات	-10.6441
ضاع	-10.6441
▁السينما	-10.6442
أقراص	-10.6443
▁المقدوني	-10.6443
▁الجدول	-10.6444
▁الأبحاث	-10.6452
▁وأسس	-10.6453
▁أعطى	-10.646
▁استقرار	-10.6465
عقيدة	-10.6469
▁برئاسة	-10.6478
▁مؤسسات	-10.6478
دليل	-10.6481
أسماء	-10.6487
موريتانيا	-10.6488
▁للحزب	-10.6488
▁الرأسمالي	-10.649
▁الاستوائية	-10.649
▁تيانجين	-10.649
▁لتحديد	-10.649
ضريبة	-10.6493
▁طائرات	-10.6493
يٍّ	-10.6495
▁مسلح	-10.6499
▁عدن	-10.6501
▁السكري	-10.6503
300	-10.6508
▁الخصائص	-10.6511
▁كافية	-10.6517
▁القطري	-10.6521
▁أداء	-10.6522
▁العمران	-10.6522
قاعدة	-10.6525
وقود	-10.6528
▁سواحل	-10.6539
▁يمتلك	-10.6539
▁ألماني	-10.654
كتف	-10.6542
▁الأعداد	-10.6545
رقص	-10.6545
▁يُعتبر	-10.6547
▁الخروج	-10.6548
▁اجتمع	-10.6555
▁أحيانا	-10.6559
▁انضمت	-10.656
▁أظهر	-10.6561
▁الأرثوذكس	-10.6566
▁وأقام	-10.6576
▁إلغاء	-10.6588
▁الأجزاء	-10.6588
▁تصوير	-10.6588
▁المطلوب	-10.6588
▁الميثان	-10.6588
▁تجعل	-10.6589
غطاء	-10.6593
▁يعطي	-10.6594
▁كارلوس	-10.6596
▁القادم	-10.6623
▁أشد	-10.6623
▁سائر	-10.6623
كويت	-10.6636
لعلماء	-10.6637
▁المرضى	-10.6639
▁الحمداني	-10.664
آداب	-10.664
▁يتألف	-10.6646
▁جيمس	-10.6647
▁سلطات	-10.6647
▁انطلاق	-10.6648
▁المحور	-10.6649
نيك	-10.665
▁والتنمية	-10.6661
▁يتطلب	-10.6663
تباين	-10.6664
▁الرمل	-10.6666
▁القاسم	-10.667
سلاح	-10.6671
ولوجي	-10.668
سيب	-10.6682
▁الاعتقاد	-10.6686
▁وظائف	-10.6687
▁القوقاز	-10.6687
▁الفحم	-10.6689
▁منتظم	-10.669
▁الجولان	-10.669
مكتب	-10.6692
▁يونس	-10.6694
▁يأخذ	-10.6695
آلهة	-10.6696
▁ميلادي	-10.6706
▁بدعم	-10.6706
إبادة	-10.6709
▁يتجاوز	-10.6712
▁الأمازيغية	-10.6721
جاد	-10.6724
▁مستقبل	-10.6734
حسان	-10.6735
▁الضوئي	-10.6736
انتقادات	-10.6736
▁المشاريع	-10.6736
▁هامبورغ	-10.6738
سلاسل	-10.6741
▁الأوائل	-10.6743
▁بحق	-10.6745
▁موجة	-10.6749
خسارة	-10.675
ميّز	-10.6759
▁لبناء	-10.6761
▁فضلا	-10.6774
حذر	-10.6778
=12	-10.6781
▁ويعود	-10.6784
▁الليبرالي	-10.6786
▁أثينا	-10.6786
▁الأسبرين	-10.6786
▁العنصري	-10.6786
▁النجاح	-10.6787
▁الهاتف	-10.6789
▁مكعب	-10.679
▁1959	-10.6792
▁حملات	-10.6792
▁1984	-10.6793
▁1966	-10.6794
▁1946	-10.6794
▁السادات	-10.68
مهرجان	-10.6801
▁يرت	-10.6809
سكا	-10.6809
نجم	-10.6811
▁دمر	-10.6815
▁يشبه	-10.6821
رؤية	-10.6823
إقليم	-10.6826
شبكة	-10.6828
نيوترون	-10.6837
;/	-10.6837
▁ناجح	-10.6838
▁1969	-10.6844
▁ناتج	-10.6849
أصوات	-10.6851
▁سنويا	-10.6852
▁أسفل	-10.6855
▁والمملكة	-10.6859
▁قمر	-10.6859
▁ويذكر	-10.6865
تعلق	-10.6875
مشروع	-10.6879
▁للسلام	-10.6881
▁الاصطناعي	-10.6887
▁الصغرى	-10.6887
▁بأكمله	-10.689
▁الحقل	-10.689
▁تيمور	-10.6891
▁أسود	-10.6895
▁جمهور	-10.6897
▁واعتبر	-10.6899
▁التركيز	-10.6902
استجابة	-10.6919
رأى	-10.6922
طعام	-10.6929
عناصر	-10.693
ثنائي	-10.6934
جماعة	-10.6935
▁الضخمة	-10.6938
▁للولايات	-10.6938
▁تدمر	-10.694
▁المتقدمة	-10.694
▁الدقيقة	-10.6942
▁فلوريد	-10.6946
نكر	-10.695
رور	-10.6955
دُّ	-10.6957
حكيم	-10.6958
نخب	-10.6971
▁نسبته	-10.6977
▁ولمَّ	-10.6986
▁المغنيسيوم	-10.6989
▁المحرك	-10.6989
محاربة	-10.6991
▁1985	-10.6997
▁1921	-10.6999
▁ثماني	-10.7009
بغداد	-10.701
نهاية	-10.7013
▁رومانيا	-10.7014
إرهاب	-10.7019
رخص	-10.702
مئتين	-10.702
ظلم	-10.7032
▁مضاد	-10.7039
▁الانسحاب	-10.704
▁المستعمرات	-10.704
▁الأشكال	-10.704
▁التنفيذي	-10.7041
▁لإعادة	-10.7045
▁القرم	-10.7052
▁حيوي	-10.7055
▁وقوع	-10.7056
قيادة	-10.7057
ؤلف	-10.7057
عجل	-10.7058
▁تشبه	-10.7059
▁الخوارزمي	-10.7062
▁انتخب	-10.7062
▁يكتب	-10.7063
صراع	-10.7068
▁الألب	-10.7071
ذهاب	-10.7073
▁لدراسة	-10.7086
لائم	-10.7088
400	-10.709
إصدار	-10.7091
▁البضائع	-10.7092
▁طائفة	-10.7092
▁الهنود	-10.7092
▁الطيور	-10.7093
▁المرتبطة	-10.7093
تخفيض	-10.7093
▁شعبي	-10.7099
أوكراني	-10.7103
▁رسائل	-10.7105
القوات	-10.7108
انهيار	-10.7117
fi	-10.712
تصف	-10.7122
قلق	-10.7127
وغراف	-10.7128
▁زحل	-10.713
نتظر	-10.7131
جريمة	-10.7133
تصفح	-10.7138
ممّا	-10.714
▁مركّبات	-10.7143
انبعاث	-10.7143
▁مرتين	-10.7146
▁غرار	-10.7169
▁جوهر	-10.717
ندل	-10.7172
▁سلوك	-10.7173
قرض	-10.7181
مجال	-10.7192
▁مقدونيا	-10.7195
▁الأمازون	-10.7196
▁ماليزيا	-10.7196
▁الفنلندي	-10.7197
عطاء	-10.7198
▁عطارد	-10.7202
▁الأخبار	-10.7203
▁ووقع	-10.7207
▁عميق	-10.721
تطرف	-10.7211
▁الموقف	-10.7213
▁أبحاث	-10.7214
القاهرة	-10.722
كيمياء	-10.7225
▁المدنيين	-10.7225
الإمبراطورية	-10.7225
جواز	-10.7227
▁جابر	-10.7228
▁والمناطق	-10.7229
▁إكس	-10.7235
▁تستطيع	-10.7239
دلالة	-10.7247
▁باستمرار	-10.7248
برنامج	-10.7249
ll	-10.7251
▁يمنع	-10.7251
▁الكلام	-10.7255
▁الأوراق	-10.7256
مسح	-10.7262
حشد	-10.7268
▁السلع	-10.7273
em	-10.7276
ستقل	-10.729
قراطي	-10.73
▁واشنطن	-10.73
▁إدخال	-10.73
▁الخوارج	-10.7301
تشخيص	-10.7301
▁تشريع	-10.7301
▁وجيزة	-10.7301
▁روايات	-10.7303
▁الاكتشاف	-10.7303
▁اقتراح	-10.7303
▁صلب	-10.7303
▁الأحكام	-10.7305
▁يمارس	-10.7305
فاضل	-10.7308
توج	-10.7309
جانب	-10.733
شجاع	-10.7331
كهرباء	-10.7331
▁اعترف	-10.7331
5,000	-10.7336
▁دولته	-10.7344
تبلغ	-10.7347
قسطنطين	-10.7352
إحصائيات	-10.7353
▁فرانسيسكو	-10.7353
▁أسابيع	-10.7353
bbc	-10.7354
▁جوانب	-10.7354
▁والاقتصادية	-10.7354
جادل	-10.7357
▁عمومًا	-10.7362
▁السفلي	-10.7364
▁لحماية	-10.7365
▁قريش	-10.7374
دوس	-10.7382
▁أفريقي	-10.7385
أعط	-10.7388
900	-10.739
▁مغناطيسي	-10.7396
ملاحظات	-10.7397
كاتدرائية	-10.7407
▁بلجيكا	-10.7407
▁غضون	-10.7407
▁قراءة	-10.7408
▁نجوم	-10.7409
▁تهديد	-10.7409
▁مشهور	-10.741
▁واستخدام	-10.7412
أعضاء	-10.7415
▁الحملات	-10.7416
▁التحق	-10.7419
▁أجبر	-10.7419
▁ميلاد	-10.7419
▁كيان	-10.7423
▁يُمكن	-10.7427
تفكك	-10.7427
▁وقاد	-10.7429
جاذبية	-10.7439
خاب	-10.7444
▁شرط	-10.7453
سابق	-10.7458
▁الخِلافة	-10.746
▁علاوة	-10.746
▁المحتلة	-10.7461
▁أعوام	-10.7461
ذنب	-10.7471
▁المعابد	-10.7475
أوساط	-10.7477
وثائق	-10.7492
▁الجورجي	-10.7498
▁الشيعي	-10.75
▁الأرز	-10.7502
ستهدف	-10.7505
▁الشعراء	-10.7506
▁عائد	-10.7509
▁وأيضا	-10.7511
▁جاف	-10.7513
▁حركات	-10.7515
▁مرسوم	-10.7517
▁1952	-10.7521
▁تماماً	-10.7521
▁يتضمن	-10.7525
وتشي	-10.753
بيزنطي	-10.7547
▁حصول	-10.7551
▁التدريب	-10.7568
▁والعشرون	-10.7568
▁خواص	-10.7569
▁القادر	-10.7571
جورج	-10.7575
▁قضى	-10.7589
▁صدام	-10.7602
انفجار	-10.7603
▁سراح	-10.7607
▁التبت	-10.7609
▁الجهة	-10.7617
بنغلاديش	-10.7622
▁وتطوير	-10.7622
▁جوبز	-10.7622
▁توسيع	-10.7623
▁الأوضاع	-10.7623
▁والفرنسية	-10.7623
▁الواضح	-10.7624
▁روبرت	-10.7627
مستوطنة	-10.7628
▁الشيء	-10.7632
مقاومة	-10.7638
فائدة	-10.7638
▁وأعاد	-10.7638
▁عودته	-10.764
كيو	-10.7642
▁الشامل	-10.765
▁أوراق	-10.7654
▁تستعمل	-10.766
tu	-10.7661
▁عاصمتها	-10.7662
▁العبَّاسي	-10.7672
▁خصوصًا	-10.7677
▁التكوين	-10.7678
▁بمعدل	-10.7683
▁1922	-10.7688
عتنق	-10.7688
عتماد	-10.7699
pe	-10.7706
om	-10.771
وارث	-10.7716
▁المدعو	-10.7718
▁ويقوم	-10.7718
إثيوبي	-10.7728
حقائق	-10.7732
▁الخضراء	-10.7732
▁الموجات	-10.7734
▁الديانات	-10.7735
خزان	-10.7735
▁المساعدة	-10.7737
▁الخصوص	-10.774
▁سابقًا	-10.7743
أرواح	-10.7751
▁للغة	-10.7756
تنتهي	-10.776
أنَّهُ	-10.7772
▁الإخشيد	-10.7787
▁فهناك	-10.7787
▁الكنعاني	-10.7787
▁تايلاند	-10.7787
▁شجرة	-10.7789
اجتماع	-10.779
▁لعدم	-10.779
▁صلى	-10.7791
▁الهلال	-10.7791
تجنيد	-10.7792
▁الإنجيل	-10.7793
مثّل	-10.7793
▁وتسمى	-10.7794
إلقاء	-10.7794
رغم	-10.7795
▁1933	-10.7798
▁إير	-10.7799
▁انسحب	-10.7803
استطلاع	-10.7804
▁المرور	-10.7807
▁ميدان	-10.7809
تونس	-10.7809
نعم	-10.7813
▁غزا	-10.783
برد	-10.7831
إدراك	-10.7832
نزو	-10.7837
▁أمستردام	-10.7843
▁تصنيع	-10.7843
▁حزيران	-10.7843
▁للطاقة	-10.7844
▁البروتينات	-10.7845
▁علامة	-10.7846
▁التخطيط	-10.7847
▁واجب	-10.7848
▁1957	-10.785
▁ازدهار	-10.7852
▁اللعبة	-10.7856
كهنة	-10.787
▁وغالبا	-10.7873
تاجر	-10.788
ورق	-10.7892
▁تتعلق	-10.7896
▁لتطوير	-10.7898
▁توجيه	-10.79
▁والخدمات	-10.7901
▁والدته	-10.7908
▁وبهذا	-10.7908
▁أدخل	-10.7908
▁بالتالي	-10.7909
ag	-10.7911
▁واليونان	-10.7921
▁هطول	-10.7922
عطى	-10.7924
▁والرومان	-10.7945
▁احتياطي	-10.7955
رُغم	-10.7955
▁الضروري	-10.7956
▁بإعادة	-10.796
▁غرفة	-10.7961
طوّر	-10.7965
َرَ	-10.7972
اصطدام	-10.7976
تسارع	-10.7984
ou	-10.7991
▁أرسلان	-10.7993
قواعد	-10.7994
مغادرة	-10.8002
▁خسائر	-10.8011
▁طوكيو	-10.8011
▁وزيادة	-10.8011
▁البطالة	-10.8012
▁الأفارقة	-10.8012
▁للإمبراطورية	-10.8012
▁جزيئات	-10.8013
تسهيل	-10.8015
▁كلغة	-10.8019
▁التشيك	-10.8019
▁البلاط	-10.802
▁تُعد	-10.802
▁السنغال	-10.8022
▁1932	-10.8023
توقيت	-10.8023
▁توصي	-10.8026
▁اعتقد	-10.8044
انتهاك	-10.8061
▁لأسباب	-10.8068
▁الأسبوع	-10.8068
▁الشوارع	-10.8068
إقناع	-10.8068
▁لكونه	-10.8068
▁قيصر	-10.8069
▁السيارة	-10.8073
▁مُنذ	-10.8076
▁تحتاج	-10.8078
مواليد	-10.8085
▁حاف	-10.8091
▁لليهود	-10.8091
بالإضافة	-10.8093
▁التكنولوجيا	-10.8105
يقع	-10.8114
▁تلفزيون	-10.8125
▁رئاسي	-10.8125
▁عقود	-10.8126
▁1954	-10.8133
▁رحلات	-10.8134
▁ذروته	-10.8135
▁كارتر	-10.8135
▁غياب	-10.8136
تناقض	-10.8137
▁1914	-10.8141
▁نظريات	-10.8146
▁حقل	-10.8148
ap	-10.8148
زاز	-10.8157
صعد	-10.816
▁تتجاوز	-10.8162
▁آمن	-10.8173
▁خشب	-10.8173
رنج	-10.8181
زكاة	-10.8182
▁يوغوسلافيا	-10.8183
▁المخابرات	-10.8183
▁ضئيل	-10.8183
▁أنطاكية	-10.8183
▁أسعار	-10.8183
▁الاضطرابات	-10.8185
▁الممتدة	-10.8185
au	-10.8187
▁المشكلة	-10.8189
شوغون	-10.8191
زعامة	-10.8192
طارد	-10.8197
▁الإسماعيلي	-10.8203
داو	-10.8207
▁وحيد	-10.8211
ستطيع	-10.8219
▁يُطلق	-10.8228
كتشاف	-10.823
أذربيجان	-10.8234
▁المذاهب	-10.824
▁البرونزي	-10.824
▁الانتشار	-10.8241
▁الحميد	-10.8241
مملوكة	-10.8241
▁الجهود	-10.8242
▁عدَّة	-10.8243
▁العبَّاسيَّة	-10.8246
▁قرص	-10.8251
▁الحكومي	-10.8252
▁1938	-10.8252
▁لمنع	-10.8258
▁بصفته	-10.8258
▁جنين	-10.8259
▁ديار	-10.8263
▁سلف	-10.8264
مبراطور	-10.8277
▁الإثني	-10.828
لُو	-10.8283
▁والمدن	-10.829
آسيوية	-10.8291
إخوان	-10.8291
▁توماس	-10.8303
▁الاستواء	-10.8304
▁التحدي	-10.8305
ut	-10.8306
محطات	-10.8307
▁1977	-10.8307
▁ولأن	-10.8309
راش	-10.831
َمَ	-10.8325
قدّم	-10.8326
▁واستخدم	-10.8329
ie	-10.8339
باشر	-10.8345
خليج	-10.8353
البرتغال	-10.8356
▁لإنشاء	-10.8357
▁ألبانيا	-10.8357
▁الأحساء	-10.8357
▁الإجراءات	-10.8357
▁الطراز	-10.8358
▁المنازل	-10.8358
▁قصيدة	-10.8358
محاكاة	-10.8359
شغال	-10.8359
▁إسحاق	-10.8359
▁نسبيًا	-10.8364
▁1923	-10.8368
▁كلفن	-10.8369
أفعال	-10.837
▁أركان	-10.8371
فلور	-10.8375
ديب	-10.8376
▁اتفاقيات	-10.8379
أتباع	-10.8381
ent	-10.8385
▁العدوى	-10.8388
▁اتفق	-10.8391
مؤتمر	-10.8403
قيس	-10.8403
▁التوتر	-10.8407
6,	-10.8407
ja	-10.8407
▁رواندا	-10.8416
▁أوراكل	-10.8416
غييشا	-10.8416
▁انتشر	-10.8416
ذاب	-10.8417
▁جبران	-10.8418
فتوحات	-10.8421
▁ديل	-10.8421
استفادة	-10.8423
تضح	-10.8423
بحار	-10.8425
▁1943	-10.8426
▁استعداد	-10.8427
توافر	-10.8427
▁المبكر	-10.8431
مستويات	-10.8436
▁الآلي	-10.8438
▁حلقة	-10.8446
ثلاثمائة	-10.8454
▁ويستخدم	-10.8454
▁عماد	-10.8463
▁شارل	-10.8466
دستور	-10.8466
لماركس	-10.8469
▁النتروجين	-10.8475
▁تسيطر	-10.8475
▁البندقية	-10.8476
▁طلاب	-10.8478
▁أهالي	-10.848
▁السومري	-10.848
رؤوس	-10.8486
▁وبحسب	-10.8486
▁الكلاسيكي	-10.849
كريست	-10.8499
خوارزم	-10.8509
▁كرئيس	-10.8512
▁المستشفيات	-10.8534
▁العذراء	-10.8535
▁السواحل	-10.8535
▁صربيا	-10.8535
▁الطقس	-10.8536
إبراهيم	-10.8536
▁مقاطعات	-10.8536
استخبار	-10.8536
▁الاعتماد	-10.8538
▁بورصة	-10.8541
▁المثلية	-10.8549
▁ارتبط	-10.8554
▁الرسائل	-10.8554
▁قطب	-10.8556
▁للشمس	-10.857
▁فحسب	-10.8571
دوار	-10.8579
فرنسا	-10.8579
▁حصر	-10.8583
▁الفتن	-10.8583
نشتاين	-10.8587
ber	-10.859
▁النتيجة	-10.8594
▁أشجار	-10.8594
▁استغلال	-10.8595
▁قضايا	-10.8595
▁العقود	-10.8595
▁منغوليا	-10.8595
▁مفاوضات	-10.8595
▁عائلته	-10.8595
▁أنشئت	-10.8595
▁ضروري	-10.8597
▁تجارب	-10.8599
أصحاب	-10.86
▁ديفيد	-10.8609
قنع	-10.8613
▁250	-10.8616
▁تعاني	-10.8618
يسار	-10.8618
ke	-10.8624
▁الطفل	-10.8629
بُو	-10.8642
lu	-10.8645
هيدروجين	-10.8646
انتخابات	-10.8651
تغطية	-10.8652
tor	-10.8652
▁انسحاب	-10.8655
▁الفائق	-10.8655
عُلماء	-10.8655
ساحل	-10.8659
▁غلاف	-10.8661
▁اعتقال	-10.8663
▁2021	-10.8663
سؤال	-10.8664
▁الأهمية	-10.8668
▁الأجنبي	-10.8673
▁محفوظ	-10.8681
بحاث	-10.8681
▁الجاف	-10.8685
▁إسلامي	-10.8686
▁بقوله	-10.8688
تداخل	-10.8689
cl	-10.8693
▁تتمثل	-10.8694
ip	-10.8696
▁الويب	-10.8701
أمازيغ	-10.8712
▁روزفلت	-10.8715
▁قِبل	-10.8715
▁ضرورة	-10.8715
▁اللفظ	-10.8716
▁رموز	-10.8716
▁تقنيات	-10.8716
▁المصابين	-10.8717
▁جنيه	-10.8718
اتساع	-10.8719
▁ينتشر	-10.8721
▁السامري	-10.8723
▁منازل	-10.8728
▁الدماغ	-10.8728
▁سياحي	-10.8748
ينتهي	-10.8765
أدوية	-10.8768
▁الكونغرس	-10.8776
▁التنجيم	-10.8776
▁فايزر	-10.8776
▁الصادق	-10.8776
▁الغوري	-10.8778
▁لحقوق	-10.8778
▁أغنية	-10.878
▁الدبلوماسية	-10.878
▁لِمُ	-10.8787
▁قوته	-10.8788
▁البنغال	-10.8788
▁بالمقارنة	-10.8797
▁وسيطر	-10.8804
▁ديوان	-10.8805
عجب	-10.8816
رفق	-10.8819
▁ودعا	-10.8822
عبارة	-10.883
ديموقراطي	-10.8838
▁الثمانينات	-10.8838
تآكل	-10.8842
نقص	-10.8843
▁الهائل	-10.8852
عائلة	-10.8853
▁الهادي	-10.8854
▁شهور	-10.8857
ex	-10.8867
جرماني	-10.8896
▁مقبرة	-10.8899
▁اعتقاد	-10.8899
تأكد	-10.8899
مقاييس	-10.8899
▁الجُند	-10.8901
مرحلة	-10.8903
▁البركاني	-10.8906
جغرافيا	-10.8911
كامي	-10.8913
▁فلكي	-10.8915
▁بدقة	-10.8916
قديس	-10.8919
ve	-10.8927
▁الدع	-10.8947
▁فوج	-10.8957
▁صلة	-10.8958
▁قبيل	-10.8961
▁التسعينات	-10.8961
▁المستوطنات	-10.8961
▁ثانوي	-10.8964
▁السماوية	-10.8965
▁لتحرير	-10.8968
▁خلايا	-10.8971
مناقشة	-10.8974
▁لاستخدام	-10.8975
خزن	-10.8978
▁وثيق	-10.8987
▁نسبيا	-10.8991
ؤسس	-10.9009
أكسجين	-10.9021
▁رولينغ	-10.9024
▁اللاهوت	-10.9024
▁البلماح	-10.9024
▁العظام	-10.9024
▁التعديل	-10.9024
▁محافظات	-10.9026
▁مساحات	-10.9026
der	-10.9027
▁يكفي	-10.9027
▁ملاحظة	-10.9028
تحصين	-10.9029
▁الإناث	-10.9031
▁إفريقية	-10.9032
مصطلح	-10.9034
أستراليا	-10.9037
▁الذرات	-10.9038
جوع	-10.9039
▁العمود	-10.9039
▁الآراء	-10.9043
ألياف	-10.9043
▁حقبة	-10.9044
▁الساحة	-10.9047
▁الفراغ	-10.9047
▁حبيب	-10.905
ot	-10.905
صحيفة	-10.9053
▁حاسم	-10.9062
سلاجقة	-10.9084
▁تبليسي	-10.9087
▁بونابرت	-10.9087
▁الأيرلندي	-10.9087
▁للتعليم	-10.9087
▁الملاريا	-10.9087
▁واتخذ	-10.9091
▁سياسات	-10.9092
▁اتباع	-10.9094
أشياء	-10.9098
▁سعر	-10.9112
خاصةً	-10.9115
كرد	-10.9118
أطلس	-10.9121
عنصر	-10.9133
شمس	-10.9135
ver	-10.9136
تعريف	-10.9136
▁وتستخدم	-10.9136
we	-10.9137
قلعة	-10.9138
هَا	-10.9142
توفيق	-10.9145
بروتستانت	-10.9148
نقش	-10.9148
ميكانيكي	-10.9148
كالسيوم	-10.915
▁للإشارة	-10.915
▁لعلاج	-10.915
إخضاع	-10.915
▁الموانئ	-10.915
تطهير	-10.915
▁الجزيئات	-10.9151
▁المعتقدات	-10.9151
▁السياسات	-10.9152
▁يستطع	-10.9153
▁الخلفية	-10.9156
عابر	-10.9156
مدفعية	-10.9156
خراسان	-10.9158
▁الثقب	-10.9159
▁أسوان	-10.9169
▁صمم	-10.9176
مناهج	-10.9184
▁الحروف	-10.9188
تمهيد	-10.9199
rt	-10.9203
أكبر	-10.9206
ko	-10.9209
▁1930	-10.9209
استئناف	-10.9214
▁الانفصال	-10.9214
تغذية	-10.9214
▁وانتهت	-10.9214
▁المنافسة	-10.9215
▁وأخرى	-10.9216
َتْ	-10.9217
أصل	-10.922
عنف	-10.9222
▁نجيب	-10.9232
قارن	-10.9237
طاحة	-10.9241
سيخ	-10.9268
▁شكسبير	-10.9278
▁حنيفة	-10.9278
▁سفيان	-10.9278
▁دجلة	-10.9278
▁وبريطانيا	-10.928
▁المفتوحة	-10.9282
▁الزجاج	-10.9282
حضارات	-10.9283
وجَّه	-10.9286
▁المرئي	-10.9287
▁مناصب	-10.9291
▁الدموية	-10.9294
▁الدوران	-10.93
كتلة	-10.9303
wa	-10.9308
▁700	-10.9323
إستراتيجي	-10.9338
▁التسعينيات	-10.9342
▁تقارير	-10.9343
▁الخواص	-10.9343
زلازل	-10.9343
▁القنوات	-10.9343
▁المرتفعة	-10.9346
▁إيجابي	-10.9347
▁مقدمة	-10.9348
▁الفئة	-10.9349
con	-10.9349
▁البرمجة	-10.935
بوليس	-10.9369
صلاة	-10.9373
▁الجزيئي	-10.9381
ستثمر	-10.9384
محرر	-10.9399
حروب	-10.9399
▁الزنجبيل	-10.9407
▁المباراة	-10.9407
▁الباحثون	-10.9408
▁علاقته	-10.9409
▁الصلة	-10.941
بادر	-10.9411
▁الإنفاق	-10.9413
▁وانتشر	-10.9413
▁and	-10.9417
▁التخلي	-10.9426
▁حاجة	-10.9429
تمدد	-10.9429
لذين	-10.9446
▁الغاب	-10.9449
ستخدام	-10.9451
▁توأمة	-10.9473
▁البترول	-10.9473
انتظار	-10.9473
▁التلفاز	-10.9473
▁المفروض	-10.9473
▁جماعي	-10.9473
▁وآسيا	-10.9474
▁أبنائه	-10.9475
▁البارزة	-10.9475
أعمارهم	-10.9485
▁1937	-10.9486
▁بِمُ	-10.9489
متابعة	-10.9499
نحاس	-10.9504
جزيئ	-10.9505
▁الخيار	-10.9507
بالإنجليزية	-10.9538
▁هلسنكي	-10.9538
▁سُليمان	-10.9538
▁الزرقاء	-10.9539
استيعاب	-10.9539
▁والفلسفة	-10.9542
▁اليورو	-10.9544
▁الثورات	-10.9544
▁تبدو	-10.9544
وّن	-10.9545
▁ويتكون	-10.9549
تكوّن	-10.9557
▁وزاد	-10.956
دعوى	-10.9577
ki	-10.9582
القرن	-10.9584
▁بطليموس	-10.9605
▁الأفغان	-10.9605
▁التقنيات	-10.9605
امتصاص	-10.9606
▁استضافت	-10.9606
▁المحافظات	-10.9606
▁جريدة	-10.961
▁الشروط	-10.9612
▁الرحلة	-10.9612
إذاعة	-10.9616
حصان	-10.9618
▁تتطلب	-10.9628
▁رابع	-10.9631
bi	-10.9632
▁مؤيد	-10.9639
▁حملته	-10.9652
تتكون	-10.9655
▁النمساوي	-10.9659
▁المالكي	-10.9663
▁الباكستاني	-10.9671
▁إدوارد	-10.9673
▁السلالة	-10.9676
بمرور	-10.9677
أساطير	-10.9677
▁المسبار	-10.9686
▁سلبي	-10.969
▁ستكون	-10.97
▁أوقات	-10.9702
وريس	-10.9716
▁نزاع	-10.9717
نتر	-10.9724
إنكليزية	-10.9738
▁الإباضية	-10.9738
▁الوظائف	-10.9738
▁ديمقراطي	-10.9745
▁تُعتبر	-10.9746
فيتامين	-10.9749
▁زعماء	-10.975
نظيف	-10.9752
تسامح	-10.9757
▁روماني	-10.9766
خبز	-10.9772
▁العنب	-10.9783
لفترات	-10.9801
كهرومغناطيسي	-10.9804
▁تفاصيل	-10.9806
▁الهيثم	-10.9806
▁تأليف	-10.9806
▁1500	-10.9812
▁بإرسال	-10.9813
إغريق	-10.9814
سحر	-10.9818
per	-10.9828
▁الثماني	-10.9833
▁شباط	-10.9833
طلاع	-10.9836
▁عمود	-10.9855
▁الجيني	-10.9863
go	-10.9864
المعروف	-10.9864
▁الانضمام	-10.9874
▁كلثوم	-10.9874
فدرالية	-10.9875
▁لضمان	-10.9875
▁وإنشاء	-10.9877
إمارة	-10.9878
▁أعلاه	-10.988
man	-10.9889
▁المتحركة	-10.9898
▁رائد	-10.9903
خلط	-10.9906
تقاعد	-10.9929
الاشتراك	-10.9932
▁فولتير	-10.9943
▁للمسلمين	-10.9943
▁الفيديو	-10.9943
▁الولادة	-10.9943
▁وإيطاليا	-10.9944
▁نيوتن	-10.9945
▁وأمريكا	-10.9946
▁أعراض	-10.9946
▁والكتابة	-10.9948
▁الأبعاد	-10.9948
أضحى	-10.995
خمسينيات	-10.995
▁1924	-10.9956
▁فمثلا	-10.9957
pro	-10.996
▁وفاز	-10.9965
▁والمواد	-10.9975
▁زعم	-10.9976
ue	-10.9992
مقارنة	-10.9998
تجدد	-11.0002
رئاسة	-11.0008
▁زلزال	-11.0012
احتكاك	-11.0012
لاستيلاء	-11.0017
إضراب	-11.0018
▁أمتار	-11.0022
ريث	-11.0023
▁1935	-11.0027
▁جيرانه	-11.0036
تجاهل	-11.0057
▁ينتم	-11.0079
▁الرافدين	-11.0081
▁الهدنة	-11.0082
اجتهاد	-11.0082
▁التقديرات	-11.0083
▁اللهجات	-11.0085
▁الألوان	-11.0087
▁الفرصة	-11.009
تزويد	-11.0093
▁مالكوم	-11.0095
▁إخراج	-11.0097
▁المريني	-11.0098
إثارة	-11.0101
▁اتجه	-11.0105
▁10%	-11.0116
tion	-11.0123
▁بإمكان	-11.0141
توازي	-11.0144
مغناطيس	-11.0146
▁التنقيب	-11.0151
▁الثقيلة	-11.0151
▁الكاريبي	-11.0152
تصغير	-11.0153
▁مخالف	-11.0154
▁المكونات	-11.0156
▁وأيضاً	-11.0156
▁ياسر	-11.016
▁1942	-11.0162
▁المناعي	-11.0163
▁الآلات	-11.0164
▁الجفاف	-11.0165
▁وارسو	-11.0167
▁حظي	-11.0169
دبابات	-11.0169
استيراد	-11.0169
▁نزول	-11.0171
منحوت	-11.0176
▁الجهات	-11.0195
▁المؤيد	-11.02
▁أحوال	-11.0202
▁الاستراتيجي	-11.0221
▁الشاهزاده	-11.0221
▁بتقديم	-11.0221
قُوَّات	-11.0221
▁المضادة	-11.0222
▁تعاليم	-11.0222
▁أقيمت	-11.0223
▁الكهرومغناطيسية	-11.0224
مقياس	-11.0224
نثر	-11.0225
أغلبية	-11.0229
2.5	-11.0231
▁تحيط	-11.0231
▁1934	-11.0235
قبائل	-11.0238
▁واضطر	-11.0252
ائض	-11.0284
io	-11.0285
odice	-11.0292
▁استهلاك	-11.0292
▁الأسترالي	-11.0293
▁أسواق	-11.0293
عقوبة	-11.0294
▁الزيادة	-11.0295
▁80%	-11.0297
▁اعتراف	-11.0298
▁وارتفاع	-11.0298
▁والسياسة	-11.0299
نافذ	-11.0302
▁جدار	-11.0302
▁قضاء	-11.031
▁طبيب	-11.0317
▁الشفق	-11.0327
رماد	-11.0351
▁التنبؤ	-11.0357
▁خِلال	-11.0364
▁الترفيه	-11.0364
▁المصنوع	-11.0364
▁الأهالي	-11.0367
▁1925	-11.0382
▁يحوي	-11.0392
▁انتصر	-11.0393
▁رغبة	-11.0401
صيانة	-11.0401
▁مساهم	-11.0403
أسنان	-11.0434
▁مباراة	-11.0436
▁والأردن	-11.0436
▁أرجاء	-11.0436
▁فائق	-11.0437
▁المواصلات	-11.0437
▁استناد	-11.0442
▁الطقوس	-11.0442
شعل	-11.0444
▁ونجح	-11.0449
لعلاقات	-11.0451
▁واقتصادي	-11.0464
قرآن	-11.0465
تجانس	-11.047
▁المسلح	-11.0495
▁الأندلُس	-11.0508
▁غرناطة	-11.0508
▁سلاطين	-11.0508
▁الأقمار	-11.0508
▁للوزراء	-11.0508
▁وأيضًا	-11.0508
▁الشيطان	-11.0508
موسوعة	-11.0509
▁الرموز	-11.0509
▁ضفاف	-11.0511
▁السوفييت	-11.0512
▁الحضاري	-11.0514
▁والعسكري	-11.0515
▁أمثلة	-11.0515
شمع	-11.0554
عقاب	-11.0561
▁السلاطين	-11.0581
▁سيراليون	-11.0581
▁بوروندي	-11.0581
▁تأييد	-11.0581
▁المعتدل	-11.0581
▁المراحل	-11.0582
▁الناجم	-11.0585
▁حلقات	-11.0587
▁1951	-11.059
صحيح	-11.0596
▁سُمي	-11.0599
إرشاد	-11.0602
▁الميدان	-11.062
▁نفط	-11.0632
رَّب	-11.0636
▁الكوبي	-11.0642
▁الاحتجاجات	-11.0655
▁أقاليم	-11.0655
▁تثبيت	-11.0655
▁نيكسون	-11.0655
▁قائلاً	-11.0655
▁التشكيل	-11.0655
رائحة	-11.0655
توثيق	-11.0657
مذبحة	-11.0659
▁وُلد	-11.0659
▁خضعت	-11.0664
▁انتقد	-11.0668
▁الحبوب	-11.0681
مُسلم	-11.0681
باحة	-11.0702
زخم	-11.0718
▁المسلسل	-11.0726
▁آيسلندا	-11.0729
▁ستيشن	-11.0729
▁للميلاد	-11.0729
▁القصيرة	-11.0729
▁تصدير	-11.073
▁قنوات	-11.073
▁ألبرت	-11.0735
▁الكافي	-11.0737
▁الأحمدي	-11.0739
all	-11.074
تنقسم	-11.0745
تأمل	-11.0747
▁يوناني	-11.0754
احتكار	-11.077
تجاوز	-11.078
رومانسية	-11.0789
خالد	-11.079
شريف	-11.0792
▁name	-11.0803
▁والثالث	-11.0803
صعوبات	-11.0803
▁بروناي	-11.0803
▁للهجرة	-11.0803
▁الستينيات	-11.0804
▁الأعراض	-11.0805
▁فريدريك	-11.0806
▁إستراتيجية	-11.0808
▁أنتجت	-11.0808
عرّف	-11.0809
▁2022	-11.0813
حقيقة	-11.0814
▁الركاب	-11.0819
▁انضمام	-11.082
▁اعتنق	-11.0821
تناقص	-11.0822
تصريف	-11.0822
▁ديانة	-11.0829
▁خصوصا	-11.0848
ion	-11.0854
ؤخذ	-11.0858
▁كامب	-11.087
▁جماد	-11.0875
▁الأقباط	-11.0879
▁شوارع	-11.0879
▁للوصول	-11.0879
▁الجاهلي	-11.088
▁عشيرة	-11.088
نفاذ	-11.088
▁المميزة	-11.0885
▁يهوه	-11.0887
▁استخراج	-11.0892
كروم	-11.0912
اللواء	-11.0937
▁دقائق	-11.0954
▁إغلاق	-11.0954
▁المؤقتة	-11.0954
نهي	-11.0954
▁تخزين	-11.0955
▁شاطئ	-11.0955
▁وكندا	-11.0955
▁تكنولوجيا	-11.0956
▁الكسوف	-11.0957
▁بإجراء	-11.0959
ديناميكي	-11.0959
إخبار	-11.096
▁جرائم	-11.0961
▁1931	-11.0964
▁الدوائر	-11.0964
▁كثرة	-11.097
ميليشيا	-11.0973
تضرر	-11.0974
▁النسبي	-11.1003
أواسط	-11.102
▁البيئي	-11.1021
فبراير	-11.1023
احتمال	-11.1023
▁دمياط	-11.1031
▁المنتشرة	-11.1031
▁قائلًا	-11.1031
▁هايدن	-11.1031
▁للجدل	-11.1032
فوسفات	-11.1032
▁مخصصة	-11.1034
▁شتاء	-11.1037
▁التعدين	-11.104
▁إعطاء	-11.1041
▁بالمقابل	-11.1043
▁1926	-11.1045
كلوريد	-11.1047
انقلاب	-11.1051
صادف	-11.1053
شهير	-11.1085
▁الأوربي	-11.1085
ram	-11.1092
إحصائية	-11.1107
▁الحواسيب	-11.1108
تخصيص	-11.1108
▁الارتباط	-11.1108
▁الفارابي	-11.1108
أبريل	-11.1108
هيرودوت	-11.111
▁احترام	-11.1113
▁الجميلة	-11.1114
▁والطاقة	-11.1114
▁الإقطاعي	-11.1118
▁الجزية	-11.1121
▁تكريم	-11.1126
▁جملة	-11.1133
يوليو	-11.1136
ine	-11.1138
سمّى	-11.1139
تقلص	-11.1161
حفز	-11.1174
▁عضُد	-11.1185
▁هكتار	-11.1185
▁أنجلينا	-11.1185
ترخيص	-11.1185
▁الشاطئ	-11.1185
▁أعضائه	-11.1185
▁زيارته	-11.1186
▁وبداية	-11.1186
▁العلامة	-11.1186
شريعة	-11.1188
▁المساعدات	-11.1188
أباطرة	-11.1189
▁يونكس	-11.119
▁أبطال	-11.119
▁محتمل	-11.1193
ran	-11.1197
▁هشام	-11.1197
▁المشاة	-11.1198
تتركز	-11.1204
عضلات	-11.1211
▁الخيال	-11.1211
كيفية	-11.1235
ev	-11.1242
أكتوبر	-11.1261
▁النصارى	-11.1263
▁يريفان	-11.1264
▁جناح	-11.1265
▁1929	-11.1276
▁الوسائل	-11.1277
شوار	-11.128
▁بكونه	-11.1303
▁الابتدائي	-11.1336
▁جامايكا	-11.1342
▁الاستيطان	-11.1342
أسئلة	-11.1343
تسونامي	-11.1343
▁أوسلو	-11.1344
▁مارتن	-11.1347
▁والتكنولوجيا	-11.1347
بالنسبة	-11.1348
▁التغيرات	-11.1348
▁موافقة	-11.135
▁آمون	-11.1356
che	-11.1369
نموذج	-11.1372
أعداد	-11.1411
▁حتّ	-11.1416
▁تيمورلنك	-11.1421
▁بزيادة	-11.1421
▁الاستهلاك	-11.1421
▁السفلى	-11.1421
▁الميكانيكية	-11.1424
▁الجوفية	-11.1424
▁الحنفي	-11.1426
▁40%	-11.143
معاهدة	-11.143
أسوأ	-11.1434
▁أتى	-11.1443
إحد	-11.1453
ُفُو	-11.1453
جُنُود	-11.1501
سُكَّان	-11.1501
▁ناميبيا	-11.1501
▁أقمار	-11.1501
▁روابط	-11.1502
▁لقياس	-11.1502
أغسطس	-11.1505
أغنى	-11.1505
▁كثيف	-11.1505
▁شامير	-11.1509
▁البيوت	-11.1515
▁الوفد	-11.1518
تقاسم	-11.1521
لزيارة	-11.1547
رتفاع	-11.1567
إثن	-11.1568
▁الملائكة	-11.1582
▁كمبوديا	-11.1582
▁التطوير	-11.1582
▁الأنبياء	-11.1582
▁النعمان	-11.1583
▁ماكاو	-11.1583
▁ويليام	-11.1583
▁هذين	-11.1583
▁بنجاح	-11.1583
▁تشييد	-11.1583
▁المسألة	-11.1584
مراجعة	-11.161
▁شيوعا	-11.1636
▁مدينتي	-11.1648
الولايات	-11.1654
▁مجاني	-11.1663
▁بخصوص	-11.1663
▁تزداد	-11.1664
▁والحيوانات	-11.1666
▁بلغاريا	-11.1668
▁مايكل	-11.1668
ment	-11.1669
▁حادثة	-11.1674
▁الحجارة	-11.1675
خاطب	-11.1676
▁معقدة	-11.1676
لخلافة	-11.1682
▁واليمن	-11.1682
متنع	-11.1695
تحلل	-11.1696
مستوى	-11.1713
tra	-11.1726
رثوذكس	-11.1732
رحب	-11.1736
هيدروكربون	-11.1745
▁اليُونان	-11.1745
▁الفوضى	-11.1745
▁النبلاء	-11.1745
▁كواكب	-11.1745
▁المكثف	-11.1746
▁يسيطر	-11.1748
▁قيود	-11.175
▁صادرات	-11.1752
وساطة	-11.1754
▁الهندسية	-11.1754
lin	-11.178
▁اشتراك	-11.1784
تبرع	-11.1792
أحفاد	-11.1806
مسابقة	-11.1813
▁بِقياد	-11.1819
لكنَّهُ	-11.1821
▁تشارلز	-11.1828
▁سلوفينيا	-11.1828
▁المكتوبة	-11.1828
▁الاستفتاء	-11.1828
▁غيفارا	-11.1828
▁البلجيكي	-11.1828
▁عمّان	-11.1828
أساقفة	-11.1828
▁90%	-11.1828
▁ضابط	-11.1828
▁المناهض	-11.1829
▁بكثرة	-11.1831
▁المتخصصة	-11.1832
▁سياسته	-11.1857
أنثى	-11.1904
▁hiv	-11.1911
▁شيوعًا	-11.1911
▁النوميدي	-11.1911
▁المظلمة	-11.1912
▁النسيج	-11.1913
▁وثلاثين	-11.1915
▁الزنكي	-11.1918
▁الآونة	-11.1918
▁قتيل	-11.1925
▁ياباني	-11.1927
تحتوي	-11.1932
راهب	-11.1988
▁الأحاديث	-11.1995
▁اليونسكو	-11.1995
▁للقيام	-11.1996
▁إقامته	-11.1996
بونساي	-11.1996
▁العميق	-11.1997
▁الصليبيون	-11.1998
▁تساهم	-11.1998
إبعاد	-11.2005
▁أسامة	-11.2006
مضادات	-11.2015
انتهى	-11.2028
▁لتشكيل	-11.208
▁أضعاف	-11.208
▁واحتل	-11.208
▁خوسيه	-11.208
أحواض	-11.2083
▁كفاءة	-11.2083
▁رباعي	-11.2086
صطدم	-11.2093
▁الفعال	-11.2099
أطباء	-11.2136
خيانة	-11.2147
▁اليابسة	-11.2165
▁الهاشمي	-11.2165
▁الحاصل	-11.2166
▁مقاعد	-11.2166
ديناميكا	-11.2167
▁بذور	-11.2167
إنتروبي	-11.2168
▁ذروة	-11.2172
▁الملاحة	-11.2173
▁مصمم	-11.2173
▁الساساني	-11.2176
▁الوفيات	-11.2177
▁اللاتيني	-11.2177
▁رحلته	-11.2182
الكواكب	-11.2187
▁عاصمته	-11.2189
عثمان	-11.221
▁التضاريس	-11.2252
▁الشطرنج	-11.2252
▁المجاهدين	-11.2252
▁لتقديم	-11.2252
▁التدريس	-11.2252
▁قصائد	-11.2252
▁الملايو	-11.2252
▁اللحوم	-11.2252
▁وسياسي	-11.2252
▁الشورى	-11.2253
▁الموظفين	-11.2254
▁الرحلات	-11.2256
يَّته	-11.2259
▁ركز	-11.2259
▁منظمات	-11.226
▁بغض	-11.2323
يحتوي	-11.2336
▁ناسا	-11.2336
حتضن	-11.2338
▁الزعفران	-11.2339
▁اليورانيوم	-11.2339
▁بتطوير	-11.2339
▁ممتلكات	-11.2339
▁إلزامي	-11.2339
▁التقارير	-11.2339
[	-11.3302
<	-13.2334
