<unk>	0
<s>	0
</s>	0
،	-3.55138
.	-3.63515
▁في	-3.79936
▁	-3.82572
▁من	-4.05299
ة	-4.22661
▁و	-4.49385
▁ال	-4.50967
ه	-4.67464
▁على	-4.82572
ت	-4.829
ي	-4.8983
ية	-4.91614
ات	-4.98117
▁إلى	-5.03994
ها	-5.06043
ا	-5.09838
▁ب	-5.26127
▁وال	-5.29796
ين	-5.3191
▁م	-5.3592
▁ل	-5.36507
▁أن	-5.38702
م	-5.48876
▁ت	-5.53592
▁الم	-5.54488
▁(	-5.57854
▁لل	-5.67571
ون	-5.72651
▁عام	-5.73328
#	-5.7578
▁ي	-5.76711
ًا	-5.80368
▁#	-5.80391
▁التي	-5.82206
)	-5.86677
▁أو	-5.88225
وا	-5.91581
:	-5.92265
▁مع	-5.94307
▁عن	-5.96063
اً	-5.97676
"	-6.00578
▁«	-6.0066
ال	-6.03042
هم	-6.06615
▁بال	-6.07038
▁كان	-6.13798
▁بين	-6.15249
▁ما	-6.18112
▁بعد	-6.2123
="	-6.31511
▁أ	-6.32763
»	-6.33521
▁بن	-6.36848
▁الذي	-6.39167
▁هذه	-6.3933
▁ذلك	-6.40012
ان	-6.45693
ب	-6.48702
▁ف	-6.49191
▁لا	-6.53048
▁هو	-6.54921
ى	-6.55009
و	-6.55112
▁حيث	-6.5606
▁هذا	-6.5757
ُ	-6.57602
▁كما	-6.59257
ِ	-6.62036
ف	-6.62658
▁كانت	-6.62759
ما	-6.63064
▁هي	-6.63427
▁وت	-6.63644
ن	-6.64331
س	-6.65388
َ	-6.65716
▁وفي	-6.66517
▁لم	-6.66851
▁وقد	-6.75337
▁قبل	-6.7632
doc	-6.78425
>	-6.78829
ح	-6.79126
د	-6.79386
▁ك	-6.79606
▁كل	-6.80485
▁الت	-6.84849
ع	-6.85367
▁وي	-6.86146
ته	-6.86794
اء	-6.87212
▁مثل	-6.87571
s	-6.91167
يا	-6.92284
ز	-6.9231
▁سنة	-6.93066
▁خلال	-6.93871
ّ	-6.93997
/	-6.95632
▁تم	-6.95777
▁الأ	-6.97031
ك	-6.97269
نا	-6.97697
ج	-6.98563
ٍ	-6.99929
ل	-7.00946
▁وم	-7.01169
-	-7.02229
▁بعض	-7.04108
▁والم	-7.06129
▁قد	-7.06722
▁حتى	-7.07395
▁وأ	-7.08176
d	-7.08827
▁وهو	-7.09006
).	-7.13093
ق	-7.14716
)،	-7.14803
خ	-7.15086
▁وكان	-7.15219
▁ثم	-7.15473
ص	-7.15969
▁القرن	-7.16002
▁غير	-7.1636
▁أي	-7.1687
▁عدد	-7.17445
▁المدينة	-7.17753
؛	-7.17966
ش	-7.18168
ـ	-7.18328
▁وهي	-7.20415
▁-	-7.21154
▁أكثر	-7.22771
▁ن	-7.23384
▁ومن	-7.24482
▁العالم	-7.24539
يات	-7.25044
▁الدولة	-7.25065
ar	-7.26888
ر	-7.2797
▁والتي	-7.2953
▁ا	-7.30378
غ	-7.30598
▁عشر	-7.31712
ام	-7.31716
▁18	-7.31875
ط	-7.3218
أ	-7.32495
▁المتحدة	-7.32608
▁الله	-7.33332
▁"	-7.33803
▁مدينة	-7.36799
َّ	-7.3711
▁عبد	-7.37507
▁أنه	-7.39662
▁يمكن	-7.39799
▁الحرب	-7.40103
ئ	-7.40488
اد	-7.41411
تها	-7.42382
▁إ	-7.43407
▁أول	-7.43462
ث	-7.43714
▁له	-7.4434
▁العديد	-7.45831
ies	-7.46325
▁أخرى	-7.4646
▁بشكل	-7.46782
org	-7.47039
http	-7.47193
?	-7.47279
▁عند	-7.47311
://	-7.47363
▁إلا	-7.47537
بر	-7.4767
wiki	-7.4783
▁id	-7.47884
curi	-7.47978
wikipedia	-7.48064
▁<	-7.48075
يين	-7.4808
▁url	-7.48105
▁categor	-7.48127
▁title	-7.48149
▁</	-7.48223
ول	-7.49261
▁الع	-7.49796
▁ولكن	-7.4998
وس	-7.50173
▁البلاد	-7.50514
يَّة	-7.51947
».	-7.53507
▁فقد	-7.55542
▁ع	-7.5564
▁وا	-7.56492
▁الأول	-7.56769
ض	-7.56868
يل	-7.57539
▁تلك	-7.57838
▁بها	-7.58494
ذ	-7.58782
▁فيها	-7.58801
ير	-7.58854
▁وب	-7.60182
▁يُ	-7.60401
▁منذ	-7.60505
▁العربية	-7.60686
▁عليه	-7.61695
▁ابن	-7.61712
▁فإن	-7.62118
▁ق	-7.62149
▁الن	-7.63454
▁هناك	-7.6384
▁الدين	-7.64735
َّة	-7.64958
▁الذين	-7.66123
▁تحت	-7.66765
يد	-7.67165
▁إن	-7.67649
▁جميع	-7.67735
▁أكبر	-7.67925
في	-7.68186
▁الثاني	-7.68311
▁مصر	-7.68416
▁العام	-7.68753
▁محمد	-7.68754
ور	-7.69125
▁مُ	-7.69818
▁أما	-7.71523
▁والأ	-7.71723
▁عندما	-7.72514
جر	-7.72992
ار	-7.73125
▁است	-7.73545
▁سي	-7.73695
ً	-7.7392
▁حوالي	-7.74078
▁مما	-7.74212
وم	-7.74848
▁الأولى	-7.75519
▁الإ	-7.75601
▁الملك	-7.75856
▁الب	-7.76322
▁بِ	-7.7645
»،	-7.76968
▁حول	-7.77332
مر	-7.78396
▁أحد	-7.78856
يون	-7.78914
▁ولا	-7.79729
ْ	-7.79808
▁الر	-7.79904
ود	-7.80235
▁3	-7.81141
لي	-7.81299
▁يكون	-7.81624
▁يوم	-7.81786
=	-7.8237
▁باسم	-7.82425
▁يتم	-7.83471
▁الأخرى	-7.84344
وب	-7.84592
▁بسبب	-7.85065
▁كبير	-7.85369
اس	-7.8544
▁عليها	-7.85595
▁منطقة	-7.8594
▁منها	-7.86079
▁لي	-7.86277
▁السكان	-7.86493
2	-7.87394
تين	-7.87453
▁لها	-7.87756
▁الأرض	-7.87796
▁المُ	-7.8786
|	-7.87958
▁ذات	-7.88072
ست	-7.88322
يس	-7.88405
▁به	-7.88654
▁[[	-7.88888
اب	-7.89188
▁الق	-7.89509
▁طريق	-7.89527
▁لكن	-7.90494
▁الحكومة	-7.90659
▁2	-7.91921
▁اللغة	-7.92716
▁وذلك	-7.93
دي	-7.93191
▁علي	-7.93262
▁أيضًا	-7.93436
▁للم	-7.93576
▁المنطقة	-7.93673
▁ان	-7.94347
▁قال	-7.94668
من	-7.9484
▁الس	-7.94939
▁1	-7.95071
▁وكانت	-7.95242
▁لت	-7.95558
]]	-7.95629
▁اليوم	-7.95797
▁ح	-7.96229
▁كم	-7.97135
▁والذي	-7.97259
على	-7.9764
▁اسم	-7.98149
▁قام	-7.98328
وي	-7.98396
تي	-7.98471
ظ	-7.98614
▁ش	-7.98615
▁بم	-7.98871
▁الولايات	-7.99078
▁مليون	-7.99468
▁الف	-7.99602
▁الجيش	-8.00153
▁تكون	-8.00851
▁الش	-8.00996
▁نحو	-8.01243
▁يت	-8.0148
▁الدول	-8.01526
▁أنها	-8.01529
▁مت	-8.01701
▁بي	-8.01724
▁نظام	-8.01772
▁بل	-8.01915
▁الح	-8.01952
فر	-8.02184
▁بأن	-8.0242
لا	-8.02708
▁ومع	-8.02937
▁الخ	-8.03011
وف	-8.03247
▁الوقت	-8.03568
▁والت	-8.04332
بي	-8.04419
▁فقط	-8.04781
▁الج	-8.04821
▁حين	-8.0506
▁4	-8.05353
▁خ	-8.05731
▁س	-8.0599
▁العمل	-8.07226
▁كبيرة	-8.0734
▁جنوب	-8.07933
▁ص	-8.08258
▁آخر	-8.08396
▁شمال	-8.08705
▁الك	-8.08787
اح	-8.09078
▁الفترة	-8.09726
كس	-8.10153
▁لِ	-8.10194
▁بما	-8.10239
▁وبعد	-8.10304
▁5	-8.10434
▁علم	-8.10506
وق	-8.10656
▁رئيس	-8.10741
اني	-8.11044
▁معظم	-8.1194
▁ج	-8.12003
▁تاريخ	-8.12051
ني	-8.12186
▁عدة	-8.12468
يو	-8.13106
فل	-8.13179
▁فترة	-8.13453
▁وجود	-8.13644
▁ولم	-8.13755
▁المناطق	-8.14079
▁الرغم	-8.14185
▁تُ	-8.14344
يف	-8.14389
▁البحر	-8.1457
▁10	-8.14676
دا	-8.14706
▁عبر	-8.14765
▁بالإضافة	-8.15153
▁6	-8.15189
,	-8.15468
▁با	-8.15544
▁ضد	-8.16011
▁درجة	-8.16038
▁عمل	-8.16534
اق	-8.16661
▁سكان	-8.16977
▁الاتحاد	-8.17348
در	-8.1759
▁المت	-8.17835
▁أبو	-8.18106
ؤ	-8.18382
▁15	-8.18645
▁دولة	-8.19494
بل	-8.19688
▁ر	-8.19727
▁داخل	-8.19915
يّة	-8.19945
▁الثانية	-8.20034
▁أيضا	-8.21344
مثل	-8.21607
▁المن	-8.21656
▁دون	-8.21923
▁العالمية	-8.22473
ّة	-8.22596
▁القديمة	-8.22644
▁واحد	-8.23099
كل	-8.23137
▁أم	-8.23542
▁الحكم	-8.2378
▁أوروبا	-8.23867
يم	-8.23987
ٌ	-8.24008
▁مجموعة	-8.24372
▁النظام	-8.24784
ند	-8.25081
▁شركة	-8.25087
▁إسرائيل	-8.25165
▁وإ	-8.25509
سم	-8.25861
▁إذ	-8.25922
▁العرب	-8.25976
▁السنة	-8.26081
▁غ	-8.26251
▁استخدام	-8.26378
▁12	-8.26922
▁ه	-8.2702
▁الإسلام	-8.27038
▁حكم	-8.2806
▁أنَّ	-8.28205
▁القوات	-8.2826
دو	-8.28635
دى	-8.28758
▁13	-8.28776
يق	-8.28951
▁7	-8.28981
وز	-8.28981
▁أهم	-8.29895
▁وقت	-8.3027
▁العربي	-8.30606
▁17	-8.30638
هما	-8.31004
سل	-8.31079
يك	-8.31194
يب	-8.31201
مان	-8.31682
ري	-8.31811
▁الغربية	-8.32275
تهم	-8.32326
كر	-8.32443
قل	-8.32532
▁أبي	-8.32611
▁التاريخ	-8.32627
يان	-8.32641
لو	-8.32651
▁دي	-8.32749
حل	-8.32832
جل	-8.32903
وية	-8.33105
▁المسلمين	-8.33157
▁ز	-8.33225
▁واحدة	-8.33249
▁شهر	-8.3337
الم	-8.33591
▁الكثير	-8.3389
قا	-8.33939
▁عهد	-8.3424
▁نفس	-8.34276
▁مجلس	-8.34787
▁إذا	-8.34967
سي	-8.35047
ِّ	-8.3518
اج	-8.35196
بة	-8.35822
از	-8.36051
▁مركز	-8.36058
فا	-8.36059
▁الرئيس	-8.36206
مة	-8.36531
▁بت	-8.37057
c	-8.37495
يت	-8.37611
▁أيضاً	-8.37643
1	-8.37704
▁حرب	-8.37709
▁وأن	-8.37845
▁سنوات	-8.3796
▁الناس	-8.3814
▁الأمر	-8.38246
▁فيما	-8.38291
▁ألف	-8.38398
وت	-8.39265
▁9	-8.39585
▁نهر	-8.39672
▁شكل	-8.39905
▁مرة	-8.40106
▁أصبح	-8.40217
▁ط	-8.40296
▁العراق	-8.40342
▁أصبحت	-8.40766
4	-8.40973
بار	-8.41051
▁إي	-8.41112
وع	-8.41321
▁نسبة	-8.41387
▁11	-8.41512
ائي	-8.41761
▁8	-8.41801
▁دول	-8.41911
▁الل	-8.41956
▁أثناء	-8.41985
«	-8.42014
▁14	-8.42062
قر	-8.42264
3	-8.42343
فت	-8.42466
▁شخص	-8.4283
▁تقع	-8.43077
▁فيه	-8.43079
▁يوجد	-8.43292
بو	-8.43312
ُّ	-8.43402
▁الوطني	-8.43548
▁فأ	-8.4378
▁بلاد	-8.43852
▁العامة	-8.43871
▁سو	-8.44495
طل	-8.44573
▁خط	-8.44716
دة	-8.44749
ائية	-8.45078
▁لأن	-8.45199
لة	-8.45296
▁وكذلك	-8.45339
▁ول	-8.4542
حت	-8.45465
▁أهل	-8.45483
يه	-8.45631
▁الأمريكية	-8.45632
▁إليه	-8.45638
رة	-8.45724
▁ضمن	-8.45829
▁الغ	-8.46135
▁ملك	-8.46344
▁الشمس	-8.4661
▁الإنسان	-8.46913
▁أقل	-8.47034
▁متر	-8.47051
▁المدن	-8.47222
▁الشرق	-8.47322
▁نفسه	-8.4749
سب	-8.47573
كون	-8.47612
▁جانب	-8.47751
▁عملية	-8.48119
▁الشمال	-8.48324
▁الثالث	-8.48371
▁وما	-8.48451
▁خاصة	-8.48724
يًا	-8.48731
اف	-8.48909
▁الإسلامية	-8.49012
▁شرق	-8.49107
▁سن	-8.49855
▁نهاية	-8.50101
▁أحمد	-8.50288
▁العصر	-8.50472
▁الخاصة	-8.50476
▁بدأت	-8.50505
▁16	-8.50655
دين	-8.50692
y	-8.50776
شي	-8.50924
مل	-8.51042
▁بدأ	-8.51198
▁الميلاد	-8.51288
▁الغربي	-8.51336
▁فلسطين	-8.5142
▁تت	-8.51615
رك	-8.5162
كو	-8.51741
▁وح	-8.51803
زا	-8.51937
قي	-8.52025
0	-8.5215
كي	-8.52187
▁حد	-8.52275
وان	-8.5232
▁التعليم	-8.5244
▁السلطان	-8.52479
رد	-8.52546
رق	-8.52621
▁نوع	-8.52776
نج	-8.52946
▁كتب	-8.5314
قت	-8.53145
▁ألمانيا	-8.53201
▁الأراضي	-8.53285
▁بالم	-8.5362
طر	-8.53778
ياً	-8.53796
▁الجزيرة	-8.53946
▁يد	-8.5402
▁المملكة	-8.54114
وه	-8.54246
▁الحياة	-8.54251
▁أد	-8.54526
▁وضع	-8.54837
▁بناء	-8.55089
هن	-8.55396
▁الإمبراطورية	-8.55521
o	-8.556
▁عمر	-8.55768
▁إحد	-8.55783
▁أجل	-8.56032
▁الص	-8.56171
يز	-8.56229
▁بداية	-8.56411
▁فت	-8.56692
▁دور	-8.57008
6	-8.57581
▁الد	-8.57745
▁بو	-8.57768
غا	-8.57794
اه	-8.57929
با	-8.57944
▁الشمالية	-8.57967
▁التاسع	-8.5799
خر	-8.58235
جي	-8.58322
صر	-8.58379
هر	-8.58558
عد	-8.58625
▁مناطق	-8.58628
▁غرب	-8.5867
▁الأمم	-8.58694
▁آل	-8.58739
تر	-8.59334
▁فرنسا	-8.5937
▁ست	-8.59536
رب	-8.59826
▁وتم	-8.59844
▁أمر	-8.6025
صل	-8.60272
▁الط	-8.60356
علم	-8.60382
▁أصل	-8.60432
زل	-8.60568
حة	-8.60677
▁الشرقية	-8.60871
▁الآن	-8.61052
▁منهم	-8.61056
▁جديدة	-8.61078
▁الز	-8.61138
بن	-8.61138
قة	-8.61163
▁لهم	-8.61445
▁أشهر	-8.61678
رس	-8.61756
▁الهند	-8.61789
▁ثلاثة	-8.61924
▁مر	-8.62136
▁ذكر	-8.62137
▁حركة	-8.62195
▁بر	-8.62228
▁20	-8.62461
▁كذلك	-8.62519
▁أر	-8.62582
▁وس	-8.62732
▁نسمة	-8.62769
دن	-8.62811
▁الوطنية	-8.62951
تان	-8.63147
▁ثلاث	-8.63225
▁لكل	-8.63411
▁طول	-8.63421
▁الجنوب	-8.63525
▁السلطة	-8.63531
شر	-8.63532
نت	-8.63572
20	-8.64088
▁حسب	-8.64099
▁المست	-8.64337
دير	-8.65008
▁مختلفة	-8.65028
جه	-8.65046
b	-8.65282
▁أفريقيا	-8.65318
▁شبه	-8.65327
▁المع	-8.65506
▁الحديث	-8.65526
▁نا	-8.65556
تم	-8.65692
عة	-8.65756
▁لأ	-8.65974
▁العثمانية	-8.66461
▁الطاقة	-8.66676
▁العسكرية	-8.66823
يوم	-8.66871
▁وصل	-8.66917
▁بلغ	-8.66938
اك	-8.66948
نو	-8.67011
▁نتيجة	-8.67013
ئة	-8.67112
▁الدولي	-8.67292
▁الجنوبية	-8.67346
n	-8.67438
شار	-8.67463
▁الا	-8.67489
▁السياسي	-8.6778
▁مارس	-8.67865
▁كال	-8.67922
▁أكتوبر	-8.68095
لت	-8.68143
▁كتاب	-8.68279
▁جو	-8.68301
▁السياسية	-8.68318
t	-8.68713
ةً	-8.69391
▁قامت	-8.69601
▁الإسلامي	-8.69642
تا	-8.69838
يع	-8.70106
صب	-8.70179
جو	-8.70381
كا	-8.70392
▁أُ	-8.70549
▁وهذا	-8.70564
طي	-8.70582
▁رأس	-8.70605
عت	-8.70643
▁يكن	-8.70649
▁جزء	-8.70711
دل	-8.71048
▁الأوروبي	-8.71088
▁نظر	-8.71218
▁ولاية	-8.71256
▁السادس	-8.71305
صف	-8.71868
▁تعتبر	-8.71988
▁وفق	-8.71997
سو	-8.71999
جمع	-8.72013
لم	-8.72083
▁جديد	-8.72216
▁واست	-8.72276
▁الرئيسية	-8.72426
انية	-8.72441
▁جامعة	-8.72476
راء	-8.72516
▁سبيل	-8.72738
▁الجديدة	-8.72856
نس	-8.72982
▁العشرين	-8.7313
▁الدولية	-8.73301
▁وقال	-8.73324
جم	-8.73461
▁قوات	-8.73519
▁حالة	-8.7356
خت	-8.73562
بت	-8.73655
▁الأكثر	-8.73763
▁جمهورية	-8.73861
▁الحزب	-8.73886
▁بأ	-8.73946
▁أعلى	-8.74114
آ	-8.74328
▁السُلطان	-8.74452
▁توجد	-8.74465
وري	-8.74644
p	-8.74645
▁مجال	-8.74714
▁دولار	-8.74754
رت	-8.74837
▁يوليو	-8.74854
▁أنحاء	-8.75023
ائر	-8.75133
▁يناير	-8.75153
▁بالنسبة	-8.75201
بط	-8.75257
ولى	-8.7555
▁كانوا	-8.75608
f	-8.75656
٪	-8.75842
▁يونيو	-8.76106
▁أنواع	-8.76122
كت	-8.76144
▁قدم	-8.76156
أن	-8.76202
▁ليس	-8.76222
بع	-8.7653
▁د	-8.76575
▁تن	-8.76581
رو	-8.76592
اع	-8.76763
سا	-8.76814
▁المياه	-8.76883
▁رو	-8.76982
▁اليهود	-8.77018
▁مايو	-8.77024
▁فال	-8.77252
رف	-8.7727
19	-8.77409
u	-8.77497
ائل	-8.77546
هُ	-8.77571
دار	-8.77853
▁إليها	-8.77858
▁سطح	-8.77897
5	-8.77943
▁للأ	-8.77951
▁الحديثة	-8.78186
▁الحرارة	-8.78187
طو	-8.78331
دور	-8.78356
غو	-8.78413
▁فا	-8.78441
▁عدم	-8.78492
▁فوق	-8.78609
▁المتوسط	-8.78704
▁مكان	-8.78709
صح	-8.78783
▁سبتمبر	-8.78839
▁يعتبر	-8.7905
دية	-8.7906
اط	-8.79155
▁العزيز	-8.79317
m	-8.79493
▁خارج	-8.79503
قول	-8.79536
▁نقل	-8.79588
بين	-8.79665
تو	-8.7984
▁ديسمبر	-8.80004
را	-8.80206
▁المسيحية	-8.80227
▁الوسطى	-8.80276
حم	-8.80397
▁الأمير	-8.8061
يته	-8.8063
▁يبلغ	-8.80652
▁أس	-8.80775
عا	-8.80781
▁العاصمة	-8.8088
▁جزيرة	-8.81584
▁السنوات	-8.82005
▁الرئيسي	-8.82083
مي	-8.82125
en	-8.82382
▁مدن	-8.82479
8	-8.82518
▁والس	-8.82632
اش	-8.82692
g	-8.82759
▁حزب	-8.82803
▁نوفمبر	-8.83018
▁مستوى	-8.83043
حد	-8.83105
فو	-8.83353
بان	-8.83354
▁مست	-8.83522
▁الاقتصاد	-8.83639
▁لِل	-8.83644
قطع	-8.83646
▁لو	-8.83752
▁الشيخ	-8.83824
▁آ	-8.83899
▁الغرب	-8.84161
نة	-8.84178
50	-8.84181
اي	-8.84207
▁وصف	-8.84211
▁كا	-8.84262
وك	-8.84279
▁معركة	-8.84369
جد	-8.84439
▁أعمال	-8.84543
▁النبي	-8.84801
▁لذلك	-8.84826
زم	-8.84901
ائد	-8.8492
عين	-8.84965
▁وغيرها	-8.85109
▁الفرنسية	-8.85307
▁الماء	-8.85455
يّ	-8.85524
اته	-8.856
▁حل	-8.85628
▁خاص	-8.85792
▁الو	-8.85836
▁وسط	-8.85875
▁إضافة	-8.85898
▁البر	-8.86088
عي	-8.86131
كن	-8.86187
▁الكتاب	-8.86205
a	-8.86246
نظر	-8.8634
▁الجديد	-8.86353
▁تأثير	-8.86361
▁الفلسطينية	-8.86442
▁لغة	-8.86481
ارات	-8.86543
شا	-8.87491
طلق	-8.87597
رم	-8.87627
غل	-8.87743
▁منظمة	-8.87753
▁أمام	-8.87807
▁لإ	-8.87834
▁الاست	-8.87842
▁تعد	-8.87887
▁سم	-8.87947
شت	-8.87957
▁الاسم	-8.87971
▁الصين	-8.87975
▁عرض	-8.88064
▁الكبرى	-8.8812
▁فتح	-8.88236
▁الأم	-8.88379
▁مليار	-8.88394
▁إنتاج	-8.88405
خل	-8.88525
▁ميل	-8.8859
قص	-8.88621
زع	-8.88671
▁اليابان	-8.88794
لين	-8.88868
زي	-8.88901
بد	-8.89068
راد	-8.89143
h	-8.8921
▁المح	-8.89288
قد	-8.89366
▁مساحة	-8.89515
غن	-8.89658
7	-8.89755
ارت	-8.89855
▁أواخر	-8.89916
▁المحيط	-8.90057
حر	-8.90118
▁أيام	-8.9017
يوس	-8.90366
طب	-8.904
ثر	-8.90694
▁حي	-8.90709
▁كي	-8.9107
▁آسيا	-8.91106
▁يقوم	-8.91154
▁المثال	-8.91205
▁الخط	-8.91447
▁المغرب	-8.91572
▁الحدود	-8.91608
▁الإسرائيلي	-8.91642
▁الحركة	-8.91664
▁الشعب	-8.91734
▁كثير	-8.91794
▁المجتمع	-8.91829
▁العلماء	-8.91841
▁الأخيرة	-8.91926
ضع	-8.91985
▁قانون	-8.92021
▁المصرية	-8.9217
▁عاصمة	-8.92172
▁بِال	-8.92189
▁الكبير	-8.9223
حق	-8.92521
رج	-8.92689
▁جعل	-8.92782
جن	-8.92833
أو	-8.9294
▁بواسطة	-8.92988
▁الفرنسي	-8.9311
▁19	-8.93121
كم	-8.93278
▁إنشاء	-8.93278
▁الاقتصادية	-8.9329
▁وع	-8.93417
بير	-8.93438
k	-8.93534
▁بني	-8.93634
▁أبريل	-8.93693
اغ	-8.93812
▁حدود	-8.9385
جا	-8.93897
▁البعض	-8.93989
حي	-8.94049
▁السلام	-8.94189
▁حكومة	-8.94262
ّر	-8.94357
▁أغسطس	-8.94421
طا	-8.94545
▁البريطانية	-8.94572
▁دمشق	-8.94637
▁والح	-8.94665
راب	-8.94733
ضم	-8.94778
تش	-8.94793
▁الميلادي	-8.94859
▁الشام	-8.95019
راك	-8.95116
▁الرابع	-8.95132
;	-8.95278
▁يست	-8.95392
ّل	-8.9555
اعت	-8.95626
▁يقول	-8.95763
▁سر	-8.95967
▁الخامس	-8.96207
▁الخليفة	-8.96254
ضي	-8.96286
▁اللغات	-8.96309
ظهر	-8.96328
▁جي	-8.9633
▁للت	-8.96375
▁الأمن	-8.96424
صرف	-8.96465
سن	-8.96482
▁الكنيسة	-8.96499
إ	-8.9653
▁وك	-8.9658
▁فر	-8.96614
▁السابق	-8.96653
▁الدينية	-8.9667
▁الشرقي	-8.96745
▁مقر	-8.96896
وش	-8.9692
▁يجب	-8.9706
▁أساس	-8.97072
بك	-8.97117
▁الآخر	-8.97122
▁العلم	-8.97131
▁نصف	-8.9714
كان	-8.97157
▁الخارجية	-8.97279
ايا	-8.97345
راف	-8.97409
▁والإ	-8.97482
▁العسكري	-8.97512
▁تستخدم	-8.97543
▁الثورة	-8.97551
▁عاد	-8.97588
▁الث	-8.97698
▁يعرف	-8.97747
▁وجه	-8.97801
▁يستخدم	-8.97907
10	-8.97949
دم	-8.97997
جان	-8.98059
يرة	-8.98518
قيم	-8.98529
▁كلمة	-8.98582
▁وبين	-8.98583
اتها	-8.98657
an	-8.98803
▁أل	-8.98972
▁نو	-8.98988
al	-8.99107
وى	-8.99112
▁الحسن	-8.9952
▁30	-8.99604
▁عصر	-8.99814
000	-8.99835
▁الأوروبية	-8.99928
▁الثامن	-9.0013
▁فن	-9.00132
▁كيلومتر	-9.00228
▁حياته	-9.00277
▁المصري	-9.00314
▁موقع	-9.00415
صاب	-9.00425
سر	-9.00437
▁أرض	-9.00494
▁القانون	-9.00706
▁فهي	-9.00721
▁النفط	-9.00815
▁ويُ	-9.00827
مير	-9.00982
▁25	-9.00987
▁المختلفة	-9.01014
▁إعادة	-9.01046
ذا	-9.01127
▁مختلف	-9.01224
▁لمدة	-9.01263
▁القديم	-9.01348
▁مملكة	-9.01626
▁بأنه	-9.01628
ران	-9.01695
لال	-9.01704
شكل	-9.01743
▁الوزراء	-9.018
▁بقيادة	-9.01802
▁جيش	-9.02037
▁كو	-9.02161
حكم	-9.02204
▁تر	-9.02295
صد	-9.02389
▁خلف	-9.02439
▁مو	-9.02442
▁بغداد	-9.02457
▁ث	-9.02501
سان	-9.02563
وح	-9.02629
▁ارتفاع	-9.02706
▁وهناك	-9.02711
▁c	-9.02725
▁القرآن	-9.02746
,000	-9.02768
▁2008	-9.02908
▁عقد	-9.02925
ائه	-9.03125
▁طلب	-9.03155
▁القدس	-9.03178
▁باستخدام	-9.03402
شق	-9.03405
بس	-9.03428
▁بذلك	-9.03437
الية	-9.03576
أي	-9.03642
▁السعودية	-9.03658
▁أمريكا	-9.03719
▁باشا	-9.03751
▁فبراير	-9.03773
ستان	-9.03786
تل	-9.03909
لق	-9.03961
▁صغيرة	-9.04136
▁عنه	-9.04136
▁البريطاني	-9.04192
▁يصل	-9.04211
يار	-9.04258
▁الآ	-9.04459
▁الأمريكي	-9.04741
▁قوة	-9.0506
قط	-9.05076
شير	-9.051
فصل	-9.05113
▁الثقافة	-9.05122
▁الكون	-9.05124
حتى	-9.0515
▁بالت	-9.05226
فة	-9.05231
▁السابع	-9.0524
ثق	-9.0531
▁جبل	-9.05605
▁الأكبر	-9.06059
▁–	-9.06185
▁تشكل	-9.06192
▁بإ	-9.06205
اوي	-9.06262
▁دا	-9.06272
عرف	-9.06396
▁الأعمال	-9.06431
▁أربعة	-9.06604
▁الحديد	-9.06654
▁الجزء	-9.06774
اري	-9.06806
▁وق	-9.06929
▁يعود	-9.06976
▁الأردن	-9.07008
▁تشمل	-9.07101
▁التجارية	-9.07143
دت	-9.074
▁بريطانيا	-9.07418
▁الرومانية	-9.07562
▁أخ	-9.07662
لدى	-9.07682
▁التجارة	-9.07754
▁المر	-9.07775
دان	-9.07783
رات	-9.0784
فن	-9.07922
فيد	-9.08061
اص	-9.08249
30	-9.08298
▁بحر	-9.08321
z	-9.08349
▁العالمي	-9.08384
كار	-9.08558
▁بيت	-9.08558
▁وفاة	-9.08621
9	-9.08738
قسم	-9.0875
▁الألمانية	-9.08809
▁القدم	-9.08867
▁المحلي	-9.09217
▁أثر	-9.09284
▁والق	-9.0933
▁الإمبراطور	-9.09341
▁2007	-9.09535
▁فهو	-9.09578
▁جاء	-9.09622
بور	-9.09697
هد	-9.09714
باب	-9.09839
▁معدل	-9.10295
▁نطاق	-9.10313
دق	-9.10341
▁(19	-9.10361
▁تقوم	-9.10401
▁يعد	-9.10496
زن	-9.10626
غير	-9.10628
دفع	-9.10646
▁2006	-9.1072
▁ولد	-9.10758
▁دو	-9.10825
شو	-9.10894
▁مح	-9.10931
هو	-9.11028
▁تطوير	-9.11029
▁والب	-9.11054
▁والع	-9.11197
▁دفع	-9.11271
عيد	-9.115
▁هؤلاء	-9.11515
11	-9.11537
▁الطبيعية	-9.11765
نتج	-9.11782
▁الداخلية	-9.11782
وج	-9.11797
▁أعضاء	-9.11804
▁/	-9.11876
قتل	-9.11951
سون	-9.12005
وط	-9.12012
▁عادة	-9.1205
أس	-9.12138
▁وبالتالي	-9.12231
▁الأخير	-9.12304
ولي	-9.12488
وني	-9.12566
▁قتل	-9.12622
سور	-9.12687
خط	-9.12721
نك	-9.12768
▁المحلية	-9.12856
e	-9.12872
▁العليا	-9.13011
▁أقدم	-9.1306
مس	-9.13076
▁الكويت	-9.13129
جة	-9.13134
▁السودان	-9.1317
▁ترك	-9.13237
▁عليهم	-9.1328
اتهم	-9.13285
ميز	-9.13371
▁ظل	-9.13371
الت	-9.13422
▁الدفاع	-9.13423
روب	-9.13445
▁جمع	-9.13449
عندما	-9.1375
▁يقع	-9.13931
▁تقدم	-9.14053
▁تضم	-9.14209
▁أرسل	-9.14228
مو	-9.14295
▁العهد	-9.14335
ارة	-9.14337
▁الاستقلال	-9.14351
▁أعلن	-9.14439
▁جر	-9.14451
25	-9.14509
▁الخاص	-9.1464
_	-9.14654
▁والف	-9.14654
رن	-9.14663
▁أسس	-9.14773
الي	-9.14805
▁المدارس	-9.14808
▁را	-9.14901
يث	-9.15034
عر	-9.15096
▁المواد	-9.15166
▁الأن	-9.15182
▁العصور	-9.15186
▁علماء	-9.1521
يح	-9.15242
▁الجمهورية	-9.15243
خص	-9.15373
▁دار	-9.15396
يتها	-9.15419
جميع	-9.15426
بني	-9.15443
▁بالأ	-9.15475
رون	-9.15556
دد	-9.15629
بال	-9.15678
▁أفضل	-9.15776
▁ري	-9.15845
▁فكان	-9.15923
▁واسع	-9.15978
▁طالب	-9.15986
لف	-9.16108
قدم	-9.1622
60	-9.1629
لك	-9.16312
▁الرسمية	-9.16316
▁سوريا	-9.1651
15	-9.16546
r	-9.16577
▁والن	-9.16702
ذر	-9.16702
فار	-9.16798
▁مربع	-9.16818
▁الشعبية	-9.16882
12	-9.16943
يط	-9.17147
ولد	-9.17189
▁الأبيض	-9.1722
18	-9.17268
▁والده	-9.17307
▁لبنان	-9.17311
قار	-9.17519
َّا	-9.17638
ُر	-9.17777
▁النهر	-9.17841
▁الجزائر	-9.17865
يكا	-9.17916
▁إس	-9.17962
▁2000	-9.18146
صم	-9.18197
جاب	-9.1826
▁أوائل	-9.18277
ائع	-9.18309
ائها	-9.18324
او	-9.18352
▁القاهرة	-9.18365
قبل	-9.18375
▁الكر	-9.18396
قو	-9.1845
40	-9.18486
▁قطاع	-9.18551
زو	-9.18613
▁ويمكن	-9.18642
▁زيادة	-9.18712
▁2011	-9.18723
▁فقال	-9.18735
▁المجلس	-9.18745
شهد	-9.18904
▁غزة	-9.18971
عم	-9.18986
▁2009	-9.19073
▁القمر	-9.19093
▁الاقتصادي	-9.19204
جيل	-9.19333
▁سا	-9.19382
▁ظهرت	-9.19399
▁تأسيس	-9.19403
حب	-9.19408
▁جبال	-9.19469
▁طويلة	-9.19495
صور	-9.19645
▁عالم	-9.19799
▁دراسة	-9.1993
دون	-9.20127
▁العلاقات	-9.20135
▁الثلاث	-9.20264
0,000	-9.20327
▁تطور	-9.20349
▁أغلب	-9.20366
▁تحديد	-9.20367
▁البرلمان	-9.20367
▁سلسلة	-9.20385
▁لهذا	-9.205
▁حجم	-9.20542
صار	-9.2055
▁غا	-9.20636
بري	-9.2075
ولا	-9.20875
▁حال	-9.20913
وض	-9.21076
▁رغم	-9.21188
▁هم	-9.21202
ذكر	-9.21233
▁البحرية	-9.21511
(	-9.21576
مع	-9.21585
إن	-9.21622
عمار	-9.21625
▁الإمام	-9.21845
▁البابا	-9.21918
داء	-9.21944
▁البلدان	-9.22017
▁المناخ	-9.22161
▁بك	-9.22172
▁نشر	-9.22201
x	-9.22298
▁أمير	-9.22305
▁حر	-9.22343
سلم	-9.22344
▁يعتقد	-9.22361
▁لما	-9.22474
كين	-9.22607
جز	-9.22686
يش	-9.22751
▁رفض	-9.22759
14	-9.22918
قية	-9.23043
▁توفي	-9.23047
رض	-9.23077
▁روسيا	-9.23113
▁فعل	-9.23139
▁تبلغ	-9.23219
ُل	-9.23237
نز	-9.23353
▁عنها	-9.234
▁2005	-9.23427
هل	-9.23489
▁كون	-9.23523
شك	-9.23556
بعد	-9.23579
▁الطرق	-9.2373
▁وش	-9.23786
▁تسمى	-9.238
▁أربع	-9.23876
طن	-9.23928
▁وكل	-9.2398
▁قدر	-9.24004
▁بحيث	-9.24035
▁الواقع	-9.24041
ملك	-9.24096
re	-9.24119
▁ثاني	-9.2416
▁البلد	-9.24232
بيع	-9.2426
▁نفسها	-9.24273
ذهب	-9.24347
سير	-9.24351
▁النيل	-9.24377
&	-9.24457
انت	-9.24513
عاد	-9.24687
▁الساحل	-9.24754
▁وإن	-9.24759
▁الديمقراطية	-9.24879
48	-9.24921
▁البا	-9.24941
▁الضوء	-9.2503
▁قطر	-9.25058
▁إدارة	-9.2506
▁الأساسية	-9.25061
▁أطلق	-9.25078
ستر	-9.25206
ثبت	-9.25225
▁الأحمر	-9.25292
▁الدم	-9.25443
▁كرة	-9.25477
▁درجات	-9.25511
▁النقل	-9.2565
▁مقابل	-9.25662
طلب	-9.25668
▁الانتخابات	-9.25799
▁عبارة	-9.25824
▁محافظة	-9.25879
كب	-9.25959
▁المعلومات	-9.26004
80	-9.2602
▁حرارة	-9.26026
▁صناعة	-9.26084
ابة	-9.26093
▁٪	-9.26152
▁عديدة	-9.26258
فير	-9.26268
▁الزمن	-9.26279
▁التاريخية	-9.26343
باط	-9.26411
غر	-9.2645
▁وبعض	-9.26647
▁أنّ	-9.26676
▁العلوم	-9.26704
حسن	-9.26908
لب	-9.26958
▁تصل	-9.27004
5%	-9.27043
▁الكم	-9.27193
▁اليمن	-9.27247
▁المجال	-9.27248
ّد	-9.27297
▁ني	-9.27353
▁وجد	-9.27402
▁إيطاليا	-9.2754
▁كامل	-9.27588
▁مدار	-9.27631
طة	-9.27745
▁الأسود	-9.27754
▁نظرية	-9.27854
▁دخل	-9.2786
سام	-9.27914
▁متوسط	-9.27944
▁حياة	-9.28022
ادي	-9.28152
▁الإسرائيلية	-9.282
▁الشر	-9.28204
▁بنسبة	-9.28217
▁السا	-9.28296
▁الكبيرة	-9.28316
▁عُ	-9.28352
قال	-9.28403
نفس	-9.28406
▁اليونانية	-9.28463
▁وليس	-9.28474
تس	-9.28562
▁الحر	-9.28605
▁الشعر	-9.2861
▁الشهر	-9.28615
▁الجوي	-9.28789
▁الناتج	-9.288
▁أمريكي	-9.28873
▁24	-9.28888
▁وزير	-9.28915
▁قرار	-9.28951
▁خمس	-9.28985
▁قسم	-9.29014
le	-9.29035
عرض	-9.29069
▁قائمة	-9.29146
ريس	-9.292
لاند	-9.29267
▁وج	-9.29361
▁الألماني	-9.29371
▁نقطة	-9.29436
▁اليهودية	-9.29475
▁مشروع	-9.29484
▁تكن	-9.29507
▁لن	-9.29558
▁عالية	-9.2969
▁بكر	-9.2977
▁الأدب	-9.2977
▁الشركة	-9.29869
ُم	-9.29945
▁مباشرة	-9.29953
▁الحالي	-9.30013
يلي	-9.30049
▁القبائل	-9.30075
ورة	-9.30139
▁الدستور	-9.3014
▁تعمل	-9.30195
er	-9.302
بيل	-9.30323
بية	-9.3034
به	-9.30412
خرج	-9.30446
زين	-9.30594
▁عشرة	-9.30636
▁سبب	-9.30645
▁آي	-9.30667
▁السياسة	-9.30669
سك	-9.3072
▁المو	-9.30881
يرا	-9.30913
▁تحتوي	-9.3092
▁منتصف	-9.31019
13	-9.31117
▁الجو	-9.3118
▁2004	-9.31195
اث	-9.31199
▁اكتشاف	-9.312
▁لعام	-9.31262
فق	-9.313
▁الاجتماعية	-9.31366
▁الروم	-9.31408
▁التقليدية	-9.31473
▁تنظيم	-9.31536
▁تعرف	-9.31586
▁b	-9.31684
▁وفاته	-9.31715
مار	-9.3178
▁عمليات	-9.31833
▁وان	-9.31874
▁الشمالي	-9.31895
▁إبراهيم	-9.31917
شع	-9.3194
▁بحلول	-9.31975
رية	-9.31975
عرب	-9.3206
w	-9.32132
▁أراضي	-9.32169
▁الزراعة	-9.322
▁مد	-9.3221
▁مل	-9.32292
▁أخذ	-9.32391
▁21	-9.32406
▁الطريق	-9.32446
▁s	-9.32458
▁ض	-9.32542
اسم	-9.32568
95	-9.32693
▁الجنوبي	-9.32891
st	-9.33002
▁السوفيتي	-9.33169
00	-9.33199
هار	-9.33202
▁حق	-9.33278
▁لقد	-9.33352
▁بعيد	-9.33466
▁السيطرة	-9.33493
▁أهمية	-9.33568
▁الإجمالي	-9.33604
رز	-9.33637
شرف	-9.33734
ضاف	-9.33739
70	-9.3377
غلب	-9.33811
▁الان	-9.339
▁يجعل	-9.33926
▁والك	-9.33966
▁ففي	-9.34043
▁شي	-9.34059
كة	-9.34074
▁حصل	-9.34103
▁الأس	-9.34255
غي	-9.34264
عمال	-9.34355
l	-9.3437
▁22	-9.3443
نش	-9.34455
▁المعروف	-9.345
▁وخ	-9.34668
▁لكنه	-9.34674
ترك	-9.34696
▁هتلر	-9.34697
صنف	-9.3474
▁آلاف	-9.3475
-19	-9.34778
رش	-9.34801
17	-9.34805
▁التالي	-9.34829
عقد	-9.35024
حوالي	-9.35064
i	-9.35118
▁أب	-9.35155
▁دعم	-9.3516
16	-9.35196
38	-9.35201
قام	-9.35245
▁البشر	-9.35389
▁لهذه	-9.35434
in	-9.35482
جب	-9.35516
▁تزال	-9.35524
▁سواء	-9.35538
▁برنامج	-9.35547
فرد	-9.35581
وها	-9.35594
▁المركز	-9.35629
▁بأنها	-9.35669
حص	-9.35779
▁23	-9.35788
75	-9.35815
▁عرف	-9.3589
▁عين	-9.35914
▁بور	-9.35915
صن	-9.35923
▁بلد	-9.35931
مكان	-9.35947
شارك	-9.3595
نشأ	-9.3601
▁الفلسطيني	-9.36059
مد	-9.36168
▁وغير	-9.36172
▁النظر	-9.36197
]	-9.36205
▁الخليج	-9.36215
▁الموجودة	-9.36344
▁استطاع	-9.36378
65	-9.36398
ّا	-9.36466
▁ورد	-9.3649
▁انتشار	-9.36519
▁ظهور	-9.36589
▁تمثل	-9.36658
فور	-9.36659
وث	-9.36665
▁إقليم	-9.36667
99	-9.36694
%	-9.36732
يدي	-9.36827
▁العناصر	-9.36956
قرب	-9.36987
▁الصغيرة	-9.37052
زار	-9.37269
▁صلاح	-9.37328
بلغ	-9.37377
حن	-9.37381
▁حقوق	-9.37537
▁خمسة	-9.37562
▁قطع	-9.3757
الة	-9.37786
دولة	-9.37851
▁النجوم	-9.37916
روا	-9.37955
نية	-9.38025
▁شيء	-9.38083
▁المسلحة	-9.38198
▁الإن	-9.38212
فيل	-9.38233
تز	-9.38359
حمل	-9.38395
▁إل	-9.38399
▁ظهر	-9.38412
ورد	-9.38449
▁سليم	-9.38476
▁فرض	-9.3852
▁تمكن	-9.38531
▁تع	-9.38562
▁السابقة	-9.3869
قابل	-9.38733
▁الإنتاج	-9.38801
غرب	-9.38879
علوم	-9.38928
مرة	-9.39023
وسي	-9.39036
21	-9.39064
▁26	-9.39089
امي	-9.39224
▁جهة	-9.39236
▁شهدت	-9.39336
▁المجموعة	-9.39348
بق	-9.39362
▁يسمى	-9.39369
▁العثماني	-9.39393
▁ابنه	-9.39477
▁الأوسط	-9.39568
▁زمن	-9.39622
▁النار	-9.39664
رابط	-9.39711
▁معاهدة	-9.39743
▁مجموع	-9.39907
▁الفن	-9.39973
راق	-9.39992
▁روما	-9.40013
ناس	-9.40105
ريك	-9.40183
وال	-9.40197
▁العمر	-9.4021
▁المجر	-9.40235
وطن	-9.4026
▁اعتبار	-9.40324
36	-9.40346
▁غاز	-9.40361
▁تعود	-9.40422
▁والد	-9.40458
َّر	-9.40607
▁المرحلة	-9.40623
صول	-9.40625
وار	-9.40736
▁ولكنه	-9.40783
لاحظ	-9.40812
▁كثيرة	-9.40824
▁وصول	-9.40857
▁البحث	-9.40879
فلسف	-9.40887
▁معينة	-9.40962
▁ذو	-9.40989
▁تست	-9.41011
▁المسلمون	-9.41094
قاع	-9.41096
▁الأقل	-9.41103
▁أجزاء	-9.41125
37	-9.4114
33	-9.41243
اقت	-9.41383
▁شبكة	-9.41428
▁العملية	-9.41429
▁رجال	-9.41557
اخ	-9.41698
▁واسعة	-9.41806
جين	-9.41832
▁صاحب	-9.41914
لاك	-9.41994
22	-9.42032
اذ	-9.42113
▁آنذاك	-9.42124
▁لأنه	-9.42178
ضا	-9.42213
▁احت	-9.42253
صنع	-9.42257
▁هيئة	-9.42271
▁يزيد	-9.42274
▁السن	-9.42286
قاتل	-9.42415
▁لقب	-9.42446
نقل	-9.42456
ظل	-9.42457
44	-9.42568
▁100	-9.42598
▁البشرية	-9.42663
▁الحال	-9.42665
▁إم	-9.427
▁الإنجليزية	-9.42701
تشر	-9.42784
▁الأو	-9.42811
وجه	-9.42823
▁فصل	-9.42889
▁اقتصاد	-9.4298
زر	-9.43007
▁الصف	-9.4304
▁الحل	-9.43044
تصنيف	-9.43071
▁دستور	-9.43103
رجع	-9.43192
▁اقت	-9.43199
▁أعلنت	-9.43203
ثلاث	-9.43238
عظم	-9.43266
▁تل	-9.43308
24	-9.43383
▁تشكيل	-9.43471
▁يمثل	-9.43516
▁الأندلس	-9.43617
=1	-9.43622
پ	-9.43701
تحد	-9.43708
▁وزارة	-9.43712
–	-9.43721
▁المؤتمر	-9.43744
▁عضو	-9.43752
كرة	-9.43773
▁قيادة	-9.43775
▁وسائل	-9.43815
▁شعر	-9.43971
▁الطب	-9.43991
▁النوع	-9.44083
▁الجسم	-9.44093
▁صالح	-9.44191
▁يشكل	-9.44273
▁حدث	-9.44315
▁انت	-9.44425
سبب	-9.44491
▁الموقع	-9.44499
▁الحيوانات	-9.44598
▁مرحلة	-9.44609
جمهورية	-9.44639
▁لديها	-9.44734
▁القوى	-9.44752
صدر	-9.44774
▁2010	-9.44873
▁والخ	-9.45
▁2003	-9.45007
دخل	-9.45085
or	-9.45148
▁وهذه	-9.45153
▁a	-9.45157
▁العلمية	-9.45167
90	-9.45193
ريد	-9.45195
صا	-9.45227
عب	-9.45244
▁باب	-9.45245
▁مهم	-9.4525
▁أنهم	-9.45262
▁قيام	-9.45296
▁قائد	-9.45319
▁الجانب	-9.45321
▁الض	-9.45324
▁يزال	-9.45387
خار	-9.45399
جاز	-9.45433
34	-9.45565
▁فلا	-9.45612
26	-9.45744
ويل	-9.45816
▁عم	-9.45845
▁حلب	-9.45915
فقًا	-9.45918
دافع	-9.45933
▁طرق	-9.45943
▁تحقيق	-9.45989
سكن	-9.46038
▁كتابه	-9.46058
غار	-9.46066
وضع	-9.46103
▁متعددة	-9.46177
▁المغول	-9.46239
▁27	-9.46272
▁القارة	-9.46288
يج	-9.46372
رافق	-9.46461
نق	-9.46471
َّن	-9.46528
▁قل	-9.46581
▁1.	-9.46608
▁تح	-9.46643
▁عا	-9.46695
▁2012	-9.46698
▁تو	-9.46721
ةٍ	-9.46731
▁الحاسوب	-9.46821
تصل	-9.46867
مدينة	-9.46896
▁وقام	-9.46921
▁الروماني	-9.46925
▁شعب	-9.46928
▁حسن	-9.46942
قطاع	-9.46948
عام	-9.46951
v	-9.46972
▁تشير	-9.46976
بات	-9.46996
▁حديث	-9.4702
▁باللغة	-9.47021
لاء	-9.47084
▁نور	-9.47088
▁الفر	-9.471
▁وحدة	-9.47174
▁مصطلح	-9.47197
▁أدت	-9.47221
كتاب	-9.47248
قب	-9.47324
64	-9.47353
▁صح	-9.47392
▁ليست	-9.47394
▁مسلم	-9.47418
ضيف	-9.47429
خلف	-9.47511
فاق	-9.47518
▁الصحية	-9.47528
▁الآثار	-9.47537
▁الشمسية	-9.4762
▁سكانها	-9.47637
▁وأصبح	-9.47645
سكي	-9.47648
▁إيران	-9.47654
▁الماضي	-9.4774
▁(1	-9.47858
▁مرض	-9.47921
ائم	-9.47971
▁انتقل	-9.47972
شعر	-9.48009
طف	-9.48054
▁قاد	-9.48077
▁المقدس	-9.48156
▁اعت	-9.4816
▁عسكري	-9.48171
نغ	-9.48236
مور	-9.48273
كث	-9.48352
عبد	-9.48376
شد	-9.48396
اسي	-9.48396
▁سير	-9.48409
▁إطلاق	-9.48434
▁القوة	-9.48458
▁أبرز	-9.48533
يمن	-9.48609
درج	-9.48617
45	-9.48676
تعاون	-9.48713
غني	-9.48851
▁آثار	-9.48869
39	-9.48902
ميل	-9.48918
▁حاكم	-9.48947
▁تك	-9.48961
▁مياه	-9.48997
▁مصدر	-9.49049
ra	-9.49078
▁تعني	-9.49081
كتب	-9.49088
▁محل	-9.49129
هدف	-9.49156
▁يعمل	-9.49185
علن	-9.49254
حدث	-9.49499
▁يؤدي	-9.49532
▁مدرسة	-9.4958
لات	-9.4959
▁تمتلك	-9.49611
▁محاولة	-9.49619
▁يعني	-9.49674
▁المرض	-9.4971
▁الإنترنت	-9.49774
▁أصول	-9.49786
جار	-9.49978
▁العمال	-9.50142
خدم	-9.50144
▁تمت	-9.50249
▁سك	-9.50254
برا	-9.50276
▁رجل	-9.50443
إلى	-9.50453
▁بدل	-9.50492
98	-9.50588
حافظ	-9.50604
▁قصر	-9.50612
الأ	-9.5062
فع	-9.50674
▁رقم	-9.50746
▁بد	-9.50746
▁بهذا	-9.50813
تبادل	-9.50838
فض	-9.50841
ديد	-9.50905
▁الهيدروجين	-9.50926
▁مكة	-9.51025
▁المعروفة	-9.5105
▁التالية	-9.5109
▁لاحق	-9.51127
▁لأول	-9.51152
▁باريس	-9.51201
▁المؤ	-9.51249
▁الأطفال	-9.51406
لام	-9.51434
▁الأب	-9.51442
▁والش	-9.51484
غور	-9.51513
▁مؤتمر	-9.51544
▁مهمة	-9.51591
▁ولي	-9.51595
▁الولاية	-9.51665
▁سياسي	-9.51687
واجه	-9.51747
بول	-9.5177
▁المد	-9.51838
صي	-9.51856
▁فإنه	-9.51913
▁الوحيد	-9.51922
▁عاش	-9.51992
باني	-9.52041
▁تونس	-9.52058
▁قو	-9.52093
4"	-9.52158
41	-9.5218
ّب	-9.5219
▁مُحمَّد	-9.52257
▁الصراع	-9.52292
▁استخدم	-9.52298
فتح	-9.52432
▁الحصول	-9.52449
عادة	-9.52481
49	-9.52515
▁منصب	-9.5252
27	-9.52542
انغ	-9.52561
▁فرع	-9.52566
ضرب	-9.52597
خير	-9.52617
▁مجتمع	-9.52646
رأس	-9.5265
43	-9.52668
▁السل	-9.528
فرض	-9.5282
علي	-9.52867
تغير	-9.52873
▁القطاع	-9.52903
ساعد	-9.52929
نظم	-9.52931
▁الغلاف	-9.52939
23	-9.53046
▁أشكال	-9.53085
▁مي	-9.53123
▁طويل	-9.53161
▁المصادر	-9.53281
▁بوش	-9.53281
▁كوكب	-9.53285
▁الطبيعي	-9.533
▁فارس	-9.53311
▁السر	-9.53354
▁الاحتلال	-9.53418
▁غر	-9.53434
وتو	-9.53438
▁وخاصة	-9.53461
96	-9.53493
63	-9.5353
▁الصيف	-9.53542
ذب	-9.53567
▁حتَّى	-9.53579
رع	-9.5363
▁بير	-9.53647
يران	-9.53668
▁بعضها	-9.53696
عن	-9.53721
ده	-9.53762
تلك	-9.53778
▁[	-9.53787
▁المادة	-9.53863
▁البل	-9.53893
وص	-9.53899
حضر	-9.53915
▁استمر	-9.5395
▁تظهر	-9.53956
▁اللاتينية	-9.54026
gt	-9.54051
▁الواحد	-9.54067
▁p	-9.54082
▁التسمية	-9.541
▁بلغت	-9.54147
▁تغيير	-9.5415
ساو	-9.54165
▁الثالثة	-9.54235
▁مدى	-9.54263
▁مطار	-9.543
▁العدد	-9.54382
▁عسكرية	-9.54403
▁نص	-9.54449
▁حم	-9.54463
شن	-9.54497
▁يطلق	-9.54549
▁50	-9.54574
▁ملايين	-9.54583
سجل	-9.54607
▁الكربون	-9.54615
85	-9.54708
▁الأحيان	-9.54749
▁m	-9.55
67	-9.55037
▁قناة	-9.55097
تطبيق	-9.55121
▁رد	-9.5514
▁المرتبة	-9.55266
▁عثمان	-9.55344
راح	-9.55448
بنى	-9.55458
ّي	-9.55463
▁السفن	-9.55523
▁الخلافة	-9.55639
▁الواقعة	-9.55726
▁تحمل	-9.55771
▁ثورة	-9.55794
▁قر	-9.55868
سين	-9.5591
عمل	-9.55946
▁وأصبحت	-9.55951
اض	-9.55996
▁مش	-9.56006
فكر	-9.56046
سمى	-9.56086
▁والر	-9.56114
▁الوصول	-9.56123
▁مس	-9.56136
▁الصينية	-9.5615
جاه	-9.56168
ريف	-9.56212
▁تحدث	-9.56221
▁جا	-9.56251
▁وراء	-9.56294
3"	-9.56305
فاء	-9.56367
▁مسؤول	-9.5648
▁دين	-9.56545
ادة	-9.56572
▁الحملة	-9.56591
▁ستالين	-9.56621
▁ويت	-9.56631
▁إسبانيا	-9.56645
▁رئيسي	-9.56675
2"	-9.56678
▁سل	-9.56734
▁وادي	-9.56738
إسلام	-9.56765
▁الشكل	-9.56785
▁الوضع	-9.56822
▁الإعلام	-9.56846
يري	-9.56851
▁والج	-9.56894
راع	-9.56944
ضح	-9.56961
▁مئوية	-9.56961
▁ثُمَ	-9.56971
▁حُ	-9.5699
عهد	-9.57
باس	-9.57107
▁المجاورة	-9.57135
1"	-9.57143
▁اتحاد	-9.57143
▁ود	-9.57178
▁الأحداث	-9.57209
روم	-9.57239
▁تقسيم	-9.57283
▁فكرة	-9.57302
نسب	-9.57315
وفي	-9.57316
▁السي	-9.57354
تحدث	-9.57367
باء	-9.57399
توفر	-9.57413
▁أفراد	-9.57567
عارض	-9.57588
▁28	-9.57592
la	-9.57602
نى	-9.57647
▁جد	-9.57709
▁29	-9.57723
▁الناصر	-9.57725
▁ساحل	-9.57789
جير	-9.57792
▁وصلت	-9.57931
▁الألعاب	-9.58004
عكس	-9.58007
▁القتال	-9.58031
▁خالد	-9.581
صة	-9.58283
ينية	-9.58367
▁الجامعة	-9.58434
94	-9.58452
قض	-9.58466
▁خرج	-9.58526
46	-9.58541
▁فان	-9.58613
قطار	-9.58651
قرار	-9.58667
92	-9.58703
▁مقاطعة	-9.58716
مَّا	-9.58756
▁المسرح	-9.58782
▁الموسيقى	-9.58804
▁الإله	-9.58815
▁الشركات	-9.58981
▁(2	-9.58996
ّع	-9.59055
▁اكتشف	-9.59098
▁طب	-9.59104
قارب	-9.59124
ريح	-9.59134
ضى	-9.59163
▁الحكومية	-9.59305
▁الأصل	-9.5935
▁النفس	-9.59355
▁سياسة	-9.59422
55	-9.59424
ترو	-9.59504
▁الثقافية	-9.59505
▁موسى	-9.59581
▁الروسية	-9.59652
▁قليل	-9.59667
8"	-9.59676
▁الذ	-9.59689
formula	-9.5975
عادل	-9.59773
▁التحرير	-9.59785
رسل	-9.59804
▁الزراعية	-9.59815
▁حساب	-9.59818
كال	-9.59854
el	-9.59901
▁الملكية	-9.5997
▁سان	-9.59982
▁تنفيذ	-9.60026
وجب	-9.60071
▁جون	-9.60081
86	-9.60096
▁المالية	-9.6012
▁الأمطار	-9.60157
▁للدولة	-9.60167
▁طريقة	-9.60187
▁بعده	-9.60188
لعب	-9.60197
▁المال	-9.60238
حركة	-9.60277
▁يقرب	-9.60338
▁خان	-9.60348
▁أور	-9.60392
صوم	-9.60465
5"	-9.60496
▁المخ	-9.60506
▁وقعت	-9.60534
▁ومنها	-9.60539
28	-9.60594
راث	-9.60611
▁الهجرة	-9.60614
▁البداية	-9.60639
47	-9.6068
▁أساسي	-9.60683
▁نُ	-9.60688
7"	-9.60762
بحر	-9.60812
▁خلاف	-9.60935
ليف	-9.60967
▁ناحية	-9.61001
▁دخول	-9.61016
▁نجد	-9.61026
97	-9.61059
35	-9.61075
ـ«	-9.61083
لقى	-9.61113
▁ور	-9.61116
is	-9.61135
▁شعبية	-9.61139
▁h	-9.6118
▁المسيحيين	-9.61213
قصد	-9.61228
▁جُ	-9.6126
عسكر	-9.61294
▁البن	-9.61341
▁تعليم	-9.61369
ُن	-9.61441
29	-9.61478
▁وهم	-9.61484
▁وبال	-9.61489
▁مك	-9.61493
▁العظيم	-9.61534
أحد	-9.61578
ء	-9.61605
on	-9.61616
وغ	-9.61682
▁الكهربائية	-9.61724
▁جماعة	-9.61738
▁سليمان	-9.61762
قدر	-9.61763
▁الأساسي	-9.61767
▁شو	-9.61807
▁فلم	-9.61845
▁الذاتي	-9.6185
توقع	-9.61915
▁وص	-9.61936
عل	-9.61956
تنا	-9.61975
▁كلا	-9.61982
بوت	-9.6203
▁للإ	-9.62039
▁بايزيد	-9.62093
قاطع	-9.62113
زون	-9.62141
▁الحالية	-9.62156
بدأ	-9.62191
42	-9.62282
▁الرحمن	-9.62286
عات	-9.62288
▁انتخابات	-9.62288
6"	-9.62402
صلح	-9.62412
طور	-9.62473
▁قياس	-9.62486
▁تركيا	-9.62556
▁الأعلى	-9.6257
صلاح	-9.62609
ثير	-9.62648
ائب	-9.62663
▁تق	-9.62667
▁سعود	-9.62751
▁أسماء	-9.62771
ربع	-9.62782
ri	-9.62838
▁الرسمي	-9.629
▁سُ	-9.62918
داد	-9.6293
▁وهكذا	-9.62984
▁الرومان	-9.63059
▁نمو	-9.63077
▁الكيميائية	-9.63102
▁تتكون	-9.63122
ليم	-9.63153
▁الحادي	-9.63161
كور	-9.63173
▁الرسول	-9.63181
سائل	-9.63234
▁اختيار	-9.63362
صيب	-9.6341
الف	-9.63446
68	-9.63478
▁السلطات	-9.6354
لح	-9.63584
▁جنب	-9.63589
▁ضم	-9.63603
▁الصناعية	-9.63622
منح	-9.63623
▁عرفت	-9.63675
▁الموصل	-9.63709
▁علاقة	-9.63718
▁f	-9.63771
فضل	-9.63777
▁الغاز	-9.63781
ِي	-9.63816
صو	-9.63819
9"	-9.63841
حيل	-9.63844
تبع	-9.63919
▁المذهب	-9.63928
▁اليونان	-9.63966
ليل	-9.6405
▁المماليك	-9.64118
▁نشاط	-9.6413
مح	-9.64163
فس	-9.6419
▁تغير	-9.64194
عامل	-9.64223
▁التابعة	-9.64229
▁بار	-9.64235
ندي	-9.64278
▁الأسرة	-9.64304
▁المدرسة	-9.64357
تحرك	-9.64362
تغيير	-9.64384
▁غزو	-9.64401
لون	-9.64402
وسط	-9.64412
داع	-9.64574
▁2001	-9.64593
لل	-9.64657
؟	-9.64722
▁الكتب	-9.64737
▁جدا	-9.64781
▁يوسف	-9.64844
تُ	-9.65057
▁حملة	-9.65074
▁الهواء	-9.65089
راس	-9.65157
▁زوج	-9.65166
▁بقي	-9.65195
▁تقريبًا	-9.65203
▁تقديم	-9.65206
رين	-9.6527
لغ	-9.65277
87	-9.65298
جري	-9.65332
▁العلاج	-9.65333
▁شا	-9.65337
▁رسول	-9.65393
▁1991	-9.654
خي	-9.65552
▁المعركة	-9.65645
▁تقل	-9.65664
▁1990	-9.65779
▁النساء	-9.65813
▁الكاثوليكية	-9.65841
▁بسرعة	-9.65955
▁الفلك	-9.66003
▁سار	-9.66006
▁الجوية	-9.66058
وكالة	-9.66158
▁سقوط	-9.6616
رمز	-9.66201
▁أتباع	-9.66262
▁تأسست	-9.66274
باع	-9.6629
▁العالي	-9.66319
▁علاقات	-9.66328
تحول	-9.66346
▁كنيسة	-9.6635
دري	-9.66391
▁إسماعيل	-9.66433
▁الضفة	-9.66479
شيد	-9.66486
▁تعتمد	-9.66519
▁الأعضاء	-9.66532
▁حسين	-9.666
▁التعاون	-9.66671
ِل	-9.66707
▁الكا	-9.66723
▁بعدها	-9.66743
89	-9.66789
برز	-9.6685
عترف	-9.66862
▁كار	-9.66864
▁1948	-9.66915
▁التر	-9.66933
▁التأثير	-9.66948
عيش	-9.66953
▁يتكون	-9.67018
▁40	-9.6704
حال	-9.67047
▁إجمالي	-9.67088
▁يحدث	-9.67104
61	-9.67208
▁مواقع	-9.67232
▁هام	-9.67239
▁البيانات	-9.67302
▁2014	-9.67305
▁كتلة	-9.67371
رتفع	-9.67426
▁انتخاب	-9.67534
غول	-9.67543
▁اللا	-9.67553
▁لندن	-9.67571
وافق	-9.67602
مارس	-9.67667
▁قبائل	-9.67689
▁المق	-9.67706
سة	-9.67713
موسيقى	-9.6773
دفن	-9.67732
يني	-9.67748
▁أع	-9.67773
سقط	-9.67805
وقف	-9.67819
غان	-9.67839
▁محمود	-9.67858
مهندس	-9.67928
▁اتفاقية	-9.67939
حديث	-9.68027
▁البرازيل	-9.68042
▁النجم	-9.68082
69	-9.68091
▁أبناء	-9.68141
▁محطة	-9.68146
حرب	-9.68161
قانون	-9.68168
دعى	-9.6818
▁صور	-9.68183
درس	-9.68211
ثا	-9.68233
طاق	-9.68233
حظ	-9.68236
وتر	-9.68255
▁الطريقة	-9.6831
▁بلا	-9.6832
▁جزر	-9.68329
li	-9.68375
▁الدو	-9.68427
▁إله	-9.68445
▁تش	-9.68542
200	-9.68576
lt	-9.68581
▁يشير	-9.68672
▁اخت	-9.6872
▁الإسكندرية	-9.68766
▁استمرت	-9.68778
عود	-9.68808
▁جورج	-9.6882
عز	-9.68845
ساء	-9.68856
▁ويتم	-9.68897
▁البيزنطي	-9.68973
صير	-9.68986
رئيس	-9.69039
كوك	-9.69169
▁مسرح	-9.69183
▁نجاح	-9.69204
روس	-9.69209
▁عقب	-9.69216
▁1967	-9.69217
76	-9.69227
▁المغناطيسي	-9.69246
▁باعتباره	-9.69266
56	-9.6929
▁الأوَّل	-9.69403
▁حاول	-9.69438
حام	-9.69453
▁قيمة	-9.69481
▁مصادر	-9.69484
رى	-9.69504
▁الرياضيات	-9.69548
▁سعيد	-9.69566
▁الكوكب	-9.69599
ناز	-9.69664
َّت	-9.69674
▁البعث	-9.69724
▁بدون	-9.69729
▁اتجاه	-9.69804
62	-9.69813
دس	-9.69818
="9	-9.69828
رام	-9.69933
ديان	-9.69966
عالم	-9.69971
▁الأطلسي	-9.69989
شحن	-9.70029
▁فاز	-9.70066
▁فمن	-9.70161
وحد	-9.70205
َّم	-9.70224
▁صدر	-9.70225
وة	-9.70237
تن	-9.70243
ومي	-9.70258
▁وخلال	-9.704
له	-9.70426
اختلاف	-9.70434
▁الحسين	-9.70447
تاريخ	-9.70469
▁ستة	-9.70488
▁الضغط	-9.70546
58	-9.70564
▁عز	-9.70721
▁عل	-9.70741
▁حجر	-9.70848
قاء	-9.70882
77	-9.70886
▁إعلان	-9.70918
▁والص	-9.7097
▁فل	-9.70993
▁2002	-9.71044
▁المركزية	-9.71094
▁نموذج	-9.7111
▁الكونغو	-9.71127
تأثر	-9.71132
َّى	-9.71191
رفع	-9.71218
أخر	-9.71282
▁الفرق	-9.71366
▁يبقى	-9.71378
▁تسبب	-9.71453
88	-9.71507
▁g	-9.71513
جسد	-9.7163
▁البيزنطية	-9.71663
اعة	-9.71683
▁بينها	-9.71756
▁الإسكندر	-9.7181
▁نق	-9.71858
▁قرب	-9.7195
▁للغاية	-9.71968
▁مستقلة	-9.72001
بحث	-9.72059
▁خطوط	-9.72102
▁النمسا	-9.72126
مون	-9.72212
▁الحروب	-9.72227
▁النهاية	-9.72235
▁تعريف	-9.7224
القرب	-9.72255
▁أعداد	-9.72297
▁الأهلية	-9.72306
نتاج	-9.72344
▁الصحراء	-9.72361
عتمد	-9.72395
▁المسؤول	-9.72399
شاعر	-9.72407
▁لغات	-9.72423
افي	-9.72442
▁معه	-9.72446
▁جهاز	-9.72481
81	-9.72482
واجهة	-9.72497
ro	-9.72532
▁الطبيعة	-9.72579
روي	-9.72583
78	-9.72604
▁الكواكب	-9.72667
تقدم	-9.72691
91	-9.72714
▁بحيرة	-9.72715
66	-9.72756
▁قُ	-9.72756
▁شر	-9.72798
32	-9.72809
▁الجن	-9.72885
▁الفكر	-9.72943
▁برلين	-9.73011
▁مرور	-9.73149
83	-9.73175
▁يحمل	-9.7324
0"	-9.73282
▁الفرد	-9.73287
▁شديد	-9.73289
79	-9.73307
تقويم	-9.73309
▁(3	-9.73321
ضة	-9.73323
لقي	-9.73341
07	-9.73393
▁السم	-9.73407
▁بيروت	-9.73408
خن	-9.73412
▁المكان	-9.7345
▁الحق	-9.73481
▁التركية	-9.73483
زوج	-9.73577
▁قرية	-9.73586
▁بينهم	-9.7359
▁الشباب	-9.73638
▁الجبهة	-9.73651
ch	-9.73659
▁يظهر	-9.73661
▁الحاكم	-9.73671
نمو	-9.73686
ضر	-9.7374
غالبية	-9.7376
▁الخدمات	-9.73784
▁النشاط	-9.73806
▁المس	-9.73822
فاد	-9.73851
طول	-9.73891
عتقد	-9.73891
▁0	-9.73929
▁بشر	-9.73958
▁2015	-9.74011
▁الثلاثة	-9.74014
نشر	-9.74043
▁جل	-9.74059
▁السورية	-9.74091
▁مكتب	-9.74232
▁القياس	-9.74235
▁الرياض	-9.74302
▁السوق	-9.74304
▁هما	-9.74361
يكو	-9.74392
▁لكنها	-9.74411
▁2013	-9.74415
▁برامج	-9.74425
روح	-9.74435
▁اللجنة	-9.74462
1,	-9.74654
زة	-9.74656
رغب	-9.74691
▁يعتمد	-9.7472
▁الكل	-9.74739
▁الأكسجين	-9.74752
▁صورة	-9.74773
▁وعند	-9.7481
▁كأس	-9.74936
▁النمو	-9.7495
ينغ	-9.74965
▁تشرشل	-9.75003
▁العمليات	-9.75006
▁وابن	-9.75006
us	-9.75042
ثار	-9.75073
09	-9.75079
وحدة	-9.75087
▁نائب	-9.75089
فان	-9.75094
بلاد	-9.75155
ِهِ	-9.75185
▁صغير	-9.75206
تخصص	-9.75213
▁الدراسات	-9.75217
دام	-9.75245
دراس	-9.7526
▁عامي	-9.75261
▁أف	-9.75274
▁قاعدة	-9.75287
▁ثانية	-9.75314
ic	-9.75358
▁مجموعات	-9.75408
▁ميناء	-9.7544
سود	-9.7544
▁مقارنة	-9.75445
▁المُوافقة	-9.75455
▁يرجع	-9.75458
متد	-9.75484
▁سب	-9.75519
▁للبلاد	-9.75555
71	-9.75603
▁الاجتماعي	-9.75631
هاجم	-9.75633
93	-9.75651
▁الصليبيين	-9.75656
▁يع	-9.75685
▁سورة	-9.75701
قوا	-9.7571
▁فريق	-9.75787
▁مرات	-9.75788
▁المنظمة	-9.75799
إقامة	-9.75816
▁الديمقراطي	-9.75834
▁الجمعية	-9.75865
عوا	-9.75889
برمج	-9.75969
te	-9.75983
نزل	-9.76018
كوم	-9.76061
ّف	-9.76092
تشي	-9.76116
▁نسب	-9.76161
▁يذكر	-9.76187
▁حدوث	-9.76192
نفذ	-9.76197
تون	-9.76263
▁إما	-9.76273
وخ	-9.76337
it	-9.76381
▁جائزة	-9.76441
▁وقع	-9.76505
▁وتُ	-9.76505
ماس	-9.76548
▁صار	-9.76635
ليون	-9.76642
▁السيارات	-9.76708
▁طاقة	-9.7673
▁مؤسس	-9.76748
74	-9.76783
▁صف	-9.76789
حداث	-9.7684
حاول	-9.76851
غزو	-9.7688
▁الكلمة	-9.76906
▁سرعة	-9.76936
▁القضاء	-9.76938
▁النظرية	-9.76986
حصن	-9.7702
▁يَ	-9.77029
▁جداً	-9.7704
▁الأناضول	-9.77084
na	-9.77221
عش	-9.77299
▁يرى	-9.77316
▁الفضاء	-9.77321
▁سجل	-9.77381
رجم	-9.7741
▁الرياضية	-9.7759
▁إلي	-9.77598
مملكة	-9.77643
▁ناصر	-9.77695
▁لفترة	-9.77699
▁الحديدية	-9.7775
▁ضعف	-9.77775
كري	-9.77786
نيا	-9.77796
▁الإيطالية	-9.77824
[[	-9.77893
اقة	-9.77931
▁وغيرهم	-9.78008
▁الشيوعي	-9.78042
ثور	-9.78078
▁الكرة	-9.78078
يكي	-9.78091
▁جامع	-9.78149
قُ	-9.78149
▁تس	-9.78158
طار	-9.78165
▁تسمية	-9.78204
افة	-9.78208
▁وأكثر	-9.78209
شتر	-9.78283
لاق	-9.78305
▁البناء	-9.78314
▁يح	-9.78362
روض	-9.7837
▁الحالة	-9.78392
53	-9.78419
▁الإدارة	-9.78522
قوم	-9.78533
▁عناصر	-9.78641
▁الشخصية	-9.78654
▁وتعتبر	-9.78669
▁هدف	-9.78698
▁أبا	-9.78716
▁رسمية	-9.78851
▁وعدد	-9.7887
▁السياحة	-9.78944
▁نجم	-9.78954
▁فور	-9.79036
▁تعداد	-9.79046
01	-9.79154
▁الهرم	-9.79175
ضعف	-9.79184
شف	-9.792
سعى	-9.79212
▁إفريقيا	-9.79219
تأسيس	-9.79239
▁وبذلك	-9.7924
دول	-9.79315
▁مفهوم	-9.79379
▁حمل	-9.79407
▁لح	-9.79426
▁يتحدث	-9.79443
▁الملكي	-9.79473
▁عكس	-9.7949
▁قبيلة	-9.79495
حارب	-9.79502
▁السويد	-9.79556
▁بكل	-9.79557
▁نشأت	-9.79567
محافظة	-9.7959
▁أنَّهُ	-9.79607
مول	-9.79669
وشي	-9.79757
▁عامًا	-9.79763
82	-9.79829
▁تعرض	-9.79846
▁المُسلمين	-9.79858
خو	-9.79867
▁لِسن	-9.79903
امية	-9.79905
شاهد	-9.79935
▁العظمى	-9.7994
▁كُل	-9.79976
▁وعلم	-9.8002
▁اسمه	-9.80061
="10	-9.80112
كية	-9.80146
▁السبب	-9.80156
54	-9.80184
▁الأهلي	-9.80188
ساح	-9.80244
خفض	-9.80273
▁صوت	-9.80378
ليس	-9.80389
84	-9.80431
▁أصحاب	-9.80436
بلد	-9.80464
▁الشتاء	-9.80515
▁مسجد	-9.80552
▁البو	-9.80604
يض	-9.80616
▁نابليون	-9.80628
▁يحتوي	-9.80634
سحب	-9.80696
َّل	-9.80731
يتي	-9.80739
أر	-9.80796
▁عربية	-9.80801
▁كن	-9.80804
▁الجنود	-9.80834
راج	-9.80877
▁الإسبانية	-9.80878
▁الرياح	-9.80889
▁اعتبر	-9.80894
▁طن	-9.80897
▁أح	-9.80945
ائهم	-9.80971
فرة	-9.80975
▁بموجب	-9.80987
▁الغزو	-9.81029
اند	-9.81033
▁اتفاق	-9.81036
▁الشخص	-9.81049
▁الصحة	-9.81061
▁القرار	-9.81062
حرم	-9.81083
▁أخيه	-9.81114
عمد	-9.81143
▁والعشرين	-9.81163
لوك	-9.81169
ركب	-9.81178
رمان	-9.81239
▁القوانين	-9.81241
▁لصالح	-9.81266
▁المستوى	-9.81268
كول	-9.8127
ولة	-9.81355
▁يسمح	-9.81385
لس	-9.81435
ورا	-9.81436
▁فهم	-9.81504
نظام	-9.81507
صوف	-9.81543
انا	-9.81594
مشتق	-9.81643
منطقة	-9.81745
▁القر	-9.81775
▁خير	-9.81786
▁النسبية	-9.81812
▁المشروع	-9.8184
▁سيما	-9.81842
▁القومي	-9.81849
▁ذهب	-9.81854
دّ	-9.81868
▁طرف	-9.81956
زال	-9.8197
▁الكبريت	-9.82
▁العاشر	-9.82047
حقق	-9.82055
▁اليابانية	-9.8208
51	-9.82163
سمي	-9.82173
▁باقي	-9.8224
ًّا	-9.82251
كثر	-9.82257
▁وفقا	-9.82273
▁القيادة	-9.82274
▁الفيزياء	-9.82292
▁بصورة	-9.82352
سيل	-9.82383
سكو	-9.82404
▁وجعل	-9.82432
▁كور	-9.82461
▁الفاطمي	-9.82485
▁الأصلية	-9.82506
تار	-9.82507
▁القيام	-9.8252
▁ويعتبر	-9.82571
▁الداخلي	-9.82579
▁النقد	-9.82642
▁الاستعمار	-9.82655
▁إنه	-9.82758
تنظيم	-9.82806
اكس	-9.82866
▁الفريق	-9.82902
▁اهتمام	-9.82967
تنفيذ	-9.82985
لى	-9.83052
▁رمز	-9.83068
▁قوي	-9.831
▁تختلف	-9.83153
نطق	-9.83165
▁معروف	-9.83302
▁أنفسهم	-9.83379
▁حب	-9.83391
▁الجغرافي	-9.83446
حكام	-9.83503
▁خل	-9.83559
خبر	-9.83589
ُّون	-9.83591
▁وعمل	-9.83604
▁سوق	-9.83611
▁المحكمة	-9.83633
▁ثنائي	-9.83637
فات	-9.83682
بيت	-9.83721
▁الإيطالي	-9.83735
▁بهم	-9.83782
▁تجمع	-9.83796
▁الجبال	-9.83811
▁العلاقة	-9.83825
▁المريخ	-9.83891
ُور	-9.83894
▁سريع	-9.83907
▁تعيين	-9.83957
مرض	-9.83962
▁كمية	-9.84038
▁ذي	-9.84079
جع	-9.8408
▁رفع	-9.84108
غراف	-9.84167
تطور	-9.84172
▁بول	-9.84176
▁شك	-9.84188
كشف	-9.84233
▁ولقد	-9.84242
▁الإخوان	-9.84249
▁القسم	-9.84276
▁نوبل	-9.84345
ِ]]	-9.8446
صناعة	-9.84473
خطوط	-9.84501
▁إجراء	-9.8451
طبق	-9.8452
▁نتائج	-9.84532
▁فرق	-9.84583
▁قلب	-9.84584
57	-9.84604
▁القديس	-9.8468
لع	-9.84685
قاف	-9.847
▁الناحية	-9.84732
نهار	-9.84759
ائط	-9.84769
امة	-9.84797
▁البيضاء	-9.84808
52	-9.84821
▁تقريبا	-9.84921
▁الحلفاء	-9.8497
▁ام	-9.85003
إدارة	-9.8501
▁القائد	-9.85023
تراوح	-9.85023
▁إطار	-9.85023
▁الجر	-9.85046
▁الحج	-9.85071
▁عنصر	-9.85108
▁أولى	-9.85119
▁أيرلندا	-9.85124
03	-9.85125
▁31	-9.85145
▁الفقر	-9.85197
شتهر	-9.85222
نهر	-9.85236
▁يبدو	-9.85272
لحق	-9.85278
باد	-9.85308
سكان	-9.85321
▁تفسير	-9.85338
ينا	-9.85376
at	-9.85383
▁تطبيق	-9.85387
▁بطريقة	-9.85473
وصل	-9.85473
سافر	-9.85484
تنوع	-9.85488
وصف	-9.85494
=10	-9.85498
▁بمعنى	-9.85525
رحل	-9.85556
▁الممكن	-9.8556
ضيق	-9.85568
اليوم	-9.85616
▁أيدي	-9.8562
قترح	-9.85642
▁الحقيقي	-9.85651
▁لهُ	-9.85705
▁غو	-9.85734
▁السوري	-9.85779
▁t	-9.85788
▁اختلاف	-9.85807
▁لجنة	-9.85819
▁الإدارية	-9.85855
ناخ	-9.85889
شاء	-9.85934
▁الأشخاص	-9.85991
دود	-9.85995
▁البنية	-9.86037
تجار	-9.86045
▁الذهب	-9.86091
▁الأولمبية	-9.86102
▁تلق	-9.8611
▁وفر	-9.86124
▁كوريا	-9.86216
حدد	-9.86236
▁البحرين	-9.86238
ta	-9.86277
ّت	-9.86285
موت	-9.86285
▁بدء	-9.86288
تحويل	-9.86296
كرم	-9.86299
طالب	-9.86302
▁الألمان	-9.86308
أربع	-9.86316
علام	-9.86413
ضاع	-9.86414
تفق	-9.86451
لقب	-9.86493
دُ	-9.86545
2%	-9.86556
05	-9.86564
72	-9.86569
▁الحد	-9.86673
▁الرجال	-9.86825
▁الوحدة	-9.86878
▁التطور	-9.86905
▁عائلة	-9.86914
شبه	-9.86974
ونية	-9.86976
▁رب	-9.86986
▁الوحيدة	-9.87006
▁المكسيك	-9.87029
▁سال	-9.87085
ادية	-9.87091
▁:	-9.87107
مركز	-9.8712
▁وتت	-9.87145
▁اجتماع	-9.87174
▁البرية	-9.87191
واء	-9.87217
سهل	-9.87236
ماء	-9.87238
▁التشغيل	-9.87259
كاتب	-9.87263
▁اليوناني	-9.87267
▁منزل	-9.87274
عاهد	-9.8732
▁المؤسسات	-9.87327
خضر	-9.8734
▁وأنه	-9.87341
▁الجزر	-9.87352
بعث	-9.8738
إسرائيل	-9.87382
▁تمتد	-9.87405
مُ	-9.87421
▁برا	-9.87456
فون	-9.8746
▁الغابات	-9.87516
واد	-9.87548
▁(18	-9.87591
▁موقف	-9.87608
وارد	-9.87631
شعب	-9.87654
يدة	-9.87659
▁يو	-9.87663
رار	-9.87725
▁العلمي	-9.87782
▁قابل	-9.87788
▁المجموعات	-9.87806
▁الشعوب	-9.87812
▁لأنها	-9.87851
ابات	-9.87861
▁بكثير	-9.87897
▁سوف	-9.87904
▁أنظمة	-9.8791
وء	-9.87982
▁وط	-9.88099
▁حاليا	-9.88123
أهل	-9.8816
فريق	-9.88172
▁أراد	-9.88194
▁الخارج	-9.88203
تكامل	-9.88209
حاصر	-9.88217
▁الأع	-9.8822
▁رأي	-9.88273
▁ذر	-9.88293
لز	-9.88382
ِّي	-9.88409
▁ومنذ	-9.88439
▁معبد	-9.8846
▁الرقم	-9.88503
تك	-9.88513
▁أجهزة	-9.88524
▁قليلة	-9.88591
▁الصناعة	-9.88636
زد	-9.88661
▁الشَّام	-9.88666
ؤكد	-9.88681
جح	-9.88726
صوص	-9.8873
لكرة	-9.88806
▁النصف	-9.88868
شور	-9.8887
73	-9.88885
شب	-9.88918
▁المستخدم	-9.88939
▁أج	-9.88993
فاف	-9.88996
قدس	-9.88998
طلاق	-9.89042
▁الأنواع	-9.89065
راض	-9.89073
▁بس	-9.89146
حفظ	-9.89164
▁خلق	-9.89172
▁النهائي	-9.89189
▁حالياً	-9.89226
هب	-9.89228
توس	-9.89282
▁تحويل	-9.89337
▁بحسب	-9.89377
▁سابق	-9.89447
▁تصنيف	-9.89468
▁أقصى	-9.8947
▁مناخ	-9.89475
سيط	-9.89475
درا	-9.89479
▁المش	-9.89483
▁ضرب	-9.89527
▁المسجد	-9.89534
▁المسيح	-9.89567
قصر	-9.89587
يتو	-9.89625
روز	-9.89647
▁تقريباً	-9.89663
▁القاعدة	-9.89665
ائف	-9.89704
31	-9.8973
▁الهندسة	-9.89756
ألف	-9.89838
▁الدي	-9.89903
▁الساعة	-9.89935
بغ	-9.90017
جعل	-9.90047
▁كانون	-9.9009
حرف	-9.9015
فترض	-9.90182
رسي	-9.90216
▁استقلال	-9.90232
جيش	-9.9024
حاد	-9.90247
ونغ	-9.9025
ّم	-9.90256
▁إثر	-9.90257
▁تتراوح	-9.90282
دمج	-9.90283
▁تبع	-9.90287
▁وف	-9.90334
ظاهر	-9.90373
▁الفرس	-9.90379
اوية	-9.90382
ازي	-9.90388
اقتصاد	-9.90401
▁قصيرة	-9.90435
▁الشمسي	-9.90459
▁السطح	-9.90525
▁سياسية	-9.90534
="11	-9.90567
▁بشأن	-9.90574
▁انتهت	-9.90592
▁العُثمانيَّة	-9.90607
يفة	-9.9061
▁إصدار	-9.90615
▁الكتابة	-9.9063
▁أصغر	-9.90708
▁وجنوب	-9.90714
59	-9.90742
▁مؤسسة	-9.90744
un	-9.90782
حرق	-9.90788
▁ثالث	-9.90814
▁الجنسية	-9.9082
▁رواية	-9.90866
▁هنا	-9.90872
خان	-9.90904
لر	-9.90905
▁قلعة	-9.90936
فعل	-9.9099
جتمع	-9.91021
هور	-9.91046
▁النووي	-9.91057
▁1999	-9.91078
▁كبار	-9.9109
▁حالات	-9.91098
باقي	-9.91114
▁اتخذ	-9.91116
بون	-9.91119
▁واستمر	-9.91147
لَّا	-9.91156
لمان	-9.91169
▁الشعبي	-9.91181
▁الاشتراكية	-9.91256
▁خدمة	-9.91276
وجد	-9.91301
زرع	-9.91327
كمل	-9.91339
▁فاست	-9.9137
▁الجهاز	-9.91378
▁نفوذ	-9.91398
▁الحجر	-9.91423
ورو	-9.91427
سبق	-9.91429
▁ولل	-9.91429
▁الأربعة	-9.91433
▁تابعة	-9.91441
▁المباشر	-9.91462
أمر	-9.91464
تابع	-9.91499
▁صد	-9.915
مكن	-9.91502
▁دخلت	-9.91505
اشي	-9.91514
▁60	-9.91546
▁جيد	-9.91579
▁عمان	-9.91592
قود	-9.9161
فلسطين	-9.91651
▁ساعد	-9.91662
▁الحضارة	-9.91676
تواجد	-9.91777
توافق	-9.91802
▁الصادر	-9.91876
▁الإغريق	-9.91914
▁واضح	-9.9195
ياد	-9.91957
▁وترك	-9.91957
جزيرة	-9.91993
▁تحول	-9.92012
▁الشرطة	-9.92012
▁انتهاء	-9.9203
▁البيئة	-9.92047
▁المحافظة	-9.92047
3%	-9.92061
▁المقدسة	-9.92084
عبر	-9.9209
▁وبلغ	-9.92091
▁يومًا	-9.92096
طرق	-9.92124
▁الكلاسيكية	-9.9213
حط	-9.92134
▁الكتلة	-9.92137
عقب	-9.92145
ريب	-9.92148
▁فعال	-9.92153
▁هار	-9.9217
▁التق	-9.92186
▁سام	-9.92221
كسر	-9.92228
كوب	-9.9225
حزم	-9.92265
▁وقتل	-9.92304
مراقبة	-9.92313
رفض	-9.92317
▁ساعة	-9.92357
▁الإصلاح	-9.92374
ارية	-9.92377
▁وتعد	-9.92388
▁لذا	-9.924
ختار	-9.92439
▁وسي	-9.92456
▁كبيرًا	-9.92466
تنافس	-9.92471
▁قديم	-9.92484
▁الحرة	-9.92493
ُق	-9.9251
▁فيلم	-9.92523
سنة	-9.92561
▁سلطة	-9.9257
مدرسة	-9.92658
▁جزئي	-9.92764
▁موضوع	-9.92821
▁شرع	-9.92822
▁استعمال	-9.9284
رح	-9.92846
طق	-9.92857
▁كتابة	-9.9286
▁طبقة	-9.92889
ابن	-9.92903
▁البرامج	-9.92914
لاع	-9.92932
دعي	-9.92946
توضيح	-9.93011
▁اعتماد	-9.93011
▁مايكروسوفت	-9.93013
▁1994	-9.93027
يغ	-9.93069
فترة	-9.93088
وكو	-9.93098
▁أنشأ	-9.93152
8%	-9.93166
عان	-9.93181
تقى	-9.93239
▁صحيح	-9.9326
▁قوية	-9.93268
اعتبار	-9.93338
▁مقتل	-9.9334
▁حماية	-9.93349
▁جسم	-9.9336
ur	-9.93367
▁وأعلن	-9.93387
▁الفقه	-9.93528
▁بعث	-9.93565
▁ووضع	-9.93597
▁الأصلي	-9.93661
th	-9.93667
سوم	-9.93691
▁يلي	-9.93745
▁ولذلك	-9.93767
▁وث	-9.93785
▁الموافق	-9.93804
▁الاتصال	-9.93815
ضمن	-9.9382
▁فكانت	-9.9385
▁عيد	-9.93851
▁الحجاز	-9.93859
▁ممثل	-9.93876
صبح	-9.93931
▁نجح	-9.93936
حات	-9.93944
▁الطبية	-9.93947
▁الأثرية	-9.94017
▁للح	-9.94037
▁المسيحي	-9.94078
لازم	-9.94224
رسال	-9.94248
▁فشل	-9.94313
▁لبعض	-9.94321
سط	-9.94343
▁تصميم	-9.94366
▁انخفاض	-9.94369
يلا	-9.94388
▁الذهبي	-9.94416
▁التجاري	-9.94429
▁قوم	-9.94436
▁الأحزاب	-9.94457
6%	-9.94481
▁وغ	-9.94491
▁خطاب	-9.94497
سار	-9.94542
▁تقرير	-9.94621
ليك	-9.94661
▁المئة	-9.94714
حيط	-9.94743
ضار	-9.94765
▁العرش	-9.94858
▁وأرسل	-9.94872
▁تأثر	-9.94911
الب	-9.94936
ne	-9.94944
▁تكوين	-9.94969
▁الروح	-9.9497
صدق	-9.95031
4%	-9.95032
▁مادة	-9.95108
)"	-9.95142
درب	-9.95169
سيا	-9.95198
وضح	-9.95215
▁البالغ	-9.95223
انس	-9.95271
▁ربما	-9.95272
▁المعرفة	-9.95309
ثني	-9.95345
▁العرض	-9.9551
رعاية	-9.95521
بوب	-9.9555
▁العقل	-9.95569
صانع	-9.95593
▁تتبع	-9.95644
▁جندي	-9.95653
تعدد	-9.95687
▁تتم	-9.95757
="4	-9.95797
▁الشيعة	-9.95803
إس	-9.95888
▁الجامعات	-9.95924
▁سلطان	-9.95933
▁شارك	-9.95942
ساس	-9.95967
غالب	-9.9597
06	-9.95975
▁تتميز	-9.95986
يء	-9.95987
▁سيف	-9.95988
▁بينهما	-9.95989
َل	-9.96006
▁ربيع	-9.96014
▁الرياضة	-9.96025
قن	-9.96028
▁تشرين	-9.96048
باحث	-9.9606
▁°	-9.96082
حلول	-9.9613
▁قادة	-9.96146
▁نقص	-9.96165
se	-9.96198
▁أشار	-9.96223
▁حو	-9.96284
▁انتقال	-9.96285
وير	-9.96319
▁مثال	-9.96334
▁النباتات	-9.96402
▁دورة	-9.96406
▁اضطر	-9.96414
1%	-9.96431
▁وو	-9.96518
▁الصناعات	-9.96529
▁المساحة	-9.9653
نان	-9.96548
▁بعضهم	-9.96556
▁سيطرت	-9.96572
▁للمدينة	-9.96577
▁بهدف	-9.9662
▁نادي	-9.96631
ma	-9.96643
مشاركة	-9.96646
▁عهده	-9.96647
▁النص	-9.96689
▁الأمور	-9.96698
فهم	-9.96712
▁ويبلغ	-9.96723
سلاف	-9.96737
▁200	-9.9678
▁الأر	-9.96782
▁سوني	-9.96793
خيل	-9.9681
▁قرر	-9.96829
▁وذكر	-9.96846
▁أسرة	-9.96907
▁كافة	-9.96937
▁المتعلق	-9.9698
▁حماس	-9.97017
رتبط	-9.97029
▁وتشمل	-9.97054
▁1945	-9.97056
بورغ	-9.97106
▁عموم	-9.97116
َّد	-9.97195
▁دعا	-9.97215
زان	-9.97285
▁الياباني	-9.97306
▁الكهرباء	-9.9733
▁الليل	-9.97335
شية	-9.97361
▁d	-9.97428
ti	-9.97454
▁إر	-9.97466
آل	-9.97504
ca	-9.97522
ـ/	-9.9754
▁تعالى	-9.9755
▁المقاومة	-9.9756
▁الفلسفة	-9.97577
▁المستخدمة	-9.97591
▁اسمها	-9.97599
02	-9.97642
▁الثقافي	-9.97649
▁العراقي	-9.97724
▁فو	-9.97743
▁دائرة	-9.97809
▁غالبًا	-9.97814
▁العلوي	-9.97872
▁حضر	-9.97876
حسين	-9.97901
▁جمال	-9.9796
رود	-9.98007
لوث	-9.98016
me	-9.98055
مجلة	-9.98063
▁تدريجي	-9.98067
▁المعارضة	-9.98075
▁الجماعة	-9.9809
▁2016	-9.98101
ُس	-9.98102
قيد	-9.98108
ملاح	-9.98108
▁شائع	-9.98146
سلط	-9.98168
طيف	-9.98196
سند	-9.98221
سيارات	-9.9825
lo	-9.98252
روج	-9.98271
▁عد	-9.9828
دعوة	-9.98302
ترا	-9.98304
▁منح	-9.98319
▁كثافة	-9.98327
▁أينشتاين	-9.9836
رجال	-9.98377
قاط	-9.98405
▁آب	-9.98441
▁يتعلق	-9.98497
شغل	-9.98528
▁وأخذ	-9.98591
سرعان	-9.98619
درجة	-9.98625
▁ليبيا	-9.98637
فين	-9.98657
▁والط	-9.98663
600	-9.98686
▁رسالة	-9.98693
خارج	-9.98725
شيخ	-9.98727
▁احتلال	-9.98745
▁حلف	-9.98769
▁الحي	-9.98787
▁سبق	-9.98789
بيا	-9.98829
▁المهاجرين	-9.98841
▁عظيم	-9.98849
أساليب	-9.98861
▁الطائف	-9.98869
▁تفاعل	-9.98889
▁أحداث	-9.98889
▁حصار	-9.98927
="6	-9.9895
خيم	-9.98951
▁بهذه	-9.98972
▁الأرضية	-9.98973
▁يعيش	-9.9899
▁سيطرة	-9.99004
▁وبقي	-9.99088
▁القسطنطينية	-9.99114
نفق	-9.99152
لهجة	-9.99295
تميز	-9.99302
▁هزيمة	-9.99336
▁الجليد	-9.99338
▁مراكز	-9.99374
زيم	-9.99384
دراسة	-9.99395
▁الأرمن	-9.99418
خلق	-9.99418
▁الهجوم	-9.99424
ستون	-9.99487
خضع	-9.99543
▁زار	-9.99591
▁السلة	-9.99595
▁التحالف	-9.99597
▁النووية	-9.99636
▁وبدأ	-9.99669
جرام	-9.99674
▁الطبقة	-9.99695
▁يضم	-9.99698
▁موجودة	-9.99731
▁أكسيد	-9.99742
تشابه	-9.99804
جلس	-9.99846
▁المدنية	-9.99918
بَ	-9.99962
▁هجوم	-9.99988
▁المنزل	-9.99995
▁=	-10
▁الوسط	-10.0001
▁الأسلحة	-10.0001
صيغ	-10.0004
نوع	-10.0005
▁دائم	-10.0009
قع	-10.001
▁وقيل	-10.001
▁الإصابة	-10.001
تربية	-10.0015
▁الصيني	-10.0016
▁1992	-10.0018
▁بلدان	-10.0023
▁الباب	-10.0027
▁إقامة	-10.0027
▁تغطي	-10.0029
جبر	-10.0031
▁شهد	-10.0032
ره	-10.0034
عزل	-10.0034
▁باستثناء	-10.0035
مجموعة	-10.0042
فرع	-10.0043
▁انتصار	-10.0045
▁الديانة	-10.0045
▁1995	-10.0046
▁القصر	-10.0048
▁أقام	-10.005
▁تركيب	-10.0055
▁الحب	-10.0061
▁قوانين	-10.0061
نسي	-10.0062
جمعية	-10.0074
▁الأسد	-10.0085
08	-10.0088
واقع	-10.0089
▁القطب	-10.0092
تعرض	-10.01
جرى	-10.0104
▁العراقية	-10.0109
نين	-10.0109
▁سلم	-10.0112
▁حوض	-10.0114
▁البي	-10.0115
ظم	-10.0115
▁زالت	-10.0116
▁وعن	-10.0117
▁المصدر	-10.0117
▁المكتب	-10.0119
دائي	-10.012
▁لديه	-10.0121
عاقب	-10.0123
توزيع	-10.0126
▁عمرو	-10.0127
طبع	-10.0128
أمين	-10.0134
ِم	-10.015
▁الخلايا	-10.0151
بشر	-10.0153
ce	-10.0154
▁عدا	-10.0155
▁شركات	-10.0155
▁النصوص	-10.0156
▁وعدم	-10.016
جوز	-10.016
▁العضوية	-10.0161
جمل	-10.0166
▁وأما	-10.0166
▁المصطلح	-10.0169
▁مالك	-10.0171
▁الطلاب	-10.0177
▁مقاومة	-10.0178
التهاب	-10.0179
="7	-10.0186
▁فيروس	-10.0188
▁مق	-10.0193
▁وظل	-10.0194
▁تحالف	-10.0196
▁خطر	-10.0196
▁e	-10.0199
جامعة	-10.0201
موس	-10.0202
▁الخدمة	-10.0203
عرق	-10.0204
▁الاتجاه	-10.0205
▁مسار	-10.0207
▁العمارة	-10.0207
▁طوال	-10.021
أرض	-10.0214
▁أهمها	-10.0218
▁مستويات	-10.0222
▁الموت	-10.0232
▁الدراسة	-10.0237
▁الصوت	-10.0238
▁أصدر	-10.0244
كتشف	-10.0255
▁العشر	-10.0255
▁وتع	-10.0255
▁تشغيل	-10.0258
▁التحتية	-10.0258
أكثر	-10.0269
▁بابل	-10.027
▁المحيطة	-10.0271
▁حا	-10.0274
▁الليبي	-10.0274
▁الخطاب	-10.0275
دَّ	-10.0278
▁الهندي	-10.0279
صناع	-10.0284
▁ولو	-10.0286
مات	-10.0287
ناظر	-10.0288
▁حفظ	-10.029
▁المستقبل	-10.0292
كاد	-10.0296
▁ضغط	-10.0304
جامع	-10.0312
▁2017	-10.0316
حمام	-10.0316
أل	-10.0324
ريم	-10.0331
▁سبع	-10.0335
▁السوفياتي	-10.0339
▁سمح	-10.0341
يمي	-10.0344
تقن	-10.0345
بروتين	-10.0345
▁رأى	-10.0347
عجز	-10.035
▁تخل	-10.0353
سخ	-10.0354
▁فض	-10.0366
▁بمثاب	-10.0367
▁البوسنة	-10.0369
شبكات	-10.0371
▁الحين	-10.0371
▁سور	-10.0385
▁الصومال	-10.0386
يزي	-10.0389
باك	-10.0389
نصب	-10.0392
يعة	-10.0396
لغات	-10.0398
طابق	-10.0398
▁طبق	-10.0405
7%	-10.0407
▁الجهاد	-10.0407
▁المواقع	-10.0407
▁الصرب	-10.0409
▁بالإ	-10.0411
ندر	-10.042
إعدام	-10.0423
▁1998	-10.0424
حتفظ	-10.0426
▁الورق	-10.0429
▁المركزي	-10.0431
▁الحُ	-10.0432
سليم	-10.0434
▁الرأي	-10.0434
▁القب	-10.0435
▁الكريم	-10.0435
▁شاه	-10.0437
▁زاد	-10.0438
▁التراث	-10.0441
رث	-10.0441
ol	-10.0442
حزب	-10.0443
تقل	-10.0443
قم	-10.0444
راجع	-10.0449
▁المناسب	-10.0451
هزم	-10.0452
▁n	-10.0465
▁در	-10.0467
▁توفر	-10.0468
▁المجتمعات	-10.047
زهر	-10.047
▁رق	-10.047
▁الغالب	-10.047
▁دقيقة	-10.0471
▁رمضان	-10.0477
▁البشري	-10.048
ابي	-10.0481
تردد	-10.0482
▁الغذائية	-10.0484
▁تدخل	-10.0485
▁مدة	-10.0485
▁إصلاح	-10.0486
▁العثمانيين	-10.0488
ندو	-10.0489
▁هولندا	-10.049
ڤ	-10.049
▁الأرثوذكسية	-10.0492
تعبير	-10.0493
▁يستطيع	-10.0493
ساك	-10.0499
▁جدًا	-10.0501
▁السويس	-10.0501
▁أثار	-10.0502
▁البرتغال	-10.0503
▁البيت	-10.0503
أمراض	-10.0515
تمويل	-10.0517
▁رئيسية	-10.0522
▁ويندوز	-10.0524
▁متحف	-10.0525
ستا	-10.053
▁تجارية	-10.0531
جون	-10.0531
▁مواد	-10.0532
تفاعل	-10.0539
▁الانتقال	-10.054
▁مواطن	-10.0542
▁العرقية	-10.0547
▁الكنائس	-10.0552
▁عامل	-10.0555
ac	-10.0555
▁الخمس	-10.0558
ديم	-10.0559
to	-10.056
▁الفاتيكان	-10.0561
▁المُوافق	-10.0561
▁الدروز	-10.0563
▁للعمل	-10.0564
▁الأجنبية	-10.0571
شخص	-10.0574
▁لويس	-10.0575
كُ	-10.0581
▁فرد	-10.0582
es	-10.0583
-1	-10.0583
ter	-10.0586
يقة	-10.0586
الغريغوري	-10.0589
▁تجاه	-10.059
▁فقام	-10.0593
عضو	-10.0597
▁تناول	-10.0598
يًّا	-10.06
▁بالرغم	-10.06
▁وجدت	-10.0601
▁الهندية	-10.0603
▁السبع	-10.0605
▁الخلاف	-10.0606
▁القومية	-10.0606
▁ووفق	-10.0608
▁الموارد	-10.0608
قصف	-10.0618
▁الشديد	-10.0623
لاحق	-10.0625
▁سهل	-10.0628
▁القناة	-10.0633
▁وتش	-10.0634
ميد	-10.0636
سفر	-10.0638
▁والغ	-10.0638
▁أطول	-10.0641
▁النبات	-10.0652
ّه	-10.0653
▁دام	-10.0654
▁علاج	-10.0659
إعداد	-10.0663
▁ملوك	-10.0664
▁مناسب	-10.067
▁للأمم	-10.0674
▁الأمراض	-10.0675
800	-10.0678
▁أسباب	-10.0682
▁بيد	-10.0684
صيد	-10.0685
▁وعاد	-10.0687
ظهور	-10.0689
▁فيصل	-10.0693
▁الخارجي	-10.0697
اضطراب	-10.0698
▁بلدية	-10.0699
توقف	-10.0703
فاعل	-10.0703
كاس	-10.0704
▁الحيوان	-10.0707
▁موطن	-10.0712
▁الدوري	-10.0716
هرب	-10.072
mo	-10.072
▁بري	-10.072
▁الحالات	-10.0722
▁للع	-10.0724
▁قواعد	-10.0726
▁بوجود	-10.0732
▁عُرف	-10.0734
▁التيار	-10.0739
بسط	-10.0742
▁المؤرخين	-10.0743
▁مار	-10.0744
طرد	-10.0745
الذي	-10.0748
▁الضرائب	-10.0749
▁عاماً	-10.0754
▁الدنمارك	-10.0758
▁تبقى	-10.0759
▁آر	-10.0759
حضور	-10.0759
▁السو	-10.0762
▁الحجري	-10.0765
▁الأصليين	-10.0767
ماثل	-10.077
أول	-10.077
▁معرفة	-10.077
▁الأل	-10.0778
▁لاحقًا	-10.0784
▁الدعم	-10.0785
▁الكبيسة	-10.0787
بيب	-10.0792
▁الفنون	-10.0796
ناقل	-10.0798
عداد	-10.0806
فى	-10.0807
▁القول	-10.081
▁يقدر	-10.0811
▁الشيوعية	-10.0812
▁الكهربائي	-10.0814
▁كيلو	-10.0816
شهر	-10.0816
▁1996	-10.0818
▁رئاسة	-10.0819
▁فضل	-10.0819
جميل	-10.082
▁اقترح	-10.0827
▁مول	-10.0837
▁سبعة	-10.0841
▁الطلب	-10.0844
▁متنوعة	-10.0845
▁خلدون	-10.0846
لزم	-10.0847
▁أك	-10.0851
▁الرعاية	-10.0853
▁الإي	-10.0854
▁الزي	-10.0854
▁عب	-10.0862
▁دليل	-10.0871
▁نيويورك	-10.0873
▁المذكور	-10.0873
▁توحيد	-10.0875
طال	-10.0879
▁ـ	-10.0882
رمي	-10.0887
نخفض	-10.0889
▁التقليدي	-10.0889
موقع	-10.089
▁التو	-10.0893
▁تحرير	-10.0894
َّع	-10.0895
▁نادر	-10.09
▁الأتراك	-10.0902
تلف	-10.0905
▁بعمل	-10.0905
▁تتضمن	-10.0905
▁بحث	-10.0905
▁غي	-10.0905
▁حاليًا	-10.0908
غز	-10.0909
▁يعيشون	-10.0909
▁الاحتفال	-10.0914
▁حار	-10.0917
▁المركبات	-10.0922
▁وقف	-10.0924
ربما	-10.0929
جمال	-10.093
▁ثقافة	-10.093
▁الأفريقي	-10.0931
ذي	-10.0933
▁نهائي	-10.0934
فصيل	-10.0943
▁ويقول	-10.0944
إنسان	-10.0945
▁ثمانية	-10.0945
▁خلالها	-10.0951
▁خليج	-10.0955
▁كلم	-10.0963
لد	-10.0967
▁تراجع	-10.0968
um	-10.0971
▁الخر	-10.0989
صاف	-10.099
▁الميت	-10.0994
▁طور	-10.1
▁مستمر	-10.1003
رسم	-10.1009
▁مذهب	-10.1012
▁جاءت	-10.1014
سطح	-10.1018
▁الأماكن	-10.102
▁أخذت	-10.1021
▁ماري	-10.1025
▁قبرص	-10.1025
غلق	-10.1026
▁الديني	-10.1027
سلسلة	-10.103
ge	-10.1031
▁القدرة	-10.1031
▁شخصية	-10.1038
كاب	-10.104
نَ	-10.1043
تعلم	-10.1047
▁الفنية	-10.1047
▁الأفريقية	-10.1048
▁مؤ	-10.1049
▁إليهم	-10.1056
▁الحصار	-10.1059
▁التع	-10.1061
رصد	-10.1062
▁بقية	-10.1065
▁بان	-10.1076
صديق	-10.1077
ضاء	-10.1079
▁1993	-10.1079
▁مشكلة	-10.1081
▁الإداري	-10.1081
▁مجالات	-10.1086
ّن	-10.1086
▁وأول	-10.1092
")	-10.1097
▁الصليبية	-10.11
▁كاملة	-10.1102
اريا	-10.1107
▁المواطنين	-10.1107
نتي	-10.1108
▁الظروف	-10.1109
أئمة	-10.111
حاكم	-10.1114
▁بطولة	-10.1115
▁العالية	-10.1117
تمام	-10.1118
بث	-10.1118
تناول	-10.1119
عتبر	-10.1121
▁تيمية	-10.1123
▁بارز	-10.1128
إفريقي	-10.1129
▁والز	-10.1132
افتراض	-10.1137
▁استقر	-10.1141
▁الحفاظ	-10.1142
▁العدو	-10.1147
▁بث	-10.1147
▁والولايات	-10.1148
ستعمل	-10.1153
▁لك	-10.1157
شركة	-10.1159
زف	-10.1159
جاج	-10.116
▁وأُ	-10.1163
▁سكن	-10.1165
ميكانيكا	-10.1166
▁يسوع	-10.1167
▁الاستخدام	-10.1167
▁الاتفاق	-10.117
▁يتبع	-10.1174
▁الآشوري	-10.1175
▁أعماله	-10.1178
▁حرف	-10.1179
▁السلف	-10.1184
▁الأسر	-10.1187
▁مؤلف	-10.1188
▁مركب	-10.119
▁أقرب	-10.1197
▁المشتركة	-10.1198
▁مباشر	-10.1199
▁للس	-10.1201
▁الفرع	-10.1204
ئت	-10.1205
أراضي	-10.1205
ونات	-10.1209
سعة	-10.1214
والي	-10.1217
▁العين	-10.122
▁اثنين	-10.1226
▁البصرة	-10.1227
لج	-10.1227
▁هاجر	-10.1242
ئذ	-10.1251
▁مخ	-10.1251
▁سلام	-10.1253
زراعة	-10.1259
▁المهمة	-10.1261
ايت	-10.1266
▁الجغرافيا	-10.1268
درع	-10.1275
اكي	-10.1279
▁الصخر	-10.128
▁الوطن	-10.1281
مسا	-10.1281
▁70	-10.1284
▁ترتيب	-10.1284
▁ملحوظ	-10.1286
▁البسيطة	-10.1286
▁الإمارات	-10.1286
ِر	-10.1286
▁المرأة	-10.1287
▁اللون	-10.1288
▁سف	-10.1288
▁تقليدي	-10.1289
▁رسم	-10.1298
▁المزيد	-10.1299
▁الخل	-10.1299
▁الصالح	-10.1299
▁موت	-10.1308
▁القطبية	-10.131
▁الأساس	-10.1313
▁معين	-10.1314
▁القادة	-10.1315
▁والاست	-10.1315
شط	-10.1317
▁خدمات	-10.132
لان	-10.132
▁2018	-10.1321
سأل	-10.1321
▁البرتغالي	-10.1322
يتين	-10.1325
اتفاق	-10.1326
أت	-10.1329
يتش	-10.1335
▁الهو	-10.1337
▁تنتج	-10.1337
نشط	-10.1337
بولي	-10.134
قرأ	-10.134
قوط	-10.1341
ثان	-10.1342
▁وأمر	-10.1346
▁بولندا	-10.1348
▁وأم	-10.135
ُع	-10.1351
▁(20	-10.1352
▁كيف	-10.1352
▁وأد	-10.1354
وجي	-10.1358
▁الاشتراكي	-10.1358
ni	-10.136
ثي	-10.1361
▁الفلسطينيين	-10.1361
يّن	-10.1362
▁السكانية	-10.1367
تسل	-10.1369
إمكانية	-10.1372
▁موسم	-10.1374
j	-10.1375
▁العاملة	-10.1376
اتٍ	-10.1378
عالج	-10.1379
يتا	-10.1379
مود	-10.138
▁قريب	-10.1385
▁يصبح	-10.1386
▁الإعلان	-10.1389
▁لكي	-10.1393
ادات	-10.1394
▁عادةً	-10.1394
▁إف	-10.1395
▁لأي	-10.1398
َن	-10.1402
فول	-10.1403
▁الحجم	-10.1404
▁التعبير	-10.1404
▁صنع	-10.1411
▁معروفة	-10.1412
ويد	-10.1417
سية	-10.1417
▁القانوني	-10.1419
▁وتقع	-10.1424
تنقل	-10.1426
▁الصلاة	-10.1427
▁بالغ	-10.1432
▁الساحلية	-10.1437
▁الصحابة	-10.1437
▁ثلث	-10.1438
▁الجاذبية	-10.1442
▁500	-10.1445
▁نظم	-10.1445
▁جرى	-10.1455
▁زعيم	-10.1455
▁ماركس	-10.1459
وادي	-10.1462
▁ودخل	-10.1467
وكا	-10.1468
▁1960	-10.1471
▁مبكر	-10.1472
▁إسطنبول	-10.1479
▁ببعض	-10.1481
▁وضعت	-10.1485
▁سد	-10.1487
لبي	-10.1488
ّى	-10.1488
▁جنرال	-10.1489
ثم	-10.1491
▁("	-10.1497
فرق	-10.1499
معايير	-10.15
تقليل	-10.15
▁بشدة	-10.15
de	-10.1501
ريخ	-10.1504
▁نصر	-10.1504
إزالة	-10.1505
▁شن	-10.1505
▁توسع	-10.1507
▁العباسي	-10.1508
قير	-10.1509
دني	-10.151
▁الشاعر	-10.151
▁الرابعة	-10.1518
▁نيجيريا	-10.1529
▁أمن	-10.153
قمع	-10.1531
▁الطائرات	-10.1532
▁تي	-10.1536
▁العثور	-10.1537
▁مالي	-10.1538
▁حافظ	-10.1541
▁الإقليمية	-10.1541
▁1980	-10.1545
ضخ	-10.1546
▁تعدّ	-10.1549
عاء	-10.155
▁قصة	-10.1552
▁التابع	-10.1553
أخذ	-10.1556
▁الفيروس	-10.1557
▁الأور	-10.156
▁دم	-10.156
▁الطوائف	-10.156
▁يختلف	-10.156
حاق	-10.156
▁الشبكة	-10.1565
am	-10.1566
التي	-10.1566
نيو	-10.1569
▁إمارة	-10.157
ha	-10.1571
هذا	-10.1571
حول	-10.1572
▁وافق	-10.1573
▁يُعرف	-10.1576
فص	-10.1577
ربط	-10.1578
وكس	-10.1579
دمر	-10.158
سُ	-10.1581
▁السلاجقة	-10.1583
ميني	-10.1584
▁الهدف	-10.1584
قَ	-10.1586
▁يقارب	-10.1587
▁الكاثوليك	-10.159
لّ	-10.159
أم	-10.159
خراج	-10.1591
▁كونغ	-10.1592
▁يأتي	-10.1593
▁السوداء	-10.1599
ائن	-10.16
توازن	-10.1601
▁القلب	-10.1603
▁الدنا	-10.1605
عاش	-10.1606
داخل	-10.1608
فقد	-10.1611
الد	-10.1613
▁رياضي	-10.1615
فوز	-10.1616
▁جين	-10.1618
▁مانديلا	-10.1622
▁التحليل	-10.1622
صغر	-10.1623
جائزة	-10.1624
تدفق	-10.1629
ورات	-10.1632
▁التركيب	-10.1635
▁ويوجد	-10.1636
خلاف	-10.1638
كثير	-10.164
▁الجمهوري	-10.1644
▁سعد	-10.1646
▁يوما	-10.1652
عارف	-10.1653
ِّر	-10.1653
وغو	-10.1653
▁جعفر	-10.1653
▁of	-10.1655
بحوث	-10.1655
▁1989	-10.1655
▁السكك	-10.1656
مناطق	-10.1657
▁التنمية	-10.1658
▁الآخرين	-10.1659
▁قادر	-10.1661
▁زي	-10.1664
▁الكيميائي	-10.1664
فاوض	-10.1665
▁عالمي	-10.1667
▁الاجتماع	-10.167
▁مدير	-10.1672
نهج	-10.1676
▁السماء	-10.1676
زيد	-10.1677
▁وإذا	-10.1681
ريش	-10.1685
▁للحصول	-10.1686
▁1997	-10.1687
▁الجنسي	-10.1687
▁هرم	-10.169
▁العصبي	-10.1693
▁الطعام	-10.1693
▁الجبل	-10.1695
▁الإسباني	-10.1695
▁خبر	-10.1695
يلة	-10.1709
▁أهداف	-10.1714
▁لديهم	-10.1716
▁التلفزيون	-10.1716
▁الطائرة	-10.1717
نص	-10.1719
▁الحقوق	-10.1724
▁ظلت	-10.1727
أسلوب	-10.1727
اؤه	-10.1731
▁كندا	-10.1732
▁الأسنان	-10.1733
ستقلال	-10.1738
▁ثابت	-10.174
▁يبدأ	-10.1741
▁الزكاة	-10.1744
▁تعديل	-10.1744
▁الطرف	-10.1744
▁محرك	-10.1748
▁تحليل	-10.1749
▁صيف	-10.175
▁الكيمياء	-10.175
▁البرنامج	-10.175
▁حصلت	-10.1754
▁أعقاب	-10.1755
لندا	-10.1755
عائلات	-10.176
▁الشريعة	-10.1761
قبول	-10.1763
▁رام	-10.1763
▁سمع	-10.1765
تمرد	-10.1766
▁ومصر	-10.1766
▁موجود	-10.1767
زير	-10.1767
▁وفرنسا	-10.1773
▁الصوديوم	-10.1773
عتاد	-10.1775
▁القرون	-10.1776
▁المنتجات	-10.1776
▁بالكامل	-10.1779
خصص	-10.178
ing	-10.1782
▁المك	-10.1784
▁2019	-10.1786
no	-10.1789
▁وعبد	-10.1789
▁المباني	-10.179
▁الأخ	-10.1791
▁الدكتور	-10.1793
عدل	-10.1795
راقب	-10.1796
▁انه	-10.1797
شرق	-10.1798
فارق	-10.1801
▁محددة	-10.1806
▁معدلات	-10.1807
▁عمره	-10.1809
صندوق	-10.1811
كيل	-10.1814
▁الداخل	-10.1816
طان	-10.1818
صاعد	-10.1818
▁ووصل	-10.1819
ناه	-10.1823
▁أعاد	-10.1827
▁والغرب	-10.1829
صالح	-10.1829
▁الأعظم	-10.1831
▁لاحقاً	-10.1833
▁البحري	-10.1833
▁عرب	-10.1839
▁توزيع	-10.184
▁موتورز	-10.1842
▁كلها	-10.1844
روسية	-10.1844
▁وبدأت	-10.1844
▁أسر	-10.1844
▁تنقسم	-10.1846
▁المتوقع	-10.1848
▁حينها	-10.1848
▁الحيوية	-10.1857
▁الجنس	-10.1858
▁قدمت	-10.1859
▁سمي	-10.186
▁هن	-10.186
▁شديدة	-10.1862
أسلحة	-10.1863
خور	-10.1869
إعلان	-10.187
تحقق	-10.187
▁فإنّ	-10.1872
▁النرويج	-10.1874
▁الباحثين	-10.1875
▁ثقافي	-10.1875
▁الإنسانية	-10.1875
إي	-10.1876
▁قمة	-10.188
إله	-10.188
▁بنحو	-10.1881
بحيرة	-10.1883
▁المز	-10.1885
▁فريد	-10.1887
▁الحضرية	-10.1888
مجتمع	-10.1892
▁لعب	-10.1894
رَ	-10.1898
▁النزاع	-10.19
لاف	-10.1901
▁يؤ	-10.1903
مفتوح	-10.1906
▁النهضة	-10.1907
▁خطة	-10.1921
ودي	-10.1921
▁فروع	-10.1923
▁عباس	-10.1924
▁لاعب	-10.1924
تسو	-10.1928
حَ	-10.1928
▁حرية	-10.1931
قاليد	-10.1934
▁حفل	-10.1935
▁2010،	-10.1935
▁وجاء	-10.1935
▁اتصال	-10.1935
▁يقل	-10.1937
جور	-10.194
والد	-10.194
▁طائرة	-10.1941
▁الفتح	-10.1942
▁وحدات	-10.1945
▁الأخضر	-10.1952
▁أستراليا	-10.1952
▁كاف	-10.1953
▁300	-10.1958
▁معنى	-10.196
▁البيض	-10.1964
▁توقف	-10.1965
as	-10.1966
▁ويست	-10.1975
▁فترات	-10.1979
▁ابت	-10.1983
عَ	-10.1986
لندي	-10.1989
▁المطاف	-10.199
كنيس	-10.199
▁نشأ	-10.1993
جذب	-10.1993
واقف	-10.1997
▁الأولية	-10.2003
زيل	-10.2003
▁سلالة	-10.2005
ضطر	-10.2009
ؤمن	-10.201
▁إرسال	-10.201
mi	-10.2014
رجح	-10.2015
▁صحيفة	-10.2015
▁المبكرة	-10.2016
تقديرات	-10.2019
▁ويعتقد	-10.2021
▁رسمي	-10.2021
9%	-10.2023
حاسب	-10.2023
▁سانت	-10.2024
▁الإذاعة	-10.2024
▁ورئيس	-10.2025
▁وكتب	-10.2025
▁الفا	-10.2028
▁المل	-10.2029
▁فأرسل	-10.2039
▁السير	-10.2048
الق	-10.2049
▁الإشعاع	-10.2054
▁وله	-10.2058
ٍّ	-10.2062
▁والدول	-10.2062
▁التن	-10.2068
▁يحصل	-10.2069
ref	-10.2072
▁موضع	-10.2074
▁كبيراً	-10.2079
▁اغتيال	-10.2081
ia	-10.2081
▁80	-10.2082
شرك	-10.2083
▁أماكن	-10.2085
حياة	-10.2086
سلام	-10.2086
▁الصهيونية	-10.2087
▁الصناعي	-10.2091
▁الوقود	-10.2095
▁التنظيم	-10.2096
▁بلدة	-10.21
▁باتجاه	-10.2101
توصل	-10.2101
▁أفكار	-10.2102
▁1975	-10.2103
حلف	-10.2105
▁السوفيتية	-10.2105
▁النطاق	-10.2108
▁النبوي	-10.211
صادر	-10.2114
▁العنصر	-10.2115
معالجة	-10.2125
حرك	-10.2127
أكل	-10.2127
▁السجن	-10.213
▁قديمة	-10.213
▁وز	-10.2133
سوس	-10.2137
ويت	-10.2139
شرب	-10.2139
▁عربي	-10.214
▁البار	-10.2143
أحادي	-10.2144
عمر	-10.2145
شاط	-10.215
▁اليهودي	-10.2152
ؤثر	-10.2153
صاحب	-10.2153
▁الربيع	-10.2153
▁العائلة	-10.2158
راعي	-10.2159
تعامل	-10.2161
▁ممن	-10.2163
▁الأمة	-10.2165
▁التعامل	-10.2165
▁اقتصادي	-10.2183
▁تصبح	-10.2187
▁ينتج	-10.2198
▁مشاكل	-10.2198
▁الكائنات	-10.2199
وزارة	-10.2199
▁الصحيح	-10.2203
فورد	-10.2203
حدود	-10.2205
▁رُ	-10.2206
قوق	-10.2207
جديد	-10.2208
انو	-10.2212
صعب	-10.2212
▁مقدار	-10.2214
حين	-10.2217
▁طبيعي	-10.2219
▁الإف	-10.2221
رُ	-10.2225
▁النصر	-10.2228
▁هيكل	-10.2231
▁شؤون	-10.2231
شعار	-10.2232
▁مجرد	-10.2233
▁مال	-10.2239
▁الرشيد	-10.2239
▁جول	-10.224
▁تولي	-10.2245
▁السيد	-10.2246
▁سفينة	-10.2246
هان	-10.2248
▁تقدير	-10.2252
▁المختار	-10.2253
جند	-10.2253
▁k	-10.2253
بروتوكول	-10.2264
▁التُرك	-10.2265
▁كيميائي	-10.2265
▁تتمتع	-10.2265
▁مسافة	-10.2266
▁قرابة	-10.2267
▁ومُ	-10.2268
▁2020	-10.2273
▁فيروز	-10.2275
▁وبسبب	-10.2276
جهاد	-10.2278
▁تحوي	-10.228
▁جنو	-10.228
يرو	-10.2281
▁زوجته	-10.2284
▁بيع	-10.2285
▁القرنين	-10.2285
▁الزراعي	-10.2288
▁المقابل	-10.2289
َّف	-10.2294
▁المنظمات	-10.2298
▁الفيلم	-10.2299
il	-10.2301
روف	-10.2306
▁والتجار	-10.2307
تكرر	-10.231
▁حدثت	-10.2314
ثيو	-10.2317
▁الحاضر	-10.2323
العديد	-10.2331
▁1956	-10.2333
▁والجنوب	-10.2337
▁قب	-10.2338
تأثير	-10.234
فسر	-10.234
كاف	-10.2342
▁كرو	-10.2344
▁دولية	-10.2345
▁تابع	-10.2345
جول	-10.2347
بيد	-10.2354
▁الصيد	-10.2358
شئ	-10.2358
▁تاريخها	-10.2359
▁الأميركي	-10.2363
نحن	-10.2364
بيان	-10.2364
▁الأفلام	-10.2364
▁الحمراء	-10.2365
▁الثانوية	-10.2367
▁مدريد	-10.2367
▁1918	-10.2368
▁أغ	-10.2369
▁الموضوع	-10.2369
▁الجماعات	-10.2371
▁استخدمت	-10.2372
▁الأموي	-10.2374
كوس	-10.2376
سقف	-10.2378
▁دوري	-10.2379
▁خصائص	-10.2379
▁الأنهار	-10.2381
▁النحو	-10.2384
▁شُ	-10.2386
▁الأقصى	-10.2388
▁الجنرال	-10.2393
▁طبيعة	-10.2397
▁أفغانستان	-10.2398
▁المساجد	-10.2398
▁معلومات	-10.2399
▁1973	-10.24
▁والذين	-10.2404
▁حديد	-10.2405
لوم	-10.2407
طريق	-10.2408
▁الأسماء	-10.2409
▁السُ	-10.2412
▁والهند	-10.2412
▁خُ	-10.2413
▁إلكترون	-10.2414
▁الخامسة	-10.2414
▁دُ	-10.2414
ph	-10.2415
▁توجه	-10.2416
▁المؤرخ	-10.2417
▁أكد	-10.2418
▁بتاريخ	-10.242
ساب	-10.2421
▁المؤلف	-10.2422
خاص	-10.2424
▁دل	-10.2425
جيب	-10.2425
▁اليد	-10.2428
▁مراحل	-10.2432
▁تأتي	-10.2432
▁بالن	-10.2434
▁سميت	-10.2434
ملابس	-10.2436
▁المائية	-10.2436
أخو	-10.2436
▁تجاري	-10.2438
واصل	-10.2446
تداول	-10.2448
▁العقد	-10.2451
جسيم	-10.2451
▁de	-10.2454
ولاية	-10.2458
فاصل	-10.2459
ed	-10.246
▁العاص	-10.2461
▁الروسي	-10.2465
▁لجميع	-10.2467
منع	-10.2467
مارك	-10.2469
▁اللغوي	-10.247
▁قوله	-10.247
▁تمر	-10.247
▁السلطنة	-10.247
▁بيل	-10.2472
▁الفارسية	-10.2473
نوب	-10.2474
▁أش	-10.2474
▁قتال	-10.2476
▁الخام	-10.2476
▁1000	-10.248
▁الجلد	-10.248
جراء	-10.2483
▁زال	-10.2484
أبي	-10.2487
▁وزن	-10.2495
شاش	-10.2496
▁عُثمان	-10.2496
ستراتيجي	-10.2497
▁ديزني	-10.2499
▁الآلهة	-10.2506
▁النمط	-10.2507
▁يدخل	-10.2508
▁المقام	-10.2516
▁التقدم	-10.2516
▁مُراد	-10.2518
▁وقبل	-10.2522
جام	-10.2522
سيطرة	-10.2522
هجوم	-10.2529
بناء	-10.253
po	-10.253
▁بالفعل	-10.2532
دوم	-10.2534
▁الكلمات	-10.2535
▁الثنائي	-10.2537
▁وأو	-10.2542
مواطن	-10.2542
دف	-10.2547
▁عمله	-10.2552
يسر	-10.2557
▁نزل	-10.2559
اندماج	-10.2568
▁الإشارة	-10.2568
▁تزوج	-10.257
▁المعادن	-10.2571
▁الهيكل	-10.2572
▁مستقل	-10.2574
عودة	-10.2575
▁المملوكي	-10.2576
▁العُثماني	-10.2583
sa	-10.2586
▁الجمهور	-10.2595
▁وأبو	-10.2597
فتاح	-10.26
حصل	-10.2601
▁الأرجنتين	-10.2602
▁إيزيس	-10.2602
▁كهربائي	-10.2602
▁القطط	-10.2602
▁خال	-10.2602
▁المصريين	-10.2602
▁تبدأ	-10.261
▁وبناء	-10.2613
▁الصور	-10.2613
▁تذكر	-10.2614
▁إنّ	-10.2617
▁الدور	-10.2622
فُر	-10.2623
سطو	-10.2624
▁الحساب	-10.2625
حساب	-10.2626
°	-10.2627
ياس	-10.263
طلع	-10.2631
▁الكلي	-10.2632
طع	-10.2632
▁الألومنيوم	-10.2632
عاصر	-10.2637
▁دع	-10.2637
▁الاستثمار	-10.2637
▁القضايا	-10.2638
معرفة	-10.2641
▁الحقبة	-10.2641
▁المستمر	-10.2641
▁الدعوة	-10.2641
▁قض	-10.2643
▁العُثمانيين	-10.2651
قلاع	-10.2663
▁وأكبر	-10.2669
لاط	-10.2671
▁يوحنا	-10.2671
▁الصفوي	-10.2676
كربون	-10.2679
عق	-10.268
لشركة	-10.2683
▁الأنظمة	-10.2685
▁تقول	-10.2687
▁بطول	-10.2687
▁ببناء	-10.2689
▁الزواج	-10.2693
▁المنطق	-10.2694
▁اقتصادية	-10.2696
▁ساهم	-10.2698
▁الصفر	-10.2703
▁انضم	-10.2703
▁35	-10.2706
▁وإنما	-10.2706
تواصل	-10.2709
▁وأهم	-10.271
▁القائمة	-10.2713
تنمية	-10.2717
رؤساء	-10.2719
كاي	-10.2719
▁المدار	-10.272
فشل	-10.2722
يتهم	-10.2724
صيف	-10.2726
▁سفر	-10.2727
الس	-10.2727
▁فهرنهايت	-10.2731
▁لعمل	-10.2732
▁سويسرا	-10.2732
▁دينية	-10.2733
اعي	-10.2739
▁كاليفورنيا	-10.274
▁تؤدي	-10.2745
▁جورجيا	-10.2746
▁عُمان	-10.2747
▁مئات	-10.2748
فيزياء	-10.275
يبة	-10.2754
ريج	-10.2756
▁سيطر	-10.2759
غاز	-10.2759
ربو	-10.276
ذك	-10.2764
▁الصدر	-10.2764
مقاطعة	-10.2766
▁مستخدم	-10.2773
بطولة	-10.2775
▁ورغم	-10.2775
▁البخاري	-10.2776
▁البط	-10.2776
خاطر	-10.278
▁البحار	-10.278
▁مقال	-10.2787
▁السوفييتي	-10.2789
▁الشهيرة	-10.2791
▁مسيحي	-10.2792
▁ورق	-10.2793
سيادة	-10.2798
نسخ	-10.2801
▁الموحد	-10.2803
ستين	-10.2804
▁للب	-10.281
▁جهود	-10.281
معنى	-10.2812
نيل	-10.2814
▁r	-10.2815
▁النواة	-10.2815
نظرية	-10.2818
▁التقويم	-10.2823
▁الجل	-10.2825
▁خاض	-10.2825
▁واقع	-10.2828
مستخدم	-10.2829
شرع	-10.283
طائر	-10.2832
so	-10.2834
▁1920	-10.2836
َّار	-10.2844
▁الفو	-10.2845
إجماع	-10.2845
▁الآلاف	-10.2846
▁400	-10.2847
وافد	-10.2852
▁الوجود	-10.2852
▁الري	-10.2854
▁أجري	-10.2854
قوى	-10.2855
انج	-10.2855
إيطالي	-10.2855
مثال	-10.2857
▁العلاء	-10.2858
▁والأدب	-10.2858
دخول	-10.2874
جاور	-10.2878
▁انقلاب	-10.288
▁الاستقرار	-10.2883
▁منخفضة	-10.2885
زور	-10.2886
▁الحص	-10.2887
▁التفاعل	-10.2891
▁وشمال	-10.2891
▁الكندي	-10.2892
▁نشط	-10.2896
عدّ	-10.2896
سيس	-10.2899
▁يمتد	-10.29
▁مبدأ	-10.2901
تسبب	-10.2903
▁صفر	-10.2915
َهُ	-10.2918
غالي	-10.292
▁حكمه	-10.2921
▁الفيروسات	-10.2924
▁&	-10.2927
إيجاد	-10.293
▁وجهة	-10.2931
▁قرون	-10.2932
="3	-10.2938
▁برو	-10.2939
يسي	-10.2942
▁(4	-10.2943
▁ليكون	-10.2944
نر	-10.295
▁والتعليم	-10.2951
انقسام	-10.2951
▁الكامل	-10.2952
▁والعراق	-10.2952
▁انهيار	-10.2952
▁فار	-10.2953
▁اختبار	-10.2953
▁نيسان	-10.2955
أفضل	-10.2957
دوا	-10.296
▁طبقات	-10.2963
▁النموذج	-10.2964
أمير	-10.2966
▁أمثال	-10.2968
▁الرجل	-10.2969
▁والشرق	-10.2978
=5	-10.2978
ديس	-10.298
▁شمس	-10.2984
▁عبيد	-10.2985
▁المشاكل	-10.2986
▁المقر	-10.2987
▁الناطق	-10.2987
▁المقاطعات	-10.2987
▁الجسيمات	-10.2987
استقبال	-10.2988
▁النتائج	-10.2989
▁التك	-10.2991
ارد	-10.2991
▁الأجانب	-10.2993
▁الإقليم	-10.2994
سلك	-10.2994
▁العودة	-10.2997
عظ	-10.2997
▁يمر	-10.3006
ّاً	-10.3013
▁خليفة	-10.3015
et	-10.3019
▁وأطلق	-10.3022
▁فنزويلا	-10.3022
▁المنخفضة	-10.3023
▁الكثافة	-10.3024
▁1988	-10.3024
أسطورة	-10.3025
يتان	-10.3025
▁الأيام	-10.3025
▁ويكون	-10.3025
ربة	-10.3026
▁حروب	-10.3026
َيْ	-10.3028
▁أعظم	-10.3028
ذرة	-10.3029
▁يعدّ	-10.303
ؤدي	-10.3031
حمد	-10.3033
قيل	-10.3035
▁وضم	-10.3035
▁المُت	-10.3037
هذه	-10.304
سوب	-10.3041
الك	-10.3041
سوق	-10.3042
خلص	-10.3042
مالك	-10.3043
▁المطلق	-10.3043
رتب	-10.3046
احتلال	-10.3047
▁الحاجة	-10.3047
▁الأجهزة	-10.3048
بريطاني	-10.3049
هيئة	-10.3049
▁وآخر	-10.3049
co	-10.3049
▁الأحياء	-10.3051
رخ	-10.3055
▁أذربيجان	-10.3056
▁الإسبان	-10.3057
▁الأيوبي	-10.3058
▁1970	-10.3061
▁لكنَّ	-10.3062
▁لب	-10.3066
رِ	-10.3074
▁معهم	-10.3075
▁صناعي	-10.3078
▁منصبه	-10.3079
▁وعد	-10.3081
ستقبل	-10.3081
▁يدعى	-10.3083
▁تطورت	-10.3091
▁بعنوان	-10.3094
▁الهادئ	-10.3094
▁الأدنى	-10.3094
آسيوي	-10.3094
عاصمة	-10.3094
▁شقيق	-10.3095
ثناء	-10.3096
سد	-10.3099
ندا	-10.3099
▁فلما	-10.3102
ضبط	-10.3102
إضافة	-10.3105
▁مجمع	-10.3109
لسلطة	-10.3115
▁إش	-10.3116
▁ممارسة	-10.3117
▁شيخ	-10.3118
نافس	-10.3118
حالة	-10.3122
حكومة	-10.3122
مائة	-10.3122
درك	-10.3127
ظف	-10.3132
▁القيمة	-10.3133
أستاذ	-10.3134
▁عكا	-10.3136
▁الفاتح	-10.3136
▁جلب	-10.3137
عاطف	-10.3137
▁تعيش	-10.3138
▁التقسيم	-10.3142
▁امتداد	-10.3142
▁والبحر	-10.3143
طبيعة	-10.3144
▁الحقيقة	-10.3146
▁إنجلترا	-10.3146
▁التوالي	-10.3146
رشد	-10.3147
جيد	-10.3153
▁المدني	-10.3157
▁المص	-10.3158
متر	-10.316
▁فول	-10.3165
حاجة	-10.3165
إسكندر	-10.3166
َد	-10.3167
▁كونها	-10.3168
▁تسمح	-10.3168
▁الأشجار	-10.3168
إحصاء	-10.3169
اختبار	-10.3169
▁المطار	-10.3177
تاز	-10.3181
▁الأثر	-10.3183
فرقة	-10.3188
جزء	-10.3197
▁احتمال	-10.3197
▁المعدنية	-10.32
▁الأك	-10.3202
▁بإنشاء	-10.3203
▁النواب	-10.3203
▁المشهور	-10.3204
▁مؤقت	-10.3205
ورية	-10.3205
▁أزمة	-10.3206
بعض	-10.3206
ثيل	-10.3206
▁جيوش	-10.3208
▁الأفراد	-10.3211
▁كثيرًا	-10.3217
شام	-10.3218
▁نب	-10.322
رياض	-10.3223
▁البابلي	-10.3223
عمق	-10.3225
نبي	-10.3225
os	-10.3225
▁إمبراطورية	-10.3228
ذان	-10.3231
▁المنتج	-10.3231
▁وطنية	-10.3234
انيين	-10.3234
يزيد	-10.3235
إنهاء	-10.3235
▁الجيوش	-10.3239
ناقش	-10.3241
عصر	-10.3244
▁رسوم	-10.3244
▁مقاتل	-10.3248
▁الشريف	-10.325
▁التقاليد	-10.3252
▁يا	-10.3256
تطوع	-10.3258
صريح	-10.3258
▁التونسي	-10.3262
▁اللبنانية	-10.3263
▁المعبد	-10.3266
وجين	-10.327
▁محاولات	-10.3276
▁مسعود	-10.3277
راي	-10.3279
▁عثر	-10.3283
▁يحكم	-10.3284
ريان	-10.3289
▁ولما	-10.3289
حاف	-10.3291
▁مساحتها	-10.3292
لَّ	-10.3293
▁بالمدينة	-10.3294
▁سلاح	-10.3295
▁انتهى	-10.3298
▁ويعد	-10.3298
▁الشاي	-10.33
▁عشرين	-10.33
سيد	-10.33
▁the	-10.3304
▁شارع	-10.3305
▁نسخة	-10.3308
▁القرى	-10.3309
▁والأم	-10.3312
▁الاعتراف	-10.3313
▁المراكز	-10.3313
▁تدمير	-10.3313
رصاص	-10.3314
ختلط	-10.3316
▁بالس	-10.3319
▁قيم	-10.3321
▁احتلت	-10.3324
▁جسر	-10.3325
▁مشابه	-10.3329
▁انخفض	-10.333
توزع	-10.3331
▁حمص	-10.3332
▁استمرار	-10.3335
▁اليومية	-10.3344
▁فقر	-10.3344
▁دورًا	-10.3345
▁الغزنوي	-10.3349
ab	-10.335
▁للقوات	-10.3351
دب	-10.3353
مؤسس	-10.3356
▁صراع	-10.3362
▁المعالم	-10.3362
حظر	-10.3363
▁بنفس	-10.3364
تجنب	-10.3365
▁الذري	-10.3369
ذو	-10.3372
▁إنسان	-10.3378
لوح	-10.3379
توسع	-10.3382
▁أبيه	-10.3382
حرار	-10.3384
▁الصباح	-10.3387
▁ساعات	-10.3389
سرع	-10.3393
خطط	-10.3395
قبض	-10.3396
▁الصغير	-10.3397
▁الجبلية	-10.3402
▁وسيلة	-10.3402
▁الطرفين	-10.3407
▁جنود	-10.3411
▁النحاس	-10.3412
▁القلعة	-10.3414
سمع	-10.3414
▁قرن	-10.3415
di	-10.3417
خذ	-10.3418
▁شهرة	-10.3421
سف	-10.3424
▁بقايا	-10.3424
جبل	-10.3425
▁الظواهر	-10.3425
▁حقيقي	-10.3426
▁سقطت	-10.3427
▁نبات	-10.3428
▁الأصوات	-10.343
مفهوم	-10.3432
▁ذا	-10.3437
be	-10.3437
▁تميز	-10.344
اكا	-10.3443
▁أرمينيا	-10.3444
راغ	-10.3444
▁بنفسه	-10.3447
▁الاتصالات	-10.3453
▁توفير	-10.3457
▁ونتيجة	-10.3461
قيمة	-10.3472
▁لحم	-10.3472
▁v	-10.3473
بدء	-10.3473
حجار	-10.3476
أبو	-10.3476
▁منهما	-10.3476
ينو	-10.3485
2,	-10.3495
▁الخطوط	-10.3496
دبلوماسي	-10.3497
▁الفلور	-10.3498
استكشاف	-10.3498
▁أوكرانيا	-10.3499
▁1974	-10.3501
▁الوليد	-10.3502
▁الرسوم	-10.3505
▁وبحلول	-10.3506
▁شامل	-10.3507
فيس	-10.3508
رتبة	-10.3511
▁الملح	-10.3515
َة	-10.3517
▁سفن	-10.3524
▁سيكون	-10.3528
▁ذاك	-10.353
سَ	-10.3532
سيف	-10.3533
▁تدفق	-10.3534
▁الموجود	-10.3534
▁التحكم	-10.3534
هيمنة	-10.3535
▁ضخمة	-10.3537
▁العوامل	-10.3537
▁البوذية	-10.3537
▁الطبقات	-10.3537
▁1979	-10.3538
▁الهجري	-10.3539
▁موسكو	-10.3539
▁تنتشر	-10.354
▁معاوية	-10.3544
▁السريع	-10.3545
▁العثمانيون	-10.3546
▁كميات	-10.3547
▁كجزء	-10.3548
▁الإلكترونية	-10.3548
▁السائل	-10.3549
▁انتشرت	-10.355
لعدة	-10.3553
تخذ	-10.3553
ذلك	-10.3554
▁جزءاً	-10.3559
أنماط	-10.3559
▁الوجه	-10.3561
▁التعريف	-10.3563
لانتهاء	-10.3566
▁الأسواق	-10.3574
▁المحتمل	-10.3574
يتس	-10.3574
▁اعتمد	-10.3576
فيتنام	-10.3577
▁فنلندا	-10.3577
▁الدائم	-10.3579
▁والعمل	-10.3581
زحف	-10.359
ضغط	-10.359
افا	-10.3593
كوف	-10.3593
عني	-10.3599
واحد	-10.3599
▁أمّ	-10.36
▁ولايات	-10.3605
ba	-10.3605
▁العنف	-10.3606
da	-10.3607
▁اختار	-10.3608
▁لإنتاج	-10.3614
فَ	-10.3617
▁ظاهرة	-10.3617
▁تملك	-10.3618
▁بحرية	-10.3619
▁قول	-10.362
="1	-10.3625
▁طبيعية	-10.3627
▁تجري	-10.3631
▁بوصفه	-10.3632
غريب	-10.3632
▁الفلكية	-10.3632
▁آن	-10.3641
محاولة	-10.3641
▁متزايد	-10.3644
▁فإذا	-10.365
▁الانقلاب	-10.365
▁المستقلة	-10.365
▁الجمع	-10.365
َب	-10.365
▁ويبدو	-10.365
غلي	-10.3651
▁الأجسام	-10.3651
▁محكمة	-10.3653
▁كلية	-10.3653
أحزاب	-10.3656
="12	-10.3659
تراجع	-10.366
تري	-10.366
▁بلوتو	-10.366
▁عالمية	-10.3662
تحالف	-10.3666
▁مور	-10.3669
ُد	-10.3669
وحيد	-10.367
▁السنوي	-10.3671
▁أسلوب	-10.3677
شرطة	-10.368
خدمة	-10.3684
غم	-10.3687
▁المعارك	-10.3688
▁رسميًا	-10.3688
▁الدينِ	-10.3689
روك	-10.369
نصر	-10.3692
▁الشاه	-10.3694
▁قم	-10.3698
▁آخرون	-10.3702
إيمان	-10.3703
▁محلية	-10.3704
▁السنين	-10.3708
إثبات	-10.3722
▁للحكومة	-10.3724
▁الثوري	-10.3725
▁عبادة	-10.3727
▁اختراع	-10.3727
مجلس	-10.3728
كسب	-10.3731
▁الأموال	-10.3732
▁برج	-10.3734
▁المنورة	-10.3735
▁حيوان	-10.3736
▁مريم	-10.3738
▁الحادث	-10.3742
▁فرنسي	-10.3742
▁الإمارة	-10.3748
▁يجد	-10.375
▁سين	-10.3751
▁الأردنية	-10.3757
▁كثيراً	-10.3763
محطة	-10.3763
▁التوراة	-10.3765
▁صباح	-10.3765
▁الرادون	-10.3766
▁اللاحقة	-10.3767
▁الحرية	-10.3767
تنسيق	-10.3768
تقييم	-10.3769
▁تدعى	-10.3769
▁تقنية	-10.3769
▁ارتفع	-10.3781
قائد	-10.3781
الجزائر	-10.3782
▁الدار	-10.3783
▁عودة	-10.3785
لجأ	-10.3785
="5	-10.3787
▁السياح	-10.3787
▁لتكون	-10.3791
تقرير	-10.3792
جُ	-10.3793
▁اس	-10.3796
جلد	-10.3798
▁حقق	-10.3798
▁يحت	-10.3799
▁فما	-10.38
▁الرياضي	-10.3801
▁يشمل	-10.3803
▁إشارة	-10.3805
▁شروط	-10.3805
ممارسة	-10.3811
▁الحدث	-10.3814
▁قصير	-10.3827
▁القاضي	-10.3827
ّق	-10.3841
▁بيان	-10.3848
ومن	-10.3853
▁الحو	-10.386
▁مدارس	-10.3864
فطر	-10.3866
▁وحصل	-10.3867
رامية	-10.3869
▁الكهر	-10.387
▁أقر	-10.3872
▁الدخل	-10.3875
َر	-10.3876
▁الإيمان	-10.3879
▁كرا	-10.388
▁الأسماك	-10.3881
▁جوزيف	-10.3881
▁البرمجيات	-10.3881
تعويض	-10.3881
▁وتس	-10.3882
ممارسات	-10.3883
▁لتصبح	-10.3887
ّات	-10.3888
▁تجارة	-10.3888
فحص	-10.3892
▁المحاكم	-10.3894
▁عددًا	-10.3894
▁تاريخية	-10.3895
▁المعاهدة	-10.3896
▁المعاصر	-10.3897
▁آخرين	-10.3903
▁غيرها	-10.3909
قلب	-10.3912
▁أنصار	-10.3918
▁الاهتمام	-10.392
▁الشيوخ	-10.392
▁البلقان	-10.392
▁طراز	-10.392
▁العظم	-10.3921
▁الباردة	-10.3924
▁السويسري	-10.3932
▁معهد	-10.3935
حاضر	-10.3936
بيريا	-10.394
▁أولاد	-10.394
▁تمثيل	-10.394
نادي	-10.3948
مختلف	-10.395
حور	-10.3954
مسلم	-10.3955
▁كول	-10.3956
بلا	-10.3956
▁البدو	-10.3956
700	-10.3956
▁مشتركة	-10.3957
ستخدم	-10.3958
="8	-10.3958
دفاع	-10.3959
▁الانتداب	-10.3959
▁افتتح	-10.3959
▁ازداد	-10.3959
وكي	-10.3961
▁التقنية	-10.3962
أعطى	-10.3964
▁الرب	-10.3965
قطر	-10.3967
▁بالله	-10.3968
fe	-10.3971
نيك	-10.3975
▁المجالات	-10.3976
انخفاض	-10.398
▁البيزنطيين	-10.398
إصابة	-10.3982
▁جرت	-10.3986
▁محطات	-10.3989
▁المنصب	-10.3992
فراد	-10.3996
▁مظاهر	-10.3997
▁ليوناردو	-10.3998
▁أقسام	-10.3998
▁باكستان	-10.3999
▁الروايات	-10.3999
▁الأمين	-10.4
▁اللازمة	-10.4001
▁الصخور	-10.4001
▁شكلت	-10.4001
▁الحركات	-10.4001
▁تتألف	-10.4002
▁معسكر	-10.4004
▁تركيز	-10.4006
▁تحتل	-10.4008
▁يتميز	-10.401
=12	-10.401
▁المشرق	-10.4013
دَ	-10.4016
▁ضوء	-10.4016
▁التاريخي	-10.4017
تدخل	-10.4019
▁فرقة	-10.402
▁i	-10.4027
جاع	-10.4028
طير	-10.4032
ولوجية	-10.4032
▁سيد	-10.4033
وتس	-10.4033
صفر	-10.4034
▁زيارة	-10.404
▁1963	-10.4041
▁التشريع	-10.4044
▁الصورة	-10.405
تخلص	-10.4053
▁محت	-10.4055
▁مستقر	-10.4056
▁المطبخ	-10.406
▁تربط	-10.4063
زج	-10.4066
راكب	-10.4067
▁وتن	-10.4067
▁كلمات	-10.407
أذن	-10.407
▁تعرضت	-10.4071
▁التنفيذية	-10.4072
▁التشريعية	-10.4073
خلع	-10.4073
▁القدماء	-10.4079
▁تمامًا	-10.4079
▁اختلف	-10.408
▁1964	-10.4081
ذيب	-10.4086
صورة	-10.4087
▁كبيرا	-10.4088
مدارس	-10.4089
▁اللبناني	-10.4092
وران	-10.4097
أوروبي	-10.4101
▁يحتاج	-10.4101
▁الحضارات	-10.4103
▁والدين	-10.4106
▁يملك	-10.4107
▁حمض	-10.4111
▁يجري	-10.4112
أجهزة	-10.4113
▁يقدم	-10.4113
▁والثقافي	-10.4118
▁توقيع	-10.4118
بود	-10.4121
▁مهرجان	-10.4124
▁غادر	-10.413
▁الذرة	-10.4132
▁السلاح	-10.4133
▁القُ	-10.4138
▁(15	-10.4141
▁إد	-10.4142
▁لاحقا	-10.4147
عشر	-10.4155
▁أطراف	-10.4158
▁مبارك	-10.4158
تشكّل	-10.4158
▁الأزمة	-10.416
▁1958	-10.416
▁1941	-10.4161
sh	-10.4162
▁الإرهاب	-10.4163
▁يؤمن	-10.4163
▁منع	-10.4166
▁النمساوية	-10.4169
▁المشاركة	-10.417
قوس	-10.4171
▁أهلها	-10.4175
▁هاجم	-10.4182
-18	-10.4183
▁شأن	-10.4188
▁بقيت	-10.4193
▁شرقي	-10.4193
توجه	-10.4195
▁150	-10.4196
▁باست	-10.4197
▁أمور	-10.4198
▁الذكور	-10.4199
▁لفظ	-10.42
▁قدرة	-10.4201
زول	-10.4201
▁عرفات	-10.4202
▁أظهرت	-10.4204
▁45	-10.4206
ستمر	-10.4206
علاج	-10.4208
طاط	-10.421
▁سجن	-10.421
إنترنت	-10.4211
ولو	-10.4212
ation	-10.4213
▁الناصرة	-10.4214
▁عزل	-10.4216
▁التربة	-10.4218
▁الأخلاق	-10.4223
▁وقر	-10.4224
▁التل	-10.4225
▁قائم	-10.4227
▁الفلكي	-10.4232
كلف	-10.4232
حملة	-10.4234
▁وخمس	-10.4234
▁الأصول	-10.4236
▁الأقاليم	-10.4238
▁ظروف	-10.4238
▁ألاسكا	-10.4238
ّس	-10.4241
▁المائة	-10.4241
▁المسافة	-10.4242
▁كارل	-10.4245
▁لتلك	-10.4245
▁المشتري	-10.4248
▁التوسع	-10.425
كنائس	-10.425
▁سيناء	-10.4251
بقى	-10.4253
▁فع	-10.4258
عزز	-10.426
▁الملوك	-10.4261
▁ترتبط	-10.4261
▁زيد	-10.4263
▁رصد	-10.4265
▁روح	-10.4267
▁وهما	-10.4267
▁ذوي	-10.4268
أنواع	-10.427
▁ذاته	-10.427
حماية	-10.4273
▁جيشه	-10.4273
▁(5	-10.4277
▁الليثيوم	-10.4278
▁ورو	-10.428
▁القضية	-10.4281
▁حضارة	-10.4281
ؤرخ	-10.4282
مطار	-10.4286
▁الصحف	-10.4289
▁وآ	-10.429
▁الشخصيات	-10.4293
▁مطلع	-10.4294
تاح	-10.4295
طعم	-10.4299
▁ونقل	-10.4304
▁ومعظم	-10.431
▁الزئبق	-10.4311
▁قيد	-10.4312
▁السعودي	-10.4315
وعد	-10.4316
عاب	-10.4317
▁التطبيقات	-10.4321
▁أَ	-10.4321
▁1917	-10.4323
متاحف	-10.4326
رنا	-10.4327
ترام	-10.4328
▁وتحت	-10.4329
▁فلور	-10.433
▁ماء	-10.4335
ضباط	-10.4341
▁جال	-10.4343
▁تحسين	-10.4344
▁لأكثر	-10.4349
pa	-10.4355
▁رسمياً	-10.4358
▁بوليفار	-10.436
▁أسبوع	-10.436
▁الجيولوجي	-10.4363
▁1962	-10.4363
▁بضعة	-10.4364
100	-10.4367
▁يستعمل	-10.4368
▁خروج	-10.4368
تحكم	-10.4369
▁دراسته	-10.4369
نح	-10.437
ليت	-10.437
▁محور	-10.4372
▁o	-10.4374
500	-10.4375
جنس	-10.4375
▁والبن	-10.4376
▁وقامت	-10.4377
▁جدة	-10.4377
▁90	-10.4378
ارا	-10.4379
▁كشف	-10.4381
▁ومنهم	-10.4385
▁يدعو	-10.4385
تيك	-10.4386
▁حقيقة	-10.4394
كلي	-10.4395
▁استول	-10.4397
3,	-10.4398
▁فكر	-10.4398
▁الكار	-10.4398
▁بدلا	-10.4398
أفلاطون	-10.4401
▁تدريب	-10.4402
▁1947	-10.4404
▁وزراء	-10.4404
ستن	-10.4405
▁رحلة	-10.4407
▁استقال	-10.4408
▁الإطلاق	-10.4408
نهب	-10.4412
▁هل	-10.4417
▁سيارة	-10.4419
▁شملت	-10.4423
وزير	-10.4425
▁السويدية	-10.4428
▁البصري	-10.4428
سياس	-10.4429
▁استقلالها	-10.4429
ِّد	-10.4433
ِّل	-10.4434
▁ومركز	-10.4435
▁الصحراوي	-10.4442
▁التصوير	-10.4442
▁كبرى	-10.4443
▁مماثلة	-10.4443
▁مرتفعة	-10.4444
▁المعمارية	-10.4452
نسبة	-10.4456
▁القانونية	-10.4458
▁نمط	-10.446
▁قوى	-10.4464
▁الطبي	-10.4475
▁الصليب	-10.4478
▁المؤرخون	-10.4482
أحمد	-10.4485
▁1982	-10.4486
▁1949	-10.4487
أدب	-10.4491
▁الفعل	-10.4492
رياح	-10.4493
▁التنوع	-10.4494
أنصار	-10.4495
▁بناءً	-10.4497
وسع	-10.4498
▁وتضم	-10.45
إشعاع	-10.4501
▁الذكر	-10.4501
▁الاتحادية	-10.4502
وفاة	-10.4504
▁وتكون	-10.4504
▁أقوى	-10.4504
▁لابن	-10.4508
▁والمعروف	-10.4509
▁اش	-10.4512
▁بنو	-10.4513
▁الصلب	-10.4515
كلفة	-10.4517
▁إستونيا	-10.4525
▁الفلاح	-10.4526
▁الممالك	-10.4528
▁غالباً	-10.453
▁ينص	-10.4531
▁الفضل	-10.4531
راسل	-10.4534
برامج	-10.4535
ss	-10.4535
جبال	-10.454
▁بيانات	-10.4543
حيث	-10.4546
▁تلت	-10.4548
▁المعدل	-10.4549
▁وظهر	-10.4549
▁بحق	-10.4553
▁الروس	-10.4562
▁الحرف	-10.4563
▁هجمات	-10.4567
مكافحة	-10.4567
▁إثيوبيا	-10.4569
▁1981	-10.4569
نوي	-10.4574
▁ليصبح	-10.4574
زيت	-10.4574
▁مؤشر	-10.4577
▁اشتر	-10.4577
تقام	-10.4578
▁الإنجليزي	-10.4579
▁تزيد	-10.4581
▁ألا	-10.4581
▁نواة	-10.4585
▁بدوره	-10.4587
شركات	-10.4587
▁بيرو	-10.4588
▁قيل	-10.459
▁درس	-10.4593
si	-10.4597
▁أنّه	-10.4598
فران	-10.4601
▁in	-10.4605
▁ارتباط	-10.4608
▁لمدينة	-10.461
▁بأي	-10.4611
▁القراءة	-10.4612
▁مساعد	-10.4616
تيار	-10.4622
▁يريد	-10.4626
▁الأربع	-10.4627
▁رؤ	-10.463
▁التركي	-10.4631
قاضي	-10.4632
حث	-10.4632
▁الأشياء	-10.4639
▁النسبة	-10.464
▁الأمريكيين	-10.4642
▁ربط	-10.4642
▁يعادل	-10.4644
نجد	-10.4649
▁الشهير	-10.4649
▁مقياس	-10.4652
▁العبرية	-10.4653
رجل	-10.4656
▁طرد	-10.4656
▁محلي	-10.4656
▁جيدة	-10.4657
▁الخمسة	-10.4659
تشكل	-10.4665
مسجد	-10.4676
تعيين	-10.4681
▁الموسم	-10.4683
طريقة	-10.4685
لحفاظ	-10.4687
إمبراطور	-10.4687
▁ومنظمة	-10.4687
▁بفضل	-10.4689
تمتع	-10.4692
صعوبة	-10.4693
▁الأفكار	-10.4693
▁أسم	-10.4694
▁عوامل	-10.4694
▁تسجيل	-10.4695
▁عددهم	-10.4695
لغة	-10.4698
أقل	-10.47
▁أحيانًا	-10.47
▁الإلكترونات	-10.4702
▁الهامة	-10.4702
▁يسبب	-10.4702
ِن	-10.4704
▁باكو	-10.4705
▁السكر	-10.4705
عتقل	-10.4706
يدات	-10.4706
▁كتابات	-10.4711
َت	-10.4717
تجربة	-10.4719
محتوى	-10.4722
▁واضحة	-10.4722
▁w	-10.4725
▁الجزائري	-10.4731
▁والثقافة	-10.4732
▁أُخرى	-10.4735
▁الظاهر	-10.4736
▁وطلب	-10.4737
▁طنجة	-10.4738
▁1961	-10.4738
▁امرأة	-10.4738
▁1939	-10.4739
▁افتتاح	-10.474
تعليق	-10.4744
▁السفر	-10.4744
▁مواجهة	-10.4752
▁دولي	-10.4753
حضارة	-10.4755
َم	-10.4758
أداة	-10.4758
ad	-10.4759
▁الحماية	-10.4765
▁وست	-10.4768
▁واليهود	-10.4769
▁الإصلاحات	-10.477
بديل	-10.477
جية	-10.4772
متوسط	-10.4778
▁آذار	-10.4779
▁أدنى	-10.4783
▁الخشب	-10.4785
ci	-10.479
▁بمدينة	-10.4793
▁مرت	-10.4794
2)	-10.4794
▁البرتغالية	-10.4799
▁وتوفي	-10.48
نْ	-10.4801
▁الزيتون	-10.4801
▁الأغلبية	-10.4801
▁دب	-10.4808
▁مارك	-10.4808
▁الوزير	-10.4808
▁الألف	-10.4811
▁المنتخب	-10.4813
▁أبواب	-10.4817
▁نظرا	-10.4819
▁الجامع	-10.482
▁المفاوضات	-10.4821
▁كوبا	-10.4821
▁ضعيف	-10.4822
▁الهولندية	-10.4823
▁الكروات	-10.4823
▁برلمان	-10.4824
▁النازي	-10.4826
▁أنقرة	-10.4826
طوب	-10.4828
▁للمر	-10.4832
سرطان	-10.4838
بذل	-10.484
رياضيات	-10.4844
▁عادت	-10.4849
▁مستشفى	-10.4851
▁المطر	-10.4853
-35	-10.4854
▁دير	-10.4858
▁والمُ	-10.486
▁المهدي	-10.486
▁القواعد	-10.4861
▁الصحافة	-10.4863
▁كرواتيا	-10.4863
غادر	-10.4865
فوس	-10.4865
▁1972	-10.4866
▁1971	-10.4866
▁والا	-10.4866
▁بروسيا	-10.4867
▁32	-10.4868
▁الرواية	-10.4869
قناة	-10.4869
▁هونغ	-10.487
▁وإعادة	-10.487
ِد	-10.4873
▁وثيقة	-10.4875
حزام	-10.4876
▁تقدر	-10.4882
▁للجيش	-10.4882
▁دمج	-10.4886
▁تسع	-10.4889
▁والصين	-10.4889
▁رع	-10.4895
▁الصحي	-10.4895
▁نيو	-10.4899
ولوجيا	-10.49
▁أدرك	-10.4901
▁مصطفى	-10.4902
▁يتمتع	-10.4903
▁تيار	-10.4904
▁بجانب	-10.4906
▁محيط	-10.4906
تحضير	-10.4907
▁وعشرين	-10.4907
إحياء	-10.4908
▁يربط	-10.491
▁الفصل	-10.4912
▁الأسباب	-10.4914
تضخم	-10.4916
▁قار	-10.4918
حجم	-10.4918
▁المغربية	-10.492
▁أغلبية	-10.492
▁واستمرت	-10.4923
نتصر	-10.4927
انات	-10.4936
▁l	-10.4936
▁منتج	-10.4937
زق	-10.4941
▁السياحية	-10.4946
▁هزم	-10.4949
▁الحيوي	-10.495
فلاسفة	-10.495
حافلات	-10.4951
وهم	-10.4954
▁1965	-10.4954
▁مقعد	-10.4954
بيض	-10.4955
▁بفعل	-10.4957
▁عدّة	-10.4959
▁خسر	-10.4959
وضوح	-10.4959
▁الراديو	-10.4962
▁قضية	-10.4964
▁التحقيق	-10.4965
نظير	-10.4966
▁طُ	-10.4966
كبر	-10.4966
▁الشؤون	-10.4971
َ]]	-10.4972
حمي	-10.4989
▁القادمة	-10.4992
ضل	-10.4992
صياغة	-10.4993
▁مسألة	-10.4994
نحو	-10.4995
▁بقوة	-10.4996
▁الطيران	-10.4998
▁ياسين	-10.4999
عزيز	-10.5001
▁نقاط	-10.5009
▁أطلقت	-10.501
▁عنوان	-10.5013
▁حفر	-10.5014
عداء	-10.5016
▁محاكم	-10.5019
▁قبول	-10.502
▁كولومبيا	-10.502
▁وحل	-10.5023
▁محدودة	-10.5033
▁ليلة	-10.5033
▁القرية	-10.5034
سجن	-10.5037
▁البُويهي	-10.5037
▁الفلبين	-10.5037
▁الرأس	-10.5037
آثار	-10.5037
يلو	-10.504
▁وطني	-10.5041
▁فأصبح	-10.5041
▁رسميا	-10.5043
▁اللاعب	-10.5043
زاوية	-10.5049
▁والعلوم	-10.5056
▁النازية	-10.5056
0.000	-10.506
جنوب	-10.5063
▁ثور	-10.5066
فرانك	-10.5067
▁لعبة	-10.5072
▁بالذكر	-10.5077
▁الأُمراء	-10.5081
▁لاتفيا	-10.5081
▁للاتحاد	-10.5081
com	-10.5082
▁الموسيقي	-10.5082
ورث	-10.5082
▁واستطاع	-10.5083
▁الكوفة	-10.5083
طيب	-10.5084
▁مشترك	-10.5086
َّق	-10.5086
▁تماما	-10.5087
▁للاست	-10.5093
▁كيفية	-10.5095
▁السلوك	-10.5095
ثقل	-10.5101
▁الأديان	-10.5101
▁جعلت	-10.5103
▁مراد	-10.5107
ضرار	-10.5108
ليب	-10.5112
▁جغرافي	-10.5114
▁هرب	-10.5114
▁استخدامها	-10.5114
▁اللاجئين	-10.5115
▁زيت	-10.5115
▁الإسلاميَّة	-10.5118
▁الإكوادور	-10.5119
▁أعيد	-10.5119
▁معظمها	-10.5122
▁والجماعة	-10.5123
▁بدايات	-10.5125
إنقاذ	-10.5126
▁الوهاب	-10.5128
▁العقيدة	-10.5135
▁(17	-10.5136
▁كثيرا	-10.5136
▁السامية	-10.5136
▁العادية	-10.5137
▁صلاة	-10.5138
غناء	-10.5138
▁يعقوب	-10.5139
vi	-10.5141
▁تصف	-10.5141
▁عرش	-10.5144
▁تنص	-10.5148
تناسب	-10.5151
▁تشا	-10.5159
▁ونشر	-10.5159
▁الأشعة	-10.516
▁ممكن	-10.5168
مسرح	-10.5168
▁اتخاذ	-10.5169
▁اكتسب	-10.5169
▁الأحوال	-10.5169
▁والهرسك	-10.5169
▁نابلس	-10.5169
▁وسوريا	-10.5169
▁المتعددة	-10.517
▁فرس	-10.517
▁النيجر	-10.517
غرام	-10.517
▁1976	-10.5172
طاعة	-10.5174
▁تنوع	-10.5182
▁فرانس	-10.5182
▁لادن	-10.5183
ng	-10.5187
▁مكتبة	-10.5188
▁الهي	-10.519
▁صديق	-10.519
▁ولعل	-10.5193
رشح	-10.5204
بالغ	-10.5208
زمن	-10.5208
▁القائم	-10.5212
▁بمساعدة	-10.5213
▁الثابت	-10.5214
فرو	-10.5214
▁والاتحاد	-10.5215
َلَ	-10.5216
▁%	-10.5219
▁رؤية	-10.5219
▁1950	-10.522
▁حديثة	-10.5222
حُكم	-10.5224
▁يُع	-10.5225
بوذي	-10.5226
▁فئة	-10.5227
▁ساحة	-10.5229
▁العُ	-10.5229
تكوين	-10.5231
▁معالجة	-10.5238
يِّ	-10.5245
ؤول	-10.5246
▁وبا	-10.5248
▁التجار	-10.5259
▁الحرارية	-10.5259
▁عالي	-10.5262
▁البنك	-10.5264
▁الدنيا	-10.5264
▁رشيد	-10.5265
▁نسبياً	-10.5266
▁السرعة	-10.5267
▁أساسية	-10.5268
أقوال	-10.5271
▁الفور	-10.5279
▁اشتهر	-10.528
▁الأكاديمية	-10.5282
▁وبشكل	-10.5282
▁رئيسًا	-10.5285
▁شعار	-10.5285
▁أمين	-10.5289
▁إسلامية	-10.529
▁المعاصرة	-10.5291
▁الجامعي	-10.5296
▁الشافعي	-10.5303
▁قرطاج	-10.5303
تلاميذ	-10.5303
▁1940	-10.5308
▁عارض	-10.5313
▁تلا	-10.5316
▁منفصلة	-10.5319
▁بولس	-10.5324
▁إمبراطور	-10.5326
تكرار	-10.5326
بدل	-10.533
▁نشرت	-10.5338
وفر	-10.5341
▁معالم	-10.5342
▁تدور	-10.5343
خليفة	-10.5344
▁بَابِل	-10.5348
جوائز	-10.5348
▁بسهولة	-10.5348
▁معتدل	-10.5349
▁سنوي	-10.535
▁الهيئة	-10.5352
▁الرابطة	-10.5353
▁(10	-10.5354
▁بصفة	-10.5354
▁آدم	-10.5355
▁الأمازيغ	-10.5356
▁المعماري	-10.5357
تير	-10.5358
نتو	-10.5359
▁استعادة	-10.536
حتجاج	-10.5361
▁لوحة	-10.5368
▁استعمل	-10.5372
▁الريحاني	-10.5375
▁أصدرت	-10.5378
▁عصبة	-10.5379
▁الأدوات	-10.5382
▁لعدد	-10.5383
▁جنسي	-10.5385
▁بعل	-10.5385
ترجمة	-10.5392
▁ومنطقة	-10.5393
▁تويوتا	-10.5393
▁الأطراف	-10.5393
ازدياد	-10.5393
▁يحيى	-10.5394
أحماض	-10.5394
شيوعي	-10.5394
ll	-10.5395
▁حدد	-10.5395
▁معارك	-10.5395
حادث	-10.5396
▁1987	-10.5396
▁مكون	-10.5397
▁زو	-10.5399
▁العبيد	-10.5401
▁الفارسي	-10.5402
▁صفوف	-10.5403
▁زياد	-10.5409
▁التجارب	-10.541
▁خارجية	-10.5414
أنظمة	-10.5415
▁يدل	-10.5417
الثانوي	-10.5421
▁مشاريع	-10.5424
▁أوستن	-10.5425
ka	-10.5427
▁بدورها	-10.543
▁الابتدائية	-10.5431
▁تجاوز	-10.5432
آن	-10.5436
▁الحكومات	-10.5439
▁الفينيقي	-10.5439
▁كلينتون	-10.5439
▁تنتمي	-10.5439
▁القيصر	-10.5439
▁يترك	-10.544
▁ضخم	-10.5443
▁أيلول	-10.5446
▁بنيت	-10.5453
▁تعطي	-10.5453
صخر	-10.5456
▁حديقة	-10.5456
▁الفرنسيين	-10.5457
وهي	-10.5457
▁الفكرة	-10.5457
▁القضائية	-10.5461
▁البيولوجي	-10.5465
كاثوليك	-10.5467
▁فوز	-10.547
▁الفعلي	-10.5471
▁الأوروبيين	-10.5472
حرص	-10.5472
يلان	-10.5475
عجل	-10.5482
تحرر	-10.5484
▁غالبا	-10.5484
▁للعديد	-10.5486
▁دوران	-10.5486
▁الوحدات	-10.5486
▁أفلام	-10.5486
▁صحة	-10.5488
▁مشاهد	-10.5491
▁الأبحاث	-10.5491
▁الحاكمة	-10.5493
tr	-10.5494
مستشفى	-10.5498
درو	-10.5498
)؛	-10.5499
▁الموسيقية	-10.5499
▁صرح	-10.55
▁المجمع	-10.55
▁الريفية	-10.551
لوف	-10.5511
قضاة	-10.5514
أنشطة	-10.5516
▁النور	-10.5517
توجد	-10.5518
ليز	-10.5518
▁كونه	-10.5519
▁احتفال	-10.5522
▁ملم	-10.5528
منشآت	-10.553
▁وتحديد	-10.553
▁بطرس	-10.5531
▁مطالب	-10.5532
فيضان	-10.5535
معركة	-10.5536
▁الحجاج	-10.554
▁تُعرف	-10.5543
▁تحولت	-10.555
▁الصعب	-10.5551
▁مهام	-10.5556
جاد	-10.5558
▁الألبان	-10.5559
فضلاً	-10.5559
▁الأدبية	-10.5563
ig	-10.5563
▁ميز	-10.5563
يمين	-10.5564
▁الألفية	-10.5567
▁المجرات	-10.5568
▁القريبة	-10.5569
كريت	-10.5571
▁للحرب	-10.5571
▁شهادة	-10.5572
▁بنت	-10.5573
▁تعزيز	-10.5573
▁اندلعت	-10.5576
▁الهيليوم	-10.5576
▁التصويت	-10.5576
▁ينبغي	-10.5576
▁مزيج	-10.5577
الله	-10.5577
▁تموز	-10.5578
▁1986	-10.558
قوانين	-10.558
تفسير	-10.5581
سبعينيات	-10.5581
▁الإصدار	-10.5581
,5	-10.5582
▁المجرية	-10.5586
▁وجامعة	-10.5587
قصور	-10.5591
▁نصوص	-10.5593
▁باي	-10.5593
▁أحدث	-10.5594
im	-10.5595
▁للأرض	-10.5595
شارع	-10.5598
رقص	-10.5603
▁الزاوية	-10.5603
▁خطط	-10.5606
▁طفل	-10.5608
لجنة	-10.5608
كانت	-10.5609
▁العدل	-10.5609
▁الأسطول	-10.5611
▁ويرجع	-10.5612
▁الكاتب	-10.5612
▁الفت	-10.5613
▁الأدوية	-10.5613
يَّات	-10.5614
وبو	-10.5615
▁السريعة	-10.5617
▁الضوئي	-10.5622
▁الغذاء	-10.5623
▁وبالرغم	-10.5623
▁ووصف	-10.5624
▁فون	-10.5625
▁الزهرة	-10.5625
▁يُعد	-10.5627
بوس	-10.5628
▁ونصف	-10.5628
▁المناعة	-10.563
▁الصعيد	-10.5631
ذار	-10.5634
▁يقود	-10.5641
غري	-10.5643
عقائد	-10.5646
▁الأساطير	-10.5651
▁سنوياً	-10.5653
▁مبنى	-10.5657
سلطان	-10.5661
▁حظر	-10.5663
▁اي	-10.5667
▁لتحقيق	-10.5669
▁الانفجار	-10.567
▁الأمثلة	-10.567
▁المزارع	-10.567
▁الدرزي	-10.5672
▁1978	-10.5672
بصر	-10.5672
▁طيلة	-10.5674
فظ	-10.5674
ملف	-10.5674
▁الإست	-10.5676
▁مكانة	-10.5677
▁زراعة	-10.5678
▁المعنى	-10.5679
▁أموال	-10.568
▁النشيد	-10.5682
▁تأسس	-10.5683
▁جزءا	-10.5687
▁الواسع	-10.5689
▁النظريات	-10.5695
-2	-10.5701
▁القرص	-10.5707
نهض	-10.5707
▁عيسى	-10.5716
ثو	-10.5716
▁احتل	-10.5716
تفوق	-10.5716
,7	-10.572
▁1936	-10.572
▁البورون	-10.572
▁أوروبية	-10.5721
▁يتمكن	-10.5723
▁ثابتة	-10.5726
▁تيتان	-10.5729
▁ذكرت	-10.5729
نتخب	-10.5731
▁الحية	-10.574
▁الرئاسة	-10.5742
▁يصف	-10.5745
▁هامة	-10.5751
▁تعلم	-10.5753
إمام	-10.5753
برغ	-10.5755
▁منهج	-10.5756
بدع	-10.576
▁الفساد	-10.5763
▁الرئاسية	-10.5764
تساقط	-10.5765
▁الثقافات	-10.5765
▁اصط	-10.5767
تحقيق	-10.5769
تمركز	-10.5771
▁هنري	-10.5773
لحن	-10.5775
▁الأطباء	-10.5776
قلق	-10.5778
▁مروان	-10.5778
▁كافية	-10.5785
▁نصيب	-10.579
▁بوضع	-10.579
يمون	-10.5796
▁لدول	-10.58
▁الفيزيائية	-10.5801
▁البيئية	-10.5804
▁موظف	-10.5805
▁وعرض	-10.5805
جسم	-10.5807
▁أصيب	-10.5808
▁المشترك	-10.5809
▁الصوم	-10.5809
▁الذاكرة	-10.581
▁طابع	-10.581
سعيد	-10.5811
▁أرسطو	-10.5812
▁إداري	-10.5813
أورانوس	-10.5814
▁قبر	-10.5815
▁العد	-10.5816
▁جيمس	-10.5817
▁منتجات	-10.5817
تراكم	-10.5818
▁البنا	-10.5818
▁وحوالي	-10.5819
▁بلغراد	-10.5819
الصليبي	-10.5824
▁وسلم	-10.5826
جهاز	-10.5826
نجم	-10.583
▁مهد	-10.5835
▁مكعب	-10.5835
تبلغ	-10.5836
▁بأمر	-10.584
فك	-10.5841
▁شغل	-10.5843
▁تجعل	-10.5844
▁عدن	-10.5845
نزاعات	-10.585
▁الجزائرية	-10.585
▁يهودي	-10.585
▁الجبر	-10.5852
وهو	-10.5854
▁ساد	-10.5855
▁الهولندي	-10.5855
▁استفتاء	-10.5857
▁مكتوب	-10.5857
حوادث	-10.5858
كتف	-10.5859
تخفيف	-10.5859
▁هنالك	-10.586
▁1983	-10.586
▁1955	-10.5861
▁دينار	-10.5861
▁مسلح	-10.5864
▁1919	-10.5865
فتر	-10.5869
بايع	-10.587
▁(6	-10.5871
▁الجدار	-10.5879
▁مطلق	-10.5882
op	-10.5883
▁تهدف	-10.5883
▁محدود	-10.5884
▁أدوات	-10.5885
أعياد	-10.5886
▁شأنه	-10.5891
▁الشرعي	-10.5892
▁إضافية	-10.5892
▁ينتمي	-10.5895
▁أمل	-10.5903
▁المطلوب	-10.5905
▁بحكم	-10.5905
▁أجنبي	-10.5906
▁الخلفاء	-10.5906
▁1953	-10.5908
▁يهود	-10.591
▁الساماني	-10.591
أبراج	-10.5911
▁الزهري	-10.5911
▁وهران	-10.5912
▁والطب	-10.5914
▁تسميته	-10.5915
زوار	-10.5916
ــ	-10.5918
قسيم	-10.5921
▁ضدَّ	-10.5928
أسماء	-10.5928
▁وتعني	-10.5929
كتمل	-10.5931
▁أطفال	-10.5931
شهود	-10.5932
▁سنويًا	-10.5937
مبادرة	-10.5939
▁والمع	-10.5943
▁حامل	-10.5945
▁اهتم	-10.5946
▁الفيدرالي	-10.5953
▁سواحل	-10.5953
▁العموم	-10.5954
▁وإي	-10.5955
▁طائرات	-10.5955
غطاء	-10.5957
مبا	-10.5957
▁دراسات	-10.5958
▁ولهذا	-10.5958
دليل	-10.5959
فال	-10.5962
▁فك	-10.5963
▁الماضية	-10.5965
▁يرتبط	-10.5967
▁الأصغر	-10.5967
لقضاء	-10.5968
دنا	-10.5973
موند	-10.5975
▁السكري	-10.5978
اوة	-10.5979
▁منافس	-10.5982
▁الأعداد	-10.5993
▁نظير	-10.5993
▁ألماني	-10.5997
▁ودول	-10.5997
▁البحيرات	-10.6001
▁اندلاع	-10.6001
▁الهجمات	-10.6001
▁الإلكتروني	-10.6001
ضريبة	-10.6004
▁وأخ	-10.6005
▁وأسس	-10.6008
إنجازات	-10.6009
كَ	-10.6009
he	-10.6009
تقريب	-10.6013
إلكترون	-10.6014
تصميم	-10.6015
زمان	-10.6015
▁اجتمع	-10.6018
▁إنجيل	-10.602
▁حكام	-10.6021
نيس	-10.6022
▁استقرار	-10.6025
▁القرم	-10.6028
▁الجدول	-10.6032
▁أظهر	-10.6032
▁الدورة	-10.6038
كلاهما	-10.6043
▁البلطيق	-10.6049
▁الرأسمالي	-10.6049
▁غينيا	-10.6051
▁موجات	-10.6051
▁1944	-10.6053
▁الأجزاء	-10.6055
▁فيينا	-10.6055
▁الخصائص	-10.606
▁شيئا	-10.6061
ir	-10.6061
▁اليسار	-10.6061
▁الجسر	-10.6066
▁أداء	-10.6066
لعلماء	-10.6071
▁المحرك	-10.6073
أقراص	-10.6073
وحي	-10.6079
▁أحياء	-10.6079
صى	-10.6092
عقيدة	-10.6093
▁فضلا	-10.6096
▁إلغاء	-10.6098
▁تيانجين	-10.6098
▁الأش	-10.6098
▁الميثان	-10.6098
▁المقدوني	-10.6099
▁القادم	-10.6099
شاه	-10.61
▁ألعاب	-10.61
سكا	-10.61
▁1968	-10.6101
▁البلدين	-10.6101
▁الزوج	-10.6102
▁المغربي	-10.6103
▁الاستيلاء	-10.6103
▁يُعتبر	-10.6106
نكر	-10.6108
▁وحده	-10.6109
شمال	-10.611
▁القليل	-10.6114
مكتب	-10.6119
▁ثلاثين	-10.6125
اغتيال	-10.6126
▁وأقام	-10.6128
▁لينين	-10.6134
▁برئاسة	-10.6134
▁وعُ	-10.6135
أعط	-10.6135
▁الموافقة	-10.614
▁المنصور	-10.6146
▁ريتشارد	-10.6146
▁أثينا	-10.6146
▁المرضى	-10.6147
▁يمتلك	-10.6147
دروس	-10.615
▁يعطي	-10.6151
بئر	-10.6152
▁دورا	-10.6152
▁فإنَّ	-10.6155
السماح	-10.6156
ضوء	-10.6156
شيع	-10.6158
▁التصميم	-10.6159
▁التصنيف	-10.6159
▁القطري	-10.616
يبي	-10.616
حى	-10.6167
▁الحراري	-10.6168
▁أشد	-10.6172
▁تسعة	-10.6173
▁الأرثوذكس	-10.6175
▁نسخ	-10.6177
▁هيل	-10.6177
▁الشاب	-10.6183
▁أسرع	-10.6184
حدائق	-10.6185
بريد	-10.6185
▁النقي	-10.619
▁أحيانا	-10.6191
▁الاستوائية	-10.6195
▁لتحديد	-10.6196
▁تصوير	-10.6196
▁لعبت	-10.6196
▁الحمداني	-10.6196
ga	-10.6197
▁يأخذ	-10.6199
▁الكلية	-10.6199
▁يرت	-10.62
▁كارلوس	-10.6203
▁مائة	-10.6204
▁ميلادي	-10.6212
▁مؤسسات	-10.6212
▁سائر	-10.6217
يٍّ	-10.6218
تصف	-10.6219
قاعدة	-10.6224
▁تحكم	-10.6226
حلق	-10.6227
▁الزمان	-10.6232
▁الفحم	-10.6233
▁جبهة	-10.6233
شل	-10.6238
▁هجر	-10.6238
▁الطول	-10.6239
▁الاعتقاد	-10.6245
▁وظائف	-10.6245
▁الطيور	-10.6245
آداب	-10.6247
▁الجولان	-10.6247
▁منتظم	-10.6248
متحف	-10.6248
سلاسل	-10.6248
▁الرمل	-10.6249
▁انطلاق	-10.6253
▁ناتج	-10.6254
▁ولمَّ	-10.6255
▁الزبير	-10.6256
▁هجرة	-10.6257
▁انضمت	-10.626
ومو	-10.6261
روسيا	-10.6261
مسح	-10.6262
▁يشبه	-10.6266
▁يتجاوز	-10.6266
▁ورفض	-10.6272
سفن	-10.6272
▁قرأ	-10.6278
▁يقال	-10.628
▁شف	-10.628
▁العادي	-10.6282
محمد	-10.6282
▁تطبيقات	-10.6289
▁يونس	-10.6289
موري	-10.6289
▁ويذكر	-10.6291
▁رفضت	-10.6292
▁الصغرى	-10.6294
300	-10.6296
▁الوثائق	-10.6296
▁أبرزها	-10.6298
رؤية	-10.6299
▁والثاني	-10.6299
▁الانتفاضة	-10.6299
▁سلطات	-10.63
▁يتألف	-10.6302
▁يتطلب	-10.6309
▁واصل	-10.631
قرض	-10.6311
ميّز	-10.6311
تعلق	-10.6315
وَ	-10.6316
▁والتنمية	-10.6317
om	-10.6319
▁دفاع	-10.6319
▁وعم	-10.6321
▁الأمازيغية	-10.6327
ممّا	-10.633
▁المؤسسة	-10.6333
▁عدو	-10.6338
▁السينما	-10.6344
▁البضائع	-10.6344
▁القوقاز	-10.6344
▁المؤمنين	-10.6344
وجود	-10.6345
▁هامبورغ	-10.6345
▁الهاتف	-10.6346
▁خلايا	-10.6347
▁1966	-10.6347
▁قُتل	-10.6347
حذر	-10.6352
▁الخروج	-10.6353
▁موجة	-10.6355
سلاح	-10.6355
▁للحزب	-10.6356
▁يُعتقد	-10.6356
▁الخبر	-10.6358
▁ومجلس	-10.6359
▁المحور	-10.6361
▁أسود	-10.6362
▁الآية	-10.6366
▁الريف	-10.6367
آلهة	-10.637
لوس	-10.6371
▁ثماني	-10.6372
محاربة	-10.6373
حسان	-10.6374
بيرو	-10.6374
▁بدور	-10.6383
▁ترجمة	-10.6385
▁الجماعية	-10.6385
▁أولئك	-10.6385
▁المشاريع	-10.6386
▁الرمز	-10.6389
▁الضخمة	-10.6394
▁الأسبرين	-10.6394
▁الأشكال	-10.6395
▁مرتبطة	-10.6396
▁بأكمله	-10.6396
▁بسيطة	-10.6396
▁1946	-10.6398
تباين	-10.6399
▁وانضم	-10.64
الإ	-10.64
خسارة	-10.6401
شاور	-10.6404
▁سحب	-10.6405
▁واعتبر	-10.6406
ul	-10.6406
▁سلطنة	-10.6407
▁سنويا	-10.6408
ستقر	-10.6409
▁مكونات	-10.6409
أصوات	-10.6409
▁تلعب	-10.6409
▁عامر	-10.6413
داني	-10.6414
ريق	-10.6415
▁ساهمت	-10.6416
▁مستقبل	-10.6417
▁ومحمد	-10.6421
شبكة	-10.6427
▁نسبته	-10.6428
سترا	-10.6437
▁الكشف	-10.644
▁إحصاء	-10.6441
رأى	-10.6442
▁وفتح	-10.6444
▁النجاح	-10.6445
نيوترون	-10.6445
▁1984	-10.6447
▁1969	-10.6448
▁الشحنة	-10.6448
▁تشي	-10.6449
▁1921	-10.6449
نهاية	-10.6452
برد	-10.6452
▁معظمهم	-10.6454
إبادة	-10.6457
▁فلوريد	-10.6458
ظلم	-10.646
▁القاسم	-10.646
▁الحقل	-10.6463
إمداد	-10.6463
▁لبناء	-10.6464
ورك	-10.6464
▁وسار	-10.6465
▁جابر	-10.6467
▁الإيرانية	-10.6469
▁الأوائل	-10.647
جود	-10.647
يّات	-10.6476
ثمانينيات	-10.6478
▁ويعود	-10.648
tu	-10.6484
لائم	-10.6488
▁التج	-10.6489
▁كفر	-10.6493
نزو	-10.6494
▁المتقدمة	-10.6496
جزر	-10.6497
▁للسلام	-10.6499
بُو	-10.65
▁تخرج	-10.6502
▁لحماية	-10.6504
طعام	-10.6505
كيو	-10.6505
▁وحاول	-10.6511
دلالة	-10.6512
▁أسفل	-10.6513
▁والمملكة	-10.6515
▁قمر	-10.6515
▁شرح	-10.6515
متع	-10.6518
استجابة	-10.6521
▁أعد	-10.6522
ّان	-10.6525
حوّل	-10.6526
▁متن	-10.6536
دُّ	-10.6536
جاذبية	-10.6539
حكيم	-10.654
▁لمن	-10.6541
▁الدقيقة	-10.6545
انبعاث	-10.6546
تخفيض	-10.6546
▁الارتفاع	-10.6547
▁بدعم	-10.6547
▁الأرقام	-10.6547
▁1959	-10.6548
خطر	-10.6551
▁ma	-10.6554
▁وقوع	-10.6558
▁مجد	-10.6559
▁التعليمية	-10.656
▁مبادئ	-10.6562
عناصر	-10.6563
▁التفسير	-10.6564
كائن	-10.6566
▁يجمع	-10.6569
أسر	-10.657
▁الحمض	-10.6578
▁كاتب	-10.6579
▁تحرك	-10.6581
▁حملات	-10.6585
▁الحار	-10.6585
كهرباء	-10.659
▁تشبه	-10.6591
هيئات	-10.6595
بروتون	-10.6596
▁المغنيسيوم	-10.6596
انتقادات	-10.6596
▁إدخال	-10.6596
▁1985	-10.6601
▁للملك	-10.6603
▁رسائل	-10.6605
▁الناتجة	-10.6605
▁السيادة	-10.6605
إعلام	-10.6607
باغ	-10.6611
مئتين	-10.6614
▁الاستعمارية	-10.6614
▁العنصري	-10.6616
▁الألب	-10.6617
▁رومانيا	-10.6621
▁السورة	-10.6624
▁إكس	-10.6624
فارس	-10.6626
▁والمناطق	-10.6628
حشد	-10.664
إرهاب	-10.6641
بيزنطي	-10.6642
▁كوم	-10.6643
▁يكتب	-10.6646
▁الاصطناعي	-10.6648
تشخيص	-10.6648
▁أسابيع	-10.6648
▁المسار	-10.665
▁جمهور	-10.6651
ْن	-10.6652
▁لإعادة	-10.6652
▁الكاملة	-10.6652
▁يسكن	-10.6655
▁اليمين	-10.6657
▁حيوي	-10.6657
▁سنغافورة	-10.6662
▁j	-10.6664
▁التنفيذي	-10.6666
▁الدرجة	-10.6668
▁المدنيين	-10.6669
ts	-10.667
ذهاب	-10.6676
دوس	-10.6678
id	-10.6681
▁معامل	-10.6682
▁بارد	-10.6684
▁تستطيع	-10.6684
▁عرقية	-10.6686
▁جاف	-10.6686
إقليم	-10.6686
إصدار	-10.6688
▁لدراسة	-10.669
القاهرة	-10.6694
قسطنطين	-10.6698
▁للولايات	-10.6699
نخب	-10.6702
▁مُن	-10.6704
▁فرصة	-10.6705
▁السادات	-10.6707
▁مصنع	-10.6709
400	-10.6709
▁ولها	-10.671
▁التركيز	-10.6712
▁الخوارزمي	-10.6719
▁سلوك	-10.6721
جواز	-10.6722
▁120	-10.6723
نتظر	-10.6724
▁حاج	-10.6724
▁زحل	-10.6726
تصفح	-10.6727
▁مضاد	-10.6732
▁تواجد	-10.6735
▁تصدر	-10.6735
برنامج	-10.6738
القوات	-10.6739
ثنائي	-10.6742
▁شعبي	-10.6743
مهرجان	-10.6744
▁مركبات	-10.6745
انتفاضة	-10.6746
حاط	-10.6749
▁الترتيب	-10.6751
▁المرتبطة	-10.6752
▁نجوم	-10.6753
▁اقتراح	-10.6754
▁الموقف	-10.6754
▁انتخب	-10.676
أوكراني	-10.6761
رخص	-10.6765
▁جنين	-10.6765
▁بنظام	-10.6768
▁الطويل	-10.6769
الإمبراطورية	-10.6772
▁مركّبات	-10.6777
▁الإمبراطوري	-10.678
ملاحظات	-10.6785
▁غار	-10.6785
▁العباسية	-10.6789
▁حُكم	-10.6789
اخر	-10.679
صراع	-10.6793
▁الفيزيائي	-10.6793
رُو	-10.6795
▁مرتين	-10.6797
جماعة	-10.6799
▁الانسحاب	-10.6803
▁باستمرار	-10.6803
▁الأمازون	-10.6803
▁طائفة	-10.6803
▁ماليزيا	-10.6803
كيمياء	-10.6805
▁الجمعة	-10.6806
▁وأل	-10.6807
▁العبادة	-10.6807
▁عطارد	-10.6808
تطرف	-10.6818
▁الفنلندي	-10.682
▁غرار	-10.6824
▁صدام	-10.6827
▁المتحف	-10.6835
▁يطلب	-10.6837
▁التمثيل	-10.6837
▁الدستورية	-10.6839
▁ديمقراطية	-10.6844
ديمقراطية	-10.6846
wa	-10.6846
▁أراضيها	-10.6847
مشروع	-10.6849
نوس	-10.6851
▁وأيضا	-10.6852
▁المستعمرات	-10.6852
)|	-10.6853
▁معرض	-10.6854
▁مقدونيا	-10.6856
▁واشنطن	-10.6856
عطاء	-10.6857
▁البلدية	-10.686
▁عودته	-10.6866
▁القبض	-10.6867
▁ووقع	-10.6871
كما	-10.6872
▁التوحيد	-10.6872
حسب	-10.6872
▁تيم	-10.6873
▁استبدال	-10.6874
▁تدمر	-10.6875
▁والاجتماعية	-10.6881
كير	-10.6883
▁الأقليات	-10.6884
▁الاتفاقية	-10.6884
▁co	-10.6889
▁دولته	-10.6892
خاب	-10.6892
▁ميلاد	-10.6895
▁الشعراء	-10.6899
▁البريطانيين	-10.69
أعضاء	-10.6901
كرد	-10.6902
▁التحق	-10.6902
▁الرسم	-10.6904
هضبة	-10.6904
أكاديمية	-10.6905
▁قادرة	-10.6906
▁السائدة	-10.6907
▁الخوارج	-10.6908
لتأكيد	-10.6908
▁إدوارد	-10.6909
▁علاوة	-10.6909
▁قراءة	-10.6909
▁الاكتشاف	-10.691
5,000	-10.6912
▁هضبة	-10.6913
▁قارة	-10.6919
▁الحاج	-10.6922
حار	-10.6928
▁الأحكام	-10.693
ستغرق	-10.6931
▁التمييز	-10.6933
شرح	-10.6935
▁صلب	-10.6941
فاضل	-10.6941
▁قضى	-10.6947
سوار	-10.6949
▁الإنجليز	-10.6952
▁وشرق	-10.6952
▁الكلام	-10.6952
مجال	-10.6956
▁والثانية	-10.6958
▁أجبر	-10.696
▁عميق	-10.6961
▁بطل	-10.6962
bbc	-10.6962
جانب	-10.6962
▁القادر	-10.6962
;/	-10.6963
▁روايات	-10.6963
▁الآسيوية	-10.6963
▁مضيق	-10.6965
يسار	-10.6967
▁تماماً	-10.6968
▁ضمت	-10.6969
▁تيمور	-10.6969
▁السود	-10.697
▁البروتستانت	-10.6973
▁الأخبار	-10.6975
▁السلع	-10.6977
▁الأنشطة	-10.6981
▁تستعمل	-10.6984
▁وآل	-10.6994
fi	-10.6995
لماركس	-10.6997
▁مغناطيسي	-10.7001
▁خوف	-10.7001
▁ترجع	-10.7003
▁قاموا	-10.7007
مقاومة	-10.701
وثائق	-10.7012
باراغواي	-10.7014
كاتدرائية	-10.7014
▁فرانسيسكو	-10.7014
▁بلجيكا	-10.7014
▁وجيزة	-10.7015
▁الموجات	-10.7016
▁الإغريقية	-10.7018
▁إمام	-10.7021
au	-10.7021
▁فيليب	-10.7022
▁يُمكن	-10.7026
▁أبحاث	-10.703
▁صيد	-10.7033
بحار	-10.7037
مسيرة	-10.7038
جريمة	-10.7042
▁التفكير	-10.7042
▁اعترف	-10.7043
▁والفن	-10.7044
▁أخبار	-10.7045
▁العكس	-10.7046
▁عمال	-10.7047
قيادة	-10.7047
▁أفريقي	-10.7048
▁التدخل	-10.7048
▁والعالم	-10.7055
▁عمق	-10.7058
ثلث	-10.7059
▁هان	-10.7059
▁فاس	-10.7064
▁ألب	-10.7066
▁الخِلافة	-10.7068
▁فهناك	-10.7068
▁التدريب	-10.7068
▁المحتلة	-10.7068
▁يمنع	-10.7068
▁أعوام	-10.7068
▁والاقتصادية	-10.7069
مستعمرات	-10.7069
▁للطاقة	-10.7069
نعم	-10.7072
ألعاب	-10.7074
▁قريبة	-10.7074
تفكك	-10.7076
▁الأوراق	-10.708
▁قريش	-10.708
▁نار	-10.7084
سابق	-10.7087
▁سيل	-10.709
▁شرط	-10.709
تضح	-10.7094
▁وكما	-10.7101
شاد	-10.7103
▁النظم	-10.7107
▁تشو	-10.7114
جورج	-10.7114
باي	-10.7116
▁وتطوير	-10.7122
▁تشريع	-10.7122
▁الهنود	-10.7122
▁والفرنسية	-10.7122
▁روبرت	-10.7122
انفجار	-10.7124
▁تهديد	-10.7124
▁الأردني	-10.7124
▁مشهور	-10.7124
▁حركات	-10.7125
▁الشرعية	-10.7126
▁واستخدام	-10.7127
▁كيان	-10.7131
▁إندونيسيا	-10.7133
▁جذور	-10.7143
▁سراح	-10.7151
▁ويقوم	-10.7152
▁الجورجي	-10.7156
▁سوء	-10.7156
▁شاركت	-10.7157
▁الشيعي	-10.7157
▁أفق	-10.7159
▁يمارس	-10.716
%)	-10.7162
رور	-10.7162
▁وتطور	-10.7163
طبقة	-10.7166
▁لدعم	-10.7168
▁تحدد	-10.717
▁السنوية	-10.7175
بنغلاديش	-10.7176
▁يساعد	-10.7176
▁خواص	-10.7176
▁الواضح	-10.7177
▁المعابد	-10.7178
▁الحملات	-10.7179
حجة	-10.7179
▁الدخول	-10.718
▁مرسوم	-10.718
ذنب	-10.7182
▁يتضمن	-10.7184
موظفين	-10.7185
▁تام	-10.7187
▁حصول	-10.7189
▁أوراق	-10.719
▁الشامل	-10.7196
▁المؤسس	-10.7201
تكلم	-10.7203
ساط	-10.7203
▁سابقا	-10.7205
▁عائد	-10.7211
▁التبت	-10.7213
▁وكثير	-10.7213
▁القل	-10.7214
▁اللقب	-10.7224
جادل	-10.723
▁جوبز	-10.723
▁والعشرون	-10.723
▁جوانب	-10.723
استطلاع	-10.723
إلقاء	-10.7231
▁وألمانيا	-10.7231
▁موارد	-10.7233
▁1922	-10.7235
▁لنظام	-10.7235
▁الخصوص	-10.7238
▁طرابلس	-10.7239
ڤي	-10.7239
كتور	-10.7241
ثروة	-10.7243
▁والدته	-10.7245
▁مخطط	-10.7246
▁وغالبا	-10.7249
ثقافة	-10.7262
سكر	-10.7263
▁كائن	-10.7264
▁الميناء	-10.7265
▁وأعاد	-10.7267
▁شعوب	-10.7269
شجاع	-10.727
▁الأنف	-10.7273
▁يوماً	-10.7274
▁الوادي	-10.7276
▁ينظر	-10.7277
▁جذب	-10.728
▁غضون	-10.7285
▁الخضراء	-10.7285
▁جوهر	-10.7286
تفاوت	-10.7288
ترتيب	-10.7291
▁الشيء	-10.7292
▁الهلال	-10.7293
لسان	-10.7298
▁فرا	-10.7305
▁التكوين	-10.7309
تنتهي	-10.731
▁أدلة	-10.7311
▁الظاهرة	-10.7312
تونس	-10.7314
يقع	-10.7316
▁التكنولوجيا	-10.7316
▁الجهة	-10.7317
عتنق	-10.7317
▁وظيفة	-10.732
▁الأموية	-10.732
▁يشار	-10.7321
▁واللغة	-10.7321
▁الهوية	-10.7326
▁(13	-10.7327
▁وتسمى	-10.7329
▁لعدم	-10.7331
نتر	-10.7332
em	-10.7338
▁الجُ	-10.7338
▁مكونة	-10.7339
▁تصنيع	-10.734
حواسيب	-10.734
▁توسيع	-10.734
▁الأوضاع	-10.7342
▁بمعدل	-10.7346
▁عمومًا	-10.7349
▁انسحب	-10.735
تاجر	-10.7354
▁ألفا	-10.7358
▁محدد	-10.7359
رست	-10.7362
▁للغة	-10.7363
▁واجب	-10.7365
▁اختصار	-10.7367
▁تصور	-10.7367
▁أشعة	-10.737
▁التوجه	-10.7372
▁أنشأت	-10.7377
▁العبَّاسي	-10.7378
دعم	-10.738
▁خام	-10.7382
▁الإخشيد	-10.7395
اجتماع	-10.7396
▁البروتينات	-10.7396
▁1952	-10.7398
قيس	-10.74
ألمانيا	-10.74
مثّل	-10.74
▁غياب	-10.7404
▁السفلي	-10.7404
▁وبهذا	-10.7405
▁الأرز	-10.7407
وارث	-10.7413
▁واليونان	-10.7413
دراج	-10.7414
▁جماعات	-10.7414
▁تور	-10.7415
▁النقطة	-10.7415
ِّم	-10.7423
▁يخرج	-10.7425
▁بالعديد	-10.7427
▁المحليين	-10.7428
تزايد	-10.743
▁حاد	-10.7432
لط	-10.7437
كش	-10.7438
إدراك	-10.744
▁تزايد	-10.7444
▁إير	-10.7444
▁الكنعاني	-10.745
▁خصوصًا	-10.745
▁تقنيات	-10.7451
▁شجرة	-10.7452
▁توجيه	-10.7452
▁المُست	-10.7452
▁المساعدة	-10.7452
نار	-10.7453
▁1932	-10.7454
▁التخطيط	-10.7454
▁الإنجيل	-10.7454
▁اللعبة	-10.7455
▁مُنذ	-10.7456
▁تدهور	-10.7456
▁البقاء	-10.746
va	-10.7461
▁ديني	-10.7462
▁السد	-10.7462
▁البلاط	-10.7463
▁المدى	-10.7471
▁أدخل	-10.7471
▁ميدان	-10.7476
صعد	-10.7481
▁المدعو	-10.7483
▁تحتاج	-10.7484
▁بولاية	-10.7484
▁حققت	-10.7488
▁لكونه	-10.7488
آر	-10.7489
▁مساعدة	-10.749
▁ألغ	-10.749
وّن	-10.7499
خزان	-10.7501
▁بديل	-10.7502
▁المعتمد	-10.7503
▁يبق	-10.7506
كازاخستان	-10.7506
▁أمستردام	-10.7506
▁أنطاكية	-10.7506
▁الشوارع	-10.7506
▁واليابان	-10.7507
▁تدير	-10.7508
▁بإعادة	-10.751
تجنيد	-10.751
▁السيارة	-10.7511
do	-10.7513
▁وعادة	-10.7513
▁الحدائق	-10.7519
مواليد	-10.7519
اصطدام	-10.752
قواعد	-10.7525
خفي	-10.7529
▁أرسلان	-10.7529
عجب	-10.7541
▁تفوق	-10.7542
مغادرة	-10.7546
▁عاصمتها	-10.7546
▁لمصر	-10.7548
لول	-10.7553
▁والرومان	-10.7555
▁توصي	-10.7559
▁سهول	-10.756
رغم	-10.7562
▁القبيلة	-10.7562
حقائق	-10.7562
▁طوكيو	-10.7562
أنَّهُ	-10.7563
▁الضروري	-10.7563
▁والخدمات	-10.7564
▁جزيئات	-10.7564
▁عما	-10.7565
▁1957	-10.7566
كهنة	-10.7567
▁غرفة	-10.7567
▁رحلات	-10.757
▁بالتالي	-10.7571
شوغون	-10.7572
▁وتشكل	-10.7572
▁السفينة	-10.7574
رُغم	-10.7575
▁سينا	-10.7577
▁القوية	-10.7584
▁خصوصاً	-10.7585
بقاء	-10.7586
▁تساعد	-10.759
▁آمن	-10.759
ot	-10.7597
طرح	-10.7598
ديب	-10.7598
▁الضباط	-10.7604
▁الكمبيوتر	-10.7604
▁أصاب	-10.7606
رنج	-10.7607
▁تتعلق	-10.7608
▁تبعد	-10.761
▁هندسة	-10.7614
ns	-10.7617
▁سيدي	-10.7618
▁ازدهار	-10.7619
▁رئاسي	-10.7619
▁تايلاند	-10.7619
إقناع	-10.7619
▁قيصر	-10.762
▁غزا	-10.762
تكاثر	-10.7621
▁اللوحة	-10.7622
▁راي	-10.7623
▁التشيك	-10.7624
▁طرح	-10.7626
▁نظريات	-10.7626
توقيت	-10.7628
ضد	-10.7629
▁علامة	-10.7631
أرواح	-10.7632
خوف	-10.7637
▁استغلال	-10.764
▁رئيساً	-10.7641
خلو	-10.7643
▁أسطول	-10.7645
▁لأسباب	-10.7646
▁مستعمرة	-10.7648
▁القدر	-10.7649
ou	-10.7655
حجر	-10.7656
▁الإثني	-10.7657
بشير	-10.7659
جاري	-10.7659
ريز	-10.7662
▁تُعد	-10.7664
▁سُلطان	-10.7672
▁خسائر	-10.7676
▁لتطوير	-10.7676
▁وزيادة	-10.7676
▁المنازل	-10.7676
▁أشخاص	-10.7676
▁الممتدة	-10.7677
▁الديانات	-10.7679
فوف	-10.7679
مستوطنة	-10.768
▁متعدد	-10.7681
▁ذروته	-10.7682
▁1914	-10.7682
▁التحول	-10.7683
▁الجند	-10.7686
▁صلى	-10.7686
▁السنغال	-10.7689
تسارع	-10.769
أوساط	-10.7692
▁تعادل	-10.7693
▁معارضة	-10.7696
▁كلغة	-10.7697
امتدت	-10.7698
خليج	-10.7701
رفق	-10.7702
قدّم	-10.7703
▁اعتقد	-10.7704
▁الصلبة	-10.7704
▁مسيحية	-10.7706
▁تخضع	-10.7707
بالإضافة	-10.7708
lu	-10.7714
مبراطور	-10.7717
كتشاف	-10.7722
ستطيع	-10.7722
▁تلفزيون	-10.7733
▁يوغوسلافيا	-10.7733
▁احتياطي	-10.7733
▁ضئيل	-10.7733
▁منتخب	-10.7734
▁المشكلة	-10.7736
سِ	-10.7737
تسهيل	-10.7737
▁1933	-10.7738
تناقض	-10.7739
▁أسعار	-10.774
▁الحميد	-10.7742
▁والمدن	-10.7744
▁ديار	-10.7745
▁الأبجدية	-10.7746
▁هطول	-10.7746
▁وفد	-10.7747
▁حقل	-10.775
▁الآلي	-10.7763
▁السرطان	-10.7765
▁أساسا	-10.7769
▁المريض	-10.7771
▁الإلكترون	-10.7774
حرير	-10.7774
▁المرور	-10.7777
انتهاك	-10.7777
▁الطويلة	-10.7778
▁بشكلٍ	-10.7783
شبيه	-10.7785
▁حزيران	-10.779
▁الإجراءات	-10.779
▁الأسبوع	-10.779
▁الانتشار	-10.779
▁للإمبراطورية	-10.7791
▁قصيدة	-10.7791
▁البطالة	-10.7792
▁1977	-10.7794
▁بدرجة	-10.7795
َرَ	-10.7798
▁ازدهرت	-10.7802
طارد	-10.7802
نقص	-10.7805
▁فقه	-10.7805
▁لنقل	-10.7808
▁الإسماعيلي	-10.7808
محطات	-10.7809
▁الليبرالي	-10.781
▁وحيد	-10.781
▁يضع	-10.7814
cl	-10.7819
▁تسليم	-10.782
عزى	-10.7823
pe	-10.7824
▁غضب	-10.7825
▁موقعها	-10.7826
ec	-10.7833
▁المايا	-10.7835
دوار	-10.7839
▁تجربة	-10.7844
▁ولأن	-10.7845
▁الجهود	-10.7849
▁المصابين	-10.7849
▁توماس	-10.7851
فتوحات	-10.7851
▁1954	-10.7852
إحصائيات	-10.7853
▁كارتر	-10.7855
▁العبَّاسيَّة	-10.7855
زعامة	-10.7856
▁الشائعة	-10.7857
▁البولندية	-10.7857
▁اليمنية	-10.7858
إخوان	-10.7858
أصل	-10.7859
▁ومجموعة	-10.7861
▁بصفته	-10.7864
قوي	-10.7864
زكاة	-10.7865
▁حكومية	-10.7865
▁وكو	-10.7866
▁البربر	-10.7868
استفادة	-10.7869
ve	-10.7879
▁للشمس	-10.788
▁وخط	-10.7881
فلور	-10.7886
باشر	-10.7886
عدم	-10.7887
▁الخلية	-10.7887
▁سلف	-10.7895
▁تمييز	-10.7902
▁المذاهب	-10.7906
▁التعديل	-10.7906
▁الأفارقة	-10.7906
▁المحاصيل	-10.7907
▁الاضطرابات	-10.7908
▁إسحاق	-10.7908
ذاب	-10.7909
▁تجارب	-10.7909
▁مساهم	-10.7909
▁وأسر	-10.7913
صواريخ	-10.7914
فريد	-10.7917
▁عدَّة	-10.7918
▁أركان	-10.7918
ut	-10.7919
ent	-10.792
▁العرقي	-10.7921
▁سابقًا	-10.7922
▁واستخدم	-10.7922
▁وروسيا	-10.7923
ثلاثمائة	-10.7928
▁البروتستانتية	-10.7931
▁زواج	-10.7934
▁عَ	-10.7934
▁العدوى	-10.7937
▁الحكومي	-10.7937
▁تتمثل	-10.7937
▁مزيد	-10.7939
▁الإيراني	-10.794
▁يُطلق	-10.7941
المسيح	-10.7942
▁القصور	-10.7946
توج	-10.7946
▁خشب	-10.7948
▁الغازات	-10.7952
▁لمنع	-10.7955
▁نبي	-10.7959
▁قرص	-10.7961
توافر	-10.7962
ْل	-10.7962
▁الجمال	-10.7963
▁لإنشاء	-10.7965
▁انتشر	-10.7965
▁ألبانيا	-10.7965
▁الطراز	-10.7965
▁الأدلة	-10.7966
▁طلاب	-10.7966
محاكاة	-10.7966
▁أهالي	-10.7968
▁الاستواء	-10.7968
▁محمية	-10.7969
▁كلفن	-10.7969
▁1938	-10.797
▁التحدي	-10.7973
▁عقود	-10.7978
▁ويستخدم	-10.7983
أصحاب	-10.7986
▁الفني	-10.7991
▁قررت	-10.7991
تداخل	-10.7993
▁الجاف	-10.7993
▁الطفل	-10.7993
▁وحسب	-10.7995
▁تتجاوز	-10.7996
مستويات	-10.8002
مملوكة	-10.8003
▁حصر	-10.8005
▁هائلة	-10.8016
ke	-10.8021
▁النتيجة	-10.8024
▁رواندا	-10.8024
▁السواحل	-10.8024
▁الدائرة	-10.8024
▁أوراكل	-10.8024
غييشا	-10.8024
▁الطقس	-10.8024
▁انسحاب	-10.8024
▁الزجاج	-10.8028
▁نسبيًا	-10.803
أفعال	-10.8032
▁استعداد	-10.8032
▁تمثال	-10.8034
▁الوزن	-10.8035
▁التام	-10.804
▁النادي	-10.8042
البرتغال	-10.8045
اؤها	-10.8046
▁القوي	-10.8046
▁إدارية	-10.8048
جوهر	-10.8051
▁اتفق	-10.8051
مؤتمر	-10.8054
▁فوج	-10.8057
أتباع	-10.8063
▁الجمل	-10.8063
▁شاب	-10.8065
وتشي	-10.8068
▁الأزرق	-10.8069
▁(14	-10.8071
▁وبِ	-10.8073
▁طولون	-10.8074
▁حاسوب	-10.8077
▁الفتن	-10.8081
▁الأهداف	-10.8081
▁الأمان	-10.8081
رؤوس	-10.8082
▁القليلة	-10.8082
▁النتروجين	-10.8083
▁الأحساء	-10.8083
▁الثمانينات	-10.8083
▁عضوية	-10.8084
▁يدرس	-10.8085
روع	-10.8085
▁1923	-10.8088
▁دائمًا	-10.8091
▁المسائل	-10.8095
أمازيغ	-10.8097
▁حاولت	-10.8098
▁توليد	-10.81
▁حلقة	-10.8103
▁للحكم	-10.8104
▁عماد	-10.8111
عنف	-10.8116
▁كرئيس	-10.8117
جوع	-10.8121
ينتهي	-10.8122
▁(16	-10.8131
▁قطب	-10.8135
▁البث	-10.8136
▁شارل	-10.8137
▁بقدر	-10.8138
▁التفاعلات	-10.8142
▁الاعتماد	-10.8142
▁المستشفيات	-10.8142
▁عائلته	-10.8143
▁ضروري	-10.8143
▁امتد	-10.8144
متص	-10.8145
▁اللفظ	-10.8146
▁1943	-10.8147
▁إجراءات	-10.8151
هيدروجين	-10.8153
▁الرسائل	-10.8156
▁تؤثر	-10.8156
ie	-10.8159
▁فحسب	-10.816
▁زادت	-10.8161
▁معارض	-10.8164
▁ديوان	-10.8168
خاف	-10.8171
نماذج	-10.8172
▁الانتصار	-10.8173
ُهُ	-10.8175
▁الكلاسيكي	-10.8177
خوارزم	-10.818
▁يورو	-10.8184
▁(8	-10.8185
▁مُست	-10.8186
▁(7	-10.8188
▁وطالب	-10.8195
منظمة	-10.8198
▁والسياسية	-10.8202
▁الثروة	-10.8202
▁صربيا	-10.8202
▁مفاوضات	-10.8203
▁البندقية	-10.8203
▁مقاطعات	-10.8203
▁نبتون	-10.8204
غضب	-10.8204
▁يعملون	-10.8206
ناصر	-10.8207
▁الهادي	-10.821
▁المثلية	-10.8213
▁فشلت	-10.8221
▁بالمقارنة	-10.8222
▁محفوظ	-10.8224
استسلام	-10.8226
قنع	-10.8229
▁لليهود	-10.8235
بحاث	-10.8236
we	-10.8236
▁وتمكن	-10.8239
▁المبكر	-10.8239
دستور	-10.8241
ber	-10.8242
خزن	-10.8249
▁مستشار	-10.825
▁الخطر	-10.826
▁المخابرات	-10.8262
▁غوبلز	-10.8262
▁قِبل	-10.8262
▁العذراء	-10.8262
▁التسعينات	-10.8263
▁جبران	-10.8263
اتساع	-10.8265
▁قضايا	-10.8265
▁النُ	-10.8265
▁بورصة	-10.8266
▁السومري	-10.8267
▁غلاف	-10.8268
▁روس	-10.8268
▁وبحسب	-10.8268
سؤال	-10.8271
▁الأهمية	-10.8271
▁دائما	-10.8276
▁اجتماعية	-10.8277
▁ارتبط	-10.8282
▁أحياناً	-10.8283
▁اتفاقيات	-10.8284
▁الويب	-10.8286
▁(9	-10.8288
▁بقوله	-10.8291
▁التواصل	-10.8292
▁نماذج	-10.8293
▁للسكان	-10.8296
▁ومنع	-10.8298
▁إنما	-10.83
▁تضمنت	-10.8314
داس	-10.8319
▁مركزاً	-10.8321
ديموقراطي	-10.8323
▁الفائق	-10.8323
▁الصادق	-10.8323
عُلماء	-10.8323
▁رموز	-10.8324
▁أنشئت	-10.8324
▁وقاد	-10.8325
▁آشور	-10.8327
▁ينتشر	-10.8327
▁إسلامي	-10.8329
▁ودعم	-10.8329
▁شهور	-10.8333
▁الأمراء	-10.8334
أطفال	-10.8336
▁منازل	-10.8336
▁ديفيد	-10.8338
▁تعاني	-10.8342
▁250	-10.8342
تغطية	-10.8343
إل	-10.8346
▁المرتفعات	-10.8361
▁تدعم	-10.8368
▁وعمر	-10.837
ip	-10.8372
عبارة	-10.8374
▁ديل	-10.8376
▁الدع	-10.8377
▁المساواة	-10.8383
▁روزفلت	-10.8384
▁التنجيم	-10.8384
▁فايزر	-10.8384
▁أشجار	-10.8385
▁السماوية	-10.8386
▁وسيطر	-10.8386
▁خفيف	-10.8387
▁أغنية	-10.8388
▁البركاني	-10.8388
أدوية	-10.8391
▁الدماغ	-10.8391
ساحل	-10.8392
▁النفوذ	-10.8398
▁لاستخدام	-10.8398
▁دقيق	-10.8398
أكسجين	-10.8398
▁الفخار	-10.8398
▁بالعمل	-10.8407
▁تبين	-10.8408
▁وأوروبا	-10.8411
ولوجي	-10.8413
▁البريد	-10.8413
إبراهيم	-10.8414
كامي	-10.8419
▁يهودية	-10.8424
مرحلة	-10.8425
0000	-10.8428
انتخابات	-10.8428
▁أحكام	-10.8431
ُود	-10.8434
عائلة	-10.8435
▁ضرورة	-10.8445
تأكد	-10.8445
▁لحقوق	-10.8447
▁الدبلوماسية	-10.8448
تآكل	-10.8448
▁أبيض	-10.8449
▁المخطط	-10.845
▁ودعا	-10.845
▁أربعين	-10.8452
▁الهائل	-10.8454
▁نقد	-10.846
▁يستمر	-10.8462
▁صلة	-10.8463
▁أوَّل	-10.8465
▁وتستخدم	-10.8468
▁لواء	-10.8472
▁الهزيمة	-10.8473
▁لقاء	-10.8474
▁السهول	-10.8476
▁المسيحيون	-10.8476
▁تأمين	-10.8476
نشتاين	-10.8478
su	-10.8479
نتقد	-10.8485
▁الأجنبي	-10.8485
▁يقيم	-10.8488
قاب	-10.8492
ex	-10.8501
▁عضوا	-10.8503
ضطهاد	-10.8505
▁الكونغرس	-10.8507
▁المتبقية	-10.8507
مقاييس	-10.8507
▁تسيطر	-10.8507
▁الطابع	-10.8507
▁منغوليا	-10.8508
ستهلك	-10.8512
▁السامري	-10.8514
▁ثانوي	-10.8514
▁قبيل	-10.8516
▁الكورية	-10.8516
▁الفراغ	-10.8518
▁بدقة	-10.852
900	-10.8521
▁العمود	-10.8522
▁العقود	-10.8522
▁سياحي	-10.853
▁المالي	-10.8531
أشعة	-10.8533
جموع	-10.8533
أغراض	-10.8536
حلّ	-10.8537
وقود	-10.8539
تحصين	-10.8541
▁المستشار	-10.8541
▁الجُند	-10.8544
فرنسا	-10.8546
واسط	-10.8556
▁الحرير	-10.8561
▁فلكي	-10.8562
▁المادية	-10.8563
▁لوجود	-10.8567
▁ولادة	-10.8568
▁سُليمان	-10.8569
▁اعتقاد	-10.8569
تطهير	-10.8569
▁محافظات	-10.857
▁يكفي	-10.8571
▁جنيه	-10.8571
▁ملاحظة	-10.8572
▁اعتقال	-10.8573
▁البرونزي	-10.8575
غاري	-10.8577
▁الآراء	-10.8579
▁واتخذ	-10.8581
سلاجقة	-10.8585
يروس	-10.859
كتلة	-10.8595
▁نسبيا	-10.8597
أهرام	-10.8597
▁يحدد	-10.8601
rt	-10.8601
go	-10.8606
يهود	-10.8608
تمكن	-10.861
نقض	-10.8611
▁ويعمل	-10.8611
▁لحركة	-10.8612
▁المتزايد	-10.8613
▁البيرو	-10.8616
عدد	-10.8624
▁اعتبرت	-10.8626
ميكانيكي	-10.863
tor	-10.8631
▁الأيرلندي	-10.8632
▁رولينغ	-10.8632
▁البلماح	-10.8632
▁التقنيات	-10.8632
▁مقبرة	-10.8632
▁مساحات	-10.8633
أدوات	-10.8635
▁الرسالة	-10.8636
سق	-10.8638
▁الفضائية	-10.8638
▁إفريقية	-10.8638
▁تتخذ	-10.8639
▁الذرات	-10.864
ألياف	-10.8645
▁الذكاء	-10.8647
▁التمرد	-10.865
أطلس	-10.865
انتحار	-10.865
▁سعر	-10.8651
▁المنهج	-10.8655
▁حبيب	-10.8658
▁اليونانيين	-10.8659
أشياء	-10.866
صوت	-10.8662
▁تشهد	-10.8662
ماري	-10.8665
أستراليا	-10.8667
▁والغاز	-10.8668
شمس	-10.8676
▁إبان	-10.8678
▁المثلث	-10.8679
طح	-10.8682
▁العصبة	-10.8686
ko	-10.8688
▁بونابرت	-10.8695
▁تبليسي	-10.8695
▁العظام	-10.8695
▁الجزيئات	-10.8695
▁الملاريا	-10.8695
▁الراشد	-10.8696
▁المرتفعة	-10.8696
▁الرحلة	-10.87
▁الثقب	-10.8701
▁المرئي	-10.8703
▁يستطع	-10.8705
▁لعلاج	-10.8705
▁قرى	-10.8706
مناهج	-10.8706
▁البنغال	-10.8706
▁الدموية	-10.8708
▁حقبة	-10.8708
▁الساحة	-10.871
▁التقليد	-10.871
▁وجزر	-10.8713
der	-10.8722
▁الإقليمي	-10.8726
▁الجزيئي	-10.8727
خطب	-10.8728
فرج	-10.8729
▁والهندسة	-10.8739
▁التوتر	-10.874
▁لمنظمة	-10.8745
لذين	-10.8747
عُمر	-10.8751
▁التقسيمات	-10.8752
حروب	-10.8755
▁المستوطنات	-10.8758
▁حنيفة	-10.8758
استنساخ	-10.8758
تغذية	-10.8758
▁دجلة	-10.8758
إخضاع	-10.8758
▁وانتهت	-10.8758
مناقشة	-10.8761
▁الخلفية	-10.8762
▁سياسات	-10.8762
▁اتباع	-10.8763
▁جيشًا	-10.8763
عنصر	-10.8767
متابعة	-10.8773
▁فمثلا	-10.8775
▁اليمني	-10.8777
▁الزعيم	-10.8777
▁واجهت	-10.8782
▁حاسم	-10.8784
bi	-10.8786
القرن	-10.8787
▁المعهد	-10.8788
▁مصالح	-10.8789
▁للفرد	-10.8791
وتون	-10.8793
جغرافيا	-10.8796
▁البيان	-10.8805
▁لأغراض	-10.8806
▁الصواريخ	-10.8813
مصطلح	-10.8817
أكبر	-10.8818
عابر	-10.8821
كالسيوم	-10.8822
▁القنوات	-10.8822
▁وهنا	-10.8822
أسطول	-10.8822
▁المنافسة	-10.8823
ورق	-10.8823
▁السياسات	-10.8823
▁وأخرى	-10.8823
▁إيجابي	-10.8826
▁تبدو	-10.8826
▁لتحرير	-10.8826
▁البرمجة	-10.8826
▁مرشح	-10.8827
▁سفيان	-10.8827
ap	-10.8828
▁عمران	-10.8828
▁الغار	-10.8831
▁المتأخر	-10.8831
▁صمم	-10.8832
▁يدفع	-10.8834
لبس	-10.8834
قارن	-10.8835
▁أسوان	-10.8838
َلْ	-10.8839
قلعة	-10.8844
برج	-10.8847
سوء	-10.8852
▁والتاريخ	-10.8858
▁1930	-10.886
خاصةً	-10.8862
▁وتقوم	-10.8865
لبرت	-10.8874
▁اشتهرت	-10.8876
توفيق	-10.888
صحيفة	-10.8881
▁الانفصال	-10.8886
▁شكسبير	-10.8886
▁البترول	-10.8886
▁التجريبي	-10.8886
▁وبريطانيا	-10.8887
▁ويتكون	-10.8895
▁إنجاز	-10.8897
▁أسد	-10.8897
سيما	-10.8899
▁نجيب	-10.8901
▁بكتاب	-10.8906
▁دوق	-10.8909
تعريف	-10.8913
▁لِمُ	-10.8915
ستخدام	-10.8918
ّار	-10.8918
▁للنظام	-10.892
وجَّه	-10.8922
▁وأنَّ	-10.8922
▁سلبي	-10.8924
ملوك	-10.8928
▁ترى	-10.8929
ريث	-10.8929
▁الفنانين	-10.8934
تمدد	-10.8936
▁وثيق	-10.8944
▁المرشح	-10.8944
قادة	-10.8946
▁مقام	-10.8949
▁للتعليم	-10.895
▁الزرقاء	-10.895
▁ولبنان	-10.895
▁اللاهوت	-10.895
▁الخواص	-10.8951
زلازل	-10.8951
▁الباحثون	-10.8951
▁أبنائه	-10.8952
بالإنجليزية	-10.8953
▁يؤثر	-10.8953
▁النسخة	-10.8953
▁المفتوحة	-10.8953
▁مقدمة	-10.8954
▁الإناث	-10.8955
▁المبادئ	-10.8962
تجدد	-10.8966
طاحة	-10.8966
حتاج	-10.8972
▁ستكون	-10.8973
▁الحروف	-10.8974
تتكون	-10.8981
▁مسقط	-10.8986
▁العاملين	-10.8988
َتْ	-10.8996
نحاس	-10.9006
▁تركز	-10.901
فرنسي	-10.9011
▁الزنجبيل	-10.9015
▁المباراة	-10.9015
▁للإشارة	-10.9015
انتظار	-10.9015
▁المحافظات	-10.9016
▁لسنة	-10.9016
▁البارزة	-10.9017
▁عمود	-10.9018
▁تضمن	-10.9018
▁الإنفاق	-10.9019
▁ترب	-10.902
▁تساوي	-10.9021
▁الشروط	-10.9021
ٌّ	-10.9023
▁and	-10.9024
ستثمر	-10.9025
▁تتطلب	-10.9027
▁الفلز	-10.9028
سحر	-10.9031
محرر	-10.9034
تكوّن	-10.9035
▁ابتداء	-10.9037
▁للعلوم	-10.9037
ضرائب	-10.9039
خلط	-10.904
بادر	-10.904
جزيئ	-10.9045
▁يحاول	-10.9052
ag	-10.9056
▁الصلة	-10.9056
حديقة	-10.9059
قديس	-10.9066
▁المشاهد	-10.9067
▁يسير	-10.9077
▁الجماهير	-10.908
▁تقارير	-10.9081
▁تخزين	-10.9081
▁المفروض	-10.9081
▁وآسيا	-10.9081
▁يساوي	-10.9082
▁توأمة	-10.9083
آخر	-10.9087
con	-10.9088
▁ترتفع	-10.9089
خراسان	-10.9092
صالات	-10.9094
▁يميل	-10.9095
▁المالكي	-10.9099
ki	-10.9108
▁الخيار	-10.9109
نشئ	-10.9115
مركبات	-10.9116
إذاعة	-10.9118
▁واستول	-10.9119
صلاة	-10.9139
لُو	-10.9143
5000	-10.9145
▁هلسنكي	-10.9146
استئناف	-10.9146
▁الموانئ	-10.9147
▁القشرة	-10.9147
▁علاقته	-10.9148
▁اليورو	-10.9149
▁والفلسفة	-10.915
▁السويدي	-10.9151
▁وانتشر	-10.9151
مؤلف	-10.9154
▁للزراعة	-10.9156
أعمارهم	-10.9157
▁مناصب	-10.9159
دبابات	-10.9161
▁التخلي	-10.9163
غرق	-10.9164
نهي	-10.9168
حضارات	-10.9174
ذبح	-10.9175
▁أبعد	-10.9183
▁المطالب	-10.9193
▁سنتين	-10.9195
▁عبور	-10.9195
▁صفات	-10.9198
▁عضواً	-10.9198
تمثيل	-10.9202
اعتداء	-10.9205
انتظام	-10.9213
▁جماعي	-10.9213
▁للسيطرة	-10.9213
زواج	-10.922
▁المسبار	-10.9222
▁عقل	-10.9223
▁بجيش	-10.9225
▁الثماني	-10.9233
▁بمنطقة	-10.9234
▁والمحيط	-10.9236
بروتستانت	-10.9236
tion	-10.9243
▁وزاد	-10.9243
▁المفاهيم	-10.9254
▁لمجلس	-10.9261
sp	-10.9269
ستبدل	-10.9272
▁مدرس	-10.9275
▁بطليموس	-10.9279
▁التلفاز	-10.9279
▁استضافت	-10.928
▁المعتقدات	-10.928
▁جريدة	-10.9284
▁1937	-10.9285
نظيف	-10.9289
▁إخراج	-10.9292
▁اتجه	-10.9295
هَا	-10.9297
▁لوصف	-10.9298
▁روماني	-10.93
يرى	-10.9301
▁الأشهر	-10.9304
مفاهيم	-10.9304
▁اعتمدت	-10.9306
▁الغوري	-10.9315
▁مؤيد	-10.9324
▁ملح	-10.9325
طاف	-10.9326
▁البولندي	-10.9337
▁للدفاع	-10.9338
بمرور	-10.9341
كهرومغناطيسي	-10.9345
▁استهلاك	-10.9346
استيعاب	-10.9349
▁النمساوي	-10.935
مرتفعات	-10.9351
▁الثورات	-10.9352
▁وأيضاً	-10.9352
▁1924	-10.9352
▁واستقر	-10.9353
▁فخرج	-10.9358
▁الدوران	-10.936
▁الانتهاء	-10.9361
ver	-10.9369
خبز	-10.9372
▁وحدها	-10.9376
▁أسوار	-10.9376
▁بيئة	-10.9385
▁وتشير	-10.9386
▁يعبر	-10.9387
▁ملعب	-10.9392
▁لحزب	-10.9393
per	-10.9394
فيزيائي	-10.9397
ran	-10.9402
▁ومقر	-10.9406
فاض	-10.9413
▁القمة	-10.9413
▁تسلسل	-10.9414
▁يوفر	-10.9414
▁الهيثم	-10.9414
▁نيوتن	-10.9415
▁عضوًا	-10.9417
▁الآلات	-10.9421
▁الشائع	-10.9424
دعوى	-10.9426
▁المتحركة	-10.9428
▁ألبرت	-10.9435
▁أوقات	-10.9438
الاشتراك	-10.9438
▁فأمر	-10.944
شريف	-10.9441
أساطير	-10.9442
▁كشفت	-10.9445
إغريق	-10.9445
نقش	-10.9452
▁يتكلم	-10.9456
ساق	-10.9467
▁يلعب	-10.947
إسبانيا	-10.947
▁الزيت	-10.948
▁الوظائف	-10.9482
▁تفاصيل	-10.9482
▁الولادة	-10.9482
▁لضمان	-10.9483
▁وإيطاليا	-10.9483
▁أعراض	-10.9484
لاستيلاء	-10.9484
▁بإرسال	-10.9485
▁الأبعاد	-10.9486
▁السلالة	-10.9487
▁علامات	-10.9487
▁زعماء	-10.9492
تسامح	-10.9495
▁بُني	-10.9497
▁رابع	-10.9499
▁المتحدث	-10.951
▁وتعرف	-10.951
شعل	-10.9512
▁العنب	-10.9516
▁والآخر	-10.9534
حمض	-10.9535
▁حملته	-10.954
▁وأخيرا	-10.954
pro	-10.9542
مريض	-10.9546
▁الفيديو	-10.9551
▁فولتير	-10.9551
▁شراء	-10.9551
▁الزيادة	-10.9553
▁أعلاه	-10.9554
▁1935	-10.9555
▁الألوان	-10.9555
أضحى	-10.9556
تزويد	-10.956
▁وفاز	-10.9562
▁زعم	-10.9563
شوف	-10.9563
تظاهر	-10.9564
io	-10.9566
▁خطأ	-10.9567
▁شباب	-10.9574
▁والمواد	-10.9578
بوليس	-10.958
▁يتعرض	-10.958
▁ككل	-10.9589
تقاعد	-10.9601
توازي	-10.9603
▁الغاب	-10.9613
▁الانضمام	-10.9619
احتكاك	-10.962
▁الإباضية	-10.962
▁وأمريكا	-10.9622
▁المناعي	-10.9629
▁ويشكل	-10.9631
سكون	-10.9632
قبائل	-10.9633
_1	-10.9634
المعروف	-10.9638
▁شباط	-10.9639
▁بمقدار	-10.9643
رأت	-10.9644
▁نزاع	-10.9644
▁يفعل	-10.9648
▁بإمكان	-10.9648
▁الجهات	-10.9648
▁المريني	-10.9654
▁3000	-10.9655
▁للمنطقة	-10.9656
إحد	-10.9657
رئاسة	-10.9659
إمارة	-10.9663
▁ممالك	-10.9667
▁رحم	-10.9668
res	-10.9677
▁موريتانيا	-10.9689
▁المضادة	-10.9689
▁تأليف	-10.9689
اجتهاد	-10.969
▁مخالف	-10.9691
▁اللهجات	-10.9692
▁وإنشاء	-10.9692
▁المكونات	-10.9694
مقارنة	-10.9695
ديك	-10.9697
تدهور	-10.9697
خمسينيات	-10.9698
▁مالكوم	-10.9702
يسمى	-10.9703
▁تأخذ	-10.9711
▁رائد	-10.9713
▁1500	-10.9716
▁والحكومة	-10.9716
▁زيدان	-10.972
▁شخصيات	-10.9721
أغلبية	-10.973
▁البلديات	-10.9733
داو	-10.9734
▁تحيط	-10.9736
▁الصحفي	-10.9743
▁لبث	-10.9745
▁الستة	-10.9748
man	-10.9749
منحوت	-10.9754
قُوَّات	-10.9759
▁زلزال	-10.9759
▁الهدنة	-10.9759
▁الأسترالي	-10.9759
▁جدار	-10.9759
▁أقيمت	-10.976
مغناطيس	-10.976
▁الفرصة	-10.9762
إضراب	-10.9762
▁تُعتبر	-10.9766
▁أمتار	-10.9768
غلو	-10.9768
▁الدولتين	-10.9771
إثارة	-10.9775
▁يجوز	-10.9776
▁جيرانه	-10.9776
▁تستمر	-10.9781
▁يشارك	-10.9781
▁تحصل	-10.9781
▁ويجب	-10.9787
▁كير	-10.9788
▁تواجه	-10.9788
تجاهل	-10.9796
▁أحوال	-10.98
ائض	-10.9802
▁للثقافة	-10.9803
▁ينتم	-10.9803
▁سباق	-10.9805
▁حظي	-10.9805
2.5	-10.9809
▁لآخر	-10.9809
َّهُ	-10.9809
▁يدعم	-10.9815
▁لكتاب	-10.9826
▁الشاهزاده	-10.9829
▁الترفيه	-10.9829
▁كلثوم	-10.9829
▁وارسو	-10.983
▁تكلفة	-10.983
▁نفط	-10.9832
▁80%	-10.9832
▁والجزر	-10.9833
▁الحس	-10.9834
▁أمثلة	-10.9834
فيتامين	-10.9838
▁الجفاف	-10.9839
استيراد	-10.9844
▁انتصر	-10.9852
متتالي	-10.9853
▁مرتبة	-10.9855
▁الجدل	-10.9863
▁التسعينيات	-10.9868
▁خيرُ	-10.9876
نافذ	-10.9883
رماد	-10.989
▁فهد	-10.9893
▁ويقال	-10.9897
▁بِمُ	-10.9899
▁بتقديم	-10.99
▁عالمياً	-10.99
odice	-10.99
▁أرجاء	-10.99
▁أسواق	-10.99
▁واضطر	-10.9902
▁للتجارة	-10.9902
▁الكهرومغناطيسية	-10.9902
▁ضفاف	-10.9903
مئات	-10.9904
▁الاستراتيجي	-10.9905
▁1942	-10.9905
▁اعتراف	-10.9906
▁والسياسة	-10.9907
طبخ	-10.9911
▁مؤرخ	-10.9913
▁يحوي	-10.9914
ستثمار	-10.9915
▁وأشار	-10.9915
بطل	-10.9916
▁المصالح	-10.9917
عانى	-10.9918
▁التنبؤ	-10.9922
ؤخذ	-10.9922
صيانة	-10.9927
مقياس	-10.9929
▁مِن	-10.9933
▁قضاء	-10.9935
▁الفئة	-10.9937
▁وأنشأ	-10.9943
▁تتواجد	-10.9947
▁الانتخابية	-10.9948
▁عانت	-10.9952
▁المؤيد	-10.9962
▁أحدهما	-10.9968
▁التنقيب	-10.9971
▁خِلال	-10.9971
▁الثقيلة	-10.9971
▁تعاليم	-10.9972
▁الرموز	-10.9972
▁المواصلات	-10.9972
عقوبة	-10.9972
▁يخدم	-10.9973
▁القصيرة	-10.9973
▁الأهالي	-10.9974
▁وارتفاع	-10.9977
▁1934	-10.9978
▁سابقاً	-10.9982
خترع	-10.9985
لعلاقات	-10.9985
▁10%	-10.9987
▁الأربعين	-10.999
▁يشغل	-10.9991
خوض	-10.9995
▁الكبد	-11.0003
▁القصة	-11.0003
▁قليلاً	-11.0003
أشخاص	-11.0007
تجانس	-11.0007
تفكير	-11.001
▁للأطفال	-11.0012
انتصار	-11.0016
▁البطن	-11.0021
أسنان	-11.0031
مُسلم	-11.0035
▁شدة	-11.0036
وريس	-11.0038
▁فدخل	-11.0039
بوك	-11.0042
▁غرناطة	-11.0043
▁مباراة	-11.0043
▁سلاطين	-11.0043
▁الرافدين	-11.0044
▁والأردن	-11.0044
▁للمسلمين	-11.0044
▁فائق	-11.0044
▁المصنوع	-11.0044
▁وُلد	-11.0046
▁والكتابة	-11.0047
▁استناد	-11.0047
▁الحضاري	-11.0047
▁بالسكان	-11.0048
▁1951	-11.0048
▁والشمال	-11.0048
▁خضعت	-11.0049
▁1925	-11.0052
▁2021	-11.0053
▁انتقد	-11.006
باحة	-11.0084
▁وأضاف	-11.0088
بربر	-11.0091
pi	-11.0094
ركود	-11.0107
حيوان	-11.0108
طالما	-11.011
سماها	-11.011
سيلي	-11.0114
ثبات	-11.0116
ليزي	-11.0116
▁الأندلُس	-11.0116
▁السلاطين	-11.0116
▁للميلاد	-11.0116
▁الشيطان	-11.0116
▁المعتدل	-11.0116
موسوعة	-11.0116
▁حلقات	-11.0119
▁للحياة	-11.012
▁المسلح	-11.0121
▁سياق	-11.0121
فاس	-11.0129
▁الشفق	-11.0138
▁العباد	-11.0141
▁بيوت	-11.0141
▁واقتصادي	-11.0146
فتقر	-11.0146
▁جهد	-11.0155
ev	-11.0155
▁آراء	-11.0157
▁السوفييت	-11.016
تنقسم	-11.0161
قرآن	-11.0166
▁تشاد	-11.0168
▁وراثي	-11.0186
▁بوروندي	-11.0189
▁سيراليون	-11.0189
▁وأيضًا	-11.0189
▁قائلاً	-11.0189
▁تأييد	-11.0189
▁يوناني	-11.0191
▁للعراق	-11.0191
▁الأقمار	-11.0191
▁والعسكري	-11.0198
قراطي	-11.02
-10	-11.0201
▁اعتنق	-11.0204
▁والسياسي	-11.0208
▁رغبة	-11.0215
▁المستعمر	-11.0222
▁عصور	-11.0223
▁إيل	-11.0224
▁حصة	-11.0224
▁الميدان	-11.0227
▁المسلسل	-11.0227
▁فعلي	-11.0229
؟»	-11.023
شمع	-11.0232
سُلطان	-11.0232
▁المستهلك	-11.0236
▁أدّ	-11.0239
نزا	-11.0242
صحيح	-11.0243
تحمل	-11.0246
▁الأفغان	-11.0262
رائحة	-11.0263
▁التشكيل	-11.0263
▁للوصول	-11.0263
▁المميزة	-11.0266
▁الطقوس	-11.0266
عرّف	-11.0268
سعودي	-11.0275
▁ونجح	-11.0276
إرشاد	-11.0277
▁رجب	-11.0282
▁الحبوب	-11.0283
▁وأشهر	-11.0284
▁الآلة	-11.0284
ستار	-11.0285
عذر	-11.0289
▁السائد	-11.0298
ِيَ	-11.0302
شيش	-11.0303
غلاق	-11.0306
ِلَ	-11.031
هندسة	-11.0311
زخم	-11.0311
تمييز	-11.0311
مذبحة	-11.0315
▁الكوبي	-11.0315
رومانسية	-11.0316
ميناء	-11.0318
▁الأحمدي	-11.0335
▁آيسلندا	-11.0336
▁ستيشن	-11.0336
▁للوزراء	-11.0336
▁نيكسون	-11.0337
▁المراحل	-11.0337
توثيق	-11.0339
▁قوته	-11.034
سهول	-11.0343
▁1916	-11.0343
تناقص	-11.0355
▁كينيا	-11.0355
▁واشتهر	-11.0358
ؤسس	-11.036
▁يؤكد	-11.0365
▁الكافي	-11.0368
شهادة	-11.037
رَّب	-11.0376
▁والفنون	-11.0384
بيتر	-11.0384
▁الفجر	-11.0404
▁خصوصا	-11.0407
▁أقاليم	-11.0411
▁تثبيت	-11.0411
ترخيص	-11.0411
▁إستراتيجية	-11.0411
▁بروناي	-11.0411
▁تصدير	-11.0412
▁قنوات	-11.0412
▁الكسوف	-11.0412
▁ولايته	-11.0412
▁الأعراض	-11.0413
تصغير	-11.0413
▁الناجم	-11.0413
▁شتاء	-11.0415
▁1931	-11.0415
▁الجزية	-11.0418
▁ياسر	-11.0418
▁التغيرات	-11.0418
▁ويعرف	-11.0419
▁سُمي	-11.0424
▁انضمام	-11.0426
ميليشيا	-11.0426
عقاب	-11.043
▁أخبر	-11.0435
▁الأزهر	-11.0436
▁الأوربي	-11.0438
ضارب	-11.0442
▁ضمان	-11.0453
▁نمت	-11.0454
▁جماد	-11.0455
▁خليل	-11.0455
▁والمغرب	-11.0457
▁ستيف	-11.0458
▁الأداء	-11.0471
َمَ	-11.0478
▁حاز	-11.0479
▁والثالث	-11.0486
صعوبات	-11.0486
▁الأقباط	-11.0486
▁المنتشرة	-11.0486
▁الكاريبي	-11.0487
▁تكنولوجيا	-11.0488
هزيمة	-11.0489
▁بإجراء	-11.0489
▁وكندا	-11.049
إخبار	-11.049
ديناميكي	-11.0491
▁تنتقل	-11.0491
▁يهتم	-11.0492
▁التعدين	-11.0493
▁بالمقابل	-11.0497
▁وكذا	-11.0499
تجاوز	-11.0501
▁كامب	-11.0506
أعداد	-11.0515
عطى	-11.0523
▁أخرج	-11.0526
▁الفنان	-11.0539
▁ينتخب	-11.0539
▁المجموع	-11.0547
▁الحرس	-11.0552
مجموعات	-11.0553
▁معناه	-11.0559
نتسب	-11.056
all	-11.0562
▁name	-11.0562
▁شوارع	-11.0562
▁جدل	-11.0563
▁عشيرة	-11.0563
▁زيارته	-11.0563
خالد	-11.0567
▁إغلاق	-11.0568
▁الوسائل	-11.0569
▁إعطاء	-11.0571
▁الإقطاعي	-11.0572
ue	-11.0573
▁كثرة	-11.0575
احتمال	-11.0575
▁استغل	-11.0576
▁نزول	-11.058
تأمل	-11.0583
صادف	-11.0585
اللواء	-11.0585
▁أمَّ	-11.059
▁داود	-11.0595
نفاذ	-11.0596
▁النسبي	-11.0606
كيفية	-11.0627
شوار	-11.0628
▁الفرعون	-11.0633
البحر	-11.0633
▁دقائق	-11.0638
▁الاحتجاجات	-11.0638
▁دمياط	-11.0638
▁للهجرة	-11.0638
▁بفيروس	-11.0639
▁المساعدات	-11.064
▁القتلى	-11.064
▁يقضي	-11.064
فوسفات	-11.0641
▁أنتجت	-11.0641
▁الجميلة	-11.0643
▁والطاقة	-11.0643
▁محتمل	-11.0644
تصريف	-11.0649
عضلات	-11.0649
▁استخراج	-11.0649
▁التعرف	-11.0651
كلوريد	-11.0652
▁ديانة	-11.0658
▁الخيال	-11.0658
شهير	-11.066
سمّى	-11.0661
▁القطن	-11.0667
▁الثقة	-11.0667
بالنسبة	-11.0668
احتكار	-11.0668
جزاء	-11.0676
▁السمك	-11.0686
pr	-11.0692
احتفال	-11.0699
تخصيص	-11.0715
▁الفارابي	-11.0715
▁هايدن	-11.0715
▁شاطئ	-11.0716
▁مخصصة	-11.0717
▁فريدريك	-11.0717
حقيقة	-11.0722
▁الدوائر	-11.0722
▁صليب	-11.0724
▁هشام	-11.0726
تتركز	-11.0728
كافئ	-11.0729
▁جملة	-11.073
▁يعاني	-11.073
نثر	-11.0738
تصال	-11.0743
حفز	-11.0744
▁قاسم	-11.0746
خسر	-11.0765
جتاح	-11.0768
أوروبا	-11.0776
بلدان	-11.0778
▁الأفق	-11.0781
▁عضُد	-11.0793
▁أنجلينا	-11.0793
▁الارتباط	-11.0793
▁الشاطئ	-11.0793
▁الستينيات	-11.0793
▁الصبي	-11.0793
أباطرة	-11.0795
▁أبطال	-11.0796
▁احترام	-11.0796
▁يونكس	-11.0797
▁العلامة	-11.0799
▁1926	-11.08
▁يهوه	-11.08
▁تكريم	-11.0803
▁البيئي	-11.0804
▁التزام	-11.0806
▁الركاب	-11.0806
▁أتى	-11.0807
تقلص	-11.0808
تحلل	-11.0808
▁بكونه	-11.0808
دكتور	-11.0817
▁وأصدر	-11.0836
كبير	-11.0838
اللغة	-11.0842
▁هائل	-11.085
أنثى	-11.0851
رتفاع	-11.0853
نسق	-11.0856
bu	-11.086
ram	-11.0871
أوائل	-11.0871
▁جامايكا	-11.0871
▁قائلًا	-11.0871
▁يريفان	-11.0871
▁للجدل	-11.0872
جبهة	-11.0874
هيرودوت	-11.0874
▁المهام	-11.0876
▁المشاة	-11.0879
شريعة	-11.088
▁جدول	-11.0883
▁تُوفي	-11.0886
رحب	-11.0887
أبريل	-11.0894
▁100,000	-11.0897
-15	-11.0898
قصير	-11.0902
▁حيز	-11.0906
sch	-11.091
▁سيتم	-11.0921
▁دقة	-11.0928
لزيارة	-11.0928
▁حتّ	-11.0929
فرط	-11.0932
يناير	-11.0932
تضرر	-11.094
نموذج	-11.0941
سُكَّان	-11.095
▁أعضائه	-11.095
أسئلة	-11.095
▁لقياس	-11.095
تسونامي	-11.0951
▁أوسلو	-11.0951
▁الجوفية	-11.0951
▁العلامات	-11.0952
▁كثيف	-11.0953
▁مارتن	-11.0953
▁جرائم	-11.0956
▁أسرته	-11.0956
▁آمون	-11.0957
lin	-11.0958
▁1915	-11.0959
▁البيوت	-11.0959
▁فندق	-11.096
▁فعاد	-11.0961
▁الابتدائي	-11.0963
ذاع	-11.097
فبراير	-11.0972
▁جاك	-11.0974
▁القريب	-11.0985
معاهدة	-11.0992
▁تشارلز	-11.1029
▁أقمار	-11.1029
▁الاستيطان	-11.1029
▁تزداد	-11.1029
▁ويليام	-11.103
▁جناح	-11.103
▁الميكانيكية	-11.1031
▁دائماً	-11.1031
▁موافقة	-11.1033
▁كتلته	-11.1033
▁والتكنولوجيا	-11.1034
▁تُستخدم	-11.1035
▁قُر	-11.1035
▁شمل	-11.1036
▁معقدة	-11.1037
▁رحلته	-11.1042
▁الجماعي	-11.1043
جيو	-11.1044
شعوب	-11.1047
راهب	-11.105
أغسطس	-11.1053
ru	-11.1062
إثن	-11.1064
▁شيوعا	-11.1071
صطدم	-11.1072
▁هدم	-11.1077
تبرع	-11.108
▁البكر	-11.1083
موسيقي	-11.1087
ay	-11.1095
نقطة	-11.1105
▁البقر	-11.1106
أغنى	-11.1107
▁تأكيد	-11.1109
▁تيمورلنك	-11.1109
▁ناميبيا	-11.1109
جُنُود	-11.1109
▁السفلى	-11.1109
▁النعمان	-11.111
▁الحنفي	-11.111
▁المعدن	-11.1112
بارد	-11.1112
▁شامير	-11.1115
تقاسم	-11.1116
الولايات	-11.1116
▁20%	-11.112
gu	-11.1122
▁صعود	-11.1123
▁الإطار	-11.1127
حاجز	-11.1131
لخلافة	-11.1139
▁حروف	-11.1141
▁1900	-11.1151
▁مدينتي	-11.1169
▁مجاني	-11.1171
▁الملائكة	-11.119
▁البلجيكي	-11.119
▁الأنبياء	-11.119
▁الاستهلاك	-11.119
▁ماكاو	-11.119
▁هذين	-11.119
▁النصارى	-11.1193
▁بكثرة	-11.1193
▁مايكل	-11.1193
▁وانتقل	-11.1193
▁40%	-11.1193
▁جسيمات	-11.1194
▁الهندسية	-11.1196
▁تشييد	-11.1198
▁قتيل	-11.1199
مراجعة	-11.1201
▁وأثناء	-11.1209
▁خوفو	-11.1212
▁وثاني	-11.123
▁الأسرى	-11.1234
▁فسار	-11.1246
قفز	-11.1252
▁اشتراك	-11.1253
لدرجة	-11.1264
ry	-11.1268
أثر	-11.1271
▁بزيادة	-11.1271
▁التطوير	-11.1271
▁هكتار	-11.1271
▁روابط	-11.1271
▁المكثف	-11.1272
تلسكوب	-11.1272
▁المتخصصة	-11.1273
▁قيود	-11.1274
▁الحجارة	-11.1279
خاطب	-11.128
سعد	-11.128
▁بركان	-11.13
وظيفة	-11.1301
▁وأبرز	-11.1305
وحش	-11.1315
يوليو	-11.1326
سجون	-11.1333
ine	-11.1334
▁المكتوبة	-11.1353
▁اليُونان	-11.1353
▁كمبوديا	-11.1353
▁كواكب	-11.1353
ميثولوجيا	-11.1353
▁المناهض	-11.1353
▁يعانون	-11.1353
▁إقامته	-11.1354
▁بنجاح	-11.1354
▁المظلمة	-11.1354
▁المسألة	-11.1355
▁المكرمة	-11.1355
▁والحيوانات	-11.1357
▁الآتي	-11.1359
▁1929	-11.1359
▁اخترع	-11.1366
▁طيران	-11.1366
هيدروكربون	-11.1369
tic	-11.137
▁المعلق	-11.137
▁النقود	-11.137
بغداد	-11.138
متنع	-11.1382
شاع	-11.1404
▁اتبع	-11.1408
مسابقة	-11.1411
نبات	-11.1418
حزن	-11.142
▁الرحم	-11.142
تحتوي	-11.1423
br	-11.1432
▁الفيلسوف	-11.1436
▁سلوفينيا	-11.1436
▁غيفارا	-11.1436
▁النبلاء	-11.1436
أساقفة	-11.1436
▁الفدرالي	-11.1436
▁للقيام	-11.1436
▁عمّان	-11.1437
▁الفوضى	-11.1437
▁كفاءة	-11.1437
▁خليط	-11.144
▁بلغاريا	-11.144
▁جدران	-11.1442
▁حادثة	-11.1442
▁وأجزاء	-11.1445
▁الوفد	-11.1445
▁الفترات	-11.1445
▁ياباني	-11.1446
كتيبة	-11.1451
وساطة	-11.1459
▁صعيد	-11.146
ja	-11.1462
حدوث	-11.1467
▁الجهد	-11.1468
پول	-11.1473
▁الدقة	-11.1476
▁فأخذ	-11.1482
انتهى	-11.1483
▁بِقياد	-11.1483
▁الفعال	-11.149
wi	-11.1495
▁بتطوير	-11.1519
▁شيوعًا	-11.1519
▁بخصوص	-11.1519
▁قصائد	-11.1519
▁hiv	-11.1519
تمكّن	-11.152
▁الزنكي	-11.1524
▁الملاحة	-11.1524
▁المقرر	-11.1525
▁منظمات	-11.1525
▁أسامة	-11.1528
أواسط	-11.1532
مستوى	-11.1534
▁بوصة	-11.1534
مستشار	-11.1536
إضاءة	-11.1536
▁الأرجح	-11.1546
ak	-11.1546
حامل	-11.1547
مضادات	-11.156
▁قدرته	-11.1562
زعيم	-11.1566
جنود	-11.1571
▁السبت	-11.1579
عثر	-11.1587
يُقال	-11.1591
رثوذكس	-11.1593
▁الأحاديث	-11.1603
▁ضابط	-11.1603
▁المجاهدين	-11.1603
بونساي	-11.1604
▁النسيج	-11.1604
أحواض	-11.1604
▁تساهم	-11.1605
▁وثلاثين	-11.1606
▁90%	-11.1606
▁الآونة	-11.1607
▁شريط	-11.1608
▁فئات	-11.1609
▁صادرات	-11.1609
إبعاد	-11.1609
▁شجع	-11.1618
▁العلمانية	-11.1619
▁الغرض	-11.162
che	-11.1621
▁البيزنطيَّة	-11.1624
▁سياسته	-11.1627
خترق	-11.1633
▁صنعاء	-11.1633
▁المعدة	-11.164
خيانة	-11.1658
net	-11.1661
ment	-11.1665
شينغ	-11.1667
أطباء	-11.1673
أحفاد	-11.1675
ion	-11.1681
نصح	-11.1686
▁اليابسة	-11.1688
▁يسيطر	-11.1689
ديناميكا	-11.1689
لكنَّهُ	-11.1692
▁العميق	-11.1693
▁فوائد	-11.1693
▁المنفى	-11.1696
▁الصليبيون	-11.1698
▁بأعمال	-11.1698
▁الراين	-11.1703
▁بوابة	-11.1705
لقد	-11.1709
▁واحتل	-11.1712
دلائل	-11.1718
▁انقسم	-11.1719
▁أوسع	-11.1727
عثمان	-11.1728
الكواكب	-11.1729
▁إياه	-11.1751
▁الكتل	-11.1763
صفيح	-11.1764
▁حقول	-11.1771
▁أضعاف	-11.1773
▁اليونسكو	-11.1773
▁خوسيه	-11.1773
▁الحاصل	-11.1774
▁الضعيف	-11.1776
▁ركز	-11.1776
إنتروبي	-11.1778
▁رباعي	-11.1778
▁الوفيات	-11.1779
ألحان	-11.1786
▁أحمر	-11.179
▁النقاط	-11.179
▁عاصمته	-11.1798
▁الويكا	-11.1802
▁اللاتيني	-11.1803
ai	-11.181
gi	-11.1818
▁ارتد	-11.1841
ستخرج	-11.1853
▁وسياسي	-11.1858
▁الشطرنج	-11.1859
▁لتقديم	-11.1859
▁الزعفران	-11.1859
▁لزيادة	-11.1859
▁الهاشمي	-11.1859
▁شيئًا	-11.1859
▁بذور	-11.1861
انحراف	-11.1861
▁ذروة	-11.1863
▁الطباعة	-11.1863
▁دائري	-11.1865
▁مصمم	-11.1866
يحتوي	-11.1871
▁الجناح	-11.1874
▁وأنجب	-11.1878
يَّته	-11.1887
تعارض	-11.189
▁يُذكر	-11.1896
▁سُل	-11.1921
أصول	-11.1931
كُل	-11.1934
▁وقرر	-11.1935
لتزام	-11.1942
▁هُناك	-11.1946
▁التضاريس	-11.1946
▁لتشكيل	-11.1946
▁النوميدي	-11.1946
▁الملايو	-11.1947
▁المتمردين	-11.1947
▁الشورى	-11.1947
▁السبعينات	-11.1947
▁الرحلات	-11.195
▁الساساني	-11.1953
ذكاء	-11.1956
تعميم	-11.1957
▁النقاب	-11.1958
▁لوحات	-11.1966
▁بارتفاع	-11.1968
▁الكنسي	-11.1975
والتي	-11.1975
َوْ	-11.1978
لسياسة	-11.1981
▁جودة	-11.1983
▁الطبري	-11.1983
بتعد	-11.199
هؤلاء	-11.1994
,500	-11.1998
ستوديو	-11.1998
▁بغض	-11.2007
▁اليورانيوم	-11.2034
▁ببساطة	-11.2034
▁حمورابي	-11.2034
▁ممتلكات	-11.2034
▁انفصال	-11.2034
▁الزلزال	-11.2034
▁الميزانية	-11.2034
▁اللحوم	-11.2034
▁أيَّام	-11.2035
▁مقاعد	-11.2035
▁وثقافي	-11.2035
▁هرقل	-11.2035
▁للكنيسة	-11.2035
▁الراحل	-11.2036
أخشاب	-11.2037
▁البوابة	-11.2039
▁الأسبان	-11.204
▁صفحة	-11.2043
▁يُستخدم	-11.2045
▁الفروع	-11.2052
▁ولذا	-11.2056
▁الأحجار	-11.2056
▁عفان	-11.2057
خصائص	-11.2063
شتغل	-11.2064
متغيرات	-11.2067
▁ناسا	-11.2077
اختصار	-11.2084
أبجدية	-11.2103
ربيع	-11.2107
عراب	-11.2113
▁استفاد	-11.2117
▁الأوروپي	-11.2123
▁ليتوانيا	-11.2123
▁ميشيغان	-11.2123
▁بنتيجة	-11.2123
▁الروابط	-11.2123
▁المُسلمون	-11.2123
▁بجوار	-11.2123
حماس	-11.2123
▁الرقيق	-11.2124
▁الاحتفاظ	-11.2124
تسديد	-11.2125
▁الستينات	-11.2125
▁معتقدات	-11.2127
▁المقدمة	-11.2127
▁رياضة	-11.213
▁الزهور	-11.2131
ِنْ	-11.2141
▁الأثناء	-11.2146
▁وقوة	-11.2146
▁جليد	-11.2154
نفوذ	-11.2156
البندق	-11.2163
تميزت	-11.2165
▁نواب	-11.2171
▁مؤلفاته	-11.2173
قدّر	-11.2174
▁استقبل	-11.2176
برونز	-11.2177
tt	-11.2177
عميد	-11.2186
ستير	-11.2193
مواصلة	-11.2198
إنكليزية	-11.2201
▁التقارير	-11.2212
▁إلزامي	-11.2212
ستحوذ	-11.2212
▁الجوانب	-11.2212
▁التدريس	-11.2212
انشقاق	-11.2212
▁بيبرس	-11.2212
حجب	-11.2214
▁السينمائي	-11.2215
▁مبيعات	-11.2215
▁ريغان	-11.2217
أكاد	-11.2219
هرتز	-11.2221
توليد	-11.2221
▁الطفيل	-11.2227
▁أُطلق	-11.223
▁الخبراء	-11.2231
1,000	-11.2232
▁قادته	-11.224
دماء	-11.2247
▁نساء	-11.2249
تحريك	-11.2253
نمط	-11.2261
أكتوبر	-11.2266
جذور	-11.227
amp	-11.2278
▁حليف	-11.2297
هيروغليفي	-11.2302
▁الاختراع	-11.2302
▁المركّبات	-11.2302
▁الخفيفة	-11.2302
▁وتقديم	-11.2302
▁النيجيري	-11.2302
▁الأنثروبولوجيا	-11.2302
▁بربروس	-11.2302
▁المناصب	-11.2303
mu	-11.2303
▁مزارع	-11.2303
▁كمّيّ	-11.2305
▁الأوكرانية	-11.2305
▁المساهم	-11.2305
▁تعقيد	-11.2305
▁السكنية	-11.2307
مستنقع	-11.2307
غنائم	-11.2311
أمواج	-11.2321
▁سلطته	-11.2333
وڤ	-11.2335
▁الصهيوني	-11.2338
سفينة	-11.2348
▁وسبع	-11.2352
▁الجليل	-11.2355
▁بناؤه	-11.2357
▁الحوار	-11.2364
▁ابتداءً	-11.2365
لتوجيه	-11.2373
▁يؤدّي	-11.2393
▁الأطباق	-11.2393
▁الفسطاط	-11.2393
▁اثنان	-11.2393
▁قرطبة	-11.2393
▁يغطي	-11.2393
▁نيكولا	-11.2393
الإشراف	-11.2395
تعبئة	-11.2395
▁وكنيسة	-11.2397
▁1905	-11.2398
لابتكار	-11.2399
▁استثمار	-11.2403
▁تليها	-11.2404
▁الحارث	-11.2408
rd	-11.2411
▁عروج	-11.2413
▁السياق	-11.2419
▁استسلم	-11.2425
▁الجراح	-11.2427
ian	-11.2431
حراسة	-11.2432
جماعات	-11.2436
شمول	-11.2445
أخبار	-11.2445
وفيتش	-11.245
▁الجيري	-11.2453
استبدال	-11.2454
af	-11.2464
▁شريك	-11.2466
وتش	-11.2466
نيتروجين	-11.2485
▁القذافي	-11.2485
▁كاسترو	-11.2485
▁السلوفيني	-11.2485
▁ينحدر	-11.2485
▁ولديه	-11.2485
▁وانتشار	-11.2485
▁القوافل	-11.2485
▁المنحدر	-11.2485
▁بقليل	-11.2485
▁المظاهرات	-11.2486
▁بالعربية	-11.2486
أعشاب	-11.2487
ـ/19	-11.249
▁عرقي	-11.2494
▁الخطوة	-11.2494
▁الكحول	-11.2495
▁حساس	-11.2497
لمسافات	-11.2504
▁مجرة	-11.2508
تورط	-11.2509
▁بالمئة	-11.2513
خصوصاً	-11.252
اختراق	-11.252
▁خامس	-11.2532
مبادئ	-11.2533
لسكك	-11.2538
the	-11.2557
▁احتياجات	-11.2577
▁لشبونة	-11.2577
▁مدعوم	-11.2577
▁الاثنين	-11.2577
▁بزيارة	-11.2577
▁بطوطة	-11.2577
▁يقتصر	-11.2577
▁مساجد	-11.2577
فاكهة	-11.2578
▁الفرنجة	-11.2579
▁التهديد	-11.2579
▁طارق	-11.2579
▁الرهبان	-11.2579
▁حمزة	-11.2581
▁الثلج	-11.2582
▁والنمسا	-11.2582
▁تشترك	-11.2583
▁50%	-11.2583
▁شتى	-11.2584
▁ينقسم	-11.2587
▁أعطت	-11.2587
▁وجوب	-11.2588
تخريب	-11.2589
▁والقضاء	-11.2594
مماليك	-11.2603
حذف	-11.2604
▁الهول	-11.2606
لمعادن	-11.2611
جمهوريات	-11.2619
▁صحفي	-11.2619
بقعة	-11.2667
▁المغاربة	-11.2671
▁الأناجيل	-11.2671
▁الرايخ	-11.2671
تحذير	-11.2672
▁القيود	-11.2672
نقذ	-11.2673
باليونانية	-11.2674
▁المعادلة	-11.2674
استكمال	-11.2674
هضاب	-11.2674
▁الرقابة	-11.2675
▁بإطلاق	-11.2675
حاخام	-11.2676
▁الأسعار	-11.2677
▁1927	-11.2678
▁لِذلك	-11.2678
▁ذراع	-11.2689
▁أخاه	-11.2707
شتاين	-11.2711
▁خيار	-11.2716
كيمي	-11.2718
سرد	-11.2728
▁الوعي	-11.2735
اسكتلندا	-11.2765
▁الخسائر	-11.2765
▁إديسون	-11.2765
▁لتشمل	-11.2765
▁والمواصلات	-11.2765
▁نواحي	-11.2765
▁الأعوام	-11.2766
▁يقطن	-11.2766
▁التبانة	-11.2767
▁الالتزام	-11.2768
▁وأكد	-11.2769
▁بجاية	-11.2769
▁الوشم	-11.277
▁بريطانية	-11.2773
أزياء	-11.2775
▁النخيل	-11.2784
إبقاء	-11.2787
her	-11.2801
شارلكان	-11.2806
fr	-11.2809
chi	-11.2813
سلطنة	-11.2828
▁الخلوي	-11.2829
لهبوط	-11.2831
[	-11.2834
▁المختبر	-11.2841
أمريكي	-11.2852
▁الحاوي	-11.2855
جُيُوش	-11.286
سريلانكا	-11.286
▁حكومات	-11.286
▁تماثيل	-11.286
▁العذبة	-11.2861
▁المحاولات	-11.2861
▁المتنوعة	-11.2863
▁المعيشة	-11.2863
▁المقيمين	-11.2864
تايوان	-11.2865
إقبال	-11.2867
▁المرء	-11.2867
تنبأ	-11.2873
▁استغرق	-11.2882
َرْ	-11.2888
▁وخصوصا	-11.2889
▁مرئي	-11.2889
▁الطولوني	-11.2895
▁مؤخرا	-11.2898
▁حراري	-11.2917
موضوع	-11.2923
توفى	-11.2933
▁الديموغرافي	-11.2956
صفائح	-11.2956
▁الإلخان	-11.2956
▁يشكّل	-11.2956
▁زراعية	-11.2957
كنتيجة	-11.2957
▁أريحا	-11.2957
تحريض	-11.2957
▁خادم	-11.2958
قنابل	-11.2961
▁وساهم	-11.2962
▁الملفات	-11.2963
▁الماشية	-11.2964
البنادق	-11.2967
▁القمح	-11.2979
إصابات	-11.2982
▁إضافي	-11.2992
تقوية	-11.3014
كعب	-11.3027
نطبق	-11.3035
▁رضا	-11.3048
▁الفنزويلي	-11.3053
▁الثلوج	-11.3053
▁تجهيز	-11.3054
▁أُمراء	-11.3054
▁ويشمل	-11.3054
▁للاستخدام	-11.3054
انعكاس	-11.3054
▁بغرض	-11.3054
▁لغتهم	-11.3054
▁والمؤسسات	-11.3054
▁والكنيسة	-11.3056
▁قاسية	-11.3056
مشاهير	-11.3057
دَّد	-11.306
▁طقوس	-11.306
▁والقرى	-11.3061
▁الهوائية	-11.3061
▁مفيدة	-11.3062
ْرَ	-11.307
لوقوف	-11.3075
▁الغنية	-11.309
هيدروكسي	-11.31
▁القضائي	-11.3104
▁والاجتماعي	-11.3116
طعن	-11.3131
تجمد	-11.3146
▁البَابِلي	-11.3151
▁ذُكر	-11.3151
▁وعاصمتها	-11.3151
▁التصنيع	-11.3151
▁هكذا	-11.3151
▁المزدوج	-11.3152
▁الإشارات	-11.3152
▁الجيزة	-11.3152
▁أعمدة	-11.3153
▁غامض	-11.3153
▁هدنة	-11.3154
▁بالقوة	-11.3154
▁صاروخ	-11.3155
▁متميزة	-11.3155
▁البوسني	-11.3155
▁ينتقل	-11.3156
▁معدنية	-11.3156
▁غزت	-11.3166
▁العادات	-11.3178
استقالة	-11.3179
▁ديمقراطي	-11.3184
تسمية	-11.3188
▁الأكاديمي	-11.3204
معالجات	-11.3212
أسباب	-11.3225
امتداد	-11.3236
مؤشر	-11.3242
jpg	-11.325
قسنطينة	-11.325
▁امتصاص	-11.325
▁تلميذ	-11.325
▁الحفريات	-11.3251
▁الرطوبة	-11.3251
توظيف	-11.3251
▁أخيرًا	-11.3251
▁جبريل	-11.3251
▁أبدًا	-11.3251
▁ترميم	-11.3251
▁للفنون	-11.3252
تأميم	-11.3252
▁المهرجانات	-11.3252
▁مجهول	-11.3252
▁المتاحة	-11.3253
▁والرابع	-11.3254
▁قضائية	-11.3257
▁60%	-11.3257
تسليح	-11.3258
▁الوسيط	-11.326
▁1913	-11.3261
▁1911	-11.3263
استضافة	-11.3263
▁2022	-11.3263
▁الإنكليز	-11.3263
ii	-11.3266
▁برمجة	-11.3266
فنانين	-11.3269
شتعل	-11.327
▁وقوات	-11.3272
نضج	-11.3276
اشتقاق	-11.3311
3.5	-11.3327
ديسمبر	-11.3336
مَا	-11.3344
إثيوبي	-11.3346
▁البكتيريا	-11.335
▁اللجوء	-11.335
▁بتشكيل	-11.335
▁النقوش	-11.3351
▁تكاليف	-11.3351
▁هولاكو	-11.3351
▁الدانوب	-11.3351
▁المحافظين	-11.3352
▁العُماني	-11.3353
▁اللوحات	-11.3353
▁الحلقات	-11.3353
▁معابد	-11.3354
▁إشراف	-11.3354
▁إسقاط	-11.3355
▁1906	-11.3356
▁أبعاد	-11.3358
وبخاصة	-11.3361
فكيك	-11.3365
▁1910	-11.3365
▁الماليزي	-11.3365
▁ميكرو	-11.3366
▁وبالمثل	-11.3366
▁دمرت	-11.3372
▁ساكن	-11.3383
كفاح	-11.3387
لطائرات	-11.3416
الاستعداد	-11.3417
أوراق	-11.3426
لمحكمة	-11.343
نتائج	-11.3431
مدح	-11.3432
▁يحتل	-11.3434
ive	-11.3439
نخرط	-11.3445
لأسرة	-11.3446
َعْ	-11.3446
▁ستيفن	-11.3449
▁شواطئ	-11.3451
▁عفلق	-11.3452
▁الجزئي	-11.3452
▁صقلية	-11.3452
▁إنشاؤه	-11.3452
إحساس	-11.3453
تجزئة	-11.3453
▁المخصصة	-11.3453
▁الأوقات	-11.3454
تفتيش	-11.3454
▁للثورة	-11.3454
▁متقدمة	-11.3456
دوافع	-11.3458
▁1928	-11.3459
▁حمدان	-11.3462
▁والتقاليد	-11.3463
▁الرحالة	-11.3464
▁براءة	-11.3464
تكيف	-11.3465
▁خطوة	-11.3469
ترويج	-11.3479
تفاقم	-11.3498
▁التكنولوجي	-11.3503
ate	-11.3523
لمّا	-11.3525
مجرى	-11.3525
تمسك	-11.3533
كروم	-11.3537
افتتاح	-11.3543
أزواج	-11.3546
▁ضوئية	-11.3554
▁مأهولة	-11.3554
▁ميخائيل	-11.3554
▁بالضرورة	-11.3554
▁والبرازيل	-11.3554
ماسينيسا	-11.3554
ُصُول	-11.3554
▁الباكستاني	-11.3554
▁ضواحي	-11.3554
▁الوثيقة	-11.3554
▁فاطمة	-11.3554
▁الاستمرار	-11.3554
▁الانهيار	-11.3554
▁ارتكب	-11.3554
▁عشوائي	-11.3554
▁والاتصالات	-11.3554
تأهيل	-11.3554
▁مباريات	-11.3554
▁الشجرة	-11.3555
▁معادلات	-11.3556
▁استوائي	-11.3556
▁المعقدة	-11.3558
ثعبان	-11.3558
▁الرباعي	-11.3559
إرادة	-11.3559
▁الأركان	-11.3559
▁مزود	-11.3562
▁دلتا	-11.3563
▁إيقاف	-11.3564
▁تشيلي	-11.357
▁طيبة	-11.357
سكرتير	-11.3574
ly	-11.3577
▁حرارته	-11.3591
mon	-11.3594
▁البلغار	-11.3603
one	-11.3625
لعبادة	-11.3628
العقل	-11.3642
اشتراكي	-11.3642
ْتَ	-11.3645
إدراج	-11.3654
▁أوروپَّا	-11.3657
▁ببطء	-11.3657
▁الكاميرون	-11.3657
▁الهياكل	-11.3657
▁طوائف	-11.3657
▁الشعور	-11.3658
تحفيز	-11.3658
▁لقتال	-11.3659
▁ميزانية	-11.3661
▁شيوخ	-11.3662
▁المعدات	-11.3662
▁الدائري	-11.3664
0.0	-11.3667
▁1912	-11.3668
تنامي	-11.3675
ستقطب	-11.3702
jo	-11.3704
تسرب	-11.3707
سحابة	-11.3719
▁للجمهور	-11.3722
طيء	-11.3737
وراثة	-11.3747
▁تنزانيا	-11.3761
▁تخطيط	-11.3761
▁الفصائل	-11.3761
▁الاعتقال	-11.3761
▁اليمامة	-11.3761
▁المقصود	-11.3761
مسماة	-11.3761
▁البراكين	-11.3761
▁البدائية	-11.3761
▁هزيمته	-11.3762
منظومة	-11.3762
▁لمساعدة	-11.3762
▁بشعبية	-11.3763
▁الكعبة	-11.3763
تطوّر	-11.3763
▁يفوق	-11.3764
▁تكساس	-11.3764
▁التخصصات	-11.3765
▁معادلة	-11.3766
القيام	-11.3767
▁مملكته	-11.3769
كبريتيد	-11.3774
▁سطيف	-11.3774
لمسافة	-11.3792
ألبان	-11.3817
▁تولّ	-11.3819
تقان	-11.3825
▁مندوب	-11.3829
أزمة	-11.3837
لولاية	-11.3841
ائِ	-11.3842
لتكنولوجيا	-11.3851
▁القُسطنطينيَّة	-11.3866
▁الخرطوم	-11.3866
مأكولات	-11.3866
▁التعاليم	-11.3866
▁العبودية	-11.3866
▁الوثنية	-11.3866
▁وتدمير	-11.3866
▁العصابات	-11.3866
استعراض	-11.3867
▁وكوريا	-11.3867
▁الأخوين	-11.3868
▁بالطاقة	-11.3868
▁العدالة	-11.3869
بيلاروس	-11.387
▁موسيقية	-11.3871
▁بادئ	-11.3872
▁معادن	-11.3872
▁الصيغة	-11.3873
▁مقسمة	-11.3873
land	-11.3874
عوامل	-11.3874
▁العضوي	-11.3875
▁لوحظ	-11.3875
▁30%	-11.3877
▁والفضة	-11.3878
▁الحضري	-11.3883
وصاية	-11.3898
▁يوهان	-11.3904
▁ينبع	-11.3906
متنزه	-11.3909
0،000	-11.3924
سرقة	-11.3935
je	-11.3967
لقراءة	-11.3969
مايكروسوفت	-11.397
▁السَلْجُوقي	-11.3972
▁الائتلاف	-11.3972
▁الاحتراق	-11.3972
▁التايلاندي	-11.3972
▁مواضيع	-11.3972
▁الصاروخ	-11.3972
▁الفولاذ	-11.3972
▁دبلن	-11.3972
▁مجددًا	-11.3972
▁مأخوذ	-11.3973
▁حكومته	-11.3973
▁الفلزّات	-11.3973
▁وزوجته	-11.3973
▁يلبث	-11.3973
▁النقاد	-11.3973
▁باستعمال	-11.3975
▁جهات	-11.3977
نبذ	-11.398
▁مضت	-11.399
شابه	-11.3993
مرفأ	-11.3999
شهادات	-11.4051
▁عصا	-11.4057
محاصيل	-11.4079
▁الأُخرى	-11.408
▁الاشتباك	-11.408
عرَّض	-11.408
▁الاختيار	-11.408
▁بُويه	-11.408
▁أدولف	-11.4081
مضاعفات	-11.4081
▁والمسلمين	-11.4081
▁تدريس	-11.4081
آشور	-11.4082
ميتر	-11.4082
تزاوج	-11.4082
▁جنيف	-11.4083
▁المولود	-11.4083
▁الضنك	-11.4089
▁الاستعمال	-11.4091
▁لقوات	-11.4092
▁ولادته	-11.41
العثماني	-11.4116
ليبرالية	-11.4153
تماسك	-11.4166
▁الهيدرو	-11.4169
▁ألكسندر	-11.4189
تعرّض	-11.4189
▁النظائر	-11.4189
▁أصناف	-11.4189
▁الفائز	-11.4189
▁سورينام	-11.4189
جماهير	-11.4189
▁تزامن	-11.4189
▁يزداد	-11.4189
▁الغرفة	-11.4189
تصادم	-11.4191
▁دعوته	-11.4191
▁ألقاب	-11.4191
▁الواجب	-11.4192
▁للمياه	-11.4192
رتكز	-11.4193
تعايش	-11.4194
▁بإنتاج	-11.4195
▁والنساء	-11.4196
▁رفيع	-11.4196
مراسيم	-11.4196
▁النوبة	-11.4197
ستوعب	-11.4201
▁الفرن	-11.4203
▁صعبة	-11.4203
نحصر	-11.4204
تبخر	-11.4217
أطوال	-11.4219
▁مختبر	-11.4244
الاتحاد	-11.4253
علاقة	-11.4254
تحميل	-11.4257
▁الانتخاب	-11.4265
إدارات	-11.4285
▁إحصائي	-11.429
محمية	-11.4295
اضمحلال	-11.4299
تشيكوسلوفاكيا	-11.4299
▁الجنائزي	-11.4299
▁الخاضعة	-11.4299
▁عائشة	-11.4299
▁بمناسبة	-11.4299
▁بيغوفيتش	-11.4299
▁أوبونتو	-11.4299
▁وتختلف	-11.4299
▁الفنادق	-11.4299
▁كُتب	-11.4299
زخرفة	-11.4299
▁بكامل	-11.4299
▁يثرب	-11.43
أبدى	-11.4301
▁الاضطهاد	-11.4303
▁لإجراء	-11.4303
مساواة	-11.4303
مختصر	-11.4311
▁تهتم	-11.4311
▁تفجير	-11.4314
تجدر	-11.435
تفاهم	-11.4358
محاضرات	-11.437
أذربيجان	-11.438
وجّه	-11.4393
▁تشجيع	-11.441
▁خريطة	-11.441
▁طاجيكستان	-11.441
▁المستوطنين	-11.441
▁كوسيلة	-11.441
▁العواصف	-11.441
▁الحشرات	-11.441
▁التصدير	-11.441
▁طاهر	-11.4411
▁الدعاية	-11.4411
▁والسودان	-11.4411
▁وُجد	-11.4412
▁المشكلات	-11.4413
▁كنعان	-11.4413
▁الموجهة	-11.4414
مهاجرين	-11.4415
أهداف	-11.4422
قائمة	-11.4429
إنزال	-11.4429
الكترون	-11.443
▁جيولوجي	-11.446
▁المواضيع	-11.4522
▁للنفط	-11.4522
▁الضواحي	-11.4522
▁الأقسام	-11.4522
▁الإتحاد	-11.4522
▁وشملت	-11.4522
▁عريض	-11.4523
▁موزعة	-11.4523
▁جوريون	-11.4523
▁بكميات	-11.4523
▁والصناعات	-11.4523
غطى	-11.4524
أكاسيد	-11.4525
▁أطاح	-11.4525
▁يسمون	-11.4525
▁منظور	-11.4526
▁لحظة	-11.4527
▁أجسام	-11.4527
عُثمان	-11.4528
▁شبيهة	-11.453
مجتهد	-11.4532
▁عراقي	-11.4532
▁مسيرته	-11.4534
مفعول	-11.4536
قبيلة	-11.4542
▁بلانك	-11.4547
▁خيال	-11.4561
1.3	-11.46
لنباتات	-11.4614
لتخطيط	-11.4631
0.5	-11.4632
html	-11.4636
▁مفاجئ	-11.4636
▁وبالأخص	-11.4636
▁والشَّام	-11.4636
▁والسياحة	-11.4636
▁الإبداع	-11.4636
▁الزعماء	-11.4636
▁الضحايا	-11.4636
▁العشائر	-11.4636
▁وأخيرًا	-11.4636
▁أقدام	-11.4636
▁قزوين	-11.4636
▁والإنجليزية	-11.4636
▁الحبشة	-11.4636
▁بنغازي	-11.4636
▁هاشم	-11.4636
▁المخطوطات	-11.4637
▁الأسطوري	-11.4637
تغيّر	-11.4637
طاجيك	-11.4638
▁الصيام	-11.4638
▁أُنشئ	-11.4639
▁البارزين	-11.4639
▁السجلات	-11.4641
▁جذري	-11.4643
مجيء	-11.4647
▁خطوات	-11.4648
مستودع	-11.4652
حاسوب	-11.4658
منتدى	-11.4706
عسل	-11.4709
▁فاتح	-11.4716
حاجب	-11.4748
<	-13.4925
