<unk>	0
<s>	0
</s>	0
.	-3.29332
▁و	-3.74751
="	-3.82535
▁	-3.9586
▁فى	-3.96799
"	-4.0058
doc	-4.2687
>	-4.26935
▁(	-4.63806
▁من	-4.69445
s	-4.71286
ه	-4.7496
d	-4.82357
/	-4.91806
#	-4.93334
▁<	-4.95519
wiki	-4.95729
org	-4.95739
http	-4.95826
://	-4.95826
?	-4.96066
arz	-4.96168
wikipedia	-4.96174
▁id	-4.96206
curi	-4.96224
▁url	-4.9624
▁title	-4.96243
▁categories	-4.96252
▁</	-4.96987
▁#	-4.97191
▁اللى	-5.16121
ى	-5.19309
)	-5.33463
,	-5.35178
،	-5.35211
ة	-5.36742
▁ال	-5.40459
▁،	-5.41536
▁ب	-5.4504
=2	-5.5128
▁على	-5.53146
ت	-5.60122
▁كان	-5.60329
▁سنة	-5.62407
كويكب	-5.69404
▁السكان	-5.70397
ا	-5.71932
▁الاكتشاف	-5.75701
▁كوكب	-5.83887
و	-5.90269
ات	-5.91209
ها	-5.92088
ين	-5.93404
ي	-5.94976
▁"	-5.95887
▁ل	-5.96651
▁عن	-5.97437
▁م	-6.06747
▁بين	-6.1162
ية	-6.13829
يه	-6.17942
▁عدد	-6.23063
▁ما	-6.23384
▁الكويكبات	-6.27241
▁قريه	-6.28768
وا	-6.32098
▁حسب	-6.32777
▁وصل	-6.34641
▁),	-6.38809
▁مصر	-6.39473
م	-6.4146
▁تعداد	-6.41743
)"	-6.43491
▁بتاريخ	-6.44305
▁هوه	-6.4538
▁اكتشف	-6.47464
▁كويكب	-6.47834
حزام	-6.49529
▁انسان	-6.50238
▁لل	-6.51639
▁المريخ	-6.52393
▁المشترى	-6.53394
ك	-6.59289
▁ده	-6.59941
▁2011.	-6.62842
▁)	-6.63539
▁رومانيا	-6.63876
▁مع	-6.66083
ال	-6.67001
▁ان	-6.67543
:	-6.68223
▁بعد	-6.68384
▁ي	-6.68964
▁هو	-6.70061
▁.	-6.70139
▁وال	-6.70202
▁ف	-6.70839
▁الم	-6.70928
▁ت	-6.75522
▁يا	-6.76175
هم	-6.78747
ش	-6.84292
▁في	-6.84852
▁البحر	-6.85175
▁ا	-6.85663
▁او	-6.86519
▁دى	-6.86983
="22	-6.90296
نا	-6.9131
▁كانت	-6.92357
="23	-6.93359
يا	-6.93419
▁بال	-6.93715
▁متر	-6.96341
▁جغرافيا	-6.97583
-	-7.00949
▁سطح	-7.01843
▁يوم	-7.02309
=	-7.02871
ترتفع	-7.04026
▁-	-7.0548
=1	-7.06818
▁سنه	-7.07202
▁كل	-7.08104
س	-7.08296
="24	-7.12772
ن	-7.13255
ب	-7.16227
="21	-7.17514
▁لينكولن	-7.17985
▁بي	-7.1836
ان	-7.20126
ون	-7.2154
▁أ	-7.2179
▁مواليد	-7.25176
▁حياته	-7.25532
▁اسم	-7.26682
▁فيلم	-7.28595
يشتى	-7.32267
▁لكن	-7.32542
رصد	-7.33619
▁لاعب	-7.38088
ز	-7.3998
ـ	-7.41309
▁فيه	-7.41405
▁كمان	-7.42249
▁بيتبع	-7.4444
د	-7.45673
;	-7.45872
▁بن	-7.4666
ته	-7.46732
▁1	-7.48078
▁زى	-7.48358
▁لا	-7.48446
▁بت	-7.48668
▁فيها	-7.49189
▁أن	-7.50743
▁مش	-7.53991
▁مدينة	-7.54228
ل	-7.54289
▁محمد	-7.54635
▁3	-7.55893
▁4	-7.56318
▁اتسم	-7.56835
▁سبتمبر	-7.57904
▁الارض	-7.59658
▁ك	-7.60665
ر	-7.61475
▁ن	-7.63213
▁بالاسم	-7.64578
▁5	-7.6549
▁هى	-7.65752
يين	-7.65869
▁عبد	-7.66977
▁انه	-7.67263
يل	-7.67482
▁الموجود	-7.67898
▁لما	-7.68094
▁مارس	-7.68864
▁الا	-7.71458
▁18	-7.71672
="20	-7.71714
▁اكتوبر	-7.72282
▁ع	-7.72417
&	-7.72757
▁أو	-7.73811
وس	-7.74413
▁عشان	-7.74426
ح	-7.74521
▁بس	-7.74823
ف	-7.75875
▁7	-7.76636
اء	-7.76706
▁يناير	-7.77318
▁6	-7.7839
▁ات	-7.79695
1"	-7.79821
▁العالم	-7.80039
▁فريق	-7.80826
▁هيا	-7.81633
▁observatory	-7.82309
▁لعب	-7.82501
▁2	-7.82694
ج	-7.83811
▁بحث	-7.83846
▁القريبه	-7.84205
ينى	-7.84675
t	-7.87349
2"	-7.87612
▁مختبر	-7.87726
▁قبل	-7.88275
▁الدين	-7.89332
▁لحد	-7.89364
▁اول	-7.89718
▁,	-7.89785
lt	-7.921
7"	-7.92463
▁فبراير	-7.93253
▁واحد	-7.93583
▁..	-7.94072
▁تم	-7.94522
ما	-7.94562
يت	-7.95058
a	-7.95179
▁مات	-7.95228
يو	-7.95645
▁ابريل	-7.95753
▁نوفمبر	-7.96507
ع	-7.96562
▁كده	-7.96598
كا	-7.96727
▁اغسطس	-7.97051
▁ولاية	-7.97637
al	-7.98358
3"	-7.98712
▁8	-7.98808
4"	-7.99092
▁مايو	-7.99593
c	-7.99775
▁9	-7.99844
5"	-8.00204
34	-8.00376
ور	-8.00428
▁:	-8.00457
▁القرن	-8.0067
خ	-8.0095
جر	-8.00979
47	-8.01205
يات	-8.0131
▁10	-8.01602
gt	-8.02053
يس	-8.02464
اً	-8.02588
▁غير	-8.02869
ني	-8.03369
o	-8.03452
an	-8.04411
▁ديسمبر	-8.04447
ق	-8.05589
ير	-8.05893
ار	-8.0683
تها	-8.08072
▁الملك	-8.08096
▁اتولدت	-8.08198
e	-8.09283
▁له	-8.09669
ام	-8.09825
▁لم	-8.10721
).	-8.11021
▁17	-8.11353
▁لو	-8.11373
▁اتولد	-8.11964
▁12	-8.12052
پ	-8.12083
▁دا	-8.12403
▁الت	-8.13413
وه	-8.13575
▁يوليه	-8.14113
|	-8.14434
▁س	-8.15275
77	-8.15907
نى	-8.16078
▁15	-8.16715
74	-8.173
▁14	-8.1747
▁بيت	-8.17549
i	-8.18171
▁ليه	-8.18352
▁رئيس	-8.18586
▁ابن	-8.18937
▁عليه	-8.18945
لى	-8.19054
▁ممكن	-8.1915
▁ممثلة	-8.19255
ول	-8.19294
▁الله	-8.19381
من	-8.19924
▁الف	-8.20121
▁ق	-8.20719
يم	-8.20959
▁الأ	-8.21155
▁كبير	-8.21193
8"	-8.21224
91	-8.21591
72	-8.21699
انى	-8.22018
▁20	-8.22049
لا	-8.22595
▁المصريه	-8.22685
ط	-8.22778
▁مركز	-8.23682
▁2000	-8.23822
▁المصرى	-8.24019
n	-8.24078
▁تاريخ	-8.24743
كو	-8.24818
▁امريكا	-8.24996
اس	-8.25373
75	-8.25429
ص	-8.25555
غ	-8.25639
24	-8.26002
),	-8.26103
▁إ	-8.26186
▁ليها	-8.26657
▁منها	-8.26926
قريه	-8.27166
04	-8.2738
▁واللى	-8.27575
وش	-8.28045
37	-8.28178
▁عمل	-8.28184
أ	-8.28258
r	-8.28444
▁المصريين	-8.28561
ينا	-8.28788
▁ملك	-8.28828
m	-8.29092
73	-8.29283
65	-8.29335
▁13	-8.2944
▁يونيه	-8.29569
▁القاهره	-8.29618
▁بورنوجرافية	-8.29688
26	-8.30255
03	-8.30412
ث	-8.30678
بر	-8.30758
ض	-8.31043
05	-8.31156
]]	-8.31188
52	-8.3144
▁الناس	-8.31487
▁24	-8.31627
▁11	-8.32012
▁دي	-8.32078
▁16	-8.32336
▁25	-8.33339
▁علشان	-8.33349
58	-8.34224
▁قدم	-8.3442
67	-8.34582
▁فرنسا	-8.34614
دى	-8.34644
▁اكتر	-8.35399
92	-8.35419
▁بعدين	-8.35477
y	-8.3548
▁اسمها	-8.3553
▁وكان	-8.35637
l	-8.35652
▁30	-8.35985
▁الى	-8.3613
▁سي	-8.36188
48	-8.36278
▁الع	-8.36473
ود	-8.36829
42	-8.36937
▁[[	-8.37016
71	-8.37141
▁اكبر	-8.37889
وت	-8.37952
▁نادى	-8.3817
41	-8.38228
تا	-8.38896
39	-8.39246
38	-8.39437
59	-8.39552
▁ابو	-8.39839
44	-8.39965
20	-8.40844
تين	-8.40877
▁ح	-8.40888
▁هي	-8.4089
9"	-8.41166
35	-8.41751
▁الاول	-8.41838
▁ام	-8.41882
تر	-8.42096
▁دور	-8.42101
ُ	-8.42173
سا	-8.42935
79	-8.43217
▁كتير	-8.43848
▁لي	-8.44207
▁التانى	-8.44266
▁الب	-8.44584
en	-8.44861
▁بعض	-8.44948
▁1999	-8.45432
43	-8.45463
b	-8.45715
le	-8.45917
دي	-8.46144
40	-8.46261
▁21	-8.4662
يان	-8.46631
▁اسمه	-8.46657
▁الحرب	-8.4667
36	-8.46685
تش	-8.46842
▁وأ	-8.46906
▁23	-8.47013
4	-8.47353
▁نسمه	-8.47459
▁بسبب	-8.476
▁ولا	-8.47626
▁يد	-8.47713
دو	-8.47734
▁تانيه	-8.4783
▁تحت	-8.48102
na	-8.48342
▁ضد	-8.48382
27	-8.48496
▁وي	-8.48816
تو	-8.49154
▁كوره	-8.49408
07	-8.49428
وف	-8.49587
يش	-8.4962
▁كانو	-8.49641
▁هما	-8.49693
29	-8.50062
▁حوالى	-8.50145
▁22	-8.5034
▁الن	-8.50588
▁مت	-8.50896
▁التانيه	-8.5128
ست	-8.51407
98	-8.51896
▁الح	-8.5227
76	-8.52597
يب	-8.52709
▁26	-8.52793
▁&	-8.52988
اد	-8.531
▁علي	-8.53261
▁de	-8.53294
02	-8.53429
▁ايد	-8.53748
83	-8.54092
28	-8.54105
يف	-8.54229
▁اللي	-8.54268
▁جامعة	-8.54391
▁است	-8.54678
سون	-8.54751
يك	-8.54772
▁احمد	-8.54862
▁عليها	-8.55178
▁لغاية	-8.55528
▁حكم	-8.5587
)،	-8.56032
▁اس	-8.56328
▁عند	-8.56339
21	-8.56559
سى	-8.56928
▁28	-8.57019
▁دول	-8.57228
70	-8.57383
بو	-8.58717
09	-8.58751
p	-8.59039
جو	-8.59103
▁زي	-8.59238
▁طريق	-8.59299
46	-8.59383
يز	-8.59688
▁با	-8.59937
k	-8.60097
▁27	-8.60156
▁اسكندريه	-8.60186
▁وهو	-8.60204
ظ	-8.60391
وم	-8.60568
31	-8.60698
▁مصرى	-8.60895
▁نفس	-8.60929
اف	-8.61049
لو	-8.61481
▁29	-8.61493
▁باشا	-8.61563
▁ممثل	-8.61691
50	-8.61751
▁القاهرة	-8.61757
08	-8.61817
يد	-8.62016
▁ومن	-8.62052
87	-8.6254
▁ج	-8.62714
َ	-8.62921
▁الامريكية	-8.63087
▁وقت	-8.63273
z	-8.63563
▁19	-8.64269
▁الوقت	-8.64685
▁والم	-8.64928
ra	-8.65027
با	-8.65395
85	-8.65513
▁الق	-8.65717
▁كاس	-8.65781
3	-8.65794
▁الجيش	-8.66118
كر	-8.66147
57	-8.66197
▁1998	-8.66199
55	-8.66517
مر	-8.6679
45	-8.66809
جا	-8.66862
▁حياتها	-8.66997
▁الس	-8.67065
▁ست	-8.67208
▁دلوقتى	-8.6728
▁هناك	-8.67549
▁ار	-8.67648
▁اليونان	-8.67732
▁المتحده	-8.67796
لي	-8.67809
ma	-8.68002
▁إن	-8.68024
وى	-8.68045
▁أمريكى	-8.68161
▁انا	-8.68567
49	-8.68577
25	-8.68584
16	-8.68856
▁فان	-8.69149
▁أول	-8.69175
17	-8.69243
اب	-8.69305
94	-8.69315
▁باسم	-8.69324
ّ	-8.69419
95	-8.69481
u	-8.69624
▁بيها	-8.69659
▁تانى	-8.69735
▁عام	-8.70046
="17	-8.70301
دا	-8.70376
او	-8.70464
اع	-8.70674
ًا	-8.71059
فر	-8.71269
اش	-8.71357
11	-8.71542
▁السلطان	-8.71647
بي	-8.71951
فت	-8.72104
in	-8.72243
▁كنيسة	-8.7246
▁الدوله	-8.726
▁بالومار	-8.7301
01	-8.73368
2	-8.73375
g	-8.7356
له	-8.73695
61	-8.74105
(	-8.74332
▁بشكل	-8.74359
▁طول	-8.74361
مان	-8.74393
نج	-8.74481
▁مدينه	-8.74704
▁الحقيقى	-8.74875
بى	-8.74973
اح	-8.75045
اك	-8.75074
▁التالت	-8.75448
66	-8.7584
69	-8.76013
="18	-8.76259
="11	-8.7647
68	-8.7647
وڤ	-8.76648
19	-8.76777
▁كتب	-8.76842
15	-8.77309
بل	-8.77478
يون	-8.7752
▁جو	-8.77872
تس	-8.78375
▁قال	-8.78574
▁سنين	-8.78637
▁جنوب	-8.78763
▁كلمات	-8.78878
6"	-8.79086
▁منطقة	-8.7916
ئ	-8.79251
▁الحكم	-8.79378
te	-8.79663
▁انها	-8.79837
▁بقت	-8.79843
تون	-8.80076
يق	-8.80426
56	-8.80493
اج	-8.8136
93	-8.81689
▁بتاع	-8.81709
80	-8.81776
06	-8.81802
وب	-8.82037
▁المصرية	-8.82043
تى	-8.82081
="9	-8.82102
▁المانيا	-8.82155
60	-8.82351
▁السنة	-8.82388
x	-8.82435
▁بقى	-8.82638
▁of	-8.82854
;/	-8.82983
▁يكون	-8.8299
ارى	-8.83048
▁بطولة	-8.83298
78	-8.83591
▁بو	-8.83695
اق	-8.83752
99	-8.83833
▁يت	-8.83996
▁ش	-8.84171
▁كتيره	-8.84198
را	-8.8443
▁بنت	-8.8445
▁عاصمة	-8.84455
يلى	-8.84684
53	-8.84783
="14	-8.84811
فى	-8.84844
▁منهم	-8.8501
به	-8.85214
▁جون	-8.8527
ri	-8.8532
ne	-8.8536
▁سكان	-8.85428
ta	-8.85695
▁كتاب	-8.857
51	-8.85744
نت	-8.86095
▁بيسبول	-8.86133
▁حسن	-8.86151
▁وفي	-8.86404
81	-8.86426
la	-8.86637
▁كم	-8.86868
ă	-8.86942
▁a	-8.87675
▁سو	-8.87772
▁د	-8.87787
▁ايام	-8.87867
ِ	-8.8795
ذ	-8.8805
▁كبيره	-8.88197
90	-8.88448
دين	-8.8853
er	-8.88628
▁الخ	-8.88782
82	-8.88796
▁العرب	-8.89611
▁فر	-8.89719
▁31	-8.89893
re	-8.89936
63	-8.8999
▁كاليفورنيا	-8.90033
تي	-8.90172
▁شمال	-8.90181
▁الك	-8.90258
23	-8.90259
▁إلى	-8.90991
54	-8.91032
▁وفى	-8.91035
96	-8.91465
▁مجلس	-8.91663
14	-8.91732
▁نفسه	-8.91883
رو	-8.92011
يوس	-8.92128
97	-8.92227
88	-8.92229
13	-8.92235
▁نيو	-8.92355
▁حرب	-8.92479
از	-8.92489
▁عهد	-8.92849
ند	-8.92871
86	-8.92905
▁المسلمين	-8.93232
22	-8.93322
30	-8.93363
▁اوروبا	-8.93476
18	-8.93508
▁سا	-8.9351
▁توم	-8.93624
در	-8.94046
▁المملكه	-8.94092
سو	-8.94375
ايا	-8.9448
ka	-8.94995
▁انهم	-8.95076
ڤ	-8.9513
w	-8.95176
▁«	-8.9518
▁واحده	-8.95193
▁التاريخ	-8.95342
فا	-8.95397
ro	-8.95572
جين	-8.95592
▁اليوم	-8.95742
▁الشرق	-8.95792
▁بك	-8.95809
شا	-8.95811
to	-8.96197
اه	-8.96206
▁1990	-8.96264
▁آ	-8.96272
64	-8.96336
▁الش	-8.96524
▁امريكية	-8.96553
بت	-8.96763
f	-8.96956
لوى	-8.97409
الم	-8.97415
▁روسيا	-8.97762
▁الإ	-8.97773
▁1981	-8.9781
▁را	-8.97898
▁شوف	-8.97946
رى	-8.98224
▁نظام	-8.9826
▁المت	-8.98366
▁سير	-8.98593
تهم	-8.98915
="13	-8.99163
▁مربع	-8.99503
يكا	-8.99748
وز	-8.9998
▁كو	-8.99998
لين	-9.00049
▁الر	-9.00076
يج	-9.00106
▁شهر	-9.00221
▁العصر	-9.0058
84	-9.00588
▁قد	-9.00624
▁راح	-9.00769
▁2011	-9.00895
▁مسلسل	-9.00957
مو	-9.01015
▁صلاح	-9.01028
5	-9.013
▁اسبانيا	-9.01399
▁هوا	-9.01581
▁فا	-9.01971
▁دخل	-9.02038
▁مين	-9.02054
▁نو	-9.02404
=18	-9.02448
h	-9.02659
▁ذلك	-9.02855
▁حصل	-9.0286
▁الناصر	-9.02909
▁الج	-9.02925
▁للم	-9.03347
▁انجلترا	-9.03447
▁محافظة	-9.03499
▁؛	-9.03526
▁قدر	-9.03632
▁قام	-9.03787
on	-9.03907
ی	-9.04182
▁علم	-9.0424
لاند	-9.04316
▁ملاكم	-9.04434
'	-9.04704
12	-9.04856
76"	-9.04964
وها	-9.0513
▁سوس	-9.05177
▁رغم	-9.05212
اط	-9.05212
▁يوسف	-9.05232
astrophysic	-9.05292
مار	-9.05308
▁بم	-9.05389
▁ايه	-9.05427
46"	-9.05602
es	-9.05655
بان	-9.05677
▁حيث	-9.05732
▁شركة	-9.05799
▁crime	-9.0582
▁الاتحاد	-9.05931
▁مارى	-9.06066
ــ	-9.06227
وي	-9.0626
ده	-9.06289
▁مليون	-9.0641
فيلم	-9.0647
ia	-9.06539
16"	-9.06551
▁the	-9.0657
▁كيلومتر	-9.06619
▁اصل	-9.06651
ni	-9.06757
▁غ	-9.06766
▁1991	-9.06847
is	-9.07016
66"	-9.07038
▁ط	-9.0715
▁انت	-9.07197
يلا	-9.07436
▁الحب	-9.07716
▁درس	-9.0774
سن	-9.07809
▁نوع	-9.07877
▁الاولانى	-9.07914
قا	-9.07953
▁ابراهيم	-9.08083
30"	-9.0817
▁النيل	-9.08201
▁لت	-9.08204
▁ma	-9.08294
▁الكتاب	-9.08458
▁العربية	-9.08517
62	-9.0876
يع	-9.08977
▁كسب	-9.09288
▁ڤاليا	-9.09551
▁ز	-9.09742
انا	-9.09744
1	-9.09818
▁عضو	-9.09821
▁أنه	-9.09905
14"	-9.09974
▁اخر	-9.10023
سيا	-9.1007
▁المتحدة	-9.10158
50"	-9.10195
86"	-9.10224
▁كما	-9.10256
كس	-9.10294
39"	-9.10452
90"	-9.1048
="16	-9.1063
▁الص	-9.10659
19"	-9.108
▁la	-9.10892
49"	-9.10942
▁اى	-9.10953
▁وبعد	-9.10958
22"	-9.11049
▁حاجه	-9.11102
68"	-9.11192
▁فترة	-9.11251
56"	-9.11254
79"	-9.11316
=3	-9.11353
▁اليد	-9.11413
man	-9.11417
▁خ	-9.11419
mi	-9.1145
80"	-9.11516
38"	-9.11854
60"	-9.11942
▁1988	-9.12064
64"	-9.12072
36"	-9.12108
▁شرق	-9.12121
70"	-9.12218
▁الفيلم	-9.12238
▁دو	-9.12259
زا	-9.12356
00	-9.12358
▁ابتدا	-9.12362
61"	-9.12393
▁(19	-9.12409
89	-9.12429
▁رفع	-9.1247
▁العام	-9.12549
18"	-9.12597
▁1989	-9.12664
15"	-9.12666
99"	-9.12691
de	-9.12708
10"	-9.12721
17"	-9.12786
53"	-9.12805
33	-9.12813
▁ناس	-9.12831
▁اللغه	-9.12864
جن	-9.13098
0	-9.13126
69"	-9.13168
li	-9.13185
41"	-9.13192
▁العربيه	-9.1324
▁الغ	-9.13302
فل	-9.13334
82"	-9.13334
23"	-9.13341
▁k	-9.13355
▁مكان	-9.13427
63"	-9.13669
11"	-9.13792
▁محمود	-9.13855
43"	-9.13947
78"	-9.13985
40"	-9.14037
13"	-9.141
32"	-9.14157
اني	-9.14182
id	-9.14197
▁بعدها	-9.14301
45"	-9.14326
▁شو	-9.14333
96"	-9.14362
33"	-9.1442
95"	-9.14495
94"	-9.14523
جان	-9.14527
▁حزب	-9.14624
88"	-9.14662
12"	-9.15055
▁دار	-9.15065
98"	-9.15117
▁لكره	-9.15149
93"	-9.15214
62"	-9.15325
89"	-9.15459
06"	-9.15483
▁لازم	-9.15531
▁أنا	-9.15589
09"	-9.15601
54"	-9.15723
32	-9.15771
55"	-9.15778
▁كور	-9.16005
▁حد	-9.16026
25"	-9.16114
▁ص	-9.16202
▁الدول	-9.16284
▁الكبير	-9.16442
بين	-9.16449
▁الاسم	-9.16566
▁بول	-9.16566
ch	-9.16634
81"	-9.16645
▁بيعتبر	-9.16754
دير	-9.1679
جى	-9.16879
87"	-9.16896
="15	-9.16988
بال	-9.17043
51"	-9.17246
▁كارل	-9.17254
▁جيم	-9.17262
▁عمر	-9.1728
▁g	-9.17364
84"	-9.17382
42"	-9.17399
▁مره	-9.17819
44"	-9.1807
85"	-9.18252
▁فوق	-9.18374
▁حا	-9.18409
▁مجموعة	-9.1841
me	-9.18462
▁الكتير	-9.18477
▁حب	-9.18494
تمتد	-9.18785
ْ	-9.19217
="7	-9.19222
="19	-9.19308
08"	-9.19317
▁وب	-9.19383
57"	-9.19431
▁رو	-9.19602
▁پو	-9.19669
▁شارك	-9.1982
بير	-9.2009
▁لك	-9.20156
رك	-9.20233
ry	-9.20669
يتش	-9.20844
no	-9.20846
▁المصري	-9.20915
97"	-9.21065
v	-9.21327
»	-9.21421
ti	-9.21434
شر	-9.21464
▁العراق	-9.21665
▁الشام	-9.21707
▁اسرائيل	-9.2172
▁القديمه	-9.22056
▁1992	-9.2227
▁–	-9.22354
="10	-9.22408
▁نهاية	-9.22642
▁اسماعيل	-9.22705
ستان	-9.22705
كون	-9.22821
▁عصر	-9.22969
j	-9.22982
ريك	-9.22983
▁الز	-9.22997
▁افريقيا	-9.23166
▁سن	-9.23171
▁اي	-9.23253
▁المستوى	-9.23405
9	-9.23421
ء	-9.23437
us	-9.2358
كار	-9.23642
▁نور	-9.23706
▁كون	-9.23728
▁1997	-9.23753
▁علا	-9.23781
▁الو	-9.23815
ko	-9.23831
▁الامير	-9.23858
▁المن	-9.23887
▁بقا	-9.23951
▁1982	-9.23988
قر	-9.24005
▁لبنان	-9.24052
00"	-9.24078
07"	-9.24212
▁مصريه	-9.24214
▁مستوى	-9.24755
▁البابا	-9.24954
دار	-9.25117
or	-9.25132
▁لسه	-9.25234
▁ka	-9.2524
ؤ	-9.25414
رز	-9.25432
▁جايزة	-9.25541
▁1985	-9.25543
8	-9.25576
10	-9.25723
el	-9.25743
ga	-9.25943
كل	-9.26111
▁ابتدت	-9.26261
نو	-9.26284
▁معظم	-9.26341
▁ر	-9.26405
▁1986	-9.26551
▁2001	-9.26643
ورى	-9.26689
انجليزى	-9.26719
▁جمال	-9.26846
son	-9.26959
▁قلبي	-9.26971
▁باب	-9.2741
▁طرواده	-9.27462
▁غرب	-9.27713
ڤا	-9.27761
▁خط	-9.27764
▁جيش	-9.27847
▁الولايات	-9.27866
رد	-9.2787
بور	-9.27887
▁اف	-9.28087
جل	-9.28217
▁1987	-9.28242
▁بلاد	-9.28267
ar	-9.2852
▁عين	-9.28611
▁حسين	-9.28677
▁سيد	-9.28679
▁اشهر	-9.28751
7	-9.28825
▁بيه	-9.28978
سر	-9.29048
st	-9.29177
▁نهر	-9.29362
▁الوطنى	-9.29367
رب	-9.29419
▁الرئيس	-9.29465
مين	-9.29508
▁1996	-9.29517
ولاية	-9.29609
▁المغول	-9.29616
جار	-9.2972
▁مرات	-9.29733
وع	-9.29817
▁جزء	-9.29833
co	-9.30275
▁مر	-9.30452
▁لمصر	-9.30521
▁جورج	-9.3072
قل	-9.30779
▁اهم	-9.30796
اوى	-9.30851
▁بطليموس	-9.31042
▁تو	-9.31077
مت	-9.31083
نس	-9.31213
▁الدولة	-9.31222
▁sa	-9.31241
▁يعنى	-9.3144
▁اخد	-9.31702
▁2008	-9.31869
▁أم	-9.31973
▁شكل	-9.32047
▁مرة	-9.32051
زو	-9.32055
▁أثقال	-9.32069
▁قدام	-9.32097
▁برانيه	-9.32194
▁الحزب	-9.3221
▁العربى	-9.32234
=8	-9.32272
بة	-9.3228
▁لينكات	-9.32337
بار	-9.32343
▁نص	-9.32348
▁1984	-9.32593
سي	-9.32685
="12	-9.32791
▁اندرسون	-9.32878
▁اكتشفه	-9.32913
▁سان	-9.32931
▁2010	-9.33127
ur	-9.33154
▁كا	-9.33269
ورو	-9.33271
▁1960	-9.33311
رت	-9.33326
ce	-9.33472
ca	-9.33726
6	-9.33744
se	-9.33936
▁احسن	-9.3398
ارد	-9.34012
▁معروف	-9.34045
▁الشعب	-9.34082
▁الان	-9.34083
يط	-9.34122
▁كامل	-9.3414
▁القديس	-9.3417
▁البلاد	-9.342
▁البر	-9.34246
سيل	-9.34254
▁1978	-9.34347
▁اسيا	-9.345
ke	-9.34582
▁1994	-9.34671
▁1993	-9.34701
اث	-9.34751
تن	-9.34884
▁سم	-9.34928
جم	-9.34972
▁تكون	-9.35033
▁بار	-9.35044
▁الأولى	-9.35292
▁لأ	-9.35345
▁مار	-9.35355
▁بعت	-9.3546
▁چوس	-9.35695
▁فين	-9.35782
da	-9.35817
▁وزير	-9.35825
سيو	-9.35884
▁جنب	-9.3593
▁1977	-9.35945
ru	-9.35966
▁المجتمع	-9.36239
▁يورك	-9.3631
في	-9.36334
▁ايطاليا	-9.36427
اته	-9.36542
▁الشيخ	-9.36552
▁ايل	-9.3698
▁المدينة	-9.37061
▁به	-9.37268
▁العشرين	-9.3727
كن	-9.37341
▁ها	-9.37386
▁عالم	-9.37417
▁o	-9.37451
▁السينما	-9.37507
دور	-9.37513
▁باريس	-9.37699
فيل	-9.37813
▁مدن	-9.37837
▁re	-9.37858
سكا	-9.37949
▁الد	-9.38002
▁بطولات	-9.38239
كم	-9.38373
عاد	-9.38534
▁معركة	-9.38557
▁حي	-9.38616
نه	-9.38627
tt	-9.3872
▁اد	-9.38782
▁باس	-9.38808
ești	-9.38944
▁طلب	-9.38954
▁ادوارد	-9.39126
▁الصليبيين	-9.3923
لم	-9.39277
▁مملكة	-9.39356
▁1973	-9.39479
▁الي	-9.39636
un	-9.3964
مه	-9.39672
▁رجع	-9.39708
▁سوريا	-9.39785
▁حصلت	-9.39847
ذا	-9.39964
▁معاه	-9.40046
▁بداية	-9.40157
▁1980	-9.40157
ba	-9.40275
▁مصطفى	-9.40333
▁منه	-9.404
مير	-9.40449
▁ميسا	-9.40504
▁مساحة	-9.40523
▁البلد	-9.40679
▁تت	-9.40713
▁لكوره	-9.40719
كى	-9.40786
▁بتت	-9.40817
ing	-9.40905
الا	-9.41077
▁محطه	-9.41221
جه	-9.41251
شى	-9.41374
▁كات	-9.41388
▁بر	-9.41446
پو	-9.41598
مة	-9.41726
▁الدنيا	-9.41946
▁الاسلام	-9.41989
▁مثل	-9.42254
▁الطب	-9.42336
▁1995	-9.42375
▁1983	-9.42404
▁قامت	-9.42517
▁دين	-9.42573
▁عليهم	-9.42616
يح	-9.42619
▁والأ	-9.42634
▁شي	-9.42834
="8	-9.42915
ter	-9.42955
sa	-9.43036
▁منتخب	-9.43048
؛	-9.43154
على	-9.43174
وك	-9.43176
قول	-9.4319
ويل	-9.43361
▁مصادر	-9.4347
mo	-9.43498
▁القانون	-9.43525
تك	-9.43725
▁الل	-9.4373
▁التسجيل	-9.43769
يته	-9.43844
ارا	-9.43855
▁عنده	-9.4404
▁mo	-9.44076
▁القدم	-9.44094
th	-9.44118
▁الفنان	-9.44127
▁شركه	-9.44146
▁مو	-9.44146
▁بالم	-9.44218
▁سلام	-9.44236
كي	-9.4434
ريس	-9.44392
▁الكنيسه	-9.44475
▁لندن	-9.44496
▁المسيحيين	-9.44499
▁لويس	-9.445
▁1979	-9.44603
▁وسط	-9.44833
▁لعبت	-9.44938
▁الوسطى	-9.44939
▁وبي	-9.45027
▁راس	-9.45304
▁بير	-9.45307
▁المثل	-9.45318
ha	-9.45469
▁الانسان	-9.45475
▁).	-9.45516
▁لان	-9.45593
ويه	-9.45619
▁انتاج	-9.45666
▁كين	-9.45694
▁ثورة	-9.45815
▁الام	-9.45858
▁بما	-9.45903
▁تن	-9.45984
يث	-9.46053
شو	-9.46056
▁كلية	-9.46089
عة	-9.46118
▁بل	-9.46245
ميل	-9.46345
▁عشر	-9.46537
▁1976	-9.46571
زي	-9.46603
▁ro	-9.46756
▁الشمال	-9.46783
ونى	-9.4685
▁خد	-9.47112
رس	-9.47185
▁التقويم	-9.4726
▁خلال	-9.47285
▁روما	-9.47323
ولو	-9.47385
▁al	-9.47387
▁مير	-9.47451
▁القديم	-9.47476
▁دولة	-9.47752
▁شخص	-9.47786
▁الجزء	-9.47799
▁mi	-9.47811
▁بعده	-9.4785
▁فضل	-9.48008
▁وهى	-9.48165
▁ڤيديو	-9.48216
▁مدرسة	-9.48336
▁حتى	-9.48357
▁وقتها	-9.48368
بيل	-9.48405
الى	-9.48456
▁بيل	-9.485
▁2009	-9.48506
▁افلام	-9.48542
▁بلد	-9.48744
▁اليابان	-9.48857
جي	-9.48961
ki	-9.48969
ck	-9.49022
▁اله	-9.49169
رم	-9.49193
روس	-9.49265
▁يتم	-9.49327
بعد	-9.49392
عد	-9.49532
باب	-9.496
مس	-9.50098
▁التعليم	-9.50267
▁بيقول	-9.50381
لة	-9.50593
▁الستات	-9.5071
▁ba	-9.50794
سيشتى	-9.50826
لق	-9.50886
▁b	-9.50897
سير	-9.50903
bo	-9.50964
تار	-9.51001
عت	-9.51059
▁والت	-9.51104
▁يو	-9.51107
lin	-9.51235
▁لى	-9.5138
▁بورنوجرافى	-9.51423
▁مجال	-9.51435
▁المر	-9.51523
▁...	-9.51524
ge	-9.51566
▁ضمن	-9.51591
sh	-9.51718
فو	-9.51863
▁المدن	-9.51888
di	-9.51925
▁المتوسط	-9.52028
▁اور	-9.52042
▁مست	-9.52067
عبد	-9.52071
▁الهند	-9.52092
▁حبيب	-9.52255
سينى	-9.5228
يرا	-9.52297
▁الط	-9.52371
▁تنس	-9.52438
دة	-9.52469
قص	-9.52597
▁بان	-9.52598
▁to	-9.52651
▁سانت	-9.52666
▁المقدس	-9.52796
دان	-9.52963
ارات	-9.52964
ينج	-9.5306
سل	-9.53088
▁جدا	-9.53361
▁وفاته	-9.53381
يتسا	-9.53431
be	-9.53552
▁الحال	-9.53634
ميلا	-9.53666
▁الميلاد	-9.53706
▁p	-9.53768
▁الفن	-9.5394
لمدة	-9.53945
دن	-9.53946
▁العصور	-9.53987
يني	-9.54049
▁بور	-9.54086
▁بتعتبر	-9.54281
vi	-9.543
تسى	-9.54321
▁bo	-9.54325
▁مور	-9.5433
يرى	-9.54437
▁مصري	-9.54472
▁الولاية	-9.54546
▁ظهرت	-9.5467
▁فريد	-9.54685
وار	-9.54914
▁حر	-9.54944
▁le	-9.54965
▁حول	-9.55012
▁موجوده	-9.55039
▁شبه	-9.55043
فين	-9.55152
▁اليهود	-9.55154
va	-9.55345
عين	-9.55346
ضاف	-9.554
َّ	-9.55402
▁جا	-9.55439
▁قلبى	-9.55443
▁والتر	-9.55464
▁هايد	-9.55467
اى	-9.555
▁فال	-9.55541
زم	-9.55591
▁مح	-9.55667
▁2012	-9.55783
▁كار	-9.55823
▁أر	-9.55906
▁الجديد	-9.5599
ري	-9.56006
بات	-9.5603
▁1952	-9.5607
▁فتح	-9.56209
▁1971	-9.56272
لك	-9.56301
كان	-9.56306
عرف	-9.56351
▁أهم	-9.56391
▁جزيرة	-9.56392
▁واحدة	-9.5646
▁1975	-9.56508
غير	-9.56509
▁السعوديه	-9.56578
▁جديد	-9.56674
▁اتوفى	-9.56723
مع	-9.56828
▁العزيز	-9.56851
فضل	-9.56859
▁التاني	-9.56968
حت	-9.56991
▁تاني	-9.57036
▁دير	-9.57126
▁الرابع	-9.57205
انيه	-9.57477
جون	-9.57538
▁وده	-9.57588
▁المح	-9.57695
▁أبو	-9.57756
▁بأ	-9.57839
▁حى	-9.57849
▁ميل	-9.57912
حب	-9.57935
قال	-9.57978
كور	-9.58027
▁الكنيسة	-9.58036
بول	-9.58093
ورا	-9.58096
▁مواقع	-9.58274
et	-9.58417
زى	-9.58477
ș	-9.58534
زين	-9.58562
▁القوات	-9.58562
▁محل	-9.58585
▁كال	-9.58597
▁قسم	-9.58653
▁جيريلز	-9.58658
▁الكويكب	-9.5883
سكو	-9.58977
حل	-9.58987
▁جمهورية	-9.59032
چ	-9.59086
▁2002	-9.59104
▁السويد	-9.59139
cu	-9.59335
▁العمل	-9.59358
ya	-9.59445
▁2007	-9.59508
▁لقب	-9.59596
▁السنه	-9.59689
ho	-9.59717
▁زمان	-9.5973
▁الحديث	-9.5984
▁i	-9.59966
لت	-9.59996
▁للكريكت	-9.60169
ولا	-9.60178
وق	-9.60183
▁هوتين	-9.60197
ونفيلد	-9.60215
ثر	-9.60256
▁po	-9.60342
▁50	-9.60369
ران	-9.60412
é	-9.60481
▁الفترة	-9.6069
▁شوية	-9.60755
▁2005	-9.60827
▁قرب	-9.60858
مي	-9.60941
▁me	-9.60985
▁معسكر	-9.6107
▁الخامس	-9.61083
▁e	-9.61105
ستر	-9.61129
▁قتل	-9.6117
▁الامبراطور	-9.61214
وان	-9.61254
قدر	-9.61259
▁قوات	-9.61293
▁2006	-9.61336
▁أس	-9.6134
قه	-9.61357
▁1972	-9.61433
طا	-9.61437
عه	-9.6144
chi	-9.61445
رن	-9.61473
▁وكمان	-9.61476
▁ظهر	-9.61655
▁عاش	-9.61661
▁ستاد	-9.61671
▁كاتب	-9.61828
بن	-9.61847
pa	-9.61848
وفا	-9.61882
تم	-9.6198
▁كبيرة	-9.62058
نك	-9.62379
at	-9.62431
راب	-9.62594
▁شا	-9.62599
علم	-9.62614
لات	-9.62664
جامعة	-9.62739
▁برا	-9.62748
▁ڤ	-9.62798
▁أحمد	-9.62805
▁in	-9.62837
▁امر	-9.62861
▁السلام	-9.62943
سين	-9.6307
▁سكانها	-9.63071
▁بيبرس	-9.63106
اره	-9.63113
رة	-9.63155
كين	-9.63155
▁دون	-9.63335
▁اشتغل	-9.63467
▁vi	-9.63527
▁سلطان	-9.6357
▁وزارة	-9.63599
▁كر	-9.63636
▁فؤاد	-9.63648
ره	-9.63665
▁f	-9.63715
▁ليهم	-9.63725
▁ولد	-9.63743
▁ra	-9.63748
شي	-9.63844
ov	-9.63955
▁ري	-9.63996
تل	-9.64007
دول	-9.64195
▁عرض	-9.64215
▁موجود	-9.64255
▁co	-9.64364
▁مشتريه	-9.64369
جور	-9.64369
▁سبب	-9.64604
دل	-9.64642
جز	-9.64659
▁سياسى	-9.64707
▁وصلت	-9.64783
▁di	-9.64895
▁النظام	-9.64938
▁أنها	-9.64955
نز	-9.64997
▁مس	-9.6508
▁حبيبي	-9.65102
▁الخليج	-9.65245
وث	-9.65305
مى	-9.65351
▁حساب	-9.65364
بق	-9.65525
▁m	-9.65637
رون	-9.65853
▁مشروع	-9.65941
▁كول	-9.65995
▁الصين	-9.66049
▁1974	-9.66058
▁ثم	-9.66065
▁بريطانيا	-9.66136
▁فقد	-9.6622
▁امير	-9.66222
▁نقل	-9.66251
ليس	-9.66257
▁سعيد	-9.66278
▁ريتشارد	-9.66309
▁se	-9.66324
ja	-9.66341
▁دمشق	-9.66347
▁مد	-9.66423
▁ساب	-9.66434
▁be	-9.66466
0"	-9.66474
▁ابنه	-9.66506
▁40	-9.66508
▁اللغة	-9.66549
لال	-9.66715
▁آل	-9.66715
غا	-9.66764
برا	-9.66846
فق	-9.66866
ـــ	-9.66927
si	-9.67084
▁جان	-9.6716
go	-9.6716
▁بحر	-9.67168
▁حق	-9.67283
▁جه	-9.67373
▁المسرح	-9.67444
▁ميك	-9.6748
قت	-9.6751
▁عز	-9.67542
آ	-9.67585
يڤ	-9.6761
▁دوله	-9.67617
▁ابوه	-9.67928
▁تح	-9.67942
▁الليل	-9.68002
it	-9.68295
▁لغه	-9.68323
pe	-9.68327
زل	-9.68384
▁الأول	-9.68411
▁قصة	-9.6844
ci	-9.68462
دون	-9.6856
▁يعمل	-9.68599
▁الجنوبى	-9.68624
▁pa	-9.69078
ينو	-9.69151
▁وجود	-9.69201
▁1970	-9.69343
▁اهل	-9.69419
يلبيرج	-9.69554
▁المسيح	-9.69577
بيت	-9.69698
لف	-9.697
▁الظاهر	-9.69793
▁أد	-9.69918
▁الجريجورى	-9.69921
فور	-9.69975
▁عيد	-9.70019
ڤي	-9.70064
كونيجستوهل	-9.70089
تور	-9.70109
▁صاحب	-9.70126
▁موسى	-9.70211
كول	-9.7024
ڤين	-9.70296
the	-9.70348
shi	-9.70401
ائل	-9.70544
▁اوستراليا	-9.70545
ديل	-9.70628
▁نيديرلاند	-9.70672
▁الاس	-9.70737
وية	-9.70786
فان	-9.70849
دم	-9.70899
يتا	-9.70914
▁چون	-9.71017
خر	-9.71098
ولد	-9.7114
بد	-9.71234
▁قانون	-9.71247
قسم	-9.71252
ولي	-9.71336
▁لكل	-9.71386
▁na	-9.71484
▁لوس	-9.71535
▁جي	-9.71689
نيك	-9.71697
▁سيل	-9.71711
▁جير	-9.71714
▁ايران	-9.71761
um	-9.71766
يتس	-9.71865
▁طلع	-9.71884
▁ايريك	-9.71888
▁ون	-9.71922
▁اب	-9.71924
▁أكتر	-9.71994
▁2004	-9.72085
▁بابا	-9.72146
▁لين	-9.72203
اض	-9.72233
بس	-9.72241
▁2003	-9.72259
ol	-9.72266
▁صوت	-9.72289
رف	-9.72303
▁استخدام	-9.72327
▁المنطقة	-9.72386
▁پا	-9.72459
وني	-9.72485
▁ساعات	-9.72534
▁كلمة	-9.72551
▁مال	-9.72556
▁الجنوب	-9.72557
▁ذكر	-9.72582
ji	-9.72674
▁مما	-9.72731
ger	-9.72783
رق	-9.72812
▁مناطق	-9.72814
ايد	-9.72839
اير	-9.72878
▁القديمة	-9.729
▁شارع	-9.72943
فن	-9.73008
سب	-9.73133
="3	-9.73141
▁and	-9.73156
عا	-9.73245
▁اللعبه	-9.73281
رجع	-9.73322
اغ	-9.73374
▁اتحاد	-9.7344
▁روبرت	-9.73468
▁مان	-9.73478
يسى	-9.73493
▁كسبت	-9.73512
وج	-9.73584
▁جمع	-9.73635
ly	-9.73681
داد	-9.73687
▁ha	-9.73693
▁پي	-9.73782
ماكانش	-9.73815
انو	-9.73834
▁الموسيقى	-9.73934
▁ar	-9.73942
اله	-9.73993
▁لال	-9.74027
▁اما	-9.74101
▁المماليك	-9.74273
▁قصر	-9.74336
▁2014.	-9.74354
طب	-9.74505
▁بغداد	-9.74514
تيا	-9.74541
▁برنامج	-9.74573
▁100	-9.74575
▁هير	-9.74629
▁الدكتور	-9.74654
▁هنرى	-9.74738
▁قلب	-9.74879
▁الحر	-9.75056
روح	-9.75058
▁الصليبيه	-9.7533
▁آخر	-9.75355
مون	-9.75475
انت	-9.75491
▁جامع	-9.75514
▁المع	-9.75514
يها	-9.75528
تشي	-9.75569
الي	-9.75576
▁شاف	-9.75676
▁مسرحية	-9.75743
▁ني	-9.75774
شير	-9.75805
عمل	-9.75856
▁1954	-9.75892
مال	-9.7593
طو	-9.7595
▁ليستة	-9.75992
▁عبر	-9.75994
▁السيد	-9.76038
▁الرومان	-9.76066
صاب	-9.7615
نادى	-9.7622
جاز	-9.76299
يتو	-9.76346
▁عايز	-9.76362
▁ملوك	-9.76363
ندى	-9.76472
▁الاوروبى	-9.76515
▁قعد	-9.76686
▁واللي	-9.76692
▁1967	-9.76726
▁سك	-9.76741
▁قناة	-9.76808
▁ca	-9.76817
▁السن	-9.76825
▁فارس	-9.76831
▁دولار	-9.76842
lo	-9.76874
▁ظهير	-9.76874
طر	-9.76902
▁مؤسس	-9.76975
ً	-9.77134
▁خمس	-9.7714
رج	-9.77292
▁يست	-9.77308
جيل	-9.77342
▁المجر	-9.77344
اوي	-9.77373
▁li	-9.774
اخ	-9.77512
▁ho	-9.77564
▁ڤي	-9.77572
حه	-9.77644
▁كانوا	-9.77654
فه	-9.77674
▁بري	-9.77784
▁بد	-9.77878
كاس	-9.77912
بع	-9.77925
▁يس	-9.7801
▁مبارك	-9.78019
رش	-9.78069
com	-9.78155
▁موقع	-9.78157
ns	-9.78211
▁1969	-9.78225
▁حل	-9.78292
▁h	-9.78373
▁اربع	-9.78392
▁الغرب	-9.78403
▁صح	-9.7846
محمد	-9.78527
▁اش	-9.78529
بك	-9.78629
▁نشر	-9.787
انيشتى	-9.78746
▁أل	-9.78929
▁تجاريه	-9.78936
▁الض	-9.78979
▁مريم	-9.79035
▁موت	-9.79191
▁وقد	-9.79206
bi	-9.79282
▁سل	-9.79284
ضم	-9.79292
▁هم	-9.79352
تصنيف	-9.79372
▁سال	-9.79421
▁الحياة	-9.79441
▁سليمان	-9.79496
ek	-9.79511
▁عندها	-9.7957
▁يقول	-9.79624
شت	-9.79641
▁بدأ	-9.79837
ذكر	-9.79894
نين	-9.80094
▁الأم	-9.80164
▁طالب	-9.80168
▁اعمال	-9.80385
▁فرقة	-9.80531
▁1968	-9.80647
سيس	-9.80672
▁رجال	-9.80707
▁المركز	-9.80711
▁وكانت	-9.80743
يوم	-9.80813
▁منصب	-9.80839
▁رجل	-9.80944
▁وانت	-9.80955
▁1964	-9.81109
▁هنا	-9.81175
▁وان	-9.81275
▁قول	-9.81433
قد	-9.81501
▁رقم	-9.81628
ei	-9.81668
▁ايلست	-9.817
▁هذه	-9.81723
▁ارض	-9.8188
▁كنت	-9.81889
ld	-9.81998
▁المدينه	-9.82057
▁عليك	-9.82147
▁كريكت	-9.82282
ir	-9.82376
▁عرف	-9.82379
▁الجو	-9.82387
ve	-9.82395
▁الفتره	-9.82427
▁بدل	-9.82441
صح	-9.82498
تنا	-9.82573
ie	-9.82585
شوف	-9.826
▁ميت	-9.82722
▁ڤا	-9.82813
صف	-9.82949
▁2013	-9.82997
▁حدود	-9.8305
▁مخرج	-9.83057
▁المناطق	-9.8307
▁بنى	-9.83092
ine	-9.83182
▁تمثيل	-9.83194
قب	-9.83243
قبل	-9.83345
▁تسع	-9.8345
وهم	-9.83456
ارت	-9.83507
▁عم	-9.83529
حي	-9.83581
▁العلوم	-9.83594
▁بقيادة	-9.83635
▁اع	-9.83687
▁ليون	-9.83739
▁أفلام	-9.83747
▁المنطقه	-9.83753
وڤا	-9.83803
▁مدير	-9.83857
▁الحاكم	-9.83919
▁رفض	-9.83973
000	-9.84028
▁القلب	-9.84157
▁سبع	-9.84181
▁العالميه	-9.84243
▁برضه	-9.84258
▁القدس	-9.84283
▁مولدوڤا	-9.84349
▁مسرح	-9.84379
بابا	-9.8442
▁الدولى	-9.84489
il	-9.84502
▁كليت	-9.84504
▁بعيد	-9.84512
▁جل	-9.84547
▁فن	-9.84617
▁دخلت	-9.84625
▁ث	-9.84635
▁فير	-9.84657
ملك	-9.84662
▁خلف	-9.84662
سم	-9.84677
po	-9.84744
▁فلسطين	-9.84772
▁bu	-9.8479
سك	-9.84793
▁lu	-9.84805
اخر	-9.8482
خل	-9.8484
▁مي	-9.84897
▁اذا	-9.8499
تير	-9.85005
▁كليوباترا	-9.85145
قلعة	-9.85205
بط	-9.85277
▁السودان	-9.85301
▁للأ	-9.85352
▁چى	-9.85361
٪	-9.85382
▁قبرص	-9.85386
ليود	-9.8541
ياس	-9.85421
he	-9.8544
جير	-9.85565
▁عملت	-9.85584
فون	-9.85597
▁صف	-9.85721
طه	-9.85765
▁الخط	-9.85857
▁تلات	-9.85944
▁للت	-9.8595
▁لهم	-9.85965
ng	-9.85973
▁تعتبر	-9.85991
▁رد	-9.86016
▁البل	-9.86024
▁he	-9.86151
▁تور	-9.86196
▁الامرا	-9.86215
%	-9.86252
▁اتقتل	-9.86349
▁صغير	-9.86359
▁نظر	-9.8637
است	-9.86423
▁حقوق	-9.86469
ian	-9.86504
▁ـ	-9.86518
▁وهي	-9.86564
▁للا	-9.86573
يار	-9.86665
▁الدم	-9.86668
▁الكبرى	-9.86709
▁السويس	-9.86713
▁فيليب	-9.86716
يرو	-9.86754
▁عيلة	-9.86802
مصر	-9.86833
▁كلها	-9.86908
كتب	-9.87159
▁دم	-9.87175
▁المحيط	-9.87205
▁مقر	-9.87248
▁حالة	-9.87366
نة	-9.87507
▁اح	-9.8752
▁فات	-9.87608
▁الموضوع	-9.87619
رين	-9.87653
▁بيع	-9.87712
▁نجاح	-9.87735
ina	-9.87743
موس	-9.87822
▁نطاقات	-9.87832
ليا	-9.87899
ty	-9.879
▁nikolai	-9.87902
▁سعود	-9.87911
▁يعتبر	-9.87986
تسا	-9.88012
]	-9.88092
eni	-9.88155
▁34	-9.88203
▁لويل	-9.88213
▁van	-9.8823
▁الحكومة	-9.88238
▁انواع	-9.88317
▁el	-9.88318
▁t	-9.88324
▁داخل	-9.88377
▁سور	-9.88428
يكو	-9.88449
▁حاول	-9.88526
▁مصرية	-9.88552
pi	-9.88628
▁سر	-9.88682
▁33	-9.88718
▁1956	-9.88736
▁جد	-9.88769
▁الثوره	-9.88876
سان	-9.89058
▁2010.	-9.89136
em	-9.89161
▁الواحد	-9.89274
روم	-9.89334
وات	-9.89371
▁تشي	-9.89392
▁كلام	-9.89431
▁الميه	-9.89445
▁كبار	-9.89486
▁ديل	-9.89489
▁1953	-9.8949
▁حركة	-9.89517
▁chernykh	-9.89523
▁التاسع	-9.89523
زار	-9.89602
▁عاد	-9.89686
▁عنه	-9.89898
▁astronomic	-9.89932
ارة	-9.89985
طور	-9.90074
▁اغانى	-9.90156
▁القصر	-9.90174
▁الكتب	-9.90196
▁هار	-9.90294
▁جزر	-9.90322
▁آه	-9.90346
جاب	-9.9036
▁نزلت	-9.90431
▁نجيب	-9.90431
▁المغرب	-9.90447
فير	-9.9047
فكر	-9.90594
▁si	-9.90631
▁تل	-9.90697
عل	-9.90805
▁مهم	-9.90846
▁حط	-9.90901
اي	-9.90938
▁هيل	-9.90959
▁المملكة	-9.90974
▁z	-9.9098
▁اساس	-9.91014
فار	-9.91037
▁1961	-9.91056
بيع	-9.911
▁ذات	-9.91105
مل	-9.91231
wa	-9.9126
▁الذ	-9.91326
▁بكده	-9.91411
▁الدستور	-9.91456
▁سين	-9.91459
كت	-9.91557
▁الحمله	-9.91591
▁تا	-9.91612
▁السياسيه	-9.91639
شار	-9.91708
ايل	-9.91737
نيس	-9.91768
▁انضم	-9.91783
▁العظمى	-9.91798
▁1958	-9.91803
خت	-9.91803
ليم	-9.91829
جب	-9.91877
وويل	-9.91903
امر	-9.91989
يدى	-9.92048
▁شيخ	-9.92072
▁بيك	-9.92076
▁2014	-9.9209
▁استول	-9.92104
land	-9.92123
فتح	-9.92139
▁يرجع	-9.92159
رام	-9.9217
▁الادب	-9.92175
شد	-9.92211
▁جيمس	-9.92217
ton	-9.92237
▁الجن	-9.92296
لوج	-9.92334
▁كله	-9.92377
▁نفسها	-9.92449
š	-9.92494
do	-9.92516
نور	-9.92517
▁كرو	-9.92532
▁الفنون	-9.92544
ner	-9.92635
▁الايام	-9.92648
sen	-9.9265
▁بلا	-9.9273
▁وصف	-9.92743
شكل	-9.92841
▁تس	-9.92874
▁هذا	-9.92875
za	-9.9294
عمر	-9.92956
▁اخت	-9.92975
▁الشعر	-9.93067
لعب	-9.93108
▁مجلة	-9.93122
▁العلم	-9.93161
ny	-9.93166
روب	-9.93264
▁بيكون	-9.93287
▁العالمية	-9.93316
خو	-9.93323
▁أشهر	-9.93328
▁إلا	-9.93372
يلو	-9.93449
220	-9.93454
يچ	-9.93459
▁العربي	-9.93535
▁كوم	-9.93581
▁1959	-9.93631
ul	-9.93655
جد	-9.93656
lu	-9.93666
سار	-9.93742
تشى	-9.93803
▁60	-9.9381
▁35	-9.93864
لس	-9.93892
تيل	-9.93907
▁شعب	-9.93912
▁نوبل	-9.93949
▁الدنمارك	-9.9395
ku	-9.93988
ارو	-9.94
▁كام	-9.94001
▁المجال	-9.94059
▁اسس	-9.94065
مور	-9.94093
▁الغربية	-9.941
▁بيتر	-9.94125
▁والا	-9.94126
▁المست	-9.94174
▁الحروب	-9.94237
▁راجل	-9.9425
▁بتاعة	-9.94271
▁ورا	-9.94281
يشو	-9.94291
لان	-9.94321
ليه	-9.94361
▁1955	-9.94378
▁حياة	-9.94442
▁جوايز	-9.94448
170	-9.94476
زان	-9.94494
قتل	-9.94549
طلب	-9.94666
صر	-9.9468
انية	-9.94734
▁1963	-9.94749
▁(18	-9.9475
▁ماكس	-9.94847
▁نار	-9.94875
▁يبقى	-9.94891
حسن	-9.94914
▁2016	-9.94914
▁جن	-9.94994
▁1962	-9.95056
▁مقاطعة	-9.95064
▁حاكم	-9.95065
▁جامعه	-9.95068
▁الشمس	-9.95096
اما	-9.95133
بون	-9.95179
▁السادس	-9.95198
▁المجلس	-9.95204
▁الفريق	-9.95221
▁المسيحيه	-9.95241
راق	-9.95362
▁جبل	-9.95419
▁2015	-9.95476
gu	-9.95563
سيم	-9.95796
▁نسبه	-9.958
▁مدريد	-9.95874
▁جري	-9.95905
▁فأ	-9.95926
▁الاكبر	-9.96029
▁mar	-9.96213
فة	-9.96383
ائ	-9.9641
ريد	-9.96418
ber	-9.96502
▁الشهيد	-9.96503
▁الشرقيه	-9.96507
▁ترا	-9.96537
▁اقتصاد	-9.96553
▁32	-9.96624
▁عكا	-9.96661
▁العامة	-9.96715
فريق	-9.96723
▁ko	-9.96911
▁1950	-9.96934
▁شوميكر	-9.96941
▁الخليفه	-9.96942
▁ولاد	-9.96993
▁أب	-9.97029
بقى	-9.97042
▁قاد	-9.9705
117	-9.97075
لر	-9.97118
▁جال	-9.97225
▁لعيب	-9.9724
ley	-9.97276
▁1948	-9.97277
دت	-9.97305
واجه	-9.9731
تحت	-9.97318
▁فكان	-9.97398
قيم	-9.97421
174	-9.97463
▁39	-9.9747
اسم	-9.97521
gh	-9.97587
▁الروح	-9.97592
der	-9.97608
طل	-9.97673
▁الكويت	-9.97688
خط	-9.97688
ــــ	-9.97731
لح	-9.9777
قف	-9.97774
ضا	-9.97795
▁العذراء	-9.97825
▁اتآسس	-9.97826
دع	-9.97836
▁وتم	-9.97853
▁روح	-9.97859
▁الاولى	-9.97863
▁الجزيرة	-9.9797
▁اخراج	-9.98092
▁ض	-9.98171
حمل	-9.98184
لوس	-9.98192
موت	-9.98195
▁تشارلز	-9.982
تسو	-9.98216
▁عليا	-9.98263
▁سليم	-9.98287
▁شعر	-9.98316
▁so	-9.98342
اري	-9.98406
▁الجنس	-9.98481
ونا	-9.98507
بوت	-9.98525
▁ألف	-9.98614
▁ليل	-9.98693
▁السوق	-9.98698
▁جاك	-9.9886
ذر	-9.98883
▁48	-9.98928
▁الامبراطوريه	-9.99153
▁الاغريق	-9.99166
▁تأسيس	-9.99169
▁90	-9.99289
▁المخرج	-9.99322
راد	-9.99332
▁وح	-9.99341
▁جين	-9.99376
▁وبت	-9.99381
▁اخوه	-9.99387
▁[	-9.99395
هام	-9.994
▁الجديدة	-9.99435
▁بتقول	-9.99492
ريا	-9.99527
▁جار	-9.99577
▁بح	-9.99652
زع	-9.99739
▁الشماليه	-9.99747
175	-9.99815
▁pi	-10.0001
جوز	-10.001
▁عملية	-10.0015
لن	-10.0017
هما	-10.0031
="5	-10.0034
206	-10.0035
ai	-10.0037
▁التي	-10.0037
▁الفرنساوى	-10.0044
▁جول	-10.0044
▁فو	-10.0045
ورد	-10.0054
▁1945	-10.007
▁ولما	-10.007
▁خدمة	-10.0073
▁وبعدها	-10.0074
▁كدا	-10.0076
▁طب	-10.0085
▁غيرها	-10.0085
tu	-10.0086
▁تع	-10.009
▁الجامع	-10.0091
مات	-10.0098
▁بورن	-10.01
as	-10.0105
▁الاب	-10.0121
▁قلاوون	-10.0121
▁1966	-10.0122
▁ترك	-10.0123
ou	-10.0129
▁الاخير	-10.0134
▁فيل	-10.0141
▁1957	-10.0142
▁وما	-10.0144
تان	-10.0147
▁مايكل	-10.0153
▁يع	-10.0155
حد	-10.0166
▁الدفاع	-10.0174
▁الغربيه	-10.0178
▁الث	-10.0179
use	-10.0179
▁هيلين	-10.0179
▁يقدر	-10.0179
▁ta	-10.0181
امى	-10.0182
che	-10.0191
خا	-10.0194
▁العليا	-10.0194
▁جيل	-10.0195
am	-10.0198
ll	-10.0204
▁النمسا	-10.0207
دد	-10.0211
bu	-10.0212
▁تي	-10.0225
▁36	-10.0227
▁اعداد	-10.0237
▁قطر	-10.024
▁الست	-10.0244
يپ	-10.0247
حة	-10.0258
▁تطوير	-10.026
ّا	-10.0272
مسلسل	-10.0282
▁التمثيل	-10.0282
قلب	-10.0284
▁جداً	-10.0288
صدر	-10.029
عز	-10.0293
▁80	-10.0295
su	-10.0306
▁car	-10.0308
بيس	-10.0311
▁شويه	-10.0314
▁استمر	-10.0316
▁su	-10.0317
▁الكامل	-10.0322
▁الكر	-10.0325
▁سلم	-10.0327
حا	-10.0328
▁مارك	-10.0349
حى	-10.0351
▁70	-10.0352
يتى	-10.0352
اندر	-10.0352
▁ستيشن	-10.0354
ver	-10.0361
▁نايب	-10.0369
▁الممثل	-10.0373
▁لسنة	-10.0378
▁الباب	-10.0378
▁الجبل	-10.0385
▁1965	-10.0397
▁احنا	-10.0397
▁القبطيه	-10.0402
▁w	-10.0408
▁البا	-10.0409
▁السابع	-10.041
عباره	-10.0414
="2	-10.0418
▁جميل	-10.0425
▁رياض	-10.0428
▁منطقه	-10.043
▁أصل	-10.0432
يدا	-10.0435
▁قم	-10.0436
ضرب	-10.0437
ed	-10.0439
ذلك	-10.045
داء	-10.0454
▁يُ	-10.0461
120	-10.0462
="6	-10.0471
▁فضلت	-10.0471
نظر	-10.0484
▁اتجوز	-10.0486
صل	-10.0494
طلق	-10.0494
▁65	-10.0502
▁العين	-10.0505
▁سار	-10.0518
▁ول	-10.0519
▁حبيبى	-10.0519
▁اماكن	-10.0521
▁جديده	-10.053
▁do	-10.0531
▁السادات	-10.0543
چو	-10.0546
يغ	-10.0552
صور	-10.056
راك	-10.0566
▁45	-10.057
لوم	-10.0571
اتها	-10.0577
▁ميدان	-10.0585
▁المسيحية	-10.0587
ev	-10.0596
="25	-10.0597
▁كمال	-10.0598
طار	-10.06
حق	-10.0601
ادي	-10.0607
يتها	-10.0617
▁السي	-10.0622
بنى	-10.063
▁-)	-10.0638
طول	-10.064
100	-10.0642
فيس	-10.0642
خان	-10.0644
نيا	-10.0647
▁السعودى	-10.0654
فاء	-10.0654
راس	-10.0661
▁مهرجان	-10.0663
▁الصعيد	-10.0673
▁مل	-10.0678
▁أي	-10.068
صار	-10.0684
227	-10.0689
شع	-10.0691
غل	-10.0692
▁سعد	-10.0695
207	-10.07
177	-10.0711
sta	-10.0712
سمى	-10.0715
شين	-10.0718
فصل	-10.0719
▁الأمير	-10.0731
فورد	-10.0731
▁اصول	-10.0731
▁قرر	-10.0735
▁الوهاب	-10.0737
▁الطريق	-10.0739
▁1949	-10.0748
▁مقابل	-10.075
▁اعلى	-10.0762
▁العاده	-10.0764
▁خان	-10.0765
▁الغالب	-10.0768
▁بات	-10.0771
حن	-10.0771
▁زا	-10.0774
▁تلت	-10.0785
ٍ	-10.0786
▁سبرينج	-10.0786
▁جوهانس	-10.0786
▁السابق	-10.0789
▁ممثله	-10.0791
▁دومين	-10.0792
▁اتعين	-10.0794
▁اشتهر	-10.0798
109	-10.0811
▁أواخر	-10.0816
173	-10.0821
▁جودو	-10.0823
▁السياسية	-10.0827
انج	-10.0833
os	-10.0834
▁المعروف	-10.0842
هد	-10.0842
▁يخ	-10.0843
▁1951	-10.0846
▁نورث	-10.0855
أن	-10.0865
▁الأس	-10.0875
▁قل	-10.0875
راف	-10.0882
zi	-10.089
▁خاص	-10.0891
▁قائد	-10.0894
▁الفنية	-10.0894
ريش	-10.0894
gi	-10.0896
▁ne	-10.0902
▁توماس	-10.0904
▁فرق	-10.0905
▁صيربيا	-10.0909
ak	-10.0929
عظم	-10.0938
ڤر	-10.0943
time	-10.0946
▁بدر	-10.0947
صير	-10.095
سلم	-10.0951
▁وضع	-10.0953
▁جوه	-10.0953
▁دوب	-10.0954
▁مك	-10.0956
▁روس	-10.0958
▁37	-10.096
▁دلوقتي	-10.0965
im	-10.0967
▁”	-10.0968
مش	-10.097
▁الشرقية	-10.0971
▁الآ	-10.0973
▁الاقتصاد	-10.0975
▁l	-10.0976
شغل	-10.0977
▁نشأتها	-10.0979
▁نب	-10.0991
▁القبطية	-10.0998
que	-10.0999
▁الهوا	-10.1001
نظم	-10.1008
du	-10.1015
▁اللغات	-10.1015
▁از	-10.1022
▁ومخرج	-10.1023
▁كير	-10.1023
▁الشغل	-10.1031
▁اكس	-10.1038
▁سيف	-10.104
قي	-10.1042
▁البرلمان	-10.1055
▁كتابه	-10.1055
▁الرئيسى	-10.1058
▁ياما	-10.1062
▁38	-10.1065
▁عيني	-10.1071
▁العسكريه	-10.1074
وال	-10.1075
ادى	-10.1076
om	-10.1076
▁كلثوم	-10.1085
▁مساحه	-10.1085
="29	-10.1088
▁وفاة	-10.109
▁پ	-10.1105
▁no	-10.1105
-19	-10.111
▁بطوله	-10.1113
▁بيس	-10.1116
▁hu	-10.1116
▁شمس	-10.1118
▁شر	-10.1118
▁معاهم	-10.1119
▁الحكومه	-10.1119
سلام	-10.1124
▁النظر	-10.1133
اوس	-10.1134
▁الصالح	-10.1135
▁ذا	-10.1136
▁2019	-10.1148
سنة	-10.1148
يانا	-10.115
347	-10.1152
اور	-10.1152
▁تلك	-10.1157
▁du	-10.1158
▁التويتر	-10.1161
؟	-10.1163
▁الحق	-10.1169
▁معهد	-10.117
▁مطار	-10.1174
▁البيت	-10.1177
ani	-10.1182
▁بالت	-10.1185
تميز	-10.1187
▁درجة	-10.1187
تينى	-10.1187
209	-10.1189
ثير	-10.1191
▁تير	-10.1191
▁كت	-10.1191
يكس	-10.1193
▁سوا	-10.1198
مثل	-10.1199
dy	-10.1208
سه	-10.1211
چا	-10.1213
قة	-10.1225
="4	-10.1235
▁بناء	-10.1236
▁فلوريدا	-10.1238
▁تش	-10.1243
▁go	-10.1249
▁موضوع	-10.125
=94	-10.1254
▁الانجليزى	-10.1257
▁فاروق	-10.1259
فرد	-10.1262
▁لها	-10.1264
▁ليلة	-10.1266
▁جرا	-10.1267
den	-10.1272
اول	-10.1276
إ	-10.1279
ادا	-10.1279
ماس	-10.1283
▁عباس	-10.1284
ريب	-10.1288
▁mountain	-10.1289
▁رياضى	-10.1298
▁الحياه	-10.1306
_	-10.1314
▁جاب	-10.132
tion	-10.1328
▁عمره	-10.1328
▁الرحمن	-10.1341
▁تكساس	-10.1341
رمان	-10.1347
وح	-10.1348
▁استمرت	-10.1348
حم	-10.135
="26	-10.1351
204	-10.1361
لون	-10.1367
172	-10.1368
راء	-10.1369
يره	-10.137
▁اتعملت	-10.1375
▁كثير	-10.1377
218	-10.1394
▁1946	-10.1394
انيا	-10.1395
▁بيشتغل	-10.1396
▁الامبراطورية	-10.1403
شك	-10.1404
▁ظهور	-10.1414
▁1947	-10.1419
▁شباب	-10.1422
ديه	-10.1436
▁1936	-10.1437
ونيا	-10.1438
ren	-10.1442
▁تأليف	-10.1445
وط	-10.1448
رع	-10.145
انجريد	-10.1454
دعم	-10.1475
وصف	-10.1485
▁اتجوزت	-10.1487
تقل	-10.1491
ريف	-10.1492
▁مابين	-10.1497
▁اوهايو	-10.1498
▁da	-10.1498
▁الحروف	-10.1499
▁كذا	-10.15
▁سينا	-10.1514
سأل	-10.1521
عبارة	-10.1521
وين	-10.1523
▁كورنيلي	-10.1529
▁شاركت	-10.1535
▁الأفلام	-10.1536
غن	-10.154
▁امين	-10.1543
▁قرار	-10.1543
257	-10.1554
▁عيون	-10.1557
▁النصر	-10.156
▁عمله	-10.1568
310	-10.157
▁fa	-10.1572
▁بطريق	-10.1573
▁القمر	-10.1574
سور	-10.1584
غرب	-10.1586
ترا	-10.1598
op	-10.1604
غو	-10.1608
á	-10.1616
▁عثمان	-10.162
▁قرية	-10.1625
حر	-10.1633
▁ku	-10.1635
وصل	-10.1644
▁وانا	-10.1647
▁الساحل	-10.1659
اريا	-10.1659
▁بإسم	-10.1664
▁عندهم	-10.1669
كوم	-10.1673
اتولد	-10.1677
▁الشركة	-10.1677
▁بيد	-10.1679
اشى	-10.1683
▁الهوى	-10.169
ic	-10.1691
▁عدم	-10.17
▁القر	-10.1701
▁san	-10.1702
▁0	-10.1702
▁تري	-10.1707
غال	-10.171
وخ	-10.1713
اللغة	-10.1716
▁سيم	-10.1716
▁الاست	-10.1723
▁البشر	-10.1723
بيك	-10.1724
▁بأن	-10.1727
اسى	-10.1727
▁astero	-10.1738
▁شير	-10.1744
قط	-10.1745
ايدنج	-10.1746
▁بكل	-10.175
▁العمر	-10.1752
▁صور	-10.1755
راج	-10.1755
275	-10.1757
▁الصف	-10.1757
▁ju	-10.176
▁وادى	-10.1764
▁الكثير	-10.1767
▁بيستخدم	-10.1768
▁جرو	-10.1768
▁شيلت	-10.177
يله	-10.1771
▁رسمى	-10.1774
▁مساعد	-10.1776
ac	-10.1777
sch	-10.1778
▁ذو	-10.1778
هيئة	-10.1785
▁صالح	-10.1793
▁اخو	-10.1794
350	-10.1794
236	-10.1794
▁انتهت	-10.1798
محافظة	-10.1802
▁te	-10.1806
▁السر	-10.1808
ler	-10.1809
▁غزو	-10.1809
234	-10.181
▁n	-10.1813
129	-10.1816
عي	-10.182
▁انجليس	-10.1821
▁سافر	-10.1822
▁معلومات	-10.1823
229	-10.1828
بلغ	-10.1831
جمال	-10.1832
جامع	-10.1834
▁الأوسط	-10.1848
لع	-10.1848
246	-10.1852
هل	-10.1858
غر	-10.1862
▁بالا	-10.1863
▁تشا	-10.1866
▁النهارده	-10.1874
▁ga	-10.1877
▁وقال	-10.1878
▁بينهم	-10.1893
ناس	-10.1896
▁قالت	-10.1896
▁نجم	-10.1898
▁العاصمه	-10.1899
▁لأول	-10.1901
تدوير	-10.1902
▁الوحيد	-10.1911
▁ماك	-10.1916
شن	-10.1916
▁فنان	-10.1917
ستاد	-10.192
يست	-10.192
279	-10.192
ايموت	-10.1921
▁بوب	-10.1923
328	-10.1927
جة	-10.193
عرض	-10.1931
▁آر	-10.1933
▁جديدة	-10.1933
نغ	-10.1938
كوڤ	-10.1947
اند	-10.1953
انس	-10.1956
يليا	-10.1959
▁49	-10.1963
▁خير	-10.1967
▁الأو	-10.1968
ph	-10.1969
▁صدر	-10.1983
▁التسعتاشر	-10.1983
▁كارولين	-10.1985
ele	-10.1987
▁هدف	-10.1989
▁الدور	-10.199
219	-10.1991
235	-10.1991
▁عنها	-10.1996
جول	-10.1996
▁ru	-10.1998
غني	-10.1999
قام	-10.2005
انه	-10.2008
▁السياسى	-10.2012
▁لاسيلا	-10.2012
بوس	-10.2013
▁mu	-10.2015
ولى	-10.2015
نان	-10.2024
▁اتأسست	-10.2034
▁جور	-10.2039
هن	-10.204
▁ja	-10.2041
fa	-10.2045
▁الشر	-10.205
بيه	-10.2054
▁شغل	-10.2055
327	-10.2056
جمع	-10.2059
اكس	-10.206
ț	-10.206
▁حكومة	-10.2061
خمس	-10.2062
▁الدر	-10.2068
▁فعل	-10.207
بري	-10.2074
فيه	-10.2074
▁ki	-10.2083
▁حسنى	-10.2089
ندا	-10.2089
▁چي	-10.209
▁معبد	-10.2092
▁العاب	-10.2095
▁55	-10.2102
▁اخ	-10.2103
ليك	-10.2103
ستون	-10.2104
▁سلسلة	-10.2105
▁الفكر	-10.2111
▁ديفيد	-10.2112
▁كريم	-10.2117
▁والن	-10.2119
▁الجديده	-10.212
▁أح	-10.2122
تيك	-10.2122
▁الكبيسة	-10.2123
250	-10.2123
▁المملوكيه	-10.2128
269	-10.2128
سيد	-10.2132
104	-10.2134
▁بطل	-10.2136
▁نتيجة	-10.2138
▁ci	-10.2138
▁الفرنسية	-10.2138
رار	-10.2141
▁فيهم	-10.2147
▁الانترنت	-10.2151
▁شوارتزتشايلد	-10.2151
▁اقليم	-10.2162
اخد	-10.2163
230	-10.2166
▁2018	-10.2168
▁fe	-10.217
شيل	-10.2171
▁مرض	-10.2171
مارس	-10.2173
▁المس	-10.2177
زر	-10.2184
▁الأقباط	-10.2195
خد	-10.2195
▁النور	-10.2198
الكويكب	-10.2198
▁لن	-10.22
حكم	-10.2202
267	-10.2203
▁ضرب	-10.2205
326	-10.2206
▁الحديثة	-10.2209
ard	-10.2212
▁خليل	-10.2221
▁نيك	-10.2226
لب	-10.2226
▁جبال	-10.2232
شان	-10.2233
ot	-10.2234
▁university	-10.2236
▁الجزيره	-10.2242
قى	-10.2244
197	-10.2245
قطع	-10.2248
237	-10.2249
205	-10.2252
▁التنس	-10.2252
▁ومع	-10.2252
▁john	-10.2253
▁الثقافه	-10.2256
▁sch	-10.2256
▁چو	-10.2257
▁الشباب	-10.2259
▁متحف	-10.226
▁عشرين	-10.2265
▁المد	-10.2266
▁بيتقال	-10.2269
ten	-10.2272
فريد	-10.2274
▁البار	-10.228
▁ورد	-10.2281
▁اك	-10.2285
210	-10.2289
▁الجامعة	-10.229
▁تحرير	-10.2293
▁قيصر	-10.2294
▁معناها	-10.2294
شتى	-10.2299
“	-10.2302
عيد	-10.2307
▁يعقوب	-10.2308
▁تركيا	-10.2309
عجب	-10.2309
▁العهد	-10.231
▁يعرف	-10.2316
دفع	-10.2319
▁فتره	-10.2323
▁اجرام	-10.2324
▁ساعة	-10.2324
▁لغة	-10.2326
▁والح	-10.233
▁الذي	-10.2332
▁ماي	-10.2337
▁فرانك	-10.234
▁الحديثه	-10.2341
334	-10.2341
ليف	-10.2345
159	-10.2349
▁بطرس	-10.2353
▁2018.	-10.2356
ظهر	-10.2357
زيل	-10.2358
تاج	-10.2364
329	-10.2365
لز	-10.2375
ليو	-10.2379
▁غرام	-10.2379
ريه	-10.2379
احمد	-10.2382
لاق	-10.2384
▁ڤو	-10.2385
عر	-10.2385
▁بلغ	-10.2391
ايم	-10.2394
▁التلفزيون	-10.2396
سع	-10.2399
ستين	-10.2404
▁ياخد	-10.2405
258	-10.2412
▁شعار	-10.2416
322	-10.2418
فرح	-10.2421
عيش	-10.2423
▁47	-10.2423
▁السل	-10.2427
نر	-10.2429
nt	-10.2431
الت	-10.2431
يكى	-10.2434
▁ساعتها	-10.2437
▁الازهر	-10.2439
226	-10.244
درا	-10.2442
io	-10.2443
▁العسكر	-10.245
▁حافظ	-10.2451
برج	-10.2453
ديد	-10.2454
▁خالد	-10.2457
▁الأرض	-10.2458
315	-10.246
▁j	-10.2462
▁فت	-10.2463
▁پير	-10.2468
▁بره	-10.247
▁روز	-10.2476
▁1919	-10.2482
▁تبع	-10.2482
228	-10.2485
="28	-10.2486
يرة	-10.2495
ياد	-10.2499
▁الامريكانيه	-10.2501
▁عمرو	-10.2503
▁وأن	-10.2503
▁وقف	-10.2505
▁عسكريه	-10.2506
300	-10.2508
▁الانتخابات	-10.2511
▁هال	-10.2523
مد	-10.2528
▁وعمل	-10.2536
260	-10.2538
▁دستور	-10.2539
178	-10.254
▁السنين	-10.2541
سكان	-10.2545
▁تالت	-10.2545
▁العظيم	-10.2553
314	-10.2557
كوس	-10.2566
▁البوليس	-10.2567
▁الدينيه	-10.2571
▁46	-10.2572
▁استخدم	-10.2574
رات	-10.2577
▁إت	-10.2582
▁العيله	-10.2588
339	-10.2588
▁2017	-10.2588
▁عسكرى	-10.259
▁جامد	-10.2593
ابو	-10.2599
▁واخد	-10.2602
▁هرب	-10.2607
ئه	-10.2608
▁بها	-10.261
▁اوباما	-10.2611
شف	-10.2617
au	-10.2619
▁التر	-10.2626
▁بتاعت	-10.2627
▁وكل	-10.2629
▁المعهد	-10.2633
▁موسيقى	-10.2635
189	-10.2641
▁الراحل	-10.2642
hu	-10.2643
287	-10.2652
180	-10.2653
▁كرة	-10.2654
▁خارج	-10.2655
▁بالقاهرة	-10.2655
▁المؤرخين	-10.2658
ائد	-10.2666
اتهم	-10.2671
عم	-10.2672
▁chi	-10.2676
297	-10.2676
▁المكان	-10.268
▁صغيره	-10.2684
107	-10.2684
▁منظمة	-10.2684
ئى	-10.2689
▁الحقوق	-10.2691
ham	-10.2694
▁الخديوى	-10.27
▁st	-10.2706
▁دوت	-10.2708
274	-10.2711
so	-10.2714
▁لإن	-10.2716
▁توفيق	-10.2721
▁إي	-10.2723
▁إنه	-10.2723
باد	-10.273
▁خاصة	-10.2733
خيل	-10.2734
▁we	-10.2739
▁وع	-10.2745
▁الحدود	-10.2746
▁خيال	-10.2748
دري	-10.2748
▁44	-10.2752
▁تطور	-10.2755
▁مسك	-10.2758
▁الواقع	-10.276
▁وبين	-10.2761
▁المؤرخ	-10.2773
رقص	-10.2779
102	-10.2782
167	-10.2783
عارض	-10.2786
▁غيرهم	-10.2787
تز	-10.2788
▁الحل	-10.2797
▁مفيش	-10.2798
اللى	-10.28
▁زوجى	-10.28
▁اتخرج	-10.28
184	-10.2817
▁هند	-10.2818
text	-10.2821
tor	-10.2821
▁والع	-10.2821
▁الغربى	-10.2821
▁lo	-10.2823
▁بالكامل	-10.2824
▁بنات	-10.2824
▁حبك	-10.2825
154	-10.2825
116	-10.2826
ster	-10.283
عن	-10.2833
▁المنصور	-10.2834
النسبه	-10.2838
187	-10.2845
▁تينيسى	-10.285
▁النفس	-10.2852
▁v	-10.2856
–	-10.2858
▁يوحنا	-10.2865
245	-10.2865
▁ويليام	-10.2878
▁بنا	-10.2879
▁بطريرك	-10.288
▁التحرير	-10.288
▁شخصية	-10.2895
تاريخ	-10.2898
▁ريد	-10.2906
▁الاخر	-10.2907
290	-10.2909
▁كوت	-10.2911
تقدم	-10.2914
▁لانه	-10.2914
▁انتخابات	-10.2914
▁رب	-10.2916
▁مسرحيات	-10.2916
▁ولم	-10.2917
مدرسة	-10.292
mu	-10.2926
hi	-10.2927
وص	-10.2928
عتبر	-10.293
▁الاحمر	-10.2943
شه	-10.2943
203	-10.2945
lia	-10.2946
=5	-10.2946
▁هت	-10.2947
ay	-10.2948
192	-10.2954
▁مراد	-10.2957
يانو	-10.2957
▁النبى	-10.2958
▁يروح	-10.2963
▁الاو	-10.2964
كات	-10.2965
217	-10.2969
ليل	-10.2971
221	-10.2972
▁تأثير	-10.2975
ايطالي	-10.2978
323	-10.2978
▁الروم	-10.2979
▁التل	-10.2979
166	-10.2981
▁والده	-10.2981
▁حوالين	-10.2985
▁فكرة	-10.2986
▁فرح	-10.2993
يض	-10.2996
رود	-10.3002
▁an	-10.3004
▁2015.	-10.3009
وفيتش	-10.3009
فيلد	-10.3012
▁ليلى	-10.3012
▁المدارس	-10.3018
▁والد	-10.3023
▁الكلام	-10.3023
▁الاتنين	-10.3024
يڤو	-10.3024
190	-10.3026
▁300	-10.3029
amp	-10.3032
ضيف	-10.3035
▁هاجم	-10.3035
244	-10.3042
mon	-10.3045
▁مهمه	-10.3046
▁الامريكانى	-10.3051
▁هل	-10.3053
321	-10.3055
▁أمر	-10.306
▁سام	-10.3061
259	-10.3062
▁الاصل	-10.3069
▁برو	-10.307
▁الجمهورية	-10.3075
صرف	-10.3076
▁67	-10.3076
فاق	-10.3078
شيشتى	-10.3079
▁عربى	-10.3084
دال	-10.3086
335	-10.3089
اهر	-10.3089
قدم	-10.3095
car	-10.3099
▁مشاكل	-10.31
▁نادي	-10.3105
▁سى	-10.3106
240	-10.3109
▁تقول	-10.3109
هوتن	-10.311
معنى	-10.3113
▁سويسرا	-10.3114
▁الأعمال	-10.3116
نها	-10.3117
وة	-10.3117
يدي	-10.3118
▁الرومانيه	-10.3119
▁حم	-10.3121
حول	-10.3122
▁عرش	-10.3124
▁امريكى	-10.3126
model	-10.3126
ساب	-10.3128
▁اتعرف	-10.3131
امه	-10.3133
▁جنيه	-10.3135
▁قوى	-10.3137
روجان	-10.3154
▁قر	-10.3154
ä	-10.3156
▁دخول	-10.3156
▁سب	-10.316
▁مجموعه	-10.316
▁والس	-10.316
وض	-10.3165
ig	-10.3165
▁الوطنية	-10.3172
ari	-10.3173
▁الجامعه	-10.318
stamp	-10.3189
zu	-10.3198
▁درا	-10.3203
▁مرتين	-10.3204
▁مؤلف	-10.3208
▁امه	-10.3209
▁خال	-10.3213
▁هن	-10.3217
▁أغسطس	-10.3219
289	-10.322
▁1938	-10.3223
333	-10.3226
▁معتزل	-10.3226
▁جود	-10.3228
▁ولكن	-10.3228
زرع	-10.3232
319	-10.3237
▁النار	-10.3238
▁معناه	-10.3239
صد	-10.324
▁hi	-10.3241
▁حقق	-10.3241
156	-10.3246
▁فردى	-10.325
mp	-10.326
▁نس	-10.326
الف	-10.3261
▁يح	-10.3262
نيل	-10.3265
▁خلا	-10.3268
»،	-10.3269
▁پيتر	-10.3271
لوك	-10.3273
aki	-10.3273
▁حضر	-10.3275
▁الشرقى	-10.3281
format	-10.3282
▁ساحل	-10.3286
سجل	-10.3288
كشف	-10.3291
▁اوى	-10.3292
▁u	-10.3295
▁ساعد	-10.3297
▁رم	-10.3301
▁تشير	-10.3303
ea	-10.3303
كال	-10.331
ٌ	-10.3313
▁دمياط	-10.3313
193	-10.3314
▁اه	-10.3319
▁تق	-10.3323
▁مينا	-10.3323
▁بدور	-10.3325
▁حس	-10.3326
273	-10.3327
188	-10.3328
▁مون	-10.3328
▁كي	-10.333
309	-10.3332
جح	-10.3333
▁فكر	-10.3336
▁ذ	-10.3337
▁الخاص	-10.3338
▁رود	-10.3341
هور	-10.3343
ara	-10.335
▁يوتا	-10.3351
▁كندا	-10.3352
زه	-10.3354
دخل	-10.3354
ria	-10.3357
225	-10.3363
272	-10.3366
▁أعمال	-10.3367
شرق	-10.337
.000	-10.3371
لدرجة	-10.3372
▁عقد	-10.3374
č	-10.3376
contributor	-10.3376
اكل	-10.3377
▁برازيل	-10.3377
295	-10.3381
▁الشخص	-10.3381
سيب	-10.3382
▁المش	-10.3384
▁1944	-10.3389
برو	-10.3392
فض	-10.3392
نيش	-10.3397
▁سمير	-10.3397
▁الأب	-10.3406
▁الرياض	-10.3407
="27	-10.3407
и	-10.3408
125	-10.3409
پول	-10.3414
155	-10.3415
▁امبراطور	-10.3417
نقل	-10.342
▁ويلز	-10.3422
▁ni	-10.3424
▁الرئيسية	-10.3425
رض	-10.3426
▁نسبة	-10.343
▁جم	-10.343
ab	-10.3433
▁الحديد	-10.3433
▁الجا	-10.3435
▁الكون	-10.3438
▁النرويج	-10.3441
▁الدهب	-10.3444
▁تونس	-10.3444
يسيا	-10.3445
تال	-10.3451
▁حاجات	-10.3452
▁زار	-10.3453
▁فار	-10.3455
▁الرب	-10.3456
پر	-10.3458
▁الشركه	-10.3462
يده	-10.3463
▁زين	-10.3464
▁تيم	-10.3466
جوس	-10.3469
▁مراته	-10.347
يتين	-10.3474
▁لغات	-10.3474
▁قريب	-10.3476
▁الخير	-10.3479
338	-10.3482
▁محترف	-10.3482
318	-10.3486
▁كاب	-10.3487
بية	-10.3493
تف	-10.3495
▁الدولية	-10.3502
روا	-10.3503
▁قطع	-10.3506
اده	-10.3511
ارك	-10.3514
يسكو	-10.3515
▁ريس	-10.3517
215	-10.3518
▁عزيز	-10.3522
▁اتنين	-10.3522
▁احد	-10.3529
نيتسا	-10.3532
yama	-10.3535
تحرك	-10.3536
▁ايلانور	-10.3537
نار	-10.354
صلح	-10.3542
▁وجه	-10.3542
▁r	-10.3542
▁58	-10.3545
eg	-10.3545
▁بإ	-10.3547
298	-10.3547
▁عش	-10.3552
▁بكر	-10.3563
▁در	-10.3567
▁البريطانى	-10.3569
▁valea	-10.357
ريو	-10.3571
▁الهويه	-10.3572
224	-10.3576
قعد	-10.3576
▁مصطلح	-10.3577
▁اغ	-10.3577
▁bar	-10.358
je	-10.3581
َا	-10.3583
▁64	-10.3583
رح	-10.3587
طالب	-10.3588
ذى	-10.3588
▁ادا	-10.3589
266	-10.3589
▁أما	-10.3592
▁سلامه	-10.3593
▁ياسين	-10.3596
rname	-10.3596
عود	-10.3598
191	-10.3601
▁الأشرف	-10.3604
▁56	-10.3609
▁جورنال	-10.3609
▁pe	-10.3614
▁سالم	-10.3622
▁العرش	-10.3624
جيب	-10.3624
▁غي	-10.3627
mer	-10.3627
▁الملوك	-10.3633
а	-10.3634
▁واتانابى	-10.3634
نق	-10.3636
216	-10.3637
▁ڤير	-10.3638
▁اضطر	-10.3639
331	-10.364
جايزة	-10.3646
غريد	-10.3646
▁تعمل	-10.3647
ضع	-10.3649
الب	-10.3654
▁الاساس	-10.3654
▁محفوظ	-10.3667
299	-10.3667
▁مجمع	-10.3669
▁مشهور	-10.3671
▁اتعمل	-10.3672
ang	-10.3672
▁العسكرية	-10.3674
▁مليار	-10.3675
▁نزل	-10.3676
231	-10.3678
ائى	-10.3688
▁1942	-10.3691
لها	-10.3692
▁ya	-10.3693
يجى	-10.3694
▁كن	-10.3698
▁جوا	-10.3704
101	-10.3705
▁الصغيره	-10.3705
▁85	-10.371
ff	-10.3713
▁دان	-10.3713
179	-10.3718
▁ادارة	-10.3718
340	-10.3719
درجه	-10.3721
رير	-10.3722
لل	-10.3722
▁69	-10.373
جمعية	-10.3731
▁bra	-10.3739
▁54	-10.374
tsu	-10.3744
▁معروفه	-10.3744
▁حال	-10.3748
▁الافلام	-10.3748
▁انشاء	-10.375
440	-10.3753
▁زو	-10.3757
▁cor	-10.3757
▁1940	-10.3758
▁عارف	-10.3761
▁شهرستان	-10.3764
خرج	-10.3779
▁الامريكيه	-10.3782
كيا	-10.3786
▁الثورة	-10.3787
صيب	-10.3792
بيا	-10.3793
▁أيام	-10.3798
▁الاكتر	-10.3799
comment	-10.3799
شهادة	-10.38
▁عملها	-10.3802
رسل	-10.3803
▁السكر	-10.3803
▁مكتوب	-10.3804
لاو	-10.3809
ديم	-10.3812
▁الاسلاميه	-10.3812
232	-10.3818
قيادة	-10.382
دفن	-10.3821
▁دفع	-10.3822
kh	-10.3825
▁الكو	-10.3826
106	-10.3827
370	-10.3832
▁52	-10.3839
غنى	-10.3839
▁مختلفة	-10.3842
182	-10.3843
126	-10.3845
282	-10.3849
▁إيه	-10.385
جرى	-10.3853
307	-10.3855
▁as	-10.3857
min	-10.3859
365	-10.3861
هار	-10.3865
▁حكمه	-10.3866
▁جناح	-10.3869
▁العامه	-10.3872
نسب	-10.3874
▁اتعرفت	-10.3877
352	-10.3881
▁ناصر	-10.3883
يور	-10.3883
▁خرج	-10.3885
▁ميخائيل	-10.3887
▁الثلاث	-10.3888
ونج	-10.3889
نتج	-10.3892
▁إلي	-10.3894
105	-10.3898
▁القبطى	-10.3899
▁جاى	-10.39
325	-10.3903
▁عرب	-10.3905
▁باي	-10.3906
▁paul	-10.3907
▁اقدم	-10.391
▁بتوع	-10.391
▁هان	-10.3911
چي	-10.3917
ah	-10.3919
▁محافظه	-10.3921
▁اختار	-10.393
▁فلوس	-10.393
337	-10.3931
▁الرومانية	-10.3935
نزل	-10.3939
▁براد	-10.3945
▁2020	-10.3947
جري	-10.3951
▁الشمالية	-10.3953
344	-10.3957
تيس	-10.3957
▁المدرسة	-10.3962
▁فون	-10.3963
اريس	-10.3965
رينى	-10.3969
دوا	-10.3977
▁الالعاب	-10.3982
▁يوليو	-10.3985
304	-10.3995
▁(1	-10.4002
▁بتستخدم	-10.4002
▁واسع	-10.4004
▁الحسين	-10.4009
وحد	-10.4009
▁الوطنيه	-10.4012
فرق	-10.4013
▁كيل	-10.4013
وضع	-10.4014
▁استر	-10.4014
▁طلعت	-10.4019
▁حرف	-10.4024
▁بلو	-10.4026
▁أش	-10.4027
قوم	-10.4028
▁القرآن	-10.4034
▁نوا	-10.4034
ريان	-10.4038
يروس	-10.4043
أس	-10.4045
▁اسكندرية	-10.4048
حضار	-10.4049
cy	-10.4049
ref	-10.4067
▁مقاطعه	-10.4067
▁نشاط	-10.4068
▁اقل	-10.4076
قار	-10.4078
قوا	-10.4078
▁شن	-10.408
pp	-10.4082
▁ge	-10.4089
▁gu	-10.4091
روج	-10.4094
جال	-10.4094
223	-10.4097
▁خصوصا	-10.41
▁johannes	-10.4101
▁رمضان	-10.4101
حاد	-10.4102
▁المعركه	-10.4103
ليت	-10.411
▁sc	-10.4112
jo	-10.4114
قرب	-10.4115
لستة	-10.412
280	-10.4121
berg	-10.4123
طير	-10.4123
▁عا	-10.4124
▁فرد	-10.4124
▁تقدم	-10.4125
▁بود	-10.4126
324	-10.4128
ana	-10.4132
263	-10.4132
▁القلعه	-10.4136
284	-10.4139
▁سابق	-10.4142
392	-10.4146
▁الشا	-10.4148
▁بإن	-10.4148
320	-10.4151
برضه	-10.4153
▁الملكى	-10.4159
اكى	-10.4164
▁عال	-10.4166
157	-10.4169
parent	-10.417
▁العالمى	-10.4171
▁العاشر	-10.4172
▁الاردن	-10.4172
293	-10.4178
▁أوائل	-10.4179
▁اغلب	-10.4179
▁مرمى	-10.4181
137	-10.4184
▁واست	-10.419
كرا	-10.4191
700	-10.4194
149	-10.4199
سباني	-10.4202
▁corneli	-10.4205
▁purp	-10.4205
▁1939	-10.4205
▁يعد	-10.4208
لقب	-10.4208
276	-10.4209
▁ve	-10.421
▁هاجر	-10.4214
▁ستر	-10.4214
غز	-10.4218
ers	-10.4222
▁عط	-10.4228
دام	-10.423
▁79	-10.4237
▁المدرسه	-10.4239
▁فريدريك	-10.4242
عمار	-10.4245
▁ظل	-10.4247
دينى	-10.425
▁مخ	-10.4254
▁اللا	-10.4256
دية	-10.4257
317	-10.4264
per	-10.4267
▁الانجليز	-10.4269
▁الكاتب	-10.4271
طلع	-10.4273
▁سمع	-10.4275
▁سجل	-10.4275
نش	-10.4285
▁بعدما	-10.4285
▁قمر	-10.4286
صلاح	-10.4288
▁صراع	-10.4292
▁تبقى	-10.4294
288	-10.4296
▁ديم	-10.4298
شق	-10.4299
لاحظ	-10.43
لاك	-10.43
▁tsu	-10.4301
اعادة	-10.4303
أو	-10.4305
135	-10.431
▁وحد	-10.4311
وچ	-10.4315
▁الرومانى	-10.4316
▁بص	-10.4319
رتبة	-10.4322
▁الشريف	-10.4322
450	-10.4324
194	-10.4324
▁فرع	-10.4329
▁معاك	-10.4334
ريوس	-10.4337
زال	-10.4338
▁jo	-10.434
▁تعليم	-10.4341
α	-10.4344
▁ڤيتشى	-10.4345
▁وحده	-10.4345
▁سميث	-10.4346
توس	-10.4347
122	-10.4352
دوب	-10.4358
اچ	-10.4359
▁اين	-10.4363
▁ليو	-10.4366
▁الأنبا	-10.4369
▁اليمن	-10.437
▁دينيه	-10.4371
sk	-10.4374
غي	-10.4374
▁مونت	-10.4377
▁تار	-10.4378
يريا	-10.4378
▁كارولاينا	-10.4379
▁فور	-10.4383
▁هولاكو	-10.4383
▁المتحف	-10.4386
لاس	-10.4389
▁طويل	-10.439
▁1930	-10.4395
سد	-10.4398
ier	-10.44
ino	-10.4405
▁لعبه	-10.4416
ran	-10.442
مَ	-10.4426
دينا	-10.4427
▁يوصل	-10.4432
▁75	-10.4433
فع	-10.4434
ازورو	-10.4437
213	-10.4439
ميس	-10.444
▁سعودى	-10.4441
▁2002.	-10.4442
▁التى	-10.4444
▁كويس	-10.4448
▁57	-10.4449
▁اعماله	-10.4452
▁النص	-10.4453
▁قدمت	-10.4454
▁يوهان	-10.4456
▁غالى	-10.4456
283	-10.4459
ترجم	-10.4463
▁اثر	-10.4464
▁لكنه	-10.4464
الأ	-10.4465
▁النوع	-10.4465
▁1937	-10.4472
”	-10.4472
▁1943	-10.4473
▁الكبيره	-10.4477
▁اشتغلت	-10.448
▁دايما	-10.4484
▁تقديم	-10.4485
302	-10.4486
we	-10.4487
147	-10.4496
ايف	-10.4497
اكا	-10.4498
برت	-10.4499
ano	-10.45
▁1920	-10.4505
183	-10.4506
ندر	-10.4506
▁مكتبة	-10.4509
حصول	-10.4512
375	-10.4512
▁حن	-10.4512
تولى	-10.4513
▁أوروبا	-10.4515
▁اعلن	-10.4516
حملة	-10.4517
ممثله	-10.4518
▁1941	-10.452
▁الصح	-10.4522
احة	-10.4522
لازم	-10.4524
ului	-10.4527
▁تشمل	-10.4527
▁hout	-10.4529
▁للع	-10.453
لد	-10.4534
▁مختلفه	-10.4535
▁الأدب	-10.4535
▁تلفزيون	-10.454
▁بيروت	-10.454
301	-10.454
ِّ	-10.4541
▁برج	-10.4542
الد	-10.4546
tin	-10.4548
شعار	-10.4551
▁ميس	-10.4552
▁cricket	-10.4556
162	-10.4558
راح	-10.4558
▁الحليم	-10.4563
جس	-10.4566
▁ليك	-10.4567
▁عدة	-10.457
▁سكوت	-10.4572
gen	-10.4572
مركز	-10.4574
800	-10.4575
▁لح	-10.4581
▁الجر	-10.4582
▁fi	-10.4583
▁عمليات	-10.4587
لام	-10.459
о	-10.4592
هو	-10.4593
عدم	-10.4594
سترا	-10.4594
▁خر	-10.4595
▁ستات	-10.4598
▁الزمن	-10.46
نطق	-10.4602
▁صيف	-10.4602
▁ميلاد	-10.4607
214	-10.461
فال	-10.4611
▁الجمهوريه	-10.4612
▁wa	-10.4613
▁سواء	-10.4614
▁خي	-10.462
▁عيش	-10.4624
285	-10.4628
▁كيتامى	-10.4628
▁مختلف	-10.4633
380	-10.4635
262	-10.4647
مكان	-10.4654
رغم	-10.4658
▁سفر	-10.4659
▁jos	-10.4659
ضحك	-10.4662
▁مثلت	-10.4667
▁الاتراك	-10.4667
▁david	-10.4667
▁الموت	-10.4668
▁حارس	-10.4674
▁شاعر	-10.4676
▁صغيرة	-10.4677
▁مدرس	-10.4677
وكا	-10.4681
▁اند	-10.4682
▁محطة	-10.4685
ائية	-10.4685
163	-10.4686
▁66	-10.4688
لينى	-10.469
▁پري	-10.4691
سوف	-10.4692
332	-10.4692
160	-10.4693
ساس	-10.4695
▁آن	-10.4696
▁الاحتلال	-10.47
242	-10.4703
هان	-10.471
▁مهما	-10.4711
▁أخد	-10.4712
مخرجة	-10.4715
▁آي	-10.4715
▁حاي	-10.4718
253	-10.4721
iu	-10.4724
▁الشاعر	-10.4729
لط	-10.473
▁بولندا	-10.4738
▁مكتب	-10.474
ik	-10.4741
▁التالته	-10.4744
200	-10.4748
▁روش	-10.475
▁اشتهرت	-10.4755
330	-10.4759
▁نيل	-10.4762
mann	-10.4762
ميت	-10.4762
▁بيوت	-10.4764
صدق	-10.4767
▁الجمال	-10.4767
وكس	-10.477
▁اصدار	-10.4774
▁الفرنسيه	-10.4774
ڤاليا	-10.4774
zo	-10.4775
سكى	-10.4775
ڤير	-10.4777
▁bi	-10.4779
▁اتباع	-10.4781
▁الجميل	-10.4781
238	-10.4781
▁شايف	-10.4783
▁؟	-10.4784
127	-10.4785
▁السا	-10.4785
فلسف	-10.4791
400	-10.4793
▁بتبقا	-10.4799
جات	-10.4806
410	-10.4806
▁هول	-10.4807
نوع	-10.4809
▁السلطات	-10.481
▁كريستيان	-10.481
فات	-10.481
بدا	-10.4811
▁الكل	-10.4811
nce	-10.4812
▁محاكم	-10.4813
eu	-10.4813
▁يعيش	-10.4818
ايت	-10.4818
رسم	-10.4819
▁غلب	-10.482
▁لحن	-10.4821
طف	-10.4831
▁1935	-10.4831
ساد	-10.4837
!	-10.4842
فيت	-10.4842
▁لبريطانيا	-10.4847
▁الكواكب	-10.4847
▁يسوع	-10.4849
▁الاعلام	-10.4849
▁العديد	-10.485
ini	-10.4851
▁احياء	-10.4852
yo	-10.4854
▁يونيو	-10.4856
ودى	-10.4857
▁السما	-10.4862
▁بوكس	-10.4863
195	-10.4864
vo	-10.4864
▁رأس	-10.4864
شم	-10.4866
سياس	-10.487
▁السبع	-10.4872
ii	-10.4873
355	-10.4875
يلي	-10.4876
بح	-10.4881
271	-10.4883
▁غلط	-10.4883
437	-10.4884
▁استاذ	-10.4885
▁اتعرض	-10.4891
ساك	-10.4892
my	-10.4895
â	-10.4898
212	-10.49
▁الاع	-10.4905
▁مصريين	-10.4907
▁باى	-10.4909
▁رام	-10.491
▁القوى	-10.4911
▁شار	-10.4915
▁59	-10.4916
▁دق	-10.4916
▁مبنى	-10.4919
▁الجمهور	-10.4919
▁فل	-10.492
▁88	-10.4923
430	-10.4923
▁ch	-10.4925
تينا	-10.4927
▁42	-10.4927
ضي	-10.4936
▁فرسان	-10.4936
▁قوانين	-10.4937
▁اليكس	-10.4938
151	-10.4943
▁الأراضى	-10.4955
▁رجعت	-10.496
▁الاوسط	-10.4961
▁العالى	-10.4965
▁دراسة	-10.4972
▁مكانه	-10.4973
▁الثقافة	-10.4976
خلص	-10.4977
▁ماريا	-10.4978
▁51	-10.4979
▁ثلاث	-10.498
اها	-10.4989
420	-10.4989
▁كيم	-10.4991
▁her	-10.4993
res	-10.4997
148	-10.4999
▁نفسهم	-10.5001
file	-10.5002
ung	-10.5007
قات	-10.5013
▁جوز	-10.5014
▁طفل	-10.5014
▁افكار	-10.5016
251	-10.5019
="30	-10.5022
▁سبيل	-10.5026
ائه	-10.503
▁عايش	-10.503
▁حوالي	-10.503
▁بحلول	-10.5032
▁كورة	-10.5034
asa	-10.5036
▁تنظيم	-10.5038
308	-10.5043
تري	-10.5043
▁68	-10.5044
▁الاعمال	-10.5047
▁سيتى	-10.5051
ستا	-10.5054
ناش	-10.5058
▁لون	-10.5059
▁جده	-10.506
▁منتج	-10.5062
▁لب	-10.5067
iz	-10.5067
جيو	-10.5068
▁زمن	-10.5069
286	-10.507
313	-10.507
795	-10.5075
▁وصول	-10.5077
har	-10.5077
سلاف	-10.5078
▁الجنوبية	-10.508
128	-10.5081
▁المو	-10.5094
صب	-10.5097
يجي	-10.51
زن	-10.5105
سهر	-10.5106
▁*	-10.5109
▁للفنون	-10.5111
وغ	-10.5113
▁41	-10.5113
وله	-10.5121
168	-10.5122
256	-10.5128
▁فيديو	-10.5131
▁89	-10.5131
سة	-10.5135
▁1934	-10.5138
rk	-10.5139
▁سنتين	-10.514
نص	-10.5142
▁لنا	-10.5147
▁بالله	-10.5147
▁ازاى	-10.5147
▁كوب	-10.5148
▁والب	-10.5151
▁الأن	-10.5152
▁البو	-10.5152
رياسة	-10.5153
▁ليبيا	-10.5154
▁محاول	-10.5155
جينى	-10.5159
▁السياحة	-10.516
وبا	-10.5162
وري	-10.518
▁توفي	-10.5181
ادة	-10.5182
▁شركات	-10.5183
▁واضح	-10.5185
▁الورد	-10.5189
ثار	-10.5191
▁حلمى	-10.5194
278	-10.5198
بورج	-10.5198
▁بتكون	-10.5201
▁99	-10.5202
▁مطرب	-10.5202
▁بدأت	-10.5206
▁الرسمى	-10.5208
▁روب	-10.5208
الك	-10.5211
▁76	-10.5211
جورج	-10.5215
▁لأنه	-10.5217
▁الكنايس	-10.5222
▁زعيم	-10.5222
196	-10.5224
▁جسم	-10.5226
▁أمريكا	-10.5228
376	-10.5232
248	-10.5237
▁لاس	-10.5239
الرغم	-10.5241
fr	-10.5242
186	-10.5247
▁وغيره	-10.5248
▁مجرد	-10.5248
▁صناعة	-10.525
396	-10.5252
▁خلي	-10.5257
second	-10.526
ريز	-10.5261
▁اشترك	-10.5265
296	-10.5265
ag	-10.5268
▁المعبد	-10.5269
▁53	-10.5274
351	-10.5276
▁لإ	-10.5277
▁شرف	-10.5277
▁روك	-10.5277
عتقد	-10.5283
▁الما	-10.5283
▁فول	-10.5284
افي	-10.5285
▁زكى	-10.5286
ايب	-10.5287
▁ماتكون	-10.5291
▁con	-10.5291
▁طرد	-10.5293
پان	-10.5294
طلاق	-10.5296
▁اعضاء	-10.5299
▁فيلموجرافيا	-10.53
نيه	-10.5302
زير	-10.5302
▁man	-10.5305
▁الاحزاب	-10.5305
▁رضا	-10.5306
▁شريف	-10.531
كش	-10.5313
▁نصر	-10.5316
▁أنت	-10.5317
▁قابل	-10.5317
ok	-10.532
▁المال	-10.5322
ينه	-10.5323
mar	-10.5324
▁كتيرة	-10.533
جيم	-10.5334
yu	-10.5337
▁اختيار	-10.5337
امير	-10.534
▁العلما	-10.5344
▁فولف	-10.5345
▁بسيطه	-10.5346
185	-10.5347
▁مالك	-10.5348
ونه	-10.5348
▁زاد	-10.5351
ياً	-10.5352
حقق	-10.5355
777	-10.5356
ent	-10.5357
▁مشهوره	-10.5362
▁en	-10.5363
نكا	-10.5363
لبس	-10.5364
▁المعلم	-10.5369
اجا	-10.537
▁كورن	-10.5373
رمز	-10.5374
▁المحل	-10.5375
▁تجديف	-10.5376
▁يمكن	-10.5376
nov	-10.5377
lli	-10.5379
▁موس	-10.5379
▁بدون	-10.5379
▁اخدت	-10.5382
▁سياسيه	-10.5383
حدث	-10.5386
▁شخصيات	-10.5389
بلاد	-10.5394
▁فرض	-10.5396
▁أور	-10.5398
▁احداث	-10.54
▁1924	-10.5403
▁المق	-10.5407
▁الحرف	-10.541
هُ	-10.541
י	-10.5415
8%	-10.5415
سافر	-10.5416
▁قديمه	-10.5416
▁امام	-10.5418
▁قادر	-10.5419
▁وإ	-10.542
▁العثمانيين	-10.5422
▁تانية	-10.5424
405	-10.5431
▁العالي	-10.5431
▁الاسره	-10.5432
ريم	-10.5434
▁الشهر	-10.5434
▁1918	-10.5437
▁أت	-10.5437
▁الفنى	-10.5441
▁مؤ	-10.5442
شرف	-10.5445
روف	-10.5445
▁البنات	-10.5445
▁الممثلة	-10.5448
▁خلاف	-10.5451
▁club	-10.5454
▁الاقباط	-10.5454
▁برامج	-10.5454
رتب	-10.5454
▁كلماتها	-10.5455
▁جراند	-10.5456
-1	-10.5457
▁القا	-10.5458
▁التطور	-10.546
▁بمصر	-10.5464
▁معاهدة	-10.5466
▁حلو	-10.5467
موند	-10.5468
▁عادل	-10.5469
311	-10.5471
ron	-10.548
▁الدورى	-10.5498
▁قصه	-10.55
▁شبرا	-10.5502
▁1923	-10.5502
بطاقة	-10.5504
▁الكبار	-10.5511
▁عربيه	-10.5519
▁بلاى	-10.5524
▁ضم	-10.5525
▁جواز	-10.5529
▁متسابق	-10.5532
▁عساكر	-10.5533
▁بطبيعة	-10.5533
▁صباح	-10.5533
حسب	-10.5533
▁القومى	-10.5534
kin	-10.5535
▁البورنوجرافية	-10.5536
▁الدراسات	-10.5538
▁الكسندر	-10.5538
▁مز	-10.554
لند	-10.5541
▁صورة	-10.5541
▁بيلعب	-10.5547
▁كيف	-10.5549
▁انجليزى	-10.5549
▁كوريا	-10.5549
حرق	-10.5552
حوالى	-10.5552
▁أربع	-10.5553
غار	-10.5559
ودا	-10.5559
نية	-10.5562
▁شاه	-10.5562
110	-10.5562
390	-10.5563
q	-10.5567
قيه	-10.5571
▁95	-10.5572
▁78	-10.5573
▁سياسي	-10.5573
▁ماتت	-10.5573
بطولة	-10.5575
123	-10.558
▁كلمه	-10.5581
261	-10.5582
469	-10.5582
▁43	-10.5585
143	-10.5586
▁الموصل	-10.559
ريت	-10.5594
▁والله	-10.5594
يزو	-10.5595
يص	-10.5604
▁كاف	-10.5604
▁بيتكلمو	-10.5606
حاول	-10.561
▁سيطر	-10.561
▁الوزرا	-10.5611
▁level	-10.5612
▁رمسيس	-10.5612
▁علينا	-10.5613
▁الرسول	-10.5613
▁خايف	-10.5615
▁أف	-10.5621
يجا	-10.5623
san	-10.5625
▁العثمانية	-10.5625
▁طويله	-10.563
▁gi	-10.5638
▁المسرحية	-10.5639
▁الصغير	-10.5641
▁أهل	-10.5646
241	-10.5648
▁مقدونيا	-10.5652
▁باد	-10.5659
▁صعب	-10.5663
▁بحيرة	-10.5664
▁كارا	-10.5666
▁العاصمة	-10.5669
ناه	-10.5671
121	-10.5675
سيج	-10.5677
108	-10.5684
▁سول	-10.5684
▁ضخم	-10.5687
وره	-10.5688
▁الاله	-10.5688
▁شك	-10.5689
▁or	-10.5691
▁بعنوان	-10.5692
▁بردو	-10.5692
▁أسقف	-10.5693
اليا	-10.5698
رأس	-10.5699
▁الجنوبيه	-10.57
▁مؤتمر	-10.5701
▁ليالي	-10.5701
▁جيف	-10.5703
ستير	-10.5708
500	-10.5709
لكورة	-10.5709
358	-10.571
راث	-10.571
=81	-10.5713
cct	-10.572
▁الاف	-10.5721
ec	-10.5721
▁السير	-10.5727
▁=	-10.573
فس	-10.5732
▁وايرلندا	-10.5732
▁domains	-10.5732
▁كتبه	-10.5732
181	-10.5732
مره	-10.574
▁حلب	-10.5745
▁تول	-10.5745
▁ميكا	-10.5745
الج	-10.5747
▁ستو	-10.5751
429	-10.5759
150	-10.5763
▁إبراهيم	-10.5764
vin	-10.5768
▁وغيرها	-10.5768
▁مول	-10.577
عوا	-10.577
▁ليتوانيا	-10.5772
с	-10.5772
▁جت	-10.5774
الح	-10.5777
790	-10.5783
▁sus	-10.5783
▁كفر	-10.5786
انيين	-10.5788
▁سقوط	-10.579
اندا	-10.5796
▁1928	-10.5796
▁معينه	-10.5798
312	-10.5802
▁الانجليزية	-10.581
▁حاجة	-10.5814
▁السماء	-10.5816
▁الكا	-10.5818
ترك	-10.5821
▁بوي	-10.5821
▁x	-10.5826
les	-10.583
رفض	-10.5833
كوڤا	-10.5834
▁المكسيك	-10.5839
▁ڤيل	-10.5839
پير	-10.584
ائها	-10.5842
▁قوة	-10.5842
▁موش	-10.5844
▁فلا	-10.5845
▁يقع	-10.5845
199	-10.5848
رحم	-10.5849
بني	-10.5849
▁العمال	-10.5849
ye	-10.5851
=213	-10.5855
161	-10.5857
▁بدايات	-10.5857
▁جواب	-10.5861
مدينة	-10.5865
▁بنفس	-10.5866
ثا	-10.5871
▁اير	-10.5872
▁فشل	-10.5872
▁التصوير	-10.5876
نسى	-10.5879
▁ليس	-10.588
▁بوس	-10.5883
ورث	-10.5884
▁ادو	-10.5886
▁ستا	-10.5886
ita	-10.5888
▁لونج	-10.5888
▁بسرعه	-10.5894
▁وشارك	-10.5897
▁الفرد	-10.5897
▁للمر	-10.5898
طة	-10.5899
▁قلت	-10.59
▁va	-10.5902
لاب	-10.5902
منى	-10.5906
▁شب	-10.5907
▁المفتوحه	-10.591
▁ملكة	-10.591
عقد	-10.5916
ائر	-10.5917
▁جاي	-10.5923
▁for	-10.5927
شهر	-10.5927
▁المرض	-10.5934
كتشف	-10.5937
▁قدرت	-10.5938
316	-10.5938
وقع	-10.595
تغيير	-10.5955
▁حمام	-10.5956
▁سپ	-10.5957
▁شغلها	-10.5957
ology	-10.596
يقه	-10.596
▁بأنه	-10.5962
▁شاهين	-10.5964
صنع	-10.5966
▁2006.	-10.597
ويين	-10.597
=143	-10.5975
منطقة	-10.5975
ā	-10.5976
▁)،	-10.5977
▁موسم	-10.598
حص	-10.5984
▁سكر	-10.5988
428	-10.5991
270	-10.5993
لور	-10.5994
chen	-10.5997
▁اصدر	-10.5997
kov	-10.6
▁التاريخيه	-10.6002
فرض	-10.6005
لهم	-10.6007
▁fr	-10.6007
ish	-10.6008
ڤان	-10.6009
▁رمز	-10.6012
▁اقول	-10.6012
▁بقية	-10.6012
كتر	-10.6013
▁المخ	-10.6014
ü	-10.6017
ک	-10.6017
درو	-10.6018
▁لجنة	-10.6023
▁ارتفاع	-10.6023
▁جرين	-10.6024
كيم	-10.6029
▁اتنقل	-10.6034
▁طريقة	-10.6034
▁وقع	-10.6039
af	-10.6039
249	-10.6042
▁ليله	-10.6044
يخ	-10.6045
▁200	-10.6046
tz	-10.605
▁الفر	-10.6051
جنوب	-10.6051
▁شل	-10.6055
▁العسكرى	-10.6057
▁براون	-10.6057
▁ber	-10.6059
▁اسپانيا	-10.6059
460	-10.6059
▁sp	-10.606
▁دب	-10.6063
▁معاها	-10.6065
ِي	-10.6069
وجو	-10.6071
قصر	-10.6075
▁نطاق	-10.6079
▁بيكر	-10.6079
تعلم	-10.6082
▁العقل	-10.6082
▁كوست	-10.6082
▁الانتاج	-10.6087
▁فلما	-10.6089
زور	-10.6099
▁الشوارع	-10.6101
▁الاطفال	-10.6101
▁العثمانى	-10.6101
cha	-10.6102
ant	-10.6105
▁تب	-10.6106
▁ستار	-10.6106
▁تخرج	-10.6106
by	-10.6109
ڤيل	-10.6112
▁حجر	-10.6112
▁الرسميه	-10.6114
غان	-10.6116
امي	-10.6117
▁1932	-10.6117
360	-10.6117
▁پول	-10.6118
▁السلطة	-10.6122
▁رومان	-10.6125
dia	-10.6125
▁البرازيل	-10.6125
▁أقل	-10.6128
كوف	-10.6134
▁انجل	-10.6134
سف	-10.6139
▁ab	-10.6141
نوب	-10.6141
▁اسلام	-10.6142
▁اينداتى	-10.6142
يهم	-10.6143
▁رواية	-10.6143
▁أدوار	-10.6145
شتي	-10.6147
▁الاسلامية	-10.6147
▁اعلان	-10.6148
198	-10.615
▁حين	-10.6152
▁نقطة	-10.6154
▁ترو	-10.6154
▁تاكا	-10.6154
وقف	-10.6155
▁fo	-10.6157
باس	-10.6159
▁بريت	-10.6159
▁بشر	-10.6159
▁قنا	-10.6162
حافظ	-10.6165
164	-10.6166
▁دعا	-10.6168
▁الدير	-10.6169
378	-10.617
خير	-10.6171
عترف	-10.6171
362	-10.6171
▁1917	-10.6174
▁انجيل	-10.6175
▁ارت	-10.6178
دوم	-10.6184
▁بدا	-10.6184
▁كوبينهاجين	-10.6184
▁ويندوز	-10.6184
▁أعلن	-10.6185
▁انتهى	-10.6188
▁الجامعات	-10.6192
ئة	-10.6194
nes	-10.6198
▁المل	-10.6198
354	-10.6203
▁خدت	-10.6206
▁الغناء	-10.6215
336	-10.6215
طبيع	-10.6215
▁عكس	-10.622
▁الظروف	-10.6227
▁قصص	-10.6227
▁فرنساوى	-10.6229
▁كري	-10.6231
▁لق	-10.6238
▁النبي	-10.6241
باقى	-10.6242
▁أرض	-10.6245
bar	-10.6249
▁وبال	-10.6249
▁أغ	-10.625
جميع	-10.6251
tro	-10.6252
▁الموقع	-10.6254
▁mc	-10.6255
▁عايشين	-10.6256
وطن	-10.6258
▁زوج	-10.6259
طبق	-10.626
حياة	-10.6268
ستو	-10.6271
hen	-10.6273
▁مرسى	-10.6277
▁ناحية	-10.6277
▁قاعد	-10.628
▁جعل	-10.6282
▁حت	-10.6282
يمين	-10.6286
نادي	-10.6288
▁خليج	-10.6291
▁وجد	-10.6292
▁الجسم	-10.63
جيه	-10.6304
tic	-10.6307
▁بخصوص	-10.6312
هزيمة	-10.6312
جت	-10.6312
fe	-10.6313
▁السبب	-10.6316
▁كأس	-10.6317
▁دعم	-10.6322
▁كوك	-10.6324
▁بوش	-10.6325
han	-10.6329
▁ودا	-10.6329
▁قديم	-10.6338
▁عامل	-10.6343
356	-10.6344
رخ	-10.635
▁المشهور	-10.635
▁طريقه	-10.6352
ميد	-10.6353
▁مارجرجس	-10.6354
▁مينيسوتا	-10.6354
ey	-10.6355
▁اكت	-10.6359
▁رق	-10.6361
114	-10.6361
غلب	-10.6366
▁البطوله	-10.6372
▁الملكية	-10.6376
799	-10.6377
▁بع	-10.6381
hr	-10.6382
▁pro	-10.6387
▁للملك	-10.639
ابن	-10.639
▁اكتشاف	-10.6394
▁73	-10.6396
▁تقريبا	-10.6397
σ	-10.6397
▁التامن	-10.6398
ّر	-10.6399
▁شم	-10.6401
جاس	-10.6404
▁عبيد	-10.6404
ركب	-10.6408
▁1914	-10.6412
▁الحلو	-10.6416
▁قبض	-10.6417
ميه	-10.6417
▁النادى	-10.6424
▁per	-10.6427
▁ادم	-10.643
▁84	-10.643
▁دوره	-10.6438
دق	-10.644
▁الشيوخ	-10.644
رشح	-10.6441
▁تد	-10.6443
▁معركه	-10.6444
▁بيحب	-10.6449
والد	-10.6452
292	-10.6455
▁تك	-10.6455
▁ماري	-10.6455
▁مؤسسة	-10.6457
تعامل	-10.6457
▁مدرب	-10.646
▁حلف	-10.6461
نفس	-10.6463
ارث	-10.6465
▁وافق	-10.6473
ضطر	-10.6473
▁البورنوجرافيا	-10.6478
▁الدينية	-10.6478
▁الشوق	-10.6478
خدم	-10.648
▁إخراج	-10.6484
▁كوباياشى	-10.6484
▁روحي	-10.6484
▁سينما	-10.6484
▁الحي	-10.6485
▁علاقة	-10.6486
▁رسم	-10.6487
▁تحقيق	-10.6493
▁دورى	-10.6494
▁تعرف	-10.6495
▁هام	-10.6497
▁الحيوانات	-10.6497
▁يقوم	-10.65
طعم	-10.6501
▁الأمريكية	-10.6504
▁البرنامج	-10.6505
قابل	-10.6505
دس	-10.6506
▁دوم	-10.6507
▁har	-10.651
one	-10.6515
نيو	-10.6518
▁ريو	-10.6529
▁am	-10.6533
بريت	-10.6534
لغه	-10.6536
▁الفارسى	-10.6539
▁يعني	-10.6541
▁بيتكون	-10.6546
حام	-10.6547
▁السجن	-10.6548
384	-10.6552
▁أغنية	-10.6558
wi	-10.6564
▁١٩	-10.6564
سائل	-10.6564
لحن	-10.6565
▁جلال	-10.6568
▁بيعمل	-10.6569
ويزومى	-10.6573
▁مصدر	-10.6573
▁والج	-10.6573
▁البطولة	-10.6577
ker	-10.6578
باك	-10.658
ee	-10.658
▁اثار	-10.6587
▁ومنتج	-10.6587
ديو	-10.6591
پل	-10.6593
458	-10.6596
▁رع	-10.6605
شهد	-10.6607
ائيه	-10.6607
▁الرجاله	-10.6609
ابر	-10.661
▁الفرنساويه	-10.6615
▁سيناريو	-10.6615
مول	-10.6617
▁الابن	-10.6622
طين	-10.6625
▁البيض	-10.6625
▁جى	-10.6626
علي	-10.6626
▁os	-10.6627
457	-10.6627
▁نف	-10.6631
▁العربان	-10.6632
▁عسكر	-10.6634
تنازل	-10.6635
▁البطريرك	-10.6636
▁طور	-10.6637
▁تست	-10.6637
▁هد	-10.6638
▁التلاته	-10.6639
▁طل	-10.6641
br	-10.6641
ell	-10.6641
▁الجواز	-10.6642
مدينه	-10.6642
جيك	-10.6647
▁cla	-10.6648
شبكة	-10.6648
ولوجيا	-10.6649
▁پلا	-10.6649
▁عملو	-10.6654
فرانك	-10.6655
▁الغزو	-10.6655
▁جيسى	-10.6656
▁شيرنيخ	-10.6659
е	-10.6659
▁الصغرى	-10.6659
▁قائم	-10.6659
▁قيام	-10.6659
▁الستاشر	-10.666
▁انتشار	-10.6662
▁87	-10.6667
يوسف	-10.6668
▁حكام	-10.6673
▁par	-10.6674
ذن	-10.6675
▁الموج	-10.6675
مرتبة	-10.6677
▁الطا	-10.6677
▁1922	-10.668
ice	-10.6684
روض	-10.6684
▁الزمان	-10.6685
عاش	-10.6686
▁الدينى	-10.6695
اذ	-10.6696
▁مستشفى	-10.6697
▁التو	-10.6699
محمود	-10.6699
▁1933	-10.6699
▁توصل	-10.6701
211	-10.6702
رينا	-10.6708
▁الاثار	-10.6709
▁توت	-10.6709
طيار	-10.6709
▁96	-10.671
▁أحد	-10.6714
تفوق	-10.6714
خلي	-10.672
▁كتابة	-10.6723
خص	-10.6724
▁البحريه	-10.6724
▁البريطانية	-10.6726
men	-10.673
توم	-10.673
ذهب	-10.6736
▁الخاصة	-10.6737
وفر	-10.6737
▁الوطني	-10.6737
=78	-10.6744
تطور	-10.6745
▁پرو	-10.6747
▁ڤينيسيا	-10.6748
▁التراث	-10.6752
▁أبي	-10.6752
▁1925	-10.6753
▁اكثر	-10.6755
▁موظف	-10.6756
▁نادر	-10.6756
▁اتش	-10.6759
▁pri	-10.676
نف	-10.6761
▁ترتيب	-10.6761
▁عدو	-10.6766
كره	-10.6767
▁الكتابه	-10.6768
▁1927	-10.6768
وارد	-10.6769
▁درست	-10.6772
▁وله	-10.6773
▁cha	-10.6775
353	-10.6776
▁الحركة	-10.6779
▁الطرق	-10.6781
راز	-10.6782
▁رواد	-10.6782
ديان	-10.6783
▁كلا	-10.6783
▁الشعبية	-10.6785
رية	-10.6789
▁شفيق	-10.6792
▁المعاصر	-10.6793
يجو	-10.6795
▁الهلال	-10.6796
الو	-10.68
▁حصن	-10.68
▁التجارة	-10.6802
▁القوانين	-10.6807
▁لاف	-10.6808
▁الداخلية	-10.6809
▁منح	-10.6813
▁كارلوس	-10.6813
تتكون	-10.6813
ورة	-10.6816
145	-10.6817
يوب	-10.6818
تأثر	-10.6818
▁أعلى	-10.682
▁مؤرخ	-10.6821
ائم	-10.6822
nia	-10.6826
يقة	-10.6826
باء	-10.6828
▁السو	-10.683
▁هجوم	-10.683
▁بحبك	-10.6834
▁ويسكونسين	-10.6837
▁روايات	-10.6837
ريح	-10.6843
سعد	-10.6847
▁بيتسم	-10.6848
▁fran	-10.6848
▁المؤتمر	-10.685
▁طويلة	-10.6852
▁مدارس	-10.6853
▁يطلع	-10.6854
▁نيس	-10.6855
▁فض	-10.6858
▁تولى	-10.6858
▁يدخل	-10.6859
if	-10.686
▁مهندس	-10.6863
ney	-10.6865
▁الرقص	-10.6866
ايه	-10.6867
سوب	-10.6869
جاد	-10.6872
▁قلبك	-10.6873
▁خبر	-10.6875
ثي	-10.6876
▁التم	-10.6877
بحث	-10.6878
صال	-10.6881
جيت	-10.6883
▁الحقيقي	-10.6883
▁المسلسل	-10.6884
▁العلاقات	-10.6884
▁شق	-10.6887
▁تانيين	-10.6891
▁بلادى	-10.6891
▁william	-10.6894
▁برد	-10.6896
▁فروع	-10.6896
▁63	-10.6897
ـــــ	-10.6905
up	-10.6907
▁الأوروبية	-10.6908
▁كريست	-10.6908
تسمية	-10.691
لمواقع	-10.6912
▁الكبيرة	-10.6916
▁خلص	-10.6918
449	-10.6918
سواق	-10.6919
▁عقل	-10.6926
▁البحث	-10.6927
▁فهمى	-10.6928
عكس	-10.6928
▁فرانسيسكو	-10.6929
اتو	-10.6929
▁انتصار	-10.6934
طرد	-10.6937
▁2001.	-10.6938
▁86	-10.694
تعرف	-10.6942
▁97	-10.6942
▁كوز	-10.6943
▁چا	-10.6944
397	-10.6945
قيد	-10.6946
ائي	-10.6948
▁تشكيل	-10.6952
▁يلعب	-10.6954
▁ريم	-10.6957
▁جانب	-10.696
ألم	-10.6964
▁خو	-10.6964
140	-10.6964
عى	-10.6965
▁اليابانى	-10.6968
▁كمل	-10.6971
ممثل	-10.6972
gr	-10.6975
▁الصور	-10.6977
جعل	-10.6978
اليه	-10.698
▁متوسط	-10.6985
▁الاخ	-10.6985
طان	-10.699
▁الاح	-10.6993
▁طبع	-10.6993
ze	-10.6995
تعرض	-10.6997
▁يهود	-10.6998
▁جوزيف	-10.7
419	-10.7001
▁2012.	-10.7003
▁الجيم	-10.7006
▁هيه	-10.7009
șu	-10.701
▁مساحتها	-10.7011
▁تقدر	-10.7011
=171	-10.7016
▁نحو	-10.7017
رحل	-10.7017
▁ايسلاندا	-10.7018
▁مؤلفاته	-10.7019
چى	-10.702
130	-10.7021
▁الامارات	-10.7021
▁تصميم	-10.7023
401	-10.7024
▁الصيف	-10.7025
▁للستات	-10.7028
▁دراسته	-10.7031
حدش	-10.7032
ثبت	-10.7033
▁بيح	-10.7033
▁أخ	-10.7037
▁الاكل	-10.7038
ندي	-10.7042
qu	-10.7042
▁انور	-10.7052
▁بيتم	-10.7052
▁التن	-10.7055
▁غا	-10.7055
▁الاربعه	-10.7056
▁الصوت	-10.706
لكن	-10.706
ڤيتسا	-10.7064
▁الاتناشر	-10.7064
▁التليفزيون	-10.7064
▁طوكيو	-10.7064
ven	-10.7072
lar	-10.7074
▁اتسبب	-10.7083
▁والك	-10.7087
sy	-10.7089
زق	-10.7091
ليان	-10.7092
▁وقعت	-10.7093
سام	-10.7094
▁ke	-10.7096
▁شاب	-10.71
nu	-10.71
حرم	-10.7104
▁منزل	-10.7106
ó	-10.711
▁حلم	-10.7112
تحدث	-10.7114
هير	-10.7114
▁الشمالى	-10.7118
ap	-10.7119
لوب	-10.712
سيطرة	-10.7122
▁تصوير	-10.7125
نفذ	-10.7126
▁بني	-10.7127
الله	-10.7127
▁منصور	-10.7127
▁غنت	-10.7131
▁لام	-10.7133
مملكة	-10.7138
459	-10.7141
▁تخ	-10.7145
lov	-10.7146
▁الرجال	-10.7147
▁هجر	-10.7147
«	-10.7152
▁تشو	-10.7152
tre	-10.7158
▁تسجيل	-10.7158
رفع	-10.7158
▁انو	-10.7159
▁للقو	-10.7163
▁الثانوية	-10.7164
قرر	-10.7166
▁المجتمعات	-10.7169
مجلس	-10.7174
▁أمير	-10.7176
كرم	-10.7177
▁الدوليه	-10.7179
سبب	-10.7186
وكالة	-10.7186
art	-10.719
▁ver	-10.7191
▁طه	-10.7198
▁زغلول	-10.7203
▁الجزائر	-10.7204
▁الفلك	-10.7204
تمثيل	-10.7204
▁لعبة	-10.7207
bot	-10.7211
▁احتلال	-10.7215
▁موج	-10.7221
▁العز	-10.7221
tia	-10.7224
▁أكد	-10.723
ّل	-10.7232
▁سنت	-10.7237
وسط	-10.7237
▁حروب	-10.7243
دعى	-10.7245
▁عهده	-10.7249
▁station	-10.725
▁petr	-10.725
910	-10.7251
ليش	-10.7251
▁الفنيه	-10.7252
▁عيلته	-10.7252
▁مثلا	-10.7255
▁حرية	-10.7256
▁بيحصل	-10.7256
▁عيله	-10.7258
▁اكل	-10.726
ئية	-10.7262
fer	-10.7264
▁بيتكلم	-10.7266
▁لونكا	-10.7275
▁عامة	-10.7277
▁الاربع	-10.7279
▁حرام	-10.7281
ip	-10.7282
▁مض	-10.7285
فرو	-10.7286
▁سكن	-10.7291
cr	-10.7291
▁شت	-10.7291
▁وعد	-10.7292
تحكم	-10.7292
▁الاسكندرية	-10.7294
▁ابي	-10.7295
▁دليل	-10.7295
▁ويمبلدون	-10.7297
▁bre	-10.7299
379	-10.7302
rie	-10.7304
115	-10.7305
468	-10.7307
▁نظم	-10.7311
▁صنع	-10.7313
▁500	-10.7315
▁pu	-10.7317
▁الحركه	-10.7318
▁نسب	-10.7318
عرب	-10.7321
▁اتعلم	-10.7323
يفا	-10.7324
▁بالك	-10.7326
▁غنى	-10.7327
▁1908	-10.7329
▁ديف	-10.7331
▁انتشرت	-10.7333
▁الامن	-10.7334
▁del	-10.7337
▁بالع	-10.7338
mel	-10.734
تغير	-10.7342
[[	-10.7343
▁الشهير	-10.7346
صالح	-10.7347
▁النواب	-10.7348
اندى	-10.735
تحديد	-10.735
▁اون	-10.7351
تنقل	-10.7353
▁الاستاد	-10.7356
تزوج	-10.7358
▁1931	-10.7359
▁1921	-10.736
don	-10.7362
▁صار	-10.7366
▁نينتندو	-10.7367
تشين	-10.7369
▁250	-10.7375
▁“	-10.7375
▁الثانية	-10.7378
▁بنفسه	-10.7382
▁antonín	-10.7391
▁نجح	-10.7394
طى	-10.7397
▁البن	-10.7397
▁الشخصية	-10.7397
ائع	-10.7398
حبيب	-10.7402
▁الوطن	-10.7403
سية	-10.7407
ليون	-10.741
oc	-10.7414
پى	-10.7416
▁كونت	-10.7421
شعر	-10.7424
▁أعضاء	-10.7424
146	-10.7428
صن	-10.7435
▁ste	-10.7435
az	-10.7437
▁تضم	-10.7439
▁بط	-10.744
▁رئيسى	-10.744
عصر	-10.7449
▁الاقتصادى	-10.745
▁اندرو	-10.7455
▁بيهم	-10.7455
صبح	-10.7456
660	-10.7458
con	-10.746
▁السعيد	-10.7462
▁ورئيس	-10.7465
خلف	-10.7466
▁الكور	-10.7467
455	-10.7467
▁هاي	-10.7468
406	-10.7471
king	-10.7472
تكون	-10.7474
ther	-10.7482
فول	-10.7483
▁1900	-10.7487
▁الحالى	-10.7488
▁والق	-10.7491
تشور	-10.7492
جيا	-10.7492
ذل	-10.7497
▁استقر	-10.7498
▁الوزراء	-10.7499
0.000	-10.75
بعدين	-10.7504
▁طال	-10.7505
خطر	-10.7505
▁قرا	-10.7505
خذ	-10.7509
▁مجتمع	-10.7511
لاف	-10.7512
▁وزرا	-10.7512
▁98	-10.7516
▁هات	-10.752
تابع	-10.7523
▁ايفان	-10.7529
▁بلجاريا	-10.7535
▁الكاتوليك	-10.754
الس	-10.7544
لاعب	-10.7547
▁القوميه	-10.7555
▁بوز	-10.7555
تيم	-10.7555
▁74	-10.7555
ef	-10.7558
خاطر	-10.7558
ديك	-10.756
▁الجم	-10.7562
▁الامام	-10.7565
▁ودى	-10.7566
▁أخت	-10.7566
▁امرا	-10.7571
سقط	-10.7574
954	-10.7575
ate	-10.7578
▁بالأ	-10.758
قضي	-10.7583
=199	-10.7583
▁بالذات	-10.7583
تعمل	-10.7583
▁دراسات	-10.7584
مارك	-10.7587
▁عبدالله	-10.7588
وذ	-10.7589
▁رشيد	-10.7589
ريل	-10.759
▁اليونانى	-10.7593
▁إدارة	-10.7594
يران	-10.7594
▁fu	-10.7599
حط	-10.7601
▁ترجم	-10.7602
398	-10.7603
▁سجن	-10.7612
▁موسكو	-10.7612
▁ستين	-10.7615
▁الحجر	-10.7615
يتهم	-10.7616
▁صديق	-10.7616
فاف	-10.7616
يسون	-10.7619
تصل	-10.7624
▁مدرسه	-10.7625
463	-10.763
▁yu	-10.763
راش	-10.7632
مونت	-10.7636
▁الثانى	-10.7638
▁نعم	-10.7638
▁الڤايكينج	-10.7639
▁المصادر	-10.764
يشوارا	-10.7641
▁مايكروسوفت	-10.7641
ڤيس	-10.7642
▁زينب	-10.7644
صاحب	-10.7645
▁اهتمام	-10.7645
▁ساد	-10.7645
بورت	-10.7646
▁مُ	-10.7648
طبع	-10.765
مسك	-10.765
دز	-10.7652
▁77	-10.7653
سخ	-10.7654
▁دنيا	-10.7655
▁شخصيه	-10.7659
اجيوس	-10.7659
▁وقام	-10.7662
▁المنيا	-10.7664
▁شين	-10.7665
▁غنا	-10.7666
▁جوزها	-10.7668
▁العباس	-10.767
شهرستان	-10.7674
▁الشارع	-10.7674
ž	-10.768
▁حبايب	-10.7682
▁اتبنت	-10.7685
القرب	-10.7685
142	-10.7686
431	-10.7689
▁أمين	-10.769
كاتب	-10.769
▁قليل	-10.7699
▁مسلمين	-10.7706
▁موقف	-10.7709
▁سمو	-10.771
788	-10.7712
▁وَ	-10.7713
▁معنى	-10.7714
خاف	-10.7714
دعو	-10.7714
445	-10.7716
144	-10.7718
▁فخر	-10.7721
كلية	-10.7723
▁خلق	-10.7725
تكلم	-10.7727
ّه	-10.7729
▁mrkos	-10.7729
▁پويانا	-10.773
▁محور	-10.773
▁جنس	-10.7732
داب	-10.7733
▁اغتيال	-10.7735
▁تان	-10.7736
▁نيكول	-10.7737
▁القدر	-10.7739
▁تأ	-10.774
201	-10.7744
ling	-10.7744
▁سلاح	-10.7745
روز	-10.7748
▁ويست	-10.775
▁اتولى	-10.7754
▁مجموعات	-10.7756
▁حجم	-10.776
▁ri	-10.7761
gar	-10.7761
آن	-10.7763
▁بانه	-10.7764
▁علما	-10.7766
▁اهتم	-10.7768
▁الموسيقية	-10.7771
▁أصدر	-10.7771
stan	-10.7774
فرج	-10.7775
كيس	-10.7777
▁بريطانية	-10.7779
▁اعتبر	-10.7782
▁أبرز	-10.7784
زيك	-10.779
ميش	-10.779
win	-10.7791
▁المعلومات	-10.7792
▁دام	-10.7792
▁الأخير	-10.7793
▁اللبنانيه	-10.7793
▁البيزنطيين	-10.7796
ويو	-10.7797
sky	-10.7798
▁پر	-10.7802
رؤ	-10.7811
بلد	-10.7812
▁أعماله	-10.7816
▁الرجل	-10.7818
سال	-10.782
▁تُ	-10.7823
▁حبي	-10.7827
▁مسيحيين	-10.7829
▁ابتدى	-10.7834
ثور	-10.7837
▁اليمين	-10.7841
ناظر	-10.7841
▁جورا	-10.7844
أت	-10.7846
ظل	-10.7848
▁معارك	-10.7849
نشط	-10.785
▁2021	-10.7852
gra	-10.7852
▁دكتور	-10.7853
ريج	-10.7854
وكى	-10.7862
زاد	-10.7865
▁1929	-10.7868
يكي	-10.7868
▁الحد	-10.7871
,000	-10.7871
▁الصراع	-10.7873
كوك	-10.7874
▁الحسن	-10.7875
fl	-10.7876
▁ألبوم	-10.7878
="31	-10.7878
▁ميشيل	-10.7879
▁الوفد	-10.788
▁تحديد	-10.788
▁البرتغال	-10.7884
▁باك	-10.7887
ساو	-10.7891
شجع	-10.7891
دافع	-10.7892
تعيين	-10.7895
محافظه	-10.7895
▁مشترك	-10.7897
▁اغنية	-10.7903
▁ديالو	-10.7903
دوس	-10.7903
▁اصحاب	-10.7904
ura	-10.7904
▁القدام	-10.7904
▁ساهم	-10.7905
▁امريكانى	-10.7915
عش	-10.7916
▁مغ	-10.7917
▁مايك	-10.7922
▁هر	-10.7923
وعد	-10.7927
▁ثابت	-10.7928
▁مراكز	-10.7928
▁hol	-10.7929
▁منع	-10.793
▁الابيض	-10.7931
حضر	-10.7932
▁يوجين	-10.7933
لمدينة	-10.7937
▁سيمون	-10.7939
نصر	-10.7943
▁فإ	-10.7947
▁كيلو	-10.7949
▁1912	-10.7951
▁تاي	-10.7951
▁عل	-10.7953
▁إم	-10.7954
▁خلى	-10.7956
▁ديال	-10.7956
▁فاكر	-10.7957
▁مالي	-10.7958
حسين	-10.7963
ساحة	-10.7963
▁مسلم	-10.7966
▁تف	-10.7966
▁ستان	-10.7966
030	-10.7967
▁الحج	-10.7971
810	-10.7972
▁تغيير	-10.7976
▁الضرايب	-10.7978
أراضى	-10.7979
▁تعال	-10.7983
▁ثور	-10.7983
تول	-10.7986
▁التسلسل	-10.7986
هول	-10.7993
993	-10.7998
▁الصحرا	-10.8002
▁اتلقب	-10.8004
▁za	-10.8006
▁العادل	-10.8008
▁سمح	-10.8009
▁وكاتب	-10.8013
ينس	-10.8016
▁ادوار	-10.8016
يكون	-10.8017
صاف	-10.8018
▁دانيال	-10.8022
oh	-10.8022
قفل	-10.8023
اشو	-10.8023
▁الفرق	-10.8026
▁أدى	-10.8028
▁han	-10.803
▁vo	-10.8036
▁ديان	-10.8039
▁ايج	-10.804
▁المحكمة	-10.8042
▁الاسكندر	-10.8043
اكتر	-10.8044
▁بقوا	-10.8045
▁الراجل	-10.8047
▁بون	-10.8047
قطاع	-10.8052
▁اليونانيه	-10.8053
ub	-10.8067
▁الطيب	-10.8068
453	-10.807
▁شافت	-10.8072
▁الأمم	-10.8073
▁المهندس	-10.8075
فاض	-10.8075
زهر	-10.8076
gan	-10.8083
برى	-10.8083
mes	-10.8087
▁ضخمه	-10.8087
▁ce	-10.8088
▁الصوديوم	-10.8092
▁نجوم	-10.8095
▁الشخصيات	-10.8098
كيد	-10.81
▁اوك	-10.8106
▁موريس	-10.8107
▁عايزين	-10.8108
▁موطن	-10.8108
▁رين	-10.8108
rea	-10.8112
اوتسى	-10.8114
▁الذهب	-10.8114
801	-10.8115
▁مقدم	-10.8117
▁دعو	-10.8118
كير	-10.8118
▁واصل	-10.812
ach	-10.812
▁اكمن	-10.8121
nic	-10.8122
▁عبده	-10.8128
▁بحب	-10.813
▁العثمانليه	-10.8131
▁عاصمه	-10.8131
▁الفنانين	-10.8133
▁بيرلين	-10.8135
▁نظرية	-10.8136
▁الطويل	-10.8138
▁الإسلام	-10.8139
▁كيو	-10.8139
▁ساند	-10.814
▁أقدم	-10.8142
▁بيبقى	-10.8148
سكن	-10.8151
متحف	-10.8152
454	-10.8152
▁التق	-10.8155
▁الاولانيه	-10.8158
▁فراح	-10.8163
▁يكتب	-10.8164
des	-10.8166
▁يابانى	-10.8166
شيو	-10.8168
▁الدي	-10.8169
▁عينى	-10.8175
▁كورت	-10.8177
اهل	-10.8177
▁شهد	-10.8178
▁فكانت	-10.8179
فعل	-10.818
يلهيلم	-10.8183
▁اتعرضت	-10.8193
▁تسم	-10.8196
قيل	-10.8196
▁مرتبط	-10.8198
▁جيوش	-10.8199
▁الطفل	-10.8203
عدل	-10.8203
▁خطر	-10.8206
van	-10.8211
مغني	-10.8214
▁că	-10.8216
890	-10.8221
فية	-10.8221
▁قضى	-10.8222
▁بتس	-10.8223
ينجتون	-10.8224
▁فقال	-10.8227
تخرج	-10.8228
▁ضي	-10.8231
▁البحرية	-10.8241
▁تمثال	-10.8245
▁عيسى	-10.8247
ارس	-10.825
▁سانتا	-10.8252
▁216	-10.8253
▁عذاب	-10.8255
▁ناحيه	-10.8256
دارى	-10.8257
▁مسلسلات	-10.8268
rt	-10.8275
▁الحاج	-10.8277
قاعدة	-10.8277
تني	-10.8278
▁جيت	-10.8279
▁دمر	-10.828
حور	-10.8283
▁العم	-10.8284
رصاص	-10.8285
▁موليير	-10.8285
skij	-10.8286
▁الرهبان	-10.8287
▁سامى	-10.8289
مكانها	-10.829
▁متجوز	-10.829
cher	-10.8291
▁سوق	-10.8292
▁دايم	-10.8292
▁اسباب	-10.8293
▁طبيب	-10.8295
▁جماعة	-10.8297
▁2022	-10.8304
رئيس	-10.8304
▁ريك	-10.8304
▁حدث	-10.8305
▁مهمة	-10.8306
ola	-10.8306
▁عزل	-10.8307
▁ولايه	-10.8307
▁الكريم	-10.831
▁جميع	-10.8311
iv	-10.8312
▁اللعب	-10.8312
اسماعيل	-10.8314
▁حروف	-10.8318
أول	-10.8323
í	-10.8327
▁مغنى	-10.833
▁قاله	-10.833
471	-10.8332
ue	-10.8333
▁حديث	-10.8334
عزل	-10.8334
▁اسر	-10.8336
▁والف	-10.8336
▁بارسلونا	-10.8337
▁ألحان	-10.8337
▁team	-10.8338
▁وليام	-10.8339
▁وهناك	-10.8339
▁راحت	-10.834
▁اسقف	-10.8342
▁العباسى	-10.8345
▁بيعتقد	-10.8348
▁يستخدم	-10.8348
▁يزيد	-10.8351
▁كاز	-10.8352
▁البي	-10.8362
صة	-10.8369
صيد	-10.837
▁1907	-10.8374
ممثلة	-10.8374
hy	-10.8377
▁بالخصوص	-10.8379
▁العابر	-10.8388
▁بيلا	-10.8388
▁اجزاء	-10.839
▁تحول	-10.8392
غط	-10.8393
▁جهاز	-10.8394
▁ومات	-10.8399
og	-10.84
عام	-10.8402
عاهد	-10.8403
طاق	-10.8407
صه	-10.8409
▁غني	-10.8409
ița	-10.8411
▁صب	-10.8413
▁اليهودية	-10.8416
▁الأصل	-10.8416
▁بيتش	-10.8423
ّي	-10.8423
▁1916	-10.8424
381	-10.8424
ربط	-10.8425
▁قطاع	-10.8427
فيد	-10.8432
anna	-10.8436
▁طر	-10.8436
▁الجزاير	-10.8442
▁نواحى	-10.8443
ți	-10.8445
لية	-10.8446
▁mon	-10.845
ug	-10.8454
▁كوش	-10.8456
▁شديد	-10.8456
ong	-10.8456
▁المذهب	-10.8457
صيف	-10.846
▁pre	-10.8461
▁ومش	-10.8461
▁المجمع	-10.8462
▁sha	-10.8463
▁فوكس	-10.8465
▁kr	-10.8465
▁حكمت	-10.8469
uri	-10.8469
▁بيرجع	-10.8471
تراك	-10.8478
شارع	-10.8486
زراعة	-10.8489
حفظ	-10.8494
بنت	-10.8495
ν	-10.8495
▁survey	-10.8495
▁عظيم	-10.8495
▁البداية	-10.8495
نيكو	-10.8496
zh	-10.8497
▁جران	-10.8499
▁أسس	-10.85
▁المقدسه	-10.8501
ram	-10.8504
ica	-10.8504
▁تمن	-10.8504
▁مرا	-10.8505
دود	-10.8506
▁بيج	-10.8506
▁الدره	-10.8509
▁1910	-10.851
well	-10.8511
▁وحدة	-10.8514
تبادل	-10.8515
▁منتشر	-10.8517
زيد	-10.8518
بناء	-10.8523
اكبر	-10.8524
all	-10.8528
▁مليان	-10.853
اديه	-10.8531
▁تج	-10.8532
وبه	-10.8535
ân	-10.8536
▁ben	-10.8536
دولة	-10.8537
مبو	-10.854
عروس	-10.8542
▁الهرمى	-10.8543
▁ومنها	-10.8546
▁وسام	-10.8547
▁كوس	-10.8547
▁يهرب	-10.8548
▁لاتفيا	-10.8548
▁طوالى	-10.8548
▁انجازات	-10.8549
▁is	-10.8551
▁نمره	-10.8552
*	-10.8556
ربي	-10.8556
لينج	-10.8558
▁عصور	-10.8558
▁شاديه	-10.8562
▁الشعوب	-10.8562
▁بيرس	-10.8564
▁لوك	-10.8568
134	-10.8568
ساهم	-10.8571
▁شرع	-10.8572
بعت	-10.8575
تنى	-10.8577
▁عشرة	-10.8578
rin	-10.858
شارة	-10.858
▁المطرب	-10.8583
▁شجر	-10.8583
bin	-10.8587
nder	-10.8589
est	-10.8591
ميم	-10.8595
خطط	-10.8595
▁بولا	-10.8596
▁تقسيم	-10.8596
بود	-10.8598
أسر	-10.8601
▁بإنه	-10.8601
▁ستوديو	-10.8601
▁الجيزه	-10.8602
▁دبليو	-10.8602
▁بيوم	-10.8606
▁تنفيذ	-10.8609
▁فلور	-10.861
لاقي	-10.8612
▁62	-10.8615
▁الحريه	-10.8615
▁ذهب	-10.8621
▁بارك	-10.8621
▁الكلمه	-10.8621
▁واسمها	-10.8622
▁الاستقلال	-10.8622
▁متخصص	-10.8622
▁قوم	-10.8622
▁الفيزيا	-10.8625
▁الكاتوليكيه	-10.8625
▁لمدار	-10.8627
▁همام	-10.8628
باع	-10.8629
ويس	-10.8631
▁قط	-10.8641
▁سفين	-10.8644
▁صليب	-10.8645
▁1926	-10.8646
▁كيت	-10.8651
عالم	-10.8651
بيد	-10.8652
▁وأنا	-10.8652
▁هواك	-10.8654
р	-10.8655
▁الإسكندرية	-10.8656
عبر	-10.8656
=157	-10.8658
▁شيء	-10.8661
▁94	-10.8664
▁السعودية	-10.8668
▁الاجتماعيه	-10.8671
▁الوضع	-10.8674
cle	-10.8676
306	-10.8677
▁اتجاه	-10.8678
▁ڤار	-10.8679
عات	-10.868
▁معين	-10.8681
ău	-10.8685
▁يف	-10.8687
qui	-10.8691
يدو	-10.8692
ضاء	-10.8693
عق	-10.8694
حتوى	-10.8697
▁دوق	-10.8698
قاع	-10.8698
▁يش	-10.8698
اعه	-10.8699
▁الريف	-10.8704
520	-10.8704
ساح	-10.8704
فصيل	-10.8707
▁التمنتاشر	-10.871
▁استراليا	-10.871
▁أسرتها	-10.8713
▁امريكانيه	-10.8714
▁الأمر	-10.8717
▁الحجاز	-10.8717
وافق	-10.8719
735	-10.8721
▁الطبق	-10.8731
▁المغ	-10.8731
اصر	-10.8731
▁أساس	-10.8732
▁هرم	-10.8734
قود	-10.8735
▁معدل	-10.8736
▁خاصه	-10.8736
تحالف	-10.8736
بيب	-10.874
نظار	-10.8741
▁تاريخها	-10.8741
▁وغيرهم	-10.8744
▁th	-10.8746
▁أحسن	-10.8746
tra	-10.8748
تدخل	-10.8748
ضى	-10.8751
▁ادب	-10.8754
▁زيادة	-10.8759
▁قواعد	-10.8759
ez	-10.876
bra	-10.8763
fo	-10.8766
».	-10.877
▁اسيوط	-10.877
▁مافيش	-10.8777
fi	-10.8778
▁أع	-10.8779
▁فرج	-10.878
▁الخارجية	-10.8781
dar	-10.8784
توفى	-10.8789
=155	-10.879
يّ	-10.879
▁للح	-10.8791
▁رايح	-10.8796
▁اونر	-10.8801
بشر	-10.8808
كريس	-10.8809
▁كاپ	-10.881
يابانى	-10.881
▁احتل	-10.8811
413	-10.8813
بدأ	-10.8813
البحر	-10.8813
▁صل	-10.8813
شيخ	-10.8815
ova	-10.8816
سيول	-10.8817
ali	-10.8819
▁المختلفة	-10.8819
▁خوسيه	-10.8819
▁الروماني	-10.8826
ion	-10.8826
▁المؤيد	-10.8828
سلطن	-10.8833
▁اتهم	-10.8834
▁طرق	-10.8834
▁الفرعون	-10.8835
ئت	-10.8838
جذب	-10.8839
يلين	-10.8839
▁شان	-10.8839
▁أبوه	-10.884
قبض	-10.8848
tomu	-10.8848
▁المنا	-10.8849
يزى	-10.885
▁اص	-10.885
ciu	-10.885
▁غريب	-10.8851
▁je	-10.8857
تشو	-10.8858
ايس	-10.8861
▁سارا	-10.8861
▁تمت	-10.8867
يزا	-10.8868
▁السفر	-10.8871
▁bel	-10.8872
تسع	-10.8873
▁program	-10.8874
▁اونديجوف	-10.8874
▁المرأة	-10.8874
▁أنشأ	-10.8874
▁au	-10.8874
▁درويش	-10.8875
▁شيل	-10.8876
امين	-10.8876
ناك	-10.888
بيان	-10.8882
132	-10.8883
▁رابع	-10.8883
رعاية	-10.8889
▁الاسبانية	-10.889
▁2016.	-10.8891
▁النجوم	-10.8891
جع	-10.8892
▁الغرام	-10.8893
▁تيل	-10.8893
حاضر	-10.8893
سيلو	-10.8894
ذه	-10.8901
العرب	-10.8906
▁ولكنه	-10.8906
خفض	-10.8907
سيكا	-10.8909
نظمه	-10.8909
رسوم	-10.8913
روك	-10.8915
▁العدد	-10.8919
727	-10.8923
غزو	-10.8923
عزيز	-10.8925
تعلق	-10.8928
▁عاشت	-10.8928
▁بورنوجرافيه	-10.8929
▁زكريا	-10.8929
▁سلاطين	-10.8929
▁يابانية	-10.8929
▁الاهرام	-10.8929
xi	-10.8931
▁يونان	-10.8931
▁ميرل	-10.8932
نعيم	-10.8933
شتاين	-10.8934
▁خا	-10.8937
اشر	-10.894
▁عاصمتها	-10.8941
▁215	-10.8944
▁قضا	-10.8944
تكتب	-10.8945
نيت	-10.8949
فوز	-10.895
ken	-10.8953
أم	-10.8954
▁1913	-10.8954
▁مارتين	-10.8964
▁توفى	-10.8964
مقاطعة	-10.8969
▁رقص	-10.897
▁kar	-10.897
▁مباشرة	-10.8971
▁ونشر	-10.8973
▁الرسمية	-10.8975
كيت	-10.8975
ارية	-10.8978
باط	-10.8979
▁المقريزى	-10.898
▁موجودة	-10.8981
عَ	-10.8982
▁الوسط	-10.8983
ودور	-10.8983
▁أكتوبر	-10.8984
▁المسلحة	-10.8985
▁الموسيقي	-10.8985
▁عمرها	-10.8987
▁شهور	-10.8988
▁تاج	-10.8993
نوس	-10.8999
▁بياخد	-10.8999
▁bă	-10.9004
▁التجارية	-10.9004
ure	-10.9009
▁الهجوم	-10.9009
▁مص	-10.9011
▁فرنسية	-10.9012
ذي	-10.9013
▁المملوكى	-10.9014
del	-10.9017
▁التقليد	-10.9019
▁2017.	-10.9023
▁gra	-10.9025
مسرح	-10.9025
▁كريس	-10.903
▁توجد	-10.9036
2389	-10.9036
ساعد	-10.9038
▁الأحداث	-10.904
▁السوفيتى	-10.904
▁عرابى	-10.9041
▁حرق	-10.9041
▁المعارك	-10.9041
▁رائد	-10.9042
▁المسا	-10.9044
▁عامر	-10.9048
▁مرور	-10.9049
▁دل	-10.905
جام	-10.9054
▁بوك	-10.9056
▁بتتبع	-10.9056
▁وقدم	-10.9057
▁نهب	-10.9057
▁صد	-10.9062
وانى	-10.9063
ائف	-10.9073
فهم	-10.9075
▁العلمى	-10.9076
▁العثمانيه	-10.9076
kan	-10.9078
▁مفهوم	-10.9078
اتش	-10.9078
▁'	-10.9079
اخت	-10.9081
▁400	-10.9083
minor	-10.9084
▁العاص	-10.9085
ونو	-10.9087
▁القائد	-10.9087
▁العرض	-10.9089
عذب	-10.9091
يعة	-10.9093
جبر	-10.9093
▁العلاج	-10.9095
are	-10.9096
▁برلين	-10.9097
ديس	-10.9097
صبر	-10.9097
▁أيبك	-10.9098
ski	-10.9099
▁غالي	-10.91
▁82	-10.9103
▁1000	-10.9104
▁زوجته	-10.9104
▁1973.	-10.9105
ire	-10.9105
883	-10.9107
كنيسة	-10.9108
▁سلاسل	-10.911
▁معرض	-10.9111
مواجهة	-10.9112
احل	-10.9114
سيف	-10.9116
net	-10.9116
فيديو	-10.9119
سلط	-10.9124
ينوس	-10.9125
nik	-10.9127
ky	-10.9127
▁المحلية	-10.9129
سول	-10.913
▁كاستييا	-10.9131
▁mor	-10.9133
كعب	-10.9138
pl	-10.9145
▁النوم	-10.9147
▁الأخيرة	-10.915
tri	-10.915
н	-10.9153
▁صناع	-10.9153
▁افتتاح	-10.9156
▁نائب	-10.9156
▁بالنسبة	-10.9158
▁ماريو	-10.916
▁الأطفال	-10.9166
▁الخر	-10.9169
▁بلدى	-10.9171
▁ريف	-10.9171
▁التانية	-10.9171
▁نادال	-10.9173
▁التلات	-10.9176
▁1911	-10.9177
mat	-10.9177
▁خوف	-10.9178
▁يظهر	-10.9178
▁انتقل	-10.9181
بارا	-10.9181
يمان	-10.9182
لمان	-10.9184
cia	-10.9189
▁يقتل	-10.9189
▁•	-10.9193
باش	-10.9195
▁بقو	-10.9196
▁الفرقة	-10.9197
جاج	-10.9198
▁سود	-10.9198
▁ti	-10.9201
▁الداخل	-10.9207
▁للإ	-10.9208
ănești	-10.9208
▁str	-10.921
▁زوراڤليوڤا	-10.921
▁الحضاره	-10.921
▁نبيل	-10.9211
tel	-10.9217
عشق	-10.9219
▁لوحده	-10.9227
جيش	-10.9228
جمهورية	-10.9228
سيه	-10.9229
▁الآثار	-10.9229
ميا	-10.9229
▁بتضم	-10.9229
▁الخلافه	-10.9237
رويج	-10.9239
▁الأربع	-10.9244
▁خشب	-10.9245
▁أسر	-10.9246
▁مج	-10.9246
▁أستاذ	-10.9247
uk	-10.9248
رئاسة	-10.9248
ــــــ	-10.9248
▁چ	-10.925
وود	-10.9255
▁الجد	-10.926
▁عينه	-10.9262
ment	-10.9262
▁المؤ	-10.9264
jpg	-10.9267
▁قايتباى	-10.9267
▁تيرنر	-10.9268
▁state	-10.9268
▁seki	-10.927
▁خدم	-10.927
▁اياميها	-10.9272
▁تمرد	-10.9274
▁لأن	-10.9274
▁جرجس	-10.9274
▁حديد	-10.9274
▁مارتن	-10.9276
▁أك	-10.9277
ama	-10.9279
▁پلاى	-10.9282
▁ديك	-10.9283
لحق	-10.9283
▁استقلال	-10.9284
آل	-10.9286
▁أيوب	-10.9287
▁ورق	-10.9287
▁انتا	-10.929
▁مكانها	-10.929
▁ميا	-10.9292
▁مسئول	-10.9293
ماش	-10.9293
زيف	-10.9294
▁الأر	-10.9297
ليز	-10.9303
▁السد	-10.9304
ابراهيم	-10.9307
حاكم	-10.9308
▁حمله	-10.9311
▁سلا	-10.9314
▁61	-10.9315
133	-10.9315
تخلص	-10.9316
شاعر	-10.9317
▁فصل	-10.932
▁new	-10.9322
سوم	-10.9324
▁الرازق	-10.9324
▁البعض	-10.9324
▁اوسكار	-10.9324
▁الاشتراكيه	-10.9325
▁ماسح	-10.9325
▁كنايس	-10.9328
َر	-10.933
درس	-10.933
▁150	-10.9331
lla	-10.9331
ich	-10.9332
▁وحتى	-10.9334
▁حمد	-10.9338
=150	-10.9341
▁جهه	-10.9342
وشى	-10.9343
și	-10.9344
▁الاسلامى	-10.9347
▁المز	-10.9348
واصل	-10.9349
▁الامم	-10.935
▁الأسر	-10.935
▁بعمل	-10.9352
951	-10.9353
▁النقل	-10.9355
nc	-10.9355
▁شفت	-10.9357
مدح	-10.9359
ائن	-10.936
يتي	-10.936
▁المؤلف	-10.9361
▁الغنا	-10.9361
mura	-10.9361
تمتع	-10.9362
▁رجوع	-10.9362
▁واستمر	-10.9367
▁النهر	-10.9368
▁تسي	-10.9368
462	-10.9375
لبنان	-10.9375
حزب	-10.9375
قاطع	-10.9377
0&	-10.938
قائد	-10.938
▁الأوروبى	-10.9382
▁ديبييون	-10.9382
قوش	-10.9383
▁بالس	-10.9386
▁مختلط	-10.9388
قاتل	-10.9389
▁بتح	-10.9391
▁الاسود	-10.9394
▁منير	-10.9394
737	-10.9395
▁ad	-10.9396
▁هور	-10.9399
▁مسيرته	-10.9407
▁1905	-10.9407
789	-10.941
stra	-10.9411
صنف	-10.9413
▁حلوه	-10.9415
▁يسيب	-10.9415
واحد	-10.942
وفي	-10.9421
▁الماتش	-10.9423
▁علاج	-10.9425
حلم	-10.9426
▁بلدنا	-10.9426
▁اپ	-10.9435
▁تدخل	-10.944
▁الفني	-10.944
▁ابطال	-10.9441
▁النهاية	-10.9441
▁ثقافة	-10.9443
بواب	-10.9443
▁ڤالى	-10.9447
▁ماهر	-10.945
▁تقدير	-10.945
▁دفاع	-10.9451
بريطاني	-10.9451
سوس	-10.9455
▁بتاعه	-10.9458
ius	-10.9458
هرب	-10.9464
▁الصليب	-10.9464
war	-10.9466
ros	-10.9467
ئي	-10.9468
▁العشر	-10.9469
▁دري	-10.9469
▁مدة	-10.9469
▁الار	-10.9469
خار	-10.9472
رغب	-10.9472
▁أقول	-10.9473
▁بلجيكا	-10.9474
fu	-10.9476
▁الهي	-10.9488
عصاب	-10.949
▁ترب	-10.9491
▁robert	-10.9494
▁النهار	-10.9496
▁بأمر	-10.95
▁روج	-10.95
▁العيش	-10.95
▁name	-10.9502
▁القصير	-10.9504
▁الفقار	-10.9504
▁قطز	-10.9506
▁ايس	-10.9506
٠	-10.9507
▁التالتة	-10.9507
▁إيد	-10.9515
▁ناد	-10.9515
▁قلوب	-10.9515
الملك	-10.9517
▁وابن	-10.9519
لكرة	-10.9522
▁مهد	-10.9524
▁نتيجه	-10.9526
▁نقطه	-10.9528
her	-10.953
▁نيجر	-10.9535
استير	-10.9536
775	-10.9539
▁وحيد	-10.9543
▁اليونانيين	-10.9546
رعب	-10.9547
▁الحاجات	-10.9548
▁التحالف	-10.9548
خلى	-10.9549
▁التانيين	-10.955
▁214	-10.955
أمر	-10.9551
سحر	-10.9552
▁السبعتاشر	-10.9558
▁نفوذ	-10.9558
مسابقة	-10.9558
▁الاستعمار	-10.9558
▁dan	-10.9559
▁السينمائى	-10.9559
▁وحوار	-10.956
ain	-10.9561
▁أسيوط	-10.9562
▁غزا	-10.9563
حادثة	-10.9566
▁ابى	-10.9567
ct	-10.9567
شاب	-10.9571
▁زياده	-10.9572
iș	-10.9573
▁أثر	-10.9574
▁البيزنطيه	-10.9576
▁بارا	-10.9577
▁يان	-10.958
▁بيكتب	-10.9581
808	-10.9582
▁on	-10.9583
▁ڤين	-10.9584
▁ساكن	-10.9586
▁يحكم	-10.9587
▁لصالح	-10.959
▁اتفق	-10.9591
▁الزمالك	-10.9592
▁تكريم	-10.9592
ado	-10.9594
شركة	-10.9596
▁غيره	-10.9596
▁حبه	-10.961
▁البط	-10.9611
900	-10.9612
كمال	-10.9614
وده	-10.9614
▁أكثر	-10.9616
▁الثامن	-10.9617
▁كرواتيا	-10.9617
▁الحداشر	-10.9617
▁فهو	-10.9618
▁توليدو	-10.9618
▁العساكر	-10.9619
طرح	-10.9619
▁السم	-10.9619
▁ياللي	-10.9621
▁mare	-10.9621
▁إنتاج	-10.9621
cho	-10.9622
مواليد	-10.9622
تنافس	-10.9622
▁دوا	-10.9622
▁خروج	-10.9624
los	-10.9626
▁راد	-10.9627
▁شط	-10.9629
▁الحان	-10.963
▁زادت	-10.963
▁تيت	-10.9633
▁اليكساندر	-10.9633
هدف	-10.9634
▁الاجتماعية	-10.9634
long	-10.964
▁الشركات	-10.964
dai	-10.9643
▁تعود	-10.9646
820	-10.965
▁التركى	-10.9653
▁shi	-10.9654
▁wi	-10.9654
▁دراجو	-10.9655
▁فرعون	-10.9657
▁اتحولت	-10.9659
▁أنهم	-10.966
▁سات	-10.966
سيت	-10.9662
▁سيت	-10.9665
ern	-10.9668
▁معارض	-10.9672
▁اليك	-10.9673
حرب	-10.9674
▁الدار	-10.9676
elli	-10.9676
▁عرفت	-10.9677
ada	-10.9681
جورا	-10.9683
pen	-10.9692
371	-10.9695
▁وبدأ	-10.9696
▁بنسبة	-10.9699
▁يمثل	-10.9706
ضل	-10.9707
▁تحالف	-10.9707
▁مذهب	-10.9708
▁خلت	-10.9712
▁الفعل	-10.9717
▁الثقافيه	-10.9719
▁انك	-10.9719
▁val	-10.972
قاعة	-10.9729
▁جزيره	-10.9729
▁نيا	-10.9731
▁ol	-10.9732
شبه	-10.9733
توجه	-10.9735
λ	-10.9736
=197	-10.9737
▁الاسبانى	-10.974
▁اتقبض	-10.9741
▁هارى	-10.9742
▁الأرثوذكسية	-10.9745
▁بيعيش	-10.9748
برمج	-10.9751
سمح	-10.9752
▁بيمثل	-10.9754
alex	-10.9755
▁الجمعيه	-10.9755
عصب	-10.9757
▁نصيب	-10.9758
▁أغاني	-10.9759
▁الفرح	-10.9759
▁انتشر	-10.9765
▁شغله	-10.977
▁فإن	-10.9773
▁وهب	-10.9773
سلسله	-10.9776
▁جامعات	-10.9782
▁انضمت	-10.9783
حال	-10.9789
صام	-10.979
▁بواسط	-10.9798
▁الاحتفال	-10.9799
▁العيد	-10.98
▁الاخوان	-10.9801
ابات	-10.9801
▁تابعه	-10.9804
تحط	-10.9804
rov	-10.9806
▁المستقبل	-10.9813
▁الحملة	-10.9814
rn	-10.9814
سيور	-10.9815
▁البير	-10.9815
▁الفرس	-10.9816
▁مملكه	-10.982
غراف	-10.9822
sil	-10.9822
اذاعة	-10.9823
مك	-10.9824
بينى	-10.9828
▁للناس	-10.9829
▁امن	-10.9829
din	-10.9829
▁بيست	-10.9829
شوار	-10.983
وفسكى	-10.9831
kar	-10.9832
▁وحش	-10.9835
تنفيذ	-10.9836
▁81	-10.9837
▁ستيفان	-10.9844
▁والص	-10.9847
▁تعيش	-10.9848
جراد	-10.9848
▁ميه	-10.9849
▁البوم	-10.9849
▁رحلة	-10.985
2153	-10.9852
سكي	-10.9852
▁جوان	-10.9853
▁راينم	-10.9856
▁طنطا	-10.9856
▁الأطرش	-10.9857
▁قضية	-10.9858
▁الحبايب	-10.9859
▁المراكب	-10.9859
ill	-10.9861
▁الصحف	-10.9861
تعديل	-10.9863
chu	-10.9864
▁غو	-10.9867
احنا	-10.9868
var	-10.9869
لاڤ	-10.9869
▁شقيق	-10.9875
▁مقالات	-10.9876
▁الكم	-10.9879
سيان	-10.9879
نود	-10.988
=193	-10.9887
▁مماليك	-10.9889
▁ملا	-10.9889
▁الشخصيه	-10.9897
val	-10.9899
▁الجزر	-10.9901
اسيو	-10.9904
ميك	-10.9905
ثمان	-10.9908
▁العدو	-10.991
▁التجار	-10.9912
▁ولعب	-10.9913
▁بيش	-10.9915
▁شوارع	-10.9918
▁دائم	-10.9921
▁peter	-10.9922
▁الاقتصاديه	-10.9922
قع	-10.9923
▁بتتسم	-10.9923
▁صحفى	-10.9924
▁ستيف	-10.9927
▁الكرك	-10.9927
eh	-10.9928
▁الصغيرة	-10.9929
▁يضم	-10.9931
تواصل	-10.9932
▁ايرانيه	-10.9933
480	-10.9936
eb	-10.9938
nn	-10.9945
جنب	-10.9953
نون	-10.9953
▁الهجر	-10.9957
▁خمسة	-10.9957
▁منافس	-10.9958
hiro	-10.9959
▁كلود	-10.9959
▁فهم	-10.9963
عسكر	-10.9967
▁col	-10.9973
ليب	-10.9979
▁تايلور	-10.998
▁وبيشتغل	-10.998
▁السلطه	-10.9981
▁العدل	-10.9981
ذاع	-10.9983
▁حاصر	-10.9985
▁انتخب	-10.9988
▁يشتغل	-10.9991
▁الخديوي	-10.9991
▁!	-10.9991
▁217	-10.9992
070	-10.9992
▁ڤال	-10.9993
avi	-10.9993
▁كتبها	-10.9996
▁حكاية	-10.9996
▁المسرحيه	-10.9997
▁وفاتها	-11.0002
▁المؤسس	-11.0003
680	-11.0004
▁كنا	-11.0006
▁جيب	-11.0009
وزارة	-11.0012
▁السريع	-11.0013
▁قسطنطين	-11.0015
بوك	-11.0019
كود	-11.0021
▁فيك	-11.0022
ation	-11.0026
▁كوكو	-11.0026
▁كف	-11.003
▁لحم	-11.003
حين	-11.0034
▁محكمة	-11.0035
▁حاليا	-11.0038
ليستة	-11.0039
▁مفتوح	-11.0041
▁توزيع	-11.0041
▁ساكسون	-11.0041
▁البترول	-11.0043
▁الارهاب	-11.0043
▁الأساس	-11.0043
▁العبيد	-11.0044
▁هدوم	-11.0046
احتر	-11.0051
الن	-11.0052
أخ	-11.0052
600	-11.0055
eng	-11.0056
▁مباشر	-11.0056
طال	-11.0059
▁mal	-11.0066
لقد	-11.0067
جراف	-11.0068
▁علوم	-11.007
▁الهرم	-11.007
▁الشرقي	-11.0071
جغرافي	-11.0072
▁الجمهورى	-11.0072
ياء	-11.0074
▁ڤلاد	-11.0078
▁الميدان	-11.008
▁توب	-11.0091
يستا	-11.0092
يّه	-11.0092
ظالم	-11.0095
▁المكتب	-11.0095
كوت	-11.0097
سبير	-11.01
▁انتخاب	-11.0101
دنيا	-11.0101
▁الثقافى	-11.0103
▁سيستم	-11.0103
620	-11.0107
▁الدكتوراه	-11.0109
▁الطلب	-11.0109
▁قايم	-11.011
▁cal	-11.0112
يشى	-11.0112
شوق	-11.0114
طرق	-11.0118
انوس	-11.0121
met	-11.0122
متلك	-11.0123
▁هجم	-11.0123
▁الاسر	-11.0124
▁الرمل	-11.0124
حكى	-11.0125
▁القسم	-11.0125
▁عازف	-11.0125
▁المط	-11.0127
136	-11.0127
بقاش	-11.0128
cea	-11.013
▁ساتو	-11.0131
سما	-11.0132
▁لولا	-11.0135
▁جريدة	-11.0135
▁مراكب	-11.0141
lor	-11.0143
▁es	-11.0144
kawa	-11.0144
ثو	-11.0145
مثال	-11.0146
▁at	-11.0148
▁1-	-11.0148
▁الخاصه	-11.0149
▁أولاد	-11.0149
▁2019.	-11.0149
▁بالانجليزى	-11.0151
▁نق	-11.0152
▁بالق	-11.0153
▁الفلاحين	-11.0153
▁والى	-11.0157
▁حفل	-11.0159
▁وعدد	-11.0159
▁bro	-11.016
▁أَ	-11.0161
▁امان	-11.0162
قبط	-11.0164
▁ساف	-11.0164
أشخاص	-11.0166
▁county	-11.0166
▁كولومبيا	-11.0169
▁ماير	-11.0169
▁انتصر	-11.0169
▁حته	-11.017
▁كراس	-11.0173
صم	-11.0175
▁tu	-11.0178
زام	-11.0179
بريد	-11.018
▁1906	-11.0182
▁مهن	-11.0183
▁مستقله	-11.0183
نيكى	-11.0183
ثقافه	-11.0183
حصل	-11.0184
▁درو	-11.0191
بيرج	-11.0192
جلد	-11.0194
▁العيلة	-11.0194
▁وبقت	-11.0201
▁السياح	-11.0205
سيلى	-11.0209
▁هانم	-11.0211
أخذ	-11.0217
▁مميز	-11.0218
▁المنصوره	-11.022
▁الخل	-11.0221
▁يحيى	-11.0223
▁راى	-11.0227
▁الجنسية	-11.0228
▁فوتبول	-11.0228
▁حالات	-11.0228
▁چوهانسون	-11.0229
▁قصير	-11.0229
revision	-11.0229
▁البرامج	-11.0231
▁الأحمر	-11.0231
▁عاوز	-11.0232
▁جونز	-11.0232
ata	-11.0233
▁پار	-11.0234
▁ملايين	-11.0234
أحمد	-11.0234
▁المهمه	-11.0236
هيئه	-11.0237
▁تجمع	-11.0239
▁دراج	-11.0244
▁بتع	-11.025
عدد	-11.025
▁حققت	-11.025
ța	-11.0252
▁الجمعية	-11.0254
لار	-11.0255
▁علام	-11.0255
حركة	-11.0256
خاير	-11.0257
▁جوت	-11.0259
زوج	-11.0261
▁أُ	-11.0263
قم	-11.0264
610	-11.0266
فيف	-11.0266
▁2013.	-11.0266
▁ارم	-11.0269
ato	-11.0279
▁الملاك	-11.0286
▁tr	-11.0286
▁الديمقراطى	-11.0292
▁أنواع	-11.0292
▁مدار	-11.0293
▁مراحل	-11.0294
thi	-11.0294
▁michael	-11.0295
أحد	-11.0296
020	-11.0299
▁خوان	-11.0299
مشى	-11.0302
يلة	-11.0302
▁الفقر	-11.0303
خضر	-11.0304
▁حوار	-11.0305
gy	-11.0306
▁الجل	-11.0309
رست	-11.0311
صاد	-11.0311
أعمال	-11.0313
▁تاريخيه	-11.0313
nda	-11.0315
▁نصب	-11.0317
نصب	-11.0317
الق	-11.032
▁ريت	-11.0322
▁الصباح	-11.0323
▁لكاس	-11.0326
▁يدفع	-11.0326
tar	-11.0328
▁يطلب	-11.0329
▁مشاهير	-11.033
خف	-11.0334
▁الغاز	-11.0338
▁المحاكم	-11.034
يتون	-11.0343
▁leon	-11.0343
ning	-11.0348
▁دوس	-11.0353
إمبراطور	-11.0356
▁college	-11.0356
▁trojan	-11.0356
▁السياسه	-11.0356
▁محتاج	-11.0357
▁اجتماع	-11.0358
▁اسبوع	-11.0359
▁صبرى	-11.036
▁سنوات	-11.036
▁قومى	-11.0363
▁عماد	-11.0365
▁للسينما	-11.0366
القديس	-11.0366
▁سأل	-11.0366
▁وود	-11.0366
▁الاوروبيه	-11.0368
▁حاله	-11.0369
▁مرحلة	-11.037
▁red	-11.0372
▁نورمان	-11.0373
▁اتفاقية	-11.0374
درج	-11.0374
▁كلهم	-11.0374
خض	-11.0374
غيل	-11.0378
▁السياسة	-11.0383
▁سماه	-11.0385
▁نابليون	-11.0391
فص	-11.0396
تعب	-11.0397
▁مجموع	-11.0405
▁bor	-11.0408
▁بكره	-11.0408
تمنع	-11.0414
▁تمام	-11.0414
زراع	-11.0417
▁الانبا	-11.0418
بحر	-11.0418
▁الاطلنطى	-11.042
▁بكالوريوس	-11.042
▁مانشستر	-11.042
تيش	-11.0421
▁وهما	-11.0424
▁الكومپيوتر	-11.0425
▁مسرحيه	-11.0425
▁فبق	-11.0425
▁أخبار	-11.0426
قنا	-11.0426
ala	-11.0427
▁للعمل	-11.0428
▁نوادى	-11.0431
▁التعذيب	-11.0434
▁وياك	-11.0434
ّى	-11.0435
▁جانا	-11.0437
▁pla	-11.0437
▁مشارك	-11.0438
▁القرى	-11.0441
▁صعيد	-11.0448
▁cer	-11.0448
▁الرم	-11.046
ؤل	-11.0463
▁يشوف	-11.0469
▁الدولي	-11.0469
lă	-11.0475
سلطنة	-11.0475
ble	-11.0476
▁مجله	-11.0477
▁ديس	-11.0477
مؤرخين	-11.0484
▁الدلتا	-11.0484
▁السكه	-11.0487
سكر	-11.0488
▁tom	-11.049
دك	-11.0491
▁وزن	-11.0492
▁قالوا	-11.0497
age	-11.0497
▁عربية	-11.0498
ign	-11.0498
▁يساعد	-11.0499
▁نال	-11.05
روبي	-11.05
▁موديل	-11.0501
▁مثال	-11.0501
كَ	-11.0501
▁روم	-11.0502
▁الملكيه	-11.0504
▁2-	-11.0504
ابى	-11.0507
مهرجان	-11.0508
▁النحاس	-11.0508
yan	-11.0511
▁العلا	-11.0513
▁تجار	-11.0514
يشا	-11.0514
▁الحبيب	-11.052
غناء	-11.052
▁اللاتينى	-11.0521
▁ماكان	-11.0521
▁iso	-11.0523
▁السب	-11.0524
▁ايزابيل	-11.0526
جاك	-11.0526
▁البول	-11.0529
▁يحب	-11.053
ذور	-11.0533
▁كوميدي	-11.0534
▁صدقى	-11.0534
▁العربيات	-11.0536
▁حارب	-11.0536
فاج	-11.0536
▁السام	-11.0538
اثنين	-11.0539
eri	-11.0541
دموع	-11.0541
elle	-11.0543
دمج	-11.0545
▁الكنائس	-11.0549
▁che	-11.055
▁الاجرام	-11.0552
▁إذا	-11.0552
▁حفيد	-11.0552
▁عنوان	-11.0552
angel	-11.0554
burg	-11.0555
▁الاداب	-11.0556
اؤه	-11.0556
▁الأع	-11.0558
▁عريان	-11.0558
حتل	-11.0559
▁واتش	-11.0559
▁العر	-11.056
مجتمع	-11.0564
▁قرن	-11.0566
شباب	-11.0567
named	-11.0568
▁خلصت	-11.0568
▁أعظم	-11.0568
خارج	-11.0569
▁أطلق	-11.057
▁الخيال	-11.0573
▁ابنها	-11.0575
▁العباسيه	-11.0577
▁كجم	-11.0577
=86	-11.0578
▁إسرائيل	-11.0578
درب	-11.0579
▁سعاد	-11.0579
▁ريج	-11.058
شبك	-11.058
▁العنف	-11.0582
▁عناصر	-11.0585
▁ed	-11.0589
▁بيته	-11.059
▁٪	-11.0595
pu	-11.0595
▁التاريخية	-11.0597
pat	-11.0597
تفاعل	-11.0601
▁ستيفن	-11.0602
▁بعديه	-11.0603
▁تقل	-11.0604
قاد	-11.0607
bert	-11.0607
▁المعروفة	-11.0608
ash	-11.0609
لاء	-11.0611
▁بسنة	-11.0613
ρ	-11.0614
▁رافاييل	-11.0614
▁نتايج	-11.0614
▁كاتالينا	-11.0614
▁الفلسفه	-11.0615
▁أحداث	-11.0616
▁التنظيم	-11.0617
صفر	-11.0618
▁نوى	-11.062
▁اضطهاد	-11.062
▁83	-11.0622
▁أحب	-11.0624
▁رسميه	-11.0625
▁للرجال	-11.0627
شعب	-11.063
▁الكلمات	-11.0632
تشا	-11.0632
▁أيد	-11.0633
جوا	-11.0634
▁هيو	-11.0634
▁الغربي	-11.0634
▁المسيحى	-11.0637
▁كتر	-11.0639
أمراض	-11.0639
رور	-11.064
ملف	-11.0642
▁(3	-11.0645
▁(15	-11.065
▁الذكر	-11.0651
▁شوقى	-11.0657
مسيحي	-11.0657
jen	-11.0657
▁مجد	-11.0666
تخصص	-11.0668
شركه	-11.0668
▁الثاني	-11.0672
▁كامب	-11.0679
▁ظابط	-11.068
▁بيوكانان	-11.068
▁التلاتاشر	-11.068
▁عمال	-11.0682
▁بيان	-11.0687
تواجد	-11.0688
▁عيال	-11.0688
▁عينيا	-11.0694
▁عطر	-11.0698
▁إد	-11.0699
ِن	-11.0703
▁كوميدى	-11.0706
nk	-11.0706
طق	-11.0707
حلو	-11.0708
دني	-11.0708
ثلاث	-11.071
▁الفرسان	-11.0711
ويك	-11.0713
139	-11.0714
▁اللاهوت	-11.0715
▁اتغير	-11.0717
▁تايلر	-11.0717
فرقة	-11.0717
▁الملح	-11.0722
▁السيدة	-11.0725
829	-11.0725
صون	-11.0726
▁غاب	-11.0726
لوف	-11.0733
سيوس	-11.0733
تناول	-11.0734
حس	-11.0734
▁الدو	-11.0737
▁سيجا	-11.0738
▁البحرين	-11.0741
▁كوين	-11.0742
▁التابع	-11.0742
▁handball	-11.0746
▁بريطانى	-11.0746
▁gar	-11.0747
▁علاقات	-11.0748
▁متفرج	-11.0749
▁الجيوش	-11.075
نتين	-11.0751
▁اللبناني	-11.0755
قريب	-11.0758
▁بتعمل	-11.0758
زيادة	-11.0759
▁سيج	-11.0761
▁هيلا	-11.0766
yn	-11.0769
▁gre	-11.077
▁مولد	-11.0774
▁فيما	-11.0776
▁نشأته	-11.0781
▁سف	-11.0783
اللغه	-11.0784
▁مركب	-11.0784
▁رجاله	-11.0784
كسب	-11.0787
▁لأب	-11.0787
▁نصف	-11.0787
اقة	-11.0788
▁اجا	-11.0788
طوان	-11.0792
▁نيكولا	-11.0793
▁بناه	-11.0794
▁180	-11.0797
▁masa	-11.08
▁سياسة	-11.08
▁1893	-11.0801
قذ	-11.0809
ألف	-11.0811
▁com	-11.0811
قانون	-11.0811
gin	-11.0812
٢	-11.0813
سيوم	-11.0813
▁تاكيشى	-11.0813
▁شماديل	-11.0813
▁تطبيق	-11.0813
َل	-11.0814
▁شعبية	-11.0815
▁ميد	-11.0816
إن	-11.0817
▁علاقه	-11.0818
▁البنا	-11.0819
▁لوتز	-11.0821
توفر	-11.0821
▁المنعم	-11.0823
▁اعلنت	-11.0823
لفظ	-11.0826
▁تمكن	-11.0831
▁خص	-11.0831
port	-11.0831
ُّ	-11.0834
▁ظلم	-11.0836
زود	-11.0836
▁التجاره	-11.084
▁شايل	-11.0841
560	-11.0844
سينا	-11.0848
=165	-11.085
حكومة	-11.0851
أهل	-11.0854
▁سينت	-11.0856
▁(10	-11.086
زعم	-11.0861
580	-11.0865
▁الغل	-11.0866
ىء	-11.0867
▁لف	-11.0872
bal	-11.0876
▁لانها	-11.0878
▁قياد	-11.0878
las	-11.0879
▁شعبيه	-11.0879
ألفونسو	-11.088
▁الأيوبي	-11.0881
gg	-11.0881
سوق	-11.0883
▁الشو	-11.0883
▁والإ	-11.0884
▁1892	-11.0886
▁القيام	-11.0886
▁القضاء	-11.0887
▁سبق	-11.0887
▁البصر	-11.0888
اديس	-11.0891
جزر	-11.0893
▁المنصب	-11.0895
▁إسماعيل	-11.0896
▁عايزه	-11.0898
▁سهر	-11.09
▁دينى	-11.0901
حلف	-11.0903
oi	-11.0904
اهو	-11.0906
▁لانتاج	-11.0907
راضي	-11.091
▁1904	-11.0911
▁المعت	-11.0912
▁سفير	-11.0913
▁المدنيه	-11.0915
ماد	-11.0915
▁الوجود	-11.0915
منتجة	-11.0919
ظهور	-11.0921
▁نبات	-11.0924
▁آدم	-11.0927
▁دقيق	-11.0929
▁الفيديو	-11.0935
▁وحصل	-11.0935
▁واسمه	-11.0935
▁جريج	-11.0937
▁الاقتصادية	-11.0939
داري	-11.0943
▁بقايا	-11.0945
تبع	-11.0947
كمان	-11.0949
▁تسيشى	-11.0949
ju	-11.0949
▁الجنرال	-11.0949
رجل	-11.095
▁للب	-11.0952
▁شغال	-11.0952
▁الجانب	-11.0953
▁القتال	-11.0953
▁البيضاء	-11.0955
أزمة	-11.0958
يء	-11.096
▁يحارب	-11.0961
▁بقي	-11.0962
▁حلوة	-11.0964
yi	-11.0966
▁منصبه	-11.0967
▁اسسها	-11.0967
قنع	-11.0967
2092	-11.0971
▁رشدى	-11.0971
uc	-11.0974
▁mil	-11.0975
▁سهل	-11.0976
▁320	-11.0977
ختصر	-11.0977
باي	-11.0982
▁الوصول	-11.0982
▁جاء	-11.0982
تبرع	-11.0983
▁روائ	-11.0985
▁الحكام	-11.0986
▁افكاره	-11.0987
▁شهرة	-11.0988
▁اليونانية	-11.0988
▁الروسى	-11.099
▁ولو	-11.099
▁اوف	-11.0993
hal	-11.0995
شمل	-11.0998
▁ماركس	-11.0998
حكي	-11.0999
قصد	-11.1
▁سما	-11.1001
كيرك	-11.1002
▁درجات	-11.1004
كسر	-11.1009
▁وضح	-11.1011
▁ليب	-11.1013
▁إليه	-11.1014
▁النهضه	-11.1016
▁الهيكسوس	-11.1016
▁الاهليه	-11.1017
▁صيد	-11.1017
افا	-11.1017
▁الأزهر	-11.1019
برد	-11.1022
▁الفلوس	-11.1025
▁لنفسه	-11.1026
2021	-11.1028
ford	-11.1031
▁فبعت	-11.1032
▁مشاهد	-11.1034
▁جونسون	-11.1036
شتغل	-11.1037
▁تمثل	-11.1039
▁آثار	-11.1042
▁اتأسس	-11.1043
▁استعمال	-11.1044
ماك	-11.1045
▁لإنه	-11.1045
▁فی	-11.1045
▁الميت	-11.1046
▁نسخة	-11.1046
▁الحالي	-11.1047
▁راجع	-11.1049
▁أمل	-11.105
▁bal	-11.1054
▁للحكم	-11.1054
بانى	-11.1054
▁خلاص	-11.1057
lau	-11.1057
▁اوائل	-11.1058
▁طرابلس	-11.1059
ika	-11.106
▁معايا	-11.1061
▁التابعة	-11.1064
▁رح	-11.107
تمرد	-11.1072
حقوق	-11.1073
▁bur	-11.1073
▁الرابعه	-11.1073
▁احب	-11.1074
▁my	-11.1076
داخل	-11.1076
اميه	-11.1077
ستات	-11.1077
ستخدم	-11.1078
علام	-11.1079
حارب	-11.1079
▁ران	-11.1079
▁المايه	-11.1081
ο	-11.1084
راقص	-11.1084
▁هين	-11.1084
▁اللعيب	-11.1085
قلق	-11.1087
كلمة	-11.109
▁tri	-11.109
▁داود	-11.1091
▁فوج	-11.1091
▁حمص	-11.1092
▁السفن	-11.1092
وليد	-11.1094
▁القط	-11.1095
▁الطبيعية	-11.1097
▁محب	-11.1098
تراجع	-11.11
▁المعز	-11.1102
▁كرد	-11.1103
▁سويف	-11.1104
▁محلات	-11.1105
▁ويل	-11.1108
▁اريك	-11.1114
▁نطق	-11.1114
▁الاعلى	-11.1115
ائهم	-11.1115
▁1915	-11.112
▁جوهر	-11.1122
▁تحويل	-11.1129
▁ye	-11.1132
▁رسالة	-11.1134
ينز	-11.1135
867	-11.1136
أسلوب	-11.1137
▁توسع	-11.1137
▁فوزى	-11.1139
kim	-11.1141
▁كوبا	-11.1141
▁210	-11.1146
▁السياسي	-11.115
▁طارق	-11.1154
▁الظلام	-11.1154
▁ممتلكات	-11.1154
▁بورسعيد	-11.1154
▁الساتت	-11.1155
شاطئ	-11.1156
▁سبايس	-11.1157
سود	-11.1158
▁جاكسون	-11.1159
▁ويعتبر	-11.116
▁المسئول	-11.1161
▁الفاطميين	-11.1162
▁غنو	-11.1163
▁ag	-11.1163
▁نهار	-11.1169
▁للجيش	-11.1172
▁ضل	-11.1175
▁مصمم	-11.1177
▁جرح	-11.1177
▁الخبر	-11.1182
▁المشروع	-11.1183
تشارك	-11.1186
▁العلمية	-11.1188
▁1882	-11.1188
ston	-11.119
▁كريت	-11.119
هارد	-11.1192
▁أبى	-11.1193
مساعد	-11.1194
▁بلدي	-11.1194
▁1901	-11.1195
▁باول	-11.1196
عو	-11.1196
▁واخده	-11.1197
جزيرة	-11.1198
▁الأردن	-11.1198
▁الوزير	-11.12
يير	-11.1204
جميل	-11.1205
▁الاجتماعى	-11.1205
رضى	-11.1206
ستخدام	-11.1207
▁رموز	-11.121
قضى	-11.1211
=73	-11.1211
▁179	-11.1214
0,000	-11.1214
بوب	-11.1216
▁ضحك	-11.1219
▁335	-11.122
▁120	-11.1222
▁زمايله	-11.1223
▁ألمانية	-11.1223
شيد	-11.1223
▁بالتقريب	-11.1223
▁جهة	-11.1224
▁هولندا	-11.1224
▁المخابرات	-11.1224
▁رسول	-11.1225
▁لورين	-11.1226
yer	-11.1226
▁أصغر	-11.1227
▁سنقر	-11.1229
سكك	-11.123
▁وبعض	-11.1234
رَ	-11.1235
عشان	-11.1236
▁وطني	-11.1236
ena	-11.1237
1983	-11.1238
خلق	-11.1239
مشاركة	-11.124
▁عنصر	-11.1242
▁الخارج	-11.1243
▁جيد	-11.1246
▁المواد	-11.1249
▁روجر	-11.125
اراضى	-11.1251
▁ناجح	-11.1252
دّ	-11.1253
▁الطوايف	-11.1255
▁سري	-11.126
▁تكوين	-11.1261
tis	-11.1263
▁انقلاب	-11.1266
▁المحلى	-11.1266
شرب	-11.1266
ثورة	-11.1266
▁الاراضى	-11.1268
ؤكد	-11.1268
▁الهيئة	-11.1271
642	-11.1277
▁فهد	-11.1277
لِ	-11.1279
▁وكيل	-11.128
▁نمو	-11.1285
خبر	-11.1286
حياه	-11.1286
tea	-11.1292
▁تفسير	-11.1294
▁المشهوره	-11.1294
▁الأغانى	-11.1294
▁النسخ	-11.1296
▁المص	-11.1298
▁الأصليين	-11.1299
cel	-11.1301
▁وطن	-11.1301
▁متقسم	-11.1301
▁دورة	-11.1303
▁الفيوم	-11.1304
ترى	-11.1308
▁طولون	-11.131
وقراط	-11.1311
دعوة	-11.1311
▁بلقب	-11.1315
فيليب	-11.1316
oli	-11.1317
▁الموسيقار	-11.1318
▁جرج	-11.132
▁راي	-11.1321
نتر	-11.1323
▁وإن	-11.1325
كارل	-11.1325
▁تقليد	-11.1326
شيش	-11.1328
▁علماء	-11.1329
ow	-11.133
▁تسلم	-11.133
▁ضعف	-11.1332
▁حبيت	-11.1333
مرات	-11.1333
▁لبس	-11.1335
bon	-11.134
مكسيك	-11.1343
▁she	-11.1343
تجمع	-11.1344
▁برون	-11.1345
▁بسيط	-11.1345
moto	-11.1349
▁إس	-11.1359
rich	-11.1362
▁القومي	-11.1363
▁كبر	-11.1363
فيك	-11.1363
▁المفروض	-11.1363
▁للمصريين	-11.1363
οσ	-11.1363
علاج	-11.1364
▁أبريل	-11.1364
▁للعلوم	-11.1364
▁الاسطول	-11.1365
▁رسام	-11.1365
صمم	-11.1366
▁اندريه	-11.1366
▁دموع	-11.1366
▁les	-11.1367
ile	-11.1369
يحه	-11.1369
وزير	-11.1369
▁حصار	-11.137
چين	-11.1375
▁تسو	-11.1377
ڤال	-11.1378
▁عمان	-11.1379
▁البدو	-11.138
▁ميلوش	-11.138
▁بيوصل	-11.1383
▁الجميلة	-11.1383
vel	-11.1384
▁الجماهير	-11.1385
▁الإنسان	-11.1385
bel	-11.1385
اديا	-11.1386
640	-11.1386
▁اتبنى	-11.1387
فرنسا	-11.1388
عادة	-11.1389
iana	-11.1392
▁افتتح	-11.1393
بص	-11.1399
فارق	-11.1399
▁هود	-11.1399
مطرب	-11.14
px	-11.14
▁الحى	-11.1403
عوض	-11.1405
▁الجبال	-11.1411
lam	-11.1412
▁الجيل	-11.1415
▁فرانسيس	-11.1418
داس	-11.1419
دنا	-11.142
يشن	-11.1422
▁زن	-11.1423
لوند	-11.1425
أل	-11.1426
كامل	-11.1426
▁الاسكندريه	-11.1427
▁جنسي	-11.1429
▁ستيل	-11.1431
▁پيري	-11.1431
▁مؤلفات	-11.1431
▁الأخ	-11.1433
▁تقريباً	-11.1435
▁تشيكيا	-11.1435
رابطة	-11.1436
▁شيوخ	-11.1436
▁اسلوب	-11.1437
▁العنصر	-11.1437
▁الحكيم	-11.1438
542	-11.1438
▁مستشار	-11.1439
▁الفضل	-11.1439
▁بحسب	-11.1444
طريق	-11.1448
▁برات	-11.1449
▁ليالى	-11.145
▁علاء	-11.1452
▁شال	-11.1453
يبة	-11.1454
ورين	-11.1456
▁الصحراء	-11.1459
انتاج	-11.1464
▁قالو	-11.1471
▁التقدم	-11.1477
▁1903	-11.1482
wen	-11.1484
▁ولايات	-11.1486
▁mari	-11.1486
▁أخوه	-11.149
ore	-11.1491
sia	-11.1493
▁1902	-11.1494
▁ميج	-11.1496
▁هابسبورج	-11.1505
▁باربيدوس	-11.1505
▁الناتج	-11.1506
▁جرانادا	-11.1506
▁james	-11.1506
ida	-11.1507
▁جناين	-11.1507
▁أمريكي	-11.1508
▁وهيا	-11.1509
▁ملعب	-11.1512
▁عروض	-11.1513
رجوع	-11.1517
▁چين	-11.1517
نوى	-11.1518
▁محدود	-11.1523
▁225	-11.1526
▁بيرك	-11.1528
بش	-11.1528
par	-11.1529
▁قصيره	-11.1532
▁تقوم	-11.1536
▁منظمه	-11.1537
▁عمري	-11.1538
▁il	-11.1539
كاى	-11.1541
▁المعروفه	-11.1543
▁مصنع	-11.1546
يمير	-11.1548
▁اولاد	-11.1552
▁الكلمة	-11.1554
▁موسيقي	-11.1556
▁صمم	-11.1557
بارك	-11.1558
▁ابوها	-11.156
lr	-11.156
روق	-11.1562
▁كثيرة	-11.1563
tha	-11.1564
ثيا	-11.1564
فران	-11.1566
سفر	-11.1567
▁البرت	-11.1568
▁المغني	-11.1573
ui	-11.1575
▁مبني	-11.1577
▁سرطان	-11.1577
▁برلمان	-11.1579
▁التالي	-11.158
▁مغنيه	-11.1581
▁البيوت	-11.1581
928	-11.1582
▁الممالك	-11.1585
815	-11.1585
بدل	-11.1586
▁الممثلين	-11.1587
▁غل	-11.1589
▁بطول	-11.1589
ليها	-11.1591
▁لقو	-11.1591
▁الدوا	-11.1595
tan	-11.1596
ism	-11.1599
▁آسيا	-11.16
▁التيار	-11.1601
▁رئاسة	-11.1601
▁ليند	-11.1604
▁پيت	-11.1604
▁مشواره	-11.1606
▁يقدم	-11.1607
▁تظهر	-11.1608
▁لشركة	-11.1609
▁خرجت	-11.161
▁بقوله	-11.161
▁راحوا	-11.1612
▁ثيو	-11.1612
▁القمح	-11.1613
▁gor	-11.1614
▁شرح	-11.1614
▁تدمير	-11.1615
فوس	-11.1615
صوت	-11.1618
▁بدايه	-11.1619
▁المالية	-11.1623
فرنساوى	-11.1624
انجليز	-11.1625
▁(12	-11.1628
ae	-11.163
▁مكه	-11.163
معركة	-11.1633
▁الوزارة	-11.1636
عشر	-11.1636
▁سيطرت	-11.1637
سترو	-11.1641
تمام	-11.1641
▁برم	-11.1642
▁الأقل	-11.1644
لحد	-11.1648
▁جورجيا	-11.1648
▁صحفي	-11.1649
استر	-11.1649
▁بيستعمل	-11.1649
▁نابوليون	-11.165
▁المحتمل	-11.165
▁التعبير	-11.165
▁محدد	-11.1653
▁الاقليم	-11.1654
▁القصه	-11.1654
▁الهادى	-11.1655
▁بيعتمد	-11.1656
ائز	-11.1657
▁الربيع	-11.1657
9%8	-11.1662
▁الفتح	-11.1663
▁يهودى	-11.1666
لوش	-11.1667
882	-11.1667
▁شام	-11.1669
▁اعترف	-11.1669
رشاد	-11.167
▁عمه	-11.1671
▁القتل	-11.1673
▁الجوايز	-11.1675
▁mer	-11.1676
حبك	-11.1676
▁مقرها	-11.1677
▁مجلد	-11.1679
▁للمخرج	-11.1681
▁بالف	-11.1682
567	-11.1683
▁الفجر	-11.1683
▁يجمع	-11.1684
تنام	-11.1684
▁اتحول	-11.1687
▁زيد	-11.1689
حيث	-11.1691
▁ملحن	-11.1691
oni	-11.1692
▁الكلية	-11.1692
▁الأح	-11.1693
118	-11.1694
▁كيس	-11.1694
فوا	-11.1696
قدس	-11.17
عمدة	-11.1701
▁ليف	-11.1701
▁الوحيدة	-11.1701
▁امها	-11.1704
▁مستمر	-11.1705
▁الهام	-11.1705
اجتماع	-11.1707
▁السينمائي	-11.1707
▁اسامى	-11.1708
570	-11.1708
omi	-11.1709
▁قس	-11.171
مؤلف	-11.1712
▁السابقة	-11.1716
▁غناء	-11.1719
▁كيليكيا	-11.1723
▁هشام	-11.1723
▁اتوفت	-11.1723
حفاظ	-11.1723
1967	-11.1725
▁ميز	-11.1725
▁يحمل	-11.1725
stein	-11.1726
تحويل	-11.1728
▁اخترع	-11.173
▁عزت	-11.1732
=135	-11.1732
أبو	-11.1735
▁السور	-11.1737
:|	-11.174
▁ليا	-11.1741
▁الرو	-11.1741
▁للحزب	-11.1742
▁پودو	-11.1747
سرع	-11.1751
▁رينيه	-11.1757
▁بيسموه	-11.1758
▁كذلك	-11.1759
اوراتا	-11.176
فوت	-11.1762
tur	-11.1763
▁قتله	-11.1765
تاشر	-11.1766
▁بحكم	-11.1768
▁الحرية	-11.177
▁pă	-11.177
طاب	-11.1772
▁الفرص	-11.1774
▁بولس	-11.1775
فط	-11.1777
▁love	-11.1783
▁القبض	-11.1784
▁فلم	-11.1789
كشن	-11.1789
دوله	-11.1793
▁بيز	-11.1794
▁national	-11.1796
▁school	-11.1796
▁الفسطاط	-11.1796
▁الأنجلو	-11.1796
▁الطيران	-11.1798
▁الإعلام	-11.1798
ij	-11.1798
▁إذ	-11.18
▁الكار	-11.1802
▁مشتق	-11.1802
chan	-11.1804
مْ	-11.1805
كوفيتش	-11.1805
▁ثي	-11.1805
▁بروك	-11.1806
بتهمة	-11.1809
▁استغل	-11.1812
▁لفترة	-11.1814
▁المناخ	-11.1814
▁تيتش	-11.1822
▁وأم	-11.1823
▁الداخليه	-11.1824
1989	-11.1827
off	-11.1828
ob	-11.1828
▁جنينة	-11.1829
▁اعظم	-11.1829
▁eu	-11.1829
▁تعلم	-11.183
▁1909	-11.1832
▁للعب	-11.1832
يزيا	-11.1833
ban	-11.1834
▁خلع	-11.1834
eo	-11.1836
كثر	-11.184
mori	-11.1845
▁تعرض	-11.1845
قين	-11.185
▁كروس	-11.185
كالا	-11.1851
باريس	-11.1852
▁مرقس	-11.1855
▁چاك	-11.186
▁الميلادى	-11.1863
▁ماشي	-11.1863
جيد	-11.1867
▁gol	-11.187
▁الكاثوليك	-11.1871
▁باستخدام	-11.1873
حرف	-11.1875
▁الوجه	-11.1876
▁الممتاز	-11.1877
دكتور	-11.1877
▁رايت	-11.1878
▁المعارف	-11.188
▁منذ	-11.1881
2)	-11.1882
▁أغلب	-11.1883
بِ	-11.1883
ومى	-11.1885
ليلى	-11.1886
بدع	-11.1889
الحرب	-11.189
486	-11.1891
تأخر	-11.1892
▁الكاثوليكية	-11.1892
▁الاجتماع	-11.1892
▁hor	-11.1894
▁لقى	-11.1898
▁et	-11.1899
=147	-11.1902
768	-11.1902
▁المقر	-11.1903
▁القوة	-11.1905
▁الرياضيات	-11.1907
▁ob	-11.191
▁259	-11.1912
▁باع	-11.1914
▁ser	-11.1915
▁فورت	-11.1915
gli	-11.1917
لير	-11.1917
out	-11.1918
▁باردو	-11.1922
▁شرب	-11.1924
▁فيكتوريا	-11.1924
▁هارت	-11.1924
▁208	-11.1927
▁أجر	-11.1927
▁القس	-11.1927
▁استقال	-11.1928
▁برن	-11.1933
▁حفلات	-11.1933
▁نسخه	-11.194
▁دوليه	-11.194
▁فيكتور	-11.1942
▁الملكة	-11.1942
▁البريطانيه	-11.1942
▁فاطمة	-11.1945
▁التنوير	-11.1945
▁صادق	-11.1945
▁الزراعه	-11.1946
▁انشأ	-11.1946
▁كنيسه	-11.1947
▁مختار	-11.1947
▁الأتراك	-11.1949
▁الفضاء	-11.1949
▁مسار	-11.195
▁gal	-11.1951
وكان	-11.1951
▁ساو	-11.1952
▁comba	-11.1954
▁اسوان	-11.1955
▁المشترك	-11.1955
سطو	-11.1958
▁طير	-11.196
▁الالهه	-11.196
▁وراح	-11.1961
▁كاتدرائية	-11.1962
سليم	-11.1966
▁زواج	-11.1967
▁والش	-11.1968
▁مناخ	-11.1971
▁يستول	-11.1972
▁tra	-11.1973
▁ديوان	-11.1976
إيمان	-11.1978
▁اليهوديه	-11.1979
▁يوليوس	-11.1979
ula	-11.198
▁الاسبان	-11.1981
فاس	-11.1985
نتيجة	-11.1987
▁طبق	-11.1987
خال	-11.1988
▁زايد	-11.1989
▁النجم	-11.199
1959	-11.1991
▁امون	-11.1992
▁المعركة	-11.1992
▁دورها	-11.1995
▁القومية	-11.1995
wer	-11.1996
="65	-11.1999
▁اغنيه	-11.2
▁men	-11.2
▁جراح	-11.2001
نهر	-11.2001
وقت	-11.2001
▁الخص	-11.2001
="150	-11.2002
▁بلده	-11.2002
راقب	-11.2004
مُ	-11.2004
▁الشعبيه	-11.2004
▁تى	-11.2008
tr	-11.2011
▁أراض	-11.2013
موضوع	-11.2014
▁256	-11.2017
▁عدا	-11.202
▁الأندلس	-11.202
▁المعابد	-11.202
▁بورت	-11.202
تكمل	-11.2021
mir	-11.2024
▁العموم	-11.2025
▁سونيك	-11.2028
يرس	-11.2029
▁الأسود	-11.203
▁تحمل	-11.2033
day	-11.2033
حملات	-11.2033
▁وسم	-11.2035
▁شيوع	-11.204
▁الأمريكيين	-11.204
▁360	-11.2043
▁وظل	-11.2044
▁ربنا	-11.2047
▁شعبان	-11.2047
▁الصليبية	-11.2048
▁سينمائي	-11.2052
سينت	-11.2054
▁مسؤول	-11.2055
▁كويسه	-11.2055
▁جيشه	-11.2057
▁الحصن	-11.2057
لَ	-11.206
حجة	-11.2061
▁أصول	-11.2061
▁معانا	-11.2064
امبراطور	-11.2064
▁روسي	-11.2065
▁كتبت	-11.2067
884	-11.2067
▁عباد	-11.2073
▁اللبنانية	-11.2073
▁229	-11.2074
ona	-11.2074
▁مطالب	-11.2075
▁عمرى	-11.2076
ديز	-11.2076
▁yo	-11.2077
▁ثوره	-11.2077
قناة	-11.2081
▁فاي	-11.2081
اطي	-11.2082
▁صبح	-11.2082
نتيجه	-11.2084
=101	-11.2089
▁230	-11.2096
▁مسيحى	-11.2096
▁المشاكل	-11.2097
▁الآل	-11.2097
▁مهتم	-11.2098
▁ii	-11.2098
▁وزراء	-11.2099
▁المختلط	-11.21
منظمة	-11.2102
▁شعوب	-11.2102
▁الغورى	-11.2104
▁الماضي	-11.2104
▁برضو	-11.2105
ضعف	-11.2105
فيز	-11.2106
▁الاحداث	-11.2107
▁لقيت	-11.2107
▁بق	-11.2108
▁انسحب	-11.2108
▁يحصل	-11.2113
oka	-11.2117
انتهاء	-11.2118
تاب	-11.2118
وشو	-11.2122
▁اتجه	-11.2124
920	-11.2125
▁نش	-11.2126
قارب	-11.2128
▁العود	-11.213
▁ولل	-11.2134
▁غالبا	-11.2135
نحو	-11.2138
▁جيو	-11.2141
▁القياس	-11.2141
▁جابت	-11.2141
inger	-11.2143
▁عالمى	-11.2144
▁آم	-11.2144
بطل	-11.2144
▁rob	-11.2144
وجه	-11.2145
▁رأى	-11.2146
ero	-11.2146
▁عالية	-11.2146
▁العالمي	-11.2148
▁الحلم	-11.2149
▁عرق	-11.215
اقتصاد	-11.215
▁فوز	-11.215
حياء	-11.2156
▁عاليه	-11.2158
▁بأنها	-11.216
▁الزراعة	-11.2161
شرح	-11.2162
670	-11.2163
690	-11.2164
▁تعب	-11.2165
▁صدق	-11.2168
▁واحت	-11.2169
▁معروفة	-11.2171
▁جايزه	-11.2172
vor	-11.2173
▁مناصب	-11.2173
زعل	-11.2175
899	-11.2175
شاير	-11.2176
أنا	-11.2176
▁سياسه	-11.2176
▁الكراز	-11.218
اسط	-11.218
▁286	-11.2182
▁by	-11.2186
▁اختلاف	-11.2189
▁اتكلم	-11.219
▁بتبقى	-11.2193
uni	-11.2194
ميتر	-11.2195
سنه	-11.2195
▁لنظام	-11.2196
▁تيمور	-11.2197
▁الثقافية	-11.2202
▁1898	-11.2203
فيا	-11.2203
مطار	-11.2203
▁بيضم	-11.2206
ائح	-11.2207
▁اعلام	-11.2208
ela	-11.221
▁ايدين	-11.2212
▁الاتفاق	-11.2212
▁جيمز	-11.222
▁%	-11.2222
▁بتاعتها	-11.2226
▁الزوجى	-11.2228
▁الهدف	-11.2232
ین	-11.2234
▁شمل	-11.2235
تضح	-11.2236
ڤاس	-11.2238
▁قررت	-11.2238
▁نشأ	-11.2241
▁زال	-11.2241
قهر	-11.2244
▁لينين	-11.2244
كنيس	-11.2244
▁كوبر	-11.2245
ناصر	-11.2246
▁1980.	-11.2248
اسيس	-11.2249
مجوهرات	-11.2249
▁الاماكن	-11.2249
▁اوكرانيا	-11.2249
▁الجيزة	-11.225
إقليم	-11.225
▁يونانى	-11.225
المصري	-11.2252
850	-11.2252
era	-11.2255
▁البهائي	-11.2256
cești	-11.2259
▁للموسيقى	-11.226
▁اسام	-11.2262
▁الفارس	-11.2264
▁عادة	-11.2264
▁مجالات	-11.2264
تبنى	-11.2265
▁العلماء	-11.2267
شخص	-11.2267
▁أمان	-11.2271
▁تصنيف	-11.2272
▁المقدسة	-11.2273
▁التابعه	-11.2273
▁الأوروبيين	-11.2274
▁الشكل	-11.2274
▁اتجمع	-11.2275
ميدان	-11.2276
▁العمليه	-11.228
▁زور	-11.2284
mont	-11.2286
▁117	-11.2292
فؤاد	-11.2292
▁المسلم	-11.2295
pr	-11.2295
نيكا	-11.2297
امريكا	-11.2299
سرعة	-11.23
▁سد	-11.2303
▁ديب	-11.2303
▁مناسب	-11.2305
▁(17	-11.2308
▁العرق	-11.231
بالتالى	-11.2311
▁هجمات	-11.2313
حديث	-11.2313
▁وادي	-11.2316
معهد	-11.2319
صديق	-11.2325
▁smirnov	-11.2327
▁مالهاش	-11.2327
▁الأحرار	-11.2327
▁المسلحه	-11.2327
▁السلطنه	-11.2327
▁ثروت	-11.2327
امبراطوريه	-11.2328
▁تعريف	-11.2328
▁الافكار	-11.2329
▁الزوج	-11.2329
عاطف	-11.2329
▁القصة	-11.2331
تفرغ	-11.2334
▁600	-11.2335
ane	-11.2336
▁النقد	-11.2337
غيب	-11.2338
▁الهجرة	-11.2338
عقود	-11.2339
لجأ	-11.234
▁يدع	-11.234
▁السود	-11.234
▁فلو	-11.2341
▁أنتج	-11.2344
kai	-11.2347
▁كرام	-11.2359
▁حسام	-11.2364
▁تيك	-11.2367
▁المعد	-11.2367
أمير	-11.2373
aia	-11.2374
▁اهو	-11.2374
ئيه	-11.2375
▁السابعه	-11.2376
داو	-11.2377
▁بارز	-11.2378
دُ	-11.2381
لما	-11.2382
▁ايف	-11.2384
▁بورو	-11.2386
▁نشرت	-11.2388
ومير	-11.2388
▁شون	-11.2397
▁القرار	-11.2399
▁دينار	-11.2403
▁ترشيح	-11.2405
استكشاف	-11.2405
▁ظروف	-11.2405
▁افتكر	-11.2405
▁الفتاح	-11.2405
جانى	-11.2405
▁you	-11.2407
آخر	-11.2408
▁الحميد	-11.2409
▁كرم	-11.2409
▁البيزنطى	-11.2409
▁الخشب	-11.2409
بقاء	-11.2411
▁عده	-11.2414
▁nan	-11.2415
صورة	-11.2415
تزايد	-11.2415
ben	-11.2415
▁اتشهر	-11.2416
تأسست	-11.2417
▁خالص	-11.2417
▁جمهوريه	-11.2421
▁1894	-11.2429
عنا	-11.2429
▁الكلاسيكية	-11.243
▁القرون	-11.2435
جهز	-11.2438
▁المؤسسات	-11.2439
▁يجيب	-11.2441
▁معه	-11.2441
▁لابس	-11.2443
اريه	-11.2443
▁الاعتراف	-11.2444
▁أخرج	-11.2445
969	-11.2445
▁ră	-11.2448
710	-11.245
▁اوج	-11.245
سمي	-11.2454
▁كالي	-11.2456
خلع	-11.2458
▁2018,	-11.2459
بقية	-11.2462
شوري	-11.2463
▁2007.	-11.2465
▁حتت	-11.2471
▁الرسمي	-11.2475
بارد	-11.2479
هيرو	-11.2481
▁mikhaylov	-11.2484
▁البورنوجرافى	-11.2484
▁نيوزيلندا	-11.2484
خوارزم	-11.2484
▁كاراتيه	-11.2484
ديمقراطي	-11.2484
▁خف	-11.2484
▁أيضا	-11.2485
860	-11.2485
أربع	-11.2485
▁للامبراطور	-11.2486
▁مجرية	-11.2486
▁camp	-11.2486
▁النقاد	-11.2486
▁قويه	-11.2488
إي	-11.2488
ثروة	-11.2488
▁ماجد	-11.2489
تعليق	-11.249
ولاد	-11.249
▁بتحصل	-11.2492
▁احتلت	-11.2493
خلاص	-11.2494
▁تعالى	-11.2494
880	-11.2495
▁الأرمن	-11.2495
▁الاق	-11.2495
▁3-	-11.2497
▁القادر	-11.2498
عقاب	-11.2499
▁توقف	-11.2499
▁pra	-11.2504
▁جريس	-11.2507
▁المصطلح	-11.2507
▁الفين	-11.2507
يئة	-11.2511
▁الرئيسي	-11.2512
▁مبانى	-11.2513
▁ألعاب	-11.2517
▁المنزل	-11.2517
▁ماتش	-11.2518
▁جينا	-11.2522
▁تلاته	-11.2522
=121	-11.2523
sey	-11.2523
تنقسم	-11.2524
ett	-11.2524
▁brian	-11.2525
▁الدراسة	-11.2529
يرز	-11.2529
2387	-11.2531
aga	-11.2532
▁روحى	-11.2533
▁سلامة	-11.2536
▁أجزاء	-11.2536
▁الرياضيه	-11.2536
غاز	-11.2537
▁اتفاق	-11.2538
▁كوي	-11.254
▁قبطي	-11.2541
▁الخضر	-11.2544
▁عموم	-11.2549
زائر	-11.2551
▁العلميه	-11.2552
فجر	-11.2554
▁مقال	-11.2556
▁رول	-11.2556
تطلب	-11.2562
▁المجد	-11.2562
▁تليفزيون	-11.2563
▁ضرايب	-11.2563
تشجيع	-11.2563
▁الليبراليه	-11.2563
▁تنصيب	-11.2565
▁قائمة	-11.2568
▁تابع	-11.2568
=132	-11.2571
▁احزاب	-11.2571
▁نام	-11.2571
الدين	-11.2572
▁اهداف	-11.2573
▁اعتمد	-11.2574
▁238	-11.2574
سلسلة	-11.2575
مكتبة	-11.2576
▁قتال	-11.2576
▁اليسار	-11.2577
▁تستخدم	-11.2578
باح	-11.2581
▁كاش	-11.2582
شئ	-11.2583
▁مملوك	-11.2586
▁الألعاب	-11.259
▁واسعة	-11.2593
nie	-11.2594
▁سافرت	-11.2595
امل	-11.2595
ياما	-11.2597
py	-11.2598
▁امل	-11.2598
▁عاطف	-11.26
▁الهندسة	-11.2606
▁المجموعة	-11.2607
ذب	-11.2609
ِل	-11.2613
▁بلاك	-11.2613
▁الدراما	-11.2615
▁تتكون	-11.2617
▁قنوات	-11.2618
▁التحق	-11.2625
▁الملحن	-11.2626
▁الموجودة	-11.2629
قسام	-11.263
ناز	-11.2631
يورى	-11.2636
▁طوما	-11.2636
بيز	-11.2638
رجال	-11.2638
▁حتي	-11.2638
▁عينيك	-11.2638
▁المك	-11.2639
▁سماها	-11.264
▁mă	-11.2641
علامة	-11.2642
▁بالظبط	-11.2643
▁هوليوود	-11.2643
▁louis	-11.2643
▁قبايل	-11.2643
▁اجمالى	-11.2643
▁صوفيا	-11.2643
كاب	-11.2644
▁الماضى	-11.2644
▁لده	-11.2645
▁حصان	-11.2646
▁الهيكل	-11.2648
▁بيير	-11.2651
جزء	-11.2652
shin	-11.2654
▁بيحكى	-11.2654
تكلف	-11.2656
بسط	-11.2656
837	-11.2657
▁واد	-11.2658
▁البرج	-11.2658
ثان	-11.2659
تحضر	-11.2659
▁كريش	-11.266
▁أخذ	-11.2661
▁اصبح	-11.2662
▁205	-11.2664
▁إله	-11.2665
جوث	-11.2669
lyn	-11.2669
دراسة	-11.267
▁رؤساء	-11.2673
عادل	-11.2674
▁2005.	-11.2675
wood	-11.2675
▁dr	-11.2676
▁1890	-11.2677
▁بيخل	-11.2679
اعي	-11.2682
▁حرم	-11.2683
▁الظباط	-11.2683
▁237	-11.2687
نبرج	-11.2688
▁بيعرف	-11.269
دعاء	-11.2695
▁هيكل	-11.2696
▁عود	-11.2696
ملوك	-11.27
▁الرياضى	-11.2704
آس	-11.2705
▁حماية	-11.2707
▁كوما	-11.2708
نهار	-11.2709
▁المثال	-11.271
▁المستعمر	-11.271
▁موته	-11.2713
ليلة	-11.2714
كارى	-11.2715
ستعمل	-11.2716
أمل	-11.272
▁ليم	-11.2721
▁قليلة	-11.2724
▁طروادة	-11.2724
▁قاضى	-11.2724
▁تهديد	-11.2724
▁بجانب	-11.2724
▁تدريب	-11.2725
تَ	-11.2726
▁الأف	-11.2727
▁علاقته	-11.2727
▁افراد	-11.2727
▁رزق	-11.2727
مرض	-11.2732
عيب	-11.2734
▁جسد	-11.2734
▁قياس	-11.2734
▁كود	-11.2735
▁أثار	-11.274
▁بيحاول	-11.274
احلام	-11.2741
پات	-11.2742
▁المنظمه	-11.2742
▁ربيع	-11.2746
▁الحمام	-11.2746
ديون	-11.2748
تأمين	-11.275
كينز	-11.2752
▁الكوم	-11.2753
يانوس	-11.2755
ليبرالي	-11.2756
▁فارسى	-11.2756
▁القبطي	-11.2756
أقباط	-11.276
▁تاخد	-11.276
▁والدها	-11.2763
lea	-11.2763
▁المنتج	-11.2765
عانى	-11.2768
تحرر	-11.2769
▁بسرعة	-11.277
anne	-11.277
ceni	-11.2771
جنس	-11.2772
اندرو	-11.2773
▁فنون	-11.2775
شون	-11.2776
▁2009.	-11.2777
die	-11.2779
تحدد	-11.2779
▁المهرجان	-11.2781
لاح	-11.2783
▁والر	-11.2783
صحف	-11.2786
▁don	-11.2788
خزن	-11.2788
nai	-11.2789
سند	-11.279
حكام	-11.2794
nor	-11.2801
▁1895	-11.2803
▁الشهيرة	-11.2804
www	-11.2805
انسحاب	-11.2805
▁وبكده	-11.2805
▁لطفى	-11.2805
▁غياب	-11.2806
lix	-11.2807
علامات	-11.2808
ale	-11.2809
865	-11.2812
تصوير	-11.2814
تكرر	-11.2816
▁ze	-11.2819
▁المبانى	-11.2821
▁سياسية	-11.2821
الص	-11.2824
ريتش	-11.2824
▁مستقل	-11.2825
▁العمليات	-11.2825
وهو	-11.2827
▁الاعلان	-11.2828
▁الموقف	-11.2829
▁التفكير	-11.283
▁جيس	-11.2839
▁تراث	-11.2843
rio	-11.2843
▁برين	-11.2845
▁جب	-11.2847
▁yoshi	-11.2848
▁العامل	-11.2848
بحوث	-11.2849
▁روسى	-11.2849
اكاو	-11.2849
كلو	-11.2851
جواز	-11.2853
سَ	-11.2857
▁دمع	-11.286
▁الحديدية	-11.2861
تحمل	-11.2865
ظلم	-11.2865
▁4,	-11.2868
لجايزة	-11.287
▁ايو	-11.2871
فشل	-11.2872
الام	-11.2873
▁قوه	-11.2876
fel	-11.2879
▁شرك	-11.2879
▁خطوط	-11.2879
▁ليڤ	-11.288
▁قير	-11.2882
▁كتابات	-11.2882
▁سيمپ	-11.2883
كورد	-11.2883
▁واشينطون	-11.2887
▁اراجون	-11.2887
تصور	-11.2888
▁الهندى	-11.2888
▁ارد	-11.2889
تجربة	-11.2889
▁صحيح	-11.2889
▁sto	-11.2889
▁auguste	-11.289
پلوپ	-11.2891
tina	-11.2891
غرق	-11.2892
ستور	-11.2892
940	-11.2893
▁تعليمه	-11.2894
▁الارثوذكسيه	-11.2897
▁الأوروبي	-11.2897
▁ادريان	-11.2897
▁البطولات	-11.2899
▁187	-11.29
رومان	-11.2902
ؤثر	-11.2903
▁اللاتينيه	-11.2904
▁يبعت	-11.2908
▁الأعلى	-11.2908
cio	-11.2908
1962	-11.2916
▁mag	-11.2917
▁اقت	-11.2918
▁سيك	-11.292
تعاون	-11.2924
let	-11.2924
oro	-11.2925
▁العملية	-11.2926
▁تحب	-11.2927
غادر	-11.2933
▁مستقلة	-11.2934
▁جهود	-11.2935
ora	-11.2936
▁الحرام	-11.2936
سيطر	-11.2943
▁بهدف	-11.2948
▁بجيش	-11.2949
▁سمر	-11.295
رنا	-11.2952
▁دفن	-11.2955
جيز	-11.2957
546	-11.2957
▁التعاون	-11.2959
▁ممارسة	-11.2963
▁ايضا	-11.2963
قمة	-11.2965
960	-11.2967
▁خدمات	-11.2969
▁القديسة	-11.2969
▁عسكرية	-11.2969
▁البناء	-11.2969
نفى	-11.2969
chicago	-11.297
▁التسعينيات	-11.297
▁ڤيرچينيا	-11.297
▁اطفال	-11.297
▁saint	-11.297
▁الاسرائيلى	-11.297
▁حياتي	-11.2971
تمدح	-11.2971
▁يكمل	-11.2971
▁sal	-11.2972
▁وسايل	-11.2973
سحب	-11.2973
▁لاول	-11.2974
▁جرى	-11.2977
▁الجميع	-11.2978
▁جابر	-11.2979
▁قواد	-11.2979
▁الشاب	-11.298
=149	-11.2982
▁الاولانىى	-11.2983
▁الأهلية	-11.2984
▁قارة	-11.2984
صعب	-11.2985
ميها	-11.2987
ابل	-11.2987
كيريلى	-11.2989
▁مرت	-11.299
▁كريستينا	-11.2993
وادى	-11.2994
ديش	-11.2995
فوض	-11.2995
مجلة	-11.2998
جارى	-11.2999
▁يقض	-11.3001
▁كدة	-11.3001
▁للكتاب	-11.3001
خيم	-11.3001
▁دهب	-11.3002
▁سباق	-11.3004
▁المستشفى	-11.3006
تقويم	-11.3008
490	-11.3008
▁كيلى	-11.3009
▁المشرق	-11.3009
▁أهمية	-11.3011
نتخب	-11.3012
▁السلاح	-11.3013
▁بيرن	-11.3014
▁القيم	-11.3018
▁1517	-11.3019
▁المسلسلات	-11.302
اختصار	-11.3023
▁زوجها	-11.3023
▁اميل	-11.3025
▁tur	-11.3026
▁هدى	-11.3028
869	-11.3031
عوم	-11.3034
▁ناظر	-11.3035
cur	-11.304
▁2004.	-11.304
▁سايت	-11.3044
▁1896	-11.3047
▁مشرف	-11.3048
ller	-11.305
▁بودابيست	-11.3053
▁لأنها	-11.3053
▁الضخم	-11.3053
▁حنان	-11.3054
▁الوحده	-11.3054
▁خليفة	-11.3054
أغلبية	-11.3055
652	-11.3056
ريال	-11.3057
▁خطير	-11.3057
▁عالى	-11.3058
▁نير	-11.306
lly	-11.3061
thy	-11.3063
بمساعدة	-11.3066
servatori	-11.3066
▁ياسمين	-11.3067
▁المسرحيات	-11.307
اليس	-11.3074
عتمد	-11.3079
▁ضح	-11.308
▁ايرانى	-11.3081
▁جولد	-11.3082
zan	-11.3085
▁تونى	-11.3086
▁اليزابيث	-11.3088
▁presco	-11.3089
hn	-11.309
▁فيصل	-11.3091
ّد	-11.3092
▁الفرنسي	-11.3096
▁خطب	-11.3097
▁وزنو	-11.3097
itch	-11.3097
▁بتوصل	-11.3099
▁tamar	-11.3099
▁وجهة	-11.3099
uș	-11.31
kur	-11.3101
ovo	-11.3105
▁باسمه	-11.3105
▁وعضو	-11.3106
▁السينمائية	-11.3108
▁أحلام	-11.311
635	-11.3111
▁un	-11.3112
بَ	-11.3114
رّ	-11.3114
▁مساعدة	-11.3115
لاج	-11.3118
تركز	-11.3119
▁ادت	-11.3119
مهاجم	-11.3121
نظيم	-11.3122
حير	-11.3123
647	-11.3124
▁كيك	-11.3124
▁تغير	-11.3125
يتز	-11.3126
فيش	-11.3127
▁١	-11.3129
▁الجنسيه	-11.3133
▁ضمنها	-11.3133
▁التاريخى	-11.3136
قترح	-11.3136
▁ماكسيميان	-11.3137
▁شنودة	-11.3137
▁vittor	-11.3137
▁مصارع	-11.3137
▁الدقيق	-11.3138
▁واشتغل	-11.3138
▁ماكانتش	-11.314
▁معالم	-11.3141
▁حمدى	-11.3142
▁ستة	-11.3142
▁مشغول	-11.3142
▁مانويل	-11.3142
▁الصيد	-11.3143
سامح	-11.3144
▁صرح	-11.3144
لمساعدة	-11.3144
▁المان	-11.3145
▁تزوج	-11.3146
عمق	-11.3147
▁نجحت	-11.3148
▁ڤيينا	-11.3149
▁سريع	-11.315
▁وراه	-11.3152
▁كلنا	-11.3155
جورنال	-11.3155
دوق	-11.3158
626	-11.316
ska	-11.316
▁ربط	-11.3161
▁ex	-11.3161
تشير	-11.3163
▁الخطاب	-11.3164
رياض	-11.3165
قبول	-11.3169
عثر	-11.317
▁يخرج	-11.3172
▁المنتخب	-11.3172
▁سوب	-11.3172
وجود	-11.3173
▁بروس	-11.3174
▁تحف	-11.3174
▁كينج	-11.3176
▁لاكن	-11.3176
▁الجراح	-11.3183
نتشر	-11.3185
نظام	-11.3186
▁خمسين	-11.3186
هذه	-11.3187
▁دن	-11.3187
فارسى	-11.3191
▁الكليه	-11.3192
▁المسؤول	-11.3199
جلي	-11.32
صرخ	-11.32
▁أند	-11.32
cker	-11.3202
888	-11.3202
bre	-11.3203
▁براند	-11.3205
▁العيون	-11.3208
ارينى	-11.3209
550	-11.321
▁الماليه	-11.3211
إدارة	-11.3211
▁تقع	-11.3212
▁بكرا	-11.3219
▁بورد	-11.322
730	-11.3221
▁الخليفة	-11.3222
▁لفتره	-11.3222
▁ضريبة	-11.3222
▁مظاهر	-11.3222
▁توركيا	-11.3223
كلام	-11.3223
▁تخصص	-11.3224
▁لمنصب	-11.3226
▁الخدمات	-11.3228
تغطى	-11.3231
▁اكشن	-11.3236
لاهوت	-11.3237
▁فندق	-11.324
يستر	-11.3242
تمر	-11.3242
▁باولو	-11.3244
av	-11.3245
جبل	-11.3245
تكنولوجيا	-11.3249
اسكندرية	-11.3251
▁jan	-11.3251
▁عقب	-11.3251
▁الايد	-11.3252
▁اللقب	-11.3254
▁عربي	-11.3255
▁قرون	-11.3257
رقى	-11.3261
▁المالك	-11.3263
▁الجهاد	-11.3264
▁342	-11.3265
▁war	-11.3266
تسبب	-11.3266
عني	-11.3273
▁ادى	-11.3274
ثبات	-11.3274
▁الولاد	-11.3277
كوش	-11.328
1956	-11.3281
خوان	-11.3282
▁نقد	-11.3283
▁بدات	-11.3283
▁اسمع	-11.3288
خالف	-11.329
▁سويد	-11.3293
▁مبلغ	-11.3295
▁الغير	-11.3301
▁وكتب	-11.3302
▁الماء	-11.3303
▁السيطرة	-11.3306
▁قنديل	-11.3307
▁المجموعات	-11.3307
▁ارمينيا	-11.3307
field	-11.3307
▁الآداب	-11.3308
▁برنارد	-11.3308
بيتر	-11.3309
▁مكون	-11.3311
▁بركات	-11.3311
▁تص	-11.3313
▁غضب	-11.3314
تحقيق	-11.3315
درع	-11.3316
▁ميسى	-11.3317
▁معاد	-11.3318
الكتير	-11.332
روڤ	-11.332
lou	-11.3321
1)	-11.3321
ومو	-11.3321
▁يقارب	-11.3322
1955	-11.3322
مدارس	-11.3322
زواج	-11.3322
▁تيام	-11.3323
سطح	-11.3327
▁البروتستانت	-11.3329
▁اللجنة	-11.3334
▁لكنها	-11.3335
▁اللون	-11.3335
▁هب	-11.3336
ذيع	-11.3337
شاشة	-11.3338
▁يوجد	-11.3338
چن	-11.3339
فنان	-11.3342
697	-11.3342
▁هاد	-11.3344
ترول	-11.3345
تنس	-11.3347
631	-11.3348
تحقق	-11.3348
أخلاق	-11.3351
▁مواطن	-11.3356
زول	-11.336
vil	-11.336
نشئت	-11.336
يّة	-11.3365
5000	-11.3366
ava	-11.337
▁لوى	-11.3373
فلسطين	-11.3377
608	-11.338
دافن	-11.338
▁يشير	-11.3381
▁العص	-11.3383
▁روت	-11.3383
شئون	-11.3385
=178	-11.3388
▁المقام	-11.3388
راه	-11.339
ناحية	-11.3391
▁nor	-11.3392
▁المركزى	-11.3392
▁انطاكيا	-11.3393
▁الكتايب	-11.3393
صانع	-11.3394
▁ann	-11.3395
▁بيلاروس	-11.3395
▁قبطى	-11.3395
▁الثوار	-11.3396
▁اخبار	-11.3396
▁285	-11.3398
ارض	-11.3398
اسرائيل	-11.3398
▁بيقوده	-11.3399
بنات	-11.34
▁بتشتغل	-11.3401
صناعه	-11.3402
▁الاذاعة	-11.3402
اضطرابات	-11.3403
▁المرحلة	-11.3404
▁سلامات	-11.3404
▁بقتل	-11.3404
▁وتع	-11.3406
lim	-11.3407
▁بعضها	-11.3407
▁الباحثين	-11.3409
▁بيدرس	-11.341
▁اترشح	-11.3411
كلاسيك	-11.3411
▁اذ	-11.3412
موديل	-11.3414
mm	-11.3415
كتور	-11.3415
992	-11.3415
تيمور	-11.3416
▁تعديل	-11.3416
احتجاج	-11.3418
▁مقدس	-11.3422
▁دومينيك	-11.3425
▁القليل	-11.3426
انيس	-11.3428
▁يدرس	-11.3429
▁بالاضافة	-11.343
▁der	-11.3432
▁ابت	-11.3435
▁الالمانى	-11.3438
▁الانجيل	-11.3438
▁المواطنين	-11.344
▁اجن	-11.3442
▁الألمانى	-11.3442
▁تفجير	-11.3445
مجموع	-11.3447
قلوب	-11.3447
tești	-11.3449
2012	-11.345
▁راين	-11.3453
عامل	-11.3455
شيك	-11.3458
باكستان	-11.3459
رتاح	-11.3463
مناسبة	-11.3465
حفل	-11.3473
ازل	-11.3477
▁ارج	-11.3478
عته	-11.3479
▁إنت	-11.3479
tho	-11.3479
▁هؤلاء	-11.348
▁صلاة	-11.3481
▁يهاجم	-11.3481
▁القاضى	-11.3481
▁des	-11.3481
▁خليفه	-11.3482
▁دراسه	-11.3483
يرك	-11.3484
▁النشاط	-11.3484
▁اعتبار	-11.3484
▁متح	-11.3485
▁النوبه	-11.3485
▁عامه	-11.3486
▁بليسا	-11.3486
▁link	-11.3487
زحف	-11.349
▁امارة	-11.3495
▁المركزية	-11.3495
▁السريان	-11.3495
لدراسات	-11.3496
▁بالفعل	-11.3497
▁ابيض	-11.3498
▁الألمانية	-11.35
ّة	-11.35
▁ديون	-11.3502
غرض	-11.3502
خطب	-11.3503
ette	-11.3504
▁ذكرى	-11.3504
ريق	-11.3505
▁راديو	-11.3505
ami	-11.3506
▁بانها	-11.3507
مسح	-11.3509
▁(14	-11.3512
▁بيلى	-11.3513
▁السياحه	-11.3513
▁er	-11.3514
تشيك	-11.3515
▁النشيد	-11.3515
هندسة	-11.3517
▁النهائي	-11.3519
▁رش	-11.3524
2013	-11.3525
▁يطلق	-11.3528
شرط	-11.3528
▁الطريقه	-11.3528
اطر	-11.3528
▁جايه	-11.3529
جبهة	-11.3531
▁غريبه	-11.3532
▁(2	-11.3536
▁حارة	-11.3538
يستى	-11.3538
=162	-11.3541
▁ورث	-11.3543
▁نقص	-11.3549
صفه	-11.3549
▁حلوان	-11.3551
رواح	-11.3555
مشارك	-11.3557
▁نجا	-11.3558
▁الغال	-11.356
نوت	-11.356
▁ومحمد	-11.3566
▁بوند	-11.3566
▁جميلة	-11.3568
▁القصص	-11.3568
هزيمه	-11.3569
▁تلحين	-11.3569
▁اشكال	-11.357
▁فرنسى	-11.3571
▁المانى	-11.3571
▁سرق	-11.3572
▁الشديد	-11.3572
▁أغانى	-11.3574
تجدد	-11.3576
891	-11.3578
▁كرسى	-11.358
أرض	-11.358
ville	-11.3581
زمن	-11.3583
▁الاصلاح	-11.3584
▁التنفيذي	-11.3587
▁اديب	-11.359
▁1876	-11.3592
للى	-11.3593
▁اخته	-11.3593
2072	-11.3593
▁اتحط	-11.3593
دَ	-11.3598
ونة	-11.3598
ici	-11.36
روش	-11.36
▁غالب	-11.3604
▁آنا	-11.3606
▁مرسوم	-11.3607
▁تبلغ	-11.3608
▁استخدمت	-11.361
kha	-11.3611
بيرت	-11.3613
▁240	-11.3614
اسيا	-11.3615
way	-11.3616
▁محارب	-11.3617
▁اوبرا	-11.3621
▁تيج	-11.3626
وصول	-11.3628
تنشر	-11.3632
▁قصيرة	-11.3634
▁صن	-11.3635
▁شارل	-11.3637
▁الإسلامية	-11.3638
▁المهن	-11.364
لغة	-11.3641
يفو	-11.3643
▁ميري	-11.3646
كدب	-11.3646
▁الدوري	-11.3648
▁يدور	-11.3648
▁صدرت	-11.3648
2000	-11.365
▁الامر	-11.3654
▁حبى	-11.3654
بيض	-11.3655
▁الخمستاشر	-11.3657
▁ثقافى	-11.3657
▁المتظاهرين	-11.3657
كثافة	-11.3657
▁النازيه	-11.3657
▁كونج	-11.3657
▁الايطالية	-11.3657
▁مؤقت	-11.3658
▁طن	-11.3658
▁الوادى	-11.3658
▁رادو	-11.366
▁أتباع	-11.3664
اعتقال	-11.3664
محرك	-11.3664
▁غزه	-11.3665
▁باللى	-11.3668
علا	-11.367
إل	-11.3672
▁اللاتينية	-11.3676
▁اتطورت	-11.3677
▁السرطان	-11.3678
جريده	-11.3679
ori	-11.3681
fran	-11.3683
دلع	-11.3683
▁الخارجيه	-11.3683
=136	-11.3686
▁حصول	-11.3688
1418	-11.3688
▁الأحكام	-11.3688
wan	-11.3698
▁صوره	-11.3699
shan	-11.37
▁المبنى	-11.3701
كورت	-11.3702
▁تشر	-11.3703
▁خسر	-11.3705
▁ميلي	-11.3706
ستقر	-11.3709
▁حج	-11.371
▁اصلاح	-11.3711
▁يموت	-11.3711
حظر	-11.3716
عهد	-11.3718
آم	-11.372
▁تشارل	-11.372
▁الجمل	-11.372
▁بالي	-11.3721
▁جايز	-11.3722
▁البطل	-11.3723
▁لاي	-11.3723
525	-11.3724
▁الديموقراطيه	-11.3727
▁بلاش	-11.3728
▁لابن	-11.3729
slav	-11.3729
▁الحار	-11.373
▁اسك	-11.3732
شاه	-11.3732
▁1899	-11.3738
=168	-11.3739
ساندرا	-11.374
تانى	-11.3742
▁كوشير	-11.3744
▁يافا	-11.3745
مارى	-11.3746
▁الالكترون	-11.3746
▁الفاطمى	-11.3746
▁الحيوان	-11.3746
▁بالعربى	-11.3746
▁طهران	-11.3747
▁الاوبرا	-11.3748
▁فرصة	-11.3748
ثنائي	-11.3756
▁بتتكلم	-11.3756
▁الظ	-11.3757
كنش	-11.3759
▁ابرز	-11.3761
▁بالجيش	-11.3761
586	-11.3761
ستغل	-11.3762
▁سارة	-11.3762
▁المستخدم	-11.3763
حبوب	-11.3765
▁پين	-11.3765
▁الاوروبيين	-11.3767
سلطة	-11.3768
▁الصلب	-11.3769
▁الدومين	-11.377
▁المهاجرين	-11.3774
847	-11.3774
▁الكيميا	-11.3774
▁mic	-11.3775
▁توپ	-11.3778
▁sy	-11.3782
▁للمسيح	-11.3785
rum	-11.3785
▁ضغط	-11.3785
▁اشهرها	-11.3786
▁مابي	-11.3787
▁تركى	-11.3788
▁الفول	-11.3789
510	-11.379
اعتراف	-11.3795
▁روبن	-11.3795
575	-11.3796
▁يسمى	-11.3797
▁دولى	-11.3799
▁موسيقية	-11.3805
1988	-11.3805
▁صاحبه	-11.3807
أمريكا	-11.3814
▁البشريه	-11.3816
▁النمو	-11.3817
▁فرقه	-11.3818
▁185	-11.3825
▁كليات	-11.3825
ريتشارد	-11.3829
2071	-11.3829
▁sam	-11.3829
▁لبعض	-11.383
وليت	-11.3834
▁ماركو	-11.3836
▁الستينيات	-11.3836
▁جماعه	-11.3837
▁دانييل	-11.3837
تقدير	-11.3837
▁العمارة	-11.3838
▁مسيحيه	-11.3838
▁حامد	-11.384
▁مالطا	-11.384
تباع	-11.384
تأكيد	-11.3845
▁287	-11.3847
زدهر	-11.3847
▁ساعه	-11.385
▁ودخل	-11.385
▁بالإ	-11.3852
▁قلة	-11.3853
سيادة	-11.3855
▁سلف	-11.3856
▁الجوية	-11.3856
ryan	-11.3859
▁للكنيسة	-11.386
▁ريال	-11.386
▁اتصاب	-11.386
▁يكن	-11.3862
▁فيروز	-11.3862
ist	-11.3865
فد	-11.3866
558	-11.3867
قرأ	-11.387
▁الفرعونيه	-11.3871
فوق	-11.3871
▁البالخصوص	-11.3875
▁مارسيل	-11.3879
أمور	-11.3879
=133	-11.3881
▁اقتصادى	-11.3886
▁مالو	-11.389
▁الصحية	-11.3892
جاع	-11.3892
▁تام	-11.3893
▁للفن	-11.3893
597	-11.3895
راعى	-11.3896
ira	-11.39
▁(6	-11.3901
ّم	-11.3902
جوش	-11.3902
▁التشريع	-11.3905
▁الفلاح	-11.3905
هايم	-11.3906
▁مقبرة	-11.3916
رتفاع	-11.3919
▁(11	-11.3921
▁هولت	-11.3922
▁نشره	-11.3923
629	-11.3924
970	-11.3925
▁تروح	-11.3926
▁كاراشكينا	-11.3927
▁girl	-11.3927
▁امتد	-11.3927
▁الديانات	-11.3927
▁أعلنت	-11.3927
▁هامبورج	-11.3927
▁بابل	-11.3927
▁البريطاني	-11.3928
▁الاشتراكى	-11.3928
▁الطاقة	-11.3929
▁فردريك	-11.393
▁المميز	-11.3932
▁الفيل	-11.3933
▁بتستعمل	-11.3934
▁صدام	-11.3935
▁اجل	-11.3937
▁سوف	-11.3938
يذ	-11.3938
▁الجنود	-11.3939
كانت	-11.394
▁يحل	-11.394
▁وعند	-11.3943
▁340	-11.3945
مليون	-11.3945
شاهد	-11.3946
▁حفر	-11.3946
pha	-11.3947
▁لدور	-11.3948
ومبا	-11.3948
▁الإله	-11.3948
▁غالبية	-11.3949
ric	-11.395
▁مورا	-11.3952
ياف	-11.3952
▁الخلافة	-11.3952
▁البريطانيين	-11.3954
ثقافة	-11.3955
▁الطبيعيه	-11.3958
▁حظ	-11.3958
طعام	-11.3959
تدفق	-11.3959
▁اكمنه	-11.396
▁السعود	-11.3963
▁bill	-11.3965
برنامج	-11.3967
▁ياكل	-11.3967
▁اليس	-11.3968
القاهرة	-11.3969
ارين	-11.397
▁الرسل	-11.397
lee	-11.3971
▁وانه	-11.3974
▁المطر	-11.3974
ظباط	-11.3976
522	-11.3977
طاح	-11.3979
▁قوية	-11.3984
أركان	-11.3984
▁بعث	-11.3987
▁لاكتر	-11.3987
▁انما	-11.3989
غضب	-11.3994
604	-11.3996
▁السبت	-11.4
▁المسيحي	-11.4001
537	-11.4001
696	-11.4003
▁دينية	-11.4004
َد	-11.4005
ila	-11.4007
▁شجرة	-11.4007
حذر	-11.4007
▁وفق	-11.4007
ith	-11.4008
=201	-11.401
▁الأمن	-11.401
▁فشلت	-11.4011
▁august	-11.4015
▁زميل	-11.4015
جلود	-11.4017
▁انترتنمنت	-11.4019
▁ألمانيا	-11.4019
▁جعفر	-11.4019
▁ممفيس	-11.4019
=140	-11.4019
▁مغول	-11.402
▁تعقب	-11.4021
▁هيروش	-11.4022
نحدر	-11.4022
▁يمين	-11.4023
▁بينتم	-11.4023
iya	-11.4027
bor	-11.403
▁اجمل	-11.403
▁نمر	-11.4032
▁بتتعمل	-11.4033
▁السوفييتى	-11.4036
▁نسيت	-11.4037
▁الروسيه	-11.4039
▁المراكز	-11.4041
نائب	-11.4043
▁الأش	-11.4044
▁للج	-11.4047
▁ادام	-11.405
▁يخلص	-11.405
▁تَ	-11.4054
هداف	-11.4056
▁تاب	-11.4057
▁الوحش	-11.4061
▁بالغ	-11.4061
رينج	-11.4061
▁فما	-11.4063
▁جات	-11.4065
▁اتن	-11.4068
▁الاه	-11.4069
▁gro	-11.4069
ملت	-11.407
▁كسر	-11.407
▁والدته	-11.4081
939	-11.4082
▁الشعبى	-11.4086
غول	-11.4087
تاون	-11.4088
سينما	-11.4092
▁الاصلى	-11.4093
▁الجلد	-11.4093
▁ميلان	-11.4094
تيست	-11.4095
▁دبلوم	-11.4097
ولوجى	-11.4097
▁284	-11.4098
▁وطنى	-11.4099
▁الكوره	-11.41
يتيس	-11.4101
▁لسان	-11.4102
▁المناسب	-11.4103
سبورج	-11.4106
ئب	-11.4106
خالد	-11.4106
صمت	-11.4107
▁1881	-11.4108
▁الياس	-11.411
▁بروكس	-11.411
▁الاقل	-11.4111
▁البحيره	-11.4111
▁النهائى	-11.4111
▁مقابر	-11.4111
▁قبيلة	-11.4111
تفاوض	-11.4112
قطر	-11.4112
1994	-11.4112
tus	-11.4112
▁andrea	-11.4112
▁تحوتم	-11.4112
انطون	-11.4113
▁اوتو	-11.4113
▁مبكر	-11.4113
▁حقيقي	-11.4115
fan	-11.4116
▁فاز	-11.4118
▁الجوهر	-11.4118
▁حوض	-11.4118
▁بصفته	-11.4119
▁غاز	-11.412
▁الخدمة	-11.412
وسكى	-11.412
▁كتبغا	-11.412
عطف	-11.4121
العاب	-11.4121
▁341	-11.4123
▁سامي	-11.4125
▁محمية	-11.4126
▁بيعتبروه	-11.4126
▁بقيت	-11.4127
▁مخترع	-11.4127
▁الامريكان	-11.4128
▁high	-11.413
تياز	-11.413
jan	-11.413
▁تمتلك	-11.4131
▁لبن	-11.4133
▁زيدان	-11.4134
كونى	-11.4135
▁السلم	-11.4136
ross	-11.4137
▁لاست	-11.4139
▁بيتعمل	-11.414
▁pan	-11.4143
▁حميد	-11.4144
▁ياريت	-11.4145
▁متعددة	-11.4147
="52	-11.415
▁خلفه	-11.4151
ht	-11.4152
▁ينس	-11.4153
▁إنها	-11.4155
512	-11.416
ّب	-11.4161
اسكندريه	-11.4162
▁وهوا	-11.4163
ichi	-11.4163
داله	-11.4163
▁شخصيته	-11.4167
دراج	-11.417
كوز	-11.4171
▁لينا	-11.4172
▁ڤى	-11.4177
ding	-11.4181
▁ناب	-11.4182
▁افضل	-11.4182
كأس	-11.4184
پيتر	-11.4186
افلام	-11.4192
حريم	-11.4193
الكنيسة	-11.4194
َيْ	-11.4194
وضح	-11.4194
▁طيبه	-11.4199
▁فلي	-11.4202
▁سينج	-11.4203
اشتهر	-11.4203
▁رحم	-11.4204
543	-11.4205
heikkilä	-11.4205
▁goethe	-11.4205
▁التفتيش	-11.4205
▁بيؤمن	-11.4205
▁هوكايدو	-11.4205
ازدهار	-11.4205
▁سوهاج	-11.4205
▁الاعدام	-11.4205
▁الستينات	-11.4205
▁يمنع	-11.4206
▁شكرى	-11.4208
عقيدة	-11.4208
غنا	-11.4208
▁الأبيض	-11.4209
▁قيمة	-11.4209
phy	-11.421
▁110	-11.421
▁وبالتالى	-11.421
▁الشيوعي	-11.4213
▁العباسيين	-11.4214
▁اسكندر	-11.4215
تغنى	-11.4215
تجار	-11.4217
▁غار	-11.4218
▁والأم	-11.4219
بساط	-11.4221
زج	-11.4222
▁big	-11.4231
▁استعمل	-11.4232
▁طيب	-11.4233
▁1891	-11.4234
خصص	-11.4235
▁عارض	-11.4235
▁بتختلف	-11.4235
▁النهضة	-11.4235
▁يحقق	-11.4235
▁ليش	-11.4236
صوص	-11.4237
تاجر	-11.4238
▁معني	-11.4238
708	-11.4239
▁الدرجة	-11.4239
كليس	-11.4239
▁الفاطميه	-11.4243
771	-11.4243
اليونان	-11.4244
▁حملت	-11.4245
▁بيقولو	-11.4246
لوحة	-11.4246
▁البنك	-11.4247
▁شرا	-11.4248
▁لرئيس	-11.4251
▁وتت	-11.4253
▁هنري	-11.4254
▁كايل	-11.4257
▁المعماري	-11.4258
▁حفظ	-11.4261
صوم	-11.4261
▁إبن	-11.4261
يسار	-11.4261
ـــــــ	-11.427
eve	-11.427
فاعل	-11.4271
ألقاب	-11.4273
▁الرسم	-11.4274
685	-11.4275
▁الخوف	-11.4275
▁حيوان	-11.4276
▁البربر	-11.4277
▁296	-11.4279
▁احتفال	-11.428
689	-11.4283
▁الاثن	-11.4283
▁والتعليم	-11.4283
▁دافع	-11.4284
▁حركه	-11.429
شترك	-11.4291
864	-11.4298
university	-11.4299
▁المزيكه	-11.4299
▁الاربعتاشر	-11.4299
لفرقة	-11.43
▁للخ	-11.43
تقييم	-11.4301
▁الأيوبى	-11.4301
▁صفحة	-11.4301
ity	-11.4302
بشير	-11.4302
عاب	-11.4303
840	-11.4304
▁الاهلى	-11.4304
اختيار	-11.4305
▁عسكري	-11.4305
▁taka	-11.4305
▁توحيد	-11.4305
▁عشرات	-11.4305
▁sox	-11.4305
مجموعة	-11.4306
▁سوبر	-11.4307
mal	-11.4309
▁الأرجنتين	-11.431
▁فوت	-11.4312
▁حامل	-11.4312
▁ul	-11.4313
نسون	-11.4313
▁الجاهل	-11.4314
▁الفقرا	-11.4314
▁الزعيم	-11.4322
▁النصف	-11.4327
▁فرنسي	-11.4327
▁اتقال	-11.4329
▁التك	-11.4329
شكو	-11.4331
▁اسبانى	-11.4332
قية	-11.4332
بورن	-11.4333
▁التشكيل	-11.4334
رغ	-11.4337
▁النوا	-11.4339
▁فقام	-11.434
ăș	-11.4341
▁كومبيوتر	-11.4341
wei	-11.4341
▁اصلا	-11.4341
▁لحزب	-11.4341
ib	-11.4343
▁سبا	-11.4344
▁العسكري	-11.4347
▁پالا	-11.4348
بطريرك	-11.4349
▁فخ	-11.4351
▁lee	-11.4351
▁المجلة	-11.4351
▁شد	-11.4353
▁مواد	-11.4353
▁القناة	-11.4357
▁الدعا	-11.4358
▁رفضت	-11.4361
▁الرياضية	-11.4364
▁يوشي	-11.4365
▁nu	-11.4368
▁إل	-11.4368
ulești	-11.4369
اغنيه	-11.4369
دراس	-11.4369
▁الجب	-11.4374
جايز	-11.4375
șa	-11.4376
خش	-11.4377
cl	-11.4379
▁254	-11.4381
1949	-11.4386
▁بوتس	-11.4387
دولف	-11.439
▁باعت	-11.4391
▁الارمن	-11.4393
إسكندر	-11.4394
▁الصادر	-11.4395
▁النصوص	-11.4397
▁درب	-11.4399
thumb	-11.44
▁انتي	-11.44
جرنال	-11.44
حدود	-11.4401
▁الفساد	-11.4401
جاور	-11.4402
iko	-11.4403
▁طرف	-11.4403
▁مقاله	-11.4404
▁اصغر	-11.4405
enko	-11.4406
▁الحلوه	-11.4407
▁الاسكندنافية	-11.4409
▁وصفه	-11.441
835	-11.4413
▁أخر	-11.4413
▁انتجت	-11.4414
يديس	-11.4416
▁المهنية	-11.4418
▁البيانات	-11.4419
سيوط	-11.4422
لإنتاج	-11.4424
▁كلارك	-11.4426
قدام	-11.4427
▁joseph	-11.4431
ella	-11.4433
▁تسيب	-11.4433
حصر	-11.4433
▁يتعلم	-11.4434
▁الشجاع	-11.4438
▁bru	-11.4439
▁(5	-11.444
▁تسبب	-11.4443
وثائق	-11.4445
▁اغني	-11.4446
مناطق	-11.4449
▁طلبت	-11.4453
back	-11.4454
tv	-11.4454
قامت	-11.4454
434	-11.4455
▁334	-11.4455
▁الاساسيه	-11.4456
▁نشيد	-11.446
نقش	-11.4464
آه	-11.4464
wor	-11.4468
▁دود	-11.4469
المسيح	-11.4471
▁المطار	-11.4473
قور	-11.4473
▁حماد	-11.4477
▁الأق	-11.4477
▁رئيسية	-11.4478
وكل	-11.4478
▁فدان	-11.4479
▁بفضل	-11.448
▁الشيوعيه	-11.4482
تربية	-11.4482
▁پوپ	-11.4485
▁اللاعب	-11.4485
أكاديمية	-11.4487
▁الرئيسيه	-11.4487
قمع	-11.4488
egypt	-11.449
▁world	-11.449
night	-11.449
▁دوجلاس	-11.4491
▁التلتاشر	-11.4491
▁مذكرات	-11.4491
▁المقاوم	-11.4492
▁مسافر	-11.4493
▁العناصر	-11.4493
run	-11.4493
▁أسماء	-11.4495
مصطفى	-11.4495
▁السوريه	-11.4495
صباح	-11.4495
▁عب	-11.4495
▁الصبر	-11.4496
لاكو	-11.4498
zz	-11.4498
▁الحصار	-11.4499
▁خلفت	-11.4501
هنرى	-11.4503
▁أنور	-11.4503
026	-11.4503
▁اتدفن	-11.4504
▁ماركوس	-11.4505
▁الحضرية	-11.4505
1952	-11.4506
▁موريش	-11.4507
▁هزم	-11.4507
واكب	-11.4509
▁تشوف	-11.4509
يخت	-11.4509
▁والحب	-11.4511
امارا	-11.4511
▁قرى	-11.4511
عيون	-11.4511
تدهور	-11.4512
cani	-11.4512
▁عُ	-11.4513
▁سيرج	-11.4514
▁سرى	-11.4516
▁شوق	-11.452
▁الحربيه	-11.4521
▁قبول	-11.4522
▁مالى	-11.4522
▁1887	-11.4522
▁249	-11.4522
▁يعتقد	-11.4523
▁ڤادو	-11.4523
لكتير	-11.4524
ré	-11.4524
خوف	-11.4525
▁االم	-11.4528
بلو	-11.453
▁الأصلية	-11.453
ريچ	-11.453
1984	-11.4533
▁نشأت	-11.4534
انتقام	-11.4534
liu	-11.4536
پرو	-11.4536
▁الترك	-11.4541
ريخ	-11.4549
▁130	-11.455
house	-11.4553
ـــــــــ	-11.4554
rag	-11.4554
780	-11.4558
863	-11.4559
▁224	-11.456
▁george	-11.456
▁ملاك	-11.456
▁الفقه	-11.4563
▁بطريقة	-11.4565
▁ترم	-11.457
سيون	-11.4573
ئين	-11.4573
▁مشهد	-11.4576
ndra	-11.4578
▁راتش	-11.458
923	-11.4585
كيف	-11.4587
▁فيلوميتور	-11.4587
▁ويكيپيديا	-11.4587
▁indiana	-11.4587
▁الشيوعى	-11.4587
▁الحكومية	-11.4587
▁ممنوع	-11.4588
▁الإمام	-11.4588
▁الاعضاء	-11.4588
▁بنيامين	-11.4588
▁الأمريكى	-11.4588
▁الاستاذ	-11.4588
▁الكونجرس	-11.459
1100	-11.459
▁حركات	-11.459
▁الأدوار	-11.459
حلاوة	-11.4591
▁خضر	-11.4591
▁تشين	-11.4591
▁ماسك	-11.4592
دلوقتى	-11.4593
▁كيرل	-11.4593
=169	-11.4594
فذ	-11.4594
▁التعامل	-11.4595
▁المكتوب	-11.4596
▁عاصر	-11.4597
▁اقوى	-11.4599
▁1884	-11.4602
▁حكايات	-11.4603
مضيق	-11.4604
bat	-11.4604
▁المزيكا	-11.4605
▁ثاني	-11.4606
▁(8	-11.4608
▁1888	-11.4611
▁النباتات	-11.4612
▁ديو	-11.4612
▁محافظات	-11.4614
▁oca	-11.4615
aya	-11.4618
▁الفرع	-11.4622
▁كيد	-11.4625
▁228	-11.4625
▁سيوك	-11.4626
▁الايمان	-11.4629
1595	-11.4631
▁نع	-11.4634
taka	-11.4635
تشابه	-11.4635
right	-11.4635
▁فجر	-11.4637
▁ايب	-11.4638
رمى	-11.4639
▁بلغت	-11.4643
▁الملعب	-11.4643
دورف	-11.4645
oda	-11.4646
▁الكوميديا	-11.4647
▁جيور	-11.4649
▁طالع	-11.4653
▁يَ	-11.4654
hall	-11.4654
▁بصوت	-11.4657
▁زود	-11.4658
▁الطبية	-11.4659
▁بناها	-11.4659
▁المصور	-11.466
▁الفرقه	-11.466
سلطان	-11.4661
▁شجع	-11.4662
▁فيفا	-11.4665
استعادة	-11.4665
▁هوب	-11.4666
▁بالص	-11.4666
جمل	-11.4668
▁البند	-11.4674
▁800	-11.4674
▁أهمها	-11.4674
▁gri	-11.4674
مدن	-11.4678
shima	-11.468
▁المنافس	-11.4681
▁تعذيب	-11.4682
lev	-11.4683
▁التور	-11.4684
▁أقام	-11.4685
٩	-11.4685
▁اثيوبيا	-11.4685
▁الفاتيكان	-11.4685
▁وسيناريو	-11.4685
▁اللطيف	-11.4686
▁القسطنطينيه	-11.4686
▁النجاح	-11.4686
▁نهائى	-11.4686
▁الامريكى	-11.4686
يدة	-11.4687
▁ارتبط	-11.4687
▁التقاليد	-11.4688
▁الجمعه	-11.4688
smith	-11.4689
▁ومثلت	-11.469
▁كومپيوتر	-11.469
▁شيراز	-11.4692
▁حواليه	-11.4694
▁المظاهرات	-11.4695
▁أحياء	-11.4695
▁الكومبيوتر	-11.4696
عطي	-11.4697
▁1889	-11.4697
▁اقترح	-11.4699
▁آلاف	-11.4699
▁الوحيده	-11.4701
▁الرابعة	-11.4702
يتوس	-11.4704
▁tan	-11.4705
▁الروس	-11.4706
اسبانيا	-11.4707
dina	-11.4708
▁كارولينا	-11.4711
▁التأثير	-11.4711
يچى	-11.4712
▁140	-11.4712
يريس	-11.4713
غور	-11.4713
لغى	-11.4714
533	-11.4715
▁الألمان	-11.4716
عازف	-11.4716
تجارة	-11.4717
شيئ	-11.4719
▁kor	-11.4721
▁القياد	-11.4723
▁جلس	-11.4723
▁اتحكم	-11.4724
▁كاو	-11.4727
▁لغت	-11.4729
وحدة	-11.4731
▁ايديه	-11.4731
zen	-11.4731
▁اطلق	-11.4732
▁العبري	-11.4732
ظن	-11.4735
جماعات	-11.474
▁حملات	-11.474
مهاجمة	-11.474
▁رومين	-11.4742
▁اللوا	-11.4744
قاره	-11.4746
▁لأم	-11.4747
▁فدا	-11.4748
▁star	-11.475
صناعة	-11.475
رِ	-11.4751
عون	-11.4753
▁الرقم	-11.4753
▁شاهد	-11.4757
638	-11.4759
▁فرناندو	-11.4761
رقة	-11.4762
▁بوليس	-11.4762
▁دينا	-11.4762
ريتا	-11.4764
489	-11.4764
▁may	-11.4764
▁ودرس	-11.4765
▁الأمرا	-11.4765
نتي	-11.4769
▁اختراع	-11.4769
نوك	-11.477
▁نيكولاى	-11.4771
hara	-11.4775
▁خلل	-11.4776
▁محافظ	-11.4778
▁الأولمبية	-11.4784
▁تلميذ	-11.4784
▁قانصوه	-11.4784
فراعنة	-11.4785
▁الطبيعى	-11.4785
▁von	-11.4785
▁فيلسوف	-11.4786
▁الراديو	-11.4786
▁هز	-11.4786
usa	-11.4786
اوليمبياد	-11.4786
مزارع	-11.4787
lop	-11.479
انجيل	-11.479
١	-11.4793
تراوح	-11.4794
▁علو	-11.4795
▁wal	-11.4796
▁1870	-11.4798
الاتحاد	-11.4798
▁ريا	-11.4799
anu	-11.4799
مايكل	-11.4804
▁تحصل	-11.4807
▁gran	-11.4809
تمكن	-11.4809
▁يتكلم	-11.4812
▁الأمريكي	-11.4812
فرنساوي	-11.4814
▁سفن	-11.4814
▁تشهر	-11.4815
▁أفراد	-11.4816
▁يحت	-11.4817
▁اجتماعيه	-11.4818
▁الأيام	-11.4819
▁أعداد	-11.4819
▁مقار	-11.4823
▁فإت	-11.4823
▁يتعرف	-11.4825
وصى	-11.4827
yuki	-11.4827
▁اهمها	-11.4828
بتعتمد	-11.4828
كهرب	-11.4831
حمى	-11.4831
▁الوثائق	-11.4831
▁زاه	-11.4835
▁مجتمعات	-11.4836
أمن	-11.4839
▁مدد	-11.4839
▁بتطل	-11.4841
صراع	-11.4842
▁العش	-11.4843
خريج	-11.4845
▁ستيفانو	-11.4846
▁رأي	-11.4847
▁پات	-11.4847
نجر	-11.4849
▁لوم	-11.485
▁خش	-11.485
▁الغربيين	-11.4851
▁عالميه	-11.4859
▁لعمل	-11.486
قياس	-11.4862
▁عالمية	-11.4865
عارف	-11.4865
▁ايمان	-11.4867
نوف	-11.4867
▁أنجل	-11.4873
osa	-11.4875
▁charlo	-11.488
▁جيه	-11.488
bol	-11.4882
▁vienna	-11.4885
▁المخطوطات	-11.4885
▁السفلى	-11.4885
▁اللبنانى	-11.4885
▁mary	-11.4886
ary	-11.4886
▁الطراز	-11.4886
▁زهرة	-11.4886
▁فترات	-11.4887
7%	-11.4887
▁الجول	-11.4887
▁لقا	-11.4887
▁مسلح	-11.4888
5%	-11.4888
▁القائم	-11.4889
▁سواحل	-11.489
▁هيتوم	-11.489
▁الشرعي	-11.4891
▁سوزان	-11.4893
▁نصوص	-11.4893
ثم	-11.4893
▁المشهورة	-11.4894
▁كراي	-11.4894
كسو	-11.4894
=145	-11.4896
▁كاترين	-11.4897
▁تدور	-11.4898
خرب	-11.4898
▁سلطة	-11.49
جود	-11.4901
▁ولاده	-11.4903
▁336	-11.4903
▁الراهب	-11.4903
شعاع	-11.4904
▁vol	-11.4904
564	-11.4904
▁يكسب	-11.4906
▁ban	-11.4907
▁جميله	-11.4908
▁تزيد	-11.4909
▁حليم	-11.4911
▁1897	-11.4913
▁المركب	-11.4915
▁بحريه	-11.4916
حركه	-11.4918
▁santa	-11.4918
خوس	-11.4919
▁ur	-11.492
▁شهرته	-11.4922
743	-11.4922
توجد	-11.4923
▁الجليد	-11.4925
▁بوتو	-11.4926
▁بيرت	-11.4926
▁العلمي	-11.493
▁av	-11.4931
▁mac	-11.4932
▁ولكنها	-11.4933
خطوط	-11.4934
▁الهنديه	-11.4934
▁يابا	-11.4936
▁ترى	-11.4937
أفلام	-11.4938
▁لدين	-11.4938
▁النقاب	-11.4938
▁وفد	-11.4938
طليانى	-11.4942
وحش	-11.4942
▁للسلام	-11.4943
كوبرى	-11.4945
▁استضافته	-11.4947
▁زيارة	-11.4947
▁راسل	-11.4948
ربع	-11.4948
صيغ	-11.4953
▁الملاح	-11.4957
▁اتقدم	-11.496
▁لكي	-11.4966
▁مارين	-11.4967
▁carl	-11.497
اتصالات	-11.4972
▁280	-11.4973
▁jean	-11.4973
يوكا	-11.4976
vy	-11.4978
شخصية	-11.4981
▁الصبح	-11.4984
مفاهيم	-11.4986
▁المباشر	-11.4986
مغامرات	-11.4986
▁white	-11.4986
▁الصحافة	-11.4986
ua	-11.4987
watch	-11.4987
▁المور	-11.4987
▁دونالد	-11.4987
▁بيحكم	-11.4988
nus	-11.499
وزن	-11.499
▁استوديو	-11.4992
لأن	-11.4993
▁ليكون	-11.4994
الكتاب	-11.4996
▁1869	-11.4996
▁ايلين	-11.4999
▁اللاتين	-11.5002
دِ	-11.5002
of	-11.5003
احسن	-11.5004
▁الجويه	-11.5007
بالانجليزى	-11.5008
pri	-11.501
عنف	-11.5012
إسلام	-11.5012
▁السمك	-11.5015
▁يحم	-11.5016
rina	-11.5017
▁cra	-11.5021
نزول	-11.5021
حتفال	-11.5022
▁الزين	-11.5023
▁الصحة	-11.5024
▁بكتاب	-11.5024
▁ڤيلت	-11.5026
▁يتكون	-11.5028
مقاول	-11.5029
▁دلال	-11.5032
▁بتاعها	-11.5033
قوى	-11.5036
▁160	-11.5037
▁288	-11.5037
▁سورة	-11.5039
▁الزواج	-11.504
ast	-11.504
▁جبر	-11.504
▁تلا	-11.5041
قمر	-11.5042
▁ربع	-11.5043
▁ضربه	-11.5044
تهدف	-11.5046
▁/&	-11.5046
تقابل	-11.5047
توركى	-11.5047
▁خاف	-11.5048
▁أخرى	-11.5048
مقاطعات	-11.5049
عالي	-11.5049
▁باعتباره	-11.5054
▁فرانكو	-11.5055
▁دقيقة	-11.5056
مستشفى	-11.5057
▁مزيكا	-11.5057
▁ستون	-11.5057
▁نوم	-11.5061
▁بتحب	-11.5061
أكثر	-11.5062
▁حزن	-11.5062
▁باحث	-11.5062
ّف	-11.5066
▁تحليل	-11.5069
▁325	-11.5071
▁ساره	-11.5073
▁يفضل	-11.5074
فالنتين	-11.5074
▁نجد	-11.5074
قَ	-11.5074
ضمير	-11.508
ازمة	-11.5082
رحلة	-11.5085
هجوم	-11.5086
youtube	-11.5088
▁pravec	-11.5088
▁ماكنوت	-11.5088
▁ليسانس	-11.5089
▁مونتي	-11.5089
▁الطائف	-11.5089
▁سكرتير	-11.5089
▁الحرارة	-11.5091
▁هدايا	-11.5091
▁ويلسون	-11.5093
▁الساعه	-11.5093
▁الباشا	-11.5095
▁مورجان	-11.5096
▁بكتير	-11.5096
▁اجري	-11.5097
▁بيهتم	-11.5097
718	-11.5098
▁sin	-11.5099
▁السعد	-11.5099
▁الامراض	-11.5101
تغلب	-11.5101
▁يسيطر	-11.5103
▁وايت	-11.5105
▁ريش	-11.5105
▁حار	-11.5105
azur	-11.5108
▁عمليه	-11.5109
▁ميلانو	-11.5111
▁270	-11.5112
▁الاضطهاد	-11.5114
▁الأخبار	-11.5115
▁الفيزياء	-11.5115
lești	-11.5116
tani	-11.5116
▁الامان	-11.5117
▁أسم	-11.5117
▁عمار	-11.5117
▁الكرة	-11.5118
▁زب	-11.512
▁شئون	-11.512
حضن	-11.5121
▁عاشو	-11.5121
▁قسطنطينيه	-11.5123
▁186	-11.5128
▁الإذاعة	-11.5128
▁can	-11.5129
▁أصبح	-11.513
▁اثنا	-11.5131
▁جهد	-11.5135
non	-11.5138
▁اسلاميه	-11.5139
دبلوم	-11.5142
▁والناس	-11.5145
▁هلال	-11.5147
▁محرم	-11.5147
▁ليت	-11.515
▁الصورة	-11.5154
ieni	-11.5157
اثان	-11.5159
▁تعد	-11.5161
زمان	-11.5161
▁wo	-11.5162
▁خارجية	-11.5164
ثل	-11.5168
bir	-11.517
▁يقعد	-11.5172
▁الرسوم	-11.5175
kat	-11.5176
uch	-11.5178
▁118	-11.518
▁bob	-11.5182
▁انفصل	-11.5183
▁بيض	-11.5186
▁وكتاب	-11.5186
ical	-11.5187
eli	-11.5189
▁football	-11.5191
▁السلاجقه	-11.5191
▁بوهيموند	-11.5191
▁ايطالى	-11.5191
▁الصهيوني	-11.5191
▁القضاه	-11.5191
▁الاجمالى	-11.5191
▁يصل	-11.5191
▁البحار	-11.5191
848	-11.5191
▁تشغيل	-11.5191
▁سيرة	-11.5192
▁الاستيلاء	-11.5195
▁السلفيين	-11.5195
▁تعاليم	-11.5196
سلاح	-11.5197
عتزل	-11.5199
▁اجتمع	-11.52
▁جالوت	-11.5202
▁جرام	-11.5202
▁العطور	-11.5203
▁جلوب	-11.5204
غري	-11.5206
▁الريح	-11.5206
▁للسلطان	-11.5206
▁قريبه	-11.5208
▁العسل	-11.5208
▁الفريد	-11.5211
▁زكي	-11.5212
مجله	-11.5212
تعال	-11.5216
▁الضوء	-11.5217
aca	-11.5219
اليكس	-11.5221
سعى	-11.5222
▁ليلي	-11.5223
▁بدايتها	-11.5223
▁تطلع	-11.5228
▁محاولات	-11.5228
pan	-11.5228
▁حيوانات	-11.5229
▁كورى	-11.523
▁الجميله	-11.523
▁game	-11.5233
▁رفعت	-11.5233
▁يسمع	-11.5234
كذب	-11.5235
▁اجي	-11.5235
▁الوحدة	-11.5239
▁فاطمه	-11.524
▁بيعملو	-11.5242
اڤو	-11.5243
▁راهب	-11.5245
فرع	-11.5246
▁بيروح	-11.5246
▁لمجلس	-11.5248
▁شيم	-11.5253
▁نيم	-11.5253
▁جولف	-11.5255
1964	-11.526
▁شارلوت	-11.5261
▁1885	-11.5262
▁يذكر	-11.5263
▁var	-11.5265
2008	-11.5267
مشروع	-11.5269
▁كتاباته	-11.5276
نعم	-11.5277
▁كلامه	-11.5278
▁الملابس	-11.5279
وعى	-11.5281
حصن	-11.5282
جيان	-11.5283
▁ومد	-11.5285
▁نسخ	-11.5285
▁nou	-11.5294
▁القذافى	-11.5295
▁مبتكر	-11.5295
توضيح	-11.5295
▁الاهتمام	-11.5295
▁الطيارات	-11.5295
▁الذاتى	-11.5296
▁سينمائى	-11.5296
▁اعداء	-11.5297
▁تايلاند	-11.5298
▁الحركات	-11.53
▁استقل	-11.5301
▁الشط	-11.5301
▁اتنصب	-11.5303
مؤسسة	-11.5304
محطات	-11.5307
شراء	-11.5308
ُر	-11.5309
▁التمانينات	-11.5309
509	-11.531
eva	-11.5311
▁سراح	-11.5313
مصلحة	-11.5314
▁ak	-11.5315
انجلترا	-11.5315
أهداف	-11.5316
▁المفتوحة	-11.5317
▁البالغ	-11.5319
▁مخصص	-11.5321
نيوس	-11.5322
▁اطلاق	-11.5325
▁آمن	-11.5326
▁الغريب	-11.5328
▁أطول	-11.5329
فسر	-11.5332
▁يقل	-11.5332
▁استضافت	-11.5335
▁البيان	-11.5336
▁كوتو	-11.5336
▁صليبيه	-11.5336
▁للعرب	-11.5337
▁احوال	-11.5338
▁لمحمد	-11.534
▁255	-11.5341
▁الْ	-11.5344
كنز	-11.5345
▁يورو	-11.5347
▁الحجم	-11.5349
▁جمهور	-11.5349
new	-11.5352
rei	-11.5354
poli	-11.5355
▁بيانات	-11.5356
▁تشكل	-11.536
▁الرجوع	-11.5362
▁لوف	-11.5365
ونز	-11.5365
▁تجارة	-11.5366
col	-11.5368
▁خطاب	-11.5373
بالخصوص	-11.5376
▁330	-11.538
wang	-11.5382
▁ميدي	-11.5384
1943	-11.5388
كتلة	-11.539
rose	-11.5393
▁قوي	-11.5393
▁الروك	-11.5395
درجات	-11.5396
▁pol	-11.54
▁اعتماد	-11.54
حوادث	-11.54
▁نقابة	-11.54
▁الأوسكار	-11.54
▁فيديرار	-11.54
dea	-11.54
▁الحكايه	-11.54
▁حنا	-11.54
▁برقوق	-11.5401
▁ويمكن	-11.5401
▁ميليشيا	-11.5401
▁غانم	-11.5401
▁منتجات	-11.5402
خساير	-11.5402
▁آرثر	-11.5403
طموح	-11.5403
▁الريحانى	-11.5403
▁محامى	-11.5404
▁الاغاني	-11.5404
سعيد	-11.5404
▁التعصب	-11.5406
▁مستقبل	-11.5409
ave	-11.5409
▁استقبل	-11.5411
حماية	-11.5412
ring	-11.5413
خليج	-11.5414
▁السحر	-11.5416
عجز	-11.5419
▁قديس	-11.5421
mia	-11.5422
▁1880	-11.5423
▁الريس	-11.5425
حالة	-11.5428
▁متنوعة	-11.5429
توقف	-11.543
▁للدولة	-11.543
▁ايفر	-11.5434
lisa	-11.5434
▁cre	-11.5435
▁sk	-11.5435
▁التجاريه	-11.5436
▁يحاول	-11.5436
593	-11.5438
القرن	-11.5439
▁لفرنسا	-11.5439
▁ديت	-11.544
خناق	-11.5441
▁رمزى	-11.5443
▁چان	-11.5443
▁تصرف	-11.5444
استقرار	-11.5444
▁المدير	-11.5444
▁التوسع	-11.5445
▁المملوك	-11.5446
لبطوله	-11.5451
▁الأغ	-11.5452
موسيقى	-11.5457
تمثل	-11.5457
ington	-11.5462
llen	-11.5463
bro	-11.5468
اوروبيه	-11.5469
لسته	-11.5471
▁كالو	-11.5473
769	-11.5476
▁قوته	-11.5477
جاني	-11.5478
bil	-11.5479
▁cher	-11.5479
tori	-11.5486
▁ريان	-11.5486
hil	-11.5487
662	-11.5487
▁بتاعته	-11.549
▁واقع	-11.5491
▁پاول	-11.5491
▁مقام	-11.5493
onia	-11.5494
▁المحافظه	-11.5497
قراط	-11.5501
666	-11.5503
830	-11.5506
▁نوڤمبر	-11.5506
▁وتطوير	-11.5506
▁يهوذا	-11.5506
▁الاجانب	-11.5506
▁ساويرس	-11.5507
▁المرحله	-11.5507
▁الجهاز	-11.5507
▁ارنست	-11.5507
▁الأشقر	-11.5508
ڤيك	-11.5508
موافقة	-11.5508
▁سلالة	-11.5508
▁الخالق	-11.5509
اتوفى	-11.5509
▁بيرج	-11.5509
▁يبدو	-11.551
▁اسكتلندا	-11.551
▁تشيت	-11.5511
▁الخميس	-11.5511
▁حاصل	-11.5512
▁پال	-11.5512
▁ويكيبيديا	-11.5513
▁حواليها	-11.5514
خبز	-11.5515
1761	-11.5515
تهتم	-11.5518
سياسة	-11.5519
بلاغ	-11.5519
ضباط	-11.552
▁بالطريق	-11.5521
▁متميز	-11.5523
▁خصوص	-11.5523
باز	-11.5524
▁اراضي	-11.5525
▁صحاب	-11.5526
خلط	-11.5528
▁المتخصص	-11.5528
السعوديه	-11.5532
▁أبواب	-11.5533
▁العقد	-11.5533
▁القطر	-11.5533
بروك	-11.5535
▁طولو	-11.5536
▁أشكال	-11.5536
مشاريع	-11.5536
hill	-11.5537
▁المبكرة	-11.5538
▁بالقاهره	-11.5538
نوم	-11.5538
▁كاد	-11.5542
▁قوميه	-11.555
▁226	-11.555
بوش	-11.5551
▁بونت	-11.5551
▁الدخل	-11.5552
▁المقاطعات	-11.5554
▁الصيفيه	-11.5556
ألب	-11.5558
hai	-11.5559
▁الجايزة	-11.5563
▁مرشح	-11.5565
▁سحب	-11.5565
▁أكل	-11.557
أثر	-11.557
صغر	-11.5571
bia	-11.5575
▁اعمل	-11.5577
▁بيرو	-11.5579
963	-11.5579
ديف	-11.5584
▁316	-11.5586
▁الفرات	-11.5586
▁بغض	-11.5586
▁ماهو	-11.5587
▁قليله	-11.5591
green	-11.5592
▁مظاهرات	-11.5592
محاربة	-11.5594
بورغ	-11.5594
▁ضاع	-11.5595
مورا	-11.5596
▁سولت	-11.5596
َرَ	-11.56
▁1886	-11.56
▁tar	-11.5603
▁الحالات	-11.5603
▁الصينى	-11.5603
▁باخ	-11.5604
▁شيكاجو	-11.5614
▁تصفيات	-11.5614
▁south	-11.5614
▁التدريس	-11.5614
▁التدريب	-11.5614
▁الأثرية	-11.5614
zhang	-11.5615
▁الحقيقه	-11.5615
▁مملكته	-11.5616
▁الساعة	-11.5617
▁ازاي	-11.562
يفيد	-11.562
▁هاشم	-11.562
936	-11.5622
حفر	-11.5623
756	-11.5624
▁المستوطنين	-11.5625
نشا	-11.5625
▁265	-11.5626
صان	-11.5626
▁شهير	-11.5628
▁الشرا	-11.5629
شمس	-11.563
▁للغات	-11.563
نضال	-11.5633
▁بتنتج	-11.5633
▁پورتوجال	-11.5633
▁براج	-11.5635
▁ken	-11.5638
▁البقر	-11.5638
▁زويل	-11.5639
gawa	-11.564
▁الكرو	-11.564
طاف	-11.5642
▁فهي	-11.5642
دبح	-11.5645
▁1879	-11.5646
▁دمج	-11.5649
▁تشيس	-11.5649
▁المنتجات	-11.565
744	-11.5652
▁نقلت	-11.5652
▁kon	-11.5653
▁صلى	-11.5655
يشكا	-11.5659
rick	-11.5661
▁ماتشات	-11.5661
▁تتبع	-11.5663
▁سنوي	-11.5663
كاد	-11.5664
ive	-11.5665
▁الأكاديمية	-11.5666
1965	-11.5666
▁115	-11.5667
▁ثانية	-11.567
▁طيبة	-11.5671
▁المواقع	-11.5678
896	-11.5684
▁نشرها	-11.5685
▁التمرد	-11.5688
عترض	-11.5688
▁اشوف	-11.569
▁تاجر	-11.5691
▁بدايته	-11.5692
cal	-11.5695
ليڤ	-11.5695
bell	-11.5699
▁دينيس	-11.57
ille	-11.5701
▁الإنجليزية	-11.5701
سكت	-11.5704
▁(7	-11.5704
حزاب	-11.5706
▁حاولت	-11.5707
باحث	-11.5709
▁اجتماعى	-11.571
▁بريج	-11.5711
▁قاسم	-11.5711
▁النبات	-11.5712
bau	-11.5713
قُ	-11.5714
▁الميلادي	-11.5717
ائيل	-11.5719
far	-11.5721
▁عابدين	-11.5723
أوركسترا	-11.5723
▁متطرف	-11.5723
harvard	-11.5723
▁المختلفه	-11.5723
▁الديمقراطية	-11.5723
تعويض	-11.5723
▁جابرييل	-11.5723
▁الرواية	-11.5724
▁أطفال	-11.5724
▁خامس	-11.5724
▁مشكله	-11.5726
▁نهايه	-11.5727
▁الهواء	-11.5727
▁المراجع	-11.5733
▁حازم	-11.5734
▁فعلا	-11.5734
▁عميد	-11.5734
990	-11.5735
▁قدروا	-11.5739
▁كيرا	-11.574
عاصمة	-11.5745
حاز	-11.5746
▁للدوله	-11.5746
جهاد	-11.5746
▁أظهر	-11.575
▁ريح	-11.575
▁قصد	-11.5751
▁سيدنى	-11.5752
▁جمل	-11.5753
بغداد	-11.5758
▁الغنائية	-11.5758
▁مستخدم	-11.5762
▁يهد	-11.5762
▁الالمان	-11.5772
▁علميه	-11.5772
▁والتي	-11.5773
▁يعود	-11.5778
▁char	-11.5781
قاسم	-11.5781
▁لبيب	-11.5783
جنون	-11.5784
▁المدنية	-11.5784
▁بهاء	-11.5785
▁ياللى	-11.5786
▁التشيك	-11.5787
▁بالاضاف	-11.5789
▁تشيلى	-11.5789
1099	-11.5792
▁راحو	-11.5793
▁بتمثل	-11.5793
▁لوحات	-11.5793
سعود	-11.5794
▁لوح	-11.5794
▁الكهربا	-11.5795
▁الملا	-11.5796
▁وبقي	-11.5796
أعضاء	-11.5797
▁مطلع	-11.5797
رحيل	-11.58
fin	-11.5805
▁مكتبه	-11.581
▁البدر	-11.5813
▁1861	-11.5815
▁رسمية	-11.5818
سانت	-11.5819
صحابه	-11.5819
فترة	-11.5823
▁القطاع	-11.5823
▁الأسد	-11.5825
▁الضرب	-11.5828
nan	-11.5828
rești	-11.5831
▁أثناء	-11.5833
▁سپتمبر	-11.5833
▁العثمانلى	-11.5833
▁المؤمنين	-11.5833
▁قصيدة	-11.5833
▁لمنع	-11.5833
موسوعة	-11.5833
برز	-11.5833
▁اللغوي	-11.5834
▁الطلاب	-11.5834
▁الديانه	-11.5835
▁oak	-11.5837
▁معينة	-11.5837
=129	-11.5837
▁جونيور	-11.5838
▁ليونارد	-11.5838
▁مروان	-11.584
▁ڤودا	-11.5841
▁شاد	-11.5841
▁امتداد	-11.5841
charles	-11.5843
▁دوج	-11.5844
▁ساوث	-11.5846
▁قصور	-11.5846
▁الاشرف	-11.5846
▁جاف	-11.5847
▁السلوك	-11.585
▁قائل	-11.5851
▁القطن	-11.5852
فرنسي	-11.5854
▁بورج	-11.5854
▁cro	-11.5856
▁التقسيم	-11.5857
نده	-11.5859
▁أداء	-11.586
▁دلوقت	-11.5862
رسالة	-11.5867
▁يونس	-11.5867
▁جولدن	-11.5867
مرور	-11.5868
مسجد	-11.587
▁لاحق	-11.5871
▁جاد	-11.5872
▁الهندوس	-11.5872
625	-11.5873
اصول	-11.5875
▁آدمين	-11.5876
▁مواضيع	-11.5879
تصب	-11.5882
aut	-11.5882
چان	-11.5885
▁الغضب	-11.5886
▁مصالح	-11.5888
▁الورق	-11.5888
تطوع	-11.589
يموس	-11.5892
="165	-11.5892
uf	-11.5895
2011	-11.59
▁افتتحت	-11.5901
▁غنائي	-11.5904
▁الوليد	-11.5906
jun	-11.5912
1987	-11.5912
راى	-11.5914
ois	-11.5917
▁سكار	-11.592
▁فضلو	-11.592
▁پيترو	-11.5921
▁مقارنة	-11.5925
▁سونى	-11.5926
▁هارون	-11.5931
▁طاهر	-11.5932
641	-11.5933
أغنية	-11.5936
bach	-11.5939
▁الايطالى	-11.5944
▁بالإضافة	-11.5944
▁ستوكهولم	-11.5944
▁بونابرت	-11.5944
▁استانبول	-11.5944
▁للولايات	-11.5944
▁تصريح	-11.5944
▁المجلات	-11.5944
▁كيب	-11.5944
▁يشارك	-11.5946
تصغير	-11.5946
▁طبيعة	-11.5947
▁الكنسي	-11.5948
▁كونراد	-11.5948
▁الصفر	-11.595
تقاعد	-11.595
بركة	-11.5952
▁eric	-11.5953
▁العباد	-11.5954
فيفا	-11.5954
مراسل	-11.5955
șeni	-11.5956
▁تخل	-11.5956
▁كراى	-11.596
=2119	-11.596
▁فلاح	-11.5963
▁ركن	-11.5964
▁top	-11.5967
▁يسمح	-11.5968
▁إياس	-11.597
ظاهرة	-11.597
َـ	-11.597
010	-11.597
▁اجيا	-11.5971
▁ممالك	-11.5971
▁cho	-11.5972
▁تولي	-11.5974
▁الرسام	-11.5975
▁الصحفيين	-11.5976
▁جمالك	-11.5976
▁(9	-11.5979
▁فاست	-11.5979
▁المحتل	-11.5981
hat	-11.5982
▁العذاب	-11.5982
▁انهزم	-11.5983
▁لهذه	-11.5985
▁اريس	-11.5988
كازينو	-11.5988
▁مشهورة	-11.5992
انتقاد	-11.5994
▁نموذج	-11.5995
▁وحشه	-11.5997
▁ناوى	-11.5997
جاهد	-11.5999
روبرت	-11.6
mine	-11.6003
▁جمهورى	-11.6003
ستيف	-11.6005
▁لبلد	-11.6006
مفكرين	-11.6007
▁كارم	-11.6013
سكوت	-11.6015
▁روى	-11.6016
▁عشق	-11.6017
▁بيقولوا	-11.6019
▁محترفه	-11.6022
▁مدخل	-11.6028
▁جوليا	-11.6029
مشي	-11.6031
▁اسمر	-11.6032
رجاء	-11.6032
أديب	-11.6032
نوڤا	-11.6033
▁اليهودى	-11.6039
كيفن	-11.6039
سليمان	-11.604
▁صغر	-11.604
▁قدرات	-11.604
عرش	-11.6041
▁بارت	-11.6045
▁اللعبة	-11.6046
▁باقي	-11.6046
▁كره	-11.6047
2010	-11.6051
▁1867	-11.6051
▁294	-11.6051
▁الألحان	-11.6056
▁چورچ	-11.6056
▁award	-11.6056
▁ridge	-11.6056
▁القبائل	-11.6056
▁بيحتفل	-11.6056
▁كاميرون	-11.6056
▁والعشرين	-11.6056
▁المحافظين	-11.6056
▁الزراعية	-11.6056
▁york	-11.6056
قرطاج	-11.6057
▁الحقيقة	-11.6057
▁معرفة	-11.6057
▁أهو	-11.6057
ساتو	-11.6057
▁الاوروبي	-11.6058
▁اعدام	-11.6058
zer	-11.6059
▁ايطالية	-11.6059
▁sân	-11.606
شتاق	-11.6061
عتها	-11.6062
▁ارتكب	-11.6062
▁معامل	-11.6062
فيزيا	-11.6063
▁انتقال	-11.6065
▁west	-11.6067
جران	-11.6068
▁كاستيا	-11.6068
▁الأل	-11.6069
▁المدرس	-11.607
▁bou	-11.607
جيس	-11.607
▁نافار	-11.6073
▁اشهرهم	-11.6075
▁الدوادار	-11.6077
▁sho	-11.608
▁تتمتع	-11.608
▁ضرور	-11.608
▁قيمه	-11.6082
▁سيناء	-11.6084
▁انهيار	-11.6084
لهجه	-11.6086
▁يصبح	-11.6086
▁للعالم	-11.6091
▁بالليل	-11.6092
▁لدراسة	-11.6092
كاليفورنيا	-11.6093
▁لامريكا	-11.6094
سمه	-11.6094
مفهوم	-11.6095
▁بقر	-11.6095
الولايات	-11.6096
▁بعديها	-11.6097
illa	-11.6097
المعروف	-11.6098
كيرا	-11.6102
تأكد	-11.6102
▁البلا	-11.6107
▁دايرة	-11.6107
▁حريق	-11.6109
▁سلمان	-11.6109
▁الصيفية	-11.611
▁وياه	-11.6111
▁شاور	-11.6111
▁موز	-11.6112
▁1815	-11.6117
▁ابيب	-11.6119
لعيله	-11.6123
▁cri	-11.6125
▁انتخابه	-11.6127
▁فرحة	-11.6127
▁بالحب	-11.6128
▁سوفت	-11.613
▁طبقة	-11.6132
▁النسا	-11.6133
▁لويز	-11.6133
▁امبراطورية	-11.6134
▁هاند	-11.6134
ليبي	-11.6137
gue	-11.6139
▁الآب	-11.614
▁الموبايل	-11.614
asca	-11.6141
▁التجمع	-11.6142
▁اساسى	-11.6143
▁المتطرف	-11.6143
▁3000	-11.6145
▁الهول	-11.6146
لتحق	-11.6147
▁marie	-11.615
أحلام	-11.6151
▁قضايا	-11.6153
ex	-11.6153
nar	-11.6154
إذاعة	-11.6156
▁كبرى	-11.6159
▁موال	-11.6159
عباس	-11.6159
تصدى	-11.6159
648	-11.6161
انتخابات	-11.6164
▁فرانس	-11.6167
▁عاشق	-11.6169
▁وابتدت	-11.617
▁المرقسيه	-11.617
▁هيتلر	-11.617
▁الرحيم	-11.617
▁طفولته	-11.617
▁النازى	-11.6171
▁حياتى	-11.6172
إيطالي	-11.6172
لتق	-11.6173
▁الخامسة	-11.6173
▁رحلات	-11.6174
▁خفيف	-11.6175
▁اتاسس	-11.6175
▁الملايين	-11.6175
▁شرط	-11.6175
▁بالاس	-11.6176
يدون	-11.6176
▁طراز	-11.6176
▁والفنون	-11.6176
▁rock	-11.6177
▁القناه	-11.6177
▁أجمل	-11.6178
▁اسطول	-11.618
مراقبة	-11.618
▁دياب	-11.6185
مجرد	-11.6186
eș	-11.6187
▁mur	-11.6188
أداء	-11.619
▁jim	-11.619
▁المجيد	-11.619
▁فكره	-11.6195
▁كاهن	-11.6195
879	-11.6199
▁تحكم	-11.6199
جاء	-11.6201
▁لتحقيق	-11.6204
▁البحيرة	-11.6205
محاكم	-11.6209
▁ابناء	-11.6209
أجزاء	-11.621
▁المادة	-11.6211
▁يبقا	-11.6215
naka	-11.6217
▁اتأثر	-11.6219
hon	-11.6219
▁عايشه	-11.6219
▁الشجر	-11.6219
▁جند	-11.622
▁يفهم	-11.6228
▁سباح	-11.6229
mc	-11.6231
توسع	-11.6234
ريانا	-11.6234
▁الظلم	-11.6235
عدالة	-11.6235
enberg	-11.6236
▁اتصال	-11.6238
▁كتار	-11.624
▁شعبى	-11.6241
بوليس	-11.6241
▁أخير	-11.6242
شيما	-11.6243
▁الاسلامي	-11.6243
▁تيو	-11.6243
iti	-11.6245
▁استمرار	-11.6247
▁ترس	-11.6248
▁مؤيد	-11.6251
▁ثقافيه	-11.6254
olo	-11.6255
▁park	-11.6257
▁بجد	-11.6258
▁يفكر	-11.6265
▁شوقي	-11.6266
▁دنمارك	-11.6268
▁اسماء	-11.6268
▁الخلف	-11.627
▁خطف	-11.627
▁صورت	-11.6274
▁البرية	-11.6279
1426	-11.628
أستاذ	-11.6282
▁دقلديانوس	-11.6285
▁ستيوارت	-11.6285
ديكتاتور	-11.6285
▁وظيفته	-11.6285
▁أزياء	-11.6285
▁سيسيليا	-11.6285
▁الفتوح	-11.6285
▁المقطم	-11.6285
▁إكمن	-11.6285
هضبة	-11.6285
▁الناجح	-11.6285
▁شنوده	-11.6285
▁شهاب	-11.6285
▁يابانيه	-11.6285
▁والعلوم	-11.6286
▁برود	-11.6287
bur	-11.6289
▁الآن	-11.6291
▁الإسرائيلي	-11.6292
▁يتجوز	-11.6293
عميد	-11.6294
▁والتلفزيون	-11.6296
▁استسلم	-11.6299
▁الاسرة	-11.6301
astro	-11.6305
etti	-11.6305
664	-11.6306
حزن	-11.6306
▁الجالي	-11.6307
▁الشرب	-11.6307
▁سلوك	-11.6308
▁تركيب	-11.6308
رخص	-11.6308
عندها	-11.6314
llo	-11.6314
مضى	-11.6315
deni	-11.6316
ازمه	-11.6324
صالة	-11.6325
▁تجارية	-11.6325
نسبة	-11.6327
▁السوري	-11.6327
▁شباك	-11.6328
ڤيديو	-11.6329
▁264	-11.6331
▁لعدد	-11.6331
▁قبر	-11.6334
▁أخو	-11.6334
621	-11.6336
▁غرق	-11.6336
▁يحط	-11.634
▁ترين	-11.6341
4%	-11.6345
▁să	-11.6346
▁اويدا	-11.6348
▁مكرم	-11.6348
nna	-11.6349
▁ana	-11.635
رُ	-11.6352
▁103	-11.6354
1981	-11.6356
▁الاذاعه	-11.636
جيمس	-11.636
تسامح	-11.6361
رط	-11.6361
▁جراف	-11.6361
ؤسس	-11.6362
▁كيان	-11.6364
▁بحرية	-11.6368
انجل	-11.6369
▁السلف	-11.6374
gel	-11.6374
▁نايت	-11.6375
▁اتسببت	-11.638
تنكر	-11.6381
تبدأ	-11.6384
يسوس	-11.6385
▁لمع	-11.6388
عودة	-11.6389
▁زاك	-11.639
log	-11.6391
▁عملات	-11.6391
gor	-11.6393
▁انخفاض	-11.6399
▁نوح	-11.6399
zimmerwald	-11.6401
▁الخمسينيات	-11.6401
▁عبدالعزيز	-11.6401
▁andrew	-11.6401
▁الحضارة	-11.6402
▁بلجراد	-11.6403
▁super	-11.6403
▁بيشارك	-11.6403
▁نينوى	-11.6403
معايير	-11.6403
▁xing	-11.6403
▁مشابه	-11.6404
▁أسبوع	-11.6405
▁fé	-11.6406
▁مكة	-11.6407
▁أساسى	-11.6407
2014	-11.6407
▁الحجاج	-11.6408
▁انتقد	-11.6409
▁فايز	-11.6411
▁عدى	-11.6413
▁براين	-11.6413
wong	-11.6413
▁لقاء	-11.6415
▁جيرمان	-11.6416
▁بالمصرى	-11.6422
▁الفكره	-11.6423
▁الحوار	-11.6424
▁الحدث	-11.6425
▁التليفون	-11.6425
▁بيقوم	-11.6427
▁بيقدم	-11.6429
▁الباقي	-11.643
▁ويقول	-11.643
▁اياس	-11.643
▁ثقافي	-11.6431
تألف	-11.6433
▁اخواته	-11.6434
▁ولدت	-11.6435
▁الساعات	-11.6439
▁باعتبارها	-11.6439
تشارلز	-11.6446
▁الطيور	-11.6448
▁بولاق	-11.6449
▁الأغنية	-11.6449
▁martin	-11.645
▁امريكيه	-11.6451
تبتدى	-11.6452
▁المتقدم	-11.6453
نيابة	-11.6454
▁الرياضة	-11.6457
▁وقالت	-11.6458
▁بوجود	-11.646
اربع	-11.6461
▁يسلم	-11.6466
▁محسن	-11.6466
▁الكوميدي	-11.6469
▁كروز	-11.647
ديڤ	-11.6471
▁هاج	-11.6474
▁يونج	-11.6474
▁الكاس	-11.6475
teni	-11.6475
▁وتوفي	-11.6478
اعمال	-11.6482
▁بوجه	-11.6486
▁ايز	-11.6487
مالك	-11.6488
▁المولد	-11.6489
▁اعتزل	-11.6494
شبكه	-11.6495
▁alb	-11.6499
▁marc	-11.6504
▁مخطوط	-11.651
▁مهمته	-11.651
أدب	-11.6515
eck	-11.6515
643	-11.6516
international	-11.6519
▁القوقاز	-11.6519
▁الجرانيل	-11.6519
▁القبايل	-11.6519
▁المعمدان	-11.6519
▁التسميه	-11.6519
▁حكايه	-11.6519
▁الممكن	-11.6519
▁ألمانى	-11.6519
▁باليونانى	-11.6519
▁مشكلة	-11.6519
بالعبرية	-11.652
▁اتبنا	-11.652
▁تقرير	-11.652
قوة	-11.6521
▁المسل	-11.6523
▁قرايب	-11.6525
▁الاستخدام	-11.6526
▁اذاعي	-11.6527
▁رحلته	-11.6527
▁رجب	-11.6528
شركات	-11.6529
ترشح	-11.6529
▁قوام	-11.653
▁عبود	-11.6532
▁نيوتن	-11.6533
▁الوالى	-11.6533
▁الاطلاق	-11.6533
سيوارا	-11.6533
▁السبعينيات	-11.6535
نُ	-11.6536
▁الجوى	-11.6536
توافق	-11.6538
▁اسمائها	-11.6539
زاك	-11.6539
▁شئ	-11.6539
▁الحساب	-11.654
mou	-11.654
▁نظريات	-11.654
▁تسليم	-11.6541
▁تعبير	-11.6544
▁rh	-11.6547
▁الراي	-11.655
▁ثلاثة	-11.655
▁مصور	-11.6551
▁لاتينى	-11.6551
▁البرجيه	-11.6553
▁تعاون	-11.6553
▁يقابل	-11.6553
▁معلم	-11.6558
▁يخلى	-11.6558
▁اشرف	-11.6559
kk	-11.6562
▁باش	-11.6563
▁الأستاذ	-11.6565
▁فنى	-11.6568
حلق	-11.6569
▁ببعض	-11.6569
▁tă	-11.657
▁الماده	-11.6572
محل	-11.6573
تقع	-11.6576
▁عربيات	-11.6579
▁ذكرت	-11.6584
lat	-11.6585
lic	-11.6587
▁عمود	-11.6588
▁تغييرات	-11.6588
▁حديثه	-11.6588
▁رياضه	-11.6591
▁الالف	-11.6597
596	-11.66
توفيق	-11.66
▁وايلد	-11.6602
▁مبادئ	-11.6603
طيور	-11.6606
▁بانت	-11.661
محروس	-11.6611
left	-11.6611
كِ	-11.6612
▁جام	-11.6615
مجد	-11.6618
abe	-11.6619
ايران	-11.6622
▁سق	-11.6627
تصنع	-11.6629
نسك	-11.6629
sser	-11.663
إت	-11.6636
▁الأصوات	-11.6638
▁الدبلوماسي	-11.6638
▁الميكانيكا	-11.6638
▁يورجيتيس	-11.6638
▁ابحاث	-11.6638
▁توقيع	-11.6638
leiden	-11.6638
▁سيڤييا	-11.6638
▁خلدون	-11.6638
▁مأمون	-11.6638
▁انفصال	-11.6638
▁استطاع	-11.6638
▁الاسماعيليه	-11.6638
▁daniel	-11.6638
الاسترداد	-11.6638
لتصنيع	-11.6638
▁رستم	-11.6638
▁الاحرار	-11.6639
▁ضفاف	-11.6639
▁الترفيه	-11.6639
center	-11.6639
▁الاسبوع	-11.6641
▁هولاندا	-11.6641
استقلال	-11.6643
▁الرائد	-11.6643
mil	-11.6643
رياضيات	-11.6643
▁مؤسسات	-11.6644
▁مده	-11.6644
▁sol	-11.6646
صفحات	-11.6647
▁النووي	-11.6649
حكومه	-11.6652
▁قناه	-11.6658
▁مراجع	-11.6659
▁نازل	-11.6661
▁الحريات	-11.6661
▁بقوة	-11.6662
ert	-11.6662
هجرة	-11.6665
gio	-11.6666
▁ملحم	-11.6669
▁استعراض	-11.667
ota	-11.6671
حرية	-11.6672
anca	-11.6673
1700	-11.6674
▁بترجع	-11.6677
▁الأساسية	-11.668
▁خاض	-11.6681
=2089	-11.6682
راهبات	-11.6684
▁karl	-11.6684
▁للجمهور	-11.6687
بلجيكا	-11.6688
توزع	-11.6688
▁اسره	-11.6689
تفجير	-11.6691
رؤية	-11.6693
▁239	-11.6695
▁البنت	-11.6695
▁فنيه	-11.6695
▁شيب	-11.6696
946	-11.6699
▁المطلق	-11.6701
رانس	-11.6705
▁المحليه	-11.6707
▁الغنى	-11.6707
▁تابعة	-11.6712
▁اخرج	-11.6713
▁لانج	-11.6716
▁خطط	-11.6729
لهوش	-11.6729
▁اغانيه	-11.6733
▁لكتاب	-11.6737
▁ضمنهم	-11.6737
وظف	-11.6741
▁kir	-11.6742
▁حولين	-11.6743
▁الثقافي	-11.6746
▁مسيطر	-11.675
▁وحدات	-11.6752
▁فورس	-11.6754
▁ترجمة	-11.6757
▁beijing	-11.6758
▁formula	-11.6758
▁زدينكا	-11.6758
▁خراسان	-11.6758
▁خسارة	-11.6758
▁الشيطان	-11.6758
رهبنة	-11.6758
▁وظايف	-11.6758
▁ضعيف	-11.6758
▁تغرى	-11.6758
▁مبيعات	-11.6759
▁إحنا	-11.6759
▁وعملت	-11.6759
لندن	-11.6759
▁الأحيان	-11.6762
▁مغنية	-11.6762
▁الهندسه	-11.6762
▁البعث	-11.6762
أنحاء	-11.6764
▁بلادي	-11.6765
▁الأصلى	-11.6766
▁phil	-11.6766
▁كجزء	-11.6766
فئ	-11.6766
▁أقوى	-11.6767
▁القوط	-11.6767
نصف	-11.6769
▁بانكس	-11.6769
▁المفكر	-11.6769
▁الشرف	-11.6769
▁ضمت	-11.6771
ألوان	-11.6772
▁اتوسع	-11.6774
▁الأرثوذكسيه	-11.6775
قراءة	-11.6776
▁الموسم	-11.6776
فاصل	-11.6779
▁التحليل	-11.678
▁الكمبيوتر	-11.6787
▁الزهر	-11.6788
▁القيصر	-11.6788
miller	-11.679
▁القديسين	-11.679
▁للمسرح	-11.6794
▁tam	-11.6796
▁المكتبة	-11.6798
▁سمك	-11.6799
issa	-11.6801
▁مرجع	-11.6802
▁صراعات	-11.6804
▁رئ	-11.6805
wing	-11.6805
ere	-11.6806
▁وجدى	-11.6807
شفا	-11.6809
▁الفردى	-11.6811
يعقوب	-11.6812
طاقه	-11.6813
▁عزب	-11.6813
▁إنشاء	-11.6815
حمر	-11.6816
الاشتراك	-11.6821
مسرحية	-11.6822
ادوارد	-11.6822
▁الأكل	-11.6824
gla	-11.6825
▁الراس	-11.6825
▁الليلة	-11.6825
▁المصدر	-11.6826
line	-11.6827
كرون	-11.6828
▁bet	-11.6829
▁حدد	-11.6829
▁فبي	-11.6832
▁متعدد	-11.6838
luc	-11.6839
▁pet	-11.6844
▁متكون	-11.6845
1710	-11.6845
▁فاتن	-11.6846
▁الحرة	-11.6849
▁الاتصال	-11.6853
▁المواطن	-11.6854
المانيا	-11.6854
شترى	-11.6855
كتاب	-11.6857
▁البشرية	-11.6857
▁كارين	-11.686
الحروف	-11.6861
▁تتم	-11.6861
يليوس	-11.6863
▁bl	-11.6869
ــــــــ	-11.6869
oy	-11.6872
▁لتعريف	-11.688
▁اسحاق	-11.688
▁غريغور	-11.688
▁المستقلة	-11.688
▁الشناوى	-11.688
▁الأهرام	-11.688
▁مباراة	-11.688
▁الناطق	-11.688
▁السبعينات	-11.688
▁البدايه	-11.688
▁الشيعه	-11.6881
▁البوسنه	-11.6881
▁جاليسيا	-11.6882
▁city	-11.6882
▁ألكسندر	-11.6883
▁جوردان	-11.6884
▁چيمس	-11.6884
زاڤ	-11.6884
▁الأوبرا	-11.6884
لشؤون	-11.6886
▁واقف	-11.6887
▁تجارى	-11.6887
▁مادة	-11.6889
lio	-11.689
▁إيران	-11.6891
▁مونيكا	-11.6893
▁christ	-11.6894
▁پاريس	-11.6894
تشكيل	-11.6895
▁كارد	-11.6896
تخلف	-11.6896
▁قاسي	-11.6898
سابقات	-11.6898
▁ييجى	-11.69
▁الطرفين	-11.69
▁بيطلع	-11.6907
▁اتوقف	-11.6907
▁انتجه	-11.691
▁اجبر	-11.6912
ever	-11.6913
▁والعالم	-11.6914
▁الاسبانيه	-11.6915
oara	-11.6915
محطة	-11.6918
سيخ	-11.692
▁أط	-11.6923
jones	-11.6925
▁لحقوق	-11.6926
▁cc	-11.6934
pro	-11.6934
▁يهوديه	-11.6937
▁التربية	-11.694
أصول	-11.6942
▁مهر	-11.6943
فيكتور	-11.6944
▁ستور	-11.6946
▁تخت	-11.6947
▁حكومه	-11.6948
▁الرق	-11.6951
خاصم	-11.6952
بالانجليزي	-11.6953
▁عطيه	-11.6953
716	-11.6956
تايم	-11.6956
▁رومانى	-11.6956
▁كارول	-11.6957
▁مشوارها	-11.696
ust	-11.6962
ؤول	-11.6963
sig	-11.6963
zel	-11.6964
▁السورية	-11.6968
▁تاو	-11.697
تلقى	-11.6972
▁الصوف	-11.6988
محيط	-11.6988
▁بالمر	-11.6993
▁bla	-11.6996
▁الدرام	-11.6999
لمس	-11.7
آر	-11.7001
لأ	-11.7002
يوز	-11.7002
تلفزيون	-11.7003
ليزا	-11.7003
▁ارسينوى	-11.7003
▁التأليف	-11.7003
▁الضحايا	-11.7003
▁الفراعنه	-11.7003
▁بنسلفانيا	-11.7003
▁ڤيكتوريا	-11.7003
▁richard	-11.7003
▁الموظفين	-11.7004
▁كوردوبا	-11.7004
▁التخن	-11.7004
▁للسيدات	-11.7004
▁الصناعية	-11.7004
▁لينكا	-11.7004
▁المقابر	-11.7004
تقارير	-11.7005
▁ايلينوى	-11.7006
▁شارلمان	-11.7006
▁وولف	-11.7007
▁العقاد	-11.7008
▁روايه	-11.7009
انشاء	-11.701
▁اندريس	-11.7015
▁حاجى	-11.7017
zy	-11.7018
▁جيران	-11.7019
▁اتعدم	-11.702
نشيد	-11.7021
▁الانقلاب	-11.7022
▁يكف	-11.7022
▁الشتا	-11.7024
العراق	-11.7026
▁صدور	-11.7027
سمان	-11.7028
▁دلتا	-11.7028
▁قتلوا	-11.7029
▁معظمهم	-11.7029
▁قريش	-11.7029
ضرورة	-11.703
▁العنب	-11.703
▁للشعب	-11.7032
▁اتكتبت	-11.7037
▁هانز	-11.7038
▁اختبار	-11.7041
▁مخطوطات	-11.7041
▁bri	-11.7041
▁سلوبوزيا	-11.7043
▁1858	-11.7045
عثمان	-11.7047
▁الزب	-11.7048
▁1868	-11.7049
844	-11.705
▁فدخل	-11.705
lk	-11.7056
▁طيف	-11.7057
▁اشار	-11.7058
▁فقر	-11.7061
▁جارا	-11.7063
▁والغرب	-11.7063
▁مفيد	-11.7064
مايك	-11.7069
زيارة	-11.707
▁أعمالها	-11.707
▁ايرل	-11.7072
▁sim	-11.7073
أكد	-11.7074
▁تلقى	-11.7074
▁تلعب	-11.7075
ديفيد	-11.7078
حوالي	-11.7083
▁الخروج	-11.7086
اجرا	-11.7087
جراحة	-11.7088
▁فقط	-11.709
تكوين	-11.709
نِ	-11.709
▁لمركز	-11.7091
▁مشاريع	-11.7095
نحاس	-11.7097
▁اعرف	-11.7099
▁اسود	-11.71
▁اعتبرت	-11.7101
چير	-11.7101
▁mark	-11.7104
▁مدبحة	-11.7104
=89	-11.7109
▁الموحد	-11.7109
▁تيسى	-11.7111
▁1883	-11.7112
▁كلير	-11.7115
lot	-11.7115
▁نادية	-11.7116
▁وظيفة	-11.7117
حروب	-11.7117
يفيتش	-11.7119
▁كامين	-11.7122
▁الجليل	-11.7124
دستور	-11.7124
تيلي	-11.7126
لخدمة	-11.7126
▁اورشليم	-11.7128
▁التأسيس	-11.7128
▁إصدار	-11.7129
▁الصلاة	-11.7129
▁الحفلات	-11.7129
▁الجغرافيا	-11.7129
ثنائى	-11.7129
▁اقصى	-11.7129
استفتاء	-11.7129
▁المشكله	-11.7129
▁steven	-11.713
▁جمباز	-11.713
▁الروايه	-11.713
cco	-11.713
فارس	-11.713
▁الألفى	-11.7131
▁أماكن	-11.7132
▁العماره	-11.7132
▁زوزو	-11.7132
▁دانى	-11.7133
▁فاضل	-11.7133
▁فرانكلين	-11.7134
2009	-11.7134
▁الغزال	-11.7135
▁1848	-11.7137
▁عصام	-11.7138
زكى	-11.7139
▁النورمان	-11.7139
▁kal	-11.714
▁قديمة	-11.7141
▁ستيفنز	-11.7142
▁الجرمان	-11.7143
589	-11.7146
▁يعتمد	-11.7148
مماليك	-11.7148
تعلن	-11.7149
▁كارتر	-11.7149
▁فرانسوا	-11.7149
▁1863	-11.7152
▁فوزي	-11.7152
▁فوافق	-11.7157
▁لوثر	-11.7157
black	-11.7159
cent	-11.716
جهزة	-11.7162
▁بتلعب	-11.7163
▁يرد	-11.7163
▁مثلاً	-11.7163
▁الثانويه	-11.7164
پال	-11.7165
▁عدت	-11.7165
ادارة	-11.7166
صميم	-11.7167
▁الفندق	-11.7167
ماتش	-11.7167
▁ضاعت	-11.7172
▁الضغط	-11.7173
ثقة	-11.7173
▁ايمي	-11.7179
ثال	-11.7179
جيورج	-11.718
شيف	-11.7182
▁المكون	-11.7184
1996	-11.7186
▁واشنطن	-11.7186
▁الجماعات	-11.7186
▁اطول	-11.7187
▁اربعين	-11.7188
▁الاغنيه	-11.7189
▁والدة	-11.719
▁رايحين	-11.719
يوبى	-11.719
لويس	-11.7195
▁الإسلامي	-11.7196
تحاول	-11.7197
تدمير	-11.7199
طح	-11.7202
▁kle	-11.7203
▁صيفية	-11.7206
▁مونتى	-11.7206
▁بالعمل	-11.7209
enne	-11.721
▁1849	-11.721
▁اهلها	-11.7212
▁احتمال	-11.7213
▁المغنى	-11.7214
▁يشكل	-11.7217
cito	-11.7223
يوحنا	-11.7225
▁الحاضر	-11.7233
▁نقول	-11.7242
966	-11.7245
جتمع	-11.7247
▁لحكم	-11.725
سمير	-11.7251
رنس	-11.7252
▁روسو	-11.7252
▁schmidt	-11.7255
▁كازاخستان	-11.7255
▁اعتزال	-11.7255
عقوبة	-11.7255
▁الجوامع	-11.7255
▁الروايات	-11.7255
▁اپريل	-11.7256
▁اقتحم	-11.7256
▁للمغول	-11.7257
▁الأزياء	-11.7259
مدابح	-11.7259
▁حرارة	-11.726
▁اعتنق	-11.7261
2019	-11.7262
ئذ	-11.7265
▁فقير	-11.7265
مائة	-11.7266
▁الصحفي	-11.7269
شكوك	-11.7271
▁والمسرح	-11.7271
▁الرئاسية	-11.7271
▁شروط	-11.7273
▁ذنب	-11.7274
▁دراما	-11.7275
▁مولر	-11.7277
▁النادي	-11.7279
▁بتظهر	-11.7281
غلط	-11.7283
▁اتغلب	-11.7283
▁انخفض	-11.7285
▁مطربة	-11.7286
ديريك	-11.7288
▁جويل	-11.729
▁هربت	-11.7292
مواقع	-11.7295
▁الذاتية	-11.7297
▁قولوا	-11.7297
تصدير	-11.7298
ming	-11.7299
tie	-11.73
بتدى	-11.7303
أسامى	-11.7304
كاميرا	-11.7304
جريد	-11.7304
▁نظرة	-11.7304
تجنب	-11.7306
▁الرمز	-11.7308
موقع	-11.7309
جرام	-11.7311
▁mol	-11.7315
▁امكاني	-11.7319
كوتا	-11.7319
▁شوك	-11.7319
▁يبقو	-11.7325
zzi	-11.7327
▁كوتش	-11.7328
تكريم	-11.7329
آب	-11.7331
الاسلام	-11.7334
țu	-11.7336
▁dol	-11.7337
pel	-11.7339
صوفي	-11.7339
544	-11.7344
جوزيف	-11.7344
sarah	-11.7351
بادر	-11.7351
▁take	-11.7352
▁1875	-11.7354
aly	-11.7356
2002	-11.7357
▁جلب	-11.7358
تظاهر	-11.7358
ادته	-11.7358
▁نواب	-11.7361
▁يقف	-11.7364
▁فقرر	-11.7365
▁بيقدر	-11.7368
نجد	-11.7368
راجل	-11.7368
▁لورا	-11.737
▁اداري	-11.7373
▁بيضا	-11.7375
عُ	-11.738
▁complex	-11.7383
taylor	-11.7383
▁بالاعدام	-11.7383
▁بيختلف	-11.7383
▁الشريعه	-11.7383
▁الهرسك	-11.7383
▁الايرانيه	-11.7383
▁منظمات	-11.7384
▁مارا	-11.7384
▁مسيحية	-11.7385
▁حقيقة	-11.7385
▁كولومبوس	-11.7386
1%	-11.7386
▁الهنود	-11.7386
ضطهد	-11.7387
▁ينضم	-11.7387
▁هانسن	-11.7388
▁ألفريد	-11.7389
▁المعلق	-11.7389
▁جاردن	-11.739
ضخ	-11.7391
▁خسرت	-11.7392
▁صابر	-11.7394
▁222	-11.7394
▁بتحكم	-11.7395
▁scott	-11.7395
▁العريش	-11.74
ختم	-11.7402
▁جوجل	-11.7402
▁التصويت	-11.7407
▁الفلكى	-11.7409
▁مولود	-11.741
▁بيدور	-11.7411
▁المتعلق	-11.7412
جوايز	-11.7413
▁الابتدائية	-11.7415
▁بإنها	-11.7415
▁اتشكل	-11.7417
▁247	-11.742
▁معتمد	-11.7421
▁1250	-11.7422
▁فايت	-11.7423
▁اشعار	-11.7423
▁تاتار	-11.7425
جريدة	-11.7429
▁يمسك	-11.743
▁محامي	-11.743
▁نينا	-11.7431
nești	-11.7434
▁رأيه	-11.7434
▁بشير	-11.7434
▁اسأل	-11.7441
▁الكاتوليكية	-11.7442
=2081	-11.7445
إسرائيل	-11.7446
▁والمع	-11.7447
▁القوه	-11.7453
إنشاء	-11.7456
▁فطلب	-11.7457
يوكو	-11.7457
اوروبا	-11.7458
▁يواجه	-11.7458
بعثة	-11.7461
▁الانسانيه	-11.7461
عجل	-11.7462
▁تشيلي	-11.7463
▁للغه	-11.7464
▁thomas	-11.7465
-2	-11.7466
▁بوريس	-11.7466
إنجيل	-11.7466
نشو	-11.7467
جيف	-11.7467
اتفاقيه	-11.7469
▁أشار	-11.747
▁موجودين	-11.747
تأسس	-11.747
▁المحافظة	-11.747
hur	-11.7472
▁خارجيه	-11.7476
انتصار	-11.7477
▁نيت	-11.7477
▁حفلة	-11.7482
▁العصب	-11.7484
▁بيبين	-11.7488
محرر	-11.7491
پيت	-11.7494
ّع	-11.7497
▁هونج	-11.7506
▁پورت	-11.7508
▁كونستانتين	-11.7513
▁الكائنات	-11.7513
▁انطاكيه	-11.7513
▁تفاصيل	-11.7513
▁فلاديمير	-11.7513
▁لتحرير	-11.7513
▁الألبوم	-11.7513
▁التبغ	-11.7513
▁المجاورة	-11.7513
▁صندوق	-11.7513
cinema	-11.7513
▁ظرف	-11.7513
▁مخصوص	-11.7514
▁احترام	-11.7514
▁الجماعه	-11.7514
▁بالدوين	-11.7514
▁بطرسبورج	-11.7514
▁matt	-11.7514
▁ڤيجاس	-11.7515
▁بلغاريا	-11.7515
اندماج	-11.7515
إقامة	-11.7516
▁سلطات	-11.7516
▁طبيعى	-11.7516
▁الزهور	-11.7518
تجربه	-11.7518
▁عارفين	-11.7518
=2060	-11.752
▁سابت	-11.7521
قيس	-11.7521
▁mike	-11.7522
kra	-11.7523
▁التحول	-11.7526
اتحاد	-11.7527
▁صبري	-11.7527
▁ايفا	-11.7527
▁الحلوة	-11.7528
الادويه	-11.7528
▁رسمي	-11.7528
▁خراف	-11.753
ting	-11.7531
▁المشاهد	-11.7531
▁المقالات	-11.7533
1754	-11.7539
▁القطريه	-11.754
شوية	-11.754
طيب	-11.7547
▁المساحة	-11.7547
▁المجالات	-11.7549
▁ماريان	-11.755
ște	-11.7551
heim	-11.7551
▁الجماعة	-11.7552
▁تحتل	-11.7553
▁راكو	-11.7553
▁لغايه	-11.7554
▁اعتزلت	-11.7554
▁بلدية	-11.7555
▁جنيف	-11.7557
▁1854	-11.7559
قيق	-11.7566
▁أدوب	-11.7566
▁مضاد	-11.7569
="2048	-11.7574
▁ومح	-11.7577
▁ناج	-11.758
▁بدت	-11.7583
▁هدد	-11.7584
سقوط	-11.7587
َهُ	-11.7587
▁التكنولوجيا	-11.7587
▁تصدر	-11.7588
لمده	-11.759
▁كانيدا	-11.7591
الكنيسه	-11.7592
يسكى	-11.7592
لحم	-11.7594
ili	-11.7594
قوانين	-11.7594
▁إست	-11.7595
▁الفرج	-11.7597
▁الاسرائيليه	-11.7598
تعداد	-11.7605
▁اتلق	-11.7606
خيال	-11.7609
▁شريك	-11.761
▁الحبوب	-11.761
868	-11.761
فيرونيك	-11.7615
▁stron	-11.7627
طع	-11.7628
="2059	-11.7628
▁مستني	-11.7628
▁الفار	-11.7632
عاصم	-11.7637
الحزب	-11.7639
▁pistoia	-11.7645
▁تيمورلنك	-11.7645
▁فينلاندا	-11.7645
▁وخصوصا	-11.7645
▁التنمية	-11.7645
▁سرحان	-11.7645
▁شتيفان	-11.7645
▁ايرلاندا	-11.7645
موسوعه	-11.7646
▁الادبيه	-11.7646
▁المعرفه	-11.7646
▁الطبيعه	-11.7646
▁تادرس	-11.7646
▁هاواى	-11.7647
نفع	-11.7647
كافح	-11.7647
▁وريث	-11.7647
▁رسومات	-11.7647
▁حضارة	-11.7648
▁وتعتبر	-11.7649
▁اتسجن	-11.7649
▁المجموعه	-11.7649
▁النطاق	-11.765
▁قالهم	-11.7651
توازن	-11.7651
▁نيلسون	-11.7652
▁دييجو	-11.7653
nskaya	-11.7653
▁ابدا	-11.7653
ملامح	-11.7655
▁cap	-11.7657
▁سياحي	-11.7659
▁غرف	-11.7659
فئة	-11.766
▁للاتحاد	-11.766
▁سعر	-11.7664
جنينة	-11.7665
▁الرأى	-11.7665
اثر	-11.7666
▁القضايا	-11.7666
▁بتقوم	-11.7667
▁tim	-11.7668
▁الاتجاه	-11.7671
َلَ	-11.7673
▁موجه	-11.7673
▁الفيدرالية	-11.7673
▁الخلايا	-11.7675
=2057	-11.7677
▁العكس	-11.7681
رواد	-11.7683
▁الخلق	-11.7683
▁131	-11.7684
▁الفرنسيين	-11.7687
▁نسيم	-11.7687
▁سيلفا	-11.7688
▁التشريعية	-11.7689
▁يعملو	-11.7691
▁يعملوا	-11.7691
▁معمول	-11.7691
معبد	-11.7692
ساند	-11.7693
▁ايفل	-11.7694
▁الأمان	-11.77
▁هدم	-11.7701
▁عراقيه	-11.7701
▁مبدأ	-11.7701
▁cat	-11.7702
دوش	-11.7705
مونيك	-11.7707
ناحيه	-11.7708
▁بتدور	-11.7708
▁يعرض	-11.7708
▁استقلالها	-11.7708
▁متع	-11.771
عقل	-11.771
▁فنية	-11.771
تقليل	-11.7712
▁اليابانيه	-11.7718
▁العمران	-11.7718
▁معترف	-11.7719
▁احبك	-11.7719
ضغط	-11.772
2003	-11.7724
كلمه	-11.7726
عيلة	-11.7736
القانون	-11.7736
▁معسكرات	-11.7737
▁ايش	-11.7742
▁طبعا	-11.7742
مخدر	-11.7743
فود	-11.7744
عذر	-11.7744
▁صبحى	-11.7747
اليوم	-11.7748
▁vâ	-11.7754
vsky	-11.7756
راعي	-11.7756
▁والاست	-11.7759
صناعات	-11.7761
أيام	-11.7767
▁الطويلة	-11.7767
▁حالي	-11.7768
حنان	-11.7769
▁انطونيو	-11.777
نجم	-11.7771
حروف	-11.7774
استئناف	-11.7778
▁ملحوظ	-11.7778
▁تصنيع	-11.7778
▁المذكور	-11.7778
أساقفة	-11.7778
▁الرجبى	-11.7778
▁حجازى	-11.7778
▁المنوفيه	-11.7778
▁المعادن	-11.7778
▁الاغنية	-11.7778
▁رقاصة	-11.7779
▁تشيكية	-11.7779
tov	-11.7779
▁لحساب	-11.7779
▁شبكات	-11.778
▁روايته	-11.7782
▁الأغاني	-11.7782
▁الفاتح	-11.7782
wel	-11.7782
▁أقطا	-11.7783
688	-11.7783
ثني	-11.7784
ياپانى	-11.7784
▁بكثير	-11.7785
▁الاسرائيلي	-11.7785
▁الاذاع	-11.7789
▁والاقتصاد	-11.7791
▁الكبد	-11.7791
▁استشهد	-11.7791
▁لغتهم	-11.7794
حاسب	-11.7795
▁lucia	-11.7795
▁بالمعهد	-11.7796
كريستال	-11.7798
miss	-11.78
استفاد	-11.7803
▁ازڤورو	-11.7803
▁النشر	-11.7805
▁يستعمل	-11.7806
▁المعسكر	-11.7806
▁العالية	-11.7806
▁الماجستير	-11.7809
▁الروسية	-11.781
▁اوسط	-11.7811
ألعاب	-11.7812
chin	-11.7816
▁سلب	-11.7817
تكليف	-11.782
عندما	-11.7821
▁بيوتهم	-11.7821
▁للتانى	-11.7822
▁بيزنطه	-11.7823
ايمان	-11.7827
cam	-11.7828
▁طلال	-11.7828
▁السياسيين	-11.783
▁سط	-11.7831
▁اعمالها	-11.7833
uz	-11.7833
▁1878	-11.7835
▁الاستقرار	-11.7836
▁پارك	-11.7836
▁فييتنام	-11.7837
▁وداع	-11.7837
▁ناجى	-11.7839
▁أصدرت	-11.7841
▁الأمل	-11.7841
موسيقار	-11.7844
695	-11.7844
▁مترجم	-11.7846
▁عمارة	-11.7848
نزو	-11.785
بلبل	-11.7853
▁وجدت	-11.7857
oș	-11.7858
استعمال	-11.7858
▁بلاط	-11.7863
ball	-11.7864
kr	-11.7869
ová	-11.7873
toru	-11.7874
▁شهرتها	-11.7875
cone	-11.7875
▁دراستها	-11.7876
▁kam	-11.7878
▁التلفزيونية	-11.788
حِ	-11.7884
▁بروف	-11.7888
اسرة	-11.789
▁ڤيس	-11.7891
▁الامور	-11.7894
كنعان	-11.7894
واكيم	-11.7894
خترع	-11.7895
▁العثماني	-11.7895
▁يعلم	-11.7896
حافة	-11.7898
تختلف	-11.7899
غاني	-11.79
▁الفصل	-11.7905
▁الانجليزي	-11.7905
مسيرة	-11.7906
ميسيسيبى	-11.7913
هيروغليفي	-11.7913
▁boattini	-11.7913
▁اشخاص	-11.7913
▁الزقازيق	-11.7913
▁ايبارشي	-11.7913
▁بونابارت	-11.7913
▁رودريجيز	-11.7913
▁كنائس	-11.7913
▁لوتشيانو	-11.7913
▁ميشيجان	-11.7913
▁يوأنس	-11.7913
▁ڤاڤروڤا	-11.7913
▁لأسباب	-11.7913
▁الانتقال	-11.7913
▁الفلسطينيه	-11.7913
▁الاغانى	-11.7913
▁اقامة	-11.7913
▁المناصب	-11.7914
▁الفلسفة	-11.7914
▁الجزيه	-11.7914
▁وعشرين	-11.7914
▁طبيعيه	-11.7914
▁أنطون	-11.7915
▁النساء	-11.7915
▁سيكو	-11.7915
▁جراهام	-11.7916
▁أياميها	-11.7916
▁رائع	-11.7916
▁المريض	-11.7916
etta	-11.792
خساره	-11.792
▁باتريك	-11.792
▁التوحيد	-11.7921
نقض	-11.7921
قتبس	-11.7922
▁المهمة	-11.7923
▁مقتل	-11.7925
▁ناوي	-11.7926
▁انتقلت	-11.7927
▁هانى	-11.7927
▁الحرير	-11.7928
▁hk	-11.7928
▁انتونى	-11.7928
▁استلم	-11.7935
▁نيكولاس	-11.7938
▁dun	-11.794
▁يمتلك	-11.7941
حصنة	-11.7943
low	-11.7944
▁يتمتع	-11.7945
▁پادورى	-11.7949
▁بيظهر	-11.7949
681	-11.795
itz	-11.7951
▁wil	-11.7953
ito	-11.7954
▁بيوصف	-11.7954
▁السوريين	-11.7954
▁للغة	-11.7955
ربح	-11.7956
▁ماتيو	-11.7957
صعيد	-11.7958
▁اجتماعية	-11.796
ريسيا	-11.7961
cci	-11.7962
tw	-11.7962
▁فطلع	-11.7962
▁واصف	-11.7966
▁امور	-11.7968
ركيز	-11.7969
▁ومقر	-11.7971
stone	-11.7976
▁المزارع	-11.7977
▁لملك	-11.7983
مبتون	-11.7983
more	-11.7983
أَ	-11.7985
تصنف	-11.7985
▁انصار	-11.7986
حمد	-11.7989
كيميا	-11.7991
▁ابواب	-11.7991
▁حماه	-11.7992
▁لوكا	-11.7995
646	-11.7999
▁عزف	-11.8001
!!	-11.8004
▁داير	-11.8004
تدرس	-11.8005
مملكه	-11.8006
▁غرا	-11.8012
▁نفر	-11.8016
وبوليس	-11.8019
▁الخارجى	-11.8023
▁مظهر	-11.8024
1995	-11.8029
▁فتحت	-11.8035
▁فعال	-11.8035
▁اسست	-11.8037
oj	-11.8041
="2100	-11.8045
عذاب	-11.805
▁nakamura	-11.805
▁آدامز	-11.805
▁احتفظ	-11.805
▁التأريخ	-11.805
▁بيرجيدورف	-11.805
▁ماساتشوستس	-11.805
▁للسياحة	-11.805
▁حضور	-11.805
▁بزعام	-11.805
▁اترجمت	-11.805
حدائق	-11.805
تصويب	-11.8051
▁مونتريال	-11.8051
▁معابد	-11.8051
▁yeung	-11.8051
pur	-11.8051
▁مرحله	-11.8051
▁القضية	-11.8051
▁برينيكى	-11.8052
▁الزيتون	-11.8052
▁الحصان	-11.8053
▁الرشيد	-11.8053
▁كولونيا	-11.8054
▁اشراف	-11.8054
▁الثقافات	-11.8054
▁خاتون	-11.8055
▁نسمة	-11.8055
ذرة	-11.8056
▁الكحول	-11.8057
▁ارسال	-11.8058
▁تيشا	-11.8059
▁مونرو	-11.8061
▁جرايم	-11.8065
▁التونسي	-11.8068
▁chris	-11.8071
▁ارهاب	-11.8075
▁الالمانيه	-11.8077
▁يمشى	-11.8079
▁التركيه	-11.8081
يعنى	-11.8082
prove	-11.8083
▁الانجليزيه	-11.8084
▁المذاهب	-11.8085
▁المثقفين	-11.8085
▁الدك	-11.809
▁الاقليمية	-11.8092
1924	-11.8092
▁نحن	-11.8093
lom	-11.8095
▁1860	-11.8097
▁بيريز	-11.8099
▁كرين	-11.81
▁شامل	-11.8102
▁كممثل	-11.8103
▁بياع	-11.8104
▁ابتدو	-11.8105
ضف	-11.8106
▁ينزل	-11.8109
▁مصير	-11.8109
▁اتميز	-11.811
كريم	-11.8111
▁تخلي	-11.8115
▁يسجل	-11.8115
▁تعيينه	-11.8117
▁انتج	-11.8118
▁بنظام	-11.8121
باخ	-11.8122
نيكولا	-11.8125
▁الصراعات	-11.8126
▁فايد	-11.8128
▁رحب	-11.8129
قديس	-11.813
▁بمعهد	-11.813
▁الآخر	-11.8134
4000	-11.8135
▁بمرض	-11.8137
رؤساء	-11.8138
▁فرجع	-11.8141
▁الاتصالات	-11.8143
نهضة	-11.8144
▁dor	-11.8144
▁تضمن	-11.8147
▁فعمل	-11.8148
▁الطليانى	-11.8148
ucci	-11.8153
اپا	-11.8154
▁طبقات	-11.8154
▁أعد	-11.8154
="804	-11.8162
▁الواد	-11.8165
▁الشق	-11.8165
▁ميلر	-11.8166
▁فأن	-11.8168
▁عمران	-11.8171
▁adam	-11.8171
جبال	-11.8172
fre	-11.8172
ستيفان	-11.8176
▁مجدى	-11.8176
▁نسل	-11.8178
skaya	-11.8182
▁السورى	-11.8184
كوميدى	-11.8186
▁توابعها	-11.8189
▁دمنهور	-11.8189
▁كولورادو	-11.8189
▁اريزونا	-11.8189
▁الحكوميه	-11.8189
▁للمسلمين	-11.8189
▁هيوستن	-11.8189
▁احصاء	-11.8189
▁(1951)	-11.8189
▁الزراعيه	-11.8189
ميثولوجيا	-11.819
▁رهبان	-11.819
▁منظور	-11.819
بايع	-11.819
▁مئات	-11.819
▁الطياره	-11.819
▁المستشرق	-11.8191
▁بروكلين	-11.8192
ميثاق	-11.8192
▁للاسلام	-11.8192
توقيت	-11.8192
▁الشرطه	-11.8193
▁الأصغر	-11.8193
▁الاستوديو	-11.8193
نتقم	-11.8193
▁بريطانيه	-11.8193
▁الكرنك	-11.8193
▁وانضم	-11.8195
▁متوقع	-11.8196
▁افندى	-11.8197
أنظمة	-11.8201
▁طاير	-11.8201
2478	-11.8201
عقيده	-11.8201
▁البلاط	-11.8202
مواطنين	-11.8204
▁ستوديوز	-11.8205
▁hc	-11.8205
▁العزف	-11.8206
مشروب	-11.8206
▁صلب	-11.8206
▁حنين	-11.8207
▁لارس	-11.8207
▁الهنا	-11.8208
اجراءات	-11.8208
قتنع	-11.8208
▁عدس	-11.8209
أحكام	-11.8209
▁pal	-11.8209
▁اتكتب	-11.8212
عايدة	-11.8213
وفيات	-11.8214
مساواة	-11.8214
gia	-11.8215
▁هيرمان	-11.8215
توصل	-11.8219
▁اركان	-11.8219
كتمل	-11.8219
▁التركية	-11.8221
▁كأن	-11.8222
مناخ	-11.8224
تلاتينات	-11.8228
▁حراس	-11.8229
▁المستشار	-11.8229
صعد	-11.8229
▁يجد	-11.8231
=2139	-11.8232
لمنطقة	-11.8234
موسيقي	-11.8236
آثار	-11.8237
▁تشيل	-11.8243
▁بالسلام	-11.8244
فرسان	-11.8248
▁تنوع	-11.8249
▁يزور	-11.8251
▁لواحد	-11.8252
kova	-11.8254
▁اتلقا	-11.8256
▁124	-11.8256
▁نيد	-11.8257
▁الصعب	-11.8266
تدمر	-11.8267
▁اتفتحت	-11.8271
qi	-11.8272
شنق	-11.8274
سهول	-11.8274
خطف	-11.8277
▁مرسي	-11.8283
خون	-11.8284
▁أوبرا	-11.8285
▁عموما	-11.8287
▁اتنشر	-11.8288
▁الموال	-11.8288
▁1862	-11.8291
▁النمر	-11.8299
▁1871	-11.83
▁والمخرج	-11.8304
▁الانتخاب	-11.8305
key	-11.8307
تغيرات	-11.8308
▁اجراء	-11.8311
مبريا	-11.8312
▁كوربو	-11.8313
▁ray	-11.8313
دوكس	-11.8318
▁قابلت	-11.8318
nova	-11.8323
ينتهى	-11.8324
▁الأيبيرية	-11.833
▁الانتحار	-11.833
▁للصليبيين	-11.833
▁السلاطين	-11.833
▁الأماكن	-11.833
▁الاندلس	-11.833
▁اجسام	-11.833
▁للكنيسه	-11.833
▁اوساكا	-11.833
▁لطيف	-11.833
▁بوجدان	-11.833
ghaly	-11.833
▁المطلوب	-11.8331
▁البطلمى	-11.8331
▁وسوريا	-11.8331
لمونديال	-11.8332
▁hills	-11.8332
▁امتياز	-11.8333
▁التصميم	-11.8333
▁ستالين	-11.8337
▁شمعون	-11.8337
▁ماثيو	-11.8337
هربو	-11.8338
▁اعتد	-11.8338
افتراض	-11.8339
▁مالمو	-11.8343
▁للدفاع	-11.8343
▁العطار	-11.8344
▁اتخذ	-11.8344
▁الكلاب	-11.8345
▁سوريه	-11.8346
▁أوفا	-11.8346
▁الصيربية	-11.8348
ينسكى	-11.8348
▁سبت	-11.8349
ڤيلى	-11.8351
▁مكافح	-11.8355
▁اتصل	-11.8356
▁الإنجليزي	-11.8359
▁رسميا	-11.8365
▁kol	-11.8366
تستضيف	-11.8367
▁المقابل	-11.837
▁اتحد	-11.8375
▁يسكن	-11.8376
▁والذي	-11.8377
▁اختارت	-11.8378
▁الصناعات	-11.8378
▁محبوب	-11.8379
▁اغاني	-11.8381
طفل	-11.8381
فقد	-11.8384
كبار	-11.8385
▁التقليدية	-11.8385
حاجات	-11.8389
تدرج	-11.8393
▁1850	-11.8393
▁غزال	-11.8395
ساعات	-11.8398
▁تشاد	-11.8399
▁حتا	-11.84
اقليم	-11.8401
▁موافق	-11.8402
▁ألق	-11.8407
▁اتهام	-11.8408
ضرر	-11.8408
شكي	-11.841
▁مالوش	-11.841
▁الدب	-11.8411
▁sex	-11.8413
▁المنظمة	-11.8414
uta	-11.8415
▁الضعف	-11.8417
▁رودس	-11.842
شهود	-11.8422
john	-11.8426
▁سيمپى	-11.8426
▁والفن	-11.8433
▁الحضر	-11.8439
steve	-11.8441
lui	-11.8441
▁ويتم	-11.8442
تحدى	-11.8443
▁بطن	-11.8444
▁glo	-11.8455
▁play	-11.8455
▁للمدينة	-11.8455
واعظ	-11.8457
▁1812	-11.8457
َق	-11.846
بالإنجليزية	-11.8462
تلاف	-11.8462
▁مدام	-11.8462
▁الصحاب	-11.8464
▁التجارى	-11.8465
مارو	-11.8468
السيد	-11.8471
▁aguilar	-11.8473
▁أولمبية	-11.8473
▁الارجنتين	-11.8473
▁الايبيرية	-11.8473
▁البحيرات	-11.8473
▁العبودية	-11.8473
▁بتقديم	-11.8473
▁المطبخ	-11.8473
▁الواضح	-11.8473
▁صربيا	-11.8473
▁(1954)	-11.8473
▁المخدرات	-11.8473
▁البسيط	-11.8473
زخارف	-11.8473
امازيغ	-11.8473
أجسام	-11.8474
▁paloma	-11.8474
▁اللواء	-11.8475
▁الإخوان	-11.8475
▁التربيه	-11.8475
▁المولود	-11.8475
▁الغابات	-11.8475
▁الطبيعة	-11.8476
▁السكة	-11.8476
فترض	-11.8476
▁with	-11.8476
تفكك	-11.8476
▁غصن	-11.8477
▁كريستوفر	-11.8478
▁جانيرو	-11.8478
▁فرصه	-11.8478
دلال	-11.8479
طبل	-11.8481
يوجد	-11.8481
▁پيسكو	-11.8481
▁سيفين	-11.8482
▁شأن	-11.8483
▁اختفى	-11.8483
=1032	-11.8489
محميات	-11.849
▁أمثال	-11.8491
▁القارات	-11.8492
▁تعتمد	-11.8494
▁بالسوق	-11.8496
▁القنوات	-11.8497
▁ثانى	-11.8497
أعداد	-11.8502
▁الباحث	-11.8506
تدعى	-11.8508
▁bay	-11.8509
=2061	-11.851
▁المزيد	-11.8511
▁مذيع	-11.8513
تسيطر	-11.8513
لعيلة	-11.8514
▁احتفالات	-11.8518
▁الترتيب	-11.8518
تونس	-11.8522
▁بالحكم	-11.8524
▁تنتج	-11.8526
▁الغض	-11.8528
▁cop	-11.8528
رانز	-11.8529
ساكن	-11.8529
▁الخلفا	-11.853
ترتيب	-11.8532
=2048	-11.8535
صحراء	-11.8536
دمشق	-11.8536
▁المنطق	-11.8536
▁تجري	-11.8536
▁العضو	-11.8543
▁يشتر	-11.8544
work	-11.8544
▁خسرو	-11.8544
يدس	-11.8545
▁الصناعة	-11.8548
▁hel	-11.8549
التعاون	-11.8551
تعدى	-11.8554
▁المتميز	-11.8555
1990	-11.8556
عضو	-11.8559
▁غارات	-11.856
اسبانى	-11.8565
▁اتفتح	-11.8565
▁الاصليه	-11.8571
حظي	-11.8572
ثوس	-11.8581
▁مشوار	-11.8583
cast	-11.8584
▁سوتر	-11.8589
▁الذاتي	-11.859
▁القاتل	-11.859
vu	-11.8591
▁الغنائي	-11.8592
▁وللا	-11.8593
▁spe	-11.8594
▁القرية	-11.8599
متاز	-11.8602
▁مرتب	-11.8602
تعادل	-11.861
▁north	-11.8612
تباه	-11.8613
قبرص	-11.8616
▁عيوني	-11.8617
▁الاولمبية	-11.8618
▁التمييز	-11.8618
▁الصحافه	-11.8618
▁اقباط	-11.8618
▁اللجنه	-11.8618
▁موهبته	-11.8618
▁blue	-11.8618
▁ماديسون	-11.8618
فلاسفه	-11.8618
▁البطلميه	-11.8618
▁الشهداء	-11.8618
▁(1952)	-11.8619
▁وقوع	-11.8619
▁الخمسة	-11.8619
▁طبيعية	-11.8619
uck	-11.862
▁المهدى	-11.8622
▁پالتين	-11.8622
▁طائر	-11.8622
▁الأجانب	-11.8622
▁اختلف	-11.8623
▁راتب	-11.8623
▁لوبيز	-11.8623
▁أسوان	-11.8624
ذكاء	-11.8625
fried	-11.8625
▁التوتر	-11.8628
نجوم	-11.8628
▁لورانس	-11.8629
wolf	-11.8629
▁موحد	-11.863
▁الجهل	-11.863
▁الراين	-11.8632
▁الكليات	-11.8632
فضيحة	-11.8632
▁توران	-11.8634
mark	-11.8635
▁بيستعملو	-11.8636
الرومان	-11.8637
▁الفوز	-11.8639
▁الليالى	-11.8641
▁البيزنطية	-11.8642
▁الفخر	-11.8643
▁احمر	-11.8645
▁ووكر	-11.8645
كفر	-11.8645
▁اتطلق	-11.8647
▁جوست	-11.8647
▁الرموز	-11.8647
▁الضرائب	-11.865
▁مدينت	-11.8651
▁للتنس	-11.8651
▁يحضر	-11.8655
قناطر	-11.8656
▁خلو	-11.8657
تدرب	-11.8657
ثمن	-11.8659
án	-11.866
▁المنفى	-11.8661
▁ghi	-11.8662
▁السياحية	-11.8668
▁الانتصار	-11.8669
مؤرخ	-11.8669
▁كورس	-11.867
▁الفضا	-11.8674
إنسان	-11.8675
lv	-11.8676
أفراد	-11.8677
القاهره	-11.8678
بحيرة	-11.8678
▁فرحت	-11.8682
▁الخطوط	-11.8686
nicole	-11.8689
▁المعمارية	-11.8691
برغ	-11.8691
▁القطرى	-11.8698
أحسن	-11.8698
▁نخل	-11.8701
▁اشاع	-11.8706
▁سميت	-11.8707
nin	-11.8712
▁حلمي	-11.8712
▁المشاركة	-11.8715
▁تذكر	-11.8716
جماهير	-11.872
شيع	-11.8721
▁ترجع	-11.8721
▁بتاعتهم	-11.8726
2006	-11.8729
▁الحس	-11.8729
منتزه	-11.873
▁الكلاسيكي	-11.8732
اوند	-11.8736
▁عاصمته	-11.874
▁اداء	-11.8743
▁حادث	-11.8743
طمع	-11.8747
▁يحس	-11.8752
كتوب	-11.8754
nga	-11.8756
hou	-11.876
evo	-11.8761
▁وطنية	-11.8761
راجع	-11.8761
لوتس	-11.8762
▁افغانستان	-11.8765
▁الإجتماع	-11.8765
▁هارفارد	-11.8765
▁الأجنبية	-11.8765
▁الاجنبيه	-11.8765
▁bâr	-11.8765
قاليد	-11.8765
▁ڤولتير	-11.8765
▁القسطنطينية	-11.8765
▁مفتاح	-11.8765
▁طوايف	-11.8765
▁المنظمات	-11.8765
▁للانسان	-11.8765
▁اجوان	-11.8765
▁رايموند	-11.8765
مستشفي	-11.8765
▁رونالد	-11.8765
▁السيطره	-11.8765
ترجيع	-11.8766
▁الديانة	-11.8766
▁تيودور	-11.8767
▁إتولد	-11.8768
▁دسوق	-11.8768
▁الجمعة	-11.8768
▁pop	-11.8769
▁sport	-11.8769
▁ايزيس	-11.8769
▁akim	-11.8769
▁jay	-11.8771
▁bror	-11.8771
ستفيد	-11.8771
▁ميعاد	-11.8772
1960	-11.8776
▁الضل	-11.8776
▁الغيب	-11.8779
كارول	-11.8779
▁إمام	-11.8784
▁المصانع	-11.8786
▁نهبو	-11.8788
▁الأسلحة	-11.8788
▁زاب	-11.8793
▁ويليامز	-11.8795
فوبيا	-11.8795
▁برونو	-11.88
▁بتصدر	-11.8801
▁كبرت	-11.8801
▁الشوك	-11.8803
▁حامي	-11.8804
ڤارا	-11.8805
▁vale	-11.8806
▁يتبع	-11.8807
▁بلانك	-11.881
مماثل	-11.8811
1942	-11.8813
▁الاسرائيلية	-11.8817
▁أمام	-11.8817
▁تاما	-11.8818
▁توك	-11.882
كبير	-11.882
▁التكوين	-11.882
▁اوعى	-11.882
▁أعيد	-11.8821
▁اتنشرت	-11.883
كوتسا	-11.8834
▁لنهر	-11.8835
▁المطربين	-11.884
تفكير	-11.884
▁1830	-11.8841
594	-11.8841
▁بيعبر	-11.8842
تجرح	-11.8846
عاقبة	-11.8846
nica	-11.8847
▁ترق	-11.8851
جراند	-11.8854
▁ابولو	-11.886
▁بايدي	-11.8861
row	-11.8861
▁اباد	-11.8862
▁دريم	-11.8862
▁كلونى	-11.8866
كاثوليك	-11.8868
▁الأرثوذكس	-11.8871
استعراض	-11.8874
حياتك	-11.8887
محبة	-11.8887
ichir	-11.889
لسنه	-11.8898
حكاية	-11.8899
▁لوكاس	-11.8899
▁تلاميذ	-11.8906
نجيب	-11.8908
▁أسست	-11.8909
جاريت	-11.8909
مواد	-11.8909
mag	-11.8913
▁fountain	-11.8914
▁الوظايف	-11.8914
▁سوزوكى	-11.8914
▁يوجوسلاڤيا	-11.8914
▁الشافعى	-11.8914
▁البلقان	-11.8914
نتائج	-11.8914
▁مقاعد	-11.8914
▁جولييت	-11.8914
▁الفونسو	-11.8914
▁الوزاره	-11.8914
▁الدانوب	-11.8914
تحريض	-11.8914
▁كبيسه	-11.8914
▁عاز	-11.8915
تحضير	-11.8915
▁المحكمه	-11.8915
▁القمص	-11.8915
▁النبلاء	-11.8915
ابجديه	-11.8915
▁المصارع	-11.8915
▁المساحه	-11.8916
▁مطران	-11.8917
▁مجلات	-11.8917
▁حلقات	-11.8918
▁تاثير	-11.8918
▁تاليف	-11.8918
▁شىء	-11.8918
▁شهيد	-11.8918
▁مرعى	-11.8918
تجهيز	-11.8919
▁الضفه	-11.892
▁فولك	-11.892
▁119	-11.8921
▁استقبال	-11.8921
تجنيد	-11.8922
معالجة	-11.8922
كذلك	-11.8923
hira	-11.8924
▁تغطي	-11.8924
▁الأقصر	-11.8925
لتجديد	-11.8925
▁الاخضر	-11.8925
▁pala	-11.8925
▁موارا	-11.8926
▁القصب	-11.8926
▁الوالي	-11.8928
عاشت	-11.8929
▁اشترى	-11.8929
▁الأمراء	-11.8931
▁اندرياس	-11.8931
▁شاكر	-11.8931
الشيخ	-11.8932
▁والسينما	-11.8935
▁اوكس	-11.8935
أشكال	-11.8938
▁ينتم	-11.894
▁جسر	-11.894
▁اتمرد	-11.894
▁الصوفيه	-11.894
▁يعين	-11.8945
▁رحله	-11.8945
▁كريستين	-11.8951
▁بوست	-11.8951
▁يشبه	-11.8952
▁بيحكمها	-11.8955
خبط	-11.8955
▁تشبه	-11.8955
لحماية	-11.8957
▁الفرنج	-11.8958
ارمين	-11.8959
ذكار	-11.8961
▁المستمر	-11.8962
free	-11.8963
▁فأمر	-11.8964
▁395	-11.8965
▁المائة	-11.897
سجن	-11.8971
▁المطالب	-11.8972
مقدار	-11.8976
▁الإست	-11.8977
النبى	-11.8981
مصطلح	-11.8982
▁اتبع	-11.8983
▁الصرب	-11.8983
▁يهودية	-11.8986
you	-11.8986
▁الوزن	-11.8988
جمعيه	-11.8988
▁أسسها	-11.8992
▁المهندسين	-11.8993
▁الجورنال	-11.8995
▁sar	-11.8996
vá	-11.8998
لوكاند	-11.8999
ej	-11.9
▁مسيرتها	-11.9001
=2434	-11.9002
▁تجارب	-11.9002
▁أراد	-11.9005
▁مادام	-11.9007
دليل	-11.9009
vic	-11.9011
▁632	-11.9013
▁السيف	-11.9014
تكبر	-11.9015
▁monte	-11.9016
▁طوب	-11.9017
michel	-11.9017
538	-11.9018
kiso	-11.9023
▁اتبعت	-11.9024
القوات	-11.9029
ذاب	-11.9032
esh	-11.9036
felde	-11.9041
uo	-11.9044
معاهدة	-11.9045
▁هانا	-11.9045
ello	-11.905
بطوله	-11.905
جاسوس	-11.9051
▁أعاد	-11.9054
▁يبعد	-11.9057
▁măr	-11.9064
▁انتراكتيڤ	-11.9066
▁انتيوخوس	-11.9066
▁فلنسبورج	-11.9066
▁ممدوح	-11.9066
يحتفظ	-11.9066
الاعتماد	-11.9066
▁الاكراد	-11.9066
▁طقوس	-11.9066
▁المرأه	-11.9066
roy	-11.9066
▁عائلته	-11.9066
▁الفيلسوف	-11.9066
▁ابتسام	-11.9066
▁مثيل	-11.9066
▁أيضاً	-11.9067
تأييد	-11.9067
ستطلاع	-11.9067
تضامن	-11.9067
▁جوستاف	-11.9067
جالي	-11.9068
صخور	-11.9068
▁حداشر	-11.9069
▁الاسلامويين	-11.9069
▁kopf	-11.907
▁who	-11.9071
▁سفيان	-11.9071
▁يختار	-11.9072
▁جويلز	-11.9073
▁1798	-11.9075
▁باراك	-11.9076
ستيد	-11.9076
▁بتشمل	-11.9078
▁العدرا	-11.9078
▁تقاليد	-11.9078
▁امراض	-11.9079
▁البركان	-11.908
▁أحلى	-11.9082
▁آمور	-11.9082
نتظر	-11.9084
مهندس	-11.9087
▁بروسيا	-11.909
▁حزين	-11.909
▁احلى	-11.9092
▁تشتغل	-11.9093
pre	-11.9095
▁بريدج	-11.9098
▁ساكا	-11.9099
▁يبدأ	-11.9101
▁ادريس	-11.9102
▁مصانع	-11.9107
▁للحرب	-11.9107
=2112	-11.9109
ثروه	-11.9109
stern	-11.9113
▁اتصور	-11.9116
▁انطلاق	-11.9116
لمملكة	-11.9119
▁لديه	-11.9128
▁الليالي	-11.9129
تعالج	-11.9131
▁ملحق	-11.9132
رقم	-11.9134
▁بارون	-11.9135
مؤتمر	-11.9138
جماعة	-11.9138
▁منشور	-11.9139
▁تشغل	-11.9144
▁الطبقات	-11.9147
▁ميناء	-11.9152
ضحى	-11.9157
▁112	-11.9159
ليمون	-11.916
التهاب	-11.9162
▁دروس	-11.9163
َنْ	-11.9163
hor	-11.9166
▁بيتميز	-11.9167
▁للفريق	-11.9169
لوزارة	-11.9175
كاتدرائية	-11.9175
▁ثورات	-11.9177
يّن	-11.9178
nell	-11.918
بعث	-11.918
nev	-11.9181
إسماعيل	-11.9183
nice	-11.9185
يونيس	-11.9185
سلاسل	-11.9187
▁ايوب	-11.9198
تورط	-11.9199
لذ	-11.9203
توماس	-11.9207
angela	-11.9209
▁111	-11.9209
ليالي	-11.9218
▁london	-11.9219
▁الديموقراطى	-11.9219
▁المحاصيل	-11.9219
▁فيلادلفيا	-11.9219
▁كاوسولس	-11.9219
ادڤانتشر	-11.9219
▁رأفت	-11.9219
▁jensen	-11.9219
▁كاثرين	-11.9219
▁رضوان	-11.9219
▁ناشفيل	-11.9219
▁اتلعبت	-11.9219
انتفاضة	-11.922
▁مصنوع	-11.922
▁لليهود	-11.922
▁كاريوكا	-11.9221
▁الجبهه	-11.9221
▁الطائر	-11.9222
▁فيليكس	-11.9222
▁فتاة	-11.9222
فواكه	-11.9223
▁رايدر	-11.9223
▁يللا	-11.9223
țești	-11.9224
▁matsu	-11.9225
▁الدراسه	-11.9226
أنشطة	-11.9228
مليار	-11.9228
اكاديميه	-11.9228
▁كوج	-11.9229
▁البعيد	-11.9232
▁اتسلطن	-11.9233
▁بالسجن	-11.9233
now	-11.9234
▁اسحق	-11.9235
▁schi	-11.9235
▁ينفع	-11.9237
يرليشتى	-11.9237
اوتو	-11.9238
▁كوكس	-11.924
▁بالفرنساوى	-11.924
▁المشاهير	-11.9241
سيكو	-11.9244
▁بيسبب	-11.9245
منطقه	-11.9251
▁أشرف	-11.9252
▁مبروك	-11.9254
▁تساعد	-11.9254
▁اثبت	-11.9257
▁باركر	-11.9258
نظير	-11.9258
▁بيرد	-11.9258
▁اعتقد	-11.9264
hem	-11.9266
نقص	-11.9268
▁فخرج	-11.9271
ardi	-11.9272
▁ومعاه	-11.9274
▁113	-11.9275
▁انتصارات	-11.9276
▁سجلت	-11.9278
▁shu	-11.928
▁ساق	-11.9282
▁مشاعر	-11.9283
vik	-11.9285
▁الحظ	-11.9285
▁يؤد	-11.9287
▁تريف	-11.9289
▁عيونك	-11.9291
▁الموسيقيين	-11.9294
▁فهمي	-11.9294
خاصة	-11.9298
ليتس	-11.9301
▁انطلق	-11.9304
شهاده	-11.9304
َمِ	-11.9305
▁يطول	-11.9305
متوسط	-11.9306
="811	-11.9309
▁العجل	-11.9309
▁مدته	-11.931
▁المهدي	-11.931
یر	-11.9312
vol	-11.9314
▁1500	-11.9317
▁هربوا	-11.9317
غرام	-11.9322
▁jon	-11.9322
▁الأخر	-11.933
بشاره	-11.9335
تكتيك	-11.9339
▁will	-11.9345
طوف	-11.9346
▁فايس	-11.9347
▁miya	-11.9349
imo	-11.9352
▁observ	-11.9352
iște	-11.9362
jar	-11.9369
أيد	-11.937
anda	-11.9372
▁النبلا	-11.9375
▁الخمسينات	-11.9376
▁امستردام	-11.9376
▁بنسيلفانيا	-11.9376
▁لتطوير	-11.9376
▁النطرون	-11.9376
▁يانكيز	-11.9376
▁بالإسكندرية	-11.9376
▁لحظة	-11.9376
commons	-11.9376
▁پياترا	-11.9376
▁الكنارى	-11.9376
▁عائلة	-11.9376
arnold	-11.9376
▁كفاية	-11.9376
▁أقصى	-11.9376
▁الاداره	-11.9376
▁الشريعة	-11.9377
▁العرفية	-11.9377
▁كولينز	-11.9377
▁سمعت	-11.9378
اختلاف	-11.9379
▁الأسقف	-11.9379
تناقش	-11.9379
=1027	-11.938
▁بهجت	-11.9381
الشمال	-11.9381
▁اللورد	-11.9381
▁طاقة	-11.9381
▁جريمة	-11.9382
▁neg	-11.9383
▁ضهر	-11.9384
▁القصور	-11.9387
عطاء	-11.9388
ِهِ	-11.9388
▁جبران	-11.9389
▁الاسباب	-11.939
▁موررى	-11.939
أيقون	-11.9391
lé	-11.9393
▁ادر	-11.9394
▁الاغنيا	-11.9395
▁كاپو	-11.9397
ميزه	-11.9399
جاست	-11.9401
=2058	-11.9402
▁العلوي	-11.9403
▁سكاى	-11.9404
▁لاتحاد	-11.9407
مجمع	-11.9409
▁1200	-11.941
▁القواعد	-11.941
تناسب	-11.9411
hart	-11.9412
▁المتطرفين	-11.9412
▁بيدل	-11.9413
▁بيدرو	-11.9413
▁ميدو	-11.9422
▁رمش	-11.9425
▁اقرب	-11.9427
2097	-11.943
ico	-11.9433
▁الادارة	-11.9433
cole	-11.9434
▁الباسك	-11.9435
▁فرحان	-11.9438
▁tit	-11.9438
▁التراب	-11.9439
▁الطاقه	-11.9439
▁العدوان	-11.9442
▁واخو	-11.9443
▁الذهبية	-11.9444
تنتشر	-11.9447
▁الديموقراطي	-11.9447
▁البيانو	-11.9448
ڤيز	-11.9455
publi	-11.9459
meiz	-11.946
▁انفصلت	-11.947
zhou	-11.9472
▁1260	-11.9475
gott	-11.9475
▁فازت	-11.9477
▁المبكر	-11.9488
فندق	-11.9496
مايكروسوفت	-11.9504
1993	-11.9508
▁سوكو	-11.9513
إنجليزى	-11.9517
▁الطرف	-11.9517
ستعان	-11.9518
فراج	-11.952
="1027	-11.9522
▁والنبي	-11.9522
▁فهرب	-11.9523
شاع	-11.9532
▁حيل	-11.9533
▁lagerkvist	-11.9534
▁أستورياس	-11.9534
▁إنجلترا	-11.9534
▁الارتودوكس	-11.9534
▁الدقهليه	-11.9534
▁باستمرار	-11.9534
▁جومرسباخ	-11.9534
▁السيناريو	-11.9534
▁الانتداب	-11.9534
▁التحكيم	-11.9534
▁الفنادق	-11.9534
▁طايفه	-11.9534
▁حكومات	-11.9534
▁الفرانكيين	-11.9534
▁وعلشان	-11.9534
▁henry	-11.9534
▁المجهول	-11.9534
▁ماسبيرو	-11.9534
▁الاصدار	-11.9535
▁شيركوه	-11.9535
مناقشة	-11.9535
▁فرويد	-11.9535
▁حلاوه	-11.9535
تناقض	-11.9535
▁مواقف	-11.9535
▁ايرلندا	-11.9535
▁أغنيات	-11.9535
▁farra	-11.9535
▁مارشال	-11.9535
▁انجليزيه	-11.9535
▁الهولندي	-11.9535
town	-11.9535
▁الابطال	-11.9536
خريطة	-11.9536
▁الدوحه	-11.9536
▁للامم	-11.9536
▁بشدة	-11.9536
jacob	-11.9536
▁ميزورى	-11.9537
▁البرونز	-11.9537
▁ekar	-11.9537
▁بتنتم	-11.9537
▁هيكتور	-11.9538
hiko	-11.9541
▁جارسيا	-11.9543
▁دافيد	-11.9544
▁الغذائية	-11.9545
▁كواحد	-11.9549
سخن	-11.955
eau	-11.955
lum	-11.9551
▁roman	-11.9552
▁حيران	-11.9553
▁والموسيقى	-11.9553
2007	-11.9554
إدوارد	-11.9555
▁اقسام	-11.9557
▁nane	-11.9558
▁الفصح	-11.9559
▁السينيما	-11.9559
▁ثانوية	-11.956
▁منهج	-11.956
▁المبادئ	-11.9562
611	-11.9563
▁بيسكن	-11.9566
▁جدد	-11.9567
2022	-11.9571
▁سهران	-11.9572
▁يقود	-11.9575
joy	-11.9576
ín	-11.9576
غلق	-11.9581
▁جنود	-11.9581
▁băl	-11.9581
▁الصحيح	-11.9582
▁يحافظ	-11.9583
▁أقيم	-11.9588
▁cub	-11.9589
▁عريس	-11.959
▁بياكل	-11.9592
▁dobr	-11.9595
=2097	-11.9597
والت	-11.96
▁اسرته	-11.9605
rez	-11.9605
مرتفعات	-11.9606
دفاع	-11.961
▁ivan	-11.9612
▁سراي	-11.9612
اشتراكي	-11.9615
coll	-11.9618
فروع	-11.9619
▁التحف	-11.962
▁سيتي	-11.962
▁تجوز	-11.9625
ذبح	-11.9631
="1767	-11.9634
nick	-11.9639
راشيل	-11.9644
صفقة	-11.9666
ملاك	-11.9666
▁صيني	-11.9666
پورتوجال	-11.9667
william	-11.9668
▁jack	-11.9671
▁خدام	-11.9679
زياده	-11.9682
▁إيف	-11.9682
كريت	-11.9694
▁cardinal	-11.9696
isonzo	-11.9696
▁الظواهر	-11.9696
[...]
