<unk>	0
<s>	0
</s>	0
.	-3.35724
▁	-3.73184
▁و	-3.78699
="	-3.89933
▁فى	-4.04254
"	-4.07973
doc	-4.34297
>	-4.34364
ه	-4.5554
▁(	-4.69439
s	-4.74153
▁من	-4.74248
d	-4.86909
/	-4.98993
#	-5.0031
▁ال	-5.00596
ى	-5.02516
▁<	-5.02998
org	-5.03117
wiki	-5.03158
http	-5.03254
://	-5.03255
?	-5.03495
arz	-5.03587
wikipedia	-5.03603
▁id	-5.0364
curi	-5.03653
▁url	-5.03669
▁title	-5.03672
▁categories	-5.03681
▁</	-5.04365
▁#	-5.05093
ة	-5.11011
▁اللى	-5.23592
ت	-5.27252
)	-5.36958
,	-5.41776
،	-5.42333
▁ب	-5.47988
▁،	-5.49446
=2	-5.56614
ات	-5.60576
▁على	-5.60596
ا	-5.62082
▁كان	-5.67332
▁م	-5.69268
▁سنة	-5.69855
ين	-5.73
ي	-5.75266
كويكب	-5.76131
▁السكان	-5.77829
يه	-5.77897
ية	-5.78092
و	-5.78301
ها	-5.80906
▁الاكتشاف	-5.83129
▁ل	-5.86904
▁كوكب	-5.91316
▁عن	-6.03482
▁"	-6.06378
▁الم	-6.15843
▁بين	-6.18619
م	-6.20179
وا	-6.20948
▁ما	-6.22832
ك	-6.28553
▁ي	-6.28622
▁ت	-6.29272
▁ا	-6.30472
▁عدد	-6.30557
ال	-6.34193
▁الكويكبات	-6.34675
▁قريه	-6.36266
▁لل	-6.39085
▁حسب	-6.40234
▁وصل	-6.42109
▁),	-6.46292
▁مصر	-6.46599
▁تعداد	-6.49181
)"	-6.50681
▁بتاريخ	-6.51735
▁ف	-6.52833
▁هوه	-6.53008
▁اكتشف	-6.54714
ش	-6.5589
▁كويكب	-6.56263
حزام	-6.56981
▁انسان	-6.57674
▁المريخ	-6.59825
▁وال	-6.60603
▁المشترى	-6.60823
▁مع	-6.62201
نا	-6.63554
▁ان	-6.64753
يا	-6.66094
▁ده	-6.6678
س	-6.66795
▁2011.	-6.70249
▁أ	-6.71277
▁رومانيا	-6.71307
▁هو	-6.71879
ن	-6.72467
▁)	-6.73248
▁بعد	-6.73672
هم	-6.7379
:	-6.74054
ب	-6.74964
▁بال	-6.75241
=1	-6.76732
▁بي	-6.78263
▁يا	-6.79752
▁او	-6.80009
▁في	-6.85559
▁البحر	-6.87213
▁.	-6.90343
ون	-6.93522
ان	-6.93615
▁دى	-6.94846
="22	-6.9748
=	-6.99438
▁كانت	-6.99988
-	-7.00149
="23	-7.00495
د	-7.0135
▁كل	-7.01966
▁متر	-7.0326
▁ن	-7.03667
ز	-7.03804
▁جغرافيا	-7.05012
▁بت	-7.07095
▁سطح	-7.09278
▁يوم	-7.09866
ترتفع	-7.11455
▁-	-7.13626
▁18	-7.14474
▁سنه	-7.14642
="24	-7.19625
▁الا	-7.20036
ف	-7.20764
ل	-7.23672
="21	-7.23892
يل	-7.24688
ته	-7.25056
▁لينكولن	-7.25414
ع	-7.25833
ر	-7.25997
ح	-7.28128
▁اسم	-7.2863
اء	-7.30599
▁ات	-7.31454
▁مواليد	-7.32616
▁حياته	-7.3293
▁لكن	-7.33988
▁ع	-7.34378
▁لا	-7.34821
وس	-7.3498
▁فيلم	-7.36125
يشتى	-7.37894
ير	-7.40651
▁1	-7.40817
رصد	-7.41117
ج	-7.41192
يس	-7.41987
▁ك	-7.42147
▁أن	-7.43369
ور	-7.43445
▁لاعب	-7.45574
ـ	-7.46008
▁فيه	-7.49709
▁كمان	-7.49743
يين	-7.50233
▁بن	-7.50355
▁الأ	-7.51476
▁بيتبع	-7.51875
;	-7.52294
خ	-7.52669
يت	-7.52874
ق	-7.53974
▁زى	-7.56041
▁فيها	-7.56771
▁مش	-7.56859
▁3	-7.56882
▁الت	-7.57652
ود	-7.59336
ام	-7.59636
▁4	-7.5966
c	-7.60008
▁مدينة	-7.6169
اب	-7.61744
▁محمد	-7.62209
▁الع	-7.62257
يو	-7.62747
ط	-7.63789
يات	-7.64303
ما	-7.64635
▁اتسم	-7.64772
t	-7.6504
ول	-7.65141
▁5	-7.65288
▁سبتمبر	-7.65323
يم	-7.65483
كا	-7.65683
ث	-7.65819
▁ق	-7.66143
▁عبد	-7.66647
▁الارض	-7.67086
▁2	-7.68004
▁ح	-7.68976
جر	-7.6987
ض	-7.70117
r	-7.702
="20	-7.71135
ص	-7.71145
▁انه	-7.71271
▁س	-7.71626
▁بالاسم	-7.72008
▁الموجود	-7.72575
ني	-7.7319
▁هى	-7.73392
▁مارس	-7.74132
▁أو	-7.75039
▁لما	-7.7572
ار	-7.7573
l	-7.76404
&	-7.77391
▁6	-7.77436
▁الق	-7.78247
▁بس	-7.79182
اد	-7.79657
▁اكتوبر	-7.79711
▁7	-7.80123
من	-7.80398
a	-7.80488
انى	-7.80566
▁الف	-7.81204
پ	-7.81776
▁عشان	-7.81877
▁الن	-7.82829
1"	-7.82851
كو	-7.83324
an	-7.83412
اس	-7.83534
al	-7.83839
يد	-7.83989
▁العالم	-7.84015
اف	-7.84411
بر	-7.84424
▁لعب	-7.84504
▁يناير	-7.84749
ينى	-7.85608
يب	-7.85821
أ	-7.85893
غ	-7.86008
20	-7.87248
n	-7.87788
▁إ	-7.87861
يك	-7.88252
▁فريق	-7.88531
لا	-7.88878
▁هيا	-7.89292
ظ	-7.89512
▁لو	-7.89637
▁observatory	-7.89738
َ	-7.90238
o	-7.90386
y	-7.90797
▁تم	-7.91059
▁بحث	-7.91308
▁الدين	-7.91345
اع	-7.91612
▁القريبه	-7.91634
لى	-7.92066
2"	-7.92139
تها	-7.92172
▁اول	-7.93472
دو	-7.93716
m	-7.94718
▁مختبر	-7.95155
▁قبل	-7.95902
يف	-7.9597
نى	-7.96671
▁لحد	-7.96725
▁ج	-7.97255
lt	-7.97442
▁دي	-7.97449
وه	-7.97942
▁8	-7.98236
47	-7.99169
7"	-7.99319
i	-7.99432
▁مات	-7.99687
ست	-7.99897
تر	-8.00152
4"	-8.00654
▁فبراير	-8.00682
يش	-8.00736
اح	-8.00751
▁واحد	-8.00766
▁..	-8.01087
▁دا	-8.01982
▁لم	-8.02355
▁,	-8.02841
ذ	-8.03087
▁ابريل	-8.03181
دى	-8.03586
3"	-8.03777
▁نوفمبر	-8.03919
5"	-8.03943
▁الح	-8.04041
▁كده	-8.04051
▁اغسطس	-8.04454
▁9	-8.04517
e	-8.04806
▁غير	-8.05323
▁ولاية	-8.05333
▁مايو	-8.05601
ُ	-8.05655
اً	-8.05925
▁الب	-8.06222
▁الملك	-8.06257
وت	-8.06693
وش	-8.0749
▁القرن	-8.08153
34	-8.08224
le	-8.08417
▁10	-8.08485
تا	-8.0859
يز	-8.08695
77	-8.08897
gt	-8.09459
▁:	-8.09644
يان	-8.10145
وم	-8.10262
تو	-8.10451
ينا	-8.10497
).	-8.10609
مر	-8.11239
لو	-8.11651
سا	-8.11672
▁ام	-8.11873
▁ديسمبر	-8.11875
74	-8.13433
b	-8.13759
دي	-8.14026
▁الس	-8.14097
▁است	-8.14225
▁بيت	-8.14348
▁له	-8.14434
▁12	-8.15146
75	-8.15155
▁ط	-8.15181
▁17	-8.15319
▁رئيس	-8.15357
▁اتولدت	-8.15758
▁بو	-8.15975
ّ	-8.16029
مان	-8.16356
▁هي	-8.16534
|	-8.16948
با	-8.17334
بو	-8.1762
▁15	-8.17872
فا	-8.18342
تش	-8.18384
وف	-8.18433
65	-8.18732
91	-8.18928
▁ش	-8.18981
▁اتولد	-8.19331
▁تاريخ	-8.19661
كر	-8.19796
▁ابن	-8.20076
73	-8.20217
▁دور	-8.20511
▁الخ	-8.20859
▁سي	-8.21216
8"	-8.21224
▁يوليه	-8.21544
52	-8.2171
▁اس	-8.2181
ئ	-8.21814
جو	-8.22554
ra	-8.22608
اق	-8.22851
بي	-8.22975
دا	-8.23165
en	-8.23303
4	-8.24033
▁الله	-8.24286
▁14	-8.24435
▁الك	-8.24542
ri	-8.24601
59	-8.24644
▁مت	-8.24838
▁لي	-8.2519
وب	-8.25361
جا	-8.26249
▁عليه	-8.26474
▁ممكن	-8.26579
▁ممثلة	-8.26822
تين	-8.27159
نج	-8.272
03	-8.27538
▁ليه	-8.27783
41	-8.27811
42	-8.28197
la	-8.28268
▁كبير	-8.28275
▁عمل	-8.28687
▁20	-8.29365
04	-8.29372
▁(19	-8.2957
▁الش	-8.29768
92	-8.29798
▁المصريه	-8.30185
24	-8.30193
),	-8.30626
76	-8.30761
▁الر	-8.30851
58	-8.30937
u	-8.31158
▁2000	-8.31167
48	-8.31244
na	-8.31245
72	-8.31251
▁مركز	-8.31279
98	-8.31334
▁را	-8.31398
▁المصرى	-8.31418
26	-8.31579
05	-8.32482
▁امريكا	-8.3253
67	-8.33136
95	-8.33149
▁ليها	-8.34157
قريه	-8.34295
ِ	-8.34639
43	-8.35059
▁وأ	-8.35065
▁واللى	-8.35203
▁11	-8.35205
44	-8.35362
له	-8.3555
k	-8.35571
▁منها	-8.35669
يق	-8.35745
71	-8.35753
▁25	-8.35864
37	-8.35974
▁المصريين	-8.36015
▁13	-8.36517
▁ملك	-8.36614
▁ابو	-8.36646
▁يونيه	-8.37003
بل	-8.37067
▁بورنوجرافية	-8.37117
▁القاهره	-8.37152
▁سو	-8.37289
p	-8.37311
z	-8.37455
اش	-8.37929
بى	-8.38206
سى	-8.38237
79	-8.38429
]]	-8.38616
وز	-8.38751
35	-8.38971
اج	-8.3898
▁ص	-8.39011
▁الناس	-8.39049
li	-8.39086
38	-8.3923
▁كو	-8.39289
▁16	-8.39527
▁الاول	-8.3975
▁24	-8.3978
▁فرنسا	-8.40104
▁د	-8.40735
09	-8.40754
39	-8.40773
▁علشان	-8.40778
▁ولا	-8.40788
سون	-8.41102
فت	-8.41322
▁الإ	-8.41482
لي	-8.41989
▁قدم	-8.42222
ne	-8.42257
▁de	-8.42362
▁جو	-8.42492
▁اكتر	-8.42987
▁اسمها	-8.43089
▁وكان	-8.43247
▁بعدين	-8.43283
83	-8.4347
را	-8.4362
▁30	-8.43754
قر	-8.43789
87	-8.43944
▁[[	-8.44487
فر	-8.44752
يون	-8.44811
40	-8.45077
36	-8.45277
▁اكبر	-8.45365
ma	-8.45374
▁با	-8.4547
94	-8.45534
▁نادى	-8.45692
▁والم	-8.45884
x	-8.45994
ro	-8.4618
▁بعض	-8.4695
9"	-8.47194
قا	-8.47325
▁الج	-8.47424
▁a	-8.4804
▁ايد	-8.48627
ده	-8.48912
2	-8.49055
اك	-8.49411
▁الحرب	-8.49422
ند	-8.50623
▁كتير	-8.50975
02	-8.51015
w	-8.51089
از	-8.51129
▁21	-8.5121
70	-8.51374
▁اللي	-8.51476
▁التانى	-8.51743
ta	-8.51767
نت	-8.51802
08	-8.51968
در	-8.52034
68	-8.52085
11	-8.52339
وى	-8.52345
▁دول	-8.52413
▁تحت	-8.526
مو	-8.52646
07	-8.52674
▁1999	-8.52857
تي	-8.53385
▁ست	-8.5341
▁الى	-8.53722
رى	-8.53722
▁23	-8.53813
3	-8.53865
17	-8.54048
▁حكم	-8.54151
جد	-8.54248
شا	-8.54275
رو	-8.54418
▁طريق	-8.54454
29	-8.5447
▁يد	-8.54604
▁غ	-8.54798
▁اسمه	-8.54827
▁نسمه	-8.54891
▁بسبب	-8.55054
▁قال	-8.55097
78	-8.55127
▁تانيه	-8.55371
ka	-8.55375
re	-8.55418
▁22	-8.5548
▁وي	-8.55576
50	-8.55657
▁اليونان	-8.55767
▁خ	-8.5577
يع	-8.55811
اط	-8.5583
▁الغ	-8.55886
▁ضد	-8.5593
به	-8.56051
in	-8.56069
نس	-8.56093
ti	-8.56207
)،	-8.56858
عد	-8.56978
▁كوره	-8.57069
▁انت	-8.57072
27	-8.57303
▁علي	-8.57339
▁هما	-8.57444
▁حوالى	-8.57637
▁كانو	-8.57694
▁ار	-8.57922
▁زي	-8.58108
▁ma	-8.58312
▁26	-8.5837
61	-8.58398
▁التانيه	-8.58967
بان	-8.59034
▁سا	-8.59135
46	-8.59159
▁عام	-8.59169
49	-8.59627
ثر	-8.59644
دار	-8.59664
31	-8.5986
te	-8.59871
19	-8.60014
▁ومن	-8.60062
▁رو	-8.60142
سو	-8.60592
15	-8.60707
96	-8.60792
▁إن	-8.60976
69	-8.61121
قل	-8.61165
21	-8.61177
ni	-8.61384
93	-8.61496
▁&	-8.61549
كس	-8.61764
63	-8.61776
تون	-8.61784
86	-8.61799
يلى	-8.61902
▁جامعة	-8.62068
▁كتب	-8.62148
الم	-8.62197
▁احمد	-8.62375
او	-8.62516
▁عليها	-8.62698
85	-8.62711
▁لغاية	-8.62948
بار	-8.62953
▁28	-8.63068
f	-8.63227
رق	-8.63268
▁يت	-8.63299
دور	-8.6337
بت	-8.6347
g	-8.63606
▁عند	-8.63706
▁وهو	-8.63737
5	-8.64057
60	-8.64269
يوس	-8.6448
كل	-8.64761
دين	-8.64848
er	-8.65041
01	-8.65246
▁ر	-8.65363
53	-8.65411
="17	-8.65646
57	-8.65917
28	-8.66048
▁فا	-8.66049
55	-8.66094
▁كاس	-8.66265
▁الص	-8.66364
سل	-8.66494
88	-8.66807
45	-8.66875
▁29	-8.669
81	-8.67275
▁بتاع	-8.67492
el	-8.67612
▁اسكندريه	-8.6774
66	-8.68154
▁نفس	-8.68257
16	-8.68321
84	-8.68465
نو	-8.68717
▁باشا	-8.6897
▁طول	-8.68993
▁ممثل	-8.6902
▁ز	-8.69119
▁القاهرة	-8.69215
▁27	-8.69235
▁مصرى	-8.69252
99	-8.69409
يكا	-8.69435
ايا	-8.69442
v	-8.69645
اه	-8.69737
▁باسم	-8.69768
97	-8.69794
زا	-8.69883
ia	-8.69902
دن	-8.70369
▁آ	-8.70434
▁الامريكية	-8.705
جان	-8.7065
to	-8.70743
كن	-8.70801
▁اي	-8.70862
جل	-8.7091
▁وقت	-8.71172
ارى	-8.7141
فى	-8.71457
on	-8.71574
▁التالت	-8.72054
▁الوقت	-8.7209
82	-8.72205
ًا	-8.72222
جن	-8.72331
يج	-8.72449
تس	-8.73299
56	-8.73424
30	-8.73444
جه	-8.73558
▁1998	-8.73633
▁19	-8.73654
▁الجيش	-8.73694
62	-8.73869
وڤ	-8.74201
صل	-8.74257
ă	-8.74317
▁حياتها	-8.7457
▁دلوقتى	-8.74743
25	-8.7476
54	-8.74804
64	-8.74892
▁هناك	-8.74995
لين	-8.75108
▁المتحده	-8.75225
ڤ	-8.75493
▁أمريكى	-8.7559
co	-8.75735
51	-8.76133
فل	-8.76535
تن	-8.76566
▁أول	-8.76636
mi	-8.76949
▁فان	-8.77049
▁تانى	-8.77302
شر	-8.77336
وك	-8.77386
▁انا	-8.77518
="11	-8.77697
ی	-8.77984
▁بيها	-8.78239
90	-8.78604
▁كتاب	-8.78616
00	-8.78738
14	-8.78991
▁السلطان	-8.79049
▁راح	-8.79063
80	-8.79167
رك	-8.79264
▁المت	-8.79513
6"	-8.8008
عمل	-8.80117
▁كنيسة	-8.80262
▁الدوله	-8.8027
▁بالومار	-8.80439
▁تو	-8.80522
▁g	-8.80769
كار	-8.80902
بة	-8.81178
(	-8.81305
ur	-8.81565
▁فر	-8.8167
▁للم	-8.81718
▁بك	-8.81914
▁بشكل	-8.8197
▁مدينه	-8.82204
▁الحقيقى	-8.82304
▁نو	-8.82431
▁التاريخ	-8.83081
رس	-8.83116
▁الو	-8.83159
▁كا	-8.83327
10	-8.83458
12	-8.83711
06	-8.83776
▁بقت	-8.83869
ești	-8.84206
="14	-8.84286
▁شهر	-8.84497
st	-8.84521
في	-8.84578
ء	-8.84596
▁البر	-8.84659
وان	-8.8501
▁حب	-8.85039
▁عهد	-8.85055
="18	-8.85145
بال	-8.85607
مين	-8.85728
▁سنين	-8.86141
بير	-8.86203
وي	-8.86221
▁كلمات	-8.86237
▁حا	-8.86281
▁كم	-8.86288
▁جنوب	-8.86385
▁الد	-8.86445
ca	-8.86504
▁عمر	-8.86558
وق	-8.86578
13	-8.8667
▁منطقة	-8.86783
قال	-8.87129
▁الحكم	-8.87161
me	-8.87255
▁انها	-8.87415
ريك	-8.87522
تى	-8.87567
lo	-8.87949
ريس	-8.87953
ck	-8.88134
de	-8.88304
ch	-8.88655
▁لت	-8.8876
تهم	-8.889
مع	-8.88929
▁جون	-8.89021
ؤ	-8.8932
سيا	-8.89377
▁بر	-8.89497
is	-8.89508
▁المانيا	-8.8951
▁كر	-8.89564
▁المصرية	-8.89567
لم	-8.89592
▁of	-8.8962
▁o	-8.89773
▁بول	-8.89934
رف	-8.89966
سن	-8.89966
▁السنة	-8.90041
شو	-8.90107
▁نيو	-8.90172
▁بقى	-8.90214
;/	-8.90242
سي	-8.90244
ستان	-8.90655
سم	-8.90723
▁سير	-8.9074
▁بطولة	-8.90765
▁يكون	-8.90784
رت	-8.90977
اخ	-8.90987
6	-8.9102
h	-8.91048
="19	-8.91114
▁الشرق	-8.91154
▁ض	-8.91201
ولو	-8.91289
18	-8.91299
▁المن	-8.91313
23	-8.91425
▁مح	-8.91525
كون	-8.91722
▁عاصمة	-8.91763
▁اد	-8.91865
تم	-8.91879
▁كتيره	-8.91908
▁بم	-8.91952
89	-8.92054
ing	-8.92108
لاند	-8.92151
صور	-8.92314
man	-8.92535
▁بير	-8.92543
مه	-8.92949
▁سكان	-8.93003
▁كار	-8.9304
▁منهم	-8.93048
حب	-8.9312
="9	-8.93216
▁بنت	-8.93376
ș	-8.93377
▁ري	-8.93425
ry	-8.93432
▁دو	-8.93557
▁بيسبول	-8.93564
tt	-8.93639
▁علم	-8.93723
▁الل	-8.93906
▁حسن	-8.94107
مي	-8.94187
جى	-8.94296
▁العرب	-8.94406
▁وفي	-8.94567
0	-8.94594
جار	-8.94717
▁k	-8.94808
22	-8.94982
جين	-8.95097
shi	-8.95167
▁خط	-8.95327
▁جا	-8.95345
▁ايام	-8.95363
ورو	-8.95458
ْ	-8.95508
▁مر	-8.95565
ga	-8.9577
▁كبيره	-8.95973
بن	-8.96222
صر	-8.96358
9	-8.9668
▁الز	-8.96715
un	-8.96959
▁قدر	-8.97238
▁توم	-8.97274
7	-8.97313
ko	-8.97322
ce	-8.97381
▁كاليفورنيا	-8.97492
'	-8.97638
▁شمال	-8.9768
بين	-8.97713
كي	-8.97715
يلا	-8.97772
es	-8.97774
آ	-8.97886
ره	-8.97958
8	-8.98055
▁عين	-8.98069
مة	-8.98146
رة	-8.9831
▁إلى	-8.98437
▁31	-8.98451
ورى	-8.98487
se	-8.98635
▁تا	-8.98647
▁پو	-8.98762
▁وفى	-8.98983
no	-8.9918
بول	-8.99404
▁مجلس	-8.9945
رد	-8.99478
▁نفسه	-8.99491
th	-8.99603
زم	-8.99662
عت	-8.99674
زو	-8.99717
▁e	-8.99953
نز	-9.00135
▁حرب	-9.00265
son	-9.00314
يتش	-9.00323
ru	-9.00336
انا	-9.00386
▁المسلمين	-9.00634
مار	-9.00691
ar	-9.00707
▁شو	-9.00749
▁اوروبا	-9.00792
▁الحر	-9.01268
▁الان	-9.01272
سر	-9.01344
▁المملكه	-9.01496
▁جي	-9.02002
وع	-9.0238
sa	-9.02445
عاد	-9.026
▁«	-9.02687
▁اصل	-9.02775
▁انهم	-9.02916
ارة	-9.0297
لف	-9.02979
▁واحده	-9.03139
▁اليوم	-9.0324
دير	-9.03258
▁سم	-9.03283
1	-9.03354
غا	-9.03369
▁بلد	-9.03544
▁1990	-9.03583
قد	-9.03662
قام	-9.0372
دان	-9.03893
لوى	-9.03905
▁امريكية	-9.03963
ya	-9.04022
خر	-9.0415
▁الحب	-9.04312
وها	-9.04322
="13	-9.04425
لعب	-9.04973
مت	-9.04974
▁الاولانى	-9.05014
▁1981	-9.05096
▁روسيا	-9.05206
دل	-9.05381
دة	-9.05617
قص	-9.05697
da	-9.05856
▁قد	-9.05947
▁كور	-9.06208
▁نظام	-9.06237
▁شوف	-9.06324
سان	-9.06327
▁دخل	-9.06381
▁بار	-9.06627
مس	-9.06812
▁مين	-9.06894
رب	-9.06982
▁مربع	-9.06995
مل	-9.07076
ke	-9.07158
ائل	-9.07318
▁شي	-9.07446
فضل	-9.07475
▁مي	-9.07517
us	-9.07673
▁مو	-9.07789
عه	-9.07874
▁العصر	-9.08097
انجليزى	-9.08219
برا	-9.08241
▁لأ	-9.08316
▁2011	-9.08417
="10	-9.08511
▁mi	-9.08519
▁مسلسل	-9.08524
="16	-9.08809
▁اسبانيا	-9.08869
▁صلاح	-9.08997
اث	-9.09006
اني	-9.09133
نه	-9.09199
▁الدول	-9.09347
اوى	-9.09695
or	-9.09724
نظم	-9.09736
▁هوا	-9.09839
j	-9.09872
▁حد	-9.10057
لة	-9.10117
46"	-9.10151
لق	-9.10232
▁الناصر	-9.10305
▁ذلك	-9.10587
%	-9.10632
جم	-9.10756
▁العلم	-9.10779
بور	-9.10789
▁انجلترا	-9.10912
▁بان	-9.11081
ورا	-9.11136
▁محافظة	-9.11193
▁حصل	-9.11224
▁رفع	-9.11235
▁؛	-9.11261
000	-9.11325
ذا	-9.11342
▁العام	-9.11348
»	-9.114
="15	-9.11444
ارد	-9.11519
30"	-9.11531
شكل	-9.11534
▁جه	-9.11716
▁ka	-9.11775
ڤا	-9.11809
▁ملاكم	-9.11847
▁عالم	-9.11914
66"	-9.11934
بس	-9.11954
ba	-9.12013
سك	-9.12027
زي	-9.12029
▁ba	-9.12065
الى	-9.12104
عرف	-9.12165
▁t	-9.12184
▁أس	-9.12398
▁2001	-9.12416
▁پا	-9.12565
▁the	-9.1262
ران	-9.12671
▁sa	-9.12698
astrophysic	-9.12719
▁والت	-9.12763
=18	-9.12792
▁رغم	-9.12801
▁يوسف	-9.12812
كان	-9.12879
76"	-9.12889
رز	-9.12932
ــ	-9.12939
▁قام	-9.13085
90"	-9.13096
▁جيم	-9.13185
▁crime	-9.1325
▁حيث	-9.13259
فيلم	-9.13338
▁الاتحاد	-9.13379
اته	-9.13393
▁شركة	-9.13534
▁بقا	-9.13617
▁مليون	-9.13749
16"	-9.13822
▁لك	-9.13842
▁الرئيس	-9.13867
▁re	-9.13902
▁مست	-9.13937
▁la	-9.13941
▁كيلومتر	-9.14048
▁الهند	-9.14059
▁بيعتبر	-9.14089
▁اخر	-9.14154
▁المست	-9.14166
▁1991	-9.14279
▁مارى	-9.1436
رم	-9.14368
▁الاسلام	-9.1438
يط	-9.1438
اض	-9.14535
id	-9.147
▁سوس	-9.14756
عة	-9.15062
ونى	-9.15104
▁تت	-9.15164
50"	-9.15184
▁مار	-9.15267
▁أنه	-9.15283
▁كون	-9.15314
تار	-9.15348
روس	-9.15406
▁ها	-9.15433
▁اح	-9.15493
سيل	-9.15511
شي	-9.15552
ارا	-9.15596
▁عم	-9.15635
▁اش	-9.15652
قط	-9.1566
▁ابراهيم	-9.15666
▁بور	-9.15872
▁ro	-9.15889
▁تح	-9.15893
▁النيل	-9.15935
70"	-9.15983
▁الكتاب	-9.16029
▁اشهر	-9.16134
▁العربية	-9.16193
▁سل	-9.16213
▁مكان	-9.16224
▁وبعد	-9.16253
▁نوع	-9.16402
▁درس	-9.16435
▁الشعب	-9.16455
64"	-9.16616
فن	-9.16716
پو	-9.1674
ve	-9.16771
▁bo	-9.16808
سيو	-9.16849
▁كسب	-9.16856
قول	-9.16916
39"	-9.16976
▁ڤاليا	-9.17123
ol	-9.1727
40"	-9.17271
80"	-9.17309
الا	-9.17311
جز	-9.17316
36"	-9.17478
▁المتحدة	-9.17587
33	-9.17643
صف	-9.17725
▁عضو	-9.17766
▁العمل	-9.17847
▁ايه	-9.17856
▁كما	-9.17927
60"	-9.17982
نك	-9.18074
▁مور	-9.18105
38"	-9.18127
10"	-9.18158
14"	-9.18167
56"	-9.18293
49"	-9.18408
▁حاجه	-9.18446
19"	-9.18509
▁فترة	-9.18524
79"	-9.1853
32	-9.18574
43"	-9.18599
sh	-9.18616
انيه	-9.18626
يح	-9.18704
▁اع	-9.18815
جي	-9.1894
▁الط	-9.19011
▁ابتدا	-9.19028
ليل	-9.19093
18"	-9.19162
رج	-9.19179
86"	-9.19179
et	-9.19198
▁1988	-9.19297
طر	-9.19425
68"	-9.19481
63"	-9.19526
22"	-9.19608
طول	-9.19625
▁والأ	-9.19626
باب	-9.1964
=3	-9.19705
كى	-9.19728
الي	-9.19837
▁الفيلم	-9.19885
69"	-9.19944
61"	-9.19947
▁1989	-9.2014
حكم	-9.20155
▁المع	-9.20175
▁بل	-9.20203
يث	-9.20213
▁شرق	-9.20218
▁القديس	-9.20282
ستر	-9.20371
وية	-9.20425
▁اللغه	-9.20436
41"	-9.20453
▁بتت	-9.20592
تك	-9.20614
▁اليد	-9.20654
▁ca	-9.20667
96"	-9.20672
82"	-9.20726
چ	-9.20742
▁ناس	-9.20756
99"	-9.20767
رن	-9.20784
وار	-9.20841
بات	-9.20905
قه	-9.20956
خل	-9.20986
▁العربيه	-9.21009
ارات	-9.21073
قة	-9.21202
15"	-9.21284
▁عشر	-9.21367
▁محمود	-9.21382
di	-9.21532
17"	-9.21603
11"	-9.2163
88"	-9.21656
93"	-9.21671
ha	-9.21974
ci	-9.22013
33"	-9.22079
مى	-9.22104
است	-9.22137
53"	-9.22163
78"	-9.22165
▁بعدها	-9.22187
95"	-9.22199
اره	-9.22207
▁دين	-9.22239
23"	-9.22298
45"	-9.22335
32"	-9.22367
13"	-9.22404
ياس	-9.22411
94"	-9.2246
89"	-9.22479
▁لكره	-9.22533
بق	-9.2255
▁جيش	-9.22582
مير	-9.22697
فه	-9.2271
44"	-9.22809
mo	-9.22836
▁حزب	-9.2286
▁سن	-9.22922
12"	-9.22982
▁المقدس	-9.23
لت	-9.23044
حم	-9.23054
81"	-9.23066
▁لازم	-9.23178
il	-9.23347
مون	-9.23449
▁الكبير	-9.23542
▁حي	-9.23631
25"	-9.23636
09"	-9.23668
06"	-9.23943
▁الاسم	-9.24016
55"	-9.2405
▁جورج	-9.2409
62"	-9.24122
é	-9.24173
98"	-9.24297
▁حر	-9.24332
▁أنا	-9.24477
▁التاني	-9.2459
ويه	-9.2466
▁فن	-9.24679
▁سلام	-9.24781
▁اب	-9.24899
حت	-9.24954
87"	-9.24965
54"	-9.25222
▁المر	-9.25293
▁اى	-9.25326
▁b	-9.25334
84"	-9.25355
▁co	-9.25368
▁عاش	-9.2538
▁دار	-9.25381
▁معظم	-9.25448
▁شا	-9.25494
42"	-9.25545
▁مجموعة	-9.25572
اي	-9.25673
▁كارل	-9.25679
▁الكتير	-9.25723
▁مره	-9.25739
▁بالم	-9.25776
="7	-9.25802
▁جمال	-9.25841
بيل	-9.25846
ضاف	-9.25897
▁فوق	-9.25944
شت	-9.26
فو	-9.26017
تمتد	-9.26198
ter	-9.26233
دام	-9.26263
▁بأ	-9.26344
51"	-9.26519
=8	-9.26576
85"	-9.26632
▁علا	-9.26647
زين	-9.26727
▁أم	-9.26786
كور	-9.26847
eni	-9.26863
▁معروف	-9.26895
57"	-9.2693
▁1973	-9.26988
▁پي	-9.27014
08"	-9.27049
▁هار	-9.27116
عا	-9.27232
▁شعب	-9.27249
▁شارك	-9.27259
سلم	-9.27275
سب	-9.27303
va	-9.27406
▁اف	-9.27474
▁ني	-9.27537
vi	-9.27541
قدر	-9.27576
ولد	-9.27643
▁بلاد	-9.2779
رض	-9.27983
▁المصري	-9.28032
قي	-9.2804
فق	-9.28161
ولاية	-9.2821
▁عز	-9.28234
مثل	-9.28235
اهر	-9.28275
▁اهم	-9.28587
▁سيد	-9.28608
طب	-9.28735
▁يو	-9.288
00"	-9.28823
97"	-9.28925
وث	-9.2896
يته	-9.2898
ائ	-9.29068
امى	-9.29078
▁العراق	-9.29158
▁اسرائيل	-9.29206
▁سان	-9.2921
▁الشام	-9.29459
ري	-9.29473
wa	-9.29557
▁القديمه	-9.2963
▁1992	-9.29694
▁po	-9.29694
حل	-9.29823
▁be	-9.29865
ضم	-9.29894
▁الام	-9.29989
▁–	-9.3002
▁f	-9.30028
مات	-9.30039
▁al	-9.30055
▁نهاية	-9.30079
كوم	-9.30159
▁المدن	-9.30214
▁الاس	-9.30286
▁اسماعيل	-9.30311
▁افريقيا	-9.30486
▁به	-9.30519
▁عصر	-9.30558
ويل	-9.30801
▁المستوى	-9.30829
="8	-9.30898
بك	-9.30899
سين	-9.30906
هن	-9.31056
سكو	-9.31104
صاب	-9.31108
وج	-9.31138
▁1997	-9.31181
▁الطب	-9.3124
يست	-9.3136
▁1982	-9.31413
▁لبنان	-9.31454
▁الامير	-9.31479
ge	-9.316
صبح	-9.31774
يض	-9.318
▁نور	-9.31905
سكا	-9.31986
▁i	-9.32088
ميل	-9.321
▁مستوى	-9.32103
▁نص	-9.32129
طا	-9.3219
لال	-9.32219
be	-9.32225
▁mo	-9.32233
▁الحال	-9.32314
طو	-9.32315
▁p	-9.32349
قب	-9.32365
▁pa	-9.32449
▁1980	-9.3253
▁مد	-9.32535
▁البابا	-9.32549
فيل	-9.32623
ho	-9.32677
ينج	-9.32685
▁لسه	-9.32789
كم	-9.32895
go	-9.32932
قت	-9.32953
▁1985	-9.32973
وح	-9.33025
▁الميلاد	-9.33065
ليف	-9.33127
▁ميل	-9.332
▁جايزة	-9.33311
▁الرابع	-9.33368
▁الض	-9.33473
▁le	-9.33477
▁تشي	-9.33488
▁سر	-9.33496
▁مصريه	-9.33498
▁ابتدت	-9.33693
▁باب	-9.33782
▁اخت	-9.33801
ولا	-9.33856
07"	-9.339
▁بيقول	-9.33945
▁مال	-9.33981
▁1986	-9.33984
▁اله	-9.34063
حه	-9.34126
شى	-9.34228
ادي	-9.34249
▁ضمن	-9.34288
ai	-9.34345
▁قلبي	-9.3446
▁اليهود	-9.34496
▁وب	-9.34611
at	-9.34841
▁طرواده	-9.3489
▁الجو	-9.34934
بط	-9.3496
روب	-9.34997
صح	-9.35016
▁قتل	-9.35066
كت	-9.35068
راد	-9.35134
▁كات	-9.35322
▁الولايات	-9.3534
راج	-9.35353
▁بيه	-9.35396
خت	-9.3547
▁1987	-9.35497
▁2012	-9.35541
▁طلب	-9.35696
▁لان	-9.35727
▁خمس	-9.35744
▁غرب	-9.35835
cu	-9.35922
حق	-9.36031
▁أبو	-9.36143
فع	-9.36177
▁أهم	-9.3624
راف	-9.36271
جور	-9.36346
▁حسين	-9.36391
▁مك	-9.36423
عل	-9.36502
يني	-9.36521
▁خد	-9.3664
▁2006	-9.36777
▁الوطنى	-9.36819
▁المسرح	-9.36911
تيا	-9.36986
▁موجود	-9.36991
▁المغول	-9.37049
▁باس	-9.37068
▁1996	-9.37088
▁نهر	-9.37099
غني	-9.37167
▁الرياض	-9.37169
▁مرات	-9.37209
بد	-9.37443
زى	-9.3754
▁جزء	-9.37548
▁ايل	-9.37684
اله	-9.37875
▁فين	-9.37894
▁لمصر	-9.38062
صار	-9.38115
▁سين	-9.38154
▁للت	-9.38174
على	-9.38191
َّ	-9.38295
▁بطليموس	-9.38355
رجع	-9.384
اغ	-9.38621
لح	-9.38719
▁يعنى	-9.38723
ie	-9.3887
▁المح	-9.38948
▁الدولة	-9.39038
نيس	-9.39041
▁2008	-9.39088
خا	-9.39206
bo	-9.39286
▁جن	-9.39288
كاس	-9.39332
▁قدام	-9.39374
▁أثقال	-9.39498
▁تي	-9.39552
ڤي	-9.39632
▁برانيه	-9.39634
وال	-9.39698
▁أر	-9.39735
▁لينكات	-9.39735
▁اخد	-9.39758
▁الحزب	-9.39766
▁1984	-9.39773
رش	-9.3979
▁العربى	-9.39853
ظهر	-9.39903
▁نس	-9.3991
▁مجال	-9.40064
سير	-9.40092
▁جول	-9.40127
▁ايران	-9.40223
لات	-9.40243
▁2009	-9.40268
▁مرة	-9.40276
▁اندرسون	-9.40307
ملك	-9.40313
▁وفاته	-9.40454
ذكر	-9.40546
▁2010	-9.40552
▁1960	-9.40597
="12	-9.40621
فار	-9.40643
عين	-9.40708
شوف	-9.40805
▁كال	-9.40996
▁ڤي	-9.41091
▁تع	-9.41158
غنى	-9.41237
▁مير	-9.4124
لك	-9.41258
▁احسن	-9.41297
تل	-9.41346
دخل	-9.41348
يسى	-9.41401
▁كامل	-9.41559
▁شكل	-9.41639
▁البلاد	-9.41712
▁1978	-9.41754
▁مثل	-9.41768
ul	-9.41803
▁li	-9.41818
▁1994	-9.41875
بع	-9.41986
▁1993	-9.41994
طلق	-9.42044
chi	-9.42066
▁اسيا	-9.42216
▁ث	-9.42296
اى	-9.42344
ضا	-9.42345
رون	-9.4257
يرا	-9.42571
▁h	-9.42677
وط	-9.42681
▁الأولى	-9.42964
ver	-9.42998
▁الانسان	-9.43154
▁چوس	-9.43207
▁تكون	-9.43242
طلب	-9.43343
▁1977	-9.43363
▁وبي	-9.43393
pa	-9.4344
▁اكتشفه	-9.43524
▁بعت	-9.43573
▁المجتمع	-9.43606
فريق	-9.43629
▁يورك	-9.43751
قسم	-9.43804
si	-9.43819
▁حل	-9.43828
▁وزير	-9.43841
▁الأس	-9.43844
▁ايطاليا	-9.43861
▁فال	-9.43879
▁الشيخ	-9.43946
ايد	-9.4401
▁العشرين	-9.44156
▁نشر	-9.44178
دق	-9.44314
طه	-9.44321
راب	-9.44333
▁السل	-9.44346
حمل	-9.44374
ليم	-9.44446
ki	-9.44465
فة	-9.44508
▁تن	-9.44567
▁المدينة	-9.44607
طل	-9.44658
▁السينما	-9.44834
▁to	-9.44957
▁باريس	-9.44962
▁جنب	-9.44977
ton	-9.44979
جمع	-9.45007
▁بحر	-9.45021
سيم	-9.4508
▁المسيح	-9.45388
▁ڤ	-9.45391
فين	-9.45444
▁بطولات	-9.45545
▁فضل	-9.45583
▁مدن	-9.45602
مال	-9.45617
جيل	-9.45685
شير	-9.45688
وص	-9.45808
نش	-9.45853
it	-9.45871
▁برا	-9.45897
▁مس	-9.46291
دون	-9.46338
شار	-9.46345
غر	-9.46361
▁اليابان	-9.4637
▁ادوارد	-9.46378
▁معركة	-9.46446
ندى	-9.46652
▁الصليبيين	-9.46669
قف	-9.46694
درس	-9.46726
سام	-9.46754
▁معاه	-9.46834
رام	-9.46954
ولي	-9.47024
▁مملكة	-9.47105
ذر	-9.47147
ov	-9.47199
صب	-9.47255
▁بيل	-9.47295
▁سب	-9.47302
lin	-9.47315
بيه	-9.47323
▁الفن	-9.47351
▁بد	-9.47385
اير	-9.47422
▁الصح	-9.47438
▁حصلت	-9.47484
▁كين	-9.47584
▁سوريا	-9.4761
يها	-9.47613
▁بداية	-9.47686
▁مصطفى	-9.47821
▁اور	-9.47897
▁مساحة	-9.48011
يتا	-9.48013
▁ميسا	-9.48111
▁جل	-9.48112
▁لكوره	-9.48152
▁لين	-9.4825
▁رجع	-9.48257
هام	-9.48271
▁محل	-9.48363
▁حم	-9.48476
▁محطه	-9.48661
▁كول	-9.48665
▁البلد	-9.4875
▁v	-9.48851
ns	-9.48938
▁vi	-9.48953
هد	-9.48967
عبد	-9.49007
▁2007	-9.49118
▁جير	-9.49172
▁الي	-9.49199
▁راس	-9.49232
باط	-9.49417
▁الدنيا	-9.49426
روح	-9.49616
▁1995	-9.49631
عيد	-9.49722
علم	-9.49741
داد	-9.49765
سيطر	-9.49829
▁1983	-9.49867
▁بلا	-9.49897
▁قامت	-9.4991
بعد	-9.50012
▁القر	-9.50053
غير	-9.50072
؛	-9.50129
قدم	-9.50217
pe	-9.5025
▁عليهم	-9.50283
▁منتخب	-9.50426
سينى	-9.50519
▁الجن	-9.5053
مور	-9.50545
▁2005	-9.50775
▁مصادر	-9.5081
يكس	-9.50817
▁القانون	-9.50879
جب	-9.50959
▁الأول	-9.51188
▁التسجيل	-9.51198
▁ra	-9.51234
سيشتى	-9.51245
▁).	-9.5128
ليس	-9.51324
▁الأم	-9.51457
im	-9.5153
▁شركه	-9.51533
عود	-9.51598
▁الفنان	-9.51685
▁لندن	-9.5173
▁ذكر	-9.51744
▁لويس	-9.51815
نق	-9.51836
▁المسيحيين	-9.51928
▁جان	-9.51942
▁عنده	-9.51945
▁الكنيسه	-9.51949
▁القدم	-9.52015
▁1979	-9.52034
▁me	-9.52147
أن	-9.52192
▁لق	-9.52208
▁المركز	-9.52332
سيس	-9.52334
محمد	-9.52394
▁الوسطى	-9.52427
▁حول	-9.52439
▁يح	-9.52472
ll	-9.52611
▁الث	-9.52621
za	-9.52741
تير	-9.52967
تسو	-9.53051
جوز	-9.53071
▁ثورة	-9.53087
▁وسط	-9.53101
▁سانت	-9.53111
ياد	-9.53132
▁انتاج	-9.53222
▁لعبت	-9.53288
خرج	-9.5329
نيك	-9.53303
▁المثل	-9.53341
ja	-9.53516
انو	-9.53518
سار	-9.5359
جون	-9.53694
▁in	-9.53722
▁شر	-9.53759
تشي	-9.53798
▁الشمال	-9.538
▁1976	-9.53959
▁يعمل	-9.53974
ng	-9.54064
▁الاست	-9.54082
رين	-9.5424
▁أل	-9.54306
▁بما	-9.54393
▁كلية	-9.54464
▁القديم	-9.54606
لوم	-9.54606
▁الشر	-9.54618
▁التقويم	-9.54725
tu	-9.54726
يتسا	-9.5474
▁خلال	-9.5476
▁روما	-9.54777
▁فتح	-9.55004
زار	-9.55023
▁هير	-9.55065
قتل	-9.55154
▁سار	-9.55254
▁الجزء	-9.55341
um	-9.55393
نين	-9.55411
تينى	-9.55425
▁ڤيديو	-9.55429
▁شخص	-9.55581
انت	-9.55646
اما	-9.55652
▁حال	-9.55663
▁افلام	-9.55701
لس	-9.55785
▁الخامس	-9.55828
▁وقتها	-9.55876
عي	-9.55919
▁البل	-9.5601
▁مدرسة	-9.56022
خدم	-9.56079
▁حتى	-9.56158
▁يتم	-9.56158
▁دولة	-9.56161
▁امر	-9.56173
يرى	-9.56258
تور	-9.56318
▁ko	-9.5633
▁وهى	-9.56344
قرب	-9.56423
▁se	-9.56467
▁lu	-9.56549
▁na	-9.56557
▁جال	-9.56649
▁mar	-9.56811
▁جامع	-9.5682
com	-9.56917
▁تور	-9.57069
▁اللا	-9.57229
سلام	-9.57238
زن	-9.57316
لاف	-9.57317
غو	-9.57477
▁بري	-9.57496
▁معسكر	-9.57584
▁التعليم	-9.57604
▁...	-9.57646
▁سيل	-9.57682
ly	-9.57696
ريز	-9.57754
▁الفر	-9.57791
يچ	-9.57866
ou	-9.57951
▁الذ	-9.5801
ريب	-9.58093
▁الستات	-9.58109
▁برو	-9.58179
▁الجنس	-9.58193
دت	-9.58285
يدا	-9.5845
▁خلف	-9.58491
دم	-9.58517
▁بعده	-9.58563
▁سك	-9.58644
بيت	-9.58685
▁بورنوجرافى	-9.58852
طور	-9.58967
bi	-9.58978
حسن	-9.59004
ريش	-9.59048
تسى	-9.59334
ei	-9.59359
كتب	-9.5936
▁المتوسط	-9.59422
▁جور	-9.5944
عى	-9.59481
شه	-9.59618
ميلا	-9.59711
رح	-9.59731
▁عايز	-9.59797
ليه	-9.59827
داء	-9.59835
بون	-9.59871
▁ha	-9.59931
يرو	-9.60107
▁السيد	-9.6031
▁حبيب	-9.60332
▁صاحب	-9.60519
ic	-9.60524
▁2004	-9.60563
▁ولد	-9.60806
▁نقل	-9.60916
▁تنس	-9.6093
يكو	-9.61104
شع	-9.61271
▁العصور	-9.61504
▁الكل	-9.61513
▁المعروف	-9.61559
▁جدا	-9.61629
حد	-9.61693
▁بتعتبر	-9.61733
▁الصين	-9.61819
يڤ	-9.6184
▁حق	-9.61846
▁آل	-9.61952
يانا	-9.61969
▁so	-9.62082
▁از	-9.62092
انية	-9.62097
إ	-9.621
لان	-9.62183
▁ظهرت	-9.62231
▁البا	-9.62244
لمدة	-9.62325
▁الولاية	-9.62337
كين	-9.62369
وڤا	-9.62397
▁يست	-9.62682
▁فريد	-9.62716
وفا	-9.62717
بنى	-9.62721
▁المق	-9.6275
â	-9.62817
▁بح	-9.62838
▁قلبى	-9.62971
كول	-9.62979
▁رجال	-9.63014
▁موجوده	-9.63026
قبل	-9.63106
دد	-9.63113
▁الجديد	-9.63117
▁هايد	-9.63125
▁مصري	-9.63132
▁1952	-9.63214
▁شبه	-9.63238
▁الكر	-9.63301
▁تاني	-9.63314
▁والتر	-9.6335
زل	-9.63422
شهد	-9.63423
▁تش	-9.63484
▁2013	-9.63524
ينو	-9.63563
▁1971	-9.6364
وطن	-9.63646
فكر	-9.6375
رات	-9.63796
▁جديد	-9.63832
مصر	-9.63842
وفي	-9.63866
▁جزيرة	-9.63918
▁1975	-9.63944
▁اتوفى	-9.63985
▁di	-9.63989
▁فارس	-9.6402
▁السعوديه	-9.64037
راس	-9.64053
▁الليل	-9.64159
▁روس	-9.64194
شيل	-9.64275
صنع	-9.64342
▁العزيز	-9.64435
غط	-9.64464
ايل	-9.64524
▁منصب	-9.64576
▁واحدة	-9.64598
تميز	-9.64602
ir	-9.64967
يتو	-9.65047
▁أب	-9.65133
▁عال	-9.65236
▁50	-9.65254
▁ترك	-9.65274
▁دير	-9.65291
يوم	-9.65292
زان	-9.65308
يار	-9.65312
يره	-9.6532
تصنيف	-9.65339
ld	-9.65375
▁صح	-9.6542
▁الكنيسة	-9.65434
▁مواقع	-9.65488
صدر	-9.65528
ارت	-9.6556
▁ja	-9.65582
▁اسس	-9.65649
▁ساب	-9.65649
▁اهل	-9.65656
▁القوات	-9.65844
▁w	-9.65939
لاق	-9.66022
راح	-9.66027
▁نظر	-9.66054
▁جيريلز	-9.66087
▁اربع	-9.66196
▁مسرح	-9.66218
انه	-9.66291
ard	-9.66321
gh	-9.66388
طبيع	-9.66461
▁السويد	-9.66465
▁2002	-9.66527
▁حلو	-9.66536
٪	-9.66537
lu	-9.66542
▁كام	-9.66569
وني	-9.66587
وقف	-9.66626
ian	-9.66655
▁جمهورية	-9.66717
▁ثم	-9.66856
راء	-9.66865
▁التر	-9.66903
▁زمان	-9.66949
▁الحديث	-9.66987
سكن	-9.67117
مش	-9.6719
▁قسم	-9.67201
▁z	-9.67204
▁للأ	-9.67349
زيد	-9.67426
دول	-9.6747
▁السنه	-9.67512
قيم	-9.67554
يتس	-9.67572
hi	-9.67595
▁للكريكت	-9.67598
gu	-9.67618
ونفيلد	-9.6765
▁هوتين	-9.67738
عدد	-9.67781
تقدم	-9.67853
▁ڤا	-9.67868
á	-9.67903
▁بالا	-9.68001
▁جرا	-9.68003
▁الفترة	-9.68058
▁هد	-9.68094
▁وده	-9.68168
شيد	-9.68245
▁شوية	-9.68287
ger	-9.68385
الت	-9.68421
▁جري	-9.68436
▁الامبراطور	-9.68556
▁جار	-9.68567
پر	-9.68624
▁si	-9.68657
ev	-9.68666
▁السن	-9.68704
▁حى	-9.68763
▁قوات	-9.68791
طلع	-9.68816
▁1972	-9.68835
▁مان	-9.68869
حصل	-9.68902
وات	-9.68962
شرف	-9.69043
▁وكمان	-9.69085
ina	-9.69142
▁لقب	-9.69144
▁2016	-9.69215
▁do	-9.6926
▁ستاد	-9.69398
زع	-9.69403
▁ابنه	-9.69429
▁انضم	-9.69495
▁m	-9.69566
لوب	-9.69572
جامعة	-9.6962
عيش	-9.69664
▁ta	-9.69946
اسم	-9.70014
▁he	-9.70031
▁كبيرة	-9.70054
▁البن	-9.70092
▁يس	-9.70131
▁مؤسس	-9.7016
وض	-9.702
▁أحمد	-9.70343
▁كاتب	-9.70366
▁الدر	-9.70377
▁da	-9.70485
يتى	-9.70495
▁قرب	-9.70511
▁بيبرس	-9.70536
▁سكانها	-9.70571
▁موت	-9.70649
▁سلطان	-9.70702
do	-9.70739
▁سور	-9.70752
▁اشتغل	-9.70829
▁السلام	-9.7093
▁ابوه	-9.70938
▁تلات	-9.70947
▁جميل	-9.70957
▁صف	-9.71042
▁ظهر	-9.71054
che	-9.71091
فان	-9.71144
▁فؤاد	-9.7117
▁ar	-9.71238
he	-9.71242
دعو	-9.7138
▁الآ	-9.71431
حا	-9.71458
امر	-9.71484
▁ليهم	-9.71535
اوي	-9.71662
▁چي	-9.71699
نتج	-9.71784
▁مشتريه	-9.71799
نف	-9.7183
▁وزارة	-9.71904
نوع	-9.7191
زير	-9.71961
▁هان	-9.71991
▁مقر	-9.72021
ديد	-9.72052
تسا	-9.72064
فصل	-9.72134
▁سياسى	-9.72148
▁40	-9.72291
تشى	-9.72327
▁لى	-9.72392
ريت	-9.72399
ضرب	-9.72417
ji	-9.72423
عرض	-9.72463
غلب	-9.72498
اده	-9.7251
▁النظام	-9.72522
▁حبيبي	-9.72542
▁الخليج	-9.72649
نة	-9.72665
ساب	-9.72692
▁كوم	-9.72771
▁حساب	-9.72822
▁عرض	-9.72893
▁للا	-9.72929
▁ga	-9.72945
!	-9.73076
▁كي	-9.73079
عم	-9.73086
▁سبب	-9.73116
جاب	-9.7319
▁رفض	-9.73267
شهر	-9.73318
▁سعيد	-9.73461
▁1974	-9.73491
▁بريطانيا	-9.73567
▁أنها	-9.73568
يرة	-9.73603
سأل	-9.73616
▁لال	-9.73621
فتح	-9.73651
فور	-9.73678
حي	-9.7377
▁ريتشارد	-9.7382
ڤين	-9.73866
ـــ	-9.73886
طالب	-9.73906
جيب	-9.73929
▁دمشق	-9.73939
▁مشروع	-9.73985
قوم	-9.74098
غن	-9.74124
am	-9.74148
▁ميك	-9.74262
كات	-9.74304
▁اللغة	-9.74323
▁امير	-9.74487
ليا	-9.74635
▁الخط	-9.74647
لل	-9.74674
▁فقد	-9.74685
▁دون	-9.74767
▁اما	-9.749
يدى	-9.74986
▁فيل	-9.74991
نقل	-9.75004
فير	-9.75057
روم	-9.7512
حر	-9.75246
▁فير	-9.75274
حدث	-9.75343
▁مارك	-9.75386
▁لكل	-9.75391
ورد	-9.75396
راق	-9.75475
لون	-9.75503
فون	-9.75523
the	-9.75656
▁الامرا	-9.75726
ak	-9.75755
▁زا	-9.75816
▁يخ	-9.75853
▁قصة	-9.75904
▁وصلت	-9.75907
▁الوحيد	-9.76017
واجه	-9.76033
▁اقتصاد	-9.76045
▁هيل	-9.76055
ارك	-9.76073
▁الجنوبى	-9.7615
هما	-9.76172
▁لغه	-9.76339
▁ول	-9.76345
▁34	-9.76439
▁ورا	-9.76478
باد	-9.76493
▁فات	-9.76493
▁ولكن	-9.76582
▁ليون	-9.76668
▁وع	-9.76703
نيا	-9.76707
▁وان	-9.76744
▁دوله	-9.76756
▁1970	-9.76777
اري	-9.76816
="3	-9.76851
▁and	-9.76903
▁والع	-9.76906
▁ho	-9.76911
ديم	-9.76935
يلبيرج	-9.76961
اند	-9.76964
اخر	-9.7699
▁الكويكب	-9.76999
▁وجود	-9.77009
▁الظاهر	-9.77052
رسم	-9.77057
بلغ	-9.77245
▁فو	-9.77254
برج	-9.77284
ديو	-9.77318
▁الجريجورى	-9.7735
ايت	-9.77379
اندر	-9.774
ديان	-9.77422
os	-9.77435
لام	-9.77505
كونيجستوهل	-9.77518
ine	-9.77545
ً	-9.77606
▁الخل	-9.77638
▁وقد	-9.77677
برت	-9.77696
▁تق	-9.77719
▁خاص	-9.77726
▁موسى	-9.7778
▁العربي	-9.77837
▁اوستراليا	-9.77855
▁لح	-9.77865
250	-9.77987
▁نيديرلاند	-9.78024
▁قول	-9.78397
der	-9.7849
▁ميت	-9.78503
▁كنت	-9.78529
بدأ	-9.78547
ani	-9.78609
▁bu	-9.78711
ديه	-9.78739
حاول	-9.78755
ty	-9.78844
خان	-9.78919
▁چون	-9.78932
ديل	-9.79023
▁قانون	-9.79102
▁su	-9.79124
قع	-9.79132
نسب	-9.79201
▁بالت	-9.7929
▁مون	-9.79293
▁جمع	-9.79326
▁اعمال	-9.79366
▁2003	-9.79379
▁ايريك	-9.79387
وحد	-9.79456
▁قل	-9.79474
▁أكتر	-9.79487
▁أد	-9.79488
راك	-9.79564
رحل	-9.79632
▁كلام	-9.79653
ku	-9.79724
▁ساعات	-9.79747
▁استخدام	-9.79802
جاز	-9.79866
ek	-9.79873
▁الجنوب	-9.79885
▁المنطقة	-9.79924
شد	-9.80001
bu	-9.80016
▁فور	-9.80021
▁بابا	-9.80032
▁عيد	-9.80033
تيل	-9.80093
▁وانت	-9.80205
▁صوت	-9.80313
117	-9.80356
رئيس	-9.80388
▁السور	-9.80391
ثير	-9.80483
بري	-9.80495
▁القديمة	-9.80507
▁مناطق	-9.80525
▁شارع	-9.80545
▁السا	-9.8057
غل	-9.80576
▁روبرت	-9.80624
▁اتحاد	-9.80668
▁الغرب	-9.80672
مثال	-9.80705
▁كلمة	-9.80721
عن	-9.80764
▁حت	-9.80787
▁اذا	-9.80794
زال	-9.80849
▁حاول	-9.80852
po	-9.80872
ريف	-9.8088
▁طلع	-9.80915
▁اللعبه	-9.80941
عتمد	-9.80988
▁مما	-9.81044
▁بيع	-9.81101
دع	-9.81126
يص	-9.81141
تقل	-9.81188
▁كسبت	-9.81232
▁سبع	-9.81332
▁100	-9.81407
▁ون	-9.81474
فورد	-9.81483
سكى	-9.81552
عر	-9.81557
▁2014.	-9.81583
▁الموسيقى	-9.81628
بورج	-9.81638
سه	-9.81645
جير	-9.8175
ائر	-9.81776
au	-9.81792
ماكانش	-9.81802
▁هنرى	-9.81827
▁المماليك	-9.81923
▁بغداد	-9.82016
ميد	-9.82041
▁شاف	-9.82051
يكى	-9.82084
▁برنامج	-9.82091
▁الدكتور	-9.82132
op	-9.82182
▁روح	-9.82207
فيه	-9.82215
▁وهي	-9.82224
▁يع	-9.82244
طار	-9.82269
حاد	-9.82294
▁مونت	-9.82309
▁لوس	-9.82323
▁اساس	-9.82361
▁فل	-9.82365
نادى	-9.82379
حول	-9.82432
الد	-9.82448
ستين	-9.82454
ترك	-9.82541
▁قصر	-9.82543
طف	-9.82552
land	-9.82573
ريا	-9.82587
حافظ	-9.82662
حضار	-9.82716
شين	-9.82746
▁وصف	-9.82764
▁البشر	-9.8284
▁الممثل	-9.82862
▁الصليبيه	-9.82863
رار	-9.82923
فيد	-9.83048
▁مسرحية	-9.83065
ran	-9.83082
يشو	-9.83095
pi	-9.83166
▁آخر	-9.83205
▁1954	-9.83223
“	-9.83229
ريد	-9.83235
▁قلب	-9.83278
طلاق	-9.83344
غرب	-9.83344
وقع	-9.83366
▁الرومان	-9.83368
تف	-9.8345
▁ليستة	-9.83556
ولى	-9.83672
يله	-9.83693
▁عيني	-9.83919
▁الاوروبى	-9.83944
ny	-9.83999
▁hi	-9.84054
حن	-9.84111
▁المجال	-9.84158
▁بتاعت	-9.84186
▁2019	-9.84232
▁1967	-9.84238
اتهم	-9.84282
لحن	-9.843
▁ظهير	-9.84304
▁واللي	-9.84358
▁دولار	-9.84361
تاج	-9.84449
لب	-9.84468
_	-9.84483
▁مهم	-9.84535
هل	-9.84544
ț	-9.8459
اكل	-9.84606
اندا	-9.84696
210	-9.84727
▁الادب	-9.84746
وصل	-9.84816
▁قعد	-9.84823
▁المال	-9.84842
▁عبر	-9.84872
لقب	-9.84918
▁قناة	-9.84972
▁ملوك	-9.85032
▁السابع	-9.85041
▁كت	-9.851
ادى	-9.85159
▁السويس	-9.85248
كتاب	-9.85329
▁مبارك	-9.85392
▁الاقتصاد	-9.85426
تكلم	-9.85461
▁pi	-9.85469
جات	-9.85504
▁موقع	-9.8557
وهم	-9.85574
ريم	-9.85575
▁سال	-9.85575
▁1969	-9.85668
▁الأو	-9.8569
جول	-9.85704
š	-9.85754
لع	-9.85877
gi	-9.86128
لند	-9.86138
▁صور	-9.86169
اصر	-9.86186
▁والن	-9.86263
▁دم	-9.86312
▁السابق	-9.8632
ارو	-9.8635
جميع	-9.86373
ايم	-9.8639
▁المجر	-9.86496
▁تجاريه	-9.86549
سمى	-9.86613
ترجم	-9.86619
بيع	-9.86633
▁وح	-9.8665
▁سليمان	-9.86653
▁كانوا	-9.86701
▁مريم	-9.86733
سع	-9.86744
▁رياض	-9.86825
موس	-9.8683
▁بإ	-9.86921
▁ولاد	-9.86955
▁الحياة	-9.86976
قلب	-9.87121
▁أخ	-9.87142
▁تك	-9.87178
أس	-9.87256
▁فأ	-9.87258
▁يقول	-9.87294
يوب	-9.87296
▁فرح	-9.87317
▁جاب	-9.87341
صال	-9.87355
ائع	-9.87401
بابا	-9.87481
▁الاح	-9.87488
قطاع	-9.8751
▁عندها	-9.87534
يغ	-9.8758
نطق	-9.87608
عظم	-9.87636
▁فرقة	-9.87654
120	-9.87669
جري	-9.87694
مجموع	-9.8772
شن	-9.8773
▁بنا	-9.87767
نان	-9.87829
سيد	-9.87945
يقة	-9.87974
▁الاصل	-9.87976
مارس	-9.88044
▁1968	-9.88087
▁كري	-9.88095
▁1964	-9.88153
هور	-9.88254
جال	-9.88267
▁وكانت	-9.8828
▁الجر	-9.88316
ونيا	-9.88498
▁رجل	-9.88546
شان	-9.88561
قار	-9.88636
▁قرر	-9.88639
▁أح	-9.88656
هدف	-9.88737
▁هذه	-9.88743
▁رقم	-9.88757
so	-9.88799
بية	-9.88822
▁هنا	-9.88829
▁طالب	-9.88836
سنة	-9.88838
يّ	-9.88863
ber	-9.88894
▁بدأ	-9.89093
▁التجار	-9.89095
▁ارض	-9.89095
▁والا	-9.89104
انيشتى	-9.8913
▁ايلست	-9.89157
اول	-9.89157
▁المحل	-9.8917
لوك	-9.89189
▁جد	-9.89203
رشح	-9.8927
▁تس	-9.89301
حى	-9.89303
ac	-9.89339
▁ڤو	-9.89366
▁بلغ	-9.89522
▁كرو	-9.89541
▁المدينه	-9.89587
▁كريكت	-9.89676
حة	-9.89711
▁السي	-9.8982
sta	-9.89855
▁الفتره	-9.89859
▁بدل	-9.89884
mer	-9.89931
▁عليك	-9.89985
ياء	-9.90013
▁فرانك	-9.90041
▁للع	-9.90166
▁حدود	-9.902
يران	-9.90245
دفن	-9.90298
▁دومين	-9.90312
▁كثير	-9.90312
▁الطريق	-9.90348
▁المناطق	-9.90433
▁33	-9.90523
▁شغل	-9.90576
▁مخرج	-9.9077
▁تمثيل	-9.90823
كيم	-9.90828
اتها	-9.90878
▁2017	-9.90924
▁تل	-9.90938
▁العلوم	-9.91071
▁بقيادة	-9.91088
موت	-9.91094
▁المنطقه	-9.91138
▁san	-9.91204
ner	-9.91257
قم	-9.91298
اكا	-9.91388
رخ	-9.91406
شك	-9.91479
▁الدم	-9.91479
قى	-9.91493
سد	-9.91517
▁أفلام	-9.91545
▁زو	-9.91554
يجى	-9.91566
▁الحاكم	-9.91589
229	-9.91618
▁القدس	-9.91622
تنا	-9.91674
عمر	-9.91682
▁تسع	-9.91729
▁مولدوڤا	-9.91776
▁تخ	-9.91833
▁ki	-9.91846
▁مدير	-9.91866
mp	-9.91874
▁استمر	-9.91896
▁no	-9.91899
ff	-9.91938
▁برضه	-9.9195
▁القلب	-9.91967
em	-9.91975
حام	-9.92155
▁العالميه	-9.92306
▁الدولى	-9.92314
درو	-9.92328
▁عرف	-9.92367
▁بعيد	-9.92382
▁دخلت	-9.92472
فاء	-9.92475
▁خارج	-9.92496
▁عيون	-9.92513
سلط	-9.92528
لوج	-9.92586
مد	-9.92601
▁كليوباترا	-9.92625
▁السودان	-9.92658
▁el	-9.92724
▁الجميل	-9.92733
▁بكر	-9.92777
هيئة	-9.92802
▁مل	-9.92834
216	-9.92838
قلعة	-9.92844
وين	-9.92861
▁قبرص	-9.92877
رقص	-9.92878
يتها	-9.93039
▁چى	-9.93077
يمان	-9.93235
بوت	-9.9324
▁كليت	-9.93288
ed	-9.93376
شرق	-9.93387
▁بات	-9.93393
▁فلسطين	-9.93397
▁التو	-9.93443
▁تعتبر	-9.93497
▁صغير	-9.93499
ag	-9.93521
▁رب	-9.9367
وكا	-9.93749
ندا	-9.93824
▁قر	-9.93836
▁اتقتل	-9.93849
نزل	-9.93888
خو	-9.93916
▁عيلة	-9.9394
▁فرق	-9.93943
▁بنى	-9.93992
▁قوم	-9.94031
لط	-9.94055
عادة	-9.94103
▁الكبرى	-9.94151
▁يهود	-9.94156
▁car	-9.94184
205	-9.94218
han	-9.94232
نهار	-9.94249
▁فيليب	-9.94272
om	-9.9432
رع	-9.94343
▁بدر	-9.94393
▁حقوق	-9.94434
500	-9.94485
▁المحيط	-9.94537
▁عملت	-9.94634
▁المو	-9.94657
215	-9.94694
عارض	-9.94732
حزب	-9.94766
وصف	-9.94771
ايه	-9.94781
صلاح	-9.94989
ريح	-9.94997
عز	-9.95006
237	-9.95056
▁حالة	-9.95074
▁جين	-9.95076
▁الموضوع	-9.95108
▁والد	-9.95115
▁نجاح	-9.95135
▁شعر	-9.95208
230	-9.9521
▁مخ	-9.95295
أم	-9.95309
▁نطاقات	-9.95309
خط	-9.95323
▁nikolai	-9.9533
سور	-9.95344
قوا	-9.95395
▁يعتبر	-9.95488
]	-9.95522
▁مؤ	-9.95593
▁ماك	-9.95627
▁كلها	-9.95629
▁ومع	-9.95651
▁الحكومة	-9.95735
كرا	-9.95735
▁انواع	-9.95743
عالم	-9.95766
217	-9.95834
ثور	-9.95841
▁لويل	-9.95884
اريا	-9.9589
▁عاد	-9.9591
حارب	-9.95921
▁لإن	-9.95945
لن	-9.95954
▁لهم	-9.95986
170	-9.95993
ستخدم	-9.96003
▁سعود	-9.96144
▁جاك	-9.96147
▁الثوره	-9.96152
▁2010.	-9.96152
انيا	-9.96181
sen	-9.96201
▁امبراطور	-9.96242
قابل	-9.96271
▁داخل	-9.96325
▁وبت	-9.96354
▁المنصور	-9.96382
▁1956	-9.96426
ot	-9.96446
دال	-9.9652
فاق	-9.96553
▁شير	-9.96575
▁fa	-9.9673
ذلك	-9.96755
▁كبار	-9.96794
io	-9.96863
▁غا	-9.96916
▁1953	-9.96925
▁chernykh	-9.96951
▁التاسع	-9.96953
▁الواحد	-9.96969
225	-9.97017
▁هرب	-9.97036
ناس	-9.97044
▁إي	-9.97057
▁van	-9.97196
▁حركة	-9.97307
غال	-9.9731
رمان	-9.97338
▁مساعد	-9.97357
▁astronomic	-9.97361
ara	-9.97375
خلى	-9.97386
ang	-9.97487
▁لن	-9.97499
▁2018	-9.97585
▁اغانى	-9.97608
335	-9.97648
▁نجيب	-9.97684
تز	-9.97695
حقق	-9.97697
طال	-9.97776
▁mu	-9.97779
دوا	-9.97798
▁سافر	-9.9782
▁المغرب	-9.97822
▁المس	-9.97899
ley	-9.97919
كتر	-9.97934
▁نزلت	-9.97951
▁الاب	-9.97957
ii	-9.97961
▁القصر	-9.97975
ea	-9.98039
tor	-9.98054
ph	-9.98096
▁الكتب	-9.98155
امل	-9.98244
▁ترا	-9.98251
▁ليل	-9.98361
▁1961	-9.98503
▁الهوا	-9.98532
▁سيف	-9.98539
▁ذات	-9.98541
لاس	-9.98561
ترا	-9.98567
دية	-9.98575
▁المملكة	-9.98582
▁واخد	-9.98637
as	-9.98801
▁خا	-9.98802
▁الدستور	-9.98817
▁جزر	-9.98821
▁الجا	-9.98836
▁بكده	-9.98881
اخد	-9.9889
▁آه	-9.98917
ركب	-9.98936
▁بطريق	-9.99018
▁الحمله	-9.99029
فريد	-9.99059
▁1958	-9.99145
150	-9.99161
▁مصرية	-9.99168
سافر	-9.99205
▁العظمى	-9.99229
▁خر	-9.99235
ضحك	-9.99263
▁السياسيه	-9.99291
ستون	-9.99303
▁كير	-9.99374
▁نب	-9.99376
▁2014	-9.9945
▁الخاص	-9.99466
▁رد	-9.99491
▁جيمس	-9.99511
nu	-9.99512
هرب	-9.99582
خمس	-9.99603
▁ـ	-9.99626
ليود	-9.99628
يدي	-9.99635
▁المشهور	-9.99651
تمرد	-9.9968
عتقد	-9.99689
="5	-9.99754
▁يرجع	-9.99794
zi	-9.99815
صيد	-9.99815
▁بكل	-9.99889
ئى	-9.99898
my	-9.99982
لاك	-9.99998
▁الفنون	-10.0002
ايف	-10.0004
ادة	-10.0007
▁الايام	-10.0008
عات	-10.0009
▁نفسها	-10.0009
سف	-10.0012
▁تري	-10.0017
▁شيخ	-10.0018
180	-10.0019
hu	-10.0019
فض	-10.0023
su	-10.0024
ليون	-10.0031
▁هذا	-10.0034
100	-10.0044
228	-10.0049
ye	-10.005
▁أما	-10.005
▁35	-10.0054
▁ألف	-10.0054
▁الشعر	-10.0063
▁أشهر	-10.0064
ائد	-10.0068
باع	-10.0069
400	-10.007
رسوم	-10.0071
▁درا	-10.0082
den	-10.0085
▁إلا	-10.0087
ادا	-10.0093
تحت	-10.0097
نها	-10.0098
▁بيكون	-10.0101
مسلسل	-10.0108
حص	-10.0115
tin	-10.0116
شغل	-10.0117
حضر	-10.0119
▁مجلة	-10.012
▁1959	-10.0121
▁بع	-10.0126
▁الدنمارك	-10.0134
▁نسبه	-10.0135
▁نوبل	-10.0142
▁ni	-10.0143
▁راجل	-10.0144
اللى	-10.0145
▁العالمية	-10.0148
▁اك	-10.0154
ائية	-10.0155
▁يُ	-10.0163
▁حقق	-10.0164
lla	-10.0165
▁ci	-10.0166
▁الحروب	-10.0168
دود	-10.0169
▁الغربية	-10.018
جنب	-10.0184
▁الدور	-10.0184
du	-10.0186
ذه	-10.0191
جمعية	-10.0192
▁1963	-10.0201
▁حوالي	-10.0201
▁(18	-10.0202
يپ	-10.0205
▁بيتر	-10.021
▁ديل	-10.0211
▁حط	-10.0211
▁حياة	-10.0214
▁1955	-10.0217
▁ne	-10.0218
tri	-10.0234
▁1962	-10.0235
▁يبقى	-10.0239
▁جبل	-10.024
▁كله	-10.0241
▁كارولين	-10.0243
▁الشمس	-10.0249
▁60	-10.0253
▁صدر	-10.0256
تعلم	-10.0257
▁والح	-10.0258
▁بتاعة	-10.0259
يليا	-10.0261
بيس	-10.0262
معنى	-10.0263
▁السادس	-10.0263
يلي	-10.0265
▁جوايز	-10.0266
▁الحق	-10.0267
▁مقاطعة	-10.0268
▁هم	-10.0268
حكام	-10.0268
▁المجلس	-10.0273
نظر	-10.0273
▁المسيحيه	-10.0275
▁2015	-10.0281
لر	-10.0282
سجل	-10.0282
per	-10.0286
تان	-10.0286
يخ	-10.0289
يلو	-10.0292
nt	-10.0293
▁مدريد	-10.0307
▁كن	-10.0308
yo	-10.0311
▁we	-10.0315
▁جامعه	-10.0316
220	-10.0321
▁جيل	-10.0325
▁استول	-10.0327
110	-10.033
نور	-10.0331
▁حاكم	-10.0333
▁جم	-10.0341
▁اند	-10.0342
▁الفريق	-10.0343
259	-10.0349
▁ماي	-10.035
▁ماكس	-10.0351
▁الاكبر	-10.0355
334	-10.0356
▁مؤلف	-10.0373
جة	-10.0382
ــــ	-10.0389
▁الشهيد	-10.0393
▁آر	-10.0398
▁الشرقيه	-10.0402
سمح	-10.0415
ليك	-10.0421
نر	-10.0423
▁كريست	-10.0425
▁1950	-10.0429
سوق	-10.0433
▁شوميكر	-10.0437
▁الخليفه	-10.0437
use	-10.0444
240	-10.0447
ناه	-10.0456
عمار	-10.0456
175	-10.0457
▁العامة	-10.0458
▁عكا	-10.046
ماس	-10.0461
فرق	-10.0461
▁بيك	-10.0461
▁استخدم	-10.0462
سخ	-10.0469
▁لعيب	-10.0469
خطوط	-10.047
▁سلم	-10.0471
▁1948	-10.0472
▁عسكر	-10.0473
226	-10.0481
▁اخ	-10.0482
▁فكان	-10.0487
dy	-10.0488
حبيب	-10.0495
▁الكويت	-10.0497
▁فكر	-10.0498
بقى	-10.0499
▁قم	-10.0504
br	-10.0508
فرح	-10.0509
-19	-10.051
▁اخو	-10.0523
▁العسكر	-10.0524
▁اتآسس	-10.0525
▁العذراء	-10.0525
▁اكس	-10.0532
187	-10.0537
ونا	-10.0542
▁الجزيرة	-10.0547
▁الميه	-10.0548
عترف	-10.0549
▁32	-10.055
▁اخراج	-10.0555
▁الروح	-10.056
287	-10.056
محافظة	-10.0565
ابن	-10.0567
▁سوا	-10.0571
▁تشارلز	-10.0572
ren	-10.0581
توفى	-10.0583
ريان	-10.059
طير	-10.059
▁يقدر	-10.0593
▁نار	-10.0594
200	-10.0602
خضر	-10.0603
▁عليا	-10.0606
▁الأب	-10.0611
▁an	-10.0612
وويل	-10.0613
▁الاولى	-10.0615
206	-10.0621
▁أع	-10.0622
▁hu	-10.0626
▁اغ	-10.0628
▁39	-10.0629
جيه	-10.0632
▁تشا	-10.0632
men	-10.0633
▁ضرب	-10.0633
نغ	-10.0636
اور	-10.0639
▁إلي	-10.064
▁فعل	-10.0641
▁du	-10.065
فات	-10.0653
ضع	-10.0654
▁المل	-10.0656
▁الاغريق	-10.0659
▁الامبراطوريه	-10.066
▁تأسيس	-10.066
ثار	-10.0669
▁عنه	-10.0674
▁السوق	-10.0675
▁سليم	-10.068
▁در	-10.0684
مالك	-10.0685
▁[	-10.0688
▁ju	-10.0694
انج	-10.0697
▁بتقول	-10.0704
174	-10.0705
سهر	-10.0707
▁المخرج	-10.0708
▁الجديدة	-10.0708
چي	-10.0708
حملة	-10.0715
▁بأن	-10.0721
▁قاد	-10.0721
les	-10.0726
قات	-10.073
▁الشماليه	-10.0735
ساس	-10.0736
▁العمر	-10.0738
▁j	-10.0741
▁36	-10.0743
▁وتم	-10.0743
▁الفكر	-10.0746
▁واست	-10.0753
mon	-10.0753
زور	-10.0754
▁ولما	-10.0755
▁الحل	-10.0765
320	-10.0782
قاد	-10.0783
صير	-10.0785
we	-10.0786
ونج	-10.0786
ٍ	-10.0795
▁1945	-10.08
▁تج	-10.08
▁خدمة	-10.0801
▁اخوه	-10.0803
سياس	-10.0804
▁الفرنساوى	-10.0804
▁ku	-10.0809
▁بدا	-10.0815
زر	-10.0817
▁الجامع	-10.0819
▁الجمهور	-10.0824
▁عملية	-10.0825
▁غيرها	-10.0825
▁وبعدها	-10.0827
▁كدا	-10.0837
▁وجه	-10.084
▁1966	-10.0847
ay	-10.0847
fa	-10.0847
وسط	-10.0851
tsu	-10.0854
▁وما	-10.0863
▁قلاوون	-10.0864
▁1957	-10.0872
▁الانجليز	-10.0873
▁مايكل	-10.0876
▁الحديد	-10.0877
▁والس	-10.0879
kar	-10.0881
▁حن	-10.0882
▁الاخير	-10.0891
▁بورن	-10.0894
چو	-10.0896
صن	-10.0902
214	-10.0904
▁90	-10.0906
كوڤ	-10.0917
طى	-10.0919
▁قطر	-10.0925
طق	-10.0929
▁وقال	-10.0932
▁النمسا	-10.0934
▁باي	-10.0935
▁العليا	-10.0943
وكس	-10.0949
چا	-10.0951
امه	-10.0954
يسيا	-10.0957
مسرح	-10.0957
▁الدفاع	-10.0957
179	-10.0958
زه	-10.0959
▁الغربيه	-10.096
▁هيلين	-10.0964
eu	-10.0969
▁مول	-10.097
▁طب	-10.0971
جت	-10.0979
▁ru	-10.0979
▁اعداد	-10.0982
▁اعلن	-10.0982
▁إت	-10.0984
▁نادي	-10.0993
▁gu	-10.0995
▁تطوير	-10.1003
▁النور	-10.1005
▁48	-10.1012
="25	-10.1017
كال	-10.102
جيش	-10.1021
▁جداً	-10.1032
zu	-10.1036
▁التمثيل	-10.1037
227	-10.1039
ائي	-10.1043
جبر	-10.1043
▁تجار	-10.1046
يده	-10.1047
روا	-10.1048
▁كوت	-10.105
▁الكامل	-10.1053
▁تعال	-10.1056
109	-10.106
▁عمره	-10.1062
طاق	-10.107
▁جوا	-10.1074
▁بطرس	-10.1074
ترى	-10.1077
كوس	-10.1077
▁go	-10.1079
دينى	-10.1084
▁سام	-10.1085
خد	-10.1085
جمل	-10.1096
▁ستيشن	-10.1096
▁احنا	-10.1098
▁1965	-10.1098
تجمع	-10.1098
روج	-10.1098
بناء	-10.1103
="6	-10.1106
▁نايب	-10.1108
▁شويه	-10.1108
تيك	-10.1109
▁الجبل	-10.111
▁التابع	-10.1116
ذاع	-10.1117
▁چو	-10.1122
▁خرج	-10.1123
▁هول	-10.1126
دوس	-10.1127
="26	-10.113
فرد	-10.1131
▁لسنة	-10.1132
خلف	-10.1134
سوف	-10.1134
ig	-10.1144
▁القبطيه	-10.115
ڤر	-10.1152
عباره	-10.1158
207	-10.1161
ائيه	-10.1162
جرى	-10.117
ok	-10.1171
صمم	-10.1174
ائم	-10.1175
اجتماع	-10.1176
▁45	-10.1177
▁ومخرج	-10.1177
▁الكو	-10.1178
▁أصل	-10.1191
325	-10.1199
▁منطقه	-10.1202
اريس	-10.1218
▁التلفزيون	-10.1218
▁bi	-10.1218
▁واسع	-10.122
ئه	-10.122
▁قليل	-10.1221
▁اتجوز	-10.1223
وافق	-10.1226
طين	-10.1239
▁sch	-10.1243
جامع	-10.1243
▁فضلت	-10.125
▁الجم	-10.1252
▁اماكن	-10.1265
؟	-10.1267
▁ميدان	-10.1267
بيك	-10.1268
صم	-10.127
▁الصف	-10.1276
اكس	-10.1277
▁حبيبى	-10.1279
دافع	-10.1281
دس	-10.1286
علام	-10.1286
▁السادات	-10.1287
شم	-10.1289
تعمل	-10.129
ميس	-10.129
▁80	-10.1296
▁جديده	-10.1304
▁الصغير	-10.1306
▁مز	-10.1313
▁ste	-10.1316
340	-10.1316
▁اجتماع	-10.1325
ايطالي	-10.1327
▁الباب	-10.133
ze	-10.1333
لدرجة	-10.1337
▁أف	-10.1338
aki	-10.1338
▁رين	-10.1347
▁المسيحية	-10.1348
ساك	-10.135
خلي	-10.1355
▁كويس	-10.1356
▁lo	-10.1358
اذ	-10.1359
شاهد	-10.136
▁افكار	-10.1363
الف	-10.1372
تابع	-10.1375
▁-)	-10.1375
lia	-10.138
▁السعودى	-10.1383
▁كمال	-10.1396
▁پيتر	-10.1408
▁الصعيد	-10.141
177	-10.1414
صرف	-10.1416
="29	-10.1419
ster	-10.1439
▁قصير	-10.144
▁1949	-10.1443
▁pe	-10.1443
تحديد	-10.145
▁التي	-10.1455
▁te	-10.146
▁ch	-10.1464
ذهب	-10.147
286	-10.1473
▁الاساس	-10.1476
جاس	-10.1476
دفع	-10.1477
▁70	-10.148
▁الوهاب	-10.1481
رجوع	-10.1482
▁اصول	-10.1486
▁مهرجان	-10.1491
مشارك	-10.1493
▁65	-10.1495
▁الحلو	-10.1498
انس	-10.15
▁(1	-10.1501
256	-10.1503
توم	-10.1504
ey	-10.1506
▁الأمير	-10.1507
jo	-10.1508
224	-10.1513
▁العاده	-10.1514
▁الغالب	-10.1518
▁مقابل	-10.152
209	-10.1521
كاتب	-10.1524
صد	-10.1525
▁سعد	-10.1528
▁سبرينج	-10.1529
▁جوهانس	-10.1529
▁لب	-10.153
▁اعلى	-10.153
▁تعليم	-10.153
285	-10.1532
▁قريب	-10.1535
▁اشتهر	-10.1539
▁اتعين	-10.1545
▁اسر	-10.1546
▁jo	-10.1554
حسب	-10.1556
▁الاع	-10.1556
189	-10.1556
▁المسا	-10.1557
▁أواخر	-10.156
ليو	-10.1561
ana	-10.1564
▁تلت	-10.1566
عوا	-10.1571
173	-10.1583
▁السياسية	-10.1586
بوس	-10.159
▁1951	-10.159
▁جودو	-10.1591
by	-10.1592
238	-10.1595
▁نورث	-10.1602
مركز	-10.1603
time	-10.1608
ّا	-10.1617
عتبر	-10.1622
▁توماس	-10.1622
تكون	-10.1628
▁بيد	-10.163
اسى	-10.1631
فلسف	-10.1633
▁مستقل	-10.1634
▁وعمل	-10.1635
جايزة	-10.1636
ويين	-10.1637
كرم	-10.1643
▁أي	-10.1646
347	-10.1648
سال	-10.1648
▁ممثله	-10.165
▁صيربيا	-10.1652
▁بص	-10.1654
فيس	-10.1658
▁قائد	-10.1659
▁الفنية	-10.1666
mu	-10.1667
246	-10.1669
350	-10.167
كنيسة	-10.1679
que	-10.1691
▁je	-10.1696
▁محترف	-10.1702
nes	-10.1702
▁دلوقتي	-10.1709
وذ	-10.171
مول	-10.1716
▁نشأتها	-10.1718
▁جرو	-10.1719
▁ذا	-10.1721
صوص	-10.1723
▁الصيف	-10.1727
ten	-10.1727
▁ويليام	-10.1728
▁الشرقية	-10.1736
طيار	-10.1739
درا	-10.1741
توسع	-10.1742
▁”	-10.1743
سلطن	-10.1744
▁القبطية	-10.1746
tz	-10.1751
صدق	-10.1754
▁اللغات	-10.1763
خلص	-10.1771
▁خان	-10.1772
▁البرلمان	-10.1778
ah	-10.1779
▁بطوله	-10.1779
▁رسمي	-10.1786
▁ديم	-10.1788
330	-10.18
▁البار	-10.1802
بالخصوص	-10.1802
284	-10.1804
تعاون	-10.1807
▁مشهور	-10.1808
▁الشغل	-10.1811
tro	-10.1812
▁العسكريه	-10.1812
تاريخ	-10.1815
▁وضع	-10.1817
عدل	-10.1818
شمل	-10.182
▁وكل	-10.1821
▁عط	-10.1826
а	-10.1827
▁كلثوم	-10.1828
▁مساحه	-10.1828
don	-10.183
▁ياما	-10.1834
لاو	-10.1839
ناش	-10.1839
▁وفاة	-10.184
234	-10.1843
وة	-10.1846
ثا	-10.1854
يسكو	-10.1856
▁شمس	-10.1856
يعة	-10.1858
دري	-10.1858
زيل	-10.1861
▁الرئيسى	-10.1862
▁تب	-10.1867
▁معاهم	-10.1872
ele	-10.1879
▁37	-10.188
▁الحكومه	-10.1881
حصول	-10.1891
يانو	-10.1891
280	-10.1892
▁تير	-10.1893
لوس	-10.1899
218	-10.1899
هول	-10.1902
يريا	-10.1904
▁التويتر	-10.1904
ler	-10.1905
▁النظر	-10.1906
▁الصالح	-10.1908
موند	-10.1911
▁تلك	-10.1929
▁الأن	-10.1929
▁درجة	-10.1931
دعم	-10.1931
▁38	-10.1938
▁كتابه	-10.1941
هُ	-10.1941
hen	-10.1942
▁fi	-10.195
تخصص	-10.1951
تغير	-10.1951
غار	-10.1952
ائها	-10.1954
▁u	-10.1961
▁n	-10.1962
▁العين	-10.1969
▁ليلة	-10.1969
257	-10.197
▁سينا	-10.1976
▁فلوريدا	-10.1981
▁فاروق	-10.1982
ent	-10.1982
▁نيك	-10.1985
▁عباس	-10.1986
275	-10.1992
160	-10.1993
▁ثور	-10.1993
▁الست	-10.1994
gra	-10.2003
▁مطار	-10.2007
▁موضوع	-10.2009
▁دوب	-10.201
حرق	-10.2015
حيوان	-10.2018
سحب	-10.2019
▁سمع	-10.202
▁الإسلام	-10.2027
=94	-10.2031
▁mountain	-10.2032
▁جوه	-10.2033
▁معهد	-10.2036
خص	-10.2039
لاب	-10.2042
219	-10.2043
▁البيت	-10.2046
▁بيح	-10.2052
wi	-10.2054
310	-10.2054
يابانى	-10.2058
▁الحياه	-10.2061
▁اه	-10.2065
يجي	-10.2068
▁رياضى	-10.2073
بعت	-10.2074
حرم	-10.2075
▁الاسبان	-10.2075
يجو	-10.2082
▁الرحمن	-10.2084
▁تكساس	-10.2084
ica	-10.2087
▁سيم	-10.2092
▁شباب	-10.2099
▁الشا	-10.2109
▁st	-10.2116
مارك	-10.2118
ven	-10.2119
▁استمرت	-10.2122
قبض	-10.2123
نظام	-10.2127
▁الانجليزى	-10.2128
▁اتعملت	-10.2129
▁1946	-10.2133
تقدير	-10.2133
اشى	-10.2133
▁l	-10.2135
▁هل	-10.2135
رؤ	-10.2137
ابر	-10.214
تحكم	-10.2142
▁بيشتغل	-10.2145
sk	-10.2151
327	-10.2155
تعرض	-10.2159
▁الامبراطورية	-10.2162
▁1947	-10.2165
▁والده	-10.2169
sch	-10.2174
▁ظهور	-10.2175
▁1936	-10.2179
جهز	-10.2186
129	-10.2186
▁تأليف	-10.2189
▁بناء	-10.2189
▁عارف	-10.219
▁السر	-10.2191
204	-10.2192
ell	-10.2195
tion	-10.2198
▁ادا	-10.2204
شف	-10.2207
800	-10.221
ذب	-10.221
288	-10.2212
▁الثقافي	-10.2214
▁اتجوزت	-10.222
322	-10.2224
▁كذا	-10.2235
دوب	-10.2236
▁اوهايو	-10.2241
رسل	-10.2248
▁مابين	-10.2249
ستا	-10.2255
جيت	-10.2255
236	-10.2257
▁الحروف	-10.226
اوس	-10.2263
▁مص	-10.227
▁كورنيلي	-10.2272
عبارة	-10.2275
رتب	-10.2277
ik	-10.2278
▁ارت	-10.2281
▁شم	-10.2282
▁الاله	-10.2284
pp	-10.2293
▁الأفلام	-10.2295
315	-10.2297
gr	-10.2299
▁فلا	-10.2301
▁شاركت	-10.2303
ريه	-10.2311
عدم	-10.2323
berg	-10.2324
▁عثمان	-10.2326
وبا	-10.2328
▁القمر	-10.2329
▁الأصل	-10.233
▁النصر	-10.2345
▁لانه	-10.2346
بح	-10.2347
▁سياسي	-10.2348
188	-10.2352
▁قرار	-10.2352
روف	-10.2359
بني	-10.2369
328	-10.2371
▁ذو	-10.2379
172	-10.238
▁منتج	-10.2382
▁امين	-10.2383
وله	-10.2386
▁ڤيل	-10.2394
دعى	-10.2397
▁قرية	-10.2398
▁المط	-10.2398
▁بإسم	-10.2402
▁الساحل	-10.2404
279	-10.2405
▁وحد	-10.2407
ستو	-10.2409
ائى	-10.2414
سيطرة	-10.2419
▁حفل	-10.2421
كاثوليك	-10.2427
مجلس	-10.2427
اتولد	-10.2429
▁عندهم	-10.2432
كلاسيك	-10.2434
▁أيام	-10.2436
▁الهوى	-10.2437
▁john	-10.2437
نادي	-10.2441
▁عشرين	-10.2442
پان	-10.2444
▁الكون	-10.2445
انجريد	-10.2448
2021	-10.2451
▁صراع	-10.2454
وزارة	-10.2455
▁الشركة	-10.2456
ضي	-10.246
يكي	-10.2471
rn	-10.2472
اكى	-10.2475
iu	-10.2479
▁astero	-10.248
▁عمله	-10.2481
▁خلص	-10.2484
▁رسمى	-10.2486
▁شيلت	-10.2488
326	-10.2488
▁كيل	-10.2489
▁وأن	-10.2498
ايدنج	-10.2501
▁رم	-10.2503
▁الكثير	-10.2512
قعد	-10.2512
▁انتهت	-10.2515
▁بيستخدم	-10.2523
▁وانا	-10.253
رحم	-10.253
102	-10.2533
▁معلومات	-10.2535
حط	-10.2539
▁عرب	-10.2542
ائه	-10.2543
360	-10.2549
▁عدم	-10.255
296	-10.2552
269	-10.2559
▁bra	-10.256
بيا	-10.2562
▁انجليس	-10.2566
وچ	-10.2567
كريس	-10.257
▁التنس	-10.2573
▁لأول	-10.2574
▁رود	-10.2576
دينا	-10.2579
▁بط	-10.258
▁غزو	-10.2583
فيف	-10.2586
260	-10.2594
ساد	-10.2595
▁الأوسط	-10.2596
خطر	-10.2598
نسى	-10.2602
طة	-10.2602
▁البي	-10.261
ظل	-10.261
▁شن	-10.261
ساو	-10.2611
فهم	-10.2612
▁اختار	-10.2613
▁النهارده	-10.2616
▁العاصمه	-10.2618
وره	-10.2622
▁مكتب	-10.2624
▁صالح	-10.2628
329	-10.2628
–	-10.2629
يزو	-10.2644
تدوير	-10.2648
كشف	-10.265
▁رومان	-10.2658
ايموت	-10.2665
235	-10.2668
جلد	-10.2673
▁نجم	-10.2673
▁فت	-10.2674
267	-10.2677
▁wi	-10.2678
▁ڤال	-10.2679
ئة	-10.268
▁وادى	-10.2683
186	-10.2684
جمال	-10.2684
طان	-10.2688
ضيف	-10.2696
نيل	-10.27
▁جديدة	-10.2702
▁55	-10.2703
▁المش	-10.271
نصب	-10.2711
vo	-10.2719
▁الاخر	-10.2719
▁التسعتاشر	-10.2726
159	-10.2727
▁ابت	-10.2728
258	-10.2729
مراكز	-10.273
▁لها	-10.2736
▁بينهم	-10.2743
314	-10.2752
▁0	-10.2753
▁السياسى	-10.2755
▁لاسيلا	-10.2756
ant	-10.2759
tra	-10.276
ضل	-10.2761
لمواقع	-10.2767
ill	-10.2769
جس	-10.2771
▁وجد	-10.2774
▁بالع	-10.2775
▁اتأسست	-10.2779
▁العاب	-10.2781
▁عا	-10.2788
لها	-10.2788
علي	-10.2793
▁أعمال	-10.2796
178	-10.2798
شعار	-10.2801
339	-10.2806
▁محاول	-10.2811
▁قالت	-10.2812
قصر	-10.2814
▁ديفيد	-10.2818
قضى	-10.2823
▁حكومة	-10.2824
پول	-10.2829
▁فنان	-10.283
319	-10.2834
▁معبد	-10.2835
نتين	-10.284
ستاد	-10.2845
▁السبع	-10.285
يفا	-10.2851
احة	-10.2854
▁49	-10.2855
▁خو	-10.2863
▁سلسلة	-10.2864
▁الكبيسة	-10.2866
▁المملوكيه	-10.2866
▁اقليم	-10.287
▁حسنى	-10.2871
▁صيف	-10.288
▁خير	-10.288
صغر	-10.2884
برو	-10.2885
▁الانترنت	-10.2894
▁شوارتزتشايلد	-10.2894
رانس	-10.2894
▁نتيجة	-10.2897
▁الفرنسية	-10.2899
▁الجديده	-10.2899
بدا	-10.2906
▁فون	-10.2912
ستعمل	-10.2914
185	-10.2914
باك	-10.2914
104	-10.2916
ورث	-10.2917
▁زوج	-10.2918
الأ	-10.2921
▁عايش	-10.2922
▁وإ	-10.2927
زرع	-10.2928
ملوك	-10.2928
▁لاس	-10.2928
▁جبال	-10.2938
▁أش	-10.294
فلسطين	-10.2942
▁غالب	-10.2942
▁الأقباط	-10.2945
fer	-10.2948
format	-10.2951
ألف	-10.2952
▁فشل	-10.2953
قطع	-10.2955
▁خلا	-10.2956
▁يعرف	-10.2957
iz	-10.2961
▁الاو	-10.2966
▁كريم	-10.2966
▁خليل	-10.2966
تأثر	-10.2968
▁پري	-10.2972
min	-10.2973
حتل	-10.2976
▁الحديثة	-10.2978
▁الجزيره	-10.2979
تحالف	-10.2983
▁قائم	-10.2985
▁عنها	-10.2985
تنفيذ	-10.2986
▁إنه	-10.2987
▁مرض	-10.2989
▁الشباب	-10.2989
فيت	-10.2991
▁university	-10.2992
وضح	-10.2993
▁ثلاث	-10.2994
رير	-10.2996
▁sc	-10.3001
▁fe	-10.3005
بريطاني	-10.3007
▁قيصر	-10.3007
فعل	-10.3007
▁الثقافه	-10.3009
▁معناها	-10.3013
▁العر	-10.3017
وخ	-10.3019
▁بيتقال	-10.302
▁فيهم	-10.302
فوز	-10.3022
kh	-10.3022
ظلم	-10.3023
▁متحف	-10.3024
316	-10.3025
249	-10.3027
▁تركيا	-10.3032
▁الجل	-10.3036
▁تحرير	-10.3036
▁التل	-10.3037
إن	-10.3039
kov	-10.3046
▁اوك	-10.3048
▁هدف	-10.3055
احمد	-10.3059
جح	-10.3061
▁يعقوب	-10.3062
▁اجرام	-10.3064
ham	-10.3067
▁فتره	-10.3067
▁fr	-10.307
▁غرام	-10.307
▁ساعة	-10.3071
amp	-10.3074
▁لإ	-10.3075
▁العهد	-10.3078
▁الجامعة	-10.3091
í	-10.3093
fr	-10.3093
▁آن	-10.31
▁46	-10.3102
نكا	-10.3108
عصب	-10.3109
▁الاف	-10.3114
▁الحديثه	-10.3119
▁أعلن	-10.3123
غي	-10.3129
▁استر	-10.3132
رينى	-10.3134
اللغة	-10.3141
▁خالد	-10.3142
▁سجل	-10.3143
جزر	-10.3148
شق	-10.315
ايب	-10.3151
أستاذ	-10.3153
ريج	-10.3155
▁لغة	-10.3158
▁ياخد	-10.3167
▁ساعتها	-10.3179
▁الطا	-10.3179
▁الازهر	-10.3185
رية	-10.3188
▁الذي	-10.3191
321	-10.3192
ong	-10.3204
▁2018.	-10.3208
▁بيوت	-10.3213
▁1919	-10.3222
▁الأرض	-10.3223
دراسة	-10.3225
297	-10.3227
▁دستور	-10.3239
▁السياح	-10.3242
▁الامريكانيه	-10.3247
▁عسكريه	-10.3249
270	-10.325
▁شعار	-10.3251
194	-10.3254
▁الانتخابات	-10.3254
هار	-10.3255
300	-10.3262
جيو	-10.3263
ân	-10.327
ضعف	-10.3273
▁fran	-10.3273
نوس	-10.3276
ion	-10.3283
323	-10.3288
107	-10.329
▁بطل	-10.329
متلك	-10.3294
▁العظيم	-10.3296
▁البوليس	-10.3296
336	-10.3297
rk	-10.3299
يتين	-10.3299
▁روز	-10.3302
رود	-10.3302
▁عمرو	-10.3305
▁السنين	-10.3307
لبس	-10.3307
156	-10.3312
سبب	-10.3314
الكويكب	-10.3314
▁كوب	-10.3314
▁المسلسل	-10.3319
197	-10.332
▁تالت	-10.3323
رمز	-10.3323
سيه	-10.3324
č	-10.3325
▁جامد	-10.3329
▁العيله	-10.3334
▁مطرب	-10.3336
="4	-10.3338
ers	-10.3339
شيشتى	-10.3342
صاد	-10.3343
▁پير	-10.3346
▁اوباما	-10.3354
zh	-10.3361
راز	-10.3369
yu	-10.3369
▁النص	-10.3374
▁نيل	-10.3375
ربط	-10.3381
▁سول	-10.3381
▁عسكرى	-10.3382
▁الراحل	-10.3386
▁قنا	-10.3387
تمتع	-10.339
يمين	-10.3394
▁لأنه	-10.3394
▁مض	-10.3396
▁بالقاهرة	-10.3397
▁هند	-10.3399
▁فول	-10.3401
▁ڤير	-10.3402
eg	-10.3405
ثقافة	-10.3406
َا	-10.3408
344	-10.3409
▁ve	-10.3409
▁المؤرخين	-10.3417
عجب	-10.3417
▁تول	-10.3421
▁المعهد	-10.3422
274	-10.3424
▁300	-10.3424
خوان	-10.3432
▁ya	-10.3434
▁روب	-10.3434
▁هن	-10.3435
▁sp	-10.3436
قيادة	-10.3437
337	-10.3437
ابو	-10.3439
▁الدينيه	-10.3439
▁الخديوى	-10.3443
▁حافظ	-10.3449
▁خيال	-10.3451
▁صغيره	-10.3453
nce	-10.3454
▁التق	-10.3457
لز	-10.3458
▁الحقوق	-10.3461
245	-10.3466
لازم	-10.3468
▁تبع	-10.3471
الب	-10.3473
ä	-10.3473
غاني	-10.3474
▁توفيق	-10.3478
▁الحدود	-10.348
ari	-10.3481
166	-10.3483
▁صد	-10.3484
راث	-10.3484
▁المكان	-10.3485
▁اسلام	-10.3488
برى	-10.3488
="27	-10.3489
▁خاصة	-10.349
tho	-10.3494
▁منظمة	-10.3497
▁الأمر	-10.3498
▁الواقع	-10.3503
جماعة	-10.3505
▁الأر	-10.3507
▁الشهير	-10.351
▁المؤرخ	-10.3514
لغه	-10.3515
▁ستو	-10.3517
▁as	-10.352
زواج	-10.3524
▁موسيقى	-10.3524
▁chi	-10.3526
▁عش	-10.3527
▁ورد	-10.3531
▁47	-10.3532
▁مفيش	-10.3533
▁غيرهم	-10.3534
▁ستر	-10.3536
يڤو	-10.3536
ارث	-10.3542
318	-10.3543
ab	-10.355
▁حبك	-10.3552
▁بره	-10.356
▁اتخرج	-10.356
ميت	-10.356
▁بالكامل	-10.3563
text	-10.3563
290	-10.3565
338	-10.3566
mar	-10.3573
▁زوجى	-10.3575
▁تطور	-10.3576
زيادة	-10.3577
167	-10.3577
▁كرة	-10.3578
▁ke	-10.3584
ولاد	-10.3585
▁اعتبر	-10.3586
▁الغربى	-10.3587
ليان	-10.3589
طرق	-10.3592
خيل	-10.3592
▁تينيسى	-10.3593
192	-10.3593
▁رمز	-10.3595
▁الألمان	-10.36
مدرسة	-10.3601
▁شخصية	-10.3602
▁العلا	-10.3606
بيب	-10.3608
تبع	-10.3608
▁wa	-10.3608
▁النفس	-10.3617
وبه	-10.3618
النسبه	-10.3618
▁يوحنا	-10.3619
▁العالي	-10.3619
▁التحرير	-10.3623
جيم	-10.3625
266	-10.3628
▁x	-10.3633
صان	-10.3633
▁قرا	-10.3634
قضي	-10.3635
▁بإن	-10.3636
▁بطريرك	-10.3637
▁چا	-10.3648
حكى	-10.3649
je	-10.3654
▁الاخ	-10.3654
▁الخارج	-10.3655
▁ضم	-10.3656
▁بها	-10.3658
▁مغ	-10.366
▁مسرحيات	-10.3664
شتغل	-10.3666
فيديو	-10.3669
غز	-10.3671
184	-10.3674
▁نجح	-10.3679
▁النبى	-10.3683
▁انتخابات	-10.3685
سيب	-10.3685
▁الاحمر	-10.3689
وفر	-10.3691
ثمان	-10.3695
نار	-10.3695
▁وبين	-10.3698
309	-10.3702
nda	-10.3709
140	-10.371
car	-10.3716
116	-10.3716
▁دان	-10.3718
▁2015.	-10.3719
عبر	-10.3725
▁يروح	-10.3731
تزوج	-10.3741
ألعاب	-10.3745
▁الاتنين	-10.3746
221	-10.3747
▁الروم	-10.3747
▁دوت	-10.3747
▁كيف	-10.3747
▁gi	-10.3748
▁هاجم	-10.3752
zo	-10.3756
▁البط	-10.3761
▁الكلام	-10.3761
289	-10.3765
▁هال	-10.3767
▁المدارس	-10.3769
dia	-10.377
▁فكرة	-10.3771
eri	-10.3772
▁ليلى	-10.3773
▁السو	-10.3776
سكان	-10.3777
▁مراد	-10.3781
▁بوب	-10.3782
▁ميس	-10.3784
▁نوا	-10.3787
▁cha	-10.3793
ساعد	-10.3795
333	-10.3796
130	-10.3796
▁الامريكانى	-10.3797
▁تأثير	-10.3801
▁بنات	-10.3804
▁مسك	-10.3808
365	-10.3808
ڤير	-10.3823
▁وقف	-10.3824
▁عرش	-10.3826
تدخل	-10.383
▁حوالين	-10.3831
▁الأش	-10.3831
▁تاي	-10.3834
▁بيعمل	-10.3834
▁سويسرا	-10.3837
▁امه	-10.3838
▁44	-10.3839
res	-10.384
q	-10.3842
▁مجموعه	-10.3843
ندر	-10.3844
rt	-10.3844
▁مهمه	-10.3845
▁مشاكل	-10.3846
▁بيس	-10.3848
bel	-10.3849
▁قابل	-10.3851
▁عربى	-10.3853
▁الجمهورية	-10.3854
وفيتش	-10.3854
موسيقي	-10.3857
روجان	-10.3857
lli	-10.3863
سرع	-10.3865
ساح	-10.3865
model	-10.3868
دوم	-10.3869
▁امريكى	-10.3869
▁الأعمال	-10.387
▁اقت	-10.3873
فيلد	-10.388
ڤان	-10.3883
sy	-10.3885
273	-10.3886
▁اتعرف	-10.3886
▁الرومانيه	-10.3894
سباني	-10.3895
154	-10.3899
α	-10.3899
▁دخول	-10.3899
ناظر	-10.3901
درب	-10.3909
▁تقول	-10.391
▁فار	-10.3915
ياً	-10.3918
har	-10.3919
صه	-10.3919
272	-10.3929
▁الوطنية	-10.3931
كوك	-10.3933
stamp	-10.3933
203	-10.3938
روض	-10.3941
▁جنيه	-10.3943
▁ستا	-10.3945
▁الجامعه	-10.3949
▁1938	-10.3957
▁الزوج	-10.3959
▁أغسطس	-10.3961
▁ولم	-10.3964
▁مرتين	-10.3965
125	-10.3972
sky	-10.3977
زراعة	-10.3979
▁هت	-10.3982
▁معتزل	-10.399
▁معناه	-10.399
az	-10.3995
101	-10.3997
اغنيه	-10.4
حاضر	-10.4007
▁فردى	-10.4008
منطقة	-10.4013
تعامل	-10.4014
ديس	-10.4016
▁النار	-10.4016
▁الاوروبي	-10.4018
="28	-10.4024
اچ	-10.4024
ich	-10.4024
»،	-10.4027
gen	-10.4028
▁67	-10.403
307	-10.403
uc	-10.4035
▁ساحل	-10.4035
▁كاز	-10.4036
عرب	-10.4037
سترا	-10.4039
▁تشير	-10.4048
▁قوى	-10.4052
244	-10.4053
ٌ	-10.4056
تتكون	-10.4056
▁دمياط	-10.4056
▁أمر	-10.4057
▁56	-10.4058
عقد	-10.406
▁شب	-10.4061
▁bar	-10.4065
قياس	-10.4066
▁كيم	-10.4066
غضب	-10.4069
▁ظل	-10.4072
331	-10.4083
440	-10.4086
о	-10.4087
▁نسبة	-10.4095
▁الشرقى	-10.4095
▁1944	-10.4096
190	-10.4099
▁يوتا	-10.41
▁الكور	-10.4101
▁كندا	-10.4102
193	-10.4112
298	-10.4113
rname	-10.4116
▁قديم	-10.4119
يكون	-10.4119
contributor	-10.4119
▁نيكولا	-10.412
▁برازيل	-10.4121
▁جمهور	-10.4122
ano	-10.4125
108	-10.4127
جيا	-10.4131
ski	-10.4136
ria	-10.4139
yama	-10.4146
خفض	-10.4147
▁الشخص	-10.4148
и	-10.4151
رئاسة	-10.4151
▁حاجات	-10.4154
▁سمير	-10.4154
▁العباس	-10.4156
ِّ	-10.4161
ليز	-10.4162
▁ويلز	-10.4163
▁السم	-10.4165
▁تونس	-10.4166
كيا	-10.4167
صالح	-10.4171
شركة	-10.4176
155	-10.4177
▁ساعد	-10.4183
▁النرويج	-10.4185
=5	-10.4185
▁لغات	-10.4187
لاعب	-10.4188
جيد	-10.4188
يقه	-10.4191
▁الدهب	-10.4194
▁الرئيسية	-10.4198
▁اير	-10.4201
عاش	-10.4202
▁التم	-10.4206
ريال	-10.4216
▁الشركه	-10.4216
▁الداخل	-10.4218
352	-10.422
▁اعماله	-10.4223
▁بدور	-10.4228
295	-10.4232
▁عقد	-10.4235
تحرك	-10.4235
▁حضر	-10.4243
nia	-10.4249
war	-10.425
299	-10.4255
ee	-10.426
▁بوكس	-10.426
▁قطع	-10.4264
126	-10.4265
▁الحج	-10.4265
▁اتنين	-10.4267
▁الدولية	-10.4267
▁مراته	-10.4271
▁سپ	-10.4273
▁تيم	-10.4277
196	-10.4277
▁ايلانور	-10.4279
▁ber	-10.428
▁is	-10.4283
اليا	-10.4287
ثان	-10.4288
▁احتل	-10.4289
▁الفرد	-10.4293
137	-10.4294
▁غي	-10.4296
جوس	-10.4301
قيد	-10.4303
mann	-10.4303
▁الخير	-10.4304
▁الاسكندر	-10.4309
▁البريطانى	-10.4312
تعذيب	-10.4312
▁valea	-10.4312
106	-10.4314
شتى	-10.4315
ولوجيا	-10.4315
▁يونان	-10.4317
▁الهويه	-10.4318
مدح	-10.4319
▁فإ	-10.4322
سيج	-10.4323
▁ريد	-10.4331
▁حاي	-10.4333
▁ليك	-10.4334
cia	-10.4334
▁مجتمع	-10.4338
واحد	-10.4338
700	-10.4342
▁أسس	-10.4342
اضطهاد	-10.4344
صلح	-10.4347
370	-10.4351
▁ياسين	-10.4351
▁الأشرف	-10.4357
cy	-10.4361
▁عزيز	-10.4365
▁pla	-10.4371
▁cor	-10.4372
355	-10.4374
▁العرش	-10.4375
▁واتانابى	-10.4377
نيتسا	-10.4377
▁1942	-10.4378
▁مليار	-10.4379
دفاع	-10.4379
▁الصور	-10.4379
ريوس	-10.4382
هير	-10.4385
▁اضطر	-10.4391
غريد	-10.4398
▁موس	-10.4404
▁محفوظ	-10.4409
san	-10.4412
▁تست	-10.4415
ورة	-10.4416
vin	-10.4416
▁par	-10.4416
▁اكمن	-10.4418
▁مينا	-10.4418
nic	-10.4421
▁جورنال	-10.4422
▁العسكرية	-10.4423
▁مصطلح	-10.4426
▁سالم	-10.4426
231	-10.4432
▁خال	-10.4433
115	-10.4434
▁va	-10.4436
ليت	-10.4436
▁مجمع	-10.4437
▁الصليب	-10.4439
ther	-10.444
▁اتعمل	-10.4447
nov	-10.4456
عزل	-10.4456
▁الملوك	-10.446
شجع	-10.446
▁سلامه	-10.4469
301	-10.4473
وارد	-10.4474
▁الافلام	-10.4476
جنوب	-10.4478
ow	-10.4482
حاكم	-10.4487
لد	-10.4488
105	-10.4489
▁خلي	-10.4491
317	-10.4495
▁اتسبب	-10.4497
▁روم	-10.45
ينه	-10.4501
وغ	-10.4502
199	-10.4505
▁1940	-10.4505
لمان	-10.4508
▁الامريكيه	-10.4508
▁58	-10.4509
▁الثورة	-10.451
149	-10.4512
نتيجه	-10.4515
gar	-10.4515
▁الصغيره	-10.4519
▁تأ	-10.4519
اهو	-10.452
191	-10.4523
ier	-10.4525
▁ادارة	-10.4529
ريو	-10.4534
ئية	-10.4539
▁السكر	-10.4539
ü	-10.4541
▁مكتوب	-10.4542
comment	-10.4542
324	-10.4542
▁شهرستان	-10.4542
▁انشاء	-10.4546
شهادة	-10.4547
▁بأنه	-10.4554
▁عل	-10.4555
▁ناصر	-10.4559
قرر	-10.4564
جود	-10.4572
van	-10.4572
باس	-10.4582
▁الاكتر	-10.4583
▁ليو	-10.4584
▁معروفه	-10.4585
▁الاسلاميه	-10.459
▁85	-10.459
▁مختلفة	-10.4597
▁عملها	-10.46
▁sus	-10.4606
▁64	-10.4606
▁ميخائيل	-10.4608
asa	-10.4609
انيين	-10.4611
▁paul	-10.4613
304	-10.4617
282	-10.4618
▁جناح	-10.4618
مَ	-10.4618
ron	-10.4621
درج	-10.4623
▁نزل	-10.4625
نتخب	-10.463
▁آي	-10.463
ken	-10.4633
▁باك	-10.4633
▁اتعرفت	-10.4635
▁تعمل	-10.4637
▁زين	-10.464
▁الفاطمي	-10.4641
▁القبطى	-10.4642
قوى	-10.4642
▁الثلاث	-10.4642
▁للمر	-10.4648
ino	-10.4656
▁ماريا	-10.4662
▁2020	-10.4664
▁jos	-10.4666
حفظ	-10.4667
▁الاسر	-10.4667
مكانها	-10.4669
▁دفع	-10.467
درجه	-10.467
▁فلوس	-10.4675
▁بتوع	-10.4675
رفض	-10.4676
▁غريب	-10.468
عاهد	-10.4683
فاف	-10.4685
▁اقدم	-10.4688
اهل	-10.4693
رغم	-10.4697
محافظه	-10.47
رتبة	-10.4703
▁الرومانية	-10.4704
293	-10.4704
قاتل	-10.4707
▁الالعاب	-10.4709
cho	-10.4712
▁المدرسة	-10.4716
▁زار	-10.4717
▁العامه	-10.4717
▁الشمالية	-10.472
302	-10.4722
▁يوليو	-10.4724
450	-10.4725
147	-10.4725
ip	-10.4728
صيب	-10.4734
هوتن	-10.4737
▁الفرق	-10.4738
روز	-10.4738
▁محافظه	-10.4741
▁جود	-10.4743
حزاب	-10.4744
دموع	-10.4749
▁كبر	-10.4752
▁شجر	-10.4756
▁بتستخدم	-10.4757
nan	-10.4758
▁شارل	-10.4768
▁المؤسس	-10.477
▁القرآن	-10.4777
▁الوطنيه	-10.4777
▁هر	-10.4779
ref	-10.4779
▁طلعت	-10.479
▁الحسين	-10.4798
182	-10.4799
308	-10.4802
▁حكمه	-10.4805
▁الدوا	-10.4806
▁نشاط	-10.4811
▁مقاطعه	-10.4811
▁الفرعون	-10.4811
نوب	-10.4811
▁اسكندرية	-10.4814
سليم	-10.4814
232	-10.4817
موسيقى	-10.4822
پل	-10.4823
مغني	-10.4825
fe	-10.4825
▁جاى	-10.4827
223	-10.483
لستة	-10.483
▁ge	-10.4831
▁الدي	-10.4836
▁johannes	-10.4844
▁رمضان	-10.4844
▁المعركه	-10.4844
ului	-10.4845
برضه	-10.4852
▁دراسته	-10.4852
▁احد	-10.4854
▁حرف	-10.4854
▁خصوصا	-10.4857
195	-10.4858
135	-10.4858
▁الفلك	-10.4863
▁الهجر	-10.4863
شبه	-10.4872
حصن	-10.4877
▁القلعه	-10.4879
يجا	-10.488
روك	-10.4887
غناء	-10.4888
▁إيه	-10.4895
▁ابي	-10.4896
cha	-10.4898
▁69	-10.49
all	-10.4901
375	-10.4903
▁العز	-10.4904
162	-10.4904
▁اقل	-10.4908
غان	-10.4908
parent	-10.4913
▁بالك	-10.4913
▁الاردن	-10.4915
عضو	-10.4915
▁العاشر	-10.4918
▁مرمى	-10.4919
بود	-10.492
لينى	-10.4926
▁1939	-10.4931
▁أوائل	-10.4931
دبلوم	-10.4932
تكوين	-10.4933
263	-10.4937
▁سماه	-10.4938
392	-10.4941
▁طبع	-10.4941
ice	-10.4943
▁طبق	-10.4944
▁لوك	-10.4945
▁corneli	-10.4947
▁purp	-10.4947
▁المدرسه	-10.4948
▁ريس	-10.4948
▁هاجر	-10.4949
▁اغلب	-10.4954
▁هجم	-10.4958
▁براد	-10.4959
▁الأح	-10.4959
600	-10.496
▁سى	-10.4962
وضع	-10.4962
213	-10.4971
▁سابق	-10.4972
▁بود	-10.4973
ini	-10.4977
أت	-10.4979
لاحظ	-10.4985
▁بتح	-10.4985
▁فريدريك	-10.4986
▁والق	-10.4988
الج	-10.4993
tur	-10.4995
بواب	-10.4995
جراف	-10.4998
ستور	-10.4998
iș	-10.5
شخص	-10.5
rich	-10.5003
بورت	-10.5008
فرانك	-10.5009
▁؟	-10.501
▁يقع	-10.5017
▁per	-10.5017
دوله	-10.502
شعب	-10.5025
ليش	-10.5027
▁قمر	-10.5043
net	-10.5046
▁تبقى	-10.5049
اراضى	-10.5053
▁بلو	-10.5054
437	-10.5057
▁الشريف	-10.5067
276	-10.5068
ish	-10.5069
▁الأخ	-10.507
▁اوى	-10.5071
▁الملكى	-10.5074
▁الكاتب	-10.5078
▁الرومانى	-10.508
▁العالمى	-10.5082
▁عربي	-10.5082
تشين	-10.5083
▁بعدما	-10.5088
▁ڤيتشى	-10.5089
198	-10.509
جام	-10.5091
▁الكاتوليك	-10.5091
▁سميث	-10.5091
ec	-10.5092
نائب	-10.5093
يروس	-10.5097
الح	-10.5101
▁طويل	-10.5109
حماية	-10.511
مملكة	-10.5112
▁اليمن	-10.5112
▁كارولاينا	-10.5122
▁هولاكو	-10.5122
▁معاك	-10.5126
332	-10.5127
ملاك	-10.5128
▁موج	-10.5128
▁2002.	-10.513
▁1930	-10.5132
▁اللبناني	-10.5136
157	-10.5137
تمكن	-10.5137
▁صل	-10.5137
▁المتحف	-10.5144
▁فرد	-10.5147
دولة	-10.5148
▁1943	-10.5149
ديك	-10.515
▁66	-10.5151
صام	-10.5154
فال	-10.5157
ارس	-10.5158
127	-10.5159
▁الفيزيا	-10.516
تعرف	-10.5164
▁مكانه	-10.5167
بلد	-10.5169
”	-10.517
▁ترو	-10.517
▁دينيه	-10.5173
▁والب	-10.5176
380	-10.5177
▁انتصار	-10.5179
cher	-10.518
شترك	-10.5181
مسيحي	-10.5184
ائز	-10.5189
ودى	-10.5193
283	-10.5195
سعد	-10.5199
eng	-10.52
▁يوصل	-10.5202
▁سعودى	-10.5202
▁tsu	-10.5202
▁يوهان	-10.5202
كلمة	-10.5203
▁ليس	-10.5205
▁1937	-10.5208
▁غالى	-10.5211
تاشر	-10.5211
ممثله	-10.5211
nk	-10.5212
▁برج	-10.5212
نيش	-10.5213
▁ترجم	-10.5213
▁الأنبا	-10.5215
▁تقدم	-10.5217
▁تغيير	-10.5218
صة	-10.522
▁دايما	-10.5222
▁تقديم	-10.5229
▁أوروبا	-10.5229
اذاعة	-10.5231
مسك	-10.5231
▁صليب	-10.5234
مكان	-10.5237
ثبت	-10.5239
عاصم	-10.5241
▁كاب	-10.5243
313	-10.5244
مهرجان	-10.5246
عامل	-10.5246
▁رأس	-10.525
128	-10.5254
▁اشتغلت	-10.5254
▁1941	-10.5254
فرو	-10.5257
▁1920	-10.5258
▁اثر	-10.5258
خوف	-10.5262
▁فرع	-10.5262
▁hout	-10.5265
▁وحده	-10.5267
▁تضم	-10.5268
▁سكوت	-10.5269
▁سفر	-10.5275
▁بيروت	-10.5281
▁والف	-10.5287
▁الكبيره	-10.5287
▁تاكا	-10.529
▁وبال	-10.5291
ِي	-10.5294
▁تشمل	-10.5294
فول	-10.5295
▁مختلفه	-10.5296
تحويل	-10.5297
▁cricket	-10.5299
▁الأدب	-10.5302
تعديل	-10.5304
سترو	-10.5308
▁الرب	-10.531
▁مختلف	-10.5313
▁الحليم	-10.5317
صبر	-10.5321
▁الزمن	-10.5323
▁الالمان	-10.5328
▁النوع	-10.5328
معهد	-10.5333
بريت	-10.5334
سية	-10.5336
▁مكتبة	-10.5338
▁عدة	-10.5338
▁قدمت	-10.534
183	-10.5345
▁عمليات	-10.5348
پير	-10.5357
148	-10.536
▁تلفزيون	-10.5371
▁كيتامى	-10.5371
▁اليكس	-10.538
▁بالق	-10.5381
-1	-10.5381
▁تد	-10.5382
122	-10.5382
▁الجمهوريه	-10.5383
جراد	-10.5386
سيوس	-10.539
▁or	-10.5393
▁سواء	-10.5395
▁أصدر	-10.54
▁توفي	-10.5407
▁يعد	-10.5411
pr	-10.5412
▁اللعب	-10.5413
▁الاتراك	-10.5413
▁david	-10.5414
يهم	-10.5416
▁54	-10.5417
▁حس	-10.5419
تشيك	-10.5419
▁حارس	-10.542
▁خي	-10.5424
430	-10.5425
201	-10.5429
شبك	-10.543
▁محطة	-10.5442
▁الاحتلال	-10.5443
▁ميلاد	-10.5443
▁صغيرة	-10.5445
ڤيل	-10.5446
▁البيزنطي	-10.5447
يتون	-10.5448
▁حديث	-10.5449
فرنسي	-10.5452
ذي	-10.5454
سوس	-10.5456
▁القومي	-10.5458
▁حلم	-10.5469
معركة	-10.5469
▁ميكا	-10.547
278	-10.5473
▁مدرس	-10.5475
253	-10.5475
ڤاليا	-10.5478
▁بولندا	-10.5482
اكتر	-10.5488
▁لعبه	-10.5488
خذ	-10.5488
hiro	-10.5489
▁ستات	-10.5491
چى	-10.5494
تولى	-10.5496
angel	-10.5497
▁مثلت	-10.5498
▁الشاعر	-10.5503
پى	-10.5504
0.000	-10.5504
▁شاعر	-10.5505
علاج	-10.5509
▁ڤين	-10.5509
أخذ	-10.5511
▁her	-10.5512
▁الصراع	-10.5516
▁محاكم	-10.5517
▁اصدار	-10.5518
▁1935	-10.5518
▁اشتهرت	-10.5519
=213	-10.5523
uni	-10.5525
باء	-10.5526
▁am	-10.5526
ڤيس	-10.5526
رأس	-10.5527
410	-10.5528
▁اتباع	-10.553
▁كريستيان	-10.5531
271	-10.5533
▁بقو	-10.5539
سواق	-10.554
▁المد	-10.5542
▁شايف	-10.5542
جع	-10.5543
▁بتبقا	-10.5545
▁أخد	-10.5553
▁السلطات	-10.5553
▁رع	-10.5555
▁الفرنسيه	-10.5555
رغ	-10.5556
▁مهما	-10.5557
▁غلط	-10.5558
▁57	-10.5559
▁79	-10.5565
chen	-10.5565
اجا	-10.5567
▁بقي	-10.5571
أمل	-10.5572
nc	-10.5574
358	-10.5586
▁لبريطانيا	-10.559
one	-10.559
▁الجمال	-10.559
▁الكواكب	-10.559
▁يسوع	-10.5593
▁العديد	-10.5601
▁الاعلام	-10.5602
▁يونيو	-10.5605
تعب	-10.5606
up	-10.5608
▁احياء	-10.5609
▁يعيش	-10.5619
قاطع	-10.562
يسون	-10.5621
163	-10.5624
▁قوانين	-10.5626
عزيز	-10.5629
311	-10.563
▁الطويل	-10.5631
▁استاذ	-10.5632
▁فرسان	-10.5633
▁طل	-10.5634
248	-10.5639
▁حمد	-10.564
أسر	-10.5647
251	-10.5648
▁اتعرض	-10.5649
▁التالته	-10.5653
مدينة	-10.5654
405	-10.5656
168	-10.5665
212	-10.5669
تعيين	-10.5677
▁شاه	-10.568
▁أور	-10.5682
242	-10.5686
موديل	-10.5687
262	-10.5689
لاهوت	-10.5691
ساحة	-10.5696
▁١٩	-10.57
اشر	-10.5703
▁الموت	-10.5711
▁مبنى	-10.5712
▁الأراضى	-10.5713
▁ايف	-10.5713
▁الاوسط	-10.5713
▁مصريين	-10.5715
▁كتبه	-10.5717
376	-10.5717
▁عيش	-10.572
▁العالى	-10.5724
هان	-10.5724
▁طفل	-10.5726
▁القوى	-10.5735
▁بالله	-10.5737
▁رجعت	-10.5737
▁زمن	-10.5744
▁وصول	-10.5745
تنام	-10.5745
بيرج	-10.5746
▁إم	-10.5752
▁أساس	-10.5753
file	-10.5754
▁أربع	-10.5755
ربع	-10.5755
nn	-10.5758
زام	-10.5767
▁نفسهم	-10.5769
خلاص	-10.5773
▁بحلول	-10.5775
▁الاعمال	-10.5777
مفهوم	-10.5777
▁تنظيم	-10.5784
▁الثقافة	-10.5785
▁ودا	-10.5787
عكس	-10.5795
▁ستيفان	-10.58
▁والج	-10.5801
خير	-10.5804
ودا	-10.5805
مرقس	-10.5806
▁for	-10.581
ation	-10.5813
▁سبيل	-10.5814
▁هاي	-10.5814
كوڤا	-10.5821
des	-10.5822
▁سيتى	-10.5824
▁ستار	-10.5827
▁شام	-10.583
ِن	-10.5833
زراع	-10.5838
396	-10.5843
▁الجنوبية	-10.5843
حياء	-10.5844
▁vo	-10.5845
▁غلب	-10.5845
وجو	-10.5847
351	-10.5849
▁للفنون	-10.5851
▁شركات	-10.5853
نشط	-10.5853
▁باى	-10.5861
ker	-10.5866
▁1934	-10.588
795	-10.5882
▁رام	-10.5884
▁سكر	-10.5885
▁ماري	-10.5888
▁كورة	-10.5892
▁ازاى	-10.5892
▁ليبيا	-10.5893
ău	-10.5894
▁سنتين	-10.5895
kin	-10.5897
رياسة	-10.5898
▁رايح	-10.59
211	-10.59
fi	-10.5914
▁المهندس	-10.5915
نص	-10.5923
▁دراسة	-10.5924
٢	-10.5926
▁زعيم	-10.5927
▁السياحة	-10.593
جاد	-10.5931
▁الرسمى	-10.5932
▁الفقر	-10.5936
▁لحن	-10.5936
420	-10.5938
▁جاي	-10.5939
ناز	-10.594
▁واضح	-10.5945
عازف	-10.5948
▁جده	-10.5952
ضاء	-10.5952
عتزل	-10.5952
▁ملا	-10.5955
ىء	-10.5958
شرب	-10.5961
ova	-10.5962
▁حلمى	-10.5963
▁الكنايس	-10.5965
▁زكى	-10.5973
▁جسم	-10.5975
أو	-10.5975
▁وغيره	-10.5976
▁بدأت	-10.5979
tre	-10.598
ذن	-10.5994
777	-10.5994
▁بتكون	-10.5996
زهر	-10.5998
زيك	-10.6001
р	-10.6003
second	-10.6003
▁كورن	-10.6005
▁مجرد	-10.6006
▁الاحزاب	-10.6012
جورج	-10.6015
▁تسم	-10.6018
,000	-10.6019
▁أمريكا	-10.6019
▁دوم	-10.6021
▁شريف	-10.6021
اشو	-10.6025
▁اشترك	-10.6025
▁الورد	-10.603
▁har	-10.6031
▁المعبد	-10.6033
▁طرد	-10.6033
▁شك	-10.6036
خاف	-10.6037
سوب	-10.6039
▁التى	-10.604
▁فيلموجرافيا	-10.6041
▁ستوديو	-10.6043
▁اعضاء	-10.6043
▁روش	-10.6043
tan	-10.6044
وكى	-10.6045
▁فيديو	-10.6048
باحث	-10.6049
151	-10.6049
▁fu	-10.605
▁خسر	-10.6054
▁ماتكون	-10.6055
راقص	-10.6061
▁رضا	-10.6066
تعلق	-10.6075
▁غنا	-10.6076
ob	-10.6077
▁پار	-10.6078
378	-10.6088
▁1924	-10.6088
▁شار	-10.6091
▁شخصيات	-10.6095
أخ	-10.6096
مخرجة	-10.6096
▁فولف	-10.6097
▁بسيطه	-10.61
▁اختيار	-10.6102
▁خص	-10.6106
bal	-10.6107
362	-10.6107
▁قسطنطين	-10.6108
حال	-10.6113
737	-10.6116
▁الذهب	-10.6117
▁تجديف	-10.6119
▁يمكن	-10.612
▁احداث	-10.612
كشن	-10.6121
نصر	-10.6123
مستشار	-10.6124
شتي	-10.6126
tic	-10.6126
حوالى	-10.6128
بلاد	-10.6129
390	-10.6132
▁صناعة	-10.6134
▁بالأ	-10.6145
bar	-10.615
العرب	-10.6153
▁المعلم	-10.6153
▁جوز	-10.6154
سحر	-10.6155
خلع	-10.6156
▁العمال	-10.6157
י	-10.6158
▁1918	-10.6161
▁معاهدة	-10.6162
احل	-10.6163
▁جراند	-10.6163
▁مشهوره	-10.6164
▁العثمانيين	-10.6167
lov	-10.6174
▁بدون	-10.6174
▁بوس	-10.6177
▁پلا	-10.6178
▁اخدت	-10.6178
121	-10.6184
▁كتيرة	-10.6186
جريد	-10.6189
469	-10.6195
▁سياسيه	-10.6196
▁club	-10.6197
▁الاقباط	-10.6197
▁برامج	-10.6197
▁صباح	-10.6197
429	-10.6199
▁المطرب	-10.6199
▁جواز	-10.6204
▁البنات	-10.6207
▁قادر	-10.6208
▁bro	-10.6208
phil	-10.6209
▁قديمه	-10.6209
▁89	-10.621
ire	-10.6214
rin	-10.6215
▁اكت	-10.6216
▁كلماتها	-10.6217
سلاف	-10.6217
▁نف	-10.6218
▁امام	-10.6219
▁تانية	-10.6221
ez	-10.6224
▁السما	-10.6226
▁فرض	-10.6232
▁خلاف	-10.6232
▁1923	-10.6234
▁السينمائي	-10.6235
صنف	-10.6235
بلجيكا	-10.6236
312	-10.624
▁التطور	-10.6241
▁بمصر	-10.6242
▁دعا	-10.6247
▁الاسره	-10.6247
▁وحش	-10.6248
▁الكسندر	-10.6248
بطاقة	-10.625
بطولة	-10.6251
8%	-10.6254
▁نصر	-10.6254
▁قصه	-10.6255
نفس	-10.6256
▁الكبار	-10.6256
▁شبرا	-10.6257
▁بشر	-10.6257
▁كاپ	-10.6258
▁صورة	-10.6261
▁الممثلة	-10.6267
▁الفنى	-10.6269
iv	-10.6271
▁ارم	-10.6274
▁البورنوجرافية	-10.6275
▁متسابق	-10.6275
▁عساكر	-10.6275
▁بطبيعة	-10.6276
▁القومى	-10.6277
▁الحرف	-10.6277
مشاهير	-10.6277
bor	-10.6278
خطط	-10.628
ّر	-10.6282
عاطف	-10.6283
▁الدراسات	-10.6284
يوسف	-10.6285
▁زاد	-10.6287
جينى	-10.6287
رَ	-10.6288
▁الدورى	-10.6289
▁پرو	-10.6292
مشى	-10.6292
▁كلمه	-10.6295
▁علام	-10.6303
▁الشهر	-10.6307
▁كوك	-10.6309
▁بيست	-10.6315
تري	-10.6316
كيد	-10.6317
▁كوريا	-10.6317
▁والله	-10.6323
▁بيلعب	-10.6331
ung	-10.6332
شيخ	-10.6333
▁الأوروبي	-10.6335
181	-10.6338
123	-10.6339
▁المؤ	-10.634
▁البيان	-10.6341
امير	-10.6343
مهاجم	-10.6345
356	-10.6353
▁الوزرا	-10.6353
▁بيتكلمو	-10.6353
▁عادل	-10.6353
فران	-10.6353
▁level	-10.6355
▁رمسيس	-10.6356
▁الرسول	-10.6356
▁عربيه	-10.6358
790	-10.636
▁بلاى	-10.6364
▁الموصل	-10.6366
▁خايف	-10.6366
حسين	-10.6369
▁العثمانية	-10.6372
▁bă	-10.6373
الله	-10.6374
ada	-10.6377
▁99	-10.6381
▁علينا	-10.6386
َر	-10.6389
▁طويله	-10.6394
▁مقدونيا	-10.6394
▁العاصمة	-10.6396
قود	-10.6401
▁كفر	-10.6405
فرج	-10.6406
تطور	-10.6406
▁con	-10.6409
▁ضخم	-10.641
428	-10.6412
▁ماتت	-10.6414
قارب	-10.6417
حبوب	-10.6419
▁المسرحية	-10.6424
مجله	-10.6428
شوق	-10.6431
اعادة	-10.6432
▁استقلال	-10.6433
▁بعنوان	-10.6434
▁التقليد	-10.6435
▁انتخاب	-10.6436
▁أسقف	-10.6439
cct	-10.6439
▁انتقل	-10.6441
▁پال	-10.6443
143	-10.6445
▁بردو	-10.6449
سيف	-10.6449
▁الهي	-10.6455
▁مؤتمر	-10.6456
تكتب	-10.6462
حور	-10.6465
▁الجنوبيه	-10.6467
▁domains	-10.6475
▁وايرلندا	-10.6475
▁sha	-10.6475
▁معينه	-10.6476
nor	-10.6478
261	-10.6484
▁ليالي	-10.6485
▁أهل	-10.6485
شرح	-10.6486
غراف	-10.6492
▁kr	-10.6493
yan	-10.6494
▁صعب	-10.6498
▁بحيرة	-10.6505
241	-10.6506
آن	-10.6508
لكورة	-10.6511
▁العم	-10.6513
▁إبراهيم	-10.6515
с	-10.6515
▁ليتوانيا	-10.6515
تكنولوجيا	-10.6515
▁وغيرها	-10.6515
وادى	-10.6517
لمدينة	-10.6525
▁شرف	-10.6525
▁قوة	-10.6527
▁الانجليزية	-10.6529
▁1928	-10.6529
▁نشأ	-10.6535
عشق	-10.6536
bert	-10.6542
سود	-10.6546
جاج	-10.6546
▁سقوط	-10.6547
فاج	-10.655
▁حلب	-10.655
▁العلما	-10.6553
بوك	-10.6557
▁حاجة	-10.6559
▁دكتور	-10.6563
كسب	-10.6563
قفل	-10.6564
▁السماء	-10.6566
▁ومنتج	-10.6571
قسام	-10.6575
af	-10.6578
عون	-10.6579
تينا	-10.6585
▁mc	-10.6586
سعود	-10.6586
عسكر	-10.6599
▁cla	-10.6604
▁المكسيك	-10.6605
▁بدايات	-10.6605
▁دقيق	-10.6606
▁تسي	-10.6607
ازورو	-10.6611
ology	-10.6617
▁بنفس	-10.6627
win	-10.6628
▁التصوير	-10.663
▁جواب	-10.663
▁ستان	-10.6633
▁الأساس	-10.6637
▁بسرعه	-10.6637
▁وشارك	-10.6643
فد	-10.6644
مماليك	-10.6646
▁هجر	-10.6648
تغيير	-10.6649
460	-10.6654
مشروع	-10.6656
داب	-10.6659
▁المرض	-10.6664
لهم	-10.6668
▁بقية	-10.6671
كتشف	-10.6676
▁ايرل	-10.6677
▁انجليزى	-10.6677
٠	-10.6678
▁كوست	-10.6679
▁امرا	-10.6682
▁حمام	-10.6683
▁لونج	-10.6683
▁الطبق	-10.6685
var	-10.6689
▁جيف	-10.6696
▁المفتوحه	-10.6698
▁شغلها	-10.6703
▁الموسيقي	-10.6706
وليد	-10.6706
ller	-10.6707
▁مالك	-10.6716
▁شاهين	-10.6717
tar	-10.6718
ā	-10.6719
١	-10.6719
161	-10.672
لحق	-10.6725
إل	-10.6728
▁bre	-10.674
حياة	-10.6742
▁بريت	-10.6743
▁موسم	-10.6749
354	-10.6751
بطل	-10.6752
راضي	-10.6755
ک	-10.676
▁دق	-10.6763
con	-10.6764
▁ارتفاع	-10.6769
داري	-10.6769
حلم	-10.677
الرغم	-10.677
▁اصدر	-10.6775
▁*	-10.6779
▁لون	-10.678
تيمور	-10.6783
ast	-10.6786
عادل	-10.6786
▁القطر	-10.6786
▁اتنقل	-10.6794
▁ملكة	-10.6794
شاعر	-10.6796
▁براون	-10.6798
▁اسپانيا	-10.6802
فرض	-10.6804
▁اقول	-10.6806
ممثل	-10.6806
بارا	-10.6806
▁معاها	-10.6808
▁إس	-10.6808
▁قلت	-10.6808
▁فلما	-10.6814
▁بيكر	-10.6817
▁موش	-10.6821
▁نطاق	-10.6822
ستير	-10.6824
فرنسا	-10.6826
art	-10.6828
تفوق	-10.683
▁التاريخيه	-10.6832
▁انجل	-10.6834
▁العقل	-10.684
▁العسكرى	-10.6842
▁الاطفال	-10.6844
▁العثمانى	-10.6844
▁الشوارع	-10.6844
▁البرازيل	-10.6844
▁الانتاج	-10.6844
▁fo	-10.6846
▁اعلان	-10.6847
هندسة	-10.6847
قيه	-10.6848
her	-10.685
دمج	-10.6852
▁الرسميه	-10.6859
▁1932	-10.686
▁فلور	-10.6871
ساهم	-10.6873
قناة	-10.6885
▁اينداتى	-10.6885
▁نقطة	-10.6886
اعتراف	-10.6887
▁رواية	-10.6888
▁أدوار	-10.6889
▁مسيرته	-10.689
▁mon	-10.6891
▁آدم	-10.6892
▁الحي	-10.6892
▁ليله	-10.6898
▁أقل	-10.6899
▁السلطة	-10.6905
▁1917	-10.6909
eb	-10.6915
353	-10.6915
=81	-10.6916
▁نهب	-10.6917
▁لجنة	-10.6926
طريق	-10.6927
▁كوبينهاجين	-10.6927
▁ويندوز	-10.6927
▁تخرج	-10.6929
457	-10.6929
رعاية	-10.6932
▁انتهى	-10.6936
lor	-10.6936
▁كأس	-10.6937
▁طريقة	-10.6937
▁أعماله	-10.6937
▁قاعد	-10.6939
بينى	-10.694
نفذ	-10.6942
▁السير	-10.6943
458	-10.6946
▁الاسلامية	-10.6946
▁حجر	-10.6948
▁قدرت	-10.6951
▁روك	-10.6952
لاء	-10.6953
▁الجامعات	-10.6954
▁لوح	-10.6968
▁الظروف	-10.697
▁خليج	-10.697
▁قصص	-10.6971
145	-10.6974
▁)،	-10.6975
حرب	-10.6977
رينا	-10.6977
انجليز	-10.6982
ita	-10.6987
qu	-10.6989
بالتالى	-10.7004
كيس	-10.7006
▁خدت	-10.7007
164	-10.7008
▁الغناء	-10.7012
رسالة	-10.7014
=143	-10.7018
▁عايشين	-10.7018
▁اتش	-10.7019
طبع	-10.7019
▁الموقع	-10.7022
118	-10.7025
فوت	-10.7027
▁مرسى	-10.7027
▁أرض	-10.7029
▁الاكل	-10.7033
▁الجد	-10.7035
▁ناحية	-10.7043
▁pro	-10.7048
▁بخصوص	-10.7054
هزيمة	-10.7055
▁كاف	-10.7059
▁پول	-10.7061
799	-10.7062
▁الجسم	-10.7065
نحاس	-10.7066
▁فرنساوى	-10.7069
والد	-10.7072
باقى	-10.7077
▁انجيل	-10.7077
▁جعل	-10.7077
cr	-10.708
▁دوا	-10.7081
▁الأمريكي	-10.7082
▁ab	-10.7085
▁عكس	-10.7086
▁هام	-10.7089
▁باد	-10.7089
▁جرين	-10.7093
نيكو	-10.7095
ó	-10.7097
▁مارجرجس	-10.7097
▁مينيسوتا	-10.7097
▁اكتشاف	-10.7097
▁pu	-10.7098
▁بيتم	-10.7107
▁البطوله	-10.7107
▁أحد	-10.711
▁السبب	-10.711
طبق	-10.7111
pu	-10.7112
▁الدير	-10.7123
أمر	-10.7128
▁خلق	-10.7128
▁تقريبا	-10.714
σ	-10.714
▁عبيد	-10.7141
▁التامن	-10.7141
▁1914	-10.7147
▁str	-10.7151
بنت	-10.7152
▁دعم	-10.7162
▁للملك	-10.7164
▁البورنوجرافيا	-10.7183
▁الشيوخ	-10.7183
▁معركه	-10.7184
▁افتتح	-10.7185
ap	-10.7192
قنوات	-10.7193
▁الرم	-10.7196
حقوق	-10.7201
كسر	-10.7202
إسرائيل	-10.7213
▁تار	-10.7214
▁200	-10.7218
▁بيحب	-10.7219
114	-10.7222
▁كوباياشى	-10.7226
▁إخراج	-10.7226
▁الحيوانات	-10.7227
صوت	-10.7228
▁النادى	-10.7229
▁علاقة	-10.7231
بروك	-10.7231
▁مدرب	-10.7238
بيز	-10.7239
=199	-10.7241
ؤل	-10.7241
زق	-10.7251
حملات	-10.7252
fre	-10.7256
ريخ	-10.7256
▁البرنامج	-10.7258
qui	-10.726
راش	-10.7261
▁كمل	-10.7265
تفكير	-10.727
292	-10.7272
▁الشوق	-10.7274
يتهم	-10.7274
▁مؤسسة	-10.7277
▁الملكية	-10.7278
▁val	-10.7278
▁يقوم	-10.728
▁الفارسى	-10.7281
▁يعني	-10.7283
ّل	-10.7287
▁الأمريكية	-10.7288
▁كف	-10.7288
est	-10.7292
▁السجن	-10.7293
▁حين	-10.7293
اختلاف	-10.7296
ستخدام	-10.7296
▁جت	-10.7304
384	-10.7307
▁بيتكون	-10.7308
بيان	-10.7313
▁المنتج	-10.7313
ويزومى	-10.7315
▁التن	-10.7322
lar	-10.7324
طعم	-10.7329
ضطر	-10.7329
ـــــ	-10.7335
▁الآل	-10.7337
مدينه	-10.734
صناعة	-10.7343
▁البطولة	-10.7345
449	-10.7347
▁اص	-10.7351
اسماعيل	-10.7353
▁تحقيق	-10.7353
401	-10.7354
rea	-10.7355
▁جلال	-10.7356
تنازل	-10.7357
н	-10.7357
▁للإ	-10.7358
▁اثار	-10.7358
▁الفرنساويه	-10.7358
▁سيناريو	-10.7358
▁بوش	-10.7361
▁الجواز	-10.7366
▁سينما	-10.7367
▁الرجاله	-10.7369
قانون	-10.7373
▁مصدر	-10.7376
▁روحي	-10.7378
مجلة	-10.7379
ado	-10.738
يمير	-10.7382
▁جيسى	-10.7384
▁البطريرك	-10.7389
▁hol	-10.739
llo	-10.7391
▁الدينية	-10.7392
▁قبض	-10.7394
▁العربان	-10.7395
▁التلاته	-10.7397
▁كارا	-10.7401
е	-10.7402
▁شيرنيخ	-10.7402
▁الصغرى	-10.7402
محمود	-10.7402
▁قيام	-10.7404
▁الستاشر	-10.7406
▁المغ	-10.7407
▁أغنية	-10.7409
▁انتشار	-10.7409
▁ساهم	-10.741
▁الوطني	-10.741
▁1922	-10.7414
▁تعرف	-10.7415
▁وطني	-10.7415
▁توصل	-10.7416
▁البيض	-10.7417
▁ستيفن	-10.7417
▁pri	-10.7419
▁الزمان	-10.742
og	-10.7421
▁الغزو	-10.7423
ola	-10.7425
صاف	-10.7428
▁مجد	-10.7428
▁نادر	-10.7429
▁1933	-10.744
شبكة	-10.7441
fl	-10.7442
lly	-10.7444
▁البريطانية	-10.7446
▁ديف	-10.7446
▁ريم	-10.7451
ach	-10.7452
ți	-10.7453
▁النبي	-10.7454
بحر	-10.7458
▁الاثار	-10.7462
▁العدو	-10.7464
▁الغربي	-10.7467
459	-10.7473
جاع	-10.7477
يشا	-10.7486
▁1925	-10.7487
rie	-10.7488
ban	-10.7488
رياض	-10.749
▁هجوم	-10.749
▁ڤينيسيا	-10.7491
xi	-10.7492
▁اكثر	-10.7495
▁رواد	-10.7495
دّ	-10.7499
▁الموج	-10.7499
▁التراث	-10.7502
▁موظف	-10.7503
▁1927	-10.751
▁تشو	-10.751
▁حلف	-10.7512
▁عامل	-10.7514
▁وافق	-10.7515
قصد	-10.752
▁الخاصة	-10.7529
ئت	-10.7529
419	-10.7529
خف	-10.7534
▁القوانين	-10.7535
▁شفيق	-10.7536
▁المعاصر	-10.7537
▁الهلال	-10.7543
▁بإنه	-10.7547
لغة	-10.755
▁الحركة	-10.7551
▁بحبك	-10.7557
بحث	-10.7558
406	-10.7562
▁كارلوس	-10.7566
lă	-10.7569
▁مؤرخ	-10.7573
▁الداخلية	-10.7578
ذل	-10.7579
▁ويسكونسين	-10.758
▁خبر	-10.7581
▁روايات	-10.7581
▁مستشفى	-10.7583
▁درست	-10.7589
▁فروع	-10.7589
▁أعلى	-10.759
▁ترتيب	-10.7593
▁الشعبية	-10.7597
▁الطرق	-10.7597
uk	-10.7598
▁المؤتمر	-10.7599
▁الابن	-10.7601
▁ريو	-10.7602
▁غزا	-10.7603
▁الكتابه	-10.7606
▁طويلة	-10.7612
▁كتابة	-10.7612
mel	-10.7612
▁مدارس	-10.7614
▁لام	-10.7617
سيكا	-10.762
▁مهندس	-10.7622
مستشفى	-10.7623
ديمقراطي	-10.7624
▁العلاقات	-10.7626
▁الحقيقي	-10.7626
ure	-10.7629
▁قلبك	-10.7631
▁عملو	-10.7632
تحط	-10.7633
▁فهمى	-10.7634
▁مؤلفاته	-10.7636
▁يطلع	-10.7637
▁عقل	-10.764
ju	-10.7645
▁william	-10.7645
397	-10.7654
ائيل	-10.7654
142	-10.7657
▁تانيين	-10.7663
▁السياسي	-10.7666
▁يدخل	-10.7668
لجنة	-10.7668
زود	-10.767
استعمال	-10.7671
▁فرانسيسكو	-10.7673
yoshi	-10.7673
▁متوسط	-10.7676
تمام	-10.7676
▁جوزيف	-10.7679
▁حصن	-10.7679
▁التجارة	-10.7681
ue	-10.7681
انجيل	-10.7682
شئ	-10.7683
اقتصاد	-10.7686
▁مشواره	-10.7689
مشاركة	-10.769
▁البحث	-10.7693
▁الأوروبية	-10.7693
امريكا	-10.7698
379	-10.7698
▁فخر	-10.7699
▁الغنا	-10.7699
▁الرقص	-10.7701
▁عدو	-10.7703
▁بلادى	-10.7705
avi	-10.7708
=171	-10.7712
anna	-10.7713
َل	-10.7715
=78	-10.7715
▁مساحتها	-10.7715
▁الكبيرة	-10.7722
فرع	-10.7732
▁بيتسم	-10.7732
fu	-10.7734
▁mă	-10.7735
▁تولى	-10.7738
▁ادو	-10.7738
431	-10.7739
▁الوسط	-10.7741
بريد	-10.7743
468	-10.7757
▁ايسلاندا	-10.7761
▁تحول	-10.7762
▁للستات	-10.7762
▁الامارات	-10.7766
▁الاسرائيلي	-10.7772
▁وقعت	-10.7772
جوايز	-10.7772
▁يلعب	-10.7778
▁تصميم	-10.7779
▁au	-10.7782
ram	-10.7786
▁حكام	-10.7789
▁سنت	-10.7789
لينج	-10.7793
▁ادم	-10.7794
▁مظاهر	-10.7801
▁petr	-10.7801
▁التليفزيون	-10.7807
▁الاتناشر	-10.7807
▁طوكيو	-10.7807
▁للقو	-10.7809
▁تقدر	-10.781
جعل	-10.7811
bot	-10.7813
▁الاربعه	-10.7818
▁جانب	-10.7819
▁دب	-10.7827
455	-10.7827
890	-10.7828
▁تشكيل	-10.7828
▁موريس	-10.7829
مرتبة	-10.7836
▁مرت	-10.7839
ney	-10.7841
▁اليابانى	-10.7846
▁الرجال	-10.7848
«	-10.785
▁الجيم	-10.785
تدمير	-10.7851
cent	-10.7858
tia	-10.7861
▁الصوت	-10.7863
▁مثلا	-10.7865
ليبرالي	-10.7866
▁نحو	-10.7866
▁دري	-10.7869
șu	-10.7873
تمثيل	-10.7876
▁سمو	-10.7879
▁لأن	-10.7883
رغب	-10.7889
ليڤ	-10.7889
سائل	-10.789
▁تصوير	-10.7894
▁الشمالى	-10.7896
▁ڤلاد	-10.79
▁معدل	-10.7901
▁تسجيل	-10.7902
▁غنت	-10.7905
طرد	-10.7911
139	-10.7918
لاڤ	-10.7919
▁دليل	-10.7919
دراس	-10.792
ura	-10.7921
▁الدوليه	-10.7929
oh	-10.7931
قترح	-10.7931
▁الثانوية	-10.7931
▁منزل	-10.7936
ore	-10.7936
▁حروب	-10.7942
▁أبي	-10.7942
▁طور	-10.7944
▁زغلول	-10.7946
كاتدرائية	-10.7946
▁طنطا	-10.7946
▁الجزائر	-10.7947
تسمية	-10.7949
▁المجتمعات	-10.795
▁مرا	-10.7951
▁نيكول	-10.7953
وكالة	-10.7957
ائف	-10.7959
▁احتلال	-10.7974
fo	-10.7975
▁لونكا	-10.7979
sil	-10.7981
▁انور	-10.7985
788	-10.7991
▁سيت	-10.7991
▁الاربع	-10.7992
ابراهيم	-10.7992
•	-10.7993
إسماعيل	-10.7993
michael	-10.7993
▁station	-10.7993
أجزاء	-10.7994
وقراط	-10.7995
▁الأربع	-10.7996
▁عيلته	-10.7998
أصول	-10.8001
شئون	-10.8007
▁حرية	-10.8008
ern	-10.801
موسيقار	-10.801
▁عيله	-10.8012
▁أمير	-10.8017
port	-10.8019
▁بيتكلم	-10.8023
حدش	-10.8028
▁بيحصل	-10.803
▁ويمبلدون	-10.804
▁أكد	-10.804
[[	-10.804
oi	-10.8041
ڤيتسا	-10.8043
▁شاب	-10.8045
سبير	-10.8056
▁الفنيه	-10.8056
▁حرام	-10.8071
▁yu	-10.8073
زوج	-10.8074
▁1908	-10.8075
▁الاسكندرية	-10.8076
عشر	-10.8076
▁انتشرت	-10.8086
▁نينتندو	-10.8087
▁النواب	-10.8088
ling	-10.8088
▁1931	-10.8092
تسبب	-10.8097
398	-10.8099
لكن	-10.81
▁بنفسه	-10.8103
▁1921	-10.8103
▁الحركه	-10.8107
▁اتعلم	-10.8108
مطار	-10.811
bra	-10.8112
660	-10.8115
▁الاستاد	-10.8115
453	-10.8123
▁ايفان	-10.8125
445	-10.8128
جزء	-10.8129
جنينة	-10.8131
▁الثانية	-10.8133
▁الشخصية	-10.8133
ڤال	-10.8134
▁antonín	-10.8134
▁الشيوعي	-10.8134
▁الاقليم	-10.8134
ash	-10.8146
نتشر	-10.8159
▁الامن	-10.816
▁اندرو	-10.8162
910	-10.8164
سامح	-10.8177
λ	-10.8182
طوان	-10.8182
جماهير	-10.8183
مارى	-10.8186
454	-10.8186
lau	-10.8188
▁أعضاء	-10.8189
▁السعيد	-10.8193
سما	-10.8198
▁الحاج	-10.82
سلطة	-10.8205
شوار	-10.8212
دز	-10.8213
434	-10.8219
سكي	-10.8221
وزن	-10.8226
برمج	-10.8227
▁الوزراء	-10.8231
رقاص	-10.8236
▁1900	-10.8237
حركه	-10.8241
▁مُ	-10.8243
تحقيق	-10.8244
ممثلة	-10.8251
فيكتور	-10.8253
▁كونت	-10.8256
خصص	-10.8257
▁الاقتصادى	-10.8257
▁برد	-10.8263
قبول	-10.8265
حتوى	-10.8265
عام	-10.8267
▁كورت	-10.8269
▁وزرا	-10.827
▁الوطن	-10.8276
▁بلجاريا	-10.8278
146	-10.8281
144	-10.8281
ub	-10.8293
age	-10.8312
▁استقر	-10.8312
▁الامام	-10.8313
اليونان	-10.8314
▁سجن	-10.8318
taka	-10.832
اجيوس	-10.8321
hr	-10.8322
▁بالذات	-10.8327
▁دراسات	-10.8328
كوف	-10.833
▁عبدالله	-10.8332
▁رشيد	-10.8333
صاحب	-10.8338
▁شل	-10.8343
▁مدرسه	-10.8343
أحلام	-10.8345
▁بيستعمل	-10.8348
▁الحالى	-10.8354
خاطر	-10.8358
▁موسكو	-10.8358
▁إدارة	-10.8364
▁شق	-10.8366
شهرستان	-10.8366
شعر	-10.8367
فرنساوى	-10.8368
nder	-10.8368
شرط	-10.837
▁الڤايكينج	-10.8375
▁المصادر	-10.8375
تراك	-10.8375
▁القوميه	-10.8377
▁وتع	-10.8381
عصاب	-10.8383
يشوارا	-10.8388
king	-10.839
▁اهتمام	-10.8392
▁سلاح	-10.8392
▁الثانى	-10.8392
jen	-10.8393
▁زينب	-10.8394
▁مايكروسوفت	-10.8398
مونت	-10.84
▁الأع	-10.8404
pl	-10.8405
▁صديق	-10.841
▁جوزها	-10.8416
▁نعم	-10.8418
ž	-10.8423
▁اغتيال	-10.8423
وثائق	-10.8423
احتجاج	-10.8424
▁دنيا	-10.8424
▁حبايب	-10.8426
▁پويانا	-10.8428
463	-10.8429
993	-10.8431
▁اتبنت	-10.8433
▁بقوا	-10.8437
اندى	-10.8437
▁الشارع	-10.8438
▁شخصيه	-10.8439
▁مسلمين	-10.8455
ato	-10.8462
▁mrkos	-10.8472
▁مجموعات	-10.8475
▁المكتب	-10.8475
tel	-10.8476
ديون	-10.8485
منظمة	-10.8486
▁بارك	-10.849
▁دمر	-10.8494
954	-10.8497
▁حجم	-10.8499
▁المنيا	-10.8502
أطفال	-10.8507
ألم	-10.8508
▁اهتم	-10.8511
ama	-10.8511
صميم	-10.8513
rov	-10.8516
gan	-10.8517
▁اتولى	-10.852
▁المعلومات	-10.8522
▁علما	-10.8523
▁بريطانية	-10.8524
▁أبرز	-10.8526
▁كوز	-10.8527
▁محور	-10.8528
471	-10.8529
جايز	-10.853
▁موقف	-10.854
جيك	-10.8543
▁الموسيقية	-10.8545
▁الأخير	-10.8547
▁أمين	-10.855
stan	-10.8562
ــــــ	-10.8565
▁البيزنطيين	-10.8566
نهر	-10.857
▁البرتغال	-10.8571
▁مسيحيين	-10.8572
تأسس	-10.8576
▁ابتدى	-10.8577
شتاين	-10.858
توجه	-10.859
▁ايج	-10.8594
عصر	-10.8594
▁الرجل	-10.8595
▁1929	-10.8597
kawa	-10.8597
▁ثيو	-10.8604
▁معارك	-10.8607
▁اللبنانيه	-10.8618
▁ألبوم	-10.8621
حركة	-10.8621
▁اغنية	-10.8622
أكاديمية	-10.8623
▁ميشيل	-10.8626
▁الوفد	-10.8627
▁ديالو	-10.8628
▁القدام	-10.8642
ef	-10.8645
أول	-10.8649
▁الحجر	-10.8651
قاع	-10.8651
لكتير	-10.8653
▁اليمين	-10.8657
▁1912	-10.8657
735	-10.866
▁فرج	-10.8661
801	-10.8663
▁امريكانى	-10.8666
▁ثابت	-10.8671
▁الابيض	-10.8673
▁توت	-10.8679
اسيو	-10.8679
▁يوجين	-10.8679
شارة	-10.8679
▁سيمون	-10.868
▁مشترك	-10.8683
▁ماكان	-10.8685
▁روجر	-10.8688
ate	-10.8693
▁تُ	-10.8694
if	-10.8694
أراضى	-10.8701
▁امتد	-10.8702
▁القدر	-10.8703
ct	-10.8704
▁فاكر	-10.8714
▁اصحاب	-10.8721
▁الضرايب	-10.8721
▁التسلسل	-10.8721
▁دانيال	-10.8721
تفجير	-10.8724
لوش	-10.8724
680	-10.8727
▁الصحرا	-10.8731
رفع	-10.8735
كَ	-10.8748
آخر	-10.8751
▁ادوار	-10.8764
▁الصحفي	-10.8768
▁الراجل	-10.8772
▁المحكمة	-10.8772
▁نجوم	-10.8773
▁الحسن	-10.8782
▁اتلقب	-10.8783
▁أخت	-10.8788
غرق	-10.8792
▁الطيب	-10.8796
▁عموم	-10.8804
▁العادل	-10.8807
اوتسى	-10.8813
▁ميلان	-10.8813
bin	-10.8817
تسع	-10.8821
▁الصوديوم	-10.8822
رؤساء	-10.8822
متحف	-10.8827
▁ديال	-10.8828
810	-10.8828
خض	-10.8829
▁الشخصيات	-10.883
▁مسلم	-10.8836
مصطلح	-10.8848
▁ضخمه	-10.8854
▁الأمم	-10.8856
yn	-10.8857
▁ضح	-10.8871
▁احب	-10.8872
▁شافت	-10.8873
▁العثمانليه	-10.8873
▁بيرلين	-10.8875
▁عاصمه	-10.8877
قضايا	-10.8883
▁الاولانيه	-10.8887
▁كيلو	-10.8893
▁عايزين	-10.8894
ازل	-10.8897
▁الفنانين	-10.8899
▁بيبقى	-10.8901
فنان	-10.8902
▁الفرنسي	-10.8905
كمان	-10.8913
امبراطور	-10.8918
▁أقدم	-10.8919
▁أدى	-10.8923
▁ناحيه	-10.8925
▁استضافت	-10.8925
▁عذاب	-10.8926
▁مرتبط	-10.8926
يلهيلم	-10.8929
▁نظرية	-10.893
▁اليونانيه	-10.8935
▁الطفل	-10.8935
030	-10.8937
▁موطن	-10.8943
▁جيوش	-10.8945
▁يكتب	-10.8946
▁النبات	-10.8948
▁فكانت	-10.8949
▁مقدم	-10.8954
▁اتعرضت	-10.8955
oc	-10.8958
▁فراح	-10.8958
ينجتون	-10.8958
مْ	-10.8977
▁2022	-10.8984
▁هات	-10.8986
▁كامب	-10.8992
صعب	-10.8992
▁سانتا	-10.8999
▁حروف	-10.9
طاب	-10.9001
▁برون	-10.9007
▁عيسى	-10.9007
▁că	-10.9008
134	-10.901
▁الحد	-10.9012
▁الفارس	-10.9026
▁سيمپ	-10.9026
رصاص	-10.9028
▁موليير	-10.9028
▁الرهبان	-10.9028
skij	-10.903
413	-10.9031
▁تمثال	-10.9035
▁متجوز	-10.9039
▁طبيب	-10.9044
▁اسباب	-10.9044
▁فقال	-10.9044
رومان	-10.9046
▁دراجو	-10.9049
كتور	-10.9051
▁الكريم	-10.9053
▁مسلسلات	-10.9079
▁بارسلونا	-10.908
▁ألحان	-10.908
▁وهناك	-10.9081
▁team	-10.9082
▁يهرب	-10.9083
▁وليام	-10.9084
tea	-10.9093
▁اسقف	-10.9094
▁بيعتقد	-10.9109
▁سامى	-10.9111
▁مهمة	-10.9113
▁1907	-10.9116
▁دايم	-10.9124
▁dan	-10.9125
زاك	-10.9127
قاعدة	-10.9127
▁اجزاء	-10.9133
▁يستخدم	-10.9133
▁مغنى	-10.9133
زاد	-10.9133
▁العباسى	-10.9135
تحدث	-10.9139
ița	-10.9144
▁جهاز	-10.9146
▁يزيد	-10.9152
قور	-10.9154
▁ڤار	-10.9155
▁أيضا	-10.9155
▁استقال	-10.9156
جيز	-10.9159
▁1916	-10.9161
*	-10.9161
جيورج	-10.9166
مرض	-10.917
صيف	-10.917
تشكيل	-10.9175
▁جونز	-10.9179
381	-10.9183
▁الجزاير	-10.9185
▁نواحى	-10.9186
شارع	-10.9188
727	-10.9191
▁متعدد	-10.9195
▁شديد	-10.9197
▁col	-10.9197
خلق	-10.9211
سقط	-10.9212
▁وحدة	-10.9214
kim	-10.9216
▁العابر	-10.9216
well	-10.9218
▁فوكس	-10.9227
▁اليهودية	-10.9228
nik	-10.9229
ij	-10.923
▁ساد	-10.923
▁المذهب	-10.9231
ο	-10.9238
▁survey	-10.9238
ρ	-10.9238
ν	-10.9238
▁عظيم	-10.9238
▁leon	-10.9238
▁البداية	-10.9239
▁نمره	-10.924
▁بيرجع	-10.9242
▁راينم	-10.9254
▁بيوم	-10.9254
306	-10.9254
▁1910	-10.9258
▁المجمع	-10.9259
تبادل	-10.9279
▁لاتفيا	-10.9291
▁الشعوب	-10.9291
▁انجازات	-10.9292
▁طوالى	-10.9292
▁الكوميدي	-10.9292
▁منتشر	-10.9293
▁اتجاه	-10.9293
▁تقسيم	-10.9294
▁الهرمى	-10.9294
▁شاديه	-10.9295
▁بيتش	-10.9302
صفر	-10.9302
ug	-10.9304
▁ثاني	-10.931
883	-10.9311
▁مليان	-10.9314
▁اونر	-10.9318
▁وأنا	-10.9318
اكبر	-10.932
فاض	-10.9321
جورنال	-10.9325
mura	-10.9332
▁لمدار	-10.9335
▁عصور	-10.9339
▁إذا	-10.9341
chu	-10.9341
▁شط	-10.9342
اسكندريه	-10.9342
▁دبليو	-10.9345
▁الجيزه	-10.9346
▁الكلمه	-10.9351
▁دوق	-10.9354
fel	-10.9359
▁واسمها	-10.9365
حفر	-10.9365
▁سفين	-10.937
▁الاستقلال	-10.9375
132	-10.9381
ciu	-10.9381
▁1926	-10.9385
زيف	-10.9386
▁بحب	-10.9391
▁الكاتوليكيه	-10.9392
تربية	-10.9398
▁التشريع	-10.9398
▁الإسكندرية	-10.9399
▁السعودية	-10.9399
▁الاجتماعيه	-10.9399
بشر	-10.9399
تاجر	-10.9407
=155	-10.9407
▁بدايته	-10.9408
▁شيء	-10.9408
▁بارا	-10.941
إذاعة	-10.9411
زعم	-10.9416
فصيل	-10.9418
▁متخصص	-10.9419
▁هواك	-10.942
▁همام	-10.9425
ăș	-10.9425
lea	-10.944
تشور	-10.9442
كوفيتش	-10.9442
▁أحسن	-10.9449
▁الروماني	-10.9452
▁التمنتاشر	-10.9452
▁أسرتها	-10.9453
▁قواعد	-10.9453
▁استراليا	-10.9453
▁امريكانيه	-10.9454
▁الوضع	-10.9454
مبادئ	-10.9455
=157	-10.9458
بعدين	-10.9459
▁الحجاز	-10.9466
قاسم	-10.9469
▁شرع	-10.9484
▁الحريه	-10.9505
▁وغيرهم	-10.9506
▁باعتباره	-10.9507
▁اسيوط	-10.9507
▁مافيش	-10.9508
▁والإ	-10.9508
=193	-10.9509
elli	-10.9535
تصل	-10.9539
▁جران	-10.954
133	-10.9551
▁جنسي	-10.9553
قيل	-10.9555
▁المختلفة	-10.9561
▁الخارجية	-10.9563
▁خوسيه	-10.9563
نظار	-10.9567
▁المؤيد	-10.9571
▁ساند	-10.9572
استير	-10.9573
▁رابع	-10.9579
mat	-10.9584
stra	-10.9585
▁كوش	-10.9586
باش	-10.9587
tomu	-10.9592
kan	-10.9601
▁الريف	-10.9603
▁السفر	-10.9603
قوش	-10.9604
▁واستمر	-10.9606
▁شين	-10.9608
▁să	-10.9616
▁program	-10.9616
▁اونديجوف	-10.9616
▁المرأة	-10.9617
▁درويش	-10.9617
▁النجوم	-10.9617
▁أنشأ	-10.9617
وعد	-10.9621
pen	-10.9623
ذيع	-10.9623
▁الغرام	-10.9626
غزو	-10.9626
البحر	-10.9627
نعيم	-10.964
lyn	-10.9653
▁ميرل	-10.9667
▁pre	-10.9668
▁1913	-10.9671
▁بورنوجرافيه	-10.9672
▁سلاطين	-10.9672
▁زكريا	-10.9672
▁عاصمتها	-10.9672
مقاطعة	-10.9672
▁يابانية	-10.9672
▁الاهرام	-10.9672
تختلف	-10.9673
جماعات	-10.9675
bro	-10.9675
ky	-10.9676
thi	-10.9677
cle	-10.968
▁منافس	-10.9681
مكسيك	-10.9681
▁الاسبانية	-10.9682
جمهورية	-10.969
uri	-10.97
تنقل	-10.9703
elle	-10.9706
▁الرسمية	-10.9716
▁مباشرة	-10.9726
▁الارثوذكس	-10.9727
▁أكتوبر	-10.9727
▁المسلحة	-10.9727
▁الهجوم	-10.9727
▁المملوكى	-10.9727
▁فرنسية	-10.9729
▁شهور	-10.9738
▁مارتين	-10.9745
سيلو	-10.9751
ment	-10.9752
عَ	-10.9755
▁بياخد	-10.9759
▁1000	-10.9763
▁الأحداث	-10.9783
▁السوفيتى	-10.9783
حادثة	-10.9783
▁عرابى	-10.9783
ănești	-10.9784
▁المعارك	-10.9786
520	-10.9787
▁رائد	-10.9788
جذب	-10.9794
تخرج	-10.9809
cea	-10.9817
▁التجارية	-10.9819
▁بتتبع	-10.9821
▁العثمانيه	-10.9827
iana	-10.9828
تياز	-10.9832
لخدمة	-10.9835
سيول	-10.9835
minor	-10.9836
▁كاستييا	-10.9839
اتصالات	-10.9841
▁الدعا	-10.9841
كود	-10.9842
▁أيبك	-10.9842
أغنية	-10.985
▁برلين	-10.9851
▁زوجته	-10.9855
▁هرم	-10.9855
تواصل	-10.9856
▁القائد	-10.986
▁رأي	-10.9861
462	-10.9861
▁العاص	-10.9863
مواجهة	-10.9869
▁عامر	-10.9871
2389	-10.9875
480	-10.9876
▁wal	-10.9877
نحو	-10.9877
ign	-10.9881
▁ضاع	-10.9887
أيام	-10.989
▁حاليا	-10.9892
▁السود	-10.9895
▁بالنسبة	-10.9896
val	-10.9896
▁نادال	-10.9897
▁غالي	-10.9898
غيب	-10.9899
▁افتتاح	-10.9905
▁الأخيرة	-10.9909
▁بالإ	-10.9913
▁النوم	-10.9913
ami	-10.9916
سينما	-10.9916
▁خشب	-10.9919
cio	-10.9921
▁1911	-10.9923
▁المحلية	-10.9931
ديز	-10.9933
قذ	-10.9935
▁العلاج	-10.9936
لاقي	-10.9937
▁التلات	-10.9947
كعب	-10.9947
▁الديموقراطي	-10.9953
▁زوراڤليوڤا	-10.9953
▁الخلافه	-10.9953
▁new	-10.9954
▁الآثار	-10.9954
▁الحضاره	-10.9955
▁الفرقة	-10.9962
▁لغت	-10.9963
▁احتفال	-10.9963
▁معرض	-10.9969
▁الأطفال	-10.9973
▁يقتل	-10.998
▁ماريو	-10.9989
▁يظهر	-10.9991
▁نبيل	-10.9992
eh	-10.9992
▁لوحده	-10.9994
▁كيت	-11.0002
▁بتضم	-11.0004
jpg	-11.001
▁قايتباى	-11.001
نموذج	-11.001
▁مسئول	-11.001
▁تيرنر	-11.0011
▁state	-11.0011
▁seki	-11.0013
▁اياميها	-11.0017
▁جرجس	-11.002
▁مارتن	-11.0021
▁ونشر	-11.0028
▁المعماري	-11.0029
620	-11.0035
زيارة	-11.0042
▁كوبر	-11.0042
يستا	-11.0043
▁پلاى	-11.0049
لبنان	-11.0051
▁أيوب	-11.0055
▁حديد	-11.0057
بروتستانت	-11.0067
▁الرازق	-11.0067
▁البعض	-11.0067
▁كنايس	-11.0068
▁اوسكار	-11.0068
▁الاشتراكيه	-11.0068
▁ماسح	-11.007
مشاريع	-11.007
hal	-11.0075
775	-11.0081
▁وحتى	-11.0084
789	-11.0084
wer	-11.0086
حزن	-11.0088
قائد	-11.0093
ble	-11.0101
▁صناع	-11.0101
=150	-11.0104
مزارع	-11.0112
▁حمله	-11.0119
رويج	-11.0121
▁المؤلف	-11.0123
▁ديبييون	-11.0125
▁مختلط	-11.0125
▁الأوروبى	-11.0125
▁ثقافي	-11.0125
▁الامم	-11.0132
▁الخص	-11.0135
▁الماتش	-11.0135
▁شفت	-11.0138
نفى	-11.014
▁1905	-11.015
قيق	-11.0151
371	-11.0153
▁قلوب	-11.0157
سيور	-11.0162
▁الاسود	-11.0165
فوض	-11.0168
دبح	-11.0169
طرح	-11.0171
▁النهر	-11.0171
▁ستيف	-11.0174
▁robert	-11.0185
▁النهاية	-11.0186
▁يسيب	-11.0186
▁ابطال	-11.0186
طليانى	-11.0186
0&	-11.0192
hy	-11.0194
لكرة	-11.0196
▁الفني	-11.0201
▁mor	-11.0204
قبط	-11.0212
أكد	-11.0215
burg	-11.0219
▁بلدنا	-11.0221
▁العشر	-11.0224
لقد	-11.0226
تلفزيون	-11.0233
استقرار	-11.024
▁مراكب	-11.0242
▁نقطه	-11.0242
▁قطز	-11.0243
▁name	-11.0244
▁قضا	-11.0245
ـــــــــ	-11.0247
▁زياده	-11.0249
▁وحيد	-11.0253
▁bur	-11.0255
▁الفقار	-11.0255
▁القصير	-11.0256
▁بأمر	-11.0257
طيور	-11.0257
tha	-11.0259
▁أقول	-11.0261
▁ساكن	-11.0267
ركيز	-11.0277
▁فاز	-11.0282
لكسندر	-11.0283
▁الحاجات	-11.0288
▁أسيوط	-11.0301
▁السبعتاشر	-11.0301
▁نفوذ	-11.0301
مسابقة	-11.0302
▁الاستعمار	-11.0302
▁السينمائى	-11.0303
مواليد	-11.0303
▁الزمالك	-11.0304
▁mari	-11.0304
▁وحوار	-11.0305
▁اليونانيين	-11.0308
أعداد	-11.0312
كمال	-11.0317
136	-11.032
gy	-11.0322
▁نيجر	-11.0324
وليت	-11.0328
951	-11.0332
900	-11.0333
عذب	-11.0344
ائن	-11.0346
▁اتفق	-11.035
▁بيكتب	-11.0352
▁لصالح	-11.0353
▁العساكر	-11.036
▁توليدو	-11.036
إسكندر	-11.036
▁كرواتيا	-11.036
▁الثامن	-11.036
▁الحداشر	-11.036
▁الاجتماعية	-11.036
▁اليكساندر	-11.0361
أفراد	-11.0362
▁الشركات	-11.0363
▁mic	-11.0363
تنافس	-11.0365
▁إنتاج	-11.0366
▁التركى	-11.0366
▁خروج	-11.0368
▁ياللي	-11.0374
▁التحالف	-11.038
▁mare	-11.0383
▁زادت	-11.0395
are	-11.0405
محمية	-11.0408
▁اتحولت	-11.0409
▁فرعون	-11.0409
▁جزيره	-11.0419
▁يحكم	-11.042
▁بنسبة	-11.042
long	-11.0427
▁ترب	-11.043
▁فهو	-11.0438
دولف	-11.0446
▁ساتو	-11.0454
1959	-11.0454
808	-11.0459
▁معارض	-11.0462
أكل	-11.0467
▁تعود	-11.0475
▁عرفت	-11.0476
▁ادب	-11.0477
عروس	-11.0477
رعب	-11.048
▁الجمعيه	-11.048
alex	-11.048
▁رحلة	-11.0484
ichi	-11.0484
▁تابعه	-11.0485
▁اتقبض	-11.0496
فارق	-11.0497
▁البوم	-11.0498
▁مذهب	-11.0502
▁خلت	-11.0504
▁أغاني	-11.0504
▁الأرثوذكسية	-11.0507
سلسله	-11.0521
▁نصيب	-11.0523
▁انتشر	-11.0523
مكتبة	-11.0527
▁يمثل	-11.053
زدهر	-11.0537
▁الحان	-11.0538
▁بواسط	-11.054
▁مقالات	-11.0541
حكومه	-11.0541
وفسكى	-11.0543
▁الاحتفال	-11.0544
▁بيمثل	-11.0545
▁بيعيش	-11.0547
قاعة	-11.0551
▁wo	-11.0554
▁الاخوان	-11.0557
▁فإن	-11.0561
wen	-11.0591
▁للناس	-11.0593
ريتش	-11.0597
▁الأطرش	-11.06
▁المراكب	-11.06
▁الحبايب	-11.0603
▁قضية	-11.0603
▁المستقبل	-11.0604
▁بيحكم	-11.0611
القاهره	-11.0611
▁شقيق	-11.0626
▁gre	-11.0628
070	-11.0633
▁الفرس	-11.0634
دراج	-11.0636
▁تعيش	-11.0649
și	-11.0653
nie	-11.0658
▁الشخصيه	-11.066
▁شوارع	-11.0661
▁peter	-11.0663
حكايات	-11.0664
▁صحفى	-11.0668
▁دائم	-11.067
▁إيد	-11.0677
▁سيجا	-11.0679
1955	-11.0679
أهل	-11.0681
=197	-11.0687
820	-11.0689
تلقى	-11.069
gin	-11.0693
▁مهد	-11.0695
yer	-11.0704
▁الاقتصاديه	-11.0704
wor	-11.0715
▁تايلور	-11.0722
▁محكمة	-11.0724
▁وبيشتغل	-11.0724
▁الخديوي	-11.0724
▁السلطه	-11.0729
مجتمع	-11.0729
mir	-11.0732
▁أحب	-11.0735
تأثير	-11.0735
آل	-11.0737
صون	-11.0739
ليستة	-11.0741
ائهم	-11.0744
▁حاصر	-11.0749
1956	-11.075
▁الكرك	-11.0754
▁انتخب	-11.0757
▁يشتغل	-11.0761
▁كومپيوتر	-11.0784
▁البترول	-11.0784
▁مفتوح	-11.0784
▁توزيع	-11.0784
▁العبيد	-11.0784
▁الارهاب	-11.0784
▁ساكسون	-11.0785
▁السريع	-11.0785
▁مباشر	-11.0786
▁جريدة	-11.0791
ميها	-11.0791
تفاعل	-11.0792
▁بتتسم	-11.0792
▁الميدان	-11.0792
أفلام	-11.0795
▁الأسر	-11.0801
▁هدوم	-11.0802
ُّ	-11.0805
َيْ	-11.081
احتر	-11.0811
▁الهرم	-11.0815
▁جراح	-11.0816
▁يضم	-11.0819
▁علوم	-11.082
شيما	-11.0822
▁الفعل	-11.0825
ظالم	-11.0833
rio	-11.084
ميتر	-11.0844
▁الثقافى	-11.0846
▁سيستم	-11.0846
تخلص	-11.0848
جغرافي	-11.0853
▁الدكتوراه	-11.0854
كارل	-11.0861
ـــــــ	-11.0862
▁قايم	-11.0866
▁الفلاحين	-11.0868
gg	-11.0878
▁كيو	-11.0885
▁الغنائي	-11.0889
أحمد	-11.0892
tina	-11.0893
▁انفصل	-11.0899
أشكال	-11.0903
ثقافه	-11.0904
بقاش	-11.0904
▁county	-11.0909
أشخاص	-11.0909
▁فوتبول	-11.0909
▁وبعض	-11.0909
▁يحيى	-11.091
2153	-11.0911
إنشاء	-11.0914
▁كولومبيا	-11.0919
▁العيلة	-11.092
▁أولاد	-11.0922
▁انتصر	-11.0924
▁1906	-11.0925
مستشفي	-11.0932
▁ser	-11.0936
▁cer	-11.0948
829	-11.095
▁وبقت	-11.0955
▁بيرس	-11.0961
revision	-11.0971
▁چوهانسون	-11.0971
▁البرامج	-11.0971
▁الأحمر	-11.0977
▁الرمل	-11.0977
580	-11.0979
▁عاوز	-11.0979
▁ملايين	-11.0982
▁كراس	-11.0984
ford	-11.0985
met	-11.0987
أعمال	-11.0991
▁المهمه	-11.0991
بحيرة	-11.0994
gli	-11.1
فرنساوي	-11.101
▁المحاكم	-11.1012
▁لحم	-11.1018
حير	-11.1018
هيئه	-11.1019
عميد	-11.102
عهد	-11.1021
تعال	-11.1024
▁هانم	-11.1027
▁الديمقراطى	-11.1035
▁الأنجلو	-11.1035
▁أنواع	-11.1036
ța	-11.1037
▁مراحل	-11.1039
نقش	-11.1046
▁تشر	-11.1046
تجارة	-11.1047
pat	-11.105
▁يحت	-11.1056
▁اثنا	-11.1071
▁حوار	-11.1074
▁مميز	-11.1074
▁عماد	-11.108
مواطنين	-11.1082
▁جوان	-11.1091
دنيا	-11.1095
▁sto	-11.1096
إمبراطور	-11.1098
▁college	-11.1098
▁trojan	-11.1098
▁نابليون	-11.1098
▁اتفاقية	-11.1098
▁اسبوع	-11.1099
▁مرحلة	-11.1099
▁السياسة	-11.11
▁يدفع	-11.11
▁المبكر	-11.1101
▁السياسه	-11.1101
مقبرة	-11.1102
▁محتاج	-11.1103
▁أخبار	-11.1105
▁سنوات	-11.1105
▁صبرى	-11.1107
▁صعيد	-11.1111
يئة	-11.1113
▁للسينما	-11.1118
▁نورمان	-11.1125
▁الغال	-11.1127
▁يطلب	-11.1137
يزيا	-11.1139
تدهور	-11.1143
اشتراكي	-11.1145
تمنع	-11.116
▁الاطلنطى	-11.1163
▁الكومپيوتر	-11.1163
▁بكالوريوس	-11.1163
▁مانشستر	-11.1163
▁نوادى	-11.1191
▁العص	-11.1208
اثنين	-11.1209
▁كوكو	-11.1213
مؤرخين	-11.1214
▁وياك	-11.1224
زعل	-11.1225
پورتوجال	-11.1227
▁ايزابيل	-11.1227
▁الدلتا	-11.1227
par	-11.1229
▁صدقى	-11.1232
الملك	-11.1232
▁السكه	-11.1236
▁كوميدي	-11.1236
خارج	-11.1241
▁فبق	-11.1247
خطب	-11.125
القديس	-11.1255
كينز	-11.1255
اؤه	-11.1261
▁يساعد	-11.1268
▁iso	-11.1269
أداء	-11.127
▁الكنائس	-11.1292
▁الاجرام	-11.1292
▁الدومين	-11.1293
560	-11.1295
named	-11.1297
inger	-11.1301
610	-11.1301
تراجع	-11.1304
▁الاداب	-11.1306
▁حفيد	-11.131
▁عريان	-11.1313
768	-11.1313
▁كجم	-11.1314
▁والدته	-11.1316
مناطق	-11.1321
▁وهب	-11.1329
▁اعتد	-11.1332
▁الانبا	-11.1332
حياه	-11.1334
▁أعظم	-11.1334
أمراض	-11.1339
▁you	-11.1346
▁لأب	-11.1354
▁العباسيه	-11.1355
شركه	-11.1356
▁رافاييل	-11.1357
▁كاتالينا	-11.1357
▁نتايج	-11.1357
▁للرجال	-11.1358
▁أطلق	-11.1359
▁أحداث	-11.1359
▁الفلسفه	-11.1359
▁كوميدى	-11.136
ضوء	-11.1361
▁التنظيم	-11.1362
▁الكلمات	-11.1362
▁شوقى	-11.1365
اطر	-11.1375
▁عناصر	-11.1376
زائر	-11.1377
ثلاث	-11.1385
جنون	-11.1401
ذور	-11.1404
685	-11.1418
0,000	-11.1418
▁نشأته	-11.142
llen	-11.1421
▁بيوكانان	-11.1423
▁ظابط	-11.1423
▁المتطرف	-11.1423
▁التلاتاشر	-11.1423
▁تايلر	-11.1424
▁قرن	-11.1426
▁سياسة	-11.1428
▁tom	-11.1436
▁عيال	-11.1439
▁الفرسان	-11.1439
=86	-11.1446
تواجد	-11.1453
قريب	-11.1456
882	-11.1479
▁مهن	-11.1481
ain	-11.1483
▁handball	-11.1489
▁بريطانى	-11.1489
استعراض	-11.149
▁الجيوش	-11.149
▁علاقات	-11.1493
▁متفرج	-11.1494
▁عطر	-11.151
▁اتغير	-11.1511
867	-11.1516
قَ	-11.1524
تناول	-11.1525
▁الأرثوذكس	-11.1525
حكومة	-11.1526
eve	-11.1529
928	-11.1532
▁نصف	-11.1537
▁الثاني	-11.1538
▁cal	-11.1554
▁سعاد	-11.1556
ويكيبيديا	-11.1556
▁تاكيشى	-11.1556
▁شماديل	-11.1556
▁تطبيق	-11.1556
▁المنعم	-11.1562
▁علاقه	-11.1564
▁masa	-11.1568
▁لوتز	-11.157
▁ساف	-11.158
قديس	-11.1583
▁سفير	-11.1584
vol	-11.1592
ظهور	-11.1605
815	-11.1608
صناعات	-11.1609
▁bri	-11.1614
ألفونسو	-11.1623
▁درجات	-11.1627
▁الوجود	-11.1627
مستقبل	-11.1628
▁الأيوبي	-11.1628
▁القضاء	-11.1631
▁القيام	-11.1631
690	-11.1636
رجل	-11.1638
▁الصوف	-11.1645
▁البصر	-11.1652
▁1904	-11.1653
▁لانتاج	-11.1654
486	-11.1655
▁الكهربا	-11.1657
خاير	-11.1661
▁bru	-11.1665
thy	-11.167
كارول	-11.1678
899	-11.1678
▁المنصب	-11.1679
▁شايل	-11.1679
640	-11.168
انتصار	-11.1681
▁واسمه	-11.1684
▁الجنرال	-11.1691
▁رشدى	-11.1691
▁تسيشى	-11.1692
▁القتال	-11.1695
▁الروسى	-11.1695
▁آثار	-11.1696
كافح	-11.1701
▁شغال	-11.1701
▁البيضاء	-11.1702
أدب	-11.1703
▁الجانب	-11.1704
567	-11.1706
▁راجع	-11.171
قنع	-11.1714
vel	-11.1715
▁شيم	-11.1722
أزمة	-11.1724
642	-11.1736
542	-11.1737
▁ليند	-11.1746
▁الذاتي	-11.1752
▁سهل	-11.1756
▁يحارب	-11.1756
▁طرابلس	-11.1759
▁الهيكسوس	-11.1759
▁النهضه	-11.1759
▁الاهليه	-11.176
مائة	-11.1766
▁الأزهر	-11.1769
▁لنفسه	-11.1771
▁الفلوس	-11.1771
لفظ	-11.1774
▁she	-11.1777
020	-11.1779
▁جونسون	-11.1782
كيرك	-11.1783
▁اتأسس	-11.1791
▁فبعت	-11.1797
▁ماركس	-11.1827
▁مسؤول	-11.1827
▁الطبيعية	-11.1828
▁اللعيب	-11.1829
اختراع	-11.183
▁فوزى	-11.1837
حلو	-11.184
ختصر	-11.1844
▁1915	-11.1845
▁السفن	-11.1853
أحد	-11.1855
▁حمص	-11.1859
لحد	-11.1869
داخل	-11.1875
جزيرة	-11.1876
▁الاعلى	-11.1885
▁سبق	-11.1887
▁جوهر	-11.189
▁سويف	-11.189
▁المسئول	-11.1896
▁بورسعيد	-11.1896
▁الظلام	-11.1896
▁سبايس	-11.1896
▁طارق	-11.1897
▁ممتلكات	-11.1897
شاطئ	-11.1899
▁الأردن	-11.1901
▁الساتت	-11.1901
▁رموز	-11.1903
▁ويعتبر	-11.1904
▁جاكسون	-11.1904
▁غاب	-11.1906
▁اتلق	-11.1907
884	-11.191
ena	-11.1914
فيليب	-11.1925
تبرع	-11.1928
تشارك	-11.1928
چن	-11.1934
مخدر	-11.1936
▁1901	-11.194
570	-11.1941
▁للجيش	-11.1945
بشير	-11.195
▁جرح	-11.1955
▁أخوه	-11.1959
▁لورين	-11.196
صحابه	-11.1963
▁المخابرات	-11.1966
egypt	-11.1966
▁زمايله	-11.1966
▁الطوايف	-11.1966
▁انقلاب	-11.1966
▁ألمانية	-11.1966
▁بالتقريب	-11.1966
▁هولندا	-11.1967
▁ناجح	-11.1967
▁رسول	-11.1969
▁hor	-11.197
ادارة	-11.1971
850	-11.198
خار	-11.1982
▁سنقر	-11.1982
▁المواد	-11.1984
▁وكيل	-11.1987
عشان	-11.1992
لفرقة	-11.1994
▁أصغر	-11.1995
out	-11.1996
chan	-11.2001
▁غنو	-11.2003
أسلوب	-11.2015
عيب	-11.2036
▁الأغانى	-11.2036
▁تفسير	-11.2036
▁تقليد	-11.204
▁رسام	-11.2048
670	-11.2048
▁النسخ	-11.2049
▁الأصليين	-11.2051
جميل	-11.2052
▁متقسم	-11.2052
▁الفيوم	-11.2056
▁للامبراطور	-11.2058
ؤكد	-11.2065
▁رئ	-11.207
▁المفتوح	-11.2072
▁فهد	-11.2079
880	-11.2082
860	-11.2082
moto	-11.2083
مطرب	-11.2096
▁فرانسيس	-11.2102
▁للمصريين	-11.2106
فرناندو	-11.2106
▁المفروض	-11.2106
οσ	-11.2106
▁أبريل	-11.2106
▁للعلوم	-11.2109
ning	-11.2111
▁اندريه	-11.2112
▁الاسطول	-11.2113
▁الجبال	-11.213
▁ميلوش	-11.2131
▁الوجه	-11.2132
▁حصار	-11.2135
▁اتبنى	-11.2143
▁gor	-11.2143
▁بسيط	-11.215
▁أيد	-11.2152
▁بيوصل	-11.2152
ترتيب	-11.217
px	-11.2171
▁تقريباً	-11.2178
▁تشيكيا	-11.218
▁شيوخ	-11.218
الملابس	-11.2182
▁بيسموه	-11.2182
رابطة	-11.2182
▁الصحراء	-11.2183
▁العنصر	-11.2186
546	-11.2186
▁الحكيم	-11.219
▁اسلوب	-11.219
انتقاد	-11.2201
▁ليالى	-11.2204
سطو	-11.2204
mont	-11.2207
▁اتفتح	-11.2214
سيوم	-11.2214
▁علاء	-11.2216
ism	-11.2221
الإنجليزية	-11.2222
▁1903	-11.2224
▁1902	-11.2234
poli	-11.2234
▁جرج	-11.2247
▁باربيدوس	-11.2248
▁هابسبورج	-11.2248
▁james	-11.2249
▁جرانادا	-11.2249
▁الناتج	-11.225
▁سرطان	-11.2251
▁جناين	-11.2251
پيتر	-11.2252
▁أمريكي	-11.2254
راعى	-11.2254
▁عروض	-11.2264
kha	-11.2282
lou	-11.2289
أمريكا	-11.2294
انتاج	-11.2297
▁اتنشر	-11.2321
▁القمح	-11.2321
▁برلمان	-11.2324
▁مغنيه	-11.2328
▁البيوت	-11.233
▁آسيا	-11.2338
▁صحفي	-11.2347
pha	-11.2347
▁cri	-11.2359
▁بقوله	-11.2368
محيط	-11.2368
▁التيار	-11.2375
مؤلف	-11.2387
▁نابوليون	-11.2393
▁المحتمل	-11.2393
▁التعبير	-11.2393
انخفاض	-11.2393
▁christ	-11.2396
▁التالي	-11.2402
▁محدد	-11.2403
710	-11.2403
▁الهادى	-11.2405
ؤسس	-11.2407
▁gol	-11.2407
▁الربيع	-11.2407
9%8	-11.2411
▁القصه	-11.2411
▁فوج	-11.2412
marie	-11.2415
▁كذلك	-11.2416
▁مستمر	-11.2419
▁المناخ	-11.2423
▁جريج	-11.2426
▁للمخرج	-11.2426
توفر	-11.243
كليس	-11.2434
أمير	-11.2435
رشاد	-11.2436
▁اتحول	-11.2437
▁بيعتمد	-11.2441
mori	-11.2461
▁كيليكيا	-11.2466
▁هشام	-11.2466
▁اتوفت	-11.2467
حفاظ	-11.2468
▁اخترع	-11.2469
▁روائ	-11.2472
▁sho	-11.2473
stein	-11.2491
اوراتا	-11.2518
شروط	-11.2525
▁national	-11.2539
▁school	-11.2539
▁الفسطاط	-11.2539
2092	-11.2542
▁چاك	-11.2543
▁هيروش	-11.2543
▁فيكتوريا	-11.2544
▁الطيران	-11.2544
▁الإعلام	-11.2546
▁love	-11.2548
652	-11.2551
▁مشتق	-11.2552
gio	-11.2559
عمدة	-11.257
▁استغل	-11.257
▁1909	-11.258
ولوجى	-11.2581
bon	-11.2588
490	-11.2611
كمبيوتر	-11.2613
▁المعارف	-11.2613
لوند	-11.2615
ille	-11.2615
▁البريطانيه	-11.2615
▁باستخدام	-11.2617
حلف	-11.2627
▁بابل	-11.2628
إيطالي	-11.2629
▁القوة	-11.2633
▁الممتاز	-11.2634
837	-11.2636
تطوع	-11.2643
▁پيري	-11.2652
تأخر	-11.2657
تكمل	-11.2658
550	-11.2659
بدل	-11.2661
960	-11.2665
▁الفرص	-11.2673
دكتور	-11.2678
موضوع	-11.2687
نتيجة	-11.2688
▁فاطمة	-11.2688
▁التنوير	-11.2688
▁comba	-11.2688
مقارنة	-11.2688
▁كنيسه	-11.2689
▁الزراعه	-11.2689
▁انشأ	-11.269
▁صادق	-11.269
بتهمة	-11.2691
▁باردو	-11.2692
▁مختار	-11.2693
▁الأتراك	-11.2697
▁الفضاء	-11.2698
696	-11.27
انشاء	-11.2703
اوروبيه	-11.2709
▁الجراح	-11.2713
تضح	-11.2713
▁اسوان	-11.2719
▁cre	-11.2729
▁يوليوس	-11.2732
▁ديوان	-11.2734
▁pă	-11.2737
▁النجم	-11.2743
▁كروس	-11.2743
▁پودو	-11.2758
▁زايد	-11.2758
عوض	-11.2758
489	-11.2761
▁الأندلس	-11.2763
▁المعابد	-11.2763
▁وزراء	-11.2767
1983	-11.277
▁العموم	-11.277
ملف	-11.2771
▁انطونيو	-11.2775
▁شيوع	-11.2776
▁سونيك	-11.2781
▁سينمائي	-11.2794
▁عباد	-11.2798
▁الأسود	-11.2804
اللغه	-11.2823
gue	-11.2835
▁المختلط	-11.2839
▁الاحداث	-11.2839
▁مسيحى	-11.2839
▁رأى	-11.2839
▁المشاكل	-11.2841
▁جايزه	-11.2844
▁مهتم	-11.2846
vor	-11.2847
▁الغورى	-11.2859
▁برضو	-11.2863
▁الماضي	-11.2863
house	-11.2887
920	-11.2888
انتهاء	-11.2888
▁الرسمي	-11.2913
▁مناصب	-11.2917
▁سياسه	-11.2925
▁rob	-11.2931
▁الكراز	-11.2934
▁بتبقى	-11.2946
قلق	-11.2947
متاز	-11.2952
بدع	-11.2954
حيث	-11.2954
phy	-11.2956
كيرا	-11.2956
حجة	-11.296
الحرب	-11.2973
▁يستول	-11.299
فؤاد	-11.299
عطي	-11.2991
▁اوكرانيا	-11.2992
مجوهرات	-11.2992
▁الابتدائي	-11.2992
▁الاماكن	-11.2992
ميدالية	-11.2993
▁واحت	-11.2993
▁الجيزة	-11.2993
إقليم	-11.2994
حديث	-11.3007
▁البهائي	-11.3009
▁لقيت	-11.3012
▁مناسب	-11.3032
▁ră	-11.3033
mark	-11.3041
مقاول	-11.3046
صديق	-11.3051
منتجة	-11.3054
تحدد	-11.3054
أربع	-11.3065
▁smirnov	-11.307
▁presco	-11.307
▁المسلحه	-11.307
مذاهب	-11.307
▁مالهاش	-11.307
▁الأحرار	-11.3071
▁أراض	-11.3071
▁السلطنه	-11.3072
▁ثروت	-11.3072
▁تعريف	-11.3073
▁الافكار	-11.3074
▁الصيرب	-11.3078
تفرغ	-11.3083
▁القصة	-11.3084
خطف	-11.3113
▁النقد	-11.3114
راقب	-11.3141
▁حسام	-11.3148
▁البيزنطى	-11.3148
استكشاف	-11.3148
▁ترشيح	-11.3148
▁ظروف	-11.3148
▁افتكر	-11.3148
وظيفة	-11.3148
لجأ	-11.3148
▁الفتاح	-11.3149
▁خاض	-11.3152
631	-11.3157
▁الخشب	-11.316
تزايد	-11.3162
▁دينار	-11.3162
▁الحميد	-11.3163
▁خالص	-11.3164
الاشتراك	-11.3177
▁الراي	-11.3178
2012	-11.3184
▁سرق	-11.3192
940	-11.3193
▁pra	-11.3196
▁الاتفاق	-11.3199
اڤو	-11.3217
▁mikhaylov	-11.3227
▁البورنوجرافى	-11.3227
▁نيوزيلندا	-11.3227
خوارزم	-11.3227
▁أنطون	-11.3228
▁كاراتيه	-11.3228
▁القادر	-11.3231
▁camp	-11.3231
▁مجرية	-11.3231
▁مبانى	-11.3232
ائح	-11.3239
▁الأرمن	-11.324
▁tamar	-11.324
ثروة	-11.324
▁النقاد	-11.3241
تعليق	-11.3242
▁اليسار	-11.3243
888	-11.3245
1967	-11.3256
المصري	-11.3262
شوري	-11.3266
▁توپ	-11.3266
522	-11.327
عقاب	-11.3272
سلسلة	-11.3277
▁كولومب	-11.3295
تنقسم	-11.3299
▁brian	-11.3303
▁تشارل	-11.3304
▁القرار	-11.3305
1989	-11.3306
▁تليفزيون	-11.3306
▁ضرايب	-11.3306
تشجيع	-11.3306
▁الليبراليه	-11.3307
ماجستير	-11.3307
▁المجموعة	-11.3308
▁تنصيب	-11.3308
▁الدراما	-11.331
969	-11.3311
أغلبية	-11.3314
▁قتال	-11.3321
▁قبطي	-11.3324
730	-11.3334
درع	-11.334
حرف	-11.3351
عقود	-11.3365
▁الفضا	-11.3372
إيمان	-11.3373
647	-11.3383
▁بالظبط	-11.3386
▁هوليوود	-11.3386
▁louis	-11.3386
▁صوفيا	-11.3386
▁قبايل	-11.3386
▁اجمالى	-11.3386
wood	-11.3387
▁الماضى	-11.3387
▁الهيكل	-11.339
ovo	-11.3392
▁عراقي	-11.3397
▁حصان	-11.3403
525	-11.3425
more	-11.3427
▁ann	-11.3434
فيزيا	-11.344
869	-11.3442
▁القبطي	-11.3466
▁طروادة	-11.3467
▁قاضى	-11.3467
▁بجانب	-11.3468
▁الحمام	-11.3468
▁تهديد	-11.3469
▁تدريب	-11.3469
▁علاقته	-11.3473
▁رزق	-11.3474
سهول	-11.3474
▁افراد	-11.3475
▁ادريان	-11.3478
بسط	-11.348
أقباط	-11.3482
▁غياب	-11.3485
فترض	-11.3489
تصوير	-11.349
▁المستعمر	-11.3496
▁جسد	-11.3496
ross	-11.3506
▁ربيع	-11.3519
▁للمسيح	-11.3522
تأمين	-11.3523
780	-11.3535
تحرر	-11.3539
انسحاب	-11.3548
www	-11.3548
▁وبكده	-11.3548
▁لطفى	-11.3549
▁الاعلان	-11.3551
▁المبانى	-11.3551
َلَ	-11.3552
▁صحيح	-11.3554
مدبحة	-11.3558
586	-11.3566
فشل	-11.3576
قهر	-11.3583
▁هب	-11.3583
تعداد	-11.3586
▁كرام	-11.3588
تكلف	-11.3606
بحوث	-11.3629
▁الفيدرالي	-11.363
▁واشينطون	-11.363
▁البطولات	-11.363
▁بيزنط	-11.363
▁اراجون	-11.363
پلوپ	-11.3631
▁auguste	-11.3633
مساعد	-11.3634
تجربة	-11.3635
cker	-11.3639
احلام	-11.3663
لجايزة	-11.3664
▁الاثن	-11.3671
michel	-11.3673
سطح	-11.3703
chicago	-11.3712
▁التسعينيات	-11.3712
▁المسؤول	-11.3712
▁ڤيرچينيا	-11.3712
▁اطفال	-11.3713
▁الأهلية	-11.3713
▁saint	-11.3713
▁الاسرائيلى	-11.3713
▁يكمل	-11.3714
off	-11.3715
▁حياتي	-11.3716
▁وسايل	-11.3719
697	-11.3721
اجرا	-11.3724
▁كريستينا	-11.3724
تقويم	-11.373
كيريلى	-11.3734
▁قواد	-11.3739
ette	-11.3741
تكرر	-11.3742
▁دمع	-11.375
▁كاترين	-11.3762
2387	-11.378
▁بودابيست	-11.3796
▁الضخم	-11.3796
▁خليفة	-11.3798
▁الوحده	-11.38
رواح	-11.3805
▁طوما	-11.3805
▁وزنو	-11.3806
حاسب	-11.3806
بمساعدة	-11.3807
حكي	-11.3817
نظيم	-11.3856
لبطوله	-11.3868
اختصار	-11.3874
▁ماكسيميان	-11.388
▁شنودة	-11.388
▁مشغول	-11.388
▁vittor	-11.388
▁مصارع	-11.3881
الكتاب	-11.3882
▁واشتغل	-11.3883
▁الدقيق	-11.3884
▁ماكانتش	-11.3885
▁مانويل	-11.3888
قسطنطين	-11.3903
▁سريع	-11.3903
▁صرح	-11.391
اسكندرية	-11.3917
إدارة	-11.392
حظر	-11.3922
▁ايضا	-11.3927
خالف	-11.3934
لمساعدة	-11.3944
ليالي	-11.3944
ضرائب	-11.3965
▁york	-11.3965
▁ضريبة	-11.3965
▁لفتره	-11.3965
تصويت	-11.3965
▁الخليفة	-11.3965
▁توركيا	-11.3967
▁بروكس	-11.397
▁لمنصب	-11.3975
خزن	-11.4011
تغطى	-11.4017
servatori	-11.4024
▁براند	-11.4044
itch	-11.4047
▁charlo	-11.405
▁قنديل	-11.405
▁ارمينيا	-11.405
▁برنارد	-11.405
field	-11.405
▁المجموعات	-11.4051
▁الآداب	-11.4051
اسرائيل	-11.4054
▁نهائي	-11.4057
▁بركات	-11.4061
تدمر	-11.4091
مدارس	-11.4093
صناعه	-11.4105
597	-11.4108
ville	-11.4111
شاشة	-11.4115
نشئت	-11.4123
▁المواطن	-11.4125
ناحية	-11.4127
▁انطاكيا	-11.4136
▁الكتايب	-11.4136
▁بيلاروس	-11.4136
▁الباحثين	-11.4137
▁المرحلة	-11.4137
اضطرابات	-11.4137
▁قبطى	-11.4139
▁الثوار	-11.4144
▁اخبار	-11.4144
▁بيقوده	-11.4147
مناسبة	-11.4184
970	-11.4208
▁هؤلاء	-11.4223
مثقفين	-11.4223
▁النشاط	-11.4223
▁القاضى	-11.4223
▁اعتبار	-11.4224
أخلاق	-11.4224
▁يهاجم	-11.4224
510	-11.4224
▁صلاة	-11.4224
▁الارمن	-11.4225
▁خليفه	-11.4226
▁بليسا	-11.423
▁link	-11.4231
▁دراسه	-11.4231
▁النوبه	-11.4238
احتمال	-11.4241
▁راديو	-11.4242
▁النهائي	-11.4248
زحف	-11.4248
جبهة	-11.4249
▁السريان	-11.4251
كدب	-11.4266
ديڤ	-11.428
1996	-11.4289
ity	-11.4297
دافن	-11.4304
هزيمه	-11.4311
▁القصص	-11.4311
▁أغانى	-11.4311
▁تلحين	-11.4312
▁اشكال	-11.4316
▁فرنسى	-11.4316
ulești	-11.4327
slav	-11.4339
▁الثانوي	-11.4342
لشمال	-11.4368
▁التنفيذي	-11.4377
▁ثقافى	-11.4399
▁الخمستاشر	-11.4399
▁المتظاهرين	-11.4399
كثافة	-11.44
▁أتباع	-11.44
▁اتطورت	-11.44
▁النازيه	-11.44
▁السرطان	-11.4401
▁الايطالية	-11.4401
▁مؤقت	-11.4404
اعتقال	-11.4404
▁غزه	-11.4417
لدراسات	-11.4418
▁مواطن	-11.4435
لغى	-11.444
ؤثر	-11.4447
▁الالكترون	-11.4489
▁الفاطمى	-11.4489
▁لبعض	-11.4489
▁طهران	-11.4489
▁بالعربى	-11.449
▁فرصة	-11.4493
▁الاوبرا	-11.4493
▁ابرز	-11.4502
ثنائي	-11.4509
ساندرا	-11.4519
ريتشارد	-11.4528
▁كوشير	-11.4549
533	-11.4555
ستغل	-11.4579
▁جماعه	-11.4579
▁الستينيات	-11.4579
▁الصلب	-11.458
▁دانييل	-11.458
▁العمارة	-11.4584
▁مسيحيه	-11.4585
▁الشجاع	-11.4585
▁حامد	-11.4587
▁مالطا	-11.4588
تأكيد	-11.4593
689	-11.4612
عمق	-11.4623
▁الفلاح	-11.4641
برنامج	-11.4641
رتفاع	-11.4657
تجدد	-11.4665
القاهرة	-11.4667
▁كاراشكينا	-11.467
▁girl	-11.467
▁البريطانيين	-11.467
▁الطبيعيه	-11.4671
▁هامبورج	-11.4671
▁الديانات	-11.4671
▁الاشتراكى	-11.4672
بعثة	-11.4673
▁فردريك	-11.4674
▁الطاقة	-11.4675
▁هاد	-11.4696
الخروج	-11.4703
نحدر	-11.471
طعام	-11.4713
مفكرين	-11.4716
تدفق	-11.4725
▁الحمرا	-11.4735
2072	-11.4751
▁bill	-11.4756
▁august	-11.4758
▁انترتنمنت	-11.4761
▁ألمانيا	-11.4762
▁جعفر	-11.4762
▁ممفيس	-11.4762
▁المنافس	-11.4762
▁الروسيه	-11.4764
▁المميز	-11.4766
سيادة	-11.4766
▁تعقب	-11.4769
923	-11.4779
ndra	-11.4779
محرك	-11.4788
1962	-11.4851
▁الامريكان	-11.4851
▁البحيره	-11.4854
▁النهائى	-11.4854
▁قبيلة	-11.4854
▁مقابر	-11.4854
▁andrea	-11.4855
تفاوض	-11.4856
▁تحوتم	-11.4857
▁high	-11.4857
أزبك	-11.486
▁مبكر	-11.4861
▁حقيقي	-11.4862
أركان	-11.4862
▁بصفته	-11.4871
▁الجوهر	-11.4872
▁انتجت	-11.4873
مشروب	-11.4874
▁اسكندر	-11.4886
محاربة	-11.489
اشتهر	-11.4902
انطون	-11.4903
رتاح	-11.4907
▁شخصيته	-11.4919
▁المناسب	-11.4921
▁big	-11.4934
heikkilä	-11.4948
▁goethe	-11.4948
▁هوكايدو	-11.4948
▁النهضة	-11.4948
▁التفتيش	-11.4948
▁بيؤمن	-11.4948
▁الاحتراف	-11.4948
ازدهار	-11.4948
▁المقاوم	-11.4948
▁سوهاج	-11.4949
▁الستينات	-11.495
▁يمنع	-11.4951
▁الاعدام	-11.4952
fried	-11.4953
▁شكرى	-11.4953
ألقاب	-11.4955
عقيدة	-11.4956
▁قيمة	-11.4958
university	-11.4996
اختيار	-11.5
عندها	-11.502
بطريرك	-11.5024
▁كومبيوتر	-11.5042
▁الأيوبى	-11.5042
▁توحيد	-11.5042
▁الاربعتاشر	-11.5042
▁المزيكه	-11.5042
▁الزعيم	-11.5043
▁صفحة	-11.5045
▁الاهلى	-11.5047
تقييم	-11.5049
▁حملت	-11.505
▁هنري	-11.5052
الاتحاد	-11.5108
▁joseph	-11.5137
▁الصادر	-11.5141
جرنال	-11.515
مصطفى	-11.5191
لإنتاج	-11.5192
thumb	-11.5199
▁george	-11.5201
واشنطن	-11.5233
▁دوجلاس	-11.5233
night	-11.5233
▁world	-11.5233
▁أسماء	-11.5234
▁الحضرية	-11.5234
▁التلتاشر	-11.5234
▁مذكرات	-11.5236
▁يوشي	-11.5247
جوث	-11.5257
أرض	-11.5265
دلوقتى	-11.529
تصدى	-11.5296
واكب	-11.5313
▁فيلوميتور	-11.533
▁ويكيپيديا	-11.533
▁indiana	-11.533
▁الشيوعى	-11.533
▁الكونجرس	-11.533
▁الحكومية	-11.533
▁الأدوار	-11.533
▁بنيامين	-11.533
▁المكتوب	-11.5331
▁الإمام	-11.5331
▁ممنوع	-11.5331
٩	-11.5428
[	-12.1783
ö	-13.911
<	-13.9111
