<unk>	0
<s>	0
</s>	0
.	-3.2167
,	-3.28083
▁	-3.96636
▁і	-4.11256
▁у	-4.24781
▁ў	-4.40013
▁з	-4.45914
я	-4.56742
▁на	-4.62409
а	-4.80146
м	-4.86541
х	-4.89947
й	-5.0335
="	-5.06757
▁—	-5.08131
е	-5.09222
▁(	-5.12393
"	-5.13105
-	-5.14248
у	-5.1842
▁да	-5.25102
і	-5.31034
s	-5.31319
ы	-5.31901
▁«	-5.32227
▁па	-5.3231
га	-5.5036
doc	-5.50418
>	-5.50477
▁а	-5.52017
ў	-5.52702
▁за	-5.66338
мі	-5.66905
на	-5.69148
▁ад	-5.70219
аў	-5.73258
)	-5.77774
лі	-5.83367
»	-5.86872
▁не	-5.88328
▁##	-5.95761
ам	-5.98743
d	-6.00483
▁года	-6.02608
ка	-6.03112
/	-6.08066
с	-6.09444
ла	-6.13341
▁пры	-6.15653
▁г	-6.15655
:	-6.16052
?	-6.16526
be	-6.16612
к	-6.17808
),	-6.17824
кі	-6.18862
org	-6.19286
wiki	-6.1955
▁<	-6.19566
▁id	-6.1962
wikipedia	-6.19653
http	-6.19677
://	-6.19692
curi	-6.19697
▁url	-6.19785
▁cate	-6.1979
gorie	-6.1979
▁title	-6.1979
▁</	-6.2002
).	-6.20977
’	-6.22531
▁што	-6.24537
▁годзе	-6.2631
з	-6.27833
ні	-6.32147
т	-6.32875
▁пра	-6.32988
та	-6.33651
ны	-6.33879
▁быў	-6.37296
▁яго	-6.38132
▁аб	-6.39233
да	-6.43476
▁пад	-6.43655
▁вы	-6.45772
д	-6.46262
▁як	-6.46377
ва	-6.52189
▁для	-6.55185
ры	-6.58186
не	-6.59494
ты	-6.63903
ю	-6.67668
н	-6.67683
ль	-6.68032
ся	-6.70713
ць	-6.72146
▁пасля	-6.73335
'	-6.73874
ма	-6.74557
ля	-6.76656
па	-6.78037
най	-6.78982
▁са	-6.79937
▁таксама	-6.80048
ку	-6.80759
амі	-6.82099
»,	-6.82324
ных	-6.8306
▁с	-6.83141
▁якія	-6.83263
за	-6.85143
ра	-6.85565
▁18	-6.86312
л	-6.86336
ай	-6.8637
ш	-6.86541
▁м	-6.88173
▁які	-6.88531
▁ён	-6.88953
ныя	-6.88987
п	-6.89617
р	-6.89969
▁але	-6.91544
г	-6.92961
▁пера	-6.94287
▁"	-6.94451
=	-6.94638
ле	-6.95993
;	-6.96475
▁былі	-6.96757
ча	-6.96823
э	-6.96995
б	-6.97151
▁была	-6.98502
».	-6.98553
цы	-6.98996
ня	-6.99042
сці	-7.02438
цца	-7.02926
▁ва	-7.02942
скага	-7.03101
шы	-7.05415
ная	-7.05981
скі	-7.07653
ве	-7.08473
ах	-7.10188
чы	-7.11194
▁ст	-7.11725
са	-7.12308
нага	-7.12444
ж	-7.13976
скай	-7.14422
гі	-7.14602
▁час	-7.1471
ч	-7.14759
▁было	-7.14902
▁1	-7.15601
ста	-7.17105
ды	-7.17986
▁іх	-7.1962
▁год	-7.21738
ба	-7.22318
це	-7.23207
вы	-7.23305
▁км	-7.24722
ці	-7.27017
▁(19	-7.27079
▁дзе	-7.2869
дзе	-7.28836
▁15	-7.29275
▁беларусі	-7.29311
▁17	-7.29421
ві	-7.29464
▁насельніцтва	-7.2975
▁горад	-7.3048
▁каля	-7.33288
ага	-7.34406
▁якая	-7.34582
▁яе	-7.35177
ную	-7.35524
▁гэта	-7.36006
ным	-7.36263
му	-7.36343
=2	-7.37
ту	-7.37819
▁толькі	-7.3793
ру	-7.3795
ша	-7.38365
▁2	-7.38855
▁ба	-7.39302
▁в	-7.39307
лася	-7.39876
сі	-7.4003
оў	-7.41612
▁гадоў	-7.42027
▁больш	-7.42621
▁ка	-7.42699
ская	-7.42993
▁калі	-7.43737
жа	-7.44184
▁э	-7.44223
▁раз	-7.44407
ліся	-7.4443
▁3	-7.46589
▁16	-7.46871
ф	-7.4767
ло	-7.49685
ецца	-7.50904
яўляецца	-7.51308
ме	-7.52119
—	-7.52525
ц	-7.54201
▁склад	-7.55072
▁тым	-7.55734
▁п	-7.55768
ння	-7.55934
зе	-7.56258
▁су	-7.57865
лу	-7.59362
ўся	-7.59605
▁ра	-7.60061
ха	-7.60409
рэ	-7.60498
сць	-7.61113
ду	-7.6267
пра	-7.63528
ро	-7.64594
ну	-7.65021
▁лі	-7.65045
дзі	-7.65557
су	-7.65817
се	-7.65819
▁або	-7.66082
ву	-7.67265
▁аднак	-7.67641
ё	-7.68037
—19	-7.68144
▁н	-7.68656
▁вобласці	-7.6977
▁паводле	-7.70229
▁ці	-7.70821
▁%	-7.71543
лы	-7.71585
▁4	-7.7176
▁праз	-7.71899
ыя	-7.72299
́	-7.72325
нь	-7.72419
ая	-7.73346
▁ма	-7.73659
скім	-7.75501
▁ха	-7.75571
▁га	-7.76039
▁дэ	-7.76211
▁тэрыторыі	-7.76678
▁паміж	-7.77249
зі	-7.7746
▁тыс	-7.78515
нне	-7.78541
▁к	-7.79079
▁беларускай	-7.79189
▁стагоддзя	-7.79943
ую	-7.79947
▁так	-7.80248
▁адзін	-7.80294
▁вайны	-7.80802
▁5	-7.8135
▁жа	-7.82111
▁10	-7.82231
нае	-7.82234
в	-7.82425
▁чалавек	-7.8254
гу	-7.82902
ь	-7.83114
жы	-7.83441
▁інш	-7.8354
▁горада	-7.83579
▁бо	-7.8367
тэ	-7.83827
▁стаў	-7.83846
во	-7.84368
но	-7.84404
бі	-7.84844
▁бу	-7.85253
▁кан	-7.85943
▁14	-7.86551
▁б	-7.86977
зна	-7.87061
▁раёна	-7.87369
=4	-7.87418
ваў	-7.88332
▁таго	-7.88591
ца	-7.89093
▁рэ	-7.89413
ых	-7.89691
▁яны	-7.89897
▁6	-7.90599
лю	-7.90734
каў	-7.90846
c	-7.91242
ска	-7.91639
="4	-7.92373
юць	-7.93091
ця	-7.93125
▁кар	-7.93324
▁12	-7.93368
▁раён	-7.9375
ае	-7.9391
го	-7.9403
▁ме	-7.94572
▁ла	-7.94748
▁яна	-7.95186
▁ж	-7.96177
▁цэнтр	-7.96183
▁д	-7.97847
▁гу	-7.98463
▁пачатку	-7.98936
таў	-7.99416
пе	-7.99708
▁якіх	-8.00061
ства	-8.00208
ем	-8.00409
▁расіі	-8.00751
▁права	-8.01449
19	-8.01671
▁складзе	-8.01958
▁я	-8.02339
сты	-8.02474
▁13	-8.02847
раў	-8.03027
яў	-8.03046
▁іншых	-8.03411
▁яшчэ	-8.04291
мы	-8.04455
ко	-8.04608
стаў	-8.04941
валі	-8.04976
ст	-8.05347
бы	-8.05565
скіх	-8.0582
дэ	-8.05952
▁гэты	-8.06556
по	-8.06656
▁краіны	-8.06737
▁«"	-8.06749
▁стала	-8.06783
ск	-8.06832
3	-8.06989
тры	-8.07166
▁якой	-8.07266
▁гады	-8.07281
▁9	-8.07751
▁гэтага	-8.08025
нні	-8.08604
▁падчас	-8.08715
▁частка	-8.08879
▁8	-8.09373
нскі	-8.09481
▁20	-8.09666
▁()	-8.0986
фа	-8.10011
цыі	-8.10049
▁над	-8.10343
▁мае	-8.10497
▁ар	-8.1061
▁рас	-8.10746
▁супраць	-8.1124
▁ні	-8.11985
▁7	-8.12036
пі	-8.12155
▁гэтым	-8.1244
мен	-8.12455
2	-8.12548
20	-8.12596
коў	-8.12612
▁сярод	-8.12704
▁разам	-8.12729
▁каб	-8.13
1	-8.13258
▁ку	-8.13904
цкі	-8.1495
▁знаходзіцца	-8.15047
▁та	-8.16025
то	-8.16341
сцю	-8.16372
ак	-8.16691
ад	-8.16958
▁перыяд	-8.17175
18	-8.17535
тар	-8.17645
▁гісторыя	-8.17752
▁рэспублікі	-8.17841
пу	-8.17879
▁i	-8.17949
▁назва	-8.18024
кам	-8.18163
▁ф	-8.18428
дзя	-8.18495
скія	-8.18828
ер	-8.18905
▁імя	-8.19064
▁шмат	-8.19462
скае	-8.20206
▁выніку	-8.20286
шча	-8.2045
сы	-8.20684
▁ды	-8.20982
▁тры	-8.21003
▁некалькі	-8.21181
▁імперыі	-8.21523
▁мовы	-8.21537
о	-8.21641
скую	-8.21812
▁по	-8.21815
▁ш	-8.22513
▁найбольш	-8.22555
▁той	-8.22819
▁пазней	-8.22916
фі	-8.23153
бу	-8.23362
цыя	-8.23984
▁мора	-8.24014
▁пі	-8.24063
▁т	-8.24165
камі	-8.24356
00	-8.25106
юцца	-8.25376
нік	-8.25444
▁11	-8.25936
даў	-8.26285
▁ліпеня	-8.2637
нымі	-8.26799
15	-8.26836
▁ру	-8.26898
▁гадах	-8.26995
вя	-8.27145
▁ста	-8.27318
▁іншыя	-8.27932
насць	-8.28165
▁два	-8.28302
зы	-8.28333
▁ліку	-8.28444
нскага	-8.28847
▁зша	-8.28903
▁се	-8.28949
▁ві	-8.29332
и	-8.30074
ім	-8.30347
бра	-8.30688
цый	-8.32048
▁колькасць	-8.32613
▁атрымаў	-8.32935
ія	-8.33246
▁месца	-8.33355
бе	-8.33357
до	-8.3349
▁во	-8.33656
y	-8.33745
ючы	-8.34236
ваць	-8.34415
▁тут	-8.34437
▁сям	-8.34554
▁якога	-8.34633
▁(18	-8.34702
мо	-8.35142
ман	-8.35237
кры	-8.35276
▁ве	-8.35435
▁размешчаны	-8.3593
▁першы	-8.35935
пры	-8.35953
i	-8.35987
гра	-8.36015
▁пу	-8.36699
▁мар	-8.36852
▁кара	-8.37266
вер	-8.37424
30	-8.37447
▁ім	-8.3767
▁(«	-8.3792
▁студзеня	-8.38
▁перад	-8.3834
▁вельмі	-8.38569
)"	-8.38767
▁фа	-8.38955
▁часу	-8.39142
▁гісторыі	-8.39246
▁гг	-8.39299
▁раёне	-8.39628
тра	-8.39805
цыю	-8.39918
▁ракі	-8.39967
▁ссср	-8.40216
▁ду	-8.40423
кай	-8.40943
▁княства	-8.4173
▁ан	-8.4215
▁сі	-8.42167
▁дзяржавы	-8.42275
▁чынам	-8.43133
ніка	-8.43138
17	-8.43417
▁канцы	-8.44131
▁таму	-8.44176
▁сама	-8.44226
▁ле	-8.44302
▁сваёй	-8.44345
▁то	-8.44523
▁жыцця	-8.44576
сто	-8.44709
бо	-8.4477
▁ўз	-8.44965
алі	-8.44996
▁тэ	-8.4506
▁ры	-8.45169
аб	-8.45249
насці	-8.45264
|	-8.45933
▁ша	-8.46157
▁культуры	-8.46537
вала	-8.46797
▁снежня	-8.46929
▁беларусь	-8.47326
▁беларускага	-8.47665
ге	-8.47791
▁якое	-8.47841
▁ля	-8.47901
роў	-8.48665
▁свету	-8.48711
▁мала	-8.4875
11	-8.48865
▁30	-8.49386
▁чэрвеня	-8.49634
▁адна	-8.49909
▁зямлі	-8.4993
▁вялікага	-8.49961
ым	-8.49963
▁асабліва	-8.50211
50	-8.50213
вання	-8.50263
▁без	-8.50296
чнай	-8.50402
нка	-8.50525
кан	-8.50922
▁бсср	-8.51119
▁сваю	-8.51165
▁адным	-8.51239
▁двух	-8.51261
12	-8.51365
▁амаль	-8.51422
яўляюцца	-8.51498
▁мова	-8.51704
▁можа	-8.51758
вае	-8.52061
чная	-8.52107
▁расійскай	-8.52114
4	-8.52124
дар	-8.52204
▁ко	-8.5227
0	-8.52466
▁гэтай	-8.52484
▁працягу	-8.52536
▁млн	-8.52566
▁пас	-8.52584
▁р	-8.52646
▁ю	-8.52874
ход	-8.52878
▁верасня	-8.53223
n	-8.5331
вых	-8.53522
ген	-8.53711
g	-8.53752
▁)	-8.53925
▁чым	-8.5399
▁ня	-8.54008
▁тра	-8.54818
▁мая	-8.54875
u	-8.55026
t	-8.55056
▁сакавіка	-8.55223
10	-8.55504
▁працы	-8.55616
▁якім	-8.55622
цкага	-8.55813
▁горадзе	-8.55948
▁жніўня	-8.55949
▁ii	-8.56077
фе	-8.56226
▁яму	-8.56764
▁менш	-8.56841
▁свайго	-8.57002
стра	-8.57008
чу	-8.57041
▁сталі	-8.57253
вай	-8.57347
▁25	-8.57447
шчы	-8.57708
ленне	-8.57761
4"	-8.58191
▁лу	-8.58349
гор	-8.58375
ан	-8.58845
нікі	-8.58891
нія	-8.59002
▁кі	-8.5912
31	-8.59419
▁кастрычніка	-8.59454
слаў	-8.5964
▁со	-8.59659
ін	-8.6002
мян	-8.60232
1"	-8.60307
пы	-8.60497
ар	-8.60698
▁розных	-8.60813
сла	-8.61183
▁до	-8.61189
]]	-8.61586
вод	-8.61595
кла	-8.61648
раз	-8.61968
▁пара	-8.62015
14	-8.62115
2"	-8.62204
▁сябе	-8.62416
9"	-8.62552
▁рэчы	-8.62656
▁такім	-8.62945
16	-8.63021
8"	-8.63029
▁стра	-8.63226
▁сам	-8.6344
▁пе	-8.6349
5	-8.63518
▁лістапада	-8.63533
выя	-8.63619
лё	-8.63642
a	-8.6367
піс	-8.63782
нг	-8.63784
▁вкл	-8.63813
▁складае	-8.64016
авіч	-8.64051
▁маюць	-8.6413
40	-8.6417
▁польшчы	-8.64265
▁можна	-8.64265
13	-8.64273
▁сваіх	-8.64322
▁вялікі	-8.64496
3"	-8.64525
▁адміністрацыйны	-8.65004
▁войска	-8.65276
наў	-8.65536
он	-8.65646
нд	-8.65893
▁тур	-8.66
цаў	-8.66035
▁беларускі	-8.66418
▁слова	-8.66462
цкай	-8.66541
▁("	-8.66754
▁[[	-8.67072
7"	-8.6728
▁нават	-8.67304
▁звычайна	-8.67318
▁про	-8.67422
▁аўтар	-8.68084
60	-8.68192
▁быць	-8.68244
▁працаваў	-8.6828
▁сістэма	-8.68299
кава	-8.68311
ёр	-8.68392
▁сп	-8.68611
88	-8.6862
k	-8.69016
▁частцы	-8.69143
▁ёсць	-8.69145
▁пла	-8.69152
рэн	-8.69273
▁вёска	-8.69382
нт	-8.69485
▁красавіка	-8.6974
вар	-8.69979
▁смерці	-8.69979
▁дзень	-8.70525
вой	-8.7058
лены	-8.70618
89	-8.70675
5"	-8.70708
▁вядомы	-8.71001
▁адной	-8.71198
0"	-8.71256
▁саюз	-8.71356
l	-8.71483
тоў	-8.71698
▁некаторыя	-8.71866
▁першай	-8.71929
▁якасці	-8.72126
32	-8.72392
▁сусветнай	-8.72902
▁завод	-8.73451
▁кры	-8.73475
вяр	-8.73483
▁часткі	-8.73827
▁поўначы	-8.73903
лена	-8.73969
6"	-8.74042
66	-8.74139
en	-8.742
80	-8.74264
ён	-8.74356
▁рух	-8.74504
кра	-8.74581
мар	-8.74729
віч	-8.74738
▁сувязі	-8.74836
▁чал	-8.74885
▁акрамя	-8.74964
▁часам	-8.74983
сця	-8.7503
аль	-8.75299
▁тэрмін	-8.75544
▁біяграфія	-8.75721
цэ	-8.75803
▁лютага	-8.75849
86	-8.75906
"»	-8.76033
▁плошча	-8.76078
▁ман	-8.76121
▁там	-8.76229
сту	-8.76487
ём	-8.76548
34	-8.7661
▁усе	-8.7682
▁другой	-8.77001
94	-8.77106
▁жыхароў	-8.77194
▁спа	-8.7721
кар	-8.77394
85	-8.77419
зу	-8.77473
9	-8.77479
▁ву	-8.77526
він	-8.77528
92	-8.77669
клад	-8.77748
99	-8.77845
▁гэтыя	-8.78013
▁мо	-8.78122
m	-8.78172
▁бра	-8.78388
▁жы	-8.78395
33	-8.78534
стан	-8.78673
▁заснаваны	-8.78775
7	-8.78935
▁план	-8.79099
▁першым	-8.7913
▁мове	-8.79227
ію	-8.79533
▁сістэмы	-8.79568
▁пар	-8.79569
тур	-8.79633
▁напрыклад	-8.79675
▁гра	-8.79731
65	-8.79746
▁часта	-8.79817
▁вялікай	-8.80121
тка	-8.80165
87	-8.80199
▁ту	-8.80567
▁сын	-8.80679
лення	-8.80773
нскай	-8.80774
98	-8.80797
▁заходняй	-8.80992
▁меў	-8.81031
67	-8.81273
▁тое	-8.81324
пад	-8.81432
▁пераважна	-8.81441
25	-8.81452
так	-8.81483
▁кра	-8.81542
75	-8.81914
▁цар	-8.81987
нава	-8.8203
тан	-8.82094
▁тэрыторыя	-8.82152
пера	-8.82357
▁трох	-8.82496
▁ўсіх	-8.82667
▁тысяч	-8.82706
▁партыі	-8.82901
—18	-8.82966
8	-8.83001
▁князя	-8.83107
▁ча	-8.83109
70	-8.83187
▁ўжо	-8.83205
▁°	-8.83235
▁захадзе	-8.83486
▁ўсход	-8.8351
▁свае	-8.83701
▁свеце	-8.83724
▁руху	-8.838
▁19	-8.83892
97	-8.84052
69	-8.84054
▁дзейнасць	-8.84138
▁хутка	-8.843
▁ак	-8.845
93	-8.84642
r	-8.84747
нская	-8.84902
ян	-8.84902
▁бела	-8.84957
гл	-8.85085
▁боку	-8.85378
▁стагоддзі	-8.85389
36	-8.8545
▁no	-8.85487
38	-8.85528
54	-8.85589
b	-8.85673
ом	-8.85822
▁чалавека	-8.85986
")	-8.86056
▁фі	-8.86056
▁вер	-8.86117
нікаў	-8.86207
▁бы	-8.86348
каз	-8.8649
▁вобласць	-8.86517
p	-8.86779
▁паў	-8.86968
re	-8.86994
ar	-8.87047
▁жыццё	-8.87155
ана	-8.87326
▁ўсё	-8.87609
90	-8.87615
▁нацыянальны	-8.87726
лас	-8.87813
77	-8.87814
64	-8.87846
моў	-8.87864
▁му	-8.87889
льнай	-8.88325
76	-8.88466
год	-8.88515
ключ	-8.88703
▁сельсавета	-8.88735
▁частку	-8.88842
▁возера	-8.88995
блі	-8.89215
вая	-8.89385
со	-8.89386
цоў	-8.89501
6	-8.8952
▁скончыў	-8.89611
ваюць	-8.89758
▁шэраг	-8.89843
78	-8.89872
le	-8.89873
35	-8.8988
там	-8.89922
91	-8.89929
48	-8.89933
▁го	-8.90031
нцы	-8.9018
58	-8.9043
▁канца	-8.90547
46	-8.90576
цё	-8.90672
41	-8.90703
62	-8.9082
▁народ	-8.90824
чнага	-8.90874
▁бар	-8.9093
шкі	-8.90962
▁каза	-8.9107
="3	-8.91103
ках	-8.91148
ско	-8.91273
рыя	-8.91281
37	-8.91435
▁сваім	-8.91476
▁аль	-8.91532
▁прад	-8.91536
мер	-8.91589
▁цэнтрам	-8.91604
▁о	-8.91681
ен	-8.9169
29	-8.91727
▁xix	-8.91918
39	-8.92109
буд	-8.92147
шэ	-8.92313
чэ	-8.92385
▁значна	-8.92548
56	-8.92581
▁арганізацыі	-8.92647
▁беларускіх	-8.92649
▁затым	-8.92705
▁гэтых	-8.92907
▁германіі	-8.9295
44	-8.93145
er	-8.93214
▁большасць	-8.93215
▁вядома	-8.93311
▁и	-8.93522
▁арміі	-8.93558
▁стара	-8.93559
ава	-8.93664
▁ас	-8.94121
ванне	-8.94124
авых	-8.94206
z	-8.94258
стры	-8.94276
род	-8.94481
сь	-8.94579
▁губерні	-8.947
▁ўсе	-8.94964
▁паспалітай	-8.95162
68	-8.95179
84	-8.95237
паў	-8.95238
26	-8.95296
▁фар	-8.95343
лін	-8.95396
▁літаратуры	-8.95472
▁павета	-8.95659
▁шырока	-8.95704
▁1918	-8.95737
an	-8.96101
ліва	-8.96137
▁пачаў	-8.96166
22	-8.96222
▁хоць	-8.96338
▁мінску	-8.96418
сцей	-8.96418
▁краін	-8.9645
▁гар	-8.96457
81	-8.96603
валася	-8.9672
55	-8.96792
еў	-8.97075
▁рака	-8.97202
▁бе	-8.97429
▁асноўным	-8.97602
лен	-8.97697
ноў	-8.97872
o	-8.97888
ўна	-8.97916
ню	-8.97945
al	-8.98122
▁аднаго	-8.98294
▁будаўніцтва	-8.98537
▁свой	-8.98538
аць	-8.9857
след	-8.98582
вага	-8.98594
82	-8.98607
▁ро	-8.98881
сп	-8.98927
▁раман	-8.9904
▁транспарт	-8.99094
джа	-8.99126
▁войскі	-8.99132
▁22	-8.99243
▁зноў	-8.99419
▁лініі	-8.99447
дыя	-8.99463
нняў	-8.99479
21	-8.99527
59	-8.99576
23	-8.996
▁for	-8.99694
▁створаны	-8.99743
ке	-8.99845
(	-8.99906
27	-9.00045
▁назву	-9.00075
▁потым	-9.00083
пар	-9.00098
71	-9.00204
чын	-9.00392
ваўся	-9.00401
x	-9.00424
▁цяпер	-9.00455
83	-9.00754
▁выраб	-9.00875
▁між	-9.00885
лаў	-9.00973
▁паэт	-9.00985
міна	-9.00987
v	-9.01072
f	-9.01178
28	-9.01188
чэння	-9.01285
тэр	-9.0135
96	-9.01473
47	-9.01662
▁дзве	-9.01701
▁мастацтва	-9.01725
72	-9.01757
▁літоўскага	-9.01844
57	-9.019
▁таварыства	-9.02041
_	-9.02055
ннем	-9.02088
▁месцы	-9.02115
ор	-9.02128
дзей	-9.0215
▁магчыма	-9.02183
ера	-9.02257
▁мела	-9.02331
▁даў	-9.02423
ала	-9.02579
▁паўночнай	-9.02622
▁дзеяч	-9.02626
▁мас	-9.02673
▁суд	-9.02718
▁раслін	-9.02779
ніцы	-9.02782
нню	-9.02873
▁ужо	-9.02876
дэн	-9.03023
шка	-9.03145
▁складаецца	-9.03162
▁дзя	-9.03229
▁2-	-9.03394
▁род	-9.034
24	-9.03422
▁створана	-9.03448
▁асноўныя	-9.03477
▁новы	-9.03511
чныя	-9.03572
▁вёскі	-9.03614
▁рэк	-9.0363
▁вады	-9.03697
▁савета	-9.03774
дра	-9.03794
▁польскай	-9.03811
▁гала	-9.0395
▁першыя	-9.04076
73	-9.04101
▁л	-9.04152
45	-9.04171
▁ло	-9.04204
ўскага	-9.04366
сна	-9.04372
жэ	-9.04642
рас	-9.0467
▁могуць	-9.04883
61	-9.04916
чна	-9.04922
▁князь	-9.04967
цэн	-9.04999
▁гаспадар	-9.05141
mula	-9.05225
нак	-9.05302
аваў	-9.05306
▁актыўна	-9.05343
▁творы	-9.05383
ўшы	-9.05392
▁поўдні	-9.05394
▁еўропы	-9.05479
▁клімат	-9.05562
ком	-9.05608
▁навук	-9.05652
ран	-9.05681
▁ке	-9.05784
▁некаторых	-9.05797
▁дзяржаў	-9.05826
спа	-9.05893
▁мін	-9.05941
валіся	-9.05954
цкая	-9.06013
▁ўрад	-9.06039
▁чар	-9.06096
мац	-9.06276
▁рады	-9.06309
79	-9.06379
»)	-9.06526
▁ск	-9.06554
74	-9.06585
▁вяр	-9.06739
льная	-9.06824
▁колькасці	-9.06858
доў	-9.06879
віча	-9.06942
▁цалкам	-9.06945
▁раней	-9.0699
▁статус	-9.07035
▁вуліца	-9.07169
▁групы	-9.07227
сан	-9.07488
▁замка	-9.07496
лон	-9.07561
ra	-9.07597
нар	-9.07672
▁сельсавет	-9.07674
▁моцна	-9.07738
▁аляксандр	-9.07744
▁генерал	-9.07829
▁мінскай	-9.07833
49	-9.07851
▁iii	-9.07895
▁"«	-9.08011
▁дзяржава	-9.08044
чную	-9.08068
▁саюза	-9.08134
▁27	-9.0821
нос	-9.08215
фік	-9.08218
e	-9.08246
▁царквы	-9.08344
▁пале	-9.08494
▁пер	-9.08533
▁(17	-9.08544
▁анты	-9.08547
вед	-9.08637
▁другі	-9.08643
▁100	-9.08658
▁гара	-9.08806
▁ёй	-9.08818
тары	-9.08829
хо	-9.0898
▁назвы	-9.09065
▁26	-9.0913
чыць	-9.09367
тара	-9.09377
нкі	-9.09484
ніца	-9.0966
чай	-9.09686
▁паўднёва	-9.09712
▁лік	-9.09778
▁бал	-9.09872
сце	-9.09903
вяз	-9.09933
▁развіцця	-9.09942
42	-9.10239
▁дзяржаўны	-9.10242
нк	-9.10363
▁мінска	-9.10452
▁бацька	-9.10494
нскім	-9.10534
▁ты	-9.10537
▁c	-9.10668
овы	-9.1082
▁маці	-9.1082
▁атрымала	-9.10987
▁23	-9.10996
▁сіл	-9.11033
аваны	-9.11098
▁21	-9.11102
▁сабой	-9.11165
▁28	-9.11166
▁гор	-9.11212
▁сялян	-9.11248
нер	-9.11411
ной	-9.11741
ляў	-9.118
▁24	-9.12018
▁вайна	-9.12053
бор	-9.12144
▁якую	-9.12187
▁паўночна	-9.12233
la	-9.12254
▁чале	-9.12371
▁50	-9.12384
дзь	-9.12426
▁мелі	-9.12524
льных	-9.12563
▁ска	-9.12749
▁пя	-9.12842
▁кон	-9.1285
▁людзей	-9.12855
дж	-9.12953
▁член	-9.13083
оўскі	-9.13141
эн	-9.13169
▁хі	-9.13265
іс	-9.13349
43	-9.13353
▁мір	-9.13371
няў	-9.13479
▁францыі	-9.13495
вым	-9.13648
);	-9.13692
▁еўропе	-9.13773
▁развіццё	-9.13773
▁дзейнасці	-9.13774
▁памёр	-9.13872
іць	-9.13881
ску	-9.13923
ект	-9.14206
▁(20	-9.14233
чаны	-9.14379
ус	-9.14387
53	-9.14416
▁ц	-9.14551
▁%)	-9.14589
▁нарадзіўся	-9.14614
вары	-9.14875
▁1919	-9.15036
роз	-9.15138
▁клас	-9.15261
▁дзякуючы	-9.15272
▁менавіта	-9.15272
лей	-9.1534
▁адказ	-9.15352
льныя	-9.1571
▁збор	-9.15761
ткі	-9.15801
▁паход	-9.15805
стве	-9.15808
нда	-9.15958
▁рада	-9.15964
▁значэнне	-9.16034
"».	-9.16048
авыя	-9.16124
▁герб	-9.16124
▁група	-9.16163
сен	-9.16195
вацца	-9.1637
ro	-9.16371
▁караля	-9.16431
гар	-9.16519
пла	-9.16548
▁наступ	-9.16609
ta	-9.16695
▁бі	-9.16702
▁галоўным	-9.16717
▁тады	-9.1693
льны	-9.17145
▁дзі	-9.1719
краін	-9.17474
▁сан	-9.17643
95	-9.17696
▁вялікім	-9.17757
▁гонар	-9.17776
▁1-	-9.17873
▁удзел	-9.17873
63	-9.17962
52	-9.17997
ланд	-9.18057
▁такія	-9.18126
ок	-9.18135
▁згодна	-9.18151
рад	-9.18272
ней	-9.18798
▁запіс	-9.18814
▁ўдзел	-9.18821
▁захад	-9.18873
▁лічыцца	-9.19023
сам	-9.19087
торы	-9.19117
▁адносна	-9.19159
▁дуб	-9.19222
вую	-9.19376
ванні	-9.19448
▁добра	-9.19458
51	-9.19645
ей	-9.19758
ол	-9.19823
бры	-9.19874
тыка	-9.19895
▁цела	-9.19909
▁рэспубліка	-9.19914
свет	-9.19917
▁архі	-9.19954
ова	-9.19976
▁тэмпература	-9.19996
кон	-9.20114
▁прамысловасці	-9.20143
шу	-9.20148
▁нацыянальнай	-9.20202
▁40	-9.2033
▁мал	-9.20521
05	-9.2053
▁ролю	-9.20552
▁школы	-9.20611
езд	-9.2067
▁закон	-9.20985
▁вільні	-9.20987
чо	-9.21062
»).	-9.21264
цін	-9.21367
▁дзён	-9.21487
сія	-9.21562
▁многія	-9.21603
▁нягледзячы	-9.21603
▁1917	-9.21741
▁межах	-9.21842
▁m	-9.21911
чэнне	-9.21914
▁цэнтральнай	-9.21919
рэй	-9.22008
▁шлях	-9.22024
▁пачалі	-9.22108
▁дом	-9.22109
▁xx	-9.22136
▁паўднёвай	-9.22239
2.	-9.22258
▁працэс	-9.22372
▁аўта	-9.2251
▁xvi	-9.22538
▁прэм	-9.22605
авання	-9.22854
▁кап	-9.23162
in	-9.23261
▁сілы	-9.2329
▁усё	-9.23522
веда	-9.23689
нды	-9.23724
▁кожны	-9.23795
▁становішча	-9.2384
▁вялікая	-9.23861
▁школа	-9.23895
▁відаў	-9.24034
na	-9.24064
▁вайну	-9.24154
▁гарадоў	-9.24163
іў	-9.24269
▁выра	-9.24282
▁2006	-9.24545
▁імператар	-9.24554
вілі	-9.24565
нс	-9.24667
фор	-9.24695
▁чаго	-9.24726
граф	-9.24785
01	-9.24926
▁праца	-9.24972
▁суб	-9.25146
▁упершыню	-9.25186
▁ваенна	-9.25199
дэмакраты	-9.2529
лад	-9.25573
вен	-9.25575
чны	-9.25601
09	-9.25631
тава	-9.25669
▁паўночным	-9.25741
нэ	-9.25961
▁спачатку	-9.26137
чка	-9.26214
льскі	-9.26416
▁прынцып	-9.26455
▁мову	-9.2658
▁від	-9.26931
тэн	-9.26956
▁рускай	-9.2697
▁розныя	-9.26976
▁народнай	-9.27027
▁экс	-9.27177
]	-9.2738
▁беразе	-9.274
03	-9.27427
ізм	-9.27465
ни	-9.27519
▁гарадскі	-9.27532
льнага	-9.27591
▁аснове	-9.27612
льную	-9.2785
бар	-9.27875
▁прыкладна	-9.27921
▁моў	-9.27978
▁землі	-9.28054
зія	-9.28129
▁шы	-9.28194
▁афіцыйна	-9.28283
▁эры	-9.2835
ўскі	-9.28365
▁хо	-9.28439
▁новага	-9.28457
▁грамадзян	-9.28551
сю	-9.28627
▁улады	-9.28728
віцкі	-9.28949
▁летапіс	-9.29025
02	-9.29042
▁v	-9.29073
▁першая	-9.29148
▁стары	-9.29371
кова	-9.29407
▁дзяцей	-9.29445
цкім	-9.29448
%	-9.29456
нення	-9.29637
ымі	-9.29688
j	-9.29695
▁2008	-9.2972
▁зборнік	-9.2974
ары	-9.29766
ch	-9.29833
▁ўлады	-9.29908
08	-9.29924
▁ін	-9.2999
▁агульна	-9.3006
h	-9.30102
▁мяжы	-9.30104
▁шу	-9.30168
рава	-9.30209
="19	-9.30251
▁радыё	-9.30278
▁памер	-9.30572
ti	-9.30577
▁2000	-9.30842
▁станцыі	-9.30893
▁роду	-9.30935
▁самых	-9.30965
▁мноства	-9.30979
каля	-9.30979
ненне	-9.31036
▁знаходзяцца	-9.31089
▁царква	-9.31096
▁рацэ	-9.31178
трыма	-9.31222
чкі	-9.31332
▁народа	-9.31355
▁камен	-9.31473
w	-9.31561
▁іван	-9.31597
▁1941	-9.31666
ас	-9.31715
▁пачатак	-9.31755
лет	-9.31771
тай	-9.31778
▁паселішча	-9.31866
▁займае	-9.31889
рус	-9.3199
▁1920	-9.31997
▁гарады	-9.32
▁самым	-9.32083
▁раб	-9.3224
▁жыў	-9.32375
рон	-9.3238
▁a	-9.32389
▁іншымі	-9.32412
▁асоб	-9.32492
▁станцыя	-9.32547
далі	-9.3259
▁сцяг	-9.32645
▁неўзабаве	-9.32649
▁уваходзіць	-9.32763
від	-9.32806
▁касцёл	-9.3295
▁існуе	-9.32986
▁бнр	-9.32987
▁пабудаваны	-9.331
евіч	-9.3317
▁пачаўся	-9.33285
нта	-9.33327
▁уладзімір	-9.3337
▁краіна	-9.33389
▁сярэдняя	-9.33409
энне	-9.33476
▁будзе	-9.33581
чных	-9.33664
▁праект	-9.33716
▁1944	-9.33821
скаму	-9.33978
▁кары	-9.34046
▁часы	-9.34135
▁29	-9.34203
▁вуліцы	-9.34205
▁дзяржаўнай	-9.34271
▁сучаснай	-9.34355
нуты	-9.34375
▁свет	-9.3442
нцаў	-9.34443
▁хрысціян	-9.3445
аваць	-9.34566
07	-9.34625
▁чы	-9.34686
▁xviii	-9.34696
▁адначасова	-9.34805
06	-9.3481
▁прэзідэнт	-9.34913
▁герман	-9.34966
▁такіх	-9.35077
▁(15	-9.35133
▁пал	-9.35133
▁плошчы	-9.35151
▁нью	-9.35162
ат	-9.35183
▁краіне	-9.35201
пан	-9.35225
▁кру	-9.3531
▁пераход	-9.35442
▁b	-9.35564
стэр	-9.35812
аюць	-9.35892
тон	-9.35908
▁тытул	-9.3591
каза	-9.35944
▁комплекс	-9.3596
▁аляксандра	-9.35965
▁ўлада	-9.36084
▁вытворчасці	-9.36092
аванне	-9.36098
▁дра	-9.36288
▁хар	-9.3636
▁кіравання	-9.36476
▁прэзідэнта	-9.36537
▁характар	-9.36563
▁кнігі	-9.36625
чыў	-9.36644
▁ян	-9.36664
▁форма	-9.36783
▁ваяводства	-9.36785
°	-9.36788
▁разгляд	-9.36809
▁май	-9.3683
▁савет	-9.37022
жо	-9.37079
▁xvii	-9.37202
▁адміністрацыйна	-9.37245
ваюцца	-9.37294
▁паўднёвы	-9.37308
радзі	-9.37349
="20	-9.37364
us	-9.37388
▁кніга	-9.37452
маў	-9.37475
▁гэтая	-9.3748
▁2007	-9.37564
▁груп	-9.3762
▁края	-9.37648
▁паверхні	-9.37665
рам	-9.37744
ni	-9.37783
▁беларуская	-9.37828
йскі	-9.37866
st	-9.37978
▁адкрыты	-9.38079
кс	-9.38103
▁абраны	-9.38122
▁(;	-9.38145
▁першага	-9.38268
▁спіс	-9.38397
ведзены	-9.38523
цу	-9.38536
ілі	-9.38542
тамі	-9.38566
04	-9.38572
▁дзяржаўнага	-9.38659
▁адно	-9.3866
▁мінск	-9.38688
мес	-9.38711
▁ген	-9.3875
▁старажытна	-9.3875
шта	-9.38767
▁нацыянальнага	-9.38919
▁чу	-9.3906
цыяй	-9.39141
▁ўсходзе	-9.39236
льным	-9.39256
▁цэнтры	-9.39298
стро	-9.39318
▁эканоміка	-9.39384
▁люб	-9.39386
▁1939	-9.39409
li	-9.39409
▁сонца	-9.39426
ли	-9.39467
бін	-9.39501
▁азёр	-9.39623
▁паўднёвым	-9.39637
лом	-9.39689
▁1940	-9.39778
жу	-9.3994
цтва	-9.4002
▁нар	-9.4003
▁сталіца	-9.40143
▁партыя	-9.40246
▁1921	-9.40374
▁000	-9.40386
▁інтэр	-9.40395
▁паўстання	-9.40419
▁каралеўства	-9.40466
бір	-9.40515
ой	-9.40554
▁мана	-9.40572
іх	-9.40637
еры	-9.40729
▁кір	-9.40761
лан	-9.41151
эль	-9.41225
▁вакол	-9.41232
▁літвы	-9.41294
асць	-9.41318
▁iv	-9.41371
быт	-9.41376
▁літ	-9.41475
▁замак	-9.41479
ваны	-9.41492
▁ара	-9.41518
пол	-9.41546
час	-9.41552
▁зямель	-9.41582
▁імператара	-9.4166
▁твораў	-9.41666
▁новай	-9.41868
="18	-9.41909
▁тысячагоддзя	-9.41939
▁знак	-9.42078
ван	-9.42101
цкіх	-9.42124
▁вялікую	-9.42187
▁працу	-9.42312
валь	-9.42411
▁прызначаны	-9.42433
="21	-9.42452
▁грэ	-9.42563
слав	-9.42639
▁грамадства	-9.42696
▁самы	-9.427
весці	-9.42723
▁2009	-9.42745
кевіч	-9.42753
▁мара	-9.42779
▁курс	-9.4278
▁некалькіх	-9.42838
▁мястэчка	-9.42929
="17	-9.42948
»),	-9.42966
▁выглядзе	-9.43003
▁палац	-9.43081
▁св	-9.43115
цкія	-9.43188
▁галі	-9.43191
▁цяжка	-9.43195
рэз	-9.43222
▁кас	-9.4349
гон	-9.43533
▁паўночны	-9.43547
▁ўніверсітэта	-9.43624
▁цэнтра	-9.43664
жэн	-9.43673
▁поўдзень	-9.43679
ніча	-9.43688
▁крэ	-9.43884
цамі	-9.43891
джы	-9.44055
▁тыпу	-9.44146
▁сацыяльна	-9.44328
ri	-9.44332
▁ніжэй	-9.44448
ізацыі	-9.44449
▁усходзе	-9.44468
▁расійскі	-9.44513
on	-9.44614
▁кал	-9.44664
▁см	-9.44744
оль	-9.44757
▁практычна	-9.44942
выкарыстоўваецца	-9.45234
зм	-9.45368
джэ	-9.4557
дру	-9.45578
▁адносіны	-9.45624
▁бія	-9.45625
білі	-9.45652
▁[	-9.45674
ган	-9.45684
▁бок	-9.45685
▁знаходзіўся	-9.45834
ані	-9.45951
▁шматлікія	-9.45962
▁рашэнне	-9.46
пер	-9.46133
вец	-9.46259
▁сваё	-9.46342
▁камп	-9.46393
▁арганізацыя	-9.46476
—17	-9.46501
▁парк	-9.46522
▁звязана	-9.46603
лак	-9.46667
▁славян	-9.46859
тр	-9.46873
▁русі	-9.46885
▁пісаў	-9.47139
▁кам	-9.47177
▁прыняў	-9.47208
▁ўрада	-9.47213
▁эканамічны	-9.47239
▁кароль	-9.47259
значэнні	-9.47289
▁размешчана	-9.47383
▁прыватнасці	-9.47417
▁p	-9.47448
▁свята	-9.47529
▁шлюб	-9.47621
овіч	-9.47829
рын	-9.4792
▁электра	-9.4795
лам	-9.48004
▁адпаведна	-9.48083
▁ката	-9.48096
▁акіяна	-9.4811
▁нацыянальна	-9.48157
▁пасаду	-9.48228
пя	-9.48233
▁сум	-9.48258
жаны	-9.48304
▁формы	-9.48338
чых	-9.48376
▁нашай	-9.484
▁няма	-9.48425
▁пап	-9.4845
анне	-9.48486
▁культура	-9.48554
▁спраў	-9.48789
▁войскамі	-9.48873
▁вялікія	-9.48874
▁2005	-9.48899
▁распа	-9.48909
▁дапамогай	-9.48988
▁пан	-9.49012
▁віцебскай	-9.49064
▁альбо	-9.49084
▁справа	-9.49114
лік	-9.49133
▁пят	-9.49334
▁стварэння	-9.49354
="27	-9.49386
▁чаргу	-9.49417
▁цэ	-9.49485
▁поспех	-9.49487
араб	-9.4961
▁музей	-9.49621
▁праграм	-9.49643
лка	-9.49725
▁новыя	-9.49741
▁назвай	-9.49787
ne	-9.49808
▁2010	-9.49829
▁каз	-9.49831
▁фе	-9.49831
жан	-9.49854
te	-9.49995
▁даўжыня	-9.5002
▁рэвалюцыі	-9.50024
авана	-9.50042
тор	-9.50118
▁часткай	-9.50156
▁усіх	-9.50245
▁войскаў	-9.50249
асці	-9.50272
▁патрэб	-9.50299
▁маса	-9.503
рыс	-9.50315
лек	-9.50384
авалі	-9.50395
нец	-9.50396
ева	-9.50422
▁многіх	-9.5069
▁адбылося	-9.50825
▁клуб	-9.50827
▁карэ	-9.50882
дзін	-9.50951
арэ	-9.5098
стру	-9.51032
▁італіі	-9.51103
ір	-9.5115
▁граф	-9.51156
лых	-9.51299
екты	-9.51351
▁ngc	-9.51476
▁загад	-9.515
▁мужчын	-9.51508
▁буд	-9.51525
▁це	-9.51578
▁сярэдзіне	-9.51706
заходні	-9.5172
▁бес	-9.51793
ічны	-9.51855
рун	-9.51913
▁мм	-9.51965
рак	-9.51969
▁2004	-9.51969
ніцкі	-9.52122
эт	-9.52123
▁мог	-9.52126
▁паказ	-9.52166
▁міжнародны	-9.52189
▁першую	-9.52338
стэ	-9.52431
▁імперыя	-9.52454
мон	-9.52456
ром	-9.52517
▁момант	-9.5258
="23	-9.52637
▁пункт	-9.52729
▁ступені	-9.52731
▁пру	-9.52739
▁творчасць	-9.52887
тыя	-9.52895
авала	-9.53102
▁часоў	-9.5311
▁ўплыў	-9.53141
▁адбыўся	-9.53142
="26	-9.53153
="22	-9.53196
гер	-9.532
▁60	-9.53318
лёў	-9.53351
▁прыток	-9.5336
▁ал	-9.53383
▁арганізацый	-9.53417
авы	-9.5349
шко	-9.53547
▁першапачаткова	-9.53555
▁паступова	-9.53694
▁палове	-9.53697
▁0	-9.53727
▁гурт	-9.53784
▁павет	-9.53821
насцю	-9.53829
▁адукацыі	-9.53971
▁вярнуўся	-9.53971
▁кампаніі	-9.53972
▁беларускую	-9.53973
▁называ	-9.53974
калі	-9.54096
▁атрымалі	-9.54252
чага	-9.5429
▁інстытут	-9.54346
бер	-9.54391
▁выкарыстанне	-9.54404
▁палітыка	-9.54426
▁акругі	-9.54502
▁ап	-9.54517
▁будынак	-9.54529
вія	-9.54532
▁сына	-9.54569
▁песні	-9.5467
мова	-9.54696
мор	-9.54723
▁дз	-9.54742
▁івана	-9.54775
▁нумар	-9.54798
▁заснавана	-9.54799
▁паходжання	-9.54809
▁тэкст	-9.54811
▁прамысловасць	-9.54838
▁жывёл	-9.54937
▁спе	-9.54939
▁азіі	-9.54963
▁мэтай	-9.55014
сар	-9.55097
▁(16	-9.55102
▁канфлікт	-9.5523
▁лес	-9.55241
чына	-9.55328
▁пасёлак	-9.55371
▁апошнія	-9.55388
чнае	-9.55407
яр	-9.55517
▁прынята	-9.5552
▁савецкай	-9.5552
▁бур	-9.55565
гры	-9.5563
пр	-9.55677
▁тых	-9.55699
парт	-9.55729
ніцтва	-9.55792
арган	-9.55856
дэр	-9.55883
▁f	-9.55951
▁інстытута	-9.56001
▁акадэміі	-9.56079
▁першых	-9.56174
ара	-9.56263
вана	-9.56381
ленні	-9.56531
дка	-9.56535
лем	-9.56548
▁сабе	-9.56607
дат	-9.56612
эй	-9.56616
ўны	-9.56629
от	-9.56698
▁куп	-9.5678
▁кошт	-9.56796
іла	-9.56842
▁колер	-9.56875
ваецца	-9.56944
▁падзел	-9.5699
мала	-9.56996
▁фон	-9.57022
бро	-9.57168
ляюць	-9.5724
рскі	-9.573
▁паходжанне	-9.57364
▁абароны	-9.57365
▁вядомыя	-9.57372
▁усяго	-9.57373
="25	-9.57427
▁удзельнік	-9.57435
шоў	-9.57487
▁трэці	-9.57547
лер	-9.57576
▁гэту	-9.57638
хан	-9.57639
▁доўгі	-9.57655
баро	-9.57674
рок	-9.57677
▁выпадку	-9.57797
ючыся	-9.57947
▁еўра	-9.57963
▁прадстаўнікоў	-9.57974
▁стан	-9.57975
▁астравы	-9.58016
▁ўсёй	-9.58107
дан	-9.58157
▁фільм	-9.58289
▁далей	-9.5834
зо	-9.58371
▁астра	-9.58476
лялі	-9.58479
▁вало	-9.58555
▁тай	-9.58638
раж	-9.58687
▁ордэна	-9.5876
▁кіраўнік	-9.58792
▁напісаў	-9.58821
беларускі	-9.58879
▁сы	-9.58907
▁незалежнасці	-9.59002
▁чыта	-9.59048
▁апошні	-9.5912
▁гер	-9.59126
▁200	-9.59127
дам	-9.59166
▁традыцый	-9.59183
▁гандлёвы	-9.59242
вога	-9.59301
ксі	-9.59306
▁ч	-9.59317
▁бацькі	-9.594
▁апо	-9.59416
▁кіраўніцтвам	-9.59422
▁1991	-9.59428
▁выбар	-9.59528
▁паўста	-9.59582
▁палі	-9.59597
▁культурна	-9.59672
лагічна	-9.59716
▁мэ	-9.59722
нін	-9.59725
лівы	-9.5974
▁тан	-9.59794
▁выпуск	-9.59801
▁арыштаваны	-9.59873
саў	-9.59903
▁цк	-9.59964
хава	-9.6009
or	-9.60131
▁свабод	-9.60133
тэк	-9.60328
даць	-9.60379
тура	-9.60388
▁сем	-9.60439
яць	-9.60468
маты	-9.60501
хар	-9.60616
="16	-9.60629
▁газеты	-9.6066
▁роўна	-9.60664
ічных	-9.60687
талі	-9.60715
▁кампанія	-9.60876
явіліся	-9.60938
слава	-9.61008
ядна	-9.61015
▁польскага	-9.61062
▁+	-9.61068
лава	-9.61096
▁сузор	-9.61125
▁пісьменнік	-9.6117
жыва	-9.61177
▁думку	-9.61178
авай	-9.61182
▁%,	-9.61218
▁транс	-9.61242
▁геаграфія	-9.61328
▁хто	-9.61381
дня	-9.61473
="28	-9.61544
▁чатыры	-9.61625
▁тэорыі	-9.61773
▁змен	-9.61793
іна	-9.61805
▁вершы	-9.61851
літ	-9.6188
оўка	-9.61898
ia	-9.61948
▁аку	-9.62059
кін	-9.62105
▁трыма	-9.62127
апа	-9.62232
віла	-9.62271
▁лацін	-9.62283
▁складаюць	-9.62292
▁вышэй	-9.62307
▁акт	-9.62387
ca	-9.62489
чным	-9.62538
="29	-9.62544
▁выкарыстоўва	-9.6268
анты	-9.62747
клі	-9.62804
▁народаў	-9.62829
▁вялікабрытаніі	-9.62831
▁дзесяцігоддзя	-9.62831
▁гідра	-9.62884
▁тэрыторыю	-9.62983
▁гаспадаркі	-9.63043
ал	-9.63065
▁машын	-9.63119
▁даволі	-9.63145
="24	-9.63173
▁дзеля	-9.63181
эр	-9.63182
скімі	-9.63192
ання	-9.63218
▁порт	-9.63275
пала	-9.63354
▁шырокі	-9.63441
вое	-9.63463
▁французскі	-9.63489
▁ўніверсітэт	-9.63506
овыя	-9.63521
▁прадпрыемствы	-9.63594
▁вышыні	-9.63597
▁31	-9.63671
▁гісторык	-9.63724
▁татар	-9.63743
▁зрабіў	-9.63748
▁вар	-9.63945
▁паветра	-9.63978
▁факт	-9.64043
▁буйны	-9.64116
ізму	-9.64132
мінск	-9.64159
▁пля	-9.6418
ец	-9.64231
▁1924	-9.64235
твор	-9.64255
▁метраў	-9.64323
▁навукі	-9.64338
▁сур	-9.64458
цкую	-9.64552
▁кро	-9.64562
▁гісторыка	-9.64692
▁стст	-9.64697
▁будучы	-9.64763
▁канал	-9.64812
▁устаноў	-9.64832
явілася	-9.64832
▁жыцці	-9.64833
ваючы	-9.64876
▁край	-9.65063
▁цяперашні	-9.65135
▁каро	-9.65186
▁яно	-9.65198
▁вол	-9.65267
▁значыць	-9.65298
▁1943	-9.65316
▁гадзін	-9.65334
берг	-9.65398
нства	-9.65457
▁1990	-9.65507
▁паэта	-9.65508
кер	-9.65557
альны	-9.65617
меж	-9.65654
▁моцны	-9.65704
сель	-9.65813
вічы	-9.65828
▁тро	-9.65849
▁ваенны	-9.65895
▁адбылася	-9.65916
▁вера	-9.65957
▁правіла	-9.65969
палі	-9.65977
свя	-9.66035
▁пераклад	-9.66058
▁знаходзілася	-9.66229
▁конкурс	-9.66232
="10	-9.66273
▁тар	-9.66359
гн	-9.66375
▁(2005).	-9.66386
▁фактычна	-9.66388
▁незалежнасць	-9.66414
▁дамен	-9.66457
▁князёў	-9.66543
▁беларусаў	-9.66554
▁сярэдняй	-9.66558
▁бітва	-9.66575
▁сельскай	-9.66589
тру	-9.66637
тым	-9.66654
▁поўнач	-9.66683
ляр	-9.66706
▁пэўны	-9.66725
рк	-9.66769
кія	-9.66776
нам	-9.66804
▁перыяду	-9.66839
крыты	-9.6686
ствы	-9.66893
▁звязаны	-9.66956
▁сін	-9.67051
lo	-9.67109
▁камітэта	-9.67115
▁беларускім	-9.67121
спе	-9.67141
ель	-9.67183
▁кур	-9.67199
▁вайне	-9.67203
звыш	-9.67243
▁кв	-9.67317
▁факультэт	-9.67334
нікам	-9.67371
▁творчасці	-9.67378
▁клі	-9.6739
роб	-9.67458
▁фла	-9.67522
▁павінна	-9.6754
віна	-9.67613
▁ваенных	-9.6762
ацыя	-9.67639
▁вялікіх	-9.67682
▁(1	-9.67695
▁дагавор	-9.67696
міра	-9.67696
цця	-9.67702
дара	-9.67766
▁навуковы	-9.67874
▁правы	-9.67967
пара	-9.67978
▁газета	-9.68062
▁мак	-9.68109
gt	-9.68127
▁грамадска	-9.68131
▁ўласна	-9.6822
▁стварэнне	-9.6822
▁прэ	-9.68243
▁другога	-9.68453
▁чатырох	-9.68453
▁чэмпіён	-9.68453
▁сельскагаспадар	-9.68453
анта	-9.68491
рд	-9.6855
▁варыянт	-9.68614
▁новых	-9.68674
она	-9.68704
нскіх	-9.68732
баран	-9.68756
▁геа	-9.68762
▁вучыўся	-9.68775
▁высока	-9.68825
нова	-9.68953
▁лёс	-9.68953
▁партый	-9.68994
▁адкрыта	-9.69002
куп	-9.6905
▁пётр	-9.69098
▁украіны	-9.69109
лісты	-9.69189
▁пятра	-9.69192
фарм	-9.69211
▁камітэт	-9.69321
▁урад	-9.69339
▁магчымасць	-9.69357
▁членам	-9.69366
▁часткова	-9.69422
▁метад	-9.69567
яс	-9.69584
вялі	-9.69588
▁кле	-9.69645
▁мер	-9.69676
мент	-9.69714
▁васіль	-9.69783
льна	-9.69816
гадовы	-9.69818
біт	-9.6983
▁рэй	-9.6986
авым	-9.69873
▁выгляд	-9.7002
служ	-9.70087
▁атрад	-9.70175
co	-9.70202
стар	-9.7021
▁1926	-9.70268
▁нямецкай	-9.70284
чылі	-9.70289
▁акіян	-9.70325
▁чорны	-9.7033
кара	-9.7035
мера	-9.7036
▁слуцк	-9.70383
каўскі	-9.7041
▁матэрыял	-9.70671
▁млрд	-9.70727
▁сёння	-9.70759
овага	-9.70762
▁навукова	-9.7077
▁vi	-9.70864
▁востраў	-9.70894
▁вышэйшы	-9.70919
▁пачынаецца	-9.70934
▁рускі	-9.71045
▁паколькі	-9.71057
іяй	-9.71141
▁тон	-9.7116
наму	-9.71291
тку	-9.71295
вёў	-9.71312
чыя	-9.71333
▁святога	-9.71391
▁работ	-9.71525
▁большасці	-9.7164
▁нова	-9.71665
▁нафта	-9.71737
▁прадмет	-9.71737
000	-9.7174
▁бя	-9.71761
="15	-9.71778
▁наступныя	-9.71838
▁сакратар	-9.71866
тую	-9.71891
вор	-9.71924
прэ	-9.72001
іка	-9.72022
▁рымскі	-9.72033
▁мусульман	-9.72041
▁старшыня	-9.72053
▁ахвяр	-9.72064
крыва	-9.7209
▁прыняты	-9.72203
▁пяці	-9.72211
▁бру	-9.72219
рма	-9.72322
▁узнік	-9.72381
▁ўсяго	-9.72399
▁паўла	-9.72406
▁бога	-9.72431
▁былы	-9.72467
▁шар	-9.72518
овых	-9.7252
▁агульнай	-9.72533
▁спосаб	-9.72552
▁сар	-9.72557
▁адразу	-9.72558
чана	-9.72598
▁но	-9.72605
▁пачала	-9.72622
фер	-9.72702
▁амерыканскі	-9.72719
▁фу	-9.72868
="30	-9.72916
▁1945	-9.72917
▁рымскай	-9.72918
▁лагер	-9.72964
▁удзельнічаў	-9.73004
тны	-9.73014
▁лёгка	-9.73055
як	-9.73089
▁выдання	-9.73098
гадова	-9.73113
▁белы	-9.73118
▁прадстаўнікі	-9.73198
me	-9.73329
нуў	-9.73331
▁краінах	-9.73341
▁куб	-9.73407
▁перша	-9.73481
жыў	-9.73507
тэра	-9.73515
▁ўзроўню	-9.73561
▁галоўны	-9.73655
▁наведва	-9.7372
▁мікалай	-9.7373
▁прац	-9.73771
▁існавала	-9.739
ka	-9.73902
▁індыі	-9.73914
▁верасні	-9.74071
тана	-9.74087
▁тып	-9.74093
чэнні	-9.741
▁кор	-9.74128
▁дакладна	-9.74152
рт	-9.74217
▁прычыны	-9.74223
▁руска	-9.74232
▁лю	-9.74237
́н	-9.74399
ліз	-9.74401
▁банк	-9.74492
йскага	-9.74535
▁віцебска	-9.74541
▁канчаткова	-9.74631
▁проста	-9.74698
▁кітай	-9.7471
▁ата	-9.74724
ектаў	-9.74749
▁франк	-9.74788
▁вострава	-9.74805
▁адзінка	-9.74812
лян	-9.74842
▁сер	-9.74894
коўскі	-9.74911
▁народны	-9.74919
▁твор	-9.74921
аванні	-9.74975
▁прыклад	-9.75258
▁манастыр	-9.7526
▁вытворчасць	-9.75262
▁распаўсюджаны	-9.75266
▁самастойна	-9.75269
▁агульны	-9.75292
▁сто	-9.75297
май	-9.7532
▁традыцыйна	-9.7535
оўскага	-9.75412
▁усходняй	-9.75438
▁звесткі	-9.75439
▁3-	-9.75452
="14	-9.75467
▁1938	-9.75478
фра	-9.75505
▁300	-9.75513
▁вылуча	-9.7557
▁належыць	-9.75611
▁дыялект	-9.75611
▁культур	-9.75764
▁марскі	-9.75797
▁мясцовых	-9.75804
мур	-9.75861
▁штаб	-9.75892
▁грамадскі	-9.759
▁невялікі	-9.75913
▁h	-9.75944
▁бер	-9.75945
▁ападкаў	-9.75957
▁пакінуў	-9.75958
нута	-9.76013
▁(),	-9.76087
▁вобраз	-9.76132
▁бел	-9.76225
дом	-9.76266
▁фра	-9.76272
пас	-9.76294
▁снежні	-9.76303
▁2001	-9.76337
стой	-9.76342
чат	-9.76405
▁значны	-9.76443
▁кіраўніцтва	-9.76449
▁буйных	-9.7645
рос	-9.76495
▁іслам	-9.76566
аваныя	-9.76626
▁тру	-9.76674
▁пачалося	-9.76687
твара	-9.76693
екта	-9.76693
сер	-9.76821
▁этап	-9.76904
▁2011	-9.76937
даецца	-9.76943
віль	-9.76948
шэнне	-9.76983
▁скасаваны	-9.77001
▁стане	-9.77043
▁пахаваны	-9.77046
▁паўночнага	-9.77085
▁палон	-9.77205
бал	-9.77297
ет	-9.77305
▁хімічны	-9.77385
▁1992	-9.77393
цяпер	-9.77415
▁сала	-9.77463
▁палітычных	-9.77472
▁блізкі	-9.77527
▁правінцыі	-9.77527
▁рэгіён	-9.77529
туры	-9.7766
▁вучылішча	-9.77703
▁найбуйнейшы	-9.77837
▁пачалася	-9.77841
is	-9.7785
▁вялікае	-9.7787
▁верагодна	-9.7788
▁выступаў	-9.779
un	-9.7798
▁g	-9.77998
нога	-9.78136
дала	-9.78193
раджа	-9.78222
mo	-9.78327
▁замежных	-9.78376
пс	-9.78396
кор	-9.7841
▁ліпені	-9.78411
▁80	-9.78458
шых	-9.7858
▁астравоў	-9.78588
▁дзеянні	-9.78592
▁слаба	-9.78597
ніі	-9.78635
▁маста	-9.78647
мас	-9.78676
da	-9.78714
▁савецкага	-9.78772
езда	-9.78799
рыка	-9.78804
▁суда	-9.78812
льскага	-9.78815
намі	-9.78823
▁раёнах	-9.78857
▁2002	-9.78899
трэ	-9.78922
▁непасрэдна	-9.78944
▁дрэва	-9.78946
▁1999	-9.78986
▁збіра	-9.78993
▁стварыў	-9.79085
▁x	-9.79092
▁вага	-9.79125
▁1930	-9.79182
▁(2	-9.79238
▁апісанне	-9.79302
гуль	-9.79353
▁уладзіміра	-9.79376
▁нава	-9.79398
▁губерня	-9.79447
шын	-9.79482
▁санкт	-9.79483
нёс	-9.79545
▁шляхам	-9.79581
дзіў	-9.79602
цкае	-9.79616
▁груз	-9.79663
▁вал	-9.79687
ўскай	-9.7973
▁форму	-9.79773
сіі	-9.79798
▁уласна	-9.79836
▁лепш	-9.79853
кавы	-9.79894
▁выхад	-9.79898
▁тыя	-9.7991
про	-9.79919
▁віды	-9.79967
▁маскве	-9.80021
▁паста	-9.80063
ходзяць	-9.80074
▁літоўскі	-9.80102
▁вышыня	-9.80208
▁ўсім	-9.80227
мана	-9.80237
▁500	-9.80287
лагічны	-9.803
▁вярхоўна	-9.8031
at	-9.80332
▁цэнтральны	-9.8035
нікамі	-9.80431
▁менск	-9.80434
ос	-9.8048
▁нясвіж	-9.80564
▁сакавіку	-9.80566
▁%.	-9.80579
▁раздзел	-9.80606
пал	-9.80662
▁шэрагу	-9.80698
▁гары	-9.80713
лоў	-9.80713
▁армян	-9.80831
град	-9.80879
▁орган	-9.80891
варот	-9.80907
бег	-9.81069
чырвона	-9.81069
падобны	-9.81099
гарад	-9.81101
▁малы	-9.81106
▁помнік	-9.81132
▁кніг	-9.81204
▁сталіцы	-9.81248
дон	-9.81315
▁цячэ	-9.81357
▁магілёў	-9.81391
тэры	-9.81419
▁новая	-9.81426
ma	-9.81436
▁першае	-9.81609
сны	-9.81627
▁студзені	-9.81657
латы	-9.81719
▁доўга	-9.81776
алогіі	-9.818
бел	-9.81854
ов	-9.8189
▁праходзіць	-9.82002
мене	-9.82019
▁вёсцы	-9.82024
▁сезон	-9.82029
▁жніўні	-9.82208
▁віленскага	-9.82209
▁падзеі	-9.82246
тва	-9.82302
метры	-9.8238
▁эпі	-9.8241
▁існуюць	-9.82578
▁вен	-9.82587
бург	-9.82657
гарод	-9.82665
▁звыш	-9.82666
мін	-9.82767
няй	-9.82801
ўка	-9.82848
▁пратэст	-9.82855
віта	-9.8291
▁віленскі	-9.8296
зава	-9.82991
ol	-9.8309
▁сві	-9.83116
▁блізка	-9.83135
▁кастрычніку	-9.83138
ie	-9.83191
лёт	-9.83246
зіра	-9.83252
="11	-9.83279
▁жыхары	-9.83329
маг	-9.83389
▁кірава	-9.8339
▁дадзеных	-9.83429
авая	-9.83488
▁прыход	-9.83512
фар	-9.83535
чар	-9.83539
аўскі	-9.83584
▁вене	-9.836
▁захоп	-9.83619
▁членаў	-9.83624
рады	-9.83668
vi	-9.83714
▁францыя	-9.83725
to	-9.8373
▁берлін	-9.83769
▁раёнаў	-9.83805
▁улада	-9.83883
▁полі	-9.83908
▁літаратурна	-9.83984
ступіў	-9.8399
цам	-9.83998
▁буйныя	-9.84016
овай	-9.84068
▁прыкмет	-9.84069
слоў	-9.84071
▁большая	-9.8411
▁асноўных	-9.84148
грэ	-9.84177
▁ган	-9.84257
нюю	-9.8426
меркаван	-9.84317
ўская	-9.84433
▁палітычнай	-9.84454
▁армія	-9.84571
фу	-9.84572
сон	-9.84676
логіі	-9.84702
▁сталіцай	-9.84707
▁сістэму	-9.84767
чае	-9.84794
▁ваеннай	-9.84863
стыя	-9.84954
▁ўпершыню	-9.85012
ёў	-9.85088
no	-9.85094
▁шэ	-9.85096
тычныя	-9.85109
▁баг	-9.85112
гро	-9.85161
зар	-9.85168
▁актыўны	-9.85286
мба	-9.85302
паль	-9.85406
шага	-9.85421
▁усход	-9.85432
▁брат	-9.85436
нку	-9.85479
▁тэатра	-9.85557
▁маі	-9.85557
горад	-9.85568
▁дырэктар	-9.85583
▁шматлікіх	-9.85583
рка	-9.85623
ненні	-9.85626
es	-9.85644
▁сек	-9.85653
▁70	-9.8566
▁мастак	-9.8569
▁эр	-9.85748
▁xv	-9.85761
▁пецярбург	-9.85761
▁замест	-9.85777
▁мэта	-9.85804
сцямі	-9.8583
▁кола	-9.8586
▁змены	-9.85878
▁маскоўскай	-9.85899
ть	-9.86002
▁выбарах	-9.86082
▁павінны	-9.8616
▁літаратура	-9.8616
▁парыж	-9.86174
▁1954	-9.86198
▁трэба	-9.86211
бр	-9.86256
чаў	-9.86287
▁барацьбы	-9.86348
хара	-9.86364
эл	-9.86429
▁француз	-9.86451
оўкі	-9.86458
іл	-9.86487
▁адбываецца	-9.86541
▁федэрацыі	-9.86553
▁агульная	-9.86611
▁дзеянняў	-9.86649
вал	-9.86711
▁германія	-9.86718
▁планеты	-9.86723
▁выйшла	-9.86733
графіі	-9.8675
▁рост	-9.8677
"»,	-9.86795
▁рым	-9.86804
▁цу	-9.86846
▁крыжа	-9.86852
▁сельсаветы	-9.86858
аты	-9.8686
дэль	-9.86936
▁лютым	-9.86936
▁выкарыста	-9.86962
трап	-9.8697
▁(14	-9.87021
▁канец	-9.87026
▁лічыць	-9.87043
▁бітве	-9.87122
яднання	-9.87157
права	-9.87227
▁эканомікі	-9.87313
мах	-9.87414
▁de	-9.87431
▁разоў	-9.87432
▁электрон	-9.87449
▁віленскай	-9.87508
▁побач	-9.87508
▁чырвонай	-9.87521
чая	-9.87569
▁рэформ	-9.87605
фран	-9.87644
▁2003	-9.87677
▁сімвал	-9.87713
▁1960	-9.8775
▁драўляны	-9.87762
ми	-9.87786
▁брагін	-9.87803
▁польска	-9.8794
нга	-9.87998
▁сцяга	-9.88031
▁гісторыю	-9.88092
▁пытанне	-9.88092
саюз	-9.88105
▁1927	-9.88129
▁называюць	-9.88143
зв	-9.88199
▁дынастыі	-9.88288
▁міністэрства	-9.88288
▁xiv	-9.88296
пор	-9.88331
рож	-9.88333
ходзіць	-9.88349
▁прэзідэнтам	-9.88351
ter	-9.88388
▁дня	-9.88411
▁паўстанне	-9.88483
▁кангрэс	-9.88486
▁сім	-9.88489
▁гера	-9.88527
цвер	-9.88588
▁займаўся	-9.88759
▁беларускія	-9.88905
лос	-9.88943
▁эмі	-9.88959
бой	-9.88975
▁царства	-9.88977
ўшыся	-9.88992
цар	-9.88993
▁чэ	-9.89004
▁дазвол	-9.89054
▁згадваецца	-9.89075
▁гарадах	-9.8908
▁брэ	-9.89089
▁забіты	-9.8909
ліў	-9.89184
пісан	-9.89189
▁намеснік	-9.89239
▁салдат	-9.89273
шаны	-9.89298
▁1995	-9.89346
▁паходзіць	-9.89357
ви	-9.89444
▁рэдактар	-9.89454
▁такі	-9.89476
глыб	-9.89538
▁названы	-9.89578
льд	-9.8958
воль	-9.89628
▁чэрвені	-9.89669
▁выйшаў	-9.8967
▁маскоўскі	-9.8967
▁доктар	-9.89678
гін	-9.89704
чыне	-9.89774
▁культурны	-9.89807
▁xii	-9.89862
▁літаратурны	-9.89868
▁1993	-9.89911
▁сойм	-9.89921
▁пяць	-9.90014
▁еўрапейскі	-9.90141
▁людзі	-9.90155
▁яр	-9.90243
▁прамысловы	-9.90267
▁мац	-9.90273
▁1922	-9.90305
уюць	-9.90342
▁маглі	-9.90376
▁бен	-9.90393
▁сцен	-9.9043
▁гаспадарка	-9.90453
▁гарадскога	-9.90466
▁пабудавана	-9.90468
▁лінія	-9.90486
▁сярэдзіны	-9.90549
▁розна	-9.90588
▁другім	-9.90597
▁палітыкі	-9.90602
▁стагоддзяў	-9.90665
шай	-9.90693
▁заклік	-9.90758
бру	-9.90822
po	-9.90829
сацыя	-9.90848
▁артыкул	-9.90895
рна	-9.90896
▁ўладу	-9.90907
▁авія	-9.90985
▁рэкі	-9.90986
руч	-9.91037
▁айчыннай	-9.91069
▁глебы	-9.91091
▁часопіса	-9.91097
▁некаторы	-9.91097
▁генры	-9.91099
шаў	-9.91099
кала	-9.91156
▁напад	-9.91203
▁красавіку	-9.91273
▁прадпрыемства	-9.91306
кладзены	-9.91383
▁газ	-9.91396
▁іншым	-9.91412
▁гру	-9.91454
▁правёў	-9.91489
▁галоў	-9.91614
▁камісіі	-9.91676
крэс	-9.91786
▁ну	-9.9183
оры	-9.91863
▁кірунку	-9.91878
▁наяўнасц	-9.91885
шчыны	-9.91905
зэ	-9.91935
▁мінскага	-9.91945
ведзена	-9.91982
▁храм	-9.91994
▁крыніцы	-9.92001
▁другая	-9.92009
▁лічыў	-9.92051
▁баявы	-9.92131
▁ордэн	-9.92155
▁чырвоны	-9.9216
▁вуп	-9.92174
▁рэгіёна	-9.92205
▁склаў	-9.92238
▁асабіста	-9.92285
▁гульні	-9.9229
кавыя	-9.92304
▁гродзенскай	-9.92309
▁начальнік	-9.92361
▁ледавік	-9.92383
▁беларуска	-9.92421
▁лясы	-9.92423
el	-9.92427
▁іншага	-9.92466
▁сучаснага	-9.92474
нскае	-9.92482
▁асобы	-9.92485
▁вымушаны	-9.92489
▁значэння	-9.925
▁апа	-9.92522
таль	-9.92547
рына	-9.926
▁дні	-9.92605
▁апроч	-9.92694
▁цара	-9.9273
▁развіва	-9.92733
сава	-9.92743
▁варта	-9.92776
▁бага	-9.92808
мір	-9.92812
▁герба	-9.92845
▁іванавіч	-9.92921
сел	-9.92939
▁зборнай	-9.92942
▁грэцыі	-9.92949
▁крыніц	-9.92959
▁піса	-9.92968
▁пост	-9.92975
▁літоўскім	-9.93
істы	-9.93056
▁ганд	-9.93073
▁аэрапорт	-9.93103
▁тэатр	-9.93131
тварэнне	-9.93207
▁мяжуе	-9.93292
▁становіцца	-9.93309
▁даліна	-9.93339
▁пашыра	-9.93395
аючы	-9.93462
кру	-9.93481
▁гры	-9.93506
▁афіцыйны	-9.93595
кага	-9.93653
▁рыс	-9.93663
»".	-9.93681
▁святла	-9.9369
напрыклад	-9.93723
▁асі	-9.93733
ba	-9.93741
▁выдаў	-9.93766
▁юры	-9.93771
▁асобных	-9.93781
▁інда	-9.93795
▁ху	-9.93853
▁надзвычай	-9.93859
▁прэс	-9.93869
▁уплывам	-9.93929
▁стандарт	-9.93932
▁чыгуначна	-9.94001
de	-9.94108
▁амерыка	-9.94125
▁лад	-9.94149
▁багаты	-9.94264
▁пісьменнікаў	-9.94299
эс	-9.94318
пецярбург	-9.94355
▁рукапіс	-9.94358
фо	-9.94362
бель	-9.94365
▁меры	-9.94436
▁любо	-9.94463
▁палітычны	-9.94484
ружа	-9.94539
▁залежнасці	-9.94553
▁адрозненне	-9.94553
▁супрацоўнік	-9.94553
▁гродна	-9.94555
▁база	-9.94611
lt	-9.94659
▁друку	-9.94736
mi	-9.94739
▁працуе	-9.94771
▁віль	-9.94793
▁пакуль	-9.94798
тычных	-9.94812
цыйны	-9.94815
▁амерыкі	-9.94971
▁важна	-9.95004
▁заўсёды	-9.9501
▁1962	-9.95014
ож	-9.95056
▁пач	-9.95145
▁штат	-9.95147
каўказ	-9.95175
▁вынік	-9.95183
▁ідэі	-9.95235
рака	-9.95248
чыла	-9.95256
рэч	-9.95261
▁судна	-9.95298
▁папярэдні	-9.9539
▁сістэм	-9.95404
▁маг	-9.95438
йцы	-9.95468
▁рускіх	-9.95474
логія	-9.95498
▁падзелу	-9.95591
радзе	-9.95592
▁тэмпературы	-9.95595
▁жылі	-9.95644
▁мед	-9.95655
▁кандыдат	-9.95671
▁школе	-9.95728
▁ваенныя	-9.95739
▁князем	-9.95812
▁праваслаўнай	-9.95812
▁лістападзе	-9.95812
▁вада	-9.95843
▁адносін	-9.95869
фон	-9.95892
кама	-9.95892
▁карла	-9.95896
it	-9.95938
▁брэсцкай	-9.96023
▁грунт	-9.96053
▁функцыя	-9.9609
▁марк	-9.96099
▁аддзел	-9.96126
▁(13	-9.96197
ляць	-9.96212
рада	-9.96274
▁зямля	-9.96275
▁вялі	-9.96308
▁сучасных	-9.9631
▁сход	-9.96418
рова	-9.96428
▁сістэме	-9.96443
▁працягласць	-9.96454
▁дэпутатаў	-9.96493
▁1925	-9.96495
▁1994	-9.96498
▁сучасна	-9.96535
▁адну	-9.96593
▁антон	-9.9661
ову	-9.96628
▁летам	-9.96649
дак	-9.96666
▁фер	-9.9667
▁неда	-9.96696
▁раўнін	-9.96739
▁парод	-9.96763
▁полацкі	-9.9679
цэнтр	-9.96842
▁сера	-9.96845
нула	-9.96877
нскую	-9.96884
▁рэльеф	-9.96969
чор	-9.96974
▁пэўна	-9.96996
um	-9.97005
se	-9.97031
▁сср	-9.97048
сут	-9.97059
цю	-9.97067
бія	-9.97078
▁высакосны	-9.97087
чую	-9.97103
▁рыб	-9.97118
▁літоўскай	-9.97236
▁ўзбярэжжа	-9.97301
▁ана	-9.97365
▁выраз	-9.97367
пярэ	-9.9741
завод	-9.97466
▁крым	-9.97499
▁шырыня	-9.97516
▁сацыял	-9.97589
▁камандзір	-9.97644
вей	-9.97656
▁метал	-9.9767
▁назваў	-9.97757
▁ары	-9.97898
▁він	-9.97905
тныя	-9.97937
▁адносіцца	-9.97947
▁задач	-9.98
яднанне	-9.98001
▁зварот	-9.98001
бярэж	-9.9805
▁бяс	-9.98068
▁ца	-9.9809
льнае	-9.98108
▁мікалая	-9.98163
бан	-9.98181
▁джа	-9.98192
▁змага	-9.98235
▁вызна	-9.98241
жыт	-9.98277
▁валадар	-9.98371
▁традыцыі	-9.98379
▁мовай	-9.98381
става	-9.98403
▁рад	-9.98474
савецка	-9.98507
▁партрэт	-9.98569
ic	-9.98616
▁дабра	-9.98619
▁статут	-9.98629
▁фарма	-9.9863
аба	-9.98639
▁1989	-9.98651
▁аан	-9.98688
▁xiii	-9.98713
▁верш	-9.98725
▁адпаведнасці	-9.98743
▁сярэднім	-9.98767
яднаны	-9.98797
рэс	-9.98801
▁футбаліст	-9.98813
▁старэйшы	-9.98813
▁зямлю	-9.98814
чык	-9.98815
▁ўзвышша	-9.98815
кавых	-9.98877
—16	-9.98943
▁абвясціў	-9.99031
▁служыў	-9.99031
▁іспаніі	-9.99031
▁амундсен	-9.99031
▁героя	-9.99033
et	-9.99035
овіча	-9.99061
▁воль	-9.99072
▁кн	-9.99074
▁межы	-9.99105
▁карл	-9.99121
▁паўднёвага	-9.9916
▁жанр	-9.99193
▁фігур	-9.99263
▁каль	-9.99306
▁танка	-9.99374
▁абмежава	-9.99388
або	-9.99426
▁міхал	-9.99443
▁парадку	-9.99553
йскай	-9.99562
▁галоўнай	-9.99592
тацыі	-9.99614
▁часопіс	-9.99641
▁землях	-9.9966
▁чэмпіянат	-9.99687
▁жывапіс	-9.99688
▁сустракаюцца	-9.99703
▁арышт	-9.99817
вет	-9.99823
больш	-9.99831
▁мы	-9.99838
▁апе	-9.99907
▁спадчыны	-9.99909
▁заліва	-10
▁зараз	-10.0005
▁лідар	-10.0009
▁савецкі	-10.0011
▁легенд	-10.0017
гель	-10.0024
▁аг	-10.0027
▁35	-10.0027
▁гомель	-10.0027
том	-10.0029
▁значныя	-10.0034
▁крызіс	-10.0035
▁1905	-10.0038
▁1937	-10.0039
эра	-10.004
▁самі	-10.0043
▁дзяржаўных	-10.0048
▁2012	-10.0049
▁пачынаючы	-10.0057
▁магістра	-10.0057
▁ноўгарад	-10.0057
▁w	-10.0059
▁праблем	-10.0061
лаг	-10.0071
▁самай	-10.0072
▁прафесар	-10.0072
льнік	-10.0074
піра	-10.0078
тэхнічны	-10.0079
дз	-10.0083
▁кіна	-10.0085
коль	-10.0088
▁непа	-10.0092
▁2016	-10.0092
данні	-10.0093
▁злуч	-10.0094
ru	-10.0094
▁цыкл	-10.0094
▁захаду	-10.0096
▁велічыня	-10.0101
▁прывяло	-10.0101
▁гістарычна	-10.0106
прав	-10.0114
▁заснава	-10.0118
▁марыя	-10.012
▁сабор	-10.0123
▁сяброў	-10.0124
рат	-10.0128
прам	-10.0132
▁граматы	-10.0135
▁рэжым	-10.0135
th	-10.0144
▁архітэктуры	-10.0146
▁брытанскі	-10.0146
▁падзей	-10.0149
тэрытарыяльн	-10.0155
▁кп	-10.0163
шэння	-10.0167
▁календары	-10.0168
▁кароткі	-10.0172
▁лондан	-10.0174
▁школу	-10.0176
▁турцыі	-10.018
▁крытык	-10.0184
▁асобныя	-10.0194
▁дома	-10.0194
▁1996	-10.0195
чым	-10.021
▁прычын	-10.0219
=26	-10.022
верс	-10.022
льнасць	-10.0228
бла	-10.0229
археалагічн	-10.0232
—2	-10.0235
▁дакумента	-10.0235
▁павінен	-10.0236
▁верхняга	-10.0239
▁пасады	-10.024
▁працавалі	-10.0244
di	-10.0245
▁слава	-10.0245
▁павел	-10.0247
▁кана	-10.0248
альных	-10.0249
лева	-10.025
▁2017	-10.0251
дзіна	-10.0252
▁партызан	-10.0256
▁тэорыя	-10.0258
дава	-10.026
▁1942	-10.0262
▁каму	-10.0268
энерг	-10.0271
ехаў	-10.0277
▁паэзіі	-10.0281
▁стагоддзе	-10.0281
▁захаваліся	-10.0281
▁перайшоў	-10.0281
▁150	-10.0281
▁мовах	-10.0282
▁маты	-10.0282
▁штата	-10.0291
зн	-10.0294
яўленне	-10.0294
▁колеру	-10.0302
▁англіі	-10.0304
▁велічыні	-10.0304
▁элементаў	-10.0305
▁прырода	-10.0306
▁геаграфічна	-10.0309
▁свая	-10.0309
▁1929	-10.0309
▁ноч	-10.0309
нгу	-10.0312
▁старшыні	-10.0315
▁баб	-10.0317
тараў	-10.0319
▁рамана	-10.0324
▁хе	-10.0327
▁востраве	-10.033
▁карцін	-10.0338
▁заняў	-10.0338
▁лета	-10.0339
гара	-10.0346
▁смаленска	-10.0348
▁характэрна	-10.0349
▁кала	-10.0351
од	-10.0354
▁разу	-10.0358
інскі	-10.0359
уз	-10.036
лінг	-10.0372
▁дзейнічае	-10.0372
▁існаванне	-10.0372
дор	-10.0373
▁кава	-10.0373
▁гістарычных	-10.0374
▁1997	-10.0377
▁хрысціянства	-10.0379
метр	-10.0379
▁магілёўскай	-10.0382
▁мары	-10.0386
луч	-10.0387
▁гэтак	-10.0398
валы	-10.0398
ci	-10.0402
▁гомельскай	-10.0403
▁французскай	-10.0404
▁шляху	-10.0407
▁апарат	-10.0412
ёрк	-10.0414
тыцы	-10.0416
▁узроўнем	-10.0418
▁маёнтка	-10.0418
▁займаюць	-10.0423
▁спрэч	-10.0427
ляецца	-10.0427
▁справы	-10.0428
▁сферы	-10.0429
▁смерць	-10.0441
▁існавання	-10.0441
▁азначае	-10.0441
▁самая	-10.0442
▁працяг	-10.0455
▁форме	-10.0455
́р	-10.0458
▁імем	-10.0465
▁заснавальнік	-10.0466
▁цячэнні	-10.0468
si	-10.0473
").	-10.0474
люб	-10.0476
бл	-10.0479
небудзь	-10.0487
▁напісаны	-10.049
▁1998	-10.0492
нск	-10.0492
▁выява	-10.0494
сё	-10.0495
новіч	-10.0495
▁дзяржаўным	-10.0496
архі	-10.0499
ce	-10.0501
ань	-10.0501
вымі	-10.051
▁пунктаў	-10.051
▁чын	-10.0512
▁магіл	-10.0515
▁рос	-10.0526
выкарыстоўваюцца	-10.0526
▁ран	-10.0527
▁горадам	-10.0528
о́	-10.0528
▁фальклор	-10.0533
▁слоў	-10.0539
▁называецца	-10.0542
▁філа	-10.0543
▁мус	-10.0555
агляд	-10.056
▁каманд	-10.0561
▁пасад	-10.0565
зь	-10.0565
ацыі	-10.0566
▁фронт	-10.057
ставіў	-10.0571
дум	-10.0576
▁асобна	-10.0577
▁спецыяльна	-10.058
▁рэальна	-10.0584
вір	-10.0585
▁культ	-10.0586
вэ	-10.0587
▁2013	-10.0593
▁моры	-10.0596
▁глін	-10.0597
▁месяца	-10.0598
▁глыбока	-10.0603
▁адносяцца	-10.0603
олаг	-10.0606
чак	-10.0609
▁атрымаць	-10.0619
сін	-10.0621
іцы	-10.0624
2,	-10.0625
▁знешня	-10.0627
▁радзівіл	-10.0631
ur	-10.0634
▁месяцаў	-10.0647
овую	-10.0648
▁вайніловіч	-10.065
▁пытанні	-10.065
▁пастаянна	-10.065
▁ант	-10.0653
▁1923	-10.0655
▁1959	-10.0655
▁званы	-10.0658
▁каманда	-10.066
монт	-10.0667
бера	-10.0671
▁знаходзіліся	-10.0674
▁чыгуначны	-10.0676
▁польскі	-10.0681
стр	-10.0686
▁цэлым	-10.0686
▁міхаіл	-10.0687
беларуская	-10.0687
▁газа	-10.0689
▁разы	-10.069
нскія	-10.069
▁наступным	-10.0692
ўскім	-10.0694
▁плане	-10.0694
▁нямецкі	-10.0696
▁прыроды	-10.0698
▁сусветны	-10.0698
▁горы	-10.0699
ge	-10.0704
▁яўрэйска	-10.0706
▁складу	-10.0709
▁гімназіі	-10.0721
мало	-10.0722
явіўся	-10.0724
▁манет	-10.0726
▁джон	-10.0726
▁пасла	-10.0729
▁1000	-10.073
▁золата	-10.0745
▁палат	-10.0745
▁залаты	-10.0745
▁паспяхова	-10.0746
носіць	-10.0747
▁самалёт	-10.0748
йн	-10.0754
▁раёны	-10.0756
▁глеб	-10.0757
зор	-10.0762
▁інжынер	-10.0768
сцяў	-10.0769
▁паслуг	-10.0775
▁ідэал	-10.0791
цце	-10.0791
▁луцкевіч	-10.0792
▁пясчан	-10.0792
▁развіты	-10.0793
▁воласці	-10.0794
▁аналіз	-10.0794
раста	-10.0798
▁1931	-10.0799
гары	-10.0799
▁чалавеч	-10.0809
ік	-10.0811
▁рухавік	-10.0816
нца	-10.0817
▁даследаванняў	-10.0818
▁класа	-10.0821
▁вежа	-10.0836
▁вода	-10.0844
▁часцей	-10.0846
▁прамыслова	-10.0853
шчыне	-10.086
лада	-10.0864
▁прычым	-10.0866
am	-10.087
▁населены	-10.0881
▁дыс	-10.0882
▁жыве	-10.0883
▁эпохі	-10.0888
▁энергіі	-10.0888
яўляўся	-10.0888
▁звычайны	-10.0891
▁эн	-10.0891
▁польскіх	-10.0893
ніна	-10.0897
▁сетка	-10.0901
▁грамадзянскай	-10.0906
▁складалі	-10.0908
мента	-10.091
▁даследаванні	-10.0912
▁утвораны	-10.0912
▁фронту	-10.0922
▁самыя	-10.0923
▁святы	-10.0923
▁разнастайны	-10.0936
парад	-10.0936
▁літоўска	-10.0938
аны	-10.0939
▁гэс	-10.094
уюцца	-10.094
крыта	-10.0942
▁страты	-10.0943
баў	-10.0944
куль	-10.0944
жэнні	-10.0948
▁каталіцкі	-10.0956
амерыкан	-10.096
▁музычны	-10.096
льнікаў	-10.0965
▁стварэнні	-10.0968
▁адносінах	-10.0971
▁філасофіі	-10.0985
▁натуральны	-10.0987
▁школ	-10.0992
▁стро	-10.0992
▁зуб	-10.0994
басейн	-10.1003
▁распрацава	-10.1006
▁звестак	-10.1009
▁правінцыя	-10.1009
▁канцэрт	-10.1009
▁1915	-10.1018
▁справе	-10.102
▁структур	-10.1021
▁лісце	-10.1023
наві	-10.1027
▁улад	-10.1029
бур	-10.103
мей	-10.103
▁юр	-10.104
▁гістарычны	-10.1051
▁дагавора	-10.1052
▁заснаваў	-10.1054
▁матэрыялаў	-10.1058
▁руд	-10.1061
▁плато	-10.1065
▁опер	-10.1068
▁ліст	-10.1071
▁вест	-10.1079
авага	-10.1081
▁вакзал	-10.1086
▁4-	-10.1094
so	-10.1096
▁знойдзены	-10.1107
▁каралём	-10.1107
▁праблемы	-10.1112
▁перамогі	-10.1115
ладальнік	-10.112
▁стылі	-10.1123
▁навуковых	-10.1124
▁падобна	-10.1128
▁іерусалім	-10.1131
▁афіцэр	-10.1132
▁маскоўскага	-10.1133
▁кіраванне	-10.1137
алогія	-10.1137
il	-10.1151
▁1990-	-10.1152
леныя	-10.1154
▁аз	-10.1155
▁невысакосны	-10.1156
палітычна	-10.1157
овым	-10.1159
вол	-10.116
▁выбары	-10.1165
пісаць	-10.1168
оп	-10.117
зыход	-10.1172
рацыя	-10.1175
▁ведаў	-10.1176
▁расія	-10.1177
▁афрыка	-10.1178
▁адрозні	-10.1178
▁сувязь	-10.1181
кен	-10.1184
▁сад	-10.1187
сек	-10.1189
▁іншай	-10.1192
альныя	-10.1193
▁балот	-10.1198
ти	-10.1205
▁экспедыцыі	-10.1206
▁дазваляе	-10.1206
▁картэс	-10.1208
зен	-10.121
▁часе	-10.1211
▁рэч	-10.1212
▁мяч	-10.1212
▁смаленск	-10.1212
кал	-10.1221
▁рускага	-10.1225
▁неза	-10.1226
овая	-10.1229
▁значную	-10.1232
▁мільёнаў	-10.1234
ндра	-10.1236
▁пункта	-10.1238
▁перададзены	-10.1239
▁будынка	-10.1241
губернатар	-10.1242
ho	-10.1243
▁k	-10.1244
няты	-10.1245
▁старажытных	-10.1246
▁войскам	-10.1247
▁вяліка	-10.1248
▁роўны	-10.1249
ціна	-10.1253
▁міністр	-10.1254
▁папулярна	-10.1254
▁мура	-10.1254
▁(3	-10.1258
працоўн	-10.1264
▁in	-10.1265
▁мыс	-10.1267
▁значнай	-10.1274
▁t	-10.1275
ент	-10.128
▁музыкі	-10.1281
▁яўрэяў	-10.1306
▁брата	-10.1307
▁дапамогу	-10.131
▁галін	-10.1311
нямі	-10.1311
лес	-10.1314
гран	-10.1315
▁галоўнага	-10.1316
нацыянал	-10.1317
▁сё	-10.1323
▁распаўсюджва	-10.1324
іцца	-10.1326
▁доме	-10.1326
▁крыж	-10.1331
▁поле	-10.1336
▁пісьменніка	-10.1337
▁афін	-10.134
яўлення	-10.134
▁вітаўта	-10.1342
▁дзеяння	-10.1343
▁жылы	-10.1347
▁абвешчана	-10.1356
▁выданне	-10.1358
ызму	-10.1358
вік	-10.1358
▁рускія	-10.1359
фан	-10.1361
▁працавала	-10.1362
пен	-10.1365
▁выказва	-10.1366
▁леса	-10.1368
sa	-10.138
▁лічаць	-10.1381
▁складала	-10.1388
бара	-10.14
ёна	-10.1403
▁палаца	-10.1404
▁бяспекі	-10.1407
▁жывуць	-10.1407
асоб	-10.1426
галі	-10.1426
▁адукацыя	-10.1432
▁зроблены	-10.1432
▁музея	-10.1432
▁гандлю	-10.1436
▁рэдка	-10.1441
▁аддзела	-10.1441
▁жонка	-10.1443
▁сель	-10.1445
▁андрэ	-10.1451
▁работы	-10.1455
▁кляштар	-10.1457
▁пазіцыі	-10.1458
▁сядзіб	-10.1458
ступлення	-10.1458
▁выклік	-10.1459
джу	-10.1462
рэд	-10.1472
▁вершаў	-10.1473
▁глеба	-10.1474
▁лікаў	-10.148
▁схіл	-10.1482
давалася	-10.1484
▁супольна	-10.1486
▁кірыл	-10.149
▁міністраў	-10.1497
▁ідэя	-10.1497
▁90	-10.1506
▁адукацыю	-10.1508
▁манархі	-10.151
▁аперацый	-10.1511
▁генеральна	-10.1511
ікі	-10.1515
цыянальна	-10.1532
▁вышынёй	-10.1534
▁падтрымку	-10.1534
▁захавалася	-10.1534
▁нізкі	-10.1535
▁шчыт	-10.1536
▁рэзка	-10.1537
▁сваімі	-10.1551
▁трэ	-10.1551
▁зусім	-10.156
▁павеце	-10.1561
▁зоны	-10.1564
ква	-10.1566
шана	-10.1568
▁двор	-10.1574
▁карп	-10.1575
▁канстанцін	-10.158
нуць	-10.158
▁меж	-10.1581
▁полацка	-10.1581
знаўства	-10.1586
▁1965	-10.1591
▁жанчын	-10.1593
▁земля	-10.1597
▁новым	-10.1599
▁ўзровень	-10.1603
кцыя	-10.1606
▁малады	-10.161
▁застаецца	-10.1612
▁поўны	-10.1612
▁віктар	-10.1613
▁пошук	-10.1613
мяшч	-10.1618
сэ	-10.1623
▁неабходна	-10.1623
▁накірава	-10.1627
перш	-10.1629
▁метрапалітэна	-10.1635
▁сара	-10.1637
▁епіскап	-10.1637
▁пачаткам	-10.1637
▁журналіст	-10.1637
▁мост	-10.164
▁1928	-10.1642
шая	-10.1646
▁басейна	-10.1647
▁галіны	-10.1649
▁свят	-10.1652
два	-10.1659
▁ўзнік	-10.166
▁шо	-10.1662
▁адлюстроўва	-10.1663
▁эдвард	-10.1663
▁адбыліся	-10.1663
лым	-10.1665
▁версіі	-10.1665
▁храма	-10.1666
▁рэлігійна	-10.1669
▁чорнага	-10.1674
▁рыгор	-10.1676
▁міру	-10.1677
ыш	-10.1681
▁сярэдне	-10.1689
▁кантроль	-10.1689
";	-10.1691
▁вод	-10.1693
ёва	-10.1694
▁мік	-10.1694
▁рашэння	-10.1696
▁1914	-10.1696
ізацыя	-10.17
▁грамад	-10.1709
▁дадзена	-10.1712
▁нансен	-10.1713
▁сярэдні	-10.1715
▁вызвалення	-10.1716
тычнага	-10.1716
▁выключна	-10.1717
▁азёры	-10.1718
▁вядомых	-10.1722
▁бібліятэка	-10.1723
▁e	-10.1725
-1	-10.1737
▁сектар	-10.1739
▁падобны	-10.1741
▁горна	-10.1741
▁рэлігія	-10.1742
▁прадстаўлены	-10.1742
ура	-10.1742
▁выклікала	-10.1743
▁брыгад	-10.1749
▁вала	-10.175
▁вайсков	-10.1753
вора	-10.1759
▁рэлігійны	-10.1759
▁святар	-10.1761
▁vii	-10.1763
▁цю	-10.1767
▁прапанаваў	-10.1768
бела	-10.1769
▁жамойц	-10.1769
▁ўмовах	-10.177
▁накіраваны	-10.177
▁кіраўніком	-10.1771
▁руб	-10.1775
▁малі	-10.1777
▁большай	-10.1783
▁народнага	-10.1789
▁канстытуцыі	-10.1794
▁функцыі	-10.1794
▁атрымання	-10.1794
▁грыгарыянскім	-10.1795
▁частак	-10.1795
ступіла	-10.1802
▁часова	-10.1806
кур	-10.1813
▁купалы	-10.1821
▁нізка	-10.1823
▁ўяўляе	-10.183
▁корпус	-10.183
▁літаратурнай	-10.1833
шчо	-10.1834
▁дыск	-10.1836
▁адзіны	-10.184
▁каменны	-10.1843
▁дзвюх	-10.1847
▁масквы	-10.1847
▁сродкаў	-10.1874
▁вядуч	-10.1874
▁выяўлены	-10.1874
▁музычна	-10.1874
▁словы	-10.1874
▁пажар	-10.1884
сама	-10.1889
ора	-10.1889
рот	-10.1894
шчэ	-10.1896
▁рука	-10.1897
▁сямі	-10.1898
▁дваран	-10.19
▁бду	-10.1901
▁памяць	-10.1901
▁бяз	-10.1905
▁такой	-10.191
▁мікра	-10.1912
мяр	-10.1912
▁бор	-10.1915
▁дэпартамент	-10.1923
▁суправаджа	-10.1927
▁аснову	-10.1927
▁падрыхтава	-10.1927
▁слонім	-10.1927
▁мясцовага	-10.1931
▁рыба	-10.1933
▁развіта	-10.1936
▁галіна	-10.1939
▁ор	-10.1943
):	-10.1949
віце	-10.195
▁маршрут	-10.1954
▁прадстаўля	-10.1954
▁нараджэння	-10.1954
▁вызвалены	-10.1955
▁пен	-10.1957
▁фінансава	-10.1959
▁карысны	-10.1962
йма	-10.1963
▁ван	-10.1963
▁народных	-10.1976
льян	-10.1978
▁міф	-10.198
▁асноўная	-10.198
▁зносін	-10.1981
▁кіраваў	-10.1981
▁1970	-10.1981
▁філіп	-10.1989
йшло	-10.1993
дзяржаў	-10.1999
▁прадстаўнік	-10.2001
▁акруг	-10.2003
▁фонд	-10.2005
▁публіцыст	-10.2007
ga	-10.2007
▁італьянскі	-10.2007
▁агра	-10.2008
▁дры	-10.201
▁нацыянальных	-10.2017
pe	-10.2023
▁еўрапейскіх	-10.2028
▁праекта	-10.2034
▁нафты	-10.2036
▁1946	-10.204
віз	-10.2041
▁r	-10.2041
▁названа	-10.2042
▁тэле	-10.2043
▁дэпутат	-10.2043
▁мета	-10.2045
▁дзяржавай	-10.2045
▁мастацтваў	-10.2054
▁400	-10.2056
воз	-10.2061
▁сродкі	-10.2061
▁кнігу	-10.2064
▁характэрны	-10.2065
▁гармат	-10.2068
▁цягнік	-10.2071
дзіць	-10.2074
▁рэформы	-10.2075
аваных	-10.2079
▁штогод	-10.2081
▁ваеннага	-10.2086
▁прозвішча	-10.2088
▁правоў	-10.2089
▁паловы	-10.2092
▁мясцовыя	-10.2092
▁чыгуначнай	-10.2094
тных	-10.2097
▁пояс	-10.2102
▁прадпрыемстваў	-10.2114
падобна	-10.212
▁англійскай	-10.2122
▁занята	-10.2123
руж	-10.2125
ходзіла	-10.2139
план	-10.2141
▁кнізе	-10.2143
еты	-10.2147
ном	-10.2149
маш	-10.2153
fi	-10.2155
ніц	-10.216
▁перапіс	-10.2161
▁валы	-10.2167
▁прысвечаны	-10.217
▁ізраіль	-10.217
▁ніколі	-10.217
▁кахан	-10.2171
▁дамоў	-10.2176
▁об	-10.218
▁антоні	-10.2187
лог	-10.2188
▁асоба	-10.2189
▁ес	-10.2198
▁турызм	-10.2203
▁1910	-10.2205
▁парламент	-10.2212
▁імкну	-10.222
перы	-10.2221
▁ўвайшлі	-10.2225
▁існавалі	-10.2225
▁аперацыі	-10.2225
▁англійскі	-10.2226
пін	-10.2228
▁бак	-10.2228
падзення	-10.223
яўляе	-10.2232
грэчаскі	-10.2233
тарам	-10.2234
дадзены	-10.2237
▁адзінай	-10.2241
▁бай	-10.2247
цк	-10.2251
▁евангел	-10.2252
bi	-10.2256
▁хваля	-10.2257
▁баран	-10.2259
▁канала	-10.2259
▁li	-10.226
▁элі	-10.2263
▁чыгункі	-10.2264
▁жан	-10.2264
▁прамы	-10.2271
▁2018	-10.2277
сіл	-10.228
▁сямейства	-10.228
▁прыблізна	-10.228
▁жонкі	-10.228
▁рэчыва	-10.2284
▁шчыльнасць	-10.2284
▁ско	-10.2286
▁1966	-10.2287
▁вядомая	-10.2295
▁праграмы	-10.2296
▁газу	-10.23
▁сяр	-10.2305
▁асноўнай	-10.2308
▁прасторы	-10.2308
▁біскуп	-10.2311
ковы	-10.2316
▁царкоўна	-10.2319
▁месцаў	-10.2319
польска	-10.2319
тычны	-10.2319
▁ўнутраны	-10.2322
▁супярэч	-10.2325
вало	-10.2329
▁баку	-10.2332
зін	-10.2333
▁крэпасці	-10.2336
▁вучоны	-10.2336
▁сапега	-10.2336
▁тэма	-10.234
▁выкарыстання	-10.2343
стай	-10.2344
ёй	-10.235
даваць	-10.2355
міністра	-10.2359
графічны	-10.2363
▁дзейнічала	-10.2363
▁галіне	-10.2364
▁эканамічна	-10.2369
твараюць	-10.2371
весь	-10.2372
ніку	-10.2373
▁анд	-10.2375
▁эйнштэйн	-10.2391
▁слоўнік	-10.2397
народ	-10.24
дзю	-10.2405
do	-10.241
▁настаўнік	-10.2412
▁структуры	-10.2419
▁аўтаномн	-10.2422
ікаў	-10.2422
кас	-10.2423
рог	-10.2426
▁сіла	-10.2429
▁праблема	-10.2436
сена	-10.2438
▁песня	-10.244
▁погляд	-10.2443
▁алфавіт	-10.2447
▁сустракаецца	-10.2452
▁1967	-10.2454
▁месяц	-10.2459
▁пераехаў	-10.2459
▁неба	-10.2465
▁масава	-10.2469
▁асаблівасці	-10.247
▁семінары	-10.2476
▁сабою	-10.2476
100	-10.2478
▁перапісу	-10.2478
▁падзелены	-10.248
аваная	-10.2481
▁мяса	-10.2482
▁нямецка	-10.2483
▁працаваць	-10.2484
▁даследчыкі	-10.2485
▁скур	-10.2504
▁бітвы	-10.2505
▁рамках	-10.2506
▁галактыка	-10.2506
▁еў	-10.2507
нейшы	-10.2511
▁двара	-10.2514
▁кругл	-10.2514
▁прымаў	-10.2516
вара	-10.2521
▁літве	-10.2523
▁старажытны	-10.2524
сярод	-10.2525
▁публіка	-10.2529
▁апошняга	-10.2532
▁высокай	-10.2534
▁ўладамі	-10.2534
ваннем	-10.2536
▁тавары	-10.254
▁жыгімонта	-10.254
тацыя	-10.2542
мары	-10.2543
▁долараў	-10.2544
▁1980-	-10.2557
нулі	-10.2557
▁дзейнічалі	-10.2561
▁спецыяльны	-10.2561
▁газеце	-10.2561
▁лічылі	-10.2561
сяргей	-10.2561
▁маршал	-10.2567
▁1958	-10.2568
▁шляхты	-10.2568
▁друкар	-10.2569
▁вуліц	-10.2571
▁рам	-10.2589
▁універсітэце	-10.2589
сапраўдна	-10.2589
▁магчымы	-10.2589
▁паняцце	-10.2589
▁магчымасці	-10.2591
▁сябра	-10.2596
▁1956	-10.2596
арты	-10.2597
неслі	-10.2609
арт	-10.2618
свят	-10.2618
▁аддзяленне	-10.2618
▁службы	-10.2618
▁гол	-10.2618
▁наступны	-10.2619
▁цепла	-10.262
▁далёка	-10.2621
▁натуральна	-10.2621
▁выкладчык	-10.2622
▁вулкан	-10.2622
вера	-10.2623
▁1920-	-10.2625
▁вял	-10.2626
▁савецкіх	-10.2629
▁праваслаўны	-10.2631
▁званне	-10.2635
мат	-10.264
цці	-10.2643
дзесят	-10.2646
льнымі	-10.2649
▁1986	-10.2653
▁мець	-10.2654
▁(12	-10.2666
▁палітыку	-10.2669
рэвалюцы	-10.2672
▁2020	-10.2672
▁распаўсюджана	-10.2674
▁англійска	-10.2675
▁адлегласці	-10.2675
▁масы	-10.2679
▁спробы	-10.268
▁1948	-10.2681
▁элемент	-10.269
▁капітал	-10.2696
ндэ	-10.2698
▁бран	-10.2701
▁скульптур	-10.2704
▁станіслава	-10.2704
▁перавыша	-10.2704
▁ўваходзіць	-10.2704
▁даклад	-10.271
▁мастака	-10.2719
меры	-10.2721
камен	-10.2721
au	-10.2726
оўцы	-10.2731
▁канстытуцыя	-10.2733
▁падарожжа	-10.2733
▁інфармацыі	-10.2733
▁дачыненні	-10.2733
em	-10.2742
▁выток	-10.2743
▁бачна	-10.2745
▁этна	-10.2751
▁ходзе	-10.2752
йцаў	-10.2755
▁высокі	-10.2759
ява	-10.2765
клаў	-10.2765
▁выбараў	-10.2769
зер	-10.2776
▁бала	-10.2779
pa	-10.2784
азнач	-10.2785
▁каш	-10.279
▁барацьбе	-10.2791
шо	-10.28
▁рэчышча	-10.2807
▁зале	-10.2808
▁двары	-10.2814
▁прычынай	-10.2815
▁чорна	-10.2819
▁адкрыццё	-10.282
▁дасягае	-10.282
▁працягваў	-10.2821
▁уніі	-10.2825
▁паказчык	-10.2827
▁дачка	-10.2829
▁дзіцячы	-10.2831
va	-10.2832
іўся	-10.2836
ніцкага	-10.2837
▁1,5	-10.2839
кса	-10.2839
філ	-10.284
жскі	-10.2842
цэнтра	-10.2844
▁адмовіўся	-10.2849
▁шаўчэнка	-10.2849
▁моцарт	-10.2852
▁каралеўскі	-10.2853
▁парламента	-10.2863
▁міжнародных	-10.2864
▁паступіў	-10.2867
кары	-10.2868
▁ўзор	-10.2869
▁вярхоўны	-10.2878
▁закона	-10.2878
▁афрыкі	-10.2879
▁радзівіла	-10.2883
▁мазыр	-10.2884
▁зоне	-10.2884
эння	-10.2885
▁1932	-10.2886
▁росту	-10.2891
▁сыр	-10.2894
▁2014	-10.2896
▁кіраўніка	-10.2898
плаў	-10.29
—14	-10.2906
▁барацьбу	-10.2908
▁бял	-10.2909
язджа	-10.2909
▁ленінград	-10.2909
фікацыі	-10.2909
▁наведаў	-10.2913
▁бас	-10.2913
віс	-10.2913
▁1934	-10.2916
наша	-10.2918
▁друк	-10.292
▁паверхня	-10.2922
што	-10.2927
▁мястэчку	-10.2937
▁бакоў	-10.2938
псеўд	-10.2939
чнымі	-10.2939
віцкага	-10.294
▁берага	-10.294
ездзе	-10.2941
▁1906	-10.2942
▁назад	-10.2944
ки	-10.2946
▁нізін	-10.2948
▁светла	-10.2949
▁5-	-10.2949
▁тэксты	-10.2953
чаты	-10.2953
▁наш	-10.2953
▁сілу	-10.2954
tu	-10.2954
▁рэгіёне	-10.2955
▁крытыка	-10.2957
▁лева	-10.2961
▁аўтобус	-10.2967
▁паўвострава	-10.2967
▁акупацыі	-10.2967
▁калгас	-10.2971
чыны	-10.2972
▁новую	-10.2975
▁45	-10.2982
▁вят	-10.2985
▁мільён	-10.2993
ваенны	-10.2995
▁маёнтак	-10.2997
▁старшынёй	-10.2997
▁месье	-10.2997
▁еўрапейскай	-10.2999
▁такога	-10.3
▁палітычныя	-10.3
палітычны	-10.3001
▁веры	-10.3002
▁працуюць	-10.3007
▁перайменаваны	-10.3007
етнам	-10.3007
▁верх	-10.3015
няць	-10.3016
глі	-10.3022
▁адраджэння	-10.3026
▁рэспубліцы	-10.3026
▁астатнія	-10.3026
▁харчовай	-10.3027
▁перадачы	-10.3027
▁старога	-10.3027
▁навуковай	-10.3027
ходзілі	-10.3028
▁кантакт	-10.3029
▁1974	-10.3032
▁стаць	-10.3033
▁1930-	-10.3035
▁музыка	-10.3041
▁помнікі	-10.3048
траб	-10.3055
▁атмасферы	-10.3056
▁могілках	-10.3056
▁варшаве	-10.3056
яўлялася	-10.3056
▁зорак	-10.3057
▁аўстра	-10.3064
▁падыход	-10.3067
▁зона	-10.3069
▁складана	-10.307
▁карысць	-10.307
▁дакумент	-10.307
▁ролі	-10.3071
ота	-10.3078
нас	-10.3079
▁акруга	-10.3079
руча	-10.3088
▁ўдзельнік	-10.309
▁кг	-10.309
▁нямецкіх	-10.3091
зма	-10.3092
▁далейша	-10.3093
▁паўночная	-10.3098
стат	-10.3099
сал	-10.3104
▁дол	-10.3105
▁дадзены	-10.3109
арк	-10.3111
▁глыбокі	-10.3116
▁прадстаўлена	-10.3116
▁супрацоўніцтва	-10.3116
▁перакладзе	-10.3118
▁заходніх	-10.3119
▁(4	-10.3123
ство	-10.3124
ja	-10.3125
стара	-10.313
▁тэрміна	-10.3135
▁казімір	-10.3137
склад	-10.3141
12"	-10.3144
▁вежы	-10.3146
▁арганізм	-10.3147
▁вырашыў	-10.3147
онаў	-10.3147
▁украіне	-10.315
▁хра	-10.3153
▁вярхоў	-10.316
nu	-10.3166
▁муж	-10.3167
▁рабочых	-10.3168
старо	-10.3169
▁чэр	-10.3169
▁ціск	-10.3174
▁бяроза	-10.3174
▁арганізатар	-10.3177
▁тэрыторый	-10.3177
▁выступ	-10.3177
▁фінансавы	-10.3178
▁максіма	-10.3181
▁міжнароднай	-10.3182
▁шэсць	-10.3185
▁блок	-10.3188
▁папа	-10.3192
▁цяг	-10.3205
▁належаць	-10.3207
▁параўнанні	-10.3207
▁інстытуце	-10.3207
▁размяшчае	-10.3209
ha	-10.321
...»	-10.3217
2)	-10.3218
▁навука	-10.3218
▁загадчык	-10.3221
▁члены	-10.3222
арон	-10.3223
▁ўздоўж	-10.3225
ўшчына	-10.3232
будавалі	-10.3237
▁амерыцы	-10.3237
▁пераважаюць	-10.3238
▁1935	-10.3244
▁марыі	-10.3251
зацыю	-10.3254
▁кіеў	-10.3255
▁роля	-10.3258
капітан	-10.3259
вян	-10.326
ин	-10.3265
вецкі	-10.3267
▁маштаб	-10.3268
▁зоркі	-10.3269
▁ленін	-10.3269
ut	-10.327
▁1961	-10.3273
▁левым	-10.3275
▁хх	-10.3278
псіх	-10.3295
▁галоўных	-10.3297
▁радовішча	-10.3298
▁характарыстык	-10.3298
▁этнічны	-10.3298
▁ўваходзяць	-10.3299
віцебск	-10.3299
▁адрозніваецца	-10.3299
▁раўна	-10.3299
лот	-10.3305
▁горны	-10.3306
▁турнір	-10.3309
▁пабудовы	-10.3314
▁багата	-10.3319
крэ	-10.3325
▁сынам	-10.3328
▁рэал	-10.3328
праца	-10.333
▁ізноў	-10.333
даюць	-10.3333
▁прыём	-10.3337
▁абрад	-10.3338
уючы	-10.334
▁32	-10.3341
▁баль	-10.3342
дэмакратычны	-10.3343
▁бры	-10.3345
10"	-10.3352
▁пласт	-10.3357
▁камуністычна	-10.336
▁загінуў	-10.336
▁ўваходзіла	-10.336
▁умовах	-10.3362
▁аўтамабіль	-10.3363
кет	-10.3372
▁пляц	-10.3373
▁польшча	-10.3374
▁аўгуст	-10.3378
ката	-10.3383
▁стварыць	-10.3391
дзень	-10.3393
▁праціўніка	-10.3394
▁дыяметр	-10.3394
брэ	-10.3396
▁зорка	-10.3403
▁аўгуста	-10.3404
▁большую	-10.3407
цава	-10.3411
11"	-10.342
▁брэст	-10.342
▁знешні	-10.3422
▁ўстаноў	-10.3425
om	-10.3427
▁зала	-10.3428
▁1988	-10.343
▁асноўны	-10.3434
папуляр	-10.3437
▁асобны	-10.3437
▁будынкаў	-10.3439
▁генерала	-10.3444
▁n	-10.3447
▁балкан	-10.345
▁насякомых	-10.3453
▁разнастайна	-10.3453
▁ўключае	-10.3453
▁кітая	-10.3454
▁забяспечва	-10.3456
▁парад	-10.3457
▁баяр	-10.3459
пушчаны	-10.3464
▁знішча	-10.3466
▁паверх	-10.3468
▁лацінскай	-10.3469
авіцкі	-10.347
▁дар	-10.3474
▁выступіў	-10.348
цка	-10.3482
▁брам	-10.3482
сень	-10.3483
▁найвышэйшы	-10.3484
▁наогул	-10.3484
▁паблізу	-10.3484
▁буйнейшы	-10.3484
смяротна	-10.3484
▁сусед	-10.3485
▁бог	-10.3485
▁пячор	-10.3486
▁ісуса	-10.3488
льнасці	-10.3493
▁такая	-10.3494
▁грэка	-10.3502
▁польскім	-10.3506
халодн	-10.3516
▁шан	-10.3523
тычным	-10.353
▁якімі	-10.353
▁жалеза	-10.3532
▁камісія	-10.3547
▁спектр	-10.3548
13"	-10.3551
▁выкарыстоўваюць	-10.3554
сак	-10.3554
▁пачаліся	-10.3555
▁працягл	-10.3556
▁куды	-10.3557
арды	-10.356
▁нацыянальным	-10.3562
pi	-10.3568
▁важным	-10.3573
▁значная	-10.3575
▁прамо	-10.3576
▁вынікам	-10.3577
▁забойства	-10.3578
▁сумесна	-10.3579
▁дзяржаўная	-10.3579
▁каманды	-10.3582
лаве	-10.3589
▁вара	-10.359
▁займала	-10.359
▁1950	-10.3593
жэй	-10.3593
▁праведзены	-10.3594
▁доля	-10.3597
▁вёў	-10.3598
▁аж	-10.3605
▁уладай	-10.3607
▁адкрыцця	-10.3609
▁сербіі	-10.361
▁памяці	-10.361
рг	-10.3613
▁1964	-10.3616
▁праграма	-10.3626
гадвае	-10.3627
▁рэспублік	-10.3628
▁футбол	-10.364
▁глыбіні	-10.3641
▁летні	-10.3649
▁тысячы	-10.3649
▁газет	-10.365
▁беларус	-10.3657
▁структура	-10.3658
▁займаў	-10.3662
▁вывучэнне	-10.3673
▁маскву	-10.3673
▁цягам	-10.368
▁пле	-10.3681
аванай	-10.3688
▁сучасны	-10.3693
▁вільню	-10.3693
▁o	-10.3696
▁украіна	-10.3696
▁2015	-10.3698
▁дарог	-10.3703
▁рэлігіі	-10.3705
▁пасёлка	-10.3705
▁досыць	-10.3705
▁службу	-10.3705
▁1908	-10.3709
▁адзіным	-10.371
▁сэнс	-10.3713
твы	-10.3715
веры	-10.3716
кватэр	-10.3724
цыйных	-10.3725
▁фабрыка	-10.3736
▁егіпта	-10.3737
▁японіі	-10.3737
▁здабыча	-10.3737
▁дастаткова	-10.3737
завана	-10.3738
вон	-10.3741
▁універсітэт	-10.3741
▁губерняў	-10.3743
▁калан	-10.3745
▁фры	-10.375
еўскі	-10.375
▁крам	-10.3757
▁лёд	-10.3767
правод	-10.3767
ve	-10.3768
▁ўсю	-10.377
цтве	-10.3771
▁рэвалюцыя	-10.3771
▁сенат	-10.3773
▁агульнага	-10.3777
▁бла	-10.3777
45"	-10.3778
▁відаць	-10.3779
ский	-10.3797
нцамі	-10.3798
▁адлегласць	-10.3801
трымліваюць	-10.3801
▁сыноў	-10.3801
▁гандлёва	-10.3801
▁варшаўск	-10.3803
▁шасці	-10.3808
▁1975	-10.3808
дзён	-10.381
▁змест	-10.3811
▁ix	-10.3812
▁1980	-10.3815
▁каталіцкай	-10.3817
▁падзея	-10.382
as	-10.3821
▁корпуса	-10.3821
вядзенне	-10.3822
▁спрабаваў	-10.3833
▁матэрыялы	-10.3833
▁ступень	-10.3833
▁хрыста	-10.3833
▁гетман	-10.3833
▁ігнат	-10.3834
▁мяжу	-10.3836
▁плы	-10.384
▁1957	-10.384
▁1933	-10.3841
▁фізіка	-10.3842
▁поўн	-10.3846
▁пары	-10.385
▁крыш	-10.3851
авічы	-10.3854
53"	-10.3864
▁птушак	-10.3865
▁паводзін	-10.3866
ul	-10.3867
▁рэчываў	-10.3869
▁ідэй	-10.3877
50"	-10.3885
▁пашыраны	-10.3888
▁гульня	-10.3892
▁ніжнім	-10.3894
bo	-10.3896
▁невядома	-10.3898
▁хутчэй	-10.3898
▁швецыі	-10.3898
▁італьянска	-10.3898
▁фізічна	-10.3898
▁хвілін	-10.3898
▁2019	-10.3899
▁xi	-10.3901
▁чаргов	-10.3904
▁1947	-10.3905
▁42	-10.3905
▁пскоў	-10.3906
▁каталога	-10.3906
▁любы	-10.3908
▁артыкулаў	-10.391
▁віцэ	-10.3911
▁пабудов	-10.3916
▁планава	-10.3917
▁леніна	-10.3918
▁галоўныя	-10.392
▁парыжы	-10.3922
▁знакаміты	-10.3931
▁ўмовы	-10.3935
эле	-10.394
▁максім	-10.3941
▁кант	-10.3944
38"	-10.3945
▁двароў	-10.3947
▁сібір	-10.3953
▁партызанскі	-10.3956
▁творча	-10.396
▁падзяляецца	-10.3963
▁сонечнай	-10.3963
▁ляжыць	-10.3963
▁ўнутрана	-10.3963
канцлер	-10.3966
мані	-10.3969
▁добры	-10.397
▁напісана	-10.3972
▁1912	-10.3973
ніцу	-10.3974
41"	-10.3976
▁ma	-10.3977
годдзя	-10.3982
▁беларускае	-10.3986
▁браў	-10.3989
▁усходу	-10.399
▁радовішчы	-10.3996
▁рсфср	-10.3996
▁увайшоў	-10.3996
▁прэміі	-10.3997
▁турэцка	-10.3998
▁апошніх	-10.4
▁далейшым	-10.4001
▁плоска	-10.4002
▁немагчыма	-10.4004
каротк	-10.4004
36"	-10.4012
чнік	-10.4012
▁цвёрд	-10.4013
▁навучальны	-10.4015
▁пасту	-10.4017
▁месяцы	-10.4022
▁расіяй	-10.4023
расійска	-10.4025
▁неаднаразова	-10.4029
▁ўдалося	-10.4029
▁павелічэнн	-10.403
27"	-10.4033
▁стварае	-10.4036
▁незалежна	-10.4037
▁асман	-10.4037
слов	-10.4038
▁пераклада	-10.4038
джаны	-10.404
ing	-10.4041
▁вынікі	-10.4041
▁бярэ	-10.4044
3/	-10.4049
37"	-10.4049
▁дэма	-10.4051
чыка	-10.4053
цэр	-10.4054
асаб	-10.4055
35"	-10.4056
26"	-10.406
▁прадугледж	-10.4061
▁выканаў	-10.4061
▁крэпасць	-10.4062
▁моладзі	-10.4062
▁сапраўдны	-10.4064
hi	-10.407
▁найбольшая	-10.4077
▁краіну	-10.4078
▁цел	-10.4091
ству	-10.4091
ставіць	-10.4091
▁the	-10.4093
▁незалежн	-10.4095
▁метро	-10.4098
палкоўнік	-10.4101
▁масква	-10.4103
▁артыкулы	-10.4107
▁перамогу	-10.4112
▁георг	-10.4114
▁інду	-10.4119
▁месцах	-10.4126
▁адкрыў	-10.4126
▁невялікія	-10.4127
▁адпаведны	-10.4128
▁джэ	-10.4129
▁аховы	-10.413
▁палітычнага	-10.413
▁проці	-10.4135
▁кожнай	-10.4136
пле	-10.4139
▁умоў	-10.4149
▁само	-10.4152
шэнні	-10.4157
▁жорстка	-10.4157
голь	-10.4158
▁недахоп	-10.4162
wi	-10.4167
▁1982	-10.4168
▁поля	-10.417
52"	-10.4171
21"	-10.4175
льнікі	-10.4178
▁браслаў	-10.4181
▁прыватна	-10.4186
▁вул	-10.4187
▁рыма	-10.419
96"	-10.4192
▁алімпійскі	-10.4195
▁катлавін	-10.4195
▁сведчыць	-10.4195
▁дапамогі	-10.4197
▁заходнім	-10.4199
43"	-10.42
33"	-10.4205
▁1911	-10.4206
сад	-10.421
▁сіламі	-10.4214
кую	-10.4215
▁паўднёвая	-10.4217
біць	-10.4218
▁фармальна	-10.4219
дзілі	-10.4221
польскі	-10.4224
док	-10.4224
▁дасягнула	-10.4229
▁пашырэнне	-10.4229
▁прайшоў	-10.4229
▁чырвонага	-10.423
віле	-10.4231
95"	-10.4232
▁міжнароднага	-10.4232
▁1949	-10.4235
бля	-10.4236
▁супольнасці	-10.424
тыку	-10.4241
▁раўніны	-10.4244
▁будуча	-10.4245
▁надпіс	-10.425
▁пісьмовы	-10.4252
еру	-10.4256
аму	-10.4259
▁станам	-10.4262
▁злучаны	-10.4262
▁навуча	-10.4262
▁латвіі	-10.4262
▁служыць	-10.4262
▁малекул	-10.4263
▁інтарэс	-10.4263
шчына	-10.4264
▁ворага	-10.4264
lu	-10.4266
▁снег	-10.4267
▁плямёны	-10.4268
берт	-10.4269
пасля	-10.427
▁1913	-10.4272
▁прыгарад	-10.4274
▁дзеянне	-10.4275
камуніст	-10.4278
▁польскія	-10.4278
віт	-10.4283
белы	-10.4295
▁дагэтуль	-10.4296
▁прыйшоў	-10.4296
▁дрэў	-10.4296
▁оперы	-10.4298
▁выдатны	-10.4301
▁літара	-10.4307
чэр	-10.4311
▁межамі	-10.4312
▁(10	-10.432
▁асманск	-10.4327
▁давыд	-10.4328
▁міністра	-10.4329
▁адрозніваюцца	-10.4331
▁рыф	-10.4334
▁пола	-10.4338
мысл	-10.4347
47"	-10.4349
▁андрэй	-10.435
55"	-10.4355
зій	-10.4357
▁дзір	-10.4358
▁арэ	-10.436
05"	-10.4361
58"	-10.4363
-2	-10.4363
▁здзяйсня	-10.4364
▁захапіў	-10.4364
▁вавілон	-10.4364
▁ашмян	-10.4364
мень	-10.4386
▁наступных	-10.439
49"	-10.439
▁заявіў	-10.4392
стае	-10.4392
джан	-10.4397
водзяцца	-10.4398
▁ўсходняй	-10.44
▁транспартны	-10.4402
▁базе	-10.4403
▁увесь	-10.4405
▁абшчын	-10.4406
▁скарб	-10.4408
шня	-10.441
▁невядомы	-10.441
▁атрада	-10.4413
доўга	-10.4414
▁пор	-10.4416
bu	-10.4423
юр	-10.4424
▁выразна	-10.4432
▁адпавядае	-10.4432
▁дзейнічаюць	-10.4432
▁этнічна	-10.4432
▁далучаны	-10.4432
▁зрабіць	-10.4432
▁абласцей	-10.4432
▁атама	-10.4435
31"	-10.4439
25"	-10.4439
коп	-10.4442
▁дамы	-10.4443
▁кіраўнікоў	-10.4446
▁трап	-10.4457
▁сухі	-10.4463
▁дапамозе	-10.4467
▁прадукцыі	-10.4467
▁электрычна	-10.4467
▁лясоў	-10.4467
ii	-10.4467
▁зорная	-10.4467
▁1812	-10.4469
▁навучання	-10.4473
віл	-10.4473
▁вызначаецца	-10.4473
цяр	-10.4476
лён	-10.4479
▁грамадскіх	-10.4483
42"	-10.4484
▁рэшткі	-10.4486
56"	-10.4487
▁перап	-10.4493
0,5	-10.4496
▁сейм	-10.4497
▁заходняя	-10.45
▁філосаф	-10.4501
▁царкве	-10.4501
▁вадасховішча	-10.4501
▁мясцовасці	-10.4502
▁барыса	-10.4502
▁афіцыйнай	-10.4503
▁1963	-10.4508
▁кантынента	-10.4512
здоўж	-10.4515
аграфія	-10.4519
▁называлі	-10.4519
хоп	-10.4522
▁вялікабрытанія	-10.4524
▁перажы	-10.4525
wa	-10.4525
▁спроба	-10.453
▁універсітэта	-10.4531
міністр	-10.4532
▁егіпет	-10.4536
▁эпоху	-10.4536
▁сюжэт	-10.4536
▁заканчэння	-10.4536
▁квадрат	-10.4536
63"	-10.4536
▁атрыманы	-10.4544
▁звыча	-10.4548
мой	-10.455
▁камандаваннем	-10.4552
▁швед	-10.4555
▁марцін	-10.4556
▁альбом	-10.456
рацыі	-10.4561
▁княж	-10.4561
▁рэспубліканска	-10.4565
32"	-10.4567
▁ўспамін	-10.4571
че	-10.4572
▁моманту	-10.4574
▁бура	-10.4576
▁памеры	-10.4576
▁экз	-10.4578
30"	-10.4585
▁(5	-10.4589
▁жонкай	-10.459
культурна	-10.4593
нёў	-10.4593
24"	-10.4594
▁запас	-10.4594
▁лаў	-10.4601
34"	-10.4602
▁аўтамабільны	-10.4602
▁колькасцю	-10.4605
▁адміністрацыі	-10.4605
▁калумб	-10.4606
▁асновы	-10.4607
звярта	-10.4609
▁полацк	-10.461
льніка	-10.461
▁скончылася	-10.4611
▁жук	-10.4612
▁1955	-10.4612
▁труб	-10.4614
▁перыядычна	-10.4614
▁старшы	-10.4617
▁эканамічнага	-10.4617
▁касцёла	-10.4623
хіл	-10.4625
вядзення	-10.4625
▁венгрыі	-10.4628
16"	-10.4628
▁элементы	-10.4632
▁млын	-10.4634
57"	-10.4637
▁міцкевіч	-10.464
▁падпарадкавання	-10.464
▁падпарадкоўва	-10.464
▁of	-10.4642
▁марка	-10.4647
▁самога	-10.4651
▁казіміра	-10.4652
▁свабодна	-10.4656
▁склалі	-10.4661
▁мірны	-10.4663
br	-10.4664
▁пачынае	-10.4668
ng	-10.467
59"	-10.4672
ски	-10.4673
▁рэжысёр	-10.4675
▁мяжой	-10.4675
▁сусветную	-10.4675
▁станіслаў	-10.4675
▁традыцыя	-10.4676
▁акцёр	-10.4676
▁неад	-10.4678
2006	-10.4679
кель	-10.4681
▁камбінат	-10.4681
▁падзелена	-10.4681
▁нарэшце	-10.4685
44"	-10.4688
ae	-10.469
▁брон	-10.469
рэгул	-10.4691
70-	-10.4703
▁люд	-10.4706
▁грамадскага	-10.4707
▁рэспублікай	-10.4708
▁памерла	-10.471
▁маёнтку	-10.4711
▁асабісты	-10.4711
▁двума	-10.4711
▁падпісаў	-10.4711
48"	-10.4712
▁выбух	-10.4712
шэр	-10.4713
▁апошнім	-10.472
▁гарэ	-10.4728
▁істотна	-10.4731
▁выдадзены	-10.4731
ent	-10.4732
▁заходняга	-10.4732
цыйнай	-10.4735
▁гарах	-10.4738
▁застаўся	-10.4747
▁выказа	-10.4748
▁вызначана	-10.4748
▁азія	-10.4751
▁бераг	-10.4751
стычны	-10.4753
▁спра	-10.4754
▁савецкім	-10.4757
▁верхня	-10.4757
▁маль	-10.4764
▁заняты	-10.4766
▁сконч	-10.4772
▁гарнізон	-10.4781
▁пагадненне	-10.4781
цэвіч	-10.4782
▁засталіся	-10.4782
селен	-10.4784
▁1978	-10.4789
▁1936	-10.479
▁даніл	-10.4791
▁спадарожніка	-10.4792
▁перавоз	-10.4797
▁кампазітар	-10.4801
▁мінскі	-10.4803
раба	-10.481
▁курган	-10.481
ядноўва	-10.4817
▁контр	-10.482
▁сацыялістычнай	-10.4823
▁абодва	-10.4825
▁пастанова	-10.4827
▁барыс	-10.4829
цвя	-10.4833
▁чылі	-10.4837
▁справах	-10.484
▁органы	-10.4841
▁крыніца	-10.4848
▁адпраў	-10.4848
▁ажаніўся	-10.4853
▁бразіліі	-10.4853
▁ўдзельнічаў	-10.4853
▁вымярэння	-10.4853
▁матч	-10.4854
▁польшчай	-10.4857
▁ідзе	-10.4858
▁мясцовым	-10.486
39"	-10.486
46"	-10.4861
▁сельскі	-10.4863
▁міс	-10.4863
▁купала	-10.4866
▁кіламетраў	-10.4871
▁іншы	-10.4871
▁1897	-10.4871
▁інф	-10.4872
▁малер	-10.4876
▁волі	-10.4878
беларусь	-10.4886
▁дума	-10.4888
▁вывучэння	-10.4889
▁сацыяльны	-10.4889
03"	-10.489
▁расійская	-10.4891
▁прыбыў	-10.4893
езду	-10.4895
▁рысы	-10.4897
моўных	-10.4897
▁патрыярха	-10.4899
▁вагон	-10.4899
▁600	-10.49
была	-10.4901
▁старажытнай	-10.4901
▁галоўная	-10.4904
▁часціц	-10.4905
ванню	-10.4908
28"	-10.4908
чэй	-10.4908
▁гарба	-10.4908
беларус	-10.4909
ціс	-10.491
51"	-10.4911
▁водны	-10.4913
▁асновай	-10.4913
29"	-10.4923
▁заставалася	-10.4925
▁аўстраліі	-10.4925
▁пакістан	-10.4926
▁захоўваецца	-10.4927
▁(6	-10.4929
▁тэрма	-10.4931
▁1969	-10.4932
▁1985	-10.4933
▁сучасныя	-10.4934
▁гадз	-10.4937
▁асноўнымі	-10.4938
▁змена	-10.4939
▁захоплены	-10.4939
▁крыніцах	-10.4944
▁загадаў	-10.4944
14"	-10.4952
17"	-10.4953
▁дарога	-10.4958
▁нахіл	-10.4959
▁іосіф	-10.4961
▁выключэннем	-10.4961
▁ягайла	-10.4961
▁уключаючы	-10.4961
▁юнеска	-10.4961
▁дазволіла	-10.4962
▁гандаль	-10.4964
сьці	-10.4965
▁перш	-10.4973
▁віс	-10.4979
23"	-10.4981
▁літар	-10.4985
груд	-10.4985
▁жыгімонт	-10.4986
▁змяшчае	-10.4987
ступілі	-10.4987
▁помнікаў	-10.4987
сэр	-10.499
▁душ	-10.4992
▁бібліятэкі	-10.4993
▁палітычным	-10.4994
▁другое	-10.4997
▁заставаўся	-10.4997
▁музеі	-10.4997
галоў	-10.5002
▁дзю	-10.5003
▁1968	-10.5004
▁вяз	-10.5005
▁метады	-10.5009
▁палка	-10.5009
▁высокім	-10.5009
ac	-10.501
▁полк	-10.5016
▁славен	-10.5016
▁брытанскай	-10.502
▁расход	-10.502
▁пусты	-10.5024
▁смерцю	-10.5033
▁неабходны	-10.5033
▁дзяржаву	-10.5033
▁адмысловы	-10.5033
▁скасавана	-10.5034
▁абсалютна	-10.5034
▁імператарам	-10.5036
▁лясны	-10.5038
▁фота	-10.5039
даваліся	-10.5041
цыйныя	-10.5042
▁запасы	-10.5049
▁шкод	-10.5052
▁правядзення	-10.5052
овак	-10.5055
вата	-10.5055
▁даследавання	-10.5067
▁узнагарод	-10.5069
▁пачаткова	-10.507
▁генеральны	-10.5071
▁вызначаны	-10.5072
тварылася	-10.5075
дары	-10.5078
бак	-10.5088
80-	-10.509
▁крыві	-10.509
▁максімальна	-10.5092
▁піша	-10.5095
▁гістарычнай	-10.5103
геаграфічны	-10.5105
▁экспедыцыя	-10.5106
▁ўзросце	-10.5106
io	-10.5107
водзілі	-10.5109
▁прынялі	-10.5112
частка	-10.5114
алізацыі	-10.5129
ковіч	-10.5132
вальны	-10.5139
▁абодвух	-10.5143
▁канферэнцыі	-10.5143
▁рэферэндум	-10.5143
▁двойчы	-10.5143
▁сталыпін	-10.5143
▁загінулі	-10.5143
▁поўдня	-10.5143
▁скарыны	-10.5143
▁ордэнам	-10.5145
▁скар	-10.5145
▁падання	-10.5152
15"	-10.5158
22"	-10.5161
йскіх	-10.5167
▁месцамі	-10.5168
ляцыі	-10.5169
▁рэшт	-10.517
▁арэал	-10.5174
▁рэдакцыі	-10.518
▁барацьба	-10.518
▁здароўя	-10.518
▁заняпад	-10.518
—13	-10.5182
коўскага	-10.5185
▁1979	-10.5187
▁паліва	-10.5189
▁вось	-10.5192
▁цэл	-10.5193
ковай	-10.5196
▁бабруйск	-10.5197
▁братоў	-10.5201
▁вырошчва	-10.5202
19"	-10.5203
метрычн	-10.5203
лера	-10.5204
▁кіеўскі	-10.5205
▁мат	-10.5208
зацыя	-10.5209
▁дроб	-10.5212
▁перамог	-10.5213
—12	-10.5217
▁запазыча	-10.5217
▁напрамку	-10.5217
▁ўзнагарод	-10.5217
▁сяло	-10.5218
▁штурм	-10.522
▁стыль	-10.5224
▁бара	-10.5225
▁прэзідэнцкі	-10.5234
▁вітаўт	-10.5238
▁радзівілаў	-10.524
▁шчыльна	-10.5241
3,5	-10.5245
▁рыме	-10.5247
тарны	-10.5249
ток	-10.5252
▁даўжынёй	-10.5254
▁будынку	-10.5254
▁выйшлі	-10.5254
▁кісларод	-10.5254
▁развіцці	-10.5254
▁аўстрыі	-10.5254
▁належаў	-10.5254
▁дадатковы	-10.5254
▁расійскага	-10.5255
▁рэп	-10.526
▁аат	-10.5266
▁незалежнай	-10.5266
▁(9	-10.5267
▁эфект	-10.5274
авымі	-10.5274
▁цяжк	-10.5276
▁флот	-10.5279
тварэнні	-10.5281
▁рымска	-10.5285
▁сябрам	-10.5286
▁здолеў	-10.5292
▁даўжыні	-10.5292
▁абарону	-10.5292
▁зрабіла	-10.5292
▁урада	-10.5294
працоўва	-10.5301
бальшаві	-10.5305
▁магла	-10.5305
06"	-10.5308
▁складалася	-10.5311
▁бэ	-10.5312
07"	-10.5312
сткі	-10.5313
▁камер	-10.5314
▁цяп	-10.5318
славян	-10.532
▁сустрака	-10.5321
▁ўзнікла	-10.5322
▁гарадскіх	-10.5327
▁пытання	-10.5327
▁мікалаевіч	-10.5329
▁росквіт	-10.5329
▁будынкі	-10.5329
найболей	-10.5329
▁духоўны	-10.5329
▁вільгельм	-10.5329
▁інтэрнэт	-10.5329
мове	-10.533
▁матэрыяльна	-10.533
▁зброі	-10.533
▁пакут	-10.5331
жыцця	-10.5332
прыток	-10.5332
▁паслядоўна	-10.5335
▁планет	-10.5335
▁чацвёр	-10.5335
▁даследчык	-10.5338
▁дарогі	-10.5351
▁браты	-10.5352
▁асуджаны	-10.5358
▁належала	-10.5367
▁астраном	-10.5368
▁палаты	-10.537
ver	-10.5371
▁агульным	-10.5371
▁паэм	-10.5372
ццю	-10.5373
▁версія	-10.5373
▁народная	-10.5373
▁намеснікам	-10.5377
▁нігер	-10.5382
▁дзіця	-10.5382
балгар	-10.5386
франц	-10.5389
▁бачны	-10.5396
▁выходзіць	-10.5396
эла	-10.5397
▁афрыцы	-10.5404
▁вашынгтон	-10.5404
▁дзяцінства	-10.5404
▁драматург	-10.5404
▁залежыць	-10.5404
ляс	-10.5405
▁юрый	-10.5406
▁правым	-10.5407
▁эль	-10.5409
▁1973	-10.5411
▁1971	-10.5411
важны	-10.5412
гол	-10.5412
▁смі	-10.5414
▁восі	-10.5422
жын	-10.5424
▁фасад	-10.5424
▁кол	-10.5425
04"	-10.543
▁сярэдняга	-10.5432
▁канстанціна	-10.5434
▁апублікаваны	-10.5435
▁пінск	-10.5437
▁нарыс	-10.5437
▁захапілі	-10.5442
▁спецыяліст	-10.5442
▁пастаўлены	-10.5443
▁грошы	-10.5443
▁клуба	-10.5443
▁трапіў	-10.5444
tor	-10.5445
▁ніяк	-10.5447
▁надвор	-10.545
▁каляров	-10.5451
▁1916	-10.5453
▁прывялі	-10.5454
таваны	-10.5457
go	-10.5458
▁раку	-10.5458
▁янкі	-10.546
40"	-10.5461
▁чыгунка	-10.5465
▁уладу	-10.5466
▁смал	-10.5466
▁суп	-10.5468
▁абвяшчэнн	-10.548
▁гледжання	-10.548
▁забеспячэння	-10.548
▁ацэньва	-10.548
▁батальён	-10.548
▁зімой	-10.5481
▁юзаф	-10.5482
▁выключа	-10.5486
the	-10.5502
нутраных	-10.5507
▁усходне	-10.5508
▁піва	-10.5509
▁зарад	-10.551
▁органаў	-10.5511
▁даследчыкаў	-10.5514
ніст	-10.5515
▁грыб	-10.5517
▁жур	-10.5518
▁ландшафт	-10.5518
▁стакгольм	-10.5518
▁сітуацыя	-10.5518
▁фрыдрых	-10.5518
▁вясной	-10.5518
▁прамое	-10.552
▁фільма	-10.552
▁думкі	-10.552
▁песень	-10.5521
беларускай	-10.5521
аляксандр	-10.5524
ck	-10.5525
▁пасадзе	-10.5529
▁ярка	-10.553
верх	-10.5534
▁дзіцяча	-10.5543
стрэл	-10.5543
▁склала	-10.5544
▁форм	-10.5545
▁выданні	-10.5546
▁садзейніча	-10.5557
▁апошняй	-10.5557
▁братам	-10.5561
▁іспанскі	-10.5561
▁1907	-10.5562
▁духоўна	-10.5568
леп	-10.5569
▁правадыр	-10.5575
▁барысаў	-10.5576
▁хаця	-10.5579
новы	-10.5582
рэзерв	-10.5583
▁занялі	-10.5588
тэрмін	-10.559
▁апублікаваў	-10.5594
▁малодшы	-10.5595
▁ўтварэння	-10.5595
▁земляробства	-10.5595
▁міг	-10.5595
▁ўваходзілі	-10.5595
▁правінцый	-10.5596
▁малюнка	-10.5597
▁коласа	-10.5599
▁цэзар	-10.5599
▁іран	-10.56
▁перу	-10.5601
▁міла	-10.5603
▁выклад	-10.5605
▁120	-10.5612
▁ўвайшла	-10.5613
▁рукі	-10.5615
▁горных	-10.5617
джана	-10.5623
ngc	-10.5625
чанка	-10.5627
▁хвалі	-10.5631
▁дасягнуў	-10.5634
▁фарміравання	-10.5634
▁арганізаваны	-10.5634
▁паражэнне	-10.5634
▁перавагу	-10.5634
▁1960-	-10.5634
▁якому	-10.5635
▁абяца	-10.5638
ри	-10.5638
пале	-10.564
▁кожнага	-10.564
▁().	-10.5644
▁ўладанні	-10.5645
▁ваявода	-10.5648
▁роднай	-10.5649
▁аснова	-10.565
▁ваявод	-10.5651
▁самой	-10.5653
▁жывёлы	-10.5654
▁вайсковы	-10.5656
▁нейкі	-10.5657
▁драўлян	-10.5661
▁перайшл	-10.5663
сэн	-10.567
дума	-10.5671
▁міхайлавіч	-10.5673
▁дзяржаве	-10.5673
▁існаваў	-10.5673
▁робіць	-10.5674
▁мяжа	-10.5675
▁падобныя	-10.5677
сср	-10.5679
заходняй	-10.5681
▁красна	-10.5681
герман	-10.5683
▁перанос	-10.5685
▁губернатара	-10.5688
▁сял	-10.5691
шак	-10.5693
▁адама	-10.5694
08"	-10.5694
▁грамадзянскі	-10.5695
os	-10.5695
ное	-10.5701
▁герцага	-10.5703
▁дзяржаўныя	-10.5703
▁расійскіх	-10.5707
▁ўзыходжанне	-10.5711
▁выпадках	-10.5711
▁адсутнасць	-10.5711
▁галасоў	-10.5712
▁пакінуць	-10.5712
метал	-10.5712
▁валодае	-10.5712
▁спалуча	-10.5712
▁апынуў	-10.5712
▁цэнтральная	-10.5716
▁верша	-10.5717
▁прастол	-10.5717
ляюцца	-10.5718
▁1972	-10.5719
xi	-10.5725
▁веліч	-10.5728
▁1863	-10.5728
льнікам	-10.573
▁сібіры	-10.5731
▁акта	-10.5735
дынамік	-10.5735
▁характару	-10.5743
▁полацкага	-10.5745
▁федэральна	-10.5748
прэс	-10.5749
▁азербайджан	-10.575
▁гіпотэз	-10.575
падаюць	-10.5751
трымліваць	-10.5751
▁законы	-10.5751
▁басейне	-10.5752
▁месцам	-10.5756
00"	-10.5759
▁верхнім	-10.5761
▁мясцовай	-10.5761
▁2021	-10.5766
нізму	-10.5767
▁эсэ	-10.577
ze	-10.5782
▁кля	-10.5782
▁апынулася	-10.579
▁еўрапейскага	-10.579
▁патэнцыял	-10.5792
▁рымлян	-10.5794
▁перайшла	-10.5795
▁паляк	-10.5796
09"	-10.5799
»;	-10.5801
дро	-10.5801
▁палова	-10.5801
▁маскоўска	-10.5803
▁старажытнага	-10.5804
▁сцэна	-10.5805
▁выступае	-10.5806
▁берагі	-10.5807
▁экспарт	-10.5809
500	-10.581
▁беларусы	-10.5813
вель	-10.5816
▁звязаныя	-10.5818
▁старажытнасці	-10.5818
чыся	-10.5819
▁складзены	-10.5819
кладання	-10.582
▁кот	-10.5821
▁буйна	-10.5825
▁трон	-10.5828
▁размяшчэнне	-10.5829
▁праводзіў	-10.5829
▁армію	-10.583
▁высака	-10.5831
рп	-10.5833
▁ніжні	-10.5835
▁1976	-10.5837
тычную	-10.5838
▁ракет	-10.5839
▁будуць	-10.5839
01"	-10.5851
▁валют	-10.5853
▁прытокі	-10.5853
▁крыла	-10.5854
▁цэнтраў	-10.5856
▁нор	-10.5865
▁валас	-10.5865
▁(11	-10.5865
ty	-10.5866
▁цяперашня	-10.5869
▁механізм	-10.5869
▁рознымі	-10.5869
▁асветы	-10.5869
фашысцк	-10.587
▁захавання	-10.587
▁студэнт	-10.5875
▁вусця	-10.5876
▁пераслед	-10.5877
▁візантыйска	-10.588
▁(7	-10.5883
ской	-10.5885
▁краінамі	-10.5891
▁мінерал	-10.5893
▁тураў	-10.5894
▁калон	-10.5897
цом	-10.59
▁дзеці	-10.5902
ою	-10.5905
▁жанчыны	-10.5905
будаўнічы	-10.5907
▁рэгулярна	-10.5908
▁улетку	-10.5909
▁абаронца	-10.591
▁адлюстрава	-10.591
▁настаўнікам	-10.591
▁мані	-10.5911
▁штатаў	-10.5922
▁мясцов	-10.5922
чи	-10.5936
хары	-10.5937
▁савецкія	-10.5938
▁студэнтаў	-10.5942
▁1950-	-10.5943
▁заходне	-10.5943
▁нацыянальная	-10.5944
▁дывізіі	-10.5948
▁еўрабачанне	-10.5948
▁грамат	-10.5949
ёзна	-10.5949
▁палос	-10.5952
▁сеткі	-10.596
▁брытанска	-10.5967
▁партнёр	-10.5977
адзін	-10.5983
▁ірак	-10.5986
ir	-10.5988
▁нарвегіі	-10.5988
▁ніжняй	-10.5988
▁зрабілі	-10.5989
▁лічба	-10.5989
▁будаўнічых	-10.599
▁польскімі	-10.5992
рман	-10.5993
▁pa	-10.6003
▁прызнаў	-10.6003
▁русь	-10.6007
ёму	-10.601
▁літоўскае	-10.6011
ызацыі	-10.6022
▁полацкай	-10.6024
▁пытаннях	-10.6028
▁абавязкова	-10.6028
▁ўзбярэжжы	-10.6028
▁асяроддзя	-10.6028
▁трэцяга	-10.6028
▁абвяшча	-10.6028
▁унутрана	-10.6028
▁ўстановы	-10.6029
▁вадаём	-10.6032
ow	-10.6034
нічы	-10.6035
пэўн	-10.6041
▁стварылі	-10.6041
пло	-10.6043
▁сцены	-10.6049
▁полюса	-10.6049
▁стэп	-10.6052
ловіч	-10.6053
▁зялёны	-10.6055
▁фрэ	-10.6057
▁аўтара	-10.6057
▁сустрэч	-10.606
▁вынікаў	-10.6063
▁выкладаў	-10.6064
▁(8	-10.6066
▁рус	-10.6066
▁вёсак	-10.6069
▁дачкой	-10.6069
▁абвешчаны	-10.6069
▁яраслаў	-10.6069
▁князі	-10.6069
▁аповесці	-10.6071
▁бацькоў	-10.6071
▁сукупна	-10.6074
▁лука	-10.6074
▁размер	-10.6077
▁1987	-10.6078
▁разбура	-10.608
▁няс	-10.6082
гэта	-10.6082
▁далучэнн	-10.6082
▁міжземнамор	-10.6086
op	-10.6091
вялікі	-10.6092
▁меншы	-10.6097
_1	-10.6098
▁сталін	-10.6099
▁глыбіня	-10.6109
▁персанаж	-10.6109
байкал	-10.611
▁арэх	-10.611
▁абмен	-10.6112
▁дзярж	-10.6112
▁палітычная	-10.6112
заможн	-10.6112
▁рачны	-10.6115
▁найбуйнейшых	-10.6119
▁ганна	-10.6123
▁шыра	-10.6123
экс	-10.6124
▁паказвае	-10.6126
▁вусці	-10.6134
▁трапічны	-10.6139
▁рэйн	-10.6139
▁выкарыстоўваць	-10.614
▁працэсы	-10.6143
▁праведзена	-10.6145
▁абвінавачва	-10.615
▁нічога	-10.615
▁рэвалюцыйна	-10.615
▁размаўля	-10.6152
▁яўрэйскі	-10.6153
▁цэнтральнага	-10.6153
▁вілейска	-10.6155
▁праўда	-10.6155
▁1984	-10.6158
▁зразуме	-10.6169
шэн	-10.6183
▁уласны	-10.6185
▁расп	-10.6186
▁фарміраванне	-10.6191
▁спадчыну	-10.6191
▁уплыў	-10.6191
▁уільям	-10.6191
▁харчовая	-10.6191
▁мадэлі	-10.62
▁набыў	-10.6201
▁нямецкія	-10.6207
▁пліт	-10.621
▁троцкі	-10.6213
▁калег	-10.6213
вясн	-10.6217
▁расце	-10.6222
▁вечар	-10.6226
▁перашкод	-10.6228
▁арганізацыю	-10.6232
▁восенню	-10.6232
▁аркестр	-10.6232
▁спрабавал	-10.6232
кладзена	-10.6234
▁прагрэс	-10.6236
▁чалавекам	-10.6244
слуг	-10.6244
▁даліны	-10.6245
▁выказаў	-10.6251
▁леў	-10.6255
си	-10.6256
цова	-10.6261
▁тэмп	-10.6267
▁брыт	-10.627
▁найважнейшы	-10.6273
▁падтрымцы	-10.6273
▁прэзідыум	-10.6273
▁адноўлена	-10.6273
▁узнагароджаны	-10.6274
▁святой	-10.6275
▁ўвагу	-10.6276
▁1909	-10.6279
▁малой	-10.6279
▁1983	-10.628
раваны	-10.6283
▁гарадзен	-10.6283
▁ўплыву	-10.6285
зброеных	-10.6285
буры	-10.6286
▁ежы	-10.6291
легла	-10.6299
гэ	-10.6299
▁маз	-10.6301
▁сутак	-10.6305
▁строга	-10.631
алогію	-10.631
▁войн	-10.631
▁інфраструктур	-10.6314
▁падставе	-10.6314
▁такое	-10.6315
▁меркаванне	-10.6315
▁адрас	-10.6317
▁1900	-10.6317
ліст	-10.6317
ходзячы	-10.6317
02"	-10.6319
▁нёмана	-10.6323
▁міхаіла	-10.6327
▁распаду	-10.6329
▁замежны	-10.633
ёзны	-10.6331
▁гімна	-10.6334
▁замку	-10.634
ступіць	-10.6346
▁прыняць	-10.6346
▁сэнсе	-10.6353
канал	-10.6355
▁праходзяць	-10.6355
філасофскі	-10.6356
▁праваслаўная	-10.6356
▁вяртання	-10.6356
▁абароне	-10.6356
▁сэрца	-10.6356
▁назірання	-10.6359
▁том	-10.636
▁міх	-10.6376
▁паказаў	-10.638
водзіцца	-10.638
ніцкай	-10.6386
▁абавязкі	-10.6397
▁аўтадарог	-10.6397
▁гарадской	-10.6397
▁карысталіся	-10.6397
▁плямён	-10.6399
▁дарозе	-10.6399
▁рыбы	-10.6401
▁кожная	-10.6402
▁спроб	-10.6403
▁коп	-10.6405
▁філіял	-10.6409
▁болей	-10.6416
▁судова	-10.6417
▁цвёрда	-10.6417
▁франц	-10.6423
▁чарн	-10.6428
▁сельская	-10.643
▁скірмунт	-10.6439
▁схіленне	-10.6439
▁гальшан	-10.6439
▁пазнаёміўся	-10.6441
▁знайсці	-10.6444
▁бяроз	-10.6445
▁1953	-10.6446
▁1970-	-10.6449
▁дняпра	-10.645
▁войск	-10.645
▁прызнаны	-10.6451
▁доказ	-10.6458
брод	-10.6465
▁пароды	-10.6467
▁відавочна	-10.6469
▁хуткасць	-10.6469
▁выдавец	-10.6472
pr	-10.6481
▁вывучае	-10.6481
▁вышэйшай	-10.6483
▁продаж	-10.6484
▁творах	-10.6487
▁парадак	-10.649
▁белага	-10.6494
▁віцебску	-10.6496
шту	-10.6497
▁навуковая	-10.6497
населеных	-10.6501
станцыя	-10.6503
▁земляў	-10.6503
ou	-10.651
ленд	-10.6511
▁левы	-10.6513
▁займаецца	-10.6515
ran	-10.6521
▁архітэктура	-10.6523
▁зацверджаны	-10.6523
▁лічылася	-10.6523
▁ваўкавыск	-10.6523
▁харч	-10.6529
▁выявы	-10.6529
▁маецца	-10.6531
▁магутны	-10.6537
іраваны	-10.6537
▁атрымалася	-10.654
▁краі	-10.6542
чэн	-10.6544
радзілася	-10.6546
▁узор	-10.6551
▁партызанска	-10.6559
зіць	-10.656
быцця	-10.6563
савет	-10.6564
▁распаўсюдзі	-10.6566
▁сярэднявечча	-10.6566
▁шырынёй	-10.6566
▁трэцяй	-10.6566
▁другую	-10.6566
▁рэвалюцыйны	-10.6566
▁свіслач	-10.6566
▁праўлення	-10.6566
▁акадэмія	-10.6566
лец	-10.6568
▁пераемнік	-10.6569
▁хор	-10.6571
ізаваны	-10.6578
▁гама	-10.6581
▁здыма	-10.6582
▁янка	-10.6588
чака	-10.6589
▁пункты	-10.6591
▁дамена	-10.6594
назва	-10.6603
станов	-10.6603
шчу	-10.6605
▁павялічы	-10.6607
▁дзеячаў	-10.6608
▁вільготны	-10.6608
▁чарнігаў	-10.6608
▁імёны	-10.6608
▁вырабаў	-10.661
▁асад	-10.6613
▁сямёна	-10.6622
тыр	-10.6629
▁помніка	-10.6629
▁код	-10.6633
▁законаў	-10.6637
▁чэхіі	-10.6638
▁густа	-10.6645
каталог	-10.6646
▁паходу	-10.6649
▁змешчаны	-10.6651
▁каштоўны	-10.6651
▁астравах	-10.6651
▁галосны	-10.6652
водзілася	-10.6653
▁сабора	-10.6655
▁віцебскі	-10.6656
вада	-10.6657
▁чыста	-10.666
▁акадэмічн	-10.6663
ko	-10.6668
чырвоны	-10.6677
кол	-10.668
▁спорту	-10.6685
ии	-10.6688
▁аўтараў	-10.6692
▁слюдзян	-10.6694
▁лаўрэат	-10.6694
▁вузел	-10.6694
▁сігнал	-10.6694
▁дзюрэр	-10.6694
оф	-10.6696
вічаў	-10.6696
▁свай	-10.6698
▁соф	-10.67
▁пойма	-10.6701
▁здольны	-10.6702
▁немцы	-10.6703
▁мастацкай	-10.6706
▁паэмы	-10.6708
▁свабоды	-10.671
▁viii	-10.6713
▁высокіх	-10.672
▁старажытныя	-10.6723
▁напачатку	-10.6726
▁органам	-10.6732
▁аўтарам	-10.6736
працоўцы	-10.6737
▁тадэвуш	-10.6737
▁вывучаў	-10.6737
▁бібліі	-10.6737
▁магутнасць	-10.6738
▁матчы	-10.6739
прыгожа	-10.6741
закон	-10.6744
▁маюцца	-10.6745
▁рабілі	-10.6753
▁сімвалам	-10.6755
▁арміяй	-10.6757
+	-10.6767
ed	-10.677
▁ператвары	-10.6776
▁развіццю	-10.678
▁тагачасна	-10.678
▁ваенную	-10.678
▁сённяшні	-10.678
▁язэп	-10.6781
▁дзяўчын	-10.6781
▁прысуд	-10.6781
▁падтрымліваў	-10.6782
▁навукоўцы	-10.6782
▁кітаі	-10.6784
▁элемента	-10.6784
▁паранены	-10.6785
▁жорстк	-10.6787
ўскае	-10.6787
▁берагоў	-10.6788
▁узброен	-10.6788
▁выбраны	-10.6792
▁рабочы	-10.6792
▁значных	-10.6793
рускі	-10.6795
▁пасада	-10.6797
▁інтэнсіўна	-10.6803
▁базы	-10.6803
▁раду	-10.6804
▁архітэктар	-10.6806
бен	-10.6808
▁сучасным	-10.6814
▁плямёнаў	-10.6815
▁найбольшы	-10.6816
▁хвароб	-10.6818
▁краю	-10.6818
tra	-10.682
▁платформ	-10.6824
▁спрыяла	-10.6824
▁царкву	-10.6824
▁дзейнасцю	-10.6824
▁васіля	-10.6824
сусветнага	-10.6825
дзясят	-10.6826
▁савецкая	-10.6828
▁выканаўча	-10.6828
▁крама	-10.6829
▁прыхільнікам	-10.6837
тэль	-10.6839
▁радыус	-10.6839
▁кампазітара	-10.6843
▁працоўных	-10.6846
▁цэлы	-10.6854
▁трэнер	-10.6855
павярховы	-10.6855
рэшце	-10.6865
▁ўзначальва	-10.6867
катэгорыя	-10.6867
▁тэхнікі	-10.6867
▁дыпламатычн	-10.6869
▁моц	-10.6875
▁валодаў	-10.6875
▁граб	-10.6876
sh	-10.6876
несці	-10.6877
бэ	-10.6878
▁славянскіх	-10.688
▁тэатры	-10.6886
славянскі	-10.6887
▁фірм	-10.6888
▁высокая	-10.6888
▁стану	-10.6888
▁працэсу	-10.689
сучасн	-10.689
▁злучае	-10.6897
лічвалася	-10.691
▁паўночных	-10.691
▁знаходжання	-10.6911
▁суадносін	-10.6911
▁нярэдка	-10.6911
▁дрэваапрацоў	-10.6911
▁праводзіліся	-10.6911
▁імперскі	-10.6912
▁серыі	-10.6913
▁мілі	-10.6914
▁няз	-10.6915
▁змяніў	-10.6919
твараюцца	-10.6919
▁вугаль	-10.6922
сбург	-10.6924
▁дробных	-10.6924
▁прадукт	-10.6924
▁эканамічнай	-10.6926
ляры	-10.6931
▁хэ	-10.6938
правы	-10.6939
▁заліў	-10.6941
▁духоўнай	-10.6942
гвалт	-10.6949
▁верхняй	-10.6949
рэгіянальны	-10.6955
▁зроблена	-10.6955
▁адмыслова	-10.6955
▁ўжываецца	-10.6956
▁бацьку	-10.6956
▁дыкта	-10.6956
▁харчавання	-10.6956
леўскі	-10.696
▁працягвалі	-10.6961
▁рашэнні	-10.6962
▁1981	-10.6964
▁узяў	-10.6966
еўскага	-10.6966
▁праводзіць	-10.6969
▁караблі	-10.697
▁голас	-10.6976
—10	-10.6988
▁кура	-10.6993
▁часопісе	-10.6993
▁жалез	-10.6996
міністрам	-10.6998
▁дысцыплін	-10.7
▁княстве	-10.7
▁мсціслаў	-10.7
▁сталіцу	-10.7007
▁1977	-10.7009
▁юпітэра	-10.701
▁бата	-10.7012
▁прыхільнікаў	-10.7015
▁перадаў	-10.7019
con	-10.7022
▁высокія	-10.7027
▁аляксандравіч	-10.7028
▁лондане	-10.7034
▁напалеона	-10.7035
▁ладу	-10.7036
▁галактык	-10.704
▁адрозненні	-10.7044
▁арыстакрат	-10.7044
▁аддзялення	-10.7044
▁адноўлены	-10.7044
▁яўген	-10.7045
▁нкус	-10.7046
▁польская	-10.7057
▁аперацыя	-10.7065
▁пераварот	-10.7067
страл	-10.7068
▁сфера	-10.7069
▁верхні	-10.7075
fe	-10.7077
▁разбураны	-10.7077
дзвінск	-10.7079
▁рэгіёнаў	-10.7079
▁нагляд	-10.7085
▁утварае	-10.7085
▁аляксей	-10.7088
▁рэлігійных	-10.7088
▁арганізавана	-10.7089
▁падрабязн	-10.7089
▁падтрымкі	-10.7089
▁петраград	-10.7089
свядома	-10.7089
▁сталец	-10.7092
▁пункту	-10.7093
▁1904	-10.7094
▁прадукты	-10.7095
кроп	-10.7097
▁раўніна	-10.7098
▁працэсаў	-10.71
▁святых	-10.71
▁перакладчык	-10.7101
▁мадэль	-10.7104
▁адзінства	-10.7105
▁дамаг	-10.711
▁2,5	-10.7117
ухі	-10.7124
▁тракт	-10.7125
ліца	-10.7127
▁ісус	-10.7132
▁хв	-10.7132
▁уладзіслава	-10.7133
▁габсбург	-10.7133
▁недалёка	-10.7133
▁уваходзіў	-10.7134
▁аднаўленне	-10.7134
▁абапіра	-10.7134
▁ірланд	-10.7134
▁вопыт	-10.7135
гуля	-10.7137
▁сацыяльных	-10.7137
значаюцца	-10.7144
▁гістарычныя	-10.7146
▁вебер	-10.715
▁спажыва	-10.7153
▁выхаду	-10.7159
▁тэмы	-10.7168
вальд	-10.7171
▁матэматык	-10.7174
▁заводы	-10.7177
▁стрэл	-10.7177
яўляліся	-10.7179
▁кабінет	-10.7179
▁пражывае	-10.7179
▁жаночы	-10.7179
▁ацэнкі	-10.7179
▁фізікі	-10.7179
▁ўварва	-10.718
ключэння	-10.7181
▁літары	-10.7182
цо	-10.719
▁аўтамабіляў	-10.7191
гел	-10.7195
об	-10.7195
▁спява	-10.7198
ьскі	-10.7198
▁урадам	-10.7203
лёва	-10.7209
1,2	-10.7211
▁гістарычнага	-10.7216
▁прымае	-10.722
▁раскол	-10.7223
▁падрыхтоўкі	-10.7224
▁сцвярджае	-10.7224
▁выканання	-10.7224
▁заходнюю	-10.7224
▁арыентава	-10.7224
▁сярэднія	-10.7224
▁вус	-10.7224
▁разгром	-10.7224
▁марса	-10.7226
еўрапейскі	-10.723
▁1952	-10.7231
▁тыпы	-10.7232
спадарожнік	-10.7234
▁нізіна	-10.7236
▁французская	-10.7238
▁расці	-10.7238
▁агарод	-10.7239
▁прыводзіць	-10.724
▁грамадскай	-10.7241
▁часовы	-10.7242
▁крас	-10.7242
▁федэра	-10.7245
▁фінал	-10.7246
▁рымскага	-10.725
▁абраз	-10.7255
▁берагах	-10.7258
▁вызначае	-10.7262
▁атрымлівае	-10.7264
▁воднай	-10.7265
▁рублёў	-10.727
абслугоўва	-10.7271
▁італія	-10.7275
туецца	-10.7277
▁ядро	-10.7277
▁прыродна	-10.7292
▁лейб	-10.7295
▁дадзеныя	-10.7296
ковыя	-10.7301
вязан	-10.731
▁эміграцыі	-10.7315
▁музыку	-10.7315
▁славакіі	-10.7315
лічваецца	-10.7315
▁складаюцца	-10.7315
▁здабыва	-10.7315
мунд	-10.7316
▁маскоўскім	-10.7318
▁знаход	-10.7318
▁візіт	-10.732
▁гміны	-10.7321
▁захаваўся	-10.7323
▁войны	-10.7327
▁перамога	-10.7327
▁думка	-10.7328
звычайна	-10.733
▁настаўніцк	-10.7331
▁кансерв	-10.7331
▁выкарыстоўвалі	-10.7331
▁паўднёвых	-10.7331
паліт	-10.7332
тап	-10.7333
фін	-10.734
▁пераваж	-10.7351
▁воды	-10.7358
▁гарадзішча	-10.7361
▁выяўлена	-10.7361
▁цёмна	-10.7362
▁гаспадарцы	-10.7365
каляндар	-10.7365
▁літоўскіх	-10.7365
істычна	-10.7365
▁рынку	-10.7367
фізічны	-10.737
▁адзінак	-10.7373
зровень	-10.7375
▁нёман	-10.7379
▁магнат	-10.738
▁нямецкага	-10.7381
▁адкуль	-10.7383
▁навучанне	-10.7386
▁экспарту	-10.7388
▁праваслаўных	-10.7388
дзвесце	-10.739
▁кандыдата	-10.7392
▁магутн	-10.7392
▁сцёк	-10.7395
▁ветра	-10.7396
змяшча	-10.74
▁каты	-10.7404
гісторыя	-10.7405
▁аўтарытэт	-10.7407
▁рэдкі	-10.7409
▁арка	-10.741
балтыйскі	-10.741
ндры	-10.7411
▁ажыццяўляецца	-10.7413
груз	-10.7416
300	-10.7417
ашкевіч	-10.7423
▁крыніцай	-10.7424
носяць	-10.7433
▁чацвёрты	-10.7445
▁палякаў	-10.7445
▁характэрныя	-10.7446
▁кампанент	-10.7453
▁людовік	-10.7453
▁уладзіслаў	-10.7453
▁чалавецтва	-10.7453
▁скараці	-10.7453
▁водна	-10.7453
▁украінскай	-10.7454
▁спадчына	-10.7454
▁пратэстанцк	-10.7455
▁выконвае	-10.7455
альберт	-10.7462
▁кожн	-10.7462
▁змог	-10.7463
▁шлюбу	-10.7468
сти	-10.7468
▁поўнай	-10.7469
▁кракаў	-10.747
▁апавяда	-10.7474
▁250	-10.7479
беры	-10.7479
андр	-10.7481
▁здабычы	-10.75
▁балгарыі	-10.75
▁адыгрыва	-10.75
▁ганаровы	-10.75
▁францыска	-10.75
▁саксон	-10.75
правінцыя	-10.75
▁швецыя	-10.75
▁пазіцыя	-10.7501
ўсходні	-10.7501
▁зброя	-10.7504
▁атрымаўшы	-10.7511
▁бедна	-10.7516
клас	-10.7525
▁істот	-10.7529
▁кало	-10.753
▁погляды	-10.7535
▁далучыўся	-10.7546
▁шаўчэнкі	-10.7546
▁японія	-10.7546
▁адсутнасці	-10.7546
▁адбывалася	-10.7546
▁лічацца	-10.7547
ўсходняй	-10.7548
▁служба	-10.7548
▁мінскім	-10.7548
шую	-10.7549
▁даніі	-10.7549
ога	-10.755
▁1951	-10.7554
▁вобл	-10.7563
▁пастаноў	-10.7563
▁імпарт	-10.7565
▁дапамог	-10.7572
▁конга	-10.7575
▁афіцыйных	-10.7576
▁металаў	-10.7576
▁археолаг	-10.7593
▁дасягнення	-10.7593
▁зямной	-10.7593
▁забудова	-10.7593
▁дадаткова	-10.7593
▁рыхтава	-10.7594
▁індыйскі	-10.7594
▁сакратаром	-10.7598
▁торф	-10.7601
топ	-10.7609
▁грэчаскай	-10.7635
▁шведска	-10.7636
▁маладых	-10.7637
▁паселішчы	-10.764
▁вярнуцца	-10.764
▁джордж	-10.7641
▁перамовы	-10.7641
▁праспект	-10.7641
▁пайшоў	-10.7642
аўстрыйска	-10.7642
▁страціў	-10.7642
▁мадэрн	-10.7644
▁меркавання	-10.7645
▁твар	-10.7646
▁планета	-10.7647
▁імкнуўся	-10.7649
▁цын	-10.7649
▁гэтаму	-10.7655
▁кісл	-10.7673
рэфарм	-10.7676
▁унутраны	-10.7677
▁сялянскай	-10.7682
▁хлеба	-10.7685
▁найбуйнейша	-10.7688
▁фрагмент	-10.7688
▁ўваход	-10.7688
▁інфармацыя	-10.7688
▁заказнік	-10.7693
▁кіева	-10.7697
сінтэз	-10.7699
віца	-10.77
ry	-10.7706
▁каф	-10.7706
▁забіў	-10.7709
90-	-10.7713
▁развед	-10.7716
▁сялянскі	-10.7717
▁медыцынск	-10.7718
▁маё	-10.7722
▁1795	-10.7728
▁націск	-10.773
▁мюнхен	-10.7735
▁сведчаць	-10.7735
▁кампаній	-10.7735
▁хлопчык	-10.7736
▁выконваў	-10.7736
▁вузкі	-10.7736
▁ўнутры	-10.7737
▁японск	-10.7741
▁абазнача	-10.7742
▁калектыў	-10.7742
▁ватыкан	-10.7746
▁саборы	-10.7746
▁займаліся	-10.7748
▁венгер	-10.7759
▁перамір	-10.776
▁куба	-10.7762
▁800	-10.7773
▁абрам	-10.7782
▁новае	-10.7782
▁запаведнік	-10.7783
▁загінула	-10.7783
▁адрозніваюць	-10.7786
▁метрапалітэн	-10.7788
▁ўласцівасці	-10.779
▁1903	-10.779
▁навукоўца	-10.7792
▁злучаных	-10.7794
▁ранейшы	-10.7798
▁выніках	-10.7805
хімія	-10.7806
▁міндоўг	-10.7814
tri	-10.7815
▁альгерда	-10.7815
▁спад	-10.7817
▁займалі	-10.7819
усход	-10.782
▁горка	-10.7825
▁кос	-10.7828
▁дзярнова	-10.7831
▁караблёў	-10.7831
▁пачатковы	-10.7832
▁напэўна	-10.7832
▁гарадамі	-10.7832
▁прастора	-10.7833
▁грамадстве	-10.7833
▁атрады	-10.7834
▁вадарод	-10.7835
▁панавання	-10.7837
▁халодны	-10.784
сот	-10.7843
▁аэс	-10.7843
▁палёт	-10.7844
▁прафесара	-10.7847
▁прыкладам	-10.7847
▁твора	-10.7861
▁войнаў	-10.787
man	-10.7872
▁мэты	-10.7873
▁гітлер	-10.7876
фізік	-10.7877
індустрыя	-10.7878
▁гідронім	-10.788
▁збожжа	-10.788
▁класічнай	-10.788
▁наадварот	-10.788
▁выпрабава	-10.788
▁падпісанн	-10.7885
▁слуха	-10.7886
нацыянальны	-10.7887
per	-10.7892
пц	-10.7896
▁тэрытарыяльны	-10.7898
▁французскага	-10.7902
іван	-10.7905
▁налічвае	-10.7907
рэш	-10.7919
ion	-10.7922
▁ваколіц	-10.7923
▁круга	-10.7927
▁афганістан	-10.7928
▁адзначыў	-10.7928
▁гродне	-10.7928
▁абарончы	-10.7928
▁знайшоў	-10.7929
▁прывяла	-10.7929
прадстаўні	-10.7929
▁калоніі	-10.7929
▁характарызуецца	-10.7931
▁дваранства	-10.7936
▁цесна	-10.7937
xviii	-10.7939
▁руды	-10.7939
▁развіваецца	-10.7941
▁стаіць	-10.7943
інфарма	-10.7952
▁архітэктара	-10.796
▁сходу	-10.7961
важную	-10.7966
▁законам	-10.7969
▁вольна	-10.7971
▁паходзіў	-10.7973
▁катэгорыі	-10.7977
▁земле	-10.7977
▁назіраецца	-10.7977
▁прыстасава	-10.7977
▁пакалення	-10.7978
чанскі	-10.7979
▁змяніла	-10.7979
▁курапат	-10.7979
▁сербска	-10.798
▁вугла	-10.798
▁акадэмік	-10.7985
камун	-10.799
тыўныя	-10.799
▁вядзе	-10.7991
▁войску	-10.7994
▁медыцынскі	-10.7995
▁праводзіцца	-10.7998
эса	-10.8001
ковым	-10.8001
▁групу	-10.8003
ski	-10.8004
▁радзей	-10.8012
gu	-10.8014
азоў	-10.8018
▁дзейнічаў	-10.8026
▁ядзерна	-10.8026
▁паўшар	-10.8026
кантралява	-10.8026
▁прусіі	-10.8028
раванне	-10.8034
▁кіпр	-10.8035
▁індыя	-10.8046
вызвален	-10.8056
▁буду	-10.8057
▁выехаў	-10.806
▁1860	-10.8064
▁здольна	-10.8068
кр	-10.807
▁душу	-10.807
▁інструмент	-10.8071
пусціў	-10.8074
▁будаўніцтве	-10.8075
▁кафедры	-10.8075
▁нептун	-10.8076
▁персідска	-10.8077
▁жанаты	-10.8078
▁палову	-10.8078
▁прынц	-10.8084
паводле	-10.8087
▁лінгвісты	-10.8089
101	-10.8097
▁рэжыму	-10.8101
▁пасольства	-10.8125
▁паўночную	-10.8125
▁тапонім	-10.8125
▁узбярэжжы	-10.8125
гвардыі	-10.8125
▁узроўні	-10.8125
▁прайшлі	-10.8125
▁джэймс	-10.8125
▁кпсс	-10.8125
▁прызнанне	-10.8126
▁стратэг	-10.8126
▁турэцкі	-10.8127
▁інструмента	-10.8129
▁паэма	-10.8132
▁чорнай	-10.8136
▁ўстанова	-10.8137
▁гродзенскі	-10.8141
▁заснавальнікаў	-10.8148
▁этнаграфічн	-10.8154
дзяляюцца	-10.8158
▁ядра	-10.8162
азон	-10.8163
▁вадазбору	-10.8163
▁працоўны	-10.8168
▁сярэдніх	-10.8168
ючай	-10.8174
▁архітэктурны	-10.8175
▁польшчу	-10.8175
▁асяроддзі	-10.8175
▁заняла	-10.8176
▁замуж	-10.8177
▁шп	-10.818
▁быхаў	-10.8183
вядзенні	-10.8192
▁багдановіча	-10.8195
роўскі	-10.8196
▁ўтварае	-10.8196
алізму	-10.8197
матэматычны	-10.8198
▁флоту	-10.82
—1945	-10.8201
▁балцка	-10.8204
даюцца	-10.8204
▁падземн	-10.8206
прас	-10.8221
▁педагог	-10.8225
▁сапраўды	-10.8225
▁сітуацыі	-10.8225
лейтэнант	-10.8225
▁паняцця	-10.8225
▁пастаянны	-10.8225
▁сказаў	-10.8226
▁стылю	-10.8227
▁скліка	-10.8227
▁крыху	-10.8228
▁клім	-10.8229
▁пазіцый	-10.823
лістапад	-10.823
▁лявон	-10.8232
▁адзіная	-10.8237
дзяржынск	-10.8248
▁ліп	-10.825
▁ўзросту	-10.8261
цягнуў	-10.8264
▁дэбютава	-10.8265
108	-10.8267
▁1793	-10.8274
▁абмяжоўва	-10.8275
▁дзвюма	-10.8275
▁еўропу	-10.8275
▁сканцэнтрава	-10.8275
▁еўропа	-10.8275
▁мікрараён	-10.8275
▁ўзроўні	-10.8275
▁апынулі	-10.8275
▁сутнасці	-10.8275
▁выкананы	-10.8275
▁шкло	-10.8276
▁сонечны	-10.8276
▁галуб	-10.8277
▁распрацоўва	-10.8279
▁1880	-10.8287
▁балтыйскага	-10.829
▁рынак	-10.8291
▁кіеўскага	-10.8292
▁схілах	-10.8292
▁ціску	-10.8294
▁культурных	-10.8295
▁плыні	-10.8302
▁атамны	-10.8305
▁вырас	-10.8305
▁ліней	-10.8305
будаванне	-10.8311
▁мастакоў	-10.8311
кола	-10.8313
▁разлік	-10.8315
▁гасцін	-10.8317
▁абмежавана	-10.8319
▁румыніі	-10.8325
▁пагроза	-10.8326
▁бронзавы	-10.8326
▁падпісаны	-10.8326
▁немцаў	-10.8327
▁палітыцы	-10.8327
▁мяркуецца	-10.8328
сцё	-10.8328
▁нансена	-10.8332
▁тэмператур	-10.8332
▁1902	-10.8332
▁прэмія	-10.8333
▁панам	-10.8335
▁памят	-10.8335
стары	-10.8344
▁1890	-10.8356
▁мінулым	-10.8358
▁міл	-10.8361
▁балота	-10.8365
▁камандава	-10.8368
cz	-10.8374
▁пагаднення	-10.8376
▁сусветная	-10.8376
спартыўна	-10.8376
▁апавяданні	-10.8379
▁задача	-10.838
▁цікавасць	-10.8381
энергетычн	-10.8384
▁папулярнасць	-10.8386
▁працяглы	-10.8387
▁сустрэчы	-10.8387
▁расліннасць	-10.8392
▁супер	-10.8393
зялёны	-10.8394
▁установа	-10.8403
▁сенатар	-10.8403
▁султана	-10.8403
▁асвятл	-10.8405
▁жалезны	-10.8408
нцам	-10.841
▁чыгун	-10.8415
tr	-10.8417
▁слан	-10.8423
«	-10.8426
▁рэзідэнцыя	-10.8427
▁юрыдычны	-10.8427
▁практыка	-10.8427
▁астатня	-10.8427
▁хацеў	-10.8428
▁розум	-10.8428
▁пераехал	-10.8428
▁вернікаў	-10.8438
▁шляхта	-10.8441
ea	-10.8443
дадзена	-10.8446
▁уласціва	-10.8459
▁прыродныя	-10.846
▁маючы	-10.8461
▁лідарам	-10.8466
наўскі	-10.8468
▁святло	-10.8473
ke	-10.8475
▁фінляндыі	-10.8478
▁плошчу	-10.8478
▁прыняцця	-10.8478
▁адзначыць	-10.8478
▁стадыён	-10.8478
▁польскую	-10.8479
▁іспанія	-10.8479
▁стваральнік	-10.8479
▁пісьме	-10.8479
▁герой	-10.8482
▁мудр	-10.8482
ec	-10.8483
▁нельга	-10.8486
▁вылучаюцца	-10.8486
▁масіў	-10.8487
выкарыстоўваліся	-10.8502
▁сілай	-10.8511
▁рэльефу	-10.8511
▁прычына	-10.8513
▁пісьмо	-10.8514
▁сярэднегадавы	-10.8515
ap	-10.852
▁схілы	-10.8527
▁заканадаўча	-10.853
▁тагачасны	-10.853
▁партыю	-10.853
▁дэлегат	-10.853
▁вадой	-10.8531
▁магутнасці	-10.8531
штэйн	-10.8532
▁манастыра	-10.8534
▁адзначаецца	-10.8536
▁тура	-10.8542
▁1861	-10.8542
▁вольны	-10.8546
▁алесь	-10.8546
327	-10.8554
вуліца	-10.8557
▁сабак	-10.8581
▁бюро	-10.8582
▁шырыні	-10.8582
▁прыйшлі	-10.8582
▁публічна	-10.8582
▁ірландыі	-10.8582
▁мадэл	-10.8584
▁скасаванн	-10.8585
▁матэматыкі	-10.8587
▁хваробы	-10.8589
▁карэлі	-10.8589
▁мураваны	-10.859
▁тыпаў	-10.859
▁паэтычны	-10.8594
груп	-10.8601
▁правядзенне	-10.8611
330	-10.8618
▁друкаван	-10.8621
▁прадуктаў	-10.8622
▁велізарн	-10.8625
▁адпачынку	-10.8634
▁здзейсніў	-10.8634
▁усталяваны	-10.8634
▁цывілізацыі	-10.8634
▁абласцях	-10.8634
▁актывіст	-10.8634
▁катастроф	-10.8634
▁ініцыятар	-10.8634
ph	-10.8635
▁сакратарыят	-10.8635
▁шляхецка	-10.8645
каран	-10.8649
he	-10.8649
▁паток	-10.865
зніклі	-10.865
gi	-10.865
▁графа	-10.8653
▁мужа	-10.8655
паляўніч	-10.8656
асабліва	-10.8659
ступаць	-10.8667
▁мел	-10.867
▁цікава	-10.8676
▁арганізаваў	-10.8686
▁тэорыю	-10.8686
▁рэдакцыя	-10.8686
▁адбываліся	-10.8686
▁сустрэў	-10.8686
▁мянуш	-10.8687
▁выдавецтва	-10.8687
▁700	-10.8692
▁кантынентальны	-10.8693
▁карціны	-10.8695
▁велізарны	-10.8695
трымліваецца	-10.8699
▁суседніх	-10.8705
▁шэкспіра	-10.8706
▁бліжэй	-10.8707
мусіў	-10.8707
друк	-10.8708
шмат	-10.8712
▁1500	-10.8713
мастацк	-10.8718
фанта	-10.8719
▁класічны	-10.8721
▁туман	-10.8722
▁рабіў	-10.8722
▁якуба	-10.8725
▁дакументаў	-10.873
▁жыло	-10.8733
англ	-10.8738
▁выкапні	-10.8739
▁цэркваў	-10.8739
▁ісландыі	-10.8739
▁ланцуг	-10.8739
▁людзьмі	-10.8739
▁(2017).	-10.8739
▁прайшла	-10.8739
▁прадпрыма	-10.8739
▁патрабуе	-10.8739
▁навакольны	-10.8739
▁вяршыні	-10.8739
▁мяшчан	-10.8739
▁квартал	-10.8741
▁квт	-10.8744
▁распрацаваны	-10.8746
▁ваяводы	-10.8752
вызваленча	-10.8759
▁турцыя	-10.8759
транс	-10.8761
▁апостала	-10.878
цкаму	-10.8781
▁лекар	-10.8784
▁забяспечвае	-10.8786
▁займаю	-10.8786
кастрычнік	-10.8789
▁гістарыяграфіі	-10.8792
▁кантролю	-10.8792
водзяць	-10.8792
▁імаверна	-10.8792
▁пакінулі	-10.8792
▁адміністрацыя	-10.8792
▁правілы	-10.8792
▁навакольна	-10.8792
▁каледж	-10.8794
▁грэцыя	-10.8797
▁раннія	-10.8798
▁кропка	-10.8798
▁стэфана	-10.8799
▁прыродных	-10.8802
▁неабходнасць	-10.8802
▁губ	-10.881
▁прадстаўнікамі	-10.8814
▁душы	-10.8821
кантынент	-10.8822
▁уладзіміравіч	-10.8831
▁1870	-10.8838
сферы	-10.884
▁бюджэт	-10.8845
▁напярэдадні	-10.8845
▁прафесійна	-10.8845
▁аўстрыя	-10.8845
забалочан	-10.8845
▁аднаўлення	-10.8845
▁матэрыяльны	-10.8846
▁кобрын	-10.8847
▁педагагічн	-10.885
▁палярны	-10.8862
▁канады	-10.8865
▁прыхільнікі	-10.8874
▁ліста	-10.888
▁камандаванне	-10.8884
▁свяшчэн	-10.8887
▁мікеланджэла	-10.8898
▁эсперанта	-10.8898
▁апошняя	-10.8898
▁папярэдня	-10.8898
▁каардынат	-10.8898
▁надрукаваны	-10.8899
▁далучана	-10.8899
▁пазіцыю	-10.8899
▁хіміі	-10.8899
механічны	-10.8899
▁сфармава	-10.8899
▁бальніца	-10.89
▁племя	-10.8906
▁урал	-10.8908
шэўскі	-10.8914
сузор	-10.8938
▁стаўленне	-10.894
▁стэфан	-10.8945
выкарыстоўвалася	-10.8945
ступленні	-10.8945
▁пласты	-10.8946
▁вільготна	-10.8952
▁аўтаноміі	-10.8952
▁дыяпазон	-10.8952
▁заканадаўчы	-10.8952
▁светапогляд	-10.8952
▁шматлікімі	-10.8952
▁асаблівы	-10.8952
▁хімічнай	-10.8952
▁кантракт	-10.8952
▁вяртанне	-10.8952
▁радзіму	-10.8953
▁мясцін	-10.8953
▁вектар	-10.8955
фур	-10.896
▁чаму	-10.8961
беларуску	-10.8972
1,5	-10.8973
▁лідараў	-10.8981
320	-10.8987
свято	-10.8991
▁хрысціянскай	-10.8991
1,3	-10.8994
ходзіў	-10.8995
сцер	-10.8996
▁інтарэсаў	-10.9005
▁абгрунтава	-10.9006
▁пераможца	-10.9006
▁прафесійны	-10.9006
▁працякае	-10.9006
▁ўспрыма	-10.9006
▁пазбаві	-10.9006
▁ўмацавання	-10.9006
▁грашова	-10.9007
▁самастойны	-10.9007
▁кіеве	-10.9007
▁прыняла	-10.9008
▁прырост	-10.9011
▁фрг	-10.9012
даследчы	-10.9016
▁вечна	-10.9017
▁вылучаюць	-10.9018
вален	-10.9025
▁пераклаў	-10.9025
▁вучняў	-10.903
дэмакрат	-10.904
▁нізіны	-10.9043
▁метра	-10.9043
▁рускую	-10.9047
друг	-10.9049
▁малю	-10.9053
мексіка	-10.9057
▁стаяў	-10.906
▁даследаванне	-10.9061
▁параўнальна	-10.9061
▁прапаноўва	-10.9061
▁прыродзе	-10.9061
венгрыя	-10.9062
▁артыкула	-10.907
▁секс	-10.9075
▁разгар	-10.9077
▁колераў	-10.9078
каралеўск	-10.9079
тэхна	-10.9095
▁волгі	-10.9096
▁серыя	-10.9099
фільм	-10.9102
▁бібліятэк	-10.9105
▁біскупа	-10.9109
усходні	-10.9111
▁аднаўл	-10.9115
карэспандэнт	-10.9115
▁звярнуўся	-10.9115
▁англічан	-10.9115
▁літаратуру	-10.9115
▁робіцца	-10.9115
▁васьмі	-10.9115
вярнулася	-10.9116
▁засталася	-10.9116
▁сюды	-10.9116
ступен	-10.9119
▁германію	-10.9123
▁заснавання	-10.9128
vo	-10.9128
гуляў	-10.913
пель	-10.9133
▁1830	-10.9136
▁судовы	-10.9137
▁маўр	-10.9138
▁кастра	-10.9138
▁атака	-10.9149
▁джо	-10.9156
▁веку	-10.9157
▁друцк	-10.916
▁гімн	-10.9169
▁хмызняк	-10.917
▁абласнога	-10.917
▁адбываюцца	-10.917
▁манарха	-10.917
▁рэсурсаў	-10.9171
▁уключае	-10.9171
▁уваход	-10.9171
▁тэлефон	-10.9171
▁багацце	-10.9171
▁акупацыйн	-10.9172
ation	-10.9172
ab	-10.9174
▁ёю	-10.9176
▁слуп	-10.9177
▁крок	-10.9177
губернатарства	-10.9178
▁мяне	-10.9192
▁меней	-10.9196
▁нямецкімі	-10.9197
▁востра	-10.9202
▁суседні	-10.9206
▁жыла	-10.9208
▁педагагічны	-10.9208
сістэм	-10.9209
▁хуткім	-10.9216
▁шведскі	-10.9218
▁нідэрландаў	-10.9225
▁узначальваў	-10.9226
▁палітычную	-10.9227
▁сербія	-10.9227
▁вузка	-10.9228
▁вызначыць	-10.9228
прэч	-10.9228
▁станаві	-10.9233
▁свін	-10.9236
нструкц	-10.9237
▁бельск	-10.924
▁кіеўскай	-10.924
▁суха	-10.9242
▁выкарыстоўваўся	-10.9243
ex	-10.9244
▁ірана	-10.9246
▁удзельніча	-10.9259
▁паслядоўн	-10.9262
▁калонія	-10.9266
партый	-10.9267
▁накіравана	-10.9278
▁анатол	-10.928
▁югаславіі	-10.9281
▁інданезіі	-10.9281
▁належалі	-10.9281
▁гомеля	-10.9281
▁турыстаў	-10.9281
▁арнамент	-10.9282
▁тбм	-10.9282
▁здабыт	-10.9282
▁маленькі	-10.9284
▁пахавання	-10.9285
▁мастацка	-10.9287
ехаць	-10.9288
▁адправіўся	-10.9288
▁1901	-10.929
▁працягвалася	-10.9292
▁свяшчэннай	-10.9293
▁рэчывы	-10.9297
4,5	-10.9302
▁атамна	-10.9305
▁хутар	-10.9307
▁1898	-10.9313
▁знішчаны	-10.9316
▁кітайскі	-10.9331
▁паўтара	-10.9333
▁падрыхтоўка	-10.9337
▁размяшчаліся	-10.9337
▁ганконг	-10.9338
▁гімназія	-10.9338
гвардзейск	-10.9338
▁размяшчаў	-10.9339
▁пытанняў	-10.9339
▁сотні	-10.9343
▁эфір	-10.9343
▁фрэйда	-10.9346
▁бедны	-10.9347
▁федэратыўн	-10.9347
▁мядзвед	-10.935
кавічы	-10.9364
by	-10.9365
чышча	-10.9367
цягнуць	-10.9369
паўночна	-10.9376
▁гутар	-10.9376
▁сацыялістычна	-10.9385
▁абвясціла	-10.9393
▁узбярэжжа	-10.9393
▁эстоніі	-10.9393
▁багушэвіч	-10.9393
▁маёнткі	-10.9393
▁францішка	-10.9393
▁яўрэі	-10.9393
▁даследаваў	-10.9393
быццё	-10.9393
▁вінцэнт	-10.9393
▁курорт	-10.9393
▁энергія	-10.9394
▁ўсходніх	-10.9396
▁вызначэння	-10.9396
дзярж	-10.9399
▁юлія	-10.94
▁вучэнне	-10.9402
▁праходзіў	-10.9412
▁літаратар	-10.9417
▁федэральны	-10.9434
▁адносяць	-10.9434
▁найлепшы	-10.9443
▁станцый	-10.9444
▁кіно	-10.9444
▁астатніх	-10.9449
▁канстанцінопаль	-10.9449
▁мерапрыемства	-10.9449
▁прызначэння	-10.945
▁жывёлагадоўля	-10.945
▁сувораў	-10.945
▁паралельна	-10.945
▁скарыста	-10.9451
блакітны	-10.9451
чэўскі	-10.9452
▁роберт	-10.9452
▁цыган	-10.9457
▁абласны	-10.9458
▁гародні	-10.946
левіч	-10.9469
▁выклікае	-10.9469
апостал	-10.9473
сталы	-10.9478
значалася	-10.9479
▁шляхоў	-10.9483
▁мірнага	-10.95
za	-10.9506
▁астэроід	-10.9506
▁візантыі	-10.9506
▁літоўцаў	-10.9506
▁падтрымка	-10.9506
▁мастацтве	-10.9507
▁унутры	-10.9508
▁карабля	-10.9511
▁герцаг	-10.9516
▁полацку	-10.9524
▁камень	-10.9538
раман	-10.9539
323	-10.9539
ачоў	-10.9543
▁вядомасць	-10.9544
▁круп	-10.9548
▁яма	-10.9554
▁фрэйд	-10.9559
▁ганны	-10.9563
▁ўзначаліў	-10.9563
▁аўстрыйскі	-10.9563
▁экватар	-10.9564
▁растуць	-10.9564
▁нібыта	-10.9564
▁доступ	-10.9564
справаздач	-10.9564
тыднёв	-10.9564
▁наваград	-10.9566
▁сцяны	-10.9567
▁аршанска	-10.9567
▁рэдактарам	-10.9568
▁мядзел	-10.9571
▁гагарын	-10.9572
325	-10.9573
▁гульняў	-10.9575
▁саюзнікаў	-10.9577
індаеўрапейска	-10.9577
▁ледзь	-10.9578
▁царом	-10.9579
▁склалася	-10.9582
▁пераходзіць	-10.9592
электрастанцыя	-10.9598
com	-10.9601
▁істотны	-10.9606
▁распаўсюджанне	-10.9619
тварыўся	-10.9619
▁веды	-10.962
▁кветкі	-10.9621
▁валоданне	-10.9621
▁трамвай	-10.9621
▁пастаўлена	-10.9621
▁ўзаема	-10.9621
▁тавараў	-10.9621
▁грузіі	-10.9622
▁токіа	-10.9623
95)	-10.9625
▁урана	-10.9625
роднае	-10.9625
ступае	-10.9625
mu	-10.9627
▁ібн	-10.9632
▁эксперымент	-10.9634
▁даліне	-10.9637
▁1896	-10.9647
▁выканаўчы	-10.9676
▁прысвечана	-10.9679
▁птушка	-10.9679
▁выкананне	-10.9679
▁дзвіны	-10.9679
▁адстаўку	-10.9679
александр	-10.968
▁складаўся	-10.9681
▁ліній	-10.9682
▁шахмат	-10.9683
▁берасцейск	-10.9687
mar	-10.9688
▁японскі	-10.9692
▁рамонт	-10.9694
▁паліцыі	-10.9694
▁дняпро	-10.9701
▁расію	-10.9707
190	-10.9708
▁нявы	-10.9718
прадукт	-10.9727
▁масла	-10.9728
прэзідэнт	-10.973
▁катоў	-10.9736
▁апазіцыі	-10.9737
▁эдуард	-10.9737
▁змяняецца	-10.9737
▁патрабаванні	-10.9737
▁уключаны	-10.9737
▁падаткаў	-10.9737
▁леанід	-10.9738
▁міфалогіі	-10.9738
▁штучны	-10.974
▁табліц	-10.974
ki	-10.9751
▁асобнік	-10.9755
апыт	-10.9757
▁спадчынн	-10.976
▁рассе	-10.9761
jo	-10.9761
▁памежн	-10.9762
▁свецкі	-10.9766
▁полюс	-10.9767
▁артыст	-10.9769
▁бельгіі	-10.9795
▁заканадаўства	-10.9795
▁зямлёй	-10.9795
▁партугаліі	-10.9795
▁бізнес	-10.9795
▁нобелеўск	-10.9795
▁рэакцыі	-10.9795
▁калегіум	-10.9795
▁памочнік	-10.9795
▁(2007).	-10.9795
▁запавет	-10.9796
▁вяршыня	-10.9796
▁падтрымаў	-10.9796
▁павялічва	-10.9798
▁прылады	-10.9798
▁захаванне	-10.9799
▁ідэю	-10.9799
▁нагоды	-10.9801
▁ўздым	-10.9803
▁выпраменьвання	-10.9809
нёвы	-10.9821
▁кальвін	-10.9829
▁венецыя	-10.9832
▁балгарска	-10.9835
che	-10.984
▁рэспубліканскі	-10.9841
▁працягвае	-10.985
пацвярджа	-10.9854
▁настолькі	-10.9854
▁рэгістрацыі	-10.9854
▁спаборніцтва	-10.9854
▁тралейбус	-10.9854
▁нашчадкі	-10.9854
атланты	-10.9854
▁размясці	-10.9854
▁паўнамоцтвы	-10.9854
▁супраціўленне	-10.9856
▁спыня	-10.9856
▁гадамі	-10.9857
▁карабель	-10.9862
im	-10.9862
▁вядзецца	-10.9865
▁галіцка	-10.9865
▁пражываюць	-10.987
ваенна	-10.9877
▁тарас	-10.988
▁украінскі	-10.9881
▁тычы	-10.9898
2007	-10.9899
▁далейшы	-10.9899
водзіць	-10.9902
▁лёгкі	-10.9913
▁падрыхтоўцы	-10.9913
▁парламенцкі	-10.9913
▁прымяненне	-10.9913
▁утварэння	-10.9913
▁хадкевіч	-10.9913
▁выпадае	-10.9913
▁перасякае	-10.9914
▁узяты	-10.9914
▁быццам	-10.9914
▁ніякіх	-10.9915
▁гараджан	-10.9918
▁скарына	-10.9918
▁падзенне	-10.9922
▁трохвугольн	-10.9922
—6	-10.9925
▁эфектыўна	-10.9926
0,4	-10.9926
▁страта	-10.9928
rk	-10.993
▁сабраны	-10.9933
навук	-10.9935
▁сялянства	-10.9935
▁сярэдня	-10.9937
жур	-10.9939
▁спін	-10.9957
▁венгерскі	-10.9957
фінанс	-10.9962
▁пінска	-10.9968
▁дазваляюць	-10.9973
▁непадалёк	-10.9973
▁электрычны	-10.9973
▁вёску	-10.9973
▁паляпшэнн	-10.9973
▁пабудаваў	-10.9973
▁прыйшлося	-10.9973
▁львоў	-10.9973
чэрвень	-10.9973
▁феадальна	-10.9974
▁сярэднявечн	-10.9975
▁падпісана	-10.9975
▁трапіла	-10.9975
▁капітул	-10.9975
▁спыніў	-10.9976
▁старой	-10.9976
▁амерыканскай	-10.9978
▁выдатна	-10.9979
▁сымон	-10.9979
▁iau	-10.9979
we	-10.9984
▁англа	-10.9985
▁зіма	-10.9999
ill	-11.0015
▁навукоўцаў	-11.0022
камбінат	-11.0027
носьбіт	-11.0032
▁рыбалоўства	-11.0033
▁сцвярджаў	-11.0033
▁ініцыятыве	-11.0033
▁зарэгістравана	-11.0033
▁цёплы	-11.0033
▁яраслава	-11.0033
▁прыпадае	-11.0033
▁пяхотн	-11.0033
▁адметна	-11.0033
▁вайной	-11.0033
▁камандуючы	-11.0034
лучылася	-11.0034
ягелон	-11.0034
▁усевалад	-11.0034
▁захаваць	-11.0035
▁мітрапаліта	-11.0042
▁ганчар	-11.0045
0,2	-11.0048
▁невялікая	-11.0051
оўваецца	-11.0055
ектыўна	-11.0059
▁абмежаваны	-11.0069
▁1796	-11.0083
камеды	-11.0087
гістарычны	-11.0088
▁духавенства	-11.0093
▁размяшчалася	-11.0093
▁швейцарыі	-11.0093
▁этымалогія	-11.0093
▁выпадкаў	-11.0093
▁князю	-11.0093
▁важныя	-11.0097
▁ўсеагульн	-11.0098
ючага	-11.0098
▁ідуць	-11.0099
▁штучна	-11.0099
▁назве	-11.0104
▁вымаўл	-11.0106
0,3	-11.0109
▁добраахвотн	-11.0114
▁шылер	-11.0115
▁маха	-11.0137
культурны	-11.0151
аўтаномная	-11.0152
▁фёдаравіч	-11.0154
▁кашталян	-11.0154
▁кірунак	-11.0154
хваёвы	-11.0154
▁акадэмію	-11.0154
▁аднайменна	-11.0154
▁ўтворана	-11.0154
▁ўчасткі	-11.0154
▁тыдзень	-11.0156
▁набліжа	-11.0156
▁мастацкіх	-11.0156
▁паспяховы	-11.0157
▁персі	-11.0164
▁пыл	-11.0166
▁павышэнн	-11.0166
44)	-11.0166
▁драгічын	-11.0167
▁кіруе	-11.0167
▁свецка	-11.0175
дзё	-11.0182
▁кітайскай	-11.0183
▁бабруйска	-11.0186
асцях	-11.0192
ue	-11.0192
▁родны	-11.0193
▁гарачы	-11.0208
глядзе	-11.0209
падзолістыя	-11.0215
▁люксембург	-11.0215
▁фердынанд	-11.0215
▁філасофія	-11.0215
▁ягайлы	-11.0215
▁ізраіля	-11.0215
▁дынастыя	-11.0215
▁выконваць	-11.0215
▁дрэвы	-11.0215
▁няўдала	-11.0215
скандынаўск	-11.0215
▁жоўта	-11.0215
▁апісання	-11.0215
▁апавяданняў	-11.0216
▁вярнуць	-11.0217
▁паляванне	-11.022
▁аслаб	-11.0222
балаховіч	-11.0227
▁сінод	-11.0232
▁ўсходнім	-11.024
▁1895	-11.0244
▁рынка	-11.0254
▁праходзіла	-11.0255
▁пачало	-11.0265
▁забаронена	-11.0276
▁здолелі	-11.0276
▁канстытуцыйна	-11.0276
▁пацярпеў	-11.0276
▁касцюшка	-11.0276
▁прыватных	-11.0276
▁францыю	-11.0276
▁італію	-11.0277
▁распаўсюджванне	-11.0279
▁згоды	-11.0283
▁люблін	-11.0283
▁троцкага	-11.0283
▁плён	-11.0289
▁магнітна	-11.0295
▁злучана	-11.0297
цёмны	-11.0315
ковую	-11.0318
▁мыш	-11.0335
▁намаляваны	-11.0338
▁скульптар	-11.0338
▁прадстаўніцтва	-11.0338
▁паражэння	-11.0338
▁ўвайшоў	-11.0338
▁вапняк	-11.0338
▁жывёльны	-11.0338
▁захоўвалі	-11.0338
▁найперш	-11.034
▁усходніх	-11.034
▁вырашана	-11.034
▁(1930)	-11.0343
▁распачаў	-11.0343
▁графік	-11.035
▁аказаў	-11.0355
▁міжнародн	-11.0356
0,8	-11.036
▁пушчы	-11.0363
▁вільнюс	-11.0363
▁сент	-11.0367
▁злучэнняў	-11.0372
▁пісьмова	-11.0376
▁нацыяналіст	-11.0378
ot	-11.0381
▁хвал	-11.0384
шчынскі	-11.0385
2,5	-11.039
▁зліцц	-11.0396
▁хрыбта	-11.04
▁электраэнергіі	-11.04
▁фронце	-11.04
▁знойдзена	-11.04
▁мякка	-11.04
▁найменш	-11.0401
▁склікання	-11.0402
▁банкнот	-11.0402
▁асеці	-11.0403
107	-11.0404
▁папулярным	-11.0408
▁абарот	-11.0412
▁выдадзена	-11.0419
▁знакам	-11.0429
▁лічыўся	-11.0439
▁xxi	-11.044
▁царскі	-11.0443
андэр	-11.0444
▁аказалі	-11.0445
▁сабраў	-11.0461
▁албаніі	-11.0462
▁забеспячэнне	-11.0462
▁філасофска	-11.0462
▁шатландыі	-11.0462
▁гравюр	-11.0462
▁тэарэтычна	-11.0462
хрысціян	-11.0462
▁спыніла	-11.0462
▁лінію	-11.0463
▁позні	-11.0464
заходняя	-11.0464
усходняй	-11.0465
ai	-11.0465
▁касмічны	-11.0465
▁візантыйскі	-11.0466
156	-11.0468
▁бернар	-11.0468
▁косава	-11.0471
штат	-11.0471
▁зімовы	-11.0471
▁павялічылася	-11.0471
▁кардынал	-11.0485
1,6	-11.0489
▁дэпутатам	-11.049
атычнай	-11.0502
трымаць	-11.0508
▁брус	-11.0519
fa	-11.0522
▁дзейнічаць	-11.0525
▁магдэбургска	-11.0525
▁распрацоўка	-11.0525
▁патрабавання	-11.0525
▁занадта	-11.0525
▁інфармацыю	-11.0525
▁аднавіць	-11.0525
▁слабы	-11.0526
▁талент	-11.0527
▁важных	-11.0528
▁паўстанцаў	-11.0529
афрыканск	-11.0534
▁покрыва	-11.0536
▁прыродны	-11.0542
▁магло	-11.0542
▁замежна	-11.0548
▁выкарыстаны	-11.0554
вікінг	-11.0555
▁праходзілі	-11.0563
▁бліжэйшы	-11.0564
выбран	-11.0568
курс	-11.0573
вуглярод	-11.0577
▁друга	-11.0578
вугольнік	-11.0579
▁абсталяванне	-11.0588
▁канцэпцыя	-11.0588
▁канцэпцыі	-11.0588
▁забаронены	-11.0588
ранейшаму	-11.0588
▁атлантычнага	-11.0588
▁птушкі	-11.0588
▁разнавіднасц	-11.0588
▁прызначыў	-11.0588
▁адзначаны	-11.0589
▁заступні	-11.0589
▁знайшлі	-11.0589
▁узаема	-11.0589
▁каралеўскай	-11.0589
▁вызваленне	-11.0589
▁акупаваны	-11.0589
▁утворана	-11.0589
▁паўвостраў	-11.0589
▁падручнік	-11.059
▁аспект	-11.0592
▁аказалася	-11.0596
▁выявіў	-11.0597
▁каўказа	-11.0601
▁поўнага	-11.0602
▁тыповы	-11.0609
член	-11.0611
▁шлем	-11.0611
▁нарач	-11.0623
феадал	-11.0624
▁работнік	-11.0625
цэнтральна	-11.0628
▁смак	-11.063
▁лап	-11.0645
▁лютэр	-11.0646
▁рэлігій	-11.0651
▁абазначэння	-11.0652
▁пазбаўлены	-11.0652
▁рэабілітаваны	-11.0652
▁супрацоўнічаў	-11.0652
▁васілевіч	-11.0652
▁каталіцкага	-11.0652
▁асяроддзе	-11.0652
▁прынамсі	-11.0652
▁напружана	-11.0652
▁пятровіч	-11.0652
▁цаглян	-11.0652
▁вінаград	-11.0652
▁тэлескоп	-11.0652
▁ракой	-11.0653
пецярбурга	-11.0653
магілёў	-11.0655
▁шырот	-11.0655
оід	-11.0655
▁абарона	-11.0662
▁здольнасці	-11.0664
▁дробныя	-11.067
ei	-11.0672
▁жыв	-11.0682
▁пустыні	-11.0683
народны	-11.0686
▁ўласціва	-11.0686
▁назіральн	-11.0687
▁псіха	-11.0689
—1939	-11.0691
▁лож	-11.0702
▁вытворча	-11.0703
▁вучылішчы	-11.0716
▁эканоміцы	-11.0716
▁маёмасць	-11.0716
▁царквой	-11.0716
▁імкненне	-11.0716
▁ўмацаванні	-11.0716
▁калекцыя	-11.0716
▁назіранні	-11.0716
▁цёпла	-11.0716
▁возеры	-11.0716
▁гаворка	-11.0717
▁мінімальн	-11.0717
▁юрыдычна	-11.0717
▁завецца	-11.0718
▁барока	-11.0719
▁сястры	-11.0719
▁пасажырскі	-11.072
▁схем	-11.0723
▁прымалі	-11.0723
▁дыпламатычныя	-11.0724
▁каралева	-11.0724
▁працягваецца	-11.0728
тэрытарыяльная	-11.0732
алімп	-11.0734
▁усебеларуска	-11.0734
▁камяні	-11.0742
1,7	-11.0748
▁перайменава	-11.0758
▁ўзяў	-11.0767
▁жанчына	-11.0775
0,7	-11.0776
▁ўдзельнічалі	-11.0781
▁сацыялістычны	-11.0781
▁часцяком	-11.0781
▁завяршыў	-11.0781
▁страціла	-11.0781
▁зрэшты	-11.0781
▁дружын	-11.0781
▁гарадская	-11.0781
▁рэкорд	-11.0782
▁ранніх	-11.0782
▁выступалі	-11.0786
▁гродзенская	-11.0787
▁кіп	-11.0789
▁лацінскі	-11.0791
▁перададзена	-11.0793
▁расказ	-11.0795
▁побыт	-11.0798
▁2022	-11.0806
▁каін	-11.0817
▁багдановіч	-11.0819
прайгра	-11.0819
▁вусце	-11.0826
▁спадчыннік	-11.0828
агна	-11.0834
▁дасягнуць	-11.0846
▁лукашэнка	-11.0846
▁мануфактур	-11.0846
▁фестываль	-11.0846
▁чэмпіянаце	-11.0846
▁невялікай	-11.0846
парламенцка	-11.0846
▁забалочаныя	-11.0846
▁колькі	-11.0847
▁багаслоў	-11.0848
▁дакладны	-11.085
▁чырвоная	-11.0853
▁выклікалі	-11.0855
▁металічны	-11.0857
▁фундамент	-11.0867
▁апублікавана	-11.087
▁вызначыў	-11.0872
пісваецца	-11.0873
▁прызнана	-11.0877
▁шэра	-11.0883
▁рэктар	-11.0889
тран	-11.0892
▁выдзяля	-11.0897
▁інтэлектуал	-11.0898
▁вытворн	-11.0902
▁дзённік	-11.0905
адукаван	-11.0907
▁адлюстраванне	-11.0908
▁артылерыі	-11.0911
▁забяспечыць	-11.0911
▁тэтчэр	-11.0911
▁варонеж	-11.0911
▁рабоце	-11.0911
▁ўтвораны	-11.0911
▁маладога	-11.0911
▁мадрыд	-11.0911
▁прасоўва	-11.0913
▁алякс	-11.0914
▁аблога	-11.0916
вышэй	-11.0924
▁лютэран	-11.0932
▁кіламетр	-11.0944
▁вытрым	-11.0971
▁біблія	-11.0976
▁кантролем	-11.0977
▁нацыянальную	-11.0977
▁камуністычны	-11.0977
▁карыстаўся	-11.0977
▁трыбуна	-11.0977
▁арыгінальна	-11.0977
▁дарослы	-11.0978
▁іардан	-11.0979
▁сябры	-11.0979
▁герцагства	-11.0981
▁пятроў	-11.0983
▁павялічваецца	-11.0983
▁справу	-11.0986
жи	-11.0987
▁цераз	-11.0988
▁называюцца	-11.0989
cu	-11.0997
▁томас	-11.1003
▁султан	-11.1008
wo	-11.1008
▁ўзброены	-11.1012
бача	-11.1013
2010	-11.1031
маленьк	-11.1041
пісьменн	-11.1042
▁захапіць	-11.1043
▁нашчадкаў	-11.1043
▁спыніць	-11.1043
▁майстэрні	-11.1043
▁спалучэнне	-11.1043
▁мікалаеў	-11.1043
▁некатора	-11.1043
▁іспанскай	-11.1043
▁свядомасці	-11.1043
▁вадаспад	-11.1043
▁кдб	-11.1044
▁стадыі	-11.1044
белорус	-11.1044
▁англія	-11.1044
▁адтуль	-11.1045
▁арбіта	-11.1046
▁дазволілі	-11.1047
▁медаль	-11.105
эканамічны	-11.105
▁лепшых	-11.1058
▁стваралі	-11.106
▁кансерватыўна	-11.1061
электро	-11.1063
▁гродзен	-11.1071
▁спадзя	-11.1073
алізаваны	-11.1073
рацыянальны	-11.1081
лекс	-11.1092
▁мужчынскі	-11.1092
тысячн	-11.1097
▁чакан	-11.1107
▁апісвае	-11.1109
▁ліквідацыі	-11.111
▁узросце	-11.111
▁функцый	-11.111
▁каталіцтва	-11.111
▁хімічная	-11.111
▁заставаліся	-11.111
▁лясах	-11.1111
▁ўскраін	-11.1112
▁алжыр	-11.1112
▁тканін	-11.1112
▁кіслот	-11.1112
▁камарын	-11.1114
▁дамініка	-11.1124
істам	-11.1132
▁лістоў	-11.1139
рэцкі	-11.1166
ell	-11.1175
яўрэй	-11.1175
▁егіпце	-11.1177
▁засталося	-11.1177
▁рэпрэсій	-11.1177
▁карыстаюцца	-11.1177
▁увайшлі	-11.1177
▁імперыю	-11.1177
▁лясной	-11.1177
▁бульбы	-11.1177
▁абслугоўвання	-11.1177
▁ліберальна	-11.1177
▁знаёмы	-11.1177
▁гётэ	-11.1177
▁аблогі	-11.1178
▁дзесяць	-11.1178
▁вытворца	-11.1178
▁пасажыраў	-11.1178
▁імперска	-11.118
▁паверхню	-11.118
▁матэматычна	-11.1183
▁кастрычніцкай	-11.1183
▁фабрык	-11.1183
▁гродзенскага	-11.1186
▁паруша	-11.1191
[	-11.1193
▁крыжовы	-11.1197
▁востры	-11.1199
▁север	-11.1201
▁падыма	-11.1203
лессе	-11.1211
1,4	-11.1221
фарбава	-11.1242
▁дазваляла	-11.1244
▁канфедэрацыі	-11.1244
▁памяшкання	-11.1244
▁паўвостраве	-11.1244
▁рэгулярны	-11.1244
▁сведчання	-11.1244
краязнаўчы	-11.1244
▁вобласцю	-11.1244
▁высновы	-11.1244
▁займацца	-11.1245
▁увосень	-11.1245
▁мяккі	-11.1245
▁рэйтынг	-11.1245
залатой	-11.1247
▁ігумен	-11.1248
▁увагу	-11.125
▁хрысціянска	-11.125
▁славутасці	-11.125
▁вывад	-11.1251
▁драгічынскім	-11.1251
жываюць	-11.126
▁выкліканы	-11.126
▁развівалася	-11.1265
▁при	-11.1267
яўленні	-11.1272
▁трэн	-11.1275
tur	-11.129
▁захаваў	-11.1302
▁ажыццяўляе	-11.1304
▁маральна	-11.1309
▁паплечнік	-11.1312
▁паўднёвую	-11.1312
▁паўнамоцтваў	-11.1312
▁узначаліў	-11.1312
▁чырвоную	-11.1312
▁гімназію	-11.1312
▁павятовы	-11.1312
▁сексуальна	-11.1312
▁магутнасцю	-11.1312
▁мацерыка	-11.1312
▁срэбра	-11.1313
▁ўрачыста	-11.1313
▁пачынаюць	-11.1313
▁прымусіл	-11.1313
▁знакаміта	-11.1313
▁ост	-11.1313
▁краснаярск	-11.1314
▁нормы	-11.1319
▁здольнасць	-11.1319
свабод	-11.1325
▁выклікана	-11.1331
▁квіт	-11.1342
▁апавяданне	-11.1343
▁трактат	-11.1352
▁будова	-11.1353
▁пяр	-11.1357
▁паветраны	-11.1371
▁дробна	-11.1372
▁паведамляе	-11.1381
▁робяць	-11.1381
эфіоп	-11.1381
сакавік	-11.1381
▁пакарання	-11.1382
▁вонкавы	-11.1383
▁кліматычны	-11.1386
дзве	-11.1387
▁лівонска	-11.1387
▁экран	-11.1392
▁рабіць	-11.1399
▁чалавечага	-11.1401
▁неабходнасці	-11.1404
▁тамаш	-11.1405
pl	-11.1413
ледавіков	-11.1417
▁персанал	-11.1427
▁эксперыментальн	-11.1434
▁пекін	-11.1441
▁граніц	-11.145
▁арганізоўва	-11.145
▁дэкаратыўна	-11.145
▁забруджва	-11.145
▁майстэрства	-11.145
▁пратэктарат	-11.145
▁размяшчаюцца	-11.145
▁самакіравання	-11.145
▁сярэднявеччы	-11.145
▁класіфікацыі	-11.145
▁машынабудаванне	-11.145
▁абедзве	-11.145
▁ўключаны	-11.145
▁следства	-11.145
▁чыноўніка	-11.1451
▁прызнання	-11.1451
▁корань	-11.1452
▁разрад	-11.1454
2,4	-11.1455
▁прызнае	-11.1459
▁дзяржаўнасці	-11.1467
▁магн	-11.1493
драгічынскі	-11.1497
▁ўздзеянн	-11.1498
▁думы	-11.1508
▁ўступ	-11.1516
▁дасягненні	-11.1519
▁дзесяцігоддзі	-11.1519
▁канструкцыі	-11.1519
▁псеўданімам	-11.1519
▁сфармулява	-11.1519
▁залежнасць	-11.1519
▁дывізія	-11.1519
▁трэцяя	-11.1519
▁ідэалогіі	-11.152
▁прывілей	-11.152
▁лясамі	-11.1521
▁ціхага	-11.1522
▁прымаць	-11.1523
▁лепель	-11.1524
▁каштоўнасці	-11.1527
▁напалеон	-11.1533
▁аналагічны	-11.1535
яднана	-11.1537
▁канадзе	-11.1542
ступаюць	-11.157
біраюцца	-11.1581
▁дыферэнцы	-11.1589
▁класіфікацыя	-11.1589
▁місіянер	-11.1589
▁цэрквы	-11.1589
▁прылеглы	-11.1589
▁пачуцця	-11.1589
▁драматычны	-11.159
▁секунд	-11.1591
▁андрэевіч	-11.1592
▁выступала	-11.1593
▁рэчаіснасці	-11.1594
▁анатоль	-11.1594
▁антрапа	-11.1595
▁дэмакратыі	-11.1595
▁ацэнка	-11.1596
▁майстра	-11.1602
▁паласа	-11.1604
матэрыял	-11.1606
геаграфі	-11.1612
▁цікавы	-11.1612
tt	-11.1628
астрожск	-11.1637
▁дыпламат	-11.1649
▁захворвання	-11.166
▁сыравіны	-11.166
▁тэхналогій	-11.166
▁аляксеевіч	-11.166
▁выяўленч	-11.166
▁старонках	-11.166
▁тышкевіч	-11.166
▁хойнікі	-11.166
▁усходняга	-11.166
▁камісара	-11.166
▁злучэнні	-11.166
▁карыстальнік	-11.166
▁арыгінальны	-11.166
▁прывілея	-11.1662
▁сатыры	-11.1662
▁геаграфічных	-11.1662
1,8	-11.1663
▁чыгунак	-11.1664
кладанне	-11.1667
▁павыша	-11.1669
▁форт	-11.1669
каспійск	-11.167
▁наступленне	-11.1674
▁азот	-11.1677
▁называлася	-11.169
▁сельска	-11.1695
▁каралін	-11.1704
▁злачынства	-11.1731
▁зняволены	-11.1731
▁кампазіцыі	-11.1731
▁тлумачыцца	-11.1731
▁знешне	-11.1731
▁рэнесанс	-11.1731
▁караткевіч	-11.1731
▁ўчастак	-11.1731
▁узрост	-11.1731
▁восені	-11.1731
▁разрабава	-11.1732
▁вілейскім	-11.1732
▁нечакана	-11.1734
▁дазволіў	-11.1737
▁спорт	-11.1747
заходняга	-11.1758
нёман	-11.176
▁тыгр	-11.1766
1,1	-11.1773
▁ахова	-11.1786
pu	-11.1788
індзейск	-11.1792
▁адзначае	-11.1793
▁сайт	-11.1796
▁камбі	-11.1798
240	-11.18
▁дэлегацыі	-11.1802
▁македоніі	-11.1802
▁пашырэння	-11.1802
транзістар	-11.1802
▁вярнуліся	-11.1802
▁заканчва	-11.1802
▁пляменнік	-11.1802
▁лекцыі	-11.1802
▁эксперт	-11.1803
▁магілёва	-11.1803
▁ўласныя	-11.1803
▁чэхі	-11.1804
▁выконвалі	-11.1805
адзіноч	-11.1805
▁вызначэнне	-11.1805
▁людвік	-11.1805
▁уладанняў	-11.1807
▁вугалю	-11.181
▁адамовіч	-11.1817
▁харчовы	-11.1819
▁масавыя	-11.1822
возера	-11.1836
везлі	-11.1836
▁злучэння	-11.1836
плошча	-11.1836
▁плод	-11.1837
▁бачыў	-11.1845
xvii	-11.1855
▁windows	-11.1874
▁бангладэш	-11.1874
▁памяшканні	-11.1874
▁сярэднюю	-11.1874
▁мінімум	-11.1874
▁румынія	-11.1874
▁аксіём	-11.1874
▁акрузе	-11.1874
▁практыцы	-11.1874
▁сапегі	-11.1874
▁арабскіх	-11.1874
▁прапанова	-11.1874
смаргон	-11.1876
▁паштова	-11.1876
вілейскі	-11.1876
волжск	-11.1878
▁канечн	-11.188
▁прусія	-11.188
▁пераважае	-11.188
▁орша	-11.1881
2,8	-11.1883
▁паўстанні	-11.1889
▁саветнік	-11.191
адмірал	-11.1918
▁ранняг	-11.1919
будавання	-11.1922
▁гадава	-11.1928
▁згуб	-11.1932
▁аналаг	-11.1939
кейн	-11.1944
▁дасягнулі	-11.1946
▁апошняе	-11.1946
▁тэктаніч	-11.1946
▁суворава	-11.1946
▁асацыяцыі	-11.1946
▁заваяваны	-11.1947
▁арбіты	-11.1947
▁няўдач	-11.1947
▁палесся	-11.1947
▁форум	-11.1947
каталіцкая	-11.1947
▁марока	-11.1947
▁атлантычны	-11.1948
▁збудаваны	-11.1948
абмываецца	-11.1948
▁чэшскі	-11.1951
▁марской	-11.1951
▁расстрэл	-11.1953
▁экалагічны	-11.1953
▁and	-11.1955
значаць	-11.1957
слой	-11.1958
▁вадазбор	-11.1963
уладзімір	-11.1979
полацк	-11.1991
▁паліцыя	-11.1993
▁абмяркоўва	-11.2019
рэгіянальна	-11.2019
▁захоўваюцца	-11.2019
▁нейтрон	-11.2019
▁становішчы	-11.2019
▁тыдняў	-11.2019
▁узроўня	-11.2019
▁подпіс	-11.202
▁турыстычны	-11.202
▁клаўдзі	-11.202
▁кінатэатр	-11.202
▁ніхто	-11.202
▁футбольны	-11.202
▁накіроўва	-11.202
▁выканана	-11.202
▁тарашкевіч	-11.2021
▁спалены	-11.2021
▁малюнак	-11.2021
▁стабільна	-11.2022
▁гатовы	-11.2023
цягнулася	-11.2023
▁норма	-11.2026
▁пратакол	-11.2026
ўпарадкаван	-11.2033
▁палатно	-11.2034
▁цягнікоў	-11.2036
▁палітык	-11.2049
яўляцца	-11.2069
▁восем	-11.2073
▁1863—1864	-11.2093
▁абсталявання	-11.2093
▁адраджэнне	-11.2093
▁зняволення	-11.2093
▁нідэрланды	-11.2093
▁пазбегнуць	-11.2093
▁прамавугольна	-11.2093
▁спецыялізава	-11.2093
▁асноўнага	-11.2093
▁аднолькавы	-11.2093
▁фактараў	-11.2093
▁вырашылі	-11.2093
▁сцяпан	-11.2093
▁пераўтварэння	-11.2093
▁спалілі	-11.2094
▁ўласных	-11.2094
▁апісаў	-11.2095
цэнзур	-11.2095
▁двухпавярховы	-11.2096
агорск	-11.2097
▁хлеб	-11.2097
▁каштоўнасць	-11.2098
▁ніводна	-11.21
штурх	-11.2103
разуменне	-11.2105
▁фанем	-11.2111
▁жывых	-11.2122
тварыліся	-11.2128
▁музыкант	-11.2132
▁албанск	-11.2136
▁камерцыйны	-11.2136
чэшск	-11.214
▁даміну	-11.2166
▁мільярд	-11.2167
▁расстраляны	-11.2167
▁чвэрці	-11.2167
▁тэхналогіі	-11.2167
▁адкрыцці	-11.2167
▁бальшавікоў	-11.2167
дзельнічала	-11.2167
▁заваявання	-11.2167
▁службе	-11.2167
▁сусвету	-11.2167
▁дваццаць	-11.2167
▁пражывала	-11.2167
▁уваходзяць	-11.2168
▁змяша	-11.2169
▁кніжн	-11.2169
▁мангола	-11.2169
▁злічэння	-11.217
▁касмічна	-11.2174
▁крыжакоў	-11.2179
▁працэнт	-11.218
▁цяжкім	-11.2186
▁атрымана	-11.2189
▁звяза	-11.2199
сфера	-11.2217
106	-11.223
▁крытэр	-11.2235
▁абедзвю	-11.2242
▁апрацоўкі	-11.2242
▁нябесны	-11.2242
▁варшаву	-11.2242
▁паведаміў	-11.2242
▁аспірант	-11.2242
▁ўзмацні	-11.2242
▁валянцін	-11.2242
▁каралевы	-11.2242
▁існаваць	-11.2242
▁абставін	-11.2242
▁паўторна	-11.2242
▁упадае	-11.2242
▁сірыі	-11.2243
▁вонкава	-11.2243
▁відэа	-11.2244
▁цюркск	-11.2245
дзяліць	-11.2245
▁складаныя	-11.2245
ўкраінскі	-11.2251
▁мікола	-11.2252
▁ратуш	-11.2265
▁школьна	-11.2266
▁альгерд	-11.2268
▁нападнік	-11.228
высокі	-11.2282
▁дамаск	-11.2295
▁выпраменьва	-11.2299
▁губля	-11.2306
красавік	-11.2315
▁вікторыя	-11.2317
▁мяркуюць	-11.2317
▁своеасаблівы	-11.2317
▁эксплуатацыю	-11.2317
▁маёмасці	-11.2317
▁адзначаў	-11.2317
▁продкаў	-11.2317
▁пражывання	-11.2317
▁ўзмацненн	-11.2317
▁акалічнас	-11.2317
▁сутнасць	-11.2317
▁застаюцца	-11.2317
▁траўня	-11.2317
▁персідскі	-11.2318
▁ўпадае	-11.2318
пусціць	-11.2318
▁украінцы	-11.2318
▁стамбул	-11.232
эмігрант	-11.2326
індыйска	-11.2329
▁антычны	-11.2331
▁хуткі	-11.2334
▁трапляе	-11.2347
▁падтрымлівае	-11.2348
вялікае	-11.2359
▁ўладальніка	-11.2377
▁ўзялі	-11.2381
▁рэканструкцыі	-11.2393
▁інтэлігенцыі	-11.2393
▁асноўную	-11.2393
▁кампанію	-11.2393
▁нешматлік	-11.2393
▁галасавання	-11.2393
▁здароўе	-11.2393
▁поўнасцю	-11.2393
▁ляжаць	-11.2393
▁кракаве	-11.2393
▁збудаванняў	-11.2393
▁аляксея	-11.2393
▁рэсурсы	-11.2393
полымя	-11.2394
▁мясцовасць	-11.2394
▁узведзены	-11.2394
оўшчык	-11.2395
▁цяжкіх	-11.2395
▁сястра	-11.2398
▁валожын	-11.2398
дынама	-11.24
▁адпраўлены	-11.2409
▁арлоў	-11.242
▁мінулы	-11.2424
▁адыход	-11.2429
▁разбіў	-11.2433
▁тэатральны	-11.2436
▁указам	-11.244
▁гарэцкі	-11.2446
гаспадар	-11.2458
▁архібіскуп	-11.2469
▁аўрэліян	-11.2469
▁найвялікшы	-11.2469
▁пацярпела	-11.2469
▁высокую	-11.2469
▁канфіскава	-11.2469
▁выпадак	-11.2469
▁жыллё	-11.2469
▁прыйшла	-11.2469
▁аздоб	-11.2469
▁абаронча	-11.247
ахапіла	-11.247
▁селянін	-11.247
▁жаданне	-11.2471
▁дрэнна	-11.2471
▁староста	-11.2472
▁перасялі	-11.2472
▁хатні	-11.2472
▁стымул	-11.2479
▁граніт	-11.2483
▁ўзрост	-11.249
пераважна	-11.2514
6,5	-11.2516
▁ахоўва	-11.2539
xiii	-11.2545
▁абумоўлена	-11.2546
▁аргенціны	-11.2546
▁архіепіскап	-11.2546
▁гарызонт	-11.2546
▁недастаткова	-11.2546
▁тэўтонскага	-11.2546
▁ўпрыгожва	-11.2546
металургічн	-11.2546
▁заслужаны	-11.2546
▁варшавы	-11.2546
▁староства	-11.2546
▁каралеўскага	-11.2546
▁баторыя	-11.2546
▁савеце	-11.2547
▁кватэры	-11.2548
пасажыр	-11.2552
▁філалагічны	-11.2552
▁крымскі	-11.2553
▁вырашальн	-11.2555
ўсходняга	-11.256
land	-11.2575
for	-11.2599
▁прарока	-11.2606
значаліся	-11.262
▁амстэрдам	-11.2623
▁военачальнік	-11.2623
▁найстарэйшы	-11.2623
▁пачуццё	-11.2623
▁прысвоена	-11.2623
▁рагвалода	-11.2623
▁перашкаджа	-11.2623
▁забудовы	-11.2623
▁прызначэнне	-11.2623
▁жонку	-11.2624
▁наўгародска	-11.2624
▁тэадор	-11.2624
тэарэтычны	-11.2627
▁мясцовае	-11.2632
▁пачаць	-11.2633
▁жамойць	-11.2636
пагоня	-11.2639
алізацыя	-11.265
апты	-11.2684
княз	-11.2691
▁рузвельт	-11.2702
▁тэхнікум	-11.2702
архангельск	-11.2702
▁даступны	-11.2702
▁сродак	-11.2702
▁грошай	-11.2702
▁пабудаваць	-11.2702
▁прызначана	-11.2702
▁інвентар	-11.2702
▁ўмацаванне	-11.2702
▁ўключаюць	-11.2702
▁разглядаецца	-11.2702
▁індыйскага	-11.2702
▁мерыдыян	-11.2703
▁ўзнікнення	-11.2704
▁прыхільна	-11.2705
▁рэгулява	-11.2705
▁суперніка	-11.2705
▁публікацыі	-11.271
падзенні	-11.271
▁адмоўна	-11.2729
▁умерана	-11.2729
пускаецца	-11.2731
109	-11.2732
беларускага	-11.2735
▁ягад	-11.276
▁каштоўна	-11.2766
▁скончыла	-11.2768
▁адбіва	-11.2774
xvi	-11.2775
ціхаакіянск	-11.278
▁бразілія	-11.278
▁насупраць	-11.278
▁суверэнітэт	-11.278
▁прапанову	-11.278
▁арганічна	-11.278
▁рэарганізава	-11.278
▁бнф	-11.278
▁пакінула	-11.2781
▁нейтральн	-11.2781
▁курлянд	-11.2781
▁сцэне	-11.2781
▁беларуссю	-11.2783
▁саслоўя	-11.2783
▁бульба	-11.2783
▁біялагічны	-11.2784
▁станкевіч	-11.2785
▁міжнародная	-11.2787
▁гадавы	-11.2789
рагне	-11.279
▁улікам	-11.2792
▁паказалі	-11.2795
▁феад	-11.2798
▁імператарска	-11.2802
▁масіва	-11.2803
▁дуж	-11.2814
▁змяшчаю	-11.2815
верасень	-11.2832
▁апублікава	-11.2846
▁усерасійск	-11.2852
▁адмовіцца	-11.286
▁арыентацыі	-11.286
▁епархіі	-11.286
▁пасяджэнні	-11.286
▁паўплывала	-11.286
▁вішнявецкі	-11.286
▁дасягаюць	-11.286
жывёлагадоў	-11.286
▁захапля	-11.286
▁срэбны	-11.286
▁рагачоў	-11.286
▁многім	-11.286
▁паняцці	-11.286
▁мітынг	-11.286
▁ўсталяванн	-11.286
▁спакой	-11.286
▁воінаў	-11.286
▁нацысцка	-11.286
▁ізатоп	-11.286
▁адрознення	-11.286
▁святаполк	-11.286
▁інфармацыйны	-11.286
▁меркаванні	-11.2861
▁немцамі	-11.2861
▁хворы	-11.2861
▁вясны	-11.2862
▁крэдыт	-11.2868
▁паказаны	-11.2884
420	-11.2885
7,5	-11.2891
разумення	-11.2892
▁краснадар	-11.2897
▁навучальна	-11.2931
▁супраціў	-11.2936
▁егіпецкі	-11.294
▁леапольд	-11.294
▁наменклатуры	-11.294
▁ніжняга	-11.294
▁хрыбет	-11.294
▁ўсталяваны	-11.294
▁меркурыя	-11.294
▁наваколля	-11.294
▁арэнбург	-11.294
▁днём	-11.294
▁заключаны	-11.294
▁сінагог	-11.294
▁экзамен	-11.294
▁прывілеі	-11.294
▁(2008)	-11.294
▁прыгожы	-11.294
▁капліца	-11.2942
net	-11.2944
▁палявы	-11.2946
▁усеагульн	-11.2947
▁асобін	-11.2948
▁танца	-11.2953
▁аналіты	-11.2962
pro	-11.2997
▁адкрылі	-11.3007
▁унікальн	-11.3012
▁пальм	-11.3014
▁вучобы	-11.302
▁кацярыны	-11.302
▁старэйшага	-11.302
▁харватыі	-11.302
жнівень	-11.302
▁дэкаратыўны	-11.302
▁латвія	-11.302
▁лічбы	-11.302
▁ставіцца	-11.302
▁прапанавана	-11.302
▁заўважа	-11.3021
▁эпізод	-11.3021
▁тэлеграм	-11.3021
▁саступа	-11.3021
▁палявання	-11.3021
▁сербскі	-11.3022
▁дзецьмі	-11.3023
▁трапілі	-11.3023
▁лагойск	-11.3023
▁геалагічна	-11.3024
▁арыгінал	-11.3024
▁кіруючы	-11.3026
▁вальтэр	-11.3026
▁ўвазе	-11.3028
▁вылучэнн	-11.3029
▁панаванне	-11.3039
▁псіхалагічн	-11.3056
2,3	-11.3061
іраваў	-11.3062
▁адбываў	-11.3065
▁стварыла	-11.3067
афіцыйна	-11.3078
патрыярх	-11.3079
хвост	-11.308
2,6	-11.3083
▁іаган	-11.3085
▁грамадзянін	-11.3095
▁знішчэння	-11.3102
▁скрыжаванні	-11.3102
▁індзейцаў	-11.3102
снежань	-11.3102
▁касцюшкі	-11.3102
▁патрабаванне	-11.3102
▁пісьма	-11.3102
▁выйграў	-11.3102
▁змешчана	-11.3102
▁прыпяці	-11.3102
▁цяжар	-11.3102
▁вышыню	-11.3102
▁крымінальна	-11.3102
арсенал	-11.3102
▁аўстралія	-11.3102
▁дадатак	-11.3103
▁кузьм	-11.3106
▁рэччу	-11.3108
▁будовы	-11.3109
▁захоплена	-11.3111
▁поўнае	-11.3112
260	-11.312
▁прапаганды	-11.3134
▁стыля	-11.314
▁зніжа	-11.314
біраць	-11.3144
кансерватар	-11.3173
▁ўнікальн	-11.3183
▁зеландыі	-11.3184
▁падабенства	-11.3184
▁просьбай	-11.3184
▁францішак	-11.3184
▁заваёўнік	-11.3184
▁пяхоты	-11.3184
▁жлобін	-11.3184
▁урачыста	-11.3184
▁ядзерны	-11.3184
▁скандынав	-11.3184
▁досвед	-11.3184
дырыжор	-11.3184
▁чаплін	-11.3184
▁кеплер	-11.3184
▁плануецца	-11.3184
▁атрыманне	-11.3184
▁вагнер	-11.3184
▁рычард	-11.3184
▁ўжывання	-11.3185
5,5	-11.3186
▁геалагічны	-11.3186
▁згаданы	-11.3187
▁высланы	-11.3187
▁берагавой	-11.3188
▁варожа	-11.3188
▁стаялі	-11.3191
▁падаўленн	-11.3194
▁археалагічна	-11.3196
▁прыдатны	-11.3206
▁унук	-11.3208
▁долар	-11.3208
▁ключавы	-11.3211
▁літаральна	-11.3212
rum	-11.3213
узгор	-11.3217
▁налічвала	-11.3229
англій	-11.3247
пазней	-11.3251
2,7	-11.3251
▁мітрапаліт	-11.3254
▁працягвала	-11.3261
камсамольск	-11.3264
xix	-11.3265
▁аблічча	-11.3266
▁еўрапейцаў	-11.3266
▁пласкагор	-11.3266
▁арменіі	-11.3266
▁гарбачоў	-11.3266
▁прысутнасці	-11.3266
▁згуртава	-11.3266
▁нядзелю	-11.3266
▁паглына	-11.3266
▁прыватныя	-11.3266
▁ужываецца	-11.3267
▁завуць	-11.3268
▁ўжыванне	-11.3268
▁палітычнае	-11.327
будаўнік	-11.3276
▁школьны	-11.328
кансерватыўн	-11.3285
▁докшыц	-11.3288
экалагічн	-11.329
▁справядліва	-11.3301
вядомы	-11.3308
▁прыступ	-11.3329
▁якуб	-11.3333
▁праціўнік	-11.3342
▁бібліятэцы	-11.335
▁духоўную	-11.335
▁епархія	-11.335
▁канструкцый	-11.335
▁каэфіцыент	-11.335
▁навагрудскага	-11.335
▁партугальска	-11.335
▁распрацоўкі	-11.335
▁сведчанні	-11.335
▁своеасабліва	-11.335
▁хемінгуэй	-11.335
▁нямецкую	-11.335
▁парфенон	-11.335
▁македонска	-11.335
▁сацыялістаў	-11.335
▁адкрылася	-11.335
▁адміністратар	-11.335
▁спірт	-11.335
▁малюнкі	-11.3351
▁змаглі	-11.3351
▁вышэйшага	-11.3353
▁прадстаўніком	-11.3354
▁канчатковым	-11.3355
▁чацвер	-11.3357
▁барабан	-11.3357
▁прымыка	-11.3357
▁гадзіннік	-11.3362
▁насенне	-11.3368
земляроб	-11.3369
іраваць	-11.3372
▁ельскі	-11.3375
▁карэнна	-11.3377
▁усходнім	-11.3382
▁мёд	-11.3394
▁вугле	-11.3401
▁тэатральна	-11.3404
ступаючы	-11.3414
▁правял	-11.3418
васіль	-11.342
рэсурс	-11.3432
бамбардзір	-11.3432
▁леанарда	-11.3434
▁прыцягнення	-11.3434
▁геаметрыі	-11.3434
▁аднолькава	-11.3434
▁мінулага	-11.3434
▁пуэрта	-11.3434
▁гаворак	-11.3434
▁адзначана	-11.3434
▁генацыд	-11.3434
▁студзень	-11.3434
▁імёнаў	-11.3434
▁зрэдку	-11.3434
▁ганарова	-11.3434
днястроўск	-11.3434
▁водападзел	-11.3435
▁урбан	-11.3435
▁адольф	-11.3436
▁літоўцы	-11.3436
▁сямейны	-11.3436
▁заліве	-11.3442
маладняк	-11.3463
▁параметр	-11.3498
масква	-11.3505
магніт	-11.3518
▁абвясцілі	-11.3518
▁ахоплівае	-11.3518
▁наваколлі	-11.3518
▁размяшчэння	-11.3518
▁рэпрэсіі	-11.3518
▁сутыкну	-11.3518
▁ўніверсітэце	-11.3518
▁аўтамабілі	-11.3518
▁даўжыню	-11.3518
▁прыдворны	-11.3518
▁удалося	-11.3518
▁ізяслаў	-11.3518
▁засноўва	-11.3519
▁галасаванне	-11.3519
▁страцілі	-11.3519
▁езуітаў	-11.3519
▁шчучын	-11.3519
▁дэкрэт	-11.352
▁змянілі	-11.352
▁фізічных	-11.3521
▁сумесны	-11.3522
▁місіі	-11.3522
▁адметны	-11.3523
▁максімум	-11.3524
▁армій	-11.3524
▁алтай	-11.353
▁перадача	-11.3533
▁кіраўск	-11.3561
▁азначала	-11.3561
вайшла	-11.3565
▁палярна	-11.3567
▁дакументальны	-11.3585
зямля	-11.359
microsoft	-11.3604
▁адсутнічае	-11.3604
▁атмасфера	-11.3604
▁выбаршчыкаў	-11.3604
▁заканамерна	-11.3604
▁фарміраванні	-11.3604
▁асноўнае	-11.3604
▁рэфармацыі	-11.3604
▁біяграфічныя	-11.3604
квантавай	-11.3604
▁вымушана	-11.3604
▁занесены	-11.3604
▁саудаўска	-11.3604
шырокую	-11.3604
▁аптэка	-11.3605
++	-11.3605
▁участках	-11.3606
плаціць	-11.3607
▁навуцы	-11.3607
▁складаных	-11.3608
▁вітамін	-11.361
▁адліку	-11.3614
▁зону	-11.3615
▁нарманд	-11.3629
рыжскага	-11.3637
мусіць	-11.3642
▁ўмерана	-11.3661
1,9	-11.3667
▁лыж	-11.368
▁абхазіі	-11.369
▁гарадское	-11.369
▁лукашэнкі	-11.369
▁паведамленне	-11.369
▁спалучэнні	-11.369
▁сутыкнення	-11.369
▁сінгапур	-11.369
▁механікі	-11.369
▁скорасць	-11.369
▁царкоўных	-11.369
▁албанія	-11.369
▁ўключала	-11.3691
▁пакаранне	-11.3691
▁псіхалогіі	-11.3691
▁ўтрыманне	-11.3691
▁чачот	-11.3692
▁пастановы	-11.3692
патрыятычны	-11.3692
▁сасланы	-11.3692
▁вышэйшая	-11.3693
▁аўстралійск	-11.3696
▁бсг	-11.3697
пакоі	-11.3697
▁славі	-11.3735
антысавецк	-11.3735
сакрэт	-11.3741
0—200	-11.3741
▁выкід	-11.3743
▁забіва	-11.376
цягнулі	-11.3763
0,9	-11.3764
▁тэлеграф	-11.3769
свярдлоўск	-11.3777
▁адмовілася	-11.3777
▁канфесій	-11.3777
▁навуковец	-11.3777
▁разбурэння	-11.3777
▁вайскоўца	-11.3777
▁праекце	-11.3777
▁эпоха	-11.3777
▁ўключана	-11.3777
▁назоўнік	-11.3777
▁пірамід	-11.3777
▁скарача	-11.3778
▁мангольска	-11.3778
▁баранавічы	-11.3778
▁ўладкава	-11.3778
▁людвіг	-11.3779
▁камсамол	-11.3779
▁геаграфіі	-11.3781
цтву	-11.3783
▁празаік	-11.3787
▁уварва	-11.3788
▁перыядычны	-11.3789
▁ужыванне	-11.3791
салют	-11.3801
прызнан	-11.3824
▁абрана	-11.3834
▁пре	-11.3847
хімічны	-11.3848
vii	-11.386
amp	-11.3862
▁егіпецка	-11.3865
▁македонія	-11.3865
▁скопішча	-11.3865
▁увогуле	-11.3865
▁барадулін	-11.3865
▁механічна	-11.3865
▁асветніцтва	-11.3865
▁канкрэтны	-11.3865
▁музыцы	-11.3865
▁мацерыков	-11.3865
.10.19	-11.3865
▁статыстычн	-11.3865
▁прызнаць	-11.3866
▁носьбітаў	-11.3866
▁тэлеканал	-11.3866
▁камедыі	-11.3866
▁супраціўлення	-11.3866
▁выхаванне	-11.3867
▁валодаюць	-11.3867
▁пратэстанты	-11.3868
▁агню	-11.387
▁паласы	-11.3871
▁буржуа	-11.3879
▁супольн	-11.3899
▁элементарн	-11.3917
аксід	-11.3949
абраць	-11.395
хрыстос	-11.3953
▁канстытуцыю	-11.3953
▁салжаніцын	-11.3953
▁сфарміраваны	-11.3953
▁югаславія	-11.3953
▁пажыццёв	-11.3953
▁вацлаў	-11.3953
▁заключыў	-11.3953
▁цэглы	-11.3953
▁цвк	-11.3953
новасібірск	-11.3953
▁служаць	-11.3953
▁змянення	-11.3953
▁рэакцыя	-11.3954
▁прыбылі	-11.3955
▁сённяшня	-11.3955
▁каланіяльны	-11.3956
▁астранамічны	-11.3958
▁веліка	-11.3959
лажэння	-11.3961
▁аднавіў	-11.3965
▁януш	-11.3968
▁кольца	-11.3979
баранавіцка	-11.3999
▁вучня	-11.4004
▁заваявал	-11.4028
зямель	-11.4037
▁канферэнцыя	-11.4042
▁канструкцыя	-11.4042
▁муніцыпальны	-11.4042
▁падпарадкаваны	-11.4042
▁спецыфічны	-11.4042
▁цукровы	-11.4042
▁індывідуальна	-11.4042
▁друкаваўся	-11.4042
▁завершана	-11.4042
▁навагрудскі	-11.4042
▁распасціра	-11.4042
▁апазіцыя	-11.4043
▁антарктычн	-11.4043
▁патрабавала	-11.4043
▁суботу	-11.4043
▁існуючы	-11.4043
▁спрыяльны	-11.4043
▁прапанаваны	-11.4043
▁апісанні	-11.4043
▁апраўда	-11.4043
▁завярша	-11.4043
▁калегіі	-11.4043
▁шэльф	-11.4044
▁каштоўнасцей	-11.4044
▁космас	-11.4045
▁бялград	-11.4047
▁дарагі	-11.4047
▁зычных	-11.4048
▁рэзкі	-11.4049
▁магнітны	-11.4059
▁асуджа	-11.4068
аўтваральн	-11.4078
камплект	-11.4086
▁феадальны	-11.4091
візантый	-11.4102
▁дапушча	-11.4103
▁санат	-11.4115
▁аляхновіч	-11.4133
▁атрымлівалі	-11.4133
▁прыярытэт	-11.4133
▁суднаходства	-11.4133
▁умацаванняў	-11.4133
▁факультэце	-11.4133
▁абавязаны	-11.4133
▁служылі	-11.4133
▁кааліцыі	-11.4133
▁трэцяе	-11.4133
ўдасканален	-11.4133
▁неадкладна	-11.4133
▁магазін	-11.4133
▁сканчэння	-11.4133
▁простых	-11.4133
▁працоўнага	-11.4133
▁феадалаў	-11.4133
▁ўкраінскай	-11.4133
▁зверху	-11.4134
▁адклады	-11.4135
▁вырашэння	-11.4137
▁вялізны	-11.414
▁армянска	-11.4143
авіць	-11.4146
албан	-11.4149
▁павольна	-11.4151
фантастычн	-11.4151
▁плоскі	-11.4152
▁лідскі	-11.4152
▁прытрымліва	-11.4175
▁смут	-11.4188
ите	-11.4191
акрамя	-11.422
▁аўтаномію	-11.4223
▁давялося	-11.4223
▁дасягненне	-11.4223
▁медалём	-11.4223
▁пасяджэння	-11.4223
▁спасылкі	-11.4223
▁успамінаў	-11.4223
▁пасяліўся	-11.4223
▁сухапутны	-11.4223
▁меркавалася	-11.4223
▁карыстацца	-11.4223
▁каліноўскага	-11.4224
▁пэўную	-11.4224
▁дыплом	-11.4224
▁буйной	-11.4224
▁дапамагл	-11.4224
▁мармуров	-11.4225
▁вышэйшую	-11.4225
▁фактарам	-11.4226
спрыялі	-11.4227
▁ісландск	-11.4228
▁звязваю	-11.426
антрапаген	-11.4264
▁люблінска	-11.427
▁кафедральн	-11.4271
вялікая	-11.4286
чалавек	-11.4315
▁лынтуп	-11.4315
▁меліярацыйны	-11.4315
▁міжземнага	-11.4315
▁зарэгістраваны	-11.4315
▁перанесены	-11.4315
▁пісьменнасці	-11.4315
▁міхась	-11.4315
▁павятова	-11.4315
▁абараніў	-11.4315
▁аргумент	-11.4315
▁пайшла	-11.4315
▁гасцініца	-11.4315
▁шукаць	-11.4315
▁чэшскай	-11.4315
▁уваходзіла	-11.4316
зялёнага	-11.4316
латвійск	-11.4316
▁кораня	-11.4316
▁рэвізі	-11.4316
▁капернік	-11.4316
▁антыёх	-11.4316
▁індыю	-11.4317
▁машынабудаўніч	-11.4317
▁сербаў	-11.4318
▁аравійск	-11.4318
▁ваяваў	-11.432
рэгістрав	-11.432
абраны	-11.432
▁прымуша	-11.4321
▁магніта	-11.4324
▁мілан	-11.4355
8,5	-11.436
▁акруговы	-11.4376
▁разлічва	-11.4386
▁прыхільнік	-11.439
інтэрнат	-11.4393
еўрапейскай	-11.4398
інспектар	-11.4408
▁заўважыў	-11.4408
▁медыцыне	-11.4408
▁непасрэдны	-11.4408
▁процілеглы	-11.4408
▁супрацоўніцтве	-11.4408
▁ўсталявана	-11.4408
▁узімку	-11.4408
▁атрымоўва	-11.4408
▁энергію	-11.4408
▁губернскі	-11.4408
▁спасыла	-11.4408
▁агульную	-11.4408
▁імкліва	-11.4408
▁мытн	-11.4408
▁шклян	-11.4409
мікалай	-11.4409
▁адышоў	-11.4409
▁кіруюча	-11.4409
▁установы	-11.441
▁эгейск	-11.4414
▁стаяла	-11.4414
▁выбітны	-11.4417
▁абавязкаў	-11.4501
▁айчынную	-11.4501
▁выкапняў	-11.4501
▁канкурэнт	-11.4501
▁метэарыт	-11.4501
▁прыналежнасці	-11.4501
▁прысвяціў	-11.4501
▁садружнасці	-11.4501
▁філасофію	-11.4501
▁альбрэхт	-11.4501
▁студэнцкі	-11.4501
▁зацвердзіў	-11.4501
жалезабетон	-11.4501
▁карыстаецца	-11.4501
▁мяцеж	-11.4501
▁мехіка	-11.4501
▁прызначае	-11.4501
▁паслужыл	-11.4502
▁агонь	-11.4502
▁зброю	-11.4502
▁дамовы	-11.4515
▁гіпер	-11.4518
▁выліча	-11.4519
балотныя	-11.452
▁ўмоўна	-11.4523
3,3	-11.4524
▁баяво	-11.4526
▁рытуал	-11.4538
▁ўрач	-11.4549
першамайск	-11.4556
агульна	-11.4571
нарыхт	-11.4571
▁наземн	-11.4588
▁вольфганг	-11.4596
▁градусаў	-11.4596
▁дзмітрыя	-11.4596
▁канстанцінопаля	-11.4596
▁паўабаронца	-11.4596
▁становяцца	-11.4596
▁тэўтонскі	-11.4596
▁вядуць	-11.4596
▁кампраміс	-11.4596
▁колішня	-11.4596
▁няправільн	-11.4596
▁пейзаж	-11.4596
▁праваслаўнага	-11.4596
▁савецкую	-11.4596
▁грэчаскага	-11.4596
▁прадукцыя	-11.4596
▁практыку	-11.4596
▁стужка	-11.4596
▁парафіі	-11.4596
▁нядаўна	-11.4596
▁грыгоры	-11.4596
▁варшава	-11.4596
▁уваходзілі	-11.4596
мінеральных	-11.4596
нябесна	-11.4597
▁арабскай	-11.4597
▁паазер	-11.4597
▁варожы	-11.4598
▁ўзнікаюць	-11.4599
паўднёва	-11.4599
▁бярэзінск	-11.46
▁дэкарт	-11.4601
▁паспеў	-11.4602
▁аператар	-11.4602
▁перастал	-11.4606
▁адваротны	-11.4608
▁каланіяльна	-11.4608
▁адстойва	-11.4625
▁канчатков	-11.4657
▁алгарытм	-11.4691
▁галерэя	-11.4691
▁дысертацыю	-11.4691
▁знішчэнне	-11.4691
▁курфюрст	-11.4691
▁падтрымлівалі	-11.4691
▁пацярпелі	-11.4691
▁тлумача	-11.4691
▁фальварак	-11.4691
▁ўзаемадзеяння	-11.4691
▁знішчылі	-11.4691
▁нарвежска	-11.4691
▁найноўшы	-11.4691
▁паходжанні	-11.4691
▁англію	-11.4691
▁кпзб	-11.4691
▁геаметрычны	-11.4691
▁ледавіт	-11.4691
▁тэгеран	-11.4691
літоўскіх	-11.4691
▁агулам	-11.4691
▁акружаны	-11.4691
▁ацэнак	-11.4691
▁легіён	-11.4691
▁дызайн	-11.4691
▁сексуальны	-11.4691
▁аляксееў	-11.4691
▁папулярныя	-11.4691
▁распавяда	-11.4692
▁акупавана	-11.4692
▁акружнасц	-11.4692
грамадзян	-11.4693
гістарычна	-11.4694
▁заменены	-11.4694
▁водгук	-11.4694
хлоп	-11.4695
▁хатня	-11.4695
электра	-11.4696
▁альянс	-11.4698
▁чарнобыльска	-11.4702
▁канстанц	-11.472
▁баярын	-11.4721
тутэйш	-11.4752
▁паўсюдна	-11.4787
▁планіроўка	-11.4787
муніцыпалітэт	-11.4787
▁міхайлаў	-11.4787
▁нерухома	-11.4787
▁яраславіч	-11.4787
▁казахстана	-11.4787
▁драўніна	-11.4787
▁майстэрня	-11.4787
▁збудаванні	-11.4787
▁пайшлі	-11.4787
▁перамагла	-11.4787
▁сяргея	-11.4787
▁спрыяе	-11.4787
▁флора	-11.4787
▁заняткі	-11.4787
▁версій	-11.4788
▁напісання	-11.4788
▁знаходзячы	-11.4788
лягаюць	-11.4789
▁стратэгічна	-11.4789
▁пакаленне	-11.4789
▁(1921)	-11.4789
▁сярэбраны	-11.4789
▁багдана	-11.4792
▁заселена	-11.4793
▁0,0	-11.4793
пракурор	-11.4795
▁прызнала	-11.4799
эфектыўн	-11.4812
▁трапляю	-11.4816
плыву	-11.4825
▁крытычна	-11.4846
▁ўтрымлівае	-11.4846
▁выявілі	-11.485
браслаўскі	-11.4859
▁адправіў	-11.4875
▁дзятл	-11.488
мастацкага	-11.4882
швейцарыя	-11.4884
▁адмовіліся	-11.4884
▁асамблеі	-11.4884
▁самагубства	-11.4884
▁тлумачэнне	-11.4884
▁фартэпіяна	-11.4884
▁чарнагорыі	-11.4884
▁эканоміку	-11.4884
▁здолела	-11.4884
▁скарачэнне	-11.4884
▁ушанаванне	-11.4884
▁віленская	-11.4884
▁алімпія	-11.4884
▁палессі	-11.4884
ключыць	-11.4885
▁грашовы	-11.4885
▁офіс	-11.4885
▁ахоўны	-11.4887
▁распаўсюджанн	-11.4887
▁камянец	-11.4888
▁заселены	-11.4889
▁асветнік	-11.4892
▁забіта	-11.4896
▁вадзяны	-11.4897
трыццаць	-11.4899
▁дзевят	-11.4905
суперак	-11.4905
залатая	-11.4905
▁празрыст	-11.4909
▁правільна	-11.4915
ўсходняя	-11.4919
▁вырошчванн	-11.4924
▁цэласн	-11.4926
наконт	-11.494
докшыцкі	-11.4957
▁адпавядаюць	-11.4982
▁пагадзіўся	-11.4982
▁падрыхтоўку	-11.4982
▁тлумачэння	-11.4982
▁тэндэнцыя	-11.4982
▁календара	-11.4982
▁брэсцкага	-11.4982
▁вывучэнні	-11.4982
▁магілёве	-11.4982
▁падпісалі	-11.4982
▁заваявана	-11.4982
▁джэксан	-11.4982
▁лінкальн	-11.4982
▁пазначаны	-11.4982
▁надрукавана	-11.4982
▁тыдні	-11.4982
▁інфармацыйна	-11.4982
▁публічны	-11.4982
▁мемарыяльна	-11.4982
▁лунінец	-11.4983
▁аформі	-11.4984
▁ркп	-11.4984
▁змянша	-11.4984
▁запраша	-11.4986
▁сямейна	-11.4987
▁утрыманне	-11.499
▁кіраўніц	-11.4991
грэчаскай	-11.4993
▁сярэднегадав	-11.501
▁прызнаваў	-11.5011
3,8	-11.5016
▁нашэсц	-11.5052
▁капыл	-11.5053
▁працягваю	-11.5057
▁веласкес	-11.5081
▁далучыліся	-11.5081
▁зледзянення	-11.5081
▁падпарадкаванні	-11.5081
▁фінляндыя	-11.5081
▁эксплуатацыі	-11.5081
▁бразільскі	-11.5081
▁выпушчана	-11.5081
▁машынабудавання	-11.5081
яўляючыся	-11.5081
▁завершаны	-11.5081
▁кажуць	-11.5081
▁арменія	-11.5081
▁сучасную	-11.5081
▁аравіі	-11.5081
▁вымусіл	-11.5081
▁масівы	-11.5082
▁кодэкс	-11.5082
▁пагоршы	-11.5082
▁пакінуты	-11.5082
▁сцэны	-11.5082
▁фінансаў	-11.5082
▁калоній	-11.5082
▁шляхецкі	-11.5085
кітайска	-11.5132
рушыў	-11.5135
ўсходнюю	-11.5138
сляп	-11.5147
глініст	-11.5163
▁географ	-11.5181
▁веравызнання	-11.5181
▁дамогся	-11.5181
▁ліквідавана	-11.5181
▁найвышэйшай	-11.5181
▁нарвежскі	-11.5181
▁пазбаўленн	-11.5181
▁сяргеевіч	-11.5181
▁фларэнцыі	-11.5181
▁інвестыцый	-11.5181
▁войшалк	-11.5181
▁зацверджана	-11.5181
▁працаздольн	-11.5181
карычневы	-11.5181
▁клопат	-11.5181
▁намаганні	-11.5181
▁дзевяці	-11.5181
▁столькі	-11.5181
▁пабудоў	-11.5182
▁брэсцкі	-11.5182
▁батанічна	-11.5182
▁замацаваны	-11.5182
▁пашырыў	-11.5182
▁тлушч	-11.5182
▁губернска	-11.5182
▁абсалютны	-11.5183
▁этнаграфіі	-11.5183
▁паводкі	-11.5183
▁румынска	-11.5184
▁высадзі	-11.5184
▁архімед	-11.5186
міхаіл	-11.5196
партрэт	-11.5197
хімік	-11.5207
▁язык	-11.5218
▁фундаментальны	-11.5249
▁гайд	-11.5257
▁знаёмства	-11.5282
▁кампазіцыя	-11.5282
▁імператрыцы	-11.5282
▁кавалерыйск	-11.5282
▁найчасцей	-11.5282
jpg	-11.5282
▁блакітна	-11.5282
▁студэнцка	-11.5282
▁кажучы	-11.5282
▁малдовы	-11.5282
▁разгортва	-11.5282
▁аднайменны	-11.5282
▁вучыцца	-11.5282
▁ствараць	-11.5282
▁рашуча	-11.5282
▁салігорск	-11.5282
▁раніцай	-11.5283
▁выйграл	-11.5283
падобную	-11.5283
▁крыштаф	-11.5283
▁малочны	-11.5288
▁пакараны	-11.529
▁падпольна	-11.5292
[[	-11.53
▁пласцін	-11.5303
салодк	-11.5308
▁абшар	-11.5308
здзеяннем	-11.5313
ашэвіч	-11.5327
месяц	-11.5337
марэнны	-11.5337
▁ведаю	-11.5362
▁заходнееўрапей	-11.5381
▁ажыццяўлення	-11.5384
▁арганізавал	-11.5384
▁аўторак	-11.5384
▁дапамагаў	-11.5384
▁дзмітрыевіч	-11.5384
▁канкрэтна	-11.5384
▁манголіі	-11.5384
▁функцыю	-11.5384
▁энцыклапедыя	-11.5384
▁іспанію	-11.5384
▁шпіталь	-11.5384
▁зруйнава	-11.5384
▁мексікі	-11.5384
▁рассялення	-11.5384
▁аддзяленні	-11.5384
▁вылучыць	-11.5384
▁уласцівы	-11.5384
▁спынілі	-11.5385
▁ўвайшло	-11.5385
▁суцэльна	-11.5385
▁адыграл	-11.5386
▁стасунк	-11.5386
▁заваёв	-11.5387
▁лютаўска	-11.5388
працяг	-11.5394
асноўны	-11.5405
каталіцкі	-11.5405
▁ўзяцц	-11.5407
▁белавежск	-11.5415
станаўленне	-11.5421
▁сканч	-11.5453
мядзведзі	-11.5463
▁жалуд	-11.5465
брагінскі	-11.5468
▁настойва	-11.5474
біраліся	-11.5478
▁атрымліваў	-11.5478
▁абумоўлены	-11.5487
▁аграгарадок	-11.5487
▁вікіпедыі	-11.5487
▁заключаецца	-11.5487
▁лейпцыг	-11.5487
▁літаратурную	-11.5487
▁назапашва	-11.5487
▁першапачатковы	-11.5487
▁прапаганда	-11.5487
▁сітуацыю	-11.5487
▁цывілізацыя	-11.5487
▁чвэрць	-11.5487
▁чынгісхан	-11.5487
▁хронікі	-11.5487
▁рабочай	-11.5487
▁патрабавалі	-11.5487
▁важнейшы	-11.5487
▁фізіцы	-11.5487
▁рэйхстаг	-11.5487
▁вяртанні	-11.5487
▁размеркаванне	-11.5487
▁дзядзька	-11.5487
▁спрыяў	-11.5488
ение	-11.5488
▁выпадкі	-11.5488
▁мвт	-11.5488
▁рэактар	-11.5488
▁(1972)	-11.5492
▁закрыцц	-11.5493
высока	-11.551
▁адчувае	-11.5513
польску	-11.5515
графічнай	-11.554
трымліваюцца	-11.5564
▁дапаможны	-11.5591
▁драўніны	-11.5591
▁дэлегацыя	-11.5591
▁небяспечны	-11.5591
▁экспедыцый	-11.5591
▁арганізаваць	-11.5591
▁пачатковую	-11.5591
▁брытаніі	-11.5591
▁абрыкос	-11.5591
▁вацлава	-11.5591
▁друкаваліся	-11.5591
▁глыбоцк	-11.5592
▁выпадкова	-11.5592
▁людзям	-11.5592
▁прэстыж	-11.5592
▁рэакцый	-11.5592
▁продкі	-11.5592
▁рухаецца	-11.5592
▁парафія	-11.5592
▁ўжывалася	-11.5593
▁абслугоўванне	-11.5593
генератар	-11.5596
▁англамоўн	-11.5605
▁раннім	-11.5606
▁палавін	-11.5607
часопіс	-11.5615
фрыд	-11.5672
▁славута	-11.5688
▁асаблівую	-11.5697
▁біблейска	-11.5697
▁біблейскі	-11.5697
▁замярзае	-11.5697
▁чэхаславакіі	-11.5697
▁ініцыятывы	-11.5697
▁ўпраўлення	-11.5697
▁насякомыя	-11.5697
▁эквівалент	-11.5697
▁абіраецца	-11.5697
▁запрошаны	-11.5697
▁тэхналагічны	-11.5697
▁каардынацы	-11.5697
▁княствы	-11.5697
▁перанесена	-11.5697
▁святаславіч	-11.5697
▁далёкім	-11.5697
▁нелегальна	-11.5697
▁бастыён	-11.5697
▁каспійскага	-11.5697
▁штраф	-11.5697
▁астраноміі	-11.5697
▁серыю	-11.5698
▁сляды	-11.5698
▁змешва	-11.5699
▁пачынальнік	-11.5699
=169	-11.5699
▁падпольны	-11.5702
дняпроўска	-11.5714
▁вугля	-11.5717
▁звязвае	-11.573
▁падарожнік	-11.5734
юнацк	-11.5759
аводства	-11.5787
магаўся	-11.5798
4,4	-11.5798
ходзяцца	-11.5803
▁паўнамоц	-11.5803
▁акупіравана	-11.5803
▁гравітацыйна	-11.5803
▁дапамагчы	-11.5803
▁лівоніі	-11.5803
▁незадаволенасць	-11.5803
▁падтрымлівала	-11.5803
▁пасёлку	-11.5803
▁прыналежнасць	-11.5803
▁раскопак	-11.5803
▁спартсмен	-11.5803
▁тызенгаўз	-11.5803
▁камісію	-11.5803
▁калекцыі	-11.5803
▁майстроў	-11.5803
▁сонечнага	-11.5803
▁экіпаж	-11.5803
▁босніі	-11.5803
▁гаворкі	-11.5803
▁прапановы	-11.5803
▁ўстойліва	-11.5803
▁дзясяткаў	-11.5803
▁гданьск	-11.5803
▁вызваленні	-11.5804
▁распачата	-11.5804
▁логіка	-11.5804
▁княжацкі	-11.5804
▁лясная	-11.5804
▁акцэнт	-11.5807
▁(1990)	-11.5808
▁адчынены	-11.5808
▁(1986)	-11.5809
▁карыбска	-11.5819
▁багдад	-11.582
▁выхоўва	-11.5821
выдавец	-11.5837
▁урадлів	-11.5839
энцыклапедыі	-11.5911
▁археалогіі	-11.5911
▁захварэў	-11.5911
▁кампазіцый	-11.5911
▁лізавета	-11.5911
▁паспалітая	-11.5911
▁сфарміравалася	-11.5911
▁працэдур	-11.5911
▁астатнім	-11.5911
▁знішчыў	-11.5911
▁еўразіі	-11.5911
▁кітаем	-11.5911
вяржэння	-11.5911
▁прапануе	-11.5911
▁утвараючы	-11.5911
▁дзевяць	-11.5911
▁падтрымалі	-11.5911
▁нарадзіліся	-11.5911
▁станоўча	-11.5911
▁калумбіі	-11.5911
▁вытворчы	-11.5911
▁лексіка	-11.5912
▁няпоўн	-11.5912
▁адзенне	-11.5919
рэспубліка	-11.5941
▁гідралагічн	-11.5985
▁пазнаёмі	-11.6014
▁абавязковы	-11.6019
▁вучобу	-11.6019
▁гарызантальны	-11.6019
▁крыптанім	-11.6019
▁медыцыны	-11.6019
▁панядзелак	-11.6019
▁партугалія	-11.6019
▁эвалюцыі	-11.6019
▁вызначаюць	-11.6019
▁пацвердзіў	-11.6019
▁усяславіч	-11.6019
▁сродкамі	-11.6019
▁прыватным	-11.6019
▁даступна	-11.6019
▁джавані	-11.6019
▁ставіліся	-11.6019
▁выпусціл	-11.6019
▁змяненне	-11.6019
▁цыркул	-11.6019
▁магелан	-11.6019
▁чарапах	-11.602
▁азначэння	-11.602
▁карэнных	-11.602
▁ўваходзіў	-11.602
▁аблогу	-11.602
▁нязменна	-11.602
▁францыск	-11.602
▁напісанне	-11.602
▁дачыненне	-11.602
▁ўмацаваны	-11.6023
▁штодзённа	-11.6025
▁практычны	-11.6035
▁глуш	-11.605
песня	-11.6054
▁чаргава	-11.6064
9,5	-11.6091
▁0,6	-11.6098
ізаваць	-11.6101
3,7	-11.6106
▁аказала	-11.6118
▁праводзіла	-11.6123
▁гаштольд	-11.6129
▁кавалерыі	-11.6129
▁канстытуцыйны	-11.6129
▁найсвяцейша	-11.6129
▁паскарэнне	-11.6129
▁франсіска	-11.6129
▁невялікую	-11.6129
▁беспаспяхова	-11.6129
▁наталля	-11.6129
▁ёлча	-11.6129
▁песню	-11.6129
▁ластоўскі	-11.6129
▁ўсталёўва	-11.6129
▁выдаткі	-11.613
▁заваяванне	-11.613
▁гамбург	-11.613
▁дажджа	-11.613
▁дзясяткі	-11.613
▁сумяшча	-11.6134
▁рачно	-11.6136
▁станаўленн	-11.6151
беларускае	-11.6153
пускаюцца	-11.6166
▁разабра	-11.6176
▁кафедра	-11.6182
станаўлення	-11.6183
▁адрыян	-11.6193
кіраваўся	-11.6232
▁аэрадром	-11.624
▁бісмарк	-11.624
▁заахвочва	-11.624
▁завяршылася	-11.624
▁звестках	-11.624
▁паведамлення	-11.624
▁свідрыгайла	-11.624
▁хрыбты	-11.624
▁чарнагорыя	-11.624
▁бежанцаў	-11.624
▁керамікі	-11.624
▁дзісенскага	-11.624
▁калінкавічы	-11.624
▁канцылярыі	-11.624
▁юстыцыі	-11.624
▁суполкі	-11.624
▁прыбярэжных	-11.624
▁палепшы	-11.6241
тварэнню	-11.6241
▁заслугі	-11.6241
▁індэкс	-11.6241
▁драматычна	-11.6241
▁дапаўня	-11.6242
▁попыт	-11.6244
▁мемарыял	-11.6246
▁фінальн	-11.627
0—150	-11.6272
3,6	-11.6306
інтэграл	-11.6334
сховішча	-11.6352
анджэлес	-11.6353
▁гаворыцца	-11.6353
▁зальцбург	-11.6353
▁захапленне	-11.6353
▁колькасна	-11.6353
▁максіміліян	-11.6353
▁партугальскі	-11.6353
▁позняга	-11.6353
▁псіхааналіз	-11.6353
▁сутыкненні	-11.6353
▁сцвярджаюць	-11.6353
▁уругвая	-11.6353
▁хемінгуэя	-11.6353
▁маніфеста	-11.6353
канструктар	-11.6353
▁гвалтоўна	-11.6353
▁буэнас	-11.6353
▁франтах	-11.6353
▁абуховіч	-11.6353
▁зміцер	-11.6353
▁крысціян	-11.6354
▁суфікс	-11.6355
нясення	-11.6355
▁радыкальна	-11.6357
▁(1978)	-11.6358
▁(1975)	-11.6358
▁тэрор	-11.6362
▁бюст	-11.6363
▁палачан	-11.6367
▁анекс	-11.639
венгрыі	-11.6393
старшыня	-11.6393
▁пераканаў	-11.6398
5,6	-11.6404
сярэдні	-11.6408
мясцовы	-11.6419
трактар	-11.6434
тэхнічнай	-11.6458
фельдмаршал	-11.6466
▁абвінавачаны	-11.6466
▁доўжыцца	-11.6466
▁замкнён	-11.6466
▁спартыўных	-11.6466
▁спектакля	-11.6466
▁захоўваць	-11.6466
▁рсдрп	-11.6466
▁цяснін	-11.6466
▁спынена	-11.6466
▁успрыма	-11.6466
краёўцаў	-11.6466
▁англійскую	-11.6466
▁ўражанне	-11.6466
▁дайшлі	-11.6466
▁баляслава	-11.6466
▁злотых	-11.6467
▁сказаць	-11.6467
▁прыпяць	-11.6467
▁станоўчы	-11.6467
▁адышлі	-11.6467
▁іўдаізм	-11.6467
▁захоўваў	-11.6467
марцінкевіча	-11.6468
алкагольн	-11.6469
▁светлагорск	-11.647
▁радыкальны	-11.6471
▁індустрыяльна	-11.6471
землеўласн	-11.6472
▁сведка	-11.6475
▁грузінска	-11.6477
апошні	-11.651
▁вугал	-11.6535
тэатр	-11.6566
▁апрацоўка	-11.6581
▁атмасферны	-11.6581
▁грэнландыі	-11.6581
▁езуіцкі	-11.6581
▁рэканструкцыя	-11.6581
▁рэстаўрацыі	-11.6581
▁сімвалізуе	-11.6581
▁імкнецца	-11.6581
▁авангард	-11.6581
▁лозунг	-11.6581
▁практыкі	-11.6581
▁самакіраванне	-11.6581
▁сувязяў	-11.6581
▁супадае	-11.6581
▁глабальна	-11.6581
▁краёвай	-11.6581
яцвяжска	-11.6581
▁якаўлевіч	-11.6581
▁прытулак	-11.6581
▁экалогія	-11.6581
▁мемарыяльны	-11.6581
▁знікнення	-11.6582
▁батанічны	-11.6582
▁тройчы	-11.6582
▁(2009)	-11.6582
▁заваяваў	-11.6582
вароце	-11.6582
▁пчол	-11.6584
каталікоў	-11.6585
▁спрабую	-11.6585
шчаслів	-11.6592
філалагічн	-11.6594
інфлянцк	-11.66
3,9	-11.6605
▁пакідае	-11.6631
тэхнічнага	-11.6659
▁шчыльн	-11.6681
узначальва	-11.6697
▁перыферы	-11.6697
▁сфарміраваў	-11.6697
▁фотаздым	-11.6697
▁гаворыць	-11.6697
▁звольнены	-11.6697
▁класіцызму	-11.6697
▁негатыўна	-11.6697
▁незадаволены	-11.6697
▁прыгавораны	-11.6697
▁распараджэнне	-11.6697
▁рэпертуар	-11.6697
▁імператрыца	-11.6697
▁раскопкі	-11.6698
▁увесну	-11.6698
▁узмацненн	-11.6698
▁запрасіў	-11.6698
▁плутон	-11.6698
▁прэтэндава	-11.6698
▁віленскую	-11.6698
▁мсціслава	-11.6698
▁апанент	-11.6698
▁фарміруе	-11.6698
▁бальшавікамі	-11.6698
▁латышска	-11.6698
▁жылля	-11.6698
▁адышла	-11.6698
▁маладой	-11.6698
▁(2001)	-11.6698
▁сахалін	-11.6698
▁нязначна	-11.67
▁умацаваны	-11.6701
▁(1982)	-11.6703
▁глуск	-11.6703
▁таемна	-11.6706
4,8	-11.6712
▁старанна	-11.6714
▁рыцарск	-11.6716
▁стварала	-11.6726
▁воінска	-11.6736
востраў	-11.6745
4,3	-11.6761
▁unix	-11.6815
▁ажыццяўляла	-11.6815
▁антарктыды	-11.6815
▁бесперапынна	-11.6815
▁вучэбна	-11.6815
▁узмацні	-11.6815
▁чарнаскур	-11.6815
▁ядвігі	-11.6815
▁індывідуальны	-11.6815
▁абумовіл	-11.6815
▁завяршэння	-11.6815
▁сучаснікаў	-11.6815
▁публіку	-11.6815
▁юнацтва	-11.6815
▁спынення	-11.6815
▁банапарт	-11.6815
▁вертыкальна	-11.6815
▁ідэалогія	-11.6815
▁розніца	-11.6815
▁логікі	-11.6815
▁іспанцы	-11.6815
▁вандроўн	-11.6816
▁адназначна	-11.6816
▁нязначны	-11.6817
▁публіцыстычны	-11.6817
▁футбольна	-11.6817
▁будызм	-11.682
▁вулканічна	-11.682
дынамічны	-11.682
папярочн	-11.6822
▁схільна	-11.6824
▁зачынены	-11.6824
▁блакад	-11.6837
польшча	-11.6867
▁рыначн	-11.6889
прыдатн	-11.6893
▁падарожн	-11.6902
венгерска	-11.6913
▁берасце	-11.6927
▁тэхнічна	-11.6933
national	-11.6934
▁задавальня	-11.6934
▁камісарыят	-11.6934
▁каналізаванае	-11.6934
▁княгіні	-11.6934
▁металургія	-11.6934
▁муніцыпальна	-11.6934
▁падвергну	-11.6934
▁парламенце	-11.6934
▁паўплывалі	-11.6934
▁прамавугольны	-11.6934
▁мінеральныя	-11.6934
▁перабудовы	-11.6934
▁максвел	-11.6934
▁дасягаць	-11.6934
▁знаходжанне	-11.6934
▁пярэдні	-11.6934
▁меркаваць	-11.6934
▁характарызава	-11.6934
▁жадаючы	-11.6934
рэвалюцыянераў	-11.6935
▁міграцый	-11.6935
▁свежы	-11.6935
▁пазначае	-11.6935
▁дасягала	-11.6935
▁чачэрск	-11.6936
▁бульвар	-11.6937
▁(1928)	-11.6939
▁(1968)	-11.694
▁выконвала	-11.694
▁бровар	-11.6941
▁гітлераўц	-11.6943
▁сярэдзін	-11.6943
месячна	-11.6948
адміністрацыйную	-11.7055
адпавядала	-11.7055
▁бхарація	-11.7055
▁вярнуўшыся	-11.7055
▁гутэнберг	-11.7055
▁дзяцінстве	-11.7055
▁найвышэйшая	-11.7055
▁незвычайны	-11.7055
▁падраздзялення	-11.7055
▁пазбяга	-11.7055
▁сімфоніі	-11.7055
▁энергетыкі	-11.7055
▁ініцыятыва	-11.7055
▁уругвай	-11.7055
▁рэмбрант	-11.7055
▁залежаць	-11.7055
▁рэфарматар	-11.7055
▁смоліч	-11.7055
▁малдаўскай	-11.7055
▁сярэдневякова	-11.7055
▁патрыятычна	-11.7055
▁спрабуе	-11.7055
▁сустрэлі	-11.7055
семдзесят	-11.7055
▁аперацыю	-11.7055
▁мембран	-11.7055
езуіт	-11.7055
▁альманах	-11.7055
▁нязменны	-11.7055
▁пленум	-11.7056
▁беларускамоўна	-11.7056
▁брашур	-11.7058
▁(1971)	-11.706
плывае	-11.706
партызан	-11.711
5,8	-11.7112
ахоўваюць	-11.7114
7,8	-11.7173
▁алгебры	-11.7177
▁візантыя	-11.7177
▁егіпцян	-11.7177
▁капенгаген	-11.7177
▁прапаведнік	-11.7177
▁рэзідэнцыі	-11.7177
▁сімволіка	-11.7177
▁характарызуюцца	-11.7177
▁акупіраваны	-11.7177
▁балівіі	-11.7177
▁вуглякісл	-11.7177
▁губерню	-11.7177
▁рэчаісны	-11.7177
▁цвікевіч	-11.7177
цікавіўся	-11.7177
▁ваньковіч	-11.7177
▁служыла	-11.7177
▁студыі	-11.7177
▁агнём	-11.7177
▁прадукцыйн	-11.7177
▁ўчастку	-11.7177
▁селішча	-11.7177
▁змяніць	-11.7177
▁базілік	-11.7177
сервераў	-11.7177
▁крымінальны	-11.7177
маладосць	-11.7177
▁(2004)	-11.7177
▁хваста	-11.7178
▁аграрны	-11.718
▁дзіўн	-11.7183
▁вялікалітоўскі	-11.7183
▁арктычны	-11.7184
▁княжацка	-11.7186
▁прэзідэнцк	-11.719
магчыма	-11.7208
▁каўнас	-11.7224
схільны	-11.7232
каталіцкай	-11.7237
4,7	-11.7242
акадэмі	-11.7245
▁гладк	-11.7253
▁шэкспір	-11.7253
▁юпітэр	-11.727
кананічны	-11.7271
thumb	-11.73
нюрнберг	-11.73
▁ансамбль	-11.73
▁аператыўна	-11.73
▁асамблея	-11.73
▁атмасферу	-11.73
▁афарбоўка	-11.73
▁галерэі	-11.73
▁дажджоў	-11.73
▁драздовіч	-11.73
▁кантэксце	-11.73
▁навагрудак	-11.73
▁падножжа	-11.73
▁ізяславіч	-11.73
▁мухамед	-11.73
▁кампартыі	-11.73
▁няўдалы	-11.73
▁надрукаваў	-11.73
▁пункце	-11.73
▁прыдворна	-11.73
▁якуціі	-11.73
▁ковенскай	-11.73
▁матэрыі	-11.73
▁рэцэнзі	-11.73
▁прыбытак	-11.73
▁бярэзіна	-11.73
▁тэхніцы	-11.73
брэсцкая	-11.7301
▁наладжва	-11.7301
кастусь	-11.7301
▁камендант	-11.7302
▁(1979)	-11.7305
▁вырашыла	-11.7305
▁дашкольны	-11.7306
▁адвакат	-11.7311
▁няроўна	-11.7315
▁адукацыйны	-11.7325
шляхціц	-11.7345
расійскі	-11.7401
▁кастрычніцк	-11.7408
▁адзначаюць	-11.7425
▁брандэнбург	-11.7425
▁вызваліць	-11.7425
▁глыбіню	-11.7425
▁гідраграфія	-11.7425
▁дэкларацыі	-11.7425
▁прысутнічаюць	-11.7425
▁пталамея	-11.7425
▁трагедыі	-11.7425
▁экспансіі	-11.7425
▁экспедыцыю	-11.7425
▁ўрочышчы	-11.7425
▁біёграф	-11.7425
▁ліквідаваны	-11.7425
▁міжваеннай	-11.7425
▁сястрой	-11.7425
▁прысутнасць	-11.7425
праабражэн	-11.7425
▁рэпрэсаваны	-11.7425
▁прапанавалі	-11.7425
▁экватарыяльны	-11.7425
▁гідранімічн	-11.7425
псалтыр	-11.7425
▁касманаўт	-11.7425
▁памылка	-11.7425
▁заключана	-11.7425
▁ўласцівы	-11.7425
▁пскова	-11.7425
▁роднасны	-11.7426
▁кадраў	-11.7426
▁паўстанцкі	-11.7426
▁дабрачынна	-11.7427
▁гаўрыл	-11.7431
6,7	-11.7463
▁перамяшчэння	-11.7552
▁тысячагоддзі	-11.7552
▁петрапаўлаўск	-11.7552
▁ператвораны	-11.7552
▁крышталічны	-11.7552
▁мемуары	-11.7552
▁пісьменнасць	-11.7552
▁намесніцтва	-11.7552
▁наўгародскі	-11.7552
▁стрыечны	-11.7552
▁назіраюцца	-11.7552
марфалагічны	-11.7552
▁атрыбут	-11.7552
▁парушэнне	-11.7552
▁ўзаемна	-11.7553
▁чартарыйск	-11.7553
▁манеўр	-11.7554
▁саўгас	-11.7554
▁сімвалічна	-11.7558
4,6	-11.7559
▁разумее	-11.7561
▁паўфінал	-11.7569
▁ўплывов	-11.7603
рафаэл	-11.7649
▁карэкт	-11.767
▁хвойн	-11.7679
паўправаднік	-11.768
▁адсутнічаюць	-11.768
▁беспрацоўя	-11.768
▁доўжылася	-11.768
▁македонскі	-11.768
▁мікалаем	-11.768
▁трапецападобная	-11.768
▁выкананні	-11.768
▁гняздо	-11.768
▁захоўвання	-11.768
▁змяняюцца	-11.768
▁цхінвал	-11.768
▁гібелі	-11.768
▁длугаш	-11.768
▁сыравіна	-11.768
▁заканчэнні	-11.768
▁ркрп	-11.768
▁устойліва	-11.768
▁слаёў	-11.768
▁абавязва	-11.768
▁скіравана	-11.768
▁паштовы	-11.7683
▁лагчын	-11.7684
=179	-11.7685
▁кантраст	-11.7686
▁адмаўляе	-11.7693
астранамічн	-11.7725
канстанцін	-11.7752
▁скандал	-11.7779
▁рэчаісна	-11.7801
башкартастан	-11.781
▁ажыццяўляў	-11.781
▁альтэрнатыўны	-11.781
▁арсеннева	-11.781
▁здабычу	-11.781
▁зеландыя	-11.781
▁каталіцызм	-11.781
▁насельніцтву	-11.781
▁памылкова	-11.781
▁пасёлкі	-11.781
▁прэзідэнцтва	-11.781
▁рэзананс	-11.781
▁свідрыгайлы	-11.781
сальвадор	-11.781
▁будматэрыялаў	-11.781
▁ізяслава	-11.781
▁маладосці	-11.781
▁шчупак	-11.781
▁ставяцца	-11.781
▁служачы	-11.781
▁пагрозы	-11.781
▁кірункі	-11.781
▁бульбу	-11.781
палажэнне	-11.781
▁замяніў	-11.781
▁стальца	-11.781
▁усталяванн	-11.781
▁пазняк	-11.7811
▁рэстаран	-11.7812
▁бытаво	-11.7817
▁лірычны	-11.7818
▁палярнік	-11.782
▁падатков	-11.7824
цзян	-11.7835
7,6	-11.7836
трымліваўся	-11.784
лебедз	-11.7842
#	-11.8486
<	-13.0057
