<unk>	0
<s>	0
</s>	0
.	-3.08526
,	-3.31555
▁на	-3.36762
▁и	-3.84325
▁в	-3.92692
▁от	-4.17032
▁е	-4.21126
▁	-4.26195
▁се	-4.47927
▁с	-4.71523
та	-4.74695
▁за	-4.77923
а	-4.90183
и	-4.91725
те	-4.93823
▁г	-4.99433
-	-5.00958
▁по	-5.08713
т	-5.09982
"	-5.12321
▁през	-5.13131
▁–	-5.26278
▁„	-5.28751
▁са	-5.29802
="	-5.34059
▁(	-5.34979
#	-5.37569
то	-5.3769
▁#	-5.4044
▁да	-5.43845
о	-5.5366
на	-5.56882
ни	-5.6021
doc	-5.73885
>	-5.74034
▁до	-5.7466
▁като	-5.79215
я	-5.81569
▁селото	-5.84718
“	-5.86429
▁а	-5.88153
▁село	-5.93103
)	-5.95488
▁не	-5.97803
но	-6.02265
не	-6.02807
н	-6.05494
▁си	-6.09339
ли	-6.09578
ен	-6.1192
/	-6.12042
:	-6.17664
d	-6.19651
ите	-6.24286
▁при	-6.25005
▁година	-6.25368
▁след	-6.25664
▁че	-6.27502
с	-6.28411
▁към	-6.28848
▁най	-6.30204
л	-6.33096
ът	-6.33313
▁има	-6.34275
е	-6.36258
▁намира	-6.3782
ка	-6.37864
?	-6.40835
▁"	-6.412
),	-6.41903
bg	-6.42645
org	-6.42803
ies	-6.42887
://	-6.43063
▁<	-6.43135
wiki	-6.43175
https	-6.43197
▁id	-6.43248
title	-6.43265
wikipedia	-6.43272
▁url	-6.4328
curi	-6.43325
▁categor	-6.4334
▁</	-6.43568
в	-6.44545
▁му	-6.45093
▁българия	-6.46293
▁това	-6.46629
ят	-6.50557
▁които	-6.53157
к	-6.54531
ла	-6.57402
▁част	-6.64977
).	-6.67428
▁около	-6.6743
▁но	-6.7326
м	-6.7574
▁който	-6.77731
“,	-6.78644
ци	-6.79275
▁община	-6.80204
ните	-6.8138
ната	-6.81675
“.	-6.87763
▁то	-6.89301
▁която	-6.9018
▁време	-6.90428
▁век	-6.91212
▁което	-6.91572
▁област	-6.9171
▁със	-6.92078
▁населението	-6.92963
нето	-6.93177
▁много	-6.95028
▁под	-6.95521
▁той	-6.95619
▁или	-6.95784
▁град	-6.96893
д	-6.96965
ва	-6.97731
▁години	-6.98206
ска	-7.00024
ло	-7.00341
ски	-7.02326
ния	-7.02349
▁река	-7.02402
г	-7.05189
ко	-7.06114
▁според	-7.06651
=1	-7.10095
;	-7.12055
▁други	-7.12582
ия	-7.12772
й	-7.12778
▁из	-7.13079
▁1	-7.14043
▁във	-7.14454
▁km	-7.16077
р	-7.16078
▁между	-7.17213
▁о	-7.1822
=	-7.1873
ст	-7.19505
▁2	-7.20022
ти	-7.20355
п	-7.21234
ово	-7.21345
ви	-7.2196
х	-7.22814
▁името	-7.23391
▁те	-7.23504
по	-7.27238
ки	-7.2764
ри	-7.3036
▁един	-7.30519
▁път	-7.30667
у	-7.30967
ата	-7.32586
ра	-7.33091
▁история	-7.33645
▁m	-7.36238
▁3	-7.3705
▁само	-7.37404
ов	-7.38402
▁този	-7.3881
за	-7.39672
▁раз	-7.39841
▁у	-7.40307
▁както	-7.41527
▁население	-7.42669
▁география	-7.44119
ма	-7.44626
ско	-7.44752
ди	-7.45026
▁над	-7.45936
▁още	-7.47838
да	-7.48184
▁една	-7.48982
▁км	-7.49599
б	-7.5051
▁може	-7.50802
ската	-7.51723
▁така	-7.51876
▁него	-7.53587
▁го	-7.53693
▁18	-7.53812
▁града	-7.54688
▁м	-7.54698
з	-7.54935
ното	-7.55066
▁души	-7.55822
▁също	-7.5629
▁4	-7.56291
ш	-7.56453
ща	-7.58601
▁про	-7.58602
▁пре	-7.59535
▁5	-7.59919
▁война	-7.61743
ре	-7.62393
▁става	-7.62841
ж	-7.62875
ба	-7.63
▁край	-7.63549
ф	-7.63872
щи	-7.63897
▁място	-7.64213
щ	-7.64339
▁където	-7.64376
▁края	-7.65069
▁няколко	-7.6521
▁всички	-7.65301
▁ѝ	-7.65329
▁сред	-7.65602
че	-7.65669
▁началото	-7.65991
▁тези	-7.66404
▁6	-7.66869
во	-7.67042
▁им	-7.67731
▁център	-7.67904
▁когато	-7.67982
▁език	-7.67999
га	-7.68146
област	-7.6853
2	-7.68699
ец	-7.69526
▁15	-7.69965
▁тях	-7.70945
ч	-7.73351
чи	-7.73415
▁тя	-7.74098
▁започва	-7.75129
▁10	-7.76169
късно	-7.76186
▁три	-7.76567
▁общината	-7.76708
ове	-7.76864
▁някои	-7.77084
▁тази	-7.77323
▁преди	-7.78102
▁7	-7.78413
ския	-7.78997
▁две	-7.79116
c	-7.8024
мо	-7.80779
си	-7.81235
ник	-7.81267
йки	-7.81314
зи	-7.81668
▁училище	-7.8208
▁я	-7.82219
▁16	-7.82568
▁де	-7.8336
пи	-7.83784
ми	-7.84075
ле	-7.84453
▁др	-7.84466
де	-7.85049
▁ка	-7.85184
▁без	-7.85675
▁8	-7.86243
▁т	-7.87116
▁име	-7.87619
▁места	-7.87621
▁17	-7.89347
▁14	-7.89892
▁различни	-7.90073
▁пред	-7.91658
ве	-7.92397
s	-7.9246
ме	-7.93249
▁20	-7.93303
▁север	-7.93825
ев	-7.93931
от	-7.94585
▁об	-7.94632
▁(19	-7.95223
би	-7.95725
▁състав	-7.95853
▁жители	-7.97022
▁д	-7.97028
▁бил	-7.97176
▁страната	-7.97331
ница	-7.97597
▁български	-7.97677
▁ко	-7.97915
се	-7.97981
ени	-7.98188
▁софия	-7.99342
▁ба	-7.99861
▁поради	-8.00086
▁9	-8.00717
▁върху	-8.00992
▁били	-8.01427
са	-8.03073
▁територията	-8.03087
до	-8.03338
▁първата	-8.03582
)"	-8.03603
▁днес	-8.03912
▁едно	-8.04558
ц	-8.05139
ча	-8.05641
▁12	-8.05796
▁запад	-8.06274
▁численост	-8.06438
▁местността	-8.06841
▁планина	-8.07305
▁юг	-8.0793
ан	-8.08368
▁май	-8.0898
ското	-8.09085
▁било	-8.09194
ин	-8.09404
ков	-8.09577
▁своя	-8.09765
▁височина	-8.10231
▁води	-8.11173
▁би	-8.11192
ция	-8.11227
ие	-8.11279
▁ре	-8.11427
сти	-8.11765
ден	-8.11822
ката	-8.11944
ля	-8.11974
ро	-8.12101
▁13	-8.12612
ват	-8.12992
ю	-8.13354
▁съ	-8.1345
▁етнически	-8.13548
▁използва	-8.14148
ица	-8.14246
▁южна	-8.1433
▁"„	-8.1434
▁срещу	-8.14664
▁2011	-8.14847
▁период	-8.14915
ова	-8.15266
▁район	-8.15354
ови	-8.15541
ските	-8.15915
▁стара	-8.16
▁тук	-8.16181
▁там	-8.16393
▁северна	-8.16624
▁изток	-8.1677
▁чрез	-8.16938
▁части	-8.17165
­	-8.17321
▁района	-8.17478
па	-8.1803
▁септември	-8.1828
▁два	-8.18441
▁връх	-8.1853
ман	-8.1933
▁землището	-8.19337
▁природни	-8.1938
ха	-8.20169
4	-8.20223
▁бо	-8.20463
20	-8.20478
▁църквата	-8.20723
▁ли	-8.20778
из	-8.20801
7	-8.21408
ява	-8.21645
▁кон	-8.22051
▁гр	-8.22132
▁ма	-8.22304
▁селище	-8.22457
▁българи	-8.22481
ото	-8.22524
▁планински	-8.22589
▁групи	-8.22986
▁първите	-8.23297
▁църква	-8.23299
▁разположено	-8.23419
▁голяма	-8.23619
бо	-8.24062
лу	-8.2455
ците	-8.24556
же	-8.24663
▁села	-8.24799
св	-8.24803
ран	-8.24976
го	-8.25023
▁група	-8.2525
▁ми	-8.25525
▁иван	-8.25537
ство	-8.2581
▁бъде	-8.26479
▁11	-8.26544
▁събития	-8.2668
▁("	-8.26789
▁хора	-8.27075
▁пр	-8.27443
нов	-8.27545
▁нея	-8.27812
ца	-8.28316
пе	-8.28523
ръ	-8.28931
3	-8.29088
ше	-8.29163
град	-8.2965
▁културни	-8.29972
▁ден	-8.30533
▁въпреки	-8.30653
▁времето	-8.31765
▁повече	-8.32192
▁цар	-8.32288
4"	-8.32619
лен	-8.33024
▁няма	-8.3313
▁могат	-8.33628
2"	-8.33698
▁ра	-8.343
24	-8.34578
ново	-8.34597
▁получава	-8.34901
▁ще	-8.35898
▁август	-8.35969
ос	-8.36113
▁имат	-8.36207
▁преброяването	-8.36527
▁система	-8.36703
1"	-8.36785
мен	-8.36791
21	-8.36874
▁имало	-8.36984
6"	-8.37025
9"	-8.3724
ният	-8.37361
забележителности	-8.37381
▁мо	-8.37988
▁често	-8.38121
25	-8.38288
ар	-8.38436
ена	-8.38594
▁пи	-8.38702
8"	-8.38735
3"	-8.39054
▁па	-8.39211
▁георги	-8.39532
▁все	-8.40271
ност	-8.40291
▁европа	-8.40299
▁бургас	-8.40369
▁дни	-8.40484
▁пловдив	-8.40619
▁дял	-8.40845
7"	-8.40899
▁малко	-8.41014
ил	-8.41218
ру	-8.41307
▁прави	-8.4142
ги	-8.41665
5"	-8.42027
▁бе	-8.42478
▁центъра	-8.42479
5	-8.42774
ници	-8.42793
▁заедно	-8.43013
▁страна	-8.43677
y	-8.43682
раз	-8.4387
▁близост	-8.44341
▁i	-8.44371
▁била	-8.44687
▁селата	-8.45187
он	-8.45234
ево	-8.45279
или	-8.45434
▁ди	-8.45526
▁пет	-8.45616
▁род	-8.45643
▁вече	-8.46217
%	-8.46448
▁вид	-8.46485
▁всяка	-8.46629
▁ф	-8.46919
▁30	-8.47202
ване	-8.47298
ши	-8.4749
▁живот	-8.47752
▁провежда	-8.47795
▁юли	-8.47821
▁п	-8.48104
▁вода	-8.48252
▁почти	-8.48404
0"	-8.48481
▁кара	-8.49089
▁януари	-8.49164
▁света	-8.49248
▁000	-8.49278
▁страни	-8.49302
▁ле	-8.49599
ня	-8.49605
ъ	-8.49683
▁власт	-8.49777
▁отново	-8.49907
▁съвет	-8.50026
▁втората	-8.50127
▁март	-8.50522
це	-8.50638
▁манастир	-8.50983
▁съществува	-8.51281
гор	-8.51404
▁жителите	-8.51483
▁годините	-8.51635
чен	-8.52092
▁пе	-8.522
▁ки	-8.52383
▁надморска	-8.52517
вър	-8.52775
▁хората	-8.52868
▁тъй	-8.53199
об	-8.53483
ал	-8.53528
1	-8.53553
▁обаче	-8.53673
▁19	-8.53753
ша	-8.53807
сел	-8.54258
▁1934	-8.54485
▁ку	-8.54556
▁империя	-8.54594
23	-8.54688
▁юни	-8.55006
ият	-8.55063
▁ме	-8.5509
ции	-8.55214
")	-8.55308
19	-8.55829
ел	-8.56253
▁преминава	-8.56283
ено	-8.56907
▁къщи	-8.56962
▁х	-8.56972
ър	-8.56983
▁южно	-8.56985
▁работи	-8.57368
▁въз	-8.57568
▁б	-8.5764
▁р	-8.57954
съ	-8.58021
▁предимно	-8.58135
вен	-8.5819
▁построена	-8.58281
ково	-8.5878
̀	-8.58823
▁к	-8.58892
▁ар	-8.58996
▁данни	-8.59054
▁декември	-8.59454
▁нова	-8.59733
▁периода	-8.59738
ку	-8.59752
▁редовни	-8.59756
▁ла	-8.59901
▁октомври	-8.60244
&	-8.60394
▁нарича	-8.60435
стра	-8.60719
▁освен	-8.60753
▁северно	-8.60944
a	-8.61044
▁големи	-8.61241
ус	-8.61471
що	-8.61639
t	-8.6174
▁площ	-8.6188
▁областта	-8.61943
6	-8.62062
▁република	-8.62185
▁ги	-8.62323
лъ	-8.62647
▁бу	-8.62677
i	-8.62867
▁първи	-8.63075
p	-8.63455
▁градът	-8.63613
сто	-8.63692
▁първото	-8.63994
▁читалище	-8.64177
▁световна	-8.64247
ства	-8.64286
▁средата	-8.64391
▁остава	-8.6452
00	-8.64777
30	-8.6493
▁април	-8.65027
▁продължава	-8.65147
ер	-8.6544
▁махала	-8.65565
▁дол	-8.65669
▁голям	-8.66033
▁търново	-8.66317
▁представлява	-8.66373
▁резултат	-8.66373
▁западна	-8.66437
▁гора	-8.66543
▁ал	-8.66586
▁ан	-8.66599
▁двете	-8.66634
▁февруари	-8.67144
▁българската	-8.67181
ъл	-8.67259
▁начин	-8.67276
▁ха	-8.67481
▁повечето	-8.67594
▁море	-8.67598
▁ноември	-8.67779
▁нови	-8.68053
ор	-8.68068
ат	-8.68096
▁крепост	-8.68164
▁велико	-8.68292
про	-8.68477
▁съюз	-8.68724
нд	-8.68746
▁-	-8.68811
▁минава	-8.68876
40	-8.69091
▁(18	-8.69142
▁освобождението	-8.69174
▁първият	-8.69178
▁организира	-8.69267
▁роден	-8.6966
“"	-8.69954
чни	-8.70325
щите	-8.70375
ум	-8.70559
▁например	-8.70694
▁множество	-8.70843
22	-8.71133
▁ново	-8.71161
▁дава	-8.71181
▁транспорт	-8.71276
при	-8.71402
▁североизточна	-8.71825
▁трябва	-8.7188
▁дейност	-8.71989
▁носи	-8.72121
▁докато	-8.72415
▁25	-8.72428
▁ло	-8.72618
ията	-8.72795
▁ii	-8.72929
g	-8.73076
▁намират	-8.7316
ис	-8.73512
▁включва	-8.73533
▁брой	-8.73625
▁точка	-8.73636
▁малки	-8.73821
▁димитър	-8.73837
▁видове	-8.73886
n	-8.73952
ични	-8.74082
▁особено	-8.74443
▁всеки	-8.74806
▁сграда	-8.74866
жа	-8.75005
бе	-8.7548
рен	-8.75568
▁събор	-8.75576
ян	-8.75594
▁варна	-8.75645
e	-8.7608
▁цел	-8.76086
▁връзка	-8.76685
▁реката	-8.76905
▁турски	-8.77042
овете	-8.77114
нци	-8.77369
ун	-8.77377
f	-8.77509
▁открити	-8.77634
ей	-8.77677
лин	-8.77771
▁кърджали	-8.7781
10	-8.77885
▁бряг	-8.77904
▁син	-8.78036
▁пише	-8.78181
18	-8.78219
▁пътя	-8.78591
▁участва	-8.78796
свети	-8.78832
▁идва	-8.78897
мер	-8.78913
▁училището	-8.79121
шки	-8.79226
l	-8.79414
▁среща	-8.79428
m	-8.79488
ак	-8.79495
▁дори	-8.79634
▁поле	-8.798
▁обществени	-8.79889
▁ни	-8.8011
▁друга	-8.80171
▁четири	-8.80349
▁заема	-8.8063
▁форма	-8.80631
чна	-8.8076
▁общо	-8.80833
▁з	-8.81028
▁развитие	-8.81471
▁държава	-8.81512
прав	-8.81537
▁сащ	-8.81577
жи	-8.81601
k	-8.81853
кс	-8.82049
ене	-8.82079
▁исторически	-8.82441
▁основно	-8.82485
▁селището	-8.825
▁договор	-8.82583
▁—	-8.82722
▁негова	-8.82816
▁завършва	-8.82964
▁гори	-8.82976
▁използват	-8.83086
▁тогава	-8.83244
со	-8.83272
▁дунав	-8.83569
▁източно	-8.83633
26	-8.8364
▁загора	-8.83718
▁границата	-8.83744
▁близо	-8.8377
▁добре	-8.83808
▁св	-8.83862
ту	-8.84259
вод	-8.84378
дел	-8.84399
▁°	-8.84427
▁франция	-8.84473
▁100	-8.84478
50	-8.8449
бра	-8.84854
u	-8.8503
▁живеят	-8.85046
▁учител	-8.85062
фи	-8.8515
▁извор	-8.85291
▁германия	-8.85317
▁религии	-8.85552
бу	-8.85816
ството	-8.85882
мир	-8.85913
v	-8.85918
ar	-8.85924
▁смята	-8.85975
ста	-8.8601
▁достига	-8.8605
▁годината	-8.86135
▁крал	-8.86239
▁ако	-8.86311
us	-8.86353
▁кюстендил	-8.86404
▁обикновено	-8.86488
▁планината	-8.86709
b	-8.86731
▁разположен	-8.86894
▁същата	-8.8694
▁силно	-8.8696
▁култура	-8.87332
ето	-8.8743
село	-8.87491
ем	-8.87597
▁император	-8.8764
сен	-8.87797
▁пра	-8.87812
ров	-8.87864
▁създава	-8.88046
▁петър	-8.88082
овци	-8.8828
▁(„	-8.88343
чев	-8.88396
ките	-8.88415
▁своите	-8.88446
род	-8.88655
▁1878	-8.88865
▁известно	-8.8887
ично	-8.88982
ува	-8.89079
▁iii	-8.8919
▁член	-8.89415
ост	-8.8942
▁дка	-8.89606
ели	-8.89717
▁средно	-8.89888
o	-8.89976
▁езици	-8.89979
▁условия	-8.90049
▁ор	-8.9005
15	-8.90392
▁климат	-8.90506
▁западно	-8.90522
голямата	-8.90749
▁21	-8.90815
▁земята	-8.90842
▁голямо	-8.9098
нар	-8.91102
="13	-8.91285
12	-8.91638
▁габрово	-8.91655
="12	-8.91705
▁семейства	-8.91924
▁чу	-8.91949
▁читалището	-8.91997
▁деца	-8.9213
пре	-8.92134
▁макар	-8.92163
тел	-8.92192
▁значение	-8.92454
▁българско	-8.92469
80	-8.92477
="14	-8.92554
▁приток	-8.92572
▁отбор	-8.92792
▁24	-8.93001
▁посока	-8.93015
▁22	-8.93043
▁заради	-8.93128
лю	-8.93157
▁земи	-8.93238
“)	-8.93244
▁паметник	-8.93387
вер	-8.93523
▁ред	-8.93583
▁кмет	-8.93829
чо	-8.93875
▁бъдат	-8.94205
лия	-8.94324
▁състои	-8.94334
▁намалява	-8.94451
бер	-8.94457
шка	-8.9448
▁населени	-8.94875
an	-8.95043
ение	-8.95091
▁местните	-8.95257
ък	-8.95274
▁развитието	-8.95387
h	-8.9563
11	-8.95716
▁българска	-8.95784
8	-8.95891
▁османската	-8.95956
▁възраст	-8.96187
▁известен	-8.96322
▁лятото	-8.96401
рия	-8.9654
ският	-8.96599
▁н	-8.96609
="11	-8.96658
кра	-8.96929
тен	-8.96966
="24	-8.96983
слав	-8.97039
▁първоначално	-8.97293
ке	-8.973
▁васил	-8.9731
▁развива	-8.97356
тур	-8.97489
▁никола	-8.97561
бър	-8.97599
▁останки	-8.97622
тра	-8.97652
▁мястото	-8.97912
▁цялата	-8.98016
gt	-8.98042
▁северозапад	-8.9845
▁известни	-8.98474
▁линия	-8.98661
▁общинския	-8.98689
зна	-8.98849
▁долината	-8.98864
▁ти	-8.98869
▁русия	-8.99011
вар	-8.99015
▁месец	-8.99174
60	-8.99207
▁кръст	-8.99329
re	-8.99331
95	-8.99377
ул	-8.99437
▁произход	-8.99445
джа	-8.99547
▁вероятно	-8.99591
▁играе	-8.99814
телно	-8.99977
▁споменава	-9.00092
46	-9.00183
27	-9.00287
la	-9.00303
▁бор	-9.00309
лов	-9.00539
▁техни	-9.00683
▁последните	-9.00851
85	-9.00992
▁източна	-9.01089
▁музей	-9.01271
джи	-9.01372
хи	-9.01522
▁сили	-9.01568
▁кри	-9.0159
▁сега	-9.01592
14	-9.01683
▁кар	-9.01684
▁историята	-9.01783
тор	-9.01859
цион	-9.01895
ически	-9.01979
70	-9.02059
▁интерес	-9.02119
35	-9.02202
13	-9.02221
фер	-9.02242
▁пъти	-9.02281
lt	-9.02337
x	-9.02387
гу	-9.02401
▁ри	-9.02545
78	-9.0275
▁календар	-9.02766
лек	-9.03106
le	-9.03166
▁40	-9.03286
▁преброяванията	-9.03424
▁означава	-9.03472
▁мир	-9.03516
▁разположени	-9.03696
нски	-9.03864
▁университет	-9.0395
▁старо	-9.04069
▁разположена	-9.04075
▁дом	-9.04085
90	-9.04118
чка	-9.04122
41	-9.04123
▁стил	-9.04136
16	-9.04138
▁кра	-9.04192
▁дължина	-9.04265
28	-9.04322
r	-9.04354
17	-9.04464
▁останалите	-9.04703
▁роман	-9.04823
ковци	-9.04855
ета	-9.04935
▁институции	-9.05001
▁първо	-9.05065
щата	-9.05068
мон	-9.05076
тър	-9.05091
▁градове	-9.05128
▁изцяло	-9.0531
▁човек	-9.05377
▁50	-9.05412
▁ро	-9.05442
пер	-9.05488
▁приема	-9.05563
▁мрежа	-9.05723
▁казва	-9.05847
зем	-9.05853
▁селища	-9.05896
ход	-9.06061
▁ду	-9.06117
▁()	-9.06217
▁могила	-9.06271
тер	-9.06278
ието	-9.06372
▁македония	-9.06384
▁комплекс	-9.06408
жда	-9.0645
▁защото	-9.06647
▁километра	-9.06658
▁старото	-9.06744
▁бел	-9.06784
▁28	-9.06799
en	-9.06937
▁смъртта	-9.06947
▁c	-9.06994
53	-9.07178
="21	-9.07456
▁влияние	-9.07559
▁свързва	-9.07585
▁ке	-9.07592
▁черно	-9.07696
▁язовир	-9.07708
99	-9.07724
▁започват	-9.07759
▁фи	-9.07782
▁обща	-9.07909
▁работа	-9.07999
нс	-9.08036
ист	-9.08094
▁сезон	-9.08196
▁народно	-9.082
▁кор	-9.08321
ира	-9.08352
чево	-9.08464
▁друг	-9.08469
▁италия	-9.08472
▁1912	-9.08473
▁редица	-9.08484
▁26	-9.08523
▁клас	-9.08597
▁ю	-9.08654
▁1944	-9.08789
98	-9.08878
▁no	-9.08986
▁дълго	-9.0899
дър	-9.09052
77	-9.09091
51	-9.09179
44	-9.09296
▁открива	-9.09302
▁превръща	-9.09304
49	-9.0939
▁малка	-9.0949
ван	-9.09517
яване	-9.09597
▁свет	-9.09661
▁течение	-9.09814
▁добрич	-9.09834
▁държави	-9.09843
▁основни	-9.09877
▁хр	-9.09958
z	-9.10043
▁свързани	-9.10076
▁печели	-9.10234
▁войната	-9.10357
▁слав	-9.10375
58	-9.10418
42	-9.10588
жен	-9.10623
▁ос	-9.10643
▁степен	-9.10714
▁27	-9.10749
овата	-9.10755
ьо	-9.10792
▁александър	-9.10841
лар	-9.10875
▁образува	-9.10877
▁следните	-9.10896
ай	-9.11061
три	-9.11298
▁стопанство	-9.11445
▁русе	-9.11575
39	-9.11579
▁климатът	-9.11582
лет	-9.11595
▁xix	-9.11804
▁левски	-9.11825
▁миналото	-9.11837
▁армия	-9.11924
ду	-9.12193
ет	-9.12217
▁епоха	-9.12254
▁умира	-9.12425
бор	-9.12435
▁свети	-9.12455
▁живота	-9.12665
ище	-9.12666
="17	-9.12765
▁генерал	-9.12768
зо	-9.12869
ването	-9.13046
96	-9.1308
▁постепенно	-9.13129
▁разполага	-9.13129
▁главно	-9.1314
▁метра	-9.13377
▁отнася	-9.13407
▁храм	-9.13478
ур	-9.1352
▁хо	-9.13725
79	-9.14056
▁определя	-9.14207
кар	-9.14228
▁култури	-9.14251
0	-9.14252
▁турци	-9.14347
ън	-9.14364
▁първия	-9.14364
ra	-9.14523
▁горна	-9.14525
▁литература	-9.14588
▁средна	-9.14591
оп	-9.14795
▁хи	-9.14924
45	-9.14956
▁p	-9.15013
▁видин	-9.15014
▁сливен	-9.15048
кли	-9.15123
in	-9.15139
36	-9.15218
▁23	-9.15255
29	-9.15292
54	-9.15334
дар	-9.15576
38	-9.15615
▁америка	-9.15677
34	-9.15799
висока	-9.15926
▁ком	-9.16012
ари	-9.16026
73	-9.16161
дъл	-9.16287
▁хан	-9.16349
▁поп	-9.16446
37	-9.16469
▁икономика	-9.16694
▁2000	-9.16748
ген	-9.16751
ек	-9.16821
▁остават	-9.1687
87	-9.16914
▁свят	-9.17166
▁състояние	-9.17223
▁труд	-9.17349
ук	-9.17362
▁су	-9.17417
▁отношение	-9.17456
лог	-9.17538
▁гръцки	-9.17654
▁план	-9.17656
▁публикува	-9.17829
76	-9.17855
▁оп	-9.17968
став	-9.18005
▁турците	-9.181
▁градина	-9.18246
пад	-9.18253
ro	-9.18292
раб	-9.18313
мар	-9.18356
▁избран	-9.18444
▁христо	-9.18564
хо	-9.18583
▁стари	-9.18612
рак	-9.18621
фа	-9.18653
кон	-9.18674
▁половина	-9.1871
▁димитров	-9.19109
▁протича	-9.1911
▁войски	-9.19209
▁нов	-9.19354
▁камък	-9.19477
43	-9.19749
▁попада	-9.19856
▁поддържа	-9.19877
▁ру	-9.19894
56	-9.19977
▁процес	-9.20025
▁едва	-9.20067
нат	-9.20071
▁документи	-9.20135
86	-9.20202
▁руско	-9.20228
▁релеф	-9.2023
▁/	-9.20245
▁басейн	-9.20288
06	-9.20288
▁българския	-9.20342
▁тракийски	-9.20422
бро	-9.20529
му	-9.20533
▁стефан	-9.20602
▁археологически	-9.20647
▁нараства	-9.20674
лер	-9.20703
▁министър	-9.20769
▁управление	-9.20784
▁открито	-9.20789
59	-9.20866
31	-9.2092
▁положение	-9.20959
er	-9.20982
▁въстание	-9.21026
57	-9.21045
▁плевен	-9.21138
▁париж	-9.2117
▁s	-9.21197
▁следващите	-9.21388
изма	-9.21397
▁сведения	-9.21493
▁ча	-9.21603
мор	-9.21716
▁гара	-9.21736
89	-9.21778
ква	-9.21996
▁средства	-9.22062
▁температура	-9.22078
дер	-9.2216
дол	-9.22182
47	-9.22186
w	-9.22221
▁лица	-9.22311
48	-9.22317
▁ус	-9.22364
▁републикански	-9.22381
▁тър	-9.22474
71	-9.22511
▁парк	-9.22512
▁чи	-9.22622
▁територия	-9.22695
им	-9.22708
▁предполага	-9.22833
32	-9.22844
чно	-9.22912
▁войни	-9.22947
52	-9.23126
▁шумен	-9.23139
="15	-9.2314
▁сградата	-9.23142
▁гърция	-9.2322
▁известна	-9.23337
стан	-9.23396
ние	-9.23417
оз	-9.23429
▁запазени	-9.23522
су	-9.23629
йн	-9.23678
88	-9.2374
97	-9.23925
тика	-9.24039
▁остров	-9.24183
▁следва	-9.24208
▁неговите	-9.2428
▁песни	-9.2433
изъм	-9.24386
▁партия	-9.24445
▁пазар	-9.24456
67	-9.24541
▁избира	-9.24566
ици	-9.24637
94	-9.24665
▁производство	-9.24714
ri	-9.24743
▁българските	-9.24773
ческа	-9.24792
al	-9.24841
▁фа	-9.24856
▁излиза	-9.24883
▁спорт	-9.24894
69	-9.24934
68	-9.25036
▁баща	-9.25124
▁сравнително	-9.25194
▁домакинства	-9.25202
▁средната	-9.25213
тъ	-9.25225
▁v	-9.25225
▁комитет	-9.25234
▁тра	-9.25347
▁черни	-9.25371
▁склонове	-9.25384
55	-9.25392
▁неговото	-9.25412
▁културата	-9.25464
▁българите	-9.25511
81	-9.25527
▁включително	-9.25586
▁земя	-9.25586
▁роля	-9.25618
63	-9.25622
▁групата	-9.25684
93	-9.25813
▁издига	-9.25824
ут	-9.25935
чки	-9.26011
ални	-9.26027
▁основано	-9.26084
▁извън	-9.26104
▁смолян	-9.26205
ения	-9.26237
телен	-9.26241
▁живее	-9.26249
33	-9.26331
ред	-9.26406
▁вида	-9.26444
ге	-9.26587
▁рим	-9.26808
▁съд	-9.26951
▁основа	-9.27057
▁ак	-9.27239
вица	-9.27272
▁новата	-9.2735
▁котловина	-9.27354
▁лом	-9.27374
▁жени	-9.27455
▁пер	-9.27458
▁книги	-9.27483
ална	-9.27496
исти	-9.27639
▁a	-9.27839
▁форми	-9.2816
▁шест	-9.2818
ален	-9.28236
▁същото	-9.28271
▁говори	-9.2835
▁ши	-9.28357
▁границите	-9.28393
тън	-9.28451
▁председател	-9.28489
▁бан	-9.28496
▁ци	-9.28528
▁крепостта	-9.28548
▁сгради	-9.28638
▁столицата	-9.28639
ика	-9.28699
▁милиона	-9.2871
▁промени	-9.28817
▁високо	-9.28904
ѝ	-9.28947
▁основните	-9.29
▁окръг	-9.29087
▁филм	-9.29151
08	-9.29216
▁пръв	-9.293
годишна	-9.29348
малко	-9.29451
крит	-9.29451
еми	-9.29485
големите	-9.29577
07	-9.29657
ик	-9.29747
(	-9.29833
ич	-9.29893
66	-9.30009
▁2007	-9.30022
ом	-9.30166
91	-9.30207
ално	-9.30272
83	-9.30356
▁ботев	-9.30393
▁кан	-9.30464
нско	-9.30631
▁изключително	-9.30718
ск	-9.30771
▁срещат	-9.30834
лово	-9.30921
вече	-9.31059
▁югоизточна	-9.31077
нев	-9.31178
сън	-9.31262
▁бяла	-9.31324
юр	-9.31385
▁съществуват	-9.31386
▁отделни	-9.31581
64	-9.31662
ята	-9.31704
▁влива	-9.31712
05	-9.31744
75	-9.31787
▁ман	-9.31802
▁образование	-9.31892
▁брат	-9.31904
="16	-9.31936
▁бог	-9.32008
▁местност	-9.32067
▁местни	-9.32068
92	-9.32107
гар	-9.32148
▁римски	-9.32176
03	-9.32384
▁политически	-9.32451
зе	-9.3253
▁общински	-9.32741
▁християни	-9.32744
▁датира	-9.3275
▁театър	-9.32765
▁събрание	-9.32776
пол	-9.32829
▁бели	-9.32877
01	-9.33081
▁издава	-9.33096
▁граница	-9.33118
▁b	-9.33136
61	-9.33338
▁региона	-9.3337
9	-9.33413
▁политика	-9.33485
ще	-9.33547
▁право	-9.33559
="23	-9.33606
▁29	-9.33666
▁чест	-9.3369
▁хасково	-9.33722
▁хе	-9.33767
▁успява	-9.33796
ността	-9.33829
▁правителството	-9.33871
мет	-9.33937
82	-9.33967
▁балканската	-9.34024
кова	-9.34122
▁благоевград	-9.34267
▁ту	-9.34409
сил	-9.34459
▁покрай	-9.34555
▁големина	-9.34574
▁жп	-9.34618
▁мед	-9.34647
▁участие	-9.34769
лив	-9.34959
is	-9.35086
84	-9.35273
65	-9.35413
▁чер	-9.35499
▁впоследствие	-9.35513
▁xx	-9.35629
▁местното	-9.35646
▁горски	-9.35659
▁мон	-9.35706
▁наброява	-9.3575
04	-9.35814
▁мар	-9.35882
▁елементи	-9.35909
▁бар	-9.35938
▁създаването	-9.36063
пъл	-9.36112
▁двата	-9.36133
овица	-9.36253
▁лов	-9.36297
▁извършва	-9.36308
ложен	-9.36366
▁разлика	-9.36366
br	-9.36373
▁такива	-9.36494
ична	-9.36554
▁тип	-9.36722
често	-9.3675
▁обявява	-9.36776
▁доста	-9.36807
уш	-9.3688
▁построен	-9.37012
▁имена	-9.37205
or	-9.37208
▁статистика	-9.37319
▁автор	-9.37365
нска	-9.37387
ичен	-9.37433
▁българското	-9.37514
▁лу	-9.37523
▁вол	-9.37625
▁влиза	-9.37643
ган	-9.37643
нг	-9.37687
▁пар	-9.37696
▁иванов	-9.37702
ий	-9.37722
▁полу	-9.37812
▁бързо	-9.37863
▁могили	-9.37884
под	-9.37892
▁шампион	-9.37923
тите	-9.37955
62	-9.3797
▁решение	-9.37989
▁майка	-9.38035
ион	-9.38055
евци	-9.38255
▁документ	-9.3838
▁стар	-9.38396
ря	-9.38472
▁малък	-9.38569
▁полуостров	-9.38628
пар	-9.38663
▁цен	-9.38757
▁0	-9.38953
▁31	-9.39078
="18	-9.3924
▁искър	-9.39353
рано	-9.39399
▁60	-9.39425
бли	-9.39443
▁пределите	-9.39496
чета	-9.39575
цен	-9.39588
▁неговия	-9.39635
▁асен	-9.39795
▁намерени	-9.39837
лон	-9.39909
▁къща	-9.39931
▁благо	-9.40187
▁другите	-9.40214
▁ж	-9.40249
рово	-9.40401
▁2008	-9.40568
▁военни	-9.40584
▁гол	-9.40769
шен	-9.40782
▁дело	-9.40882
▁значително	-9.40959
▁северозападно	-9.41064
▁управлява	-9.41102
вал	-9.41123
▁глава	-9.41165
▁2004	-9.41192
▁ш	-9.41205
▁граничи	-9.4125
▁ша	-9.41252
▁кал	-9.41276
▁целия	-9.41435
▁кос	-9.41458
li	-9.41508
▁сър	-9.41576
▁промишленост	-9.41588
▁тодор	-9.416
▁открит	-9.41647
▁празник	-9.41694
▁западната	-9.41828
▁родопи	-9.41863
▁североизток	-9.41867
▁изградена	-9.41911
▁200	-9.41946
▁кръг	-9.41966
ест	-9.42074
▁днешното	-9.42121
▁опит	-9.42212
▁правителство	-9.42271
чу	-9.42291
тин	-9.42392
▁характер	-9.42471
▁официално	-9.42555
▁стан	-9.4256
▁семейството	-9.426
▁ад	-9.42601
▁поставя	-9.42884
▁югоизток	-9.42895
▁връща	-9.42911
▁счита	-9.42923
▁g	-9.42945
рес	-9.42988
▁хиляди	-9.43042
лата	-9.43086
▁семейство	-9.43174
▁всичко	-9.43188
▁заселват	-9.43221
▁скали	-9.43304
гер	-9.43324
ител	-9.43346
▁територии	-9.43489
къ	-9.43583
▁източната	-9.43605
▁изграден	-9.43689
▁тракия	-9.43732
гур	-9.43777
▁пла	-9.43791
дан	-9.43804
▁религия	-9.43825
▁материал	-9.43851
▁равнина	-9.43964
нк	-9.44003
▁бал	-9.44036
кара	-9.44045
нската	-9.44053
▁радио	-9.44169
▁клуб	-9.44194
▁зимата	-9.4422
▁кирил	-9.44343
na	-9.44358
▁занимава	-9.44399
нския	-9.4444
чните	-9.4445
▁2006	-9.44464
нова	-9.44535
телна	-9.44672
шко	-9.4479
▁регистър	-9.44856
▁северозападна	-9.44886
яват	-9.44944
▁посещава	-9.44963
къс	-9.44978
кул	-9.44987
ина	-9.4503
ация	-9.45048
▁константин	-9.45055
▁2009	-9.45106
▁затвор	-9.4515
▁1950	-9.45199
▁„"	-9.45212
ch	-9.45225
▁общини	-9.45238
▁областния	-9.45269
▁зона	-9.45299
овите	-9.45303
▁напълно	-9.4548
te	-9.455
рон	-9.45663
▁животни	-9.45719
02	-9.45886
тон	-9.45928
▁дъ	-9.45966
▁цялото	-9.46036
▁търговище	-9.46088
▁църкви	-9.46088
▁махали	-9.46141
▁топ	-9.46154
▁сърбия	-9.46514
след	-9.46632
турската	-9.46645
▁югозапад	-9.46722
="19	-9.4681
▁икономически	-9.46811
▁футбол	-9.46891
▁ткзс	-9.46982
ирани	-9.47004
цвет	-9.47011
▁добруджа	-9.4713
▁водата	-9.47181
вид	-9.47245
▁информация	-9.47335
▁случай	-9.47335
▁добри	-9.47343
▁области	-9.47462
ийски	-9.47516
▁библиотека	-9.47561
▁книга	-9.47562
▁открита	-9.47708
▁анти	-9.47945
▁бер	-9.48017
фе	-9.48101
▁войвода	-9.48123
▁ямбол	-9.48123
мил	-9.48133
▁петров	-9.48156
уз	-9.48157
▁перник	-9.48175
▁преименувано	-9.4818
зд	-9.48236
▁дружество	-9.48281
▁обхваща	-9.48281
▁2005	-9.48348
еш	-9.48356
▁реките	-9.484
али	-9.48425
стри	-9.48533
▁турция	-9.48562
▁първенство	-9.48598
▁китай	-9.48733
▁османско	-9.48767
др	-9.48784
▁североизточно	-9.48798
▁каза	-9.48878
▁испания	-9.48917
ери	-9.48969
▁враца	-9.4908
▁дъб	-9.49228
▁михаил	-9.49236
▁цели	-9.49331
▁райони	-9.49355
▁югоизточно	-9.49558
тно	-9.4966
▁мост	-9.49698
▁описва	-9.497
▁софийска	-9.49706
▁владичество	-9.49716
ок	-9.49903
▁злато	-9.49928
кре	-9.50062
ну	-9.50084
телни	-9.50134
▁прес	-9.50195
▁простира	-9.5037
▁бой	-9.50495
▁думи	-9.50511
▁гър	-9.50547
бел	-9.50824
иране	-9.50841
▁африка	-9.50847
▁султан	-9.5085
▁300	-9.50859
▁1990	-9.50879
▁управлението	-9.50988
▁500	-9.50989
▁пак	-9.51036
рий	-9.51075
▁горно	-9.51249
▁отбелязва	-9.51336
ева	-9.51445
▁квартал	-9.5147
▁теория	-9.51608
▁склон	-9.51608
тък	-9.51669
мин	-9.5169
▁биография	-9.51698
▁азия	-9.51704
▁карл	-9.51734
мп	-9.51775
▁учени	-9.51871
▁наричат	-9.51913
▁сила	-9.52012
▁причина	-9.52017
▁правят	-9.52056
▁американски	-9.52084
▁северната	-9.52142
инг	-9.5217
▁християнски	-9.52192
рас	-9.52223
овец	-9.52267
▁лю	-9.52275
▁южната	-9.52292
▁долина	-9.52341
рани	-9.52355
рат	-9.52361
▁висока	-9.52362
▁долна	-9.52379
▁ислям	-9.52406
▁представители	-9.52412
▁реки	-9.52415
▁кооперация	-9.52435
реш	-9.52548
▁режим	-9.52652
▁втори	-9.52766
ичната	-9.52767
▁основен	-9.52816
▁югозападно	-9.52829
тив	-9.5284
▁румъния	-9.52982
рица	-9.52995
▁преброяване	-9.53015
▁йо	-9.53045
▁черна	-9.53049
▁контрол	-9.53065
▁стига	-9.5316
▁друго	-9.53165
голяма	-9.53201
▁преминават	-9.53248
▁дел	-9.53264
кови	-9.53403
мал	-9.53457
▁изповядва	-9.53481
▁училища	-9.53482
▁състава	-9.53564
▁кре	-9.53688
▁музика	-9.53729
нията	-9.53766
ром	-9.53781
нал	-9.53908
▁почви	-9.53933
▁пан	-9.5394
▁дума	-9.53942
▁изследвания	-9.53964
▁рид	-9.53967
▁e	-9.53978
▁османски	-9.54007
▁кралство	-9.54102
▁пу	-9.54106
▁движение	-9.54191
▁президент	-9.54202
▁число	-9.54328
бре	-9.5435
on	-9.54352
▁детска	-9.54362
▁бей	-9.54369
▁сан	-9.54498
бан	-9.54514
▁решава	-9.54557
▁израз	-9.54689
▁2010	-9.54734
▁площта	-9.54838
кия	-9.54864
▁камен	-9.54995
▁бур	-9.55047
▁2001	-9.55062
▁функционира	-9.55065
нка	-9.55065
лан	-9.5514
▁продължение	-9.55163
община	-9.55207
▁добро	-9.5533
ланд	-9.55517
▁национално	-9.55542
твор	-9.55617
–	-9.55638
▁поминък	-9.55674
▁монети	-9.55684
▁1900	-9.55719
▁марк	-9.5583
държа	-9.55844
▁имената	-9.55855
▁борис	-9.55869
▁1989	-9.55872
дра	-9.55999
ас	-9.56004
").	-9.56042
лий	-9.56168
▁понякога	-9.56186
09	-9.56255
▁нейни	-9.5629
▁фестивал	-9.563
▁долно	-9.56307
▁римската	-9.56348
▁пътища	-9.56411
▁френски	-9.56443
▁точно	-9.5652
▁англия	-9.5653
▁затова	-9.56543
▁мюсюлмани	-9.56693
десет	-9.56769
▁тро	-9.56895
▁участък	-9.57047
▁памет	-9.57075
коп	-9.57086
▁къс	-9.571
▁руски	-9.57303
▁основава	-9.57355
чал	-9.57381
чин	-9.57446
ид	-9.57515
▁газ	-9.57572
▁бра	-9.57587
чани	-9.57692
▁ше	-9.5771
▁действия	-9.57741
▁разград	-9.57789
рин	-9.57805
▁държавата	-9.57873
роден	-9.58015
стта	-9.58046
▁велики	-9.58124
▁броят	-9.5822
▁успех	-9.58248
▁мит	-9.58306
▁мин	-9.58321
▁игри	-9.58394
▁фолклор	-9.58435
▁лондон	-9.5844
▁възможност	-9.58525
▁царство	-9.58578
▁западните	-9.58602
▁създадено	-9.58623
пл	-9.58752
▁духов	-9.58784
новци	-9.58785
чар	-9.58792
▁двамата	-9.58877
▁навлиза	-9.58909
▁организация	-9.58977
лага	-9.58994
▁1913	-9.59001
ети	-9.59032
▁стена	-9.59041
чер	-9.59042
▁европейски	-9.59048
ниците	-9.5906
▁носят	-9.59096
▁туризъм	-9.59151
вет	-9.59199
▁широко	-9.59236
дни	-9.59257
▁предлага	-9.59337
▁столица	-9.5935
фор	-9.59391
“",	-9.59398
▁променя	-9.59508
лни	-9.59542
▁своето	-9.59629
▁пазарджик	-9.59679
▁дере	-9.59683
уд	-9.59759
ял	-9.59762
граф	-9.59913
▁океан	-9.60032
▁изградени	-9.60071
▁формира	-9.60096
нес	-9.60209
▁статут	-9.60214
▁тай	-9.60369
▁граници	-9.60383
▁(20	-9.60391
▁образ	-9.60477
▁помощ	-9.60661
▁турско	-9.60705
▁животновъдство	-9.60747
нос	-9.60792
пет	-9.60809
▁чифлик	-9.60924
▁тре	-9.60951
▁стр	-9.61032
дж	-9.61095
▁монтана	-9.61108
▁източните	-9.61109
▁f	-9.61139
▁1946	-9.6114
▁вар	-9.61142
▁маг	-9.61163
▁великобритания	-9.61284
▁осъществява	-9.61284
▁стандарт	-9.61285
▁ок	-9.61368
▁книгата	-9.61385
▁произведения	-9.61414
▁хар	-9.61418
▁1877	-9.61553
▁1960	-9.61683
света	-9.61738
▁земеделски	-9.61827
▁традиция	-9.61827
▁заселници	-9.6183
ni	-9.61953
▁николай	-9.61979
▁ц	-9.62035
кор	-9.62236
колкото	-9.62277
▁събира	-9.62297
▁умерено	-9.62305
▁обекти	-9.62354
▁2020	-9.62522
▁разказва	-9.62546
▁тече	-9.62808
▁бол	-9.6298
един	-9.63007
▁месеца	-9.63038
рски	-9.63048
▁сцена	-9.6308
▁смърт	-9.63207
▁ловеч	-9.63288
▁чешма	-9.6329
▁реч	-9.63342
▁населено	-9.63484
кан	-9.63546
стре	-9.6372
▁писател	-9.63757
▁пари	-9.63768
жд	-9.63788
ключ	-9.64033
▁винаги	-9.64039
▁отговор	-9.64059
▁1985	-9.64064
▁отбора	-9.64069
▁оказва	-9.64162
голям	-9.64213
▁именно	-9.64238
lo	-9.64391
▁отношения	-9.64398
▁силистра	-9.64435
инци	-9.64454
▁превод	-9.64493
▁стават	-9.64559
▁бр	-9.64612
▁напуска	-9.64656
▁острови	-9.64754
▁ню	-9.64786
▁евро	-9.64832
▁случаи	-9.64958
▁регион	-9.64998
даде	-9.65061
▁факт	-9.651
="20	-9.65159
ес	-9.65204
▁децата	-9.65291
▁осигурява	-9.65333
▁70	-9.65346
▁бре	-9.65406
▁хаджи	-9.65416
бар	-9.65445
▁1945	-9.65553
континентален	-9.65627
▁преименува	-9.6564
▁фон	-9.65718
ъм	-9.65736
пс	-9.65738
големи	-9.6581
▁забележителност	-9.65857
лица	-9.65865
▁културно	-9.65897
▁дву	-9.65929
▁английски	-9.6597
▁надпис	-9.65989
▁гу	-9.66159
▁структура	-9.66219
▁електро	-9.66355
▁връзки	-9.66656
▁закон	-9.66696
мес	-9.66701
тични	-9.66782
▁атом	-9.6696
▁линията	-9.6709
йна	-9.67121
пред	-9.6716
▁филма	-9.67203
▁изкуство	-9.67338
▁2019	-9.67339
▁системи	-9.6743
ционни	-9.67485
лез	-9.67509
▁езеро	-9.67515
it	-9.67534
▁учи	-9.67555
писани	-9.67602
▁отделя	-9.67617
кр	-9.67793
▁дърво	-9.67802
▁енергия	-9.67807
стър	-9.67861
ta	-9.67932
оф	-9.67965
▁произлиза	-9.67997
нското	-9.68102
бен	-9.68106
иш	-9.68151
▁национален	-9.68193
▁разделя	-9.682
▁1992	-9.68218
▁завръща	-9.68285
горе	-9.68298
бла	-9.6832
▁пол	-9.68325
▁пролетта	-9.68404
строен	-9.68409
▁методий	-9.68454
▁же	-9.6854
▁бело	-9.6864
бол	-9.68652
me	-9.68708
ражда	-9.68741
вин	-9.68797
ti	-9.68908
▁административен	-9.68966
▁националния	-9.68972
гра	-9.6899
es	-9.69057
изира	-9.69091
▁l	-9.69099
злат	-9.6911
българска	-9.69127
рис	-9.69174
ология	-9.69199
▁ход	-9.69256
▁основната	-9.69265
▁наречена	-9.69276
);	-9.69332
▁дже	-9.69333
▁служба	-9.69357
▁актьор	-9.69359
▁млн	-9.6936
▁кла	-9.69429
▁наблюдава	-9.69532
ава	-9.6959
▁пара	-9.69602
▁1940	-9.69606
▁k	-9.69608
аз	-9.69659
▁кариера	-9.6966
лени	-9.69671
мент	-9.6971
▁останали	-9.69727
▁стойност	-9.69765
▁1956	-9.6978
гр	-9.69795
место	-9.69874
дъ	-9.69938
лик	-9.69954
▁избори	-9.70001
▁достъп	-9.70003
▁t	-9.70056
▁лекар	-9.70133
▁отказва	-9.70144
▁граф	-9.70216
ана	-9.70221
▁характерни	-9.70343
дей	-9.70464
▁войници	-9.70525
▁живопис	-9.70537
▁марица	-9.70539
]]	-9.70541
▁съгласн	-9.70547
▁80	-9.70615
▁2003	-9.70623
▁h	-9.70691
чва	-9.70698
▁терен	-9.70703
▁първа	-9.70727
пъ	-9.70809
▁показва	-9.70922
▁граждани	-9.70963
▁частично	-9.71035
▁полски	-9.7113
олог	-9.71153
▁същия	-9.71176
▁&	-9.71184
як	-9.71268
▁сол	-9.713
малки	-9.71306
▁традиции	-9.7133
▁празници	-9.7135
▁тан	-9.71379
▁създадена	-9.71476
▁двама	-9.71524
ника	-9.71597
vi	-9.71614
▁паметници	-9.71645
▁проблеми	-9.71687
▁свещеник	-9.71731
▁вер	-9.71759
▁скоро	-9.71785
ович	-9.71799
▁участват	-9.71861
ението	-9.7189
▁код	-9.71915
▁станция	-9.71972
▁текст	-9.72063
▁пост	-9.72065
▁бива	-9.72078
ia	-9.72082
▁православни	-9.72133
▁гор	-9.7214
▁есента	-9.72185
▁маса	-9.722
▁количество	-9.72211
големият	-9.72296
▁фе	-9.7237
▁рай	-9.72372
▁щати	-9.72381
▁девет	-9.72443
▁iv	-9.72472
▁общ	-9.72484
▁южните	-9.72511
to	-9.72569
▁околните	-9.72611
▁седем	-9.72718
▁изпраща	-9.72736
▁географско	-9.72736
лес	-9.72782
лей	-9.72832
▁джон	-9.72845
▁35	-9.72857
▁личности	-9.72893
▁пътува	-9.7292
ез	-9.7296
▁начело	-9.72964
вали	-9.73022
ne	-9.73023
ант	-9.73086
▁селски	-9.73138
▁толкова	-9.73142
▁ум	-9.73172
▁владетел	-9.7318
▁w	-9.732
▁параклис	-9.73213
стро	-9.7325
ино	-9.73293
▁овце	-9.73348
▁национални	-9.73388
▁нито	-9.73497
пис	-9.73513
▁стадион	-9.73548
▁потребител	-9.73548
▁премества	-9.73548
▁жена	-9.73596
▁северните	-9.73614
▁манастира	-9.73623
▁2012	-9.73631
▁гео	-9.73713
пан	-9.73744
▁институт	-9.73752
▁константинопол	-9.73758
▁смес	-9.73765
▁полша	-9.73777
ложи	-9.73867
at	-9.739
▁централна	-9.73901
▁материали	-9.74012
▁иска	-9.74036
▁пътна	-9.74095
ol	-9.74122
пир	-9.74145
▁дъщеря	-9.74162
▁характеризира	-9.74195
▁централната	-9.74218
▁властта	-9.74323
ьор	-9.74338
▁твърди	-9.74378
▁мъ	-9.74427
▁търговски	-9.74573
▁преселници	-9.74573
▁1995	-9.74615
▁печат	-9.74768
▁джа	-9.74776
▁създават	-9.74777
▁съответно	-9.74779
▁последната	-9.74782
▁дьо	-9.74796
пу	-9.74812
ав	-9.74829
▁думата	-9.74834
▁национална	-9.74867
▁ражда	-9.74868
▁указ	-9.74947
▁назначен	-9.74991
▁водни	-9.74994
▁1970	-9.75027
вата	-9.75045
▁дали	-9.75114
▁глагол	-9.75194
="22	-9.75195
▁трън	-9.75249
кът	-9.75279
▁мария	-9.75285
▁глас	-9.75313
кър	-9.75399
▁струма	-9.75404
кал	-9.75409
▁изпълнява	-9.75416
▁езика	-9.75459
куп	-9.75464
▁двор	-9.75494
бил	-9.75514
▁големите	-9.7552
тро	-9.75557
▁растения	-9.75595
▁извори	-9.756
▁подножието	-9.75635
▁включват	-9.75641
ь	-9.75717
▁вижда	-9.75921
ед	-9.76076
еле	-9.76101
▁земите	-9.76225
▁съдържа	-9.76234
▁постоянно	-9.76238
жни	-9.76254
рите	-9.76283
st	-9.76305
мит	-9.76312
▁наречен	-9.76426
▁източници	-9.76447
▁момент	-9.76478
▁градовете	-9.76493
ера	-9.76745
▁150	-9.76781
▁обект	-9.76785
ам	-9.76838
кла	-9.7684
▁богородица	-9.76865
▁гимназия	-9.76865
et	-9.76866
▁стоянов	-9.76874
▁мор	-9.76935
▁списък	-9.76939
="26	-9.76988
°	-9.77156
метри	-9.77162
▁мак	-9.77253
▁помощта	-9.77261
въ	-9.77338
▁григорианския	-9.77499
▁[[	-9.775
▁провеждат	-9.77603
▁2021	-9.77647
▁ян	-9.77732
шев	-9.77737
▁представител	-9.77741
▁научни	-9.77761
▁себе	-9.77794
▁дядо	-9.77862
▁предава	-9.77887
менен	-9.78001
вели	-9.78126
ma	-9.78142
▁общност	-9.78171
руп	-9.78297
▁туристически	-9.78353
▁1991	-9.78383
▁ясно	-9.78475
▁големия	-9.78547
изация	-9.78559
▁секретар	-9.78565
▁поляна	-9.7861
▁увеличава	-9.78738
▁защита	-9.78787
2,	-9.78873
пос	-9.78983
нови	-9.78988
дн	-9.79006
образ	-9.79019
▁ресурси	-9.79079
од	-9.79104
фр	-9.79161
стои	-9.79232
▁представя	-9.7926
▁тракийско	-9.79429
▁коле	-9.79462
▁обслужва	-9.79642
▁архив	-9.79653
пен	-9.79734
▁1920	-9.7974
▁проект	-9.79845
▁легенда	-9.79853
▁джамия	-9.79857
▁температури	-9.79859
▁(3	-9.79916
▁създаден	-9.79939
крат	-9.79951
разпространен	-9.80008
▁студена	-9.80023
нчев	-9.80065
▁благодарение	-9.80077
▁военно	-9.80086
▁de	-9.80087
▁високосна	-9.801
▁водо	-9.80102
зва	-9.80141
▁десет	-9.80154
▁баня	-9.80197
▁следи	-9.80198
▁ху	-9.80218
▁предизвиква	-9.80295
▁липса	-9.80318
5%	-9.80371
▁птици	-9.80446
ическо	-9.8046
="10	-9.80474
▁петко	-9.8049
▁завод	-9.80498
▁образуват	-9.80512
▁установява	-9.80551
ацията	-9.80568
▁разбира	-9.80644
▁скала	-9.80676
▁гости	-9.8068
▁изисква	-9.80732
▁дават	-9.80753
▁кър	-9.80774
личието	-9.80814
▁фонд	-9.80861
одринско	-9.80901
▁македоно	-9.80926
▁диалект	-9.80934
▁работят	-9.80951
бит	-9.80989
▁зад	-9.81037
▁административно	-9.81051
▁раздел	-9.81053
реб	-9.81071
ир	-9.81126
▁георгиев	-9.81146
йско	-9.81185
▁запазва	-9.81386
овска	-9.81396
ръж	-9.81499
▁съседните	-9.81606
▁определени	-9.81712
▁египет	-9.8172
▁идват	-9.81734
зов	-9.81796
▁пролом	-9.81879
▁опълчение	-9.82055
▁събират	-9.82082
пал	-9.82327
▁броя	-9.82348
леп	-9.82365
▁нос	-9.82393
ените	-9.82414
▁издигнат	-9.825
▁брега	-9.82508
ление	-9.82518
▁избухването	-9.82545
▁ръка	-9.82555
▁появява	-9.82563
▁1923	-9.82571
дин	-9.82583
▁филип	-9.82617
▁производството	-9.82646
▁валежите	-9.82652
▁международни	-9.82668
▁околностите	-9.82723
каза	-9.82736
“).	-9.82739
дже	-9.82809
лива	-9.82836
ори	-9.82879
el	-9.82892
▁тор	-9.82897
▁формата	-9.82923
йни	-9.82944
рни	-9.82948
▁кратко	-9.82954
▁плод	-9.8296
▁статистиката	-9.82983
пас	-9.83034
▁попов	-9.83094
▁ползва	-9.83107
▁неделя	-9.83144
▁как	-9.83154
▁вестник	-9.83177
▁мил	-9.83186
▁здрав	-9.83224
▁релефът	-9.83281
▁400	-9.83337
▁землищата	-9.83396
▁външни	-9.83396
▁вино	-9.83432
▁vi	-9.83492
▁югозападна	-9.83515
▁2002	-9.8354
йно	-9.83619
▁опера	-9.83753
▁версия	-9.83856
▁налага	-9.83877
▁(1	-9.83911
▁жълт	-9.83952
▁стра	-9.83977
▁спира	-9.84046
▁люб	-9.84066
▁(2	-9.84077
▁паша	-9.84159
▁номер	-9.84252
▁инд	-9.84274
▁религиозни	-9.843
рам	-9.84319
рево	-9.84423
▁трите	-9.84455
▁хил	-9.84494
]	-9.84516
▁княз	-9.84528
▁водят	-9.84536
▁следващата	-9.84551
гон	-9.84572
вите	-9.84666
▁награда	-9.84685
ce	-9.84701
▁второто	-9.84709
шево	-9.84735
зар	-9.84752
▁низина	-9.84757
сия	-9.84772
▁племена	-9.84786
зор	-9.84792
▁линии	-9.84816
▁процеси	-9.84845
ъп	-9.84866
лка	-9.84919
▁база	-9.8494
▁кв	-9.84959
▁голямата	-9.84979
▁обитава	-9.84984
▁кула	-9.84986
▁франк	-9.84993
▁обявен	-9.84998
шкия	-9.85049
▁мас	-9.85275
▁площад	-9.8542
▁разглежда	-9.85454
▁слабо	-9.85474
▁записва	-9.85501
▁притежава	-9.8554
▁ученици	-9.85569
мей	-9.85634
▁награди	-9.85637
▁бла	-9.85643
рна	-9.85648
▁свойства	-9.85689
▁рила	-9.85696
▁дунавска	-9.85872
ирана	-9.85943
▁отглеждат	-9.85956
глав	-9.85982
▁знае	-9.8599
▁твърде	-9.86135
сред	-9.86206
цар	-9.86233
▁продукти	-9.86303
щия	-9.8635
▁сегашното	-9.86364
ву	-9.86484
вой	-9.86485
bo	-9.865
син	-9.86557
▁районът	-9.86652
▁коп	-9.86688
шката	-9.86691
йка	-9.86745
сан	-9.86763
▁хор	-9.86782
“".	-9.86806
▁принадлежност	-9.86829
▁разкопки	-9.86829
▁латин	-9.8685
▁червен	-9.86853
▁фо	-9.86858
най	-9.86871
тира	-9.86904
▁2015	-9.86925
▁илия	-9.87029
▁ветрове	-9.87032
мите	-9.87046
▁курорт	-9.87065
оти	-9.8709
▁the	-9.87156
j	-9.87215
▁латински	-9.87273
▁1999	-9.8734
▁карти	-9.87378
▁позволява	-9.8739
голямото	-9.87407
▁възниква	-9.87412
кос	-9.87417
▁пас	-9.8742
вест	-9.8744
кат	-9.87484
▁свой	-9.87486
▁ссср	-9.87529
ема	-9.87726
бург	-9.87744
▁основан	-9.87798
▁елемент	-9.87803
крива	-9.87865
▁кап	-9.87938
▁ниво	-9.87957
говор	-9.88021
▁отдел	-9.88098
▁дете	-9.88104
▁дълги	-9.88157
▁всяко	-9.88236
ter	-9.88238
ура	-9.88239
много	-9.88257
▁рак	-9.88292
▁тур	-9.88426
▁плоча	-9.88472
se	-9.88478
▁земеделие	-9.8848
▁работата	-9.88533
яването	-9.88609
▁поет	-9.88618
▁автобус	-9.8869
▁наред	-9.88706
▁слънцето	-9.88711
реди	-9.88801
дро	-9.88817
▁служи	-9.88836
▁съдържание	-9.88903
▁стоян	-9.88947
лев	-9.891
▁вал	-9.89102
аш	-9.89111
▁млад	-9.89129
▁проход	-9.89143
нали	-9.89156
▁богата	-9.89391
▁тютюн	-9.89423
▁заповед	-9.89423
▁планини	-9.89423
▁лига	-9.89568
▁методи	-9.89582
дава	-9.89589
▁чак	-9.89592
жив	-9.89592
▁павел	-9.89679
▁любов	-9.89683
▁плат	-9.89734
▁пример	-9.8978
▁игра	-9.89795
▁числа	-9.89903
no	-9.89906
▁наука	-9.89916
▁балкан	-9.89953
кьой	-9.89957
топ	-9.89983
▁единствено	-9.90086
▁градини	-9.901
▁едни	-9.90112
▁партии	-9.90147
▁символ	-9.90168
▁изграждането	-9.90192
▁дома	-9.90376
годишен	-9.90384
▁архитектура	-9.9041
▁1918	-9.90445
▁кле	-9.90576
▁кметството	-9.90597
▁1959	-9.90665
▁поход	-9.90671
▁средновековието	-9.90716
▁стрел	-9.90778
дите	-9.90805
▁земеделието	-9.90858
▁рамките	-9.90877
▁наследство	-9.90883
яр	-9.90955
▁водите	-9.90993
▁храма	-9.91018
▁каменни	-9.91046
▁основата	-9.91065
▁резерват	-9.91096
▁посветен	-9.9111
▁непосредствено	-9.9111
към	-9.91123
има	-9.91202
▁революцион	-9.91205
▁мел	-9.91277
▁загиналите	-9.91298
▁морски	-9.91316
дна	-9.91379
▁1949	-9.91398
▁новото	-9.91551
▁мала	-9.91595
▁1000	-9.91643
▁коз	-9.91679
▁мач	-9.91716
▁изучава	-9.91748
▁дървета	-9.91842
▁зависимост	-9.91844
-19	-9.91845
▁корен	-9.91868
▁европейския	-9.91933
▁пен	-9.91938
▁германски	-9.91956
уване	-9.92001
▁приятел	-9.92004
▁негов	-9.92023
▁просто	-9.92044
сер	-9.92046
▁организацията	-9.9208
▁кори	-9.92085
▁кръв	-9.92086
▁демографска	-9.92087
▁1965	-9.92122
тивни	-9.92123
въз	-9.92214
▁членове	-9.92218
▁държавни	-9.92274
▁равно	-9.92278
▁полк	-9.92313
ират	-9.92387
▁здраве	-9.92427
▁храна	-9.92441
da	-9.92539
▁майстор	-9.92554
вни	-9.92577
▁времена	-9.92606
▁хх	-9.92627
рка	-9.92644
▁старите	-9.9267
▁бял	-9.92682
▁цер	-9.92706
▁самият	-9.92721
▁братя	-9.92771
▁наречени	-9.92786
▁ул	-9.92806
▁камъни	-9.92828
▁изключение	-9.92838
▁използвани	-9.92859
▁вечер	-9.92873
▁1980	-9.9288
▁самия	-9.92911
еви	-9.92913
▁основна	-9.92941
▁щата	-9.92976
▁елена	-9.93004
реден	-9.93062
ани	-9.93108
▁основател	-9.93199
виж	-9.93371
▁пещера	-9.9348
мина	-9.93489
▁меч	-9.93502
▁самоков	-9.93523
▁интернет	-9.93576
▁римска	-9.93622
нер	-9.93717
пър	-9.93719
рит	-9.93766
▁независимост	-9.93813
▁конфликт	-9.93819
▁хер	-9.93895
лото	-9.93902
▁възможно	-9.93958
щица	-9.93969
▁лес	-9.93982
вания	-9.9399
▁шахмат	-9.94003
▁единици	-9.94021
▁естествени	-9.94119
мол	-9.94136
ньо	-9.94189
екс	-9.94257
▁ав	-9.94309
▁постига	-9.94325
▁1948	-9.94361
▁старата	-9.94482
▁съединени	-9.94595
кур	-9.94611
▁губи	-9.94664
▁орган	-9.94711
▁пояс	-9.9476
▁воден	-9.94812
ve	-9.94825
▁притоци	-9.94959
▁изкуствен	-9.95076
▁школа	-9.95087
▁активно	-9.95093
▁поема	-9.95105
председател	-9.95144
рек	-9.95192
▁екс	-9.95253
ляз	-9.95258
▁турското	-9.9526
▁цяла	-9.95262
дат	-9.95295
▁настъпва	-9.95329
▁некропол	-9.95329
▁ляв	-9.95401
▁природата	-9.95413
▁отива	-9.95419
▁ну	-9.95426
▁местния	-9.95541
▁тим	-9.9555
▁въпрос	-9.95625
▁носител	-9.95634
ваща	-9.95639
▁войните	-9.95662
вил	-9.95681
▁пада	-9.95693
▁брак	-9.95731
къл	-9.95753
▁важна	-9.95822
▁практика	-9.95837
▁къщата	-9.95838
▁творби	-9.95838
▁цариград	-9.95838
▁отличава	-9.95841
овски	-9.95842
льо	-9.95845
▁1958	-9.95884
▁лен	-9.95911
▁важни	-9.95959
▁разпространение	-9.96004
▁мрамор	-9.96093
▁метод	-9.96121
▁среда	-9.96141
йци	-9.96154
▁анализ	-9.96158
▁x	-9.96179
▁построени	-9.96236
▁32	-9.96295
дина	-9.9635
▁сметка	-9.96353
▁войска	-9.9636
▁последва	-9.96366
▁директор	-9.96378
▁1926	-9.96409
▁народ	-9.96424
▁45	-9.96492
▁трети	-9.96533
▁родове	-9.96574
▁кино	-9.96602
път	-9.96634
▁чии	-9.9665
▁пристанище	-9.96862
▁върхове	-9.96907
▁градище	-9.9691
▁долни	-9.96917
▁хълмист	-9.96951
▁ниви	-9.97037
▁програма	-9.97066
і	-9.97105
▁създаване	-9.97108
▁народни	-9.97114
ош	-9.97118
▁разширява	-9.9712
▁източник	-9.97138
▁околия	-9.97141
▁симеон	-9.97163
▁регистри	-9.97266
▁дейността	-9.97339
▁руската	-9.97367
▁земеделско	-9.97377
▁цвят	-9.97378
▁2014	-9.97473
▁второ	-9.97521
нати	-9.97578
▁мал	-9.97582
▁дю	-9.97583
хран	-9.97594
бира	-9.97676
ляр	-9.97693
мб	-9.9771
▁двора	-9.97783
ивно	-9.97836
▁мъже	-9.97842
▁приблизително	-9.97896
лози	-9.97901
▁находки	-9.97932
бед	-9.97977
▁йоан	-9.98038
▁науки	-9.98046
вия	-9.98085
▁кухня	-9.98157
▁придобива	-9.98158
▁главен	-9.98164
▁оставя	-9.98174
il	-9.98238
▁самото	-9.98246
▁магазин	-9.9838
▁кладенец	-9.98418
▁празнува	-9.98418
un	-9.98441
▁господ	-9.9846
мери	-9.98573
▁пирин	-9.98648
▁стопански	-9.9868
кол	-9.98704
▁пле	-9.98705
▁троян	-9.9875
as	-9.9884
▁бивш	-9.98846
▁природа	-9.9886
▁официални	-9.98897
▁часа	-9.98904
▁наричан	-9.98932
▁домакин	-9.98941
▁пространство	-9.98942
▁дебел	-9.98979
▁борба	-9.98989
▁съдове	-9.98989
чат	-9.99081
▁кораб	-9.99117
um	-9.99134
паз	-9.99149
▁опитва	-9.99153
ада	-9.99173
ъд	-9.99201
▁академия	-9.99205
▁автори	-9.99237
▁1942	-9.99254
ниската	-9.99254
▁действа	-9.9927
▁дух	-9.99313
сп	-9.99379
тов	-9.99427
▁рус	-9.99429
▁отборът	-9.99463
▁бежанци	-9.99473
▁спор	-9.99613
▁предмети	-9.9969
▁смисъл	-9.99712
▁добитък	-9.99734
▁1951	-9.99782
▁учители	-9.99826
ic	-9.99854
▁ай	-9.999
▁многобройни	-9.99999
▁пълно	-10.0003
▁лагер	-10.0004
▁ам	-10.0004
▁1928	-10.0005
▁довежда	-10.0007
▁втора	-10.001
▁свързано	-10.0012
):	-10.0019
▁чия	-10.002
▁риболов	-10.0027
▁битката	-10.0029
лети	-10.0032
▁колони	-10.0044
▁селяните	-10.0044
▁продължават	-10.0044
▁аб	-10.0045
▁размери	-10.0045
▁рад	-10.005
▁болница	-10.0051
▁инфраструктура	-10.0053
▁широка	-10.0057
▁1978	-10.0058
ing	-10.0063
▁фронт	-10.0081
▁немски	-10.0084
au	-10.0085
ком	-10.0085
▁опити	-10.0086
▁идеята	-10.0092
центр	-10.0094
▁програми	-10.0103
▁векове	-10.0106
▁държавно	-10.0107
мис	-10.0109
рад	-10.0113
▁прото	-10.0114
▁1873	-10.0119
▁1885	-10.0121
▁начално	-10.0122
▁кандидат	-10.0134
▁километър	-10.0134
▁съставлява	-10.0137
▁2013	-10.0143
▁рода	-10.0153
христо	-10.0156
мата	-10.0156
▁родопите	-10.0157
▁общата	-10.016
▁народи	-10.0168
▁джо	-10.0173
▁папа	-10.0177
▁чий	-10.018
▁появяват	-10.018
▁възвишения	-10.0188
▁международна	-10.0189
дор	-10.019
твърд	-10.0195
спан	-10.0197
▁построява	-10.02
ческата	-10.0201
рд	-10.0201
▁бани	-10.0204
▁въздуха	-10.0204
дно	-10.0206
▁точки	-10.0211
▁освободен	-10.0216
▁кметство	-10.0219
▁дължи	-10.022
▁настоящ	-10.0222
▁ръководител	-10.0224
▁бит	-10.0231
▁минерални	-10.0233
▁отглежда	-10.0239
▁растителност	-10.0242
▁революция	-10.0242
▁средновековна	-10.0242
▁бър	-10.0243
▁ширина	-10.0243
▁наши	-10.0257
▁свои	-10.0259
▁капитан	-10.0269
▁взема	-10.0272
▁удар	-10.0272
истите	-10.0276
▁1925	-10.0279
▁високи	-10.0286
▁крайбрежие	-10.0288
▁дълбока	-10.0288
жение	-10.029
▁съхранява	-10.029
▁звезди	-10.0297
▁върха	-10.0297
▁n	-10.0298
люби	-10.0304
▁декара	-10.0304
зу	-10.0313
малка	-10.0323
▁провинция	-10.0324
▁сигурност	-10.0324
▁третокласния	-10.0326
▁кале	-10.0335
лево	-10.034
▁сина	-10.0341
зма	-10.0343
год	-10.035
нейната	-10.0352
▁взима	-10.0357
▁землище	-10.036
▁ради	-10.0361
▁мало	-10.0363
▁десетилетия	-10.0379
▁помещава	-10.0379
▁съществуването	-10.0389
кер	-10.0391
цо	-10.0394
▁елен	-10.0398
▁функции	-10.0406
▁модел	-10.0407
▁фу	-10.0407
▁кю	-10.0413
зер	-10.0414
▁клон	-10.0416
▁пласт	-10.0422
▁ангел	-10.0426
▁висок	-10.0431
▁диви	-10.0432
▁негови	-10.0433
▁поречието	-10.0434
▁лозя	-10.0434
▁човешки	-10.0434
прямо	-10.0436
ати	-10.0438
▁права	-10.044
▁влизат	-10.0441
човци	-10.0444
▁жи	-10.0446
▁богат	-10.045
▁съветския	-10.0453
около	-10.0455
рус	-10.046
▁пшеница	-10.0462
пояснение	-10.0462
▁курбан	-10.0463
▁сам	-10.0463
▁езера	-10.0465
▁фил	-10.0467
▁използване	-10.0467
"“	-10.0469
мък	-10.0475
ила	-10.0481
мени	-10.0486
▁експеримент	-10.049
▁принадлежи	-10.049
▁привлича	-10.049
▁бук	-10.05
▁скални	-10.0504
▁изпълнител	-10.0505
▁залив	-10.0505
▁пир	-10.0513
личен	-10.0514
твен	-10.0516
▁почвата	-10.0518
ъгл	-10.0519
▁тодоров	-10.052
▁1996	-10.0523
▁даден	-10.0544
фил	-10.0552
тия	-10.0554
▁пролет	-10.0559
▁варира	-10.0565
ад	-10.0571
▁плодове	-10.0574
▁xvii	-10.0576
▁заминава	-10.0579
ичния	-10.0586
▁останките	-10.059
▁собствени	-10.059
мъ	-10.0596
същ	-10.0598
▁черква	-10.0601
▁училищна	-10.0602
▁царевица	-10.0602
▁епископ	-10.0602
пр	-10.0603
▁осем	-10.0606
йската	-10.0607
▁ч	-10.0608
▁местната	-10.0613
▁преход	-10.0614
▁диа	-10.0614
рев	-10.0629
▁услуги	-10.063
▁плато	-10.0636
▁интер	-10.0639
чени	-10.0643
овия	-10.0648
ински	-10.0649
остта	-10.0652
▁тъ	-10.0653
▁сбор	-10.0655
▁2018	-10.0672
▁начало	-10.0673
▁60-	-10.0676
▁петков	-10.0677
хов	-10.0679
национал	-10.0682
лич	-10.0682
мов	-10.0682
▁получават	-10.0684
унд	-10.0687
▁600	-10.0702
▁градски	-10.0708
▁философия	-10.0708
▁стоки	-10.071
чов	-10.0712
▁пал	-10.0713
рци	-10.0715
▁предприятия	-10.0715
▁конгрес	-10.0715
▁комисия	-10.0716
грама	-10.0719
▁наименованието	-10.0723
опол	-10.0725
▁въздух	-10.0726
▁добива	-10.0727
▁собственост	-10.0727
▁турските	-10.0728
ранните	-10.0731
the	-10.0736
▁окол	-10.0738
▁албум	-10.0738
▁победа	-10.0743
▁йорк	-10.0745
дем	-10.076
▁кали	-10.076
ръб	-10.0761
▁после	-10.0768
▁философ	-10.0769
▁ниски	-10.077
▁повърхност	-10.0771
▁бара	-10.0772
▁изследване	-10.0775
дов	-10.0783
▁убит	-10.0785
▁добив	-10.0786
▁цяло	-10.0792
лова	-10.0797
▁медал	-10.0798
▁селското	-10.0799
голямо	-10.0802
▁кам	-10.0802
▁славянски	-10.0807
▁къщите	-10.0812
зира	-10.0815
▁мали	-10.0815
ийска	-10.082
▁мари	-10.0822
ора	-10.0822
хар	-10.0822
ьов	-10.0826
▁метал	-10.083
▁подписва	-10.0831
▁принцип	-10.0831
ствие	-10.0833
▁1968	-10.0835
▁1930	-10.0839
троп	-10.0841
▁основите	-10.0852
▁млади	-10.0854
▁божи	-10.0858
▁никога	-10.0859
сад	-10.0862
▁важен	-10.0863
▁1941	-10.0865
бри	-10.0865
▁вели	-10.0869
▁владимир	-10.0874
▁азот	-10.0883
▁ролята	-10.0886
▁изнася	-10.0888
бр	-10.0892
▁1966	-10.0893
▁1922	-10.0896
▁станал	-10.0901
вис	-10.0903
▁негово	-10.0906
▁произвежда	-10.0915
▁събота	-10.0917
▁зимни	-10.0919
▁против	-10.092
▁1979	-10.0922
▁западния	-10.0929
▁далеч	-10.0937
▁бай	-10.094
ковец	-10.0941
▁коне	-10.0942
▁македонски	-10.0943
de	-10.0943
ански	-10.0954
иди	-10.0957
▁[	-10.096
чава	-10.0963
po	-10.0973
старите	-10.0973
▁калифорния	-10.0976
▁политическа	-10.0976
▁писмени	-10.0977
▁%	-10.0979
▁сръбски	-10.098
▁проблем	-10.0982
▁масив	-10.0983
▁гер	-10.0995
▁инди	-10.0997
▁зе	-10.0997
вани	-10.0998
▁втория	-10.1
▁оформя	-10.1005
▁ливади	-10.1005
▁левия	-10.1012
▁120	-10.1016
▁общество	-10.1017
▁финал	-10.1019
▁вярва	-10.1019
план	-10.102
▁арда	-10.1023
▁ориз	-10.1027
лови	-10.1029
дс	-10.1031
▁трима	-10.1034
▁държавен	-10.1034
▁употреба	-10.1035
▁1919	-10.1044
ъс	-10.1046
сар	-10.1047
▁концерт	-10.105
▁чисто	-10.105
▁лято	-10.1052
▁присъединява	-10.1053
▁единица	-10.1056
▁бунт	-10.1056
гнат	-10.1057
чето	-10.1063
▁австрия	-10.1064
текущата	-10.1064
рос	-10.1067
mo	-10.1067
вероятно	-10.1072
▁новия	-10.1076
алната	-10.1084
▁оста	-10.1088
▁ръководството	-10.1088
▁треньор	-10.1093
▁xviii	-10.1096
▁щат	-10.1096
▁предания	-10.1096
▁жан	-10.1098
мини	-10.11
▁прилага	-10.1103
pa	-10.1108
пей	-10.1114
▁ас	-10.1119
▁йон	-10.1123
▁местности	-10.1123
▁баба	-10.1133
os	-10.1146
бал	-10.1148
йски	-10.115
▁подобно	-10.1153
▁помага	-10.1153
▁знаме	-10.1154
сон	-10.1166
▁вит	-10.1178
ената	-10.1179
кин	-10.118
чието	-10.1183
▁княжество	-10.1183
▁издание	-10.1183
▁ниско	-10.1184
фин	-10.1185
▁норма	-10.1186
ващи	-10.1187
▁поли	-10.1188
щото	-10.1192
▁проф	-10.1193
▁вторият	-10.1212
▁мексико	-10.1213
▁частни	-10.1213
▁белград	-10.122
▁пл	-10.122
2.	-10.1223
▁o	-10.123
▁мер	-10.1231
▁куп	-10.1235
▁диск	-10.1238
▁красива	-10.1245
▁лист	-10.1246
▁ур	-10.1251
▁режисьор	-10.1256
▁северния	-10.1264
▁зала	-10.1267
мат	-10.1268
▁цезар	-10.1273
▁мъжко	-10.1276
зия	-10.1276
▁важно	-10.1276
▁учениците	-10.1282
атори	-10.1284
▁особености	-10.1286
▁70-	-10.1292
▁въвежда	-10.1297
▁mm	-10.1297
▁чо	-10.1302
▁събитие	-10.1303
▁легенди	-10.1303
▁извира	-10.1304
▁сравнение	-10.1304
▁спада	-10.1307
▁свидетелства	-10.1308
пор	-10.1311
▁въ	-10.1314
▁вълк	-10.1318
▁златни	-10.1319
▁трудно	-10.1321
▁последното	-10.1322
▁обработва	-10.1332
уч	-10.1332
▁професор	-10.1333
▁разнообразие	-10.1333
▁промяна	-10.1333
▁позиция	-10.1333
▁британски	-10.1334
рей	-10.1339
казан	-10.1339
нически	-10.1341
вес	-10.1343
глас	-10.1344
фо	-10.1346
▁южния	-10.1348
▁сума	-10.1353
▁христов	-10.1358
▁строеж	-10.1363
▁ежегодно	-10.1364
▁всъщност	-10.1364
▁нужда	-10.1365
▁разкрива	-10.1367
зен	-10.138
▁храни	-10.1381
ография	-10.1384
▁наречено	-10.1385
▁37	-10.1386
▁италиански	-10.1387
▁валежи	-10.1389
рал	-10.1394
▁изглежда	-10.1396
▁империята	-10.1397
▁транс	-10.1402
еро	-10.1408
мах	-10.1408
▁инициатива	-10.1413
▁см	-10.1413
▁лице	-10.1424
▁византия	-10.1425
▁рядко	-10.1431
писа	-10.1438
▁1994	-10.146
▁мили	-10.1461
▁почвите	-10.1465
крил	-10.1465
▁горни	-10.1476
▁строителството	-10.1482
▁разклонения	-10.1487
▁пехот	-10.1487
▁източния	-10.1489
▁стария	-10.149
▁1947	-10.1491
▁издадена	-10.1495
▁мача	-10.1511
▁единствен	-10.1518
▁янтра	-10.1519
▁1997	-10.1522
▁зима	-10.1526
▁обез	-10.1529
▁републиканска	-10.1537
▁кози	-10.1543
th	-10.1546
ловци	-10.1548
▁вещества	-10.1548
▁организации	-10.1548
▁мащаб	-10.1548
▁списание	-10.1549
▁десния	-10.156
чан	-10.1564
▁свързана	-10.1576
▁самуил	-10.1579
▁юр	-10.1583
▁36	-10.1583
▁създадени	-10.1592
▁механи	-10.1594
▁in	-10.1596
▁хитлер	-10.161
север	-10.161
▁1998	-10.1616
руш	-10.1619
▁дворец	-10.1627
гри	-10.1633
▁римско	-10.1634
щен	-10.1637
▁обичаи	-10.1639
▁отговаря	-10.1642
▁писмо	-10.1642
▁изследва	-10.1643
▁вятър	-10.1645
▁богдан	-10.1646
▁1975	-10.1646
▁1905	-10.1646
нки	-10.1647
▁нива	-10.165
▁помаци	-10.1652
▁реши	-10.1653
дес	-10.1655
▁1876	-10.1656
▁гърци	-10.1659
бата	-10.1662
▁сп	-10.1664
▁лично	-10.1666
▁побеждава	-10.1673
▁династия	-10.1673
▁учебни	-10.1673
▁протежение	-10.1673
▁техника	-10.1675
▁езерото	-10.1686
▁круш	-10.1686
люб	-10.1691
▁наклон	-10.1694
▁бру	-10.1696
▁румелия	-10.1704
▁свищов	-10.1704
▁центрове	-10.1705
▁дошли	-10.1705
▁кост	-10.1714
▁теорията	-10.1715
=10	-10.1726
червен	-10.173
▁въстанието	-10.1731
▁местоположение	-10.1736
▁консул	-10.1736
▁единственият	-10.1738
слов	-10.1741
чески	-10.1741
▁зве	-10.1741
▁изразява	-10.1746
▁идеи	-10.1748
▁виена	-10.1752
▁християнство	-10.1753
▁заемат	-10.1755
тю	-10.1761
добри	-10.1762
лед	-10.1763
▁кола	-10.1765
▁тяхното	-10.1767
▁хилядолетие	-10.1767
▁военен	-10.1768
▁непосредствена	-10.1768
▁пресича	-10.1768
ело	-10.1769
▁музея	-10.1771
▁достигат	-10.1772
▁суб	-10.1783
▁дълга	-10.1787
▁ранен	-10.1787
тери	-10.1787
▁населените	-10.1792
▁възможности	-10.1798
▁олимпийски	-10.1801
▁тяхната	-10.1805
▁1927	-10.1806
ард	-10.1806
▁какво	-10.1806
▁говор	-10.1807
▁проучвания	-10.1807
si	-10.1807
хай	-10.1809
▁детски	-10.1809
▁1921	-10.1811
▁годишна	-10.1819
уби	-10.1821
▁боб	-10.1822
▁стаи	-10.1828
▁посочено	-10.1831
▁formula	-10.1831
▁украйна	-10.1831
▁учебна	-10.1831
▁окончателно	-10.1832
▁чист	-10.1832
pe	-10.1833
ковски	-10.1835
ела	-10.1841
▁човека	-10.1843
▁сухо	-10.1849
телната	-10.1857
▁подкрепя	-10.1863
▁нейното	-10.1864
▁нарежда	-10.1864
▁ранни	-10.1864
▁чернозем	-10.1867
▁1939	-10.1869
▁етап	-10.187
▁икономиката	-10.1881
▁джу	-10.1883
важни	-10.1884
▁колиби	-10.1886
▁достатъчно	-10.1895
▁преходно	-10.1898
▁драма	-10.19
ози	-10.1904
▁научна	-10.1912
▁съвременни	-10.1912
гово	-10.1915
▁намерен	-10.1916
▁берлин	-10.192
▁предвид	-10.1922
▁народен	-10.1925
▁армията	-10.1925
▁летище	-10.1928
▁следващия	-10.1931
▁футболен	-10.1941
атор	-10.1942
▁османска	-10.1944
▁електрон	-10.1945
▁кир	-10.1947
▁стане	-10.1949
▁марин	-10.1952
джик	-10.1953
▁напада	-10.1956
▁социални	-10.1959
▁такъв	-10.1959
▁поредица	-10.196
▁пункт	-10.196
▁филми	-10.196
▁общи	-10.196
▁хотел	-10.1962
▁турската	-10.1964
▁запазен	-10.1965
▁размер	-10.197
вр	-10.1976
▁буд	-10.1978
▁нефт	-10.1979
▁системата	-10.1987
▁приемат	-10.1988
▁дадено	-10.1988
▁скорост	-10.1991
▁приготвя	-10.1992
▁телевизия	-10.1992
mi	-10.1994
▁държавния	-10.2
▁нещо	-10.2
къде	-10.2005
▁луи	-10.2011
падането	-10.2013
▁сандански	-10.2024
▁япония	-10.2024
▁петрич	-10.2026
▁кол	-10.2029
рик	-10.203
▁плен	-10.2031
▁участието	-10.2036
▁отглеждане	-10.2039
▁творчество	-10.2043
▁приет	-10.2043
▁праве	-10.2044
български	-10.2047
гол	-10.2048
лег	-10.205
▁33	-10.2057
▁погребан	-10.2057
▁охрид	-10.2058
гла	-10.206
▁преврат	-10.206
▁1906	-10.2062
фон	-10.207
ях	-10.207
▁0,	-10.2078
мост	-10.2087
▁едновременно	-10.209
▁извършен	-10.209
▁али	-10.209
▁купата	-10.2091
кой	-10.2095
▁крайна	-10.2108
▁унгария	-10.2111
so	-10.2111
▁драг	-10.2114
▁инженер	-10.2118
▁чества	-10.2124
▁смятат	-10.2125
▁прекарва	-10.2126
▁1936	-10.2128
▁празника	-10.213
това	-10.2132
нчо	-10.2138
гле	-10.2139
рк	-10.2141
▁актив	-10.2141
▁югославия	-10.2155
▁оттегля	-10.2155
▁когото	-10.2155
▁съществувало	-10.2156
▁800	-10.2159
ийския	-10.216
▁1943	-10.2161
▁канада	-10.2161
▁1935	-10.2162
ини	-10.2183
▁ограничен	-10.2184
ичното	-10.219
руж	-10.2191
▁1929	-10.2194
строй	-10.2199
▁подкрепа	-10.22
▁търговия	-10.22
▁1924	-10.2201
▁траките	-10.2203
▁говорят	-10.2204
▁парламент	-10.2206
▁беше	-10.221
ителни	-10.2211
луж	-10.2212
▁страните	-10.2221
▁керамика	-10.2221
▁тръгва	-10.2221
▁унищожен	-10.2221
▁почита	-10.2222
▁ог	-10.2224
мур	-10.2225
▁модерни	-10.2226
▁жените	-10.2232
▁разположение	-10.2235
▁80-	-10.2237
гов	-10.2238
▁боя	-10.224
тик	-10.2244
▁шо	-10.2247
▁световната	-10.2247
ой	-10.2248
рим	-10.2251
▁задържа	-10.2252
▁доброволци	-10.2255
▁маршрут	-10.2255
▁минути	-10.2255
▁физика	-10.2255
▁телефон	-10.2255
▁1938	-10.226
▁силата	-10.2262
тура	-10.2263
чков	-10.2267
анти	-10.2267
▁предание	-10.2275
▁криза	-10.2275
▁бен	-10.2283
▁никопол	-10.2289
▁стени	-10.2291
знание	-10.2292
▁дотогава	-10.2295
▁канал	-10.2303
do	-10.2305
▁йордан	-10.2312
▁карнобат	-10.2321
▁културен	-10.2321
▁1974	-10.2321
▁коли	-10.2322
▁показват	-10.2323
▁общините	-10.2323
вец	-10.2325
клас	-10.2327
световен	-10.2329
▁оттам	-10.2332
▁развиват	-10.2334
ури	-10.2334
дере	-10.2338
гъ	-10.2348
▁нощ	-10.2352
▁народна	-10.2354
▁самостоятелно	-10.2355
▁тунджа	-10.2355
▁фабрика	-10.2355
▁долини	-10.2357
▁преобладават	-10.2362
▁органи	-10.2365
▁обратно	-10.2365
ge	-10.2368
▁преслав	-10.2374
ur	-10.2379
▁определен	-10.238
▁водна	-10.2381
▁отразява	-10.2388
▁топли	-10.2391
тивна	-10.2397
▁1891	-10.2402
▁попадат	-10.2405
▁средновековие	-10.241
▁подготовка	-10.2422
▁устройство	-10.2422
▁стол	-10.2426
▁солун	-10.2426
ca	-10.2427
▁оригинал	-10.243
жер	-10.2438
▁относително	-10.2439
▁френския	-10.244
▁бъ	-10.2441
▁недо	-10.2453
▁(17	-10.2456
▁обработка	-10.2456
▁внимание	-10.2456
▁географски	-10.2456
▁джи	-10.2466
▁атанас	-10.2467
▁дълбочина	-10.249
▁официален	-10.249
▁традиционно	-10.249
▁деня	-10.2491
▁цигани	-10.2491
▁радомир	-10.2492
▁1986	-10.2496
рови	-10.2501
▁определят	-10.2503
рез	-10.2506
яна	-10.2506
co	-10.2509
ka	-10.2517
▁знак	-10.2519
▁свобода	-10.2525
▁яр	-10.2541
▁кот	-10.255
▁кур	-10.2551
евич	-10.2555
▁митрополит	-10.2559
лище	-10.2559
▁странджа	-10.2559
▁целта	-10.2571
▁изкуството	-10.2573
ab	-10.2578
▁годишно	-10.258
гър	-10.2584
▁автомобил	-10.2584
▁имоти	-10.2589
▁правила	-10.2593
▁бяга	-10.2595
▁съхраняват	-10.2601
▁добра	-10.2601
дал	-10.2605
чук	-10.2605
▁улица	-10.2609
▁средното	-10.2611
▁прос	-10.2614
▁причини	-10.2616
▁откриват	-10.2617
▁биват	-10.262
▁живков	-10.262
▁направи	-10.2621
▁хълма	-10.2623
▁ефект	-10.2624
▁въпроси	-10.2625
▁подобни	-10.2627
▁xv	-10.2627
уша	-10.263
▁герои	-10.2632
▁1971	-10.2633
▁1910	-10.2636
▁обичай	-10.2637
шо	-10.264
рство	-10.2642
▁последният	-10.2645
▁онова	-10.2647
▁морето	-10.265
▁турнира	-10.266
▁превзема	-10.2662
▁споразумение	-10.2662
▁xvi	-10.2663
▁вариант	-10.2667
▁обществено	-10.2669
▁хижа	-10.267
▁запазена	-10.2673
▁свързан	-10.2679
днес	-10.2679
шин	-10.2679
▁играят	-10.2684
▁базира	-10.2693
▁масово	-10.2695
ir	-10.2695
▁калоян	-10.2697
▁лечение	-10.2697
▁черен	-10.2699
▁светлина	-10.2701
▁ръж	-10.2701
лак	-10.2703
май	-10.271
▁тема	-10.2713
▁водещ	-10.2714
▁етаж	-10.2716
ho	-10.2717
▁гали	-10.2717
▁другата	-10.2718
хан	-10.2719
известните	-10.272
мира	-10.2725
▁българо	-10.2727
▁администрация	-10.2732
▁художествена	-10.2733
▁използван	-10.2737
▁1969	-10.2737
бой	-10.2738
▁сестра	-10.2739
▁посочена	-10.2742
▁38	-10.2743
мати	-10.2745
▁драго	-10.2746
▁строежа	-10.2747
▁световни	-10.2749
фал	-10.2752
стил	-10.2752
▁повод	-10.2754
▁проявява	-10.2767
верен	-10.2767
▁рилски	-10.2773
▁1,5	-10.2774
▁бори	-10.2774
мия	-10.2776
▁разказ	-10.2778
▁съборът	-10.2778
▁християнството	-10.2783
▁кооперативно	-10.2784
▁гроб	-10.2788
▁обем	-10.2792
лъка	-10.2794
душ	-10.2796
тична	-10.2797
▁карта	-10.2799
▁обединено	-10.2802
▁кабинет	-10.2802
▁съседното	-10.2802
▁червена	-10.2805
▁1962	-10.2807
▁възстановяване	-10.2809
▁съвременната	-10.2811
▁обича	-10.2813
▁николов	-10.2814
▁включен	-10.2821
леч	-10.2823
▁предоставя	-10.2837
▁някога	-10.2837
рай	-10.284
am	-10.2845
▁зо	-10.2853
▁севлиево	-10.2855
предел	-10.2862
лии	-10.2869
▁екип	-10.2869
▁бкп	-10.2872
▁(15	-10.2873
▁живели	-10.2874
▁мол	-10.288
▁събрани	-10.2885
▁умерен	-10.2886
▁исляма	-10.2889
ити	-10.2889
▁богати	-10.289
сив	-10.289
▁изследователи	-10.2891
част	-10.2898
▁периоди	-10.2904
▁вълна	-10.2906
▁основния	-10.2907
▁минало	-10.2907
▁икономическа	-10.2908
▁североизточни	-10.2908
▁москва	-10.2908
▁веднага	-10.2908
▁признава	-10.291
▁1961	-10.2913
▁1987	-10.2914
▁закона	-10.2915
▁празникът	-10.2915
▁четата	-10.292
▁изселва	-10.2921
рска	-10.2922
вел	-10.2925
▁военна	-10.2927
▁принос	-10.2938
▁месо	-10.2943
▁средновековни	-10.2943
▁продукция	-10.2943
▁очаква	-10.2943
▁основана	-10.2949
зел	-10.2951
▁изгражда	-10.2956
▁наброявал	-10.2956
▁османските	-10.2957
▁значителни	-10.2962
▁компютър	-10.297
▁хоризонт	-10.2979
▁православна	-10.2979
▁поведение	-10.298
▁течението	-10.2991
яне	-10.2998
▁преподава	-10.3001
▁месеци	-10.3013
▁дъжд	-10.3014
▁историческа	-10.3015
▁разработва	-10.3015
▁специализира	-10.3015
▁добавя	-10.3015
▁данък	-10.3015
▁попово	-10.3018
юн	-10.3018
▁черквата	-10.3019
хе	-10.302
▁1952	-10.3021
▁балканския	-10.3023
▁обявена	-10.304
▁разстояние	-10.304
▁проведе	-10.3041
▁работни	-10.3046
▁вследствие	-10.3051
▁независимо	-10.3052
▁домашни	-10.3053
▁титлата	-10.3057
▁вина	-10.3062
измът	-10.3062
берг	-10.3063
▁неиз	-10.3077
▁90	-10.3082
▁световното	-10.3083
▁опожарен	-10.3087
▁(13	-10.3087
ъгъл	-10.3091
дев	-10.3092
▁сме	-10.31
▁самата	-10.3101
▁рок	-10.3105
▁сектор	-10.3109
▁маси	-10.3111
▁марс	-10.3111
▁издаден	-10.3118
▁лазар	-10.3118
▁класира	-10.3122
▁жертви	-10.3123
▁букви	-10.3124
▁порт	-10.3124
▁намирало	-10.3131
мена	-10.3143
▁наричана	-10.3145
▁близки	-10.3146
▁руския	-10.3157
▁фердинанд	-10.316
▁съпротива	-10.316
▁избяга	-10.316
▁42	-10.3161
лски	-10.3168
▁поста	-10.3172
▁флот	-10.3172
▁блок	-10.3174
ряд	-10.3175
▁отряд	-10.3177
▁думите	-10.3179
▁площи	-10.318
▁одрин	-10.3181
▁днешна	-10.3181
▁десетки	-10.3188
▁признат	-10.3189
▁рез	-10.3193
▁съседни	-10.3198
▁пещери	-10.32
2)	-10.3201
▁животински	-10.3202
▁данните	-10.3205
добре	-10.321
▁текстове	-10.3213
ач	-10.3213
▁2022	-10.3214
▁зони	-10.3223
▁наименование	-10.3223
▁руда	-10.3224
▁оряховица	-10.3233
▁равнинен	-10.3233
▁долара	-10.3235
▁звук	-10.3239
ci	-10.3241
▁днешния	-10.3241
веден	-10.3244
▁мес	-10.3245
камен	-10.3247
▁спортни	-10.3249
▁(11	-10.3249
▁250	-10.325
▁получи	-10.3251
▁леко	-10.3252
ими	-10.3252
▁животните	-10.3255
▁търговията	-10.3256
▁атанасов	-10.3257
лежи	-10.3262
▁писатели	-10.3262
▁земеделска	-10.3269
▁сътрудничество	-10.3269
▁продължи	-10.3272
▁раковски	-10.3273
▁делчев	-10.3275
▁пале	-10.3279
▁43	-10.328
▁отделен	-10.3286
йл	-10.3289
▁34	-10.3289
▁1972	-10.3294
лист	-10.3296
▁построено	-10.3296
▁заселване	-10.3298
▁рам	-10.3304
▁киселина	-10.3308
▁избор	-10.3317
▁разкази	-10.3317
▁максимална	-10.3319
овската	-10.3335
▁обединени	-10.3341
▁имал	-10.3341
▁епархия	-10.3343
▁произхожда	-10.3343
▁устието	-10.3343
▁адрес	-10.3346
▁значителна	-10.3347
кото	-10.3349
▁седмица	-10.335
▁види	-10.3351
▁гледа	-10.3352
▁уни	-10.3352
известни	-10.3356
▁евреи	-10.3357
▁индия	-10.3358
▁чука	-10.3373
▁равнище	-10.3381
▁запази	-10.3387
▁продава	-10.339
▁силни	-10.3397
нц	-10.3399
▁държавна	-10.3405
▁зелени	-10.3405
брани	-10.3408
▁късно	-10.341
va	-10.3412
рем	-10.3414
▁90-	-10.3416
▁предпочита	-10.3418
▁of	-10.342
▁класа	-10.3422
▁тежки	-10.3423
▁майстори	-10.3437
▁министерството	-10.3439
▁планира	-10.344
▁тома	-10.3441
▁билото	-10.3447
▁развити	-10.3447
узи	-10.3456
▁светилище	-10.3457
▁наследник	-10.3457
дон	-10.3459
▁1963	-10.3461
хим	-10.3463
▁зло	-10.3467
▁построяването	-10.3469
▁колектив	-10.3475
▁железни	-10.3476
▁1880	-10.3477
▁50-	-10.3479
долу	-10.3481
славянски	-10.3481
▁науката	-10.3483
зово	-10.3483
hi	-10.3486
шат	-10.3488
▁местностите	-10.349
▁тялото	-10.349
▁поставен	-10.3493
▁длъжност	-10.3493
▁художник	-10.3493
▁швеция	-10.3493
▁румънски	-10.3493
▁индустрия	-10.3493
▁околността	-10.3494
пат	-10.3494
▁туристи	-10.35
▁ес	-10.3505
печат	-10.3511
▁30-	-10.3521
▁съм	-10.3524
▁австралия	-10.3531
▁усилия	-10.3531
▁камчия	-10.3531
▁височини	-10.3531
▁фауна	-10.3532
▁древна	-10.3532
▁700	-10.3537
стар	-10.3539
▁лед	-10.354
▁лидер	-10.3541
▁освободителна	-10.3543
▁поява	-10.3547
▁руските	-10.3549
ологията	-10.355
▁йе	-10.3551
▁гола	-10.3553
ирането	-10.3554
▁махалите	-10.3556
▁теле	-10.3557
op	-10.3563
▁състезания	-10.3569
▁килийно	-10.3569
▁овчар	-10.3569
▁коритото	-10.3569
учи	-10.3581
веж	-10.3582
▁пещерата	-10.3592
вари	-10.3597
▁заселили	-10.3606
▁курс	-10.3607
▁подпомага	-10.3607
▁съществен	-10.3607
▁мляко	-10.3607
▁диалекти	-10.361
▁температурата	-10.3613
▁такава	-10.3614
▁собствена	-10.3618
лат	-10.362
▁местен	-10.362
▁църковно	-10.3625
he	-10.3626
▁аз	-10.3626
▁гласува	-10.3632
▁основното	-10.3632
▁антон	-10.3634
дневни	-10.3634
▁турнир	-10.3636
▁хълмове	-10.3638
▁познат	-10.3638
="27	-10.3643
▁чужбина	-10.3645
▁електрически	-10.3645
мел	-10.3646
▁кер	-10.3648
di	-10.365
развит	-10.3653
▁рида	-10.3653
▁племе	-10.3661
▁влад	-10.3667
ийско	-10.3675
▁получил	-10.3677
▁естествен	-10.3679
▁дей	-10.3679
▁приятели	-10.368
ида	-10.3681
▁песен	-10.3681
▁бизнес	-10.3683
▁функция	-10.3683
▁богородично	-10.3683
▁джордж	-10.3683
▁близките	-10.3683
▁баница	-10.3684
▁повърхността	-10.3685
▁1957	-10.3689
▁бос	-10.369
▁изборите	-10.3691
▁единствената	-10.3692
▁съвременния	-10.3693
▁сара	-10.3701
пуск	-10.3705
▁оттогава	-10.371
дом	-10.3715
кус	-10.3717
иран	-10.3721
чката	-10.3721
▁православие	-10.3722
▁ритуал	-10.3722
▁дели	-10.3722
▁язовира	-10.3723
▁кли	-10.3729
дън	-10.3732
▁пее	-10.3733
▁особен	-10.3734
кметство	-10.3736
▁способност	-10.3737
▁лични	-10.3739
▁възстановен	-10.3745
▁продукт	-10.3746
чество	-10.3752
▁възрастни	-10.3756
▁заболявания	-10.376
▁кристал	-10.3762
▁направени	-10.3763
зъм	-10.3764
нските	-10.3767
рми	-10.3768
▁мандат	-10.3768
▁музиката	-10.3768
▁2016	-10.3774
лки	-10.379
▁поне	-10.3797
▁данъци	-10.3799
▁присъствие	-10.3799
000	-10.38
▁зърно	-10.3802
▁някой	-10.3804
рели	-10.3805
▁1903	-10.3805
цър	-10.3805
▁1914	-10.3807
▁всичките	-10.3814
гел	-10.3815
▁крайните	-10.3817
▁покрити	-10.382
пра	-10.3821
▁мина	-10.3822
▁обучение	-10.383
▁фото	-10.3835
▁дупка	-10.3838
▁кааза	-10.3838
▁xiv	-10.3839
▁покривка	-10.3848
▁победи	-10.3853
▁влиянието	-10.3854
▁крум	-10.3856
▁древните	-10.3859
▁завършен	-10.3861
▁предмет	-10.3867
▁самолет	-10.3873
▁откриването	-10.3874
дрен	-10.3874
▁микро	-10.388
▁сокол	-10.3882
▁1955	-10.3883
▁зависи	-10.3883
ясно	-10.3885
▁платон	-10.3887
добрите	-10.3902
▁новите	-10.3905
▁страх	-10.3905
арх	-10.3905
▁изход	-10.3906
▁недел	-10.3906
алните	-10.3907
▁каменна	-10.3908
▁нейния	-10.391
слаб	-10.391
▁желание	-10.3912
▁икони	-10.3912
▁бран	-10.3913
вън	-10.3914
▁стамболов	-10.3916
▁управител	-10.3916
▁гръцката	-10.3917
▁обединение	-10.3919
▁мъжки	-10.3921
▁цех	-10.3922
▁трета	-10.3923
ещи	-10.3928
="3	-10.393
сл	-10.3933
▁специално	-10.3937
лом	-10.395
▁железопътната	-10.3958
▁слага	-10.3959
▁1967	-10.3962
▁троица	-10.3962
▁крепости	-10.3962
▁власти	-10.3965
▁съвременните	-10.3965
▁захари	-10.3971
бели	-10.398
етническа	-10.3981
▁акт	-10.3988
▁изоставен	-10.3995
▁редки	-10.3995
▁чешми	-10.3995
спект	-10.4001
▁1916	-10.4003
▁съюза	-10.4009
2%	-10.401
▁парламента	-10.4011
▁римляните	-10.4012
▁отваря	-10.4018
▁термин	-10.4018
▁хълм	-10.4021
▁ореш	-10.4022
добив	-10.4023
▁възстановява	-10.4026
сега	-10.4027
▁свидетелстват	-10.4029
▁обучава	-10.4035
▁хърватски	-10.4035
▁щъркел	-10.4035
▁характеристики	-10.4035
▁комунистическа	-10.4035
нец	-10.4036
▁фирми	-10.4036
стер	-10.4037
лява	-10.4038
скоро	-10.4039
▁1993	-10.4041
▁1931	-10.4041
▁дряново	-10.4042
▁герман	-10.4045
▁том	-10.4055
▁половината	-10.4056
▁главната	-10.4056
▁масло	-10.4058
ряз	-10.4062
ището	-10.4068
▁стенописи	-10.4074
▁кампания	-10.4074
успение	-10.4075
▁фк	-10.408
▁успешно	-10.4081
▁кай	-10.4086
▁венец	-10.4086
▁влак	-10.4088
▁пряко	-10.4089
▁научно	-10.4089
▁описание	-10.4089
кел	-10.4098
▁разделени	-10.4102
▁спас	-10.4107
изирани	-10.4112
устойчив	-10.4114
▁заявява	-10.4114
▁химични	-10.4115
▁откъдето	-10.4115
▁цветове	-10.4118
▁горещо	-10.4118
▁арабски	-10.412
▁малкото	-10.4141
▁водосборния	-10.4141
▁сърби	-10.4149
▁годишни	-10.4151
▁летни	-10.4151
▁r	-10.4155
▁интелект	-10.4155
▁плочи	-10.4155
▁разраства	-10.4155
▁паралел	-10.4155
▁легендата	-10.4156
▁бул	-10.4156
▁главата	-10.4158
▁захар	-10.4158
▁горите	-10.416
без	-10.4171
джу	-10.4171
▁успяват	-10.4172
▁използвана	-10.418
▁лег	-10.4184
▁въоръжени	-10.4185
▁титла	-10.4189
▁истанбул	-10.4195
▁апостол	-10.4195
▁архангел	-10.4195
▁редовно	-10.4196
▁римския	-10.42
▁коня	-10.4201
▁1981	-10.4201
▁държавната	-10.4209
бунар	-10.4215
прост	-10.4216
ba	-10.4228
▁дължината	-10.4235
▁провинции	-10.4235
▁росица	-10.4239
be	-10.4245
▁занаяти	-10.4248
ac	-10.4249
3%	-10.4249
ляв	-10.4266
▁движението	-10.4267
▁изпълнен	-10.4267
▁селскостопански	-10.4276
▁индивидуал	-10.4276
▁дейности	-10.4276
▁седалище	-10.4276
васил	-10.4277
▁прекъсва	-10.4277
▁1908	-10.4282
▁1937	-10.4283
▁архитектур	-10.4286
▁ниш	-10.4287
▁католици	-10.4291
▁доктор	-10.4299
ницата	-10.4309
чко	-10.4312
▁реформи	-10.4316
▁десетилетие	-10.4317
▁премиер	-10.4317
▁инф	-10.4318
▁равни	-10.4318
vo	-10.4324
▁дадена	-10.4324
▁водач	-10.4325
▁пълна	-10.4331
▁включени	-10.4333
▁1879	-10.4336
▁мат	-10.4339
▁написва	-10.4339
▁кости	-10.434
▁горе	-10.434
▁начина	-10.4342
пара	-10.4349
широк	-10.4352
▁рос	-10.4353
роз	-10.4357
източни	-10.4358
▁пътят	-10.4361
ul	-10.4363
▁последователно	-10.4363
▁българ	-10.4366
▁мери	-10.437
▁фаза	-10.438
шу	-10.438
джо	-10.4385
▁записано	-10.439
7%	-10.4393
▁подножие	-10.4394
tion	-10.4395
▁възприема	-10.4399
▁португалия	-10.4399
▁разпространява	-10.4399
▁швейцария	-10.4399
▁фирма	-10.4399
▁градуса	-10.44
▁сезона	-10.4401
per	-10.4402
for	-10.4404
▁предприема	-10.4405
▁вход	-10.4406
▁основи	-10.4412
електр	-10.4414
▁днешните	-10.4416
▁нищо	-10.4419
▁убити	-10.4419
▁дълбоко	-10.442
пусн	-10.4426
еца	-10.4428
▁технически	-10.4439
▁християнска	-10.4441
▁момче	-10.4442
▁успехи	-10.4444
нево	-10.4456
▁европейската	-10.4456
вир	-10.4458
▁превърнат	-10.4459
▁съдържат	-10.446
▁мен	-10.4462
▁трудово	-10.4473
▁отглеждането	-10.4473
▁зеленчуци	-10.4482
▁съответни	-10.4482
игра	-10.4482
▁загуба	-10.4483
▁планините	-10.4483
▁червени	-10.4484
▁международно	-10.4485
▁вазов	-10.4487
▁частици	-10.4489
лена	-10.45
леж	-10.4505
мед	-10.4506
▁(10	-10.4508
▁произхода	-10.4508
ърс	-10.4511
▁лип	-10.4512
▁четвърти	-10.4514
▁съветски	-10.4514
iv	-10.4517
▁ренесанс	-10.4524
▁славейков	-10.4524
▁съдеб	-10.4524
▁селска	-10.4524
▁пристига	-10.4525
▁1982	-10.453
▁мартин	-10.4535
▁защитава	-10.4535
▁2017	-10.4538
▁орден	-10.4542
джии	-10.4542
роб	-10.4544
▁мощ	-10.455
▁(12	-10.4561
прави	-10.4564
▁манастирът	-10.4564
▁запознава	-10.4565
▁специални	-10.4565
▁тежко	-10.4566
▁планинска	-10.4567
▁ана	-10.4568
▁структури	-10.4568
▁съединението	-10.4568
▁(16	-10.4568
▁есен	-10.4569
▁музикални	-10.457
▁членовете	-10.457
▁горното	-10.4571
▁1964	-10.4572
▁1977	-10.4573
▁крас	-10.4575
▁храст	-10.4576
▁плаж	-10.4582
▁атоми	-10.4582
едно	-10.4583
лъч	-10.459
мас	-10.4593
мак	-10.4595
телните	-10.4599
овото	-10.46
▁наричани	-10.4601
▁милан	-10.4602
▁хидро	-10.4602
▁етнография	-10.4602
▁защитени	-10.4604
▁френската	-10.4605
▁популярност	-10.4608
▁1983	-10.4614
▁образованието	-10.4627
хър	-10.4635
▁основаването	-10.4635
▁богато	-10.4638
▁предложение	-10.464
▁химия	-10.4643
▁военните	-10.4646
риан	-10.4646
кум	-10.4654
▁реал	-10.4657
▁опис	-10.466
▁византийски	-10.4671
▁1870	-10.4672
форма	-10.4673
рой	-10.4675
▁ски	-10.468
▁балканите	-10.4685
▁антични	-10.4686
една	-10.4689
▁работници	-10.4689
▁железопътна	-10.4689
хме	-10.469
▁техния	-10.4692
▁изкуства	-10.4692
▁михайлов	-10.4692
▁главния	-10.4697
▁1932	-10.4699
▁танци	-10.4699
▁1954	-10.4699
▁врата	-10.4702
▁построи	-10.4704
▁даскал	-10.4706
▁започваща	-10.4713
▁висши	-10.4714
▁обществото	-10.4717
дели	-10.4719
▁обред	-10.472
сечен	-10.4723
▁древно	-10.4726
▁деление	-10.4728
▁възникване	-10.4729
ческото	-10.4732
▁мюсюлмански	-10.4735
▁белгия	-10.4735
▁въздушни	-10.4735
▁осман	-10.4737
▁мнение	-10.4738
om	-10.4741
▁пожар	-10.4751
▁свързващ	-10.4753
търс	-10.4756
▁re	-10.4757
▁полите	-10.4757
▁временно	-10.4757
високо	-10.4758
лък	-10.4767
▁съвсем	-10.4777
▁арестуван	-10.4777
▁възлиза	-10.4777
▁дървен	-10.4777
▁теодор	-10.4777
▁пасища	-10.4778
▁медицина	-10.4778
▁настоява	-10.4779
▁закрито	-10.4779
люд	-10.4782
▁1984	-10.4783
янка	-10.4793
▁учен	-10.4804
кове	-10.4805
▁кръ	-10.4814
▁славяни	-10.4816
▁епохата	-10.4817
go	-10.4819
▁долната	-10.482
като	-10.482
▁оркестър	-10.482
рън	-10.482
▁загуби	-10.4822
▁петка	-10.4824
▁дрян	-10.4828
добро	-10.4828
поли	-10.4828
▁черкези	-10.4829
▁ремонт	-10.4832
▁предбалкан	-10.4836
▁престол	-10.4836
вки	-10.4837
▁пат	-10.4842
кет	-10.4851
висок	-10.4854
дий	-10.4855
▁лесно	-10.4856
▁гората	-10.4861
▁адрианопол	-10.4863
▁федерация	-10.4863
▁чужди	-10.4863
▁задача	-10.4864
▁значи	-10.4867
▁1953	-10.4871
▁върнат	-10.4872
▁стои	-10.4873
турска	-10.4879
▁кой	-10.4884
▁посочва	-10.4894
нският	-10.4896
а̀	-10.4899
▁античността	-10.4902
▁кисел	-10.4903
▁нямат	-10.4904
ясна	-10.4906
▁прав	-10.4906
▁зърнени	-10.4907
▁количества	-10.4907
▁подготвя	-10.4907
джиев	-10.4907
▁постъпва	-10.4907
▁външна	-10.4907
▁изделия	-10.4907
▁климент	-10.4907
▁регистрирани	-10.491
▁останалата	-10.4913
▁1976	-10.4914
▁извършват	-10.492
▁айтос	-10.4921
▁65	-10.4924
▁храмът	-10.4932
▁хал	-10.4933
8%	-10.4938
ph	-10.4939
балкан	-10.4941
▁39	-10.4944
весел	-10.4944
▁клуба	-10.4945
дик	-10.4945
▁въглища	-10.495
▁социална	-10.495
▁кънчов	-10.495
ie	-10.4952
просвета	-10.4953
здрав	-10.4954
▁европейските	-10.4955
▁зограф	-10.4955
▁брест	-10.4957
бож	-10.496
▁търси	-10.4962
nt	-10.4962
▁връзката	-10.4963
▁синове	-10.4963
високите	-10.4966
реп	-10.4966
▁1576	-10.4967
ационна	-10.4984
ga	-10.4985
четен	-10.4986
▁поток	-10.4989
▁действие	-10.4991
▁предприятие	-10.4994
▁средновековно	-10.4994
▁заобиколен	-10.4994
▁отхвърля	-10.4994
▁слънчоглед	-10.4994
▁трявна	-10.4994
▁стръмни	-10.4994
▁неолит	-10.4994
▁рисува	-10.4996
▁сключва	-10.5
▁1933	-10.5001
жител	-10.5015
грам	-10.5017
▁обединява	-10.5021
ецът	-10.5027
софия	-10.5029
македония	-10.5029
▁символи	-10.503
▁композитор	-10.5038
▁някакв	-10.5038
▁обръща	-10.5038
▁допринася	-10.5038
▁преследва	-10.5038
рядко	-10.504
минал	-10.5041
годишни	-10.5042
▁съди	-10.5042
зми	-10.5046
млад	-10.5047
сър	-10.505
ke	-10.505
▁плаща	-10.5053
je	-10.5054
цата	-10.5056
▁звезда	-10.5062
▁въведен	-10.5062
▁английския	-10.5065
▁ясен	-10.5068
▁битка	-10.5068
▁свободно	-10.5082
▁съоръжения	-10.5082
▁обяснява	-10.5082
▁санджак	-10.5082
▁потомци	-10.5082
▁бри	-10.5099
обикновен	-10.5103
чист	-10.511
▁флора	-10.5113
▁македон	-10.5113
▁древността	-10.5115
▁глави	-10.5119
върз	-10.5124
▁съпругата	-10.5126
▁журналист	-10.5126
▁икономическо	-10.5126
▁класификация	-10.5126
▁наполеон	-10.5126
▁снежна	-10.5126
▁преговори	-10.5127
▁златар	-10.5128
▁водопад	-10.5128
▁средния	-10.5129
гьо	-10.5132
англ	-10.5133
▁sa	-10.5134
▁политик	-10.5135
▁кораби	-10.5138
чина	-10.514
▁професионал	-10.5142
▁мю	-10.5145
вски	-10.5149
▁разкрити	-10.516
▁испански	-10.5161
▁асеновград	-10.517
▁назначава	-10.517
▁приложение	-10.5171
▁момиче	-10.5171
▁максимум	-10.5172
▁старобългарски	-10.5172
▁55	-10.5187
чил	-10.5193
тогавашното	-10.5195
▁селяни	-10.5195
▁димов	-10.5198
▁присъства	-10.5199
ag	-10.5205
кръст	-10.5212
▁квадрат	-10.5215
▁огромни	-10.5215
▁международен	-10.5215
▁нахлува	-10.5215
▁("„	-10.5216
▁наследници	-10.5218
▁болест	-10.5223
рове	-10.5224
▁водосбор	-10.523
▁кро	-10.5234
равни	-10.5247
▁църковни	-10.5248
▁пап	-10.525
▁рог	-10.5252
▁салон	-10.5256
▁последния	-10.5258
▁литературни	-10.526
▁седловина	-10.526
▁машини	-10.526
▁хранителни	-10.5267
▁пей	-10.5268
▁3-	-10.5269
▁растенията	-10.527
▁красиви	-10.5271
sta	-10.5272
▁песента	-10.5273
▁парка	-10.5274
▁горната	-10.5274
nd	-10.5274
шкото	-10.5281
▁политиката	-10.5285
▁разпространени	-10.529
▁герб	-10.5292
стъпление	-10.5294
▁букурещ	-10.5305
▁прогимназия	-10.5305
▁дефинира	-10.5305
▁показател	-10.5306
▁гар	-10.531
ut	-10.531
▁популярни	-10.5312
▁мета	-10.5314
гран	-10.5317
шница	-10.5318
▁златна	-10.5321
време	-10.5322
прес	-10.5324
▁тест	-10.534
▁мъжете	-10.534
▁минерал	-10.5346
▁пчел	-10.5347
▁съобщава	-10.535
▁утвърждава	-10.535
▁чирпан	-10.535
▁потенциал	-10.535
▁гражданска	-10.5351
▁относно	-10.5351
▁поезия	-10.5351
▁vii	-10.5353
▁лозен	-10.5353
▁разрушен	-10.5356
▁шар	-10.536
▁международния	-10.5365
▁географска	-10.5365
▁цялост	-10.5366
▁борбата	-10.5367
▁фигури	-10.5369
▁цска	-10.5375
▁li	-10.538
4%	-10.5381
▁(4	-10.5381
насят	-10.5381
▁естествено	-10.5383
гал	-10.5383
годишния	-10.5383
▁съпруга	-10.5386
▁мечка	-10.5392
▁принуден	-10.5392
▁ечемик	-10.5396
▁евангел	-10.5396
▁процент	-10.5401
▁такова	-10.5402
хубав	-10.5406
▁излъчва	-10.5407
▁мър	-10.5415
200	-10.5416
истка	-10.5418
олд	-10.5421
▁врати	-10.5427
рави	-10.5428
▁неща	-10.5432
▁близкия	-10.5438
▁започнали	-10.544
▁административни	-10.5441
▁фамилия	-10.5441
▁никакв	-10.5443
▁острова	-10.5444
▁разкри	-10.5445
▁загинали	-10.5446
▁срещи	-10.5448
▁1907	-10.5448
▁югоизточни	-10.546
▁1881	-10.5461
▁косово	-10.5465
▁съединения	-10.5471
▁приключва	-10.5473
▁44	-10.5474
▁атина	-10.5475
▁co	-10.5476
▁аспарух	-10.5487
зточноправославн	-10.5487
▁великден	-10.5487
▁мехмед	-10.5487
▁търговци	-10.5487
▁състезател	-10.5487
▁1872	-10.5487
▁поражение	-10.5487
▁марко	-10.5489
▁шосе	-10.5492
йските	-10.5492
▁класически	-10.5492
▁суша	-10.5493
▁водещи	-10.5497
бир	-10.5498
▁оси	-10.5499
▁континент	-10.5503
дял	-10.5503
▁климатични	-10.5507
▁предложен	-10.551
sa	-10.5511
▁мис	-10.5513
▁александров	-10.5519
▁кана	-10.552
▁женски	-10.5525
ot	-10.5534
оре	-10.5534
▁дива	-10.5536
закон	-10.5539
▁1988	-10.5541
▁41	-10.5544
енерги	-10.5545
▁университета	-10.5546
▁разстоянието	-10.5547
▁писмен	-10.5571
▁века	-10.5573
ng	-10.5575
▁станало	-10.5577
метър	-10.5578
▁неврокоп	-10.5579
▁противопоставя	-10.5579
▁технологии	-10.5579
▁изчезва	-10.5579
▁йосиф	-10.5579
▁селищна	-10.558
ливането	-10.5584
▁земен	-10.5585
порт	-10.5589
▁десен	-10.5591
▁текстил	-10.5594
▁защитена	-10.5596
▁списъка	-10.5604
▁обекта	-10.5604
значими	-10.5611
▁турска	-10.5615
▁изпратен	-10.5625
▁вероизповедание	-10.5626
▁насаждения	-10.5626
▁контакт	-10.5626
▁окупира	-10.5626
▁каравелов	-10.5626
▁джамията	-10.5627
история	-10.5627
▁преобразува	-10.5629
▁любител	-10.5632
▁буква	-10.5637
▁античност	-10.5638
all	-10.5645
▁кариерата	-10.5648
уди	-10.5649
▁закони	-10.5652
▁берлинския	-10.5657
лим	-10.5667
▁кьой	-10.5672
▁доброволец	-10.5673
▁морав	-10.5673
▁спирка	-10.5674
▁отдих	-10.5676
▁слънчева	-10.5677
▁народната	-10.5677
▁оттук	-10.5679
▁лев	-10.5681
▁1973	-10.5681
▁изп	-10.5682
▁топло	-10.5684
▁предназначен	-10.569
▁1893	-10.5692
ологични	-10.5693
▁високите	-10.57
мисъл	-10.571
▁чин	-10.5712
овския	-10.5714
деж	-10.5715
евски	-10.5719
▁ирландия	-10.572
▁хляб	-10.572
▁общото	-10.5722
▁подходящи	-10.5722
▁фигура	-10.5724
▁трябвало	-10.5731
▁третата	-10.5733
▁гоце	-10.5734
верс	-10.5736
▁полета	-10.5741
▁гробница	-10.5741
▁ера	-10.5743
▁възраждането	-10.5756
▁таб	-10.576
▁включващ	-10.576
▁час	-10.5763
▁уред	-10.5765
▁войн	-10.5766
рина	-10.5766
овско	-10.5766
▁продължителност	-10.5767
▁овощни	-10.5767
▁конкурс	-10.5767
▁танцов	-10.5767
▁роб	-10.5768
▁османците	-10.577
▁апарат	-10.5777
пче	-10.5779
▁метали	-10.5785
▁уилям	-10.5786
▁фар	-10.5789
гло	-10.5793
чева	-10.5797
▁древни	-10.5808
▁силна	-10.5812
▁реакция	-10.5814
▁херцог	-10.5814
▁наименуван	-10.5814
▁редактор	-10.5814
ck	-10.5815
▁краища	-10.5815
▁огън	-10.5816
▁котел	-10.5817
бул	-10.5819
▁свещ	-10.5821
▁определена	-10.5823
▁пилот	-10.5825
▁=	-10.5825
свещен	-10.5829
дос	-10.5833
съд	-10.5834
▁пече	-10.5837
▁оон	-10.5838
▁карлово	-10.5841
инска	-10.5853
▁богатство	-10.5854
▁падат	-10.5858
▁етимология	-10.5862
▁различна	-10.5862
▁превоз	-10.5864
▁романа	-10.5871
защитни	-10.5896
▁лева	-10.5896
сек	-10.5903
▁франц	-10.5903
tu	-10.5904
бела	-10.5909
▁джеймс	-10.591
▁апк	-10.5911
ху	-10.5913
▁растение	-10.593
▁албума	-10.5938
▁махалата	-10.5939
▁родителите	-10.5941
далече	-10.5945
▁избухва	-10.5948
▁готов	-10.5949
раст	-10.5951
▁останал	-10.5952
кро	-10.5952
кола	-10.5957
▁понастоящем	-10.5958
▁централния	-10.5958
▁историци	-10.5958
▁обширни	-10.5958
▁сигнал	-10.596
▁4-	-10.5961
▁постоянни	-10.5962
▁пър	-10.5963
▁дрен	-10.5964
производство	-10.5965
▁червено	-10.5971
▁младите	-10.5975
степ	-10.5976
ue	-10.5976
видни	-10.5977
▁риба	-10.5977
▁българският	-10.5978
стоящ	-10.5988
▁крак	-10.5989
▁куб	-10.599
лагане	-10.599
▁установяват	-10.5995
иван	-10.5996
▁бившия	-10.5997
▁вкус	-10.5998
близко	-10.6005
▁същевременно	-10.6006
▁медицински	-10.6006
▁човешко	-10.6007
▁ориентира	-10.6007
▁развито	-10.6008
▁известния	-10.6011
bi	-10.6013
ковска	-10.6015
▁характерно	-10.6018
▁започнал	-10.6025
▁борби	-10.6025
▁стая	-10.6027
уел	-10.6032
през	-10.6034
▁фактори	-10.6034
▁брег	-10.6035
плод	-10.6036
ad	-10.6045
▁монастир	-10.6055
▁казанлък	-10.6055
▁албания	-10.6055
▁културна	-10.6055
▁партията	-10.6055
▁стъкло	-10.6056
качествен	-10.6057
нието	-10.6059
▁накрая	-10.606
етнография	-10.6061
▁ранна	-10.6063
▁кочан	-10.6066
▁различен	-10.6066
▁хълмиста	-10.6067
em	-10.6069
преди	-10.6072
фан	-10.6072
▁преподавател	-10.6074
▁намаляване	-10.6074
▁данъч	-10.6075
вре	-10.609
▁купа	-10.609
▁меди	-10.6092
▁извора	-10.6093
▁местно	-10.6095
▁покрива	-10.6098
▁оглавява	-10.6103
▁рекорд	-10.6104
▁духа	-10.6104
съгласие	-10.6105
▁поставят	-10.6106
▁спуска	-10.6108
хово	-10.6109
▁бъдеще	-10.6113
▁1911	-10.6114
▁труда	-10.6122
▁бяло	-10.6125
▁бого	-10.6129
▁облик	-10.6132
▁личност	-10.6138
▁стените	-10.6144
▁играч	-10.6149
▁жилищни	-10.6152
▁азбука	-10.6152
▁православен	-10.6152
▁употребява	-10.6152
▁осъден	-10.6153
▁кулата	-10.6153
фра	-10.6153
▁гала	-10.6154
▁живял	-10.6155
▁татар	-10.6156
▁отразяваща	-10.6161
▁завива	-10.6161
▁напояване	-10.6162
▁лъв	-10.6163
▁75	-10.6166
▁турне	-10.6167
рих	-10.6167
▁страда	-10.6172
▁контра	-10.6173
▁контролира	-10.6177
▁(5	-10.6179
▁пази	-10.6186
▁средец	-10.6191
▁лук	-10.6193
▁факта	-10.6197
▁ветр	-10.6199
рю	-10.6199
▁ограничава	-10.6202
▁сребърни	-10.6202
▁явление	-10.6202
карва	-10.6203
▁развита	-10.6206
▁андрей	-10.6208
▁заселва	-10.6215
▁мюсюлманско	-10.6217
▁полза	-10.6221
▁китайски	-10.6222
▁масиви	-10.6225
бек	-10.6225
▁прираст	-10.6225
▁тона	-10.6227
▁заети	-10.6228
▁светлината	-10.6228
▁противник	-10.6231
изацията	-10.6244
▁височината	-10.6247
▁леви	-10.625
▁социално	-10.6251
▁автомат	-10.626
▁водени	-10.6265
▁младежи	-10.6271
▁спомени	-10.6271
▁априлското	-10.6274
ний	-10.6276
̀р	-10.6277
▁необходими	-10.6279
▁насочва	-10.6282
▁терена	-10.6288
▁свързват	-10.6289
▁чар	-10.6292
▁съставен	-10.6295
▁названието	-10.6296
тина	-10.6296
▁случва	-10.6301
▁доказва	-10.6301
▁20-	-10.6304
▁прохода	-10.6307
▁войските	-10.6307
▁илиев	-10.6316
родните	-10.6321
▁понятието	-10.6322
▁записан	-10.6323
▁бронзов	-10.6324
бъл	-10.6334
▁изселват	-10.6336
▁победител	-10.6337
▁изграждане	-10.6338
▁коло	-10.6339
▁радо	-10.6342
▁атмосфер	-10.6344
▁милион	-10.6347
бог	-10.6347
▁многократно	-10.6351
▁православно	-10.6351
▁вътрешността	-10.6352
▁герой	-10.6352
▁осъм	-10.6354
врат	-10.6363
▁кинг	-10.6365
▁ферм	-10.637
▁електрони	-10.6376
два	-10.6385
сим	-10.6388
▁елин	-10.6388
pi	-10.639
▁растеж	-10.6391
тий	-10.6395
силен	-10.6401
▁партизани	-10.6401
▁грижи	-10.6402
▁сръбска	-10.6408
▁черти	-10.6408
▁cm	-10.6409
напред	-10.641
▁седмици	-10.6413
десен	-10.642
▁хол	-10.6421
ica	-10.6421
▁фрагменти	-10.6422
▁древност	-10.6426
фу	-10.6429
▁общинска	-10.6432
▁малките	-10.6434
▁кули	-10.6435
▁бреговете	-10.6438
▁сформира	-10.6442
▁2,5	-10.6444
▁преживява	-10.6452
▁отстъпва	-10.6453
▁наблюдават	-10.6457
9%	-10.6458
▁произведение	-10.6458
▁киев	-10.6464
тичен	-10.6465
▁преобладава	-10.6466
▁кари	-10.6467
▁абсолют	-10.6468
▁строи	-10.6472
добър	-10.6474
▁непрекъснато	-10.6475
▁кьо	-10.6476
▁следват	-10.6481
▁скотовъдство	-10.6481
▁живи	-10.6483
▁конституцията	-10.6487
▁40-	-10.6491
▁представени	-10.6492
ковица	-10.6494
▁средиземно	-10.6495
▁дупница	-10.6502
▁дървени	-10.6502
▁федерал	-10.6502
▁костадин	-10.6503
▁мека	-10.6505
▁падеж	-10.6505
▁полето	-10.6505
▁кош	-10.6508
▁уеб	-10.651
▁родени	-10.6511
били	-10.6513
ткзс	-10.6518
▁акад	-10.6521
истични	-10.6523
▁събиране	-10.6523
ьово	-10.6523
man	-10.653
тича	-10.6532
▁нощта	-10.6536
▁48	-10.6542
▁мачове	-10.6547
▁северозападната	-10.6548
▁допълнително	-10.6549
▁омуртаг	-10.6553
▁софтуер	-10.6553
▁огромна	-10.6553
▁салоника	-10.6555
▁обикновена	-10.6557
уб	-10.6558
▁отбеляза	-10.6563
известен	-10.6567
▁корени	-10.6571
▁заряд	-10.6574
▁хисар	-10.6576
фик	-10.6577
▁1860	-10.6582
запад	-10.6584
▁(6	-10.6587
▁историко	-10.6588
▁мерки	-10.6599
▁полага	-10.6601
телите	-10.6601
чино	-10.6602
▁патри	-10.6602
▁вътрешно	-10.6604
▁стамболийски	-10.6605
▁галерия	-10.6605
▁повишава	-10.6605
▁посочени	-10.6605
▁жилища	-10.6605
▁глинени	-10.6605
▁разделена	-10.6613
▁(8	-10.6617
ньов	-10.6618
пул	-10.6619
▁турчин	-10.662
▁конституция	-10.662
▁малката	-10.6621
▁граматика	-10.6629
▁татари	-10.6634
▁функционират	-10.6635
▁шум	-10.6636
ja	-10.6637
помогн	-10.665
▁археолози	-10.6656
▁почивка	-10.6656
▁споделя	-10.6656
▁находища	-10.6656
▁версии	-10.6657
▁търсене	-10.6657
▁единственото	-10.6658
▁проучване	-10.6666
▁психология	-10.6666
▁населява	-10.6666
▁кръстен	-10.6667
шел	-10.6669
▁общия	-10.6672
▁световно	-10.6676
студен	-10.6677
▁програмата	-10.6677
▁залива	-10.6677
▁1894	-10.6678
▁правото	-10.6681
▁лозарство	-10.6683
▁минавал	-10.6686
ko	-10.6693
▁примери	-10.6695
чното	-10.6699
ae	-10.6701
старо	-10.6703
▁доказателства	-10.6708
▁шишман	-10.6708
▁растителни	-10.6708
▁гробища	-10.6708
▁посредств	-10.6709
▁вземат	-10.6709
▁дивизия	-10.6709
изиран	-10.6711
▁победата	-10.6711
богат	-10.6711
▁орех	-10.6714
▁изпълнение	-10.6718
рум	-10.6724
▁пренася	-10.6726
потреб	-10.6727
▁47	-10.6731
▁шу	-10.6735
▁финала	-10.6736
▁югоизточната	-10.6737
▁библиотеката	-10.6738
▁видят	-10.6743
▁вероятност	-10.6752
▁куче	-10.6757
▁политическата	-10.676
▁желязна	-10.676
▁водопровод	-10.6761
▁софийския	-10.6761
we	-10.6762
стоян	-10.6762
lu	-10.6763
▁название	-10.6766
▁увеличаване	-10.677
▁заменен	-10.6777
ed	-10.6784
▁зелен	-10.6787
▁момин	-10.6792
▁кора	-10.6795
ровка	-10.6797
▁идеал	-10.6802
хем	-10.6812
▁монархия	-10.6812
▁явления	-10.6813
▁широколистни	-10.6813
▁картофи	-10.6813
▁организми	-10.6813
▁беларус	-10.6813
▁отвъд	-10.6814
▁1909	-10.6819
чене	-10.6822
чеството	-10.6823
▁крайбреж	-10.6829
словен	-10.683
▁компания	-10.683
ns	-10.6835
▁младеж	-10.6836
физ	-10.6836
▁основават	-10.684
орган	-10.6843
▁мини	-10.6843
изирана	-10.6848
▁шах	-10.6854
чия	-10.6854
▁характерна	-10.6855
чув	-10.6856
▁разрушена	-10.6856
▁180	-10.6861
sh	-10.6863
▁доказателство	-10.6865
▁официална	-10.6865
▁пясъчни	-10.6865
▁молдова	-10.6865
бес	-10.6865
▁класическа	-10.6866
▁хенри	-10.6867
▁владения	-10.6867
▁президентът	-10.6868
▁реформа	-10.6869
▁процеса	-10.6871
▁днешно	-10.6871
▁полиция	-10.6873
▁бойни	-10.6874
▁претърпява	-10.6876
▁1915	-10.6877
структур	-10.6877
▁народа	-10.6878
▁кафе	-10.6882
▁главните	-10.6882
▁пелин	-10.6884
▁сортове	-10.6885
▁къп	-10.6888
▁1896	-10.6891
▁недалеч	-10.6892
▁ефекти	-10.6894
▁моста	-10.6895
▁данъчни	-10.6896
анс	-10.6898
▁писателя	-10.6899
▁измерва	-10.6902
▁вяра	-10.6903
▁склоновете	-10.6909
▁баир	-10.691
отворен	-10.6911
дук	-10.6911
▁кока	-10.6912
лец	-10.6915
▁широки	-10.6917
▁иконостас	-10.6918
▁микроязовир	-10.6918
▁просъществува	-10.6918
▁състезание	-10.6918
▁разнообразни	-10.6918
▁чувства	-10.6918
▁стотици	-10.6918
▁заведения	-10.6918
▁древен	-10.6918
▁златен	-10.6919
▁задачи	-10.6919
▁преместен	-10.6922
▁(14	-10.6929
▁изключител	-10.6931
▁оказват	-10.6932
▁множеството	-10.6938
▁президента	-10.6939
▁так	-10.6944
▁етническа	-10.6947
▁подписан	-10.695
▁противо	-10.6953
▁антично	-10.6957
▁религията	-10.6959
красив	-10.6962
пустин	-10.6968
▁спре	-10.6972
▁допълнителни	-10.6973
▁болни	-10.6978
▁лок	-10.6979
беле	-10.6979
▁настоятелство	-10.698
▁кооперацията	-10.6987
▁стража	-10.6988
▁турския	-10.6991
годишно	-10.6992
▁разширен	-10.6992
▁завет	-10.6992
▁мъж	-10.6993
▁висше	-10.6997
ver	-10.7016
▁ръцете	-10.7022
▁съвременно	-10.7025
▁изработен	-10.7025
▁паисий	-10.7025
▁читалищна	-10.7025
▁капацитет	-10.7025
▁вещество	-10.7025
съюзническата	-10.7025
▁налягане	-10.7025
▁жив	-10.7025
▁католически	-10.7025
▁xiii	-10.7027
▁дарения	-10.7027
▁промишлени	-10.7029
▁понеже	-10.703
▁младежки	-10.7033
ствено	-10.7034
лиев	-10.7034
опит	-10.7045
▁екзархия	-10.7052
▁производител	-10.7055
▁учение	-10.7056
▁тенис	-10.706
труд	-10.7069
▁болести	-10.7072
▁физически	-10.7079
▁трасето	-10.7079
▁мадона	-10.7079
▁обработваема	-10.708
▁машина	-10.708
▁склад	-10.7081
▁насочен	-10.7085
истки	-10.7086
▁1901	-10.7086
▁тегло	-10.7089
▁ага	-10.709
християни	-10.71
▁селищата	-10.7104
▁траки	-10.7107
▁отправя	-10.7109
ференц	-10.7111
▁(7	-10.7111
▁кат	-10.7114
▁прости	-10.7116
мън	-10.7117
▁широк	-10.7118
▁общности	-10.7122
▁математика	-10.7126
овият	-10.7128
▁либерал	-10.7129
▁сюжет	-10.7133
▁бяха	-10.7133
▁повлиян	-10.7133
▁прекратява	-10.7133
▁издания	-10.7133
▁гледна	-10.7134
▁кому	-10.7137
▁книж	-10.7139
▁заем	-10.7142
▁говеда	-10.7143
▁ha	-10.7146
▁владение	-10.7147
▁преобладаващо	-10.7152
например	-10.7156
▁моно	-10.7158
рък	-10.7158
▁1890	-10.7161
▁решения	-10.7161
▁подредени	-10.7165
евска	-10.7169
▁колеж	-10.7183
▁инструменти	-10.7186
▁студ	-10.7186
▁клин	-10.7187
▁юлианския	-10.7187
▁теоретич	-10.7187
▁желязо	-10.7188
▁панаир	-10.7188
ляне	-10.719
▁средище	-10.719
руд	-10.7195
▁строителство	-10.7195
▁споменат	-10.7197
▁османския	-10.7204
▁вир	-10.721
▁континентален	-10.7214
▁рибар	-10.7218
▁псих	-10.7221
лери	-10.7227
▁разделят	-10.7231
▁нар	-10.7235
“;	-10.7237
▁шарл	-10.724
▁спасов	-10.7241
▁базилика	-10.7242
▁нидерландия	-10.7247
▁дела	-10.7253
леви	-10.7254
▁напускат	-10.7256
ографски	-10.7257
▁"(	-10.7259
▁василев	-10.726
▁серия	-10.7261
▁главни	-10.7262
▁1882	-10.7263
▁съставено	-10.7266
близки	-10.7266
▁брод	-10.727
▁ръководи	-10.7278
ii	-10.7279
▁науките	-10.7289
▁лам	-10.7294
▁взаимодействие	-10.7296
▁стопани	-10.7297
▁направление	-10.7297
▁характеристика	-10.7297
▁легион	-10.7298
общ	-10.73
▁запис	-10.7302
▁астроном	-10.7303
линг	-10.7303
▁писменост	-10.7305
▁птиците	-10.7314
рах	-10.7323
▁излизат	-10.7323
▁ядрото	-10.7323
▁1895	-10.7327
▁настанява	-10.7327
▁злати	-10.7334
▁руси	-10.7342
▁перу	-10.7344
▁подход	-10.7349
▁норвегия	-10.7352
▁църковна	-10.7352
▁минимум	-10.7352
▁случая	-10.7352
▁оръжие	-10.7352
▁патриарх	-10.7352
▁постройки	-10.7352
▁босна	-10.7354
▁доклад	-10.7355
▁музикант	-10.7358
▁познава	-10.736
▁обучението	-10.7363
ализъм	-10.7368
▁роби	-10.7373
▁днешната	-10.7374
житни	-10.7376
▁пристигат	-10.7377
▁обор	-10.7378
върб	-10.7378
▁активни	-10.7382
сип	-10.7383
▁източното	-10.7386
▁разширение	-10.7387
▁виждат	-10.7388
-1	-10.7393
тул	-10.74
ций	-10.7403
▁див	-10.7406
▁предизвика	-10.7407
▁принуждава	-10.7407
▁обикаля	-10.7407
▁централно	-10.7407
▁юнеско	-10.7407
▁диаметър	-10.7408
▁поглед	-10.7409
пеш	-10.741
▁si	-10.741
поле	-10.7413
▁трифон	-10.7416
▁ръководство	-10.7417
▁доход	-10.7419
нез	-10.742
▁любен	-10.7422
систем	-10.7426
▁сухи	-10.7428
▁душа	-10.7428
вилаетите	-10.7446
▁130	-10.7451
▁загиват	-10.7453
подходящ	-10.7458
▁алкохол	-10.7463
▁компютри	-10.7463
▁митрополия	-10.7463
▁категория	-10.7463
▁миграция	-10.7463
▁молекули	-10.7463
▁стълб	-10.7463
▁надгробни	-10.7463
▁копривщица	-10.7464
▁шосето	-10.7464
▁баб	-10.7465
▁селце	-10.7466
▁завършил	-10.7466
шир	-10.7469
▁сталин	-10.747
▁бърдо	-10.747
▁противоречи	-10.7473
▁квартали	-10.7473
▁селско	-10.7478
▁политическите	-10.7482
зин	-10.7482
▁младо	-10.7482
▁велика	-10.7484
точно	-10.7484
▁1884	-10.7485
▁1883	-10.7486
up	-10.7486
▁ранно	-10.7486
георги	-10.7492
bu	-10.7492
ru	-10.75
▁кримск	-10.7506
▁улици	-10.7506
▁веднъж	-10.7508
▁традиционни	-10.7513
▁традиционен	-10.7519
▁разрушава	-10.7519
▁търговска	-10.7519
▁благоприятни	-10.752
▁конаре	-10.752
бавен	-10.7521
▁камено	-10.7522
▁бележи	-10.7523
сол	-10.7525
▁спазва	-10.7527
▁бег	-10.7534
▁площада	-10.7536
▁описани	-10.7536
▁глад	-10.7536
хр	-10.7539
шков	-10.7542
▁проекти	-10.7543
▁подава	-10.7545
im	-10.7547
[	-10.7548
▁1500	-10.7551
чевци	-10.7551
▁cd	-10.7555
средиземноморски	-10.7557
▁хели	-10.7561
▁критика	-10.7566
малък	-10.7568
пели	-10.7572
зон	-10.7574
▁забелязва	-10.7576
▁самостоятелна	-10.7576
▁фридрих	-10.7576
▁художници	-10.7576
▁бистрица	-10.7576
▁участник	-10.7576
▁xii	-10.7576
▁преобладаващи	-10.7576
▁значителен	-10.7577
▁японски	-10.7577
▁теории	-10.7577
▁австро	-10.7577
▁наблизо	-10.7581
▁българин	-10.7583
тис	-10.7586
▁бала	-10.7586
струм	-10.7588
рог	-10.7591
▁слово	-10.7592
гови	-10.7593
▁свръх	-10.7595
▁христос	-10.7599
▁тъкан	-10.7602
▁главна	-10.7603
▁свине	-10.7604
льов	-10.7607
▁жел	-10.7609
▁марков	-10.7609
▁типични	-10.7611
▁реализира	-10.7614
▁симеонов	-10.7623
▁храмове	-10.7623
▁рей	-10.7629
▁собствен	-10.7629
чести	-10.7631
▁спечелва	-10.7633
▁тенденция	-10.7633
▁актриса	-10.7633
▁поколение	-10.7633
▁пиеси	-10.7633
▁възможността	-10.7633
▁тетевен	-10.7633
провод	-10.7639
▁1904	-10.7641
слад	-10.7641
▁дълбоки	-10.7642
▁преведе	-10.7661
▁завръщането	-10.7662
цикл	-10.7665
▁офицер	-10.7665
▁бащи	-10.7667
▁командва	-10.7669
▁селския	-10.7674
чове	-10.7675
▁желез	-10.7683
▁телевизион	-10.7684
▁възникнало	-10.7689
▁мездра	-10.769
▁специфични	-10.769
▁фамилии	-10.769
▁владислав	-10.769
▁румънска	-10.769
▁близкото	-10.7691
▁маджар	-10.7691
▁купува	-10.7695
▁студен	-10.7699
ha	-10.7701
▁банка	-10.7703
tr	-10.7711
▁предлагат	-10.7715
▁1899	-10.7719
високият	-10.7723
▁дис	-10.7734
▁платото	-10.7735
▁краля	-10.7746
▁действащ	-10.7747
▁помещения	-10.7747
▁спомага	-10.7747
▁сюлейман	-10.7747
▁формула	-10.7747
▁отначало	-10.7747
▁робърт	-10.7747
▁пери	-10.7749
▁оруел	-10.7749
габров	-10.7752
▁убива	-10.7756
▁1917	-10.7759
▁разговор	-10.7763
▁причината	-10.7767
логически	-10.7768
▁чудо	-10.7774
▁350	-10.7779
далеч	-10.7781
▁ix	-10.7782
▁приеме	-10.7785
▁историческо	-10.7786
▁славяните	-10.7787
▁ъгъл	-10.7798
▁култ	-10.7801
▁математически	-10.7805
▁потвърждава	-10.7805
▁практически	-10.7805
▁ресторант	-10.7805
▁хранене	-10.7805
▁започнат	-10.7805
▁течения	-10.7805
▁издател	-10.7805
старата	-10.7806
▁разпределен	-10.7808
▁вижте	-10.7808
▁габър	-10.7809
▁природна	-10.781
▁театрал	-10.7814
▁оу	-10.782
▁строителни	-10.7821
▁историк	-10.7824
▁авто	-10.7827
▁играл	-10.7833
▁гробище	-10.7837
▁минават	-10.7838
комунисти	-10.7838
▁мощност	-10.7838
▁белица	-10.784
варна	-10.784
▁чуждестранни	-10.7846
мид	-10.785
▁носещ	-10.785
▁поставена	-10.7852
▁континента	-10.7855
▁четирите	-10.7862
▁бунюел	-10.7863
▁посещение	-10.7863
▁рожден	-10.7864
▁изписва	-10.7865
▁равна	-10.7865
▁арх	-10.7866
▁помежду	-10.7866
▁разрушени	-10.7866
▁узун	-10.7866
▁представи	-10.7867
▁ръкопис	-10.787
сух	-10.7871
▁върне	-10.7871
▁засилва	-10.7874
▁ковачев	-10.7881
добра	-10.7882
▁лв	-10.7883
▁соли	-10.7884
▁снима	-10.7886
▁специалисти	-10.7886
▁завършена	-10.7887
ектор	-10.7888
▁терминът	-10.7889
ix	-10.789
общо	-10.7891
▁кожа	-10.7891
▁бръ	-10.7895
▁регистрира	-10.7895
▁жанр	-10.79
устро	-10.7906
▁ученик	-10.7907
само	-10.7909
валя	-10.791
▁ma	-10.7914
▁американския	-10.7918
▁демокрация	-10.7922
▁затлъстяване	-10.7922
▁кладенци	-10.7922
▁витоша	-10.7922
▁модерна	-10.7922
▁дипломатически	-10.7923
▁балкана	-10.7929
▁студенти	-10.7932
▁пещ	-10.794
▁съхранен	-10.7941
▁балкански	-10.7943
▁филмът	-10.7943
▁ca	-10.7946
▁раб	-10.7946
▁сериал	-10.7946
ационен	-10.7947
▁тал	-10.7951
▁учредено	-10.7952
между	-10.7955
▁решават	-10.7957
▁параклиса	-10.796
▁участници	-10.7967
▁руен	-10.7976
край	-10.7979
▁задължително	-10.7981
▁свиленград	-10.7981
▁двойки	-10.7981
▁дрехи	-10.7981
▁оформен	-10.7981
▁отстранява	-10.7981
▁позиции	-10.7981
калето	-10.7982
▁износ	-10.7982
▁коприв	-10.7983
▁американската	-10.7986
▁нападение	-10.7986
▁темп	-10.7988
▁нуждите	-10.7988
ьовци	-10.799
кън	-10.7993
▁антична	-10.7994
▁балканските	-10.8001
ляк	-10.8004
ex	-10.802
▁вила	-10.8032
▁цон	-10.8032
▁допуска	-10.8034
▁архитект	-10.8036
▁160	-10.8039
▁петербург	-10.804
▁практикува	-10.804
▁провадия	-10.804
▁факултет	-10.804
▁милиарда	-10.804
▁въглерод	-10.804
▁пиеса	-10.804
▁прояви	-10.8042
▁тежка	-10.8042
▁взаимно	-10.8045
▁кала	-10.8049
▁театрална	-10.805
▁щаб	-10.8059
▁буш	-10.8062
▁1886	-10.8066
▁1887	-10.8067
▁изписан	-10.8069
▁разтвор	-10.8073
▁трето	-10.8074
▁хас	-10.808
ализация	-10.8081
▁нерон	-10.8085
▁посети	-10.8088
▁корона	-10.8093
▁краище	-10.8096
▁разпределение	-10.8097
горнотракийската	-10.8099
конституцион	-10.8099
▁аржентина	-10.8099
▁колумб	-10.8099
▁състезава	-10.8099
▁работещ	-10.8099
▁огоста	-10.8099
▁нашествие	-10.8099
odice	-10.8099
правителствен	-10.81
▁определи	-10.81
▁кут	-10.8101
les	-10.8104
▁сватба	-10.8105
▁осветена	-10.8109
▁студент	-10.8112
▁скулптура	-10.8116
▁бокс	-10.8123
con	-10.8126
▁грозде	-10.8136
▁силен	-10.8136
зелен	-10.8137
▁здравна	-10.8138
географска	-10.8139
▁германска	-10.8141
▁бърз	-10.8146
▁ръко	-10.8147
▁активна	-10.8151
▁равен	-10.8153
▁живеещи	-10.8153
▁шампионат	-10.8154
граничен	-10.8156
слънце	-10.8158
▁въздействие	-10.8159
▁експедиция	-10.8159
▁иглолистни	-10.8159
▁съществителни	-10.8159
▁разгром	-10.8159
▁верига	-10.816
▁статии	-10.816
▁научава	-10.816
▁клетки	-10.8161
вор	-10.8162
▁ръжево	-10.8163
▁никой	-10.8163
▁изиграва	-10.8164
▁супер	-10.8166
бяг	-10.8166
▁1902	-10.8167
▁електрифицирано	-10.8173
никът	-10.8179
▁1871	-10.8185
▁законодател	-10.819
▁югозападната	-10.8196
▁плава	-10.8196
▁директно	-10.8201
▁колев	-10.8204
▁идея	-10.8205
▁жито	-10.8206
▁натиск	-10.8209
логия	-10.8211
▁windows	-10.8219
▁свободни	-10.8219
▁убийство	-10.8219
▁брезник	-10.8219
▁постоянен	-10.822
▁гъби	-10.822
▁обществена	-10.8222
▁интересни	-10.8225
хожда	-10.8225
▁паметника	-10.8225
▁значението	-10.8228
▁тясно	-10.8229
▁сцени	-10.8232
шия	-10.8235
▁бащата	-10.8238
▁представена	-10.8248
▁гранит	-10.8251
▁императора	-10.8254
хор	-10.8261
▁речни	-10.8268
▁божур	-10.8279
▁англичани	-10.828
▁дружина	-10.828
▁компании	-10.828
▁централен	-10.828
▁фураж	-10.828
▁обсада	-10.828
▁върбица	-10.8282
мос	-10.8283
▁резерв	-10.8284
▁бсп	-10.8285
▁подземни	-10.8286
▁теми	-10.8288
▁алън	-10.829
▁дейци	-10.8292
▁възраждане	-10.8294
▁обявено	-10.8295
▁провал	-10.8297
▁дим	-10.8312
▁долното	-10.8312
▁установени	-10.8313
▁сборник	-10.8316
▁пиер	-10.8317
▁мурад	-10.8319
▁седми	-10.8335
грабен	-10.8336
▁комунистическия	-10.8338
▁изображения	-10.8341
▁октавиан	-10.8341
▁геометрия	-10.8341
▁централните	-10.8341
▁книжовен	-10.8341
▁феодал	-10.8341
▁плътност	-10.8342
▁принудени	-10.8351
▁драган	-10.8351
▁горско	-10.8354
▁стопанството	-10.8356
▁пътуване	-10.8356
▁бира	-10.8357
големия	-10.8358
▁женен	-10.8359
▁1897	-10.8367
▁отделно	-10.8368
▁канали	-10.8374
▁футболист	-10.8375
▁свободата	-10.8376
▁медии	-10.8377
пря	-10.8381
▁математиката	-10.8382
▁популярна	-10.8391
▁вътрешни	-10.8392
▁принц	-10.8393
▁куман	-10.8395
учени	-10.8398
▁родния	-10.84
▁изчезнал	-10.8402
▁унищожава	-10.8402
▁оръжия	-10.8402
▁опазване	-10.8402
▁тържествено	-10.8403
▁могл	-10.8411
▁автомобили	-10.8418
рук	-10.844
▁роли	-10.8445
500	-10.8447
раш	-10.8452
▁отпада	-10.846
▁представяне	-10.8461
▁леон	-10.8463
▁ниска	-10.8463
▁павароти	-10.8464
▁присъединено	-10.8464
▁разработен	-10.8464
▁хвърля	-10.8464
▁напрежение	-10.8464
▁граждански	-10.8465
▁течност	-10.8465
▁цял	-10.8466
брав	-10.8468
▁полезни	-10.8469
ts	-10.847
▁добър	-10.8472
▁певица	-10.8474
лем	-10.8478
▁християнско	-10.8482
▁офицери	-10.8491
▁изследовател	-10.8492
▁харманли	-10.8497
маш	-10.8501
ръм	-10.8502
▁1850	-10.8503
▁летните	-10.8513
▁богове	-10.8518
▁наградата	-10.852
▁стойности	-10.8521
fi	-10.8522
гръцка	-10.8523
▁ридове	-10.8526
▁поети	-10.8526
▁специална	-10.8526
▁фишер	-10.8526
▁гледка	-10.8527
▁таблица	-10.8527
▁считат	-10.8529
▁вестници	-10.853
▁орбита	-10.853
sp	-10.8537
▁слънчеви	-10.854
марк	-10.8541
▁планове	-10.8543
▁истински	-10.8549
▁ключов	-10.855
▁писане	-10.855
▁1892	-10.8551
▁1866	-10.8551
▁синът	-10.8552
▁същите	-10.8553
▁създаде	-10.8554
▁рег	-10.8555
▁финансови	-10.8559
корен	-10.856
▁нси	-10.8568
▁мостове	-10.8571
▁скоростта	-10.8573
ьон	-10.858
▁минерална	-10.8581
▁заместник	-10.8589
▁изработва	-10.8589
▁конструкция	-10.8589
▁отклонение	-10.8589
▁чаплин	-10.8589
▁ардино	-10.8589
импер	-10.8589
▁ливада	-10.8589
▁френско	-10.8589
▁строена	-10.8592
▁волейбол	-10.8593
▁пощенски	-10.8593
▁големият	-10.8594
▁свое	-10.8596
▁произведен	-10.8599
▁вътрешните	-10.86
▁типове	-10.86
зад	-10.86
▁караджа	-10.8602
▁хайд	-10.8606
▁трап	-10.8613
▁1869	-10.8615
▁изпит	-10.8619
▁концерти	-10.862
кула	-10.8622
▁компанията	-10.863
▁мм	-10.8644
юк	-10.8645
ry	-10.8647
▁аристотел	-10.8652
▁коалиция	-10.8652
▁мрежи	-10.8652
▁държи	-10.8652
▁сражение	-10.8652
▁ястия	-10.8652
▁търновски	-10.8652
▁веселин	-10.8653
▁книжовни	-10.8653
▁миналия	-10.8654
мисля	-10.8654
обилни	-10.8654
▁музеи	-10.8656
▁расте	-10.8658
спор	-10.8658
▁катал	-10.8658
▁южен	-10.8659
▁активност	-10.8659
▁пътека	-10.866
▁възгледи	-10.8661
гъл	-10.8665
▁съществуване	-10.8665
▁третия	-10.8666
ложни	-10.8667
▁максим	-10.8672
▁колония	-10.8676
▁1889	-10.8679
▁митология	-10.8682
върли	-10.8687
▁строежът	-10.8689
▁валеж	-10.8689
▁местна	-10.8691
▁подложен	-10.8695
▁главният	-10.8696
чик	-10.8697
▁предбалкана	-10.8697
високи	-10.8699
пловдив	-10.8702
▁осветен	-10.8704
▁завладява	-10.8705
▁изгрев	-10.8712
▁st	-10.8714
▁менделеев	-10.8715
▁постижения	-10.8715
▁цивилизация	-10.8715
▁скандал	-10.8715
▁свещеници	-10.8715
▁оценява	-10.8715
▁гъстота	-10.8716
▁коридор	-10.8716
▁комунистически	-10.8717
▁състоящ	-10.8719
местен	-10.8722
изиране	-10.8723
▁чума	-10.8725
▁освобождава	-10.8728
▁риск	-10.8734
▁доминира	-10.8735
100	-10.8739
освободител	-10.874
="9	-10.8741
▁луда	-10.8741
▁кога	-10.8741
▁остри	-10.8746
▁профил	-10.8748
▁отбелязано	-10.8752
▁европейска	-10.8756
▁вярата	-10.8757
▁колонии	-10.876
▁палат	-10.8762
▁региони	-10.8762
▁написан	-10.8765
реал	-10.877
▁нужди	-10.877
▁вероизповедания	-10.8778
▁междувременно	-10.8778
▁свободна	-10.8778
▁политическо	-10.8779
▁логика	-10.8779
▁изобразен	-10.8779
▁псевдоним	-10.8779
▁направена	-10.878
▁преселва	-10.8784
su	-10.8787
▁останало	-10.8788
▁завзема	-10.8789
com	-10.8789
▁талант	-10.879
населен	-10.8795
▁аналог	-10.8795
▁революционер	-10.8802
▁стихове	-10.8802
▁коледа	-10.8806
▁1898	-10.881
▁образувано	-10.8814
▁тяло	-10.8815
▁набези	-10.8817
▁братята	-10.882
▁рът	-10.882
▁руини	-10.8821
▁пещер	-10.8822
фир	-10.8824
нчов	-10.8827
▁живеели	-10.8828
▁превежда	-10.8835
▁образуването	-10.8836
бей	-10.884
der	-10.8841
познат	-10.8841
▁кислород	-10.8843
▁велосипед	-10.8843
▁мюнхен	-10.8843
▁панайот	-10.8843
▁ричард	-10.8843
▁различия	-10.8843
іі	-10.8843
▁избягва	-10.8843
▁икона	-10.8843
▁забранен	-10.8843
▁сръбско	-10.8846
▁руска	-10.8848
▁кръстонос	-10.8851
пуст	-10.886
▁традиционните	-10.8861
270	-10.8868
▁посреща	-10.8868
▁насам	-10.8869
ip	-10.8869
▁вокал	-10.8869
▁починал	-10.8872
▁военната	-10.8872
▁речник	-10.8875
▁славянските	-10.8878
▁третият	-10.8879
▁представен	-10.8889
морска	-10.8893
▁вълни	-10.8903
▁читалища	-10.8907
▁изчислен	-10.8907
ливърпул	-10.8907
▁созопол	-10.8907
▁катерина	-10.8907
▁нападения	-10.8907
▁бенковски	-10.8908
▁карстови	-10.8908
божествен	-10.8909
▁постоянна	-10.8909
▁словенски	-10.8915
▁средиземноморск	-10.8922
▁необходимо	-10.8924
▁рязко	-10.8926
▁предишни	-10.8927
▁цвета	-10.8931
▁възстановена	-10.8932
▁ветрен	-10.8938
▁разпада	-10.8946
▁публика	-10.8947
▁студени	-10.8952
▁разклон	-10.8954
дълго	-10.8957
▁лука	-10.8959
популярни	-10.8962
▁началник	-10.8963
▁половин	-10.8963
▁открития	-10.897
▁употребата	-10.897
▁изключен	-10.8971
▁140	-10.8971
▁земетресение	-10.8972
▁първенец	-10.8972
▁традиционна	-10.8972
▁качества	-10.8972
▁бвп	-10.8972
▁постройка	-10.8973
▁морско	-10.8974
ливадни	-10.8976
заим	-10.898
▁магазини	-10.8981
▁водоснабдяване	-10.8982
▁кирилица	-10.8985
мохамедани	-10.8987
▁учат	-10.8988
▁причините	-10.8997
gra	-10.9004
▁синтез	-10.9006
▁форт	-10.9009
▁типа	-10.9011
▁регионални	-10.9011
прочут	-10.902
▁едноименния	-10.9021
▁лос	-10.903
дунав	-10.903
българи	-10.9034
▁дебют	-10.9035
▁охридски	-10.9036
▁изображение	-10.9037
▁наблюдения	-10.9037
▁португалски	-10.9037
▁прехвърля	-10.9037
▁хемингуей	-10.9037
▁конференция	-10.9037
▁надежда	-10.9039
▁състоял	-10.9039
▁играчи	-10.904
▁монарх	-10.904
▁слой	-10.9041
▁viii	-10.9042
▁свири	-10.9046
▁предаване	-10.905
▁венеция	-10.9052
▁дъното	-10.906
▁публиката	-10.906
▁агне	-10.9063
мъж	-10.9064
▁риби	-10.9065
▁съз	-10.9068
▁съветска	-10.9074
▁качеството	-10.9083
▁гласи	-10.9084
▁жител	-10.9092
розов	-10.9096
▁фактор	-10.91
▁дамян	-10.9101
▁приета	-10.9101
▁обрат	-10.9102
близката	-10.9103
▁кредитна	-10.9103
▁превзет	-10.9103
▁едуард	-10.9103
▁тервел	-10.9103
▁премахва	-10.9104
▁създал	-10.9105
▁сингъл	-10.9105
▁смяна	-10.9108
▁мизия	-10.911
▁възвишение	-10.9123
▁прах	-10.9123
▁предварително	-10.9125
стари	-10.913
▁творчеството	-10.9132
▁круша	-10.9134
▁британската	-10.9136
▁довел	-10.9144
io	-10.9145
▁подкрепата	-10.9146
▁няко	-10.9152
▁луис	-10.9155
▁тепе	-10.9156
▁каса	-10.9157
▁базата	-10.916
шов	-10.9163
▁въпроса	-10.9164
▁керамични	-10.9167
▁типич	-10.9167
▁придвижва	-10.9169
▁хипотеза	-10.9169
▁деспот	-10.9169
▁снимки	-10.917
▁изолира	-10.917
▁слатина	-10.917
▁начални	-10.917
▁различно	-10.917
▁планинско	-10.917
▁психо	-10.9171
▁възникнал	-10.9171
▁независима	-10.9171
▁ограден	-10.9173
▁статия	-10.9173
▁1200	-10.9178
▁бързи	-10.918
▁клубове	-10.9189
▁измерване	-10.9191
▁камер	-10.9192
лада	-10.9195
▁правата	-10.9198
▁смесени	-10.9201
▁сакар	-10.9209
▁починали	-10.921
▁милев	-10.9211
престиж	-10.9224
▁мисли	-10.9224
▁литературна	-10.9236
▁сериозни	-10.9236
▁стрезов	-10.9236
▁търсят	-10.9237
▁квантова	-10.9241
шан	-10.9245
▁сирене	-10.9245
слуга	-10.9246
▁движения	-10.9248
▁(9	-10.9249
▁приходи	-10.9251
▁собствено	-10.9257
▁десни	-10.9257
джър	-10.9261
▁1868	-10.9265
▁борови	-10.9276
форд	-10.928
връх	-10.928
ell	-10.9281
▁законите	-10.9282
▁футболна	-10.9284
▁мъжка	-10.9286
юз	-10.9287
▁наличие	-10.929
▁дроб	-10.9293
известна	-10.9295
морски	-10.9301
▁момента	-10.9301
▁белоградчик	-10.9303
▁пропаганд	-10.9303
▁скопие	-10.9303
▁шипка	-10.9303
▁обхват	-10.9304
▁бригад	-10.9304
▁богослов	-10.9304
▁действието	-10.9308
▁оставил	-10.9308
▁различава	-10.931
▁съвпада	-10.9312
▁оператор	-10.9316
▁проучен	-10.9317
▁какви	-10.9326
▁тогавашния	-10.9328
▁спорове	-10.933
колективизацията	-10.9335
старият	-10.9335
▁костов	-10.9338
▁съставена	-10.9341
▁хума	-10.9347
ber	-10.9347
▁радев	-10.9349
▁тракийска	-10.9351
мари	-10.9351
▁хари	-10.9361
▁компонент	-10.9371
▁изкачва	-10.9371
▁приложения	-10.9371
▁камбанария	-10.9372
▁славянско	-10.9372
спартак	-10.9374
▁находище	-10.9375
▁двадесет	-10.9382
▁посетители	-10.9387
gi	-10.9394
хиляд	-10.9396
▁разцвет	-10.9398
▁хърватия	-10.9398
северозападно	-10.9401
▁основание	-10.9405
one	-10.9417
▁изграждат	-10.9418
▁полковник	-10.9419
▁защитен	-10.9421
▁познати	-10.9428
▁стефанов	-10.9435
▁асфалтов	-10.9439
▁бразилия	-10.9439
▁концепция	-10.9439
▁хабсбург	-10.9439
▁опасност	-10.9439
▁олтар	-10.9439
▁изобразява	-10.9439
▁тихия	-10.9439
▁вулкан	-10.9439
▁вилает	-10.944
▁корпус	-10.944
▁агре	-10.9446
▁поляни	-10.9447
mu	-10.9451
▁благородни	-10.9452
▁властите	-10.9453
▁сменя	-10.9454
късната	-10.9455
▁ползват	-10.9461
▁върба	-10.9466
▁модели	-10.9472
▁отделение	-10.9475
селище	-10.9476
зъл	-10.9481
wa	-10.9485
забележителн	-10.9495
▁опита	-10.9498
▁направил	-10.9502
старото	-10.9502
▁входа	-10.9505
▁наблюдател	-10.9507
▁гергьовден	-10.9507
▁окупация	-10.9507
▁тухли	-10.9507
▁артерия	-10.9507
▁чехия	-10.9508
▁титли	-10.9508
▁ензим	-10.9508
▁закупува	-10.9509
▁патрон	-10.9511
▁файл	-10.9512
▁турнири	-10.9527
▁тар	-10.9528
▁автоном	-10.9535
▁компютърни	-10.9536
▁обикновени	-10.9538
▁характерен	-10.9541
▁командир	-10.9544
протестант	-10.9552
ine	-10.9552
▁образувани	-10.9553
▁зеле	-10.9566
▁моле	-10.9567
▁народния	-10.957
▁изпълнението	-10.9571
▁спортове	-10.9573
българско	-10.9575
ъш	-10.9576
йер	-10.9576
▁здравеопазване	-10.9576
▁индоевропейски	-10.9576
▁павликян	-10.9576
▁плодородна	-10.9576
▁религиозна	-10.9576
▁референдум	-10.9576
▁лечебни	-10.9576
▁врачански	-10.9576
▁следователно	-10.9576
▁предвижда	-10.9576
▁заселено	-10.9576
▁обширна	-10.9576
▁дейвид	-10.9578
▁цикъл	-10.9579
▁кирково	-10.958
▁гранична	-10.9581
носител	-10.9582
▁kg	-10.9582
▁определено	-10.9584
▁построяват	-10.9592
фикация	-10.9597
▁женска	-10.96
▁проекта	-10.9603
▁сложни	-10.9606
полис	-10.9608
▁траян	-10.9612
▁лицето	-10.9613
олф	-10.9615
▁уилямс	-10.9618
▁възникват	-10.962
▁култов	-10.9628
▁съвременна	-10.9628
▁представят	-10.9633
▁различават	-10.9639
▁водоснабдено	-10.9646
▁представления	-10.9646
▁дълъг	-10.9646
▁отдавна	-10.9646
▁зрители	-10.9646
▁своге	-10.9646
▁повишен	-10.9646
▁лиценз	-10.9647
цер	-10.965
ърд	-10.965
▁осми	-10.9665
▁околна	-10.9665
▁верди	-10.9668
▁критик	-10.967
▁проектира	-10.9674
▁отток	-10.9676
▁паметна	-10.9676
▁маринов	-10.9689
▁публикувани	-10.9701
▁вътрешната	-10.9706
▁mac	-10.9713
▁започне	-10.9716
▁опожарява	-10.9716
▁панагюрище	-10.9716
▁понятия	-10.9716
▁хайдути	-10.9716
▁уникални	-10.9716
▁тюрк	-10.9716
▁писма	-10.9717
ent	-10.9719
▁облаци	-10.9721
▁драгоман	-10.9722
▁василий	-10.9723
▁операции	-10.9724
▁станции	-10.9726
черно	-10.9727
▁първанов	-10.973
▁необходимост	-10.9732
▁вековни	-10.9732
▁църковния	-10.9733
▁улиците	-10.9736
▁йорданов	-10.9736
член	-10.9737
rt	-10.9739
зър	-10.9744
стара	-10.9744
▁новият	-10.9747
▁празни	-10.9749
▁финансова	-10.9751
▁притежават	-10.9756
археолог	-10.9757
▁установено	-10.9764
▁появи	-10.9765
▁човешката	-10.9766
▁боз	-10.9766
американска	-10.9774
▁съюзниците	-10.9779
▁изпълняват	-10.9781
▁административна	-10.9786
▁епидемия	-10.9786
▁наместник	-10.9786
▁обособява	-10.9786
▁израел	-10.9786
▁анастас	-10.9786
▁достигнал	-10.9786
▁пълен	-10.9788
▁заглавие	-10.9788
кафяв	-10.979
▁сурови	-10.9791
▁родопски	-10.9791
▁лека	-10.9791
▁термина	-10.9792
▁измерен	-10.9792
▁сняг	-10.9796
▁операция	-10.9796
▁андре	-10.9799
▁хоро	-10.9804
▁екз	-10.9805
клет	-10.9806
▁суха	-10.9808
▁тимар	-10.9808
gu	-10.9811
▁спортна	-10.9814
▁бази	-10.9816
▁3000	-10.9823
▁позволяват	-10.9828
▁мара	-10.9829
▁раду	-10.983
▁театрални	-10.9834
лесен	-10.9845
▁депутати	-10.985
▁нивото	-10.9856
▁наименования	-10.9857
▁съоръжение	-10.9857
специален	-10.9857
▁оръдия	-10.9857
▁оряхово	-10.9857
▁персонал	-10.9857
▁произнася	-10.9857
▁дупки	-10.9857
▁памук	-10.9858
▁византийската	-10.9858
ііі	-10.9858
▁млечни	-10.9859
▁лекува	-10.9859
▁списания	-10.986
▁обработваеми	-10.986
▁статистически	-10.9861
iii	-10.9863
▁независими	-10.9865
▁застава	-10.9874
▁мадан	-10.9874
▁тракийската	-10.9879
жар	-10.9882
джия	-10.9887
▁1848	-10.9888
ради	-10.9892
▁твърдо	-10.9893
▁световния	-10.9895
левски	-10.9903
истична	-10.9909
▁стойко	-10.9911
▁регистрирано	-10.9915
▁професионални	-10.9915
▁ликвидира	-10.9928
▁лингвисти	-10.9928
▁правителства	-10.9928
▁пребивава	-10.9928
▁технология	-10.9928
▁италианска	-10.9928
▁допълнение	-10.9928
fe	-10.993
▁обновен	-10.9931
▁терор	-10.9932
▁вдига	-10.9934
дневно	-10.9934
▁оставка	-10.9936
▁атмосферата	-10.9939
▁картини	-10.994
▁революционна	-10.9946
▁изучаване	-10.9952
▁наричало	-10.9957
▁хитов	-10.9962
▁ковач	-10.9963
▁опитват	-10.9965
▁изби	-10.9969
▁признание	-10.997
▁прабългарите	-10.9975
процесор	-10.9978
▁тесни	-10.9988
▁приемането	-10.9997
▁здравето	-10.9997
пур	-11
▁препратки	-11
▁участъци	-11
▁изказва	-11
▁капитал	-11.0001
▁феномен	-11.0001
▁бряст	-11.0001
▁бруней	-11.0001
▁утвърден	-11.0001
▁реклам	-11.0001
▁балчик	-11.0001
▁варовик	-11.0002
софийска	-11.0005
▁йохан	-11.0005
▁покрив	-11.0008
▁цанков	-11.0015
▁орел	-11.0017
▁награден	-11.0021
годишнината	-11.0021
▁протокол	-11.0023
▁етнос	-11.0024
▁присъстват	-11.0026
югозападно	-11.0028
▁футболисти	-11.0028
▁преданието	-11.0029
▁1829	-11.0034
▁тихо	-11.0035
est	-11.0036
стотин	-11.0038
▁чиста	-11.004
▁цан	-11.0043
fa	-11.0047
▁сутринта	-11.0051
▁възел	-11.0059
▁съвместно	-11.0064
литературен	-11.0073
▁библията	-11.0073
▁бозайници	-11.0073
▁катастрофа	-11.0073
▁овощарство	-11.0073
▁1874	-11.0073
▁ръководен	-11.0073
▁сбирка	-11.0074
▁критикува	-11.0074
производството	-11.0075
▁развалини	-11.0075
трев	-11.0075
▁музикална	-11.0077
▁and	-11.0077
източната	-11.0078
uni	-11.0079
европейски	-11.008
▁пакет	-11.008
▁глоба	-11.0083
▁социалистическа	-11.0083
▁блато	-11.0084
бързо	-11.0087
▁ограничени	-11.0093
▁обединяват	-11.0101
▁наричали	-11.0102
▁кралица	-11.0103
▁издържа	-11.0108
▁стих	-11.0108
▁хървати	-11.0116
▁поредни	-11.012
▁спомен	-11.012
якакъв	-11.0122
▁курт	-11.0124
▁излъчване	-11.0128
родом	-11.0138
индустри	-11.0144
според	-11.0145
рож	-11.0145
▁72	-11.0146
html	-11.0146
▁възползва	-11.0146
▁партньор	-11.0146
▁исперих	-11.0146
▁клисура	-11.0146
▁съкровище	-11.0146
▁упражнява	-11.0146
▁xi	-11.0146
▁вътрешен	-11.0147
▁строят	-11.0147
▁кратки	-11.0153
▁билки	-11.0154
несени	-11.0158
▁гроба	-11.0159
cl	-11.0159
ps	-11.0169
▁дадени	-11.0174
▁рейн	-11.0184
свето	-11.0186
хам	-11.0193
▁сливо	-11.0199
▁демократични	-11.0201
▁традиционния	-11.0206
кайзерслаутерн	-11.0219
▁погребение	-11.0219
▁поддръжка	-11.0219
▁покровител	-11.0219
▁първокласния	-11.0219
▁зимен	-11.022
▁класове	-11.0222
дявол	-11.0222
▁сайт	-11.0225
▁произвеждат	-11.0226
▁немския	-11.0231
шоп	-11.0231
▁масови	-11.0242
▁стран	-11.0244
▁поставени	-11.0249
▁1888	-11.0251
▁ранг	-11.0253
дз	-11.0254
▁робство	-11.0256
▁механика	-11.0257
▁превърнал	-11.0257
▁свободен	-11.0265
▁порта	-11.0267
▁пренесен	-11.0268
▁каква	-11.028
▁спортен	-11.0281
▁столична	-11.0282
▁локомотив	-11.0282
баш	-11.029
▁дефиниция	-11.0293
▁наподобява	-11.0293
▁окръзи	-11.0293
▁оцелели	-11.0293
▁пясък	-11.0293
▁учредява	-11.0293
▁раждаемост	-11.0293
▁ябълки	-11.0293
▁несебър	-11.0293
▁отрасли	-11.0295
▁принципи	-11.0297
▁падина	-11.0302
za	-11.0303
▁знаци	-11.0306
▁включено	-11.031
▁служители	-11.0311
▁загива	-11.0313
ill	-11.0314
▁висш	-11.0319
▁мнозинство	-11.0321
▁110	-11.0323
▁средство	-11.0325
▁обособен	-11.0334
ранното	-11.0338
▁започнало	-11.0341
▁бобов	-11.0343
▁говорен	-11.0348
▁тоест	-11.0349
срещна	-11.0353
amp	-11.0355
▁връщане	-11.0357
▁томас	-11.0357
▁пълни	-11.0358
стиг	-11.0359
брад	-11.0359
минава	-11.0359
▁австрийски	-11.0368
▁асоциация	-11.0368
▁наместничество	-11.0368
▁огромен	-11.0368
▁устройства	-11.0368
▁епизод	-11.0368
▁късноантична	-11.0368
▁спечелен	-11.0368
▁отдясно	-11.0368
пробуда	-11.0368
▁охрана	-11.0369
▁археология	-11.0369
▁действаща	-11.037
▁съдбата	-11.0371
▁виктор	-11.0376
▁едноименната	-11.0377
▁майчин	-11.0378
▁преминал	-11.038
▁липсва	-11.0383
▁асфалтирани	-11.0383
▁последно	-11.0399
▁1867	-11.04
▁качество	-11.0404
▁отчита	-11.0405
▁нахия	-11.0406
▁водород	-11.0407
▁морал	-11.041
▁мнозинството	-11.0415
▁бедни	-11.0422
tri	-11.0424
▁срок	-11.0426
▁липсват	-11.0429
▁химн	-11.0431
▁гълъб	-11.0436
слив	-11.044
▁баскетбол	-11.0443
▁експозиция	-11.0443
▁ивайловград	-11.0443
▁привърженици	-11.0443
▁окръжния	-11.0443
▁сегашната	-11.0443
▁концентрира	-11.0443
▁променлив	-11.0443
▁яйца	-11.0443
▁ситуация	-11.0444
▁изпратени	-11.0445
▁проведени	-11.0445
▁санкт	-11.0445
▁ръце	-11.0447
▁звън	-11.0448
▁напусне	-11.0448
▁хипер	-11.0452
▁бронзовата	-11.0454
▁обособени	-11.046
▁участниците	-11.0461
▁пресвета	-11.0465
▁присъединяване	-11.0471
▁бронзови	-11.0473
▁девин	-11.0474
▁разрешение	-11.0477
иращ	-11.0483
пуснал	-11.0486
▁шума	-11.0489
друг	-11.0489
северозапад	-11.0492
преработ	-11.0515
▁републики	-11.0519
▁обсъжда	-11.0519
▁реакции	-11.0519
▁истории	-11.0519
▁движи	-11.0519
▁подобен	-11.0519
▁мъгли	-11.052
барселона	-11.052
▁разчита	-11.052
▁заменя	-11.0521
▁димо	-11.0521
▁дъбови	-11.0521
▁пророк	-11.0521
▁населяван	-11.0522
▁градеж	-11.053
▁битки	-11.0532
▁спасява	-11.0535
▁италианския	-11.0536
▁естествена	-11.0544
▁чакал	-11.0548
юм	-11.0553
▁демократи	-11.0558
▁каменен	-11.0558
▁прага	-11.056
▁дъждове	-11.0567
обществен	-11.0569
▁възвишението	-11.0573
▁кметове	-11.0575
▁1830	-11.0578
▁написана	-11.0578
▁съдържащ	-11.0586
▁варианти	-11.0586
председателя	-11.0591
▁прилеп	-11.0593
▁задължения	-11.0595
▁обозначава	-11.0595
▁популярен	-11.0595
▁тълкува	-11.0595
▁очертава	-11.0595
мексиканск	-11.0595
▁двойка	-11.0595
▁твърдят	-11.0596
▁видео	-11.0597
▁обвинен	-11.0598
▁знания	-11.06
▁кооператив	-11.0603
▁върби	-11.0605
▁атака	-11.0606
▁белене	-11.0609
▁каменица	-11.0609
▁кру	-11.0612
▁производители	-11.062
▁испанския	-11.062
кю	-11.0624
▁манол	-11.0627
▁бю	-11.0632
▁чорбаджи	-11.0632
▁криви	-11.0637
▁интервал	-11.0648
съз	-11.0648
▁трудове	-11.0653
▁четвърта	-11.0656
▁владетели	-11.0658
▁горска	-11.0663
▁възможни	-11.0672
▁възрожденски	-11.0672
▁гарнизон	-11.0672
▁разновидност	-11.0672
▁жертва	-11.0672
▁велинград	-11.0672
▁създател	-11.0672
▁охранява	-11.0672
▁григор	-11.0672
▁засегнат	-11.0672
▁бюджет	-11.0672
▁дивеч	-11.0673
▁смъртност	-11.0674
▁явява	-11.0674
▁същност	-11.0674
▁отчасти	-11.0676
▁прием	-11.0677
▁руди	-11.0678
▁получени	-11.0679
▁трайно	-11.0679
▁смесено	-11.0681
▁белово	-11.0682
▁ангелов	-11.0685
строител	-11.0686
рег	-11.0698
▁мелница	-11.0706
▁1856	-11.0706
▁византийския	-11.071
риз	-11.0714
югоизточн	-11.0716
▁сибир	-11.0716
▁мисия	-11.0725
▁константинов	-11.0732
▁правило	-11.0735
▁споменато	-11.0735
▁никол	-11.0739
▁мести	-11.0745
плът	-11.0749
▁идентифицира	-11.075
▁съответства	-11.075
▁юнайтед	-11.075
▁изпада	-11.075
▁условно	-11.075
▁сегашния	-11.075
▁джамии	-11.0751
▁инструмент	-11.0751
▁черноморски	-11.0752
▁изгаря	-11.0753
▁формално	-11.0756
▁коларов	-11.0756
▁пръстен	-11.0759
▁последен	-11.0759
▁клубът	-11.0763
tur	-11.0764
▁бъдещия	-11.0768
▁почива	-11.077
логичен	-11.077
▁водеща	-11.0773
▁1865	-11.078
▁четвърто	-11.0783
бежан	-11.0785
▁катедрала	-11.0798
▁жива	-11.08
▁третото	-11.0812
▁изложение	-11.0814
ангел	-11.0824
▁каси	-11.0826
▁вакарел	-11.0828
▁гръцкото	-11.0828
▁резиденция	-11.0828
▁стопанства	-11.0828
▁емигрант	-11.0828
▁полуфинал	-11.0828
▁доспат	-11.0828
▁затваря	-11.0828
▁подробно	-11.0828
▁изкопаеми	-11.0829
▁направено	-11.0829
▁обграден	-11.083
▁фолклорни	-11.083
▁жизнен	-11.083
▁ватикан	-11.0832
▁певец	-11.0833
▁последователи	-11.0834
▁определение	-11.0837
▁четирима	-11.0844
южната	-11.0845
▁бивол	-11.0847
чица	-11.0848
▁туристическа	-11.0848
▁бившата	-11.085
▁алпи	-11.085
sch	-11.0856
▁швед	-11.0875
▁копия	-11.0878
силни	-11.0893
▁обиколка	-11.0895
▁астрономия	-11.0897
▁остро	-11.0897
друм	-11.0899
▁делят	-11.0903
▁преселват	-11.0903
▁исландия	-11.0907
▁крумовград	-11.0907
▁обуславя	-11.0907
▁тръмбеш	-11.0907
▁херцеговина	-11.0907
църковен	-11.0907
▁състояния	-11.0907
▁кольо	-11.0907
▁летопис	-11.0907
▁протести	-11.0908
▁праисторически	-11.0908
▁заселени	-11.0908
▁читател	-11.0909
▁типично	-11.0911
▁стартира	-11.0912
▁одобрен	-11.0912
ложка	-11.0913
▁собственици	-11.0915
▁москов	-11.0916
▁професионална	-11.092
▁бабин	-11.0921
хард	-11.0922
▁вморо	-11.0922
▁димитровград	-11.0923
.09.	-11.0925
химия	-11.0927
rs	-11.0938
лийска	-11.0939
▁сърцето	-11.0947
▁оборудване	-11.0948
▁щатски	-11.0948
▁преминаването	-11.0951
tor	-11.0958
her	-11.0961
▁гласни	-11.0967
▁християнското	-11.0968
ушка	-11.0974
▁финансов	-11.0983
▁анджелис	-11.0986
▁рудозем	-11.0986
▁замърсява	-11.0986
▁публично	-11.0986
▁физическа	-11.0986
▁затруднен	-11.0986
▁материя	-11.0986
▁кубрат	-11.0987
▁парламентарни	-11.0989
▁дипломат	-11.099
никола	-11.0994
art	-11.0994
▁вододел	-11.0996
▁прилича	-11.0997
▁глина	-11.1024
▁правопис	-11.1025
▁орлов	-11.1031
▁свидетел	-11.1041
пръ	-11.1063
▁вдъхновен	-11.1066
принадлежат	-11.1066
▁галактика	-11.1066
▁мнозина	-11.1066
▁съотношение	-11.1066
▁тутракан	-11.1066
▁повтаря	-11.1066
▁поколения	-11.1066
▁стопанско	-11.1066
▁медицинска	-11.1066
▁отрасъл	-11.1066
▁застрашен	-11.1066
▁трупа	-11.1066
▁последвали	-11.1067
комуни	-11.107
▁вълнен	-11.107
временни	-11.1071
▁съзнание	-11.1073
▁вътре	-11.108
▁ботевград	-11.1081
0,5	-11.1084
▁450	-11.1085
250	-11.1088
наричан	-11.1091
▁шведски	-11.1098
▁разпръснат	-11.1101
▁летен	-11.1104
▁архитектурни	-11.1123
▁помощник	-11.1123
▁бившите	-11.1127
▁купол	-11.113
левци	-11.1138
“")	-11.1139
▁1800	-11.1142
първи	-11.1144
▁инвестиции	-11.1147
▁плодородие	-11.1147
▁укрепление	-11.1147
▁флоренция	-11.1147
▁варшава	-11.1147
▁класифицира	-11.1147
▁лексика	-11.1147
▁въстаници	-11.1147
▁атакува	-11.1147
▁красота	-11.1148
▁общинско	-11.115
fr	-11.1152
▁пипер	-11.1166
▁газове	-11.117
▁спаси	-11.1176
▁освобождение	-11.1181
▁диаманти	-11.1185
▁новосел	-11.1187
териториални	-11.119
▁живо	-11.1193
▁южни	-11.1203
▁скулптур	-11.1204
▁биха	-11.1206
равно	-11.1211
▁езикова	-11.1213
▁съдействие	-11.1228
функционал	-11.1228
▁експлоатация	-11.1228
▁религиозно	-11.1228
▁общества	-11.1228
▁влошава	-11.1228
▁азбуч	-11.1228
▁испанската	-11.1228
▁преглед	-11.1228
▁стигне	-11.1228
▁програмиране	-11.1228
▁елхово	-11.1228
▁комедия	-11.1229
▁първомай	-11.1229
▁стомана	-11.1229
▁родината	-11.1229
▁пощенска	-11.123
▁подобрява	-11.1231
▁бюро	-11.1231
▁именува	-11.1233
▁лошо	-11.1233
▁кафяви	-11.124
▁посрещнат	-11.1246
▁артисти	-11.1255
▁раздава	-11.1256
▁изпълнителната	-11.1261
▁блокове	-11.1282
▁намеса	-11.1283
▁възход	-11.1289
ou	-11.1296
▁могил	-11.1306
общи	-11.1308
▁вапцаров	-11.131
▁дисциплина	-11.131
▁заплаха	-11.131
▁педагог	-11.131
▁(2011).	-11.131
▁съгласява	-11.131
▁измества	-11.131
▁огромно	-11.131
▁сребро	-11.131
▁подобна	-11.131
▁постигнат	-11.1311
▁посоки	-11.1312
▁слънчево	-11.1314
▁кратка	-11.1316
▁запазване	-11.1317
,6%	-11.1318
▁мод	-11.132
▁интересно	-11.1321
▁пуснат	-11.1322
▁дебелина	-11.1323
съединение	-11.1326
▁роднини	-11.1328
▁спечели	-11.1332
▁кремен	-11.1333
▁образувания	-11.1338
кирил	-11.134
▁1861	-11.1342
▁албумът	-11.1361
▁конник	-11.1373
▁разбиране	-11.1381
▁намерил	-11.1382
▁цк	-11.1387
▁олимп	-11.1388
▁архиепископ	-11.1393
▁завладян	-11.1393
▁социализма	-11.1393
▁халколит	-11.1393
▁контекст	-11.1393
▁сопот	-11.1393
▁земната	-11.1394
▁скален	-11.1399
▁дъбова	-11.1399
▁изменя	-11.1402
▁сладка	-11.1403
▁власи	-11.1406
▁пълномощ	-11.1406
образован	-11.1406
чуд	-11.1414
▁изгорен	-11.1416
пълнени	-11.1421
▁1864	-11.1426
▁министерство	-11.1429
ставка	-11.1436
▁боян	-11.1439
щайн	-11.1449
▁отнема	-11.1454
▁вярвания	-11.1456
▁действащи	-11.1457
▁рекичка	-11.1462
▁нидерланд	-11.1468
▁придава	-11.1472
▁900	-11.1475
▁вирджиния	-11.1476
▁продуцент	-11.1476
▁сдружение	-11.1476
▁селскостопанска	-11.1476
▁франсоа	-11.1476
▁холандия	-11.1476
▁дъщери	-11.1476
▁софийско	-11.1476
▁сериозно	-11.1476
▁печелят	-11.1476
▁димитри	-11.1476
▁дребни	-11.1476
▁праисторическо	-11.1476
▁убеди	-11.1477
▁цветя	-11.1479
▁изяви	-11.1479
▁хумор	-11.148
▁колко	-11.148
▁изучаването	-11.148
▁извежда	-11.1482
▁телевизионни	-11.1485
▁бремен	-11.1493
▁въоръжен	-11.1496
▁мома	-11.1509
▁шоу	-11.151
цки	-11.1514
дядо	-11.1517
▁дворове	-11.1529
▁намален	-11.1531
▁славата	-11.1534
▁асфалтиран	-11.1543
▁компютърна	-11.1545
▁козар	-11.1547
▁върховния	-11.1549
▁каже	-11.1551
▁устав	-11.1555
▁метро	-11.1556
▁безработица	-11.156
▁разнообразна	-11.156
▁сражения	-11.156
▁стихотворения	-11.156
▁тополовград	-11.156
▁учредител	-11.156
▁гарантира	-11.156
▁обвинява	-11.156
▁армения	-11.156
▁облекло	-11.156
▁причинява	-11.156
▁съчетава	-11.1561
▁четвърт	-11.1561
▁влашко	-11.1562
▁министерския	-11.1563
▁заселил	-11.1564
славянска	-11.1567
▁гранични	-11.1567
▁разлики	-11.1567
▁депутат	-11.1568
▁дарява	-11.1586
близо	-11.1587
▁философски	-11.1592
▁мишев	-11.1594
▁прочути	-11.1598
▁кабел	-11.1603
▁герг	-11.1611
▁водно	-11.162
▁необходим	-11.164
▁хъ	-11.1641
хер	-11.1642
▁ансамбъл	-11.1645
▁наблюдение	-11.1645
▁напомня	-11.1645
▁съсредоточен	-11.1645
▁влажност	-11.1645
▁привлече	-11.1645
▁настъпи	-11.1645
▁работна	-11.1645
▁израства	-11.1645
▁сочат	-11.1646
▁истина	-11.1647
▁фурна	-11.1647
▁стреми	-11.165
▁разходи	-11.1651
▁планети	-11.1652
▁вълчи	-11.1656
▁радва	-11.1664
▁способ	-11.1667
светлина	-11.1675
унгария	-11.1675
ръчен	-11.1679
▁кг	-11.1683
▁духовни	-11.1704
▁опор	-11.1718
▁кошар	-11.1727
чър	-11.1728
▁етнографски	-11.173
▁първенства	-11.173
▁невъзможно	-11.173
▁минимална	-11.173
▁магистрала	-11.173
▁тъмно	-11.1731
▁министри	-11.1732
▁гостува	-11.1732
▁карстов	-11.1732
▁майкъл	-11.1741
▁действителност	-11.1744
▁колона	-11.1749
▁почит	-11.1757
бур	-11.1758
▁детство	-11.1759
▁записи	-11.1759
исторически	-11.176
▁1862	-11.1762
▁наклонен	-11.1763
рязва	-11.1764
долно	-11.1766
▁минаващ	-11.1769
език	-11.177
▁дотогавашн	-11.1781
▁треви	-11.1781
слънчев	-11.1788
▁занаят	-11.179
▁югозападните	-11.1792
▁установен	-11.1797
▁пръст	-11.1808
▁автомагистрала	-11.1816
▁гилгамеш	-11.1816
▁еквивалент	-11.1816
▁шанхай	-11.1816
▁засяга	-11.1816
▁коперник	-11.1816
▁осигури	-11.1816
▁куклен	-11.1816
▁оценка	-11.1817
чавдар	-11.1817
▁берковица	-11.1818
▁слуша	-11.1818
▁крави	-11.1825
▁художествени	-11.1826
▁наистина	-11.1826
▁отрича	-11.1832
▁екран	-11.1833
гроб	-11.1838
▁воденица	-11.184
▁брои	-11.184
▁линей	-11.1841
▁хасан	-11.1841
che	-11.1841
ev	-11.1846
▁съвмест	-11.1851
▁стада	-11.1854
„	-11.187
▁зеленчуко	-11.1883
▁остане	-11.1889
▁разбит	-11.19
▁електрическа	-11.1903
▁мероприятия	-11.1903
▁павликени	-11.1903
▁прогимназиал	-11.1903
▁самостоятелни	-11.1903
▁драганов	-11.1903
▁обитатели	-11.1903
▁украсен	-11.1903
▁служат	-11.1903
▁югославск	-11.1903
▁външно	-11.1903
▁достигне	-11.1903
▁канелени	-11.1904
▁либия	-11.1904
▁последователни	-11.1905
▁звание	-11.1906
▁мандра	-11.1909
▁заключен	-11.1916
рланд	-11.1919
▁воденици	-11.1925
▁правец	-11.1926
▁листата	-11.1926
колиби	-11.1939
определен	-11.1947
▁престоя	-11.1947
▁доведе	-11.1954
▁уелс	-11.1954
велики	-11.1962
▁снабдява	-11.1966
▁рилския	-11.1979
интер	-11.198
унгарски	-11.1981
▁служил	-11.1982
▁подобряване	-11.1988
▁дервент	-11.1991
▁фундамент	-11.1991
▁pascal	-11.1991
▁айнщайн	-11.1991
▁възстанови	-11.1991
▁изтегля	-11.1991
▁интензивно	-11.1991
▁луковит	-11.1991
▁франциско	-11.1991
▁варовици	-11.1991
▁дизайн	-11.1991
▁уникална	-11.1991
▁ахмед	-11.1992
▁своеобраз	-11.1992
▁тръби	-11.1992
▁замяна	-11.1992
▁творба	-11.1992
▁бавно	-11.1994
▁хранително	-11.1995
▁физик	-11.1995
▁автобусни	-11.1998
▁добромир	-11.1999
▁петдесет	-11.2002
▁топла	-11.2005
ens	-11.2008
▁заловен	-11.2013
▁термо	-11.2013
▁свидетелство	-11.2017
сурва	-11.2022
▁фондове	-11.2024
▁камб	-11.2025
подредени	-11.2028
известно	-11.2037
nn	-11.2043
▁маркира	-11.205
▁реалност	-11.205
▁роза	-11.2053
▁оглед	-11.2055
▁народност	-11.206
▁футболния	-11.206
дур	-11.2061
ативен	-11.2079
▁изчисли	-11.2079
▁архиерейск	-11.208
▁дисциплини	-11.208
▁драговищица	-11.208
▁мадрид	-11.208
▁обстановка	-11.208
▁грънчар	-11.208
▁евентуал	-11.208
▁застъпен	-11.208
▁тополница	-11.208
▁магелан	-11.208
▁нобелова	-11.208
▁адолф	-11.2081
▁разбива	-11.2084
▁баланс	-11.2084
▁клетка	-11.2086
▁михал	-11.209
берое	-11.2093
▁канализация	-11.2094
овчани	-11.2095
▁командването	-11.2096
влизането	-11.2096
▁сорт	-11.2098
йсет	-11.2099
▁данте	-11.2108
▁екзарх	-11.2123
▁пуска	-11.2123
ub	-11.2129
▁дълбок	-11.2135
▁демир	-11.2136
лрд	-11.214
▁оригинални	-11.215
▁обмен	-11.2153
▁оскар	-11.2157
▁надхвърля	-11.2169
▁укрепва	-11.2169
▁шотландия	-11.2169
▁драматург	-11.2169
▁разрешава	-11.2169
▁статуя	-11.2169
▁химически	-11.2169
▁напитки	-11.2169
▁приморско	-11.2169
▁пърличев	-11.2169
▁албанци	-11.2169
▁еврейски	-11.2169
▁ястреб	-11.2169
▁натоварен	-11.217
▁представа	-11.217
куийн	-11.2174
▁парчета	-11.2174
крият	-11.2177
▁слиза	-11.2178
▁реални	-11.2181
▁директ	-11.2187
▁югозападния	-11.2197
sti	-11.2202
▁1875	-11.2205
стефан	-11.221
▁учреден	-11.2213
▁древния	-11.2221
▁подчинени	-11.2224
▁реално	-11.2237
▁хю	-11.2248
▁роми	-11.2249
▁фондация	-11.225
▁продължил	-11.2251
▁цветни	-11.2253
джийски	-11.2256
▁амстердам	-11.2259
▁аристокрация	-11.2259
▁емигрира	-11.2259
▁енциклопеди	-11.2259
▁местоимения	-11.2259
▁нашествия	-11.2259
▁убежище	-11.2259
▁изоставя	-11.2259
▁топоним	-11.2259
▁пейзаж	-11.2259
▁варненска	-11.2259
▁рудник	-11.2259
▁ценности	-11.226
▁албански	-11.226
▁пътепис	-11.226
▁владее	-11.226
▁редовна	-11.2261
▁студио	-11.2262
нисък	-11.2263
▁дамянов	-11.2265
марица	-11.2268
▁сочи	-11.2271
▁габровски	-11.2272
▁мъртви	-11.2275
▁членки	-11.2286
▁chr	-11.229
net	-11.2291
тогава	-11.2297
▁1863	-11.2297
племен	-11.2299
▁пепел	-11.2302
гъсто	-11.2305
▁бивше	-11.2305
▁1700	-11.2305
▁съюзници	-11.2305
▁сърце	-11.2316
▁яворов	-11.2331
черкез	-11.2334
▁райх	-11.2338
▁македонска	-11.2343
▁аристократ	-11.235
▁бзнс	-11.235
▁вилхелм	-11.235
▁гкпп	-11.235
▁гражданство	-11.235
▁двигател	-11.235
▁отклонява	-11.235
▁патриаршия	-11.235
▁популяризира	-11.235
▁упадък	-11.235
▁стъпка	-11.235
▁черноморие	-11.235
▁усеща	-11.235
▁оценки	-11.235
▁махле	-11.235
▁вериги	-11.235
▁диабет	-11.235
▁персийски	-11.235
▁монаси	-11.2351
▁престава	-11.2356
▁преселени	-11.2362
▁тополи	-11.2366
▁антоново	-11.2368
▁зеленчукови	-11.2372
▁запаси	-11.2372
▁земни	-11.2373
▁четници	-11.2374
▁такси	-11.2375
ориент	-11.2375
▁въвеждане	-11.2377
готви	-11.2386
▁1570	-11.2392
приятел	-11.2395
▁електронни	-11.2405
▁спечелил	-11.2416
▁фантаст	-11.2435
▁шампионска	-11.2441
▁стратегическо	-11.2442
▁стремеж	-11.2442
▁божества	-11.2442
▁окръжен	-11.2442
▁побратимен	-11.2442
▁средновековен	-11.2442
▁забранява	-11.2442
▁пирамида	-11.2442
▁впечатлява	-11.2442
▁концентрация	-11.2442
▁остатъци	-11.2442
▁зидове	-11.2442
▁увеличи	-11.2442
▁всякакви	-11.2442
▁католическата	-11.2442
▁богиня	-11.2442
▁буквално	-11.2442
▁воюва	-11.2442
▁епохи	-11.2443
▁зидар	-11.2443
▁преработка	-11.2443
▁камара	-11.2444
▁превърн	-11.2446
▁камбана	-11.2446
▁френска	-11.2446
▁терзи	-11.2446
▁установи	-11.2449
▁гълъбово	-11.2451
строг	-11.2453
▁сключен	-11.2454
▁дънов	-11.2459
▁гарван	-11.2464
▁спин	-11.2467
▁молба	-11.2475
▁букови	-11.2478
ok	-11.2478
▁съдия	-11.2478
▁метропол	-11.2483
▁1828	-11.2491
▁страница	-11.2511
▁софийски	-11.2532
метеорологи	-11.2534
▁заобикаля	-11.2534
▁ангажира	-11.2534
▁бербатов	-11.2534
▁изложба	-11.2534
▁стратегически	-11.2534
▁съответствие	-11.2534
▁новосъздаден	-11.2534
▁вакъф	-11.2534
▁стопанска	-11.2534
▁атлантическия	-11.2534
▁инцидент	-11.2534
▁минута	-11.2535
▁хероин	-11.2535
▁дърводобив	-11.2536
▁90%	-11.254
▁регент	-11.2541
▁пиано	-11.255
▁жерав	-11.2553
дневна	-11.2553
▁илинден	-11.2559
▁дебит	-11.256
истика	-11.2561
▁щит	-11.2578
▁550	-11.2579
▁климатична	-11.2596
▁съхранение	-11.2597
▁арабския	-11.2617
образува	-11.262
▁жаб	-11.2622
▁леонардо	-11.2628
▁овцевъдство	-11.2628
▁алувиално	-11.2628
▁смирненски	-11.2628
▁колекция	-11.2628
▁любомир	-11.2628
▁външен	-11.2628
▁антрополог	-11.2628
▁благоприятно	-11.2628
▁източен	-11.2628
▁грижа	-11.2629
▁огнян	-11.2629
▁ерозия	-11.2629
▁руснаци	-11.2631
▁отляво	-11.2631
▁светец	-11.2631
полицейск	-11.2631
▁прониква	-11.2637
▁уест	-11.2639
▁преводач	-11.2643
▁ракия	-11.2651
▁максимални	-11.2658
▁лъчи	-11.267
▁препис	-11.2673
специално	-11.2676
▁горния	-11.2676
▁ремонтиран	-11.2699
▁гробове	-11.2708
губернатор	-11.2722
▁йерусалим	-11.2722
▁клавдий	-11.2722
▁люксембург	-11.2722
▁подкрепен	-11.2722
съвременен	-11.2722
▁образователни	-11.2722
▁повторно	-11.2722
▁насърчава	-11.2722
▁поморие	-11.2722
▁същинска	-11.2722
▁премести	-11.2722
▁словения	-11.2722
▁иманяри	-11.2723
▁назовава	-11.2723
▁раднево	-11.2723
▁приписва	-11.2724
▁арменски	-11.2724
▁заболяване	-11.2724
▁байкал	-11.2724
▁случи	-11.2724
▁струп	-11.2726
▁генетич	-11.2732
▁продаден	-11.2733
▁сфери	-11.2733
▁копие	-11.2735
▁преобладаваща	-11.2737
▁пренос	-11.274
mar	-11.2759
▁съчетание	-11.2766
▁канон	-11.2775
▁финансира	-11.2776
▁предназначение	-11.2783
▁ядро	-11.2789
бълг	-11.2816
▁петрол	-11.2816
▁артефакти	-11.2817
▁изречение	-11.2817
▁навсякъде	-11.2817
▁направления	-11.2817
▁растениевъдство	-11.2817
▁училищни	-11.2817
▁човечеството	-11.2817
▁интервю	-11.2817
▁търговец	-11.2817
▁иречек	-11.2817
▁вселената	-11.2817
▁хоросан	-11.2818
▁критици	-11.2819
▁подходяща	-11.2819
▁тежест	-11.282
▁обрасл	-11.2822
▁монах	-11.2824
▁радиус	-11.2824
▁игрище	-11.2825
▁каньон	-11.2825
▁противополож	-11.2827
▁алпийски	-11.2829
▁личат	-11.2829
▁паскал	-11.2833
▁тава	-11.2833
▁васал	-11.2837
▁патент	-11.2838
▁учителства	-11.2839
▁изложени	-11.284
▁подобрен	-11.2841
▁тясна	-11.2841
ктори	-11.2844
▁авторитет	-11.285
▁шахматист	-11.2858
▁свален	-11.2859
▁1859	-11.286
▁рицар	-11.2861
административно	-11.2869
▁легла	-11.2875
извор	-11.2879
дването	-11.289
западната	-11.289
▁освобождаване	-11.2894
▁господар	-11.2895
▁последни	-11.2898
независим	-11.2899
▁продан	-11.2903
говорещ	-11.2903
▁специалност	-11.2909
рождество	-11.2913
▁английската	-11.2913
▁беласица	-11.2913
▁византийци	-11.2913
▁комбинация	-11.2913
▁манчестър	-11.2913
▁виетнам	-11.2913
▁уволнен	-11.2913
▁редовен	-11.2914
▁шлем	-11.2915
▁портрет	-11.2915
▁алберт	-11.2916
▁допълнител	-11.292
▁пишат	-11.292
▁изгради	-11.2921
ser	-11.2938
▁лазаров	-11.2939
▁финансиране	-11.2944
отстъп	-11.295
▁членува	-11.2963
обичай	-11.2968
правда	-11.298
вкусова	-11.2986
ment	-11.2987
информацион	-11.2998
▁вършец	-11.301
▁култивира	-11.301
▁тиберий	-11.301
▁войводи	-11.301
▁мисионер	-11.301
▁трапеза	-11.301
▁харесва	-11.3011
▁последици	-11.3011
▁павлов	-11.3011
▁синоним	-11.3011
▁отличия	-11.3012
▁подходящо	-11.3012
▁химик	-11.3013
▁туризма	-11.3015
поземлен	-11.302
▁вирус	-11.3021
▁жул	-11.3023
▁завладяването	-11.3026
▁тридесет	-11.3035
ation	-11.3036
▁избити	-11.3041
▁периодично	-11.3047
▁катедра	-11.3048
▁ихтиман	-11.3049
▁агро	-11.3059
значителни	-11.3066
▁xxi	-11.3069
▁писар	-11.3069
▁паркове	-11.3075
▁масова	-11.3093
▁4000	-11.3097
късна	-11.3106
високия	-11.3108
▁аргумент	-11.3108
▁демонстрира	-11.3108
▁лесковдол	-11.3108
▁погребал	-11.3108
▁съвкупност	-11.3108
▁съчинения	-11.3108
▁отводнява	-11.3108
▁1:0	-11.3109
▁губят	-11.3109
▁уникално	-11.3109
▁пазят	-11.3109
▁варненско	-11.3109
▁беломорска	-11.3109
▁прекратен	-11.3109
▁езически	-11.311
▁йовков	-11.311
▁младенов	-11.311
▁парламентарна	-11.3111
▁музикално	-11.3112
▁установяване	-11.3114
▁батак	-11.3115
▁умения	-11.3115
▁трайни	-11.3116
▁кратък	-11.3116
▁строго	-11.3117
истично	-11.3119
▁налице	-11.3121
▁продължителни	-11.3124
▁природо	-11.3125
▁противници	-11.3133
▁дарител	-11.3137
▁далечни	-11.3152
▁ледник	-11.3154
германски	-11.3161
▁непрекъснат	-11.3161
▁керван	-11.3166
▁фигурира	-11.3167
техника	-11.3174
художествен	-11.319
оглу	-11.3196
▁обвинения	-11.3207
▁византийско	-11.3207
▁правомощия	-11.3207
▁железопътни	-11.3207
▁компакт	-11.3207
▁момчилград	-11.3207
▁погребения	-11.3207
▁претендент	-11.3207
▁разнообразен	-11.3207
▁режисира	-11.3207
▁конкретни	-11.3207
▁оцелява	-11.3207
▁пристанища	-11.3207
▁производн	-11.3207
▁дванадесет	-11.3208
▁обясни	-11.3208
▁сливница	-11.3208
▁театри	-11.3208
▁сократ	-11.3209
▁течаща	-11.3209
▁разследва	-11.321
▁покрита	-11.3213
▁десетина	-11.3213
▁тогавашна	-11.3214
▁напуснат	-11.3215
▁финанси	-11.3219
▁закупен	-11.3222
▁шивач	-11.3225
▁централи	-11.3228
▁едноимен	-11.3232
югозапад	-11.3236
▁морската	-11.3237
▁нанася	-11.3243
▁териториал	-11.3251
eu	-11.3261
майстор	-11.3272
хисар	-11.3272
ju	-11.3273
▁абсолютна	-11.3274
▁чува	-11.3283
400	-11.329
▁афганистан	-11.3307
▁будапеща	-11.3307
▁предпоставка	-11.3307
▁предшественик	-11.3307
▁спогодба	-11.3307
▁второкласния	-11.3307
▁новопостроен	-11.3307
▁принудително	-11.3307
▁стражица	-11.3307
▁извърши	-11.3307
▁изселили	-11.3307
▁царевец	-11.3307
▁какъв	-11.3308
▁участия	-11.3308
▁спектър	-11.3308
▁питейна	-11.3308
▁изселени	-11.3308
▁стивън	-11.3308
▁дзс	-11.3308
▁филиал	-11.3309
▁величков	-11.3309
▁комунистите	-11.3309
▁телеграф	-11.3309
▁роджър	-11.331
▁бедност	-11.3311
,1%	-11.3311
▁червенков	-11.3316
▁кантон	-11.3317
▁жестоко	-11.332
▁5000	-11.3329
▁наследява	-11.3331
▁вземе	-11.3331
▁потоци	-11.3339
▁гробници	-11.3341
иванов	-11.3346
▁биология	-11.3349
ium	-11.3355
▁полско	-11.336
ste	-11.3361
▁диамант	-11.3363
▁ихтиманска	-11.3368
▁лозар	-11.3373
▁видима	-11.3374
▁геран	-11.3378
видим	-11.3389
▁граматич	-11.3397
▁стоилов	-11.3399
жълт	-11.3404
▁изобретен	-11.3408
▁недоволство	-11.3408
▁стимулира	-11.3408
▁сунгурларе	-11.3408
▁диктатор	-11.3408
▁търговско	-11.3409
съвършен	-11.3409
възнесение	-11.3409
▁брашно	-11.3409
▁секунда	-11.3409
▁свещена	-11.341
▁отворена	-11.3411
успешна	-11.3411
▁джебел	-11.3412
▁хлеб	-11.3413
▁сладко	-11.3414
▁твърдение	-11.342
▁загинал	-11.3421
▁вътрешна	-11.3422
▁изобщо	-11.3423
▁върви	-11.3424
▁люлин	-11.3428
▁съпруг	-11.3429
▁николаево	-11.3432
котлен	-11.3439
▁социалистически	-11.3441
джъ	-11.3443
▁собственик	-11.3443
вярно	-11.345
▁родил	-11.3454
▁проучва	-11.3466
окръг	-11.3472
▁мохамед	-11.3486
▁брегова	-11.3487
▁спасение	-11.3497
▁псевдо	-11.3509
▁авраам	-11.3511
▁автентичен	-11.3511
▁помещение	-11.3511
▁предположения	-11.3511
▁процъфтява	-11.3511
▁служеб	-11.3511
▁тюринг	-11.3511
▁удостоен	-11.3511
▁чехословакия	-11.3511
▁дървесни	-11.3511
▁невестино	-11.3511
▁периферия	-11.3511
▁списъци	-11.3511
▁орфей	-11.3511
▁мениджър	-11.3511
▁макиавели	-11.3511
▁излужени	-11.3511
▁хумус	-11.3511
▁стряма	-11.3511
▁шенгенск	-11.3511
▁загреб	-11.3511
▁оксид	-11.3512
▁славянската	-11.3512
▁подхранва	-11.3513
▁дебърски	-11.3513
▁красиво	-11.3515
▁изпълни	-11.3516
▁фенове	-11.3517
▁пряка	-11.3518
гайтан	-11.3524
▁златоград	-11.3526
▁изтича	-11.3528
▁банков	-11.3531
▁продължителна	-11.3531
▁явор	-11.3541
▁протестанти	-11.3542
▁горещи	-11.3543
▁хуан	-11.3543
▁вратар	-11.3545
▁фотограф	-11.3553
▁старши	-11.3553
крив	-11.3564
▁ерма	-11.3569
последна	-11.3569
глинест	-11.3575
ly	-11.358
▁тенисист	-11.3589
против	-11.3589
добие	-11.36
драг	-11.3601
▁бесарабия	-11.3614
▁финландия	-11.3614
▁извлича	-11.3614
▁фабрики	-11.3614
▁посланик	-11.3614
▁регулира	-11.3614
▁хребет	-11.3614
▁условие	-11.3614
▁книжовна	-11.3614
▁ябълков	-11.3614
▁нарушава	-11.3614
▁онези	-11.3614
▁отрицателни	-11.3615
▁наследствен	-11.3615
▁белези	-11.3615
▁стабилно	-11.3615
▁ужас	-11.3615
▁магаре	-11.3617
▁чумна	-11.3618
▁получат	-11.3627
▁спаски	-11.3634
мощни	-11.3637
▁филипов	-11.3645
ингтън	-11.3651
▁you	-11.3652
пускането	-11.3654
▁брегове	-11.3654
▁лаборатория	-11.3658
▁паул	-11.3658
our	-11.3669
смърт	-11.3682
▁съчетан	-11.3683
▁решен	-11.3697
▁множествено	-11.3718
▁препоръчва	-11.3718
▁наводнения	-11.3718
▁словакия	-11.3718
▁съседство	-11.3718
▁вампир	-11.3718
▁брамс	-11.3718
▁иисус	-11.3718
▁премахнат	-11.3719
знаменит	-11.3719
▁аполон	-11.3719
▁форум	-11.3719
▁атанасий	-11.3721
▁оказал	-11.3724
▁строителна	-11.3747
▁състоят	-11.3773
▁граматик	-11.3774
km	-11.3779
септември	-11.3788
▁команд	-11.3794
възрастн	-11.3809
византийска	-11.381
▁скандинав	-11.3823
▁дирекция	-11.3823
▁ежегоден	-11.3823
▁изчислява	-11.3823
▁инвентар	-11.3823
▁категории	-11.3823
▁математическа	-11.3823
▁полупланински	-11.3823
▁редактира	-11.3823
▁стайнбек	-11.3823
▁холивуд	-11.3823
▁столетия	-11.3823
▁потушаване	-11.3823
▁светослав	-11.3823
аязмо	-11.3823
▁пушкин	-11.3823
▁успоредно	-11.3823
▁гурково	-11.3823
▁привлекат	-11.3824
месечна	-11.3824
▁едисън	-11.3824
▁присъда	-11.3825
▁антоний	-11.3826
▁киселини	-11.3826
▁сеновец	-11.3828
▁названия	-11.3831
▁следващо	-11.3832
▁трудности	-11.3837
comp	-11.385
▁укрива	-11.3851
играва	-11.3854
▁зими	-11.3855
▁руй	-11.3867
▁околийски	-11.3869
▁вилна	-11.3875
▁автономия	-11.3887
▁донася	-11.3893
▁прилагателни	-11.3895
димитров	-11.3897
▁формулира	-11.3904
2009	-11.3908
▁освещава	-11.3929
▁беломорието	-11.3929
▁вашингтон	-11.3929
▁озаглавен	-11.3929
▁мустафа	-11.3929
▁организатор	-11.3929
▁адвокат	-11.3929
▁франсис	-11.393
▁лисица	-11.393
▁облечен	-11.393
учител	-11.3931
бургас	-11.3935
▁победен	-11.3937
▁главиница	-11.3938
▁взето	-11.3938
▁80%	-11.3941
▁3,5	-11.3941
▁медичи	-11.3942
▁пламен	-11.3948
▁равенство	-11.3988
▁фотография	-11.3996
достъп	-11.4005
▁тогавашни	-11.4006
приятно	-11.4014
оложки	-11.4027
▁установил	-11.4028
▁ланг	-11.4032
консервативн	-11.4037
▁зърнено	-11.4037
▁заслуги	-11.4037
▁монумент	-11.4037
▁обстоятелства	-11.4037
▁осветление	-11.4037
▁отхвърлен	-11.4037
▁препитание	-11.4037
▁разграничава	-11.4037
▁трекляно	-11.4037
▁чипровци	-11.4037
world	-11.4037
▁етрополе	-11.4037
ight	-11.4037
▁разстояния	-11.4037
▁ябълка	-11.4037
▁елешница	-11.4037
▁заведение	-11.4037
▁лятно	-11.4038
▁изменение	-11.4039
▁халиф	-11.404
▁голема	-11.4041
▁златица	-11.4042
▁обяви	-11.4043
▁язов	-11.4046
▁даниел	-11.4079
tro	-11.41
бясн	-11.4109
▁забрана	-11.4116
▁социалисти	-11.4129
военни	-11.4134
▁паднал	-11.4144
▁радост	-11.4146
▁благоприятства	-11.4146
▁коефициент	-11.4146
▁композиция	-11.4146
▁лясковец	-11.4146
▁присъедини	-11.4146
▁укрепления	-11.4146
▁хилендарски	-11.4146
▁електричество	-11.4146
▁редакция	-11.4146
▁фосфор	-11.4146
▁целодневна	-11.4146
▁рубенс	-11.4146
▁неутрон	-11.4146
▁служби	-11.4146
▁приоритет	-11.4146
▁екзархисти	-11.4147
▁литва	-11.4147
▁аспекти	-11.4148
▁изкопа	-11.4148
▁аромат	-11.4148
ефект	-11.415
▁роберт	-11.415
▁взети	-11.415
▁желае	-11.4151
▁филипопол	-11.4153
▁крушево	-11.4154
▁правилно	-11.4179
▁агент	-11.419
▁рибни	-11.4191
▁подчинен	-11.4192
▁отговорност	-11.4194
жесток	-11.4211
▁прякор	-11.4218
▁произвол	-11.4256
▁пътешественик	-11.4256
▁слоеве	-11.4256
▁австрийска	-11.4256
▁французите	-11.4256
▁завоюва	-11.4256
▁индустриални	-11.4256
▁христа	-11.4256
▁оптим	-11.4258
▁мочур	-11.4258
▁природно	-11.4259
▁преработва	-11.4261
▁боровец	-11.4264
▁китка	-11.4266
▁твърдица	-11.427
▁сървър	-11.4271
▁забележителни	-11.4276
▁катун	-11.4287
програм	-11.4289
▁прабългари	-11.4296
метал	-11.4302
▁въже	-11.4305
▁ферман	-11.4306
▁хайн	-11.4308
▁изпитва	-11.431
глежда	-11.4313
▁понятие	-11.432
североизточно	-11.4338
▁бъз	-11.4346
▁popula	-11.4367
▁антарктика	-11.4367
▁библиотеки	-11.4367
▁параскева	-11.4367
▁същества	-11.4367
▁усъвършенства	-11.4367
▁хектара	-11.4367
▁хендрикс	-11.4367
▁автобиографи	-11.4367
▁ежегодни	-11.4367
▁уникален	-11.4367
▁калофер	-11.4367
▁модерен	-11.4367
▁химическа	-11.4367
▁геоложки	-11.4367
▁работилница	-11.4367
▁подслон	-11.4367
▁божество	-11.4367
▁птица	-11.4367
▁сложно	-11.4368
▁залесена	-11.4368
▁небето	-11.4368
ienne	-11.4369
▁художествено	-11.437
▁чувство	-11.4371
▁каварна	-11.4375
▁бернар	-11.4378
▁прокарва	-11.4381
▁старинни	-11.4384
▁насилие	-11.4387
▁тунел	-11.4389
фелд	-11.4394
▁родители	-11.4407
▁жак	-11.441
ide	-11.4424
джийска	-11.443
chem	-11.444
промишлен	-11.4462
ji	-11.4463
▁каблешков	-11.4479
▁пресъхва	-11.4479
▁хърватско	-11.4479
▁земеделци	-11.4479
▁институция	-11.4479
▁навечерието	-11.4479
▁посвещава	-11.4479
▁произношение	-11.4479
▁стихотворение	-11.4479
▁заплаща	-11.4479
▁комуникация	-11.4479
▁обяснение	-11.4479
▁публични	-11.4479
▁комунизма	-11.4479
▁обезлюдява	-11.4479
▁означен	-11.4479
▁почвени	-11.4479
▁пръснат	-11.4479
▁кукерски	-11.4479
▁взрив	-11.4479
▁триумф	-11.4479
▁мислене	-11.448
▁натрупва	-11.448
▁сърнена	-11.448
▁лозови	-11.448
▁еднакви	-11.448
▁плазма	-11.4483
▁годеч	-11.4483
▁органични	-11.4483
▁влахи	-11.4484
▁садово	-11.4484
▁германците	-11.4487
▁дулово	-11.4489
▁пресечен	-11.4493
▁населена	-11.4496
▁пенчо	-11.45
миньор	-11.4504
▁2:1	-11.4517
▁уол	-11.4532
техническа	-11.4532
▁гранд	-11.4532
▁египетски	-11.4537
▁костур	-11.4541
▁социо	-11.4552
▁часове	-11.4555
народно	-11.4574
преображенско	-11.4593
▁консумация	-11.4593
▁хипотези	-11.4593
▁четвъртфинал	-11.4593
▁етнографска	-11.4593
▁вавилон	-11.4593
▁обсажда	-11.4593
▁стъпки	-11.4593
▁впечатление	-11.4593
▁костенец	-11.4593
▁дребен	-11.4593
▁челеби	-11.4593
▁дошъл	-11.4593
▁изкупува	-11.4593
▁певческа	-11.4593
дружба	-11.4593
▁лекции	-11.4593
▁предпазва	-11.4593
▁вдясно	-11.4593
▁недостиг	-11.4593
▁химична	-11.4595
▁богомил	-11.4595
▁равнинна	-11.4595
▁префект	-11.4595
267	-11.4596
▁свиня	-11.4596
▁чавес	-11.4597
▁публикации	-11.4597
▁изотоп	-11.46
народни	-11.4614
ообразни	-11.4623
▁увеличение	-11.4633
формирането	-11.4639
▁семейни	-11.4644
▁разрешен	-11.4659
▁русенски	-11.4665
109	-11.4674
▁сливи	-11.4674
паднали	-11.4678
▁илинденско	-11.4678
паметник	-11.4683
александър	-11.4683
▁върхов	-11.4699
▁елизабет	-11.4708
▁имущество	-11.4708
▁самостоятелен	-11.4708
▁скулптор	-11.4708
▁сравнява	-11.4708
▁завинаги	-11.4708
▁маршал	-11.4708
▁замества	-11.4708
▁господинов	-11.4711
▁събрал	-11.4714
▁положени	-11.4715
▁кипър	-11.4717
▁цитира	-11.4719
▁поканен	-11.4723
▁слама	-11.4727
▁колеги	-11.4731
▁трибун	-11.4736
▁накити	-11.4745
▁находка	-11.4746
проходим	-11.4772
oine	-11.4776
комеди	-11.4781
▁субект	-11.4789
jo	-11.4803
▁разпадане	-11.4804
▁натурал	-11.481
▁биограф	-11.481
▁соколов	-11.4819
▁апартамент	-11.4824
песъчлив	-11.4824
▁алувиални	-11.4824
▁бахрейн	-11.4824
▁композира	-11.4824
▁министерска	-11.4824
▁победоносец	-11.4824
▁религиозен	-11.4824
▁сътрудник	-11.4824
▁сътрудничи	-11.4824
▁тръгнал	-11.4824
▁чомски	-11.4824
▁лучано	-11.4824
▁извисява	-11.4824
▁минимални	-11.4824
▁флорида	-11.4824
▁популация	-11.4824
▁единадесет	-11.4824
▁подчинява	-11.4824
▁стоичков	-11.4825
▁спътник	-11.4826
▁магистр	-11.4826
▁скелет	-11.4826
▁някогашни	-11.4827
партийна	-11.4829
▁унгарския	-11.4837
▁исус	-11.484
▁доставя	-11.485
▁слаба	-11.4859
опера	-11.4878
▁оборудван	-11.488
▁влиятел	-11.4893
▁андреев	-11.4908
▁промишлено	-11.491
различни	-11.492
група	-11.4921
▁вписан	-11.4933
отдалечени	-11.4941
▁възрожденска	-11.4941
▁екологично	-11.4942
▁завоевател	-11.4942
▁йероглиф	-11.4942
▁козлодуй	-11.4942
▁одобрява	-11.4942
▁предшественици	-11.4942
▁никифор	-11.4942
▁призовава	-11.4942
▁отбележи	-11.4942
▁древногръцки	-11.4942
▁алжир	-11.4942
▁възприет	-11.4942
▁търновско	-11.4942
▁мускул	-11.4943
▁приижда	-11.4943
▁гребен	-11.4944
▁ракет	-11.4947
▁вмро	-11.4948
▁закрита	-11.4951
▁джур	-11.4952
▁бомб	-11.4972
▁освободи	-11.4977
▁наказател	-11.4982
▁антоним	-11.4994
▁генов	-11.501
успешно	-11.504
североизток	-11.504
▁звуков	-11.505
▁дуранкулак	-11.5061
▁кооперации	-11.5061
▁присъединени	-11.5061
▁камбоджа	-11.5061
▁благотворител	-11.5061
▁конвенция	-11.5061
▁постановки	-11.5061
▁генерира	-11.5061
▁осигурен	-11.5061
▁кръчма	-11.5061
▁одеса	-11.5061
▁почивни	-11.5061
калугер	-11.5061
▁лисици	-11.5061
▁александрия	-11.5061
▁числи	-11.5062
▁акцент	-11.5062
▁жилище	-11.5063
▁отпечатан	-11.5065
▁стоун	-11.5068
наука	-11.5069
▁бекер	-11.507
▁захранва	-11.5072
▁аврен	-11.5072
▁разклонение	-11.5093
▁отвори	-11.5103
▁слаби	-11.5104
пристигането	-11.5123
271	-11.5141
▁доминиращ	-11.5146
бош	-11.5146
my	-11.5169
▁машиностроене	-11.5181
▁автентични	-11.5181
▁компилатор	-11.5181
▁литературно	-11.5181
▁неуспех	-11.5181
▁практики	-11.5181
▁тържества	-11.5181
▁убийства	-11.5181
▁кеплер	-11.5181
▁коминтерна	-11.5181
▁молитвен	-11.5181
▁котловини	-11.5181
▁кнежа	-11.5181
▁румънско	-11.5181
▁някъде	-11.5181
▁пристигнал	-11.5181
▁загубен	-11.5181
▁индианци	-11.5181
▁изброени	-11.5181
▁престой	-11.5181
▁изглед	-11.5182
▁номиниран	-11.5182
▁едгар	-11.5182
▁величина	-11.5183
▁модерно	-11.5183
▁физиолог	-11.5186
▁модул	-11.5187
▁хлор	-11.5188
▁метох	-11.5188
▁творци	-11.5188
▁отслабва	-11.5201
▁истинска	-11.5207
▁часовник	-11.5223
▁ударение	-11.5247
▁внася	-11.525
▁емблема	-11.5264
▁действително	-11.5284
както	-11.5298
интелигент	-11.5303
▁посещения	-11.5303
▁цвекло	-11.5303
▁алгоритми	-11.5303
▁влечуги	-11.5303
▁любимец	-11.5303
▁обработен	-11.5303
▁подпочвени	-11.5303
▁предоставен	-11.5303
▁репресии	-11.5303
▁убеждава	-11.5303
▁физикогеографск	-11.5303
▁кръстопът	-11.5303
▁прусия	-11.5303
дължат	-11.5303
▁диего	-11.5303
▁прераства	-11.5303
▁изменения	-11.5303
▁пионер	-11.5303
▁шумахер	-11.5303
▁постигне	-11.5303
▁разчленен	-11.5304
▁плиска	-11.5304
▁корея	-11.5304
▁гигант	-11.5305
▁обърнат	-11.531
▁биологични	-11.5311
▁заварва	-11.5312
▁1:1	-11.5316
▁пчеларство	-11.5319
упорит	-11.5324
▁човешка	-11.5338
веждат	-11.5339
континенталната	-11.534
▁детско	-11.5355
▁инициатив	-11.5362
▁нагрява	-11.5379
▁обнародван	-11.5379
одринска	-11.5383
▁дълг	-11.5408
използва	-11.541
естествен	-11.5411
▁очевидно	-11.5426
▁предположение	-11.5426
▁списаревски	-11.5426
▁поглъща	-11.5426
▁черноочене	-11.5426
▁чарлз	-11.5426
▁украса	-11.5426
▁врагове	-11.5427
▁пациент	-11.5427
▁отсъствие	-11.5427
квартира	-11.5427
▁понижава	-11.5427
▁2:0	-11.5427
▁занятия	-11.5427
шотландск	-11.5427
▁изселници	-11.5427
динамика	-11.5427
осогово	-11.5427
▁четвъртък	-11.5428
▁атентат	-11.5428
▁посев	-11.5429
▁промишлена	-11.5432
▁схема	-11.5433
квантов	-11.5438
▁трансформира	-11.5453
тежки	-11.5453
имназ	-11.5456
mon	-11.5465
речие	-11.5473
▁немци	-11.5478
▁изключва	-11.5482
▁железар	-11.5505
▁континентални	-11.5528
включително	-11.5537
опасни	-11.554
▁велко	-11.5546
атлантическ	-11.5551
▁азербайджан	-11.5551
▁библиотеч	-11.5551
▁висоцки	-11.5551
▁джоузеф	-11.5551
▁костинброд	-11.5551
▁осъществен	-11.5551
▁продажби	-11.5551
▁реконструиран	-11.5551
▁реставрация	-11.5551
▁температурни	-11.5551
▁юридически	-11.5551
▁стралджа	-11.5551
▁издълбан	-11.5551
▁анадола	-11.5551
▁урежда	-11.5551
▁насилствено	-11.5552
▁първенци	-11.5552
▁уефа	-11.5552
▁реколта	-11.5552
конкретно	-11.5552
хіх	-11.5552
внушителн	-11.5552
▁премине	-11.5552
▁драматичен	-11.5552
▁конявска	-11.5553
▁туризмът	-11.5553
▁симитли	-11.5554
▁националисти	-11.5554
▁ястие	-11.5554
▁астролог	-11.5554
▁демократична	-11.5554
▁принуд	-11.5555
▁шабла	-11.5557
▁символизира	-11.556
▁арабска	-11.5563
▁нютон	-11.5566
▁сутрин	-11.559
▁законодателство	-11.5613
мъчени	-11.5617
236	-11.5648
▁гюл	-11.5651
високосна	-11.5665
популярно	-11.5678
▁социален	-11.5678
▁съпътства	-11.5678
▁трикорабна	-11.5678
▁храброст	-11.5678
▁церемония	-11.5678
▁застъпва	-11.5678
▁краевед	-11.5678
▁множества	-11.5678
▁позволи	-11.5678
▁реагира	-11.5678
▁варшавск	-11.5678
▁бележки	-11.5678
▁междин	-11.5678
▁демографски	-11.5678
▁дясната	-11.5678
▁претенции	-11.5678
▁пристъп	-11.5678
▁съперник	-11.5678
▁звуци	-11.5678
▁съпроводен	-11.5678
▁огнище	-11.5678
▁работилници	-11.5678
▁фасул	-11.5678
▁обогатява	-11.5678
▁отражение	-11.5679
▁политици	-11.5679
▁валентин	-11.568
▁аналитич	-11.568
▁крупни	-11.5681
▁пътеки	-11.5684
джийство	-11.5684
либералната	-11.5689
▁исак	-11.5705
▁говорещи	-11.5705
▁златно	-11.5707
изповед	-11.5714
демократ	-11.5723
xvii	-11.5746
▁пчелар	-11.575
благороден	-11.5754
▁часовникова	-11.5762
▁хранителна	-11.5778
▁рогат	-11.5796
▁амплитуда	-11.5806
▁диоклециан	-11.5806
▁ландшафт	-11.5806
▁санаториум	-11.5806
▁съобщения	-11.5806
▁java	-11.5806
▁величествен	-11.5806
▁неофит	-11.5806
▁укрепи	-11.5806
▁химичен	-11.5806
▁юноши	-11.5806
▁сатовча	-11.5806
▁арнаут	-11.5806
▁цифри	-11.5807
▁бояджиев	-11.5807
▁отстранен	-11.5808
▁божурище	-11.5809
▁грешки	-11.5809
▁достойн	-11.5809
▁дебютира	-11.5811
▁хартия	-11.5811
▁влияния	-11.5811
▁дъждовни	-11.5813
▁направят	-11.5814
▁радиация	-11.5832
звук	-11.5841
▁скална	-11.5848
▁строители	-11.585
▁истинско	-11.5852
▁грозд	-11.5873
ion	-11.5886
▁цирк	-11.5887
античен	-11.5901
▁електрифицира	-11.5905
бийтълс	-11.5936
▁спонсор	-11.5936
▁юбилей	-11.5936
▁еднокорабна	-11.5936
▁обещава	-11.5936
▁приказки	-11.5936
▁съществително	-11.5936
▁балтийско	-11.5936
▁същество	-11.5936
▁танцува	-11.5936
▁хардуер	-11.5936
▁европейци	-11.5936
▁съмнение	-11.5936
▁виртуал	-11.5936
▁изпрати	-11.5936
▁сушица	-11.5936
▁физични	-11.5936
▁девойка	-11.5936
▁дефиле	-11.5936
▁лисец	-11.5936
▁кардинал	-11.5936
▁черноморско	-11.5936
▁сценарист	-11.5937
▁гущер	-11.5937
▁оспорва	-11.5937
▁военноморски	-11.5937
▁ядрени	-11.5937
▁подновява	-11.5939
▁трафик	-11.594
▁авиация	-11.5941
▁оброк	-11.5943
land	-11.5944
франс	-11.5945
просветно	-11.5945
▁чернев	-11.5946
▁желан	-11.5949
▁деятел	-11.595
виктория	-11.5957
▁кърджалийски	-11.5961
▁велчев	-11.5973
▁старогръцк	-11.6004
▁западноевропей	-11.6031
югоизток	-11.606
—	-11.606
константин	-11.606
родопски	-11.6061
▁завърши	-11.6061
▁интерпретация	-11.6068
▁провадийска	-11.6068
▁реконструкция	-11.6068
▁задоволява	-11.6068
▁изложби	-11.6068
▁неочакван	-11.6068
▁огражден	-11.6068
▁привилегии	-11.6068
▁придружен	-11.6068
▁първоначалния	-11.6068
▁сериозна	-11.6068
▁улеснява	-11.6068
▁учебно	-11.6068
▁юстиниан	-11.6068
▁подчертава	-11.6068
▁равновесие	-11.6068
▁кейнс	-11.6068
▁сердика	-11.6068
▁галерии	-11.6068
▁латвия	-11.6068
▁егейско	-11.6068
▁анексира	-11.6068
▁постановка	-11.6068
▁пострадал	-11.6068
▁атлетик	-11.6068
▁очертан	-11.6068
▁експерт	-11.6068
▁молекула	-11.6068
▁бенгал	-11.6069
▁остатък	-11.6071
▁въртене	-11.6072
▁грешка	-11.6075
▁равнинни	-11.6078
▁отворено	-11.609
▁отвесни	-11.6102
▁поляци	-11.6109
▁тераси	-11.6139
▁влашки	-11.6184
лейтенант	-11.6201
▁ботвиник	-11.6201
▁възобновен	-11.6201
▁гравитация	-11.6201
▁екземпляр	-11.6201
▁изобилие	-11.6201
▁олимпиада	-11.6201
▁калигула	-11.6201
▁подножия	-11.6201
▁плънка	-11.6201
▁партийни	-11.6201
▁версай	-11.6201
▁девойки	-11.6201
▁дюкян	-11.6201
▁занаятчии	-11.6201
▁стопанисва	-11.6202
▁аляска	-11.6202
▁примирие	-11.6202
▁огражда	-11.6204
китай	-11.6204
▁изстрел	-11.6204
▁лятна	-11.6204
▁еоод	-11.6205
▁идентичност	-11.6205
▁знаят	-11.6205
▁хубава	-11.6211
▁хищни	-11.6212
▁наказание	-11.6217
▁относителна	-11.6218
▁лъки	-11.6227
очерк	-11.6282
▁плув	-11.629
▁справя	-11.6308
▁бутан	-11.6328
кюстендил	-11.6332
димитър	-11.6332
▁изобретява	-11.6336
▁военачалник	-11.6336
▁департамент	-11.6336
хирург	-11.6336
▁дестинация	-11.6336
▁доброволни	-11.6336
▁изтребител	-11.6336
▁кисимов	-11.6336
▁ляпчев	-11.6336
▁произтича	-11.6336
▁сближава	-11.6336
▁специфична	-11.6336
▁шкорпил	-11.6336
▁електроенергия	-11.6336
.12.19	-11.6336
▁грамота	-11.6336
▁занимания	-11.6336
▁батошево	-11.6336
▁оиср	-11.6336
▁аптека	-11.6336
▁оплаква	-11.6336
▁арагон	-11.6336
▁кардам	-11.6336
▁забавя	-11.6337
▁отсяда	-11.6337
азиатски	-11.6337
▁визуал	-11.6337
▁усвоява	-11.6338
▁японска	-11.6338
▁балканджии	-11.6338
▁обновява	-11.6339
▁школи	-11.6339
просветна	-11.634
▁полюс	-11.6348
▁череши	-11.6353
▁2/3	-11.6355
▁скално	-11.6359
▁отлично	-11.636
▁тъмни	-11.6367
европейска	-11.6377
техническо	-11.6379
демократическата	-11.6386
▁увеличен	-11.6424
криминал	-11.6435
политически	-11.6471
манастир	-11.6471
▁съответна	-11.6473
▁екзекутиран	-11.6473
▁емиграция	-11.6473
▁изречения	-11.6473
▁инструкции	-11.6473
▁принадлежал	-11.6473
▁процедура	-11.6473
▁пясъци	-11.6473
▁разпознава	-11.6473
▁рисунки	-11.6473
▁уимбълдън	-11.6473
▁физкултур	-11.6473
▁чипровско	-11.6473
▁читалищно	-11.6473
▁ябланица	-11.6473
▁предвождан	-11.6473
▁успял	-11.6473
▁депресия	-11.6473
▁ендемит	-11.6473
▁феликс	-11.6473
▁lsd	-11.6473
▁триъгълник	-11.6473
▁сложна	-11.6473
▁виреят	-11.6473
▁дефтер	-11.6473
▁испанците	-11.6473
▁гнездо	-11.6473
▁полегати	-11.6474
▁сведение	-11.6474
▁индустриална	-11.6474
▁ягоди	-11.6474
▁антонио	-11.6475
▁кънчев	-11.6475
▁габровско	-11.6475
▁домашна	-11.6476
▁пропаст	-11.6476
▁описана	-11.648
▁допълва	-11.6481
▁констант	-11.6482
▁съседи	-11.6484
▁зърна	-11.6488
▁хубави	-11.6502
космическ	-11.6544
▁нейков	-11.6546
▁прекъснат	-11.6562
▁третоклас	-11.66
американски	-11.6611
благоприятни	-11.6612
усложнен	-11.6612
▁високопланински	-11.6612
▁избегне	-11.6612
▁комбинации	-11.6612
▁комбинира	-11.6612
▁недостатъчно	-11.6612
▁немюсюлмански	-11.6612
▁предотвратява	-11.6612
▁принадлежащ	-11.6612
▁публицист	-11.6612
▁спокойствие	-11.6612
▁струмяни	-11.6612
▁хилядолетия	-11.6612
▁чужденци	-11.6612
▁бобошево	-11.6612
▁гвардия	-11.6612
▁криводол	-11.6612
▁прекрасна	-11.6612
▁мазнини	-11.6612
▁творчески	-11.6612
▁мигрира	-11.6612
▁вдовици	-11.6612
▁ориген	-11.6612
▁еднакво	-11.6612
▁растат	-11.6612
възродител	-11.6613
▁гръндж	-11.6613
▁кадри	-11.6613
▁григорий	-11.6614
▁чепинска	-11.6615
клуб	-11.6615
▁посетен	-11.6619
▁клиент	-11.663
▁змии	-11.6648
▁написал	-11.6652
▁комнин	-11.6659
уики	-11.6686
▁успешни	-11.6697
единствен	-11.6702
▁немско	-11.6717
пласт	-11.6752
▁възвръща	-11.6753
▁снеговалеж	-11.6753
▁башибозук	-11.6753
▁доброволно	-11.6753
▁разработка	-11.6753
▁спектакъл	-11.6753
▁сребърна	-11.6753
▁тенденции	-11.6753
▁тласък	-11.6753
▁юпитер	-11.6753
▁яребица	-11.6753
▁делегация	-11.6753
▁смърч	-11.6753
▁принцеса	-11.6753
▁разпростира	-11.6753
▁централа	-11.6753
▁кавалер	-11.6753
▁прибавя	-11.6753
▁положителни	-11.6753
▁прасета	-11.6753
▁прозорци	-11.6753
▁кастел	-11.6754
предимно	-11.6755
▁познания	-11.6755
▁влажни	-11.6755
▁настанени	-11.6756
когато	-11.6757
философ	-11.6757
▁служел	-11.6758
▁вляво	-11.6759
▁протестантски	-11.676
▁армии	-11.6771
▁аренд	-11.6775
▁развежда	-11.6776
▁върнал	-11.678
1,4	-11.6781
▁влезе	-11.6793
кажат	-11.6793
▁екология	-11.6794
вълнов	-11.6797
ботев	-11.6839
▁събран	-11.6874
▁предприе	-11.6879
▁чудотворец	-11.6896
▁вискяр	-11.6896
▁движат	-11.6896
▁историография	-11.6896
▁консумира	-11.6896
▁лисабон	-11.6896
▁неколкократно	-11.6896
▁присъединена	-11.6896
▁сблъсък	-11.6896
▁специфичен	-11.6896
▁уврежда	-11.6896
▁булгаков	-11.6896
▁молитва	-11.6896
▁унгарци	-11.6896
▁самодейност	-11.6896
▁пазарджишко	-11.6896
▁тежък	-11.6896
▁автогара	-11.6896
▁съселяни	-11.6896
▁анархист	-11.6896
▁почвена	-11.6896
▁хибрид	-11.6896
▁черковна	-11.6896
▁родопска	-11.6896
▁кестен	-11.6897
▁тексас	-11.6898
▁самодейни	-11.6899
▁плоски	-11.69
▁каролин	-11.69
териториално	-11.69
подобни	-11.6901
▁мулти	-11.6903
▁монтиран	-11.6915
▁георг	-11.6926
▁отвежда	-11.693
▁пропуска	-11.6932
▁адаптира	-11.7041
▁експедиции	-11.7041
▁овладява	-11.7041
▁провъзгласява	-11.7041
▁репутация	-11.7041
▁уравнения	-11.7041
▁читалищни	-11.7041
▁януарска	-11.7041
national	-11.7041
▁гравитацион	-11.7041
▁надвишава	-11.7041
▁дипломация	-11.7041
▁прекрасни	-11.7041
▁свършва	-11.7041
▁изгубен	-11.7041
▁осъжда	-11.7041
▁безспорно	-11.7041
▁президиум	-11.7041
▁колебания	-11.7041
▁михаел	-11.7041
▁яйце	-11.7041
▁келтски	-11.7041
▁корсика	-11.7041
▁изважда	-11.7041
▁оформи	-11.7041
▁агроном	-11.7041
▁мелнишка	-11.7041
▁елементарни	-11.7042
▁признаци	-11.7042
▁гъсти	-11.7043
характер	-11.7046
изгрев	-11.7046
▁излаз	-11.7048
▁излиш	-11.7049
народна	-11.7052
▁космически	-11.7056
древни	-11.7056
▁информационни	-11.7059
▁черешов	-11.7064
карбонатни	-11.7107
▁трактор	-11.7108
1,5	-11.713
оносни	-11.7138
животновъд	-11.7186
▁сблъсква	-11.7188
▁братовчед	-11.7188
▁джелепкешаните	-11.7188
▁експонати	-11.7188
▁корупция	-11.7188
▁монтескьо	-11.7188
▁оскъдни	-11.7188
▁цицерон	-11.7188
▁чепеларе	-11.7188
▁фокусира	-11.7188
▁изявява	-11.7188
▁врачанска	-11.7188
▁препитава	-11.7188
▁щастие	-11.7188
▁агенция	-11.7188
▁стойчев	-11.7188
▁неженени	-11.7188
▁фиксира	-11.7188
▁натрупа	-11.7188
▁нацистка	-11.7188
▁самодейци	-11.7189
▁прогонва	-11.7189
▁върши	-11.719
▁немската	-11.719
▁опака	-11.719
▁нормално	-11.7191
▁домашно	-11.7191
▁словенци	-11.7191
▁подарява	-11.7192
▁предимство	-11.7192
▁рилска	-11.7193
мюсюлмани	-11.7195
хълмист	-11.7196
▁езиковед	-11.7197
изток	-11.7201
бивш	-11.7228
плаз	-11.7249
▁математик	-11.7256
александр	-11.7261
0,8	-11.727
важна	-11.7305
▁движе	-11.7311
ключването	-11.7334
▁изготвя	-11.7337
▁консерватор	-11.7337
▁айвазовски	-11.7337
▁андерсен	-11.7337
▁архипелаг	-11.7337
▁брюксел	-11.7337
▁възпитание	-11.7337
▁гренландия	-11.7337
▁диоксид	-11.7337
▁значения	-11.7337
▁малцинства	-11.7337
▁предпоставки	-11.7337
▁самоуправление	-11.7337
▁цивилизации	-11.7337
▁аматьор	-11.7337
▁конкурент	-11.7337
▁секунди	-11.7337
▁целогодишно	-11.7337
▁донякъде	-11.7337
▁професия	-11.7337
▁образователна	-11.7337
▁уважение	-11.7337
▁ксенон	-11.7337
▁зарезан	-11.7337
▁статус	-11.7337
▁аврамов	-11.7337
▁арменци	-11.7337
▁битоля	-11.7338
▁вторник	-11.7339
▁британско	-11.734
▁отличител	-11.734
▁юлска	-11.734
▁управа	-11.734
▁екипаж	-11.734
континент	-11.7346
▁изправя	-11.7349
▁производствени	-11.735
▁мисии	-11.7356
неолит	-11.7357
▁обикол	-11.736
▁1/3	-11.7363
▁прокаран	-11.7367
▁подводни	-11.7376
босненски	-11.741
6,5	-11.7413
▁спрян	-11.7414
▁чорба	-11.7415
7,5	-11.744
▁възглед	-11.7465
производствен	-11.7476
▁артилерийски	-11.7488
▁взаимоотношения	-11.7488
▁гулянци	-11.7488
▁заговезни	-11.7488
▁изографисан	-11.7488
▁конструкции	-11.7488
▁норвежки	-11.7488
▁придружава	-11.7488
▁прозвище	-11.7488
▁пропорционал	-11.7488
▁сергей	-11.7488
▁старозагорски	-11.7488
▁старозагорско	-11.7488
▁стъбло	-11.7488
▁угърчин	-11.7488
▁инсталира	-11.7488
▁литургия	-11.7488
▁малцинство	-11.7488
▁отблъсква	-11.7488
▁самосъзнание	-11.7488
▁украински	-11.7488
▁фелдшер	-11.7488
▁миладинов	-11.7488
▁римокатолическ	-11.7488
▁училищно	-11.7488
▁audi	-11.7488
▁мозък	-11.7489
▁елиминира	-11.7489
▁хамбар	-11.7489
▁въстания	-11.7489
сребърен	-11.7489
▁кръстовище	-11.7489
▁гордост	-11.7489
▁девня	-11.7489
▁критерии	-11.7489
▁мемоар	-11.7489
▁проверка	-11.7489
▁уроци	-11.7489
атрактивн	-11.7489
▁плюс	-11.749
▁заплата	-11.749
▁напитка	-11.749
▁монако	-11.749
▁осеян	-11.749
вероятна	-11.7491
▁откроява	-11.7492
▁сорго	-11.7495
▁инициатор	-11.7495
технически	-11.7503
активно	-11.7506
1,3	-11.7564
официалният	-11.7633
▁бангладеш	-11.7642
▁бомбардировки	-11.7642
▁витгенщайн	-11.7642
▁дисертация	-11.7642
▁железопътен	-11.7642
▁италианци	-11.7642
▁напоследък	-11.7642
▁парагвай	-11.7642
▁раннохристиянск	-11.7642
▁всестранна	-11.7642
▁диригент	-11.7642
▁доброволен	-11.7642
▁киносалон	-11.7642
▁поражения	-11.7642
▁екатерина	-11.7642
▁погрешно	-11.7642
▁сондаж	-11.7642
▁съобщение	-11.7642
▁широколистна	-11.7642
▁дионис	-11.7642
▁заснема	-11.7642
▁крапец	-11.7642
▁колонизация	-11.7642
▁физическо	-11.7642
▁къмпинг	-11.7643
▁коментар	-11.7643
индустриализация	-11.7643
▁проследява	-11.7643
▁равнинно	-11.7643
▁чолаков	-11.7644
▁караджов	-11.7645
▁облича	-11.7647
▁причинен	-11.7651
▁долинно	-11.7655
способни	-11.7696
приемник	-11.7746
среща	-11.776
зрял	-11.7772
www	-11.7799
▁абритус	-11.7799
▁асистент	-11.7799
▁безопасност	-11.7799
▁бойчиновци	-11.7799
▁вдъхновява	-11.7799
▁йозеф	-11.7799
▁мюсюлманска	-11.7799
▁опустошен	-11.7799
▁осъзнава	-11.7799
▁симптоми	-11.7799
▁синтаксис	-11.7799
▁специфично	-11.7799
▁бонапарт	-11.7799
▁веркович	-11.7799
▁извоюва	-11.7799
▁повдига	-11.7799
▁загубва	-11.7799
▁прилежащи	-11.7799
▁болярово	-11.7799
▁чикаго	-11.7799
▁унищожи	-11.7799
▁кричим	-11.7799
▁насекоми	-11.7799
▁ергени	-11.7799
▁вълчан	-11.7799
▁нобелови	-11.7799
▁построят	-11.7799
▁завзет	-11.78
▁стигнал	-11.78
▁ширини	-11.78
▁племенник	-11.78
▁еврейска	-11.78
▁изгонен	-11.78
▁разпределя	-11.7801
▁бягство	-11.7803
▁витамин	-11.7803
▁идеология	-11.7805
стабилна	-11.7806
▁филибе	-11.7806
▁небесни	-11.7809
▁сапарев	-11.7813
производител	-11.7816
▁изнесе	-11.7853
1,6	-11.7856
записки	-11.7913
кореспондент	-11.7957
▁британците	-11.7957
▁дипломира	-11.7957
▁екопътека	-11.7957
▁категорично	-11.7957
▁кореспонденция	-11.7957
▁лавоазие	-11.7957
▁лайпциг	-11.7957
▁трагедия	-11.7957
▁функционер	-11.7957
▁якоруда	-11.7957
▁бундеслига	-11.7957
▁глобус	-11.7957
▁заседание	-11.7957
▁йерархия	-11.7957
▁кампании	-11.7957
▁ньойския	-11.7957
▁преодолява	-11.7957
▁свободи	-11.7957
▁спокойно	-11.7957
изненадва	-11.7957
▁прекалено	-11.7957
▁стабилизира	-11.7957
▁подготвен	-11.7957
▁исмаил	-11.7957
▁стръмен	-11.7957
▁плочки	-11.7957
▁гагауз	-11.7957
▁наводнение	-11.7957
▁притежател	-11.7957
▁севлиевск	-11.7958
▁дребно	-11.7958
буржоа	-11.7958
▁сицилия	-11.7958
оезични	-11.7958
▁подагра	-11.7958
▁метеорологични	-11.7959
▁игумен	-11.7959
▁рудници	-11.796
просветен	-11.7961
списък	-11.7978
инженер	-11.7978
5,5	-11.7979
▁стойчо	-11.7989
младият	-11.8011
▁дебат	-11.8077
▁microsoft	-11.8119
▁андромеда	-11.8119
▁арбанаси	-11.8119
▁ахелой	-11.8119
▁богослужение	-11.8119
▁говедовъдство	-11.8119
▁двуетажна	-11.8119
▁денонощие	-11.8119
▁изгнание	-11.8119
▁интегрира	-11.8119
▁координира	-11.8119
▁меандри	-11.8119
▁притежание	-11.8119
▁причислява	-11.8119
▁сблъсъци	-11.8119
▁съпротивление	-11.8119
▁хепатит	-11.8119
▁швейцарски	-11.8119
▁замръзва	-11.8119
▁иконопис	-11.8119
▁мемориал	-11.8119
▁продуцира	-11.8119
▁възкачва	-11.8119
▁калотина	-11.8119
▁веслец	-11.8119
▁теорема	-11.8119
▁калугерово	-11.8119
▁столетие	-11.8119
▁(2000)	-11.8119
▁плочка	-11.8119
▁индивиди	-11.8119
▁подчертан	-11.8119
▁посмъртно	-11.8119
▁достигнат	-11.812
▁обедини	-11.8121
▁тренира	-11.8121
▁изхранва	-11.8122
▁доверие	-11.8124
▁естество	-11.8126
▁признак	-11.813
▁златев	-11.8139
психологическ	-11.8148
▁християн	-11.819
ременно	-11.8208
▁римляни	-11.821
▁лаборатор	-11.8212
справедлив	-11.8282
▁представление	-11.8283
▁селскостопанско	-11.8283
▁срацимир	-11.8283
▁стихосбирка	-11.8283
▁чифлици	-11.8283
▁брусарци	-11.8283
▁вишовград	-11.8283
▁имигранти	-11.8283
▁конструира	-11.8283
▁лудогорието	-11.8283
▁оксфорд	-11.8283
▁предотврати	-11.8283
▁пространства	-11.8283
▁старопланински	-11.8283
▁сражава	-11.8283
▁хамбург	-11.8283
редиземноморието	-11.8283
▁ловнидол	-11.8283
▁локализира	-11.8283
▁нрб	-11.8283
▁хроника	-11.8283
▁варвара	-11.8283
▁станислав	-11.8283
▁грузия	-11.8283
▁измислен	-11.8283
▁джизие	-11.8283
▁ефективност	-11.8283
▁фасада	-11.8283
▁евгени	-11.8283
▁ръчно	-11.8283
▁подправки	-11.8283
▁книжовно	-11.8284
▁сеитба	-11.8284
▁подбалкански	-11.8284
▁тераса	-11.8284
▁посолство	-11.8285
▁подробни	-11.8288
▁керамич	-11.8289
▁двойни	-11.8291
▁ирландски	-11.8294
▁виенския	-11.8297
локомотив	-11.8308
основно	-11.8309
престъп	-11.8328
▁преброявания	-11.8361
последовател	-11.8412
▁обоснов	-11.8414
▁неуспешни	-11.8445
▁цензура	-11.8449
▁алгебра	-11.8449
▁водорасли	-11.8449
▁декларира	-11.8449
▁жуау	-11.8449
▁партизански	-11.8449
▁престъпления	-11.8449
▁стокхолм	-11.8449
▁тръстика	-11.8449
▁укрепени	-11.8449
▁черновръшки	-11.8449
▁охлажда	-11.8449
▁уважава	-11.8449
▁грабеж	-11.8449
▁подрежда	-11.8449
▁суходолие	-11.8449
▁ибрахим	-11.8449
▁оброчни	-11.8449
▁ориентация	-11.8449
▁просветител	-11.845
▁уейн	-11.845
▁женева	-11.845
▁абдул	-11.845
▁нужно	-11.845
▁банкя	-11.845
▁нараснал	-11.8452
▁знепол	-11.8453
крепост	-11.8478
филип	-11.8492
статистическ	-11.861
осептемврийския	-11.8619
▁артилерия	-11.8619
▁батенберг	-11.8619
▁доближава	-11.8619
▁икономист	-11.8619
▁пълководец	-11.8619
▁ферментация	-11.8619
▁оцелял	-11.8619
▁електрическо	-11.8619
▁опозицион	-11.8619
▁румънци	-11.8619
▁джумая	-11.8619
▁сплави	-11.8619
▁зевс	-11.8619
черноморец	-11.8619
▁панега	-11.8619
оранжев	-11.8619
▁легендарния	-11.862
▁излъчен	-11.862
▁проводник	-11.862
▁оживен	-11.8621
▁излезе	-11.8621
▁тираж	-11.8621
▁някогашна	-11.8621
▁парцел	-11.8622
▁флор	-11.8639
популярна	-11.865
▁хетск	-11.8658
1572	-11.8663
ционалсоциалисти	-11.8685
особено	-11.8691
вкл	-11.8719
▁ресурс	-11.8723
съвместим	-11.8744
▁библейски	-11.8791
▁взаимодейства	-11.8791
▁върбовка	-11.8791
▁дружества	-11.8791
▁каспичан	-11.8791
▁ликвидация	-11.8791
▁незабавно	-11.8791
▁поддръжници	-11.8791
▁полукълбо	-11.8791
▁сериозен	-11.8791
▁създадат	-11.8791
▁укрепено	-11.8791
▁австралийски	-11.8791
▁брайън	-11.8791
▁гросмайстор	-11.8791
▁борхес	-11.8791
▁врачанско	-11.8791
▁габриел	-11.8791
▁индустриално	-11.8791
▁радославов	-11.8791
▁поручик	-11.8791
▁ранглиста	-11.8791
▁хайдушки	-11.8791
▁добринище	-11.8791
▁мегдан	-11.8791
▁морфология	-11.8791
▁шивашки	-11.8791
▁омъжва	-11.8791
▁поселения	-11.8791
▁чарлс	-11.8791
▁добротица	-11.8791
▁двойно	-11.8791
▁британия	-11.8791
▁игнатиев	-11.8791
▁влажна	-11.8792
▁операционна	-11.8792
▁прекръстен	-11.8792
▁кьолн	-11.8792
▁плоско	-11.8793
граничар	-11.8794
▁смислов	-11.8794
▁кварк	-11.8799
▁черкви	-11.8805
▁габаре	-11.881
веднъж	-11.8825
смислен	-11.8841
▁днешни	-11.8852
▁туристическо	-11.8869
▁британска	-11.8879
сочват	-11.8909
покров	-11.8946
сакскобургготски	-11.8967
▁банкноти	-11.8967
▁блестящ	-11.8967
▁брацигово	-11.8967
▁галактики	-11.8967
▁дървесина	-11.8967
▁изобразително	-11.8967
▁израилтяните	-11.8967
▁интелектуалци	-11.8967
▁композиции	-11.8967
▁местообитания	-11.8967
▁мусолини	-11.8967
▁надпревара	-11.8967
▁приближава	-11.8967
▁регистрация	-11.8967
▁сервантес	-11.8967
▁шекспир	-11.8967
▁ветеринар	-11.8967
▁мрежов	-11.8967
▁околовръст	-11.8967
▁стратегия	-11.8967
▁асоциира	-11.8967
▁gnu	-11.8967
▁китарист	-11.8967
▁кръчми	-11.8967
пространствен	-11.8967
▁дервиш	-11.8967
▁лозница	-11.8967
▁биологично	-11.8967
▁заимства	-11.8967
▁егейска	-11.8967
▁постъпи	-11.8967
▁роналд	-11.8967
▁мъченици	-11.8967
▁юруци	-11.8968
▁фашист	-11.8968
▁одриск	-11.8968
▁предградия	-11.8968
▁нарушение	-11.897
▁тюлен	-11.897
▁оценен	-11.897
▁патриотич	-11.8971
▁паразит	-11.8971
▁моряци	-11.8972
стабилни	-11.8976
официално	-11.9004
▁вълчо	-11.9032
▁разпръс	-11.9068
тържествен	-11.9142
▁канцелария	-11.9145
▁окончание	-11.9145
▁debian	-11.9145
▁алгоритъм	-11.9145
▁английско	-11.9145
▁великомъченик	-11.9145
▁въобще	-11.9145
▁интеграл	-11.9145
▁неуспешен	-11.9145
▁основоположник	-11.9145
▁упражнения	-11.9145
▁фредерик	-11.9145
▁хърватската	-11.9145
▁црънча	-11.9145
▁японците	-11.9145
антифашист	-11.9145
▁върхът	-11.9145
▁спомня	-11.9145
▁успешен	-11.9145
▁хърсово	-11.9145
▁доктрина	-11.9145
▁екстрем	-11.9145
▁предшества	-11.9145
▁приготвен	-11.9145
▁разбойници	-11.9145
▁пакистан	-11.9145
▁разгледа	-11.9145
▁девствен	-11.9145
▁3:0	-11.9145
▁ограбва	-11.9145
▁приживе	-11.9146
▁престъпност	-11.9146
▁бурбон	-11.9154
пауза	-11.9173
▁формули	-11.9188
работни	-11.9203
▁кожухар	-11.9327
▁декоративни	-11.9327
▁дефиниции	-11.9327
▁обозначен	-11.9327
▁отпадъци	-11.9327
▁политбюро	-11.9327
▁последствия	-11.9327
▁просвещението	-11.9327
▁пътешествие	-11.9327
▁туберкулоза	-11.9327
▁уикипедия	-11.9327
▁уругвай	-11.9327
▁шарапова	-11.9327
▁шрифт	-11.9327
▁алфред	-11.9327
▁обхванат	-11.9327
▁разтваря	-11.9327
▁тревненски	-11.9327
▁серафим	-11.9327
▁суходолия	-11.9327
задълбочен	-11.9327
риголето	-11.9327
▁присъжда	-11.9327
▁положително	-11.9327
▁езикознание	-11.9327
бележат	-11.9327
▁жорж	-11.9327
▁бергман	-11.9327
▁съединява	-11.9327
▁справедливост	-11.9327
▁преустроен	-11.9328
▁работно	-11.9328
▁цигански	-11.9328
▁разкопан	-11.9328
▁убеден	-11.9328
▁пантеон	-11.9328
▁ягело	-11.9328
▁кирпич	-11.9328
▁успоредни	-11.9328
▁спътници	-11.9329
▁килими	-11.9329
▁безкрайно	-11.9329
▁лишава	-11.9331
▁клод	-11.9343
▁синтетич	-11.9345
президент	-11.9371
доктор	-11.9372
▁обнародва	-11.9397
водород	-11.9401
▁предварител	-11.9453
▁безплатно	-11.9512
▁бръшлян	-11.9512
▁булевард	-11.9512
▁велбъжд	-11.9512
▁взаимодействия	-11.9512
▁гнездят	-11.9512
▁египтяни	-11.9512
▁експлоатира	-11.9512
▁изпреварва	-11.9512
▁лихтенщайн	-11.9512
▁неутралитет	-11.9512
▁нископланински	-11.9512
▁онлайн	-11.9512
▁опълченци	-11.9512
▁прехвърлен	-11.9512
▁производства	-11.9512
▁туховища	-11.9512
▁числящ	-11.9512
▁екватора	-11.9512
▁унгарска	-11.9512
▁urbe	-11.9512
▁академични	-11.9512
▁кълвач	-11.9512
▁обувки	-11.9512
▁опонент	-11.9512
▁преизбран	-11.9512
▁стремят	-11.9512
▁мегалит	-11.9512
▁евклид	-11.9512
▁количествен	-11.9512
▁войнуци	-11.9512
▁многообразие	-11.9513
▁изтъква	-11.9513
▁каруци	-11.9514
▁течащи	-11.9514
фрактал	-11.9514
▁поделение	-11.9517
генерал	-11.956
звено	-11.9641
1774	-11.965
▁александ	-11.9664
▁окончател	-11.9698
вземането	-11.97
▁интеграция	-11.9701
▁конфедерация	-11.9701
▁момчилов	-11.9701
▁размножаване	-11.9701
калифорнийски	-11.9701
фийлд	-11.9701
▁condita	-11.9701
▁внезапно	-11.9701
<	-13.328
