<unk>	0
<s>	0
</s>	0
।	-3.37138
,	-3.84917
ের	-4.09888
র	-4.33388
.	-4.33902
"	-4.38092
="	-4.41567
▁	-4.52538
ে	-4.6141
▁এবং	-4.62372
▁ও	-4.97554
doc	-5.1064
>	-5.10703
-	-5.11046
▁হয়	-5.11316
▁করে	-5.24993
▁একটি	-5.27837
▁(	-5.30167
▁এই	-5.40748
কে	-5.44947
▁##	-5.49443
▁তার	-5.52985
d	-5.58854
)	-5.58945
▁করা	-5.595
▁থেকে	-5.62575
ন	-5.6375
▁"	-5.64337
/	-5.67152
▁এর	-5.70905
ই	-5.73655
টি	-5.75174
▁করেন	-5.77924
?	-5.78229
▁তিনি	-5.78945
org	-5.79353
bn	-5.79611
▁<	-5.79676
://	-5.79724
wiki	-5.79835
▁id	-5.79853
https	-5.79862
wikipedia	-5.79901
curi	-5.79947
▁url	-5.80008
▁categories	-5.80013
▁title	-5.80017
▁</	-5.80363
▁সালে	-5.81097
▁মধ্যে	-5.81727
▁বা	-5.82675
য়	-5.89644
ক	-5.95078
▁জন্য	-6.00167
ও	-6.02125
▁ছিল	-6.10213
স	-6.10242
তে	-6.10667
রা	-6.12225
ম	-6.24622
▁হল	-6.26457
▁হার	-6.27219
দের	-6.28502
▁এ	-6.29939
▁সালের	-6.32793
▁সাথে	-6.3654
ি	-6.36877
▁যা	-6.37476
▁যে	-6.38436
ী	-6.41256
া	-6.44042
ল	-6.45653
▁রয়েছে	-6.48693
%	-6.49378
▁যায়	-6.49996
▁না	-6.53191
▁এটি	-6.53388
▁বছর	-6.56639
:	-6.60174
▁হিসেবে	-6.6094
▁ভারতের	-6.63901
▁প্রথম	-6.64484
▁সাক্ষরতার	-6.6744
▁এক	-6.68235
▁হয়ে	-6.68332
জ	-6.71572
তা	-6.7548
▁হয়েছে	-6.77424
▁পর	-6.78032
ব	-6.78372
না	-6.79287
ত	-6.79933
▁অ	-6.80329
▁জন	-6.81854
▁করতে	-6.84072
▁হয়েছিল	-6.84739
▁ছিলেন	-6.87445
▁সময়	-6.88182
▁তাদের	-6.89325
ট	-6.93805
;	-6.94952
▁থাকে	-6.96043
▁বেশি	-6.96295
%।	-6.96301
▁নিয়ে	-6.97454
▁করার	-6.97565
ভাবে	-6.98561
ীয়	-6.99602
▁শহরের	-6.99641
প	-7.0153
▁শুরু	-7.01774
গুলি	-7.02373
নি	-7.02442
▁প্রায়	-7.02505
▁বিভিন্ন	-7.02509
লি	-7.03428
▁কিছু	-7.04201
▁নাম	-7.06429
=	-7.0743
▁ভাষা	-7.08938
▁পর্যন্ত	-7.09871
▁দ্বারা	-7.10016
▁কম	-7.10219
▁বলে	-7.10749
▁জনসংখ্যার	-7.11032
শ	-7.11244
লা	-7.11485
=3	-7.12793
▁তা	-7.13192
▁হতে	-7.13513
▁অনেক	-7.13956
▁ব্যবহার	-7.13992
8	-7.14545
▁জেলার	-7.14766
▁বি	-7.15413
▁পারে	-7.17182
▁করেছিলেন	-7.1754
▁নামে	-7.17584
▁১৮	-7.17696
▁আ	-7.18078
▁তারা	-7.18199
▁প্রধান	-7.18256
s	-7.18765
▁দিয়ে	-7.20222
▁হিসাবে	-7.21098
দ	-7.21324
বি	-7.21522
▁মাধ্যমে	-7.21771
মা	-7.22123
▁কাজ	-7.22203
▁এখানে	-7.2253
▁শহর	-7.23108
পুর	-7.23133
▁হন	-7.23541
িক	-7.23587
▁উপজেলা	-7.23646
▁একজন	-7.24536
৫	-7.24836
ো	-7.24871
▁অন্যান্য	-7.25846
▁কিন্তু	-7.26003
'	-7.26375
▁অবস্থিত	-7.26971
▁উত্তর	-7.27137
▁তবে	-7.27686
কা	-7.28222
িত	-7.29169
),	-7.2933
▁যার	-7.29466
এর	-7.30893
▁আছে	-7.31409
ড	-7.31483
বা	-7.31859
▁১	-7.32948
▁স	-7.33168
▁উপর	-7.33928
▁সে	-7.35142
রি	-7.35794
এ	-7.35842
গ	-7.35897
ঁ	-7.36083
সি	-7.36996
3	-7.37139
্য	-7.3894
▁কোন	-7.39486
▁দক্ষিণ	-7.39557
▁তৈরি	-7.4153
্	-7.41755
▁তাকে	-7.42312
▁পরে	-7.42652
▁প্রতি	-7.42898
▁আর	-7.43205
১৯	-7.44057
▁অংশ	-7.44675
▁৬	-7.45316
▁ই	-7.45935
হ	-7.47276
▁জনসংখ্যা	-7.48873
▁জাতীয়	-7.49066
▁অনুসারে	-7.49907
▁দিকে	-7.49954
▁পরিচিত	-7.50523
গুলো	-7.51375
সা	-7.51772
ার	-7.52217
ং	-7.53683
▁উপাত্ত	-7.54242
▁পূর্ব	-7.54969
▁মা	-7.5556
▁সাধারণ	-7.5578
▁দেখা	-7.57018
▁ফলে	-7.57201
▁সবচেয়	-7.58008
▁রাজ্যের	-7.58133
মি	-7.58299
)।	-7.58601
▁২	-7.59185
▁বিশ্ববিদ্যালয়	-7.60932
▁সি	-7.60934
গুলির	-7.61099
▁বলা	-7.61306
▁নতুন	-7.62083
▁বাংলাদেশের	-7.62517
ু	-7.62619
▁সংখ্যা	-7.62803
▁কারণে	-7.62957
▁।	-7.63975
ফ	-7.64384
ভ	-7.64581
চ	-7.64667
▁সু	-7.65202
▁লাভ	-7.6581
▁করেছিল	-7.6624
টা	-7.667
▁বড়	-7.66807
▁-	-7.66917
▁করেছেন	-7.67257
▁নি	-7.67955
▁পুরুষ	-7.68322
▁পাওয়া	-7.68496
পি	-7.68582
▁শিক্ষা	-7.69106
কার	-7.69181
খ	-7.69272
’	-7.69312
▁টি	-7.6948
▁সাল	-7.69942
▁প্র	-7.69971
▁যেমন	-7.69981
জা	-7.70292
▁শেষ	-7.70729
▁দ্বিতীয়	-7.70787
▁কাছে	-7.70885
▁বাংলা	-7.71153
উ	-7.71183
▁[[	-7.7119
=1	-7.71589
▁মে	-7.71617
4	-7.7163
▁করেছে	-7.71851
জি	-7.72212
▁নারী	-7.72649
▁১৭	-7.72654
▁সেই	-7.72681
▁সারা	-7.72939
দা	-7.72985
ণ	-7.73052
ঃ	-7.73561
▁ক	-7.73742
▁কা	-7.73757
আ	-7.74523
▁সহ	-7.7481
=2	-7.74874
▁ব	-7.75172
▁সরকার	-7.75771
▁নদী	-7.76507
য়া	-7.77086
%,	-7.77515
লে	-7.77789
▁বিশেষ	-7.77793
▁দেয়	-7.77967
▁৩	-7.78165
তার	-7.78734
▁ঢাকা	-7.7878
▁হচ্ছে	-7.7901
5	-7.79494
4"	-7.80016
▁মোট	-7.80326
|	-7.80412
▁দুটি	-7.80782
]]	-7.80885
▁মধ্য	-7.80894
টির	-7.81009
১	-7.81379
ডি	-7.8188
▁১০	-7.82189
6"	-7.82242
▁()	-7.82299
▁কারণ	-7.8246
▁যেখানে	-7.83077
▁বাংলাদেশ	-7.83083
▁দুই	-7.83387
▁হবে	-7.8364
লো	-7.83662
কো	-7.84008
▁১৫	-7.84106
▁নয়	-7.84345
▁যখন	-7.84662
▁ইতিহাস	-7.84928
y	-7.85404
বার	-7.85462
▁দেন	-7.8548
▁কথা	-7.85497
২	-7.85551
তি	-7.85642
▁আল	-7.85685
▁জেলা	-7.8583
▁'	-7.86288
▁তখন	-7.86409
▁সঙ্গে	-7.86582
▁২০০১	-7.87474
▁মার্কিন	-7.87572
▁পা	-7.87979
▁আরও	-7.88106
▁এলাকা	-7.88303
▁মতো	-7.88384
1"	-7.88524
▁অর্থ	-7.88754
▁বর্তমানে	-7.8917
র্	-7.89411
a	-7.89744
3"	-7.90126
▁১৬	-7.90175
য়ে	-7.90574
িং	-7.91676
7"	-7.92041
▁অন্য	-7.92084
▁ধরনের	-7.92483
▁দল	-7.9255
▁ম	-7.93256
9"	-7.93345
▁দেশ	-7.94202
▁উচ্চ	-7.9468
০০০	-7.94796
▁হলো	-7.95115
হা	-7.95235
2"	-7.95275
▁বেশ	-7.95467
নো	-7.95993
▁ধর্ম	-7.96159
▁দেশের	-7.96304
কারী	-7.96376
▁মূল	-7.96512
▁অন্যতম	-7.96692
গা	-7.96835
▁অঞ্চল	-7.97137
▁বয়সী	-7.97564
▁পুরস্কার	-7.97782
▁৫৯	-7.97954
থ	-7.98289
▁ক্ষেত্রে	-7.99169
9	-7.99234
▁গঠিত	-7.99373
▁কলেজ	-7.99396
▁স্থান	-7.99871
ভি	-7.99949
▁একই	-8.00127
▁অবস্থান	-8.00236
▁সময়ে	-8.00365
▁সা	-8.00382
▁ব্যবস্থা	-8.00626
নের	-8.00753
▁ব্যবহৃত	-8.00862
▁‘	-8.00912
▁ভারতীয়	-8.0114
▁গুরুত্বপূর্ণ	-8.01358
▁কোনো	-8.01447
▁মনে	-8.01481
▁নারীদের	-8.01535
▁যদিও	-8.01606
▁প্রকাশ	-8.01676
▁মত	-8.01747
০	-8.0211
▁পুরুষদের	-8.02184
6	-8.02323
▁ভাষায়	-8.02474
▁আগে	-8.02526
▁উ	-8.02564
▁কেন্দ্র	-8.02704
▁কে	-8.02709
▁গ্রহণ	-8.03157
▁উপজেলার	-8.03298
কি	-8.03302
রো	-8.03831
স্ট	-8.03929
প্র	-8.03949
বে	-8.04115
▁গড়	-8.04179
▁জীবন	-8.04217
▁দেওয়া	-8.04378
▁জন্ম	-8.04439
▁চাইতে	-8.04788
▁আন্তর্জাতিক	-8.04869
য়ার	-8.04938
▁১২	-8.05129
▁ধরে	-8.05732
নে	-8.05885
▁সব	-8.06485
▁চলচ্চিত্র	-8.06864
▁অব	-8.07
▁৪	-8.07219
0"	-8.0736
▁কু	-8.07629
▁সাধারণত	-8.07774
মে	-8.07954
▁১৪	-8.07958
▁পি	-8.08066
▁ডি	-8.0813
৩	-8.08329
n	-8.08506
▁গঠন	-8.08574
িয়া	-8.09564
▁ছোট	-8.09637
মান	-8.108
▁মি	-8.10969
▁কি	-8.11072
▁অঞ্চলে	-8.11293
▁সমুদ্র	-8.11481
▁পূর্বে	-8.11661
ড়	-8.11757
পা	-8.12235
▁প	-8.12433
▁ব্রিটিশ	-8.12454
▁১৩	-8.12481
▁অফ	-8.1259
▁বে	-8.12756
▁প্রাচীন	-8.12843
▁মু	-8.13139
g	-8.13581
▁লি	-8.13698
অ	-8.14021
▁উল্লেখযোগ্য	-8.14345
ক্ষ	-8.146
▁মিটার	-8.14663
▁শিল্প	-8.14751
জন	-8.15121
▁৫	-8.15543
াল	-8.1565
ন্ড	-8.15701
(	-8.15707
▁আধুনিক	-8.15731
▁সদস্য	-8.15851
ভা	-8.16401
▁অ্যা	-8.16538
▁সকল	-8.16606
▁প্রকাশিত	-8.172
5"	-8.17228
=4	-8.17517
▁পালন	-8.17583
▁মো	-8.17825
৪	-8.18197
c	-8.18217
▁প্রদান	-8.18249
▁পশ্চিম	-8.18311
▁এমন	-8.18587
সমূহ	-8.18652
▁১১	-8.18658
▁মানুষ	-8.18993
▁লা	-8.19378
ড়া	-8.19458
▁অনুযায়ী	-8.20143
▁রাজধানী	-8.20228
▁মূলত	-8.20622
▁ইত্যাদি	-8.20741
সে	-8.20878
▁অর্জন	-8.20917
▁লোক	-8.2103
▁হওয়ার	-8.21238
▁যুদ্ধ	-8.21271
▁হা	-8.21365
▁আদমশুমারি	-8.21776
▁ফুট	-8.21788
▁সৃষ্টি	-8.21849
ায়	-8.2188
▁পায়	-8.2202
▁রাজনৈতিক	-8.22211
▁শ	-8.22636
ষ	-8.22667
b	-8.22711
▁যান	-8.22775
িয়ে	-8.22803
রু	-8.22863
▁তাই	-8.22932
▁লেখা	-8.2302
▁বিশ্বের	-8.23044
▁বহু	-8.23186
▁of	-8.23201
তম	-8.23305
▁আই	-8.23306
▁ন	-8.23374
দি	-8.23457
▁ভাগ	-8.23473
▁বর্তমান	-8.23557
▁আবার	-8.2366
▁শব্দ	-8.23742
20	-8.23854
▁দিন	-8.23877
▁বিরুদ্ধে	-8.24276
▁চলে	-8.24418
19	-8.24424
▁প্রতিষ্ঠিত	-8.24492
গত	-8.24504
▁এছাড়া	-8.24665
27	-8.24813
▁ধারণা	-8.24861
গুলোর	-8.25455
কু	-8.2569
▁অন্তর্ভুক্ত	-8.26069
▁প্রাথমিক	-8.26273
▁রাজ্য	-8.266
▁রি	-8.27511
2	-8.27567
▁মানুষের	-8.27584
▁ভারত	-8.27588
▁যোগ	-8.27685
en	-8.27726
o	-8.27763
▁বিখ্যাত	-8.28042
▁ভাষার	-8.28095
ন্ত	-8.28282
e	-8.28317
▁সদর	-8.28384
▁রাজা	-8.28529
৭	-8.2922
▁ঘোষণা	-8.29333
▁ঘটে	-8.29593
▁উপ	-8.29916
▁সরকারি	-8.29953
▁রে	-8.30102
মো	-8.30155
18	-8.30175
al	-8.30293
ির	-8.30308
কাল	-8.30456
স্	-8.30568
▁তিনটি	-8.30879
▁বিদ্যালয়	-8.3092
=6	-8.31075
28	-8.31127
▁গ	-8.31136
▁অঞ্চলের	-8.31384
▁স্থানীয়	-8.31395
▁তাঁর	-8.3183
▁উল্লেখ	-8.31889
▁আইন	-8.3193
৬	-8.31947
গো	-8.3195
ওয়া	-8.32341
▁এছাড়াও	-8.32418
▁রাষ্ট্র	-8.32473
38	-8.32604
▁দায়িত্ব	-8.32664
▁কো	-8.32868
৮	-8.32946
▁বৃহত্তম	-8.33141
▁প্রভাব	-8.33226
▁মার্চ	-8.33405
37	-8.33727
▁খুব	-8.33767
▁২০	-8.34584
▁the	-8.3463
▁উচ্চতা	-8.34919
▁তথ্য	-8.35086
ক্স	-8.35167
বাদ	-8.35183
▁মুসলিম	-8.35595
▁সম্পর্কে	-8.35645
▁কয়েকটি	-8.35962
শে	-8.36039
▁নামক	-8.3618
▁রূপ	-8.36785
er	-8.3679
▁৮	-8.3709
্যা	-8.37206
সহ	-8.37252
▁ইউনিয়ন	-8.37378
▁বছরের	-8.37836
নার	-8.38105
▁কিলোমিটার	-8.38167
▁জা	-8.38233
▁এরপর	-8.38308
▁বিশ্ব	-8.38354
▁জনপ্রিয়	-8.38551
ন্ট	-8.38711
16	-8.38756
▁গড়ে	-8.38764
▁বাস	-8.38834
▁বো	-8.39048
▁পরিবর্তন	-8.39058
13	-8.39124
▁ফুটবল	-8.39138
12	-8.39246
▁পড়ে	-8.39331
▁তিন	-8.39444
▁যেতে	-8.39495
▁ভৌগোলিক	-8.39709
▁দু	-8.39728
▁মাসে	-8.39877
১৮	-8.40036
▁নির্মাণ	-8.40395
▁নামকরণ	-8.404
0	-8.41088
▁গবেষণা	-8.4114
▁খান	-8.41222
ত্ব	-8.41227
▁বৃদ্ধি	-8.41328
m	-8.41589
▁পরবর্তীতে	-8.41895
▁হিন্দু	-8.41909
▁করতেন	-8.4196
▁গ্রেগরীয়	-8.42016
▁a	-8.42529
▁৭	-8.42538
▁হত	-8.42588
▁হ	-8.42621
েই	-8.42661
▁বর্ষপঞ্জির	-8.42805
▁আসে	-8.42823
40	-8.42867
▁প্রচলিত	-8.4319
▁দলের	-8.43194
তো	-8.43834
29	-8.44285
চি	-8.44315
ভার	-8.44382
▁হলে	-8.44896
জে	-8.44911
▁কৃষি	-8.45082
▁যিনি	-8.45092
▁লে	-8.45273
ষ্ট	-8.45274
▁প্রশাসনিক	-8.45277
7	-8.45396
▁সর্বোচ্চ	-8.45497
▁৯	-8.45555
▁হাজার	-8.456
26	-8.45692
▁উৎপাদন	-8.45965
ৃ	-8.46174
ফা	-8.46175
▁ব্যা	-8.46252
গঞ্জ	-8.46301
▁মাত্র	-8.46761
ৌ	-8.46858
৷	-8.46904
২০	-8.46946
▁প্রতিষ্ঠা	-8.47311
r	-8.47358
▁স্বাধীনতা	-8.47469
▁স্কুল	-8.47569
▁মতে	-8.47575
▁সেখানে	-8.47647
▁পদ্ধতি	-8.4783
ra	-8.48011
▁বেশিরভাগ	-8.48199
▁নদীর	-8.48212
টে	-8.48367
▁জ	-8.48511
”	-8.48535
▁দেয়া	-8.48536
▁চা	-8.48595
▁মান	-8.48804
▁এদের	-8.48834
_	-8.48857
▁নেই	-8.49146
▁তত্ত্ব	-8.49308
▁বর্ণনা	-8.4956
▁রা	-8.49562
▁সমতল	-8.49794
লার	-8.4983
িয়ান	-8.49839
▁সামরিক	-8.49971
▁অধীনে	-8.50074
▁শক্তি	-8.5018
▁স্	-8.50224
▁ক্যা	-8.50493
শি	-8.50574
▁জল	-8.50645
ুল	-8.50651
ন্দ	-8.50827
▁শাহ	-8.51077
▁ইংরেজি	-8.51144
1	-8.51288
▁মিলিয়ন	-8.51294
ধ	-8.5153
▁বিজ্ঞান	-8.51605
▁ভা	-8.51719
▁গান	-8.51758
▁“	-8.51991
▁ভি	-8.52035
▁যুক্ত	-8.52364
ar	-8.52401
14	-8.5244
▁বল	-8.52506
▁স্থাপন	-8.52546
শা	-8.52581
স্ত	-8.52814
▁ক্ষমতা	-8.52859
le	-8.52862
17	-8.53021
p	-8.53076
▁গোল	-8.5323
খা	-8.53251
▁চেয়ে	-8.53339
re	-8.53354
পূর্ব	-8.53406
▁গেছে	-8.53602
▁সমস্ত	-8.53789
▁রাষ্ট্রপতি	-8.5379
৯	-8.53797
▁অক্ষাংশ	-8.53831
▁ইসলাম	-8.53907
▁মহা	-8.54033
সো	-8.5457
▁জানা	-8.54749
▁গা	-8.54796
–	-8.54851
▁জে	-8.5487
ড়ি	-8.54896
▁পরিণত	-8.54979
নগর	-8.55088
টার	-8.55247
▁বলেন	-8.55251
হি	-8.55299
▁ইউরোপীয়	-8.55337
▁জুন	-8.55491
▁খেলোয়াড়	-8.55504
▁পরবর্তী	-8.55794
ুর	-8.55794
গণ	-8.55809
▁চ	-8.55822
▁ডিসেম্বর	-8.56147
দার	-8.5617
▁জি	-8.56203
গুলিতে	-8.56213
▁দিক	-8.56404
ন্স	-8.56485
লু	-8.56605
▁নভেম্বর	-8.56651
▁রচনা	-8.57069
▁দ্য	-8.57195
▁ভিত্তি	-8.57291
▁নিউ	-8.57394
মূলক	-8.57466
ছে	-8.57498
▁বৈশিষ্ট্য	-8.57667
▁এতে	-8.5775
▁লক্ষ	-8.58651
ীর	-8.58667
▁অর্থনীতি	-8.58726
ান	-8.58993
সন	-8.59019
▁ক্লাব	-8.59065
দ্য	-8.59081
▁পান	-8.59199
32	-8.5925
কৃত	-8.59387
মু	-8.59453
▁জুলাই	-8.59524
▁এপ্রিল	-8.59696
এস	-8.59698
▁ভূমিকা	-8.59888
▁কম্পিউটার	-8.60246
▁প্রতিষ্ঠান	-8.60281
▁দক্ষিণে	-8.60752
▁যদি	-8.60829
▁শতাংশ	-8.60879
▁কবি	-8.61036
▁দ্রাঘিমাংশ	-8.61192
▁আয়তন	-8.61197
▁বিশ্বাস	-8.61225
▁ধর্মীয়	-8.61369
▁অভিনয়	-8.61386
▁তৃতীয়	-8.6143
▁আক্রমণ	-8.61638
▁ল	-8.61759
েশন	-8.61815
▁প্রদেশ	-8.61825
▁থেকেই	-8.61942
টো	-8.61964
▁খ্রিষ্টাব্দে	-8.62032
য়ের	-8.62167
▁পে	-8.6226
▁৩০	-8.62456
▁বই	-8.62461
▁পৌরসভা	-8.62486
▁শহরে	-8.62504
ত্র	-8.62561
▁পৃথিবীর	-8.62651
▁রায়	-8.62654
▁নির্দিষ্ট	-8.62701
▁নির্বাচিত	-8.62713
▁যোগাযোগ	-8.62713
আই	-8.62966
▁পরিমাণ	-8.63141
টিকে	-8.63365
▁অনুষ্ঠিত	-8.634
▁ফা	-8.63441
h	-8.63448
▁সঙ্গীত	-8.63451
▁দা	-8.63552
▁সরকারের	-8.638
30	-8.63831
ri	-8.6394
ইন	-8.64105
বল	-8.64196
▁অর্থাৎ	-8.64216
ত্ত	-8.64221
▁জয়	-8.6423
▁কর্তৃক	-8.64258
▁চার	-8.64295
▁যারা	-8.64325
▁মৃত্যু	-8.64329
in	-8.64357
k	-8.64491
▁অর্থনৈতিক	-8.64727
▁সম্পূর্ণ	-8.6492
ঙ্ক	-8.65217
▁একক	-8.65371
ৎ	-8.65491
▁দেশটি	-8.6555
15	-8.65665
▁শতকের	-8.65931
বাদী	-8.66117
▁শতাব্দীর	-8.66254
60	-8.66282
▁পরি	-8.66423
▁পরিচালনা	-8.66736
▁শহরটির	-8.67057
▁অবস্থানের	-8.67367
ম্ব	-8.67548
t	-8.67668
▁দি	-8.67799
রী	-8.68122
▁ফি	-8.68248
▁নির্দেশ	-8.68254
▁ড	-8.68438
ঞ্জ	-8.68717
▁পাশাপাশি	-8.68728
▁গো	-8.68789
▁স্থানে	-8.68871
11	-8.6889
▁উত্তরে	-8.6889
▁হলেও	-8.68927
▁জার্মান	-8.68928
▁আগস্ট	-8.68966
▁উপজেলায়	-8.68997
▁সম্পর্ক	-8.69056
u	-8.69339
▁পদ	-8.69678
64	-8.69742
▁বিভক্ত	-8.69842
▁প্রতিটি	-8.69859
সের	-8.70002
▁ফরাসি	-8.70178
▁উপন্যাস	-8.70262
31	-8.70519
▁পাকিস্তান	-8.70608
▁রাজ	-8.70905
l	-8.70978
চা	-8.70991
▁প্রমাণ	-8.71161
▁নিজের	-8.71214
▁s	-8.71302
w	-8.7135
▁গ্রাম	-8.71362
য়ান	-8.71503
98	-8.71609
▁অথবা	-8.71732
▁নির্মিত	-8.71851
চার	-8.7188
66	-8.71992
০০	-8.72009
▁বর্গ	-8.72296
▁ঐতিহাসিক	-8.72332
যা	-8.72397
▁পশ্চিমে	-8.7263
35	-8.72673
▁বাহিনী	-8.72709
▁শাসন	-8.72825
▁বিষয়ে	-8.73078
▁বিভাগ	-8.7314
▁ফিরে	-8.73285
▁বিমান	-8.73342
ছিলেন	-8.73379
▁নেয়	-8.73388
▁প্রাকৃতিক	-8.73394
▁পশ্চিমবঙ্গ	-8.73416
▁বিষয়	-8.73458
▁এম	-8.73492
▁২০১১	-8.73598
▁মৃত্যুর	-8.73609
সু	-8.73653
▁দখল	-8.73732
°	-8.73935
▁অক্টোবর	-8.73951
▁নগর	-8.74022
▁অনু	-8.7403
নী	-8.74139
▁মন্দির	-8.74216
▁ফল	-8.74228
▁ফেব্রুয়ারি	-8.74458
১০	-8.74485
▁ঘটনা	-8.74498
f	-8.74499
42	-8.74677
িন	-8.74913
10	-8.75196
▁শা	-8.75265
▁পরিচালিত	-8.75389
▁সাহিত্য	-8.7553
▁বু	-8.75537
68	-8.75543
▁জানুয়ারি	-8.75565
▁ত	-8.75646
পে	-8.75662
▁সংস্কৃতি	-8.75762
ডা	-8.75946
▁ছাত্র	-8.75996
▁ডে	-8.76156
▁পরিবার	-8.76272
]	-8.76323
ম্প	-8.76365
▁দেশে	-8.76382
পার	-8.76537
▁ভিন্ন	-8.76673
▁দীর্ঘ	-8.76772
▁মাঝে	-8.76883
▁ডা	-8.76908
যুক্ত	-8.7698
মার	-8.77023
▁নামের	-8.77101
▁এলাকায়	-8.7732
la	-8.77434
▁শেখ	-8.77509
▁৫০	-8.77511
▁তৎকালীন	-8.77541
ফি	-8.77779
▁একমাত্র	-8.77894
i	-8.77936
▁একে	-8.78091
▁বসবাস	-8.78131
সার	-8.78487
ূ	-8.78491
শন	-8.78552
▁রাখা	-8.78722
▁শি	-8.78742
▁অবদান	-8.78948
▁সম্ভব	-8.78969
ch	-8.79072
▁সেপ্টেম্বর	-8.79077
▁দ্রুত	-8.79084
▁প্রবেশ	-8.7917
রাজ	-8.79288
▁উৎস	-8.79304
▁ঐ	-8.7937
▁২৪	-8.79566
▁চেষ্টা	-8.79702
▁আসেন	-8.79919
জার	-8.79967
▁চালু	-8.80077
▁রেকর্ড	-8.80165
65	-8.80453
▁c	-8.80563
▁অ্যান্ড	-8.80731
")	-8.80731
▁মাস	-8.80754
▁আরব	-8.80829
▁বাজার	-8.80942
▁ওঠে	-8.80964
▁সংস্থা	-8.80973
▁যাতে	-8.81076
▁বস্তু	-8.81291
▁২৫	-8.81471
▁উপাদান	-8.81516
▁জুড়ে	-8.81551
▁যুদ্ধে	-8.81798
▁মহিলা	-8.81802
▁যুদ্ধের	-8.81829
▁formula	-8.81846
▁শব্দটি	-8.81874
ৈ	-8.81913
▁ব্যাপক	-8.82034
▁ইউ	-8.8207
▁ব্যক্তি	-8.822
এম	-8.82275
an	-8.82282
▁এখন	-8.82351
▁সম	-8.8244
▁আরো	-8.82491
চে	-8.82504
▁প্যা	-8.82562
▁হে	-8.82645
▁আবিষ্কার	-8.82765
99	-8.82897
▁পরিকল্পনা	-8.82921
▁দাবি	-8.82984
িকা	-8.83015
▁অধিকাংশ	-8.83085
পো	-8.83087
▁প্রস্তাব	-8.83333
▁কেন্দ্রীয়	-8.83369
▁যুক্তরাষ্ট্রের	-8.83487
▁ভর	-8.83537
▁রু	-8.83563
দিন	-8.83607
▁খেলা	-8.8378
▁নেন	-8.84018
▁গল্প	-8.84293
33	-8.84356
ছিল	-8.84884
▁ভ	-8.85085
▁কলকাতা	-8.85184
▁থানা	-8.85206
ur	-8.85434
▁নিয়ন্ত্রণ	-8.85445
হার	-8.85668
▁ব্যাখ্যা	-8.85773
▁করলে	-8.85862
▁অপর	-8.85878
ন্ন	-8.85901
▁সামাজিক	-8.85929
▁রচিত	-8.86006
কর	-8.86098
▁মারা	-8.86412
▁জন্মগ্রহণ	-8.86422
97	-8.86462
▁লাল	-8.86625
▁চিত্র	-8.86693
▁দশকে	-8.87119
▁ভাই	-8.87225
▁গ্রন্থ	-8.87232
▁প্রয়োজন	-8.87403
▁অত্যন্ত	-8.87495
ক্	-8.8754
▁হত্যা	-8.87615
গু	-8.88062
▁ভূমি	-8.88285
ল্ড	-8.88365
ন্	-8.88533
▁আলাদা	-8.88588
▁বলতে	-8.88619
ঘ	-8.88658
x	-8.88941
▁তাপমাত্রা	-8.89163
▁হওয়া	-8.89167
িম	-8.89384
▁মৌলিক	-8.89568
▁সিদ্ধান্ত	-8.89609
▁হাতে	-8.89745
দী	-8.89823
▁সমস্যা	-8.89843
▁কয়েক	-8.89923
তু	-8.89993
▁সক্ষম	-8.90139
▁স্টেশন	-8.90216
▁সো	-8.90298
▁দে	-8.90399
▁বিভাগের	-8.90416
▁ওপর	-8.90466
▁বয়সে	-8.90752
92	-8.90789
▁উভয়	-8.90956
▁পরিবহন	-8.90957
ম্	-8.90977
▁in	-8.90994
য়ো	-8.91231
▁থাকেন	-8.91307
▁সাহায্য	-8.91311
১৫	-8.91326
▁বিস্তৃত	-8.91347
▁এসে	-8.91362
63	-8.91428
ঙ্গ	-8.91527
▁শাখা	-8.91596
্স	-8.91628
েন	-8.9176
▁অন্তর্গত	-8.9177
জু	-8.91832
▁ফে	-8.91949
▁খাদ্য	-8.92085
১৭	-8.92142
▁খা	-8.92297
▁১৯	-8.92352
▁স্বাধীন	-8.92373
▁আম	-8.92856
▁কাল	-8.92877
▁দিতে	-8.92977
লী	-8.93017
▁হ্যা	-8.93048
▁রক্ত	-8.93082
দু	-8.93117
▁পো	-8.93125
য	-8.93214
▁হু	-8.93216
▁ছিলো	-8.9325
▁সেন	-8.93386
▁সূত্র	-8.93402
69	-8.93459
▁লেখক	-8.93514
▁করত	-8.93554
▁ম্যা	-8.9356
▁২২	-8.93575
▁আলোচনা	-8.93613
আর	-8.93645
পাল	-8.93653
▁রাম	-8.93657
▁নির্বাচন	-8.9366
বু	-8.93759
08	-8.93781
পু	-8.93805
▁চিকিৎসা	-8.93843
স্থ	-8.93939
▁ভূ	-8.94006
গুলিকে	-8.94217
▁তুলনায়	-8.94226
▁বাংলার	-8.94246
▁সংযুক্ত	-8.94248
na	-8.94328
▁নির্বাচনে	-8.94346
▁ধীরে	-8.94389
62	-8.94406
▁পুত্র	-8.94431
▁পার	-8.94454
25	-8.94547
▁নে	-8.94556
ায়ন	-8.94573
▁তালিকা	-8.94615
▁সাম্রাজ্যের	-8.94691
▁৪৮	-8.94735
▁রোমান	-8.94979
▁রহমান	-8.95087
কল	-8.95122
▁চারটি	-8.95148
▁২৩	-8.95168
78	-8.95217
নিয়া	-8.95219
48	-8.95453
▁সময়ের	-8.95502
▁থাকা	-8.95799
▁আসন	-8.95825
▁ভারতে	-8.95904
▁উন্নয়ন	-8.95926
▁লক্ষ্য	-8.95927
▁বিল	-8.96083
েক	-8.962
▁প্রধানমন্ত্রী	-8.96241
▁বিশ্ববিদ্যালয়ে	-8.96269
▁কেবল	-8.96359
াম	-8.96484
▁বাণিজ্য	-8.96578
▁এসেছে	-8.9671
▁আন্দোলন	-8.96837
বো	-8.96876
▁প্রতীক	-8.96945
গি	-8.96951
▁প্রচুর	-8.9714
▁ফ	-8.97153
▁নেতা	-8.97209
90	-8.97363
নিক	-8.97414
টিতে	-8.97438
▁সাম্রাজ্য	-8.97594
▁and	-8.97698
▁১৯৭১	-8.97699
▁হতো	-8.97857
র্ন	-8.97956
▁কাপ	-8.9798
▁রো	-8.97988
▁কার্যক্রম	-8.98171
▁লু	-8.98182
▁সম্পর্কিত	-8.98326
থা	-8.98463
▁সমর্থন	-8.98469
▁তারিখে	-8.9853
▁সাংস্কৃতিক	-8.98593
▁নানা	-8.98593
▁বিশিষ্ট	-8.98887
▁দুইটি	-8.98929
z	-8.99027
▁বন্ধ	-8.99066
▁b	-8.99164
ল্লা	-8.99323
▁আলী	-8.99329
▁স্ত্রী	-8.99386
▁জু	-8.99437
▁নিম্ন	-8.99452
স্তা	-8.99478
▁কোম্পানি	-8.99573
▁রেল	-8.99605
▁বাঙালি	-8.99628
58	-8.9977
ঠ	-8.99867
করণ	-8.99921
১২	-9.0001
▁মানব	-9.00024
▁ভে	-9.00038
▁p	-9.00183
93	-9.00227
রণ	-9.00333
বিজ্ঞান	-9.0037
▁হি	-9.00376
▁স্ব	-9.00417
ing	-9.00634
ভো	-9.00645
▁সংগ্রহ	-9.00991
▁একাধিক	-9.0122
ডে	-9.01224
▁জীবনের	-9.01394
▁পাহাড়	-9.01415
▁গ্রিক	-9.01481
▁পক্ষে	-9.01516
45	-9.01555
▁মসজিদ	-9.01558
95	-9.01605
▁কেউ	-9.01627
▁চট্টগ্রাম	-9.01638
▁পরাজিত	-9.0166
▁f	-9.01667
▁পৃথক	-9.0185
▁এন	-9.01875
▁৫২	-9.01876
▁পানি	-9.01933
us	-9.02056
▁কোষ	-9.02058
িয়ার	-9.0217
▁আদি	-9.02247
▁কাজে	-9.02305
▁বের	-9.02359
▁ভাবে	-9.0237
▁চিহ্নিত	-9.02464
▁এটা	-9.02469
▁দ	-9.0256
গুলোতে	-9.0261
▁বিমানবন্দর	-9.02723
▁সড়ক	-9.02725
১৪	-9.02768
▁ছাড়া	-9.02809
75	-9.02956
পূর্ণ	-9.02974
▁দ্বীপ	-9.03024
েও	-9.03111
▁খ	-9.03167
▁বাইরে	-9.03181
▁পু	-9.03238
৫০	-9.03248
▁ওয়া	-9.03378
▁পাঁচ	-9.0344
▁হয়নি	-9.03592
▁পূর্ণ	-9.03598
▁পরবর্তীকালে	-9.03651
১৬	-9.03664
▁পুনরা	-9.03716
▁চি	-9.0375
▁পথ	-9.0376
▁গু	-9.03786
▁২১	-9.03843
▁অতি	-9.04019
▁হাই	-9.04307
▁ব্যাংক	-9.04411
▁ক্রিকেট	-9.04498
▁তথা	-9.04607
জো	-9.04688
িল	-9.04758
▁কর	-9.04916
▁প্রয়োগ	-9.05242
▁একটা	-9.05355
ন্দা	-9.05362
▁কবিতা	-9.05513
▁বিবেচনা	-9.05586
ল্	-9.05626
▁সিস্টেম	-9.05679
▁কোনও	-9.05762
▁সিটি	-9.05785
▁গিয়ে	-9.05937
▁স্বাস্থ্য	-9.05975
▁পদার্থ	-9.06066
▁সত্য	-9.06214
▁৫১	-9.06231
▁বন	-9.0628
▁ভ্রমণ	-9.06289
সমূহের	-9.06399
▁২০০৬	-9.06411
se	-9.06465
গ্	-9.06526
▁৪৯	-9.06738
তত্ত্ব	-9.06835
▁পরিবারের	-9.07082
▁আদম	-9.07236
▁হলেন	-9.07436
মন	-9.07498
১৩	-9.07501
সং	-9.07537
যোগ্য	-9.07562
▁সম্রাট	-9.07711
▁ভাল	-9.07738
রিয়া	-9.07744
▁বৌদ্ধ	-9.07807
হীন	-9.07824
▁নাটক	-9.08009
▁জলবায়ু	-9.08018
▁ভবন	-9.08182
▁অধিকার	-9.08213
▁চুক্তি	-9.08438
▁০	-9.08489
▁কর্ম	-9.08526
ুয়া	-9.08563
সব	-9.08729
▁অবস্থায়	-9.08892
▁–	-9.08934
পাড়া	-9.08969
▁নিজস্ব	-9.08973
দে	-9.08988
▁পাকিস্তানের	-9.09016
ed	-9.09033
▁বিকাশ	-9.09259
▁কখনও	-9.09273
▁সমাজ	-9.09287
িস	-9.09311
▁বিদ্যমান	-9.09466
থি	-9.0953
▁ট	-9.09755
▁ইন	-9.09777
▁সোভিয়েত	-9.09778
▁অংশগ্রহণ	-9.09842
▁করছে	-9.0987
▁সুযোগ	-9.09972
24	-9.10109
▁পরীক্ষা	-9.10155
▁শুধুমাত্র	-9.10201
মের	-9.10229
▁ডিগ্রি	-9.10521
ভে	-9.10579
▁ইউনাইটেড	-9.10617
▁বার	-9.10718
▁মাধ্যমিক	-9.10757
▁সর্ব	-9.10827
05	-9.10924
▁ছবি	-9.11002
▁হো	-9.11215
ার্স	-9.11303
▁নীতি	-9.11322
▁দেখতে	-9.11408
▁পাল	-9.1142
▁ডলার	-9.11498
▁প্রভৃতি	-9.1157
▁ইংরেজ	-9.11762
▁শতকে	-9.11845
te	-9.11971
▁উঠে	-9.12059
▁নীল	-9.12076
ফে	-9.12092
▁অধ্যাপক	-9.12103
▁কোটি	-9.12118
▁যন্ত্র	-9.12169
পরি	-9.12178
গান	-9.12189
77	-9.12235
▁ব্যক্তিগত	-9.12337
▁গুণ	-9.12351
▁1	-9.12455
on	-9.12472
▁খেলার	-9.12527
▁সমগ্র	-9.12549
ation	-9.12563
▁এল	-9.12711
হু	-9.1277
▁ব্যবসা	-9.12821
▁উৎসব	-9.12913
▁আয়	-9.1299
স্টার	-9.13
টিক	-9.13333
নীয়	-9.1336
ল্ট	-9.13401
▁জ্ঞান	-9.13452
ম্যান	-9.13487
▁উৎপত্তি	-9.13829
▁চাষ	-9.13855
ছ	-9.13979
▁জো	-9.1406
▁ফুল	-9.1417
বিদ্যা	-9.14202
▁ধরা	-9.1431
▁শহরটি	-9.14355
▁অংশে	-9.14369
▁যেটি	-9.1437
র্ট	-9.14457
li	-9.14517
▁হয়েছিলেন	-9.1452
▁তে	-9.14535
▁বিশাল	-9.14581
▁সরবরাহ	-9.14592
▁শিশু	-9.14636
▁[	-9.14682
▁লাইন	-9.14788
ma	-9.14792
▁রক্ষা	-9.1482
▁সেরা	-9.1486
দেশ	-9.14996
▁জাপান	-9.15124
▁দেব	-9.15132
th	-9.15132
▁চরিত্র	-9.15216
▁দশকের	-9.15356
টন	-9.15434
▁দেখে	-9.15548
49	-9.15558
▁চাপ	-9.15609
85	-9.15637
▁সাই	-9.15779
▁পর্যায়ে	-9.15799
কালে	-9.1581
▁ক্ষুদ্র	-9.1598
হে	-9.16105
চন্দ্র	-9.16205
▁এখনও	-9.16255
▁আরেকটি	-9.16302
য়েল	-9.16372
িয়াম	-9.16379
লের	-9.16471
▁যাওয়া	-9.16498
▁প্রযুক্তি	-9.16564
কালীন	-9.16631
▁এলাকার	-9.16719
▁ম্যানচেস্টার	-9.16808
44	-9.16838
▁গ্যাস	-9.1689
▁মুক্ত	-9.16907
▁সরাসরি	-9.1692
▁হ্রাস	-9.16921
গড়	-9.17031
▁ভর্তি	-9.17262
▁গণ	-9.17311
▁ছাড়াও	-9.17425
নাথ	-9.17475
শীল	-9.17529
▁প্রাপ্ত	-9.17533
▁পণ্য	-9.17596
▁নিয়ম	-9.17649
্ব	-9.17749
▁প্রক্রিয়া	-9.17809
৩০	-9.17824
▁সম্ভবত	-9.1787
▁বাবা	-9.17923
▁সন্তান	-9.17973
▁সম্পন্ন	-9.18402
▁আয়োজন	-9.18503
▁অবস্থা	-9.18522
▁নেতৃত্বে	-9.18572
য়াল	-9.18595
পশ্চিম	-9.18636
▁এরা	-9.18657
▁শক্তিশালী	-9.1885
▁মহ	-9.18858
▁শিব	-9.19001
ঙ	-9.19058
▁বাংলাদেশে	-9.19059
▁সর্বাধিক	-9.19192
▁২৮	-9.19195
▁সমান	-9.19225
▁সংস্করণ	-9.19304
ti	-9.19316
▁লীগ	-9.19359
▁পুরো	-9.19381
▁সুবিধা	-9.19399
▁চৌধুরী	-9.19419
▁পিতা	-9.1943
▁বসতি	-9.19482
▁পাঠ	-9.19521
▁পর্বত	-9.19624
ভাগ	-9.19649
23	-9.1969
▁উদ্দেশ্যে	-9.19716
▁উপরে	-9.19864
47	-9.19886
▁বিভাগে	-9.19932
স্ক	-9.19941
▁এটিকে	-9.1995
▁শিক্ষক	-9.19975
▁মাইল	-9.2
▁৫৩	-9.20087
বাস	-9.2014
▁করবে	-9.20185
▁জাহাজ	-9.20228
র্ক	-9.20265
03	-9.20301
ভিত্তিক	-9.20311
▁দৈর্ঘ্য	-9.20406
▁৪৭	-9.20465
র্ড	-9.20483
v	-9.20496
▁বিয়ে	-9.20594
▁২৬	-9.20653
ড়ে	-9.20661
▁উই	-9.20708
▁লো	-9.20735
▁সহায়তা	-9.20768
▁কন	-9.20797
73	-9.20815
▁খাবার	-9.20861
▁দূরত্ব	-9.20865
▁তেল	-9.20866
▁জেলায়	-9.20938
েল	-9.20948
ঙ্গা	-9.21039
▁এক্স	-9.21041
79	-9.21192
▁এস	-9.21224
মেন্ট	-9.2146
or	-9.21556
▁বন্দর	-9.21636
▁যুগ	-9.21664
লিন	-9.21694
▁শ্রেষ্ঠ	-9.21701
▁পর্যবেক্ষণ	-9.21746
▁অঙ্গরাজ্য	-9.2175
এল	-9.21864
েস	-9.21867
▁১০০	-9.21923
▁রাজনীতি	-9.21939
▁মাছ	-9.22012
▁প্রচার	-9.22102
▁২৭	-9.22103
▁সেবা	-9.2211
▁ঠিক	-9.22223
▁দিয়েছিলেন	-9.22229
ক্ত	-9.22252
▁সেন্ট	-9.22302
▁নোবেল	-9.2234
▁আদর্শ	-9.22357
ান্ত	-9.22359
▁কাছ	-9.22452
▁অভি	-9.22534
▁গ্রামে	-9.22633
▁সেট	-9.2267
রাম	-9.22816
▁রাখে	-9.22969
াই	-9.23008
at	-9.23066
▁)	-9.2321
▁উদাহরণ	-9.23286
▁:	-9.23362
▁৭০	-9.23383
ঞ্চ	-9.23442
বিদ	-9.23526
▁পার্থক্য	-9.23648
▁উদ্ভিদ	-9.23648
72	-9.2367
▁স্বীকৃতি	-9.23689
▁পতাকা	-9.23902
▁জাতি	-9.23924
▁টে	-9.23968
১১	-9.23996
▁মৌসুমে	-9.2405
▁ম্যাচ	-9.24061
▁কাঠামো	-9.24101
ডো	-9.24153
হর	-9.24175
▁সফল	-9.24214
▁শতাব্দীতে	-9.24315
▁শুমারি	-9.24372
দ্ধ	-9.24404
▁সীমানা	-9.24425
▁অনুবাদ	-9.24435
▁de	-9.24456
বান	-9.24506
▁২০০৭	-9.24518
▁সংগঠন	-9.24532
▁যুক্তি	-9.24534
ল্যান্ড	-9.24538
ব্য	-9.24656
▁আস	-9.2466
▁নির্ভর	-9.24733
▁আমেরিকান	-9.24741
নু	-9.24756
▁প্রথমে	-9.24757
▁কাহিনী	-9.24779
▁৮০	-9.24927
▁দর্শন	-9.24953
▁e	-9.24972
▁পরিবেশ	-9.25054
▁টু	-9.25152
00	-9.25167
ানো	-9.25177
▁চন্দ্র	-9.25196
▁যুক্তরাষ্ট্র	-9.25256
▁নিকট	-9.25366
▁তারপর	-9.25392
01	-9.2542
বদ্ধ	-9.25424
▁বয়স	-9.25478
ul	-9.25573
▁সংসদ	-9.25634
ছেন	-9.25653
▁গতি	-9.25682
ণ্ড	-9.25771
76	-9.26007
▁বেল	-9.26034
্যু	-9.26036
▁সাগর	-9.26047
▁অধ্যয়ন	-9.26076
)"	-9.26126
ne	-9.26173
es	-9.26217
▁২০১০	-9.2624
স্ব	-9.26399
▁পুলিশ	-9.26474
▁সূর্য	-9.26501
▁যাদের	-9.26724
▁গ্রুপ	-9.26754
▁ছেলে	-9.26822
গার	-9.26876
lo	-9.27022
▁আনা	-9.27046
▁নির্	-9.27294
ta	-9.27325
বী	-9.27351
pur	-9.27408
▁বিবাহ	-9.27412
▁পরিচালক	-9.27438
▁ছড়িয়ে	-9.2744
▁গ্রহ	-9.27452
▁বৈজ্ঞানিক	-9.27491
▁সং	-9.27495
▁ধান	-9.27497
▁ইউরোপের	-9.275
▁যাত্রা	-9.27515
▁মুক্তি	-9.27519
▁৪০	-9.27521
▁শব্দের	-9.27527
▁প্রভাবিত	-9.27613
▁অনুমান	-9.27644
▁সেনা	-9.27712
▁বৃহত্তর	-9.27982
লিয়া	-9.28018
ইউ	-9.28114
▁থাকতে	-9.28133
▁শ্রী	-9.28145
▁অণু	-9.28179
▁কাজের	-9.28224
▁চীন	-9.2825
▁সমাধান	-9.28314
▁কল	-9.28315
ro	-9.28332
▁লিগ	-9.2837
▁খেলায়	-9.28372
ক্র	-9.28399
▁প্রজাতির	-9.28434
▁অন্যদিকে	-9.28461
▁নিচে	-9.28467
েন্স	-9.28518
▁টাকা	-9.28527
▁মডেল	-9.28584
গ্রাম	-9.28596
েট	-9.28633
▁পাতা	-9.28659
▁নিজেদের	-9.28666
▁এমনকি	-9.2867
▁তুলে	-9.28722
▁মুহাম্মদ	-9.28739
▁অলিম্পিক	-9.28818
ংক	-9.28841
55	-9.28914
▁জটিল	-9.28916
▁হক	-9.28937
▁নিয়োগ	-9.28944
▁নকশা	-9.28945
েরা	-9.28953
▁উন্নত	-9.28993
▁প্রাণী	-9.2903
▁প্রজাতন্ত্র	-9.29047
▁অপ	-9.29103
থে	-9.29134
▁পারেন	-9.29149
▁শু	-9.29161
গুলোকে	-9.2973
ধা	-9.29744
▁আঞ্চলিক	-9.29834
োয়া	-9.29867
লাই	-9.29978
▁জীব	-9.30071
▁ছেড়ে	-9.3009
▁সংস্কার	-9.30093
ক্রম	-9.30216
me	-9.30233
89	-9.30257
▁ধর্মের	-9.30276
▁কার্	-9.30297
▁গাণিতিক	-9.30298
▁পরিষেবা	-9.30346
▁দো	-9.30442
22	-9.30463
▁নামটি	-9.30857
▁মর্যাদা	-9.3086
ha	-9.3091
দ্র	-9.30964
▁রোগ	-9.31009
হো	-9.31021
▁বায়ু	-9.31022
ৃত	-9.31031
▁ইয়া	-9.31206
▁আমাদের	-9.3121
▁ভোট	-9.31223
▁পর্যটন	-9.31248
▁ফর	-9.3125
শু	-9.31336
▁সরকারী	-9.31401
▁মন	-9.31492
▁বাড়ি	-9.31597
▁পার্টি	-9.31694
অ্যা	-9.31736
▁যাওয়ার	-9.31754
▁সাদা	-9.31756
▁নিজ	-9.31788
্র	-9.31857
▁ধারা	-9.31917
ঘাট	-9.3194
▁নিযুক্ত	-9.3211
▁বৃহৎ	-9.32115
▁দ্বি	-9.32291
▁অন	-9.32324
▁দেবী	-9.32332
▁কখনো	-9.32426
▁সম্প্রদায়	-9.32537
এন	-9.32545
▁১৯৯০	-9.32561
গন	-9.32627
▁বিরোধী	-9.32628
▁থাকার	-9.32649
▁এগুলো	-9.32682
▁বিস্তার	-9.32725
▁দার্শনিক	-9.32813
▁গুরুত্ব	-9.32838
ce	-9.3286
▁গভীর	-9.32888
▁ইতিহাসে	-9.32931
▁বাহিনীর	-9.32941
▁শহীদ	-9.32942
▁ধ্বংস	-9.32945
02	-9.32967
বর	-9.33002
▁সুর	-9.33057
▁তড়িৎ	-9.33076
▁শিরোপা	-9.33077
▁তো	-9.33151
▁আলো	-9.33195
▁অঙ্গ	-9.33222
▁শিক্ষার	-9.33251
রূপ	-9.33401
জন্ম	-9.33434
▁বর্ণ	-9.3356
el	-9.33595
▁ইবনে	-9.33752
▁এশিয়া	-9.33776
গ্র	-9.33783
71	-9.33793
▁ছ	-9.33923
▁হাত	-9.33964
▁চে	-9.3397
▁সংখ্যক	-9.34027
▁ক্ষেত্র	-9.34124
▁অস্তিত্ব	-9.34137
▁স্থায়ী	-9.34137
▁মিল	-9.34173
▁বিহার	-9.34428
াক	-9.34486
▁মাদ্রাসা	-9.34805
▁৬০	-9.34842
▁to	-9.34875
▁২০০৫	-9.34989
▁মুঘল	-9.35074
▁শিখ	-9.35086
▁ঘন	-9.35197
▁দূর	-9.35217
▁তু	-9.35243
st	-9.35347
▁২০০০	-9.35405
টের	-9.35546
ic	-9.35549
▁শুধু	-9.35613
▁পার্ক	-9.35838
▁দূরে	-9.35923
ত্য	-9.35947
▁টেলিভিশন	-9.3602
de	-9.36088
▁অধিক	-9.36177
▁অস্ট্রেলিয়া	-9.36209
▁প্রবাহিত	-9.3622
▁খাল	-9.36353
▁খ্রিস্টাব্দে	-9.36375
▁কৃষ্ণ	-9.36385
▁ধারণ	-9.36426
&	-9.3644
▁২০০৮	-9.36591
ময়	-9.36593
▁কার	-9.36851
▁বসু	-9.36861
পত্র	-9.36909
▁মৌল	-9.36957
▁এগুলি	-9.37013
▁রাস্তা	-9.37145
▁শো	-9.3716
সেন	-9.37228
▁ইউনিয়নের	-9.37328
ফার	-9.37359
ষ্ঠ	-9.37378
তী	-9.37419
57	-9.37596
নাম	-9.37602
স্থান	-9.37652
▁পরিমাপ	-9.37663
▁পথে	-9.37745
▁প্রকল্প	-9.37831
াব	-9.37926
বন	-9.38024
ba	-9.38045
পর	-9.38051
ওয়ে	-9.38076
▁২০১২	-9.38113
▁চতুর্থ	-9.38156
▁পরিচয়	-9.38204
দান	-9.38229
▁আমি	-9.38247
06	-9.38256
il	-9.38463
▁খু	-9.38477
▁w	-9.38485
▁জড়িত	-9.38511
▁ভিত্তিতে	-9.38695
▁হ্রদ	-9.38774
ারি	-9.38775
▁অনুষ্ঠান	-9.3878
সিয়া	-9.38818
ৎস	-9.38876
▁ঐতিহ্য	-9.38883
▁জমি	-9.38916
▁আন্দোলনের	-9.39021
▁রাসায়নিক	-9.39053
ly	-9.39165
▁সম্মান	-9.39299
▁রেলওয়ে	-9.39347
lt	-9.39368
▁বিজ্ঞানী	-9.39382
▁সংরক্ষণ	-9.39474
ia	-9.39556
▁সমালোচনা	-9.39614
▁২৯	-9.39709
▁কুমার	-9.39709
▁আবু	-9.39767
▁সংযোগ	-9.3985
▁পাশে	-9.39903
▁জর্জ	-9.39977
কেন্দ্র	-9.39982
▁কিমি	-9.40056
জাত	-9.40244
▁নৃত্য	-9.4027
▁সুলতান	-9.4027
য়ী	-9.40557
▁ইউরোপ	-9.40573
▁জমিদার	-9.40689
▁রেডিও	-9.40749
শী	-9.40851
▁এসব	-9.40875
▁বাস্তব	-9.4093
▁বিদ্রোহ	-9.40967
▁অবশ্য	-9.4115
▁ফলাফল	-9.41174
▁বিপক্ষে	-9.41226
ীদের	-9.41292
▁মুখ	-9.41311
▁আহমেদ	-9.41318
হ্	-9.41358
▁আমেরিকার	-9.41407
▁শেষে	-9.41531
▁নির্ধারণ	-9.41607
র্ণ	-9.41687
▁সংস্কৃত	-9.41691
▁ম্যাক	-9.4174
▁শান্তি	-9.4186
▁খ্রিস্টান	-9.41895
দ্	-9.41961
▁যুগে	-9.41965
▁চলচ্চিত্রে	-9.41965
is	-9.42028
▁জায়গা	-9.42051
▁নব	-9.42057
▁পূজা	-9.42071
▁নিশ্চিত	-9.42181
শাসিত	-9.42258
▁নিয়মিত	-9.42267
▁19	-9.4227
▁সূচনা	-9.42469
র্জ	-9.42482
▁ফেলে	-9.42488
▁নিতে	-9.42526
কান	-9.42568
াইড	-9.42572
▁ধাতু	-9.42614
▁বার্ষিক	-9.42715
▁আমরা	-9.42745
▁বিক্রি	-9.42792
প্রাপ্ত	-9.42839
▁সীমান্ত	-9.42899
৬০	-9.42921
লেন	-9.42961
▁জেনারেল	-9.43058
ন্ডার	-9.43247
▁বিশ্লেষণ	-9.43253
▁পেয়েছে	-9.43301
চু	-9.43379
▁প্রবাহ	-9.43381
▁কর্মজীবন	-9.43499
োর	-9.43505
▁গাছ	-9.43627
▁২০০৯	-9.43662
চিত্র	-9.43772
▁উক্ত	-9.43894
ফু	-9.43924
▁জাতিসংঘ	-9.4393
▁বছরে	-9.44009
ol	-9.44025
▁সিলেট	-9.44085
▁বিন্দু	-9.44109
▁দুর্গ	-9.44212
▁প্রায়শই	-9.44373
▁১৯৭০	-9.44384
ন্ধ	-9.44447
▁শিল্পী	-9.44496
▁সত্ত্বেও	-9.44518
রাস	-9.44582
▁দান	-9.44659
▁উপনিবেশ	-9.44666
▁মুসলমান	-9.44706
ভূমি	-9.44711
▁যুগের	-9.44718
▁কার্ড	-9.44734
▁উৎপন্ন	-9.44814
▁বৈ	-9.44971
ণা	-9.45001
▁অনুসরণ	-9.45111
▁প্রতিরোধ	-9.45127
▁আকারে	-9.45141
▁ট্রা	-9.45203
▁প্রশাসন	-9.45204
ুন	-9.45211
▁ব্যাকরণ	-9.45269
াদি	-9.45428
▁যাবে	-9.45435
▁বিচার	-9.45499
▁আজ	-9.45531
▁পরিবর্তে	-9.45558
রাই	-9.45571
▁অল্প	-9.4574
াইল	-9.45863
▁অভিযোগ	-9.45864
ইয়া	-9.45871
▁বন্ধু	-9.45883
▁প্রোগ্রাম	-9.45906
▁("	-9.45937
েড	-9.45951
▁ন্যাশনাল	-9.4598
▁মোহাম্মদ	-9.46067
▁রেখে	-9.46114
▁১৯৮০	-9.46171
▁সংখ্যার	-9.46172
তন	-9.4618
সম	-9.4626
▁শিকার	-9.46266
ছা	-9.4629
▁এখানকার	-9.46324
▁বিলিয়ন	-9.46328
▁উদ্দেশ্য	-9.46371
et	-9.46439
▁আরবি	-9.46454
লাস	-9.46483
▁সান	-9.465
▁অঞ্চলটি	-9.46535
▁শেষের	-9.46601
▁ফসল	-9.46617
▁যোগদান	-9.46638
তন্ত্র	-9.46657
▁ঠাকুর	-9.467
▁ল্যা	-9.46743
▁কণা	-9.46809
ক্ষণ	-9.47082
▁সংজ্ঞা	-9.47093
▁সম্প্রদায়ের	-9.47178
▁এশিয়ার	-9.47194
▁২০০৪	-9.47251
দেব	-9.47311
▁প্রধানত	-9.47351
▁সক্রিয়	-9.47387
▁বাণিজ্যিক	-9.47395
এফ	-9.47443
চর	-9.47466
হিত	-9.47469
▁তৈরী	-9.47519
▁আদিবাসী	-9.4768
▁১টি	-9.47693
▁পড়াশোনা	-9.47824
ওয়ার	-9.47892
▁বাকি	-9.47896
▁কাব্য	-9.47901
প্	-9.47953
▁রাজশাহী	-9.47977
▁k	-9.48097
▁পরিবর্তিত	-9.4813
▁আসা	-9.48135
▁ভাব	-9.48171
▁প্রতিযোগিতা	-9.48241
াংশ	-9.48254
▁পদে	-9.48352
৯৩	-9.48363
াস	-9.48369
ent	-9.48433
▁নেওয়া	-9.48495
ার্ড	-9.48541
▁কাছাকাছি	-9.48591
▁খ্রিষ্টাব্দের	-9.48696
▁সাত	-9.48767
▁ডো	-9.48829
it	-9.48923
োস	-9.49022
▁শাসক	-9.49025
▁কলা	-9.49155
▁স্থাপত্য	-9.49208
▁খো	-9.49283
▁২০১৪	-9.49402
িশ	-9.49489
▁যেহেতু	-9.49519
▁প্রজাতি	-9.49564
▁কলকাতার	-9.4968
ir	-9.49724
▁ভালো	-9.49746
পাত	-9.49762
ীকরণ	-9.49826
▁g	-9.49871
জীবন	-9.49965
▁হোসেন	-9.5
৮০	-9.50001
২৫	-9.50114
▁ভিয়েতনাম	-9.50142
াত	-9.50253
▁ভূগোল	-9.50299
ন্দ্র	-9.50424
▁তীরে	-9.50453
▁নিরাপত্তা	-9.50455
▁খুবই	-9.50547
▁স্বাধীনতার	-9.5059
▁পাস	-9.5062
▁প্রতিষ্ঠার	-9.50672
দো	-9.50759
▁নেটওয়ার্ক	-9.5077
▁প্রচেষ্টা	-9.5077
▁বহন	-9.50797
▁পাই	-9.50912
৯৯	-9.50976
▁আন	-9.51018
▁থ	-9.51018
▁৩১	-9.51035
▁নিহত	-9.51085
▁নেয়া	-9.51292
▁ঘনত্ব	-9.51321
▁পল	-9.51461
▁আফ্রিকার	-9.51508
▁যথেষ্ট	-9.5156
▁বার্	-9.51627
াতে	-9.5164
▁তরঙ্গ	-9.51722
▁পাঁচটি	-9.51765
▁হওয়ায়	-9.51765
▁স্কুলে	-9.51787
▁নদ	-9.51797
▁গণিত	-9.51829
৭০	-9.519
▁কঠিন	-9.52037
▁১৯৬০	-9.52052
▁স্মৃতি	-9.52133
▁বোর্ড	-9.52139
৪০	-9.52146
▁খাঁ	-9.52151
▁ব্যাপারে	-9.52191
▁দেবতা	-9.52219
▁বীর	-9.52228
▁কন্যা	-9.52247
▁উদ্	-9.52267
▁ইনস্টিটিউট	-9.52356
04	-9.52389
▁ক্রিয়া	-9.52416
▁আমলে	-9.52432
▁চীনা	-9.52434
িতে	-9.52451
চ্ছ	-9.52587
টু	-9.52648
▁প্লা	-9.52676
▁ড্র	-9.52765
▁জাদুঘর	-9.52838
▁রুশ	-9.52892
▁উইলিয়াম	-9.52934
▁অভ্যন্তরীণ	-9.52997
▁টা	-9.53032
বাড়ি	-9.53035
▁সংস্কৃতির	-9.53127
▁তি	-9.53131
▁জয়লাভ	-9.5317
▁হবার	-9.532
▁গঙ্গা	-9.53319
▁আদালত	-9.53321
▁ভুল	-9.53409
▁ব্যান্ড	-9.5342
▁মাত্রা	-9.53559
▁সমৃদ্ধ	-9.53617
▁পরমাণু	-9.53644
▁পারমাণবিক	-9.53916
▁প্রাণ	-9.53916
▁কলেজে	-9.53948
▁ধ্বনি	-9.53981
্ম	-9.54188
▁মুহাম্মাদ	-9.54293
▁সামনে	-9.54307
▁ইউনিভার্সিটি	-9.54347
▁প্রাক্তন	-9.54456
▁ময়মনসিংহ	-9.54535
▁বস্তুর	-9.5457
িস্ট	-9.54611
▁দেওয়ার	-9.54618
▁অনুমতি	-9.54625
▁মেট্রো	-9.54645
si	-9.54647
▁জেন	-9.54703
%)	-9.5473
▁ত্যাগ	-9.54784
▁মুদ্রা	-9.54801
▁আফ্রিকান	-9.54817
▁৭৫	-9.5488
▁আফগানিস্তান	-9.54948
▁দিবস	-9.5496
▁দশক	-9.54986
ph	-9.55073
মত	-9.55185
▁প্রদেশের	-9.55246
▁জনপ্রিয়তা	-9.5538
▁উদাহরণস্বরূপ	-9.5539
▁গেলে	-9.55405
▁ব্যর্থ	-9.55451
দল	-9.55538
▁চলচ্চিত্রের	-9.55567
▁ইলেকট্রন	-9.55583
▁২০১৩	-9.5581
▁মাসের	-9.55813
▁অসংখ্য	-9.55878
▁মেলা	-9.55882
২২	-9.55924
▁পণ্ডিত	-9.55936
َ	-9.55938
▁দিল্লি	-9.55947
hi	-9.5599
▁আক্রান্ত	-9.56121
▁বরং	-9.56142
]],	-9.56166
wa	-9.56206
▁আব	-9.56209
▁শুরুতে	-9.56213
▁আট	-9.56335
▁উপস্থিতি	-9.5636
▁কংগ্রেস	-9.56427
▁৫৪	-9.56489
▁উন্নতি	-9.56537
৯৮	-9.56596
▁মাদ্রিদ	-9.56602
▁যথাক্রমে	-9.56604
▁মিশর	-9.56681
▁সম্পদ	-9.56703
▁শতাব্দী	-9.56704
স্টি	-9.56726
▁ব্য	-9.5675
র্থ	-9.56754
▁মেয়ে	-9.56769
▁দাস	-9.56813
বাজার	-9.56821
▁যাকে	-9.56826
▁সম্পাদক	-9.56842
▁ছয়	-9.5686
মণ্ডল	-9.56918
▁পরিমাণে	-9.56927
▁নিদর্শন	-9.56953
ট্	-9.56955
কাস	-9.57026
▁ঐতিহ্যবাহী	-9.57107
▁বংশ	-9.57287
▁আলোক	-9.57305
▁20	-9.5737
▁ইউরোপে	-9.57378
▁গভর্নর	-9.57442
▁সংক্রান্ত	-9.5745
▁পাখি	-9.57469
▁আর্	-9.57678
▁ব্যাপকভাবে	-9.57804
▁উপস্থিত	-9.57859
সী	-9.57921
▁সাফল্য	-9.57945
▁থানার	-9.57956
co	-9.58112
াশ	-9.58128
▁ঘ	-9.5815
২৩	-9.58187
যেমন	-9.58228
▁স্থাপিত	-9.58451
▁কাউন্সিল	-9.58453
▁বিবেচিত	-9.58453
▁ma	-9.58566
▁পরিষদ	-9.58654
▁সংবিধান	-9.58656
▁আফ্রিকা	-9.58671
the	-9.58711
▁প্রশিক্ষণ	-9.58794
▁নো	-9.58804
▁রেখা	-9.58816
ng	-9.58832
▁re	-9.58987
gt	-9.59074
▁রেলপথ	-9.59146
লিক	-9.59153
স্থল	-9.59193
▁সঠিক	-9.59214
৯৪	-9.59263
▁প্রকৌশল	-9.59272
মাল	-9.59296
nd	-9.59338
▁কোড	-9.59344
▁কাম	-9.5938
প্ত	-9.59399
▁আমেরিকা	-9.59429
un	-9.5955
tion	-9.59571
▁একাডেমি	-9.59584
▁বিজয়ী	-9.59719
▁তাপ	-9.59762
▁মূর্তি	-9.5983
▁প্রদর্শন	-9.59902
তর	-9.59979
▁ম্যাচে	-9.59987
▁আলি	-9.59991
ত্রী	-9.60054
র্ত	-9.60072
▁ক্যালিফোর্নিয়া	-9.60167
▁পর্তুগিজ	-9.60221
▁শীর্ষ	-9.60238
▁এন্ড	-9.60263
ব্দ	-9.60296
▁চার্চ	-9.6035
▁আমার	-9.60419
ছি	-9.60444
▁২০১৮	-9.60594
▁পৃথিবী	-9.60615
▁রকম	-9.6064
আল	-9.60713
81	-9.6072
২১	-9.60873
▁দেহ	-9.60896
▁ইসলামী	-9.60909
বাদের	-9.60983
▁নিজেকে	-9.61024
▁তাঁকে	-9.61039
▁২০১৬	-9.61078
▁প্রায়ই	-9.61108
▁কৌশল	-9.61149
ডার	-9.61169
নেট	-9.61202
▁শে	-9.61227
▁হারিয়ে	-9.61279
▁আকার	-9.61338
য়েন	-9.61353
▁অ্যালবাম	-9.61385
▁নর	-9.61479
▁সেনাবাহিনী	-9.61483
▁রোড	-9.61533
▁স্নাতক	-9.61558
▁আওয়ামী	-9.61735
ুক	-9.61736
▁বৃষ্টিপাত	-9.61738
▁কিংবা	-9.61763
▁সাহায্যে	-9.61771
িয়	-9.61975
▁ঘর	-9.61996
▁কীভাবে	-9.61997
▁ডাক	-9.62079
am	-9.62183
▁স্টেডিয়াম	-9.62413
▁বার্লিন	-9.62453
▁চিন্তা	-9.62604
তেই	-9.62693
৯৭	-9.62739
রিক	-9.62785
▁রাখতে	-9.62795
▁রোম	-9.62809
ঠা	-9.63013
▁পরামর্শ	-9.6315
▁১৯৯১	-9.63161
▁বেড়ে	-9.63178
েশ্বর	-9.63278
েশ	-9.63309
▁সহজ	-9.63368
▁পাশ	-9.6343
▁বাড়িতে	-9.63462
▁প্রকৃতি	-9.63476
▁আর্থিক	-9.63526
▁শ্রমিক	-9.63552
নাস	-9.63665
▁অতিরিক্ত	-9.63686
৮৭	-9.63688
▁চাল	-9.63702
▁অভিযান	-9.63757
da	-9.63758
নাল	-9.63771
to	-9.63824
▁শক্তির	-9.63877
তুল	-9.63893
▁গোষ্ঠী	-9.63912
▁কর্মকর্তা	-9.64042
▁অভিহিত	-9.64056
▁গণনা	-9.64146
জী	-9.64174
▁এফ	-9.64194
িনী	-9.64215
▁ইহুদি	-9.64224
▁বলেছিলেন	-9.64246
▁বিবরণ	-9.64262
লাল	-9.64265
▁ব্যবস্থার	-9.64269
▁বাংলায়	-9.64315
৯০	-9.64319
▁৯০	-9.64325
▁যৌগ	-9.64404
▁কর্	-9.64481
▁ধ	-9.64486
vi	-9.64525
▁গণ্য	-9.64549
▁তাল	-9.64727
▁খ্রিস্টপূর্ব	-9.64772
▁পত্রিকা	-9.64848
লস	-9.64858
প্রতি	-9.65006
কেই	-9.65047
ni	-9.65156
▁বোঝায়	-9.65204
▁বইটি	-9.6522
▁সেগুলো	-9.65296
▁৪৬	-9.65316
▁১৯৯৬	-9.65323
টিং	-9.65376
পতি	-9.65381
▁পাঞ্জাব	-9.65399
▁ফাংশন	-9.65493
তেন	-9.65497
উদ্দিন	-9.65516
▁অ্যাসিড	-9.65526
▁২০০৩	-9.65534
▁জাতির	-9.65586
man	-9.65626
গে	-9.65668
▁দশ	-9.65735
▁প্রস্তুত	-9.65742
▁ক্লাবের	-9.65743
রাষ্ট্র	-9.65832
▁মূল্য	-9.65847
▁জীবনী	-9.65917
২৮	-9.65936
০৪	-9.65967
৮৬	-9.65971
▁ট্র	-9.65993
মূল	-9.66007
▁বোন	-9.66021
▁ইতালীয়	-9.66041
▁পঞ্চায়েত	-9.66041
নির	-9.66075
▁কার্য	-9.66101
▁গানের	-9.66113
▁প্রতিষ্ঠাতা	-9.66144
▁শুরুর	-9.66163
৭৫	-9.66214
▁সফটওয়্যার	-9.66224
sa	-9.66239
▁লিখেছেন	-9.66413
▁গবেষণার	-9.66595
▁বিন	-9.66748
▁বিশ্বযুদ্ধের	-9.6688
▁বলেছেন	-9.66901
ফল	-9.66956
ানু	-9.66958
▁প্রশ্ন	-9.66962
তল	-9.66988
বিশিষ্ট	-9.66993
▁বিংশ	-9.66995
▁ফিফা	-9.67035
ন্ডি	-9.67085
▁চরিত্রে	-9.67107
▁নির্ণয়	-9.67148
▁প্রকার	-9.67271
▁প্রাচীনতম	-9.67273
্ট	-9.67293
▁=	-9.6743
▁সার	-9.67453
২৪	-9.67499
াকার	-9.67507
▁আসছে	-9.67527
▁রিয়াল	-9.67581
▁ফো	-9.67666
▁তীব্র	-9.67704
▁কার্যকর	-9.67749
▁গণিতবিদ	-9.67851
▁নাগরিক	-9.67869
▁সম্ভাবনা	-9.67891
▁চাকরি	-9.67938
▁নামেও	-9.68058
▁পছন্দ	-9.68078
▁বজায়	-9.68079
▁বিশ্বকাপ	-9.68095
▁রাখার	-9.68096
▁প্রেরণ	-9.68156
য়ন	-9.68197
▁পবিত্র	-9.68208
জ্ঞ	-9.68209
▁বঙ্গ	-9.68231
ন্না	-9.68249
▁ক্রীড়া	-9.68254
▁মহকুমা	-9.68268
▁দলে	-9.68359
ho	-9.68381
▁নিষিদ্ধ	-9.68453
▁২০১৫	-9.68505
ss	-9.68562
▁চু	-9.68564
▁মার্	-9.68637
▁বাধ্য	-9.68641
▁দৃষ্টি	-9.68642
▁প্রেম	-9.68751
▁ব্রা	-9.68829
▁পরিসংখ্যান	-9.68829
▁বন্ধন	-9.68848
▁সাবেক	-9.6886
▁আকর্ষণ	-9.68925
▁স্বাভাবিক	-9.69207
▁১৯৪৭	-9.6922
পদ	-9.69231
▁দ্বীপপুঞ্জ	-9.69241
▁২০১৯	-9.69246
ক্যাল	-9.69256
িয়াস	-9.69335
▁গ্রামের	-9.69338
▁পাট	-9.69346
▁লিখিত	-9.69385
▁ফ্রান্স	-9.69417
০১	-9.69438
▁পেশা	-9.69459
ভ্র	-9.69473
▁জীবনে	-9.69495
▁মৌসুম	-9.69588
▁বিজয়	-9.69598
২৭	-9.69604
▁ছা	-9.69675
▁খ্যাতি	-9.69698
▁পোশাক	-9.69777
▁উদ্ভূত	-9.69779
▁ত্রিপুরা	-9.69781
ধর্ম	-9.69786
স্থা	-9.69823
▁মিত্র	-9.69866
শক্তি	-9.69919
য়েড	-9.69938
▁সংঘটিত	-9.69967
▁সর্বপ্রথম	-9.6997
▁পলি	-9.69996
▁উপকূল	-9.70109
▁মেসি	-9.70111
কুমার	-9.70131
▁ইন্ডিয়া	-9.70163
উল	-9.70201
▁সমীকরণ	-9.70367
▁২০০২	-9.70397
▁নেতৃত্ব	-9.70421
▁বিপরীত	-9.70524
▁সর	-9.70538
▁উদ্ভাবন	-9.7054
গাঁও	-9.70548
ীন	-9.70594
▁হাসপাতাল	-9.70628
▁পাকিস্তানি	-9.70643
২৬	-9.70644
▁উপজাতি	-9.70748
৯৬	-9.70754
▁সেন্টার	-9.70834
ম্বা	-9.70901
লেট	-9.70923
▁ইয়র্ক	-9.70925
▁গিয়েছিল	-9.70935
▁লন্ডন	-9.7099
▁কালো	-9.70993
স্টা	-9.71007
▁কী	-9.71014
▁কত	-9.71083
▁মাল	-9.71115
▁কৃষক	-9.71117
▁উচ্চারণ	-9.71117
▁ba	-9.71131
▁তুর্কি	-9.71139
▁গ্রীষ্ম	-9.71157
▁আচরণ	-9.71169
ক্ষেত্র	-9.71185
▁রস	-9.71208
▁স্বতন্ত্র	-9.71326
▁মধ্যবর্তী	-9.71336
▁নিউটন	-9.71349
ver	-9.71361
রত	-9.71405
▁এসময়	-9.71428
২৯	-9.71479
▁কর্তৃপক্ষ	-9.71503
▁অধিবর্ষ	-9.71506
▁সর্বশেষ	-9.71509
প্রধান	-9.71605
মিন	-9.71618
▁ব্যয়	-9.71631
▁বোঝা	-9.71676
▁আকাশ	-9.71706
▁সংগ্রাম	-9.71712
▁২০১৭	-9.71751
পন	-9.71809
▁বিতর্ক	-9.71823
▁সভাপতি	-9.71868
▁ধারাবাহিক	-9.71887
াঙ্গ	-9.71888
▁উয়েফা	-9.71891
▁ফ্রান্সের	-9.71895
51	-9.7192
▁রাষ্ট্রের	-9.71998
▁ডান	-9.72019
▁গৃহীত	-9.7209
▁মৃত্যুবরণ	-9.72095
▁সাহিত্যের	-9.72127
▁৪৫	-9.72147
▁ইতিহাসের	-9.72188
▁স্প	-9.72251
▁কারখানা	-9.72331
▁প্রতিনিধি	-9.72346
▁কাটা	-9.72359
▁বেগ	-9.72367
ডেন	-9.72425
▁তাহলে	-9.72477
▁মহারাষ্ট্র	-9.72497
িনা	-9.7252
৮৫	-9.72608
্রু	-9.72668
di	-9.72748
▁মুখে	-9.7275
হী	-9.72764
৬৬	-9.72775
▁জোর	-9.72788
▁প্রতিনিধিত্ব	-9.72834
ত্	-9.72835
▁উপাধি	-9.72868
শিয়া	-9.72873
▁অতিক্রম	-9.72886
▁৩৫	-9.7295
▁নু	-9.7297
▁আসলে	-9.72992
▁আত্ম	-9.73022
▁ইসলামের	-9.73035
▁দুর্বল	-9.73069
▁প্রতিক্রিয়া	-9.73093
▁বিষয়ক	-9.73128
▁প্রকৃত	-9.73149
ক্ট	-9.73162
০৭	-9.73162
▁কিছুটা	-9.73196
▁দলটি	-9.7331
▁সৈন্য	-9.73365
▁ফ্যা	-9.73376
▁প্রো	-9.73391
যোগ	-9.73397
২০০	-9.7342
▁শিক্ষার্থী	-9.73469
▁কলেজের	-9.73494
▁সমন্বয়ে	-9.73579
জিত	-9.73654
▁অফিস	-9.73655
▁১৯৭২	-9.73669
বহ	-9.73685
▁কলকাতায়	-9.73728
ফো	-9.73784
▁উঠেছে	-9.73816
▁মাঝামাঝি	-9.73854
▁স্যা	-9.73859
▁১৯৫০	-9.73883
▁সংগীত	-9.73892
▁গ্রা	-9.73933
mi	-9.73942
োপ	-9.73969
▁বিজ্ঞানের	-9.73986
খান	-9.73997
ঙ্গু	-9.74031
▁লিপি	-9.7404
৭৮	-9.7405
▁প্রথা	-9.74228
▁স্তর	-9.74283
▁t	-9.74417
▁সবুজ	-9.7442
▁ক্যাথলিক	-9.74451
▁ডিগ্রী	-9.74463
লিং	-9.74486
▁শত	-9.74518
জনক	-9.74606
▁সামান্য	-9.74662
শো	-9.74772
এই	-9.74787
টেন	-9.74852
▁দৈনিক	-9.74857
ট্রা	-9.74888
শিল্প	-9.74893
▁প্রসারিত	-9.749
▁প্যারিস	-9.74963
ইল	-9.74995
▁এভাবে	-9.75002
লাম	-9.75063
▁গুরু	-9.75095
▁পশু	-9.75098
▁অস্ত্র	-9.75135
▁বিচ্ছিন্ন	-9.75198
মী	-9.75255
▁সার্	-9.7533
▁সেতু	-9.75473
▁এটির	-9.75489
▁জার্মানি	-9.75506
▁পেয়ে	-9.75518
▁সৈয়দ	-9.75537
এক	-9.75588
ফোর্ড	-9.75597
▁আর্জেন্টিনা	-9.75654
▁১৯৮৩	-9.75666
মাস	-9.75706
▁বিশ্বে	-9.75809
৭১	-9.75828
▁বৃদ্ধির	-9.7583
▁গ্যা	-9.75845
▁রপ্তানি	-9.75856
▁বিদেশী	-9.75875
▁জেমস	-9.75879
▁পানির	-9.75906
▁বিদ্যুৎ	-9.75933
ুম	-9.75964
▁m	-9.75994
▁সীমা	-9.76053
▁৫৫	-9.76068
দাস	-9.76112
ধি	-9.76122
স্তি	-9.76133
▁চল	-9.76172
▁co	-9.76191
৪৭	-9.76233
৬৫	-9.76248
মহা	-9.76297
৫৯	-9.76321
সিন	-9.76324
▁ক্ষতি	-9.76353
▁রাখেন	-9.76417
▁চিহ্ন	-9.76434
▁স্পেনীয়	-9.7646
নোর	-9.7646
▁অভিজ্ঞতা	-9.76465
▁কমিশন	-9.76468
জির	-9.76494
▁আসাম	-9.76581
as	-9.76593
▁আশা	-9.76606
৪৫	-9.76705
৯২	-9.76801
▁ক্রি	-9.76808
▁ব্যবহারের	-9.76835
▁সাব	-9.7697
▁অক্ষ	-9.76975
৭৪	-9.76983
▁কক্ষ	-9.7701
▁বিশেষত	-9.77021
▁আহমদ	-9.77079
▁প্রত্যেক	-9.77133
কী	-9.77141
▁mo	-9.77225
▁কর্পোরেশন	-9.77282
▁দিনাজপুর	-9.77282
মুখী	-9.77308
▁সাম্প্রতিক	-9.77458
৬৭	-9.77466
▁অ্যাল	-9.77476
▁ঝ	-9.77548
যুগ	-9.77554
▁স্যার	-9.77557
▁আনুমানিক	-9.7758
ge	-9.7764
▁যুক্তরাষ্ট্রে	-9.77642
রেখা	-9.77648
▁চালিয়ে	-9.77725
▁পক্ষ	-9.77726
▁রাজ্যে	-9.77748
▁গাড়ি	-9.77761
হান	-9.77798
ci	-9.77823
▁ত্রি	-9.77859
জের	-9.77891
▁নক্ষত্র	-9.77899
োল	-9.77967
▁ট্রেন	-9.78128
জেন	-9.78132
সিস	-9.78147
▁o	-9.78183
৩২	-9.78243
▁কমে	-9.78273
▁মিলে	-9.78296
q	-9.78306
দম	-9.78312
▁চিঠি	-9.78313
▁লম্বা	-9.7832
৭৩	-9.78331
▁জাত	-9.78338
▁বিলুপ্ত	-9.78352
▁বেসরকারি	-9.7852
▁সভ্যতার	-9.7863
▁দিয়েছে	-9.78632
▁নবাব	-9.78727
▁দিকের	-9.78745
▁২০২০	-9.78821
▁ডু	-9.78829
িউ	-9.78887
চল	-9.78899
▁সংজ্ঞায়িত	-9.78937
▁রবীন্দ্রনাথ	-9.78938
▁বাধা	-9.78939
▁কোণ	-9.78956
▁সিংহ	-9.78989
৩৮	-9.79019
▁নবী	-9.79116
▁&	-9.79126
▁বিপুল	-9.79146
দিকে	-9.79152
বাসী	-9.79299
▁য	-9.79301
▁খুঁজে	-9.79354
no	-9.79364
▁আলু	-9.79381
▁৬৫	-9.79433
▁ইরান	-9.79528
▁নম্বর	-9.79565
▁১৯৯৯	-9.79583
কল্প	-9.79615
▁উপস্থাপন	-9.79726
▁একত্রিত	-9.79775
▁অভিনেতা	-9.79778
▁হিসাব	-9.79841
▁ডাকা	-9.79867
৫৬	-9.79878
▁বাদ	-9.79884
▁স্ক	-9.79889
▁জৈব	-9.79912
▁নিবন্ধ	-9.79951
▁প্রচলন	-9.79985
▁আদেশ	-9.80133
▁ছবিটি	-9.80136
স্প	-9.80147
▁গোলে	-9.8018
মাই	-9.80194
্রো	-9.80202
▁খেলে	-9.8021
▁উপভাষা	-9.80211
▁r	-9.80214
গামী	-9.80381
ম্যা	-9.80384
▁হ্যারি	-9.80385
ঙ্গি	-9.80453
কুল	-9.80515
▁রঙের	-9.80562
▁থাকলেও	-9.80572
গ্রহ	-9.80619
ার্থ	-9.8062
ct	-9.80665
▁ইস্ট	-9.80688
▁ফাইনালে	-9.80736
ন্ডা	-9.80774
▁কমিটি	-9.80825
▁যাত্রী	-9.80831
▁গ্রামীণ	-9.80832
▁স্বাক্ষর	-9.80976
▁পদ্ধতিতে	-9.81042
▁পেশাদার	-9.81068
▁একবার	-9.81093
▁প্রয়োজনীয়	-9.81096
০৩	-9.81137
▁দিনে	-9.81194
▁n	-9.81223
▁অবশেষে	-9.81258
▁তত্ত্বের	-9.81332
▁এত	-9.81342
ীরা	-9.81361
▁হাট	-9.81427
▁নং	-9.8146
▁মামলা	-9.8148
মুখ	-9.8152
ক্সি	-9.81526
ll	-9.81624
▁is	-9.81678
▁অনুশীলন	-9.81685
থু	-9.81711
▁পুরাণ	-9.81741
িজ	-9.81753
াবাদ	-9.81758
▁ভু	-9.81834
▁হিন্দি	-9.8184
▁মহাকাশ	-9.81842
▁সাহিত্যিক	-9.81897
▁ট্যা	-9.82012
▁মাতা	-9.82143
▁লাতিন	-9.82145
▁করি	-9.82232
৭২	-9.8224
▁ঢাকায়	-9.82273
▁আন্তঃ	-9.82347
▁শিল্পের	-9.82365
▁দৃশ্য	-9.82377
▁পদক	-9.82431
▁জনগণের	-9.82445
▁সুন্দর	-9.82486
টল	-9.82513
ad	-9.82551
৬৩	-9.82555
sh	-9.82557
▁i	-9.82574
▁থাকবে	-9.82608
৪৮	-9.82679
▁আগ	-9.82687
৭৯	-9.82787
▁রূপান্তরিত	-9.82825
৪৯	-9.82835
পক্ষে	-9.82836
j	-9.82933
▁উঁচু	-9.8298
▁স্বল্প	-9.82985
▁তালিকায়	-9.82993
▁পড়েন	-9.83015
র্দ	-9.83085
৩৬	-9.83117
ভ্য	-9.83134
▁বাগান	-9.83161
▁তুরস্ক	-9.83197
০৬	-9.83198
▁গ্রেট	-9.8323
▁পড়া	-9.83234
ল্ল	-9.83235
▁স্থল	-9.83296
▁গৃহ	-9.83331
▁আপ	-9.83361
▁ছবিতে	-9.83372
▁৭২	-9.83375
গী	-9.83394
▁১৯৯৮	-9.83433
ক্রি	-9.83457
▁৩২	-9.83459
▁৭৪	-9.83469
খালী	-9.83544
▁জার্মানির	-9.83559
▁প্রোগ্রামিং	-9.83572
জান	-9.83634
▁ভূখণ্ড	-9.83641
▁অব্যাহত	-9.83648
কর্ম	-9.83673
▁দিনের	-9.83787
▁পরিচিতি	-9.83837
▁নাই	-9.83843
▁আবিষ্কৃত	-9.83853
▁বাক্য	-9.8392
▁রাশি	-9.83952
▁আবদ্ধ	-9.83999
▁কমিউনিস্ট	-9.84073
▁সংকেত	-9.84079
▁কার্বন	-9.84098
▁টো	-9.84123
৬৪	-9.84128
▁আঘাত	-9.8414
▁শ্রেণী	-9.84145
▁আনন্দ	-9.84159
উই	-9.84167
▁গুপ্ত	-9.84209
▁প্রশান্ত	-9.84291
প্রায়	-9.84312
▁বাঁশ	-9.84369
শ্	-9.84467
▁অর্থনীতির	-9.84481
৩৯	-9.84488
ا	-9.84505
▁গবেষক	-9.84511
▁অপরাধ	-9.84513
▁পদ্ধতির	-9.84553
▁́	-9.84578
▁আলোর	-9.84582
৯১	-9.84607
ve	-9.84612
▁শ্রেণি	-9.84612
ry	-9.84637
▁নির্মাণের	-9.84712
▁কাউন্টি	-9.84736
ru	-9.84747
▁ছায়াপথ	-9.84758
▁উচিত	-9.84759
▁বিবর্তন	-9.84765
ন্টা	-9.84769
৫৮	-9.84769
▁ইংল্যান্ডের	-9.84788
মেন	-9.84794
▁কালে	-9.84804
▁মনো	-9.84846
▁পুনর্	-9.84867
ায়িত	-9.84916
▁চর্চা	-9.8493
▁উষ্ণ	-9.84953
▁সম্প্রচার	-9.84953
▁৭৩	-9.85004
▁মঙ্গল	-9.85006
▁করছেন	-9.85047
ka	-9.85091
im	-9.85149
▁চ্যানেল	-9.85175
▁বসে	-9.8528
ঈ	-9.85319
▁অর্ধ	-9.85374
▁উন্নীত	-9.85397
▁যাইহোক	-9.85397
▁h	-9.85543
ck	-9.85546
▁ব্যক্তিত্ব	-9.85566
▁জনগণ	-9.85587
▁মেনে	-9.85595
é	-9.8562
▁চূড়ান্ত	-9.85632
ক্ষা	-9.85651
▁৭৬	-9.85692
িজম	-9.85718
▁সেটি	-9.85732
ধারা	-9.85798
▁১৯৯২	-9.85859
▁১৯৭৫	-9.8586
েজ	-9.8596
পথ	-9.85997
▁সমাজের	-9.86005
▁নেপাল	-9.8611
বাংলাদেশ	-9.8612
▁দিয়েছেন	-9.8613
▁সিরিজ	-9.86193
▁তম	-9.86205
▁স্বীকৃত	-9.86219
োদ	-9.86234
▁be	-9.86246
▁কর্মী	-9.86251
৬৮	-9.86269
▁পাবলিক	-9.86292
তারা	-9.86395
▁প্রেসিডেন্ট	-9.86516
০৯	-9.86545
▁খোলা	-9.86562
▁মন্ত্রী	-9.86566
রান	-9.86625
বাহ	-9.86632
▁গি	-9.86718
ন্য	-9.86751
ট্রিক	-9.86753
বাগ	-9.86769
্রি	-9.86776
নিউ	-9.86789
▁জ্যোতির্বিজ্ঞান	-9.86794
▁2	-9.86824
▁পাওয়ার	-9.86856
▁দিয়েছিল	-9.86935
▁ত্রিভুজ	-9.8697
▁প্রোটিন	-9.86971
▁অবসর	-9.86986
মস	-9.86994
লির	-9.87069
খি	-9.87117
ভাষী	-9.87117
▁ফ্রি	-9.87162
ভুক্ত	-9.87168
▁জানতে	-9.87188
ংস	-9.872
▁পর্যায়	-9.872
▁ঘোষ	-9.872
▁পঞ্চম	-9.87204
▁টেস্ট	-9.87259
▁মেডিকেল	-9.8742
▁থা	-9.87427
▁সংবাদ	-9.87485
বাড়ী	-9.87577
▁বেদ	-9.87594
্টি	-9.87615
পূর্বে	-9.87655
▁জান	-9.87702
▁আনুষ্ঠানিকভাবে	-9.87739
ঘর	-9.8775
▁আনুষ্ঠানিক	-9.87782
!	-9.87875
▁তরুণ	-9.87875
▁১৯৮৪	-9.87887
গ্রা	-9.87909
েন্দ্র	-9.87942
৬১	-9.87953
৬২	-9.87976
▁সূরা	-9.88038
০২	-9.88056
▁ভাগে	-9.88093
▁আসার	-9.88105
—	-9.88167
pa	-9.88197
য়েট	-9.88293
▁মাথা	-9.88294
▁প্রান্ত	-9.8832
▁সংক্ষিপ্ত	-9.88336
ইট	-9.88355
▁জুল	-9.88372
স্কি	-9.88396
▁মেরু	-9.88442
mo	-9.88473
▁পেতে	-9.88512
▁উপত্যকা	-9.88516
▁মাধ্যম	-9.88574
▁আবদুল	-9.88591
▁প্রবন্ধ	-9.88598
৩১	-9.88614
▁খাওয়া	-9.88614
৩৩	-9.88621
▁কান	-9.88681
▁লীগের	-9.88686
৩৫	-9.88691
▁সপ্তাহ	-9.88757
৩৭	-9.88827
ব্যা	-9.8892
▁পদার্থের	-9.88938
▁সহযোগিতা	-9.89022
▁পাঠানো	-9.89023
▁সিনেমা	-9.89023
▁সেনাবাহিনীর	-9.89047
har	-9.89048
৪৪	-9.89052
কশন	-9.89152
▁৫৬	-9.89231
▁me	-9.89265
্যান্ড	-9.89275
৭৭	-9.89334
▁সাহিত্যে	-9.89442
▁মুজিব	-9.89465
▁তারিখ	-9.89491
বাংলা	-9.89557
ইংরেজি	-9.89566
▁তৈরির	-9.89668
বিষয়শ্রেণী	-9.8972
ব্যবস্থা	-9.89752
উস	-9.89843
▁সবাই	-9.89901
টাই	-9.89915
10"	-9.89989
▁পর্বতমালা	-9.90042
▁শ্রেণীর	-9.90079
িও	-9.90151
▁নজরুল	-9.90192
▁শাসনের	-9.90228
▁জমা	-9.90234
▁ঘণ্টা	-9.90311
▁মেরি	-9.9041
▁ইতালি	-9.90559
মিল	-9.9056
▁গণিতের	-9.90598
▁জানান	-9.90636
সান	-9.90645
▁অনেকগুলি	-9.90647
▁অনুসন্ধান	-9.9065
▁সমসাময়িক	-9.9065
▁ব্রিটেন	-9.90653
▁শূন্য	-9.90751
হাই	-9.90757
▁চাঁদ	-9.90808
▁ডিজাইন	-9.90885
▁অর্ধেক	-9.9091
▁ডাই	-9.91138
ড্	-9.91163
সংখ্যা	-9.91181
বর্ণ	-9.91286
▁৬৭	-9.91298
▁রাষ্ট্রীয়	-9.91337
▁বাই	-9.91375
▁ইচ্ছা	-9.91383
▁বাঘ	-9.91389
স্তু	-9.91432
▁মালিক	-9.91465
৫৪	-9.91488
ষা	-9.91498
▁রসায়ন	-9.91531
▁দেখানো	-9.91553
াদ	-9.91577
bi	-9.9159
▁ভিয়েনা	-9.91601
▁সিং	-9.91601
▁উপসাগর	-9.91604
▁কিনা	-9.91617
▁সিরিয়া	-9.91628
▁পরিবর্তনের	-9.91693
পের	-9.91693
▁সভ্যতা	-9.91704
▁স্থানান্তর	-9.91787
▁ঈশ্বর	-9.91803
▁২য়	-9.91809
▁প্রভাবশালী	-9.9184
▁অনুপাত	-9.91857
তলা	-9.9189
▁পিতার	-9.91898
▁মাই	-9.91935
▁রূপান্তর	-9.92017
▁জাপানি	-9.92034
▁মধ্যযুগীয়	-9.92066
▁খুলনা	-9.92068
▁গে	-9.9209
তির	-9.92102
সাই	-9.92119
▁মাংস	-9.9213
৮৯	-9.92157
স্ট্র	-9.9218
▁সূর্যের	-9.92199
▁ফু	-9.92302
৫৩	-9.92342
▁বরাবর	-9.92544
▁চলাচল	-9.92546
▁ব্যবহারকারী	-9.92727
▁na	-9.92733
▁কোম্পানির	-9.92753
শত	-9.92815
▁করতো	-9.92849
৮৩	-9.9289
ভিল	-9.92896
▁গান্ধী	-9.92911
স্তর	-9.92941
ট্রি	-9.92975
▁মহাবিশ্বের	-9.92988
▁স্থানান্তরিত	-9.93091
▁ব্যক্তির	-9.93107
প্রা	-9.93285
▁নিজে	-9.93309
▁for	-9.93372
▁গাছের	-9.93375
জ্জ	-9.93417
▁অন্তর	-9.93424
▁লাখ	-9.93472
৪৩	-9.93475
▁বিনিয়োগ	-9.93504
▁ডিম	-9.93601
▁ধার	-9.93631
▁ইংল্যান্ড	-9.93641
▁অংশের	-9.93711
ঝ	-9.93743
াবলী	-9.93843
▁যত	-9.94003
▁ইন্দো	-9.94017
▁চীনের	-9.94035
▁নৌ	-9.94061
▁মেয়াদ	-9.94086
▁বিশ	-9.94089
্যাল	-9.94131
▁পার্বত্য	-9.9423
▁স্থির	-9.94232
▁জারি	-9.94236
ানোর	-9.94321
▁যাচ্ছে	-9.94328
স্টে	-9.94332
▁খনিজ	-9.94337
▁গ্রন্থে	-9.94345
▁মিলিত	-9.9436
৩৪	-9.94386
19"	-9.94388
যান	-9.94388
়	-9.94438
▁জায়গায়	-9.9445
ভারত	-9.9446
▁বিপরীতে	-9.94494
▁ব্যবধানে	-9.94535
ion	-9.94551
▁pa	-9.94557
▁বইয়ের	-9.94586
ানা	-9.94625
▁পৃষ্ঠ	-9.94628
▁আরেক	-9.94649
▁উৎপাদিত	-9.94717
▁ভেঙে	-9.94718
▁প্রাক	-9.94721
▁বিশ্বব্যাপী	-9.94735
কেন্দ্রিক	-9.94763
▁ঔপনিবেশিক	-9.94777
র্গ	-9.94902
ঘাত	-9.94907
▁মাঠ	-9.94935
▁পরের	-9.9495
▁গির্জা	-9.94962
um	-9.95037
▁বিশেষভাবে	-9.95038
▁তোলে	-9.9507
▁৬৪	-9.95088
ভাগে	-9.95212
▁সফর	-9.95265
▁সোনা	-9.95269
াংশে	-9.95388
▁গঠনের	-9.95444
▁উজ্জ্বল	-9.95459
▁সমাধি	-9.95466
৪৬	-9.95471
▁১৯৯৭	-9.95472
▁আকারের	-9.95554
▁করলেও	-9.95693
পশ্চিমে	-9.95704
▁স্টেট	-9.9571
▁জোট	-9.95735
▁যেকোন	-9.95743
বস	-9.95753
ডস	-9.95784
▁সুপার	-9.95806
▁পতন	-9.95807
▁কোর্ট	-9.95812
▁বুঝতে	-9.95946
▁বৈদ্যুতিক	-9.95946
▁প্রণয়ন	-9.96
৫৫	-9.96012
▁আটলান্টিক	-9.96033
▁৭৭	-9.9604
▁কোরিয়া	-9.96085
▁অপারেশন	-9.9609
মধ্য	-9.96093
▁বুদ্ধ	-9.96127
▁৬৮	-9.96181
▁চাহিদা	-9.96194
বর্তমান	-9.96198
▁কিশোর	-9.96208
এইচ	-9.96226
▁নামানুসারে	-9.96237
সির	-9.96284
▁মার	-9.96427
▁শৈশব	-9.96441
▁ম্যানেজার	-9.96442
▁মহাসাগর	-9.9645
▁কোচ	-9.96458
▁শতক	-9.96467
০৮	-9.96473
্টার	-9.96528
▁কয়েকজন	-9.9653
▁রঙ	-9.96531
ালি	-9.96558
▁৬৯	-9.96575
▁১৯৩০	-9.96722
▁চেক	-9.96768
▁রূপে	-9.96794
▁পাথর	-9.96827
va	-9.9683
▁ক্রম	-9.96845
▁হরি	-9.96857
শ্ব	-9.9686
বাই	-9.96871
▁সংস্থার	-9.96872
৪২	-9.96874
িট	-9.96909
লিস	-9.96916
▁এয়ার	-9.96917
▁লেবানন	-9.9694
▁যথা	-9.96957
▁ব্যবসায়ী	-9.96959
▁তাছাড়া	-9.9696
▁অভাব	-9.96994
▁চলচ্চিত্রটি	-9.97027
▁জিন	-9.9705
▁মহান	-9.97085
▁খণ্ড	-9.97088
▁প্রা	-9.971
তেও	-9.97136
▁ব্র	-9.97158
ফ্	-9.9716
িতা	-9.97172
▁বেতার	-9.97214
▁রং	-9.97232
▁অনুরূপ	-9.97235
ন্দি	-9.97344
▁ওজন	-9.97365
মিটার	-9.97433
▁সমালোচক	-9.9744
নস	-9.97485
৮৮	-9.97578
লাভ	-9.97619
▁৭৯	-9.97657
▁গ্রন্থাগার	-9.97701
েক্ট	-9.9771
▁কিছুদিন	-9.97716
▁la	-9.97724
▁মায়ের	-9.97732
নদী	-9.97773
ca	-9.97775
াইন	-9.97892
প্যা	-9.97899
▁অসীম	-9.97908
▁সত্যজিৎ	-9.97943
he	-9.97961
▁১৯৯৪	-9.97964
▁পার্টির	-9.97995
lu	-9.97998
৬৯	-9.98019
রেন	-9.98063
▁বিশ্বযুদ্ধ	-9.98072
▁ওয়ার্ল্ড	-9.98203
▁সেমি	-9.98234
go	-9.98269
চ্যুত	-9.98306
▁ভয়	-9.98345
▁কুমিল্লা	-9.98449
▁প্রতিবেদন	-9.9845
▁ক্রো	-9.98459
per	-9.9847
▁দপ্তর	-9.98703
▁বিরোধিতা	-9.98706
▁ইরাক	-9.98719
▁কুরআন	-9.98834
ভু	-9.98848
মির	-9.98855
▁বিষয়টি	-9.98869
৮১	-9.9888
▁সারি	-9.98902
▁প্রতিরক্ষা	-9.98958
▁পারস্য	-9.98969
▁উল্	-9.98978
▁৭৮	-9.98981
ক্ষেত্রে	-9.98999
▁সৃষ্ট	-9.99069
▁রাজবংশ	-9.99078
br	-9.99097
বিল	-9.99099
tic	-9.99187
▁রবার্ট	-9.99227
▁কাঠ	-9.99248
নায়	-9.99271
৯৫	-9.99332
61"	-9.99412
▁আখ্যায়িত	-9.99468
▁আবহাওয়া	-9.99468
▁বদলে	-9.99473
▁অনেকগুলো	-9.99478
▁ব্লক	-9.99565
মুক্ত	-9.99605
ত্রি	-9.99607
▁স্প্যানিশ	-9.99725
৮২	-9.99729
▁দক্ষতা	-9.99939
▁সম্প্রসারণ	-9.99982
▁সম্ভাব্য	-9.99982
▁প্রাসাদ	-9.99983
▁মাইক্রো	-9.99985
মানের	-10.0001
▁পুরনো	-10.0001
▁বিক্রিয়া	-10.0008
▁৬২	-10.0009
▁পরিবেশন	-10.001
▁৬৩	-10.002
▁জাম	-10.002
▁তরল	-10.0023
▁দত্ত	-10.0036
▁বরফ	-10.0038
▁দাম	-10.0042
কম	-10.0047
▁ঔষধ	-10.005
লিপি	-10.0054
▁সৌর	-10.0055
নেস	-10.0055
▁শর্ত	-10.0056
খে	-10.0061
▁তেমন	-10.0062
▁নৌকা	-10.0062
▁ca	-10.0073
বার্ট	-10.0076
▁সোসাইটি	-10.0076
▁ব্যবস্থাপনা	-10.0076
▁পূর্ববর্তী	-10.008
bo	-10.0081
▁২টি	-10.0085
▁স্পেনের	-10.0088
▁স্পেন	-10.0094
▁সংসদীয়	-10.0095
▁প্রিমিয়ার	-10.0102
▁বিকিরণ	-10.0102
▁st	-10.0105
▁মিশন	-10.0113
একটি	-10.0114
▁টন	-10.0122
▁শারীরিক	-10.0128
▁বীজ	-10.0128
▁১৯৭৩	-10.0129
নিয়ার	-10.013
▁আর্ট	-10.0135
pe	-10.0138
ja	-10.0139
াহ	-10.0139
▁মাটি	-10.0145
▁up	-10.0147
▁৫৮	-10.0147
সভা	-10.0149
▁৬৬	-10.015
ত্তা	-10.0153
▁১৯৬৯	-10.0155
▁হামলা	-10.0155
ভেদ	-10.0156
০৫	-10.0158
▁টানা	-10.016
ণের	-10.0163
কট	-10.0164
৫৭	-10.0166
▁আগ্রহ	-10.0169
▁গুলি	-10.0169
▁চট্টোপাধ্যায়	-10.018
▁সিন্ধু	-10.018
▁প্রাথমিকভাবে	-10.0181
▁করলেন	-10.0188
ফট	-10.0193
▁৭১	-10.0193
▁মিশরীয়	-10.0195
▁অল	-10.0202
▁রাশিয়া	-10.0205
▁উন্মুক্ত	-10.0206
▁রাই	-10.0208
▁প্রথমবারের	-10.0208
▁মানসিক	-10.0208
▁ট্রান্স	-10.0209
সেল	-10.0212
ীত	-10.0213
রূপে	-10.0213
লেস	-10.0221
ig	-10.0222
▁খানের	-10.0224
মিক	-10.0228
ব্ল	-10.0229
▁থিয়েটার	-10.0233
▁সামুদ্রিক	-10.0233
▁স্বীকার	-10.0233
▁বিষয়বস্তু	-10.0234
িয়ন	-10.0234
so	-10.0253
▁৩৬	-10.0256
▁বক্তৃতা	-10.0259
▁ভূষিত	-10.0259
ment	-10.0264
▁প্লে	-10.0265
▁অনেকে	-10.0265
স্ত্র	-10.0266
▁আগের	-10.0271
▁ব্রাজিল	-10.0277
▁পরা	-10.0279
▁মাঠে	-10.0285
▁ঢ	-10.0285
▁এগিয়ে	-10.0285
▁মর	-10.0289
▁বর	-10.0293
▁কাজী	-10.0295
▁ভেক্টর	-10.0312
▁কর্মকাণ্ড	-10.0313
▁সংবাদপত্র	-10.0313
▁১৯৬২	-10.0313
▁১৯৭৪	-10.0314
পুরা	-10.0317
▁অস্ট্রিয়া	-10.032
▁গোড়া	-10.0323
ওয়াল	-10.0326
▁উপকূলে	-10.0334
▁লক্ষ্যে	-10.0335
▁চির	-10.0337
▁স্বামী	-10.0338
বের	-10.0338
▁১৯৪৮	-10.034
▁রীতি	-10.034
▁রিপোর্ট	-10.0341
▁লোকেরা	-10.0341
▁ওয়েস্ট	-10.0343
▁তাদেরকে	-10.0345
▁ছয়টি	-10.0352
▁উপন্যাসের	-10.0353
▁যুক্তরাজ্য	-10.036
৮৪	-10.0361
▁মীর	-10.0361
▁জাতিগত	-10.0363
▁হোম	-10.0369
▁টাইপ	-10.038
▁অক্সিজেন	-10.0392
▁আশ্রয়	-10.0392
▁তোলা	-10.0394
op	-10.0398
্যান্ট	-10.0405
ক্তি	-10.0407
+	-10.0417
▁বিপ্লবী	-10.0417
[	-10.0421
▁প্রমুখ	-10.0424
দ্রা	-10.0426
▁মতবাদ	-10.0427
▁খাত	-10.0429
▁লিগের	-10.0431
▁পরীক্ষায়	-10.0435
▁শৈলী	-10.0438
▁রাত	-10.0441
▁প্রত্যাখ্যান	-10.0446
▁সন্ধান	-10.0446
▁খরচ	-10.0446
▁চর	-10.0451
▁ওয়াই	-10.0452
▁৷	-10.0453
▁নির্ধারিত	-10.0459
বেল	-10.0462
▁২০০	-10.0464
কোট	-10.0467
▁চক্র	-10.0468
▁সম্বন্ধে	-10.0473
▁উদ্ভব	-10.0473
▁অনুষদ	-10.0473
▁বিন্যাস	-10.048
▁আসতে	-10.0481
রাও	-10.0482
▁হাম	-10.0496
রেস	-10.0497
পাদ	-10.0498
^	-10.05
▁প্রারম্ভিক	-10.05
▁ষষ্ঠ	-10.05
▁তল	-10.05
▁অনুরোধ	-10.05
▁জ্যামিতি	-10.0505
তায়	-10.0505
ীতে	-10.0506
▁নির্বাহী	-10.0509
পল	-10.0511
▁সরল	-10.0511
র্ধ	-10.0522
▁আধিপত্য	-10.0527
৭৬	-10.0527
▁গণতান্ত্রিক	-10.0528
▁সেখান	-10.0529
▁উসমানীয়	-10.053
hu	-10.053
▁অধিবাসী	-10.0536
চী	-10.054
বন্দ	-10.0544
▁;	-10.0549
ডেল	-10.0551
▁এখনো	-10.0552
▁শাসনামলে	-10.0554
▁কথিত	-10.0554
▁জরিপ	-10.0554
কোষ	-10.0555
গল	-10.0557
▁রশ্মি	-10.0562
▁বাসিন্দা	-10.0562
▁স্ট	-10.0566
▁এইচ	-10.057
▁স্পষ্ট	-10.0575
▁উদ	-10.0578
▁বাতাস	-10.0579
▁আবিষ্কারের	-10.058
▁মক্কা	-10.0584
▁রান	-10.0584
po	-10.0587
্ল	-10.0606
খ্রিস্টপূর্বাব্দ	-10.0609
▁খনন	-10.0609
ডিয়া	-10.0611
শাস্ত্র	-10.0612
সিক	-10.0618
▁হর	-10.0633
▁উদ্বোধন	-10.0636
▁মুজিবুর	-10.0638
▁অনুষ্ঠানে	-10.0645
ine	-10.0646
বিন	-10.0647
▁ইউনিট	-10.0652
বেশ	-10.0653
বৈ	-10.0654
ধু	-10.0654
ঞ্জি	-10.0658
দক্ষিণ	-10.0661
▁কর্ণাটক	-10.0663
▁ইন্টারন্যাশনাল	-10.0663
▁প্রত্নতাত্ত্বিক	-10.0663
▁৫৭	-10.0665
▁রাজত্ব	-10.0668
▁ন্যা	-10.0672
▁প্রসার	-10.0676
▁৫টি	-10.0681
▁সুখ	-10.0683
▁প্রতিদিন	-10.0684
রেট	-10.0686
▁ঘটনার	-10.0686
tor	-10.0689
▁কারা	-10.069
▁দৃষ্টিভঙ্গি	-10.0691
▁শুষ্ক	-10.0692
প্ল	-10.0693
▁জৈন	-10.0693
▁স্টো	-10.0699
গম	-10.0699
▁পেরু	-10.0716
▁ক্রমবর্ধমান	-10.0718
▁১৯৯৫	-10.072
▁মাটির	-10.0725
াউ	-10.0736
ধন	-10.0741
▁সম্মাননা	-10.0741
▁অনুমোদন	-10.0746
▁অপারেটিং	-10.0746
▁কোয়ান্টাম	-10.0746
ke	-10.0747
▁উদ্যান	-10.0747
▁con	-10.0749
▁মার্ক	-10.0749
▁রাতে	-10.0753
▁নেমে	-10.0757
ব্রা	-10.0759
▁বর্ণিত	-10.0761
▁সীমাবদ্ধ	-10.0763
▁নগরী	-10.0763
▁দায়ী	-10.0764
িড	-10.0767
লাইন	-10.0772
▁পুরাতন	-10.0774
▁অনুসারী	-10.0774
▁২০২১	-10.0778
▁শরীর	-10.0779
▁৩৪	-10.0781
▁একসময়	-10.0784
com	-10.0788
িয়াল	-10.0792
▁চ্যাম্পিয়ন	-10.0798
▁আলেকজান্ডার	-10.0802
id	-10.0802
▁কার্ল	-10.0804
▁প্রবর্তন	-10.0804
▁al	-10.0804
▁সমভূমি	-10.0805
▁প্রতিবাদ	-10.0809
▁পালিয়ে	-10.0809
ফের	-10.0812
ডু	-10.0815
ভূ	-10.0818
▁দুজন	-10.0819
▁শীতল	-10.082
্রা	-10.0823
▁উপায়	-10.0824
▁পার্শ্ব	-10.083
▁গোয়েন্দা	-10.083
▁মেশিন	-10.083
াইট	-10.083
▁কেন্দ্রে	-10.0839
ক্যা	-10.084
▁বোমা	-10.0844
চরণ	-10.0847
চিত	-10.0849
▁সংরক্ষিত	-10.0858
▁মায়া	-10.0859
▁লিখেছিলেন	-10.0859
▁ডিএনএ	-10.0859
ist	-10.0866
▁মুক্তিযোদ্ধা	-10.0867
▁নিচের	-10.087
▁sa	-10.0877
▁an	-10.0881
▁১৯৮৬	-10.0888
▁এড	-10.0893
▁টিভি	-10.0898
▁দ্বীপের	-10.0902
হাম	-10.0907
ল্লি	-10.0907
▁৮৫	-10.0913
▁ওয়াশিংটন	-10.0914
▁ব্যাকটেরিয়া	-10.0914
▁অগ্রসর	-10.0914
▁থাকায়	-10.0916
▁পয়েন্ট	-10.0917
▁রুট	-10.0917
▁সভা	-10.0918
▁সহকারী	-10.0926
ঙা	-10.0939
▁বেঙ্গল	-10.0944
▁উপদ্বীপ	-10.0944
াত্মক	-10.0944
▁লড়াই	-10.0951
দিয়া	-10.0951
▁রেখেছে	-10.0952
েন্ট	-10.0955
▁তারকা	-10.0957
200	-10.0964
▁বাহু	-10.0967
শালা	-10.0969
▁বরিশাল	-10.0971
বর্ষ	-10.0973
উত্তর	-10.0978
৫১	-10.098
▁দেয়ার	-10.0984
▁মিনিট	-10.0994
র্ম	-10.0997
বন্ধ	-10.1001
▁বিষ	-10.1001
গতি	-10.1002
▁উল্লেখ্য	-10.1007
কারীদের	-10.1008
ত্বের	-10.101
▁ভ্যা	-10.1013
▁as	-10.1017
শিল্পী	-10.1017
▁se	-10.1019
ইস	-10.1027
▁চ্যাপলিন	-10.1027
▁বেঁচে	-10.1027
▁সহযোগী	-10.1028
▁পটভূমি	-10.1028
মল	-10.1031
পথে	-10.1031
মোহন	-10.1036
ya	-10.1051
টিয়া	-10.1054
▁সমিতি	-10.1057
▁ভাইরাস	-10.1059
বাহিনী	-10.1061
▁দ্বীপে	-10.1061
em	-10.1062
▁অবশ্যই	-10.1063
▁বাজারে	-10.107
▁প্রতিযোগিতায়	-10.1079
▁ঘোড়া	-10.1085
▁সীমিত	-10.1085
▁নাগাদ	-10.1086
▁ঘু	-10.1087
▁১৯৭৯	-10.1087
স্ট্রি	-10.1089
▁আন্দোলনে	-10.1091
▁বৃত্ত	-10.1093
ব্	-10.1095
▁পৃথিবীতে	-10.1102
▁পরিস্থিতি	-10.1103
▁এনে	-10.111
▁টাঙ্গাইল	-10.1113
▁ধূমকেতু	-10.1113
▁বর্গকিলোমিটার	-10.1113
▁গ্রীক	-10.1114
▁ইন্টারনেট	-10.1114
লিও	-10.1115
▁ইল	-10.1116
▁পত্র	-10.112
04"	-10.112
han	-10.1124
কথা	-10.1127
▁উপকূলীয়	-10.1127
▁প্রকৃতির	-10.1128
▁পত্রিকায়	-10.1128
জ্ঞা	-10.1129
▁স্পি	-10.1137
কেও	-10.1141
▁ঘরে	-10.1142
▁সর্বনিম্ন	-10.1142
কেল	-10.1143
▁১৯৫৪	-10.1144
▁অঙ্ক	-10.1147
▁স্বর্ণ	-10.1148
▁স্ট্যা	-10.1151
িফ	-10.1151
▁ধর	-10.1159
▁প্রদর্শনী	-10.1161
মিয়া	-10.1168
▁কাগজ	-10.1172
▁কেন	-10.1175
▁সমস্যার	-10.1178
▁প্রত্যক্ষ	-10.1179
চন	-10.1185
▁মৃত	-10.1189
পার্	-10.1196
ant	-10.1196
▁সার্বিয়া	-10.1199
▁সংঘর্ষ	-10.12
▁ক্যাম্পাস	-10.1201
▁নিকটবর্তী	-10.1201
▁বারো	-10.1204
ন্তি	-10.1204
▁দমন	-10.1206
▁হয়েছেন	-10.1214
▁রংপুর	-10.1215
▁মঞ্চ	-10.1221
▁ডাল	-10.1222
▁চেয়ারম্যান	-10.1229
▁মনোনীত	-10.1229
▁ভৌত	-10.1229
▁পৌর	-10.1233
▁গোয়া	-10.1233
নিয়াম	-10.1239
▁বন্দী	-10.124
▁পড়তে	-10.1241
ac	-10.1242
▁বেগম	-10.1243
শ্র	-10.1244
▁রাজার	-10.1244
▁বহুল	-10.1257
▁ধন	-10.1257
▁ইথিওপিয়া	-10.1258
▁ইউক্রেন	-10.1258
▁চার্লস	-10.1258
▁আখ	-10.1261
▁সাধারণভাবে	-10.1262
সূত্র	-10.1265
কির	-10.127
ভেল	-10.1273
দ্দ	-10.1274
▁উভয়ই	-10.1279
▁পদার্থবিজ্ঞান	-10.1286
▁শ্রীলঙ্কা	-10.1288
▁১৯৭৬	-10.1289
▁বায়ুমণ্ডল	-10.1289
ko	-10.129
▁৪টি	-10.1291
▁৪২	-10.1304
▁চালানো	-10.1306
▁পরিবারে	-10.1313
▁হাইড্রোজেন	-10.1317
▁সম্পত্তি	-10.1317
শান	-10.1317
▁হেনরি	-10.1317
▁দর	-10.1318
▁পুনঃ	-10.1319
▁রাজস্থান	-10.1321
▁গবেষণায়	-10.1323
▁হাউস	-10.1323
কন	-10.1324
ট্রো	-10.1327
▁তাতে	-10.1328
▁ওয়েলস	-10.1329
▁po	-10.133
করণের	-10.1331
৫২	-10.1336
▁সমষ্টি	-10.134
বার্গ	-10.1344
▁চ্যাম্পিয়নশিপ	-10.1347
▁স্কি	-10.1351
▁he	-10.1353
▁শব্দটির	-10.1366
▁বাম	-10.1369
▁ইঞ্জিন	-10.1374
▁ওষুধ	-10.1376
▁জিডিপি	-10.1377
▁লাই	-10.1378
▁গোপন	-10.1379
ডের	-10.1381
ল্য	-10.1382
▁৪৪	-10.1393
▁ইংরেজিতে	-10.1394
▁le	-10.1398
ভেন	-10.1398
▁বিদ্যা	-10.1403
্যান	-10.1404
▁প্রদানের	-10.1404
▁স্বপ্ন	-10.1406
▁৩টি	-10.1408
মিত	-10.1409
▁জন্যে	-10.141
▁ফেলা	-10.1416
▁ছবির	-10.1418
▁বিপ্লব	-10.1418
▁চরম	-10.142
বিশ্ব	-10.1421
▁সদস্যদের	-10.1423
▁একসাথে	-10.1435
▁১৯৬৫	-10.1437
ন্থ	-10.1437
▁রক	-10.1437
েন্দ্রনাথ	-10.1437
...	-10.1442
বিয়া	-10.1442
▁অনন্য	-10.1448
▁বার্সেলোনা	-10.1453
▁প্রতিষ্ঠানের	-10.1456
▁সূচক	-10.1457
জাতীয়	-10.1463
▁উদ্দিন	-10.1464
▁বগুড়া	-10.1465
▁হাসান	-10.1469
জাতি	-10.1474
ণী	-10.1475
▁ক্লাবটি	-10.1476
be	-10.1479
কিং	-10.1479
▁কল্যাণ	-10.1492
▁সক্রেটিস	-10.1495
▁মিডিয়া	-10.1499
▁আয়ন	-10.1504
▁ইন্টার	-10.1505
fi	-10.1508
▁কৃত্রিম	-10.1525
mb	-10.1525
▁সংগঠিত	-10.1525
গর	-10.153
▁সাপ	-10.153
▁সমূহ	-10.1533
াবলি	-10.1534
ৌর	-10.1539
▁বেশির	-10.1543
বোধ	-10.1548
▁ঋণ	-10.1554
▁বন্দ্যোপাধ্যায়	-10.1555
▁বিশুদ্ধ	-10.1555
▁বুধ	-10.1555
উট	-10.1556
্প	-10.1556
▁ধাপ	-10.1558
▁মানচিত্র	-10.1559
▁শ্রম	-10.1561
▁বিকল্প	-10.1566
▁স্তরের	-10.1576
ক্য	-10.1579
ন্দু	-10.1581
▁অববাহিকা	-10.1585
▁ঘিরে	-10.1585
▁আইনসভা	-10.1588
▁ইসলামি	-10.1604
▁প্রশংসা	-10.1615
▁বিভাজন	-10.1615
▁১৯৫২	-10.1617
▁মেইন	-10.1622
▁দ্রব্য	-10.1624
▁অ্যাড	-10.1627
সাল	-10.1629
▁ম্যান	-10.1637
▁অভ্যন্তরে	-10.1645
▁ডিজিটাল	-10.1645
▁ভার্মন্ট	-10.1645
▁পরস্পর	-10.1646
▁কার্যালয়	-10.1646
▁চারপাশে	-10.1646
▁১৯৯৩	-10.1648
▁হালকা	-10.1651
▁প্রজাতন্ত্রের	-10.1651
▁১৯২০	-10.1653
▁খ্রিষ্টাব্দ	-10.1654
▁সমর্থক	-10.1654
ran	-10.1655
▁টাই	-10.1658
▁হাঁ	-10.1659
▁জামা	-10.1665
োন	-10.1667
ai	-10.1668
বৃত্ত	-10.1674
গতভাবে	-10.1675
▁ইঞ্চি	-10.1676
▁মিষ্টি	-10.1676
▁সেক্টর	-10.1676
বির	-10.1677
▁লোকের	-10.1679
▁পেয়েছিলেন	-10.168
▁জোড়া	-10.1684
জেন্ট	-10.1686
▁৬১	-10.1701
রাত	-10.1704
▁language	-10.1706
▁শিরোনাম	-10.1706
▁দৃশ্যমান	-10.1711
▁অধি	-10.1715
pi	-10.1716
▁বন্যা	-10.1717
▁ওয়ার্ড	-10.1719
▁সম্মেলনে	-10.172
পোর্ট	-10.1726
▁উল	-10.1726
তাল	-10.1734
ل	-10.1736
▁প্রদত্ত	-10.1737
▁যশোর	-10.1737
▁১৯৪০	-10.174
▁জিয়া	-10.1745
▁রাজবংশের	-10.1754
▁স্থানের	-10.1755
▁রোগের	-10.1756
▁শাস্ত্র	-10.1758
শার	-10.1761
ab	-10.1762
▁কালী	-10.1767
▁সেকেন্ড	-10.1768
▁হলুদ	-10.177
▁তাত্ত্বিক	-10.1774
gra	-10.1775
বর্তী	-10.178
▁প্রকাশনা	-10.1781
ফোন	-10.1782
▁৮২	-10.1783
▁so	-10.1783
▁নির্ভরশীল	-10.1789
▁চৌ	-10.1795
▁ঝুঁকি	-10.1798
এটি	-10.1804
বর্তমানে	-10.1804
▁সঙ্গীতের	-10.1807
▁বিশেষজ্ঞ	-10.1812
বিরোধী	-10.1814
লজি	-10.182
▁গ্রে	-10.1821
▁চাক	-10.1821
▁৩০০	-10.1821
▁প্রকাশের	-10.1824
▁jump	-10.1829
▁অস্বীকার	-10.1829
▁বর্ধমান	-10.1829
▁অর্থে	-10.183
▁কুল	-10.183
▁আগেই	-10.1832
▁গর্ভ	-10.1833
▁যেকোনো	-10.1838
▁স্থাপনের	-10.1839
fe	-10.1843
ক্কা	-10.1843
লান	-10.1844
▁গ্রহের	-10.1845
▁মুর	-10.1847
বেন	-10.1847
=7	-10.1848
স্তান	-10.1848
▁+	-10.186
▁দৃঢ়	-10.186
ক্লো	-10.1865
▁ক্রু	-10.1868
▁কালি	-10.1876
▁ইউরো	-10.188
▁বিধান	-10.1883
▁ক্যারিয়ার	-10.1891
▁ন্যায়	-10.1893
▁পরগনা	-10.1893
▁কোর	-10.1895
▁স্তরে	-10.1896
▁মুসলমানদের	-10.1899
fa	-10.1911
▁মানে	-10.192
▁অক্ষর	-10.1921
▁পর্তুগাল	-10.1922
▁অভিবাসী	-10.1924
▁পেরে	-10.1928
▁পড়ার	-10.1928
▁দাবী	-10.193
▁বাবার	-10.1935
▁অবস্থার	-10.1937
▁হাসপাতালে	-10.1939
পুরের	-10.194
ian	-10.1942
▁ভিত্তিক	-10.1947
▁গ্রেফতার	-10.1954
▁ব্যতীত	-10.1954
▁ক্রয়	-10.1955
▁তালিকাভুক্ত	-10.1955
▁ব্ল	-10.1959
▁ধারার	-10.1961
▁পদ্মা	-10.1964
▁থাকলে	-10.197
▁একদিন	-10.1972
▁চুক্তির	-10.1974
▁৩৩	-10.1975
শিপ	-10.1979
▁পরিষদের	-10.1979
▁ভবিষ্যত	-10.1985
স্টো	-10.1985
▁সম্মুখীন	-10.1985
▁প্রান্তে	-10.1986
▁১৯৮৫	-10.1987
▁তুলনা	-10.1989
হল	-10.199
রাজ্য	-10.1991
▁পশ্চিমা	-10.1996
▁হজ	-10.1999
▁বাঁধ	-10.2004
▁উদ্যোগ	-10.2008
▁থে	-10.2014
▁মরুভূমি	-10.2016
▁মেক্সিকো	-10.2016
▁১৯৮৯	-10.2018
ান্তর	-10.202
▁প্রখ্যাত	-10.202
গ্রে	-10.202
▁চার্জ	-10.2021
ূর	-10.2022
▁চিনি	-10.2024
▁৫০০	-10.2026
▁চো	-10.2027
যুদ্ধ	-10.2031
ব্যাপী	-10.2039
▁অর্থনীতিতে	-10.2046
▁লবণ	-10.2048
ধর	-10.2051
▁বৈচিত্র্য	-10.2051
▁প্রেস	-10.2053
do	-10.2056
▁di	-10.2057
শ্রী	-10.2063
▁মুক্তিযুদ্ধের	-10.2065
৪১	-10.2069
▁ক্ষমতার	-10.207
▁কেটে	-10.2071
▁সংখ্যালঘু	-10.208
▁প্রার্থী	-10.208
পন্থী	-10.208
▁প্রকৃতপক্ষে	-10.208
▁গণতন্ত্র	-10.2082
▁৮৪	-10.2083
ক্ষেপ	-10.2084
▁সাতটি	-10.2085
▁আগুন	-10.2087
▁মৌজা	-10.2088
▁যেগুলো	-10.209
▁ইবন	-10.2092
▁চিকিৎসক	-10.2111
▁অ্যান্টি	-10.2112
▁আকবর	-10.2112
▁মাইকেল	-10.2112
▁জিনিস	-10.2116
▁মানের	-10.2116
কৃতি	-10.2118
▁দর্শক	-10.2125
রুপ	-10.2128
▁খামার	-10.2129
▁3	-10.2134
▁নাগ	-10.2138
সিল	-10.2139
▁অভিনেত্রী	-10.2143
▁সংশ্লিষ্ট	-10.2143
▁আরোহণ	-10.2143
▁প্রজনন	-10.2143
je	-10.2147
au	-10.215
িংয়ের	-10.2155
কিউ	-10.2156
war	-10.2157
হন	-10.216
পণ	-10.2163
▁আয়াত	-10.2165
▁মন্তব্য	-10.2175
টিরও	-10.2176
▁৩৮	-10.2182
▁যায়নি	-10.2184
কালের	-10.2187
▁লেক	-10.2192
▁ফার্সি	-10.2195
▁৮১	-10.2196
▁সাম	-10.2203
তান্ত্রিক	-10.2205
▁পরিষ্কার	-10.2207
▁ক্যান্সার	-10.2207
▁পেছনে	-10.2207
▁আন্দালুসিয়া	-10.2208
▁অ্যাপল	-10.2213
▁কোষের	-10.2214
▁অফিসার	-10.2214
ুস	-10.2217
▁নাট্য	-10.2228
▁চট্টগ্রামের	-10.223
াঞ্চল	-10.2232
▁ফ্রে	-10.2234
▁আদ	-10.2235
▁সহজেই	-10.2235
▁ডায়াবেটিস	-10.2239
▁কঠোর	-10.2241
স্কার	-10.2241
▁অধিকারী	-10.2243
▁(;	-10.2244
▁ক্যাম্প	-10.2254
▁সময়কাল	-10.2255
দুর	-10.2257
▁পিছনে	-10.2272
গুণ	-10.2272
▁পদার্থবিজ্ঞানী	-10.2275
▁শর	-10.2276
▁নিজেই	-10.2289
ber	-10.229
▁কম্প	-10.2297
▁৪৩	-10.2299
্নি	-10.2302
▁আইনস্টাইন	-10.2304
▁স্পর্শ	-10.2304
▁একত্রে	-10.2305
▁শিলা	-10.2313
▁পাঠ্য	-10.2316
ap	-10.232
tu	-10.2321
রকম	-10.2326
▁কক্ষপথ	-10.2331
উপ	-10.2332
▁গেমস	-10.2332
▁সৌন্দর্য	-10.2336
▁প্রতিবেশী	-10.2336
▁কুই	-10.2337
▁১৯৬৪	-10.2338
▁অর্	-10.2339
▁ওবামা	-10.234
‍্য	-10.2342
▁বস	-10.2353
▁৮৩	-10.2353
▁লন্ডনে	-10.2358
▁আশ	-10.2361
▁মহাসাগরের	-10.2363
▁v	-10.2365
▁অভিষেক	-10.2369
▁ইন্দোনেশিয়া	-10.2369
▁শনাক্ত	-10.2369
▁কাঁচা	-10.2369
▁গায়ক	-10.237
▁১৯৮২	-10.2371
▁১৯৫৬	-10.2371
▁উইল	-10.2373
বঙ্গ	-10.2376
▁ধরন	-10.2378
ভী	-10.2379
▁নিয়েছিলেন	-10.2379
জিন	-10.2383
▁বাইরের	-10.2385
ang	-10.2389
▁রবি	-10.2392
দূর	-10.2393
▁প্রমাণিত	-10.24
▁গিয়েছে	-10.2401
▁আজাদ	-10.2401
▁আহ্বান	-10.2402
▁১৯৫৮	-10.2404
িক্স	-10.2406
র্ষ	-10.2408
▁সাং	-10.2415
▁ক্ষমতায়	-10.2418
▁রাগ	-10.2418
▁পাকিস্তানে	-10.2419
লোক	-10.2426
পাস	-10.2426
▁সাধন	-10.2427
পুরে	-10.2433
and	-10.2433
স্য	-10.2434
ate	-10.2435
▁বাতিল	-10.2436
▁পদক্ষেপ	-10.2436
▁অনা	-10.2443
▁শাখার	-10.2447
▁পূ	-10.2447
▁ঘটেছে	-10.2448
ছু	-10.2448
▁জমির	-10.245
▁প্রাণীর	-10.2453
ড়িয়া	-10.2454
▁৩৭	-10.2455
মুল	-10.2456
দলীয়	-10.2456
▁সাইট	-10.246
ুরি	-10.247
▁জানিয়ে	-10.247
▁চলমান	-10.2472
▁সৌদি	-10.2478
cu	-10.2485
▁সাংবাদিক	-10.2487
▁আজও	-10.2489
দর	-10.249
ফিক	-10.249
▁মধু	-10.2491
▁গল	-10.2493
লুক	-10.2498
▁কোম্পানী	-10.25
▁শত্রু	-10.2501
জ্জা	-10.2504
▁দেখায়	-10.2504
▁এরকম	-10.2505
▁ব্রাহ্মণ	-10.2519
▁হাওড়া	-10.2533
▁নৌবাহিনী	-10.2534
▁পেয়েছিল	-10.2534
ম্ভ	-10.2535
▁১৯৬১	-10.2535
োয়ার	-10.2536
▁করেননি	-10.2538
▁সিল	-10.254
লিকা	-10.2541
ব্রি	-10.2549
▁রেড	-10.2549
▁জলের	-10.2556
হাট	-10.2557
▁ইকুয়েডর	-10.2567
▁ঋতু	-10.2567
▁বংশোদ্ভূত	-10.2567
▁রোনালদো	-10.2567
▁স্নায়ু	-10.2567
ut	-10.2581
▁ওই	-10.2591
বাহী	-10.2593
ওয়ান	-10.2596
▁মুখোপাধ্যায়	-10.26
▁ভিডিও	-10.26
▁শিল্পকলা	-10.2601
▁রান্না	-10.2605
▁মিশ্রণ	-10.2607
▁শীত	-10.261
জীব	-10.2614
▁জিতেছে	-10.2616
▁পরীক্ষার	-10.262
▁মিনার	-10.2624
▁আত্মা	-10.263
▁ঊনবিংশ	-10.2633
▁পারিবারিক	-10.2633
য়েন্ট	-10.2634
▁রায়ের	-10.2636
▁প্রতিভা	-10.2636
উন	-10.2639
▁উচ্চতর	-10.2642
▁প্রিয়	-10.2646
থো	-10.2647
▁সম্	-10.2647
▁pro	-10.2649
son	-10.2651
▁ra	-10.2657
▁ধু	-10.2657
এসসি	-10.2657
ভাষা	-10.2658
তাত্ত্বিক	-10.2658
ম্পা	-10.2659
▁পুনরুদ্ধার	-10.266
▁অধ্যায়	-10.2667
▁বেসামরিক	-10.2668
▁১৯৮১	-10.2669
▁১৯৬৩	-10.2669
▁ওয়েব	-10.2675
▁অবলম্বনে	-10.2692
▁ফ্ল	-10.2695
▁টেক	-10.2695
▁তাঁদের	-10.2701
gi	-10.2702
▁দোকান	-10.2703
▁আগমন	-10.2704
▁রাশিয়ার	-10.2705
▁সরিয়ে	-10.2706
▁কমিটির	-10.2706
);	-10.271
▁da	-10.2714
দ্বীপ	-10.2719
পুরুষ	-10.2723
▁ছাড়াই	-10.2725
যাত্রা	-10.2726
▁খালি	-10.2731
▁বক্স	-10.2733
▁সার্ভিস	-10.2735
মাত্র	-10.2737
▁বয়ে	-10.2738
▁যেন	-10.2742
▁আচার	-10.2743
▁ক্রে	-10.2743
▁su	-10.2744
ঘা	-10.2749
▁বিরল	-10.275
▁ক্যান	-10.2755
▁ধারণার	-10.2756
▁জনগোষ্ঠীর	-10.2764
▁উপপাদ্য	-10.2768
▁বর্ণমালা	-10.2769
▁কর্মরত	-10.2771
▁ফরিদপুর	-10.2772
▁চ্যাম্পিয়নস	-10.2772
▁পুরানো	-10.2772
▁অবধি	-10.2774
তৃতীয়াংশ	-10.2778
আপ	-10.2778
▁পার্	-10.2781
▁উৎ	-10.2783
বেদ	-10.2795
পস	-10.2796
▁নিয়ন্ত্রিত	-10.2797
াধীন	-10.2802
▁ডাকোটা	-10.2803
▁১৯৫৫	-10.2804
tri	-10.2807
▁পূর্বপুরুষ	-10.2808
▁অনেকটা	-10.2809
▁মধ্যেই	-10.2816
▁লোহা	-10.2816
▁সংকলন	-10.2821
▁পোর্ট	-10.2825
▁u	-10.2827
স্টন	-10.2828
ity	-10.2829
▁তত	-10.283
▁ইরানের	-10.2834
▁বিকশিত	-10.2836
▁দেয়াল	-10.2837
▁১৯৬৬	-10.2839
ন্যা	-10.284
কাঁ	-10.2844
িদ	-10.2845
▁৪১	-10.2851
▁সিরিজের	-10.2852
▁পৌঁছ	-10.2854
▁অর	-10.2859
▁x	-10.2861
▁ওয়ে	-10.2864
▁আহ	-10.2864
বিশেষ	-10.2867
▁বর্ষ	-10.2869
▁কিংবদন্তি	-10.2871
▁পাশ্চাত্য	-10.2871
▁রিচার্ড	-10.2871
▁লিমিটেড	-10.2871
▁কৃতিত্ব	-10.2871
▁অধিনায়ক	-10.2871
টেল	-10.2872
▁১৯৭৭	-10.2873
▁বর্ষপঞ্জি	-10.2877
▁ব্রহ্ম	-10.288
▁প্রতিযোগিতার	-10.2888
ঞ্জা	-10.2893
বছর	-10.2894
▁অটো	-10.2899
▁বিনিময়ে	-10.2903
▁কাবা	-10.2903
ভাল	-10.2904
▁লাইব্রেরি	-10.2905
▁উপযোগী	-10.2905
▁জামালপুর	-10.2905
▁১৯৭৮	-10.2908
▁গজ	-10.2912
▁মহাবিশ্ব	-10.2912
▁ভাষাতে	-10.2913
tt	-10.2921
▁সেগুলি	-10.2921
▁গ্ল	-10.2922
▁সাগরের	-10.2923
▁দুধ	-10.2934
▁5	-10.2935
che	-10.2935
বিহার	-10.2935
মার্ক	-10.2938
▁ল্যাপটপ	-10.294
▁কর্মচারী	-10.294
▁১৯৪৫	-10.2942
▁খবর	-10.2945
▁পত্রিকার	-10.2948
ক্রমে	-10.2957
▁নন	-10.2964
▁ঘা	-10.2964
ভিয়া	-10.2968
▁সংখ্যাগরিষ্ঠ	-10.2971
াউন্ড	-10.2973
য়াং	-10.2974
▁অ্যাসোসিয়েশন	-10.2974
▁আয়ারল্যান্ড	-10.2974
▁নিউক্লিয়াস	-10.2975
▁নাটোর	-10.2975
▁১৯৬৭	-10.2976
▁আদায়	-10.2978
▁ফ্লোর	-10.299
▁আকৃতি	-10.299
▁তিব্বত	-10.2991
▁উড়	-10.2992
াগার	-10.2994
িভ	-10.2998
▁বাউল	-10.3002
▁ভাষাবিজ্ঞান	-10.3002
চ্চ	-10.3004
সম্পন্ন	-10.3005
▁ধনী	-10.3006
▁দরিদ্র	-10.3009
▁ভূমিকম্প	-10.3009
▁ভাস্কর্য	-10.3012
▁ja	-10.3013
▁আব্দুল	-10.3015
▁ঝা	-10.3015
os	-10.3016
খানা	-10.3027
▁সিস্টেমের	-10.3033
▁আওতাধীন	-10.3044
▁ফাউন্ডেশন	-10.3044
▁সশস্ত্র	-10.3044
প্রসাদ	-10.3044
▁আলবেনিয়া	-10.3044
▁পদত্যাগ	-10.3045
▁ক্রা	-10.3045
▁গণেশ	-10.3046
টেক	-10.3048
ধ্বনি	-10.3051
▁যুক্তরাজ্যের	-10.3053
দেশিক	-10.3053
▁উপযুক্ত	-10.3055
▁সকাল	-10.3078
▁দুর্গা	-10.3078
▁১৯৬৮	-10.3081
▁মেজর	-10.3081
▁১৯শ	-10.3087
রিস	-10.3088
ard	-10.309
ফর	-10.3091
▁বার্তা	-10.3091
াপ	-10.3099
ছড়ি	-10.3104
খ্যাত	-10.3107
টাস	-10.3109
▁দায়	-10.3111
এবং	-10.3111
▁পেলে	-10.3111
io	-10.3113
▁আবির্ভাব	-10.3114
▁ডেভিড	-10.3114
▁কথ্য	-10.3114
▁আবেদন	-10.3114
স্ট্রো	-10.3125
▁ফ্র	-10.3129
▁জ্ঞানের	-10.313
▁৮৮	-10.3132
▁ছাত্রদের	-10.3132
▁মুক্তিযুদ্ধ	-10.3132
▁আঁ	-10.314
নীতি	-10.3144
▁সবসময়	-10.3152
▁ব্যাস	-10.3156
der	-10.3156
gh	-10.3169
ক্ক	-10.3172
▁ঘনিষ্ঠ	-10.3175
▁পতনের	-10.3177
▁ওঠেন	-10.3178
ec	-10.3189
▁আছেন	-10.319
ধরনের	-10.3191
su	-10.32
▁পাঠক	-10.3203
▁ইতালির	-10.3204
▁পড়	-10.3205
▁পর্বে	-10.321
▁দর্শনের	-10.3212
▁জানায়	-10.3219
▁স্থিতিশীল	-10.322
▁মাদারীপুর	-10.322
▁খারাপ	-10.322
▁ছোটো	-10.3222
▁খ্রিস্টীয়	-10.3224
▁মহাদেশ	-10.3227
▁সমাজে	-10.3229
▁মজ	-10.323
▁অন্তত	-10.323
▁চ্যা	-10.3231
রিন	-10.3231
োনিয়া	-10.3242
▁আয়ের	-10.3245
কুলা	-10.3249
les	-10.3249
বর্ধন	-10.3251
▁তারপরে	-10.3251
▁সপ্তম	-10.3255
▁ফিল্ম	-10.3255
▁শক্ত	-10.3258
▁গুলো	-10.3258
ল্যা	-10.326
▁বিধি	-10.3269
▁উপন্যাসটি	-10.327
ভিন	-10.3271
৫০০	-10.3273
up	-10.3273
বাল	-10.3274
▁কামাল	-10.3279
▁চলতে	-10.3284
▁জিতে	-10.3286
শাহ	-10.3286
সময়	-10.3298
▁সমাপ্তি	-10.3299
পট	-10.3303
▁পাক	-10.331
▁জাতীয়তাবাদী	-10.3313
▁রয়ে	-10.3314
ক্ষমতা	-10.3318
▁বাংলাদেশী	-10.3319
▁রুপ	-10.3322
সাহিত্য	-10.3327
▁তবুও	-10.3327
▁হিমালয়	-10.3327
▁১৯৪৯	-10.3329
▁পাউন্ড	-10.333
▁কেবলমাত্র	-10.3331
▁ছাপা	-10.3332
▁পোস্ট	-10.3337
▁বিশ্বকাপে	-10.3339
নীর	-10.3355
▁রম	-10.3357
▁খেলাধুলা	-10.3363
▁ডাক্তার	-10.3363
▁সংলগ্ন	-10.3363
▁স্টে	-10.3364
▁উদ্ধার	-10.3365
শহর	-10.3369
▁ভেতরে	-10.337
কার্য	-10.337
▁রোধ	-10.3372
▁কর্ণ	-10.3372
ঘট	-10.3376
▁নোট	-10.3377
▁খনি	-10.338
▁ফার্ম	-10.3384
শ্চ	-10.3389
▁অবশিষ্ট	-10.3396
ন্দে	-10.3397
▁সাহা	-10.3399
▁মস্তিষ্ক	-10.3399
▁হেক্টর	-10.3399
▁ওপেন	-10.3399
▁বিরাট	-10.34
▁পরিভাষা	-10.3401
▁ছুটি	-10.3402
▁রাজনীতিবিদ	-10.3402
▁প্রকৌশলী	-10.341
▁গেট	-10.341
ক্সা	-10.3417
▁লিখে	-10.3424
▁পদার্থবিজ্ঞানে	-10.3426
▁অগ্র	-10.343
▁মধ্যপ্রাচ্য	-10.3435
▁সন্দেহ	-10.3435
▁যৌন	-10.3435
▁অগ্রগতি	-10.3436
▁অবকাঠামো	-10.3436
▁সম্প্রতি	-10.3436
▁১৯৮৮	-10.3437
▁অবসান	-10.3441
▁রবীন্দ্র	-10.3456
▁যুব	-10.3457
▁হয়েছিলো	-10.3458
▁করবেন	-10.3464
▁উর্দু	-10.3472
▁লিখতে	-10.3472
▁ইঞ্জিনিয়ারিং	-10.3477
র্মা	-10.3479
▁প্যারা	-10.348
▁গম	-10.3481
কর্তা	-10.3482
▁on	-10.3483
▁নামাজ	-10.3484
▁নৈ	-10.3485
▁প্রি	-10.3486
▁li	-10.3486
▁অস	-10.3488
▁খে	-10.3496
দেবী	-10.3496
▁পৌঁছে	-10.3499
খু	-10.35
▁পালিত	-10.3501
নালী	-10.3506
▁অক্সাইড	-10.3507
▁ধ্যান	-10.351
▁হিন্দুধর্ম	-10.3512
াট	-10.3512
▁আশেপাশের	-10.3514
▁ফ্রাঙ্ক	-10.3515
▁জনসাধারণ	-10.3517
ভিয়ে	-10.3517
▁নেওয়ার	-10.3519
▁মন্দিরের	-10.3523
▁বোঝানো	-10.3526
▁ইট	-10.3532
▁আগ্রহী	-10.3537
▁ফেডারেশন	-10.3545
▁দেখুন	-10.3545
▁ল্যাটিন	-10.3546
▁ইমাম	-10.3546
থার	-10.3547
▁শিশুদের	-10.3571
▁হিল	-10.3571
▁বক্তব্য	-10.3581
▁ব্ল্যাক	-10.3582
▁উত্তম	-10.3582
▁মধ্যযুগে	-10.3586
ন্তু	-10.3589
▁গিয়েছিলেন	-10.3591
▁ঘাট	-10.3592
▁আবুল	-10.3596
▁যেগুলি	-10.3598
চক্র	-10.36
▁এফএ	-10.36
▁সময়কালে	-10.3604
▁পর্ব	-10.3604
▁তিনিই	-10.3609
▁অ্যাডা	-10.361
ডোর	-10.3613
ন্ডে	-10.3614
▁অনেকেই	-10.3616
▁চৌম্বক	-10.3618
▁উত্থান	-10.3618
▁ব্যঞ্জনধ্বনি	-10.3618
▁যমুনা	-10.3618
▁গৃহযুদ্ধ	-10.3619
জিয়া	-10.3626
স্কা	-10.3628
বস্তু	-10.3629
যে	-10.3637
▁পরিবেশে	-10.3637
▁ধ্রুবক	-10.3642
পুত্র	-10.3643
gen	-10.3643
ষ্ক	-10.3643
kh	-10.3644
কর্ষ	-10.3644
▁সোনার	-10.3646
▁নিয়োজিত	-10.3655
▁প্রদর্শিত	-10.3655
▁হেল	-10.3656
▁পাকা	-10.366
দিক	-10.3661
▁গরম	-10.3662
▁রচনার	-10.3662
ary	-10.3663
গ্রহণ	-10.3668
▁মঠ	-10.367
▁ভেতর	-10.3689
[[	-10.3692
▁ডাবলিন	-10.3693
)-	-10.3693
▁বিষয়ের	-10.3695
▁সংকট	-10.3695
▁পোল্যান্ড	-10.3697
টাইম	-10.3698
▁৬টি	-10.3705
▁সমন্বয়	-10.3707
সিসি	-10.3707
▁তর	-10.372
জল	-10.3727
▁তহবিল	-10.373
▁এথেন্স	-10.373
▁পার্শ্ববর্তী	-10.373
উদ্দীন	-10.3731
▁উপাচার্য	-10.3731
▁১৯৮৭	-10.3733
ঙ্গে	-10.3738
বরণ	-10.3738
▁দাঁড়ায়	-10.3744
▁কেননা	-10.3745
▁দিলে	-10.3749
▁দেশগুলির	-10.375
▁উন্নয়নের	-10.3754
▁প্রণালী	-10.3755
▁স্থাপনা	-10.3757
▁গোত্র	-10.376
▁৩৯	-10.3764
▁কাপড়	-10.3766
▁জনবহুল	-10.3767
▁তেজস্ক্রিয়	-10.3767
▁লিনাক্স	-10.3767
▁১৯৪৬	-10.377
▁অপেক্ষাকৃত	-10.377
▁কণ্ঠ	-10.377
কৃষ্ণ	-10.3771
▁ব্যবস্থায়	-10.3771
▁স্পেস	-10.3772
পত্তি	-10.3775
ডিসি	-10.3776
▁নদীতে	-10.3776
কিন	-10.3778
▁ধর্মাবলম্বী	-10.3779
▁রোগী	-10.3782
▁বাগ	-10.3795
▁আয়োজিত	-10.3805
▁দুর্ঘটনা	-10.3805
▁চক্রবর্তী	-10.3805
সুর	-10.3806
▁রাজস্ব	-10.381
টাল	-10.3812
▁no	-10.3815
▁উভয়ের	-10.3816
আমি	-10.3817
▁রাজি	-10.3822
▁মহাদেশের	-10.3832
▁সংঘ	-10.3836
রায়	-10.3839
উড	-10.384
▁উত্তীর্ণ	-10.3843
▁বংশধর	-10.3844
▁লাভের	-10.3844
▁১৯৫৭	-10.3845
▁এসেছিল	-10.3847
▁জগতে	-10.3851
ুল্লাহ	-10.3852
fr	-10.3855
▁মহিলাদের	-10.3857
দ্ব	-10.3858
▁পর্যটক	-10.3862
▁বিপ্লবের	-10.3867
▁মালা	-10.387
▁আটক	-10.3872
▁ভারী	-10.3872
▁ইরিত্রিয়া	-10.3881
▁মুখোমুখি	-10.3881
▁হযরত	-10.3881
▁বিনোদন	-10.3881
হাঙ্গেরি	-10.3881
▁পূরণ	-10.3882
গ্রি	-10.3884
▁ক্ল	-10.3889
▁এইভাবে	-10.3891
▁উদ্যোগে	-10.3892
োরা	-10.3893
▁তুমি	-10.3896
▁কানাডা	-10.3902
▁তলা	-10.3904
chi	-10.3912
▁সেটা	-10.3913
▁সাক্ষাৎ	-10.3918
▁আধ্যাত্মিক	-10.3919
▁নোয়াখালী	-10.3919
jpg	-10.3919
▁কর্মসূচি	-10.3919
▁নিউট্রন	-10.3919
▁অধিকাংশই	-10.3919
বিহীন	-10.392
▁ওঠা	-10.3922
▁কল্পনা	-10.3923
▁সম্পর্কের	-10.3923
খণ্ড	-10.3927
র্চ	-10.3928
▁ha	-10.3932
▁১০০০	-10.3934
▁দক্ষ	-10.3937
শেষ	-10.3938
▁ছি	-10.3944
▁সিরাজ	-10.3944
ভঙ্গ	-10.3948
▁আকৃতির	-10.3948
▁দ্বীপপুঞ্জের	-10.3951
▁শোনা	-10.3955
▁শহুরে	-10.3957
▁মাউন্ট	-10.3957
▁অরণ্য	-10.3957
▁j	-10.3959
অন	-10.3959
▁বাস্তবায়ন	-10.396
▁দাবা	-10.3961
পেন	-10.3962
▁আঁকা	-10.3962
মিনি	-10.3966
▁টাউন	-10.3966
ড়ী	-10.397
ou	-10.3971
স্ম	-10.3971
▁|	-10.3971
▁সম্মত	-10.3975
▁বাষ্প	-10.3976
▁উমর	-10.3978
লেও	-10.3979
াইজ	-10.3979
▁ভার্	-10.3986
▁লেখেন	-10.3995
▁মালভূমি	-10.3997
▁১৯৫৩	-10.3997
▁অধীন	-10.4001
▁সীমান্তে	-10.4001
▁কোল	-10.4003
▁ছড়া	-10.4004
ব্যাক	-10.401
ত্ত্ব	-10.4013
▁সম্মেলন	-10.4016
mar	-10.4016
মন্ত্রী	-10.4016
বৃত্তি	-10.4017
▁ঘটায়	-10.402
▁পালা	-10.4021
▁4	-10.4025
মণি	-10.4026
▁গোষ্ঠীর	-10.4036
গুন	-10.4036
▁চান	-10.4039
▁ক্লা	-10.404
▁পর্যায়ের	-10.4041
শঙ্কর	-10.4045
ers	-10.4045
▁নাচ	-10.4047
▁বেছে	-10.4052
▁আল্লাহ	-10.4055
রেজ	-10.4056
▁পরেই	-10.4061
▁গ্রীষ্মকাল	-10.4064
বীর	-10.4066
▁নল	-10.4067
▁অষ্টম	-10.4072
▁গণহত্যা	-10.4072
▁মহাসড়ক	-10.4072
▁মারাদোনা	-10.4072
▁পুরোপুরি	-10.4072
▁আবাসস্থল	-10.4072
▁ওয়েলশ	-10.4073
▁নিরসন	-10.4073
▁একর	-10.4073
▁লোহিত	-10.4075
▁জড়িয়ে	-10.4076
▁লর্ড	-10.4079
▁খ্রিস্টাব্দের	-10.4081
▁আলম	-10.4084
▁আধা	-10.4085
ভাব	-10.4087
▁গ্রহণের	-10.4089
▁রাশিয়ান	-10.4092
স্কো	-10.4094
▁মন্ট	-10.4096
▁মিশে	-10.4098
▁10	-10.41
▁মুসলিমদের	-10.4102
▁ro	-10.4103
▁বিদ্যালয়ে	-10.4105
▁স্টার	-10.4106
▁উৎসাহ	-10.4107
ভাই	-10.4109
▁মুহম্মদ	-10.4111
▁সরঞ্জাম	-10.4111
▁গণমাধ্যম	-10.4111
▁প্রিন্স	-10.4113
▁লক্ষণ	-10.412
▁ব্রু	-10.4133
▁জীববিজ্ঞান	-10.4136
▁পোল	-10.4145
▁দশম	-10.4146
▁ভিতরে	-10.4147
▁অস্থায়ী	-10.415
▁প্রার্থনা	-10.415
▁ইঙ্গিত	-10.415
▁সেনাপতি	-10.4152
ধ্ব	-10.4154
▁বিট	-10.4154
▁শাখায়	-10.4156
▁টিকে	-10.4158
চো	-10.4159
▁বসন্ত	-10.416
▁থাকত	-10.4164
▁মহাসাগরীয়	-10.4164
▁ডিসেম্বরে	-10.4166
ওয়েল	-10.4173
বর্	-10.4177
ns	-10.4178
ধর্মী	-10.4178
▁শেয়ার	-10.4181
▁প্রকল্পের	-10.4189
▁নিউজিল্যান্ড	-10.4189
▁গৌড়	-10.4189
▁রাজকীয়	-10.4189
▁ফলস্বরূপ	-10.419
▁ব্রে	-10.4201
▁রাজনীতিতে	-10.4202
▁অংশটি	-10.4207
ফিল্ড	-10.4211
▁লালন	-10.4214
▁প্রবল	-10.4217
▁মূ	-10.4217
▁ইন্ডিয়ান	-10.4227
▁গ্র্যান্ড	-10.4228
▁সমান্তরাল	-10.4228
▁উগান্ডা	-10.4228
▁ব্যবসায়	-10.423
ণি	-10.4234
▁সিদ্ধ	-10.4237
▁১ম	-10.4239
কাজ	-10.4246
▁পিটার	-10.4258
▁দেশটিতে	-10.4258
ud	-10.4266
ঢ়	-10.4266
▁প্রত্যাহার	-10.4267
▁টাওয়ার	-10.427
▁পারেনি	-10.4272
ন্তে	-10.4272
▁বেন	-10.4275
▁নথি	-10.4278
াজ	-10.4281
▁যেত	-10.429
▁রক্তের	-10.4294
▁উত্তরাধিকার	-10.4295
▁পাত	-10.4295
▁অন্তর্	-10.4296
▁আইনের	-10.4297
▁এলাকাটি	-10.4299
ot	-10.4302
▁উর্বর	-10.4307
▁দুর্নীতি	-10.4307
▁ফিরিয়ে	-10.4307
▁টেনিস	-10.4307
▁এশীয়	-10.4308
▁দৈ	-10.4311
▁কোর্স	-10.4311
mal	-10.4313
▁আটটি	-10.4314
কোন	-10.4315
▁আর্দ্র	-10.4315
▁ওয়াল	-10.4316
▁বিতর্কিত	-10.4321
mu	-10.4331
▁কবিতার	-10.4333
▁মাটিতে	-10.4333
▁যৌথ	-10.4337
▁বুক	-10.4338
জীবী	-10.4341
▁টেকনোলজি	-10.4347
▁ব্যুৎপত্তি	-10.4347
▁ইসরায়েল	-10.4347
▁সেলসিয়াস	-10.4347
▁যাতায়াত	-10.4347
▁হুমকি	-10.4347
▁ওয়েবসাইট	-10.4347
▁বঙ্গবন্ধু	-10.4347
প্রবাহ	-10.4347
▁সমাজতান্ত্রিক	-10.4348
▁ক্ষেত্রফল	-10.4349
▁বৃষ্টি	-10.4349
▁অভিজাত	-10.435
▁চাঁদের	-10.4353
▁মিলিয়ে	-10.4355
▁ভোগ	-10.4355
▁ঢাল	-10.4357
▁পদার্থবিজ্ঞানের	-10.436
িলা	-10.436
▁শাসিত	-10.4365
▁সন	-10.4367
▁জয়ের	-10.4369
▁গেম	-10.437
জ্য	-10.437
কান্ত	-10.437
শাসন	-10.4371
▁সম্পাদন	-10.4386
▁এজন্য	-10.4387
▁একেবারে	-10.4387
▁ছাগল	-10.4388
▁স্কেল	-10.439
▁কারণেই	-10.4394
▁জনগোষ্ঠী	-10.4401
▁আগত	-10.4408
▁আপেক্ষিকতা	-10.4419
▁সংকর	-10.442
▁স্কুলের	-10.4424
▁আয়তনের	-10.4426
▁ঈশ্বরের	-10.4427
▁মহাজাগতিক	-10.4427
▁১৯৫৯	-10.4429
▁সৃষ্টির	-10.4431
all	-10.4434
মারী	-10.4445
▁আবি	-10.4454
▁চায়	-10.4455
্না	-10.4459
▁বংশের	-10.4465
▁অভ্যুত্থান	-10.4467
▁মোবাইল	-10.4467
▁ওড়িশা	-10.4467
জ্	-10.4468
▁ফিশার	-10.4469
▁করছিলেন	-10.4475
▁কমলা	-10.4481
▁সূ	-10.4485
▁উঠেছিল	-10.4491
সকল	-10.4493
▁or	-10.4504
▁লিঙ্গ	-10.4505
রেল	-10.4507
ঊ	-10.4507
▁সমন্বিত	-10.4507
▁তীর্থ	-10.4507
▁আমদানি	-10.4507
▁বেসরকারী	-10.4507
▁মাহমুদ	-10.4507
▁সর্বকালের	-10.4509
▁তুলনামূলকভাবে	-10.4514
্তি	-10.4518
স্ট্রা	-10.4518
করা	-10.4518
শৈলী	-10.452
রিও	-10.4528
▁নন্দ	-10.4528
স্টিক	-10.4529
▁টম	-10.4529
000	-10.4533
▁৩য়	-10.4541
▁আক	-10.4543
▁ফিলিপ	-10.4547
▁উপদেষ্টা	-10.4547
▁টুর্নামেন্ট	-10.4547
▁মালয়েশিয়া	-10.4547
▁হুগলি	-10.4548
▁সুন্দরবন	-10.4549
▁আবাসিক	-10.4551
তিনি	-10.4554
▁ভাষাটি	-10.4556
▁পারি	-10.4562
▁ব্যক্তিদের	-10.4563
▁তীর	-10.4564
মন্ডল	-10.4565
▁মানুষকে	-10.4566
▁বর্ণের	-10.4574
▁সরে	-10.4582
▁জ্যাক	-10.4583
▁কানেটিকাট	-10.4588
▁মহাকাব্য	-10.4588
▁মোটামুটি	-10.4588
▁সায়েন্স	-10.4588
▁জুনিয়র	-10.4588
▁সম্পাদনা	-10.4589
▁কংগ্রেসের	-10.459
▁আল্লাহর	-10.4605
▁বিশ্বকাপের	-10.4612
▁কাট	-10.462
▁উপলক্ষে	-10.4629
▁সংক্রমণ	-10.4629
▁সম্মিলিত	-10.4629
▁ক্যাডেট	-10.4629
▁শিষ্য	-10.4629
▁প্রাদেশিক	-10.4629
▁ভেঙ্গে	-10.463
রত্ন	-10.4634
▁নিয়ন্ত্রণে	-10.4638
লতা	-10.4642
▁প্রক্রিয়ার	-10.4652
▁বিষ্ণু	-10.4654
▁বেড়া	-10.466
মালা	-10.467
▁প্রশস্ত	-10.467
দহ	-10.4673
ঙ্কা	-10.4678
▁কেন্দ্রের	-10.4684
ক্রিয়া	-10.4685
▁খেলতে	-10.4686
প্রাচীন	-10.4686
মেরি	-10.4689
ইং	-10.4691
ফিল	-10.4692
▁পুর	-10.4695
▁l	-10.4699
▁দ্বীপটি	-10.4701
▁মারি	-10.4702
▁ভাষাসমূহ	-10.4706
▁ধাতব	-10.4711
▁সুপরিচিত	-10.4711
▁হাদিস	-10.4711
▁পরাজয়	-10.4712
▁গুগল	-10.4713
▁জয়ী	-10.4714
▁খেলোয়াড়দের	-10.4715
▁সবার	-10.472
▁গার্	-10.4725
ূত	-10.4727
শিক্ষা	-10.473
▁ঘটা	-10.4735
▁৮৯	-10.4745
▁কোয়া	-10.4747
▁রহস্য	-10.4751
▁জানুয়ারী	-10.4752
▁পর্যালোচনা	-10.4752
▁ব্যতিক্রম	-10.4752
▁সাংবিধানিক	-10.4752
land	-10.4752
▁ইকবাল	-10.4752
গিরি	-10.4755
▁দলকে	-10.4756
▁চোখে	-10.4762
পাঠ	-10.4764
que	-10.4765
cl	-10.477
▁কাঠের	-10.4775
▁অতীতে	-10.478
▁পারেননি	-10.4782
▁বিজ্ঞানীরা	-10.4782
▁মিশ্র	-10.4783
▁পরম	-10.4788
▁শিক্ষার্থীদের	-10.4792
▁ka	-10.4794
প্রতিদ্বন্দ্বিতা	-10.4794
▁বৃক্ষ	-10.4794
▁৮৬	-10.4794
▁র‍্যা	-10.4795
▁ব্রি	-10.4799
▁উপমহাদেশের	-10.4806
▁ঘটেছিল	-10.4807
▁বেরিয়ে	-10.4807
▁সহায়তায়	-10.4809
ম্বো	-10.481
▁বেলা	-10.4818
▁পঞ্চ	-10.4818
▁নাইট	-10.482
▁মৌসুমের	-10.4821
▁উচ্চতায়	-10.4823
রঞ্জন	-10.4825
▁ধারণাটি	-10.4825
ষি	-10.4826
▁কপি	-10.483
▁কমপ্লেক্স	-10.4836
▁মহকুমার	-10.4837
▁সূত্রপাত	-10.4839
▁মেঘনা	-10.4849
নং	-10.4849
▁mu	-10.4849
▁ব্যাপার	-10.4849
▁মহানগর	-10.485
কাম	-10.4854
▁আত্মীয়	-10.4855
▁প্রস্তুতি	-10.4861
▁উপরের	-10.4864
▁লিগে	-10.4868
▁গ্রিস	-10.4871
ana	-10.4872
▁যাপন	-10.4877
▁বিচারপতি	-10.4879
সিং	-10.488
▁পট	-10.488
নিজ	-10.4881
▁ভারতবর্ষ	-10.4881
▁রেজি	-10.4894
ন্দো	-10.4898
গুপ্ত	-10.4899
দর্শ	-10.4908
▁অব্দ	-10.4908
▁পড়েছে	-10.4916
▁সুতরাং	-10.4919
▁সর্বমোট	-10.4919
▁স্টকহোম	-10.4919
▁বিদ্রোহী	-10.4921
▁বেস	-10.4931
ক্রো	-10.4934
োলজি	-10.4936
▁ক্ষেত্রেই	-10.4939
▁ভূমিকায়	-10.4943
ালয়	-10.4944
▁এক্ষেত্রে	-10.495
▁হাল	-10.4953
▁অঞ্চলগুলি	-10.4953
ন্ডো	-10.496
▁প্রদেশে	-10.496
▁ওলন্দাজ	-10.4962
▁যান্ত্রিক	-10.4962
▁মাত্রার	-10.4963
▁বাসস্থান	-10.4969
্যাট	-10.497
▁অসাধারণ	-10.4972
বুল	-10.4973
কাটা	-10.4973
ত্ম	-10.4976
▁lo	-10.4981
▁ব্রিজ	-10.4987
ak	-10.499
মাত্রা	-10.4992
নায়ক	-10.4994
▁ক্লাস	-10.4999
▁আওরঙ্গজেব	-10.5004
▁উইন্ডোজ	-10.5004
▁ভিটামিন	-10.5004
▁ভারসাম্য	-10.5004
▁সতীদাহ	-10.5004
▁মার্শাল	-10.5005
▁th	-10.5007
▁রাণী	-10.5007
মায়	-10.501
হ্যাম	-10.5012
ব্র	-10.5012
ki	-10.5014
▁নবম	-10.5018
▁এখান	-10.5018
গুচ্ছ	-10.5018
_1	-10.5022
▁চালায়	-10.5025
ডল	-10.5026
▁মাহ	-10.5035
রাহ	-10.5035
▁cha	-10.5043
▁ক্যাপ্টেন	-10.5047
▁সেইসাথে	-10.5047
▁শ্রদ্ধা	-10.5047
▁তিমুর	-10.5047
▁বৃত্তি	-10.5047
▁চিলি	-10.5047
▁সম্পূর্ণরূপে	-10.5049
ie	-10.5052
▁গবেষণাপত্র	-10.5053
▁মেহ	-10.5054
▁১৯১৮	-10.5058
বতী	-10.5059
▁bo	-10.5061
গের	-10.5068
পরবর্তী	-10.5069
ক্লা	-10.5073
সেন্ট	-10.5075
▁কিং	-10.5078
▁এটিই	-10.5079
▁লস	-10.508
তিয়া	-10.5084
367	-10.5087
▁ইউনেস্কো	-10.5089
▁ফেডারেল	-10.5089
▁অগ্নি	-10.5089
▁সুরক্ষা	-10.5091
▁অবস্থানে	-10.5091
▁সালাম	-10.5092
▁১৯৩৯	-10.5092
ত্যা	-10.5094
্যে	-10.5097
্যাক্ট	-10.5098
সেট	-10.5112
ত্রা	-10.5115
ভাস	-10.5117
কুই	-10.5125
▁বহির্	-10.5132
▁অনুপ্রাণিত	-10.5132
▁বঙ্গোপসাগর	-10.5132
▁সাহেব	-10.5132
▁খলিফা	-10.5132
▁সুনির্দিষ্ট	-10.5135
েটিভ	-10.5136
▁সদস্যরা	-10.5138
▁এসেছিলেন	-10.5142
▁প্রতিপক্ষ	-10.5149
▁প্রক্রিয়ায়	-10.5151
সীমা	-10.5151
প্লা	-10.5155
▁বিস্তারিত	-10.5155
▁হাব	-10.5155
▁একইভাবে	-10.5162
নন্দ	-10.5162
▁তোলেন	-10.5173
▁ফিল্ড	-10.5174
▁মনোনয়ন	-10.5175
▁নির্মাতা	-10.5175
▁বীজগণিত	-10.5176
▁পরিদর্শন	-10.5177
▁ঘুরে	-10.5177
▁১৯৪৪	-10.5178
▁অপেক্ষা	-10.518
ঝি	-10.5181
mp	-10.5182
▁ভ্যান	-10.5182
▁ক্ষয়	-10.5182
file	-10.5188
▁ভেড়া	-10.5188
▁বট	-10.5198
▁হার্ড	-10.5203
▁বকর	-10.5207
▁সিম	-10.5212
▁যোগ্যতা	-10.5215
my	-10.5216
দ্ব্যর্থতা	-10.5219
▁আমন্ত্রণ	-10.5219
▁কর্তৃত্ব	-10.5219
▁বাহাদুর	-10.5219
▁স্তম্ভ	-10.5219
▁সুইডেন	-10.5219
▁সহায়ক	-10.5219
▁সংসদে	-10.5227
▁বাড়ির	-10.523
আম	-10.5237
▁ছন্দ	-10.5244
ওয়ার্ড	-10.5247
▁18	-10.5249
▁প্রযুক্তির	-10.5251
কবি	-10.5253
▁তামা	-10.5255
▁হস্ত	-10.5261
▁মাইক্রোসফট	-10.5262
▁১০টি	-10.5265
▁ভবনের	-10.5266
▁নিয়েছিল	-10.5268
▁সচেতন	-10.5271
hy	-10.5272
▁যৌথভাবে	-10.5272
▁সুপারিশ	-10.5275
সাম	-10.5283
বিন্যাস	-10.5285
▁জীবিত	-10.5285
▁চরিত্রের	-10.5286
যন্ত্র	-10.5286
ঙ্গী	-10.5294
▁সামগ্রিক	-10.5296
বর্গ	-10.5297
▁পাঠান	-10.5297
মূল্য	-10.5302
394	-10.5304
▁একাডেমী	-10.5306
▁কাঁঠাল	-10.5306
▁বিস্ফোরণ	-10.5306
▁মাথাপিছু	-10.5306
▁রিসার্চ	-10.5306
▁জ্যামাইকা	-10.5306
▁লেগে	-10.5306
▁সিকিম	-10.5307
বিভাগ	-10.5308
▁ওয়ার	-10.5309
▁ভক্ত	-10.531
▁জাফর	-10.531
▁১৫০	-10.5322
ায়ণ	-10.5324
▁দেহের	-10.5327
▁পেট	-10.5331
ইউরোপীয়	-10.5333
▁উপলব্ধি	-10.5334
▁আউ	-10.5336
▁দর্শনীয়	-10.5339
▁হিসেবেও	-10.5342
▁স্মরণ	-10.5345
▁নিষেধাজ্ঞা	-10.535
▁সালাহুদ্দিন	-10.535
▁কলম্বিয়া	-10.535
▁ক্রমাগত	-10.535
▁কঙ্গো	-10.5354
▁থাকাকালীন	-10.5355
ঙ্গার	-10.5356
▁এগুলোর	-10.5357
▁মহাকর্ষীয়	-10.5358
▁ক্রস	-10.5361
▁হোক	-10.5361
▁শুনে	-10.5362
▁আহত	-10.5364
▁এগুলির	-10.5364
▁তামিল	-10.5365
▁ভাড়া	-10.5371
গরি	-10.5372
▁এলি	-10.5373
মতে	-10.5376
▁সহজে	-10.5376
সঙ্গীত	-10.5378
শূন্য	-10.5385
▁আর্মস্ট্রং	-10.5394
▁স্তন্যপায়ী	-10.5394
▁একাদশ	-10.5394
▁ছাড়িয়ে	-10.5397
▁হার্ট	-10.5408
▁গুয়া	-10.5409
ধান	-10.541
▁সেল	-10.541
বোর্ড	-10.5424
▁অনুষ্ঠানের	-10.5427
▁অনুমোদিত	-10.5438
▁প্রতিশ্রুতি	-10.5438
▁মালিকানাধীন	-10.5438
▁বৈঠক	-10.5439
▁সম্মুখ	-10.544
▁মাদার	-10.5441
▁১৯২১	-10.5441
▁কিশোরগঞ্জ	-10.5442
▁চলা	-10.5448
কাণ্ড	-10.5452
দ্বয়	-10.5463
বৈজ্ঞানিক	-10.5463
▁ইউএস	-10.5464
ics	-10.5466
কোর	-10.5471
রামপুর	-10.5475
▁মুখ্য	-10.5475
ঙ্গো	-10.5479
▁৪০০	-10.5479
▁ঐতিহ্যের	-10.5481
ফ্রে	-10.5482
▁বিক্রয়	-10.5482
▁প্রবণতা	-10.5483
▁ইলেক্ট্রন	-10.5484
দাহ	-10.5485
রোজ	-10.5485
▁উপগ্রহ	-10.5488
ju	-10.549
▁বালিকা	-10.5491
▁হিউ	-10.5495
inter	-10.5501
সিংহ	-10.5504
▁বসবাসকারী	-10.5504
▁ক্য	-10.5506
▁অভিযানের	-10.5507
min	-10.5508
109	-10.5515
▁অসুস্থ	-10.5517
396	-10.5523
▁মজুমদার	-10.5527
▁মাতৃভাষা	-10.5527
বেক	-10.5531
▁২০২২	-10.5534
উনি	-10.5536
ংশ	-10.5538
চ্ছে	-10.5545
▁১২টি	-10.5547
▁সংশোধন	-10.5548
▁স্টক	-10.555
▁মেঘ	-10.5552
যার	-10.5555
থিয়া	-10.5558
▁১৯১৯	-10.5559
▁হান	-10.556
▁রাষ্ট্রপতির	-10.5563
▁গতির	-10.5564
▁দেল	-10.5565
▁গ্যাসের	-10.5569
▁ম্যাগাজিন	-10.5572
▁অনুভব	-10.5572
্ণ	-10.5572
▁বাইবেল	-10.5573
▁জ্যোতির্বিদ্যা	-10.5574
▁কিয়েভ	-10.5574
▁মিয়া	-10.5577
▁দরকার	-10.5579
্ডার	-10.5588
▁জীবের	-10.5591
▁যন্ত্রের	-10.5598
▁চেতনা	-10.5602
▁ফাইল	-10.5602
গ্রন্থ	-10.5603
পী	-10.5604
▁ব্রাহ্ম	-10.5607
শৃঙ্খল	-10.5616
▁মাতৃ	-10.5617
▁আণবিক	-10.5617
▁দিল্লী	-10.5617
▁গানটি	-10.5618
▁বিধবা	-10.5618
▁প্রসিদ্ধ	-10.562
▁ex	-10.5622
▁সর্বত্র	-10.5625
▁অমর	-10.5625
▁ফোন	-10.5628
▁৯২	-10.5631
সাস	-10.5633
▁একা	-10.5634
▁his	-10.5639
):	-10.564
▁আফগান	-10.5642
িসের	-10.5643
প্রকাশ	-10.5644
▁ভার	-10.5646
▁পতিত	-10.5648
▁গত	-10.5649
▁নৈতিক	-10.5655
▁গোলের	-10.5658
▁পদ্ম	-10.5659
্টো	-10.5659
▁এক্সপ্রেস	-10.5662
▁পৌরাণিক	-10.5662
▁পোপ	-10.5662
▁সমাবেশ	-10.5662
▁মৎস্য	-10.5662
▁আত্মপ্রকাশ	-10.5663
▁নাস্তিক	-10.5663
▁মিলান	-10.5663
▁মদিনা	-10.5664
▁ভাত	-10.5665
▁লাগে	-10.5666
▁ইতিহাসবিদ	-10.5667
▁ব্যবসায়িক	-10.5671
cha	-10.5683
▁পেশ	-10.5685
▁স্বাদ	-10.5685
অর্থাৎ	-10.5691
বদ	-10.5703
▁বিজ্ঞাপন	-10.5708
▁সুইজারল্যান্ড	-10.5708
▁ত্রুটি	-10.5708
▁শ্বাস	-10.5708
▁ইন্টেল	-10.5708
▁ক্ষতিগ্রস্ত	-10.5708
▁স্ট্রিং	-10.5708
ুদ্দিন	-10.5709
ies	-10.5712
▁স্বর্গ	-10.5712
▁অ্যান	-10.5712
▁চোখ	-10.5714
▁অ্যাট	-10.5716
350	-10.5718
▁শাড়ি	-10.572
▁গোত্রের	-10.5729
▁রহমানের	-10.5732
▁মন্ত্র	-10.5733
▁একটু	-10.5735
ভান	-10.5736
েশ্বরী	-10.5737
▁হেরে	-10.5739
▁মাজার	-10.574
▁°	-10.5743
ium	-10.5748
▁দাঁড়িয়ে	-10.575
▁খেল	-10.5752
▁ক্যালকুলাস	-10.5753
▁টার্মিনাল	-10.5753
▁প্রতিফলিত	-10.5753
▁লৌহ	-10.5753
▁আইয়ুব	-10.5753
স্লাভ	-10.5755
▁ho	-10.5758
▁আপেক্ষিক	-10.5761
▁সনে	-10.5762
▁ছাড়	-10.5763
▁জন্মের	-10.5763
▁মিনিটে	-10.5764
লিঙ্গ	-10.5767
407	-10.5769
▁ফর্ম	-10.5772
▁লোকজন	-10.5787
▁৮টি	-10.5787
ts	-10.5788
ক্রা	-10.579
▁গরু	-10.5791
▁সান্তিয়াগো	-10.5799
▁কমিউনিটি	-10.5799
▁কুষ্টিয়া	-10.5799
আকৃষ্ট	-10.5799
▁কাহিনি	-10.5799
▁সভায়	-10.58
▁প্রোটন	-10.5802
▁দফা	-10.5802
▁সীতা	-10.5803
▁খ্রিস্টাব্দ	-10.5806
▁উপায়ে	-10.5807
▁গ্রন্থের	-10.5808
▁ড্যা	-10.5813
▁ঈদ	-10.5815
সাধারণ	-10.5817
▁স্বর	-10.5824
ধার	-10.5825
▁শের	-10.5826
▁স্রোত	-10.583
▁বালি	-10.5835
▁আমল	-10.5838
কক্ষ	-10.5838
▁ar	-10.584
▁ইসলামিক	-10.584
সমাজ	-10.5844
▁মেট্রোপলিটন	-10.5845
▁১৯৪১	-10.5847
▁জঙ্গল	-10.5848
▁জানানো	-10.5848
▁অণুজীব	-10.5849
▁শস্য	-10.5849
▁রেখেছিলেন	-10.5851
▁জানুয়ারিতে	-10.5852
গোষ্ঠী	-10.5864
▁আখ্যা	-10.5868
▁গ্রুপের	-10.5869
▁প্রত্য	-10.5872
গঠিত	-10.5875
▁আরা	-10.588
দর্শন	-10.5881
▁শরীরের	-10.5888
▁অস্টেন	-10.5892
▁স্বার্থ	-10.5894
▁বিদেশে	-10.5899
▁কষ্ট	-10.5903
▁চেয়েছিলেন	-10.5905
স্বরূপ	-10.5916
বুক	-10.592
সিও	-10.5922
▁সংসদের	-10.5923
িনো	-10.5924
con	-10.5927
রহাট	-10.5928
উইন	-10.5928
▁জাগ	-10.5932
sc	-10.5934
▁প্রাধান্য	-10.5938
▁বৌদ্ধধর্ম	-10.5941
গাছা	-10.5944
মুন	-10.5946
ষ্টা	-10.5949
▁৭টি	-10.595
▁উপহার	-10.5953
ব্রে	-10.5954
▁সংখ্যায়	-10.5954
par	-10.5965
▁অনুভূতি	-10.5965
▁প্রাচীর	-10.597
▁ইয়ো	-10.5972
ali	-10.5979
▁go	-10.5982
▁মিলন	-10.5983
▁কোথাও	-10.5985
▁জিন্নাহ	-10.5985
▁বিতরণ	-10.5985
▁মতামত	-10.5985
▁উনিশ	-10.5985
▁সেসময়	-10.5994
▁কায়	-10.5995
কায়	-10.5996
▁একীভূত	-10.5997
res	-10.6004
▁mi	-10.6004
▁জাল	-10.6006
▁প্রভাবে	-10.6007
▁পূর্বের	-10.6021
▁উদার	-10.6023
োভিচ	-10.6025
mon	-10.6025
▁জনপদ	-10.6027
▁চাই	-10.6027
▁মুক্তিযুদ্ধে	-10.603
▁কার্যকলাপ	-10.6032
▁ভ্যাটিকান	-10.6032
▁ষড়যন্ত্র	-10.6032
▁আর্সেনাল	-10.6032
ত্তি	-10.6033
▁দেখিয়ে	-10.6033
ীভূত	-10.6034
▁সম্পদের	-10.6034
▁ফুটবলার	-10.6037
▁সাঁ	-10.6041
াঙ্ক	-10.6041
▁গ্লা	-10.6044
ডিন	-10.6046
▁ব্রাজিলের	-10.6047
▁আসল	-10.6047
▁কবর	-10.6051
▁কুরআনের	-10.6054
▁মল	-10.6055
ঙ্গল	-10.6055
▁বিদ্যালয়ের	-10.6055
জনিত	-10.6059
tra	-10.6063
▁বর্ষা	-10.6073
thumb	-10.6079
▁জিব্রাল্টার	-10.6079
▁ফলশ্রুতিতে	-10.6079
▁সেন্ট্রাল	-10.6079
▁মির্জা	-10.6079
▁স্নাতকোত্তর	-10.6079
▁পাবনা	-10.608
▁১৯০০	-10.6081
▁১৯০৫	-10.6081
▁১৯৩৮	-10.6082
ফেজ	-10.6085
▁কারো	-10.6086
▁প্রত্ন	-10.6089
▁পারবে	-10.609
vo	-10.609
ell	-10.6092
▁শীতকালে	-10.61
▁কমান্ড	-10.6109
শাল	-10.6112
▁মাস্টার	-10.6113
▁পাথরের	-10.6113
পাই	-10.6125
▁ক্যাল	-10.6126
▁অষ্টাদশ	-10.6126
▁জগন্নাথ	-10.6126
▁মোজাম্বিক	-10.6126
▁সাপ্তাহিক	-10.6126
▁দুঃখ	-10.6126
▁স্থপতি	-10.6126
▁সুরক্ষিত	-10.6127
▁নবদ্বীপ	-10.6127
ভেদে	-10.6129
▁স্টেডিয়ামে	-10.6133
▁এরশাদ	-10.6134
কিয়া	-10.6143
▁man	-10.6145
▁কোপা	-10.6149
য়াস	-10.6153
▁শিক্ষকতা	-10.6156
▁বোধ	-10.6159
চাঁদ	-10.6162
▁বারবার	-10.6162
ft	-10.6163
▁নিয়েছে	-10.6164
হ্যা	-10.6166
▁চূড়া	-10.6171
মারা	-10.6172
▁শ্বেত	-10.6173
▁অবতীর্ণ	-10.6174
▁সৈকত	-10.6174
▁হেমিংওয়ে	-10.6174
▁সংযোজন	-10.6175
▁হাউজ	-10.6175
▁দাঁত	-10.6175
▁তদন্ত	-10.6175
▁বিশ্বাসের	-10.6175
▁মনোযোগ	-10.6175
▁বিরোধ	-10.6176
▁লিপিবদ্ধ	-10.6176
▁মোহন	-10.6177
▁মিথ	-10.6178
▁8	-10.6179
▁মোগল	-10.6179
▁হামিদ	-10.6182
▁মাথায়	-10.6183
▁ফেরত	-10.6184
▁ঐতিহাসিকভাবে	-10.6188
▁শিক্ষাজীবন	-10.6188
▁গেল	-10.6189
সম্মত	-10.6195
পথের	-10.6196
we	-10.6201
▁প্লেটো	-10.6213
▁সংবিধানের	-10.6213
▁আসর	-10.6215
▁নজর	-10.6222
▁প্রেসিডেন্সি	-10.6222
▁মিউনিখ	-10.6222
▁চেলসি	-10.6222
▁মঙ্গোল	-10.6222
▁টেলিফোন	-10.6222
▁ব্রহ্মপুত্র	-10.6222
▁সূত্রে	-10.6225
▁প্রোটো	-10.6226
▁মেয়র	-10.6228
▁ম্যাগ	-10.623
▁bi	-10.6233
▁জটিলতা	-10.6233
▁চলছে	-10.6235
▁অসম	-10.6238
কারক	-10.6239
▁দখলে	-10.6248
য়ার্স	-10.6253
cy	-10.6254
লাইট	-10.6255
dia	-10.6256
▁হয়৷	-10.626
ঢাকা	-10.626
▁বানান	-10.6262
▁মহাকর্ষ	-10.6263
▁অপসারণ	-10.627
▁চামড়া	-10.627
▁যন্ত্রপাতি	-10.627
▁১৯৩৭	-10.6273
ধারণ	-10.6275
গুরু	-10.6275
▁শিয়া	-10.6278
▁মার্টিন	-10.6282
হাদ	-10.6283
ff	-10.6285
▁কিনে	-10.6287
বর্ত	-10.6289
▁পেয়েছেন	-10.629
▁মাছের	-10.6296
শীপ	-10.6298
▁টার্	-10.6299
ক্রেট	-10.6299
▁সফলতা	-10.6302
য়াত	-10.6303
▁হাতি	-10.6304
▁মুম্বই	-10.6307
ঞ	-10.6308
যু	-10.6311
▁ঘূর্ণিঝড়	-10.6318
▁বারাণসী	-10.6318
▁সাপেক্ষে	-10.6318
▁ঐক্য	-10.632
▁কয়লা	-10.632
শিক্ষাপ্রতিষ্ঠান	-10.632
▁মেটা	-10.6323
সেস	-10.6332
প্রো	-10.6332
▁লুই	-10.6333
▁গান্ধীর	-10.6341
▁চোখের	-10.6359
▁দ্বন্দ্ব	-10.636
▁পতাকার	-10.6361
▁ইউক্লিড	-10.6367
▁শরণার্থী	-10.6367
▁পুষ্টি	-10.6367
▁আইরিশ	-10.6367
▁বংশাণু	-10.6367
▁থাইল্যান্ড	-10.6367
▁বিধানসভা	-10.6367
▁১৯৩৪	-10.6369
ানুসারে	-10.6373
▁ব্যস্ত	-10.6373
সিডি	-10.6373
▁গাই	-10.6374
age	-10.6377
ুত	-10.6383
▁ভাষাভাষী	-10.6385
▁জনক	-10.6387
মতি	-10.6388
তলী	-10.6393
▁হরিণ	-10.6399
▁সংস্কৃতিতে	-10.6404
▁বিয়ের	-10.6407
ser	-10.6408
▁ব্লা	-10.641
ভুজ	-10.6411
▁পুকুর	-10.6413
▁প্রস্থ	-10.6413
▁অতঃপর	-10.6415
▁প্রত্যাবর্তন	-10.6415
▁নীচে	-10.6416
▁জাতিগোষ্ঠী	-10.6416
▁পরগণা	-10.6417
ভূত	-10.6419
▁গানে	-10.6421
▁করছিল	-10.6421
▁কেনা	-10.6426
গ্যা	-10.6427
▁হোল	-10.6428
▁ডায়া	-10.6435
▁un	-10.6435
থান	-10.644
▁পীর	-10.6443
▁বানানো	-10.6444
‍্যা	-10.645
▁শ্যাম	-10.6451
▁জ্যামিতিক	-10.6455
▁হিম	-10.6462
▁অক্সফোর্ড	-10.6464
▁মালাউই	-10.6465
▁স্ট্রিট	-10.6466
▁রাজতন্ত্র	-10.647
সিটি	-10.6485
▁সর্বদা	-10.6485
▁প্রজা	-10.65
চিহ্ন	-10.6504
ফ্রা	-10.6507
▁হেলসিংকি	-10.6514
▁ক্যামেরুন	-10.6514
▁প্রতিস্থাপন	-10.6514
▁ভবিষ্যদ্বাণী	-10.6514
▁সম্পৃক্ত	-10.6514
▁আওতায়	-10.6514
▁পর্যবেক্ষক	-10.6514
▁হরিয়ানা	-10.6514
▁মেঘালয়	-10.6514
▁নাদাল	-10.6514
▁আনোয়ার	-10.6516
▁কাটিয়ে	-10.6517
▁১৯২২	-10.6518
▁৮৭	-10.6519
চ্য	-10.6527
▁গ্যাল	-10.6536
▁স্বরূপ	-10.6538
ical	-10.6544
শ্য	-10.6553
▁রয়েছেন	-10.6554
সংখ্যক	-10.6554
ology	-10.6555
▁গুটি	-10.6558
ua	-10.656
▁তেহরান	-10.6563
▁বুদ্ধিজীবী	-10.6563
▁সামগ্রী	-10.6564
▁হোটেল	-10.6565
মৃ	-10.6565
▁বিনিময়	-10.6567
▁টমাস	-10.6567
▁ধ্রুপদী	-10.657
কারি	-10.6572
▁তাপমাত্রায়	-10.6574
amp	-10.6575
▁ব্লু	-10.6584
▁ফাইনাল	-10.6586
▁১লা	-10.6588
টাইপ	-10.6594
▁কফি	-10.6596
▁ব্রিটিশদের	-10.6601
▁কাঠামোর	-10.6603
▁বাড়িয়ে	-10.6604
▁তৎ	-10.6608
্সের	-10.6609
▁ক্ষেত্রের	-10.661
▁আবির্ভূত	-10.6613
▁ঘূর্ণন	-10.6613
▁পারস্পরিক	-10.6613
▁ফেলুদা	-10.6613
▁যানবাহন	-10.6613
▁ভোলা	-10.6615
▁উৎসবের	-10.6617
▁১৯২৯	-10.6617
্যান্স	-10.6617
one	-10.6621
tur	-10.6624
দাতা	-10.6634
মঙ্গল	-10.6638
টস	-10.6644
োনি	-10.6646
▁যাবার	-10.6649
▁ঝড়	-10.6651
0%	-10.6659
বিজ্ঞানী	-10.6663
▁বিক্ষোভ	-10.6663
▁লুক্সেমবার্গ	-10.6663
▁সুস্পষ্ট	-10.6663
▁কেপলার	-10.6663
▁অভিবাসন	-10.6663
▁মুর্শিদাবাদ	-10.6663
▁বর্তনী	-10.6664
খ্রী	-10.6664
▁চলেছে	-10.6664
▁মালিকানা	-10.6664
▁ব্রুনাই	-10.6664
wi	-10.6665
▁নরওয়ে	-10.6665
ওয়ার্ক	-10.6672
▁শ্রেণীতে	-10.6673
বেগ	-10.668
▁ইউনিয়নে	-10.6711
▁ত্রিশ	-10.6712
▁সর্ববৃহৎ	-10.6714
▁স্কটল্যান্ড	-10.6714
▁মণিপুর	-10.6714
▁বহিঃ	-10.6716
▁পূর্ণাঙ্গ	-10.6716
▁১৯২৮	-10.6717
▁দেখেন	-10.6724
▁শাস্ত্রীয়	-10.6729
▁শেরপুর	-10.6731
▁ঘরের	-10.6731
▁লুইস	-10.6734
▁৯টি	-10.6734
▁প্রচারিত	-10.6742
শিয়ান	-10.6744
▁যোদ্ধা	-10.675
আর্য	-10.6751
▁আধান	-10.6753
বিশ্বাস	-10.6756
জ্যোতি	-10.6764
▁ইন্সটিটিউট	-10.6764
▁সমতুল্য	-10.6764
▁উপাসনা	-10.6764
▁ঘাঁটি	-10.6764
ফ্যা	-10.6764
▁রবীন্দ্রনাথের	-10.6765
▁আজকে	-10.6767
ফ্রি	-10.6768
াধিকার	-10.6776
▁সমর্থ	-10.6776
▁লোকদের	-10.6783
▁ইন্	-10.6784
▁জোয়ার	-10.6784
▁বার্সেলোনার	-10.6784
▁কমান্ডার	-10.6787
▁পাবে	-10.6796
▁সংগঠনের	-10.6798
▁জিয়াউ	-10.6801
▁বিজয়ের	-10.6806
▁মারিয়া	-10.6806
▁অ্যাপ্লিকেশন	-10.6814
▁দ্বৈত	-10.6814
▁নমুনা	-10.6815
▁মারাত্মক	-10.6815
ডিং	-10.6816
▁১৯৫১	-10.6817
▁১৯৪৩	-10.6817
▁শাস্তি	-10.6819
▁তাঁত	-10.6824
সারি	-10.6824
▁লিখেন	-10.6834
পল্লী	-10.6834
ফুল	-10.6838
nu	-10.6847
▁হিসেব	-10.6852
কূল	-10.6852
’’	-10.6852
কৌশল	-10.6855
▁ne	-10.6855
▁পানিতে	-10.6863
ল্প	-10.6864
▁প্রশাসক	-10.6865
সাগর	-10.6867
▁উপাদানের	-10.6868
▁১৯৪২	-10.6869
▁জ্যা	-10.687
▁দারিদ্র্য	-10.6871
▁ওল্ড	-10.6874
est	-10.6875
▁শুভ	-10.6883
প্ল্যা	-10.6883
▁গদ্য	-10.6886
▁সন্তানের	-10.6887
লিয়ান	-10.6888
▁খ্যাত	-10.6888
tro	-10.6889
▁করিয়ে	-10.689
বিষ	-10.6894
অনু	-10.6897
▁গাওয়া	-10.6901
▁সেখানেই	-10.6908
▁শতকরা	-10.6913
▁দেবীর	-10.6915
▁গ্রেপ্তার	-10.6917
▁মিউজিক	-10.6917
▁স্টুডিও	-10.6917
▁বাচ্চা	-10.6917
▁নির্দেশনা	-10.6918
▁ফ্রিড	-10.6922
▁নিঃস	-10.6926
▁উত্তরাঞ্চল	-10.6928
▁গোলাম	-10.6933
মেলা	-10.6937
400	-10.6938
হারা	-10.6938
দশ	-10.6939
▁রাইট	-10.6939
▁নিরপেক্ষ	-10.6942
tin	-10.6947
▁কৈ	-10.6947
▁ওয়েলসের	-10.6953
▁দাগ	-10.6954
▁মন্ত্রণালয়	-10.6956
নামা	-10.6964
▁ক্রোমোজোম	-10.6968
▁পিএইচডি	-10.6968
▁ফিলিস্তিন	-10.6968
▁ভুটান	-10.6969
▁কেরালা	-10.6969
▁গুরুতর	-10.6971
াণু	-10.7002
আর্	-10.7006
▁বলের	-10.7009
ii	-10.701
▁দায়িত্বে	-10.7012
ফিউ	-10.7013
▁বৈশাখ	-10.702
▁মরক্কো	-10.702
▁vi	-10.702
▁বণিক	-10.702
▁বৈদিক	-10.7021
▁অনলাইন	-10.7022
▁সাহস	-10.7023
▁বৈধ	-10.7027
▁জগ	-10.7031
▁নির্গত	-10.7031
▁মন্ত্রণালয়ের	-10.7033
▁করিম	-10.7034
দেহ	-10.7036
▁জালাল	-10.7037
▁গ্রিন	-10.7037
▁নীতির	-10.704
▁বাহিনীকে	-10.7045
▁এপি	-10.7045
▁দেবে	-10.7046
▁টান	-10.7047
▁বিচিত্র	-10.7048
▁প্রথমদিকে	-10.7058
১০০	-10.706
▁চিত্রিত	-10.7063
▁ইউনি	-10.7064
▁উপকরণ	-10.7071
▁বর্ধিত	-10.7072
▁রোগে	-10.7072
▁এডওয়ার্ড	-10.7073
উচ্চ	-10.7076
▁১৯৩৬	-10.7076
বাদাম	-10.7087
▁সিনেট	-10.7088
▁সেপ্টেম্বরে	-10.7115
▁ভূমধ্যসাগর	-10.7115
▁গেছেন	-10.7117
▁প্রয়োজনীয়তা	-10.7117
▁ga	-10.7119
▁গিল	-10.7121
sp	-10.7122
স্থিত	-10.7122
▁রয়্যাল	-10.7125
▁গমন	-10.7131
শালী	-10.7139
▁দুটো	-10.7143
পশ্চিমাঞ্চল	-10.7151
▁6	-10.7152
▁৯৫	-10.7155
▁আলফা	-10.7155
pt	-10.7157
▁উৎসবে	-10.7159
▁পুলিশের	-10.7166
pr	-10.7168
▁ট্রি	-10.717
সংক্রান্ত	-10.7175
মূর্তি	-10.7176
▁অতিবাহিত	-10.7177
▁দ্বাদশ	-10.7177
▁পেলিক্যান	-10.7177
▁বেলজিয়াম	-10.7177
▁সংক্ষেপে	-10.7177
▁হস্তক্ষেপ	-10.7178
এনএ	-10.7179
▁ব্রাউন	-10.7179
▁প্রবৃদ্ধি	-10.7181
▁১৯০৬	-10.7181
▁ক্লি	-10.7191
দুল	-10.7194
▁বুদাপেস্ট	-10.7195
▁অ্যাব	-10.7197
▁বাঁধা	-10.7199
▁বুঝা	-10.7204
▁বিচারে	-10.7209
▁ab	-10.7213
িদের	-10.7216
▁গোবিন্দ	-10.7217
▁by	-10.7222
বুর্গ	-10.7225
বেলা	-10.7228
▁নির্যাতন	-10.723
▁হিমাচল	-10.723
▁ক্রেডিট	-10.723
▁শোষণ	-10.7231
গ্রী	-10.7234
▁এসিড	-10.7234
ষণ	-10.7234
▁সর্বা	-10.7234
▁১৯২৪	-10.7234
্রিয়া	-10.7242
▁বোঝাতে	-10.7243
sch	-10.7246
▁খেলেন	-10.7255
ভবন	-10.7266
bu	-10.7273
▁জগৎ	-10.7274
▁সুস্থ	-10.7277
nn	-10.7282
▁আজারবাইজান	-10.7283
▁রেনেসাঁ	-10.7283
▁সংমিশ্রণ	-10.7283
▁কর্নেল	-10.7283
ইসলাম	-10.7284
চণ্ডী	-10.7285
▁ওয়ার্	-10.7286
▁জীবিকা	-10.729
▁৯১	-10.7301
▁পড়েছিল	-10.7304
▁পাত্র	-10.7304
▁হাড়	-10.7307
▁জগতের	-10.731
▁ঝু	-10.7311
বংশ	-10.7313
▁জেলে	-10.7314
▁বর্ষপঞ্জীর	-10.7316
রীতি	-10.7319
▁ইন্দ্র	-10.7329
ন্তা	-10.7332
▁কাশ্মীর	-10.7337
▁ষোড়শ	-10.7337
▁সন্ত্রাস	-10.7337
▁জার্সি	-10.7337
▁উল্লিখিত	-10.7337
▁চিন্তাধারা	-10.7338
ম্বে	-10.7344
ence	-10.7344
▁আবেগ	-10.7347
▁চিন	-10.7347
▁মৈ	-10.7362
▁অফিসে	-10.7366
▁ta	-10.7367
▁যেটা	-10.737
▁চাকমা	-10.7373
ban	-10.7373
বর্তন	-10.7378
▁সমাপ্ত	-10.7379
▁উপমহাদেশে	-10.7383
নিন	-10.7383
▁প্রত্যেকটি	-10.7384
ত্যাগ	-10.7386
▁ডেম	-10.7387
▁কক্সবাজার	-10.7391
▁সেনানিবাস	-10.7391
▁হস্তান্তর	-10.7391
▁কার্যকরী	-10.7406
▁ডাটা	-10.7408
▁লিগা	-10.7408
343	-10.7409
▁ঔ	-10.7413
ম্ম	-10.7415
▁পর্বতমালার	-10.7424
▁অন্ত	-10.7429
▁প্রস্তাবিত	-10.7437
▁খাতে	-10.744
টুকু	-10.7442
▁গিনি	-10.7444
প্রথম	-10.7445
▁হোয়াইট	-10.7445
▁সেনেগাল	-10.7445
▁সাউথ	-10.7445
▁ঠান্ডা	-10.7445
▁নিম্নলিখিত	-10.7445
▁রাধা	-10.7446
▁পর্দা	-10.7446
▁প্রকারের	-10.7448
▁১৯১১	-10.7451
▁সঙ্	-10.7452
▁১৯১৭	-10.7453
শক্তির	-10.7454
▁আন্দ	-10.7458
▁পর্বের	-10.746
▁দলগুলো	-10.7463
ায়ু	-10.7467
▁কিউবা	-10.7469
▁ফেনী	-10.747
ven	-10.7474
স্থাপিত	-10.7475
▁প্রাচীনকালে	-10.748
▁তত্ত্বাবধানে	-10.7481
▁গায়ে	-10.7491
টিভি	-10.7495
▁ডিস	-10.7496
▁সৈন্যদের	-10.7496
▁সচিব	-10.7499
▁ইন্দিরা	-10.7499
▁সতর্ক	-10.7499
▁বিড়াল	-10.7499
▁জোসেফ	-10.75
বিভক্ত	-10.7501
▁ভাষণ	-10.7501
▁নেতাদের	-10.7501
▁ক্লিনিক	-10.7504
▁অসম্ভব	-10.7504
▁১৯১৩	-10.7507
▁প্রজন্ম	-10.7509
▁মধ্যভাগে	-10.7514
▁বায়ো	-10.7515
▁বলবিজ্ঞান	-10.7517
সোর্স	-10.752
pro	-10.7521
▁অ্যাম	-10.7521
▁কেনিয়া	-10.7523
▁ভোটার	-10.7523
▁মহাভারত	-10.7523
বিধি	-10.7525
▁রাউ	-10.7525
‍	-10.7527
তুন	-10.7529
▁আমেরিকায়	-10.7532
ানী	-10.7536
▁নব্য	-10.7536
ন্তন	-10.7551
▁আরোপ	-10.7551
▁ওয়াট	-10.7552
▁সিংহাসনে	-10.7552
▁জমিতে	-10.7553
ধ্যা	-10.7553
▁চব্বিশ	-10.7554
▁বৈশ্বিক	-10.7554
▁মধ্যমাঠে	-10.7554
▁সার্কিট	-10.7554
গ্রাফ	-10.7554
▁প্রাচ্য	-10.7554
▁ফ্লাইট	-10.7554
▁আরাকান	-10.7555
▁ফাই	-10.7556
▁১৯৩৩	-10.7557
▁১৯৩২	-10.7557
ধী	-10.7566
কাত	-10.7567
▁খণ্ডে	-10.7572
হেল	-10.7574
▁সবগুলো	-10.7575
মন্ত্র	-10.7575
▁ওএস	-10.7578
ীকৃত	-10.759
ম্বু	-10.7591
▁পটার	-10.7593
▁পিয়ের	-10.7593
434	-10.7596
300	-10.7605
▁আগমনের	-10.7607
▁তাৎপর্য	-10.7609
▁ব্রোঞ্জ	-10.7609
▁অধ্যক্ষ	-10.7609
▁লাহোর	-10.7609
▁অজানা	-10.7609
▁ক্যুরি	-10.7609
▁পুস্তক	-10.7609
বিন্দু	-10.761
▁মানবাধিকার	-10.761
150	-10.7613
▁বাহামা	-10.7614
▁্যা	-10.7614
▁অক্টোবরে	-10.762
ক্রিপ্ট	-10.7624
▁অতীত	-10.7627
▁বন্ধুত্ব	-10.7627
স্পা	-10.763
▁ac	-10.7631
▁পর্যটকদের	-10.7636
থ্	-10.7636
▁পার্স	-10.7638
▁আফ	-10.764
▁9	-10.764
tal	-10.7641
▁ল্যান্ড	-10.7647
▁গীত	-10.7658
তিন	-10.766
list	-10.7662
▁বিবেকানন্দ	-10.7664
▁বোলৎসমান	-10.7664
▁সন্ধ্যা	-10.7664
▁গ্রাহক	-10.7664
▁ডোমিনি	-10.7664
▁ধর্মনিরপেক্ষ	-10.7665
▁ইন্দোর	-10.7666
▁সাদৃশ্য	-10.7666
▁কাই	-10.7667
za	-10.7667
নারায়ণ	-10.767
মানব	-10.7677
▁কচু	-10.7681
▁চট্টগ্রামে	-10.7684
▁ডাচ	-10.7687
রোধ	-10.7688
▁আইনি	-10.7691
▁বাদে	-10.7699
▁ব্রিটিশরা	-10.7699
▁প্রথাগত	-10.7699
যজ্ঞ	-10.7704
▁পারা	-10.7706
▁মুক্তির	-10.7706
দ্বার	-10.7707
▁আলোচিত	-10.7709
100	-10.771
▁তুলনামূলক	-10.7713
▁গামা	-10.7719
▁হিমোগ্লোবিন	-10.7719
▁ইয়ুভেন্তুস	-10.7719
▁উত্তোলন	-10.7719
▁প্রতিদ্বন্দ্বী	-10.7719
▁ফুসফুস	-10.7719
▁একুশে	-10.7719
▁পুনর্গঠন	-10.772
▁হাসিনা	-10.772
▁নারকেল	-10.772
▁বলি	-10.772
▁জীবাণু	-10.772
▁সনদ	-10.7724
▁মতই	-10.7724
▁অতিথি	-10.7726
art	-10.7726
▁গ্রি	-10.7726
ারী	-10.7728
▁গেয়ে	-10.7729
▁ফেব্রুয়ারিতে	-10.773
িস্তান	-10.7734
)|	-10.7736
▁সংঘাত	-10.7738
▁পরপর	-10.7738
▁স্থানটি	-10.7743
ানন্দ	-10.7744
▁গতিশীল	-10.7747
▁ফ্রা	-10.7751
পূ	-10.7752
▁তিনজন	-10.7753
নির্	-10.7756
হাটি	-10.7765
▁sp	-10.7767
▁নির্বাচনী	-10.7768
▁চালিত	-10.7769
▁রানী	-10.7769
▁নারায়ণ	-10.7771
▁সরিষা	-10.7775
▁ফিনল্যান্ড	-10.7775
▁কুরাইশ	-10.7775
▁তুর্কমেনিস্তান	-10.7775
▁জ্বর	-10.7776
▁তরঙ্গদৈর্ঘ্য	-10.7776
▁আহসান	-10.7776
▁উপসর্গ	-10.7777
▁শীতকালীন	-10.7777
ওয়ালা	-10.7778
▁নরম	-10.7779
▁উৎসাহিত	-10.7785
▁ইংল্যান্ডে	-10.7785
প্রকৃতি	-10.7785
▁পরিপূর্ণ	-10.7785
বিলি	-10.7786
▁দীর্ঘদিন	-10.7786
▁পাঠিয়ে	-10.7788
▁কাবুল	-10.779
▁উল্লেখযোগ্যভাবে	-10.7792
ফর্ম	-10.7795
সাধন	-10.7798
▁প্রাণীদের	-10.7805
lan	-10.7808
▁অন্ধ	-10.7811
▁মানবিক	-10.7819
▁আউট	-10.782
▁চুল	-10.7825
গাল	-10.7827
ব্যবহার	-10.783
▁প্রবর্তিত	-10.7831
▁বৃহস্পতি	-10.7831
▁ম্যাট্রিক্স	-10.7831
▁আগ্নেয়গিরি	-10.7831
▁বাড়তে	-10.7832
▁রেখেছিল	-10.7835
▁মূল্যায়ন	-10.7836
▁অন্তঃ	-10.7836
▁সঞ্চালন	-10.7837
▁জড়	-10.7843
▁ঘোষিত	-10.7848
▁৭ম	-10.7849
ten	-10.7852
▁রচনায়	-10.7857
পোলি	-10.7862
ওয়াই	-10.7865
▁7	-10.7865
▁২৫০	-10.7874
বড়	-10.7875
▁ইয়ে	-10.7881
▁ওভার	-10.7883
▁এ্যা	-10.7883
ea	-10.7884
_2	-10.7885
▁গোলরক্ষক	-10.7888
▁প্রাপ্তবয়স্ক	-10.7888
▁বাধ্যতামূলক	-10.7888
▁সাঁওতাল	-10.7888
▁we	-10.7888
▁দ্বিগুণ	-10.7889
▁অ্যানো	-10.789
▁বুদ্ধি	-10.7891
▁এশিয়ায়	-10.7892
▁১৯২৬	-10.7892
স্বাস্থ্য	-10.7894
রোগ	-10.7895
ভারতীয়	-10.7896
▁১৯১২	-10.7896
▁গবেষণাগার	-10.7899
653	-10.7914
156	-10.7916
▁মুক্তিযোদ্ধাদের	-10.7926
▁বিনা	-10.7927
▁গুল	-10.7928
▁মেলে	-10.7928
▁—	-10.7929
iv	-10.7941
▁ঔপন্যাসিক	-10.7945
▁দৃষ্টিকোণ	-10.7945
▁মোস্তফা	-10.7945
▁১৯৩১	-10.7948
▁নূর	-10.7951
নেতা	-10.7957
▁প্রবাসী	-10.7957
▁সাহারা	-10.7965
প্রদান	-10.7966
চর্চা	-10.7977
ড়িয়ে	-10.7979
▁ইলেকট্রনিক	-10.7982
▁ধীর	-10.7987
▁...	-10.7993
▁বন্য	-10.7993
▁সার্বভৌম	-10.7994
▁নিউক্লিয়	-10.8001
▁আত্মসমর্পণ	-10.8002
▁লেখালেখি	-10.8002
▁হঠাৎ	-10.8002
▁ম্যান্ডেলা	-10.8002
▁সৈনিক	-10.8002
▁নিরাপদ	-10.8002
▁অবতরণ	-10.8002
▁স্বয়ং	-10.8003
▁কাব্যগ্রন্থ	-10.8003
▁খেলেছেন	-10.8004
▁বিএনপি	-10.8007
▁সন্ন্যাসী	-10.8012
▁অ্যানা	-10.8012
▁১৯১০	-10.8013
▁15	-10.8019
▁লিপিতে	-10.8023
▁ভোজ	-10.8026
▁কানাডার	-10.8028
ষ্প	-10.8029
▁আকর্ষণীয়	-10.803
ভোগ	-10.8054
▁যোগ্য	-10.8054
▁মিয়ানমার	-10.8059
▁সমীক্ষা	-10.8059
▁ড্রাইভ	-10.806
▁দশটি	-10.806
▁ব্যাবিলন	-10.806
▁খ্রিস্টধর্ম	-10.8061
সঙ্গ	-10.8061
▁১৯২৫	-10.8065
▁দরবার	-10.8067
▁শপথ	-10.807
▁নদীটি	-10.8072
▁ভিতর	-10.8073
▁বেষ্টিত	-10.8074
▁১২০	-10.8074
▁গ্রহণযোগ্য	-10.8078
ze	-10.808
pp	-10.8084
▁উন্নয়নে	-10.8089
309	-10.8097
▁আমির	-10.8097
▁ছায়া	-10.8098
াইয়ের	-10.8108
▁তখনও	-10.8114
▁ইরিডিয়াম	-10.8117
▁চ্যালেঞ্জ	-10.8117
▁প্রযোজ্য	-10.8117
▁গুজরাত	-10.8117
▁জনবসতি	-10.8117
▁এস্তোনিয়া	-10.8117
▁১৯২৩	-10.8122
মৃত্যু	-10.8125
▁১৯১৪	-10.8126
▁সমতা	-10.8127
▁ট্রফি	-10.8127
▁সেখানকার	-10.8127
েটেড	-10.8128
▁উচ্চভূমি	-10.8131
▁ফন	-10.8131
▁শিক্ষিত	-10.8132
▁সত্তা	-10.8133
▁বিভাগীয়	-10.8133
▁সরু	-10.8138
▁সিনা	-10.8141
hat	-10.8145
▁দেশীয়	-10.8154
সদৃশ	-10.8155
ড্রো	-10.8167
ip	-10.8175
▁ছোটগল্প	-10.8175
▁ধ্বংসাবশেষ	-10.8175
▁বৈষ্ণব	-10.8175
▁সূক্ষ্ম	-10.8175
▁প্রতিফলন	-10.8175
জ্ঞান	-10.8176
ial	-10.8176
▁রেজিমেন্ট	-10.8177
▁মূল্যবান	-10.8179
নৈতিক	-10.8179
▁উৎসর্গ	-10.8179
ern	-10.8179
গণিত	-10.8189
▁সাম্যবাদী	-10.8195
ধারী	-10.8201
▁হেম	-10.8202
▁সেচ	-10.8203
▁যুবক	-10.8213
এফসি	-10.8216
সঙ্গত	-10.8223
▁পানীয়	-10.8224
▁নায়ক	-10.8226
▁খ্রিষ্ট	-10.823
▁টর্নেডো	-10.8234
▁তানজানিয়া	-10.8234
▁শৃঙ্গ	-10.8234
▁অভিনীত	-10.8234
▁ভালোবাসা	-10.8234
▁নওগাঁ	-10.8234
▁নগরীর	-10.8234
▁স্ট্যান্ডার্ড	-10.8234
▁ফজলুল	-10.8235
▁১১টি	-10.8237
▁জিম	-10.8242
▁ঘড়ি	-10.8244
বাস্তব	-10.8245
▁দশমিক	-10.8246
▁মেট্রিক	-10.8248
মাধব	-10.8252
আউট	-10.8253
▁চাচা	-10.826
ডেন্ট	-10.8265
সিদ্ধ	-10.8269
চ্ছেদ	-10.8277
kar	-10.8285
▁জাভা	-10.8285
▁বিলুপ্তি	-10.8286
nagar	-10.8287
▁ছাদ	-10.829
▁ত্রিনিদাদ	-10.8293
▁দুর্ভিক্ষ	-10.8293
▁মিউজিয়াম	-10.8293
▁জ্বালানি	-10.8293
▁বিষুব	-10.8293
▁সনাতন	-10.8293
▁খেতাব	-10.8293
▁ম্যাক্সওয়েল	-10.8293
▁ঘটতে	-10.8293
▁ফিলিপাইন	-10.8293
▁তিরানা	-10.8293
▁বিদেশি	-10.8293
▁মানিক	-10.8294
▁রাষ্ট্রভাষা	-10.8297
▁১৯০৪	-10.8297
▁অভিযানে	-10.8298
▁আন্ত	-10.8303
▁গণিতে	-10.8309
▁বদর	-10.831
নাইট	-10.8312
▁স্বামীর	-10.8318
▁তামাক	-10.8321
▁তেমনি	-10.8332
▁লং	-10.8332
436	-10.8332
202	-10.8334
▁তোলার	-10.8348
▁ফ্রান্সে	-10.835
▁from	-10.8352
▁ইংলিশ	-10.8352
▁পরিলক্ষিত	-10.8352
▁রচয়িতা	-10.8352
▁স্বায়ত্তশাসিত	-10.8352
▁উত্তরপ্রদেশ	-10.8352
▁কম্পাঙ্ক	-10.8352
হিম	-10.8353
▁নারায়ণগঞ্জ	-10.8354
দেশীয়	-10.8354
▁পরিচালনায়	-10.8354
▁বিশ্বকোষ	-10.8357
▁উপত্যকায়	-10.8364
▁পুন	-10.8373
▁bu	-10.8373
ure	-10.8374
▁সুরকার	-10.8375
লগ্ন	-10.8378
বিধ	-10.8381
ফেল	-10.8381
▁গলা	-10.8384
▁৫ম	-10.8385
▁করেনি	-10.839
▁বর্ম	-10.8393
▁বুল	-10.8399
▁ফ্রান্সিস	-10.8401
সামঞ্জস্য	-10.8411
▁বণ্টন	-10.8411
▁ধনাত্মক	-10.8412
▁দিতেন	-10.8413
ku	-10.8414
ger	-10.8419
▁সপ্তাহের	-10.842
▁প্রযুক্তিগত	-10.842
▁বেতন	-10.8426
▁পৃষ্ঠপোষক	-10.8428
▁একদল	-10.8435
▁শীর্ষে	-10.8446
▁বাবু	-10.8447
কোয়া	-10.8454
▁বাকী	-10.8455
▁লিওন	-10.8462
গঙ্গা	-10.8466
ডাই	-10.8468
▁ঘটান	-10.8469
▁জংশন	-10.8471
▁ডিভাইস	-10.8471
ব্রাহ্মণবাড়িয়া	-10.8472
▁ভুট্টা	-10.8472
▁বিল্ডিং	-10.8472
দ্রি	-10.8473
▁অধীনস্থ	-10.8473
অব	-10.8473
▁টেবিল	-10.8474
▁সিরাজগঞ্জ	-10.8474
▁১৯৩৫	-10.8475
▁অন্ধকার	-10.8477
▁অভিন্ন	-10.8478
গ্রস্ত	-10.8479
▁ট্রেড	-10.848
খো	-10.8488
▁খন্ড	-10.8493
▁দীর্ঘতম	-10.8493
▁মধ্যকা	-10.8498
প্রাণ	-10.8508
▁দারু	-10.8515
ফিন	-10.8521
▁আশেপাশে	-10.8521
▁মশা	-10.8523
▁যথাযথ	-10.8531
▁সাজানো	-10.8532
▁প্রিন্সিপি	-10.8532
▁নেতৃত্বাধীন	-10.8532
▁চিত্রনাট্য	-10.8533
▁১৯০৮	-10.8535
▁মাস্টার্স	-10.8536
▁ফকির	-10.8537
মেল	-10.8537
▁পানামা	-10.8538
▁গৌরব	-10.8539
▁প্রজন্মের	-10.8541
▁মাসিক	-10.8541
নির্ভর	-10.8545
out	-10.8545
▁জাহান	-10.8553
▁ভাইয়ের	-10.8556
▁কালা	-10.8561
lin	-10.8572
▁লড়াইয়ে	-10.8574
▁নাসির	-10.8582
▁তত্ত্বাবধায়ক	-10.8592
▁পাণ্ডুলিপি	-10.8592
▁মেদিনীপুর	-10.8592
▁শীঘ্রই	-10.8592
▁ইভেন্ট	-10.8592
▁ছত্রাক	-10.8592
▁স্মিথ	-10.8592
▁টুরিং	-10.8598
▁পাহাড়ি	-10.8598
▁বেরিয়াম	-10.86
▁হচ্ছিল	-10.86
▁নর্থ	-10.8603
▁প্রতিবছর	-10.8603
▁দক্ষিণাঞ্চল	-10.8604
▁ক্রমে	-10.8609
▁তখনকার	-10.8624
এসএস	-10.8624
shi	-10.8625
▁সঠিকভাবে	-10.8625
591	-10.8627
▁সঙ্গী	-10.8628
▁jo	-10.8631
ট্টা	-10.8631
▁দণ্ড	-10.8634
▁আদান	-10.8637
▁এবার	-10.8639
▁বিস্তৃতি	-10.864
▁আংশিক	-10.8644
পাশে	-10.8647
মাত্রিক	-10.8649
গাছ	-10.865
▁অধিষ্ঠিত	-10.8653
▁সম্পাদিত	-10.8653
▁আব্বাস	-10.8653
▁মাঝারি	-10.8654
ুজ্জামান	-10.8654
oc	-10.8655
▁টাইমস	-10.8658
▁মারাঠা	-10.8658
ব্রত	-10.8658
ংগ	-10.866
▁ডেটা	-10.8662
rt	-10.8662
▁লিপ্ত	-10.8664
▁অস্থি	-10.8664
▁সাময়িকী	-10.8667
▁ঘটনাটি	-10.8669
▁মহাদেশীয়	-10.8671
mer	-10.8674
▁অর্থায়ন	-10.868
▁দেখ	-10.8687
▁বিপদ	-10.8691
▁ছাপ	-10.8696
sta	-10.8706
▁আর্ক	-10.8713
▁কাল্পনিক	-10.8714
▁পটুয়াখালী	-10.8714
▁ঘটিয়ে	-10.8714
▁পঞ্চাশ	-10.8715
▁লাওস	-10.8718
▁আজিজ	-10.8718
▁স্বচ্ছ	-10.8719
ন্ত্র	-10.8728
ভ্	-10.8729
ম্ফ	-10.873
ism	-10.873
মুসলিম	-10.873
▁উরব	-10.8734
▁বিজ্ঞানীদের	-10.8744
▁খ্রি	-10.8745
▁গুহা	-10.8748
▁থাকতেন	-10.8765
▁do	-10.8767
▁ব্যবহারিক	-10.8773
▁শাল	-10.8774
ক্ষিপ্ত	-10.8775
▁জ্যোতিষ	-10.8776
▁প্রাতিষ্ঠানিক	-10.8776
▁বিবৃতি	-10.8776
▁রাফায়েল	-10.8776
▁উঠতে	-10.8776
▁বিবিসি	-10.8776
▁চলাকালীন	-10.8778
▁অনুচ্ছেদ	-10.8778
▁কৃষিকাজ	-10.878
▁জীবনযাত্রা	-10.8782
▁তাঁরা	-10.8792
▁চুক্তিতে	-10.8794
▁বিরতি	-10.8799
সুন্দর	-10.8804
পিয়া	-10.8805
▁মনি	-10.8809
▁খড়	-10.8811
উদ	-10.882
▁প্রসঙ্গে	-10.8821
গেট	-10.8827
▁জিও	-10.8838
▁অনুপ্রেরণা	-10.8838
▁ইতিমধ্যে	-10.8838
▁পরিপ্রেক্ষিতে	-10.8838
▁ব্যাসার্ধ	-10.8838
▁অবৈধ	-10.8838
▁দফতর	-10.8838
▁ইন্টারফেস	-10.8838
▁অংশীদার	-10.8838
▁মিথ্যা	-10.8841
প্রেম	-10.8841
পার্ট	-10.8842
▁আবৃত	-10.8843
▁কৌ	-10.8849
এসআই	-10.885
▁টেনেসি	-10.8851
ous	-10.8851
▁পূর্ববঙ্গ	-10.8852
▁শিবির	-10.8857
▁ক্রমশ	-10.8859
▁প্রাগ	-10.886
গুয়ে	-10.8861
কুণ্ড	-10.8866
▁পরিবেশগত	-10.8866
▁নিষ্	-10.8868
কান্দি	-10.8869
▁বইয়ে	-10.887
ড্রি	-10.887
▁বামন	-10.8871
▁শুক	-10.8875
ish	-10.8887
▁মহাসাগরে	-10.8889
form	-10.8891
▁গোলটি	-10.8897
▁স্লোভেন	-10.8901
▁কেমব্রিজ	-10.8901
▁গম্বুজ	-10.8901
▁ভৈরব	-10.8901
▁সহিংসতা	-10.8901
▁স্যাটেলাইট	-10.8901
▁রামকৃষ্ণ	-10.8903
▁পরিধান	-10.8903
যো	-10.8905
▁পরিধি	-10.8906
▁থিওরি	-10.8907
▁আমিন	-10.8908
▁দেবতাদের	-10.8912
▁স্ট্যান্ড	-10.8914
সূচক	-10.8917
প্রযুক্তি	-10.8919
▁মোড়	-10.8925
▁ফেলেন	-10.8926
▁সুদান	-10.8927
▁জার্মানিতে	-10.8927
▁চাঁদপুর	-10.8928
ক্ষিত	-10.8935
িংটন	-10.8935
▁হাওয়া	-10.8936
্তা	-10.8947
▁পাড়ে	-10.8956
সাম্প্রদায়িক	-10.8964
▁ইব্রাহিম	-10.8964
▁পিরোজপুর	-10.8964
▁রক্ষণাবেক্ষণ	-10.8964
▁সর্বজনীন	-10.8964
▁স্বায়ত্তশাসন	-10.8964
▁প্রযোজনা	-10.8964
▁পাইলট	-10.8964
▁তথ্যসূত্র	-10.8969
▁সংসার	-10.8972
mes	-10.8972
▁শহরগুলির	-10.8973
▁new	-10.8978
▁ফাঁক	-10.898
▁বুশ	-10.8988
▁আর্টস	-10.8988
▁মধুপুর	-10.8989
▁দ্বার	-10.8994
▁থাক	-10.8995
▁মালয়	-10.8996
▁পরপরই	-10.9
▁অ্যাস	-10.9001
▁কিউব	-10.9009
▁প্লেট	-10.901
656	-10.9013
▁অটোয়া	-10.9015
▁অস্বাভাবিক	-10.9027
▁ভিক্টোরিয়া	-10.9027
▁স্বয়ংক্রিয়	-10.9027
▁স্মৃতিসৌধ	-10.9027
▁কনসার্ট	-10.9027
▁বাদ্যযন্ত্র	-10.9027
▁সিনিয়র	-10.9027
▁যিশু	-10.9027
bangladesh	-10.9027
▁জ্যোতিষশাস্ত্র	-10.9027
▁হরপ্পা	-10.9027
▁ফোর্স	-10.9028
▁দুইজন	-10.9029
▁বনাঞ্চল	-10.9029
▁সমুদ্রপৃষ্ঠ	-10.9029
▁উপভোগ	-10.903
▁হেমন্ত	-10.9031
▁ধর্মবিশ্বাস	-10.9031
▁১৯২৭	-10.9032
োত্তর	-10.9033
▁ফ্রন্ট	-10.9035
▁আরম্ভ	-10.9038
ঢ	-10.9043
বার্ষিক	-10.9046
▁দীপ	-10.9047
পদার্থ	-10.9048
▁৬ষ্ঠ	-10.9054
650	-10.9057
▁গেলেও	-10.906
600	-10.9069
চ্ছিল	-10.9071
▁পৃষ্ঠপোষকতা	-10.9072
▁জেল	-10.9074
▁পৃষ্ঠা	-10.9074
▁ফ্ল্যা	-10.9075
রাশি	-10.9084
▁সৎ	-10.9084
▁বড়ো	-10.9087
▁মনোবিজ্ঞান	-10.9088
▁সম্প্রসারিত	-10.9091
▁অত্যাচার	-10.9091
▁দাখিল	-10.9091
▁অয়লার	-10.9091
গড়া	-10.9094
▁পুরোহিত	-10.9095
▁ফাইবার	-10.9095
▁এদেশে	-10.9096
▁মস্কো	-10.9097
if	-10.9102
▁ফ্রেড	-10.9107
পুরী	-10.9109
▁ব্যাঙ্ক	-10.9113
প্রি	-10.9115
▁ব্র্যা	-10.912
pu	-10.9128
▁বাঁক	-10.9132
▁জোন	-10.9133
▁বাবর	-10.9135
▁district	-10.9155
▁পঞ্জিকা	-10.9155
▁প্রকাশক	-10.9155
▁নাগরিকদের	-10.9155
▁ঋণাত্মক	-10.9156
▁ইয়েমেন	-10.9156
▁অধ	-10.9159
▁ওসমান	-10.916
স্তো	-10.9161
▁গোল্ড	-10.9166
▁জাদু	-10.9167
▁উঠা	-10.9168
6%	-10.9169
ath	-10.9172
বাণিজ্য	-10.9175
পদ্ধতি	-10.9175
ডাল	-10.9181
▁পাতলা	-10.9181
▁২০শ	-10.9183
▁নষ্ট	-10.9189
129	-10.9189
▁ডিস্ক	-10.9196
▁রিগা	-10.92
▁নিম্নরূপ	-10.9204
▁খুলে	-10.9207
▁পাড়ি	-10.9212
▁ল্যাব	-10.9215
ডাঙ্গা	-10.9218
রৈখিক	-10.9219
▁ইউরেনিয়াম	-10.9219
▁বুরুন্ডি	-10.9219
▁পর্যাপ্ত	-10.9219
▁লাগানো	-10.9219
▁ক্যামেরা	-10.922
▁উইকেট	-10.922
▁হত্যাকাণ্ড	-10.9221
▁বাসভবন	-10.9222
▁রাজবাড়ী	-10.9224
ুরিয়া	-10.9225
কার্ড	-10.9229
▁৪র্থ	-10.9231
য়েভ	-10.9234
ik	-10.9243
▁পিংক	-10.9249
▁বাণী	-10.925
ট্র্যাক	-10.927
▁অন্যদের	-10.9271
▁২১শ	-10.9276
▁সরণ	-10.9279
▁পারত	-10.928
▁ক্রীতদাস	-10.9284
▁নিউইয়র্ক	-10.9284
▁পার্লামেন্ট	-10.9284
▁মুহূর্ত	-10.9284
▁বর্জ্য	-10.9284
▁লাইসেন্স	-10.9284
▁জরুরি	-10.9284
▁গণভোট	-10.9284
▁বর্ণালী	-10.9284
▁স্কটিশ	-10.9285
▁গ্লোব	-10.9285
▁হিলিয়াম	-10.9286
▁খ্রিষ্টান	-10.9286
▁বিচ্ছিন্নতা	-10.9301
ee	-10.9306
মুক্তি	-10.9307
গৃহ	-10.9308
গেল	-10.932
ঞ্চা	-10.9325
▁মনোভাব	-10.9333
▁চুরি	-10.9334
▁it	-10.9339
▁৬০০	-10.9339
ব্ব	-10.9345
▁ঊর্ধ্ব	-10.9349
▁কমনওয়েলথ	-10.9349
▁ভট্টাচার্য	-10.9349
▁বিজেপি	-10.9349
▁কণিকা	-10.935
▁ক্রান্তীয়	-10.935
▁মক্কায়	-10.935
▁মাসুদ	-10.9352
সরকার	-10.9355
▁আরএনএ	-10.9357
▁ইউরোপিয়ান	-10.9359
▁ঐতিহ্যগতভাবে	-10.936
▁উপরন্তু	-10.9361
▁ফিজি	-10.9363
▁পরিবর্তনশীল	-10.9364
▁অসুস্থতা	-10.9365
▁নাগরিকত্ব	-10.9367
লেক্স	-10.9373
▁ছাত্রী	-10.9378
ফ্লা	-10.9378
সাঁউ	-10.9382
ষ্ম	-10.9383
▁মেগা	-10.9383
▁সুনাম	-10.9385
মারি	-10.9388
ন্দিতা	-10.9392
tho	-10.9393
▁পৌঁছানো	-10.9393
▁আনু	-10.9393
▁ইংরেজদের	-10.9399
জাপান	-10.9402
বাবু	-10.9403
pl	-10.9404
ste	-10.9408
▁mar	-10.9413
▁ভবিষ্যৎ	-10.9415
▁গন্তব্য	-10.9415
▁with	-10.9415
▁গেরিলা	-10.9415
▁হাদীস	-10.9415
▁ডব্লিউ	-10.9419
▁কেন্দ্রবিন্দু	-10.9419
▁ন্যাটো	-10.942
▁পরিশোধ	-10.942
▁বস্ত্র	-10.9426
▁পত্রিকাটি	-10.9429
▁স্বভাব	-10.9432
ham	-10.9439
দ্বিতীয়	-10.944
▁একাডেমিক	-10.9441
সম্পদ	-10.9444
▁মর্	-10.9446
uni	-10.945
▁কালাম	-10.9452
▁সাড়	-10.9454
▁সাময়িক	-10.9466
পেক্ষা	-10.9477
পুঞ্জ	-10.9479
▁ইতিবাচক	-10.9481
▁গোলার্ধে	-10.9481
▁নিষ্কাশন	-10.9481
▁বঙ্গাব্দ	-10.9481
▁কন্সাল	-10.9481
▁কোয়ার্টার	-10.9481
▁স্মারক	-10.9482
▁পার্বতী	-10.9482
▁লিখন	-10.9482
▁সুন্নি	-10.9482
▁স্বাস্থ্যসেবা	-10.9483
▁অভিধান	-10.9483
▁বাড়ানো	-10.9484
ভাণ্ডার	-10.9487
উল্লাহ	-10.9489
▁বদ্বীপ	-10.949
int	-10.9491
▁দ্যা	-10.9495
ংগা	-10.9501
পঞ্চ	-10.9503
▁বছরগুলিতে	-10.9504
প্লে	-10.9505
▁পরিস্থিতিতে	-10.9506
পাকিস্তান	-10.9507
চারী	-10.9513
▁থাই	-10.9517
▁গারো	-10.952
▁আফ্রিকায়	-10.9522
দুটি	-10.9524
যোজন	-10.9524
▁দাশ	-10.9538
শীলতা	-10.9546
▁গোপালগঞ্জ	-10.9548
▁দূষণ	-10.9548
▁ন্যস্ত	-10.9548
▁আলজেরিয়া	-10.9548
san	-10.9549
▁জুলু	-10.9552
▁খ্রিষ্টপূর্ব	-10.9552
▁সাহিত্যকর্ম	-10.9553
▁আজম	-10.9554
▁অভিযুক্ত	-10.9557
▁কেন্দ্রস্থল	-10.9562
▁was	-10.9564
▁ইহা	-10.9565
▁আচার্য	-10.9565
▁পূর্বদিকে	-10.9568
েন্সি	-10.9577
জুড়ে	-10.9581
▁সৈন্যরা	-10.9583
গীতি	-10.9593
▁শাক	-10.9595
kha	-10.9601
্নে	-10.9605
▁দাদা	-10.9608
▁ধারক	-10.961
ইবেরিয়া	-10.9611
garh	-10.9613
▁মেসোপটেমিয়া	-10.9615
▁হাইকোর্ট	-10.9615
▁ইহুদী	-10.9615
▁শিকাগো	-10.9615
▁পুঁজি	-10.9615
▁বহিঃসংযোগ	-10.9615
বেস	-10.9616
411	-10.9616
▁অধিগ্রহণ	-10.9616
▁উদ্বেগ	-10.9616
594	-10.9617
▁বৎসর	-10.9617
াকৃতির	-10.962
▁অসুবিধা	-10.9621
▁পারতেন	-10.9623
বাচক	-10.963
▁are	-10.9631
▁দীন	-10.9631
সাইড	-10.9634
▁লুট	-10.9635
▁কমিশনার	-10.9635
rat	-10.9639
ভূষণ	-10.9643
▁প্রতিষ্ঠানটি	-10.9651
▁অস্ট্র	-10.9653
▁জর্জিয়া	-10.9654
ণ্ট	-10.9654
পানি	-10.9655
োসিস	-10.9656
▁ঘুম	-10.9662
▁ট্রাস্ট	-10.9665
▁রানা	-10.9669
▁অধ্যাপনা	-10.9683
▁আইসোটোপ	-10.9683
▁আয়োজক	-10.9683
▁ডাম্বলডোর	-10.9683
▁পিরামিড	-10.9683
▁বাস্কেটবল	-10.9683
▁স্যামসাং	-10.9683
▁জ্বাল	-10.9683
▁বিদ্যুত	-10.9683
▁বিদ্যাসাগর	-10.9683
▁তুলতে	-10.9684
▁শহরতলি	-10.9685
▁রাজাদের	-10.9686
▁আইনজীবী	-10.9687
▁শ্ল	-10.969
ple	-10.9697
ব্রো	-10.9697
▁বক্তা	-10.97
▁ঘাটতি	-10.9701
দাদ	-10.9705
▁দুইবার	-10.9706
চ্ছা	-10.9707
▁উল্লেখিত	-10.9712
ক্রান্ত	-10.9712
cal	-10.9725
ton	-10.9738
▁উত্স	-10.9747
ive	-10.9749
▁প্রফেসর	-10.9751
▁জলাভূমি	-10.9751
▁আইসল্যান্ড	-10.9751
▁বিনামূল্যে	-10.9751
▁মাঝখানে	-10.9751
▁মৌর্য	-10.9751
▁টিস্যু	-10.9751
▁অ্যাসিটিক	-10.9751
▁রোবট	-10.9751
ভাষিক	-10.9752
▁খোঁজ	-10.9753
▁এশিয়ান	-10.9756
▁রাজত্বকালে	-10.9759
▁পরীক্ষামূলক	-10.9763
▁সোয়া	-10.9766
▁শেষভাগে	-10.9766
▁স্বাক্ষরিত	-10.9773
▁ব্র্যান্ড	-10.9778
মানুষ	-10.978
▁dis	-10.9782
▁ভবনটি	-10.9784
▁সম্মানিত	-10.9784
পালন	-10.9785
শায়ার	-10.9788
602	-10.9795
▁কাচ	-10.9809
▁দরজা	-10.9812
ide	-10.9813
▁ডক্টর	-10.9818
▁কোলন	-10.9819
▁উদযাপন	-10.9819
▁সুপ্রিম	-10.9819
▁মসজিদটি	-10.9822
▁চিত্রশিল্পী	-10.9823
▁সংস্থাটি	-10.9827
120	-10.983
gram	-10.983
▁হাওর	-10.9832
▁ভাষাবিজ্ঞানী	-10.9836
▁ফেরার	-10.9839
▁শুক্র	-10.984
cor	-10.9841
▁নিচু	-10.9842
প্প	-10.9846
▁আর্থ	-10.9848
ভার্স	-10.9857
বিধান	-10.9864
▁আনতে	-10.9865
_3	-10.9885
চাপ	-10.9885
প্পা	-10.9886
▁আত্মহত্যা	-10.9888
▁সংস্পর্শে	-10.9888
▁মৃত্যুদণ্ড	-10.9888
▁সন্ধি	-10.9888
port	-10.9889
▁হিব্রু	-10.9889
ওয়্যার	-10.989
▁পাচ্ছে	-10.9894
▁অদৃশ্য	-10.9898
▁শামসু	-10.99
▁খেতে	-10.9906
▁তিল	-10.9914
▁দলিল	-10.9918
▁অঙ্কন	-10.992
▁মস	-10.9926
গেন	-10.9939
বেরি	-10.9947
▁রেখেছেন	-10.9947
▁স্মরণে	-10.9951
▁চতুর্	-10.9954
▁আবদুল্লাহ	-10.9958
▁স্থগিত	-10.9958
▁স্বতঃসিদ্ধ	-10.9958
world	-10.9958
▁টিনটিন	-10.9958
▁পরোক্ষ	-10.9958
▁ফ্যাক্টর	-10.9958
▁পাকবাহিনী	-10.9959
প্রিয়	-10.9959
▁pri	-10.9963
▁আপেল	-10.9963
▁লেখকদের	-10.9966
▁কোলা	-10.9966
ণ্ডা	-10.9969
▁বেগুন	-10.9976
▁আবাদ	-10.9988
▁যো	-10.999
চতুর্থাংশ	-10.9992
ওয়াদ	-11.0006
101	-11.0006
▁আব্দু	-11.0016
▁অনূদিত	-11.0028
▁মিথস্ক্রিয়া	-11.0028
▁গৌতম	-11.0028
▁লঙ্ঘন	-11.0028
▁চত্বর	-11.0028
▁মুখ্যমন্ত্রী	-11.0028
টোবাগো	-11.0028
▁বাহক	-11.0031
▁ঘরোয়া	-11.0031
▁ছোটবেলা	-11.0032
▁ধর্মগ্রন্থ	-11.0033
স্কোপ	-11.0035
▁নাট্যকার	-11.0038
▁বলকান	-11.0038
ূল	-11.0038
▁জন্মদিন	-11.0057
নন্দিন	-11.0059
দৈর্ঘ্য	-11.0059
▁লেন্স	-11.0064
▁অংশগ্রহণকারী	-11.0066
▁মাইন	-11.0067
▁ঘন্টা	-11.0073
এক্স	-11.0077
আমার	-11.0081
▁অধুনা	-11.0088
▁তালিন	-11.0093
▁এক্সচেঞ্জ	-11.0098
▁তন্মধ্যে	-11.0098
▁বাহ্যিক	-11.0098
▁ল্যাবরেটরি	-11.0098
▁লাটভিয়া	-11.0098
▁টুকরো	-11.0098
▁খ্রীষ্ট	-11.0098
▁সমবায়	-11.0099
▁কারাগারে	-11.0099
▁গোল্ডেন	-11.01
▁দূরবর্তী	-11.01
▁‘‘	-11.0101
এফএ	-11.0102
▁গন্ধ	-11.011
▁গীতি	-11.0111
▁খায়	-11.0117
বৃদ্ধি	-11.0127
ঝা	-11.0132
সংযোগ	-11.0136
▁চালান	-11.0148
▁ক্লে	-11.0149
ম্মা	-11.0151
▁বিচারক	-11.0158
ron	-11.016
▁কমিয়ে	-11.0163
▁গাজী	-11.0167
▁বিন্দুতে	-11.0168
▁নিখুঁত	-11.0169
▁প্রশংসিত	-11.0169
▁বান্দরবান	-11.0169
▁লিভারপুল	-11.0169
▁শীর্ষস্থানীয়	-11.0169
▁ভার্জিনিয়া	-11.0169
▁মন্ত্রিসভা	-11.0169
▁সজ্জিত	-11.0169
▁পিতামাতা	-11.017
▁ষাট	-11.017
▁মালদ্বীপ	-11.017
▁বৈচিত্র্যময়	-11.0171
▁বিদায়	-11.0172
▁অবরোধ	-11.0173
▁প্রচারণা	-11.0174
▁ভক্তি	-11.0176
দন্ত	-11.0177
▁১৯১৬	-11.0179
sing	-11.0181
▁কেজি	-11.0187
▁প্রাইম	-11.0191
▁আপনি	-11.0199
হাব	-11.0204
▁এভাবেই	-11.0216
105	-11.0218
আইপি	-11.0219
▁বিশ্বাসী	-11.0222
▁কম্পিউট	-11.023
tive	-11.0232
▁স্বদেশ	-11.0237
সবার্গ	-11.0238
▁সামা	-11.024
▁নেতিবাচক	-11.024
▁ফিল্মফেয়ার	-11.024
▁বৈষম্য	-11.024
▁হিলবের্ট	-11.024
▁ডেপুটি	-11.024
▁শরীফ	-11.0241
▁বর্জন	-11.0241
▁বয়স্ক	-11.0241
▁বাছাই	-11.0241
▁অগাস্ট	-11.0242
▁প্রেক্ষাপটে	-11.0243
▁কুয়েত	-11.0244
▁অপরদিকে	-11.0245
▁১৯০১	-11.0246
▁ময়না	-11.0246
▁খেয়ে	-11.0249
▁পদার্থবিদ্যা	-11.025
▁ময়দান	-11.0251
▁১৯১৫	-11.0252
▁আপনার	-11.0257
সার্বিয়া	-11.0275
ট্রে	-11.0276
▁পুরু	-11.0289
▁ক্রুসেড	-11.0304
▁আর্দ্রতা	-11.031
▁প্রযোজক	-11.0312
▁সার্বজনীন	-11.0312
▁ডেস্কটপ	-11.0312
▁রক্ষণশীল	-11.0312
▁সুরিনাম	-11.0312
▁পরবর্তিত	-11.0312
▁দুর্গাপূজা	-11.0313
▁রাস্তায়	-11.0313
সংস্থা	-11.0313
▁সারণী	-11.0315
▁ক্ষমা	-11.0316
▁ঐতিহ্যগত	-11.0317
ঘো	-11.0322
▁স্কোর	-11.0328
341	-11.0328
▁হেরা	-11.0329
▁ক্ষুদ্রতম	-11.033
▁রোগীদের	-11.0352
▁বালক	-11.0358
▁প্রক্রিয়াটি	-11.0367
▁অপারেটর	-11.0385
▁উত্তরসূরি	-11.0385
▁রাঙ্গামাটি	-11.0385
▁জার্নাল	-11.0385
▁কুকুর	-11.0386
▁১৯০৩	-11.039
▁বনভূমি	-11.0391
▁গর্ত	-11.0398
▁লেবু	-11.0403
াচার্য	-11.0404
▁রসায়নবিদ	-11.0409
▁মহি	-11.0409
▁সেনাবাহিনীতে	-11.0411
▁দেড়	-11.0411
▁গভীরতা	-11.0416
মন্দির	-11.0426
▁তুর্ক	-11.043
দেবতা	-11.0435
▁সার্ব	-11.0437
▁সাক্ষাত	-11.0443
▁সাইকেল	-11.0449
▁অ্যাকিলিস	-11.0458
▁জলপ্রপাত	-11.0458
▁পেট্রোলিয়াম	-11.0458
▁প্রেক্ষিতে	-11.0458
▁সমাবর্তন	-11.0458
▁ভাষ্য	-11.0458
▁নওয়াব	-11.0458
▁ত্বরণ	-11.0458
▁সুভাষচন্দ্র	-11.0458
▁ফ্লয়েড	-11.0459
▁পোষণ	-11.046
▁that	-11.046
▁তুলেছে	-11.0463
▁নির্ভরযোগ্য	-11.0465
▁রকেট	-11.0466
▁প্রয়াস	-11.0467
▁আবর্তন	-11.0468
অপ	-11.0471
▁চাইলে	-11.0472
▁উপদেশ	-11.0474
▁তুলা	-11.0476
aga	-11.0476
দুয়ার	-11.0477
▁প্রসঙ্গ	-11.0482
▁লক্ষ্মী	-11.0488
▁১৮৯০	-11.0489
‘	-11.0494
▁খাজা	-11.0495
▁সংস্থাগুলি	-11.0499
▁১৬শ	-11.0502
for	-11.0509
অর্থ	-11.051
ম্বল	-11.0512
▁মেধা	-11.0519
▁রথ	-11.0523
পাট	-11.0523
নাট্য	-11.0525
▁মাঝ	-11.0525
▁ঘোর	-11.0527
▁উত্তপ্ত	-11.0531
▁টেক্সাস	-11.0531
▁যাদুঘর	-11.0531
▁হিটলার	-11.0531
▁সর্বশ্রেষ্ঠ	-11.0532
▁মালদহ	-11.0533
▁নিবাস	-11.0536
men	-11.0538
▁নিম্নভূমি	-11.0538
▁উচ্চশিক্ষা	-11.0538
চ্ছন্ন	-11.0538
▁নাবিক	-11.0539
▁শাসকদের	-11.0547
▁রাজ্যটি	-11.0567
▁সতী	-11.0568
ডিপি	-11.0572
লুকা	-11.0572
formula	-11.0572
▁সাড়া	-11.0581
▁জ্যোতির্	-11.0582
▁নির্বাহ	-11.0584
শাখা	-11.0586
শিয়াল	-11.0601
▁দীর্ঘস্থায়ী	-11.0605
▁প্রোটেস্ট্যান্ট	-11.0605
▁সহস্রাব্দ	-11.0605
▁হার্ভার্ড	-11.0605
▁ডিভিশন	-11.0605
▁মুদ্রিত	-11.0605
▁সংবলিত	-11.0605
▁বরাদ্দ	-11.0605
▁দম্পতি	-11.0605
▁উৎপাদক	-11.0605
▁আশ্রম	-11.0606
▁শিলালিপি	-11.0606
▁গার্ডেন	-11.0607
▁পুনরাবৃত্তি	-11.0608
▁যাচাই	-11.061
▁পৌঁছায়	-11.0611
▁আলবার্ট	-11.0617
▁বিরত	-11.0622
▁টেলি	-11.063
▁সাধনা	-11.0632
▁জনগণনা	-11.0637
▁কলাম	-11.0643
মাধ্যম	-11.0646
শিক্ষক	-11.0647
ভান্ডার	-11.065
▁আর্মি	-11.0652
ani	-11.0664
▁নিলে	-11.0665
▁কানা	-11.0669
▁ব্যর্থতা	-11.0679
▁দেবার	-11.0679
▁মৌখিক	-11.068
▁লেফটেন্যান্ট	-11.068
▁বিষাক্ত	-11.068
▁ভয়াবহ	-11.068
▁বেলারুশ	-11.068
670	-11.0682
▁রামায়ণ	-11.0682
▁নাৎসি	-11.0683
▁গোলদাতা	-11.0684
▁মহামারী	-11.0684
▁দ্রবণ	-11.0685
▁হাইড্রো	-11.0686
▁লোকসভা	-11.0689
▁মিশ্রিত	-11.0692
▁সম্পর্কযুক্ত	-11.0697
▁মুসা	-11.0698
▁অবলম্বন	-11.07
গেজ	-11.0701
▁রব	-11.0706
▁উপলব্ধ	-11.0709
▁কাতার	-11.0712
▁নেদারল্যান্ড	-11.0714
▁দিনটি	-11.0715
সেবা	-11.0716
gue	-11.0716
হাইড্র	-11.0719
▁অনুপস্থিতি	-11.0722
বাণী	-11.0739
▁কিছুকাল	-11.0746
▁শ্র	-11.0751
▁পেশী	-11.0753
▁তুষার	-11.0755
▁অপরিহার্য	-11.0755
▁ইনসুলিন	-11.0755
▁বিপর্যয়	-11.0755
▁কল্পকাহিনী	-11.0755
▁প্রচণ্ড	-11.0755
▁অর্জুন	-11.0755
▁ফার্মেসি	-11.0756
▁বাজেট	-11.0757
▁ال	-11.0758
▁সবকিছু	-11.0758
▁কর্মকর্তাদের	-11.0759
▁সৌরজগত	-11.076
▁সংশ্লেষণ	-11.0764
সংঘ	-11.0766
▁বিশেষায়িত	-11.077
▁পিসি	-11.0772
▁দাঁড়া	-11.0779
ster	-11.0781
▁ভদ্র	-11.0782
▁খাদ	-11.0783
ance	-11.0786
মান্য	-11.0788
▁কয়েকবার	-11.079
▁১৮৬০	-11.0796
কলকাতা	-11.0799
▁আগা	-11.0807
▁বাসিন্দাদের	-11.0807
▁গ্রন্থটি	-11.0821
▁স্থানীয়ভাবে	-11.0827
▁গ্লুকোজ	-11.0831
▁জীবদ্দশায়	-11.0831
▁বীরভূম	-11.0831
▁মুদ্রণ	-11.0831
▁ডেনমার্ক	-11.0831
গ্রাফি	-11.0831
▁পরিসরে	-11.0833
▁পোলিশ	-11.0833
▁জিলা	-11.0834
▁স্বাধীনভাবে	-11.0835
▁শ্রেণিতে	-11.0837
▁প্রদানকারী	-11.0841
▁হেড	-11.0842
৩০০	-11.0843
▁কুটির	-11.0846
▁কখনই	-11.0846
▁আইল্যান্ড	-11.0848
▁উপস্থাপনা	-11.0848
▁আয়রন	-11.085
zi	-11.0851
▁১৮৯৮	-11.0865
▁সীমাবদ্ধতা	-11.0866
▁দর্শকদের	-11.0876
স্বামী	-11.0876
▁খ্রিস্ট	-11.0878
▁উপাদানগুলি	-11.0883
▁যেমনঃ	-11.0885
২০১১	-11.089
▁রুমি	-11.089
▁বৈশিষ্ট্যগুলি	-11.09
▁retriev	-11.0907
▁জীবনযাপন	-11.0907
▁রিজার্ভ	-11.0907
▁অ্যাক্সেস	-11.0907
▁অ্যারিস্টটল	-11.0907
▁দার্জিলিং	-11.0907
▁কর্মসংস্থান	-11.0907
▁জনশ্রুতি	-11.0907
▁লাগিয়ে	-11.0907
▁সনাক্ত	-11.0907
▁অ্যামিনো	-11.0908
▁আশঙ্কা	-11.0908
▁গ্রামাঞ্চলে	-11.0909
▁কাঁটা	-11.091
▁প্রেরিত	-11.0911
▁গীতিকার	-11.0912
মার্কিন	-11.0919
পূর্বাঞ্চলে	-11.0919
sis	-11.0923
▁রিং	-11.0924
▁শহরাঞ্চল	-11.0925
▁টোঙ্গা	-11.0928
বিবাহ	-11.093
▁বসা	-11.0936
▁du	-11.0943
▁পাটনা	-11.0948
▁বন্দি	-11.0948
পৃষ্ঠ	-11.0949
▁নৃ	-11.0949
পর্ব	-11.0963
▁পেরি	-11.0966
▁হিন্দ	-11.0969
▁দেশগুলোর	-11.0971
▁রোজা	-11.0982
▁জাহাঙ্গীর	-11.0982
▁আর্মেনীয়	-11.0984
▁কূটনৈতিক	-11.0984
▁মহাসচিব	-11.0984
▁রাইবোসোম	-11.0984
▁স্মৃতিস্তম্ভ	-11.0984
▁চেখভ	-11.0984
▁লেখাপড়া	-11.0984
▁কীর্তি	-11.0984
tter	-11.0985
▁মূলতঃ	-11.0986
▁পরিত্যাগ	-11.0987
▁সুনামগঞ্জ	-11.0987
▁পরিবাহী	-11.0988
▁ফিরোজ	-11.0989
▁১৯০৭	-11.099
346	-11.099
্যাম্প	-11.0993
▁বিচ্ছেদ	-11.0995
▁আংশিকভাবে	-11.0996
▁প্রিন্ট	-11.0999
▁সমৃদ্ধি	-11.1002
▁বাস্তবতা	-11.1004
▁দুর্গাপুর	-11.1011
▁ভোর	-11.1014
▁দুর্	-11.1018
▁বুঝায়	-11.1024
চলচ্চিত্র	-11.1031
বিদ্যুৎ	-11.1032
▁অধিবেশনে	-11.104
সর্ব	-11.1041
▁প্রত্নতত্ত্ব	-11.1045
োগ্রাফি	-11.1048
ধীন	-11.1051
বাদক	-11.1058
▁অ্যালগরিদম	-11.1062
▁পরিকল্পিত	-11.1062
▁মুগ্ধ	-11.1062
▁অস্পষ্ট	-11.1062
▁হানাদার	-11.1062
▁নিবেদিত	-11.1062
▁পিপলস	-11.1062
▁অবনতি	-11.1063
▁হাবিব	-11.1067
▁সমাজতন্ত্র	-11.1068
rie	-11.1068
▁ডাকনাম	-11.1071
▁রবিবার	-11.1071
▁সমর্থিত	-11.1072
ইয়ু	-11.1083
van	-11.1084
▁নিয়েছেন	-11.1101
▁ব্রড	-11.1101
▁আপাত	-11.1102
▁সবজি	-11.1104
hal	-11.1108
কাহিনী	-11.111
▁চোল	-11.1121
▁লামা	-11.1129
▁অ্যালগোরিদম	-11.114
▁এইচআইভি	-11.114
▁খিলাফত	-11.114
▁জীবাশ্ম	-11.114
▁প্রাগৈতিহাসিক	-11.114
▁মনোনিবেশ	-11.114
▁সপ্তদশ	-11.114
▁সাংগঠনিক	-11.114
▁নিম্নোক্ত	-11.114
নিরীক্ষা	-11.114
▁কাজাখস্তান	-11.114
▁আলাস্কা	-11.114
▁ডোমিনিকান	-11.1141
▁মুক্তিবাহিনী	-11.1142
▁মানবতাবাদ	-11.1144
▁সহকর্মী	-11.1145
▁কেন্দ্রীভূত	-11.1145
▁বার্মা	-11.1146
তত্ত্ববিদ	-11.115
▁মেয়েদের	-11.115
▁করুন	-11.1151
খানি	-11.1154
ঝাড়	-11.1157
▁মোহনা	-11.1159
▁শ্যা	-11.116
▁যন্ত্রাংশ	-11.1162
cr	-11.1162
▁মিছিল	-11.117
▁কেল্লা	-11.1172
▁বহি	-11.1175
▁বিষয়গুলো	-11.1178
ref	-11.1178
চারণ	-11.1184
▁সাধ	-11.1187
ঘোষ	-11.1194
কর্মী	-11.1198
▁তিনবার	-11.12
পত্রিকা	-11.1201
duc	-11.1213
▁থিও	-11.1216
val	-11.1216
▁দাঙ্গা	-11.1216
▁এলিজাবেথ	-11.1219
▁নিউক্যাসল	-11.1219
▁ট্রানজিস্টর	-11.1219
▁মিলিমিটার	-11.1219
▁হৃদয়	-11.1219
▁জলাশয়	-11.1219
▁প্রসেসর	-11.1219
▁বেকারত্ব	-11.1219
▁মজুদ	-11.1219
▁চলাকালে	-11.1221
▁আহরণ	-11.1222
bel	-11.1222
▁সোমালি	-11.1225
▁রাসেল	-11.1226
▁নিক্ষেপ	-11.123
▁লাউ	-11.1237
▁হিজ	-11.1238
▁হ্যালি	-11.1241
▁অনুকরণ	-11.1244
met	-11.1244
▁আগ্রা	-11.1248
ram	-11.1254
▁করো	-11.1262
▁বিষয়গুলি	-11.1271
ুলিয়া	-11.1272
▁ইভান	-11.1272
দৃশ্য	-11.1282
▁প্রণয়	-11.1283
180	-11.129
▁বৈচিত্র	-11.1291
▁ওমর	-11.1297
▁বেঁধে	-11.1298
▁মোকাবেলা	-11.1298
▁টেলিযোগাযোগ	-11.1298
▁অশোক	-11.1298
▁বিভব	-11.1299
▁দিলেন	-11.1302
▁১৯০২	-11.1303
মুদ	-11.1304
115	-11.1306
▁দশা	-11.1307
▁হাজী	-11.1311
ান্বিত	-11.1314
▁১৮৫৭	-11.1321
▁অনেকটাই	-11.1322
▁আড়	-11.1323
ক্লে	-11.1325
▁রাউন্ড	-11.1328
সাইট	-11.133
▁ক্লাসিক	-11.1331
িণী	-11.1331
সেফ	-11.1333
ek	-11.1339
নির্মিত	-11.1351
▁শীতকাল	-11.1353
657	-11.1374
▁অদ্বৈত	-11.1378
▁সেন্টিমিটার	-11.1378
▁পিছিয়ে	-11.1378
▁প্রাঙ্গণ	-11.1378
▁সামঞ্জস্যপূর্ণ	-11.1378
▁ডারউইন	-11.1378
▁ঘটনাবলী	-11.1378
▁উচ্চারিত	-11.1378
▁চেন্নাই	-11.1378
▁বিতাড়	-11.1378
▁ইলিশ	-11.1383
▁সভাপতিত্ব	-11.139
▁এরূপ	-11.1392
৬০০	-11.1392
▁অপেরা	-11.1403
▁বিষ্ণুপুর	-11.1412
▁ফটো	-11.1414
▁বললেন	-11.1422
▁can	-11.1423
ty	-11.1424
নির্দিষ্ট	-11.1428
▁সামন্ত	-11.1429
tre	-11.1438
lit	-11.144
jo	-11.1442
াধিক	-11.1454
▁অভিযাত্রী	-11.1459
▁নড়াইল	-11.1459
▁বক্ররেখা	-11.1459
▁শান্তিনিকেতন	-11.1459
▁system	-11.1459
▁নেহেরু	-11.1459
▁দৌড়	-11.1459
▁ম্যাথ	-11.1459
▁লম্ব	-11.1459
▁শ্রীরামপুর	-11.146
▁বৃত্তাকার	-11.1461
▁মূলনীতি	-11.1467
▁ধূ	-11.1469
বালা	-11.1476
▁সিভিল	-11.1478
▁পোলীয়	-11.1479
▁উভয়েই	-11.1482
▁স্কোয়ার	-11.1483
▁১৮৬৯	-11.1484
▁১৮৮৯	-11.1485
টিক্যাল	-11.1486
▁ধাম	-11.1491
▁উত্তরাধিকারী	-11.1495
▁জমিদারি	-11.1503
▁অ্যানিমে	-11.1515
▁চালাতে	-11.1518
যদিও	-11.1519
▁আবাস	-11.1519
▁পরিণতি	-11.1521
▁যোগান	-11.1529
ভূক্ত	-11.1536
▁নদিয়া	-11.1536
▁রিপাবলিক	-11.1538
▁জ্যেষ্ঠ	-11.154
▁ডেমোক্র্যাট	-11.154
▁দ্রাবিড়	-11.154
▁বাঁকুড়া	-11.154
▁সন্তুষ্ট	-11.154
▁সুইডিশ	-11.154
▁প্রামাণ্য	-11.154
▁প্রণীত	-11.154
▁সিঙ্গাপুর	-11.154
▁মেহেরপুর	-11.154
▁মুম্বাই	-11.1541
▁ভূপৃষ্ঠ	-11.1541
▁কবরস্থান	-11.1541
▁গ্যালারি	-11.1542
▁বিপন্ন	-11.1547
▁চারদিকে	-11.1548
▁সার্বিয়ান	-11.1558
lam	-11.1561
▁চারজন	-11.158
▁ভাগ্য	-11.1605
▁চালা	-11.1608
▁স্টিভেন	-11.1614
ji	-11.1616
587	-11.1617
বন্দী	-11.162
▁মনসা	-11.1621
لَ	-11.1621
▁ছদ্মনাম	-11.1622
▁জিজ্ঞাসা	-11.1622
▁নিষ্ক্রিয়	-11.1622
▁বন্যপ্রাণী	-11.1622
▁বিমূর্ত	-11.1622
▁মাওলানা	-11.1622
▁মৃত্তিকা	-11.1622
▁কার্যকারিতা	-11.1622
▁মতাদর্শ	-11.1622
▁উত্তরাখণ্ড	-11.1622
▁টোকিও	-11.1622
▁বিধায়	-11.1622
▁অন্তর্বর্তী	-11.1623
▁নথিভুক্ত	-11.1623
▁সিয়েরা	-11.1623
▁জবাব	-11.1623
▁ছিদ্র	-11.1624
▁কাম্যু	-11.1627
াইজেশন	-11.1627
▁আর্থার	-11.163
▁ফ্যাক্স	-11.1632
▁অনুদান	-11.1632
▁সার্বভৌমত্ব	-11.1633
▁জীবন্ত	-11.1639
▁পারবেন	-11.1639
খন্ড	-11.1641
▁জন্মস্থান	-11.1642
ফত	-11.1642
▁পুরোনো	-11.1647
চালিত	-11.165
পোষ	-11.1652
▁প্রক্রিয়াকরণ	-11.1662
ative	-11.1664
▁স্থাপনকারী	-11.1665
▁সেসব	-11.1676
খ্রিস্ট	-11.168
রশ্মি	-11.1681
ব্রু	-11.1691
▁গোটা	-11.1691
▁অ্যাক্ট	-11.1696
আরবি	-11.1699
▁সাক্ষর	-11.1701
▁roosevelt	-11.1705
▁অত্যধিক	-11.1705
▁মেরুদণ্ড	-11.1705
▁বাহরাইন	-11.1705
▁কীর্তন	-11.1705
▁বাগেরহাট	-11.1705
▁মায়ানমার	-11.1705
▁পিতৃ	-11.1705
▁সংলাপ	-11.1705
▁একমত	-11.1705
▁মহারাজা	-11.1705
▁ডক্টরেট	-11.1706
▁কার্তিক	-11.1707
▁জিতেছিলেন	-11.171
▁রঙিন	-11.171
▁সংখ্যাগরিষ্ঠতা	-11.1711
সর্গ	-11.1715
▁গাজীপুর	-11.1717
▁অর্থনীতিবিদ	-11.1718
▁পড়লে	-11.1721
▁ব্যথা	-11.1725
াবস্থায়	-11.1733
▁নেদারল্যান্ডস	-11.175
সংস্কৃতি	-11.1767
vel	-11.1772
raj	-11.1783
#	-11.1788
▁university	-11.1788
▁আয়োডিন	-11.1788
▁উত্তেজনা	-11.1788
▁চমৎকার	-11.1788
▁জয়পুরহাট	-11.1788
▁ম্যাজিস্ট্রেট	-11.1788
▁সৃজনশীল	-11.1788
▁স্থলাভিষিক্ত	-11.1788
▁হুমায়ুন	-11.1788
▁আঠারো	-11.1788
▁আত্মজীবনী	-11.1788
▁বর্গমাইল	-11.1788
▁পরীক্ষণ	-11.1788
▁ভূত্বক	-11.1789
▁আড়াই	-11.179
▁মানমন্দির	-11.179
▁ফ্রেঞ্চ	-11.1791
▁১৯০৯	-11.1793
▁চেয়েছিল	-11.1807
▁তোমার	-11.1812
ঠো	-11.1815
বন্ধু	-11.1819
▁জাতীয়তাবাদ	-11.1822
▁সাধু	-11.1822
উদ্	-11.1829
▁প্রত্যয়	-11.1835
হানি	-11.1836
▁প্রাণি	-11.1848
▁জনাব	-11.187
▁টেম্পলার	-11.1872
▁অবিচ্ছিন্ন	-11.1872
▁গণপ্রজাতন্ত্র	-11.1872
▁ডেভেলপমেন্ট	-11.1872
▁নাইট্রোজেন	-11.1872
▁ওডিসিউস	-11.1872
▁প্রতিশোধ	-11.1872
▁মেডিক্যাল	-11.1872
▁আগরতলা	-11.1872
▁কার্টুন	-11.1872
fo	-11.1872
▁স্তবক	-11.1872
▁পাণ্ডব	-11.1872
▁জ্বল	-11.1872
▁স্বরধ্বনি	-11.1873
▁শুকনো	-11.1877
▁পদার্থবিদ	-11.1878
▁গিটার	-11.188
▁অটোমান	-11.188
মেইল	-11.1881
log	-11.1883
কাঠি	-11.1887
▁হরফ	-11.1894
াবস্থা	-11.1905
▁দ্বীপগুলি	-11.1921
▁সুফি	-11.1923
▁শেল	-11.1924
▁বাণিজ্যিকভাবে	-11.1924
▁রেঞ্জ	-11.1927
▁রয়েল	-11.1928
▁মেয়াদী	-11.193
ব্রহ্ম	-11.1934
bh	-11.1936
▁ময়দা	-11.195
▁চুয়াডাঙ্গা	-11.1957
▁পিডিএফ	-11.1957
▁মেমরি	-11.1957
▁মেষ	-11.1959
▁অর্ডার	-11.196
▁ভূতাত্ত্বিক	-11.196
▁গণনাযোগ্য	-11.1962
▁রোমানিয়া	-11.1965
▁উপনদী	-11.1965
▁ফ্রান্সিসকো	-11.1966
বতীয়	-11.1967
▁আমিরাত	-11.1971
▁কান্ট	-11.1971
▁কারিগরি	-11.1973
▁আনেন	-11.1981
▁চিপ	-11.1982
মেটিক	-11.1985
কাউন্ট	-11.1987
▁পোড়া	-11.1988
বোট	-11.1989
▁শিক্ষাবিদ	-11.199
tta	-11.1993
▁ম্যারি	-11.1996
▁১৫০০	-11.1999
▁অশ্ব	-11.2001
গ্র্যা	-11.2002
▁অধিবাসীদের	-11.2016
▁ম্যাক্স	-11.2017
বেষ্টিত	-11.202
kan	-11.2028
▁পুরান	-11.2032
▁নাটকীয়	-11.2034
▁মারমা	-11.2035
▁জ্যোতির্বিদ	-11.2041
nic	-11.2042
▁উপার্জন	-11.2042
▁কিরগিজস্তান	-11.2042
▁ক্যাপিটাল	-11.2042
▁ত্রয়োদশ	-11.2042
▁মনুষ্য	-11.2042
▁আক্ষরিক	-11.2042
▁ব্রিগেড	-11.2042
▁খোদাই	-11.2042
▁সঞ্চয়	-11.2042
▁সিন্ধি	-11.2043
▁হাকিম	-11.2043
▁শ্রীমঙ্গল	-11.2044
▁শৃঙ্খলা	-11.2044
▁পুড়িয়ে	-11.2044
▁চাষাবাদ	-11.2047
ক্ষেত	-11.2051
▁সার্ভার	-11.2052
▁গোলাকার	-11.2052
gr	-11.2056
▁অন্ত্র	-11.206
▁প্রিজম	-11.206
▁লিচু	-11.206
রোমান	-11.2065
বেশি	-11.207
বহাল	-11.2071
▁ঝুল	-11.2073
other	-11.2086
▁gu	-11.2089
▁মেরে	-11.2089
117	-11.209
▁জলপথ	-11.2111
▁উসমান	-11.212
▁ক্রিয়াকলাপ	-11.2128
▁নরসিংদী	-11.2128
▁দিগন্ত	-11.2128
▁ব্যুরো	-11.2128
▁স্ফটিক	-11.2128
▁মৃতদেহ	-11.2129
▁প্লাজমা	-11.2129
▁জেনেটিক	-11.2131
▁অম্ল	-11.2132
▁বাজানো	-11.2134
▁প্রকারভেদ	-11.2135
▁ক্ষতিকর	-11.2136
▁বর্গমূল	-11.2136
পাতা	-11.2138
পুরাণ	-11.2138
▁comp	-11.2142
সত্ত্বা	-11.2143
▁সদস্যপদ	-11.2144
▁প্রস্তর	-11.2146
▁বললে	-11.2148
সৃষ্ট	-11.2151
▁অ্যালান	-11.2153
▁জৈবিক	-11.2158
▁পারলে	-11.2191
▁কার্যত	-11.2196
শিক্ষিত	-11.2197
▁সাধক	-11.2199
pal	-11.2199
াবতী	-11.2205
▁অন্তর্নিহিত	-11.2215
▁গ্যাংটক	-11.2215
▁দীর্ঘমেয়াদ	-11.2215
▁বৃহদ	-11.2215
▁সমঝোতা	-11.2215
▁গাঙ্গেয়	-11.2215
▁নিকোলাস	-11.2215
▁সমাহিত	-11.2215
▁শ্রোতা	-11.2215
▁শতাধিক	-11.2216
▁চেহারা	-11.2217
▁শহীদুল্লাহ	-11.2217
বৃন্দ	-11.2219
▁মুরগি	-11.222
▁নিত্য	-11.2229
▁শিক্ষাব্যবস্থা	-11.2233
ট্রু	-11.2234
▁তর্ক	-11.2235
▁যাজক	-11.2235
▁অনন্ত	-11.2241
▁মৌ	-11.2243
▁পৌঁছেছিল	-11.2244
▁১৮৯৬	-11.2249
▁১৮৯৭	-11.2252
িয়ু	-11.2256
▁১৮৮০	-11.2259
able	-11.2261
জার্মান	-11.2284
দ্রব্য	-11.229
৪০০	-11.2292
টাউন	-11.2299
▁আইবিএম	-11.2303
▁গাছপালা	-11.2303
পত্নী	-11.2303
▁দুর্যোগ	-11.2304
▁বাল্টিক	-11.2304
▁শ্রেণীবিভাগ	-11.2304
▁অ্যাঞ্জেলেস	-11.2304
▁গ্রীস	-11.2306
▁মাল্টি	-11.2306
▁শ্রেণীবদ্ধ	-11.2307
▁অধিকতর	-11.2309
▁ডেঙ্গু	-11.231
সমুহ	-11.231
▁ফজল	-11.2311
▁নটর	-11.2314
ায়েত	-11.2316
▁হাতিয়ার	-11.2318
▁উদ্ধৃত	-11.2325
▁ইনকা	-11.2327
▁কাশী	-11.2332
▁ইন্স	-11.2332
ধারন	-11.2344
▁বড়দিন	-11.2356
▁সুপারি	-11.2364
ভট্ট	-11.2369
▁কারিগর	-11.2374
mil	-11.2389
অধ্যুষিত	-11.2392
▁number	-11.2392
▁সংগৃহীত	-11.2392
▁সন্দ্বীপ	-11.2392
স্লোভাক	-11.2392
▁ইয়াহিয়া	-11.2392
▁বিরিয়ানি	-11.2392
দ্দা	-11.2392
▁মদন	-11.2393
▁ক্ষার	-11.2399
▁সান্তা	-11.2399
▁তাইওয়ান	-11.24
▁তুলেছিল	-11.2401
▁হেলেন	-11.2407
▁কামরূপ	-11.2407
▁ভাস্কর	-11.2408
vis	-11.2409
rus	-11.2411
▁শান্ত	-11.2417
▁এড়িয়ে	-11.2421
▁স্কট	-11.2441
▁গতিপথ	-11.245
▁ভাঙ্গা	-11.2456
প্রোট	-11.2457
কিছু	-11.2457
পাথর	-11.2463
▁এদিকে	-11.2469
▁আবাসন	-11.247
▁উবুন্টু	-11.2481
▁ঝিল্লি	-11.2481
▁রাঙ্গুনিয়া	-11.2481
▁রেলস্টেশন	-11.2481
▁সংবেদনশীল	-11.2481
▁ক্যারিবী	-11.2481
▁বচ্চন	-11.2481
▁বিয়োগ	-11.2481
▁মাদ্রাজ	-11.2481
▁আন্দ্রে	-11.2482
▁ধারণক্ষমতা	-11.2483
▁পরিপাক	-11.2483
▁অস্থিরতা	-11.2484
++	-11.2484
▁কালক্রমে	-11.2485
▁প্যালেস	-11.2486
rk	-11.2507
▁হিমবাহ	-11.2513
mor	-11.252
▁কৌশলগত	-11.2522
পূজা	-11.2523
▁নিন্দা	-11.2524
▁পাগল	-11.2529
▁প্রান্তিক	-11.2531
▁নামকরন	-11.2532
ফ্লো	-11.2532
এনপি	-11.2554
▁উপমহাদেশ	-11.2559
▁অদ্ভুত	-11.2571
▁ঋষি	-11.2571
▁ভূগর্ভস্থ	-11.2571
▁রৌপ্য	-11.2571
▁হুমায়ূন	-11.2571
▁অবজেক্ট	-11.2571
▁ফসফরাস	-11.2571
▁মহাত্মা	-11.2571
▁সোডিয়াম	-11.2571
▁নাগাল্যান্ড	-11.2571
▁মধ্যবিত্ত	-11.2571
▁বায়ার্ন	-11.2571
▁রাহুল	-11.2571
lic	-11.2572
▁বলিভিয়া	-11.2572
▁রাউলিং	-11.2572
▁সম্মানসূচক	-11.2572
▁মরিচ	-11.2573
▁পৃষ্ঠতল	-11.2574
▁থ্রি	-11.2576
▁মর্ম	-11.2577
ফ্ট	-11.2593
▁এতটা	-11.2613
োজেন	-11.2613
sto	-11.2616
▁সংশোধনী	-11.2619
▁দয়া	-11.2625
▁বিশদ	-11.2629
▁পৌঁছেছে	-11.2632
line	-11.2637
প্রতিষ্ঠা	-11.2657
▁সরস্বতী	-11.2662
▁পরিত্যক্ত	-11.2662
▁বাইজেন্টাইন	-11.2662
▁যুধিষ্ঠির	-11.2662
▁শয্যা	-11.2662
▁সমালোচিত	-11.2662
▁ভাসানী	-11.2662
▁স্বাগত	-11.2662
▁অজ্ঞাত	-11.2662
▁ইলিনয়	-11.2662
▁ধূসর	-11.2662
▁কাউকে	-11.2663
▁টেসলা	-11.2663
পন্ন	-11.2663
▁গ্রহাণু	-11.2663
▁ব্যক্তিবর্গ	-11.2665
▁ঠাকুরগাঁও	-11.2666
▁কারাগার	-11.2666
▁সিংহভাগ	-11.2666
▁উঠল	-11.2667
▁অবশিষ্টাংশ	-11.2669
▁মার্ক্স	-11.267
trans	-11.2672
▁প্রবাল	-11.2674
110	-11.2677
how	-11.2678
▁১৮৮৮	-11.269
▁খল	-11.269
▁ছোট্ট	-11.2722
চুয়া	-11.2736
▁ঘাস	-11.274
সংগীত	-11.2746
দৌলত	-11.2753
▁বুদ্ধিমত্তা	-11.2754
▁মিউনিসিপ্যাল	-11.2754
▁রক্তকণিকা	-11.2754
▁অ্যাকাডেমি	-11.2754
▁এয়ারলাইন্স	-11.2754
▁টোয়েইন	-11.2754
▁শশাঙ্ক	-11.2754
▁সমাদৃত	-11.2754
▁স্রষ্টা	-11.2754
▁আর্মেনিয়া	-11.2754
▁কোথায়	-11.2754
▁বিশৃঙ্খলা	-11.2754
▁পুনর্নির্মাণ	-11.2754
▁সঞ্চার	-11.2754
▁পত্তন	-11.2755
জাগতিক	-11.2756
▁শাহজাহান	-11.2756
▁পরিগণিত	-11.2756
para	-11.2757
▁তন্তু	-11.2758
▁ক্রীড়াবিদ	-11.2759
▁আক্রমণাত্মক	-11.2759
▁ফারাও	-11.2761
ব্বা	-11.2762
▁প্রভূত	-11.2763
▁জিদান	-11.2767
▁ভূমধ্যসাগরীয়	-11.277
▁বধ	-11.2773
▁স্মরণীয়	-11.2773
▁ঘনিষ্ঠভাবে	-11.2778
▁ওয়াটার	-11.2778
▁ধ্রুব	-11.2787
day	-11.279
গঠন	-11.279
▁বৃদ্ধ	-11.2816
qui	-11.2821
লিয়ন	-11.2824
জগতে	-11.2825
েনবার্গ	-11.2825
শ্রেণী	-11.2829
আধুনিক	-11.2831
পর্যায়	-11.2832
right	-11.2834
▁ধো	-11.2839
▁দাপ্তরিক	-11.2846
▁যৌক্তিক	-11.2846
▁অ্যালকোহল	-11.2846
▁গঙ্গোপাধ্যায়	-11.2846
▁পেনাল্টি	-11.2846
▁প্রাচুর্য	-11.2846
▁মুন্সীগঞ্জ	-11.2846
▁অসামান্য	-11.2846
▁বাৎসরিক	-11.2846
▁হবিগঞ্জ	-11.2846
▁নারিকেল	-11.2846
▁প্রচন্ড	-11.2846
▁পরিশ্রম	-11.2846
▁প্ল্যান্ট	-11.2846
▁শনিবার	-11.2846
▁ফরাসী	-11.2846
খ্রিষ্টপূর্বাব্দ	-11.2846
▁ইস্যু	-11.2846
▁স্নেহ	-11.2847
বিন্যস্ত	-11.2847
▁কোচবিহার	-11.2847
▁পর্যায়ক্রমে	-11.2848
▁বাদশাহ	-11.2848
▁অমৃত	-11.2848
▁পঞ্চগড়	-11.2849
▁কোয়ার্ক	-11.2849
▁বাঁচা	-11.2851
সামরিক	-11.2861
▁সামগ্রিকভাবে	-11.2866
এমএস	-11.2874
▁যশ	-11.2876
▁মহিষ	-11.2879
▁সাংবাদিকতা	-11.2883
▁নিশ্	-11.2887
▁১৮৭০	-11.2892
mag	-11.2894
941	-11.2913
বিষয়ক	-11.2926
যেখানে	-11.2926
▁শৈল	-11.2937
▁উদ্ভাবিত	-11.294
▁ছত্তিসগড়	-11.294
▁মসৃণ	-11.294
▁লিউব্লিয়ানা	-11.294
▁সংকুচিত	-11.294
▁আতাতুর্ক	-11.294
▁একাধারে	-11.294
▁রীতিনীতি	-11.2941
▁বামপন্থী	-11.2941
▁স্নান	-11.2941
▁গতিবেগ	-11.2941
▁রিপাবলিকান	-11.2942
▁অফিসিয়াল	-11.2943
▁অনুকূল	-11.2943
▁কিতাব	-11.2943
▁স্ট্রে	-11.2943
▁শরৎ	-11.2944
▁যত্ন	-11.2946
▁গোলাপ	-11.2946
▁টেনে	-11.2947
▁তিস্তা	-11.2948
▁প্রয়াত	-11.2949
▁সার্বিক	-11.2949
▁ওয়েল্	-11.295
▁সাঁতার	-11.295
▁প্রদক্ষিণ	-11.2955
▁লক্ষণীয়	-11.2962
▁চুম্বক	-11.2972
▁রজার	-11.2977
250	-11.2984
রক্ষী	-11.2986
কিশোর	-11.3021
আল্লাহ	-11.3022
▁শামস	-11.3028
▁অ্যাথলেটিক	-11.3034
▁বখতিয়ার	-11.3034
▁খসড়া	-11.3034
▁স্পোর্টস	-11.3034
▁উপাসনালয়	-11.3034
▁খাদিজা	-11.3034
▁পিতামহ	-11.3034
▁প্রতিযোগী	-11.3034
▁তীরবর্তী	-11.3035
▁অপটিক্যাল	-11.3035
▁পুরুলিয়া	-11.3036
▁মূল্যবোধ	-11.3036
▁জনৈক	-11.3036
▁সারণি	-11.3037
▁থমাস	-11.3038
▁খাতুন	-11.3039
লুপ্ত	-11.3045
▁বিবিধ	-11.3047
দৌলা	-11.3047
▁খালেদা	-11.3049
▁আল্লাহ্	-11.3051
▁নিবন্ধিত	-11.3065
="21	-11.3068
ষ্কৃত	-11.309
▁সাভার	-11.3093
956	-11.3112
▁আয়ু	-11.3115
দীর্ঘ	-11.3117
674	-11.312
ব্যক্তি	-11.312
জাহান	-11.3122
▁অলিম্পিয়া	-11.3129
▁আনুগত্য	-11.3129
▁উইকিপিডিয়া	-11.3129
▁উত্থাপন	-11.3129
▁শাকসবজি	-11.3129
▁কেলভিন	-11.3129
▁শর্করা	-11.3129
▁খেজুর	-11.3129
▁এগারো	-11.3129
▁যুগোস্লাভিয়া	-11.313
▁বঙ্গভঙ্গ	-11.3131
▁বরেন্দ্র	-11.3131
▁জিতেছিল	-11.3131
▁আগ্রাসন	-11.3132
▁মুলত	-11.3132
▁বেশকিছু	-11.3133
▁মহাবীর	-11.3134
▁মুক্তিপ্রাপ্ত	-11.3135
পদ্ম	-11.3136
▁কিটস	-11.3137
বিজয়	-11.3145
▁বসানো	-11.3167
বর্মণ	-11.3174
▁ব্যক্ত	-11.3185
শ্রুত	-11.3196
▁অনূর্ধ্ব	-11.3225
▁কম্বোডিয়া	-11.3225
▁সেক্রেটারি	-11.3225
▁উজবেকিস্তান	-11.3226
▁কার্নেল	-11.3226
▁জহির	-11.3226
▁তুর্কমেন	-11.3226
▁ফেলতে	-11.3227
▁মসলিন	-11.3227
▁ফারসি	-11.3227
▁আবদুর	-11.3228
▁আলোকবর্ষ	-11.3228
▁ক্লার্ক	-11.3228
▁মানিকগঞ্জ	-11.3229
▁ইউনিক্স	-11.323
▁উপস্থাপিত	-11.323
▁শাসনাধীন	-11.323
যিনি	-11.3245
▁উত্তরবঙ্গ	-11.3246
▁১৮৯৫	-11.3255
▁স্পষ্টভাবে	-11.3258
▁ভীত	-11.3278
টার্ন	-11.3281
বিদ্ধ	-11.3284
সামাজিক	-11.3312
জোয়া	-11.3312
রাষ্ট্রপতি	-11.3315
▁কোস্ট	-11.3316
গর্ভ	-11.3317
২০০১	-11.332
▁গ্যালাক্সি	-11.3322
▁জলদস্যু	-11.3322
▁সেন্টিগ্রেড	-11.3322
▁ইঁদুর	-11.3322
▁চল্লিশ	-11.3322
▁পূর্বাভাস	-11.3322
▁ত্রয়ী	-11.3323
▁রশিদ	-11.3323
▁সত্যিকার	-11.3323
▁মেন্ডেল	-11.3323
▁বজ্র	-11.3323
▁বলিউড	-11.3323
▁পেয়ারা	-11.3323
▁ট্রেনিং	-11.3325
▁গ্রাফিক্স	-11.3325
▁নীতিমালা	-11.3325
▁গাঢ়	-11.3327
▁গ্যাবন	-11.3327
জ্যোতির্বিজ্ঞানী	-11.3328
অধি	-11.333
▁হজ্জ	-11.3331
▁মার্কেট	-11.3347
▁১৮৮২	-11.3352
▁মাদক	-11.3355
707	-11.3365
সাধ্য	-11.3392
▁গ্রাফিক	-11.3409
চ্ছিলেন	-11.3413
▁নিয়ন্ত্রক	-11.342
▁ব্যাক্টেরিয়া	-11.342
▁যক্ষ্মা	-11.342
▁ক্যালেন্ডার	-11.342
▁মোঘল	-11.3421
প্রবণ	-11.3421
▁তুষারপাত	-11.3421
▁সম্রাজ্য	-11.3422
▁দূত	-11.3424
▁যতক্ষণ	-11.3424
▁শার্ল	-11.3424
▁পেরেছিলেন	-11.3426
▁শুক্রবার	-11.3426
▁রেশম	-11.3427
▁অ্যাওয়ার্ড	-11.3427
put	-11.3429
643	-11.343
▁সোনালী	-11.343
▁জোহান	-11.343
▁তাহের	-11.343
953	-11.3431
▁খুশি	-11.3435
▁ড্রাম	-11.3442
▁নিকটতম	-11.3442
▁নৃবিজ্ঞান	-11.3445
▁লাইফ	-11.3465
ভ্যা	-11.3467
দায়ক	-11.3473
▁দোহা	-11.3474
▁চলছিল	-11.3474
press	-11.3479
ছাড়া	-11.3503
বিদ্যালয়	-11.3508
নির্মাণ	-11.351
বৃষ্টি	-11.3511
bert	-11.3516
▁উরুগুয়ে	-11.3519
▁প্রভাষক	-11.3519
▁মধ্যপ্রদেশ	-11.3519
▁এজেন্সি	-11.352
▁নাইজেরিয়া	-11.352
▁অ্যাংলো	-11.352
▁স্বর্ণপদক	-11.352
▁মৃদু	-11.352
▁গোগোল	-11.352
ganj	-11.352
flag	-11.352
▁জামায়াতে	-11.352
▁নায়েক	-11.3522
পীঠ	-11.3524
▁ওয়াটার্স	-11.3527
▁যুগ্ম	-11.3527
▁ব্যঙ্গ	-11.3528
▁হিজরি	-11.3529
▁প্রকাশ্যে	-11.3529
▁বেড়েছে	-11.353
▁উন্নয়নশীল	-11.3531
▁পুজো	-11.3532
▁বিরামপুর	-11.3537
ক্তা	-11.3563
▁১৮৯৯	-11.3566
পাড়	-11.3596
▁doi	-11.3598
621	-11.3601
ডাউন	-11.361
কণ্ঠ	-11.3612
▁স্বেচ্ছা	-11.3619
▁প্রাইভেট	-11.3619
▁বরখাস্ত	-11.3619
▁লবণাক্ত	-11.3619
▁চিরায়ত	-11.3619
▁বরগুনা	-11.3619
▁নির্ভুল	-11.362
▁চতুর্দশ	-11.362
▁হার্ডওয়্যার	-11.362
▁ডেভিস	-11.362
john	-11.362
▁প্লাস্টিক	-11.3621
▁সিংহাসন	-11.3622
▁মিশনারি	-11.3623
▁আলোকচিত্র	-11.3624
▁গুড়	-11.3625
▁জীবনানন্দ	-11.3625
▁চিত্রকর্ম	-11.3626
▁সুফিয়া	-11.3626
▁আপিল	-11.3627
▁লক্ষ্মীপুর	-11.3631
▁2012	-11.3634
▁অংশবিশেষ	-11.3637
বঙ্গীয়	-11.3642
▁রাগবি	-11.3645
▁not	-11.3649
▁টিউব	-11.365
own	-11.3659
উম্ম	-11.3662
▁রাজপুত	-11.3707
▁সঞ্চাল	-11.371
কম্পিউটার	-11.3714
সমৃদ্ধ	-11.3714
▁science	-11.372
▁আর্কিমিডিস	-11.372
▁ডেমোক্রেটিক	-11.372
▁ধর্মপ্রচারক	-11.372
▁ধূমপান	-11.372
▁ফেস্টিভ্যাল	-11.372
▁সাতক্ষীরা	-11.372
▁লক্ষ্মণ	-11.372
▁শায়েস্তা	-11.372
▁ম্যালেরিয়া	-11.3721
▁স্মার্ট	-11.3721
▁চওড়া	-11.3721
▁মঞ্জুর	-11.3721
▁যুবরাজ	-11.3721
▁স্টাডি	-11.3721
ুদ্দীন	-11.3721
▁অডিও	-11.3721
▁গ্রেগরি	-11.3722
▁প্রস্তুতকারক	-11.3722
▁শুনতে	-11.3722
▁দেখিয়েছেন	-11.3723
▁ফ্রাংক	-11.3724
▁কৃষ্ণাঙ্গ	-11.3725
▁পরিনত	-11.3727
▁এন্টি	-11.373
▁জবস	-11.3731
▁দেখলে	-11.3731
▁দেশব্যাপী	-11.3732
▁বর্ষাকালে	-11.3732
▁বহুমুখী	-11.3734
▁শিল্পকর্ম	-11.3734
▁ব্যাঙ	-11.3738
▁গ্রো	-11.3738
▁বলবিদ্যা	-11.3739
▁পহেল	-11.374
খোলা	-11.3744
বান্ধব	-11.3747
ring	-11.3758
261	-11.3766
▁জিনগত	-11.3773
▁উপনীত	-11.3781
▁শাসনকালে	-11.3801
ডব্লিউ	-11.3817
জেনারেল	-11.3817
▁রওন	-11.3822
▁অবিচ্ছেদ্য	-11.3823
▁আমস্টারডাম	-11.3823
▁ন্যূনতম	-11.3823
▁পৈতৃক	-11.3823
▁ফ্রিকোয়েন্সি	-11.3823
▁বিশ্বব্যাংক	-11.3823
স্ফীতি	-11.3823
▁চৈতন্য	-11.3823
▁চারুকলা	-11.3823
▁সাক্ষ্য	-11.3823
▁বিশ্রাম	-11.3823
▁নেভিস	-11.3823
▁সমকোণ	-11.3823
▁মশলা	-11.3823
▁মহাবিদ্যালয়	-11.3825
▁পক্ষপাত	-11.3827
▁সংহত	-11.3828
111	-11.3829
▁দালান	-11.383
▁স্থানাঙ্ক	-11.383
▁রাজকুমার	-11.3832
▁সেরে	-11.3837
▁যোগফল	-11.3837
▁১৮৭৬	-11.3852
356	-11.387
▁২৬শ	-11.3889
▁যতীন	-11.389
প্লাজম	-11.3891
▁ইঞ্জিনিয়ার	-11.3918
িষ্ণু	-11.3922
▁বইগুলো	-11.3922
নির্দেশ	-11.3923
▁খ্যাতনাম	-11.3924
▁ইতোমধ্যে	-11.3926
▁মধুসূদন	-11.3926
▁শৈল্পিক	-11.3926
▁যীশু	-11.3926
▁কন্ঠ	-11.3926
▁বিস্তীর্	-11.3926
▁সলোমন	-11.3926
▁কেনেডি	-11.3926
▁ছোলা	-11.3926
▁আমাজন	-11.3926
▁বাদামী	-11.3926
▁অভিব্যক্তি	-11.3927
▁অগ্রণী	-11.3927
▁অধিভুক্ত	-11.3927
▁মহাকাশযান	-11.3928
▁ছেদ	-11.3929
▁দাউদ	-11.393
▁রসুন	-11.393
▁পাঠদান	-11.3933
▁দাঁড়িয়েছে	-11.3936
▁কয়েকদিন	-11.3943
▁প্রভু	-11.3944
▁প্রমিত	-11.3945
▁প্রতিকৃতি	-11.3945
▁১৮৮৪	-11.3956
কুন্দ	-11.3963
উরাল	-11.4011
▁অর্থোডক্স	-11.403
▁অ্যাসেম্বলি	-11.403
▁ইন্ডাস্ট্রি	-11.403
▁নিউক্লীয়	-11.403
▁নেতৃস্থানীয়	-11.403
▁সংকোচন	-11.403
▁নির্গমন	-11.403
▁সাইপ্রাস	-11.403
▁শঙ্কু	-11.403
▁মাগুরা	-11.403
▁পাইথন	-11.403
▁আযম	-11.403
▁বাগদাদ	-11.4031
▁চৌদ্দ	-11.4031
▁প্রতাপ	-11.4031
▁বীমা	-11.4032
▁ইলিয়াস	-11.4032
▁ট্যাক্সি	-11.4033
▁সীমান্তবর্তী	-11.4033
▁বানিয়ে	-11.4033
▁ভীম	-11.4034
▁গাউস	-11.4039
▁ক্রুসেডার	-11.4043
▁কৃষ্ণনগর	-11.4045
▁বসত	-11.4097
নুষ্ঠান	-11.4122
কুন্ড	-11.4128
▁অস্বীকৃতি	-11.4135
▁জর্ডান	-11.4135
▁পরিবহণ	-11.4135
▁বিসমাথ	-11.4135
▁মানদণ্ড	-11.4135
▁প্রথমার্ধে	-11.4135
▁দাতব্য	-11.4135
▁বহুজাতিক	-11.4135
▁অভ্যাস	-11.4135
▁নমনীয়	-11.4135
▁চেম্বার	-11.4135
▁গবাদি	-11.4135
▁অথচ	-11.4135
অনুষ্ঠান	-11.4136
▁ঘটলে	-11.4136
▁চাকুরি	-11.4136
▁নিঃসরণ	-11.4138
▁বিশ্বজুড়ে	-11.4139
▁অলৌকিক	-11.4142
▁ইলেকট্রনিক্স	-11.4143
দুর্গ	-11.4144
▁মণ্ডলী	-11.4145
▁ফেলেছে	-11.4146
▁পুথি	-11.4147
▁লিবিয়া	-11.415
late	-11.4151
▁মঞ্চস্থ	-11.4152
▁মিঠা	-11.4154
▁কাটোয়া	-11.4155
▁লঞ্চ	-11.4155
▁সুইস	-11.417
▁অনুভূত	-11.4183
▁উত্সব	-11.4197
▁কুতুব	-11.4204
▁দ্রব	-11.4238
▁ক্যারিবিয়ান	-11.4241
▁তমোপদার্থ	-11.4241
▁পুঁথি	-11.4241
▁বোহেমিয়া	-11.4241
▁সলিমুল্লাহ	-11.4241
▁যাযাবর	-11.4241
▁অস্থিতিশীল	-11.4241
▁তালেবান	-11.4242
▁ষোল	-11.4242
▁টেক্সটাইল	-11.4242
লব্ধ	-11.4242
েনস্টাইন	-11.4242
▁তৈল	-11.4243
▁শ্রেণীবিন্যাস	-11.4243
▁চিত্রকলা	-11.4244
▁মার্বেল	-11.4244
▁আবশ্যক	-11.4245
▁ভারতরত্ন	-11.4248
বার্তা	-11.4251
▁আলাপ	-11.4256
▁অধিকৃত	-11.4257
২০০৬	-11.4262
▁লুকিয়	-11.4288
roman	-11.4295
▁ফ্র্যা	-11.4322
▁উজবেক	-11.4349
▁party	-11.4349
▁ইউটিউব	-11.4349
▁একচেটিয়া	-11.4349
▁ক্ষয়ক্ষতি	-11.4349
▁গৃহপালিত	-11.4349
▁তাপগতিবিদ্যা	-11.4349
▁নাতিশীতোষ্ণ	-11.4349
▁নেত্রকোণা	-11.4349
▁উদ্ভাবক	-11.4349
▁অহিংস	-11.4349
ফাইনাল	-11.4349
▁ঢেউ	-11.4349
“	-11.4349
▁জ্বালানী	-11.4349
▁গায়ানা	-11.435
▁শ্লোক	-11.435
▁ইমেজ	-11.435
▁মল্লিক	-11.435
▁ফৌজদার	-11.4351
চৌম্বক	-11.4351
▁তবলা	-11.4351
▁মনসুর	-11.4352
▁ফিনিশ	-11.4353
▁সুইচ	-11.4354
▁time	-11.4354
▁শান্তিপূর্ণ	-11.4358
▁হ্যারিসন	-11.4359
▁পিছু	-11.436
▁স্ক্যান	-11.4388
ight	-11.4388
▁চর্যা	-11.4391
কূট	-11.4399
841	-11.4402
সুলভ	-11.4406
▁নৌপথ	-11.4426
▁কবুতর	-11.4458
▁ক্রিস্টোফার	-11.4458
▁গ্যালিলিও	-11.4458
▁তাৎক্ষণিক	-11.4458
▁নীহারিকা	-11.4458
▁মিজোরাম	-11.4458
▁মেমোরিয়াল	-11.4458
▁অ্যাপোলো	-11.4458
▁নাযিল	-11.4458
▁ম্যাকওএস	-11.4458
▁অ্যাঙ্গোলা	-11.4458
▁স্কাউট	-11.4458
▁বাইনারি	-11.4458
▁অবাধ	-11.4458
▁সিলিকন	-11.4458
▁আলফ্রেড	-11.4458
▁কর্মসূচী	-11.4458
▁ফরিদ	-11.4459
▁শ্বেতাঙ্গ	-11.4459
সূর্য	-11.446
▁কাজাখ	-11.446
▁ভগ্নাংশ	-11.446
▁প্রবেশদ্বার	-11.4461
▁উপজাতীয়	-11.4467
▁নবাবগঞ্জ	-11.4469
জ্যাক	-11.45
▁গ্রেড	-11.4504
▁অনুপ্রবেশ	-11.4568
▁আনাতোলিয়া	-11.4568
▁গর্বাচেভ	-11.4568
▁তথাকথিত	-11.4568
▁দূতাবাস	-11.4568
▁প্রফুল্ল	-11.4568
▁ব্যাটসম্যান	-11.4568
▁সার্টিফিকেট	-11.4568
▁স্ট্রাইকার	-11.4568
▁দ্বিতীয়ার্ধে	-11.4568
▁বহিরাগত	-11.4568
▁ছাত্রাবাস	-11.4568
▁গ্রাউন্ড	-11.4568
▁সোমবার	-11.4568
▁বিক্রমপুর	-11.4568
▁কৌতুক	-11.4568
▁একসঙ্গে	-11.4568
▁প্রতিহত	-11.4568
▁ভালবাসা	-11.4568
▁ভোল্টেজ	-11.4568
▁হতাশা	-11.4568
▁নিপীড়ন	-11.457
▁আশরাফ	-11.4571
সেকেন্ড	-11.4571
▁ডিউক	-11.4571
▁ঈশ্বরচন্দ্র	-11.4572
▁পুর্ব	-11.4573
▁উপনিষদ্	-11.4574
▁অনুলিপি	-11.4574
▁কায়রো	-11.4576
▁পলিমার	-11.4579
▁বচন	-11.4586
তরঙ্গ	-11.461
▁যুক্তিবিজ্ঞান	-11.4618
▁ব্যবধান	-11.465
▁এভারেস্ট	-11.4679
▁পর্তুগীজ	-11.4679
▁ভেনেজুয়েলা	-11.4679
▁শিলিগুড়ি	-11.4679
▁নির্বাসিত	-11.4679
▁মোতায়েন	-11.4679
▁জব্বার	-11.4679
ানুভূতি	-11.4679
▁সুবিধার্থে	-11.4679
▁নিখিল	-11.4679
▁মগধ	-11.4679
▁কোরআন	-11.4679
▁বাছাইপর্ব	-11.4679
▁শিকড়	-11.4679
▁ইন্ডিজ	-11.4679
▁শরৎচন্দ্র	-11.468
▁প্যাটার্ন	-11.468
▁টাইটান	-11.4682
অক্সাইড	-11.4682
▁প্ররোচ	-11.4684
▁2006	-11.4685
▁ফোরাম	-11.4686
▁ধর্মঘট	-11.4689
হিন্দু	-11.469
▁আসীন	-11.4691
▁আর্কিয়া	-11.4698
▁বেকন	-11.47
▁অধিবেশন	-11.471
কানুন	-11.4733
▁উপনিষদ	-11.4785
সাম্য	-11.479
▁অস্ট্রেলীয়	-11.4791
▁আশ্চর্য	-11.4791
▁ফার্মাসিস্ট	-11.4791
▁জলপাইগুড়ি	-11.4791
▁ব্যাটালিয়ন	-11.4791
▁মাধ্যাকর্ষণ	-11.4791
▁মৃৎশিল্প	-11.4791
▁ঠাণ্ডা	-11.4791
▁অ্যান্টিবডি	-11.4791
▁চিংড়ি	-11.4791
united	-11.4791
▁আলাউদ্দিন	-11.4791
▁পাথরঘাটা	-11.4791
work	-11.4791
▁সিদ্দিক	-11.4791
▁পশতু	-11.4792
▁আকাশগঙ্গা	-11.4792
▁স্বরবর্ণ	-11.4792
▁ট্রান্সপোর্ট	-11.4793
▁এঁদের	-11.4793
▁ধারাবাহিকতায়	-11.4794
▁আকরিক	-11.4794
▁ক্ষত	-11.4797
▁লেনিন	-11.4798
poem	-11.4799
▁ফ্যাশন	-11.48
▁টেলিগ্রাফ	-11.4801
▁হাইওয়ে	-11.4802
▁ক্রিস্টি	-11.4804
▁জিউস	-11.4805
▁সেলিম	-11.4806
▁সুবাদে	-11.4815
হট্ট	-11.482
▁pre	-11.4833
▁অনিশ্চয়তা	-11.4905
▁আচ্ছাদিত	-11.4905
▁নীলফামারী	-11.4905
▁প্রগতিশীল	-11.4905
▁প্লুটো	-11.4905
▁প্ল্যাটফর্ম	-11.4905
▁ইসমাইল	-11.4905
▁কুড়িগ্রাম	-11.4905
▁পদাতিক	-11.4905
▁পারদর্শী	-11.4905
▁সুগন্ধ	-11.4905
▁শাহরুখ	-11.4905
▁মিশিয়ে	-11.4905
▁নির্বাসন	-11.4905
▁হাস্যরসাত্মক	-11.4905
▁বল্লাল	-11.4905
▁চর্বি	-11.4905
▁ঘটনাবলি	-11.4905
ওয়েস্টার্ন	-11.4905
▁ঘনীভূত	-11.4907
▁মরিস	-11.4907
▁রমেশ	-11.4907
▁ডেনিস	-11.4907
▁বংশগতি	-11.4908
▁দিচ্ছে	-11.4909
ঈশ্বর	-11.491
লিখিত	-11.4925
সমর্থ	-11.4942
▁star	-11.4951
nom	-11.4975
ট্রন	-11.4976
▁প্রাকৃত	-11.4996
880	-11.5013
▁পুণ্ড্র	-11.502
▁উদ্বুদ্ধ	-11.502
▁উপাখ্যান	-11.502
▁কৃষ্ণগহ্বর	-11.502
▁ত্বরান্বিত	-11.502
▁মরোক্কো	-11.502
▁শতাব্দি	-11.502
▁সংকীর্ণ	-11.502
▁সম্বোধন	-11.502
▁সর্বোত্তম	-11.502
▁ইনপুট	-11.502
▁বিরাজমান	-11.502
▁দানিউব	-11.502
▁সঞ্চিত	-11.502
▁কনিষ্ঠ	-11.502
▁সেমিফাইনালে	-11.502
▁সুমেরীয়	-11.502
▁নিবিড়	-11.502
▁পাঁচালী	-11.502
▁লিংকন	-11.502
▁সাঈদ	-11.502
▁গ্রীন	-11.5021
▁অর্জিত	-11.5022
946	-11.5022
▁সরলরেখা	-11.5022
সংস্কৃত	-11.5022
▁রেডিয়াম	-11.5023
▁শুকিয়ে	-11.5025
▁গুণফল	-11.5027
▁পেরিয়ে	-11.5031
পুকুর	-11.5031
▁বনগাঁ	-11.5074
▁সৌদ	-11.5105
▁ক্যারোল	-11.5127
▁চিড়িয়াখানা	-11.5136
▁তাজিকিস্তান	-11.5136
▁অনুধাবন	-11.5136
▁অভয়ারণ্য	-11.5136
▁এসোসিয়েশন	-11.5136
▁কনফেডারেশন	-11.5136
▁গ্রীষ্মমন্ডলীয়	-11.5136
▁দুগ্ধ	-11.5136
▁পাদদেশে	-11.5136
▁বঙ্কিমচন্দ্র	-11.5136
▁মরণোত্তর	-11.5136
▁যুক্তফ্রন্ট	-11.5136
▁রুপান্তরিত	-11.5136
▁নিরক্ষীয়	-11.5136
▁হংকং	-11.5136
▁কৈশোর	-11.5136
▁ফটোশপ	-11.5136
▁ইউনিভার্স	-11.5136
▁প্রচ্ছদ	-11.5136
▁ইলেক্ট্রো	-11.5136
▁যাবৎ	-11.5136
▁সাক্ষী	-11.5136
▁গণপরিবহন	-11.5137
সম্ভব	-11.5137
▁পূর্ণিমা	-11.5137
▁প্যাকেজ	-11.5137
▁ক্রিপ্টন	-11.5137
▁নাম্বার	-11.5138
▁দুরত্ব	-11.5138
▁রহস্যময়	-11.5139
▁শচীন	-11.5139
▁নববর্ষ	-11.5139
▁উপেক্ষা	-11.5142
▁ফোর্ট	-11.5142
▁সাম্প্রতিককালে	-11.5152
▁রুশদ	-11.5161
▁india	-11.5162
▁আলীবর্দী	-11.5254
▁কন্ট্রোল	-11.5254
▁কোপার্নিকাস	-11.5254
▁চ্যাটবট	-11.5254
▁ঝিনাইদহ	-11.5254
▁ডকুমেন্ট	-11.5254
▁হালনাগাদ	-11.5254
▁হেলিকপ্টার	-11.5254
▁সংকলিত	-11.5254
▁সোশ্যাল	-11.5254
▁গৌরী	-11.5254
▁তদানী	-11.5254
▁রোমান্টিক	-11.5254
▁হরমোন	-11.5254
▁ইস্পাত	-11.5254
▁প্রত্যাশা	-11.5254
▁দেখাশোনা	-11.5254
▁ভাঁজ	-11.5254
▁নৃতাত্ত্বিক	-11.5254
▁হলিউড	-11.5254
▁পেটেন্ট	-11.5255
▁ভেনিস	-11.5255
▁রাশিমালা	-11.5256
▁বাস্তবায়িত	-11.5258
▁পূর্ণসংখ্যা	-11.526
▁চিন্তাবিদ	-11.5261
পরিচয়	-11.5264
▁মনোরম	-11.5265
সম্মান	-11.5266
▁ফরেস্ট	-11.5267
▁ঘেরা	-11.5273
কল্যাণ	-11.5311
plan	-11.5313
▁রঙ্গ	-11.5347
▁অনিয়মিত	-11.5373
▁অন্বেষণ	-11.5373
▁অসম্পূর্ণ	-11.5373
▁উড্ডয়ন	-11.5373
▁ব্যয়বহুল	-11.5373
▁অপহরণ	-11.5373
▁ইউসুফ	-11.5373
▁সালতানাত	-11.5373
▁পড়াশুনা	-11.5373
▁হোস্টেল	-11.5373
▁বিশ্বভারতী	-11.5373
▁গিলমোর	-11.5373
▁লেখনী	-11.5373
▁দর্শনার্থী	-11.5373
▁হায়দার	-11.5373
▁বাচ্চু	-11.5373
▁নিরাময়	-11.5373
▁পঞ্চদশ	-11.5373
▁ওয়াল্টার	-11.5374
ইউরোপ	-11.5375
▁ফতেহ	-11.5376
▁প্রবেশাধিকার	-11.5376
▁অ্যাকাউন্ট	-11.5377
▁জাদুকর	-11.5378
▁টাইগার	-11.5378
▁ফোটন	-11.538
▁অনুমিত	-11.5384
উপন্যাস	-11.5384
▁অগ্রদূত	-11.5493
▁কোটালীপাড়া	-11.5493
▁ক্যান্টনমেন্ট	-11.5493
▁ছাত্রছাত্রী	-11.5493
▁দূরবীক্ষণ	-11.5493
▁নেপোলিয়ন	-11.5493
▁সংশোধিত	-11.5493
▁দুর্লভ	-11.5493
▁বিবর্তিত	-11.5493
▁ভ্রূণ	-11.5493
▁ইস্টার্ন	-11.5493
▁ভীষণ	-11.5493
▁প্রজেক্ট	-11.5493
▁বর্ষসেরা	-11.5493
▁গৌণ	-11.5493
▁ক্ষমতাসীন	-11.5493
▁লেখিকা	-11.5493
▁সত্যজিতের	-11.5493
▁দেওয়ানগঞ্জ	-11.5493
▁আইজাক	-11.5493
▁তারতম্য	-11.5494
▁ত্রিমাত্রিক	-11.5494
▁মুকুট	-11.5495
▁কমিউন	-11.5497
▁শাসনকর্তা	-11.5498
▁পুতুল	-11.5501
স্বাধীনতা	-11.5507
আঁশ	-11.5515
astro	-11.555
▁নিকারাগুয়া	-11.5615
ইম্পেরিয়াল	-11.5615
▁আদমশুমারী	-11.5615
▁উদ্বাস্তু	-11.5615
▁গোড়াপত্তন	-11.5615
▁থোরিয়াম	-11.5615
▁মাদরাসা	-11.5615
▁রফতানি	-11.5615
▁হাইস্কুল	-11.5615
▁ভাইসরয়	-11.5615
▁ভোক্তা	-11.5615
▁গ্রানাডা	-11.5615
▁কলেজিয়েট	-11.5615
▁ট্রিনিটি	-11.5615
▁রজনী	-11.5615
▁you	-11.5615
▁লিসবন	-11.5616
▁অগ্রাধিকার	-11.5616
▁মহাকাশচারী	-11.5616
▁বদলি	-11.5616
▁করুণ	-11.5617
▁ঐক্যবদ্ধ	-11.5617
▁হিউম্যান	-11.5618
▁পরিসীমা	-11.562
541	-11.5629
চট্টগ্রাম	-11.563
ডিসেম্বর	-11.563
দ্বন্দ্ব	-11.563
নুসারে	-11.5702
প্রতিষ্ঠিত	-11.5731
▁অধ্যাদেশ	-11.5738
▁তীর্থযাত্রী	-11.5738
▁প্রাসঙ্গিক	-11.5738
▁বিপজ্জনক	-11.5738
▁ভাগীরথী	-11.5738
▁মাইটোসিস	-11.5738
▁মোশাররফ	-11.5738
▁রক্ষণভাগের	-11.5738
▁সরীসৃপ	-11.5738
-----	-11.5738
▁জগদীশ	-11.5738
▁পাকসেনা	-11.5738
▁প্রবীণ	-11.5738
▁পাটিগণিত	-11.5738
▁শুল্ক	-11.5738
▁উৎখাত	-11.5738
▁পাকস্থলী	-11.5739
▁কাপ্তাই	-11.5739
▁অসমীয়া	-11.5739
▁ভবানী	-11.5739
▁মঞ্জিল	-11.5739
▁মৃত্যুদন্ড	-11.5739
প্রক্রিয়াজাতকরণ	-11.5739
▁ফাজিল	-11.5739
বেলগ্রেড	-11.574
▁চর্যাপদ	-11.574
▁কুর্দি	-11.574
▁রক্ষিত	-11.5741
▁পৌষ	-11.5742
স্টেইন	-11.5788
="383	-11.5792
846	-11.5817
াইটিস	-11.5819
▁উন্মোচন	-11.5863
▁এলাহাবাদ	-11.5863
▁ক্যাথেড্রাল	-11.5863
▁গীর্জা	-11.5863
▁বন্দোবস্ত	-11.5863
▁ভিলহেল্	-11.5863
▁দৃষ্টান্ত	-11.5863
▁ভগবান	-11.5863
▁সেহেতু	-11.5863
▁অসহযোগ	-11.5863
▁অভিভাবক	-11.5863
▁সুবেদার	-11.5863
▁বিজনেস	-11.5864
▁সসীম	-11.5864
▁কন্নড়	-11.5864
▁জুরিখ	-11.5864
▁রেফারি	-11.5864
▁শ্রেনী	-11.5864
▁পন্থা	-11.5864
▁দাশগুপ্ত	-11.5864
▁পর্বতশ্রেণী	-11.5865
▁শীর্ষবিন্দু	-11.5865
▁গর্ব	-11.5866
▁জাহাঙ্গীরনগর	-11.5867
▁মার্কসবাদ	-11.5869
▁মটর	-11.5874
অধুনা	-11.5881
ছোট	-11.5895
▁হালিম	-11.5905
▁বৈশিষ্ট	-11.5982
জ্জ্বল	-11.5987
william	-11.599
্ত্যেষ্টিক্রিয়া	-11.599
▁আশুতোষ	-11.599
▁উৎকৃষ্ট	-11.599
▁ক্রমান্বয়	-11.599
▁জিম্বাবুয়ে	-11.599
▁জেরুজালেম	-11.599
▁ডিস্ট্রিবিউশন	-11.599
▁ত্রিকোণমিতি	-11.599
▁ফারেনহাইট	-11.599
▁বহিষ্কার	-11.599
▁স্পোর্টিং	-11.599
▁উপজীব্য	-11.599
▁ঝাড়খণ্ড	-11.599
▁এরিস্টটল	-11.599
▁স্টিফেন	-11.599
▁কঙ্কাল	-11.599
▁একারণে	-11.599
▁ফরম্যাট	-11.599
▁এডিসন	-11.599
▁লরেন্স	-11.599
▁ট্রিলিয়ন	-11.599
▁পৌরসংস্থা	-11.5991
▁গ্যালারী	-11.5991
▁কালেক্টর	-11.5991
▁ফাঁদ	-11.5991
▁সতীর্থ	-11.5991
▁ঢেকে	-11.5992
▁ঘাটাইল	-11.5993
▁লাঠি	-11.5993
▁অর্থবছরে	-11.5994
▁সীসা	-11.5998
স্বরুপ	-11.6002
▁বিপাক	-11.6003
ব্রিটিশ	-11.601
▁অরবিন্দ	-11.6014
▁অনুপস্থিত	-11.6046
▁মাইটোকন্ড্রিয়া	-11.6108
▁অপরিবর্তিত	-11.6118
▁ঐশ্বরিক	-11.6118
▁কথোপকথন	-11.6118
▁চুনাপাথর	-11.6118
▁টারবিয়াম	-11.6118
▁দুর্দান্ত	-11.6118
▁নেপচুন	-11.6118
▁বৃটিশ	-11.6118
▁মিলিটারি	-11.6118
▁মোহামেডান	-11.6118
▁ম্যাসাচুসেটস	-11.6118
▁লিওনার্দো	-11.6118
▁শৈবাল	-11.6118
▁স্বনামধন্য	-11.6118
▁কৌণিক	-11.6118
▁নব্বই	-11.6118
▁পশ্চাদ	-11.6118
▁ভিক্টর	-11.6118
▁পাপুয়া	-11.6119
বিধ্বস্ত	-11.6119
▁বতুতা	-11.6119
type	-11.6119
▁নেশনস	-11.6119
▁আইওসি	-11.6119
▁মমতা	-11.612
word	-11.6121
▁সার্কেল	-11.6122
নিয়ন্ত্রিত	-11.614
সম্পর্কিত	-11.614
সবুজ	-11.6141
বিস্তার	-11.6142
পূর্ন	-11.6145
▁বিরক্ত	-11.615
▁have	-11.6186
▁স্টিভ	-11.6189
▁খালেদ	-11.6229
▁ধ্রুপদ	-11.623
দৃষ্ট	-11.6248
▁মোহনবাগান	-11.6248
▁অপেক্ষক	-11.6248
▁ক্লোরাইড	-11.6248
▁জওহরলাল	-11.6248
▁জাকার্তা	-11.6248
▁ভুট্টো	-11.6248
▁মৌলভীবাজার	-11.6248
▁রাজপরিবার	-11.6248
▁চৈত্র	-11.6248
▁মোতাবেক	-11.6248
▁স্তোত্র	-11.6248
▁পুনর্বাসন	-11.6248
book	-11.6248
▁নিবেদন	-11.6248
স্তূপ	-11.6248
▁ত্রাণ	-11.6248
▁দাফন	-11.6249
▁প্যারাগুয়ে	-11.6249
▁অর্পণ	-11.625
▁আলোচ্য	-11.6251
▁জানিয়েছেন	-11.6252
ন্যাশনাল	-11.6271
ক্ষুদ্র	-11.6272
সাইকেল	-11.6274
▁ইন্দোনেশীয়	-11.638
▁চাঁপাইনবাবগঞ্জ	-11.638
▁চিন্তাভাবনা	-11.638
▁ততোধিক	-11.638
▁পৌছায়	-11.638
▁বুলগেরিয়া	-11.638
▁মাইক্রোপ্রসেসর	-11.638
▁সিপাহী	-11.638
linguist	-11.638
▁একইসাথে	-11.638
▁পোড়ামাটি	-11.638
▁রাসুল	-11.638
▁পরিকাঠামো	-11.6381
▁স্ট্রিপ	-11.6382
▁অধিকন্তু	-11.6383
▁ওস্তাদ	-11.6383
▁ঢোল	-11.6384
▁সুষম	-11.6384
সুবিধা	-11.6393
east	-11.6408
▁দাঁড়	-11.6419
হিস্পান	-11.6427
উদ্ধৃতি	-11.648
▁সংশ্লেষ	-11.6497
ইলেক্ট্র	-11.651
▁অর্গানাইজেশন	-11.6513
বিদ্বেষ	-11.6513
▁আউটপুট	-11.6513
▁আব্রাহাম	-11.6513
▁কর্ণফুলী	-11.6513
▁কূটনীতি	-11.6513
▁ট্রানজিট	-11.6513
▁দীঘি	-11.6513
▁ধাঁধা	-11.6513
▁পর্বতশৃঙ্গ	-11.6513
▁প্রাদুর্ভাব	-11.6513
▁রেস্তোরাঁ	-11.6513
▁সর্বকনিষ্ঠ	-11.6513
▁which	-11.6513
▁কর্তব্য	-11.6513
▁ক্যালসিয়াম	-11.6513
▁ধর্মান্তরিত	-11.6513
▁মতবিরোধ	-11.6513
▁ফার্স্ট	-11.6513
▁ডপলার	-11.6513
▁ক্রিস্টাল	-11.6513
▁ঢুকে	-11.6513
▁ব্যাপ্তি	-11.6513
▁দৌলতপুর	-11.6513
▁বীজগাণিতিক	-11.6513
▁তাড়াশ	-11.6514
▁রাইফেল	-11.6514
▁সাক্ষাৎকারে	-11.6515
▁রমজান	-11.6515
▁আউলিয়া	-11.6516
▁কূপ	-11.6517
▁মিরপুর	-11.6521
▁কওমি	-11.6525
count	-11.6529
অ্যান্টার্কটিক	-11.6648
▁দাক্ষিণাত্য	-11.6648
▁আন্তোনিও	-11.6648
▁গাইবান্ধা	-11.6648
▁তামিলনাড়ু	-11.6648
▁পদোন্নতি	-11.6648
▁পলিটেকনিক	-11.6648
▁পোকামাকড়	-11.6648
▁বিক্রেতা	-11.6648
▁সম্ভ্রান্ত	-11.6648
▁সিকিউরিটি	-11.6648
▁আবর্তিত	-11.6648
▁বাঙালী	-11.6648
▁সমার্থক	-11.6648
▁স্থূল	-11.6648
▁রন্ধনপ্রণালী	-11.6648
▁মারাঠি	-11.6648
▁দীক্ষা	-11.6648
▁ময়ূর	-11.6648
▁কলিকাতা	-11.6648
▁হাজং	-11.6648
▁স্লাভীয়	-11.6648
▁নির্বিশেষে	-11.6649
▁কেশব	-11.6649
▁পর্ষদ	-11.6649
▁বাল্যকাল	-11.6649
▁ফাঁসি	-11.6649
▁ইনস্টল	-11.6649
▁রিলিজ	-11.665
বল্লভ	-11.665
▁ট্রাফিক	-11.6651
▁কলোনি	-11.6652
▁অব্যবহ	-11.6664
জগৎ	-11.6677
▁রুবিক	-11.6707
▁আগ্নেয়	-11.6785
include	-11.6785
▁আধিকারিক	-11.6785
▁ঋগ্বেদ	-11.6785
▁আকাঙ্ক্ষা	-11.6785
▁নিষেধ	-11.6785
▁যৌবন	-11.6785
▁পূর্বাঞ্চলীয়	-11.6785
▁ম্যানহাটন	-11.6785
▁রাসূল	-11.6785
▁আর্নেস্ট	-11.6785
▁হাঙ্গেরিয়ান	-11.6785
▁পরিবাহিত	-11.6785
▁ফেদেরার	-11.6785
▁পৌছে	-11.6785
▁নাউরু	-11.6785
▁খৃষ্ট	-11.6785
▁মধ্যস্থতা	-11.6786
▁ইমারত	-11.6786
▁গম্ভীরা	-11.6786
▁নিক্সন	-11.6786
বেরুনী	-11.6787
▁আফ্রো	-11.6787
▁হিজরত	-11.6787
▁সঙ্কট	-11.6789
▁দৈত্য	-11.679
আন্তর্জাতিক	-11.6816
সমষ্টি	-11.6816
তথ্য	-11.6816
ঐ	-11.6816
বহির্ভূত	-11.6825
836	-11.6876
shah	-11.6877
843	-11.6905
▁উদযাপিত	-11.6924
▁উদ্যোক্তা	-11.6924
▁কনফারেন্স	-11.6924
▁কনভেনশন	-11.6924
▁কানাডিয়ান	-11.6924
▁কোপেনহেগেন	-11.6924
▁পিথাগোরাস	-11.6924
ম্যাগনেটিক	-11.6924
▁শোষিত	-11.6924
▁উমাইয়া	-11.6924
▁তরমুজ	-11.6924
▁ভ্রাতা	-11.6924
▁যমজ	-11.6924
▁পরিগণনা	-11.6924
▁সচিবালয়	-11.6925
▁মেরামত	-11.6925
ization	-11.6926
▁সংশয়	-11.6926
▁মেধাবী	-11.6926
▁বায়রন	-11.6926
▁পুনঃপ্রতিষ্ঠ	-11.6927
আফ্রিকা	-11.6956
ফরাসি	-11.6957
▁তত্ত্বাবধান	-11.697
এখন	-11.6976
সূচি	-11.7016
▁অনানুষ্ঠানিক	-11.7036
▁মৃণাল	-11.7065
▁অপভ্রংশ	-11.7065
▁ক্যাথিড্রাল	-11.7065
▁খাগড়াছড়ি	-11.7065
▁গাঠনিক	-11.7065
▁ডিপ্লোমা	-11.7065
▁তৃণমূল	-11.7065
▁ধর্ষণ	-11.7065
▁পারফরম্যান্স	-11.7065
▁পৌছান	-11.7065
▁ব্যারাকপুর	-11.7065
▁রেমিটেন্স	-11.7065
▁লিথুয়ানিয়া	-11.7065
▁ইসরাইল	-11.7065
▁ফসফেট	-11.7065
▁রঘু	-11.7065
▁্যাঙ্কিং	-11.7065
▁ঈগল	-11.7065
▁কলম্বাস	-11.7065
▁পেঁপে	-11.7065
▁রন্ধন	-11.7065
▁দামোদর	-11.7065
▁পুঠিয়া	-11.7065
▁ছিটিয়ে	-11.7065
▁শিন্টো	-11.7065
▁কর্মকান্ড	-11.7065
▁সুবাদার	-11.7065
▁একপ্রকার	-11.7065
▁স্প্রিং	-11.7065
▁ভিক্ষু	-11.7065
▁শংকর	-11.7065
▁জিনোম	-11.7066
▁পিয়ানো	-11.7066
▁পাল্টা	-11.7066
▁স্টাফ	-11.7067
▁গার্লস	-11.7067
▁গেজেট	-11.7067
▁বাড়াতে	-11.7067
▁রোকেয়া	-11.7069
মুম্বই	-11.7098
অধ্য	-11.7135
ত্‍	-11.7144
▁উত্তরসূরী	-11.7208
▁এনজাইম	-11.7208
▁তৈমুর	-11.7208
august	-11.7208
▁অবিলম্বে	-11.7208
▁আসানসোল	-11.7208
▁ইটারবিয়াম	-11.7208
▁কার্যনির্বাহী	-11.7208
▁ক্ষুব্ধ	-11.7208
▁গ্নোম	-11.7208
▁তৃণভূমি	-11.7208
▁ধার্মিক	-11.7208
▁নবজাগরণ	-11.7208
▁মতিঝিল	-11.7208
▁মহম্মদ	-11.7208
▁মিষ্টান্ন	-11.7208
▁লিউকেমিয়া	-11.7208
▁শ্রীরামকৃষ্ণ	-11.7208
▁সংক্রামক	-11.7208
▁সচরাচর	-11.7208
▁সমানুপাতিক	-11.7208
▁সৌমিত্র	-11.7208
▁হেপাটাইটিস	-11.7208
▁theory	-11.7208
▁হতাহত	-11.7208
▁একবিংশ	-11.7208
▁সিঁড়ি	-11.7208
াগুয়া	-11.7208
▁ব্যাবেজ	-11.7208
▁রাজৈর	-11.7208
▁সিডনি	-11.7208
▁এঞ্জেল	-11.7209
▁ঘটক	-11.7209
▁এড়াতে	-11.721
▁যাঁরা	-11.7211
াস্পিয়ান	-11.7227
▁জ্ঞাত	-11.7228
গোবিন্দ	-11.7244
তৎকালীন	-11.7244
▁ভোল্ট	-11.7352
▁কারাদণ্ড	-11.7353
▁ঘেঁষে	-11.7353
▁চন্দ্রশেখর	-11.7353
▁ট্যাবলেট	-11.7353
▁ঠোঁট	-11.7353
▁বদলগাছী	-11.7353
▁সোহরাওয়ার্দী	-11.7353
▁স্বৈরাচার	-11.7353
▁স্যামুয়েল	-11.7353
▁অর্কেস্ট্রা	-11.7353
▁বিঘ্ন	-11.7353
▁সুরারোপ	-11.7353
▁জলাধার	-11.7353
▁সুয়েডীয়	-11.7353
▁নান্দাইল	-11.7353
▁ধাক্কা	-11.7353
▁ক্লাইভ	-11.7353
▁ভেষজ	-11.7353
▁আবদুস	-11.7353
▁পরিগণক	-11.7353
great	-11.7353
▁river	-11.7353
▁প্রতিসরণ	-11.7353
▁ইন্টিগ্র	-11.7353
▁সুয়েজ	-11.7353
▁ইনিংস	-11.7354
▁সহকারে	-11.7355
▁টিকিট	-11.7357
োৎসব	-11.7357
▁বোয়িং	-11.736
▁সিনহা	-11.7367
▁সারাদেশে	-11.737
▁শকুন	-11.7389
প্রাকৃতিক	-11.7391
▁আমানত	-11.7406
যোদ্ধা	-11.7417
▁খানিকট	-11.7424
▁নুরুল	-11.7499
শঙ্খ	-11.75
▁ট্র্যাফোর্ড	-11.75
▁এখতিয়ার	-11.75
▁নেতৃবৃন্দ	-11.75
▁পিটার্সবার্গ	-11.75
▁বেঙ্গালুরু	-11.75
▁ব্রাউজার	-11.75
▁ভ্রাতৃ	-11.75
▁মেট্রোপলিটান	-11.75
▁খাদ্যশস্য	-11.75
▁সাব্যস্ত	-11.75
▁অম্বিকা	-11.75
▁দৈহিক	-11.75
▁যুদ্ধবিরতি	-11.75
▁শ্রবণ	-11.75
▁আলবেনীয়	-11.75
▁আন্দামান	-11.75
▁খুচরা	-11.75
▁বুঝে	-11.75
▁কুয়াশা	-11.75
▁টলেমি	-11.75
▁ভুমিকা	-11.75
▁সাম্যাবস্থা	-11.75
▁ঈসা	-11.7501
সন্তান	-11.7501
বোম্বেটে	-11.7502
ফিজিক্স	-11.7529
পৃথিবী	-11.754
সেপ্টেম্বর	-11.754
নাট্যধর্মী	-11.7608
▁মুর্শিদ	-11.7648
▁এনট্রপি	-11.7649
▁ঘর্ষণ	-11.7649
▁দ্রৌপদী	-11.7649
▁বংশাণুসমগ্র	-11.7649
▁শরীয়তপুর	-11.7649
▁কথাসাহিত্যিক	-11.7649
▁ডিরেক্টর	-11.7649
▁সাধারনত	-11.7649
codice	-11.7649
psych	-11.7649
▁ইথানল	-11.7649
▁নবান্ন	-11.7649
▁বাকেরগঞ্জ	-11.7649
স্ফিয়ার	-11.7649
▁স্বেচ্ছাসেবক	-11.7649
▁টীকা	-11.7649
▁ঝাঁপ	-11.7649
▁ভগ্ন	-11.7649
▁নির্মম	-11.7649
▁নৃগোষ্ঠী	-11.7649
▁খাজনা	-11.765
▁রাখলে	-11.765
▁গুজব	-11.7651
নরওয়েজীয়	-11.7652
467	-11.7654
george	-11.7655
পরিবহন	-11.7691
সমুদ্র	-11.7692
অথবা	-11.7692
ফসফ	-11.7795
সালোকসংশ্লেষ	-11.78
▁অগভীর	-11.78
▁অসন্তোষ	-11.78
▁এডুকেশন	-11.78
▁খ্রীষ্টাব্দে	-11.78
▁ঝালকাঠি	-11.78
▁টেকনিক্যাল	-11.78
▁ন্যায্য	-11.78
▁পর্যায়ক্রমিক	-11.78
▁ফেব্রুয়ারী	-11.78
▁ম্যানেজমেন্ট	-11.78
▁রপ্তানী	-11.78
▁শারীরস্থান	-11.78
▁সুস্বাদু	-11.78
▁হেরিটেজ	-11.78
▁ইনডেক্স	-11.7801
▁ইস্তাম্বুল	-11.7801
▁নেপথ্য	-11.7801
▁চ্যাপ্টা	-11.7801
▁হেঁটে	-11.7801
▁বাড়ছে	-11.7801
▁টেলিস্কোপ	-11.7801
▁স্থলবেষ্টিত	-11.7801
▁কুঠি	-11.7802
▁ঘুরতে	-11.7803
দিঘী	-11.7809
সন্ধা	-11.7834
িফিকেশন	-11.784
নভেম্বর	-11.7846
বাঙালি	-11.7846
▁প্রেক্ষাপট	-11.7949
আন্দালুস	-11.7952
▁অশ্বারোহী	-11.7954
▁উত্থাপিত	-11.7954
▁পশ্চাৎ	-11.7954
▁বিচ্ছুরণ	-11.7954
▁স্যানিটেশন	-11.7954
▁জম্মু	-11.7954
▁উভচর	-11.7954
▁তেলুগু	-11.7954
▁হাইব্রিড	-11.7954
▁ভলিবল	-11.7954
▁বাঙ্গালী	-11.7954
▁উঠছে	-11.7954
বুয়েনোস	-11.7954
▁বিপণন	-11.7955
▁সাত্তার	-11.7955
▁লাদেন	-11.7955
মানুয়েল	-11.7955
▁পশম	-11.7956
বের্তো	-11.7957
▁মানবদেহে	-11.7957
▁মেঝে	-11.7959
সূচী	-11.7993
আন্দোলন	-11.8002
আমাদের	-11.8003
নিম্ন	-11.8003
পবিত্র	-11.8006
লৌকিক	-11.81
▁সুভাষ	-11.811
▁অপেশাদার	-11.8111
▁কতিপয়	-11.8111
▁কম্পাইলার	-11.8111
▁জরিমানা	-11.8111
▁পুয়ের্তো	-11.8111
▁প্যাসিফিক	-11.8111
▁ভ্লাদিমির	-11.8111
▁মুখার্জী	-11.8111
▁মোকাবিলা	-11.8111
▁রামানুজন	-11.8111
▁সাইটোপ্লাজম	-11.8111
▁চলনবিল	-11.8111
▁ডগলাস	-11.8111
▁খন্দকার	-11.8111
▁ইনজুরি	-11.8111
▁মিলিগ্রাম	-11.8111
▁সূর্যাস্ত	-11.8111
▁নান্দনিক	-11.8111
▁মুখোশ	-11.8111
▁সমবেত	-11.8111
▁কচ্ছপ	-11.8111
▁মান্নান	-11.8111
▁সান্তো	-11.8113
▁প্রভাত	-11.8117
প্রণালী	-11.8161
প্রাচীর	-11.8161
পারমাণবিক	-11.8161
সাংস্কৃতিক	-11.8161
▁কখন	-11.8216
অ্যান্টিবায়োটিক	-11.8269
▁অতিনবতারা	-11.8269
▁অমিতাভ	-11.8269
▁আকস্মিক	-11.8269
▁ইউক্যারিওট	-11.8269
▁ক্ষুদিরাম	-11.8269
▁পূর্বসূরী	-11.8269
▁ফাল্গুন	-11.8269
▁বুড়িগঙ্গা	-11.8269
▁মার্গারেট	-11.8269
▁মোৎসার্ট	-11.8269
▁সপরিবারে	-11.8269
▁ধাঁচ	-11.8269
▁প্রবক্তা	-11.8269
▁মহিষাসুর	-11.8269
▁কান্দাহার	-11.8269
▁দাসপ্রথা	-11.8269
াধ্যক্ষ	-11.8269
▁মিখাইল	-11.8269
▁সিগনাল	-11.8269
▁মেডিসিন	-11.827
▁সুমেরু	-11.827
▁প্রাপক	-11.827
▁সবশেষে	-11.827
▁অবহেলা	-11.827
▁পাওলো	-11.827
▁কাফেলা	-11.827
multi	-11.8271
পাক্ষিক	-11.8273
ব্যাহত	-11.8275
চুম্বকীয়	-11.8287
বৃহৎ	-11.8321
অঞ্চল	-11.8322
উদাহরণস্বরূপ	-11.8322
বুদ্ধি	-11.8322
সেবক	-11.8363
▁ঝোঁক	-11.8431
▁আর্জেন্টিনীয়	-11.8431
▁উপবৃত্তাকার	-11.8431
▁ক্ষতিপূরণ	-11.8431
▁ঘৃণা	-11.8431
▁টেরিটোরি	-11.8431
▁তীক্ষ্ণ	-11.8431
▁থ্যালাসেমিয়া	-11.8431
▁নৃশংস	-11.8431
▁পরিপূরক	-11.8431
▁পুনরুজ্জীবিত	-11.8431
▁ফটিকছড়ি	-11.8431
▁ফেরেশতা	-11.8431
▁ম্যানগ্রোভ	-11.8431
▁শারীরবৃত্তীয়	-11.8431
▁সন্নিকট	-11.8431
▁নামাঙ্কিত	-11.8431
▁বঞ্চিত	-11.8431
▁সমকামী	-11.8431
▁অভিশাপ	-11.8431
▁জালিয়াতি	-11.8431
▁গ্নু	-11.8431
▁জয়ন্তী	-11.8431
▁প্রুশিয়া	-11.8431
▁প্রতিবন্ধী	-11.8431
▁ব্যাটারি	-11.8431
▁শহিদ	-11.8431
▁বৈরুত	-11.8432
micro	-11.8432
নাক্ষত্র	-11.8441
▁পিঠে	-11.8444
মতান্তরে	-11.8469
অন্যান্য	-11.8486
bengali	-11.8499
▁সেরিয়	-11.8581
▁অধিদপ্তর	-11.8595
▁ঘনবসতিপূর্ণ	-11.8595
▁জনপরিসংখ্যান	-11.8595
▁জলোচ্ছ্বাস	-11.8595
▁পারিশ্রমিক	-11.8595
▁রাদারফোর্ড	-11.8595
▁রায়চৌধুরী	-11.8595
▁সিগন্যাল	-11.8595
electro	-11.8595
▁আর্কাইভ	-11.8595
▁শাহজালাল	-11.8595
▁শ্রাবণ	-11.8595
▁চোপড়া	-11.8595
▁লাগলেন	-11.8595
▁সমধিক	-11.8595
▁কালকিনি	-11.8595
computer	-11.8595
▁শ্বসন	-11.8595
▁বেহুলা	-11.8595
▁সেল্টিক	-11.8595
▁আতঙ্ক	-11.8595
চেতনা	-11.8621
সম্প্রদায়	-11.8653
অক্টোবর	-11.8653
প্রমাণ	-11.8653
তুর্কি	-11.8655
="142	-11.8678
সেপ্ট	-11.8708
স্রোত	-11.8738
▁দারিদ্র	-11.8744
▁টেক্সট	-11.8761
function	-11.8761
▁ইনস্টিটিউশন	-11.8761
▁কুসংস্কার	-11.8761
▁গণপরিষদ	-11.8761
▁গবাদিপশু	-11.8761
▁নিমজ্জিত	-11.8761
▁পাঠ্যপুস্তক	-11.8761
▁মনস্তাত্ত্বিক	-11.8761
▁লালমনিরহাট	-11.8761
▁লুডভিগ	-11.8761
▁জরুরী	-11.8761
▁পার্থিব	-11.8761
▁লেনদেন	-11.8761
▁প্রবর্তক	-11.8761
▁কলাম্বিয়া	-11.8761
▁ইপিআর	-11.8761
:10.10	-11.8761
▁শিথিল	-11.8761
ঔ	-12.3268
́	-12.637
ঋ	-13.8311
<	-13.8312
