<unk>	0
<s>	0
</s>	0
▁de	-3.22658
,	-3.26643
'	-3.5592
.	-3.58362
▁la	-3.61923
▁i	-3.88521
s	-3.95535
▁el	-3.97459
▁a	-3.9766
▁l	-4.18664
▁	-4.21152
▁que	-4.35952
▁d	-4.43
▁en	-4.44972
▁del	-4.64536
▁per	-4.76889
▁les	-4.78712
▁els	-4.90336
▁un	-5.02185
▁es	-5.04051
a	-5.06182
▁va	-5.10738
"	-5.13643
▁amb	-5.18784
▁al	-5.24665
▁una	-5.26464
▁és	-5.31461
▁"	-5.41247
▁com	-5.4281
▁(	-5.49791
-	-5.55711
▁s	-5.62337
▁dels	-5.63175
▁més	-5.63256
▁o	-5.72191
r	-5.72572
en	-5.77116
#	-5.80743
="	-5.80904
t	-5.81949
▁#	-5.84123
▁no	-5.84126
d	-5.86467
es	-5.98747
:	-6.01339
)	-6.12543
▁ser	-6.1612
▁ha	-6.20229
·	-6.2103
da	-6.26874
doc	-6.29071
>	-6.30732
ca	-6.32174
▁van	-6.32924
▁són	-6.35889
▁seu	-6.39826
l	-6.41224
i	-6.43273
▁entre	-6.44146
à	-6.44559
▁seva	-6.44906
▁hi	-6.47721
▁també	-6.48067
un	-6.49082
o	-6.53268
ment	-6.5392
;	-6.55336
ar	-6.56048
c	-6.61069
n	-6.61509
),	-6.62392
des	-6.66156
nt	-6.66639
se	-6.70187
/	-6.71144
▁però	-6.73939
▁fins	-6.74575
e	-6.7549
m	-6.75853
la	-6.76077
▁pel	-6.79919
).	-6.79948
▁tot	-6.80199
▁als	-6.80717
va	-6.8094
▁aquest	-6.82015
▁cap	-6.85367
any	-6.86256
▁part	-6.87778
org	-6.89665
▁gran	-6.89815
",	-6.90808
at	-6.93511
ia	-6.93832
ció	-6.94063
?	-6.95829
al	-6.96444
▁categories	-6.96658
▁altres	-6.96963
curi	-6.97257
una	-6.97475
wiki	-6.97568
▁durant	-6.98478
wikipedia	-6.99613
://	-6.99891
▁<	-6.99977
https	-7.00029
▁url	-7.00052
title	-7.00107
▁</	-7.00123
▁se	-7.00138
▁molt	-7.01256
▁ja	-7.01712
▁sobre	-7.02327
▁sant	-7.0345
▁si	-7.04837
▁id	-7.05
▁aquesta	-7.06272
▁anys	-7.06735
▁després	-7.06887
▁pot	-7.08205
▁on	-7.1239
▁era	-7.12871
▁qual	-7.16137
▁fou	-7.16621
p	-7.17532
▁té	-7.18829
hi	-7.19202
u	-7.19497
ts	-7.20232
▁fa	-7.21754
|	-7.22857
▁fer	-7.24572
▁quan	-7.24896
ada	-7.25431
q	-7.25512
in	-7.27218
▁des	-7.28589
os	-7.28834
▁dos	-7.29253
ha	-7.30359
ta	-7.32014
▁re	-7.33162
▁forma	-7.33598
▁18	-7.34787
▁seus	-7.36068
or	-7.36225
è	-7.38076
▁això	-7.38207
▁estat	-7.38672
y	-7.39596
▁nom	-7.39932
el	-7.41646
▁així	-7.42216
ven	-7.42601
▁nord	-7.43891
▁primer	-7.44212
▁terme	-7.45585
g	-7.45761
í	-7.46058
▁encara	-7.4857
▁està	-7.48899
▁catalunya	-7.50016
".	-7.51067
cions	-7.51147
f	-7.52704
▁manera	-7.5345
b	-7.53548
=	-7.54723
h	-7.55235
de	-7.55333
▁havia	-7.55371
x	-7.557
▁«	-7.55839
▁poden	-7.5621
▁tant	-7.57868
▁només	-7.57896
▁ciutat	-7.58262
lo	-7.58626
▁població	-7.59442
▁segons	-7.59521
er	-7.59885
▁mateix	-7.60275
▁fet	-7.60976
▁han	-7.61111
▁temps	-7.62499
▁tres	-7.63116
▁guerra	-7.63534
▁cada	-7.64804
▁primera	-7.66605
na	-7.68003
▁sistema	-7.68524
▁m	-7.68872
▁sud	-7.69242
us	-7.69912
▁mar	-7.70195
▁història	-7.70202
▁alguns	-7.71368
re	-7.71546
▁diferents	-7.72129
▁seves	-7.72195
ament	-7.72308
▁exemple	-7.72432
▁cal	-7.72747
▁lloc	-7.72868
▁li	-7.72919
li	-7.73522
▁tots	-7.74596
▁dues	-7.74715
itat	-7.74795
an	-7.75124
▁sol	-7.7589
isme	-7.76763
les	-7.77365
▁poble	-7.77579
▁tenen	-7.7784
▁c	-7.77851
est	-7.78379
ri	-7.78659
▁pels	-7.7987
te	-7.79975
▁dia	-7.80169
ó	-7.80475
ma	-7.80938
▁cas	-7.81499
▁món	-7.82054
▁in	-7.83324
▁què	-7.83769
ades	-7.84699
et	-7.84844
▁terra	-7.84872
ga	-7.84922
ació	-7.85133
is	-7.85575
2	-7.85613
ne	-7.87771
ant	-7.87849
▁sense	-7.88244
▁partir	-7.88477
▁col	-7.89513
k	-7.89596
ren	-7.89597
▁quals	-7.89636
’	-7.8984
▁general	-7.89842
▁nombre	-7.89974
▁n	-7.90279
▁tipus	-7.9032
▁barcelona	-7.91227
vi	-7.92534
v	-7.93036
▁aquests	-7.93149
▁causa	-7.93162
tes	-7.93208
▁govern	-7.93606
▁contra	-7.93949
▁camp	-7.94023
▁vila	-7.94385
▁mentre	-7.94691
▁municipi	-7.95077
▁("	-7.96526
ra	-7.97497
▁tenir	-7.97539
▁molts	-7.97765
▁ara	-7.98869
ir	-7.99268
▁llengua	-7.99281
▁vida	-7.99554
▁dins	-7.99557
és	-7.99763
ats	-8.00228
▁poder	-8.00267
▁p	-8.00392
▁grans	-8.00603
▁dir	-8.0069
▁nou	-8.00744
era	-8.01014
on	-8.01925
di	-8.01944
ista	-8.02214
em	-8.02762
aigua	-8.028
▁diversos	-8.02824
▁punt	-8.0308
▁major	-8.03469
▁castell	-8.04685
▁perquè	-8.05103
it	-8.05267
que	-8.06058
per	-8.06795
▁aquestes	-8.06969
ter	-8.07065
ò	-8.07157
▁important	-8.07204
aquesta	-8.08294
▁tal	-8.08307
▁17	-8.08759
▁comarca	-8.09376
▁3	-8.09625
▁fi	-8.09804
»	-8.0984
▁ho	-8.09972
▁diverses	-8.10018
▁estats	-8.10333
▁riu	-8.10399
▁any	-8.10549
▁eren	-8.11177
le	-8.11229
▁país	-8.12123
estat	-8.12815
▁rei	-8.1327
▁sota	-8.13585
▁con	-8.13747
ro	-8.13796
▁algunes	-8.13864
▁abans	-8.14796
▁català	-8.14848
no	-8.1552
eix	-8.15632
▁vi	-8.15818
▁pla	-8.15852
altres	-8.16798
▁troba	-8.16846
▁majoria	-8.17087
5	-8.17207
istes	-8.17363
▁grup	-8.17492
1	-8.17987
ti	-8.1799
ús	-8.18438
aquest	-8.1879
dor	-8.18857
han	-8.1889
▁llarg	-8.19195
▁2	-8.20658
co	-8.20747
&	-8.20751
▁força	-8.2091
16	-8.21003
ix	-8.21479
ina	-8.21528
4	-8.21775
▁període	-8.21941
ls	-8.2311
▁car	-8.23171
▁4	-8.23638
ien	-8.23687
▁co	-8.23806
▁ni	-8.24702
▁nova	-8.24749
▁cosa	-8.24849
▁totes	-8.25555
▁centre	-8.256
església	-8.26088
▁joan	-8.26353
▁5	-8.26582
▁actualment	-8.26842
▁10	-8.2696
ci	-8.27111
▁estan	-8.27266
z	-8.27421
▁banda	-8.27911
▁països	-8.27913
▁ac	-8.28606
qui	-8.28732
▁quatre	-8.28831
▁12	-8.29553
3	-8.29836
▁k	-8.29902
▁zona	-8.29949
▁política	-8.30118
é	-8.30299
6	-8.30533
ni	-8.30745
▁-	-8.30917
▁16	-8.30966
▁resta	-8.3158
▁santa	-8.3171
▁b	-8.32075
▁primers	-8.32426
▁qui	-8.32706
▁15	-8.3288
▁canvi	-8.33231
▁déu	-8.33459
▁vol	-8.33558
]]	-8.33597
ria	-8.3388
▁sovint	-8.34252
▁segona	-8.34487
to	-8.34606
▁massa	-8.34716
▁poc	-8.34964
ce	-8.3574
▁persones	-8.35883
▁mort	-8.36187
▁moltes	-8.36308
art	-8.364
▁pas	-8.36564
w	-8.36919
▁arribar	-8.36941
ex	-8.3733
▁can	-8.37375
▁13	-8.37868
▁mitjana	-8.37905
▁sub	-8.38281
▁llum	-8.38802
▁pa	-8.39172
pa	-8.39243
▁començar	-8.39808
▁bé	-8.40134
▁principal	-8.40217
▁moment	-8.40253
ten	-8.40601
▁vall	-8.40698
▁tota	-8.40768
▁vegades	-8.41048
▁mateixa	-8.41308
lt	-8.41581
si	-8.41767
▁formula	-8.41947
▁dona	-8.41957
rà	-8.42029
ja	-8.42245
ona	-8.42367
tar	-8.42427
▁donar	-8.42441
▁ben	-8.42927
▁e	-8.42966
▁[[	-8.43124
um	-8.43239
▁teoria	-8.4334
▁6	-8.43474
ur	-8.43588
▁pro	-8.43649
▁f	-8.43827
ió	-8.43869
▁casa	-8.44166
▁prop	-8.44402
sa	-8.44444
▁altre	-8.44457
▁bo	-8.44522
ol	-8.44616
▁cop	-8.44877
▁conjunt	-8.44901
energia	-8.45024
▁treball	-8.45096
ent	-8.45213
▁altra	-8.45538
")	-8.4568
▁milions	-8.45734
com	-8.4622
0	-8.46243
▁menys	-8.46555
vien	-8.468
▁elements	-8.46891
▁nucli	-8.46918
ana	-8.46962
ig	-8.47066
ització	-8.47188
▁voltant	-8.47332
ba	-8.47426
▁tenia	-8.47619
▁mitjançant	-8.47835
ons	-8.47932
▁música	-8.47978
▁territori	-8.48419
ú	-8.48513
fer	-8.48515
▁ve	-8.49075
▁cos	-8.49221
▁1	-8.49902
ava	-8.49903
▁so	-8.50139
▁moviment	-8.50384
me	-8.5045
▁regne	-8.50662
▁natural	-8.50869
▁cultura	-8.50958
▁(19	-8.51003
▁14	-8.5107
▁dies	-8.51279
▁di	-8.51658
▁tan	-8.52763
▁importants	-8.52781
▁haver	-8.52791
▁ex	-8.5281
▁llengües	-8.53008
eu	-8.53013
▁pre	-8.53088
▁final	-8.53167
▁sempre	-8.53553
mes	-8.53562
▁popular	-8.53833
▁vegada	-8.53942
als	-8.53949
ble	-8.53975
oest	-8.54202
▁pi	-8.54214
▁servir	-8.54531
▁procés	-8.54789
gt	-8.55077
▁baix	-8.55144
▁partit	-8.55145
▁g	-8.55702
▁través	-8.55778
▁trobar	-8.56
osa	-8.5625
▁uns	-8.56459
ós	-8.56532
bi	-8.56723
▁habitants	-8.56854
ge	-8.56988
man	-8.57006
origen	-8.57051
mo	-8.57071
▁desenvolupament	-8.57154
illa	-8.57724
▁principals	-8.5819
edat	-8.58349
ul	-8.58626
▁7	-8.58687
ns	-8.58766
▁x	-8.58904
res	-8.58925
▁t	-8.59063
▁mal	-8.59465
▁sobretot	-8.5984
car	-8.59935
▁gener	-8.59949
▁superfície	-8.6003
▁cor	-8.60089
▁central	-8.60185
▁velocitat	-8.60307
▁etc	-8.60366
▁8	-8.60514
▁tard	-8.60515
▁internacional	-8.60666
▁sinó	-8.6087
▁qualsevol	-8.61001
▁nacional	-8.61579
ho	-8.61699
▁tanmateix	-8.61911
▁units	-8.61919
do	-8.62102
▁segle	-8.62145
il	-8.62175
_	-8.62275
▁segon	-8.62969
im	-8.63303
▁unió	-8.6331
eta	-8.63599
▁ca	-8.64295
gu	-8.64308
▁calendari	-8.64402
▁capital	-8.64404
▁mundial	-8.64474
▁9	-8.64534
ac	-8.64719
po	-8.64855
▁h	-8.64913
ver	-8.64939
▁fan	-8.65129
par	-8.65178
8	-8.65208
▁frança	-8.65272
▁pere	-8.65381
estudi	-8.654
ida	-8.65735
ques	-8.65857
▁mil	-8.65878
▁bi	-8.66085
▁unes	-8.66094
▁construcció	-8.66441
▁11	-8.66693
ot	-8.66719
▁fill	-8.66897
▁creu	-8.6708
ut	-8.67229
▁font	-8.67233
▁municipal	-8.67465
▁foren	-8.67757
▁conegut	-8.67809
▁estava	-8.67899
▁producció	-8.6804
ll	-8.68143
bo	-8.68252
▁social	-8.6835
▁base	-8.68509
ions	-8.68596
▁km	-8.68688
▁gairebé	-8.68898
▁catalana	-8.6905
▁obres	-8.69143
aire	-8.69232
▁maria	-8.69432
▁mesura	-8.69541
ch	-8.69621
ad	-8.69701
iques	-8.6983
▁cel	-8.6985
▁veure	-8.70101
▁finalment	-8.70207
▁especialment	-8.70242
▁total	-8.70479
▁temperatura	-8.70495
▁avui	-8.70591
▁ba	-8.70595
▁tri	-8.70672
▁te	-8.70928
▁família	-8.71225
▁sèrie	-8.7165
▁mo	-8.722
▁relació	-8.72389
gi	-8.72469
▁to	-8.72627
ell	-8.73029
▁ra	-8.73087
pi	-8.73126
▁mont	-8.73186
▁suport	-8.73219
12	-8.73355
ària	-8.73637
▁baixa	-8.73656
▁línia	-8.74082
los	-8.74258
▁següent	-8.74277
▁davant	-8.74401
tra	-8.74696
▁segles	-8.74767
▁llavors	-8.74798
▁passar	-8.75479
▁ma	-8.75581
època	-8.7575
▁mas	-8.75889
con	-8.76205
▁bar	-8.76213
▁sa	-8.76289
int	-8.76799
ic	-8.76811
▁anomenat	-8.76989
j	-8.7726
▁v	-8.77445
▁quantitat	-8.77677
▁metres	-8.77681
▁formar	-8.78105
▁sal	-8.78155
».	-8.78219
dors	-8.78652
lu	-8.79053
▁mitjà	-8.79129
▁paper	-8.79176
▁obstant	-8.7938
ència	-8.79648
"),	-8.79797
ve	-8.79947
▁troben	-8.79969
15	-8.79991
▁grups	-8.80012
▁crear	-8.80045
19	-8.80083
▁color	-8.80142
▁formes	-8.80233
▁permet	-8.8027
▁ta	-8.80455
▁nivell	-8.80482
▁valor	-8.80645
tor	-8.80707
aquests	-8.80963
imperi	-8.81226
▁república	-8.81276
50	-8.81283
lar	-8.81498
mar	-8.81702
alt	-8.82134
18	-8.82636
ita	-8.82834
▁josep	-8.82909
ella	-8.83031
chem	-8.83144
lla	-8.83356
pro	-8.83389
▁pare	-8.83643
13	-8.83718
europa	-8.83772
▁porta	-8.83797
ion	-8.83853
▁principalment	-8.84027
au	-8.841
▁sector	-8.84186
▁terres	-8.84354
mer	-8.8441
▁malgrat	-8.84621
▁sistemes	-8.84947
▁llei	-8.85053
▁primeres	-8.85111
▁societat	-8.85694
▁sigui	-8.85878
▁costat	-8.86102
ing	-8.86163
▁espècies	-8.86259
▁francès	-8.86406
bles	-8.86636
característiques	-8.86671
acions	-8.86686
op	-8.86812
▁oficial	-8.86945
▁comú	-8.87043
tiva	-8.87043
fe	-8.87362
gar	-8.8756
▁obra	-8.87846
▁civil	-8.87877
▁passa	-8.8803
▁pau	-8.88307
▁llatí	-8.8849
▁model	-8.88565
10	-8.88578
▁sentit	-8.88644
▁president	-8.8866
▁inter	-8.88749
17	-8.88845
▁dècada	-8.88856
nd	-8.88941
▁20	-8.88973
%	-8.89367
st	-8.89583
▁superior	-8.89584
▁jaume	-8.89595
ologia	-8.89612
gues	-8.89628
altra	-8.89874
▁sent	-8.89964
ner	-8.90033
.000	-8.90081
▁meitat	-8.90102
obra	-8.90109
ari	-8.90358
▁me	-8.90452
mp	-8.90569
▁corona	-8.906
mi	-8.91317
▁dret	-8.91335
iu	-8.91473
▁illes	-8.91475
▁antic	-8.91484
▁aconseguir	-8.91513
ec	-8.91557
▁funció	-8.91562
▁serra	-8.91629
fi	-8.9183
ï	-8.91921
antic	-8.92187
men	-8.92205
▁anar	-8.92381
▁costa	-8.92384
▁data	-8.92403
▁cinc	-8.92423
7	-8.92434
▁mai	-8.92441
tiu	-8.9275
▁situat	-8.92768
ris	-8.92878
▁torre	-8.93178
▁control	-8.93208
fa	-8.93261
▁regió	-8.93295
ssa	-8.93336
▁juliol	-8.93379
▁posteriorment	-8.93443
▁su	-8.93463
▁gas	-8.93522
14	-8.93721
▁setembre	-8.9376
▁maig	-8.93853
▁parla	-8.93921
▁principis	-8.93931
▁rep	-8.9395
▁res	-8.93954
▁zones	-8.93962
▁formen	-8.93968
30	-8.93994
▁època	-8.9426
=1	-8.94366
ies	-8.94402
▁catalans	-8.94737
ton	-8.94928
▁considera	-8.94939
▁em	-8.9501
▁març	-8.95088
ers	-8.95172
tic	-8.95278
▁actual	-8.95297
▁nombres	-8.95374
11	-8.95404
20	-8.95712
aquestes	-8.95865
▁format	-8.95874
▁occidental	-8.9591
▁tracta	-8.95938
▁trans	-8.95945
ber	-8.95975
ran	-8.96081
ià	-8.96088
▁comte	-8.96144
▁estar	-8.96288
▁possible	-8.96479
▁clima	-8.96506
▁igual	-8.96518
atge	-8.96688
▁gràcies	-8.96803
▁juny	-8.96913
▁europa	-8.96979
octubre	-8.97002
40	-8.97098
83	-8.97386
▁man	-8.97459
▁referència	-8.97507
io	-8.97685
▁convertir	-8.97817
▁mare	-8.97839
ces	-8.98092
▁creixement	-8.98107
▁produir	-8.98208
9	-8.98452
▁llibre	-8.98758
son	-8.98813
cà	-8.98881
▁j	-8.98975
ny	-8.99164
▁fora	-8.99198
▁física	-8.99208
▁ciència	-8.99268
actual	-8.99312
ins	-8.99453
▁festa	-8.99462
▁ciutats	-8.99506
▁grec	-8.99642
▁be	-8.99739
▁eleccions	-9.00047
oc	-9.00219
2"	-9.00529
univers	-9.00769
lic	-9.0078
▁romà	-9.00829
▁cultural	-9.00923
▁medi	-9.00998
▁presència	-9.01086
▁mes	-9.01146
tà	-9.0125
ure	-9.01683
▁carrer	-9.01726
▁creació	-9.0177
espai	-9.01806
▁formació	-9.02116
▁resultat	-9.02336
9"	-9.02375
agost	-9.02474
▁principi	-9.02568
▁jocs	-9.02997
▁propietats	-9.03089
8"	-9.03181
00	-9.03213
▁millor	-9.0328
economia	-9.03417
ç	-9.03422
▁indústria	-9.03448
▁seria	-9.03455
▁destaca	-9.035
4"	-9.03566
existència	-9.0382
▁cent	-9.03839
▁gal	-9.03864
1"	-9.04032
7"	-9.04032
cor	-9.04083
▁ii	-9.04312
aven	-9.04446
▁especial	-9.04446
via	-9.04494
ka	-9.0451
ans	-9.04513
65	-9.04807
▁pont	-9.04855
xi	-9.04945
6"	-9.05059
tan	-9.05067
▁mi	-9.05151
▁membres	-9.05188
▁teatre	-9.0522
▁humans	-9.05334
80	-9.05378
aragó	-9.05494
mic	-9.05741
cu	-9.05746
abril	-9.05812
▁petit	-9.05819
▁casos	-9.05901
▁econòmica	-9.05981
▁sembla	-9.06171
48	-9.06248
▁fos	-9.06288
cle	-9.06338
anomena	-9.06407
▁tradició	-9.06638
▁presenta	-9.06639
▁noves	-9.06643
cl	-9.06808
▁paraula	-9.06863
nes	-9.06986
ador	-9.07321
▁apareix	-9.07437
▁coneguda	-9.07531
▁transport	-9.07532
able	-9.07646
▁pes	-9.07843
▁pen	-9.07867
▁dades	-9.07893
▁municipis	-9.07944
ud	-9.07978
▁local	-9.0808
▁girona	-9.08087
▁bon	-9.08197
▁següents	-9.0836
▁valència	-9.0842
▁pobles	-9.08498
utilitza	-9.08528
▁diu	-9.08602
▁constant	-9.08659
▁gent	-9.08743
▁animals	-9.0875
▁concepte	-9.08905
▁ne	-9.09262
pre	-9.09365
gen	-9.09439
3"	-9.09522
▁representa	-9.09595
33	-9.09683
▁po	-9.09694
▁aquell	-9.09697
▁podria	-9.09756
▁plana	-9.09761
▁desembre	-9.09765
▁importància	-9.09774
▁fort	-9.09865
▁port	-9.09895
▁generalitat	-9.09909
estiu	-9.09936
▁reial	-9.09999
ng	-9.10037
»,	-9.10074
rat	-9.1024
35	-9.10325
▁ell	-9.10384
▁direcció	-9.10448
alta	-9.10462
▁militar	-9.10526
▁r	-9.10554
▁moderna	-9.10665
▁tornar	-9.10695
▁mostra	-9.1071
ab	-9.10804
▁(18	-9.10813
▁alta	-9.10891
▁situació	-9.10947
▁restes	-9.1107
▁solar	-9.11228
▁hom	-9.11403
ebre	-9.11445
ed	-9.11507
▁comença	-9.11634
▁material	-9.11928
be	-9.1204
▁her	-9.12298
rí	-9.12415
▁aproximadament	-9.12453
▁influència	-9.12552
▁partícules	-9.12759
itzar	-9.12765
95	-9.12781
▁consell	-9.12844
▁juntament	-9.12921
iva	-9.13175
="4	-9.13199
cal	-9.13232
▁espanyola	-9.13598
tu	-9.13647
id	-9.13671
▁bona	-9.13693
eixen	-9.13748
▁lliure	-9.13856
ides	-9.13876
pe	-9.13903
àries	-9.13993
▁limita	-9.13998
go	-9.14055
ès	-9.14108
lit	-9.14203
▁utilitzar	-9.14297
▁caràcter	-9.14322
▁gra	-9.14371
gra	-9.14393
esa	-9.14467
▁llocs	-9.14601
▁novembre	-9.14647
▁ju	-9.14723
▁mà	-9.14838
▁roma	-9.14929
ajuntament	-9.15255
85	-9.15334
antiga	-9.15437
36	-9.15503
▁super	-9.15549
▁termes	-9.15618
mon	-9.15649
▁30	-9.15745
▁química	-9.15812
▁diferència	-9.15845
osos	-9.1585
▁mercat	-9.15852
▁significa	-9.15868
▁mitjans	-9.15905
ura	-9.15955
25	-9.16039
acord	-9.16111
▁na	-9.16253
▁°	-9.16314
42	-9.16319
▁febrer	-9.1645
▁forces	-9.16459
tri	-9.16466
▁anomenada	-9.16495
▁petita	-9.16579
▁industrial	-9.16584
▁europea	-9.16695
=2	-9.16762
▁disc	-9.16784
▁construir	-9.16815
▁posició	-9.16815
tre	-9.16931
▁distància	-9.16936
▁mon	-9.17054
▁&	-9.17104
▁tra	-9.17368
estructura	-9.17371
▁bell	-9.17398
▁mig	-9.17616
▁tradicional	-9.17618
—	-9.17802
th	-9.17921
bilitat	-9.17928
qu	-9.1804
▁fil	-9.18113
▁punts	-9.18147
5"	-9.18152
▁vent	-9.18215
▁par	-9.1827
bri	-9.18291
▁carboni	-9.18466
▁mantenir	-9.18535
ke	-9.18634
▁produeix	-9.18718
sta	-9.18805
–	-9.18825
▁menor	-9.19011
55	-9.19065
▁set	-9.19074
cul	-9.19113
▁comunicació	-9.19117
▁parlament	-9.19126
▁dur	-9.19338
▁respecte	-9.19405
▁temple	-9.19444
▁via	-9.19449
70	-9.19505
▁ramon	-9.19576
eres	-9.19644
▁geografia	-9.19661
▁condicions	-9.1978
▁ce	-9.19908
▁sis	-9.1998
▁humà	-9.20035
▁basa	-9.20172
hidrogen	-9.20201
47	-9.20205
▁finals	-9.20296
for	-9.20301
▁projecte	-9.20415
▁w	-9.20762
if	-9.20769
▁públic	-9.20782
45	-9.2093
▁mor	-9.20961
ign	-9.20966
▁comunitat	-9.21079
▁desenvolupar	-9.21086
ü	-9.21108
="3	-9.21123
activitat	-9.21227
76	-9.21314
▁mètode	-9.21392
havia	-9.2144
▁continua	-9.21656
46	-9.21855
▁religió	-9.21918
▁celebra	-9.21948
▁universitat	-9.22063
38	-9.22133
am	-9.22178
▁monestir	-9.22252
▁matèria	-9.22319
▁alemanya	-9.22347
▁ter	-9.22493
75	-9.22493
là	-9.22564
▁—	-9.22568
▁defensa	-9.22576
▁normalment	-9.22662
▁valencià	-9.22835
▁cases	-9.22845
98	-9.23066
▁present	-9.23073
▁camí	-9.2315
▁canvis	-9.23165
▁romana	-9.23187
73	-9.23418
▁persona	-9.23585
á	-9.23594
▁doncs	-9.23618
▁25	-9.23728
▁vista	-9.23752
60	-9.23799
41	-9.23852
▁diferent	-9.23961
92	-9.24538
▁coneixement	-9.24568
ju	-9.24581
tí	-9.24585
43	-9.24646
▁or	-9.24972
▁joc	-9.25001
▁coneix	-9.25067
▁unitat	-9.25241
▁domini	-9.25313
lia	-9.25489
▁nous	-9.25532
vo	-9.25544
▁xarxa	-9.25588
tat	-9.25606
▁plaça	-9.25682
mina	-9.25735
▁generalment	-9.25752
37	-9.25821
lació	-9.26068
▁alemany	-9.26069
▁paral	-9.26164
86	-9.26193
▁mallorca	-9.26203
len	-9.26297
▁unit	-9.26362
▁escriure	-9.26512
▁llobregat	-9.26522
82	-9.26545
▁relativa	-9.26584
▁polític	-9.26592
▁planta	-9.26605
▁muntanya	-9.26791
ells	-9.26852
96	-9.26885
▁pràctica	-9.2689
▁obtenir	-9.2712
anes	-9.2715
ola	-9.27209
▁capacitat	-9.27466
39	-9.27508
quen	-9.27554
▁establir	-9.27555
99	-9.27597
▁disseny	-9.27613
▁tractat	-9.27639
44	-9.27712
gui	-9.27729
▁filosofia	-9.27737
▁passat	-9.28044
min	-9.28154
▁conserva	-9.28256
▁problemes	-9.28281
23	-9.28296
").	-9.2833
▁idea	-9.28335
▁–	-9.28402
ps	-9.28405
cs	-9.28413
27	-9.28457
du	-9.28462
▁coll	-9.28535
▁naturals	-9.28539
▁ge	-9.28547
▁divisió	-9.28555
▁acabar	-9.28644
agricultura	-9.28692
▁fons	-9.28812
▁puig	-9.29018
▁antics	-9.29134
▁fonts	-9.29215
▁verd	-9.29223
▁pan	-9.29245
▁tenien	-9.29255
▁mu	-9.29316
nom	-9.29355
entre	-9.29375
49	-9.29484
▁pressió	-9.29518
▁julià	-9.29569
èr	-9.29595
às	-9.29632
he	-9.29707
▁blanc	-9.29736
▁inclou	-9.29812
▁existeix	-9.29983
etes	-9.30073
="8	-9.30111
▁ple	-9.30129
ck	-9.30135
▁materials	-9.30233
0"	-9.30327
om	-9.30331
▁oriental	-9.3047
▁espanya	-9.30522
mat	-9.30576
▁barri	-9.30576
▁plantes	-9.30648
▁of	-9.30659
34	-9.30673
▁portar	-9.30716
▁informació	-9.30812
▁mesos	-9.30886
can	-9.30893
81	-9.30903
▁pal	-9.30929
▁san	-9.30952
79	-9.30953
▁lluna	-9.3108
eria	-9.311
▁antiga	-9.31108
▁pol	-9.31172
93	-9.31193
▁fusta	-9.31341
▁carretera	-9.31472
▁ro	-9.3151
94	-9.31564
▁lo	-9.31666
▁estudis	-9.31694
vin	-9.31707
▁llenguatge	-9.3174
▁compte	-9.31775
▁jo	-9.31794
▁literatura	-9.32037
▁nu	-9.32053
▁tor	-9.32126
▁estructura	-9.3213
▁homes	-9.32198
▁marc	-9.32213
els	-9.32246
▁dones	-9.32386
91	-9.32408
▁humana	-9.32467
▁museu	-9.3249
▁posar	-9.32521
97	-9.3269
uï	-9.32734
▁club	-9.32739
72	-9.32803
exèrcit	-9.32953
▁carles	-9.32981
lícula	-9.33037
espanya	-9.33144
▁serveis	-9.33147
▁fent	-9.33151
88	-9.33157
ants	-9.33292
▁poli	-9.33369
▁fe	-9.33441
▁musical	-9.33482
▁energia	-9.33562
▁ús	-9.33572
64	-9.33604
tori	-9.33675
22	-9.33677
amb	-9.33732
28	-9.33805
▁alt	-9.33848
▁radi	-9.34045
▁roman	-9.34231
escola	-9.34328
anys	-9.34353
▁+	-9.34447
▁paraules	-9.34476
gué	-9.34495
▁art	-9.34553
87	-9.34585
▁lluita	-9.34768
ct	-9.34881
▁activitats	-9.35086
▁límit	-9.35088
▁ciències	-9.35211
▁productes	-9.35219
84	-9.35246
vis	-9.35355
▁just	-9.35367
▁deixar	-9.35406
port	-9.35433
▁parts	-9.35496
the	-9.35509
vell	-9.35576
▁parc	-9.35639
32	-9.3566
▁z	-9.35755
interior	-9.35782
▁regions	-9.35808
▁indica	-9.35929
▁pedra	-9.35933
90	-9.35951
▁començat	-9.36042
mb	-9.3609
▁econòmic	-9.3614
89	-9.36241
▁rebre	-9.36316
▁corrent	-9.36354
▁qualitat	-9.36487
▁feia	-9.36487
ger	-9.36513
ob	-9.3654
oses	-9.36545
▁veu	-9.36551
ín	-9.36732
▁edat	-9.36772
▁dis	-9.36778
ena	-9.37081
▁règim	-9.37125
▁pròpia	-9.37129
58	-9.37224
▁ri	-9.37255
▁batalla	-9.37276
ves	-9.37298
▁ver	-9.37397
▁riera	-9.37461
24	-9.37582
▁propi	-9.3767
▁petits	-9.3775
pir	-9.37834
▁pe	-9.37924
74	-9.38002
▁text	-9.38121
▁tropes	-9.38181
▁cu	-9.38238
▁ells	-9.38348
lles	-9.38421
-19	-9.38426
▁espanyol	-9.38475
ric	-9.38503
77	-9.38571
▁realitzar	-9.38809
▁petites	-9.3885
ís	-9.38984
àrea	-9.3899
ica	-9.39099
▁definició	-9.39237
▁romans	-9.3924
▁lluís	-9.39332
nu	-9.39373
▁festes	-9.394
▁sala	-9.39408
ines	-9.39423
59	-9.39488
▁instal	-9.39517
eri	-9.39596
▁tarragona	-9.39694
estil	-9.39819
▁drets	-9.39844
▁conté	-9.39847
▁compostos	-9.39911
▁y	-9.39952
àfrica	-9.4
53	-9.40005
▁existeixen	-9.40037
▁taula	-9.40047
21	-9.40065
▁nit	-9.40127
tr	-9.40184
land	-9.40195
ius	-9.40361
del	-9.40403
66	-9.40413
der	-9.4052
▁ball	-9.40527
▁real	-9.40552
62	-9.40567
▁destacar	-9.40573
▁propietat	-9.40598
za	-9.40617
▁martí	-9.40803
gin	-9.40826
duc	-9.40889
àmbit	-9.40898
escut	-9.4094
▁ocupa	-9.40952
cents	-9.40989
▁figura	-9.41019
▁prové	-9.4109
▁àtoms	-9.41149
▁camps	-9.41182
▁ci	-9.41234
29	-9.41244
▁element	-9.41271
▁península	-9.41547
▁setmana	-9.4155
▁socials	-9.41551
pen	-9.4156
urgell	-9.4164
▁llista	-9.41643
interès	-9.41648
▁torn	-9.4183
dia	-9.41896
▁versió	-9.42237
▁quedar	-9.423
51	-9.42308
▁relacions	-9.42373
▁aigua	-9.42432
pol	-9.42521
26	-9.42554
=5	-9.42584
▁noms	-9.42589
▁ab	-9.42615
▁bisbe	-9.42647
▁compta	-9.42693
▁hitler	-9.42802
▁electrons	-9.42842
▁ru	-9.42927
▁darrer	-9.42984
▁escala	-9.42989
pos	-9.43039
▁mol	-9.43043
▁pr	-9.43126
▁clar	-9.43128
▁curs	-9.43141
▁anti	-9.43194
ya	-9.43207
▁processos	-9.43277
▁objectes	-9.4333
▁origen	-9.43417
home	-9.43467
▁servei	-9.43492
▁comerç	-9.43595
▁podia	-9.43633
▁metalls	-9.43716
▁conseqüència	-9.43753
▁efectes	-9.43791
78	-9.43808
▁por	-9.43838
ist	-9.43908
▁arriba	-9.43931
▁radiació	-9.43957
▁castellà	-9.44118
▁correspon	-9.44213
▁densitat	-9.44238
▁màxim	-9.44248
actualitat	-9.4431
▁japó	-9.44393
▁polítiques	-9.44394
acció	-9.4445
fil	-9.44665
aris	-9.44673
▁volum	-9.44784
jo	-9.44982
▁utilitzat	-9.45109
mit	-9.45113
▁papa	-9.45215
▁estrelles	-9.4522
▁realitat	-9.45244
tal	-9.45322
▁mans	-9.45525
iana	-9.45566
▁directament	-9.45587
▁gènere	-9.45608
efecte	-9.45679
▁dreta	-9.45695
▁considerar	-9.4582
);	-9.45832
▁publicar	-9.45844
▁naixement	-9.45847
▁programa	-9.4586
="5	-9.45866
ru	-9.45873
▁situada	-9.45961
▁jesús	-9.46173
ró	-9.46187
▁revolució	-9.46188
bil	-9.4622
tives	-9.46228
assa	-9.46265
adors	-9.46807
lina	-9.46815
▁fu	-9.46841
▁explica	-9.46846
altre	-9.46847
enc	-9.46854
(	-9.46877
▁morir	-9.47009
aren	-9.47053
organització	-9.4707
entrada	-9.47105
▁iii	-9.47309
▁línies	-9.47323
09	-9.47538
▁ferro	-9.4759
▁intel	-9.4768
elles	-9.47681
56	-9.47845
▁go	-9.47892
▁francesc	-9.47924
▁economia	-9.47947
eg	-9.47996
▁ti	-9.48004
...	-9.48016
▁senyor	-9.48027
▁cinema	-9.48042
▁il	-9.48044
din	-9.48066
▁cèl	-9.48141
met	-9.4825
▁títol	-9.48283
▁estàndard	-9.48372
cen	-9.48515
▁modern	-9.48657
▁aleshores	-9.48679
▁compost	-9.48787
▁destaquen	-9.48821
its	-9.48839
ler	-9.4892
▁front	-9.4909
escriptura	-9.49156
▁anglès	-9.4918
til	-9.49214
▁para	-9.49258
;/	-9.49439
▁sí	-9.49468
tz	-9.49547
her	-9.49704
extrem	-9.49865
vent	-9.49924
▁històric	-9.49965
ller	-9.49966
▁tro	-9.49979
▁funcions	-9.50001
▁fon	-9.50001
▁0,	-9.50058
▁particular	-9.50325
▁temperatures	-9.50342
▁hauria	-9.50353
ures	-9.50366
71	-9.50406
hivern	-9.5042
▁son	-9.50477
▁cicle	-9.50525
▁aigües	-9.50526
nts	-9.50549
den	-9.50596
67	-9.50617
▁est	-9.50705
▁activitat	-9.50753
lí	-9.50766
bla	-9.50817
cer	-9.50831
oli	-9.50847
▁prou	-9.50872
▁mètodes	-9.50972
▁aviat	-9.51043
▁donat	-9.51122
▁varia	-9.51142
guer	-9.51171
fic	-9.51198
▁podem	-9.5121
▁longitud	-9.51214
▁èxit	-9.51302
▁lliga	-9.51384
▁similar	-9.51386
oceà	-9.51388
▁classe	-9.51388
▁gregorià	-9.51416
▁=	-9.51483
▁xina	-9.51488
▁anterior	-9.51582
▁comportament	-9.51608
▁he	-9.51638
adn	-9.51652
▁problema	-9.51711
▁universal	-9.51717
▁imatge	-9.51744
▁the	-9.5175
▁estaven	-9.51775
stre	-9.518
èn	-9.51801
pat	-9.51843
ordre	-9.51882
all	-9.51892
▁medieval	-9.51916
▁premi	-9.51928
▁queden	-9.51949
▁seua	-9.5195
▁cre	-9.52157
▁càrrec	-9.52231
▁mot	-9.52291
▁continuar	-9.52296
07	-9.52341
0.000	-9.52498
mor	-9.52528
▁bandera	-9.52664
▁palau	-9.52733
52	-9.52785
tge	-9.52843
69	-9.52979
bra	-9.52994
▁roca	-9.53045
ges	-9.53048
▁càrrega	-9.53126
▁deu	-9.53268
▁vin	-9.53288
▁grau	-9.53292
inici	-9.53314
evolució	-9.53372
▁començament	-9.53412
tur	-9.53424
▁ka	-9.5345
▁relleu	-9.53453
▁motiu	-9.53557
]	-9.53613
▁classificació	-9.53661
▁estudi	-9.53664
▁província	-9.537
ie	-9.53723
▁tècniques	-9.5398
▁territoris	-9.5405
▁independent	-9.54073
▁parís	-9.54242
31	-9.54249
▁calor	-9.54289
▁nuclis	-9.54489
ern	-9.54493
▁jueus	-9.54505
▁doble	-9.54514
uc	-9.54541
'1	-9.54569
▁representació	-9.54661
bor	-9.54682
▁molècules	-9.54689
▁constitució	-9.54689
▁feu	-9.54708
▁tercer	-9.54922
lis	-9.54995
▁varietat	-9.55139
▁min	-9.55232
▁futur	-9.55334
▁únic	-9.55391
▁futbol	-9.55402
▁incloent	-9.55403
▁valors	-9.55418
ici	-9.55504
fu	-9.55508
alfabet	-9.55548
▁mediterrani	-9.55582
▁traspàs	-9.55582
▁vint	-9.5576
▁forta	-9.55776
="10	-9.55786
dre	-9.55897
uns	-9.56146
ou	-9.56181
▁colom	-9.56213
▁implica	-9.56302
▁jove	-9.5633
▁24	-9.56331
▁probablement	-9.56351
▁varen	-9.56384
col	-9.56484
08	-9.56495
▁lleida	-9.56513
▁sols	-9.56525
nat	-9.56556
▁u	-9.56576
▁mira	-9.56689
gon	-9.56735
ificació	-9.56747
▁cab	-9.56752
63	-9.56821
mu	-9.56921
essin	-9.5696
▁bas	-9.57095
▁fills	-9.57108
▁bor	-9.57203
▁consisteix	-9.57209
▁trobem	-9.57209
ard	-9.57309
▁rius	-9.57316
▁pocs	-9.57367
▁seguit	-9.57393
▁planeta	-9.57407
▁prendre	-9.57412
ry	-9.57505
▁negre	-9.5754
cat	-9.57592
▁torna	-9.5782
▁trobat	-9.57863
▁neu	-9.57866
▁objecte	-9.57908
▁alhora	-9.57921
usa	-9.58002
▁comarques	-9.58081
▁ampli	-9.58105
▁50	-9.58134
▁mag	-9.58224
▁vers	-9.58245
▁considerat	-9.58288
nia	-9.58311
▁diferencia	-9.58336
cre	-9.58364
of	-9.58462
01	-9.58499
ull	-9.58607
▁codi	-9.58661
atmosfera	-9.58678
61	-9.58771
▁disposa	-9.58803
▁far	-9.58857
”	-9.58864
▁nombroses	-9.58864
lin	-9.5888
05	-9.58955
▁gi	-9.58989
▁producte	-9.59032
bu	-9.59055
▁recursos	-9.59066
▁capella	-9.59107
ara	-9.59117
▁document	-9.59213
amèrica	-9.59259
▁efecte	-9.59386
▁seguir	-9.59426
▁crisi	-9.59433
▁gel	-9.59468
▁mida	-9.59689
▁cam	-9.59704
▁mur	-9.59724
▁suposa	-9.59758
▁muntanyes	-9.59795
▁nombrosos	-9.59982
bar	-9.60008
esquerra	-9.60015
▁100	-9.60031
▁coure	-9.60036
▁símbol	-9.60169
índia	-9.60181
▁poblacions	-9.60192
▁consum	-9.60226
▁tercera	-9.60311
▁certa	-9.60325
ents	-9.60386
▁proves	-9.60389
▁lleis	-9.60568
nci	-9.60631
▁permetre	-9.60742
▁parlar	-9.60753
ze	-9.60766
▁inclouen	-9.60783
▁favor	-9.60783
ero	-9.60833
▁vell	-9.60924
▁número	-9.60925
▁antigues	-9.6094
▁ven	-9.61039
▁inferior	-9.61138
▁original	-9.61186
▁conca	-9.61242
val	-9.61301
▁coneguts	-9.61316
itzada	-9.6135
▁patrimoni	-9.61493
▁quart	-9.61538
ografia	-9.61621
▁rússia	-9.61683
▁presenten	-9.61755
fo	-9.61773
▁locals	-9.61836
▁clàssica	-9.61918
arribada	-9.61962
log	-9.62012
ko	-9.62014
tica	-9.62067
▁solen	-9.62071
ssos	-9.62191
▁exemples	-9.62193
▁regular	-9.62209
▁ponent	-9.62223
so	-9.62234
▁interior	-9.6227
▁ob	-9.62366
▁hu	-9.62404
▁mena	-9.62448
únic	-9.62479
xa	-9.62556
▁natura	-9.62616
▁fruit	-9.62638
▁difícil	-9.62641
▁tractament	-9.62644
▁descobriment	-9.62834
▁presentar	-9.62909
esos	-9.62945
ev	-9.63028
bert	-9.63299
ones	-9.63454
▁viure	-9.63503
equip	-9.63528
▁científic	-9.63861
▁independència	-9.64035
▁colors	-9.64078
▁bal	-9.64339
▁església	-9.6435
▁nau	-9.64378
▁francesa	-9.64399
▁personatges	-9.64529
gà	-9.64645
▁castella	-9.64749
▁àrees	-9.64781
▁recerca	-9.64781
▁mitologia	-9.64787
▁for	-9.64794
▁torrent	-9.64852
▁comercial	-9.64962
▁cim	-9.6497
▁obert	-9.65001
▁entorn	-9.65027
pin	-9.65033
▁antoni	-9.65109
ip	-9.65264
▁composició	-9.65274
▁prova	-9.65393
▁canviar	-9.6544
▁“	-9.65489
▁pell	-9.65512
▁comtat	-9.65572
▁emp	-9.657
òs	-9.65829
▁cer	-9.6596
ep	-9.6596
▁john	-9.65968
▁miquel	-9.65969
sol	-9.66024
arra	-9.66031
▁ràpidament	-9.66057
edifici	-9.66092
▁resultats	-9.66164
▁seguint	-9.66168
▁municipals	-9.66196
ki	-9.66196
▁caracteritza	-9.66234
▁cons	-9.66309
▁llarga	-9.66313
ron	-9.66321
bro	-9.66432
▁creat	-9.66443
▁vuit	-9.66465
ula	-9.66638
="9	-9.66685
▁1.	-9.66818
▁egipte	-9.66848
▁23	-9.66908
▁mica	-9.66993
▁metà	-9.67053
▁autors	-9.67062
▁publicat	-9.67098
▁travessa	-9.67134
▁flor	-9.67154
="11	-9.67244
▁bosc	-9.67254
itzat	-9.67353
▁entrar	-9.67377
ino	-9.67439
▁pensament	-9.67458
cent	-9.67486
▁científics	-9.67493
▁serà	-9.67659
don	-9.6774
ser	-9.67775
▁culte	-9.67787
administració	-9.68005
tura	-9.68038
▁espai	-9.68092
▁contacte	-9.68182
▁director	-9.68183
▁deriva	-9.6819
pu	-9.68208
▁bu	-9.68229
▁grecs	-9.68235
▁(20	-9.6827
autor	-9.68291
lle	-9.6832
og	-9.68356
▁mer	-9.68369
àtica	-9.68408
su	-9.68426
▁cla	-9.68497
ències	-9.685
bal	-9.68519
▁terrestre	-9.68581
▁augment	-9.68644
▁terreny	-9.68764
emperador	-9.68805
única	-9.68819
oni	-9.68925
▁posterior	-9.69033
▁canal	-9.69183
esta	-9.69319
▁"[[	-9.6941
▁du	-9.69469
cri	-9.69522
▁21	-9.69537
▁basc	-9.69553
ça	-9.69569
▁segre	-9.69616
▁marca	-9.69616
je	-9.69659
▁fre	-9.69669
▁et	-9.69729
cc	-9.69799
▁llibertat	-9.69823
tès	-9.69899
ives	-9.69927
▁men	-9.70152
▁contingut	-9.70205
▁déus	-9.70301
▁entra	-9.70358
▁fets	-9.70443
▁populars	-9.70608
▁afirma	-9.70716
▁perill	-9.70782
cant	-9.70807
▁distribució	-9.70862
▁grega	-9.71091
ible	-9.711
▁grècia	-9.71281
▁líquid	-9.71281
aparició	-9.71338
▁fase	-9.71552
▁fra	-9.71609
▁decidir	-9.71635
▁tècnica	-9.71636
▁moviments	-9.71658
04	-9.71741
▁cert	-9.71777
gràfic	-9.71885
ine	-9.71893
▁segueix	-9.72024
dí	-9.72037
▁escrit	-9.72039
▁sang	-9.7212
▁diferències	-9.72124
▁anteriors	-9.7232
▁resistència	-9.72336
let	-9.72357
▁valls	-9.72504
=6	-9.72528
▁rec	-9.72621
▁reacció	-9.72636
▁guanyar	-9.72683
▁0	-9.72713
▁polítics	-9.72747
▁mínim	-9.72899
▁queda	-9.72908
▁22	-9.72953
▁dinastia	-9.72974
▁enllà	-9.72983
▁2008	-9.73003
▁reforma	-9.73044
net	-9.73128
▁fenomen	-9.73188
tres	-9.73206
bre	-9.73259
▁novel	-9.73309
▁cara	-9.73384
▁salut	-9.73458
▁pública	-9.7347
▁algun	-9.73512
ii	-9.73513
od	-9.73522
▁2007	-9.7365
+	-9.73659
iment	-9.73701
▁fla	-9.73725
iv	-9.73795
▁podien	-9.73842
dar	-9.73844
▁fal	-9.73871
▁provocar	-9.74015
▁vallès	-9.74094
▁personal	-9.74124
▁tingut	-9.74144
ag	-9.74227
▁gen	-9.74263
▁mediterrània	-9.74263
▁regles	-9.74304
anàlisi	-9.7431
▁culturals	-9.7437
▁consideren	-9.74567
▁gui	-9.74583
▁finalitzar	-9.74631
=10	-9.74676
▁partits	-9.7472
sses	-9.74723
▁anat	-9.74729
ets	-9.74738
▁hipòtesi	-9.74786
dà	-9.74827
▁pres	-9.75113
ví	-9.75184
ids	-9.75381
▁programari	-9.75424
="6	-9.75531
▁necessari	-9.75569
▁llibres	-9.75695
ors	-9.75731
rom	-9.75739
▁tren	-9.75837
02	-9.75857
nar	-9.75939
▁normal	-9.75984
cional	-9.76044
ló	-9.76111
tó	-9.7616
▁nacions	-9.76213
ea	-9.76241
ori	-9.76311
enllaç	-9.76314
03	-9.76398
▁habitual	-9.76421
▁ambient	-9.76436
▁néixer	-9.76454
▁anomenats	-9.76469
▁turisme	-9.76475
▁magnètic	-9.7654
▁carta	-9.76557
ban	-9.76651
▁manca	-9.76695
▁viatge	-9.76719
objectiu	-9.76752
▁esdevenir	-9.76764
▁cens	-9.76783
idi	-9.76806
▁inicial	-9.76809
▁teories	-9.76892
▁felip	-9.76895
ses	-9.76934
▁elèctrica	-9.76959
▁actuals	-9.76979
▁consta	-9.77025
▁formada	-9.77055
▁unitats	-9.77219
tació	-9.77263
▁provoca	-9.77303
vers	-9.77332
▁desenvolupat	-9.77403
ster	-9.77476
lus	-9.7748
▁desenvolupa	-9.77538
▁2006	-9.77601
▁itàlia	-9.77604
▁mat	-9.77634
▁ber	-9.77686
▁impuls	-9.77737
ètica	-9.77882
▁xi	-9.77908
▁ga	-9.77951
▁gasos	-9.77962
▁vermell	-9.78252
wa	-9.78321
estació	-9.78366
estany	-9.78445
▁llevant	-9.78458
▁2000	-9.78484
▁[	-9.78557
ret	-9.78621
▁aspectes	-9.78646
▁arts	-9.78672
ö	-9.78684
▁pugui	-9.78684
▁estructures	-9.78685
cò	-9.7873
orient	-9.78776
tius	-9.78805
dis	-9.78986
▁aparèixer	-9.78986
▁quin	-9.79019
▁apareixen	-9.79085
ez	-9.79088
▁representar	-9.7916
▁éssers	-9.79234
▁qu	-9.7926
▁iv	-9.79284
pul	-9.79309
▁tradicionalment	-9.79405
tel	-9.79464
ual	-9.7947
sis	-9.7955
gent	-9.79555
▁freqüència	-9.79592
▁estil	-9.79662
▁mecànica	-9.79825
▁organismes	-9.79828
lat	-9.79841
▁sap	-9.79911
▁vegetació	-9.80049
▁lletres	-9.80058
▁cort	-9.80128
legi	-9.80185
▁alguna	-9.80227
▁tecnologia	-9.80281
▁jordi	-9.80287
▁vist	-9.80343
vor	-9.80386
▁28	-9.80458
▁concret	-9.80466
▁tingué	-9.80532
fica	-9.80533
▁rus	-9.80547
▁físic	-9.80555
▁cant	-9.8057
mà	-9.80609
▁televisió	-9.80739
▁1936	-9.8075
ònic	-9.80791
▁franc	-9.80852
cia	-9.80857
ef	-9.80878
▁completament	-9.80899
▁olímpics	-9.8092
▁poblat	-9.80921
sant	-9.80955
cap	-9.80959
▁ch	-9.80964
▁observar	-9.81114
▁guerres	-9.81201
▁escoles	-9.81205
▁1970	-9.81212
▁19	-9.81212
▁significat	-9.81331
▁determinar	-9.81419
▁posa	-9.81458
▁sòlid	-9.81473
▁balears	-9.8148
imp	-9.81527
▁aquells	-9.81542
▁peu	-9.81566
bol	-9.81624
▁ocells	-9.81679
▁mateixos	-9.81847
▁capa	-9.81867
▁transició	-9.81899
▁esport	-9.81907
▁reg	-9.81982
▁militars	-9.81984
ani	-9.81996
▁equip	-9.82014
pt	-9.82039
▁rod	-9.82128
▁naturalesa	-9.82178
▁lingüística	-9.82342
▁madrid	-9.82367
▁londres	-9.82367
▁newton	-9.82371
▁er	-9.82379
▁do	-9.82487
▁històrica	-9.82617
▁and	-9.82617
▁esta	-9.82831
▁penedès	-9.82837
lules	-9.82961
▁honor	-9.83045
▁foc	-9.83051
lel	-9.83074
▁evitar	-9.83155
tro	-9.83162
▁(1	-9.83276
▁darrers	-9.83279
▁ram	-9.83343
cti	-9.83373
ològiques	-9.83395
dó	-9.83432
▁agrícola	-9.83546
▁nivells	-9.83564
rien	-9.83572
nya	-9.83605
▁continental	-9.83613
tem	-9.83744
itu	-9.83747
▁cerdanya	-9.83783
▁models	-9.83786
▁26	-9.84006
▁berenguer	-9.84021
▁cristianisme	-9.84021
▁mesures	-9.8404
▁quilòmetres	-9.84059
ov	-9.84135
anglès	-9.84228
▁conèixer	-9.8426
▁cau	-9.84277
▁ros	-9.84282
ub	-9.84405
▁establert	-9.8451
▁posteriors	-9.8453
▁complet	-9.84534
arc	-9.84605
cel	-9.84608
▁acord	-9.84636
▁gira	-9.84648
▁donen	-9.8467
oxigen	-9.84711
▁germà	-9.84827
▁le	-9.84904
▁semi	-9.8495
▁context	-9.84985
▁iniciar	-9.84986
▁conflicte	-9.85032
ndre	-9.85044
▁últims	-9.85099
uen	-9.85127
▁acaba	-9.85142
eja	-9.85155
ón	-9.85265
▁/	-9.85435
▁classes	-9.85442
▁descobert	-9.85453
▁zero	-9.85476
▁conquesta	-9.85489
▁crea	-9.8558
up	-9.85581
euro	-9.85605
vol	-9.85838
▁tram	-9.85851
▁dit	-9.8586
▁arreu	-9.85883
urà	-9.85905
▁endavant	-9.85947
▁topònim	-9.85948
ano	-9.8601
pel	-9.86015
▁membre	-9.86018
▁instruments	-9.86032
▁comuna	-9.86049
mostren	-9.86058
tir	-9.86061
▁filla	-9.86092
aquell	-9.86153
educació	-9.86183
▁tradicionals	-9.8625
▁metall	-9.86308
▁raó	-9.86315
▁reis	-9.86375
▁calders	-9.86436
▁territorial	-9.86453
espera	-9.86574
▁viu	-9.86655
▁molecular	-9.86679
▁ràdio	-9.86679
▁successió	-9.86679
aceae	-9.86681
ili	-9.86797
▁continent	-9.86821
▁esdeveniments	-9.86833
▁bru	-9.86837
▁pilota	-9.87023
pl	-9.87024
▁boscos	-9.87128
mal	-9.87154
arquitectura	-9.87176
▁fonamental	-9.87197
▁hores	-9.87291
▁pertany	-9.87372
esport	-9.87407
▁ibèrica	-9.87433
▁27	-9.87479
▁menorca	-9.87528
▁produeixen	-9.87541
antiguitat	-9.87663
ània	-9.8768
▁blat	-9.87704
▁2005	-9.87705
▁buit	-9.87744
quin	-9.87773
▁institucions	-9.8779
▁magnitud	-9.8791
▁artificial	-9.87911
tant	-9.87938
▁comarcal	-9.87956
▁extensió	-9.87991
▁legal	-9.88091
▁sab	-9.88102
▁simple	-9.88127
▁treballs	-9.88153
▁barranc	-9.88161
▁1990	-9.88168
▁tema	-9.88179
▁disciplina	-9.88282
▁intent	-9.88285
ònica	-9.88322
▁sort	-9.8836
lícules	-9.88407
cos	-9.88497
▁deixa	-9.885
ira	-9.88511
▁estel	-9.8852
▁senyal	-9.8853
▁blanca	-9.88564
▁sec	-9.88595
estima	-9.88618
nc	-9.88623
▁anomenar	-9.88625
▁estudia	-9.88896
▁potencial	-9.88907
▁blau	-9.88916
pes	-9.88919
cus	-9.88922
▁2003	-9.88964
▁munt	-9.89034
▁mitjan	-9.89057
▁tu	-9.89087
àsia	-9.89097
▁volta	-9.89107
▁meridional	-9.89157
▁protecció	-9.89157
▁seguretat	-9.8941
kh	-9.89434
ient	-9.89445
▁idees	-9.89723
▁semblant	-9.89845
àtiques	-9.89874
▁anual	-9.89924
▁40	-9.89954
expansió	-9.89962
ros	-9.90124
▁memòria	-9.90166
▁ordre	-9.90169
▁pur	-9.90234
cons	-9.90264
▁darrere	-9.90331
▁carrers	-9.90387
▁global	-9.904
▁empreses	-9.90402
▁vora	-9.90505
▁utilitzant	-9.90538
▁fusió	-9.90627
cr	-9.90666
▁ajuda	-9.90702
▁fundació	-9.90713
▁bra	-9.9078
flu	-9.90846
▁bur	-9.90895
▁cristians	-9.90933
hu	-9.90976
▁treballar	-9.91114
▁màxima	-9.91161
▁1980	-9.91198
unes	-9.91201
▁peces	-9.91468
▁masses	-9.91504
▁motor	-9.91515
▁construït	-9.91602
▁sòl	-9.91668
inter	-9.91702
▁(17	-9.91723
▁mono	-9.91835
▁urbà	-9.91956
edi	-9.9205
ral	-9.92062
▁escut	-9.92064
▁joves	-9.92071
▁indi	-9.92089
▁cr	-9.92186
▁lluny	-9.92216
▁1960	-9.92226
▁lletra	-9.9224
▁necessitat	-9.9242
vegeu	-9.92476
zo	-9.92477
zi	-9.92494
▁turó	-9.92526
▁comunitats	-9.92603
▁estudiar	-9.9265
▁trets	-9.92665
▁descriure	-9.92669
òr	-9.92699
▁descobrir	-9.92733
ama	-9.92924
▁mamífers	-9.92994
▁benefici	-9.92994
▁combat	-9.93103
▁permeten	-9.93145
▁formant	-9.93152
lacions	-9.93168
▁participar	-9.93208
▁tendència	-9.93255
▁visible	-9.93256
bes	-9.93277
▁pràcticament	-9.93291
▁bio	-9.93337
▁centra	-9.93455
▁edificis	-9.93485
▁manresa	-9.93519
últim	-9.93525
▁testament	-9.9353
terra	-9.93532
▁home	-9.93561
amor	-9.93581
gre	-9.93584
ph	-9.93597
ide	-9.93821
quet	-9.93839
tom	-9.93844
▁2004	-9.93849
▁clau	-9.93868
▁gu	-9.93892
▁simplement	-9.93933
▁jugadors	-9.94025
▁cadena	-9.94043
vert	-9.94106
ley	-9.94126
dent	-9.9417
ésser	-9.94229
▁mac	-9.94234
▁diumenge	-9.94306
▁veïns	-9.94306
▁racional	-9.94325
▁compara	-9.94332
tò	-9.94417
nic	-9.94511
▁exc	-9.94534
▁gossos	-9.94587
▁creixent	-9.94609
▁soviètica	-9.94622
▁revolta	-9.94659
cro	-9.94683
▁explicar	-9.94717
ico	-9.94787
itz	-9.94803
dell	-9.94823
▁anglaterra	-9.94924
adapta	-9.94992
▁certes	-9.95009
▁29	-9.9502
▁denomina	-9.95041
▁respectivament	-9.95102
▁cultures	-9.95102
▁cristal	-9.95148
▁quadrat	-9.95284
▁components	-9.95337
▁arran	-9.95392
▁pren	-9.95398
▁manté	-9.95637
▁damunt	-9.95642
▁musicals	-9.95648
▁realitza	-9.95743
▁químics	-9.95765
rar	-9.95776
▁habita	-9.95856
assemblea	-9.95904
▁dècades	-9.95904
▁depèn	-9.95909
▁pu	-9.95913
▁inicialment	-9.9608
▁coses	-9.9608
▁fo	-9.96091
_1	-9.96113
acta	-9.96142
cis	-9.96172
▁científica	-9.962
rus	-9.96272
▁proteïnes	-9.96331
▁aquella	-9.96341
▁curt	-9.96414
▁parroquial	-9.96442
▁representen	-9.96442
▁permanent	-9.96446
▁europeu	-9.96458
àl	-9.9654
ònia	-9.96638
▁límits	-9.96661
▁60	-9.96684
espectre	-9.96698
gueren	-9.96709
▁tradicions	-9.96713
▁dotze	-9.96714
gor	-9.96834
▁gaire	-9.96846
▁riba	-9.96871
▁auto	-9.96898
això	-9.96901
▁gar	-9.96917
▁escrits	-9.96953
▁mel	-9.96961
▁lli	-9.96965
qua	-9.96976
▁neutrons	-9.96984
▁frontera	-9.97038
▁situa	-9.97046
▁denominació	-9.97081
▁suma	-9.97227
▁micro	-9.97264
haver	-9.97409
altitud	-9.97422
▁pols	-9.97432
-1	-9.97501
▁roques	-9.97566
▁2010	-9.97569
▁corts	-9.97638
▁contenen	-9.97669
oll	-9.97708
▁fenòmens	-9.97801
▁aplicacions	-9.97802
▁definir	-9.97818
":	-9.97834
af	-9.97839
ments	-9.97855
▁refereix	-9.9789
escala	-9.9791
▁esquerra	-9.98027
dra	-9.98034
▁totalment	-9.98051
▁medicina	-9.98077
cep	-9.981
▁post	-9.98114
xe	-9.98129
▁descripció	-9.98202
che	-9.98238
▁federació	-9.98271
▁ciutadans	-9.9835
atèl	-9.98365
▁centres	-9.98411
▁formal	-9.98412
eus	-9.98439
▁perdre	-9.98544
▁francesos	-9.98633
▁associat	-9.98755
acte	-9.9882
▁carn	-9.98873
tges	-9.98884
▁branca	-9.98903
▁catalanes	-9.98904
uta	-9.98905
▁feien	-9.98955
▁anomenades	-9.98965
▁temes	-9.9898
▁gir	-9.99045
▁passant	-9.9905
isti	-9.99091
pr	-9.99107
▁similars	-9.99147
▁lògica	-9.9915
ow	-9.99151
▁ambdós	-9.99175
▁parròquia	-9.99179
▁companyia	-9.99225
ocupació	-9.99407
tera	-9.99427
▁nitrogen	-9.99456
▁altes	-9.99474
▁documents	-9.99474
▁2.	-9.99532
▁molta	-9.99547
dora	-9.99625
article	-9.99725
dol	-9.99729
▁llegenda	-9.99735
▁visió	-9.99738
▁menjar	-9.99741
▁registre	-9.99741
▁referir	-9.99759
▁dalt	-9.99809
▁descrit	-9.99839
ssin	-9.99851
ai	-9.99894
▁famílies	-10.0001
▁temporada	-10.0001
▁barreja	-10.0002
▁bronze	-10.0002
▁descriu	-10.0007
▁produït	-10.0009
òlegs	-10.0013
▁degut	-10.0016
empra	-10.0016
▁fundar	-10.0019
aliment	-10.0021
bia	-10.0024
▁espècie	-10.0025
▁galàxies	-10.0029
▁nuclear	-10.0039
▁personatge	-10.004
▁bat	-10.0042
▁augmentar	-10.0046
▁àrab	-10.0049
▁quant	-10.0049
sh	-10.005
...)	-10.005
electrons	-10.0052
▁paisatge	-10.0058
▁pèrdua	-10.0058
tion	-10.006
▁cavaller	-10.0062
▁propis	-10.0063
▁característica	-10.0066
bul	-10.0068
lan	-10.0069
yo	-10.007
gut	-10.0076
entorn	-10.008
arma	-10.0083
▁símbols	-10.0085
▁demografia	-10.0086
▁diari	-10.0091
▁vinya	-10.0091
objecte	-10.0109
▁sola	-10.0111
▁ur	-10.0114
▁tèxtil	-10.0114
▁31	-10.0114
ància	-10.0116
tia	-10.0116
hora	-10.0121
chi	-10.0129
fort	-10.0131
▁corre	-10.0133
guen	-10.0136
▁quasi	-10.0142
▁sorgir	-10.0143
▁completa	-10.0162
dos	-10.0165
osi	-10.0169
mí	-10.0169
▁sexual	-10.0171
▁democràcia	-10.0171
▁missatge	-10.0174
▁cin	-10.0176
▁ed	-10.018
▁habitualment	-10.0189
▁mèxic	-10.0199
associació	-10.0202
▁arc	-10.0203
sc	-10.0203
▁plan	-10.0207
▁reaccions	-10.023
▁pati	-10.0236
▁absolut	-10.0237
▁celebrar	-10.0247
dura	-10.0248
▁utilitza	-10.0248
▁poesia	-10.0256
▁ric	-10.0258
";	-10.0259
▁enllaços	-10.0262
▁prec	-10.0264
▁bases	-10.0267
ics	-10.0267
ang	-10.0269
pí	-10.0284
nder	-10.0287
▁factors	-10.0293
nda	-10.0296
▁corrents	-10.0305
▁pic	-10.0306
▁ministre	-10.0314
str	-10.0322
▁químic	-10.0325
▁imperi	-10.0325
▁períodes	-10.0327
▁europeus	-10.0341
lant	-10.0342
posició	-10.0344
▁única	-10.0347
▁juga	-10.0354
vall	-10.0355
▁mestre	-10.0363
òtic	-10.0368
clo	-10.0372
▁franco	-10.0375
camp	-10.0377
▁sectors	-10.038
rò	-10.0385
▁trenca	-10.0386
▁bast	-10.0389
equilibri	-10.0401
▁càncer	-10.0401
pla	-10.0405
▁2009	-10.0405
▁forn	-10.0409
tol	-10.0411
▁parlants	-10.0412
▁potser	-10.0416
aplica	-10.042
▁contrari	-10.0421
mol	-10.0421
ug	-10.0426
autonomia	-10.043
gal	-10.0431
▁2001	-10.0435
▁participació	-10.0437
br	-10.0437
lular	-10.0457
▁líder	-10.046
▁2011	-10.0463
angle	-10.047
ars	-10.0471
▁armes	-10.0477
ib	-10.0478
▁mm	-10.0478
▁ref	-10.048
▁gro	-10.0483
▁quàntica	-10.0485
▁defineix	-10.0487
▁surt	-10.049
▁passà	-10.049
▁demostrar	-10.0492
▁cossos	-10.0495
▁possibilitat	-10.0507
▁determinat	-10.0507
▁gegant	-10.0508
ua	-10.051
▁amèrica	-10.0514
▁baixes	-10.0515
tis	-10.0517
encs	-10.0517
arbre	-10.0525
▁crítica	-10.0526
▁concentra	-10.0533
▁utilitzen	-10.0533
▁donant	-10.0533
▁organitza	-10.0538
▁oli	-10.0539
real	-10.0547
▁comprèn	-10.0548
▁renova	-10.0552
▁inc	-10.0565
▁fin	-10.0566
ícia	-10.0569
▁instrument	-10.0576
▁escrita	-10.0576
tina	-10.0577
▁sortir	-10.0582
▁200	-10.0586
▁alfons	-10.0587
▁(2	-10.0596
var	-10.0597
ificat	-10.0599
equació	-10.0605
▁musulmans	-10.0607
▁substància	-10.0607
▁responsable	-10.0607
▁enfront	-10.061
ini	-10.0615
gram	-10.0623
▁tir	-10.0625
alguns	-10.0628
bis	-10.0633
òxid	-10.0636
▁ferrocarril	-10.0637
▁figures	-10.0637
▁llur	-10.0646
ites	-10.0657
▁factor	-10.0657
▁conreu	-10.0658
▁decret	-10.066
▁fórmula	-10.0666
▁monarquia	-10.0666
▁agrupa	-10.0668
eb	-10.0669
por	-10.067
▁practica	-10.0671
▁recuperar	-10.0672
fri	-10.0687
▁procedent	-10.0696
▁antigament	-10.0698
▁espacial	-10.0719
▁extrem	-10.072
▁excepte	-10.0726
▁múltiples	-10.0734
cur	-10.0736
▁ràpid	-10.075
▁preu	-10.0752
començà	-10.0755
▁conegudes	-10.0757
institut	-10.076
▁operatiu	-10.0764
▁ocupar	-10.0767
anomenen	-10.0773
orde	-10.0785
▁requereix	-10.0787
arn	-10.0787
▁treballadors	-10.0791
▁poques	-10.0791
▁plom	-10.0793
▁neix	-10.0795
tari	-10.0795
emp	-10.08
▁banc	-10.0802
▁orient	-10.0804
iga	-10.081
▁pacífic	-10.0817
▁socialista	-10.083
▁etapa	-10.0839
▁ésser	-10.0842
▁freqüent	-10.0845
ço	-10.0847
▁converteix	-10.0847
▁generals	-10.0857
gat	-10.086
ora	-10.0868
▁vot	-10.0868
▁senzill	-10.0872
▁pin	-10.0878
▁molècula	-10.0878
▁cercle	-10.088
òf	-10.0885
▁combina	-10.0891
cial	-10.0891
sp	-10.0892
amp	-10.0897
ly	-10.0904
▁refugi	-10.0908
▁humanitat	-10.0909
ian	-10.0917
nis	-10.0917
▁àrea	-10.0929
▁demostra	-10.0935
▁dimensions	-10.0939
▁substàncies	-10.0939
▁victòria	-10.094
dem	-10.0941
islam	-10.0941
▁cat	-10.0942
▁milers	-10.0946
heli	-10.0947
▁funcionament	-10.0948
ians	-10.0957
▁quantitats	-10.096
liques	-10.0963
stra	-10.0969
▁religiosa	-10.097
▁ramaderia	-10.0974
▁graus	-10.0974
▁moderns	-10.0976
augment	-10.0977
▁entitats	-10.0983
▁vots	-10.0984
▁dansa	-10.0988
▁tele	-10.0989
▁pròpies	-10.1001
▁complement	-10.1001
▁radical	-10.1004
▁transforma	-10.1007
▁dura	-10.1007
auto	-10.1021
▁tall	-10.1026
▁crist	-10.1032
urs	-10.1034
▁malaltia	-10.1037
tòria	-10.1038
▁polar	-10.1039
▁trenta	-10.1041
ff	-10.1044
▁notable	-10.1048
▁siguin	-10.1053
▁oficials	-10.1054
eig	-10.1059
àtic	-10.1068
▁sch	-10.107
▁foto	-10.1073
abat	-10.1078
fal	-10.1094
▁red	-10.1095
autoritat	-10.1095
guda	-10.1098
▁elevat	-10.11
▁donà	-10.1105
000	-10.1108
▁relat	-10.1113
ega	-10.112
▁potència	-10.1125
▁reconeixement	-10.1126
mia	-10.1129
▁dominant	-10.1142
▁perpinyà	-10.1142
plan	-10.1143
yer	-10.1143
ndi	-10.1145
infant	-10.1146
▁matemàtiques	-10.1157
▁sard	-10.1167
▁dedicat	-10.1167
▁ten	-10.1167
▁tractar	-10.1175
▁caiguda	-10.1188
▁assolir	-10.1195
atura	-10.1196
▁certs	-10.1196
estrella	-10.1199
itza	-10.1202
▁usat	-10.1206
argument	-10.1207
▁imatges	-10.1215
▁biblioteca	-10.122
▁cadascun	-10.122
argent	-10.1222
án	-10.1224
▁equips	-10.1224
▁eu	-10.1229
▁marx	-10.1247
mul	-10.1251
▁connecta	-10.1251
▁catedral	-10.1251
▁vic	-10.1255
▁dedicada	-10.1265
▁actes	-10.1274
tos	-10.1282
▁reduir	-10.1283
▁considerada	-10.1284
▁zeus	-10.1284
▁1950	-10.1285
▁baixos	-10.1286
▁extern	-10.1288
-2	-10.13
gran	-10.1301
mil	-10.1308
llet	-10.1312
▁orígens	-10.1315
▁resposta	-10.1315
▁proper	-10.1321
▁representat	-10.1325
dr	-10.1326
én	-10.133
poli	-10.1331
cular	-10.1331
ssen	-10.1336
▁categoria	-10.1345
▁matrimoni	-10.1347
▁serralada	-10.1347
uda	-10.1349
▁viuen	-10.1359
▁exterior	-10.136
gol	-10.1362
▁patir	-10.1367
]]"	-10.1371
dria	-10.1375
▁basat	-10.1377
▁alemanys	-10.1377
▁val	-10.1379
▁saber	-10.1394
▁activa	-10.1394
▁duc	-10.1402
▁lleuger	-10.1406
tures	-10.1411
▁congrés	-10.1411
▁selva	-10.1412
▁intentar	-10.1418
exili	-10.1421
van	-10.1424
▁textos	-10.1426
▁gua	-10.1431
element	-10.1436
▁minuts	-10.1443
▁norma	-10.1444
▁directe	-10.1445
▁molins	-10.1446
▁marina	-10.1448
alemanya	-10.1451
▁concentració	-10.1454
cil	-10.1455
▁cast	-10.1457
▁àcid	-10.1458
anomenat	-10.1466
▁moral	-10.1466
▁inici	-10.1473
▁ger	-10.1474
▁diàmetre	-10.1476
▁salvador	-10.1476
▁federal	-10.1481
guera	-10.1484
rio	-10.1488
▁multi	-10.1493
▁fàcil	-10.1494
▁internacionals	-10.1503
▁nostra	-10.1509
▁cristiana	-10.1509
estén	-10.1515
uri	-10.1518
▁atac	-10.1524
▁predi	-10.1525
pic	-10.1535
utilitzen	-10.1537
▁feliu	-10.1541
▁constitueix	-10.1542
ped	-10.1547
olí	-10.1553
▁edifici	-10.1557
atac	-10.1564
▁brillant	-10.1566
▁radio	-10.1569
hidr	-10.1573
▁planetes	-10.1574
▁fred	-10.1576
▁vents	-10.1578
▁vo	-10.158
cada	-10.158
▁nav	-10.1584
▁dubte	-10.1592
▁negoci	-10.1605
arquitecte	-10.1606
▁districte	-10.1606
▁1939	-10.1607
cin	-10.1608
psi	-10.1608
ier	-10.1611
▁revista	-10.1613
▁morts	-10.1635
▁web	-10.1638
▁feudal	-10.164
aix	-10.1655
▁comuns	-10.1657
▁clàssic	-10.1659
▁elèctric	-10.1661
▁almenys	-10.1662
▁utilitzada	-10.1662
lica	-10.1665
▁debat	-10.1667
ms	-10.1672
▁guillem	-10.1672
▁recull	-10.1673
▁versions	-10.1675
press	-10.1681
▁essent	-10.1682
▁terç	-10.1682
▁introduir	-10.1693
▁har	-10.1694
cí	-10.1695
▁qüestió	-10.1705
▁recorregut	-10.1705
▁cria	-10.1707
encia	-10.1707
hum	-10.1711
▁afecta	-10.1714
▁ko	-10.1717
▁fri	-10.1718
eva	-10.1718
▁comunica	-10.172
bat	-10.1721
gle	-10.1723
▁exèrcit	-10.1724
▁barris	-10.1724
▁puja	-10.1733
▁objectiu	-10.1734
▁equivalent	-10.1735
▁útil	-10.1738
integr	-10.174
▁demanar	-10.1748
▁allò	-10.175
▁càlcul	-10.1751
▁localitat	-10.1751
▁darrera	-10.1752
▁gèneres	-10.1757
▁finalitat	-10.1761
▁feix	-10.1761
òleg	-10.1765
▁capaç	-10.1766
tim	-10.1767
▁rellotge	-10.1772
▁regnat	-10.179
loca	-10.1793
ker	-10.1797
▁patró	-10.1808
▁convertit	-10.1808
▁protons	-10.1808
▁meta	-10.1815
▁oficialment	-10.1825
ku	-10.1826
▁ferran	-10.1832
vé	-10.1836
▁1979	-10.184
aquí	-10.1842
rit	-10.1843
▁genera	-10.1843
▁caça	-10.1855
▁conceptes	-10.1859
▁reina	-10.186
escriu	-10.1863
▁històricament	-10.1868
▁branques	-10.1872
▁pintura	-10.1873
▁triangle	-10.1874
▁divideix	-10.1875
▁vidre	-10.1876
tric	-10.1877
▁contrast	-10.1882
▁cavall	-10.1886
gh	-10.189
▁essencial	-10.1892
▁continuació	-10.1901
▁generació	-10.1901
▁circuit	-10.1906
▁colònies	-10.1906
▁províncies	-10.1906
▁80	-10.1916
▁golf	-10.1927
▁retorn	-10.1929
àcid	-10.1934
▁plena	-10.1939
▁principat	-10.194
▁cost	-10.1941
bir	-10.1943
▁ideal	-10.1944
▁etimologia	-10.1946
oci	-10.1946
▁podri	-10.1946
ok	-10.1946
▁deessa	-10.1951
▁periòdica	-10.1959
ensenyament	-10.1973
▁pròxim	-10.1974
▁esports	-10.1982
bit	-10.1994
▁molí	-10.1995
▁guanya	-10.1997
explica	-10.2
establiment	-10.2005
▁econòmiques	-10.2008
▁william	-10.2008
▁afegir	-10.2009
▁catòlica	-10.2011
▁bastant	-10.202
ple	-10.2028
▁llac	-10.2029
hor	-10.203
▁proposar	-10.2037
▁corresponen	-10.2038
▁suficient	-10.2042
▁normes	-10.2043
▁augmenta	-10.205
▁pirineus	-10.2057
▁vessant	-10.2061
▁absoluta	-10.2065
exposició	-10.2067
stro	-10.2067
fred	-10.2073
▁litoral	-10.2077
▁ribera	-10.2079
▁los	-10.2081
▁complexos	-10.2083
berg	-10.2084
▁aliment	-10.2088
mann	-10.2092
gel	-10.2092
▁mesurar	-10.2098
instrument	-10.2101
▁unides	-10.2103
▁solució	-10.2111
▁visual	-10.2111
▁fabricació	-10.2117
▁comunicacions	-10.2117
▁talla	-10.2118
▁bol	-10.2119
▁industrials	-10.2125
▁(3	-10.2126
▁possiblement	-10.2127
▁mostrar	-10.2128
▁pis	-10.2128
elements	-10.2128
▁esglésies	-10.2128
▁actiu	-10.2133
▁pesca	-10.2135
▁conf	-10.2142
▁fàbrica	-10.2146
▁administrativa	-10.2147
▁coberta	-10.2148
▁millorar	-10.2155
▁combinació	-10.2157
quí	-10.2159
▁br	-10.2161
▁tub	-10.2166
▁professional	-10.2167
▁dibuix	-10.2173
▁últim	-10.2174
▁subjecte	-10.2181
liber	-10.2181
▁tendeix	-10.2181
ermita	-10.2183
▁específic	-10.2184
▁planes	-10.2186
▁produï	-10.2187
git	-10.2187
▁gegants	-10.2193
▁cl	-10.2196
▁distingir	-10.2201
▁net	-10.2206
expressió	-10.2208
gri	-10.2209
fí	-10.2211
alemany	-10.2215
▁físiques	-10.2215
1%	-10.2215
▁documentat	-10.2215
▁2015	-10.2221
▁publicació	-10.2223
ima	-10.2224
▁variacions	-10.2227
▁portal	-10.223
▁atorga	-10.2232
▁atòmic	-10.2233
▁cova	-10.2234
inicia	-10.2238
2,	-10.2242
empresa	-10.2243
itàlia	-10.2244
▁italià	-10.2244
individu	-10.2247
ètiques	-10.225
ògraf	-10.225
ològic	-10.2254
▁2012	-10.2256
▁trobava	-10.2266
▁70	-10.2275
▁carl	-10.2278
mis	-10.228
▁informa	-10.228
▁programes	-10.2285
▁george	-10.2286
▁2,	-10.2286
▁germans	-10.2287
▁vapor	-10.2288
▁maneres	-10.2289
estar	-10.23
lec	-10.2305
▁pet	-10.2305
▁palma	-10.2313
▁tre	-10.2314
aleshores	-10.2315
▁von	-10.2315
▁gravetat	-10.2321
▁septentrional	-10.2321
▁seqüència	-10.2321
electricitat	-10.2321
struc	-10.2321
▁elegit	-10.2323
▁nació	-10.2323
▁majoritàriament	-10.2324
▁poeta	-10.2326
▁interpretació	-10.2326
explotació	-10.233
▁interna	-10.2332
▁neo	-10.2336
▁proposa	-10.2349
▁creix	-10.2356
▁soldats	-10.2356
▁reus	-10.2356
▁tasca	-10.2358
▁fix	-10.2364
▁arribat	-10.2368
part	-10.2381
▁observ	-10.2382
▁necessita	-10.2383
lli	-10.2384
▁opera	-10.2389
▁bíblia	-10.2391
▁wagner	-10.2391
▁sortida	-10.2394
▁2019	-10.2397
az	-10.2408
▁estrella	-10.2415
leg	-10.2419
▁albert	-10.2426
▁portugal	-10.2427
▁diversitat	-10.2429
▁nomenat	-10.2429
2.	-10.2429
▁incloure	-10.2438
▁interès	-10.2446
mont	-10.2447
▁característic	-10.2452
elecció	-10.2455
▁utilitzats	-10.2458
▁increment	-10.2459
▁aporta	-10.2462
▁privilegi	-10.2463
▁créixer	-10.2463
jar	-10.2471
última	-10.2472
estadi	-10.2474
▁autor	-10.2478
coll	-10.2483
▁competi	-10.2488
nies	-10.2494
▁façana	-10.2499
▁invent	-10.2501
estabilitat	-10.2501
▁empordà	-10.2507
aran	-10.2509
nos	-10.2512
▁millors	-10.2512
observació	-10.2513
▁espais	-10.2516
▁dialectes	-10.2523
▁geo	-10.2525
▁gat	-10.2533
▁renaixement	-10.2535
▁successor	-10.2535
▁barroc	-10.2536
▁històrics	-10.2536
pon	-10.2539
▁poca	-10.2541
'11	-10.2543
▁gats	-10.2546
▁igualment	-10.2551
▁marge	-10.2552
▁fundador	-10.2556
▁lunar	-10.2562
▁conflictes	-10.2563
▁vies	-10.2566
▁investigació	-10.2568
▁bretanya	-10.2571
▁barberà	-10.2571
▁pluja	-10.2571
▁dinosaures	-10.2572
▁parell	-10.2581
▁experiment	-10.2581
burg	-10.2583
▁articles	-10.2588
▁torres	-10.259
nit	-10.2592
▁300	-10.26
▁clara	-10.2606
▁tron	-10.2607
▁religions	-10.2607
▁nens	-10.2608
▁animal	-10.2614
▁sons	-10.2615
ting	-10.2619
▁sur	-10.2624
▁reconeix	-10.2625
▁directa	-10.2629
▁resulta	-10.263
anomenada	-10.2636
lent	-10.2639
occità	-10.2643
-20	-10.2649
▁rival	-10.2653
mir	-10.2657
▁proporcion	-10.2662
▁gens	-10.2662
vel	-10.2664
▁proporciona	-10.2666
pot	-10.267
▁lliures	-10.2671
▁possibles	-10.2672
▁temporal	-10.268
▁york	-10.268
iz	-10.2681
esca	-10.2683
▁interacció	-10.2683
▁hagué	-10.2689
▁mou	-10.269
▁sin	-10.269
▁bàsicament	-10.2691
▁complex	-10.2695
mm	-10.27
▁eix	-10.2702
fons	-10.2702
oma	-10.2705
▁definit	-10.2707
▁cabal	-10.2708
▁nacionals	-10.271
▁leibniz	-10.2716
▁precisió	-10.2716
▁digital	-10.2716
▁malalties	-10.2717
2)	-10.2721
▁500	-10.2722
▁artistes	-10.2724
▁recentment	-10.2727
▁cata	-10.2733
▁comercials	-10.2736
▁reben	-10.2739
▁cm	-10.2747
▁coneixen	-10.2748
▁comptes	-10.2751
▁visita	-10.2752
▁ripoll	-10.2752
▁1999	-10.2755
ordi	-10.2758
fon	-10.2777
▁liberal	-10.279
▁suggereix	-10.279
▁tampoc	-10.279
▁ajudar	-10.2791
avi	-10.2792
▁designa	-10.2793
emb	-10.2806
▁regidors	-10.2809
one	-10.2811
eo	-10.2818
▁ku	-10.2822
ort	-10.2827
▁cereals	-10.2827
▁llorenç	-10.2827
▁profunditat	-10.2831
cula	-10.2839
çà	-10.2841
íssim	-10.2841
▁determinada	-10.2845
▁risc	-10.2848
▁indústries	-10.2848
▁hel	-10.2851
▁professor	-10.2864
òpera	-10.2864
▁aprovat	-10.2865
▁discurs	-10.2866
▁reconegut	-10.2867
▁experiments	-10.2869
▁relacionades	-10.2872
▁declara	-10.2877
▁estacions	-10.2878
▁2002	-10.2881
▁funcional	-10.2886
▁republicana	-10.2902
▁veritable	-10.2902
▁voluntat	-10.2902
▁cardenal	-10.2902
▁rural	-10.2902
▁observacions	-10.2903
▁taxa	-10.2905
▁caure	-10.2917
▁mateixes	-10.2932
▁pensar	-10.2932
▁flux	-10.2939
▁robert	-10.2941
▁hospital	-10.2943
esmenta	-10.2943
enginyeria	-10.2945
▁roig	-10.2945
set	-10.2946
▁plató	-10.295
ham	-10.2951
▁enllaç	-10.2951
▁partida	-10.2956
ante	-10.2956
▁tocar	-10.296
▁roda	-10.2965
▁carrera	-10.297
atenció	-10.2972
▁adoptar	-10.2974
▁arribà	-10.2977
▁bernat	-10.2978
▁inf	-10.298
▁intens	-10.298
▁pasqua	-10.2982
tell	-10.2983
▁escola	-10.2988
ik	-10.2991
horta	-10.2991
▁junt	-10.2992
bel	-10.2996
▁breu	-10.2998
lics	-10.2999
▁germànic	-10.3001
▁fira	-10.3014
▁festival	-10.3014
▁montserrat	-10.3014
▁inicis	-10.3015
▁llatina	-10.3015
▁1940	-10.3017
▁tenim	-10.3017
°	-10.3019
ji	-10.3026
▁serres	-10.3026
▁secció	-10.3029
▁abandonar	-10.3036
alçada	-10.3036
▁fonamentals	-10.304
▁tur	-10.304
reg	-10.3041
americans	-10.3047
▁ones	-10.3051
▁bages	-10.3056
▁rebut	-10.3057
▁presents	-10.3062
gur	-10.3071
dies	-10.3077
▁continu	-10.3079
▁feta	-10.308
anti	-10.3082
▁anteriorment	-10.3084
▁ph	-10.309
▁príncep	-10.309
▁vicenç	-10.309
▁campionat	-10.309
▁privat	-10.3091
▁dissol	-10.3092
▁conserven	-10.3097
▁organització	-10.3099
▁evolució	-10.3104
ei	-10.3107
▁dividit	-10.3112
llar	-10.3113
▁groc	-10.3113
forma	-10.3124
▁classificar	-10.3128
▁cinquanta	-10.3128
▁noruega	-10.3128
▁depressió	-10.3129
▁platja	-10.313
▁emprat	-10.3134
observador	-10.3136
▁allà	-10.3138
▁cura	-10.3142
▁comparació	-10.3142
▁vella	-10.3144
▁vocals	-10.3145
nça	-10.3147
tus	-10.315
▁únicament	-10.3158
heroi	-10.3161
▁carbó	-10.3167
▁primavera	-10.3167
▁estendre	-10.3167
ami	-10.3177
▁tru	-10.3179
▁jugador	-10.318
▁mode	-10.3182
▁gos	-10.3186
▁extra	-10.3196
▁dividir	-10.3204
▁planteja	-10.3206
▁calent	-10.3208
encarrega	-10.3209
▁sens	-10.3211
▁metge	-10.3214
obre	-10.3216
jos	-10.3221
ras	-10.3235
▁castellar	-10.3236
▁salt	-10.3238
nica	-10.3241
▁japonès	-10.3244
▁productor	-10.3244
▁dinamarca	-10.3244
lars	-10.3245
bus	-10.3247
▁feina	-10.3251
▁obrer	-10.3252
▁relacionats	-10.3259
fin	-10.326
nota	-10.326
▁hagut	-10.3273
dir	-10.3283
▁campanya	-10.3283
alisme	-10.3285
▁perdut	-10.3286
▁crema	-10.3295
▁béns	-10.3297
▁significativa	-10.3298
gue	-10.3303
big	-10.331
arro	-10.3311
ram	-10.3316
▁moments	-10.3318
▁llança	-10.332
acadèmia	-10.3321
▁cultiu	-10.3322
▁propera	-10.3324
▁hagi	-10.3324
▁lingüístic	-10.3326
▁mus	-10.333
2%	-10.3333
front	-10.3334
▁millora	-10.3339
obertura	-10.334
▁zo	-10.3341
sec	-10.3345
▁esmentat	-10.3348
observa	-10.3351
▁falta	-10.3358
▁accions	-10.3358
ux	-10.336
▁cançons	-10.3361
▁disciplines	-10.3361
▁charles	-10.3361
▁olímpic	-10.3369
▁fidel	-10.337
▁bot	-10.3371
▁contes	-10.3372
▁desplaçament	-10.3372
▁ferrer	-10.3373
▁cartes	-10.3391
▁aspecte	-10.3394
▁europees	-10.34
▁andreu	-10.34
erra	-10.3406
▁bany	-10.3409
▁conseller	-10.3411
entitat	-10.3415
▁ruta	-10.3419
▁pensa	-10.3428
▁realitzat	-10.3436
▁humanes	-10.3439
▁resoldre	-10.344
▁diners	-10.344
▁component	-10.3447
▁raons	-10.345
▁utilització	-10.3453
▁%	-10.3458
▁adult	-10.3471
▁candidat	-10.3478
▁reproducció	-10.348
▁confi	-10.348
8%	-10.3481
▁infinit	-10.3484
▁hem	-10.3485
▁separació	-10.3488
▁negres	-10.3489
▁paul	-10.3493
200	-10.3506
▁vius	-10.3511
ice	-10.3516
▁marxa	-10.3516
▁seixanta	-10.3518
▁valenciana	-10.3518
▁capítol	-10.3518
▁disputa	-10.3519
▁repeti	-10.3519
▁precipitacions	-10.3519
▁secret	-10.3519
▁1991	-10.352
▁1920	-10.3521
▁2013	-10.3525
associa	-10.3526
▁extens	-10.354
eda	-10.3541
nès	-10.3545
lot	-10.3546
▁pertanyent	-10.3547
▁societats	-10.3555
▁literari	-10.3558
▁estable	-10.3559
▁historiadors	-10.3561
▁enorme	-10.3561
▁autoritats	-10.3562
▁lleugerament	-10.3564
▁rotació	-10.3565
▁vessants	-10.3576
▁detall	-10.3578
▁roure	-10.3587
tics	-10.3588
▁separa	-10.359
avantatge	-10.3598
▁geometria	-10.3598
▁creença	-10.3599
▁roba	-10.3602
eco	-10.3606
▁suposar	-10.3607
▁tècnic	-10.3607
ança	-10.3612
▁tèrmica	-10.3612
▁indrets	-10.3618
▁peus	-10.3619
gir	-10.362
▁frase	-10.3622
▁domina	-10.3629
ístic	-10.363
▁porc	-10.3636
▁constitucional	-10.3638
▁religioses	-10.3638
▁processa	-10.3638
▁josé	-10.3639
▁síntesi	-10.3639
▁cru	-10.3642
▁arbres	-10.3642
▁masies	-10.3645
ries	-10.3647
▁dialecte	-10.3647
▁transformació	-10.3651
fes	-10.3651
▁minerals	-10.3655
▁governador	-10.3668
ndo	-10.3676
6%	-10.3677
▁invasió	-10.3679
▁darwin	-10.3679
▁departament	-10.3679
obté	-10.3679
▁1983	-10.3681
▁busca	-10.3685
▁priorat	-10.3688
èxit	-10.3694
▁segueixen	-10.3698
▁representants	-10.3701
▁químiques	-10.3702
▁àmplia	-10.3705
pal	-10.3705
▁verge	-10.3707
lines	-10.3709
▁vil	-10.371
▁serien	-10.3716
▁bri	-10.3719
▁manuel	-10.3719
cit	-10.372
▁alcalde	-10.3724
ben	-10.3729
▁90	-10.3735
rec	-10.3744
▁35	-10.3744
▁regnes	-10.3746
dores	-10.3747
▁estels	-10.3752
▁elles	-10.3757
▁groenlàndia	-10.376
▁restauració	-10.376
▁jueva	-10.3761
rem	-10.3763
▁superiors	-10.3765
▁masia	-10.377
▁reparti	-10.3773
labora	-10.3774
acaba	-10.3779
escenari	-10.3792
▁constitueixen	-10.3799
▁nobles	-10.3799
▁combustible	-10.3801
▁pràctiques	-10.3801
▁massís	-10.3802
▁artístic	-10.3804
▁individus	-10.3804
▁tin	-10.3806
▁incorpora	-10.3806
far	-10.3808
▁àmpliament	-10.3815
▁típic	-10.3816
▁intern	-10.3816
▁regional	-10.382
▁arm	-10.3822
▁necessària	-10.3827
▁mari	-10.3834
▁volia	-10.3837
▁cadascuna	-10.3841
▁contemporània	-10.3842
▁ocasions	-10.3842
▁llevat	-10.3842
▁reserva	-10.3842
ue	-10.3848
▁eines	-10.3848
▁calcular	-10.3854
tors	-10.3864
▁aquí	-10.3875
▁mos	-10.3882
▁coloma	-10.3884
lits	-10.3885
▁negra	-10.3887
▁físics	-10.3888
▁corda	-10.3888
▁colònia	-10.3888
lon	-10.3897
vita	-10.3902
etat	-10.3906
▁motius	-10.3915
▁egipcis	-10.3916
▁ambdues	-10.3918
gués	-10.3922
▁progress	-10.3923
▁filosòfic	-10.3924
▁galàxia	-10.3924
▁financer	-10.3924
▁seguida	-10.3924
itar	-10.3926
▁menors	-10.3926
▁1930	-10.3927
▁gr	-10.3928
enca	-10.3933
▁mite	-10.3934
americana	-10.3936
▁experimental	-10.3937
▁refer	-10.3939
▁quadr	-10.3946
▁presa	-10.3953
gni	-10.3953
lector	-10.3953
▁objectius	-10.3956
▁anàlisi	-10.3957
▁declarar	-10.3959
▁vir	-10.3961
▁britànic	-10.3965
▁suècia	-10.3966
▁companys	-10.3975
▁durada	-10.3976
gan	-10.3985
kin	-10.3987
▁1,	-10.3991
riu	-10.3992
onze	-10.3998
ope	-10.4
▁noguera	-10.4003
3%	-10.4009
▁gestió	-10.4009
▁tret	-10.401
gens	-10.4013
ak	-10.402
="7	-10.4021
▁corresponent	-10.4027
▁semblants	-10.4028
ey	-10.4029
eren	-10.4034
but	-10.4045
▁considerable	-10.4047
▁arquitectònic	-10.4049
▁rellevant	-10.4049
▁sacerdot	-10.4049
▁creences	-10.4049
▁modalitat	-10.4049
▁oscil	-10.405
put	-10.4052
▁considerava	-10.4055
oposició	-10.406
▁pertanyen	-10.4061
▁construïda	-10.4062
tot	-10.4071
error	-10.4073
ística	-10.4078
usen	-10.4081
aplicació	-10.4084
▁participa	-10.4088
▁penicil	-10.4089
▁irregular	-10.4091
▁reduït	-10.4091
▁vertical	-10.4091
▁bestiar	-10.4091
aeroport	-10.4092
▁crida	-10.4098
▁diputats	-10.4098
▁procediment	-10.4104
▁socialistes	-10.4107
▁publica	-10.4107
▁professionals	-10.4108
▁fàcilment	-10.411
▁àtom	-10.411
▁drac	-10.4111
ty	-10.4113
▁(16	-10.4114
▁adopt	-10.4122
accelera	-10.4124
▁vocal	-10.4129
estatut	-10.413
▁donada	-10.4132
▁religiosos	-10.4133
▁1992	-10.4135
▁1995	-10.4135
▁tenint	-10.4136
▁pobres	-10.4137
▁martin	-10.4138
▁manga	-10.4139
▁plasma	-10.4141
▁documentació	-10.4142
▁entendre	-10.4143
▁religiós	-10.4159
andr	-10.4161
!	-10.4167
gl	-10.4172
llo	-10.4175
▁construccions	-10.4176
▁alcalins	-10.4176
▁esdevingué	-10.4176
mas	-10.4181
▁nostre	-10.4186
▁vital	-10.4189
▁fixa	-10.4201
▁independents	-10.4202
▁àrabs	-10.4206
▁riquesa	-10.4207
▁capes	-10.4208
▁colla	-10.4209
▁esportiu	-10.421
▁administra	-10.4216
▁proporció	-10.4218
▁descendents	-10.4221
absència	-10.4221
▁juli	-10.4221
▁aliats	-10.4222
▁th	-10.4222
▁avança	-10.4224
▁organitzacions	-10.4226
▁creuen	-10.4228
▁enviar	-10.4228
grafi	-10.4241
organisme	-10.425
▁article	-10.4252
ski	-10.4255
▁compli	-10.4256
▁contemporani	-10.4261
▁rosselló	-10.4262
▁calcula	-10.4262
▁camins	-10.4264
▁sosteni	-10.4269
ènic	-10.4275
història	-10.4284
ològica	-10.4291
ença	-10.4291
▁caràcters	-10.4292
▁soci	-10.4298
▁generar	-10.4301
▁comissió	-10.4304
▁windows	-10.4304
▁cops	-10.4304
▁intensitat	-10.4309
vet	-10.431
▁blanques	-10.4311
▁romànica	-10.4317
igual	-10.432
▁acompanya	-10.4326
egipte	-10.433
▁xx	-10.4335
▁públics	-10.4335
algunes	-10.4339
▁electrònic	-10.4347
▁badalona	-10.4347
▁petroli	-10.4347
▁síl	-10.4348
▁tardor	-10.4349
▁lliura	-10.435
▁concretament	-10.4355
▁conrea	-10.4361
▁entitat	-10.4367
més	-10.4372
aparell	-10.4374
▁estatal	-10.4374
▁econòmics	-10.4375
▁clarament	-10.4377
▁justifica	-10.4377
penent	-10.4378
índex	-10.439
assentament	-10.439
▁afluent	-10.4391
▁sentiment	-10.4393
▁campanar	-10.4393
▁recuperació	-10.4399
▁sum	-10.4399
hospital	-10.4414
altura	-10.4416
▁fòssils	-10.4417
esco	-10.4419
▁greu	-10.4428
▁comporta	-10.4432
▁literària	-10.4434
▁liti	-10.4443
▁porten	-10.4453
lecció	-10.4456
▁deixant	-10.4458
accés	-10.4462
▁matar	-10.4466
▁prat	-10.4467
àtics	-10.4469
▁detect	-10.4474
▁plans	-10.4475
▁evident	-10.4477
▁ceràmica	-10.4477
▁transmissió	-10.4477
▁latitud	-10.4477
▁segarra	-10.4477
▁premsa	-10.4478
▁lineal	-10.4479
▁1975	-10.4479
tons	-10.4482
▁majors	-10.4483
▁senyors	-10.4484
ill	-10.4492
▁geogràfica	-10.4495
gener	-10.4499
parti	-10.4506
▁captura	-10.4507
▁ec	-10.4508
▁testimoni	-10.4509
▁derrota	-10.4515
▁occidentals	-10.4519
▁record	-10.4519
▁multiplica	-10.4521
▁condició	-10.4521
▁reforç	-10.4521
▁raigs	-10.4521
emissió	-10.4522
▁negativa	-10.4522
▁centrals	-10.4524
pec	-10.4524
▁revela	-10.4525
▁regula	-10.4526
▁peixos	-10.4526
▁relacionat	-10.4532
▁accident	-10.4534
▁wi	-10.4535
exterior	-10.4551
anglaterra	-10.4551
▁manifest	-10.4556
▁estableix	-10.4556
niques	-10.4557
allunya	-10.4564
▁suïssa	-10.4565
▁aparent	-10.4566
▁constel	-10.4567
▁expressa	-10.4569
▁gest	-10.4572
▁especials	-10.4573
▁hip	-10.4575
rum	-10.4581
▁dedica	-10.4587
mos	-10.4601
]].	-10.4602
▁cromosomes	-10.461
▁xarxes	-10.461
▁santuari	-10.461
▁considerats	-10.461
▁comitè	-10.4611
▁1998	-10.4612
▁remunta	-10.4613
▁confirma	-10.4615
gó	-10.462
▁conreus	-10.4622
▁ensenya	-10.4624
▁gol	-10.4628
▁enric	-10.464
▁genètica	-10.4641
▁demogràfic	-10.4646
▁jurisdicció	-10.4654
▁màquina	-10.4654
▁dictadura	-10.4654
▁comencen	-10.4655
▁usos	-10.4656
ré	-10.4656
pri	-10.4657
▁actua	-10.4659
▁pacte	-10.4661
zar	-10.4666
ular	-10.4667
sch	-10.4669
stru	-10.4673
▁geogràfic	-10.4682
▁conservació	-10.4686
▁marcat	-10.4691
gli	-10.4691
▁mèdic	-10.4699
▁pujol	-10.4699
▁referències	-10.4699
▁peça	-10.4701
▁1982	-10.4701
▁muralles	-10.4701
trop	-10.4703
▁pastor	-10.4705
▁serveix	-10.4706
▁suec	-10.4711
▁corb	-10.4718
alba	-10.472
escriptor	-10.4731
▁paga	-10.4734
▁mecanisme	-10.4735
▁dirigir	-10.4737
historiador	-10.4741
▁realment	-10.4742
▁organitzar	-10.4743
▁ritme	-10.4744
▁requeri	-10.4744
▁sírius	-10.4744
bas	-10.4751
▁preocupa	-10.4751
▁registra	-10.4751
exposa	-10.4753
osament	-10.4755
dit	-10.4758
):	-10.4761
▁abandona	-10.4761
èric	-10.4766
▁històries	-10.4772
aproximadament	-10.4777
▁abundant	-10.4781
rès	-10.4784
▁secundari	-10.4789
orquestra	-10.4789
▁decisió	-10.4789
▁suprem	-10.4789
▁comunista	-10.4789
▁pobla	-10.4796
▁ofereix	-10.4803
▁bond	-10.4807
▁gram	-10.4815
▁punta	-10.4816
▁posicions	-10.4818
sum	-10.4833
▁narra	-10.4833
▁conseqüències	-10.4834
▁climàtic	-10.4834
▁missió	-10.4834
▁bombo	-10.4836
▁150	-10.4851
fra	-10.4852
▁pou	-10.4857
empren	-10.4857
posen	-10.486
empordà	-10.4869
▁positiu	-10.4869
▁moro	-10.4872
▁familiar	-10.4874
▁variables	-10.4875
▁funcionar	-10.4875
▁bes	-10.4877
▁relativitat	-10.4879
▁italiana	-10.4879
▁1989	-10.4881
▁obrir	-10.4881
▁esposa	-10.4881
▁proposta	-10.4885
▁profund	-10.4885
▁marí	-10.4887
▁protestant	-10.4891
▁solars	-10.4905
ek	-10.4907
ençà	-10.4913
▁celebració	-10.4913
▁romanes	-10.4917
▁particularment	-10.4918
ky	-10.4918
usuari	-10.4922
▁dinàmica	-10.4925
▁dissabte	-10.4925
▁laboratori	-10.4925
▁envolta	-10.4925
antropologia	-10.4926
▁cha	-10.4926
▁esteve	-10.4927
▁montsant	-10.4929
adora	-10.4931
▁pintor	-10.4936
▁unir	-10.4943
miss	-10.4953
▁·	-10.4958
▁reb	-10.4963
▁intenta	-10.4967
▁matemàtica	-10.4968
▁august	-10.4968
▁traducció	-10.4971
▁figueres	-10.4971
▁tortosa	-10.4971
▁angular	-10.4971
▁recomana	-10.4971
▁difusió	-10.4971
▁elevada	-10.4972
▁llargues	-10.4972
▁cervelló	-10.4974
we	-10.4978
▁biologia	-10.498
▁wa	-10.4981
munt	-10.4981
▁toca	-10.4985
▁pista	-10.4985
▁casar	-10.4986
ange	-10.4992
▁estructural	-10.4995
habitants	-10.5009
▁tribus	-10.5011
▁prohibi	-10.5012
baix	-10.5013
curs	-10.5015
ixen	-10.5016
▁doctrina	-10.5017
▁justícia	-10.5018
▁patent	-10.5019
▁prehistòria	-10.5019
ium	-10.5019
▁delimita	-10.502
aga	-10.5021
omi	-10.5026
aliança	-10.5026
txa	-10.5027
▁civilització	-10.5028
▁proto	-10.5033
ome	-10.504
▁plat	-10.5041
▁variació	-10.5043
▁variants	-10.5044
▁causes	-10.5044
▁orbitals	-10.5052
aria	-10.5053
tats	-10.5058
▁significatiu	-10.506
▁microsoft	-10.5063
▁reflecteix	-10.5063
▁condiciona	-10.5063
▁destrucció	-10.5064
▁centenars	-10.5067
▁buscar	-10.5067
▁defensar	-10.507
▁convent	-10.5072
▁negatiu	-10.5074
ianes	-10.5075
▁suau	-10.5075
▁tit	-10.5078
ires	-10.508
úri	-10.5088
▁cerca	-10.5093
operació	-10.5098
pet	-10.5098
▁fol	-10.5099
hy	-10.51
7%	-10.5102
yn	-10.5109
▁electromagnètic	-10.5109
▁coalició	-10.511
▁divinitat	-10.511
▁famós	-10.511
▁tancat	-10.5114
herència	-10.5118
▁bloc	-10.5118
estrat	-10.512
▁rang	-10.5124
▁separar	-10.5126
gro	-10.5139
▁quarks	-10.5146
▁400	-10.5147
vila	-10.5155
▁carreteres	-10.5156
▁proximitat	-10.5156
▁idiomes	-10.5156
▁culmina	-10.5157
▁moneda	-10.5158
moni	-10.5164
activa	-10.5166
▁bang	-10.5168
▁top	-10.5168
esquí	-10.5169
▁(12	-10.5169
by	-10.517
▁teòric	-10.5173
▁vestit	-10.5175
▁(15	-10.5175
▁pinta	-10.5175
▁ulls	-10.5178
▁pedres	-10.518
▁protegir	-10.5185
hàbitat	-10.5185
▁setge	-10.5186
▁destacat	-10.5188
▁electrònica	-10.5195
▁recol	-10.5196
urban	-10.52
anoia	-10.5201
▁històriques	-10.5203
▁leonardo	-10.5203
▁sabadell	-10.5203
▁singular	-10.5203
▁termenal	-10.5204
▁cambra	-10.5205
òmetre	-10.5211
▁definitivament	-10.5215
marca	-10.5227
▁última	-10.5235
▁oral	-10.524
▁expansió	-10.5241
▁pares	-10.5242
actor	-10.5245
estel	-10.5247
▁fals	-10.5249
▁addicional	-10.5251
▁prestigi	-10.5251
▁urbana	-10.5251
▁filòsof	-10.5252
▁diòxid	-10.5254
tivitat	-10.5254
landès	-10.5254
▁cua	-10.5255
▁personalitat	-10.5261
▁roc	-10.528
hostal	-10.528
▁mit	-10.5281
▁cavalls	-10.5283
▁turc	-10.5283
▁concert	-10.5289
ificada	-10.5295
▁republicà	-10.5298
▁introducció	-10.5298
▁vilafranca	-10.5298
▁recinte	-10.5298
esperanto	-10.5298
▁cala	-10.5298
▁sofre	-10.53
▁monuments	-10.5303
▁oxigen	-10.5303
▁recents	-10.5308
▁cuina	-10.5308
pp	-10.5309
òmic	-10.5312
volt	-10.5325
xx	-10.5325
▁fases	-10.5329
▁amenaça	-10.5332
▁sus	-10.5341
ajuda	-10.5342
▁portes	-10.5345
▁pagesos	-10.5346
▁positiva	-10.5346
▁públiques	-10.5346
▁reconèixer	-10.5346
▁concepció	-10.5346
▁poema	-10.5346
▁xifra	-10.5346
▁polònia	-10.5347
pan	-10.5348
▁terror	-10.5348
▁estret	-10.5349
erc	-10.535
▁projectes	-10.535
▁jueu	-10.5357
9%	-10.5357
▁cai	-10.5357
gos	-10.5367
▁circular	-10.5376
cho	-10.5376
▁popularitat	-10.5377
▁film	-10.5377
▁edició	-10.5379
▁destacats	-10.5381
catalan	-10.5382
guin	-10.539
ña	-10.5392
itzats	-10.5393
▁cançó	-10.5393
▁qüestions	-10.5393
▁residència	-10.5393
▁tecnologies	-10.5393
▁bel	-10.5395
▁covalent	-10.5396
▁tals	-10.5396
▁matemàtic	-10.5401
▁passen	-10.5402
tit	-10.5404
▁muralla	-10.5407
▁verb	-10.541
▁monjos	-10.5413
▁adquiri	-10.5419
▁simples	-10.5419
vid	-10.5421
▁hagués	-10.5424
ejar	-10.5436
▁vii	-10.5437
gres	-10.544
▁filòsofs	-10.544
lustra	-10.5441
extinció	-10.5441
▁arriben	-10.5441
▁percentatge	-10.5441
▁gruix	-10.5442
▁primària	-10.5443
▁desaparèixer	-10.5443
▁compositor	-10.5447
▁individual	-10.5447
▁teixit	-10.5448
lectiu	-10.5452
▁dirigit	-10.5464
▁we	-10.5466
gil	-10.5468
▁judicial	-10.5469
▁rosa	-10.5475
▁ràpida	-10.5479
▁imperial	-10.5479
▁identificar	-10.5483
▁castells	-10.5487
fini	-10.5487
prim	-10.5488
informació	-10.5488
ligència	-10.549
▁naus	-10.549
▁gaudí	-10.549
▁sencer	-10.5494
▁parlen	-10.5494
imi	-10.5496
got	-10.5498
ític	-10.55
obres	-10.5513
▁mites	-10.5519
american	-10.5531
human	-10.5537
anterior	-10.5537
▁coincideix	-10.5538
▁immediatament	-10.5541
latin	-10.5542
▁propers	-10.5544
▁grava	-10.5545
guar	-10.5545
▁vegetal	-10.5545
▁anava	-10.5546
▁usar	-10.555
▁observat	-10.5551
▁basant	-10.5553
▁fundada	-10.5553
▁selecció	-10.5554
▁costes	-10.5555
▁altitud	-10.5557
▁sorgeix	-10.556
▁recupera	-10.5569
▁correu	-10.5581
fre	-10.5581
▁pròstata	-10.5587
▁teorema	-10.5587
▁distingeix	-10.5587
▁gamma	-10.5587
▁proclama	-10.5597
ider	-10.5599
▁feble	-10.56
▁1900	-10.5605
▁barra	-10.5605
▁romànic	-10.561
▁existir	-10.562
▁avall	-10.5621
▁obliga	-10.5624
▁mines	-10.5625
▁coincidi	-10.5636
▁convertí	-10.5636
▁tribunal	-10.5636
▁concedi	-10.5636
▁llull	-10.5637
▁david	-10.5638
enzim	-10.5648
▁tim	-10.5649
▁variable	-10.5651
▁recon	-10.5651
▁conservador	-10.5654
▁pala	-10.5654
▁pagar	-10.5655
▁necessitats	-10.5658
▁determinats	-10.5665
ung	-10.5667
▁45	-10.5673
▁acceptar	-10.5674
orientació	-10.5675
onada	-10.568
▁electró	-10.5683
▁veïnat	-10.5685
▁mercè	-10.5685
▁fluor	-10.5686
▁interessant	-10.5686
tt	-10.5694
▁oberta	-10.5697
abandon	-10.5698
allarga	-10.5699
agr	-10.57
▁bre	-10.5701
grup	-10.5701
▁poblament	-10.5703
▁regla	-10.5707
antrop	-10.5708
▁convi	-10.5709
ñ	-10.5713
▁este	-10.5722
ssion	-10.5723
▁acabat	-10.5724
▁gòtic	-10.5725
frac	-10.5726
▁classifica	-10.5729
▁japonesa	-10.5735
▁propòsit	-10.5735
▁setmanes	-10.5735
▁esdevé	-10.5735
▁obtingut	-10.5735
opinió	-10.5735
▁mitjanes	-10.5736
idioma	-10.5738
electró	-10.5739
▁amunt	-10.5741
▁parcialment	-10.5745
tum	-10.5756
▁fauna	-10.5761
ich	-10.5762
▁jugar	-10.5767
▁situar	-10.5771
▁bàsics	-10.5773
embarc	-10.5773
àtom	-10.5781
▁reunir	-10.5783
gràfiques	-10.5784
▁distàncies	-10.5785
empúries	-10.5785
andorra	-10.5785
▁aristòtil	-10.5795
▁coneixements	-10.5795
▁canvia	-10.5799
▁democràtica	-10.5801
▁canals	-10.5812
▁llançar	-10.5813
mètrica	-10.5815
▁boi	-10.5815
▁mental	-10.5826
▁simbòlic	-10.5835
▁tau	-10.5835
afegeix	-10.5835
▁indiquen	-10.5836
▁1986	-10.5837
andalus	-10.5838
cha	-10.5839
oide	-10.5844
▁alfabet	-10.5844
▁controlar	-10.5846
▁russa	-10.5847
▁recent	-10.5848
▁dirigida	-10.5851
▁elemental	-10.5851
▁3.	-10.5853
▁turístic	-10.5854
pra	-10.5858
uti	-10.586
lenni	-10.586
▁àngel	-10.5863
▁integrat	-10.5866
▁pronuncia	-10.587
300	-10.587
▁sals	-10.5874
▁feder	-10.5876
drà	-10.5877
òries	-10.5878
origina	-10.5882
▁reducció	-10.5885
▁violent	-10.5885
▁pallars	-10.5886
▁fossin	-10.5886
▁solament	-10.5887
▁juan	-10.5887
▁traslladar	-10.5888
àustria	-10.5889
▁dedicar	-10.5892
▁funciona	-10.5895
▁empresa	-10.5896
▁rebutja	-10.5896
▁relacionada	-10.59
▁esportiva	-10.5902
▁comanda	-10.5904
▁terrassa	-10.5906
bund	-10.591
òniques	-10.5913
▁secà	-10.5913
▁noblesa	-10.5916
litat	-10.5918
▁desert	-10.5921
▁nobel	-10.5925
▁pedr	-10.5925
▁sac	-10.5926
metria	-10.593
▁(13	-10.5935
▁llegendes	-10.5935
▁thomas	-10.5935
▁aconseguí	-10.5935
▁vuitanta	-10.5935
▁lloret	-10.5938
també	-10.5941
▁progressivament	-10.5943
▁amor	-10.5945
fet	-10.5947
exerci	-10.5959
▁proposat	-10.5964
▁autònoma	-10.5975
▁distribuï	-10.5986
▁receptor	-10.5986
▁nascut	-10.5986
guessin	-10.5987
▁notables	-10.5988
▁1996	-10.5988
▁llar	-10.5996
rup	-10.5997
▁1.000	-10.6
▁sentir	-10.6007
▁argumenta	-10.6007
▁civils	-10.6008
▁llançament	-10.6012
ocell	-10.6013
lers	-10.6014
▁prats	-10.6014
mus	-10.602
bio	-10.6026
▁gust	-10.6027
▁rol	-10.6028
▁demana	-10.6034
▁dispers	-10.6035
▁teatral	-10.6037
▁èpoques	-10.6037
▁constituir	-10.6037
▁oceans	-10.6037
▁ritual	-10.6037
abundància	-10.6037
uls	-10.6038
▁interaccions	-10.6038
▁aminoàcids	-10.6039
esquelet	-10.6039
▁1934	-10.6039
artista	-10.604
ascens	-10.6042
»)	-10.6043
segons	-10.6045
▁sodi	-10.6047
▁identitat	-10.605
▁portat	-10.605
▁ocupat	-10.6055
òc	-10.6064
▁compon	-10.6066
▁determina	-10.6067
▁situats	-10.6076
ànima	-10.6077
▁austràlia	-10.6079
▁aconseguit	-10.6082
rius	-10.6085
▁tòquio	-10.6088
▁intervenció	-10.6088
▁rendiment	-10.6088
▁eclesiàstic	-10.6088
▁sindicat	-10.609
.500	-10.609
▁1984	-10.609
▁1994	-10.6091
▁fronteres	-10.6092
▁allibera	-10.6094
▁exclusivament	-10.6094
ní	-10.6096
▁respon	-10.6096
▁xiii	-10.6102
▁veritat	-10.6103
▁milió	-10.6104
illes	-10.6109
pta	-10.6115
▁creia	-10.6118
▁resultant	-10.6118
▁xile	-10.6118
▁capitalisme	-10.6119
ctor	-10.6124
▁intercanvi	-10.6127
anisme	-10.6128
▁nen	-10.6131
▁angles	-10.6137
▁contínua	-10.614
▁fàbriques	-10.614
▁dòlars	-10.614
▁cardona	-10.614
episodi	-10.614
▁conservat	-10.6146
arrel	-10.6148
acceleració	-10.6152
instal	-10.6153
▁superar	-10.6154
▁kh	-10.6157
▁sil	-10.6167
▁socialisme	-10.617
▁assigna	-10.6173
uci	-10.6173
▁fes	-10.6175
punt	-10.6177
ocupa	-10.619
▁triomf	-10.6192
▁concili	-10.6192
organitza	-10.6196
italià	-10.6201
▁codifica	-10.6201
▁coves	-10.6202
▁publicada	-10.6216
▁expressar	-10.6218
▁hora	-10.6223
▁transformar	-10.6232
▁vesti	-10.6238
▁hebreu	-10.624
▁donava	-10.6243
▁constituït	-10.6244
▁equacions	-10.6244
▁espiritual	-10.6244
▁telescopi	-10.6244
▁maragall	-10.6244
▁tensió	-10.6244
▁enrere	-10.6245
▁sociologia	-10.6246
fecció	-10.6247
▁testimonis	-10.6258
▁determinades	-10.6261
bet	-10.6261
▁got	-10.6264
▁costums	-10.6266
▁vaixells	-10.6274
itzant	-10.6283
▁soviètic	-10.6286
▁marítim	-10.6286
▁atacs	-10.6289
▁quadre	-10.6289
▁cordes	-10.6291
▁formats	-10.6293
▁femení	-10.6296
▁acadèmic	-10.6296
▁sobirà	-10.6296
▁existia	-10.6296
▁dintre	-10.6297
4)	-10.63
▁mad	-10.6302
▁policia	-10.6302
▁potassi	-10.6305
▁motiv	-10.6305
▁durar	-10.6311
▁vaixell	-10.632
▁parella	-10.6323
rubí	-10.6323
▁ordres	-10.6326
▁excepció	-10.6328
▁ki	-10.6336
elaboració	-10.6343
▁substituït	-10.6349
▁extremad	-10.6353
▁vibra	-10.6359
alcalde	-10.636
▁trobada	-10.6362
▁32	-10.6363
▁alternativa	-10.6374
▁compren	-10.6378
▁paleo	-10.6385
ling	-10.6389
ring	-10.6389
▁costats	-10.639
inus	-10.6395
▁rebel	-10.6401
▁franja	-10.6402
▁cafè	-10.6402
esperança	-10.6403
▁1981	-10.6404
▁exactament	-10.6409
▁variant	-10.6413
▁comptar	-10.6413
exercici	-10.6414
▁gall	-10.6414
▁«"	-10.6418
▁urgell	-10.6423
▁propos	-10.6426
▁representacions	-10.6427
fins	-10.6428
avanç	-10.6433
▁meteor	-10.6436
▁heret	-10.6441
animals	-10.6443
hon	-10.6444
▁laterals	-10.6449
dan	-10.6451
▁maur	-10.6453
▁braç	-10.6454
▁sicília	-10.6455
▁partícula	-10.6455
▁infantil	-10.6455
▁etapes	-10.6455
▁oferir	-10.6455
▁pintures	-10.6456
▁circum	-10.6457
▁arcs	-10.6457
▁basad	-10.6458
habit	-10.6459
▁dominis	-10.646
plu	-10.6461
▁criteris	-10.6465
▁profunda	-10.6466
▁terrestres	-10.6467
▁predominant	-10.6468
intercanvi	-10.6468
▁sexe	-10.6468
gü	-10.6469
▁seues	-10.6473
isse	-10.6476
▁diable	-10.6476
▁gros	-10.6478
ajut	-10.6492
▁probable	-10.6494
▁creien	-10.6497
pas	-10.6502
▁properes	-10.6507
▁regadiu	-10.6508
▁liceu	-10.6509
▁guard	-10.6516
▁destinat	-10.6517
▁reals	-10.6524
▁estils	-10.6534
▁modernes	-10.6535
▁indicar	-10.6536
▁pop	-10.6538
nou	-10.6542
▁dota	-10.6542
▁últimes	-10.6548
▁importa	-10.6549
▁comunes	-10.6556
▁mala	-10.6556
▁jurídic	-10.6562
▁martorell	-10.6562
▁mantenen	-10.6562
▁monedes	-10.6562
▁càlid	-10.6562
▁desitja	-10.6562
▁lleó	-10.6563
▁1933	-10.6565
▁biografia	-10.6567
▁manifestacions	-10.6569
inicià	-10.6573
▁creada	-10.6574
inclou	-10.6579
100	-10.6583
▁don	-10.6583
ick	-10.6583
▁dolor	-10.6585
laba	-10.6588
▁assassinat	-10.6596
▁bus	-10.6596
▁representant	-10.6597
▁comtes	-10.6599
▁originalment	-10.6604
aixeca	-10.6605
▁prior	-10.6606
▁signes	-10.6607
5.000	-10.661
▁artística	-10.6615
▁guàrdia	-10.6616
▁psicologia	-10.6616
▁lectura	-10.6616
▁reformes	-10.6616
▁caixa	-10.6621
▁globalització	-10.6621
▁derivats	-10.6623
▁nazi	-10.6627
increment	-10.6633
▁mart	-10.6639
▁resum	-10.664
▁documental	-10.6641
▁forts	-10.6655
▁causar	-10.6658
estadística	-10.666
uk	-10.6666
emmagatzema	-10.667
▁israel	-10.667
▁parets	-10.667
▁cementiri	-10.6671
▁horitzontal	-10.6671
▁privada	-10.6671
alcohol	-10.6671
▁richard	-10.6671
▁electoral	-10.6671
▁aprovar	-10.6671
▁germana	-10.6671
▁aplicar	-10.6672
▁llegir	-10.6672
rates	-10.6679
pil	-10.6689
▁comandament	-10.669
▁xiv	-10.669
▁modifica	-10.6691
ay	-10.6691
▁castelló	-10.6691
▁espanyols	-10.6692
▁batlle	-10.6693
▁dicta	-10.6694
▁600	-10.67
▁pirineu	-10.6702
pac	-10.6709
▁recta	-10.671
▁resol	-10.6711
mag	-10.6721
▁agrícoles	-10.6725
▁estratègic	-10.6725
▁superficial	-10.6725
▁mòbil	-10.6725
▁baronia	-10.6725
escorça	-10.6725
▁flota	-10.6726
▁1931	-10.6727
▁competicions	-10.6734
▁poders	-10.6737
▁curta	-10.6743
escultura	-10.6747
espècies	-10.6757
dures	-10.6758
escalfa	-10.6759
▁costum	-10.6764
vista	-10.6765
itzà	-10.6767
134	-10.6768
▁orgànics	-10.6769
córrer	-10.6774
▁temp	-10.6776
arxiu	-10.6778
òmiques	-10.678
▁cadenes	-10.678
▁jean	-10.678
▁termini	-10.6781
▁gramàtica	-10.6781
▁investigadors	-10.6782
▁educació	-10.6782
▁hauri	-10.6782
▁reclama	-10.6782
▁1985	-10.6783
▁vilanova	-10.6783
▁vendre	-10.6785
▁creador	-10.6786
▁publicacions	-10.6787
▁operacions	-10.6789
▁demanda	-10.6789
acciona	-10.679
▁sam	-10.6791
wi	-10.6799
aspecte	-10.6799
establir	-10.68
▁moure	-10.68
▁premis	-10.6801
▁mapa	-10.6804
▁james	-10.6804
top	-10.6809
▁marques	-10.6817
▁democràtic	-10.6818
aproxima	-10.6821
▁gan	-10.6821
▁fen	-10.6823
▁tingui	-10.6823
▁localitza	-10.6828
▁matemàtics	-10.683
▁mineral	-10.6834
▁1993	-10.6838
▁junts	-10.6838
▁reflecti	-10.6838
itzades	-10.6849
escòcia	-10.6855
mpl	-10.6855
▁conforma	-10.6856
▁junta	-10.6861
▁situades	-10.6862
▁ocorre	-10.6864
▁serrat	-10.6868
anar	-10.687
▁gregori	-10.6875
clav	-10.6876
▁humit	-10.6883
▁convencional	-10.6891
▁institució	-10.6891
▁joventut	-10.6891
▁verdaguer	-10.6891
▁1977	-10.6893
▁cristià	-10.6893
▁emprar	-10.6896
oxidació	-10.6896
▁braços	-10.6898
▁anna	-10.6899
▁cit	-10.6908
abba	-10.6912
lim	-10.6919
pia	-10.6926
▁canta	-10.6933
▁voler	-10.6945
▁bàsiques	-10.6947
▁connexió	-10.6947
▁crítiques	-10.6947
▁diputació	-10.6947
hongria	-10.6947
▁condens	-10.6947
ímetre	-10.6947
▁usuaris	-10.695
▁preferi	-10.6951
▁arqueològic	-10.6954
▁ocupada	-10.6959
trans	-10.6968
▁ribes	-10.697
▁existents	-10.6973
▁foment	-10.6978
▁programació	-10.698
▁fragment	-10.6984
▁sales	-10.6986
hur	-10.6988
▁àsia	-10.6996
reta	-10.7
astronomia	-10.7001
▁blasonament	-10.7003
▁columnes	-10.7003
▁quaranta	-10.7003
▁franquista	-10.7003
▁posseeix	-10.7003
▁esdevingut	-10.7003
▁francisco	-10.7005
▁1987	-10.7005
▁1938	-10.7006
afegi	-10.7009
▁(14	-10.7012
▁copa	-10.7015
▁metal	-10.7018
▁acció	-10.7018
ance	-10.7019
americà	-10.7025
▁decorat	-10.7026
▁ecològic	-10.7028
▁cantant	-10.7035
▁obligat	-10.7038
▁aliments	-10.7039
▁organitzat	-10.7042
▁limitat	-10.7045
▁recorda	-10.7045
▁compra	-10.7046
▁anunciar	-10.705
▁configura	-10.7051
▁circumferència	-10.706
▁energètic	-10.706
▁brasil	-10.706
▁garrigues	-10.706
▁sonor	-10.7061
▁refreda	-10.7063
espècie	-10.7067
▁ull	-10.707
▁estació	-10.707
▁secretari	-10.7073
▁dividida	-10.7073
assi	-10.7074
esclat	-10.7075
▁permès	-10.7078
▁excel	-10.7079
dict	-10.708
▁malalt	-10.7083
exemple	-10.7083
esperit	-10.7083
▁acompanyat	-10.7085
▁atlàntic	-10.7088
absis	-10.7089
▁monestirs	-10.7089
laboració	-10.7095
▁wil	-10.7096
unitats	-10.71
▁ambiental	-10.7101
▁inferiors	-10.7109
vision	-10.711
▁ribagorça	-10.7112
▁internet	-10.7115
gant	-10.7115
▁cúmul	-10.7116
▁interessos	-10.7116
▁primitiu	-10.7116
▁johann	-10.7117
▁defensor	-10.7117
▁tx	-10.7118
onès	-10.7118
▁patrons	-10.7118
▁parlant	-10.7119
cio	-10.7119
▁bellesa	-10.7122
▁platges	-10.7124
▁geològic	-10.7127
▁competició	-10.7132
▁(4	-10.7139
▁judici	-10.7141
anomen	-10.7142
plaça	-10.7142
▁adquirir	-10.7144
ïn	-10.7148
▁oest	-10.7149
eries	-10.7151
▁xix	-10.7159
rodon	-10.716
vic	-10.7162
▁desvia	-10.7162
▁orden	-10.7165
▁llet	-10.7167
▁quarta	-10.7169
▁efectiva	-10.7174
▁berguedà	-10.7174
▁bàndol	-10.7174
▁rodoreda	-10.7174
evidència	-10.7174
▁borbònic	-10.7174
▁canadà	-10.7174
▁tothom	-10.7174
▁monarca	-10.7174
▁contribuir	-10.7176
▁1997	-10.7176
▁elimina	-10.7178
▁2014	-10.7182
▁fetes	-10.7182
àrtic	-10.7182
▁guarda	-10.7183
▁bord	-10.7184
espín	-10.7184
▁precisament	-10.7184
experiment	-10.7193
▁varietats	-10.7201
▁emb	-10.7212
▁benet	-10.7218
▁designar	-10.7218
▁resultar	-10.7219
▁fundat	-10.7222
▁diuen	-10.7226
espectacle	-10.7228
▁incendi	-10.7229
▁disminució	-10.7231
▁gravitacional	-10.7231
▁impossible	-10.7231
▁incloïa	-10.7231
▁plural	-10.7231
▁decisions	-10.7231
▁redueix	-10.7231
▁romàniques	-10.7233
▁1978	-10.7233
▁aus	-10.7233
▁pogut	-10.7233
▁1937	-10.7233
▁corba	-10.7234
▁sobirania	-10.7237
ordinador	-10.7237
▁recorre	-10.7237
▁núvols	-10.7242
▁tai	-10.7243
cinquè	-10.7244
▁prades	-10.7247
pit	-10.725
▁documentada	-10.7253
,5%	-10.7256
▁eva	-10.7256
logi	-10.7258
ish	-10.7261
▁hidrogen	-10.7269
articula	-10.7269
▁gènesi	-10.7271
▁creant	-10.7275
▁ciu	-10.7276
▁medievals	-10.7278
▁freda	-10.7282
▁individuals	-10.7283
▁personals	-10.7283
explor	-10.7285
▁freds	-10.7285
unió	-10.7287
▁domèstic	-10.7289
▁telèfon	-10.7289
▁resolució	-10.7289
▁columna	-10.7289
▁cèsar	-10.7289
▁solucions	-10.7289
▁plataforma	-10.7289
▁bou	-10.7294
▁romandre	-10.7294
oferta	-10.7299
▁humitat	-10.73
color	-10.7301
▁declaració	-10.7304
▁assoli	-10.7304
▁ue	-10.7306
▁pp	-10.7306
▁(10	-10.7308
▁possibilitats	-10.731
▁boca	-10.7311
lid	-10.7317
▁dates	-10.7319
▁dificultats	-10.7321
▁clor	-10.7322
-17	-10.7323
▁(9	-10.7325
teu	-10.7326
▁antonio	-10.7338
▁pura	-10.7338
posicions	-10.7343
amplada	-10.7344
▁representava	-10.7345
▁conduir	-10.7347
▁dijous	-10.7347
▁rectangular	-10.7347
▁posseï	-10.7347
▁marquès	-10.7347
▁setanta	-10.7347
▁iniciativa	-10.7348
▁tornà	-10.7349
pur	-10.7352
alzina	-10.7355
hen	-10.7358
fà	-10.736
▁viatges	-10.736
alimentació	-10.7363
my	-10.7372
▁supera	-10.7376
estudis	-10.7381
▁prim	-10.7383
▁qualifica	-10.7386
▁company	-10.7386
▁epi	-10.7387
estrena	-10.739
▁fosc	-10.7394
▁balear	-10.7394
homo	-10.7399
▁carro	-10.7399
▁ibèric	-10.7402
▁lèxic	-10.7405
▁investigacions	-10.7405
▁simplifica	-10.7406
▁cinètica	-10.7407
▁produí	-10.7407
▁precipitació	-10.7408
▁exercir	-10.7409
▁neolític	-10.7409
▁favorable	-10.741
▁freqüents	-10.7411
▁aparell	-10.7414
▁visitar	-10.7415
▁2018	-10.7415
▁conjunts	-10.7418
▁cobri	-10.742
▁2016	-10.7422
▁llacs	-10.7434
atlàntic	-10.7435
▁parlat	-10.7444
metre	-10.7449
▁dirigi	-10.7452
▁desplaça	-10.7455
▁cobert	-10.7459
▁tossal	-10.7461
ach	-10.7462
▁autòcton	-10.7464
▁reivindica	-10.7464
▁vàlid	-10.7464
▁jacob	-10.7465
▁cugat	-10.7466
▁1932	-10.7467
esfera	-10.7468
▁noble	-10.7473
▁metre	-10.7474
▁convertint	-10.7477
right	-10.7481
▁referent	-10.7483
▁anuals	-10.7488
escacs	-10.7491
▁faci	-10.7496
▁composta	-10.75
▁mestres	-10.7501
▁arrel	-10.7504
▁monet	-10.7508
escena	-10.7514
▁masos	-10.7517
▁concerts	-10.7522
▁interpreta	-10.7522
▁cervell	-10.7522
▁desaparegut	-10.7523
▁associacions	-10.7524
▁decimal	-10.7524
▁critica	-10.7525
post	-10.7527
▁asiàtic	-10.7528
▁ella	-10.7529
▁estigui	-10.753
▁mixt	-10.7531
3)	-10.7532
▁naval	-10.7534
▁títols	-10.7536
dy	-10.7542
▁recolza	-10.7544
▁carena	-10.7545
▁iso	-10.7545
▁feren	-10.7548
▁senyals	-10.7554
▁regi	-10.7566
franc	-10.7567
▁suc	-10.7567
nell	-10.7572
estratègia	-10.7583
▁jerusalem	-10.7583
▁conferència	-10.7583
expedició	-10.7583
▁accedir	-10.7583
alumini	-10.7583
esforç	-10.7584
ifiquen	-10.7588
▁mecanismes	-10.7594
▁nan	-10.7595
▁crim	-10.7595
▁fortament	-10.7595
▁expressió	-10.7597
onu	-10.7598
▁pujar	-10.7599
▁mercuri	-10.7612
[	-10.7615
interpreta	-10.7617
▁aragó	-10.7617
▁pod	-10.7619
▁mostres	-10.7628
▁crom	-10.763
▁exteriors	-10.7638
òrgan	-10.7641
▁influències	-10.7643
▁reemplaça	-10.7643
▁substituir	-10.7643
▁perspectiva	-10.7643
▁dilluns	-10.7643
▁xinesa	-10.7643
▁ortodoxa	-10.7643
▁mandat	-10.7645
histor	-10.7651
▁alts	-10.7663
▁rem	-10.7676
▁declarat	-10.7678
▁espanyoles	-10.7683
▁primari	-10.7688
▁conten	-10.7703
▁estatunidenc	-10.7703
▁monistrol	-10.7703
▁guitarra	-10.7703
▁esforços	-10.7703
harmonia	-10.7703
▁famosa	-10.7703
▁tasques	-10.7703
▁ports	-10.7703
▁comprendre	-10.7704
▁descens	-10.7704
▁flora	-10.7704
▁deïtat	-10.7706
▁clubs	-10.7708
dom	-10.771
assol	-10.7712
▁wal	-10.7715
▁somni	-10.7719
▁parells	-10.7719
▁conques	-10.7722
▁monument	-10.7724
▁retirar	-10.7724
▁pilar	-10.7732
▁estatut	-10.7733
▁max	-10.7735
▁atacar	-10.7735
▁converti	-10.7738
odi	-10.7739
mètric	-10.7741
▁càlculs	-10.7741
▁identificat	-10.7744
▁propici	-10.7744
▁mata	-10.7745
▁desaparició	-10.7747
òlic	-10.7749
▁estables	-10.7749
▁definitiva	-10.7751
hetero	-10.7759
▁diccionari	-10.7762
hop	-10.7762
▁polígon	-10.7764
▁provincial	-10.7764
'[[	-10.7764
▁consciència	-10.7764
▁silici	-10.7765
quad	-10.7766
▁carlins	-10.7766
▁construï	-10.7767
▁protó	-10.777
▁tecnològic	-10.777
analitza	-10.7771
▁situacions	-10.7776
▁lligat	-10.7778
▁gris	-10.7787
▁penya	-10.7788
zz	-10.7792
▁escriptors	-10.7794
castell	-10.78
▁aconsegueix	-10.7801
▁continents	-10.7804
–1	-10.781
▁apunta	-10.7817
▁aconsegui	-10.7818
▁àustria	-10.782
acer	-10.7823
▁distinció	-10.7825
▁trajectòria	-10.7825
▁jardí	-10.7825
▁definicions	-10.7825
▁fluid	-10.7826
▁planck	-10.7827
ejat	-10.7829
aprecia	-10.7831
▁impacte	-10.7833
▁ossos	-10.7837
▁forat	-10.7842
▁destin	-10.7843
▁signe	-10.7845
està	-10.7851
▁utilitzades	-10.7853
hel	-10.7853
▁bene	-10.7855
▁britànica	-10.7856
▁atmosfèrica	-10.7858
german	-10.7861
▁fabrica	-10.7861
àrab	-10.7862
▁clàssics	-10.7867
▁cub	-10.787
▁mots	-10.7877
▁originals	-10.7877
osfera	-10.7879
▁teixits	-10.788
▁jaciment	-10.7883
▁ministeri	-10.7886
▁xifres	-10.7886
▁afectar	-10.7887
establí	-10.7889
▁circulació	-10.7892
▁boxa	-10.7893
clam	-10.7894
▁terrenys	-10.7895
▁permetia	-10.7896
▁previ	-10.7902
▁arrels	-10.7902
▁notació	-10.7908
ong	-10.7911
tingueren	-10.7915
▁bach	-10.7916
conduct	-10.7917
▁anomena	-10.7922
▁(5	-10.7924
▁explota	-10.7926
▁proporcional	-10.7934
▁arribant	-10.7936
▁àcids	-10.794
isis	-10.7941
▁accepta	-10.7945
▁1968	-10.7948
▁càrregues	-10.7948
▁disminueix	-10.7948
▁intenció	-10.7948
▁sensible	-10.7949
ologies	-10.795
▁nadal	-10.7951
▁flors	-10.7956
▁atenes	-10.7956
▁associació	-10.7957
anime	-10.7959
▁popularment	-10.7962
▁identifica	-10.7966
▁protegi	-10.7976
▁comprar	-10.7982
▁vela	-10.7989
▁marcar	-10.7991
▁acumula	-10.7994
cultura	-10.7998
▁cita	-10.7998
▁denominat	-10.7999
bella	-10.8
▁manifesta	-10.8
▁abast	-10.8006
oficial	-10.8006
▁astronòmic	-10.801
▁musulmana	-10.801
▁tetràedre	-10.801
fitxer	-10.801
▁xinès	-10.8011
▁retrat	-10.8012
_2	-10.8013
▁revolucionari	-10.8015
▁àmbits	-10.8021
▁afectat	-10.8022
▁segur	-10.8027
▁paret	-10.803
▁comtats	-10.8043
▁eua	-10.8056
▁enmig	-10.8056
▁gla	-10.8061
▁pit	-10.8062
▁longituds	-10.8065
▁commemora	-10.8067
▁idioma	-10.807
▁neutrins	-10.8072
▁roosevelt	-10.8072
▁vulgar	-10.8072
▁cervera	-10.8072
lectual	-10.8073
▁arqueològiques	-10.8073
▁descans	-10.8075
▁1973	-10.8075
▁jaciments	-10.8076
▁fotons	-10.8077
▁enllaça	-10.8078
▁configuració	-10.8083
▁determin	-10.8095
▁evolucionar	-10.8098
eleva	-10.81
▁pros	-10.8103
▁monumental	-10.8107
▁bàsica	-10.8116
infinit	-10.8116
▁dc	-10.812
▁tract	-10.8126
nov	-10.8135
▁màquines	-10.8135
▁sardenya	-10.8135
▁competència	-10.8135
▁dissolució	-10.8135
alquímia	-10.8135
▁bisbat	-10.8135
▁protector	-10.8135
▁enzims	-10.8139
▁provinents	-10.814
rons	-10.814
actiu	-10.8142
▁quedat	-10.8145
▁quants	-10.8147
▁conqueri	-10.8148
▁fel	-10.8153
▁pib	-10.8156
,7	-10.8159
▁organisme	-10.8161
▁potències	-10.8161
▁abasta	-10.8164
▁viola	-10.8165
▁nostres	-10.8166
▁guia	-10.8169
▁adoptat	-10.8169
▁funda	-10.8169
▁fonamentalment	-10.8173
▁uniforme	-10.8173
▁peix	-10.8189
▁vegetals	-10.8189
▁catòlics	-10.819
▁guany	-10.819
▁divendres	-10.8199
▁austral	-10.8199
▁cobreix	-10.8199
▁lluitar	-10.8199
▁rurals	-10.82
▁escales	-10.8202
▁alexandre	-10.8203
▁transmetre	-10.8204
▁kg	-10.8207
▁demostrat	-10.8221
▁conquerir	-10.8226
▁orientals	-10.8229
▁violència	-10.8238
experiència	-10.8243
▁detectar	-10.8245
▁som	-10.8251
himne	-10.8258
ístiques	-10.8262
▁manteniment	-10.8262
▁possessió	-10.8262
▁fortalesa	-10.8262
atracció	-10.8264
▁1945	-10.8265
▁kan	-10.8265
▁fraccion	-10.8267
▁respir	-10.8269
cher	-10.8273
▁capaços	-10.8276
▁conservar	-10.8288
▁pica	-10.829
stein	-10.8292
licitat	-10.8301
▁coet	-10.8312
▁vermella	-10.8313
▁facilitat	-10.8314
▁fur	-10.8315
▁rica	-10.8317
bí	-10.8322
estranger	-10.8322
▁bàsquet	-10.8326
▁hectàrees	-10.8326
▁institucional	-10.8326
▁repressió	-10.8326
▁saragossa	-10.8326
editorial	-10.8326
▁gaudeix	-10.8327
▁publicà	-10.8327
▁pèl	-10.8329
▁electro	-10.8329
▁numer	-10.833
▁migdia	-10.8331
▁gnu	-10.8338
▁neutral	-10.8339
estabilitz	-10.8339
▁estès	-10.8344
▁complir	-10.8344
ionar	-10.8347
▁ions	-10.8347
▁1000	-10.8348
▁rector	-10.8348
▁eliminar	-10.8355
▁constants	-10.8356
▁joseph	-10.836
▁alfa	-10.8366
interessa	-10.8371
extensió	-10.8373
avui	-10.8373
▁corresponents	-10.8376
altar	-10.8376
▁wo	-10.8382
▁compositors	-10.8384
▁karate	-10.8388
arquebisbe	-10.8391
▁influir	-10.8391
▁budisme	-10.8391
▁judaisme	-10.8391
▁forestal	-10.8391
aragonès	-10.8391
▁nadiu	-10.8392
▁psico	-10.8392
▁concurs	-10.8395
▁tanca	-10.8399
▁bacteris	-10.84
▁relaciona	-10.84
▁2017	-10.8401
▁abundants	-10.8401
▁imposa	-10.8411
anell	-10.8411
▁dieta	-10.8418
alça	-10.8422
alliberament	-10.8422
▁fosca	-10.8424
▁intensa	-10.8425
▁treure	-10.8426
deu	-10.8437
▁castellana	-10.8441
▁separat	-10.8445
▁hereu	-10.8445
▁pins	-10.8447
▁plats	-10.8449
frag	-10.8455
execució	-10.8456
▁còsmic	-10.8456
▁finestres	-10.8456
▁destruir	-10.8456
▁amfibis	-10.8457
▁triple	-10.8459
▁patrona	-10.846
▁rieres	-10.8461
mès	-10.8461
▁desig	-10.8462
rell	-10.8462
▁missa	-10.8463
▁menja	-10.8464
▁invers	-10.8467
▁actors	-10.8469
▁bandes	-10.847
▁guanyador	-10.8471
▁fulles	-10.8473
▁acceptat	-10.8476
▁actuar	-10.8481
atribueix	-10.8482
▁habituals	-10.8486
▁fortes	-10.8493
▁evolucion	-10.8494
▁hug	-10.8506
▁proporcionar	-10.8512
indica	-10.8514
▁unesco	-10.8518
▁betelgeuse	-10.8521
▁referèndum	-10.8521
▁seguidors	-10.8521
▁realitzen	-10.8521
embassament	-10.8521
endemà	-10.8521
▁marroc	-10.8521
▁percepció	-10.8521
▁paleolític	-10.8521
▁dogc	-10.8522
▁disposició	-10.8523
▁descoberta	-10.8524
▁1976	-10.8524
▁pendent	-10.8524
teràpia	-10.8525
▁catòlic	-10.8525
▁nul	-10.8525
▁familiars	-10.8529
▁conta	-10.853
▁nil	-10.8531
▁tractava	-10.8531
▁segurament	-10.8537
▁fragments	-10.8543
▁xii	-10.8544
▁brut	-10.8557
▁heli	-10.8558
▁marins	-10.8558
vià	-10.8558
▁complexa	-10.856
▁annex	-10.856
▁intermedi	-10.856
▁americà	-10.8561
win	-10.857
òrbita	-10.8572
▁propietaris	-10.8576
▁simbolitza	-10.8584
▁egípcia	-10.8587
▁metropolitana	-10.8587
▁morfologia	-10.8587
▁multitud	-10.8587
▁divisions	-10.8587
assimila	-10.8587
▁comunistes	-10.8588
▁carme	-10.8588
▁focs	-10.8588
▁tennis	-10.859
▁consens	-10.8591
▁atòmica	-10.8597
▁reunió	-10.8598
▁venda	-10.8599
rag	-10.8603
▁tones	-10.8609
▁transmet	-10.8615
ño	-10.8618
occident	-10.862
▁cotxe	-10.863
▁serps	-10.8642
wer	-10.8644
▁dissenyat	-10.8647
▁anima	-10.865
▁específiques	-10.8653
▁terratrèmol	-10.8653
▁sintetitza	-10.8653
▁franceses	-10.8653
▁escollit	-10.8653
arri	-10.8655
▁claus	-10.8656
▁novament	-10.8656
▁russos	-10.8656
▁anaven	-10.8659
▁laboral	-10.866
▁milà	-10.8672
▁sigut	-10.8675
▁cursos	-10.8683
▁depenen	-10.8686
eric	-10.8695
▁caçador	-10.8696
▁nuclears	-10.8698
▁pilot	-10.87
▁detalls	-10.87
▁parlada	-10.8718
▁particulars	-10.8718
▁progrés	-10.872
▁secundària	-10.872
▁masculí	-10.872
▁franquisme	-10.872
▁formaven	-10.8726
▁doctor	-10.8726
▁còmic	-10.8726
▁falset	-10.8727
ray	-10.8729
▁informe	-10.8733
▁ras	-10.8733
▁ous	-10.8736
▁demostració	-10.8743
▁pals	-10.8746
▁gom	-10.8749
▁tribu	-10.8751
▁matí	-10.8753
▁realització	-10.8753
▁divers	-10.8755
▁trencar	-10.8756
▁acolli	-10.8765
ville	-10.8765
▁egipci	-10.8768
▁altament	-10.8768
bb	-10.8769
▁ya	-10.8771
▁preparar	-10.8772
espanyol	-10.8774
!"	-10.8782
▁pesants	-10.8784
hemisferi	-10.8787
▁garrotxa	-10.8787
▁rafael	-10.8787
▁tendències	-10.8787
▁festivitat	-10.8787
▁conversió	-10.8789
▁rigor	-10.8789
adreça	-10.8789
900	-10.8789
▁reflex	-10.879
▁tribut	-10.8791
▁esmentar	-10.8795
▁ibn	-10.8795
▁coordina	-10.88
▁psc	-10.8801
▁deute	-10.8802
▁extrems	-10.8806
prop	-10.8808
▁afirmar	-10.8812
▁gre	-10.8815
bur	-10.8819
▁daten	-10.8819
▁aplicació	-10.8821
▁intents	-10.8826
tron	-10.8827
▁comptava	-10.8834
ecologia	-10.8835
▁legisla	-10.8838
neu	-10.884
▁celler	-10.8842
uf	-10.885
▁inclòs	-10.8854
▁manuscrit	-10.8854
▁pregunta	-10.8854
▁presidència	-10.8854
▁botànic	-10.8855
▁passeig	-10.8855
▁signar	-10.8855
▁definida	-10.8856
▁compleix	-10.8857
▁incorporar	-10.8857
▁neuro	-10.8857
▁rib	-10.8858
▁potent	-10.8859
enginyer	-10.886
▁raça	-10.886
nger	-10.8864
▁interpretar	-10.8869
uter	-10.8869
▁bàsic	-10.8872
▁quedà	-10.8875
▁acte	-10.8875
ther	-10.8876
▁mantingut	-10.8877
▁nazis	-10.8899
▁oposició	-10.89
▁disponibles	-10.8903
▁quina	-10.891
▁emet	-10.8912
indi	-10.8917
▁bulgària	-10.8923
▁capdavant	-10.8923
▁energies	-10.8923
▁mòdul	-10.8923
▁constància	-10.8923
▁gandhi	-10.8923
▁condueix	-10.8923
▁fluvial	-10.8924
▁remei	-10.8924
▁isòtops	-10.8925
▁gastronomia	-10.8925
▁aquàtic	-10.8925
▁oposat	-10.8925
▁estudiosos	-10.8927
▁escrites	-10.8935
▁veuen	-10.8936
long	-10.8939
▁paris	-10.894
▁estius	-10.8947
▁atòmics	-10.8947
▁gau	-10.895
ido	-10.8959
▁gestiona	-10.896
▁sistemàtica	-10.8964
especial	-10.8966
▁imposar	-10.8971
spect	-10.8973
▁arn	-10.8975
▁assegurar	-10.8975
▁deixat	-10.8978
▁derivat	-10.8981
estrelles	-10.8982
▁desenvolupada	-10.8982
impacte	-10.8983
ambient	-10.8984
▁patr	-10.8988
▁desemboca	-10.8991
▁làctia	-10.8991
▁provença	-10.8991
▁sobreviure	-10.8991
▁dirigent	-10.8991
▁gregues	-10.8993
▁companyies	-10.8993
homenatge	-10.8993
▁respecta	-10.8993
▁quinze	-10.8995
▁klan	-10.8998
▁xviii	-10.9005
▁anglesa	-10.9006
▁clos	-10.9007
▁dolça	-10.9016
lega	-10.9016
▁accés	-10.9016
▁orbital	-10.902
▁viatjar	-10.9022
▁vivien	-10.9024
ney	-10.9026
▁arre	-10.9028
▁específica	-10.9031
crist	-10.9032
▁escòcia	-10.9036
execut	-10.9038
itzacions	-10.904
▁varien	-10.904
▁vehicles	-10.9044
▁facilitar	-10.9047
▁posat	-10.9047
esdeveniment	-10.9051
partit	-10.9051
▁casals	-10.9054
▁verbs	-10.9055
abast	-10.9056
algorisme	-10.9059
▁medicaments	-10.9059
▁capçalera	-10.906
▁júpiter	-10.906
▁provocà	-10.906
▁saquej	-10.906
▁climent	-10.9061
▁agafar	-10.9062
▁1918	-10.9065
▁recrea	-10.9065
▁àlbum	-10.9066
▁canviant	-10.9071
horari	-10.9074
nova	-10.9074
▁rutes	-10.9077
▁disponible	-10.908
▁metro	-10.9084
▁casal	-10.9085
aquella	-10.9089
▁(11	-10.909
▁mir	-10.91
▁aprofita	-10.9101
▁neutre	-10.9101
▁llop	-10.9108
▁elèctrics	-10.9109
medi	-10.9122
déu	-10.9123
▁recte	-10.9124
▁morí	-10.9127
inaugur	-10.9129
▁conclusió	-10.9129
▁paràmetre	-10.9129
▁plàstic	-10.9129
▁similitud	-10.9129
▁precedent	-10.9129
▁ocupen	-10.9129
▁sufix	-10.9129
▁noranta	-10.913
▁repobl	-10.913
▁escenes	-10.913
tribu	-10.9131
▁modificar	-10.9131
▁formà	-10.9132
enques	-10.9132
▁liberals	-10.9135
▁desenvolupen	-10.9138
▁demogràfica	-10.9142
▁experimentar	-10.9146
▁electrònics	-10.9153
▁corn	-10.9157
▁xvi	-10.9162
▁einstein	-10.9163
bona	-10.9163
▁regionals	-10.9166
formi	-10.9169
▁suggeri	-10.9184
▁acabada	-10.9185
actuació	-10.9186
aigües	-10.9193
▁intr	-10.9196
▁dimensió	-10.9199
▁qüestiona	-10.9199
▁pluges	-10.9199
▁segadors	-10.9199
▁quimono	-10.92
hort	-10.9201
▁blocs	-10.9201
▁1969	-10.9202
estret	-10.9202
▁1988	-10.9202
vern	-10.9202
▁òrgans	-10.9203
▁separats	-10.9205
agafa	-10.9207
ornament	-10.9213
queta	-10.9219
▁amics	-10.9222
▁trobaven	-10.9224
▁mínima	-10.9224
▁xxi	-10.9224
armes	-10.9227
▁fama	-10.9229
▁rebé	-10.9231
▁fugir	-10.9234
▁immigració	-10.9235
intent	-10.9237
▁consolida	-10.9238
▁relatiu	-10.9243
▁assenyala	-10.9247
ificà	-10.9248
▁voltes	-10.9248
num	-10.9249
▁conjuntament	-10.9252
▁donació	-10.9254
assegu	-10.9255
▁diferenciar	-10.9259
▁necessiten	-10.927
▁cognom	-10.927
▁poemes	-10.927
▁substrat	-10.927
▁edicions	-10.927
▁llinatge	-10.927
▁karl	-10.9271
▁za	-10.9273
▁desintegració	-10.9273
▁propostes	-10.9275
cita	-10.9277
▁connect	-10.9279
▁vigent	-10.9279
heim	-10.928
efectu	-10.9281
▁rom	-10.9283
radi	-10.9289
orió	-10.9296
flor	-10.93
▁pesta	-10.9303
lagen	-10.9304
▁britànics	-10.9306
utilitzar	-10.9309
▁envoltat	-10.9313
▁fresc	-10.932
▁nasa	-10.9321
▁comportar	-10.9332
▁aprofitar	-10.9336
expressa	-10.9337
valent	-10.9339
oliva	-10.9339
homeopatia	-10.9341
▁lluminositat	-10.9341
▁desapareix	-10.9341
▁invenció	-10.9341
aprenentatge	-10.9341
▁colonial	-10.9341
▁estricte	-10.9342
▁adequat	-10.9342
interval	-10.9343
▁1974	-10.9343
oportunitat	-10.9343
▁massiva	-10.9344
primer	-10.9345
▁complexitat	-10.9349
▁nega	-10.935
linux	-10.9352
▁pateix	-10.9358
▁music	-10.936
▁prima	-10.9361
▁generat	-10.9368
▁viena	-10.9369
▁preses	-10.9369
▁hiper	-10.9372
▁revis	-10.9372
▁pon	-10.9377
▁llor	-10.9379
▁(«	-10.938
▁ordinadors	-10.9383
-3	-10.9384
junta	-10.9386
▁bones	-10.9389
▁viles	-10.9394
▁circ	-10.9397
▁externa	-10.9401
▁institut	-10.9403
▁rock	-10.9405
▁creà	-10.9406
scripcions	-10.9409
lectuals	-10.9412
▁burgesia	-10.9412
enderroc	-10.9412
▁provenen	-10.9412
▁mentrestant	-10.9412
▁jutja	-10.9413
▁ideologia	-10.9413
▁elevades	-10.9413
▁candidatura	-10.9414
▁promoure	-10.9414
▁abraham	-10.9419
ateisme	-10.9426
▁corea	-10.9432
▁plata	-10.9437
▁carbon	-10.9437
▁orgànica	-10.9437
▁greus	-10.944
▁10.000	-10.9441
▁dominar	-10.9442
▁hab	-10.9443
▁fru	-10.9446
▁mori	-10.9451
passa	-10.9452
jol	-10.9454
▁800	-10.946
▁basats	-10.946
▁ultra	-10.9473
aconseguir	-10.9483
▁símptomes	-10.9484
▁sorra	-10.9485
▁fenici	-10.9485
▁contracte	-10.9487
▁desconegut	-10.9488
mig	-10.9489
argentina	-10.949
▁músics	-10.9503
cir	-10.9505
▁!	-10.9505
▁king	-10.9506
▁equival	-10.951
▁venera	-10.9511
way	-10.9516
▁viii	-10.9518
▁jon	-10.952
▁esdeveniment	-10.952
oides	-10.9522
▁calaf	-10.9524
▁explicació	-10.9527
ical	-10.9534
glu	-10.9538
«	-10.9546
lula	-10.9547
mecànic	-10.9555
▁nomenclatura	-10.9557
▁nòrdic	-10.9557
▁pertànyer	-10.9557
▁predomini	-10.9557
obtenció	-10.9557
gam	-10.956
▁muller	-10.9561
▁occident	-10.9561
▁sau	-10.9563
▁residus	-10.9566
▁quàntic	-10.9567
▁hiverns	-10.9569
▁havent	-10.9571
▁òrbita	-10.9573
▁espacials	-10.9574
bell	-10.9589
animal	-10.9591
tenia	-10.96
▁ample	-10.961
ingressos	-10.9617
▁cares	-10.9618
-14	-10.9623
▁austríac	-10.963
▁celebren	-10.963
▁prefix	-10.963
▁deixeble	-10.963
▁civilitzacions	-10.9631
▁estrany	-10.9632
incident	-10.9632
▁1/	-10.9632
▁1917	-10.9634
▁modificacions	-10.9637
edre	-10.964
▁seleccion	-10.9641
rog	-10.9641
issa	-10.9646
▁dipòsits	-10.9647
▁sediments	-10.9652
▁bari	-10.9657
olivera	-10.9663
gonal	-10.9666
▁teòrica	-10.9677
▁gri	-10.969
▁haurà	-10.9693
▁erc	-10.9698
▁ordinador	-10.97
115	-10.97
▁arquitectura	-10.9701
▁dimecres	-10.9703
▁elèctriques	-10.9703
▁fleming	-10.9703
▁sepulcre	-10.9703
▁substitució	-10.9703
▁corporal	-10.9703
▁decadència	-10.9703
▁ètnic	-10.9703
▁virtut	-10.9703
▁comprensió	-10.9703
▁menciona	-10.9703
▁executiu	-10.9703
▁inaugurar	-10.9703
▁titular	-10.9704
israel	-10.9704
▁binari	-10.9704
▁timbre	-10.9704
▁arque	-10.9704
▁esportives	-10.9705
▁foix	-10.9711
▁emigr	-10.9711
▁gradualment	-10.9711
▁proveni	-10.9712
▁matriu	-10.9716
▁aprofitant	-10.9717
editor	-10.9717
▁exporta	-10.972
arqueologia	-10.9721
▁xoc	-10.9723
▁arnau	-10.9733
▁essencialment	-10.9735
▁formava	-10.9749
▁preserva	-10.9764
▁continuen	-10.9765
▁probabilitat	-10.9777
▁produint	-10.9777
▁talaiòtic	-10.9777
▁vèrtex	-10.9777
▁inclosos	-10.9777
▁procedeix	-10.9777
▁rugbi	-10.9777
▁tropical	-10.9777
▁guerrer	-10.9777
▁construeix	-10.9777
▁espectral	-10.9777
▁finlàndia	-10.9777
▁jutge	-10.9778
identifica	-10.978
llibre	-10.978
▁1972	-10.978
▁vector	-10.978
▁lligada	-10.9785
agrega	-10.9786
▁nana	-10.9789
escalfament	-10.9797
▁pacients	-10.9799
ivament	-10.9801
▁geni	-10.9812
elimin	-10.9818
▁dificultat	-10.982
▁poètic	-10.9824
amo	-10.9835
▁esperit	-10.9838
▁parcial	-10.984
▁iniciat	-10.9842
astrònom	-10.9849
infraestructures	-10.9852
▁científiques	-10.9852
▁contaminació	-10.9852
▁disminuir	-10.9852
▁eficaç	-10.9852
▁espectacular	-10.9852
▁transistor	-10.9852
▁adequada	-10.9852
▁misteri	-10.9852
▁frederic	-10.9853
▁apple	-10.9853
▁visit	-10.9853
ícies	-10.9854
▁1929	-10.9855
▁partidaris	-10.9855
categoria	-10.9855
▁numeració	-10.9856
▁informàtica	-10.9858
700	-10.9861
▁crític	-10.9871
▁separades	-10.9876
oriental	-10.9884
legat	-10.9891
▁but	-10.9894
▁complexes	-10.9903
▁sonora	-10.9906
jorn	-10.9906
400	-10.9912
▁biològic	-10.9924
▁negar	-10.9925
intèrpret	-10.9927
▁dependència	-10.9927
▁gramatical	-10.9927
▁trànsit	-10.9927
▁ningú	-10.9927
▁retaule	-10.9927
▁promoció	-10.9927
▁urbanització	-10.9927
▁buf	-10.9927
qués	-10.9927
▁grandària	-10.9927
▁estrangers	-10.993
▁comprova	-10.993
▁salvar	-10.9932
▁agrada	-10.9933
▁prèviament	-10.9933
▁moià	-10.994
▁carlina	-10.9946
▁llenç	-10.9948
▁mirall	-10.9949
▁reglament	-10.9952
▁acostuma	-10.9954
acosta	-10.9959
▁1860	-10.9964
▁crítics	-10.9965
▁"(	-10.9986
àtoms	-10.9986
rap	-10.9989
▁significar	-10.9991
▁retir	-11
▁febles	-11.0002
▁búlgar	-11.0003
▁copèrnic	-11.0003
▁navegació	-11.0003
▁henry	-11.0003
▁cabrera	-11.0003
▁famosos	-11.0003
▁decideix	-11.0003
▁sinònim	-11.0003
▁urbanístic	-11.0003
hauria	-11.0008
▁llegat	-11.0009
cht	-11.0009
▁descriuen	-11.0013
▁dibuixos	-11.0018
▁dispositius	-11.002
old	-11.0022
ball	-11.0023
▁necessàriament	-11.003
▁continuà	-11.0035
▁mascles	-11.0043
▁completar	-11.0044
▁existent	-11.0044
cut	-11.0045
▁esquerre	-11.0047
cy	-11.005
escriure	-11.0051
▁plomes	-11.0066
▁mitja	-11.0071
alacant	-11.0078
▁necessàries	-11.0079
▁consistia	-11.0079
▁fluvià	-11.0079
▁quilogram	-11.0079
▁penetra	-11.0079
▁fiscal	-11.008
▁associada	-11.008
▁prehistòric	-11.008
▁respondre	-11.008
▁papal	-11.0081
▁desenvolupà	-11.0084
▁roger	-11.0084
enfoca	-11.0084
▁natal	-11.0087
▁dalí	-11.0087
egi	-11.0089
▁pràctic	-11.0089
▁farina	-11.0091
▁componen	-11.0091
investigació	-11.0092
▁travessar	-11.0093
▁presó	-11.0095
escultor	-11.0096
▁administratiu	-11.0101
▁experiència	-11.0103
▁comandant	-11.0105
olot	-11.0105
▁específicament	-11.0105
▁tancar	-11.0108
▁ordenar	-11.011
▁mescla	-11.0112
arre	-11.0117
▁calci	-11.0118
pare	-11.0122
▁adaptat	-11.0124
maz	-11.0126
oració	-11.0133
ndustrialització	-11.0136
▁escriptor	-11.0139
▁practicar	-11.0141
▁consider	-11.0142
▁precisa	-11.0143
▁mani	-11.0144
▁alçada	-11.0148
▁orto	-11.015
▁naix	-11.0154
enciclopèdia	-11.0156
▁ciutadania	-11.0156
▁montjuïc	-11.0156
absorció	-11.0156
aïllament	-11.0156
mètriques	-11.0156
▁situen	-11.0157
▁compensa	-11.0158
▁tomba	-11.0158
▁cèlebre	-11.0161
menys	-11.0164
impost	-11.0171
▁variar	-11.0176
utes	-11.0177
-12	-11.0185
off	-11.0186
ofici	-11.0191
▁recordar	-11.0194
▁gaudir	-11.0209
▁predomina	-11.0215
anunci	-11.0216
▁barba	-11.0216
bon	-11.0222
▁trobades	-11.0224
dur	-11.0226
roman	-11.023
ompli	-11.0233
transsexual	-11.0233
▁mallorquin	-11.0233
▁perfecte	-11.0233
equador	-11.0233
▁acabà	-11.0234
implementa	-11.0234
▁fotografia	-11.0234
▁avenços	-11.0234
▁enfocament	-11.0234
▁louis	-11.0234
▁dramàtic	-11.0234
▁introduït	-11.0235
▁forats	-11.0237
line	-11.0238
▁taules	-11.024
▁immigrants	-11.0241
▁rob	-11.0242
▁quadrada	-11.0247
▁teologia	-11.0248
ür	-11.0251
▁volcànic	-11.0253
teris	-11.0256
hospitalet	-11.0261
▁pertanyia	-11.0265
▁plaques	-11.0266
▁llargada	-11.0275
▁basen	-11.0276
accent	-11.028
▁verifica	-11.0289
▁especialitzat	-11.0293
oblig	-11.0295
▁miner	-11.0305
▁indret	-11.0306
ombra	-11.0307
▁immediat	-11.0307
▁convergència	-11.0312
▁destruït	-11.0312
▁responsabilitat	-11.0312
▁fongs	-11.0312
▁lentament	-11.0313
▁servidor	-11.0313
▁isabel	-11.0314
▁1964	-11.0315
▁revistes	-11.0316
▁recurs	-11.0318
▁caracteritzen	-11.032
íf	-11.0321
▁anglesos	-11.0322
▁cedir	-11.0324
▁músculs	-11.0324
▁afavori	-11.0326
▁elabora	-11.0335
tònic	-11.0337
▁estudiants	-11.0337
▁autèntic	-11.034
▁considerades	-11.0341
▁elaborat	-11.0341
▁fabra	-11.0344
transform	-11.0349
laxi	-11.0352
▁rota	-11.036
alguer	-11.036
▁regal	-11.0372
àcia	-11.0373
▁abandonat	-11.0374
▁consonants	-11.038
▁ramader	-11.0381
,4%	-11.0386
▁bíblic	-11.039
▁reduïda	-11.039
▁femelles	-11.039
▁numèric	-11.039
esplendor	-11.039
▁inclosa	-11.039
▁notícies	-11.039
▁usual	-11.0391
aparença	-11.0393
▁marxar	-11.04
▁2020	-11.0402
▁assenyalar	-11.041
▁consulta	-11.0411
▁aparells	-11.0412
▁700	-11.0414
▁genètic	-11.0416
▁3.000	-11.0417
esquema	-11.0431
▁primerenc	-11.0434
honor	-11.0437
▁totalitat	-11.0439
ubica	-11.0443
▁serveixen	-11.0446
duí	-11.0449
utilitz	-11.0452
▁capita	-11.0458
▁calç	-11.0464
▁marit	-11.0466
introduï	-11.0468
▁compromís	-11.047
▁japonesos	-11.047
▁portuguès	-11.047
▁impression	-11.047
cèntric	-11.047
▁faraó	-11.047
▁fracció	-11.047
▁emissor	-11.047
▁projecció	-11.0471
▁1924	-11.0473
▁natació	-11.0474
▁prepara	-11.0474
▁1914	-11.0474
instaur	-11.0476
▁beril	-11.0477
▁piano	-11.0477
▁ideològic	-11.0482
▁destacades	-11.0487
eït	-11.0494
▁places	-11.0494
▁típica	-11.0496
▁acull	-11.0497
▁(7	-11.0503
ward	-11.0508
nh	-11.0509
▁roja	-11.0519
▁dub	-11.0523
▁senat	-11.0527
alguna	-11.0528
▁accept	-11.053
▁hidro	-11.0534
illo	-11.0539
▁derivada	-11.0545
▁joaquim	-11.055
▁pàgines	-11.055
▁vídeo	-11.055
autopista	-11.055
▁recollir	-11.055
▁bèl	-11.055
▁colpeja	-11.0551
▁expulsat	-11.0551
▁protocol	-11.0551
▁1971	-11.0552
▁1962	-11.0553
▁previst	-11.0553
▁julieta	-11.0553
ogràfica	-11.0554
▁nomenar	-11.0555
▁basca	-11.0555
▁poetes	-11.0556
▁retirada	-11.0557
▁rac	-11.0558
▁mataró	-11.0558
itx	-11.0562
▁fonaments	-11.0562
▁deixà	-11.0564
uix	-11.0564
▁ral	-11.0566
▁projecta	-11.0568
ànim	-11.0579
▁cine	-11.0579
alfons	-11.0586
isma	-11.0589
▁portà	-11.059
▁dividi	-11.0598
▁limitada	-11.0598
▁rebutjar	-11.0619
▁reuni	-11.0627
▁excepcional	-11.063
▁fórmules	-11.063
▁vietnam	-11.063
avinyó	-11.063
▁raonament	-11.063
▁solitari	-11.0631
▁pigment	-11.0631
▁torneig	-11.0633
▁xvii	-11.0633
▁macià	-11.0634
▁turons	-11.0636
aprovació	-11.0638
austràlia	-11.0646
▁troballes	-11.0646
internet	-11.0647
▁passava	-11.0648
▁ampliar	-11.0663
▁convoca	-11.0669
▁geomètric	-11.0672
▁marcada	-11.0682
▁traçat	-11.0685
▁sediment	-11.0687
▁isaac	-11.0692
electr	-11.0695
habitatge	-11.0702
▁governant	-11.0703
▁soler	-11.0703
igualada	-11.0704
▁decidi	-11.0706
hèracles	-11.0712
▁dialectal	-11.0712
▁reconstrucció	-11.0712
▁nocturn	-11.0712
▁transversal	-11.0712
▁vescomte	-11.0712
▁dimarts	-11.0712
▁aprendre	-11.0712
▁sagrada	-11.0712
▁lucas	-11.0712
▁conductor	-11.0712
▁estigué	-11.0713
▁pioner	-11.0713
▁sumar	-11.0716
▁1919	-11.0717
exploració	-11.0717
▁comunicar	-11.0721
▁passi	-11.0728
▁contribueix	-11.0737
▁admet	-11.0741
▁term	-11.0742
occidental	-11.0752
▁maó	-11.0755
▁estètic	-11.0759
fan	-11.0763
-7	-11.0765
▁pacient	-11.077
▁segura	-11.0773
▁villa	-11.0776
▁fires	-11.0777
▁nanes	-11.0779
▁parelles	-11.0782
▁baró	-11.0785
social	-11.0791
ònim	-11.0793
▁contrària	-11.0794
▁escocès	-11.0794
▁piràmide	-11.0794
▁margarida	-11.0794
▁siurana	-11.0794
▁clínic	-11.0794
oló	-11.0794
▁1958	-11.0797
▁1923	-11.0797
▁romeu	-11.0798
▁1910	-11.0799
▁estudiat	-11.08
▁vigor	-11.0803
▁imper	-11.0805
▁presentació	-11.0809
▁conformen	-11.081
impuls	-11.0812
ciutat	-11.0814
▁comparteixen	-11.0816
intel	-11.082
lectiv	-11.0822
▁permeté	-11.0822
▁facilita	-11.0826
▁10%	-11.0829
▁separada	-11.0836
òria	-11.0837
▁ofereixen	-11.0851
ponent	-11.0856
▁olot	-11.0873
▁músic	-11.0875
▁circumstàncies	-11.0876
▁efectiu	-11.0876
▁múrcia	-11.0876
▁prelitoral	-11.0876
▁republicans	-11.0876
▁materna	-11.0876
▁soroll	-11.0876
▁contraforts	-11.0876
▁manipula	-11.0877
extracció	-11.0877
aminoàcid	-11.0877
▁colonitz	-11.0877
▁adaptar	-11.0879
▁espectacles	-11.088
▁colonització	-11.088
▁originàriament	-11.0882
▁encarregat	-11.0882
alou	-11.0882
▁exacte	-11.0883
▁vertebrats	-11.0883
▁raval	-11.0884
expert	-11.0885
▁igualtat	-11.0886
▁preparació	-11.0886
▁pedro	-11.0886
defens	-11.0886
ositat	-11.0887
▁agents	-11.0891
▁modernista	-11.0893
quan	-11.0896
▁garri	-11.0898
òdic	-11.0905
▁actitud	-11.092
▁trasllada	-11.0927
▁victor	-11.0934
▁procedi	-11.0935
▁canviat	-11.0938
nz	-11.0943
▁constituïda	-11.096
▁friedrich	-11.096
▁succeir	-11.096
▁caterina	-11.096
▁influent	-11.096
▁diàleg	-11.096
▁italians	-11.096
▁restaurant	-11.096
▁aplicada	-11.096
amplitud	-11.0961
▁aixecar	-11.0961
▁inflació	-11.0962
▁1926	-11.0963
▁inscripció	-11.0963
▁culpa	-11.0964
▁1948	-11.0964
▁moda	-11.0967
àcies	-11.0972
▁castellet	-11.0975
▁predica	-11.0983
▁francis	-11.0983
aixecament	-11.0986
considerablement	-11.0993
▁traça	-11.0993
▁nacionalista	-11.0999
▁guix	-11.1001
ciu	-11.1005
▁finit	-11.1006
▁project	-11.1012
▁islàmica	-11.1018
▁composicions	-11.1023
▁dispositiu	-11.1025
▁berga	-11.1026
▁estudiant	-11.1028
▁pistes	-11.1034
▁irlanda	-11.1034
▁combustió	-11.1044
▁controvèrsia	-11.1044
▁coordenades	-11.1044
▁femenina	-11.1044
▁ruïnes	-11.1044
▁zelanda	-11.1044
▁aïllat	-11.1044
▁cooperativa	-11.1044
▁declivi	-11.1044
▁promulga	-11.1044
▁gràcia	-11.1044
▁propaganda	-11.1044
▁urbanes	-11.1044
▁òptic	-11.1044
▁sagrat	-11.1044
ortografia	-11.1046
▁revisió	-11.1046
▁mongol	-11.1047
▁1928	-11.1047
▁1944	-11.1047
▁1965	-11.1048
▁montcada	-11.1048
▁new	-11.1061
▁garanti	-11.1061
mur	-11.1061
▁fugi	-11.1063
entén	-11.1064
▁torra	-11.1067
▁pogués	-11.1069
▁tancada	-11.1074
▁generacions	-11.1075
▁acceptada	-11.1077
▁poblada	-11.1079
▁mural	-11.1081
iste	-11.1086
▁encapçalat	-11.1094
▁riques	-11.1095
▁tèrmic	-11.1098
▁duu	-11.1105
▁adam	-11.1119
▁corredor	-11.1125
isòtop	-11.1126
▁emissions	-11.1128
▁semblen	-11.1128
▁tempestes	-11.1128
▁convenció	-11.1128
▁notícia	-11.1129
▁tindria	-11.1129
▁cultiv	-11.1131
▁consideració	-11.1131
▁especul	-11.1131
▁allí	-11.1133
▁llistes	-11.1134
▁prengué	-11.1138
▁tronc	-11.1138
▁actuacions	-11.1139
▁passos	-11.1141
▁aportacions	-11.1141
lustració	-11.1145
▁1857	-11.1148
▁determinació	-11.115
▁rap	-11.115
▁roses	-11.115
▁cesi	-11.1151
▁2.000	-11.1155
▁1714	-11.1156
flex	-11.1158
▁anualment	-11.1177
etapa	-11.118
accions	-11.1183
bé	-11.1187
icitat	-11.119
▁realitzada	-11.1193
▁reconegu	-11.1195
▁núvol	-11.1197
▁criteri	-11.1199
▁escolar	-11.1206
▁conveni	-11.121
▁freqüències	-11.1214
▁vocabulari	-11.1214
▁serralades	-11.1214
▁taxes	-11.1214
▁pressions	-11.1214
avinguda	-11.1214
▁romàntic	-11.1215
▁segell	-11.1215
hoquei	-11.1216
▁luis	-11.1218
▁cadí	-11.1222
etrusc	-11.1227
▁simetria	-11.1229
▁educatiu	-11.1229
▁estreta	-11.1229
▁fonètica	-11.1233
▁modificat	-11.1243
▁extensa	-11.1246
gall	-11.1254
ionització	-11.1259
▁troia	-11.126
natural	-11.1267
▁derivades	-11.1269
▁cercar	-11.1274
▁bomba	-11.1283
▁independentment	-11.1285
▁diputat	-11.1285
▁residu	-11.1289
enregistr	-11.1296
▁pròpiament	-11.1298
▁confondre	-11.13
▁conscient	-11.13
▁homeopàtic	-11.13
▁rubió	-11.13
▁resident	-11.13
▁ocasiona	-11.13
▁succeï	-11.13
urani	-11.1301
▁oceànic	-11.1302
▁manual	-11.1305
▁contenir	-11.1308
▁exigi	-11.1308
animació	-11.1309
▁començant	-11.131
▁badia	-11.131
▁recórrer	-11.131
consell	-11.1315
▁integrada	-11.1316
lelament	-11.1317
▁seccions	-11.1319
▁tetra	-11.1319
▁governar	-11.1321
▁reconeguda	-11.1324
presos	-11.1325
▁provocat	-11.1326
gènesi	-11.1327
observatori	-11.1329
▁especifica	-11.1335
novè	-11.1348
▁retro	-11.135
edició	-11.1355
▁batej	-11.1362
▁west	-11.1362
▁250	-11.1363
làndia	-11.1383
formula	-11.1386
▁pressupost	-11.1387
▁auxiliar	-11.1387
▁bèlgica	-11.1387
▁eficient	-11.1387
▁participen	-11.1387
▁peculiar	-11.1387
▁processó	-11.1387
▁proteïna	-11.1387
▁sacrifici	-11.1387
▁tàxon	-11.1387
autobusos	-11.1387
▁fundà	-11.1387
▁climes	-11.1387
▁assetj	-11.1387
▁correcte	-11.1387
▁inspirat	-11.1388
▁client	-11.1389
▁visitants	-11.139
▁1941	-11.1391
▁làser	-11.1391
▁cations	-11.1392
▁geologia	-11.1396
escalada	-11.1398
▁ingress	-11.1402
▁120	-11.1403
800	-11.1404
▁condemna	-11.1412
▁cantó	-11.1412
elèctric	-11.1415
afirma	-11.1415
▁fonament	-11.1426
kov	-11.1428
zer	-11.1433
▁costos	-11.1433
encara	-11.1439
▁turística	-11.1442
escolta	-11.1444
▁derivar	-11.1446
llei	-11.1448
tenent	-11.1449
osona	-11.146
▁bacteri	-11.1463
▁posicion	-11.1463
▁bau	-11.1467
▁confirmar	-11.1473
èmfasi	-11.1475
▁polèmica	-11.1475
▁primitiva	-11.1475
▁sebastià	-11.1475
▁venècia	-11.1475
▁1954	-11.1475
▁veïnes	-11.1475
▁xinesos	-11.1475
▁ubicació	-11.1475
▁afegint	-11.1475
▁dirigeix	-11.1475
▁crani	-11.1478
▁celeste	-11.148
▁esmentada	-11.148
ulet	-11.148
inspiració	-11.1482
▁turistes	-11.1482
▁2021	-11.1483
lloc	-11.1487
▁involucra	-11.1487
▁virus	-11.1495
igo	-11.1496
▁trasllad	-11.1503
minada	-11.1503
▁avançat	-11.1505
▁localització	-11.1507
▁coral	-11.151
▁armat	-11.1522
quelles	-11.1522
▁bioquímic	-11.1524
phy	-11.1547
segle	-11.155
%),	-11.1553
stone	-11.1554
què	-11.1557
▁besalú	-11.1563
▁ecosistemes	-11.1563
▁jehovà	-11.1563
▁lópez	-11.1563
▁possessions	-11.1563
▁psicològic	-11.1563
▁restriccions	-11.1563
▁substantiu	-11.1563
▁talaiot	-11.1563
▁exerceix	-11.1563
▁vestigis	-11.1563
▁minoria	-11.1563
▁conjuga	-11.1563
▁impostos	-11.1563
▁cavitat	-11.1563
▁blava	-11.1564
▁avions	-11.1565
▁1967	-11.1566
▁massiu	-11.1567
▁evangelis	-11.1568
▁afegit	-11.1568
▁passió	-11.1568
oficina	-11.157
▁repòs	-11.157
▁cooperació	-11.1571
amistat	-11.1574
lectiva	-11.1578
▁cries	-11.158
acceptació	-11.1583
▁disposat	-11.1583
olor	-11.1585
▁gòtica	-11.1587
▁prenent	-11.1591
adequa	-11.1592
▁retornar	-11.1593
▁presentat	-11.1594
▁anà	-11.1598
▁venen	-11.1605
arribar	-11.1606
▁designat	-11.161
▁produïda	-11.1612
▁poma	-11.1623
egen	-11.1624
apropi	-11.1635
▁ratific	-11.1635
▁divideixen	-11.1646
▁continuïtat	-11.1652
▁empíric	-11.1652
▁macintosh	-11.1652
▁restringi	-11.1652
▁rèptils	-11.1652
▁missions	-11.1653
▁vinyes	-11.1653
tròpic	-11.1653
▁aprovada	-11.1653
almirall	-11.1653
▁constituent	-11.1653
▁termòmetre	-11.1653
▁cosmològic	-11.1653
erosió	-11.1653
▁hindú	-11.1653
▁desaparegu	-11.1654
▁alumnes	-11.1654
▁promogu	-11.1656
wan	-11.1658
▁cirí	-11.1659
▁cuba	-11.166
▁clorur	-11.1661
▁teresa	-11.1662
agrupació	-11.1662
▁identificació	-11.1667
▁test	-11.1669
▁focus	-11.1672
asteroide	-11.1673
estructur	-11.1677
▁diària	-11.1678
▁islàmic	-11.168
▁atena	-11.1683
▁pagament	-11.1696
▁promet	-11.17
abans	-11.1701
▁drena	-11.1711
▁meu	-11.1712
uz	-11.1728
▁prenen	-11.1731
▁provinent	-11.1736
adjectiu	-11.174
afrodita	-11.1743
▁mantenint	-11.1743
▁pirinenc	-11.1743
▁posidó	-11.1743
▁supervivència	-11.1743
▁toponímia	-11.1743
▁transferència	-11.1743
▁viquipèdia	-11.1743
edimburg	-11.1743
▁danubi	-11.1743
▁pagès	-11.1743
▁precursor	-11.1743
▁segrià	-11.1743
▁llicència	-11.1743
▁divina	-11.1743
▁algú	-11.1743
▁senyorial	-11.1743
▁diposita	-11.1744
▁compondre	-11.1744
▁segment	-11.1744
▁navarra	-11.1744
▁danès	-11.1745
▁experts	-11.1746
▁1953	-11.1746
▁llamp	-11.1746
▁1943	-11.1747
▁fixar	-11.1748
▁vincle	-11.175
▁centenar	-11.1751
▁reactiu	-11.1752
▁coordinació	-11.1755
▁gai	-11.1757
▁llach	-11.1759
▁incorporació	-11.1764
▁típicament	-11.1769
▁evolucionat	-11.177
kan	-11.1775
assassinat	-11.1777
lès	-11.1781
▁brit	-11.1783
txes	-11.1787
▁races	-11.1787
poder	-11.1792
▁viatja	-11.1793
▁sever	-11.1802
▁garantir	-11.1818
escrit	-11.1822
enemic	-11.1828
▁descendent	-11.1828
▁caracteritzat	-11.1833
▁interpretat	-11.1833
alcúdia	-11.1834
explosió	-11.1834
▁musulmà	-11.1834
▁persecució	-11.1834
▁protagonitz	-11.1834
▁pèrdues	-11.1834
▁quotidiana	-11.1834
▁túnel	-11.1834
▁berlín	-11.1834
▁reserves	-11.1834
▁utilitat	-11.1834
▁lluites	-11.1834
▁capità	-11.1834
▁màgic	-11.1835
▁poblacional	-11.1835
▁conducta	-11.1835
▁participants	-11.1836
▁1946	-11.1838
▁termo	-11.1843
▁disposar	-11.1843
▁desplaçar	-11.1844
▁mateu	-11.1845
▁mantingué	-11.1846
▁fabricar	-11.1856
▁assegura	-11.1856
▁vivia	-11.1859
▁informàtic	-11.1862
▁afecten	-11.1864
excepció	-11.187
▁prosa	-11.1879
▁realitzades	-11.1879
▁tornada	-11.188
aconsegueix	-11.189
▁treballant	-11.1893
▁creure	-11.1894
▁macro	-11.1897
tenir	-11.1918
▁còpies	-11.1925
▁mancomunitat	-11.1925
▁nebulosa	-11.1925
▁neerlandès	-11.1925
▁placebo	-11.1925
▁suert	-11.1925
▁bisbal	-11.1925
▁christ	-11.1926
▁suprimi	-11.1926
▁legislatura	-11.1926
▁nervi	-11.1926
▁assoleix	-11.1928
▁rodalia	-11.1928
▁1956	-11.1928
enclavament	-11.1929
▁1955	-11.1929
▁porter	-11.1931
▁ciclo	-11.1931
▁acostum	-11.1932
▁termodinàmica	-11.194
▁marítima	-11.1943
▁express	-11.1944
▁ballar	-11.1945
▁conill	-11.1949
▁contracta	-11.1951
auge	-11.1955
▁sitges	-11.1957
▁rab	-11.1957
▁influenci	-11.1961
▁enviat	-11.1965
itzador	-11.1972
legal	-11.1981
▁mides	-11.1983
▁sucre	-11.1983
▁representada	-11.1988
▁coneixia	-11.1994
▁excav	-11.2006
gències	-11.2015
▁protegit	-11.2015
arxipèlag	-11.2018
eivissa	-11.2018
àlgebra	-11.2018
▁consistent	-11.2018
▁consistori	-11.2018
▁excepcions	-11.2018
eficiència	-11.2019
▁encarregar	-11.202
▁preveu	-11.202
▁ubicat	-11.202
▁ronda	-11.2023
▁defineixen	-11.2024
▁claustre	-11.2024
▁obligar	-11.2024
▁utilitzaven	-11.2038
▁penal	-11.2045
laborar	-11.2051
▁cup	-11.2055
▁nacionalistes	-11.2056
arreu	-11.2068
▁formalment	-11.2068
locar	-11.2069
▁parlamentari	-11.2093
oposa	-11.2102
legítim	-11.2111
▁califòrnia	-11.2111
▁indígenes	-11.2111
▁rellevància	-11.2111
▁valencians	-11.2111
▁privades	-11.2111
▁succeeix	-11.2111
▁teseu	-11.2113
▁insectes	-11.2113
gio	-11.2113
▁bateria	-11.2115
▁gravat	-11.2115
ampli	-11.2117
▁llana	-11.2118
▁usant	-11.2118
▁propaga	-11.2121
▁mític	-11.2123
▁senzilla	-11.213
▁coneixem	-11.2132
▁comenta	-11.2136
ensis	-11.2143
accentua	-11.2148
▁plenament	-11.2152
àngel	-11.2153
▁habitat	-11.2158
atenes	-11.2165
infla	-11.2171
▁fossa	-11.2179
▁determinant	-11.2192
química	-11.2194
▁beta	-11.2196
òptica	-11.2197
▁precipit	-11.22
▁espontània	-11.2206
▁perpendicular	-11.2206
emblemàtic	-11.2206
▁irracional	-11.2206
▁postguerra	-11.2206
▁titulat	-11.2206
▁raquetes	-11.2206
▁trobà	-11.2206
▁decidí	-11.2206
estímul	-11.2207
obtenen	-11.2207
▁germàniques	-11.2207
▁rodes	-11.2209
▁fusiona	-11.221
▁adrià	-11.221
▁1947	-11.221
▁inscripcions	-11.2211
▁carregat	-11.2212
▁estrictament	-11.2213
▁commemoracions	-11.2214
cinc	-11.2215
▁augmentat	-11.2217
agulla	-11.2217
▁preté	-11.222
glob	-11.2222
▁circula	-11.2233
▁afect	-11.2238
ligent	-11.2241
▁dominat	-11.2242
normal	-11.2249
actitud	-11.2251
▁peter	-11.2251
▁incert	-11.2253
▁war	-11.2253
hard	-11.2267
▁cedi	-11.2268
aliatge	-11.227
▁citar	-11.2272
guet	-11.2282
script	-11.2293
▁sou	-11.2293
500	-11.2294
▁carrega	-11.2296
eficàcia	-11.2301
▁cerdanyola	-11.2301
▁clàssiques	-11.2301
▁consegüent	-11.2301
▁nicolau	-11.2301
▁rècord	-11.2301
▁traduir	-11.2301
▁resistent	-11.2301
▁genoma	-11.2303
▁escassa	-11.2303
▁aliatges	-11.2304
▁1935	-11.2306
▁1916	-11.2312
nacional	-11.2315
▁destí	-11.2323
▁corpus	-11.2343
▁notablement	-11.2346
continent	-11.2346
enterrament	-11.2347
▁dirac	-11.2349
▁votar	-11.2354
font	-11.2365
enriqu	-11.2369
▁incrementar	-11.2378
▁tornado	-11.2382
▁teix	-11.2383
centre	-11.2386
▁temperat	-11.2395
▁mercader	-11.2396
▁descendència	-11.2397
▁descobrí	-11.2397
▁trastorn	-11.2397
▁vegueria	-11.2397
▁signat	-11.2397
▁conduï	-11.2397
assembla	-11.2397
▁dependent	-11.2397
▁sindical	-11.2398
▁indirecta	-11.2398
▁gironès	-11.2398
▁excavacions	-11.2399
▁analitzar	-11.2399
▁esclaus	-11.2399
▁avantpassats	-11.24
▁fulla	-11.2405
▁deriven	-11.2405
▁contribució	-11.2407
▁preparat	-11.2407
▁catalitzador	-11.2414
▁aturar	-11.2414
▁convocar	-11.2448
▁falla	-11.2455
foc	-11.2456
▁capelles	-11.246
▁fonètic	-11.2476
central	-11.2477
▁assumir	-11.248
▁classifiquen	-11.2494
▁historiografia	-11.2494
▁matèries	-11.2494
▁ressonància	-11.2494
▁shakespeare	-11.2494
▁goethe	-11.2494
▁prototip	-11.2494
▁correspondència	-11.2494
loxera	-11.2494
▁inestable	-11.2494
▁cinematogràfic	-11.2494
▁idèntic	-11.2494
▁insular	-11.2494
▁tindrà	-11.2495
▁passatgers	-11.2495
▁genèric	-11.2495
▁atributs	-11.2496
expulsió	-11.2496
▁reflexió	-11.2497
▁astrònoms	-11.2498
▁entrà	-11.2502
▁aplicat	-11.2507
▁simula	-11.2507
▁legislació	-11.2508
▁combinacions	-11.2512
▁100.000	-11.2516
▁dedicades	-11.2523
▁repartiment	-11.2533
▁integral	-11.2534
treure	-11.2536
▁celebrat	-11.2542
incertesa	-11.2546
▁contribu	-11.2547
▁paratge	-11.2549
▁reich	-11.2553
▁romania	-11.2566
▁fren	-11.2575
avantpassat	-11.2589
▁faria	-11.2591
introdueix	-11.2592
▁fèrtil	-11.2592
▁maquinari	-11.2592
▁membrana	-11.2592
▁pólvora	-11.2592
▁recopila	-11.2592
▁garcía	-11.2592
▁ocasió	-11.2592
▁proveï	-11.2592
▁celsius	-11.2592
▁consumidor	-11.2593
▁alternatives	-11.2593
▁vaticà	-11.2593
▁1904	-11.2595
▁equipaments	-11.2595
▁1925	-11.2597
▁plegat	-11.26
▁maça	-11.2602
evangeli	-11.2603
▁subministrament	-11.2604
▁glaç	-11.2605
lítica	-11.2608
▁modificació	-11.261
sense	-11.2613
▁inventar	-11.2613
▁venus	-11.2619
▁tesi	-11.2621
▁avançar	-11.2622
▁vicent	-11.2627
bomb	-11.2628
▁permetent	-11.2629
einstein	-11.2643
▁canya	-11.2649
pont	-11.2659
▁forja	-11.2662
▁internes	-11.2665
▁relacionar	-11.2673
▁inversa	-11.2691
▁contempla	-11.2691
esparreguera	-11.2691
▁bartomeu	-11.2691
▁cinturó	-11.2691
▁ciutadella	-11.2691
▁conclusions	-11.2691
▁construí	-11.2691
▁víctimes	-11.2691
▁frank	-11.2691
audiència	-11.2691
▁cinquena	-11.2691
▁pierre	-11.2691
ibèria	-11.2691
▁immens	-11.2691
▁computador	-11.2691
▁royal	-11.2691
▁campanyes	-11.2692
▁emprada	-11.2692
equipament	-11.2693
▁expressions	-11.2693
luvial	-11.2694
▁pretenia	-11.2694
▁ripollès	-11.2694
▁1921	-11.2695
▁1922	-11.2695
▁50%	-11.2699
▁integració	-11.27
nifica	-11.2703
▁combinar	-11.2705
apollo	-11.2711
▁regulació	-11.2713
lapse	-11.2715
▁dictador	-11.2716
▁modernisme	-11.2717
inunda	-11.2719
▁resten	-11.2719
aprofitament	-11.2719
eliminació	-11.2727
▁bits	-11.2727
omple	-11.2729
▁fum	-11.273
bandera	-11.2745
▁campió	-11.2752
▁localitzat	-11.2756
▁cremar	-11.2756
elector	-11.2764
char	-11.2768
▁incorporat	-11.2773
▁sobiran	-11.2781
▁citat	-11.2784
▁curtes	-11.2784
▁substancial	-11.2791
alexandria	-11.2791
▁britàniques	-11.2791
▁colòmbia	-11.2791
▁glàndules	-11.2791
▁protagonista	-11.2791
▁provisional	-11.2791
▁traduccions	-11.2791
▁kelvin	-11.2791
altiplà	-11.2791
▁existien	-11.2791
▁carnaval	-11.2791
▁resistir	-11.2791
atribuï	-11.2791
▁rovira	-11.2791
espluga	-11.2792
▁cristianes	-11.2792
▁estrenar	-11.2793
▁1905	-11.2794
▁pensadors	-11.2795
▁urbans	-11.2797
▁feines	-11.2798
▁mapes	-11.2798
sorgiment	-11.2799
opus	-11.2803
▁consonant	-11.2804
▁biològica	-11.2805
oïda	-11.2806
▁oliveres	-11.2811
▁infinita	-11.2813
▁lateral	-11.2814
▁pisos	-11.2815
executa	-11.2818
▁originari	-11.2828
esquerres	-11.2833
▁portava	-11.2834
▁admir	-11.2835
▁pesant	-11.2845
▁augmentant	-11.2848
▁ponç	-11.2853
chu	-11.2859
▁neteja	-11.2865
▁passatge	-11.2873
▁educat	-11.2874
▁prohibit	-11.2883
ebullició	-11.2892
▁cerimoniós	-11.2892
▁cirurgia	-11.2892
▁divulga	-11.2892
▁eulàlia	-11.2892
▁galileu	-11.2892
▁luxemburg	-11.2892
▁seqüències	-11.2892
▁aparegut	-11.2892
▁rebuig	-11.2892
▁etimològic	-11.2892
▁borbó	-11.2892
▁montseny	-11.2892
adopció	-11.2892
▁actuen	-11.2892
▁guineu	-11.2894
▁repetir	-11.2894
▁1961	-11.2895
▁francolí	-11.2896
▁errors	-11.2899
▁perfectament	-11.2899
▁diversifica	-11.2905
▁elaborar	-11.2906
▁denominacions	-11.2913
▁dominació	-11.2916
▁pensava	-11.2921
▁4.000	-11.2922
llista	-11.2925
▁renda	-11.2928
▁accidentat	-11.2936
▁pug	-11.294
arbust	-11.2945
tingut	-11.295
obtenir	-11.295
direct	-11.2952
roja	-11.2972
aprova	-11.2979
▁assistir	-11.2983
▁classificat	-11.2987
▁veí	-11.2988
▁babilònia	-11.2994
▁canceller	-11.2994
▁repúbliques	-11.2994
▁satisfac	-11.2994
▁tramuntana	-11.2994
▁tòxic	-11.2994
▁smith	-11.2994
▁fibres	-11.2995
▁rarament	-11.2995
▁desembocadura	-11.2995
corre	-11.2995
handbol	-11.2995
▁1957	-11.2996
▁extret	-11.2996
▁decoració	-11.2997
▁exemplars	-11.2997
lusió	-11.2998
▁islàndia	-11.2999
▁enterrat	-11.3
▁usada	-11.3001
▁explotacions	-11.3003
▁interpretacions	-11.3004
▁puix	-11.301
essència	-11.301
▁propietari	-11.3012
▁balanç	-11.3015
▁secular	-11.3026
▁park	-11.3028
▁conqueridor	-11.3032
▁versos	-11.3036
acostuma	-11.3053
▁comunament	-11.3062
▁originar	-11.3063
▁finalitza	-11.3079
▁progressiva	-11.3086
gust	-11.3088
jó	-11.3088
paquet	-11.3089
▁vertebra	-11.3089
▁afirmen	-11.3097
▁temporades	-11.3097
▁màrtir	-11.3097
▁facultat	-11.3097
▁tombes	-11.3097
miniatura	-11.3097
▁neoclàssic	-11.3097
▁fracàs	-11.3097
▁terminal	-11.3097
▁pronoms	-11.3098
▁sospit	-11.3098
▁marcials	-11.3098
cionisme	-11.3098
▁agustí	-11.3098
▁confederació	-11.3099
emmagatzematge	-11.3099
▁disposen	-11.31
▁discorre	-11.3101
▁1966	-11.3101
▁1949	-11.3102
▁contribucions	-11.3103
▁congela	-11.3103
▁habitatges	-11.3104
luminació	-11.3106
▁mariner	-11.3107
estàtua	-11.311
▁autònomes	-11.312
host	-11.3128
olesa	-11.3132
▁1.0	-11.314
▁ordenat	-11.3145
▁enters	-11.3158
▁tv	-11.3165
olimp	-11.3167
▁proclamar	-11.3181
vuitè	-11.3191
fried	-11.3195
astúries	-11.3201
▁diferencien	-11.3201
▁jerarquia	-11.3201
▁voluntaris	-11.3201
▁cornellà	-11.3201
▁romanticisme	-11.3201
▁femella	-11.3201
▁cosmologia	-11.3202
▁xenó	-11.3202
addició	-11.3202
▁confusió	-11.3203
▁retard	-11.3206
▁moto	-11.3207
hem	-11.3207
▁1911	-11.3208
▁legislatiu	-11.3211
▁2022	-11.3212
▁duresa	-11.3219
▁mineria	-11.322
▁contenia	-11.3223
▁rastre	-11.3228
▁saint	-11.3229
▁estesa	-11.3231
aventura	-11.3232
▁madur	-11.3233
▁prote	-11.3234
▁gaudi	-11.3244
▁ducat	-11.3251
acudi	-11.3252
▁brava	-11.3255
▁festiu	-11.3259
espasa	-11.3267
▁arribava	-11.3274
▁afavorir	-11.3287
▁dificult	-11.3293
▁alliberar	-11.3295
enfrontament	-11.3295
▁alterna	-11.3296
▁exacta	-11.33
ilitat	-11.3302
vingut	-11.3304
▁integra	-11.3306
▁hubble	-11.3307
expliquen	-11.3307
horitzó	-11.3307
▁aiguamolls	-11.3307
▁traduït	-11.3307
assistència	-11.3307
▁escultures	-11.3307
▁repertori	-11.3307
▁balaguer	-11.3307
▁güell	-11.3307
▁aparegué	-11.3307
▁vinculat	-11.3307
▁farratge	-11.3307
▁presoner	-11.3307
▁inaugurat	-11.3307
▁descompon	-11.3307
▁emprant	-11.3308
▁veïna	-11.3309
▁poguessin	-11.3309
▁procura	-11.3309
▁1959	-11.3311
▁pescadors	-11.3312
▁mostr	-11.3313
▁infants	-11.3319
expuls	-11.3321
▁suggerir	-11.3329
▁vehicle	-11.3331
▁quark	-11.3331
▁manifestació	-11.3333
▁gaià	-11.3333
▁tinguin	-11.3333
▁estretament	-11.3335
▁fonamenta	-11.3338
carbonat	-11.3341
▁marines	-11.3344
▁representatiu	-11.3345
▁emeten	-11.3347
▁cava	-11.3363
▁derrotat	-11.3369
indret	-11.3373
arnau	-11.3382
vot	-11.3385
ordena	-11.3393
estableix	-11.3395
antoni	-11.3399
▁verbal	-11.34
obac	-11.3408
▁publi	-11.3409
▁bàrbar	-11.3413
hongarès	-11.3413
àrbitre	-11.3413
▁cilindre	-11.3413
▁galàctic	-11.3413
▁llombard	-11.3413
▁obtingué	-11.3413
▁primordial	-11.3413
▁visigot	-11.3413
▁cànon	-11.3413
▁garraf	-11.3413
▁finestra	-11.3413
▁despeses	-11.3413
▁associades	-11.3414
▁santoral	-11.3414
constitu	-11.3414
electromagnètica	-11.3415
▁mercaderies	-11.3415
elefant	-11.3415
▁executar	-11.3416
▁congost	-11.3417
▁1963	-11.3417
arròs	-11.3418
unificar	-11.3418
▁1913	-11.342
▁autoritza	-11.3424
▁experimentat	-11.3428
▁1787	-11.3436
luri	-11.3442
llengua	-11.3451
▁xv	-11.3457
▁cobertes	-11.3459
ossos	-11.346
entrenament	-11.3462
▁sostre	-11.3465
▁profundes	-11.3473
ordenació	-11.3476
▁you	-11.3478
vuit	-11.3479
▁derrotar	-11.3489
▁primo	-11.3497
especialment	-11.3505
▁consumeix	-11.351
▁ampla	-11.3514
exemplar	-11.3518
▁difondre	-11.3521
▁montpeller	-11.3521
▁narcís	-11.3521
▁ptolemeu	-11.3521
▁wilhelm	-11.3521
▁xavier	-11.3521
▁cronologia	-11.3521
▁còpia	-11.3521
▁meridià	-11.3521
ofensiva	-11.3521
▁miguel	-11.3521
▁africà	-11.3521
▁automàtic	-11.3521
acústica	-11.3521
▁edward	-11.3521
▁veié	-11.3521
▁artístiques	-11.3522
▁psan	-11.3524
▁reunions	-11.3524
▁pobladors	-11.3524
▁estimar	-11.3525
▁1927	-11.3525
▁posà	-11.3525
alcorà	-11.3526
▁sufragi	-11.3526
▁diagonal	-11.3527
▁impedir	-11.3527
▁acusat	-11.3532
▁assalt	-11.3533
▁crit	-11.354
▁transformacions	-11.354
▁controlat	-11.3541
ovelles	-11.3543
public	-11.3544
▁llau	-11.3547
▁mitològic	-11.3551
▁renunciar	-11.3551
▁tracten	-11.3573
▁(0,	-11.3578
▁representaven	-11.3578
▁"«	-11.3587
evitar	-11.3593
▁tour	-11.3597
1,5	-11.3609
▁registrar	-11.3612
edita	-11.3616
▁tempesta	-11.3617
background	-11.3629
hinduisme	-11.3629
▁carnívor	-11.3629
▁confluència	-11.3629
▁gravitatòria	-11.3629
▁lantanoides	-11.3629
▁litúrgic	-11.3629
▁masculina	-11.3629
▁mequinensa	-11.3629
▁núclid	-11.3629
▁patriarca	-11.3629
▁pompeu	-11.3629
amoníac	-11.3629
▁disputes	-11.3629
▁1868	-11.3629
▁detecció	-11.3629
hivernacle	-11.3629
obstacle	-11.3629
▁diego	-11.3629
hispània	-11.363
style	-11.3632
▁esmentades	-11.3633
▁1915	-11.3637
▁inversió	-11.3637
▁emetre	-11.3641
extint	-11.3644
▁desenes	-11.3645
▁prohibició	-11.3652
▁munic	-11.3656
▁guió	-11.366
▁consolidar	-11.3664
▁treva	-11.3665
▁encuny	-11.367
blade	-11.3671
▁declin	-11.3673
▁acompanyada	-11.3678
estalvi	-11.3692
▁posant	-11.3696
catalunya	-11.3703
euler	-11.3703
▁canònic	-11.3705
ample	-11.3722
humor	-11.3724
ciència	-11.3726
▁mútua	-11.3739
▁conceptual	-11.3739
▁davallada	-11.3739
▁torroella	-11.3739
▁magnífic	-11.3739
▁urbanitzacions	-11.3739
▁virtual	-11.3739
▁compatible	-11.3739
▁medalla	-11.3739
▁nascud	-11.3739
▁drogues	-11.374
▁acaben	-11.374
▁transcurs	-11.3742
▁rambla	-11.3743
▁postulat	-11.3744
▁horts	-11.3745
▁orelles	-11.3747
▁agregat	-11.3748
▁queralt	-11.3748
▁ensenyaments	-11.375
▁lògic	-11.3751
▁anells	-11.3754
▁ajust	-11.3755
▁venir	-11.3762
▁tossa	-11.3766
▁allotja	-11.3772
▁distingi	-11.379
lock	-11.3795
igm	-11.3798
▁nacionalitat	-11.3808
estàndard	-11.3814
lumina	-11.3826
iforme	-11.3827
allò	-11.3836
▁saló	-11.3844
automòbil	-11.385
▁coromines	-11.385
▁càmera	-11.385
▁maquinària	-11.385
▁metodologia	-11.385
▁nàpols	-11.385
▁residencial	-11.385
▁atletes	-11.385
▁psoe	-11.385
▁aproximació	-11.3851
▁adaptacions	-11.3851
▁bolet	-11.3851
▁prisma	-11.3852
▁estrangera	-11.3852
▁concloure	-11.3852
arsènic	-11.3853
▁sofert	-11.3853
▁enemics	-11.3854
▁1942	-11.3856
▁arxius	-11.3856
▁dimoni	-11.3856
▁executat	-11.3856
enregistrament	-11.3856
▁turques	-11.3856
▁tindre	-11.3857
▁remunt	-11.386
agència	-11.3874
▁morera	-11.388
algun	-11.3882
▁influenciat	-11.3918
▁mestra	-11.3927
▁condemnat	-11.3931
▁comparteix	-11.3931
▁lluc	-11.3938
imagina	-11.3955
▁desconeix	-11.396
ortodox	-11.3962
▁armstrong	-11.3963
▁convèncer	-11.3963
▁peninsular	-11.3963
▁prosperitat	-11.3963
▁sosté	-11.3963
▁agrària	-11.3963
▁temàtica	-11.3963
▁petició	-11.3963
▁sevilla	-11.3963
▁sustenta	-11.3963
▁fotosíntesi	-11.3963
▁croada	-11.3963
▁fronterer	-11.3964
▁silenci	-11.3964
▁tretze	-11.3965
tròfic	-11.3965
leccions	-11.3969
▁anton	-11.397
▁tebes	-11.3971
▁reuneix	-11.3974
▁armades	-11.3975
▁consolidació	-11.3978
ampliació	-11.3978
▁difereixen	-11.3983
▁purifica	-11.3987
fosfat	-11.3989
▁barres	-11.3991
▁integrar	-11.3994
▁tendi	-11.3997
▁constructi	-11.4006
kara	-11.401
▁presta	-11.4014
inclina	-11.403
versió	-11.4037
barcelona	-11.4044
▁anuncia	-11.4044
▁protesta	-11.4053
puig	-11.4055
pèr	-11.4063
▁volcà	-11.4076
▁reproduir	-11.4076
▁alexander	-11.4076
▁doppler	-11.4076
▁funcionen	-11.4076
▁fòrum	-11.4076
▁gratuït	-11.4076
▁influït	-11.4076
▁michael	-11.4076
▁provoquen	-11.4076
▁fisiologia	-11.4076
▁muntanyós	-11.4076
algèria	-11.4076
▁rígid	-11.4076
▁batalles	-11.4076
▁analítica	-11.4076
▁tomàs	-11.4077
▁canonge	-11.4077
anatomia	-11.4077
▁mosaic	-11.4077
▁besòs	-11.4078
▁1951	-11.4081
▁alimentària	-11.4082
europe	-11.4094
▁bull	-11.4095
avió	-11.4097
cepti	-11.41
▁tancament	-11.4104
▁20%	-11.4107
investigador	-11.4108
▁estimula	-11.411
▁senador	-11.4112
▁1890	-11.4127
▁atmosfèric	-11.4128
▁demostr	-11.4131
▁congo	-11.4133
scripció	-11.4134
quatre	-11.4164
▁consult	-11.4166
▁regna	-11.4168
▁anul	-11.4173
omorf	-11.4179
acumulació	-11.4186
▁adquireix	-11.4191
▁cérvol	-11.4191
▁eduard	-11.4191
▁establint	-11.4191
▁gravitació	-11.4191
▁llagostera	-11.4191
▁carlemany	-11.4191
▁moscou	-11.4191
▁esdevindr	-11.4191
▁pantalla	-11.4191
▁vocàlic	-11.4191
▁distribueix	-11.4191
▁noruec	-11.4191
▁nebot	-11.4191
▁protegeix	-11.4191
▁migració	-11.4191
▁barrera	-11.4191
▁prefereix	-11.4192
▁autònom	-11.4192
▁compartir	-11.4193
▁adonar	-11.4193
erudit	-11.4193
▁confronta	-11.4194
▁nerviós	-11.4194
▁planificació	-11.4194
▁quelcom	-11.4195
▁cartago	-11.4197
▁afores	-11.4198
▁propagació	-11.4203
▁embo	-11.4204
inyà	-11.4209
▁alternatiu	-11.421
▁pastura	-11.4212
▁mega	-11.4218
▁engloba	-11.4218
▁rescat	-11.422
emigració	-11.4229
360	-11.423
▁fòssil	-11.4236
▁ibers	-11.4239
▁1898	-11.4249
investiga	-11.4266
major	-11.4278
▁arrossega	-11.4308
▁domestica	-11.4308
▁aniversari	-11.4308
▁baptista	-11.4308
▁corrupció	-11.4308
▁princesa	-11.4308
▁successives	-11.4308
▁tarragonès	-11.4308
▁ocasionalment	-11.4308
▁prominent	-11.4308
▁magnesi	-11.4308
▁promociona	-11.4308
▁curiositat	-11.4308
atemptat	-11.4308
▁mobilitza	-11.4309
▁comunisme	-11.431
▁confess	-11.4311
▁normativa	-11.4313
▁censura	-11.4314
▁allunyat	-11.4314
oxida	-11.4314
▁combatre	-11.4328
▁rebi	-11.4328
▁contingu	-11.4329
▁concentracions	-11.4329
joan	-11.4335
▁integrant	-11.4342
international	-11.4366
▁trav	-11.4373
ensenya	-11.4381
▁sabor	-11.4383
quilla	-11.439
▁brom	-11.439
metall	-11.4402
▁investi	-11.4403
▁aproximada	-11.4411
absorbeix	-11.4425
ucraïna	-11.4425
▁budapest	-11.4425
▁caironat	-11.4425
▁cambrils	-11.4425
▁firefox	-11.4425
▁hokkaido	-11.4425
▁renaixentista	-11.4425
▁sensibilitat	-11.4425
▁literàries	-11.4425
▁bàltic	-11.4425
▁eminent	-11.4425
avellaner	-11.4425
alcaldia	-11.4425
▁otomà	-11.4425
ecosistema	-11.4426
▁contracció	-11.4426
▁fluctu	-11.4426
▁filipines	-11.4426
▁coronel	-11.4426
▁governamental	-11.4426
▁muscular	-11.4427
guan	-11.4427
▁transcorre	-11.4427
▁simultàniament	-11.4432
▁venut	-11.4438
▁full	-11.4442
▁brillantor	-11.445
kir	-11.4451
▁drama	-11.4513
incorpora	-11.4517
influència	-11.4517
imitar	-11.4542
hèlix	-11.4544
▁biblioteques	-11.4544
▁dependències	-11.4544
▁fàrmac	-11.4544
▁mallorquí	-11.4544
▁napoleó	-11.4544
▁puigcerdà	-11.4544
▁substitueix	-11.4544
▁impedeix	-11.4544
▁requisit	-11.4544
▁sorprenent	-11.4544
▁neutró	-11.4544
▁cardener	-11.4544
▁opinions	-11.4544
▁cràter	-11.4544
▁inscrit	-11.4544
▁innovador	-11.4544
▁patrocin	-11.4544
▁famoses	-11.4544
autobús	-11.4544
▁guarni	-11.4545
▁liderat	-11.4546
▁montblanc	-11.4546
▁homònim	-11.4546
▁sotmetre	-11.4547
▁sorgit	-11.4549
▁vilella	-11.4549
▁servit	-11.4549
▁postula	-11.4549
▁dispersió	-11.4549
▁definitiu	-11.4552
▁aspira	-11.4555
▁association	-11.4555
▁pantà	-11.4556
▁papes	-11.4556
▁remot	-11.4557
▁carlisme	-11.4559
▁band	-11.4564
▁recollit	-11.4565
litzen	-11.4568
▁narració	-11.457
▁gàl	-11.4577
▁blas	-11.4597
organitzen	-11.4608
▁clot	-11.4619
▁surf	-11.4638
entendre	-11.4639
present	-11.4645
▁correcta	-11.465
espectador	-11.4662
▁catolicisme	-11.4665
▁catorze	-11.4665
▁ciutadà	-11.4665
▁computacional	-11.4665
▁diplomàtic	-11.4665
▁híbrid	-11.4665
▁implantació	-11.4665
▁jesucrist	-11.4665
▁perfecciona	-11.4665
▁preguntes	-11.4665
▁pàgina	-11.4665
▁taxonomia	-11.4665
▁tranquil	-11.4665
▁coherent	-11.4665
▁descomposició	-11.4665
▁respostes	-11.4665
▁recollida	-11.4665
▁publicitat	-11.4665
▁difunt	-11.4665
▁rivera	-11.4665
▁banderes	-11.4666
▁polonès	-11.4667
biblio	-11.4668
▁habilitats	-11.4669
▁moderat	-11.467
▁grafia	-11.4671
eixample	-11.4671
alzines	-11.4671
▁filip	-11.4672
▁tauler	-11.4673
▁pinós	-11.4673
▁setze	-11.4674
▁cristina	-11.4675
atlètic	-11.4677
▁correctament	-11.4679
▁sabem	-11.4681
▁esperar	-11.4693
▁particularitat	-11.4696
▁tardana	-11.4705
aristòtil	-11.4762
itis	-11.4768
▁leon	-11.4774
estenen	-11.478
encàrrec	-11.4787
equinocci	-11.4787
▁boxejador	-11.4787
▁cerimònia	-11.4787
▁constantinoble	-11.4787
▁discussió	-11.4787
▁estadístiques	-11.4787
▁infraestructura	-11.4787
▁nebuloses	-11.4787
▁universitari	-11.4787
▁competències	-11.4787
▁jardins	-11.4787
arxiduc	-11.4787
▁víctor	-11.4787
▁inusual	-11.4787
▁sanguini	-11.4787
jpg	-11.4787
▁radioactiu	-11.4787
▁confiança	-11.4788
▁daniel	-11.4788
▁solsonès	-11.4788
hispan	-11.4789
▁mantell	-11.4791
blanc	-11.4794
▁destinació	-11.4795
▁benestar	-11.4795
▁exposat	-11.4795
▁pastures	-11.4796
urbanisme	-11.4798
▁ventall	-11.4799
▁pecat	-11.4801
▁cotó	-11.4802
▁estimat	-11.4806
▁sentència	-11.4807
▁canàries	-11.4811
▁pronunciació	-11.4813
▁puntual	-11.4818
▁cian	-11.482
▁tecn	-11.4831
▁bruc	-11.4841
administr	-11.4859
lògiques	-11.4861
▁mascle	-11.4864
sistema	-11.4887
informe	-11.4887
independència	-11.4887
nombre	-11.4893
▁renta	-11.4896
apropa	-11.4902
aristocràcia	-11.491
▁cervantes	-11.491
▁conferències	-11.491
▁episcopal	-11.491
▁feminisme	-11.491
▁hidràulic	-11.491
▁mongòlia	-11.491
▁sòcrates	-11.491
alcoi	-11.491
▁produccions	-11.491
▁direccions	-11.491
atletisme	-11.491
▁banyoles	-11.491
▁úniques	-11.491
▁nasqué	-11.491
▁majoritari	-11.491
▁oposar	-11.4913
aeronau	-11.4913
▁escapar	-11.4913
provi	-11.4914
▁semblança	-11.4914
▁subespècie	-11.4914
▁danses	-11.4914
▁atret	-11.4915
abadia	-11.4917
▁1912	-11.4919
oracle	-11.4931
▁gules	-11.4934
▁maresme	-11.4936
inspira	-11.4939
enfila	-11.4939
reform	-11.4941
▁vives	-11.4945
▁sacre	-11.4949
física	-11.4972
aplec	-11.499
▁regidor	-11.5009
etimologia	-11.5014
▁algebraic	-11.5035
▁español	-11.5035
▁lingüístiques	-11.5035
▁necròpoli	-11.5035
▁parròquies	-11.5035
▁predominen	-11.5035
▁protagonistes	-11.5035
▁resurrecció	-11.5035
▁típiques	-11.5035
▁òperes	-11.5035
▁òrbites	-11.5035
▁desencaden	-11.5035
▁cretaci	-11.5035
▁saviesa	-11.5035
▁funerari	-11.5035
▁monarques	-11.5035
▁existit	-11.5035
▁escrigué	-11.5035
▁validesa	-11.5035
▁tambor	-11.5035
abolició	-11.5035
estandarditza	-11.5035
▁estimacions	-11.5036
▁examina	-11.5036
occitània	-11.5038
▁especialitzades	-11.5038
▁1952	-11.5039
▁exposicions	-11.504
model	-11.504
▁racial	-11.5042
▁savall	-11.5044
▁judo	-11.5055
▁cuix	-11.5066
▁cuir	-11.5078
esquena	-11.5081
aviació	-11.509
national	-11.5099
▁oliver	-11.5106
arriba	-11.5114
electrònica	-11.5143
▁núm	-11.5161
▁aragonesa	-11.5162
▁bòsnia	-11.5162
▁cafeïna	-11.5162
▁catàleg	-11.5162
▁cautxú	-11.5162
▁conductivitat	-11.5162
▁invasions	-11.5162
▁magdalena	-11.5162
▁ruptura	-11.5162
▁sometent	-11.5162
▁scott	-11.5162
▁centímetres	-11.5162
▁manlleu	-11.5162
▁inundacions	-11.5162
▁sarrià	-11.5162
▁tensions	-11.5162
▁psuc	-11.5162
▁legió	-11.5163
▁cabdal	-11.5163
▁mantenia	-11.5164
▁atribuït	-11.5164
▁1909	-11.5166
▁aèria	-11.5166
▁observable	-11.5167
▁walter	-11.5168
▁puny	-11.5169
▁organi	-11.5169
harmònic	-11.5173
▁diví	-11.5175
▁sensació	-11.5175
▁marxista	-11.5175
▁buida	-11.5176
aportació	-11.5182
emparent	-11.5185
franqu	-11.5186
▁heràldic	-11.5215
enlaira	-11.5254
▁densa	-11.5261
càrrega	-11.5272
▁sosten	-11.5279
▁extraordinària	-11.529
▁accessible	-11.529
▁cromosoma	-11.529
▁destruïda	-11.529
▁escriptures	-11.529
▁teoremes	-11.529
▁transcripció	-11.529
▁refracció	-11.529
▁franquistes	-11.529
▁xineses	-11.529
▁íntim	-11.529
▁cambres	-11.529
▁criminal	-11.529
▁immers	-11.529
▁zinc	-11.529
expandi	-11.529
▁gimnàstica	-11.529
▁ubicada	-11.529
▁legions	-11.529
▁sessions	-11.529
▁1906	-11.529
identifiquen	-11.5291
▁seguia	-11.5291
▁alcalí	-11.5291
▁administratives	-11.5292
▁envair	-11.5295
▁terciari	-11.5295
▁extensions	-11.5296
autogovern	-11.5297
▁gradual	-11.5297
▁90%	-11.5299
▁firma	-11.5309
▁ramats	-11.5311
▁assumi	-11.5313
▁filtra	-11.5314
▁referit	-11.5332
105	-11.534
actriu	-11.5346
▁periòdic	-11.5347
avenç	-11.535
▁portador	-11.5366
accepta	-11.5396
▁encapçal	-11.5408
carregades	-11.5411
▁chaplin	-11.542
▁monarquies	-11.542
▁palamós	-11.542
▁relativista	-11.542
▁society	-11.542
▁índic	-11.542
oceania	-11.542
▁turquia	-11.542
▁mortalitat	-11.542
cíclic	-11.542
▁blanes	-11.542
▁tolosa	-11.542
▁esclatar	-11.5421
invasor	-11.5422
▁realitzà	-11.5422
▁desplega	-11.5422
▁fotó	-11.5423
▁diamant	-11.5423
▁1901	-11.5424
▁domènech	-11.5424
▁mendel	-11.5426
▁1.1	-11.5427
▁batea	-11.5428
▁fortificació	-11.5428
oblid	-11.5433
468	-11.5434
▁greix	-11.5435
agrupen	-11.5444
▁estadístic	-11.5447
▁30%	-11.5448
▁claudi	-11.5455
▁exclusiva	-11.5537
▁abstracte	-11.5551
▁guardiola	-11.5551
▁infraroja	-11.5551
▁juvenil	-11.5551
▁microscopi	-11.5551
▁nutrients	-11.5551
▁renaixença	-11.5551
▁sarraïns	-11.5551
▁msnm	-11.5551
▁vulgui	-11.5551
▁globus	-11.5551
▁cardinal	-11.5552
▁llívia	-11.5552
▁seguí	-11.5552
etiqueta	-11.5552
▁pessetes	-11.5552
▁anònim	-11.5552
arbeca	-11.5552
▁descendi	-11.5553
▁diagnòstic	-11.5553
▁baralla	-11.5554
▁espectadors	-11.5554
▁microones	-11.5555
▁biosfera	-11.5555
▁lanka	-11.5557
enunciat	-11.5569
inventari	-11.5592
▁sistemàtic	-11.5604
alcaldessa	-11.5655
alinea	-11.566
immigrants	-11.5672
abraham	-11.5672
esclau	-11.5684
▁palafrugell	-11.5685
amfiteatre	-11.5685
aritmètica	-11.5685
ectromagnètiques	-11.5685
homosexual	-11.5685
▁bombardeig	-11.5685
▁cúbic	-11.5685
▁distintiu	-11.5685
▁lingüistes	-11.5685
▁prefectura	-11.5685
▁successivament	-11.5685
▁tràgic	-11.5685
▁gabriel	-11.5685
html	-11.5685
▁cambó	-11.5685
▁còrnic	-11.5685
▁prediccions	-11.5685
▁mossèn	-11.5685
▁cronos	-11.5685
▁catalanisme	-11.5685
▁inclinació	-11.5685
display	-11.5685
adversari	-11.5685
▁reaccionar	-11.5685
▁obligatòria	-11.5686
▁signatura	-11.5686
▁líric	-11.5687
▁inspirar	-11.5687
àncies	-11.5687
regne	-11.569
▁juguen	-11.569
▁70%	-11.569
▁postura	-11.569
▁borges	-11.5691
evaporació	-11.5692
▁racó	-11.5692
▁galeria	-11.5696
▁significatives	-11.5697
▁beure	-11.5701
▁germani	-11.5701
▁miró	-11.5703
▁patí	-11.571
▁meteorològic	-11.5732
106	-11.5732
onyar	-11.5741
▁garriga	-11.5745
▁monjo	-11.5776
illot	-11.5795
coneguda	-11.5802
orbital	-11.5809
àlbum	-11.5809
gènere	-11.5809
importància	-11.5809
escull	-11.5818
equilibra	-11.582
▁concessió	-11.582
▁democràtiques	-11.582
▁eucariotes	-11.582
▁guifré	-11.582
▁majúscula	-11.582
▁software	-11.582
▁terminologia	-11.582
▁interfície	-11.582
▁pitjor	-11.582
▁suïcid	-11.582
▁sèrbia	-11.582
▁piscina	-11.582
▁saturn	-11.582
▁bressol	-11.582
▁cronològic	-11.582
▁fertilitat	-11.582
▁faraons	-11.582
▁stalin	-11.5821
▁llicenci	-11.5821
organyà	-11.5822
▁indicis	-11.5823
▁lideratge	-11.5823
estengué	-11.5823
▁redacció	-11.5824
▁vigila	-11.5824
▁andré	-11.5827
▁llatins	-11.5828
▁xipre	-11.5828
▁castiga	-11.5829
▁monges	-11.5829
▁místic	-11.5829
▁fruiters	-11.583
▁vores	-11.5831
▁carib	-11.5835
▁nosaltres	-11.5837
alumne	-11.5838
▁steve	-11.5844
▁encapçalad	-11.5887
▁alimentari	-11.5908
▁trist	-11.5918
aranès	-11.5928
exportació	-11.5932
alexandre	-11.5948
adquisició	-11.5957
arbúcies	-11.5957
infraroig	-11.5957
▁diòcesi	-11.5957
▁ganivet	-11.5957
▁gavarres	-11.5957
▁incloïen	-11.5957
▁mesopotàmia	-11.5957
▁metabolisme	-11.5957
▁quaresma	-11.5957
▁satisfer	-11.5957
▁òptim	-11.5957
obediència	-11.5957
abreuja	-11.5957
▁prolifer	-11.5957
▁vertader	-11.5957
▁bruixes	-11.5957
▁redactar	-11.5957
▁duplica	-11.5957
▁remarcar	-11.5957
▁patates	-11.5957
▁catalanista	-11.5957
▁comèdia	-11.5957
▁mantindr	-11.5957
▁dèbil	-11.5957
▁antàrtic	-11.5958
▁repeteix	-11.5958
▁bertran	-11.5958
▁prolonga	-11.5958
canigó	-11.5959
▁assumptes	-11.5959
▁retall	-11.596
▁narrativa	-11.5961
▁crescut	-11.5961
▁oficis	-11.5962
ascensió	-11.5963
▁80%	-11.5963
▁podrà	-11.5965
▁ribagorçana	-11.5968
▁comparable	-11.5996
wood	-11.6007
assignació	-11.6009
▁avalua	-11.6011
▁cabell	-11.602
caixa	-11.6023
▁senyoriu	-11.6038
advocat	-11.6039
850	-11.6041
▁magnet	-11.6063
▁proteic	-11.607
▁confirm	-11.6086
modern	-11.6089
català	-11.6089
▁cooper	-11.6093
▁coeficient	-11.6096
▁crèdit	-11.6096
▁disminuï	-11.6096
▁filosòfiques	-11.6096
▁folklore	-11.6096
▁fotografies	-11.6096
▁gabinet	-11.6096
▁gravitatori	-11.6096
▁impressió	-11.6096
▁incapaç	-11.6096
lúrgic	-11.6096
▁gentilici	-11.6096
▁sotmès	-11.6096
▁compressió	-11.6096
▁revoltes	-11.6096
▁santiago	-11.6096
▁empresarial	-11.6096
axiomes	-11.6096
òtiques	-11.6096
cionistes	-11.6096
▁ànimes	-11.6096
▁açò	-11.6097
▁expandir	-11.6097
▁claramunt	-11.6097
▁borrell	-11.6097
▁tridimensional	-11.6097
▁crònica	-11.6099
▁exponent	-11.6099
▁1903	-11.6099
▁estacional	-11.6099
▁algorismes	-11.6101
▁gallec	-11.6104
▁croat	-11.6106
▁engany	-11.6107
▁torrelles	-11.6108
▁òxids	-11.6109
text	-11.6114
ambaixador	-11.6118
plicà	-11.612
block	-11.6128
06)	-11.6151
company	-11.6152
▁aparegue	-11.6153
interromp	-11.6164
escombr	-11.6184
allotj	-11.6201
▁promou	-11.6232
jecció	-11.6235
dimensional	-11.6235
espunyola	-11.6237
marsupial	-11.6237
olèrdola	-11.6237
▁antecedents	-11.6237
▁clergat	-11.6237
▁connexions	-11.6237
▁consagració	-11.6237
▁mercantil	-11.6237
▁monàrquic	-11.6237
▁predecessor	-11.6237
▁presidencial	-11.6237
▁pèrsia	-11.6237
▁tripulació	-11.6237
▁vèncer	-11.6237
▁vinaròs	-11.6237
▁pedraforca	-11.6237
▁vinculada	-11.6237
▁lewis	-11.6237
▁runner	-11.6237
▁tradueix	-11.6237
itinerari	-11.6237
infeccions	-11.6237
▁manxú	-11.6237
▁restaurar	-11.6237
entreteniment	-11.6237
▁separen	-11.6238
argila	-11.6238
▁guinea	-11.6238
▁guerau	-11.6239
left	-11.6239
▁decisiu	-11.6239
▁dissoldre	-11.6239
▁primàries	-11.6239
▁patern	-11.624
▁1.500	-11.6244
▁camprodon	-11.6245
▁florència	-11.6247
▁ateus	-11.6254
ícola	-11.6254
hàbit	-11.6293
experimentació	-11.6319
ocult	-11.6321
▁gradua	-11.636
odont	-11.6367
sobretot	-11.6377
expandeix	-11.6379
▁amateur	-11.6379
▁comerciants	-11.6379
▁còrdova	-11.6379
▁gitanos	-11.6379
▁marshall	-11.6379
▁orgàniques	-11.6379
▁pulmons	-11.6379
▁supergegant	-11.6379
▁suspensió	-11.6379
▁tipologia	-11.6379
▁victòries	-11.6379
▁preferent	-11.6379
▁fro	-11.6379
▁divisor	-11.638
▁inauguració	-11.638
▁paradís	-11.638
▁sulfur	-11.638
▁pinedes	-11.638
▁marginal	-11.638
ocràcia	-11.638
▁bilbo	-11.638
▁virrei	-11.638
▁visqué	-11.638
▁escasses	-11.638
▁desafia	-11.638
▁apreciar	-11.6381
▁ondula	-11.6382
▁conspira	-11.6382
▁depenia	-11.6383
▁enfrontaments	-11.6384
▁sintètic	-11.6384
▁casanova	-11.6384
▁apartat	-11.6385
▁fuster	-11.6386
▁regenera	-11.6386
field	-11.6386
▁40%	-11.6388
▁destinades	-11.6389
▁refusa	-11.6391
▁imaginar	-11.6407
observen	-11.647
mobi	-11.6499
síntesi	-11.6523
emissor	-11.6523
apple	-11.6523
incloent	-11.6524
antàrtida	-11.6524
▁bicicleta	-11.6524
▁cornudella	-11.6524
▁cònsol	-11.6524
▁empresonat	-11.6524
▁giovanni	-11.6524
▁guitarres	-11.6524
▁hercegovina	-11.6524
▁hollywood	-11.6524
▁respectius	-11.6524
▁tolerància	-11.6524
▁triangular	-11.6524
▁adscrit	-11.6524
▁caramelles	-11.6524
▁exclusiu	-11.6524
▁semàntic	-11.6524
▁descendeix	-11.6524
▁fecund	-11.6524
▁palestina	-11.6524
▁prevenir	-11.6524
▁fractal	-11.6524
▁perllonga	-11.6524
▁seguiment	-11.6525
▁massives	-11.6525
▁michel	-11.6525
▁comportà	-11.6525
▁vespre	-11.6525
▁rendir	-11.6525
▁ernest	-11.6525
▁geogràfiques	-11.6525
▁deduir	-11.6526
▁arrenca	-11.6526
▁compacte	-11.6526
▁antibiòtics	-11.6526
▁flueix	-11.653
▁interessat	-11.653
▁dolent	-11.6531
▁sallent	-11.6531
▁peralada	-11.6531
▁60%	-11.6532
▁querol	-11.6541
▁aplega	-11.6543
afinitat	-11.6555
extingi	-11.6561
relacion	-11.6562
▁vicari	-11.6565
equivalència	-11.6593
tivisme	-11.6617
habilita	-11.6626
▁pogué	-11.6642
▁termodinàmic	-11.6648
antiquark	-11.6671
artilleria	-11.6671
indoeuropeu	-11.6671
▁economistes	-11.6671
▁liechtenstein	-11.6671
▁minúscula	-11.6671
▁nínxol	-11.6671
▁participà	-11.6671
▁pavelló	-11.6671
▁recipient	-11.6671
▁reconstruir	-11.6671
▁rupestre	-11.6671
▁transcendent	-11.6671
▁instància	-11.6671
▁memòries	-11.6671
▁granollers	-11.6671
▁spears	-11.6671
▁atribuir	-11.6672
▁compilador	-11.6672
▁fermentació	-11.6672
▁lleure	-11.6672
▁hispànica	-11.6672
▁germanes	-11.6672
símbol	-11.6673
▁percebre	-11.6673
▁ametllers	-11.6673
▁sorgí	-11.6674
▁extreure	-11.6675
▁garcia	-11.6675
▁interestel	-11.6676
▁editar	-11.6676
▁vendrell	-11.6676
▁collites	-11.6677
▁enginyers	-11.6677
▁negociacions	-11.6678
aviram	-11.6678
▁hexa	-11.6678
▁establiments	-11.6683
▁ricard	-11.6685
▁tinent	-11.6687
▁dorsal	-11.6688
▁dobla	-11.6699
▁escriv	-11.6725
amagat	-11.6737
▁múltiple	-11.6783
hispànic	-11.682
▁afavoreix	-11.6821
▁climàtiques	-11.6821
▁càstig	-11.6821
▁llegums	-11.6821
▁macedònia	-11.6821
▁occitana	-11.6821
▁pallaresa	-11.6821
▁panorama	-11.6821
▁préstec	-11.6821
▁silvestre	-11.6821
▁sorpresa	-11.6821
▁successius	-11.6821
▁tasmània	-11.6821
▁washington	-11.6821
▁contribuït	-11.6821
▁difracció	-11.6821
▁toledo	-11.6821
esdevenint	-11.6821
▁recepció	-11.6821
▁daurada	-11.6821
▁declarà	-11.6821
▁beatles	-11.6821
▁calcàries	-11.6821
▁costaneres	-11.6821
▁puntuació	-11.6821
▁sagrament	-11.6821
▁resideix	-11.6821
▁jacques	-11.6821
▁taurons	-11.6821
▁estrangeres	-11.6822
▁fariner	-11.6822
▁súria	-11.6822
▁iniciatives	-11.6822
▁apòstols	-11.6822
▁negatives	-11.6822
▁envaï	-11.6823
▁desastre	-11.6823
▁soluble	-11.6823
alforja	-11.6824
diccionari	-11.6824
principi	-11.6824
excepte	-11.6824
▁explícitament	-11.6825
▁radioactivitat	-11.6825
▁vidreres	-11.683
▁permís	-11.683
▁icv	-11.6834
▁descarta	-11.6834
▁dugué	-11.6847
▁oculta	-11.6863
▁constata	-11.6871
▁renunci	-11.6887
▁dipòsit	-11.6936
▁càr	-11.695
inconvenient	-11.6972
▁aragonesos	-11.6972
▁bombardeja	-11.6972
▁dalmau	-11.6972
▁evidències	-11.6972
▁finançament	-11.6972
▁gibraltar	-11.6972
▁lilfordi	-11.6972
▁subdivideix	-11.6972
estómac	-11.6972
▁distribuir	-11.6972
▁equatorial	-11.6972
▁evolutiu	-11.6972
▁violoncel	-11.6972
▁vivaldi	-11.6972
▁flexible	-11.6972
▁reduint	-11.6972
▁gaèlic	-11.6972
▁perseguit	-11.6972
▁concebre	-11.6972
▁black	-11.6972
▁teclat	-11.6972
agreuja	-11.6972
▁substituïda	-11.6972
▁bernard	-11.6973
govern	-11.6973
▁efectuar	-11.6973
▁ingredients	-11.6973
▁franz	-11.6973
▁definides	-11.6974
▁relatives	-11.6975
▁arcaic	-11.6976
▁hostil	-11.6976
▁1908	-11.6977
▁1907	-11.6977
incendi	-11.6978
penicil	-11.6978
▁decisiva	-11.6979
▁comentaris	-11.6982
▁anglo	-11.7002
actin	-11.7006
▁recobr	-11.7024
amfibi	-11.7123
audiovisual	-11.7126
▁curvatura	-11.7126
▁estratègies	-11.7126
▁femenins	-11.7126
▁reconquesta	-11.7126
▁travessen	-11.7126
espaitemps	-11.7126
▁cardíac	-11.7126
▁dominen	-11.7126
▁alfabètic	-11.7126
▁deteriora	-11.7126
▁arribi	-11.7126
▁trinitat	-11.7126
▁busqu	-11.7126
▁letònia	-11.7126
esdevenen	-11.7127
▁dependre	-11.7127
▁eterna	-11.7127
habsburg	-11.7127
▁bateries	-11.7127
▁habiten	-11.7128
▁topografia	-11.7128
▁1902	-11.713
▁adjectius	-11.7131
▁freixe	-11.7131
lustres	-11.7132
▁rajos	-11.7133
independent	-11.7134
hamburg	-11.7136
august	-11.7137
originà	-11.714
josep	-11.7141
acompanya	-11.7147
compliment	-11.7189
lenístic	-11.7195
lingua	-11.7212
sabent	-11.726
hidroxi	-11.726
aeròbic	-11.7282
desambiguació	-11.7282
▁basílica	-11.7282
▁dígraf	-11.7282
▁farmacèutic	-11.7282
▁gironines	-11.7282
▁guíxols	-11.7282
▁gènova	-11.7282
▁logotip	-11.7282
▁micròfon	-11.7282
▁necrològiques	-11.7282
▁percussió	-11.7282
▁revolucionària	-11.7282
▁secundàries	-11.7282
▁sotmesos	-11.7282
▁supervivent	-11.7282
▁tetràpodes	-11.7282
▁villarroel	-11.7282
▁combinen	-11.7282
▁retrocés	-11.7282
euclides	-11.7282
▁presidit	-11.7282
▁transparent	-11.7282
▁núria	-11.7282
▁existix	-11.7282
▁sessió	-11.7282
▁costanera	-11.7283
▁oblidar	-11.7283
▁digestiu	-11.7283
▁recluta	-11.7283
▁plini	-11.7283
▁oposada	-11.7283
▁ressò	-11.7283
▁franques	-11.7284
▁explorar	-11.7284
▁crucial	-11.7284
▁criatures	-11.7284
hidròxid	-11.7285
▁supernova	-11.7285
▁ratlla	-11.7286
▁etruscs	-11.7287
▁dispara	-11.7289
▁convenient	-11.7292
▁assenyal	-11.7292
hebreu	-11.7293
important	-11.7293
empreses	-11.7293
▁gremi	-11.731
mètic	-11.732
▁comercialitza	-11.732
ograma	-11.7326
▁conform	-11.7368
heràldica	-11.7374
entrenador	-11.7412
▁majoritària	-11.7427
insecte	-11.7439
analògic	-11.7441
▁aïllada	-11.7441
▁cristòfor	-11.7441
▁despoblament	-11.7441
▁plànol	-11.7441
▁productivitat	-11.7441
▁íntegrament	-11.7441
▁fracassar	-11.7441
▁reprendre	-11.7441
▁semiconductor	-11.7441
▁torelló	-11.7441
▁proveir	-11.7441
▁predicció	-11.7441
▁gluons	-11.7441
▁budista	-11.7441
▁emocions	-11.7441
▁imaginació	-11.7441
▁sofrir	-11.7441
titanic	-11.7441
▁suposadament	-11.7441
▁exigeix	-11.7441
▁signà	-11.7442
instrucció	-11.7442
▁glacial	-11.7442
▁reparteix	-11.7442
▁demarcació	-11.7442
▁assiri	-11.7443
▁opció	-11.7447
▁llegeix	-11.7447
ambdós	-11.7455
▁aborda	-11.7457
▁oriol	-11.7466
eïna	-11.7469
▁metafísic	-11.7494
avaluació	-11.7541
▁múscul	-11.7576
▁quilòmetre	-11.7577
▁blanqu	-11.7578
▁impedi	-11.7593
prenent	-11.7594
▁explícit	-11.7598
substituï	-11.76
▁sobtada	-11.7602
▁distribucions	-11.7602
▁eclipsis	-11.7602
▁edificar	-11.7602
▁indispensable	-11.7602
▁intrínsec	-11.7602
▁neandertal	-11.7602
▁plataformes	-11.7602
▁procedència	-11.7602
▁professió	-11.7602
▁sadurní	-11.7602
▁vicepresident	-11.7602
▁excessiva	-11.7602
▁fissió	-11.7602
▁sinople	-11.7602
▁incloses	-11.7602
▁remarcable	-11.7602
▁llindar	-11.7602
▁spider	-11.7603
▁dionís	-11.7603
▁espriu	-11.7603
▁alteracions	-11.7603
▁ostenta	-11.7603
▁tàtar	-11.7603
▁assolí	-11.7603
▁inclusió	-11.7603
cionista	-11.7603
▁conflent	-11.7604
▁jeroglífics	-11.7604
▁maduresa	-11.7604
▁infància	-11.7604
▁sembra	-11.7605
▁butlla	-11.7605
▁àrid	-11.7606
▁elefants	-11.7607
▁obligatori	-11.7607
exclusió	-11.7613
població	-11.7619
capital	-11.762
▁luxe	-11.7623
▁esparta	-11.766
infern	-11.7694
extreu	-11.7743
▁domènec	-11.7761
addicció	-11.7766
epidèmies	-11.7766
hegemonia	-11.7766
▁biodiversitat	-11.7766
▁björn	-11.7766
▁descobreix	-11.7766
▁diftong	-11.7766
▁disponibilitat	-11.7766
▁gödel	-11.7766
▁hortalisses	-11.7766
▁incursions	-11.7766
▁maxwell	-11.7766
▁rutherford	-11.7766
▁sàhara	-11.7766
▁trasllat	-11.7766
▁waterpolo	-11.7766
▁biomassa	-11.7766
▁montgrí	-11.7766
▁reprodueix	-11.7766
▁sintaxi	-11.7766
▁guimerà	-11.7766
▁artesans	-11.7766
▁eòlica	-11.7766
▁oficines	-11.7766
▁budistes	-11.7766
▁polinomi	-11.7766
▁fisiològic	-11.7766
▁ajuden	-11.7766
▁recital	-11.7767
loquial	-11.7767
▁bombes	-11.7767
▁caigut	-11.7768
▁bianya	-11.7768
▁escrivint	-11.7768
▁hidrocarburs	-11.7768
▁estimada	-11.7768
▁compacta	-11.7769
▁investigar	-11.777
▁originat	-11.777
▁practicants	-11.7771
tècnic	-11.7781
aguilar	-11.7782
dialecte	-11.7785
irlanda	-11.7785
▁alberga	-11.7832
indus	-11.7844
nflueixen	-11.786
lítics	-11.7905
▁prèvia	-11.7918
▁amino	-11.7932
▁ascendir	-11.7933
▁assassinar	-11.7933
▁cornualla	-11.7933
▁cruïlla	-11.7933
▁matadepera	-11.7933
▁obtinguda	-11.7933
▁posseir	-11.7933
▁sobreviscut	-11.7933
▁subjecta	-11.7933
▁vigilància	-11.7933
▁erupcions	-11.7933
▁resulten	-11.7933
▁fernando	-11.7933
▁minories	-11.7933
▁perifèric	-11.7933
▁lluminosa	-11.7933
▁promotor	-11.7933
▁watson	-11.7933
▁montagut	-11.7933
▁anàloga	-11.7933
▁brown	-11.7933
▁morfològic	-11.7933
▁calcària	-11.7933
▁inercial	-11.7933
▁sobresurt	-11.7933
▁russell	-11.7933
▁indirecte	-11.7933
▁instant	-11.7934
▁rebuda	-11.7935
▁presidid	-11.7935
▁convidat	-11.7935
▁henri	-11.7936
aràbia	-11.7939
adreces	-11.7944
president	-11.7955
després	-11.7955
vermell	-11.7955
enorme	-11.796
▁sociològic	-11.8006
scrivia	-11.8016
carrer	-11.8017
eslovènia	-11.8102
èxode	-11.8102
▁cristòfol	-11.8102
▁disminuint	-11.8102
▁escocesa	-11.8102
▁fòsfor	-11.8102
▁ginebra	-11.8102
▁indumentària	-11.8102
▁mandíbula	-11.8102
▁paradigma	-11.8102
▁portuguesa	-11.8102
▁practiquen	-11.8102
▁pàtria	-11.8102
▁tragèdia	-11.8102
▁níquel	-11.8102
▁martínez	-11.8102
▁rubidi	-11.8102
▁philip	-11.8102
▁inherent	-11.8102
▁hefest	-11.8102
▁climatologia	-11.8102
▁profeta	-11.8102
▁raonable	-11.8102
▁pluvio	-11.8103
▁restaurada	-11.8103
▁califat	-11.8103
▁cendra	-11.8103
▁agulles	-11.8103
▁relacionen	-11.8103
▁anàleg	-11.8103
▁emergi	-11.8103
work	-11.8111
acredita	-11.8118
▁droga	-11.8126
envolta	-11.8134
1,3	-11.8232
traccions	-11.8251
elecomunicacions	-11.8275
▁[...]	-11.8275
▁artesanal	-11.8275
▁felanitx	-11.8275
▁homogeni	-11.8275
▁manufactura	-11.8275
▁primogènit	-11.8275
▁semicircular	-11.8275
▁solucionar	-11.8275
▁system	-11.8275
▁tortugues	-11.8275
▁ferroviària	-11.8275
▁muntanyosa	-11.8275
▁pòstum	-11.8275
▁croàcia	-11.8275
▁navegador	-11.8275
▁panteó	-11.8275
▁intervenir	-11.8275
▁microorganismes	-11.8275
▁feliç	-11.8275
▁raïm	-11.8275
inèrcia	-11.8275
ètnia	-11.8275
▁clergue	-11.8275
intestí	-11.8275
occam	-11.8275
▁traspass	-11.8276
▁exempt	-11.8276
ectromagnetisme	-11.8276
líptic	-11.8276
▁cistell	-11.8276
▁fabricants	-11.8277
ametlla	-11.8278
▁decenni	-11.828
ambdues	-11.8302
▁reorganitz	-11.8307
halogen	-11.8319
▁pronunci	-11.8379
▁dolç	-11.839
▁difereix	-11.8419
▁preromà	-11.8425
▁subministra	-11.8429
house	-11.8429
éixer	-11.8446
antimatèria	-11.845
incorporen	-11.845
▁barcelonina	-11.845
▁carnestoltes	-11.845
▁comuniquen	-11.845
▁edificacions	-11.845
▁evolutiva	-11.845
▁fletxa	-11.845
▁imprescindible	-11.845
▁inevitable	-11.845
▁infinitesimal	-11.845
▁interaccionen	-11.845
▁perpètua	-11.845
▁simfonia	-11.845
▁telefonia	-11.845
▁tèrmiques	-11.845
▁vídua	-11.845
utrecht	-11.845
▁anarquistes	-11.845
▁dinàstic	-11.845
▁impossibilit	-11.845
▁planetària	-11.845
▁rítmic	-11.845
▁subjectiv	-11.845
▁terapèutic	-11.845
▁corregiment	-11.845
▁legitima	-11.845
anjou	-11.845
accedeix	-11.845
▁castellbò	-11.845
▁sostingut	-11.845
▁balcans	-11.845
àguila	-11.845
▁emmurallat	-11.8451
▁canaan	-11.8451
▁jacint	-11.8451
▁manaments	-11.8452
▁comporten	-11.8452
▁cròniques	-11.8452
▁bosons	-11.8452
▁atòmiques	-11.8452
▁optar	-11.8454
▁absent	-11.8455
aterratge	-11.8464
▁sociòleg	-11.8489
▁facto	-11.8493
▁aproximat	-11.8497
voltada	-11.8515
▁mantingu	-11.8554
esculpi	-11.8555
agnòstic	-11.8627
esdevingu	-11.8627
▁recombin	-11.8629
afganistan	-11.8629
emergència	-11.8629
▁aficionats	-11.8629
▁cruïlles	-11.8629
▁distintes	-11.8629
▁extraordinari	-11.8629
▁geltrú	-11.8629
▁herbívor	-11.8629
▁intermèdia	-11.8629
▁mecàniques	-11.8629
▁microscòpic	-11.8629
▁obtenint	-11.8629
▁pretendent	-11.8629
▁recompensa	-11.8629
▁sotmesa	-11.8629
▁taronja	-11.8629
▁vinalopó	-11.8629
▁zamenhof	-11.8629
▁ciclisme	-11.8629
▁divorci	-11.8629
▁moisès	-11.8629
▁schubert	-11.8629
▁botigues	-11.8629
▁cabdill	-11.8629
▁inèdit	-11.8629
àudio	-11.8629
▁aïllar	-11.8629
▁descartes	-11.8629
▁humida	-11.8629
▁boole	-11.8629
▁estàtues	-11.8629
▁frisó	-11.8629
▁extremitats	-11.8629
▁isidre	-11.8629
evidenci	-11.863
▁hispano	-11.863
▁novetat	-11.8631
▁pesquer	-11.8632
▁amagar	-11.8632
atzur	-11.8634
▁anticipa	-11.8638
fusió	-11.866
adheri	-11.8667
▁personifica	-11.8676
▁ètic	-11.8695
▁conserv	-11.8705
▁impur	-11.874
odinàmica	-11.8778
▁dinosaure	-11.8806
adhesió	-11.8811
exhibició	-11.8811
▁carolingi	-11.8811
▁chicago	-11.8811
▁colosseu	-11.8811
▁immortal	-11.8811
▁implícit	-11.8811
▁inorgànics	-11.8811
▁invisible	-11.8811
▁ludwig	-11.8811
▁masculins	-11.8811
▁mussolini	-11.8811
▁nucleons	-11.8811
▁recessió	-11.8811
▁relativistes	-11.8811
▁solidaritat	-11.8811
▁sànscrit	-11.8811
▁ultraviolada	-11.8811
▁valencianes	-11.8811
▁xocolata	-11.8811
▁supernoves	-11.8811
▁kazakh	-11.8811
▁rapidesa	-11.8811
▁hamilton	-11.8811
empremta	-11.8811
▁dirigí	-11.8811
▁jussà	-11.8811
▁computació	-11.8811
aprovà	-11.8811
▁constitucions	-11.8811
▁terrible	-11.8811
▁itàlica	-11.8811
▁mensual	-11.8811
▁mànec	-11.8811
▁viscut	-11.8811
▁hebrea	-11.8811
▁jornada	-11.8811
▁ernst	-11.8811
▁sapiens	-11.8811
▁volcàniques	-11.8811
emergent	-11.8811
▁aventures	-11.8812
▁pedal	-11.8817
infecta	-11.8818
▁gustav	-11.8822
▁compromet	-11.883
acròni	-11.8848
sulf	-11.8851
nucli	-11.8874
espanta	-11.8913
▁quantifica	-11.8919
espectr	-11.8936
▁orbita	-11.898
lítiques	-11.8996
ectronegativitat	-11.8996
pèptid	-11.8996
▁bloqueja	-11.8996
▁castelldefels	-11.8996
▁dinasties	-11.8996
▁errònia	-11.8996
▁exponencial	-11.8996
▁fantàstic	-11.8996
▁llogaret	-11.8996
▁magistrat	-11.8996
▁paisatgístic	-11.8996
▁protagonisme	-11.8996
▁prússia	-11.8996
▁sintàctic	-11.8996
▁taxonòmic	-11.8996
escassetat	-11.8996
▁cadascú	-11.8996
▁formigó	-11.8996
▁navegant	-11.8996
artesania	-11.8996
▁glòria	-11.8996
▁innovació	-11.8996
▁politeisme	-11.8996
▁portbou	-11.8996
▁suposà	-11.8996
▁roquetes	-11.8996
▁semblances	-11.8996
▁cívic	-11.8996
▁gósol	-11.8996
▁capdamunt	-11.8996
▁migracions	-11.8996
▁llicències	-11.8996
▁veiem	-11.8996
▁compresa	-11.8996
▁gascó	-11.8996
▁vectorial	-11.8996
ldehid	-11.8996
▁hidrològic	-11.8996
▁sulfat	-11.8996
èpica	-11.8996
▁instantània	-11.8996
▁flamenc	-11.8997
▁defenses	-11.8997
▁aplicant	-11.8997
esplugues	-11.8997
▁esdevinguer	-11.8998
▁conversa	-11.8999
religio	-11.8999
baptiste	-11.8999
enfonsament	-11.9002
evapora	-11.9007
▁agrari	-11.9015
▁goril	-11.9025
ateneu	-11.9031
històric	-11.9034
adult	-11.9037
concert	-11.9037
positiu	-11.9038
▁electe	-11.904
annexió	-11.9071
court	-11.9077
atribut	-11.9105
▁estricta	-11.917
▁sotmet	-11.918
antibiòtic	-11.9182
▁barcelonès	-11.9184
▁rocabertí	-11.9184
▁abadesses	-11.9185
▁borbòniques	-11.9185
▁concedeix	-11.9185
▁cuneïforme	-11.9185
▁càmeres	-11.9185
▁feminista	-11.9185
▁gonzález	-11.9185
▁lípids	-11.9185
▁políedre	-11.9185
▁recurrent	-11.9185
▁respectives	-11.9185
▁revolucions	-11.9185
▁rodríguez	-11.9185
▁schrödinger	-11.9185
▁electròniques	-11.9185
▁fotosfera	-11.9185
▁innovacions	-11.9185
▁migratori	-11.9185
▁mozilla	-11.9185
▁pelegrí	-11.9185
apliquen	-11.9185
▁conducció	-11.9185
▁medalles	-11.9185
▁infantesa	-11.9185
▁jorba	-11.9185
▁magrib	-11.9185
▁vacances	-11.9185
▁subjacent	-11.9185
▁despertar	-11.9185
▁sequera	-11.9185
▁solemne	-11.9185
▁capellà	-11.9185
▁dignitat	-11.9185
▁acurada	-11.9186
▁elevacions	-11.9186
▁medicament	-11.9188
▁inclinat	-11.9189
entropia	-11.9195
ligible	-11.9195
▁desintegra	-11.9197
▁75%	-11.9199
ejà	-11.9215
sovint	-11.9229
▁descarrega	-11.9236
prengueren	-11.933
nspirada	-11.9335
encarreg	-11.9366
deutsch	-11.937
▁arbitrària	-11.9377
▁voluntària	-11.9377
incorporà	-11.9377
▁despoblat	-11.9377
▁escèniques	-11.9377
▁esfèrica	-11.9377
▁football	-11.9377
▁iugoslàvia	-11.9377
▁pronúncia	-11.9377
▁selznick	-11.9377
▁susceptible	-11.9377
▁viladecans	-11.9377
▁minoritari	-11.9377
▁pedagog	-11.9377
▁polonesos	-11.9377
▁traductor	-11.9377
▁contaminant	-11.9377
▁galceran	-11.9377
▁subterrani	-11.9377
▁recobert	-11.9377
▁begudes	-11.9377
▁finances	-11.9377
▁perseguir	-11.9377
▁assessor	-11.9377
▁gradient	-11.9377
▁quirze	-11.9377
▁senglar	-11.9377
▁mèrit	-11.9377
▁convencions	-11.9377
▁holmes	-11.9377
▁moderada	-11.9377
▁riudoms	-11.9377
▁inaugurada	-11.9377
▁gandesa	-11.9377
▁iconografia	-11.9377
▁reactors	-11.9377
▁volcans	-11.9378
▁capitell	-11.9379
▁reixac	-11.9382
examen	-11.9387
enginy	-11.9389
▁aleatori	-11.9392
comarques	-11.9425
isaac	-11.9426
▁adjunt	-11.9437
estampa	-11.955
enunciar	-11.9572
amfitrió	-11.9573
ascendència	-11.9573
compsognathus	-11.9573
lúrgia	-11.9573
▁ascendent	-11.9573
▁bòxer	-11.9573
▁cartaginesos	-11.9573
▁conglomerat	-11.9573
▁domingo	-11.9573
▁dramaturg	-11.9573
▁dèficit	-11.9573
▁hindenburg	-11.9573
▁indoeuropees	-11.9573
▁pròsper	-11.9573
▁pérez	-11.9573
▁residències	-11.9573
▁romanogermànic	-11.9573
▁succeí	-11.9573
▁baptisme	-11.9573
▁ciclista	-11.9573
▁corporació	-11.9573
▁masquefa	-11.9573
▁cadàver	-11.9573
▁concentren	-11.9573
▁saqueig	-11.9573
▁weimar	-11.9573
▁bandoler	-11.9573
▁franges	-11.9573
▁melodia	-11.9573
▁rectangle	-11.9573
▁solubilitat	-11.9573
▁agràries	-11.9573
▁electroestàtic	-11.9573
arboç	-11.9573
▁comprès	-11.9573
▁garanteix	-11.9573
esquirol	-11.9573
▁compartiment	-11.9573
▁messies	-11.9574
emblema	-11.9574
▁expulsar	-11.9574
▁cadira	-11.9574
▁caminar	-11.9574
▁invoca	-11.9574
urtx	-11.9577
▁enlairat	-11.9578
▁eugeni	-11.9579
▁pressiona	-11.9583
alcover	-11.9585
espatlla	-11.9585
▁perpetu	-11.9612
equivalent	-11.9625
▁aglutina	-11.965
lipse	-11.9728
avogadro	-11.9773
eslovàquia	-11.9773
▁alquimistes	-11.9773
▁barceloní	-11.9773
▁disseminat	-11.9773
▁legitimitat	-11.9773
▁nòmades	-11.9773
▁séquia	-11.9773
▁talamanca	-11.9773
▁turbines	-11.9773
▁víctima	-11.9773
▁baluard	-11.9773
▁constructor	-11.9773
▁mantenien	-11.9773
▁monoteisme	-11.9773
▁planetàries	-11.9773
auditori	-11.9773
▁abrupte	-11.9773
▁mozart	-11.9773
▁missioner	-11.9773
▁discutir	-11.9773
▁fortaleses	-11.9773
▁padró	-11.9773
▁versalles	-11.9773
▁savoia	-11.9773
▁diürn	-11.9773
▁fallida	-11.9773
▁ismael	-11.9773
òdena	-11.9773
▁oposades	-11.9773
▁judea	-11.9774
▁transcriu	-11.9775
alpinisme	-11.9776
ozó	-11.9778
▁supervisa	-11.9778
▁exclou	-11.9779
▁puert	-11.9779
▁ionitzat	-11.9782
▁tolera	-11.9784
obtindr	-11.9795
ilíada	-11.9807
accident	-11.9829
empenta	-11.9863
romànic	-11.9865
▁derrot	-11.9954
ajusta	-11.9955
seqüencia	-11.9977
▁aprofundi	-11.9977
▁actinoides	-11.9977
▁assistents	-11.9977
▁autonòmic	-11.9977
▁balsareny	-11.9977
▁circumferències	-11.9977
▁contínues	-11.9977
▁dinàmiques	-11.9977
▁economies	-11.9977
▁inquisició	-11.9977
▁insoluble	-11.9977
▁micronèsia	-11.9977
▁pictòric	-11.9977
▁prehistòriques	-11.9977
▁recompte	-11.9977
▁successos	-11.9977
▁trajecte	-11.9977
▁tàctiques	-11.9977
▁xicotet	-11.9977
▁glaceres	-11.9977
▁jeroni	-11.9977
▁linné	-11.9977
▁muntanyoses	-11.9977
▁positives	-11.9977
▁qnx	-11.9977
embolcall	-11.9977
▁historiogràfi	-11.9977
▁nombrosa	-11.9977
▁samuel	-11.9977
▁batllia	-11.9977
▁jueves	-11.9977
▁llierca	-11.9977
▁humides	-11.9977
▁precises	-11.9977
▁ortodoxos	-11.9977
▁prevenció	-11.9977
▁tabac	-11.9977
endèmic	-11.9977
▁oxidant	-11.9978
adolescent	-11.9978
excedent	-11.9978
▁robust	-11.9978
▁enderrocar	-11.9978
▁apropiat	-11.9979
▁competeix	-11.9981
alteració	-12.0031
amenaça	-12.0037
teoria	-12.0038
ferrer	-12.0053
estimul	-12.0129
▁catalitza	-12.0153
5%)	-12.0177
assumpte	-12.0183
▁gimnàs	-12.0185
▁artefacte	-12.0185
▁bloqueig	-12.0185
▁capgrossos	-12.0185
▁carboxil	-12.0185
▁congressos	-12.0185
▁consonàntic	-12.0185
▁construint	-12.0185
▁corrosió	-12.0185
▁cuscús	-12.0185
▁discriminació	-12.0185
▁etcètera	-12.0185
▁filogenètic	-12.0185
▁macroscòpic	-12.0185
▁mexicà	-12.0185
▁neptú	-12.0185
▁pakistan	-12.0185
▁portuguesos	-12.0185
▁sinagoga	-12.0185
▁stephen	-12.0185
▁substituint	-12.0185
▁subterrànies	-12.0185
▁sánchez	-12.0185
▁síndrome	-12.0185
▁tarradellas	-12.0185
▁vèrtebres	-12.0185
▁desprèn	-12.0185
▁virgili	-12.0185
encreuament	-12.0185
uzbek	-12.0185
▁lisboa	-12.0185
▁ordinari	-12.0185
▁constituint	-12.0185
▁meranges	-12.0185
▁converses	-12.0185
escissió	-12.0185
▁obsolet	-12.0185
▁mutacions	-12.0185
▁tiberi	-12.0185
▁protestes	-12.0185
▁constituí	-12.0186
▁discuteix	-12.0186
▁sanitari	-12.0186
▁enganx	-12.0186
▁concepcion	-12.0186
▁league	-12.0186
▁interroga	-12.0188
▁tutela	-12.0188
▁modula	-12.0192
▁prevei	-12.0193
▁advoca	-12.0208
amazic	-12.0226
principalment	-12.025
control	-12.025
sistemes	-12.025
aconsegu	-12.0298
industrial	-12.0357
▁originària	-12.0384
▁rossell	-12.0395
aqüeducte	-12.0398
enciclopèdies	-12.0398
epidèmia	-12.0398
▁alcalinoterris	-12.0398
▁beethoven	-12.0398
▁bilingüe	-12.0398
▁contemporànies	-12.0398
▁ermessenda	-12.0398
▁fernández	-12.0398
▁geodèsia	-12.0398
▁hahnemann	-12.0398
▁malauradament	-12.0398
▁minúscules	-12.0398
▁navarcles	-12.0398
▁paradoxa	-12.0398
▁periòdiques	-12.0398
▁rugby	-12.0398
▁substitut	-12.0398
▁hereditari	-12.0398
▁inútil	-12.0398
▁nombrós	-12.0398
▁tortellà	-12.0398
oxford	-12.0398
▁demèter	-12.0398
▁titulada	-12.0398
▁vallmoll	-12.0398
▁reductor	-12.0398
▁italianes	-12.0398
▁mariscal	-12.0398
▁jornades	-12.0398
▁compilació	-12.0398
▁plegament	-12.0398
▁sóller	-12.0398
▁teixidor	-12.0398
▁calibra	-12.0399
▁promesa	-12.0399
▁represa	-12.0399
▁video	-12.04
afinació	-12.0405
estonià	-12.0408
acomoda	-12.0412
▁assisti	-12.0423
57)	-12.0439
south	-12.0447
existir	-12.0468
eixampla	-12.0479
▁diferi	-12.0492
guanyà	-12.053
pronunciat	-12.0561
▁perfecta	-12.0601
andròmeda	-12.0615
entusiasme	-12.0615
àndalus	-12.0615
▁batxillerat	-12.0615
▁coulomb	-12.0615
▁disfressa	-12.0615
▁ermengol	-12.0615
▁glucosa	-12.0615
▁impliquen	-12.0615
▁kepler	-12.0615
▁papallones	-12.0615
▁periodista	-12.0615
▁primigeni	-12.0615
▁púlsar	-12.0615
▁sincronitza	-12.0615
▁subdivisió	-12.0615
▁vikings	-12.0615
▁concedí	-12.0615
▁moianès	-12.0615
epítet	-12.0615
odissea	-12.0615
▁ignasi	-12.0615
▁madoz	-12.0615
▁precedeix	-12.0615
▁hidrogràfica	-12.0616
▁fondària	-12.0616
▁balcó	-12.0616
▁incomplet	-12.0616
▁reeixida	-12.0616
▁pascual	-12.0616
▁profetes	-12.0616
▁ferroviari	-12.0616
▁injust	-12.0616
audició	-12.0616
▁longitudinal	-12.0616
▁diagrama	-12.0616
▁voreja	-12.0616
▁daurat	-12.0616
▁restaurat	-12.0617
▁confereix	-12.0617
▁lorenz	-12.0618
quercus	-12.0627
accedi	-12.0643
ultramar	-12.0649
acumula	-12.0682
▁influeix	-12.0718
▁orogràfic	-12.0817
holocaust	-12.0838
▁cartoixa	-12.0838
▁celestial	-12.0838
▁cerimònies	-12.0838
▁ciutadana	-12.0838
▁cúpula	-12.0838
▁demòcrata	-12.0838
▁eiffel	-12.0838
▁empitjora	-12.0838
▁fèlix	-12.0838
▁idèntiques	-12.0838
▁incompatible	-12.0838
▁indoeuropea	-12.0838
▁limítrof	-12.0838
▁perjudicial	-12.0838
▁plujosa	-12.0838
▁progenitor	-12.0838
▁pseudònim	-12.0838
▁simbolisme	-12.0838
▁subjuntiu	-12.0838
▁teòriques	-12.0838
▁vallfogona	-12.0838
▁veneçuela	-12.0838
▁videojocs	-12.0838
estocolm	-12.0838
▁capitulació	-12.0838
▁clandestin	-12.0838
▁dígits	-12.0838
▁impresa	-12.0838
▁mataplana	-12.0838
associen	-12.0838
▁consorci	-12.0838
▁empleats	-12.0838
▁piscines	-12.0838
▁baviera	-12.0838
▁productiu	-12.0838
▁reputació	-12.0838
▁cervesa	-12.0838
▁gavà	-12.0838
▁cèltiques	-12.0838
▁pablo	-12.0838
▁desembarcar	-12.0838
▁màgia	-12.0838
▁salvació	-12.0838
▁miracles	-12.0838
imposà	-12.0838
erupció	-12.0838
▁comissari	-12.084
▁aplicable	-12.084
axioma	-12.0841
▁teoritza	-12.0849
▁megalític	-12.0852
hisenda	-12.0861
▁esborra	-12.0867
embotit	-12.0873
introduir	-12.0917
cromàtic	-12.1016
1.7	-12.1039
excavació	-12.1051
▁conclou	-12.1061
ametller	-12.1065
▁barcelonins	-12.1065
“	-12.1882
<	-13.5275
