<unk>	0
<s>	0
</s>	0
"	-2.96932
.	-2.97631
="	-3.0465
▁	-3.37072
▁sa	-3.397
▁nga	-3.67962
doc	-3.72458
>	-3.72562
s	-4.07174
▁ang	-4.08172
d	-4.23439
-	-4.32147
=	-4.36822
▁ka	-4.37456
/	-4.40418
▁<	-4.40647
ies	-4.41209
org	-4.41434
curi	-4.41749
ceb	-4.41807
?	-4.41812
▁id	-4.41823
wiki	-4.4183
wikipedia	-4.4185
http	-4.41869
://	-4.4187
▁title	-4.41874
▁categor	-4.41874
▁url	-4.41877
▁</	-4.43122
▁ni	-4.5949
▁ug	-4.70627
▁"	-4.70905
▁matang	-4.94826
▁kabanay	-5.17601
▁sakop	-5.18481
▁kini	-5.21668
henera	-5.21785
▁gi	-5.24672
▁kaliwatan	-5.31074
▁niini	-5.31627
adtong	-5.32062
▁una	-5.33615
hulagway	-5.33867
nalista	-5.34675
▁ning	-5.35094
▁sama	-5.38134
▁walay	-5.38306
",	-5.39515
:	-5.70703
,	-5.72674
▁usa	-5.72837
▁may	-5.80963
▁rehiyon	-5.84176
i	-5.84409
▁nahimutang	-5.84606
▁pransiya	-5.84686
▁komyun	-5.84782
▁departamento	-5.85416
4	-5.85852
▁molupyo	-5.86354
▁na	-5.87799
wag	-6.04153
▁sab	-6.0484
▁hayop	-6.05228
a	-6.32959
▁mga	-6.37192
de	-6.50277
us	-6.50648
c	-6.78166
e	-6.84835
la	-6.86943
en	-6.93178
▁mao	-6.95112
ta	-6.96016
ng	-7.00106
le	-7.00629
g	-7.05079
▁muragwati	-7.08013
▁of	-7.09992
et	-7.10423
y	-7.14384
ensis	-7.1757
1"	-7.17962
▁life	-7.18447
▁catalogue	-7.18548
o	-7.22567
0"	-7.24575
idae	-7.27878
an	-7.29268
11	-7.31303
▁mananap	-7.31504
ulod	-7.31537
6"	-7.31829
▁banaog	-7.31959
um	-7.3225
8"	-7.32273
13	-7.33707
▁dawhilahila	-7.35638
▁kladogram	-7.36022
▁saint	-7.37266
n	-7.40445
15	-7.40545
9"	-7.40835
t	-7.43462
'	-7.46555
▁matud	-7.46799
sur	-7.50445
l	-7.50712
7"	-7.52107
2"	-7.52419
or	-7.52976
▁(	-7.5299
14	-7.57278
5"	-7.57953
3"	-7.60752
▁gasang	-7.6148
ae	-7.62021
saint	-7.62143
21	-7.65052
▁dapawdapaw	-7.6696
18	-7.69117
12	-7.69514
ma	-7.70035
loire	-7.72687
10	-7.73655
▁la	-7.73962
alpes	-7.74477
ca	-7.74791
▁grand	-7.74794
▁a	-7.75047
on	-7.75084
▁est	-7.76032
na	-7.78462
)	-7.7976
france	-7.81762
r	-7.87283
16	-7.88055
ti	-7.89019
ukab	-7.92325
to	-7.92794
tu	-7.93872
ella	-7.95123
▁occitanie	-7.95958
aquitaine	-7.96558
▁nouvelle	-7.9658
p	-7.97217
is	-7.9852
rhône	-7.98648
ra	-7.99162
▁lingin	-8.01772
45	-8.01936
m	-8.0213
ri	-8.02765
li	-8.02778
▁auvergne	-8.03614
ne	-8.04048
ia	-8.06016
ata	-8.06737
ni	-8.07408
si	-8.08018
b	-8.08292
franche	-8.09556
re	-8.1057
é	-8.11192
comté	-8.11967
▁bourgogne	-8.12228
k	-8.12558
in	-8.14502
▁si	-8.14738
40	-8.15213
24	-8.17505
▁tiladtilad	-8.19523
val	-8.20577
no	-8.20896
50	-8.21172
6	-8.21353
sa	-8.21649
#	-8.22547
ville	-8.23502
tum	-8.23766
hauts	-8.23931
se	-8.24559
51	-8.25347
ch	-8.25501
▁pagka	-8.25668
ro	-8.25947
ula	-8.2775
les	-8.27808
▁haute	-8.28018
71	-8.28626
63	-8.28647
28	-8.28743
klase	-8.28814
25	-8.28948
▁normandie	-8.29199
ul	-8.2992
▁#	-8.29996
20	-8.30537
ana	-8.3116
29	-8.3118
▁de	-8.31324
19	-8.32279
30	-8.33033
17	-8.33144
▁pag	-8.33321
oides	-8.34688
▁o	-8.34871
vi	-8.35286
▁wala	-8.35361
da	-8.35471
cu	-8.35715
ulo	-8.36124
di	-8.3715
▁le	-8.37514
au	-8.37603
76	-8.38371
lo	-8.38585
co	-8.38672
74	-8.38945
h	-8.39179
▁espesye	-8.39534
at	-8.39816
34	-8.3995
pa	-8.40006
▁ma	-8.40092
ph	-8.40575
pi	-8.40676
ic	-8.40921
▁pa	-8.41453
th	-8.41696
▁niya	-8.4186
ar	-8.42439
88	-8.44982
53	-8.45037
39	-8.45339
es	-8.45496
58	-8.46499
te	-8.46539
▁karon	-8.466
iyang	-8.46701
▁i	-8.47518
z	-8.48162
31	-8.4901
61	-8.49494
▁1,	-8.49614
▁ubos	-8.50015
mo	-8.51204
me	-8.51442
94	-8.52315
73	-8.52396
▁mi	-8.53275
81	-8.53403
60	-8.53465
mi	-8.54078
59	-8.5412
mont	-8.54128
al	-8.55046
▁pay	-8.55359
x	-8.55577
43	-8.56544
▁tuig	-8.57043
▁in	-8.57655
ci	-8.57964
▁b	-8.58526
68	-8.58684
90	-8.59179
▁f	-8.59854
▁siak	-8.59906
54	-8.60675
lis	-8.60715
26	-8.6191
du	-8.62125
41	-8.62298
ha	-8.62503
62	-8.62922
ang	-8.63647
cul	-8.6454
23	-8.66172
22	-8.66877
70	-8.66888
38	-8.67133
ea	-8.67505
ce	-8.67566
01	-8.68071
89	-8.68091
▁di	-8.68274
os	-8.6864
ii	-8.68823
▁ligid	-8.69214
er	-8.69426
ina	-8.69444
198	-8.69876
▁bakaybakay	-8.70093
92	-8.70143
po	-8.70329
ba	-8.71169
27	-8.71356
52	-8.71815
v	-8.72023
84	-8.72597
36	-8.72612
32	-8.7292
▁e	-8.72933
02	-8.72949
195	-8.73299
▁m	-8.73357
▁para	-8.73574
130	-8.73791
196	-8.73803
u	-8.73925
197	-8.73948
209	-8.7412
mer	-8.74217
▁kinhason	-8.74318
57	-8.7438
▁re	-8.74864
219	-8.75167
bi	-8.75226
218	-8.75428
▁bituonbituon	-8.75537
157	-8.75576
ka	-8.75975
hi	-8.76511
ry	-8.76638
▁nahiubos	-8.7722
145	-8.77308
208	-8.77688
215	-8.78429
as	-8.78829
im	-8.79157
199	-8.7924
126	-8.79343
210	-8.79346
87	-8.79431
ty	-8.7974
207	-8.79834
150	-8.79923
▁ngadto	-8.8004
▁bi	-8.80498
147	-8.80751
▁pilipinas	-8.81008
120	-8.81041
▁ca	-8.81095
▁al	-8.81378
170	-8.81483
▁kaginharian	-8.82183
194	-8.82369
▁ika	-8.82442
que	-8.83006
ga	-8.83008
lès	-8.83106
133	-8.83442
55	-8.83638
fer	-8.83956
eu	-8.83964
▁k	-8.84264
216	-8.84285
ya	-8.84424
217	-8.84589
el	-8.8482
▁centre	-8.84852
179	-8.84886
ol	-8.84991
ter	-8.85238
127	-8.85481
140	-8.85591
hanay	-8.85625
136	-8.85916
128	-8.86006
f	-8.86012
33	-8.86026
203	-8.86107
139	-8.86109
180	-8.86115
chi	-8.86139
72	-8.86632
193	-8.86725
65	-8.86876
200	-8.87201
▁singsing	-8.87239
35	-8.87264
des	-8.8741
129	-8.87683
yo	-8.87694
176	-8.87702
122	-8.87726
146	-8.87738
go	-8.88532
he	-8.88642
ris	-8.88773
212	-8.88922
171	-8.89876
75	-8.8988
135	-8.90268
96	-8.9048
ve	-8.9052
174	-8.90545
08	-8.90661
213	-8.90738
ria	-8.90797
132	-8.90832
ur	-8.9087
103	-8.90918
173	-8.90989
op	-8.91223
07	-8.9128
▁barangay	-8.91407
178	-8.91418
va	-8.91485
gi	-8.91522
149	-8.91851
▁mo	-8.92104
177	-8.92437
206	-8.92441
ex	-8.92449
100	-8.9259
165	-8.92749
148	-8.92771
112	-8.92871
188	-8.9307
▁og	-8.93286
▁siya	-8.93465
220	-8.93502
117	-8.93637
lus	-8.93933
118	-8.94177
▁dakbayan	-8.94228
119	-8.94415
▁maoy	-8.94436
164	-8.94461
▁lalawigan	-8.94798
142	-8.94839
204	-8.94849
113	-8.94992
do	-8.95147
185	-8.95316
172	-8.95493
98	-8.95675
83	-8.96026
190	-8.96221
105	-8.9629
106	-8.96367
169	-8.96754
125	-8.97068
ge	-8.97088
93	-8.97138
183	-8.97294
▁seine	-8.98028
168	-8.98378
▁kah	-8.98662
189	-8.98697
▁segun	-8.9887
▁jean	-8.99127
court	-8.99156
▁g	-8.99299
123	-8.99339
nes	-8.99478
para	-8.99717
pe	-8.99779
utong	-8.99923
osa	-9.00305
187	-9.00689
ola	-9.01009
ron	-9.01099
202	-9.01163
175	-9.01267
ong	-9.01442
▁pagsakop	-9.01572
ucn	-9.01657
eri	-9.01884
116	-9.01987
05	-9.0205
201	-9.02087
▁nag	-9.02127
ré	-9.02533
maritime	-9.02755
102	-9.02883
cy	-9.03096
186	-9.031
160	-9.0316
80	-9.03241
;	-9.03276
111	-9.0334
un	-9.03561
97	-9.03593
107	-9.03952
▁lungsod	-9.04492
155	-9.04569
99	-9.04707
37	-9.04774
ida	-9.05071
garonne	-9.05135
marne	-9.05167
▁p	-9.05352
108	-9.05423
69	-9.05449
▁co	-9.06045
192	-9.06091
109	-9.0622
110	-9.06272
bo	-9.06416
▁par	-9.06724
▁con	-9.06994
85	-9.0724
pyrénées	-9.07269
ton	-9.07695
163	-9.07898
158	-9.08152
▁pays	-9.08158
121	-9.08179
bu	-9.08229
ey	-9.08283
che	-9.08528
▁hukal	-9.08764
hy	-9.08871
182	-9.09108
der	-9.09458
ho	-9.09503
▁tri	-9.09654
141	-9.10307
167	-9.10307
159	-9.10708
mar	-9.10918
era	-9.10933
lin	-9.11602
▁mar	-9.11649
56	-9.11858
09	-9.11988
be	-9.12091
ay	-9.12183
ig	-9.1219
tri	-9.12276
153	-9.12492
so	-9.12895
▁eure	-9.13052
▁2,	-9.13221
91	-9.13358
▁po	-9.13566
the	-9.13572
w	-9.13757
162	-9.14033
par	-9.14195
131	-9.14215
cha	-9.14501
io	-9.14907
ko	-9.15009
00	-9.15111
ran	-9.15199
oc	-9.15356
211	-9.15367
ly	-9.15462
za	-9.15699
ois	-9.16258
car	-9.16554
77	-9.16586
137	-9.16825
ot	-9.1692
151	-9.17078
95	-9.17087
mon	-9.17146
181	-9.17169
▁ha	-9.17189
gu	-9.17357
▁no	-9.17743
per	-9.17846
aster	-9.18024
▁pseudo	-9.18839
▁mont	-9.19326
man	-9.19757
it	-9.1985
▁côte	-9.19852
▁pas	-9.20059
tic	-9.20365
tor	-9.20453
pin	-9.2052
▁ra	-9.20668
▁he	-9.21308
▁ar	-9.21356
101	-9.21393
▁ba	-9.2174
▁bretagne	-9.21804
▁r	-9.21817
▁gracilis	-9.21828
han	-9.22407
205	-9.22414
provence	-9.22455
lu	-9.22495
nereis	-9.22796
br	-9.23727
▁me	-9.23922
ber	-9.24334
iformis	-9.24958
▁nasod	-9.24981
8	-9.25031
▁dall	-9.25418
tidae	-9.25636
152	-9.26067
▁var	-9.2667
haliclona	-9.26709
▁aduna	-9.27287
▁pro	-9.27603
79	-9.27969
con	-9.28246
78	-9.28363
86	-9.29055
son	-9.29116
nu	-9.29456
for	-9.29633
il	-9.29811
▁lu	-9.29857
▁li	-9.31005
qu	-9.31219
▁charente	-9.31375
zi	-9.31428
ou	-9.31787
opsis	-9.31922
191	-9.32582
▁tawo	-9.32593
hu	-9.32666
ère	-9.32936
tes	-9.33063
ke	-9.33298
cor	-9.33593
▁tardigrada	-9.34132
▁gikan	-9.34263
if	-9.34526
161	-9.34526
ing	-9.35331
ver	-9.35347
rhin	-9.35348
côte	-9.35476
gon	-9.35905
ze	-9.36283
ki	-9.36385
clathria	-9.36674
ill	-9.36755
ru	-9.37103
am	-9.37457
▁se	-9.37683
calais	-9.37788
▁vi	-9.37861
▁sub	-9.37989
martin	-9.38132
st	-9.38566
tro	-9.39109
nay	-9.39114
▁del	-9.39538
▁car	-9.40145
▁mag	-9.40187
em	-9.40621
▁somme	-9.40866
▁per	-9.41247
▁klase	-9.4164
oidea	-9.41961
lon	-9.42116
▁ver	-9.42237
▁man	-9.4274
▁cor	-9.42854
pla	-9.42985
▁muragkigwa	-9.43221
▁long	-9.43427
▁pe	-9.4389
bat	-9.44045
▁usab	-9.44305
▁ta	-9.44329
don	-9.44554
lt	-9.44932
iidae	-9.45035
▁aisne	-9.45178
lan	-9.45221
▁william	-9.45566
com	-9.45692
elli	-9.45765
▁bo	-9.45996
▁l	-9.46045
▁adlaw	-9.46266
azur	-9.47121
▁bas	-9.47352
▁t	-9.47564
ric	-9.47687
▁ho	-9.47874
ine	-9.48164
mb	-9.4846
▁ru	-9.48655
▁ro	-9.48767
▁eu	-9.48881
tan	-9.48903
▁elegans	-9.49088
men	-9.49256
ium	-9.49371
aux	-9.49397
ir	-9.50406
lla	-9.50408
bar	-9.50416
pu	-9.50605
por	-9.50644
▁micro	-9.5065
cher	-9.50894
▁haut	-9.51137
tis	-9.51508
▁mu	-9.51568
▁sumal	-9.52013
pseudo	-9.52456
06	-9.52625
sous	-9.53405
▁van	-9.54114
▁sp	-9.54326
▁calvados	-9.54338
▁br	-9.55595
▁polynoidae	-9.56196
matod	-9.56415
▁mon	-9.56422
gen	-9.56435
san	-9.56581
ag	-9.56809
tra	-9.5692
▁lot	-9.57339
bois	-9.57409
▁w	-9.57619
▁val	-9.57637
▁oise	-9.58127
ura	-9.58495
dia	-9.58534
ug	-9.58851
▁h	-9.59106
aria	-9.59409
▁cha	-9.59734
▁syllidae	-9.60006
ok	-9.60045
tr	-9.60264
▁pi	-9.6046
col	-9.60851
143	-9.6111
▁au	-9.61548
wa	-9.61681
▁populasyon	-9.61734
land	-9.6175
tre	-9.61942
ut	-9.62135
▁pang	-9.62163
res	-9.62231
rac	-9.62254
pierre	-9.62498
uc	-9.62601
▁carl	-9.62707
ita	-9.62798
fi	-9.62962
cin	-9.63345
▁isip	-9.63496
ster	-9.63535
ob	-9.64146
ja	-9.6424
ières	-9.643
▁poly	-9.64461
")	-9.64834
▁1	-9.64978
▁bu	-9.6508
▁su	-9.65134
▁bar	-9.65146
ser	-9.65534
rus	-9.6585
▁san	-9.66112
ves	-9.66125
mp	-9.66712
atong	-9.66779
ak	-9.66817
qui	-9.6684
▁naididae	-9.66983
moselle	-9.67107
▁nord	-9.67476
saône	-9.67488
ell	-9.67902
ep	-9.67955
phy	-9.67974
lia	-9.68016
▁bre	-9.68076
▁australis	-9.68091
pt	-9.68124
ros	-9.68295
▁henero	-9.68712
▁makita	-9.6877
▁the	-9.68961
▁ga	-9.69158
amphiura	-9.69162
eunice	-9.69424
uli	-9.69751
▁moselle	-9.69839
tte	-9.6986
▁lo	-9.70157
▁manche	-9.70365
▁19	-9.70503
zo	-9.7052
non	-9.7061
gy	-9.70831
ad	-9.70841
mycale	-9.71254
dendronephthya	-9.72319
fa	-9.72354
▁fa	-9.72547
▁go	-9.72551
j	-9.7316
syllis	-9.73472
og	-9.73504
py	-9.73552
▁tarn	-9.73651
bahin	-9.73663
ini	-9.73733
▁saône	-9.7381
▁haliclona	-9.73814
neo	-9.73859
▁5	-9.73864
ian	-9.7388
ophi	-9.73897
▁rené	-9.7423
ger	-9.74296
▁hautes	-9.74397
pro	-9.74456
tia	-9.74708
▁1909	-9.74764
ent	-9.74931
▁marne	-9.74946
▁gastrotricha	-9.75145
▁3,	-9.75303
▁gironde	-9.75553
ll	-9.7556
▁tenuis	-9.75613
▁pu	-9.7566
▁1905	-9.75693
ud	-9.75733
ant	-9.76041
▁nabahin	-9.761
turbonilla	-9.76136
gan	-9.76211
eux	-9.76283
ans	-9.76363
▁j	-9.76555
▁james	-9.76624
▁do	-9.77095
▁puy	-9.77126
▁simplex	-9.77294
ner	-9.77488
nia	-9.78364
▁meurthe	-9.78369
mis	-9.78381
▁da	-9.7862
▁clark	-9.79098
▁2000	-9.79378
mus	-9.79378
▁chapelle	-9.79397
▁les	-9.79462
rin	-9.79465
▁doubs	-9.79785
thi	-9.799
lay	-9.80083
jean	-9.80188
▁nereis	-9.80644
ille	-9.80991
▁lyman	-9.81038
bou	-9.8113
banay	-9.81427
vo	-9.81557
2	-9.81602
▁papa	-9.81671
▁dordogne	-9.81693
vic	-9.81976
▁am	-9.81991
ino	-9.82062
▁ph	-9.82122
▁kon	-9.82471
ilang	-9.82518
▁gibahin	-9.82596
▁verrill	-9.82675
▁apan	-9.82692
ari	-9.82742
▁fran	-9.82755
bre	-9.82934
ano	-9.83013
▁bahin	-9.83063
lecane	-9.8319
▁be	-9.83384
pan	-9.83485
q	-9.83527
ard	-9.83532
▁v	-9.8354
▁indre	-9.83556
dis	-9.83588
▁ng	-9.83714
tin	-9.83764
lat	-9.84316
▁mas	-9.84353
▁at	-9.84475
▁sainte	-9.84505
▁clathria	-9.85049
▁japonica	-9.85203
fu	-9.85233
▁cal	-9.85329
▁an	-9.85386
▁so	-9.85512
mes	-9.85604
stra	-9.85717
▁ko	-9.85906
▁jura	-9.85911
▁nereididae	-9.8594
cou	-9.86008
ier	-9.86133
ku	-9.86509
cer	-9.86654
ling	-9.86703
lum	-9.86879
bri	-9.86886
▁orne	-9.86998
chy	-9.87072
vin	-9.87088
ix	-9.87127
▁yonne	-9.87171
bro	-9.87191
ès	-9.8758
▁isère	-9.87588
ellidae	-9.88111
ophora	-9.88318
▁vosges	-9.88489
wi	-9.88574
▁fi	-9.88671
ven	-9.88757
▁te	-9.88878
illy	-9.88911
nac	-9.88914
▁1889	-9.88954
▁hilahila	-9.89251
pes	-9.89606
5	-9.89901
ali	-9.90619
illa	-9.90654
lé	-9.91075
cho	-9.91081
ff	-9.91203
▁ne	-9.91362
▁chamberlin	-9.91573
su	-9.91652
▁bubong	-9.91732
▁augustus	-9.91922
zon	-9.91955
ila	-9.92093
bon	-9.92194
spongia	-9.92545
enta	-9.92842
▁labing	-9.92857
chaetonotus	-9.92888
ren	-9.92908
▁pacifica	-9.92994
▁du	-9.93005
▁é	-9.93112
punoang	-9.93154
▁1,0	-9.93372
ban	-9.93457
lar	-9.93575
▁hetero	-9.93838
inus	-9.93863
ap	-9.94004
echinorhynchus	-9.94145
loir	-9.94174
eo	-9.94189
om	-9.94225
atlantiques	-9.94248
▁gers	-9.94426
▁dili	-9.94445
sainte	-9.94663
tungod	-9.95731
nic	-9.95836
num	-9.95903
cir	-9.96385
▁arthur	-9.96388
ny	-9.96509
442	-9.96563
▁minuta	-9.97013
▁ardennes	-9.97215
403	-9.97404
447	-9.97649
▁addison	-9.97856
mé	-9.97933
uri	-9.98059
mu	-9.98122
▁1886	-9.98219
▁ser	-9.98246
▁emery	-9.98378
▁sugbo	-9.98389
acanth	-9.98553
703	-9.98642
xi	-9.98838
rat	-9.99056
803	-9.99216
char	-9.99245
▁kin	-9.99331
▁ernst	-9.99385
dôme	-9.99387
▁1993.	-9.9939
▁cr	-9.99393
▁4,	-9.99402
rey	-9.99581
▁neo	-9.99714
lle	-9.99839
ius	-9.99906
ley	-9.99922
▁kabisay	-9.99948
hel	-10.0005
▁bou	-10.0038
uni	-10.0039
▁john	-10.0057
bel	-10.0061
ller	-10.0067
▁pan	-10.0072
▁1928	-10.0079
cia	-10.0085
482	-10.0094
macrobiotus	-10.0112
ju	-10.0118
▁aube	-10.016
mani	-10.0173
▁sensus	-10.0193
echiniscus	-10.02
▁1910	-10.0203
è	-10.0224
▁attems	-10.0227
481	-10.0234
▁1927.	-10.0249
▁thomas	-10.0251
303	-10.0263
ili	-10.0269
▁1904	-10.0287
▁for	-10.0302
▁naka	-10.0304
pel	-10.0304
404	-10.0322
498	-10.0347
903	-10.037
cur	-10.0372
466	-10.0384
▁pinulongan	-10.039
macr	-10.0396
jo	-10.0414
444	-10.0417
▁kun	-10.0417
sta	-10.043
ain	-10.0437
▁ju	-10.0441
aw	-10.0449
),	-10.0458
▁cy	-10.0468
▁gu	-10.047
acropora	-10.0481
▁capensis	-10.0484
art	-10.0484
oux	-10.0503
▁can	-10.0514
▁terebellidae	-10.0514
649	-10.0531
603	-10.0537
callyspongia	-10.0548
▁ain	-10.0562
harmothoe	-10.0567
▁antarctica	-10.0568
ara	-10.0569
▁maka	-10.0573
rou	-10.0577
branch	-10.0579
drilus	-10.0588
▁ri	-10.0596
▁serpulidae	-10.0604
467	-10.0605
▁st	-10.0606
igny	-10.0615
▁alang	-10.0619
▁ab	-10.0634
▁cer	-10.0641
▁aude	-10.0656
nema	-10.0662
cos	-10.0665
▁habagatang	-10.0671
493	-10.0687
495	-10.0705
448	-10.0707
500	-10.072
sia	-10.0731
▁1911.	-10.0732
ez	-10.0739
465	-10.075
actis	-10.0757
ret	-10.0761
▁fragilis	-10.0768
427	-10.0772
bert	-10.0776
ue	-10.078
486	-10.0785
▁spirostreptidae	-10.0787
1	-10.079
ax	-10.0797
ist	-10.0804
cata	-10.081
▁ch	-10.0812
her	-10.0815
449	-10.083
▁graf	-10.084
▁1981.	-10.0842
▁robusta	-10.0861
▁koehler	-10.0888
▁baptiste	-10.0895
▁pipila	-10.0898
ers	-10.0906
479	-10.0916
hymedesmia	-10.0928
my	-10.093
▁1991.	-10.0935
est	-10.0938
426	-10.0949
▁1885.	-10.0954
▁1990.	-10.0954
uk	-10.0996
704	-10.0997
leu	-10.1009
472	-10.1009
▁pyramidellidae	-10.101
▁loire	-10.1013
246	-10.1013
▁meuse	-10.1014
443	-10.1023
491	-10.1024
iya	-10.1026
▁odontopygidae	-10.1029
▁va	-10.1031
▁1938	-10.1033
odostomia	-10.1065
487	-10.1073
248	-10.1089
▁ja	-10.109
▁gard	-10.1102
▁spionidae	-10.1105
▁1907.	-10.1105
646	-10.1111
ides	-10.1156
rata	-10.116
300	-10.1175
544	-10.1202
▁1906	-10.1203
villers	-10.1223
▁un	-10.1238
644	-10.1249
▁eunice	-10.1253
ost	-10.1264
▁tor	-10.1264
ux	-10.1276
422	-10.1298
483	-10.13
pina	-10.1301
469	-10.1305
ye	-10.1309
904	-10.1334
▁elongata	-10.1336
497	-10.1341
ek	-10.1341
647	-10.1346
▁paul	-10.1369
dur	-10.137
423	-10.1373
▁stephen	-10.1374
cephalodella	-10.1384
▁dendy	-10.1386
477	-10.1391
min	-10.1393
249	-10.1393
lumbrineris	-10.1404
600	-10.1409
tel	-10.1419
▁sy	-10.1421
▁aron	-10.1424
▁topsent	-10.1428
▁plexauridae	-10.1434
hen	-10.1447
schr	-10.1463
▁1984.	-10.1474
aminosa	-10.1474
hon	-10.1477
230	-10.1494
lina	-10.1498
441	-10.1503
gues	-10.1513
▁corse	-10.1514
▁émi	-10.1516
mac	-10.1517
▁hartman	-10.1519
804	-10.1524
hal	-10.1531
ment	-10.1533
242	-10.1538
▁hu	-10.1544
orhynchus	-10.1544
ub	-10.1547
▁1914.	-10.1553
gui	-10.1572
▁1929	-10.1577
▁uban	-10.1602
648	-10.1621
405	-10.1682
▁ap	-10.1683
fe	-10.1697
lig	-10.1697
436	-10.1698
bol	-10.17
lio	-10.1706
▁3	-10.171
1893	-10.1711
▁col	-10.1713
474	-10.1729
onia	-10.1736
lam	-10.1749
gt	-10.1763
▁nephtheidae	-10.1774
ani	-10.1775
yn	-10.1782
▁amphiura	-10.1783
▁kay	-10.1792
▁1908	-10.1797
gra	-10.1824
▁unang	-10.1825
▁hartmann	-10.1829
rie	-10.1841
640	-10.1842
asterias	-10.1843
cal	-10.1864
mat	-10.1868
▁cra	-10.1869
247	-10.191
▁intermedia	-10.1917
pal	-10.1922
▁grube	-10.1929
ero	-10.193
430	-10.1939
250	-10.1947
260	-10.1956
▁kalabotan	-10.1959
ple	-10.1961
opora	-10.1962
505	-10.1966
line	-10.197
plo	-10.1971
ip	-10.1984
▁minor	-10.2006
642	-10.2012
▁1881	-10.2022
267	-10.2022
▁1988	-10.2026
266	-10.2037
455	-10.2038
547	-10.2041
lou	-10.2041
▁linnae	-10.2042
290	-10.2054
symplectoscyphus	-10.2059
667	-10.207
stelletta	-10.2076
▁erséus	-10.2084
▁fo	-10.2086
346	-10.2087
664	-10.2091
▁1913	-10.2096
vis	-10.2103
▁semi	-10.2108
pon	-10.2111
gre	-10.2121
▁pinulongang	-10.2124
onema	-10.2133
berg	-10.2141
odon	-10.2151
348	-10.2158
▁dendronephthya	-10.2159
los	-10.2164
548	-10.2165
347	-10.2189
▁bukya	-10.2189
oise	-10.2196
lineus	-10.2201
▁sabellidae	-10.2202
syon	-10.2204
fla	-10.2205
546	-10.2207
▁mycale	-10.2208
▁bartsch	-10.2224
zy	-10.2226
od	-10.2241
gin	-10.2255
506	-10.226
▁turbonilla	-10.2266
▁microcionidae	-10.2275
▁muragtuway	-10.2275
▁mega	-10.228
400	-10.2282
hali	-10.2283
▁sarthe	-10.2294
nat	-10.2303
▁duha	-10.2308
▁grandis	-10.231
▁dako	-10.2311
661	-10.2311
ev	-10.2316
cera	-10.2317
▁1986.	-10.2339
germain	-10.2339
ophiacantha	-10.234
406	-10.2361
305	-10.2363
▁plan	-10.238
ignac	-10.2387
pri	-10.2393
800	-10.2393
▁6	-10.2394
bas	-10.2395
456	-10.24
▁camaenidae	-10.2404
▁1884.	-10.2426
542	-10.2432
807	-10.2447
283	-10.2447
▁busk	-10.2458
armor	-10.2466
▁kalendaryo	-10.2469
▁tra	-10.2471
sepia	-10.2479
270	-10.2484
452	-10.25
nemertes	-10.2502
▁z	-10.2506
580	-10.251
567	-10.251
▁1924.	-10.2513
ie	-10.2543
van	-10.255
lac	-10.2555
▁amphiuridae	-10.2557
til	-10.2557
▁to	-10.2563
pter	-10.2574
▁alcyoniidae	-10.2579
▁1936	-10.2583
▁pin	-10.2593
566	-10.2598
867	-10.2603
bal	-10.2605
806	-10.2606
641	-10.2609
▁maine	-10.2619
vilaine	-10.2623
▁phyllodocidae	-10.2623
▁dunay	-10.2624
▁cher	-10.2624
944	-10.263
▁louis	-10.2634
▁hérault	-10.2645
cerebratulus	-10.2657
▁1967.	-10.2667
▁ge	-10.2668
746	-10.2677
▁crassa	-10.2686
▁gra	-10.269
▁pl	-10.269
ista	-10.2694
340	-10.2728
458	-10.2732
▁ku	-10.2736
ion	-10.2737
tom	-10.2752
▁ville	-10.2762
678	-10.2765
672	-10.2769
ette	-10.2774
▁lecane	-10.2775
▁lendenfeld	-10.2788
282	-10.279
3	-10.2811
882	-10.2813
700	-10.282
▁1959.	-10.2824
▁ber	-10.2826
766	-10.2828
fo	-10.2833
342	-10.2841
halichondria	-10.2843
▁1879.	-10.2847
▁panahon	-10.2847
▁1878	-10.2848
549	-10.2852
671	-10.2856
cé	-10.2859
né	-10.2863
▁sila	-10.2866
▁1960.	-10.287
tal	-10.287
▁ardèche	-10.2884
▁hayward	-10.2892
825	-10.2901
tetra	-10.2906
ostreptus	-10.2906
onemertes	-10.292
▁allier	-10.2937
0	-10.2941
iger	-10.2946
662	-10.2952
oxy	-10.2952
245	-10.2957
ika	-10.296
leucandra	-10.2961
679	-10.2973
we	-10.2975
▁1900.	-10.2984
typosyllis	-10.2984
900	-10.299
846	-10.3002
432	-10.3004
pont	-10.3007
942	-10.302
mata	-10.3028
▁norte	-10.303
▁ariège	-10.303
437	-10.3031
ire	-10.3031
805	-10.3042
663	-10.3043
ophiura	-10.3049
802	-10.3052
phyllodoce	-10.3057
▁sch	-10.3057
643	-10.3061
747	-10.3067
▁2000.	-10.3072
▁1983.	-10.3076
▁george	-10.3085
▁1912	-10.3086
235	-10.3086
▁deux	-10.3088
▁nu	-10.3088
▁gordon	-10.3099
▁1978.	-10.3099
met	-10.3101
306	-10.3103
606	-10.3105
mel	-10.3106
864	-10.3107
866	-10.3111
308	-10.3115
▁loiret	-10.3118
▁1982	-10.3123
▁er	-10.3124
▁ille	-10.3134
gar	-10.3138
not	-10.3156
227	-10.316
330	-10.3163
237	-10.3178
▁es	-10.3179
309	-10.3183
755	-10.3184
▁che	-10.3192
▁indica	-10.3192
▁henry	-10.3192
809	-10.3194
750	-10.3199
748	-10.32
yon	-10.3204
▁1880	-10.3217
yan	-10.3223
255	-10.3225
▁lang	-10.3228
225	-10.3228
273	-10.323
all	-10.323
257	-10.3232
▁lin	-10.3234
673	-10.3236
pora	-10.3241
elle	-10.3247
polynoe	-10.3249
tar	-10.325
sou	-10.3252
ilis	-10.3262
335	-10.3262
troch	-10.3262
▁1897	-10.3264
▁canu	-10.3266
742	-10.3269
690	-10.3269
rot	-10.3271
233	-10.3272
▁bag	-10.3278
▁and	-10.328
677	-10.328
366	-10.3282
▁loir	-10.3283
660	-10.3287
sabella	-10.3291
705	-10.3296
sèvres	-10.3312
▁cook	-10.3313
▁parva	-10.3315
via	-10.3329
kan	-10.335
▁1965.	-10.3358
▁ngalan	-10.3364
▁bulan	-10.337
ismo	-10.3371
▁vienne	-10.3374
706	-10.3378
▁char	-10.338
din	-10.3384
285	-10.3392
▁californica	-10.3406
▁1997.	-10.3406
var	-10.3413
709	-10.3421
sinularia	-10.3422
355	-10.3429
▁1903	-10.3431
707	-10.3434
lica	-10.3442
▁chalinidae	-10.3454
▁1989.	-10.3454
▁city	-10.3455
286	-10.3457
337	-10.3463
ostoma	-10.3471
565	-10.3472
675	-10.3473
▁milimetro	-10.3478
▁x	-10.3494
310	-10.3495
▁mor	-10.3497
▁von	-10.3499
ise	-10.3501
▁1996.	-10.3502
▁1971.	-10.3502
782	-10.3503
▁wa	-10.3503
▁gr	-10.3513
▁landes	-10.352
▁atlantica	-10.3526
574	-10.3527
287	-10.3536
▁pen	-10.3536
haute	-10.354
948	-10.3543
lepidonotus	-10.3547
243	-10.3548
▁1970.	-10.3551
▁1961.	-10.3551
253	-10.3555
665	-10.356
907	-10.3561
947	-10.3562
iata	-10.3567
▁chi	-10.3571
▁claude	-10.3575
ches	-10.3575
263	-10.3581
684	-10.3593
▁borealis	-10.3599
324	-10.3614
238	-10.3621
906	-10.3622
▁ben	-10.3625
mina	-10.3629
338	-10.3634
▁balat	-10.3639
003	-10.3643
▁bassler	-10.3648
▁1979.	-10.3648
ab	-10.365
lang	-10.3667
▁1998.	-10.3673
▁similis	-10.3673
geodia	-10.3674
cra	-10.3674
682	-10.3682
645	-10.3683
909	-10.3685
698	-10.369
676	-10.3692
▁nièvre	-10.3692
360	-10.3695
269	-10.3698
astropecten	-10.3699
acro	-10.372
578	-10.3726
826	-10.3733
nga	-10.3737
949	-10.3743
▁lévi	-10.3745
▁ophio	-10.375
760	-10.3751
▁cap	-10.3752
▁bug	-10.3752
582	-10.3759
279	-10.3762
▁el	-10.3765
289	-10.3767
668	-10.3768
754	-10.3771
▁drôme	-10.3772
▁1972.	-10.3772
▁actin	-10.3775
256	-10.3785
693	-10.3786
694	-10.3787
bia	-10.3789
bourg	-10.3798
623	-10.3799
▁1922	-10.3801
isohypsibius	-10.3802
894	-10.3803
756	-10.3803
689	-10.3811
695	-10.3814
982	-10.3817
296	-10.3822
258	-10.3837
822	-10.3838
ham	-10.3845
▁1902.	-10.3847
847	-10.3851
307	-10.3854
▁pal	-10.3855
382	-10.3862
ophio	-10.3863
223	-10.3864
▁her	-10.3868
illac	-10.387
▁1888	-10.3873
967	-10.3875
607	-10.3886
808	-10.3887
292	-10.3892
▁sur	-10.3899
228	-10.3908
339	-10.3911
609	-10.3916
349	-10.3923
ault	-10.393
226	-10.3941
gnath	-10.3945
▁1898.	-10.3947
▁lineidae	-10.3947
232	-10.3952
605	-10.3954
tetrastemma	-10.3959
265	-10.3963
537	-10.3964
655	-10.397
326	-10.3971
▁1930.	-10.3973
964	-10.3975
275	-10.3976
pl	-10.3979
401	-10.3981
yong	-10.3984
mal	-10.3987
435	-10.3988
▁5,	-10.3994
enne	-10.3995
▁eunicidae	-10.3998
▁1999.	-10.3998
829	-10.4007
helix	-10.4011
inidae	-10.4019
▁christian	-10.4023
▁ay	-10.4026
▁tu	-10.4026
▁1966.	-10.4027
ler	-10.403
atan	-10.403
vern	-10.4032
236	-10.4046
295	-10.4046
334	-10.4055
anne	-10.4062
353	-10.4079
▁ti	-10.408
683	-10.4081
848	-10.4082
229	-10.4084
520	-10.4093
▁bal	-10.4098
844	-10.41
▁dubia	-10.41
▁hubert	-10.41
278	-10.4102
▁amphi	-10.4103
▁pulo	-10.4104
rhinocricus	-10.4105
239	-10.4109
▁1954	-10.411
▁fe	-10.4119
327	-10.4128
▁bor	-10.4129
pp	-10.4131
740	-10.414
880	-10.4146
▁lamarck	-10.4147
nan	-10.4154
585	-10.4162
▁chaetonotus	-10.4168
savoie	-10.417
699	-10.4191
▁alba	-10.4193
895	-10.4194
mento	-10.42
▁1919.	-10.4203
363	-10.4205
ira	-10.4208
▁gipa	-10.421
276	-10.422
▁carter	-10.422
367	-10.4222
▁johan	-10.4228
527	-10.4229
▁oscar	-10.4242
697	-10.4244
ram	-10.4252
flor	-10.4254
637	-10.4256
diin	-10.4258
ophiothrix	-10.4277
▁simbahan	-10.4283
659	-10.4286
708	-10.4291
828	-10.4308
olaimus	-10.4312
dou	-10.4312
▁fl	-10.4313
770	-10.4315
ben	-10.4317
cr	-10.432
vaux	-10.4324
333	-10.4333
▁1995.	-10.4334
▁1968.	-10.4334
mga	-10.4338
axinella	-10.4338
▁2003.	-10.4339
av	-10.4341
277	-10.4344
long	-10.4346
▁katoliko	-10.435
llo	-10.4351
540	-10.4351
▁1866	-10.4361
▁orientalis	-10.4363
sphaer	-10.4363
692	-10.4365
vé	-10.4369
tang	-10.4371
fr	-10.4379
602	-10.4381
343	-10.4383
lepadella	-10.4386
▁1977	-10.4389
▁savoie	-10.4394
842	-10.4395
594	-10.4398
268	-10.4401
cey	-10.4401
â	-10.4403
fol	-10.4407
▁aveyron	-10.4409
ona	-10.4414
685	-10.4419
▁syllis	-10.442
uro	-10.443
▁bri	-10.4432
293	-10.4432
hyalonema	-10.4441
beau	-10.4449
696	-10.4451
325	-10.4455
583	-10.4458
▁ci	-10.4465
▁powell	-10.4466
▁cantal	-10.4467
298	-10.4471
323	-10.4473
650	-10.4477
849	-10.448
827	-10.4481
▁spongia	-10.4485
ker	-10.4492
▁arctica	-10.4493
▁1973.	-10.4493
baptiste	-10.4497
▁pont	-10.4503
▁ki	-10.4507
908	-10.451
966	-10.4514
757	-10.4516
▁ulohan	-10.4517
▁mirabilis	-10.4519
▁nahabilin	-10.4519
mil	-10.4522
414	-10.4526
monhystera	-10.4526
688	-10.4528
629	-10.4529
▁habagatan	-10.4538
▁1933	-10.4543
▁pra	-10.4543
639	-10.4545
▁variabilis	-10.4546
▁1957.	-10.4546
336	-10.4546
amphioplus	-10.4552
har	-10.4579
365	-10.4587
898	-10.4593
416	-10.4598
569	-10.46
635	-10.4601
222	-10.4603
433	-10.4615
gr	-10.4631
627	-10.4638
▁ple	-10.4641
633	-10.4654
sertularella	-10.4664
ik	-10.4666
630	-10.4678
▁human	-10.4678
▁mono	-10.4681
▁1887	-10.4683
702	-10.4684
656	-10.4688
774	-10.4694
272	-10.4695
▁gregoryan	-10.4701
▁vendée	-10.4709
▁echinorhynchus	-10.4714
759	-10.4714
332	-10.4722
tethya	-10.4723
▁kang	-10.473
▁6,	-10.4735
▁1937.	-10.4736
▁1992.	-10.4736
322	-10.4739
elles	-10.474
502	-10.474
865	-10.4741
658	-10.4746
262	-10.4746
315	-10.4753
753	-10.4753
473	-10.4755
▁1985.	-10.4763
vel	-10.4769
758	-10.4771
998	-10.4772
730	-10.4781
ts	-10.4788
960	-10.4789
hang	-10.4791
897	-10.4796
lit	-10.4805
rach	-10.4808
▁macrobiotus	-10.4815
gat	-10.4817
▁charopidae	-10.4818
▁reticulata	-10.4818
▁didto	-10.4819
▁dapit	-10.4819
317	-10.4825
543	-10.4826
dina	-10.4833
356	-10.4836
777	-10.4841
cellaria	-10.4842
ah	-10.4843
995	-10.4844
▁1926	-10.4845
▁1918.	-10.4847
▁1915.	-10.4847
ante	-10.4848
▁1956	-10.485
▁1952	-10.4851
tenui	-10.4859
pé	-10.4864
313	-10.4868
252	-10.4869
▁affinis	-10.4874
▁chaetonotidae	-10.4874
▁amihanang	-10.4875
▁17	-10.4877
509	-10.4877
▁my	-10.4878
687	-10.4888
actinia	-10.4895
▁corrèze	-10.4901
570	-10.4905
535	-10.4907
▁lan	-10.4917
589	-10.4917
▁km	-10.492
encentrum	-10.492
▁cas	-10.4922
mit	-10.493
▁ven	-10.4933
bor	-10.4935
▁bur	-10.4948
418	-10.4949
▁1864.	-10.4957
628	-10.4985
▁manila	-10.499
rio	-10.4996
parasmittina	-10.5008
▁2006.	-10.5008
inella	-10.501
▁schmidt	-10.5011
▁harmothoe	-10.5015
catus	-10.5017
▁ikaduha	-10.5018
329	-10.502
▁yvelines	-10.5023
▁den	-10.5024
▁1916	-10.5024
roy	-10.5025
595	-10.5029
laurent	-10.5042
820	-10.5044
▁ce	-10.5046
rh	-10.505
395	-10.5052
794	-10.5054
993	-10.5056
octopus	-10.5061
ulosa	-10.5062
gny	-10.5062
780	-10.5068
▁pugitagnukos	-10.507
525	-10.5071
pit	-10.5073
▁2001.	-10.5081
hou	-10.5091
773	-10.5091
▁hypsibiidae	-10.5098
▁dagat	-10.5099
980	-10.5099
419	-10.51
▁1758	-10.5102
763	-10.5106
592	-10.5107
olo	-10.511
▁sinugboanon	-10.5118
▁palibot	-10.5126
▁binisaya	-10.5126
▁laevis	-10.5126
▁armata	-10.5129
837	-10.513
653	-10.5131
vre	-10.5138
ray	-10.5139
astro	-10.5146
990	-10.5146
▁brevis	-10.5149
lot	-10.5152
▁lim	-10.5158
389	-10.517
scler	-10.5172
939	-10.5177
319	-10.518
▁1964.	-10.5184
352	-10.5194
856	-10.52
986	-10.52
ama	-10.5204
720	-10.5205
775	-10.5209
▁cairns	-10.5212
▁1987.	-10.5212
614	-10.5217
▁sin	-10.522
625	-10.5221
930	-10.5232
grand	-10.524
508	-10.524
362	-10.5248
paul	-10.5248
328	-10.525
tig	-10.5257
▁1932	-10.5262
▁min	-10.5265
morpha	-10.5269
▁creuse	-10.527
▁rhinocricidae	-10.527
950	-10.5277
316	-10.529
▁quadri	-10.5295
▁ludwig	-10.5299
bach	-10.5316
cidae	-10.5321
727	-10.5325
046	-10.5333
372	-10.5341
▁napulo	-10.5347
▁tan	-10.5351
▁1882.	-10.5357
▁gubat	-10.5359
▁callyspongia	-10.5359
▁1969	-10.536
habrotrocha	-10.5362
752	-10.5366
783	-10.5372
785	-10.5373
889	-10.5377
281	-10.538
lissodendoryx	-10.5393
discus	-10.5394
588	-10.54
ile	-10.5402
).	-10.5407
836	-10.5407
899	-10.5407
769	-10.541
▁madutlan	-10.5415
▁matag	-10.5416
▁hj	-10.5417
556	-10.5417
840	-10.5423
622	-10.5424
▁hymedesmia	-10.5426
271	-10.5428
378	-10.543
691	-10.5432
877	-10.5441
nong	-10.5445
996	-10.5453
acantho	-10.5456
az	-10.5464
834	-10.547
893	-10.547
788	-10.5473
523	-10.5474
amphi	-10.5479
790	-10.5483
ilo	-10.5487
624	-10.5487
997	-10.5494
ubang	-10.5503
▁australiensis	-10.5503
▁hangtod	-10.5503
617	-10.5505
887	-10.5506
657	-10.5507
▁1931	-10.5509
784	-10.551
762	-10.5512
869	-10.5515
955	-10.5517
▁bul	-10.5519
▁samar	-10.5524
▁spinosa	-10.5533
▁1962	-10.5538
▁1920	-10.554
nou	-10.5541
596	-10.5541
870	-10.5553
ado	-10.5561
rt	-10.5568
upat	-10.5569
asyon	-10.557
prionospio	-10.5579
926	-10.5584
859	-10.5587
fal	-10.5587
765	-10.5587
gol	-10.5591
▁leyte	-10.5592
▁gitawag	-10.5597
smittina	-10.5604
835	-10.5613
▁mcintosh	-10.5622
▁marcus	-10.5623
965	-10.5625
▁odostomia	-10.5626
868	-10.5629
973	-10.563
champ	-10.5636
821	-10.5638
our	-10.5643
allo	-10.5646
417	-10.5648
920	-10.5652
▁1950.	-10.5653
985	-10.5654
559	-10.5658
779	-10.5659
bus	-10.5659
▁mal	-10.5668
801	-10.5669
522	-10.5671
▁xystodesmidae	-10.5682
568	-10.5682
dio	-10.5683
345	-10.5709
▁1958.	-10.5713
994	-10.5717
▁mayenne	-10.5719
878	-10.5731
ble	-10.5733
768	-10.5734
577	-10.574
▁smittinidae	-10.5743
▁1940.	-10.5743
osoma	-10.5748
▁tr	-10.5752
vers	-10.5753
almar	-10.5754
▁bisaya	-10.5755
724	-10.5757
392	-10.5758
533	-10.5759
spira	-10.5767
872	-10.5768
838	-10.5771
▁pinaagi	-10.5773
▁1901.	-10.5773
ircinia	-10.5777
776	-10.5778
082	-10.5786
▁rosea	-10.5788
962	-10.5792
sson	-10.5799
241	-10.58
▁distrito	-10.5803
▁maculata	-10.5803
▁1895.	-10.5803
seine	-10.5803
▁1896	-10.5804
575	-10.5814
yer	-10.5815
war	-10.5816
bis	-10.5816
886	-10.5818
trichocerca	-10.5826
387	-10.5827
957	-10.5829
▁ad	-10.5835
597	-10.5836
vir	-10.5843
734	-10.5844
619	-10.5845
▁helix	-10.5849
halecium	-10.5857
892	-10.5859
▁walter	-10.5865
789	-10.5868
ice	-10.5878
amphiporus	-10.5889
▁1963.	-10.5895
▁ramosa	-10.5896
385	-10.5899
725	-10.5908
papill	-10.591
port	-10.591
953	-10.5915
723	-10.5917
558	-10.592
976	-10.5923
▁carlgren	-10.5926
▁1939.	-10.5926
901	-10.5929
376	-10.5934
oy	-10.5938
923	-10.5942
ulan	-10.5944
by	-10.5945
crypto	-10.5945
049	-10.5948
hol	-10.5949
▁fr	-10.5951
729	-10.5953
▁1955.	-10.5957
963	-10.5959
879	-10.5981
743	-10.5982
château	-10.5984
▁datos	-10.5988
737	-10.599
ji	-10.5996
opus	-10.6004
roc	-10.6017
▁monhysteridae	-10.6019
▁1899.	-10.6019
855	-10.6031
383	-10.6031
▁kapos	-10.6034
▁ste	-10.6038
one	-10.6041
amp	-10.6042
illon	-10.6042
557	-10.6043
▁har	-10.6045
047	-10.6045
▁burton	-10.6051
cel	-10.6055
380	-10.6055
▁cir	-10.6056
318	-10.6058
▁bisan	-10.6061
sec	-10.6066
772	-10.6082
julien	-10.6085
943	-10.6095
▁lumbrineris	-10.6097
▁cephalodella	-10.6098
786	-10.6107
▁magna	-10.6107
858	-10.6109
▁2004.	-10.6113
954	-10.6113
anthus	-10.6117
999	-10.6118
▁tur	-10.612
793	-10.6123
bos	-10.6131
261	-10.6134
ais	-10.6139
▁sertulariidae	-10.6144
863	-10.6153
787	-10.6162
cri	-10.6174
726	-10.6186
555	-10.6196
857	-10.6203
ischnochiton	-10.6212
ensya	-10.6223
pol	-10.6227
▁tig	-10.6233
▁census	-10.6239
▁phidoloporidae	-10.6239
▁1974	-10.6252
970	-10.6256
883	-10.6257
fontaine	-10.6258
616	-10.6263
929	-10.6265
▁morbihan	-10.6271
▁cl	-10.6274
934	-10.6282
▁gigamit	-10.6284
914	-10.6294
716	-10.6296
lag	-10.6297
▁myers	-10.63
let	-10.63
952	-10.6303
▁chilensis	-10.6305
noy	-10.6309
572	-10.6309
▁romano	-10.6316
denis	-10.6321
sul	-10.6322
7	-10.6323
799	-10.6323
916	-10.6326
▁pagpa	-10.6326
▁onuphidae	-10.6335
▁viridis	-10.6335
▁1865	-10.6336
▁echiniscus	-10.6356
▁2	-10.636
thal	-10.6362
▁ophiacantha	-10.6365
▁1917.	-10.6367
neanthes	-10.6377
conus	-10.6377
spinotarsus	-10.6378
▁stelletta	-10.6379
vienne	-10.6381
porella	-10.6381
sar	-10.6386
igné	-10.6388
978	-10.6391
▁finistère	-10.6399
▁1941.	-10.6399
▁fisher	-10.6402
933	-10.6405
▁ger	-10.641
hydroides	-10.6411
myxilla	-10.6411
sel	-10.6413
341	-10.6414
▁gray	-10.6414
peri	-10.6425
pas	-10.6441
924	-10.6453
lom	-10.646
▁ornata	-10.6464
048	-10.6465
obdella	-10.6466
cliona	-10.648
959	-10.6481
373	-10.6482
361	-10.6489
938	-10.6491
359	-10.6492
tura	-10.6493
042	-10.6496
▁bohol	-10.6497
▁1935	-10.6501
tier	-10.6505
312	-10.6505
536	-10.6506
anan	-10.6517
zel	-10.6518
852	-10.6519
tour	-10.6519
▁qu	-10.6521
georges	-10.6524
956	-10.6525
751	-10.6525
850	-10.6537
▁alpes	-10.6538
tsch	-10.6549
▁lepto	-10.6552
▁pachy	-10.6557
▁1883	-10.6563
937	-10.657
927	-10.6577
922	-10.6582
clav	-10.6592
591	-10.6593
tetranchyroderma	-10.6595
▁unionidae	-10.6595
▁1994.	-10.6595
778	-10.66
uy	-10.6601
▁bon	-10.6604
853	-10.6619
932	-10.6619
968	-10.662
875	-10.6626
asi	-10.6627
▁henrik	-10.6631
pur	-10.6643
melan	-10.6647
up	-10.665
▁rho	-10.6654
hard	-10.6656
▁thiele	-10.6661
917	-10.6668
935	-10.6671
chapelle	-10.6683
369	-10.6683
▁joseph	-10.67
651	-10.6724
usa	-10.673
▁daghang	-10.6733
▁pulong	-10.6736
▁gidak	-10.6737
lain	-10.6744
066	-10.6759
▁naga	-10.6761
thelepus	-10.6761
▁7,	-10.6762
▁sim	-10.6762
975	-10.6763
992	-10.6764
576	-10.6765
▁1934	-10.6774
745	-10.6781
ize	-10.6781
▁champ	-10.6786
797	-10.6789
mas	-10.6794
▁1870.	-10.6794
▁enero	-10.6795
chiton	-10.6803
979	-10.6803
▁ant	-10.6808
▁cla	-10.6812
945	-10.6819
067	-10.682
843	-10.682
bac	-10.6824
▁goniasteridae	-10.6828
798	-10.6829
chela	-10.6844
379	-10.6857
agi	-10.6858
732	-10.6858
▁caryophylliidae	-10.6862
mia	-10.6866
▁cour	-10.6888
henricia	-10.6891
▁ginganla	-10.6896
tub	-10.6898
736	-10.6898
357	-10.69
ute	-10.6907
796	-10.691
▁cerebratulus	-10.6911
▁mé	-10.6912
iti	-10.6918
545	-10.692
tti	-10.6922
398	-10.6924
dactyl	-10.6926
év	-10.6928
villiers	-10.6928
681	-10.6932
581	-10.6939
221	-10.694
bin	-10.6941
ota	-10.6948
910	-10.6951
onuphis	-10.6953
cap	-10.6959
▁1944.	-10.6964
▁2010	-10.6969
▁tom	-10.6974
hay	-10.6977
833	-10.6982
528	-10.6987
832	-10.6994
845	-10.6995
▁sibogae	-10.6998
▁formosa	-10.6998
▁bituon	-10.6998
▁1868.	-10.6998
phorus	-10.7001
dom	-10.7008
988	-10.701
ung	-10.7012
983	-10.7012
541	-10.7027
▁lumbrineridae	-10.7032
▁tuberculata	-10.7032
▁africana	-10.7033
▁allgen	-10.7033
rom	-10.7034
▁1951	-10.7041
polydora	-10.7065
▁nidariya	-10.7067
▁nikolai	-10.7067
231	-10.7083
969	-10.7098
▁notommatidae	-10.7102
▁moore	-10.7102
dun	-10.7102
herm	-10.7107
croix	-10.7107
illé	-10.7108
▁estado	-10.7115
▁albert	-10.7117
860	-10.7125
▁kilometros	-10.7127
ridae	-10.7129
▁irregularis	-10.7136
▁1976.	-10.7137
kenthal	-10.7137
615	-10.714
orthoporus	-10.714
plumularia	-10.714
▁fusca	-10.7144
aga	-10.715
andré	-10.7153
529	-10.7162
melithaea	-10.7176
gay	-10.7182
▁sidlakang	-10.7187
▁gitudlo	-10.7194
719	-10.7195
839	-10.7209
epi	-10.7212
reteporella	-10.7213
▁beau	-10.7213
781	-10.7217
én	-10.7218
386	-10.7221
▁gal	-10.7222
739	-10.7223
▁ur	-10.7229
eaux	-10.7231
hr	-10.724
▁maldanidae	-10.7241
▁pulchra	-10.7241
dae	-10.7246
atlantique	-10.7246
leptogorgia	-10.7249
oncholaimus	-10.7254
▁u	-10.7266
alia	-10.7267
roux	-10.7275
▁pallida	-10.7276
▁kinatib	-10.7277
▁1947	-10.7278
gor	-10.7279
▁acanth	-10.7287
532	-10.7291
358	-10.7292
▁2005.	-10.7295
▁por	-10.7313
936	-10.732
987	-10.7333
717	-10.7334
331	-10.7339
▁rudolph	-10.7339
▁kodigo	-10.7347
▁rugosa	-10.7347
515	-10.7348
▁pul	-10.7348
ox	-10.7355
▁is	-10.7357
micro	-10.7358
873	-10.7364
sten	-10.7366
▁phyllodoce	-10.7378
▁os	-10.738
▁ancorinidae	-10.7383
▁camp	-10.7384
792	-10.7389
▁halichondria	-10.7389
roche	-10.7389
euil	-10.7394
951	-10.7402
▁im	-10.7402
ib	-10.7405
715	-10.7412
tou	-10.7425
pra	-10.7425
▁jo	-10.7434
yang	-10.7442
pista	-10.7446
377	-10.7447
991	-10.7448
nais	-10.7455
▁1953.	-10.7455
▁1890	-10.7456
▁1894	-10.7462
▁nutting	-10.7469
stephan	-10.7475
▁dom	-10.7481
▁sol	-10.7482
▁cam	-10.7482
▁laubenfels	-10.749
rhadinorhynchus	-10.7494
diphascon	-10.7507
tedania	-10.7507
siphonophora	-10.7508
▁ampharetidae	-10.7526
▁calloporidae	-10.7526
▁halichondriidae	-10.7526
▁zamboanga	-10.7526
553	-10.753
glycera	-10.7541
sycon	-10.7546
rella	-10.7548
onville	-10.7551
▁nel	-10.7552
▁inter	-10.7557
▁rigida	-10.7563
▁enchytraeidae	-10.7563
▁kapital	-10.7563
912	-10.7571
813	-10.7579
bay	-10.7583
vus	-10.7587
ring	-10.7587
▁sepia	-10.759
▁amihanan	-10.759
uz	-10.759
▁leucandra	-10.7599
wal	-10.7601
▁adams	-10.7602
ochaeta	-10.7608
599	-10.7611
may	-10.7615
hydra	-10.7617
795	-10.7629
suberites	-10.763
▁bugulidae	-10.7636
▁gigantea	-10.7636
▁swakigtuyom	-10.7636
▁punctata	-10.7637
▁1872	-10.7637
▁alan	-10.7639
722	-10.7648
hem	-10.7649
celleporaria	-10.7658
291	-10.7664
▁kalibotan	-10.7668
▁astropecten	-10.767
sulat	-10.767
himong	-10.7672
▁inermis	-10.7672
▁muricidae	-10.7672
▁2002.	-10.7672
▁1846	-10.7674
hondt	-10.7675
375	-10.7676
jan	-10.7677
▁phascolosoma	-10.7679
713	-10.7689
leptochiton	-10.7696
989	-10.7696
camp	-10.7706
chal	-10.7708
orientales	-10.7709
▁postal	-10.7709
▁1943.	-10.7709
pat	-10.771
▁scott	-10.7711
972	-10.7713
▁1923	-10.7715
ente	-10.7718
▁kasaysayan	-10.7719
▁rhinocricus	-10.7723
817	-10.7724
mag	-10.7724
▁sta	-10.7724
cour	-10.7727
561	-10.7727
ich	-10.7729
ste	-10.7739
374	-10.7749
▁coe	-10.7757
▁anti	-10.7762
918	-10.7764
age	-10.7765
hypsibius	-10.7772
petit	-10.7772
lumbricillus	-10.7773
gamit	-10.7773
diparti	-10.7777
iko	-10.7778
▁arc	-10.7786
771	-10.7794
▁bru	-10.7808
perinereis	-10.7812
▁1877	-10.7822
▁kor	-10.7842
gli	-10.7842
▁marso	-10.7845
815	-10.7845
lini	-10.7847
cru	-10.7847
odontopyge	-10.7849
phascolosoma	-10.785
▁charles	-10.7862
▁bel	-10.7869
ting	-10.7877
▁glob	-10.7877
corse	-10.788
ova	-10.7887
▁astro	-10.789
loc	-10.7895
381	-10.7898
▁7	-10.7915
915	-10.7916
elimia	-10.7927
eurypon	-10.7932
▁hymedesmiidae	-10.7932
▁1980.	-10.7933
▁sabella	-10.7941
▁mes	-10.7962
oceanapia	-10.7966
▁rubra	-10.797
▁tulo	-10.797
▁tanan	-10.7971
▁mesnil	-10.7974
913	-10.7975
958	-10.7988
▁kaniya	-10.7988
lens	-10.8012
pot	-10.8016
antho	-10.8022
spirobolus	-10.8034
lier	-10.8043
▁situat	-10.8046
▁striata	-10.8048
▁ehlers	-10.8051
plan	-10.8058
▁lam	-10.8058
plac	-10.8073
datu	-10.8078
862	-10.8082
▁arnold	-10.8084
hilaire	-10.8084
▁minima	-10.8084
▁pre	-10.8087
▁occidentalis	-10.8088
uff	-10.8097
▁bin	-10.8097
▁lou	-10.8112
ampharete	-10.8122
▁oculata	-10.8123
spirorbis	-10.8124
006	-10.8128
▁carpenter	-10.8132
▁sinularia	-10.8135
▁hincks	-10.8138
560	-10.8153
563	-10.8155
salpidobolus	-10.8161
▁astropectinidae	-10.8161
ophelia	-10.8163
serpula	-10.8164
eulalia	-10.8164
▁essonne	-10.8178
▁epi	-10.8179
791	-10.8188
tera	-10.8189
▁acropora	-10.8193
isse	-10.8198
▁kasaranga	-10.82
▁watson	-10.82
aubin	-10.8203
▁1975	-10.8205
▁lar	-10.8219
▁imp	-10.8222
▁polynoe	-10.8223
hetero	-10.8225
552	-10.8226
oteuthis	-10.8236
▁vel	-10.8238
▁lozère	-10.8238
▁sowerby	-10.8238
dendro	-10.824
▁1869	-10.824
919	-10.8252
▁port	-10.8256
zé	-10.8263
▁geodia	-10.8276
▁ophiacanthidae	-10.8277
▁talaan	-10.8278
wan	-10.8282
▁stylasteridae	-10.8282
851	-10.8289
plectus	-10.829
astr	-10.8293
willer	-10.8315
▁buccinidae	-10.8316
▁quadrado	-10.8317
▁1873	-10.8319
▁cro	-10.8321
▁th	-10.8322
loxosomella	-10.8325
bru	-10.8335
368	-10.8344
▁inc	-10.8346
009	-10.8348
notomastus	-10.8356
▁mou	-10.8366
roi	-10.8366
vieux	-10.8372
▁thomson	-10.8381
mai	-10.8384
iens	-10.8387
891	-10.8388
gal	-10.8389
▁sar	-10.8395
▁macrobiotidae	-10.8395
▁rou	-10.8396
▁ag	-10.8401
wo	-10.8407
";	-10.8412
▁katawo	-10.8415
562	-10.8422
▁oriental	-10.8431
doris	-10.8465
▁celleporidae	-10.8474
▁lea	-10.8475
pili	-10.8484
▁bé	-10.8492
▁neoechinorhynch	-10.8494
397	-10.8499
thyr	-10.8499
cten	-10.8516
▁ridley	-10.8525
anadenobolus	-10.853
microporella	-10.853
way	-10.8531
styla	-10.8538
▁abril	-10.854
bun	-10.8543
▁amerika	-10.8547
571	-10.8547
▁lima	-10.8547
▁davao	-10.8554
▁blake	-10.8554
▁mahimong	-10.856
▁lineus	-10.8562
871	-10.8573
▁milne	-10.8594
pag	-10.8623
▁isohypsibius	-10.8626
▁philodinidae	-10.8634
▁1942.	-10.8634
▁kabayo	-10.8635
▁micr	-10.8637
▁kasadpang	-10.8639
ède	-10.8645
siphon	-10.8667
rhiz	-10.8669
pres	-10.8671
spirobolellus	-10.8675
rivière	-10.8678
pasabot	-10.8679
rhysodesmus	-10.8697
marie	-10.8698
812	-10.8703
▁meta	-10.8705
▁dicranophoridae	-10.8716
761	-10.8718
timea	-10.8737
bell	-10.8745
▁hyalonema	-10.8753
▁douglas	-10.8756
▁raspailiidae	-10.8756
▁friedrich	-10.876
ochalina	-10.876
521	-10.8774
macrotrachela	-10.8781
stylaster	-10.8782
▁agosto	-10.8786
941	-10.8788
ery	-10.879
▁robert	-10.8792
▁silvestri	-10.8797
▁papillosa	-10.8797
▁pilsbry	-10.88
▁prob	-10.8806
977	-10.8809
peripatus	-10.8814
▁ten	-10.8823
centrorhynchus	-10.8824
▁tetrastemma	-10.8831
▁peter	-10.8838
▁acroporidae	-10.8839
▁echiniscidae	-10.8839
▁americana	-10.884
▁gawas	-10.8842
▁juan	-10.8845
bang	-10.8854
dame	-10.8854
log	-10.8856
▁tour	-10.8858
321	-10.8862
861	-10.8866
anti	-10.8866
eil	-10.8879
▁lamang	-10.8882
eb	-10.8883
act	-10.8883
fil	-10.8884
▁fauchald	-10.8887
four	-10.8892
ema	-10.8898
loup	-10.8903
▁20	-10.8918
lim	-10.8919
dentalium	-10.8932
vincent	-10.8948
eur	-10.8949
ceratonereis	-10.8952
terebella	-10.8953
▁magsusulat	-10.8963
▁brasiliensis	-10.8963
▁1892.	-10.8963
▁lepadella	-10.8963
▁ole	-10.8965
741	-10.8977
881	-10.8993
try	-10.8994
lor	-10.8998
meta	-10.8998
▁aglaopheniidae	-10.9005
▁patricia	-10.9005
981	-10.9032
▁mart	-10.9035
▁hemi	-10.9036
acanthocephalus	-10.9046
▁insignis	-10.9047
taw	-10.9054
▁cobb	-10.9066
hin	-10.9068
abi	-10.9072
aucourt	-10.9081
▁cri	-10.9082
▁cornuta	-10.9093
▁candidae	-10.9094
▁cebu	-10.9098
neville	-10.91
gros	-10.9101
▁nahimo	-10.9103
mou	-10.9104
▁day	-10.9107
▁tugpahanan	-10.9124
raspailia	-10.9127
513	-10.9128
ney	-10.9131
étienne	-10.9131
lau	-10.9133
▁mollis	-10.9134
▁ophiothrix	-10.9138
▁tibuok	-10.9159
mann	-10.9161
issa	-10.9167
▁abyssicola	-10.9174
▁verrucosa	-10.9174
agelas	-10.9174
▁ophiura	-10.9176
crisia	-10.9177
ski	-10.9191
▁je	-10.9192
tong	-10.9198
971	-10.9206
polymastia	-10.9207
▁mus	-10.9208
▁sertularella	-10.9211
theristus	-10.9216
▁geodiidae	-10.9217
▁gorgoniidae	-10.9217
▁pusilla	-10.9217
▁1925.	-10.9217
▁wieser	-10.9219
▁axinella	-10.922
▁quin	-10.922
abot	-10.9241
▁asterias	-10.9241
cast	-10.9244
▁santo	-10.9245
arc	-10.9254
▁cirratulidae	-10.926
▁negros	-10.926
▁1921.	-10.9261
▁mipuli	-10.9261
ock	-10.9274
je	-10.9286
ange	-10.9288
mun	-10.9293
▁occidental	-10.9299
luc	-10.93
▁kraus	-10.9303
▁cylindrica	-10.9303
▁primnoidae	-10.9303
▁pamilya	-10.9303
▁digitata	-10.9303
ulu	-10.9306
▁new	-10.9312
921	-10.9335
▁amphioplus	-10.9337
▁8,	-10.9341
montipora	-10.9349
hymeniacidon	-10.9349
rens	-10.9359
vent	-10.9365
pul	-10.937
cant	-10.9373
giovanni	-10.9389
▁robustus	-10.9389
▁ophi	-10.9391
911	-10.9391
▁rhône	-10.9397
nella	-10.9397
calli	-10.9402
▁bata	-10.9406
gil	-10.9409
lico	-10.9413
poecilia	-10.9428
chaperiopsis	-10.9433
▁bergquist	-10.9433
▁filippo	-10.9433
▁hin	-10.9434
plect	-10.9436
▁gon	-10.9436
yu	-10.9439
celleporina	-10.9439
aricidea	-10.9439
▁2007.	-10.9444
▁pat	-10.9446
ral	-10.9449
▁harmer	-10.9455
ancourt	-10.9455
▁vo	-10.9458
use	-10.9462
sis	-10.9464
▁gina	-10.947
▁iredale	-10.9477
399	-10.9479
▁1876	-10.948
▁italya	-10.9484
phorbas	-10.9485
sertularia	-10.9485
marphysa	-10.9486
▁trans	-10.9489
grania	-10.9489
▁hulyo	-10.9495
005	-10.9496
muricea	-10.9496
eau	-10.951
antipathes	-10.9515
▁buhok	-10.9521
▁nathan	-10.9522
ome	-10.9525
som	-10.9535
▁imajima	-10.9544
▁théo	-10.9548
uru	-10.9554
▁str	-10.9557
311	-10.956
▁francis	-10.9563
▁tixier	-10.9565
▁glabra	-10.9565
orbigny	-10.9566
▁studer	-10.9567
alcyonium	-10.9576
phile	-10.9581
▁nigra	-10.9588
008	-10.9594
lieu	-10.9601
escharella	-10.961
▁mycalidae	-10.961
▁n	-10.9612
▁1857	-10.9612
actin	-10.9614
mur	-10.9616
aglaophenia	-10.9622
▁we	-10.9635
▁cribr	-10.9644
▁mibah	-10.9645
▁monhystera	-10.9647
pyrgulopsis	-10.9654
pou	-10.9656
▁8	-10.9656
oglypha	-10.9663
maurice	-10.9668
▁nailhan	-10.9674
bonne	-10.9681
▁jan	-10.9698
synchaeta	-10.9699
▁1949.	-10.9699
aut	-10.9701
ast	-10.9707
asse	-10.9712
▁maria	-10.9728
tion	-10.9733
ada	-10.9741
himo	-10.9741
▁hutchings	-10.9744
▁alfred	-10.9744
▁pellucida	-10.9744
châtel	-10.9762
ance	-10.9766
731	-10.9789
▁asya	-10.979
▁lanao	-10.979
fort	-10.9796
▁levi	-10.9803
albi	-10.9805
eudendrium	-10.9809
ao	-10.981
ido	-10.9824
▁antarcticus	-10.9835
▁lineata	-10.9837
exogone	-10.9841
are	-10.9844
acanthochitona	-10.9856
▁dentaliidae	-10.9881
▁1867.	-10.9881
▁1875	-10.9883
nemertesia	-10.9887
▁anak	-10.9888
▁parasmittina	-10.9894
uch	-10.9897
champs	-10.9898
voi	-10.9905
hér	-10.991
una	-10.9911
olivella	-10.9927
palythoa	-10.9927
▁incrustans	-10.9927
corynosoma	-10.9927
▁1860.	-10.9927
gua	-10.9934
▁soule	-10.9935
nephtys	-10.9951
marc	-10.9955
ef	-10.9963
amphitrite	-10.9967
calyx	-10.9971
▁typosyllis	-10.9971
▁1861.	-10.9973
▁uropa	-10.9973
▁theodor	-10.9977
sud	-10.9981
sphaerosyllis	-10.9987
jon	-11.0007
▁gerlach	-11.0008
▁villers	-11.0012
latrunculia	-11.0019
▁chromadoridae	-11.0019
▁compressa	-11.0019
▁gustaf	-11.0019
▁hitler	-11.0019
▁republika	-11.0019
meso	-11.0021
win	-11.0027
heterodrilus	-11.0034
▁kasadpan	-11.0035
anda	-11.0038
ati	-11.004
ophryotrocha	-11.0047
desmoscolex	-11.0047
zephronia	-11.0047
ivault	-11.0066
▁smith	-11.0081
▁tethya	-11.0085
vigny	-11.0089
▁augener	-11.0094
baseodiscus	-11.0112
terebellides	-11.0112
▁sudlay	-11.0112
gordius	-11.0114
▁ram	-11.0123
arthrosphaera	-11.0125
▁ban	-11.0126
oria	-11.0135
vet	-11.0136
▁hentschel	-11.0159
▁don	-11.0159
epizoanthus	-11.0161
▁mos	-11.0164
plou	-11.0169
uf	-11.017
▁sars	-11.0177
▁murray	-11.0178
bec	-11.0188
vert	-11.0197
▁aurantiaca	-11.0207
freyella	-11.0208
▁1834	-11.0217
▁encentrum	-11.0222
uze	-11.0226
velle	-11.0226
▁habrotrocha	-11.0244
▁pseud	-11.0248
viscosia	-11.0254
trix	-11.0258
▁bansa	-11.0267
▁disyembre	-11.027
▁isla	-11.0284
▁lissodendoryx	-11.029
illes	-11.0297
phellia	-11.0299
oenopota	-11.0301
▁oncholaimidae	-11.0301
▁edmond	-11.0301
esperiopsis	-11.0301
▁axinellidae	-11.0301
tot	-11.0303
▁cliona	-11.0321
ago	-11.0332
caryophyllia	-11.034
michel	-11.0341
papa	-11.0341
▁mur	-11.0342
epitonium	-11.0349
notoplites	-11.0349
▁sigalionidae	-11.0349
▁grantiidae	-11.0349
smittoidea	-11.035
▁op	-11.035
bains	-11.035
▁fraser	-11.0351
tricho	-11.0353
campanularia	-11.0354
▁lepidonotus	-11.0356
▁2,0	-11.0361
ela	-11.0368
gula	-11.0369
tron	-11.0372
▁mayo	-11.0375
unang	-11.0377
rigny	-11.0385
polyxenus	-11.0385
tetilla	-11.039
hir	-11.039
ophiactis	-11.0392
721	-11.0395
fissidentalium	-11.0397
▁annulata	-11.0397
commonsdelinker	-11.0397
chordodes	-11.0398
echinaster	-11.04
tay	-11.0411
▁not	-11.0414
▁opisyal	-11.0429
jar	-11.0429
▁9,	-11.043
nans	-11.044
mesnil	-11.0444
▁abyssorum	-11.0446
▁ikalima	-11.0447
▁soest	-11.0447
ight	-11.0447
nsis	-11.045
bosc	-11.0456
▁solem	-11.0457
▁victor	-11.0462
aire	-11.0471
▁1,4	-11.0476
apil	-11.0481
▁thi	-11.0489
scolelepis	-11.049
cent	-11.0491
▁callyspongiidae	-11.0494
▁mexicana	-11.0494
disporella	-11.0496
▁1852	-11.0497
tox	-11.0512
kuha	-11.053
cephalothrix	-11.0543
pherusa	-11.0543
thyropygus	-11.0543
▁pocock	-11.0543
▁reeve	-11.0543
nom	-11.0544
9	-11.0544
▁actiniidae	-11.0544
▁trichocerca	-11.0556
▁ann	-11.0561
▁karl	-11.0565
▁iran	-11.0571
▁roche	-11.0571
rolles	-11.0574
thenea	-11.058
plexaura	-11.0581
dysidea	-11.0592
lytocarpia	-11.0592
▁lecanidae	-11.0592
▁simbolo	-11.0592
▁duola	-11.0593
eff	-11.0593
nta	-11.0596
▁kinberg	-11.0596
▁octopus	-11.06
▁amphiporus	-11.0602
cala	-11.0602
▁halecium	-11.0603
siya	-11.0606
ador	-11.061
▁roma	-11.0616
▁hydroides	-11.0623
▁ii	-11.0624
kia	-11.0631
▁aspera	-11.0636
ocephalus	-11.0637
▁jensen	-11.0641
▁iloilo	-11.0641
▁mau	-11.0642
▁mala	-11.0642
pisione	-11.0644
▁pagsulat	-11.0645
colus	-11.0654
othe	-11.0664
law	-11.0666
▁sidlakan	-11.0671
511	-11.0677
▁kinatsila	-11.0686
▁zephroniidae	-11.0691
▁hooper	-11.0691
mini	-11.0691
rhynchozoon	-11.0694
mot	-11.0695
vig	-11.0695
bur	-11.0698
ischnochitonidae	-11.0699
vol	-11.0709
▁verrilli	-11.0712
gran	-11.0718
chone	-11.0719
▁smittina	-11.0719
kar	-11.0722
tol	-11.0731
tem	-11.0734
edwardsia	-11.0736
pycnophyes	-11.074
▁coelosphaeridae	-11.074
nothria	-11.074
▁major	-11.074
▁conrad	-11.0741
▁papillata	-11.0743
alcyonidium	-11.0745
▁9	-11.0753
056	-11.0759
ding	-11.0765
cry	-11.0786
063	-11.0787
▁intermedius	-11.079
▁truncata	-11.079
▁1842.	-11.079
dicranophorus	-11.0797
marionina	-11.0797
spirostreptus	-11.08
ure	-11.08
▁pana	-11.0805
brie	-11.082
éville	-11.0829
tawo	-11.0831
branchiomma	-11.0841
minibiotus	-11.0841
craniella	-11.0841
kinbergonuphis	-11.0843
abietinaria	-11.0844
▁anaa	-11.0857
itan	-11.0866
▁kultura	-11.0876
▁pis	-11.0877
bour	-11.0885
gellius	-11.0889
lemnalia	-11.0891
▁dorvilleidae	-11.0891
▁mediterranea	-11.0891
▁treadwell	-11.0891
▁vaucluse	-11.0891
▁carinata	-11.0891
▁dispar	-11.0892
▁arm	-11.0896
lie	-11.0898
kon	-11.0901
olles	-11.0908
▁clavata	-11.0915
rhabd	-11.0925
▁ischnochiton	-11.0925
hemi	-11.0932
ouville	-11.0939
▁kubotan	-11.0942
protula	-11.0942
▁echino	-11.0945
beania	-11.0954
▁bay	-11.0955
pre	-11.0957
trem	-11.097
bata	-11.097
bot	-11.0972
adi	-11.0975
unci	-11.0978
350	-11.0982
diopatra	-11.0986
pectin	-11.0988
cio	-11.0988
awa	-11.0992
▁alexander	-11.0993
notoplax	-11.0993
echinoclathria	-11.1004
▁kirkpatrick	-11.1006
nidae	-11.1018
zer	-11.1022
encourt	-11.1023
▁gui	-11.103
078	-11.1037
amphipholis	-11.1044
desmacella	-11.1044
▁quatrefages	-11.1044
petrosia	-11.1054
buccinum	-11.106
olavius	-11.106
caecum	-11.106
odonta	-11.1062
▁siphonophora	-11.1071
bag	-11.1093
▁hesionidae	-11.1096
▁macgillivray	-11.1096
▁kasagaran	-11.1096
▁sistema	-11.1096
pectinaria	-11.1096
▁sulod	-11.11
▁tunga	-11.1113
▁armand	-11.1114
lobophytum	-11.1114
▁bol	-11.1115
▁cat	-11.1116
ive	-11.1116
culosa	-11.1118
loph	-11.1123
▁kagamhanan	-11.1124
poly	-11.1127
▁lit	-11.1137
hag	-11.1141
ite	-11.1142
▁spirorbis	-11.1145
spheciospongia	-11.1148
turbicellepora	-11.1148
▁1862.	-11.1148
▁teres	-11.1152
▁mol	-11.1153
hip	-11.1155
quin	-11.1158
aul	-11.116
▁mortensen	-11.1163
spongilla	-11.1167
schizoporella	-11.1167
siboglinum	-11.1168
gadila	-11.1168
▁antho	-11.1175
vil	-11.1179
▁mindanao	-11.1186
032	-11.1195
chau	-11.1195
cyr	-11.1196
asterina	-11.1199
asteroschema	-11.12
halosydna	-11.12
buc	-11.1202
tungang	-11.1202
▁av	-11.1205
ssac	-11.1206
echin	-11.1216
▁ele	-11.1216
▁tar	-11.122
balanophyllia	-11.1222
polycirrus	-11.1222
brachionus	-11.1222
reniera	-11.1222
mtang	-11.1226
▁diha	-11.1228
clymene	-11.1232
▁spinotarsus	-11.1234
811	-11.1239
stereonephthya	-11.1252
streblosoma	-11.1252
▁brunnea	-11.1252
▁1891	-11.1254
èze	-11.1255
illat	-11.1257
crella	-11.126
rep	-11.1266
fro	-11.1276
▁richard	-11.1276
chrysogorgia	-11.1276
hydractinia	-11.1276
micrura	-11.1276
acanthogorgia	-11.1276
▁kluge	-11.1278
sh	-11.128
gau	-11.1285
pseud	-11.1287
040	-11.1288
otti	-11.1298
▁simon	-11.1298
sphaerodoropsis	-11.1305
sphaerotherium	-11.1305
▁capitellidae	-11.1305
▁fallax	-11.1305
▁violacea	-11.1305
corymorpha	-11.1305
microphthalmus	-11.1305
guer	-11.1306
callopora	-11.1308
tog	-11.131
rieux	-11.1318
▁dr	-11.132
acanthella	-11.132
tubulipora	-11.1331
isodictya	-11.1331
▁ana	-11.1338
▁fra	-11.1342
félix	-11.1358
lepidozona	-11.1358
▁suberitidae	-11.1358
cheiraster	-11.1358
farrea	-11.1358
▁asteriidae	-11.1358
léger	-11.136
aba	-11.1376
cladiella	-11.1385
luidia	-11.1386
cam	-11.1386
ecto	-11.1389
▁topsenti	-11.1391
nau	-11.1399
div	-11.1401
dala	-11.1402
▁flabellum	-11.1403
obra	-11.1405
▁veron	-11.1405
098	-11.1406
▁gla	-11.1408
chaetozone	-11.1411
nassarius	-11.1411
▁obscura	-11.1411
▁floridana	-11.1413
ophioderma	-11.1416
tun	-11.1418
▁serrata	-11.1419
sigm	-11.1422
hatag	-11.1423
buhat	-11.1428
ninoe	-11.1431
▁luci	-11.1434
▁nan	-11.1439
aphrodita	-11.1441
reville	-11.1447
digit	-11.1459
crassispira	-11.1464
notholca	-11.1464
▁osburn	-11.1464
▁spiralis	-11.1464
antalis	-11.1465
ane	-11.1486
xenia	-11.149
▁glycera	-11.1491
blan	-11.1491
cerithiopsis	-11.1496
cirratulus	-11.1496
nel	-11.15
073	-11.1502
▁war	-11.1504
loi	-11.1507
wat	-11.1508
▁alta	-11.151
▁plumularia	-11.1512
neuf	-11.1513
amphicteis	-11.1518
inebreyo	-11.1518
spirobranchus	-11.1518
▁hirsuta	-11.1518
▁henricia	-11.1525
tigny	-11.1529
▁all	-11.1529
▁myxilla	-11.1552
magelona	-11.1552
halalaimus	-11.1552
▁pr	-11.1571
macellicephala	-11.1572
▁harpagophoridae	-11.1572
▁1948.	-11.1572
▁1863	-11.1576
▁proto	-11.1582
▁sen	-11.1583
tino	-11.1584
lans	-11.1591
▁mangeli	-11.1593
kit	-11.1599
cadulus	-11.1608
sabellaria	-11.161
▁neuville	-11.1613
montagne	-11.1622
ennes	-11.1622
▁nahi	-11.1623
▁iningles	-11.1625
osthimosia	-11.1626
▁aculeata	-11.1626
▁armadura	-11.1626
▁elongatus	-11.1626
▁mosunod	-11.1628
▁solida	-11.1628
▁1856	-11.163
pseudechiniscus	-11.1633
proto	-11.1635
eville	-11.1642
▁verseveldt	-11.1643
▁oligacanth	-11.166
doto	-11.1661
gel	-11.1662
eunoe	-11.1665
fenestrulina	-11.1665
bit	-11.167
duc	-11.1671
uban	-11.1674
▁yuta	-11.1676
▁serpula	-11.1677
gymnangium	-11.1681
xestospongia	-11.1681
▁sladen	-11.1681
haut	-11.1681
arion	-11.1684
sign	-11.1694
ate	-11.1699
▁lata	-11.1701
amba	-11.1704
▁daghan	-11.1708
dendr	-11.1718
limnodriloides	-11.1722
▁tin	-11.173
▁chau	-11.1734
▁indicus	-11.1736
▁gadilidae	-11.1737
069	-11.1744
▁baba	-11.175
▁alex	-11.1751
▁hans	-11.1752
ogorgia	-11.1772
maria	-11.1775
▁bayer	-11.1779
anthopleura	-11.1791
cinachyrella	-11.1791
dendrophylliidae	-11.1791
peridontopyge	-11.1791
▁depressa	-11.1791
▁inflata	-11.1791
▁imperyo	-11.1791
▁1859.	-11.1791
ellisella	-11.1808
▁hunyo	-11.1808
▁vol	-11.1818
▁johnson	-11.1821
usab	-11.1827
zay	-11.183
erylus	-11.1838
▁bell	-11.1838
pteraster	-11.1839
uville	-11.1847
desmacidon	-11.1847
platynereis	-11.1847
schizomavella	-11.1847
sphaeropoeus	-11.1847
▁pala	-11.1866
▁vervoort	-11.1874
chen	-11.1876
▁basahon	-11.1878
terre	-11.188
lepto	-11.1881
ô	-11.1885
▁leptogorgia	-11.189
isy	-11.1892
scoloplos	-11.1894
tubificoides	-11.1894
clathrina	-11.1895
▁orthoporus	-11.1896
thon	-11.19
callistochiton	-11.1903
eatoniella	-11.1903
ophioplinthus	-11.1903
▁horst	-11.1903
▁fabrici	-11.1929
tain	-11.1931
leptasterias	-11.1952
lent	-11.1953
▁tam	-11.1957
dorvillea	-11.1957
stichopathes	-11.1959
▁granulata	-11.1959
▁siboglinidae	-11.1959
microciona	-11.1959
▁frederick	-11.1959
▁kinabuhi	-11.1959
moy	-11.1959
hom	-11.1965
▁estasyon	-11.1969
zier	-11.1977
▁suberites	-11.1982
▁prionospio	-11.1984
maritimes	-11.1987
chromadora	-11.1989
▁sycon	-11.1989
▁lor	-11.199
▁bl	-11.1994
093	-11.2009
tomopteris	-11.2011
kin	-11.2015
▁columbellidae	-11.2015
▁entoprocta	-11.2015
▁pulchella	-11.2015
▁wright	-11.2015
▁pinaka	-11.2018
▁costata	-11.2024
rch	-11.2024
stein	-11.2029
▁stri	-11.2034
▁gould	-11.2034
▁villeneuve	-11.2047
topsentia	-11.2053
ignan	-11.206
▁reteporella	-11.2061
▁melithaea	-11.2063
▁kanhi	-11.2064
gelliodes	-11.2072
▁vacelet	-11.2072
plumatella	-11.2072
sinumelon	-11.2072
▁pugita	-11.2072
▁thorectidae	-11.2072
▁espanya	-11.2072
▁nodosa	-11.2072
▁pacificus	-11.2072
▁presyon	-11.2073
▁pilato	-11.2074
▁harry	-11.2075
▁berry	-11.2076
isis	-11.2084
lys	-11.2086
flustra	-11.2093
▁ani	-11.2097
▁plana	-11.2098
notre	-11.2118
▁1851	-11.2126
cuspidaria	-11.2129
halopteris	-11.2129
▁lumot	-11.2131
pentagonaster	-11.2132
èvre	-11.2141
▁ol	-11.2143
▁hypsibius	-11.2145
▁vas	-11.2147
puy	-11.2148
bris	-11.2156
▁reniera	-11.2162
▁santa	-11.2163
idad	-11.2176
chloeia	-11.2187
▁radiata	-11.2187
echinogorgia	-11.2187
coryne	-11.2188
thuiaria	-11.2188
▁klima	-11.2188
iningles	-11.2189
▁sé	-11.2189
▁1816	-11.2192
maison	-11.2195
loy	-11.2196
▁southern	-11.2205
gué	-11.2213
adel	-11.2223
▁ulan	-11.2226
dipolydora	-11.2229
nephthys	-11.2231
esper	-11.2238
▁suter	-11.2242
ignon	-11.2243
▁gran	-11.2244
▁rossellidae	-11.2245
echinoderes	-11.2248
lakip	-11.2248
ssey	-11.2277
zar	-11.2295
▁tho	-11.2301
cladorhiza	-11.2303
▁conica	-11.2303
▁cristata	-11.2305
biemna	-11.2308
clytia	-11.2308
leucosolenia	-11.2308
▁tenella	-11.2308
▁bour	-11.2319
▁nagti	-11.2326
eurhinocricus	-11.2327
▁cel	-11.2328
▁sir	-11.2331
dero	-11.2343
▁pilipino	-11.2361
▁spongillidae	-11.2361
▁iso	-11.2366
amphiophiura	-11.2369
puli	-11.2372
▁met	-11.2379
osse	-11.2386
hap	-11.239
▁ali	-11.2404
baud	-11.2409
lagisca	-11.2413
gur	-11.2415
▁surigao	-11.242
rhaphi	-11.2422
▁sor	-11.2424
euphrosine	-11.243
fl	-11.2435
▁lumbricillus	-11.2436
▁tag	-11.2439
▁philippi	-11.2444
spio	-11.2447
▁wi	-11.2449
ophionereis	-11.2451
▁han	-11.2451
raphi	-11.2457
▁michel	-11.2457
▁alata	-11.2458
bog	-11.246
of	-11.2463
balik	-11.2468
▁spirostreptus	-11.2473
▁bowerbank	-11.2474
rth	-11.2475
uto	-11.2479
coelosphaera	-11.2479
pacifigorgia	-11.2479
▁ferdinand	-11.2479
▁japonicus	-11.2479
leodice	-11.2479
misamis	-11.2479
chaleponcus	-11.2479
▁sentro	-11.2481
tug	-11.2482
sidlakan	-11.2483
▁pres	-11.2484
▁haeckel	-11.2491
aspidosiphon	-11.2491
▁sinensis	-11.2495
bong	-11.2501
ocephala	-11.2518
▁cribrilinidae	-11.2539
▁hispida	-11.2539
▁purpurea	-11.2539
▁filiformis	-11.2539
oriopsis	-11.2539
ménil	-11.2539
▁suma	-11.254
mars	-11.254
▁echinata	-11.2542
jou	-11.2543
▁edwards	-11.2548
euplexaura	-11.2551
euchone	-11.2552
sthenelais	-11.2552
aglaophamus	-11.2553
▁shi	-11.2553
▁asper	-11.2554
bran	-11.2556
▁celleporaria	-11.2562
▁diphascon	-11.257
▁tedania	-11.257
▁phy	-11.2571
▁schulze	-11.2572
▁kina	-11.2574
desmodora	-11.2578
▁sh	-11.2579
tres	-11.2588
ning	-11.2592
▁26	-11.2593
utus	-11.2597
drilonereis	-11.2599
gordionus	-11.2599
trypanosyllis	-11.2599
▁novaezealandiae	-11.2599
▁opheliidae	-11.2599
▁muslim	-11.2599
près	-11.26
pachychalina	-11.2601
uga	-11.2606
▁jose	-11.2607
▁odontopyge	-11.2611
▁nana	-11.2611
▁leptochiton	-11.2613
dos	-11.2614
▁kaayo	-11.2626
phyllo	-11.2628
vermilia	-11.2633
mangelia	-11.2636
▁wilsoni	-11.2637
▁henri	-11.264
▁rosa	-11.2647
bio	-11.2652
▁eulalia	-11.2654
aktedrilus	-11.2659
▁aberrans	-11.2659
▁ophiotrichidae	-11.2659
▁orbiniidae	-11.2659
▁lovell	-11.2659
▁girard	-11.2659
▁ophiuridae	-11.2659
▁ernest	-11.2659
▁tuberosa	-11.266
tim	-11.266
callogorgia	-11.266
ence	-11.2664
▁nuda	-11.2666
▁clionaidae	-11.2668
uma	-11.2672
▁mat	-11.2674
hymenaster	-11.2677
gney	-11.268
eix	-11.2681
▁aster	-11.2681
kapuo	-11.2696
fin	-11.2707
ligny	-11.2718
eoechinorhynchus	-11.2719
chondrocladia	-11.2719
crypthelia	-11.2719
▁brachionidae	-11.2719
▁kerguelensis	-11.2719
▁munisipyo	-11.2719
▁gamay	-11.2721
tellina	-11.2724
jaspis	-11.2725
2007	-11.2728
vy	-11.2733
▁bala	-11.2758
nin	-11.2764
▁luc	-11.2767
caul	-11.2776
bathydrilus	-11.278
discodermia	-11.278
▁chordodidae	-11.278
▁compacta	-11.278
▁erecta	-11.278
▁pulitzer	-11.278
▁modesta	-11.278
▁flava	-11.2781
finali	-11.2781
terebra	-11.2782
▁coronata	-11.2786
▁nagpa	-11.2787
▁oceanapia	-11.2787
▁percy	-11.2788
▁oro	-11.2791
▁gigas	-11.2795
▁terebella	-11.2795
aplysina	-11.2804
grantia	-11.2804
xia	-11.2806
isle	-11.281
▁marshall	-11.2813
esia	-11.2815
far	-11.2816
▁harring	-11.2823
▁ehrenberg	-11.2824
▁murrayi	-11.2827
hit	-11.2829
ech	-11.283
status	-11.284
ciocalypta	-11.2842
▁nagsugo	-11.2842
dendrobeania	-11.2842
▁katawhan	-11.2842
▁spinifera	-11.2847
▁elimia	-11.285
▁edward	-11.2852
bugula	-11.2856
▁sto	-11.2862
castanotherium	-11.2867
tulus	-11.2871
rive	-11.2873
cke	-11.2878
▁allman	-11.2881
tetrastemmatidae	-11.2886
▁1874	-11.2896
▁hymeniacidon	-11.2899
uilly	-11.29
▁bush	-11.2902
▁spirobolus	-11.2906
▁stellata	-11.2907
▁heyograpiya	-11.2908
▁chitonidae	-11.2911
ogne	-11.2914
▁esper	-11.2914
▁pebrero	-11.2915
cosa	-11.2929
litophyton	-11.2931
▁wood	-11.2942
sept	-11.2956
▁polydora	-11.2964
▁1,3	-11.2965
archaster	-11.2966
pinersyano	-11.2966
▁exigua	-11.2966
▁schmarda	-11.2966
puellina	-11.2966
▁1850.	-11.2966
▁lobata	-11.2966
▁johann	-11.2969
siyon	-11.2975
nal	-11.2979
▁kilometro	-11.2982
▁pil	-11.2985
testudinella	-11.2996
siphonogorgia	-11.2996
ame	-11.3
idium	-11.3
▁thaumastoderma	-11.3002
▁gen	-11.3003
egli	-11.3011
▁sertularia	-11.3017
sigalion	-11.3028
trigoniulus	-11.3028
▁wilhelm	-11.3028
▁pundok	-11.3029
▁1855	-11.3031
▁bréau	-11.3033
chin	-11.3039
pré	-11.3039
christ	-11.3041
▁dana	-11.3043
vie	-11.3045
rim	-11.3046
▁eugen	-11.3049
aube	-11.3054
mniobia	-11.3061
amphimedon	-11.3061
nce	-11.3064
▁apo	-11.3064
▁his	-11.3066
omer	-11.3074
ussac	-11.3076
▁loxosomella	-11.3077
derma	-11.3089
anges	-11.3089
aspidiophorus	-11.3091
elliptio	-11.3091
ichthydium	-11.3091
runcatoflabellum	-11.3091
trochocyathus	-11.3091
villogorgia	-11.3091
▁isididae	-11.3091
▁polymastia	-11.3094
▁chiton	-11.3101
proceraea	-11.3101
▁dendyi	-11.3107
▁stylaster	-11.3108
▁kinsa	-11.3111
▁costa	-11.3117
cladocarpus	-11.3126
physa	-11.3127
aure	-11.3135
▁hil	-11.3143
dyosesis	-11.3154
▁lepadellidae	-11.3154
▁ornatus	-11.3154
▁rebolusyon	-11.3154
▁regularis	-11.3154
▁exilis	-11.3154
▁pectinata	-11.3154
▁humilis	-11.3154
sigmoria	-11.3154
▁gahom	-11.3155
enchytraeus	-11.3156
▁globosa	-11.3156
microlaimus	-11.3159
mya	-11.3171
guin	-11.3171
▁centrorhynchus	-11.3177
ferrière	-11.3177
abra	-11.3192
forcepia	-11.3192
chromonephthea	-11.3192
amathia	-11.3192
▁sept	-11.3197
uan	-11.3197
esperia	-11.3198
font	-11.3199
▁neu	-11.3209
▁pista	-11.3211
clair	-11.3215
▁obtusa	-11.3217
amphisbetia	-11.3218
ophioplinthaca	-11.3218
spirastrella	-11.3218
crassimarginat	-11.3218
travisia	-11.3218
anticoma	-11.3218
▁dentata	-11.3218
gmelin	-11.3218
oerstedia	-11.3224
agne	-11.3226
vas	-11.3227
olohiya	-11.3229
sunod	-11.3229
hong	-11.3232
▁pettibone	-11.3239
▁labi	-11.325
▁poli	-11.3257
notommata	-11.3258
eunicella	-11.3259
neuve	-11.3275
littorina	-11.328
gymnostreptus	-11.3282
▁hyalina	-11.3282
▁enoplidae	-11.3283
▁far	-11.3298
▁siyang	-11.3298
bray	-11.3306
solaster	-11.3306
yal	-11.3321
lepidasthenia	-11.3325
bala	-11.3331
▁antipathes	-11.3333
▁henderson	-11.3339
wer	-11.3341
trich	-11.3346
astarte	-11.3346
sauveur	-11.3347
ophiolepis	-11.3347
▁loomis	-11.3347
plumarella	-11.3347
ilhac	-11.3348
▁1833	-11.335
blanc	-11.3352
▁pers	-11.3367
▁rose	-11.3373
thé	-11.3381
▁microporella	-11.3387
kay	-11.3388
ento	-11.3391
dicyema	-11.3392
▁levis	-11.3398
sidlakang	-11.3403
hyal	-11.3411
jacques	-11.3412
cornucopina	-11.3412
mucropetraliella	-11.3412
nephasoma	-11.3412
plagiorhynchus	-11.3412
pteroeides	-11.3412
ptygura	-11.3412
▁anomala	-11.3412
▁panamensis	-11.3412
▁pranses	-11.3412
▁setosa	-11.3412
▁picta	-11.3412
brisinga	-11.3412
▁1871.	-11.3412
▁elemento	-11.3412
▁daniel	-11.3413
▁onuphis	-11.3413
▁1853	-11.3416
▁isang	-11.3417
▁lumad	-11.342
nant	-11.3421
▁ircinia	-11.3436
cava	-11.3445
écourt	-11.3445
▁anadenobolus	-11.3451
hn	-11.3456
iso	-11.3457
goniada	-11.3459
odontosyllis	-11.3459
philodina	-11.346
▁barrie	-11.347
▁flabelligeridae	-11.3477
▁pleuroceridae	-11.3477
▁profunda	-11.3477
echinodictyum	-11.3477
psammo	-11.3479
▁villosa	-11.348
▁arti	-11.3492
hapit	-11.3496
▁august	-11.3509
▁gimugna	-11.3515
tiko	-11.3527
keratella	-11.3527
amphiodia	-11.3528
porites	-11.3528
tentaculata	-11.3528
macrophiothrix	-11.3529
nucula	-11.3539
telmatactis	-11.3543
capitella	-11.3543
▁hapon	-11.3547
▁lugar	-11.3549
▁tel	-11.355
▁1844	-11.3555
▁belli	-11.356
▁montagu	-11.3565
lahi	-11.357
ingon	-11.3573
yano	-11.3573
▁rhysodesmus	-11.3573
▁isodictya	-11.3576
main	-11.3581
int	-11.3585
▁busa	-11.3586
lyon	-11.3588
ilhan	-11.3591
eteone	-11.3596
autolytus	-11.3596
meuse	-11.3601
onchulus	-11.3609
caulibugula	-11.3609
syllides	-11.3609
▁niphatidae	-11.3609
▁windows	-11.3609
▁presidente	-11.3609
placogorgia	-11.3609
▁batok	-11.3609
python	-11.361
ann	-11.3611
champagne	-11.3612
▁monro	-11.3614
christophe	-11.3618
uille	-11.3623
narella	-11.3624
▁wilson	-11.3634
higginsia	-11.3639
auguste	-11.3641
▁neanthes	-11.3653
aumont	-11.3654
▁schmidti	-11.3659
▁atra	-11.3666
lima	-11.3667
▁tox	-11.3668
ligo	-11.3673
ceratomyxa	-11.3676
euchlanis	-11.3676
pleurobema	-11.3676
rhabderemia	-11.3676
▁amphinomidae	-11.3676
▁cyatholaimidae	-11.3676
▁paradoxa	-11.3676
tubulanus	-11.3676
penares	-11.3676
▁minutus	-11.3676
▁belfort	-11.3676
▁1841	-11.3679
isco	-11.3697
▁macrotrachela	-11.3702
muni	-11.3705
cate	-11.3708
▁mortenseni	-11.3722
▁juli	-11.3723
▁ham	-11.3725
sarcophyton	-11.3734
dicyemennea	-11.3743
poecilochaetus	-11.3743
rhododrilus	-11.3743
triphyllozoon	-11.3743
▁littoralis	-11.3743
▁pilipinhon	-11.3743
▁tetillidae	-11.3743
muricella	-11.3743
▁rodano	-11.3743
iodictyum	-11.3743
cambala	-11.3744
ophiozonella	-11.3744
nicolea	-11.3746
ophiomitrella	-11.3746
pru	-11.3749
▁kenne	-11.375
▁raspailia	-11.375
dako	-11.3752
echinorhynchidae	-11.376
▁sollas	-11.3769
▁cho	-11.3769
▁sil	-11.3777
▁waters	-11.3781
▁oktubre	-11.3782
kai	-11.38
pie	-11.38
zygophylax	-11.3804
thalamoporella	-11.3804
conescharellina	-11.3804
zat	-11.3808
eledone	-11.3809
▁decipiens	-11.381
▁glacialis	-11.381
charopa	-11.381
▁varians	-11.381
▁1847	-11.3812
kh	-11.3812
▁ev	-11.3815
rier	-11.3822
thur	-11.3823
pez	-11.3826
arcto	-11.3834
born	-11.3843
orne	-11.3854
argent	-11.3855
▁gardineri	-11.3859
amphianthus	-11.3861
▁kaniadto	-11.3869
▁punct	-11.3871
▁frank	-11.3871
acanthogyrus	-11.3878
axinyssa	-11.3878
spongosorites	-11.3878
▁pallas	-11.3887
▁ophiactis	-11.3889
maur	-11.3893
malmgreniella	-11.3894
▁filipjev	-11.3909
▁more	-11.3914
▁edwardsi	-11.3919
▁antoine	-11.3923
▁aglaophenia	-11.3927
potamilla	-11.3934
▁phorbas	-11.3935
▁tre	-11.3935
just	-11.3943
oeci	-11.3943
phrixgnathus	-11.3946
proales	-11.3946
diplogaster	-11.3947
haplothysanus	-11.3947
somatogyrus	-11.3947
▁assimilis	-11.3947
▁caullery	-11.3947
▁variegata	-11.3947
tobrilus	-11.3947
catenicella	-11.3947
▁sulcata	-11.3947
mona	-11.3947
▁quoy	-11.3947
thorecta	-11.3948
halichaetonotus	-11.3948
ophiocten	-11.3954
▁mill	-11.3962
▁bourg	-11.3987
lez	-11.3991
ial	-11.4001
▁chan	-11.4006
▁adam	-11.4009
tken	-11.4015
sulpice	-11.4016
▁bitectiporidae	-11.4016
▁fissurellidae	-11.4016
▁hystrix	-11.4016
bothriembryon	-11.4016
▁bicolor	-11.4016
evich	-11.4016
▁asterinidae	-11.4016
▁karaang	-11.4016
lalawigan	-11.4019
▁wal	-11.4034
ouen	-11.4038
▁cera	-11.4048
▁emplectonema	-11.4056
nomia	-11.4056
▁panag	-11.4057
▁laing	-11.4057
motte	-11.4062
uges	-11.4064
▁alcyonium	-11.4068
roma	-11.4073
▁ikatulo	-11.4077
chama	-11.4078
lich	-11.4078
zoanthus	-11.4082
dendrophyllia	-11.4085
stylopoma	-11.4085
▁amphiporidae	-11.4085
▁cotabato	-11.4085
▁dichotoma	-11.4085
▁aleman	-11.4086
▁serra	-11.4086
collotheca	-11.4089
brada	-11.4101
pey	-11.4103
ford	-11.4104
▁zephronia	-11.4113
paradiopatra	-11.4113
▁wu	-11.4133
kal	-11.4134
▁grayi	-11.4148
lysidice	-11.4155
myrianida	-11.4155
▁tellinidae	-11.4155
iobasis	-11.4155
▁frederi	-11.4156
osentis	-11.4156
▁parvus	-11.4157
▁mars	-11.4159
eunicea	-11.4159
calyptotheca	-11.4161
kinatsila	-11.4162
▁pamuno	-11.4169
▁upat	-11.4198
bak	-11.4201
▁ophiopyrg	-11.4202
armandia	-11.4207
▁aricidea	-11.4216
uno	-11.4216
▁montipora	-11.4221
cambarincola	-11.4226
▁baranggay	-11.4226
▁nobilis	-11.4226
▁patagonica	-11.4226
▁plumulariidae	-11.4226
leuconia	-11.4226
rhagada	-11.4226
▁constant	-11.4226
etienne	-11.4226
melinna	-11.4226
leanira	-11.4226
▁1791.	-11.4226
▁magasin	-11.4226
▁1849	-11.4227
lensia	-11.4232
mediorhynchus	-11.4234
flabellum	-11.4235
calliostoma	-11.4235
▁phil	-11.4238
lineya	-11.4245
anon	-11.4255
▁mira	-11.4258
uil	-11.4277
▁thu	-11.4285
▁conus	-11.4287
oxydromus	-11.4296
thouarella	-11.4296
▁desmodoridae	-11.4296
▁merulinidae	-11.4296
▁nephtyidae	-11.4296
▁sinulat	-11.4297
epinannolene	-11.4298
pia	-11.4304
▁maayo	-11.4308
ussy	-11.4315
▁dentalium	-11.4315
mati	-11.4321
nsac	-11.4325
pedi	-11.4327
chalina	-11.4336
▁eudendrium	-11.4337
lado	-11.4339
oceras	-11.4341
eck	-11.4353
▁fontaine	-11.4355
off	-11.4366
cros	-11.4366
trophon	-11.4366
▁mahi	-11.4368
hippospongia	-11.4368
▁benedict	-11.4368
▁gymnolaemata	-11.4368
▁papangig	-11.4368
ariidae	-11.4368
▁nagpasabot	-11.437
chalinula	-11.437
▁militar	-11.4379
▁balaod	-11.4382
ophidiaster	-11.4382
mitra	-11.4385
▁hartmanae	-11.4386
clar	-11.4392
▁spe	-11.4392
colombe	-11.4393
kita	-11.4394
eure	-11.4401
▁gas	-11.4402
▁ama	-11.4406
day	-11.4406
gawa	-11.4416
af	-11.4419
▁christoph	-11.443
romain	-11.443
eryx	-11.4434
▁lakip	-11.4435
eterolepidoderma	-11.444
▁acanthodrilidae	-11.444
▁aprika	-11.444
arachnopusia	-11.444
brachoria	-11.444
leucetta	-11.444
nardoa	-11.444
neptunea	-11.444
ochetostoma	-11.444
persephonaster	-11.444
colurella	-11.444
église	-11.444
maoridrilus	-11.444
▁dinhi	-11.444
▁echinasteridae	-11.444
▁kadaghanan	-11.4443
▁milyon	-11.4445
▁belle	-11.4446
▁dugo	-11.4447
nhong	-11.4449
adeonella	-11.4457
loxosoma	-11.4457
▁duol	-11.4467
▁unibersidad	-11.4485
ambo	-11.4488
chaetopleura	-11.4489
eurythoe	-11.4498
mines	-11.4499
▁villa	-11.4501
parasabella	-11.4503
oncicola	-11.4503
▁grania	-11.4505
bougainvillia	-11.4512
▁caeca	-11.4512
centro	-11.4513
▁1843	-11.4517
▁franz	-11.4518
▁fauvel	-11.4518
franc	-11.452
acio	-11.4525
▁perinereis	-11.453
golfingia	-11.4532
▁leo	-11.4537
taka	-11.454
anna	-11.4546
nius	-11.457
gene	-11.4572
reux	-11.4578
▁monte	-11.4582
cidaris	-11.4584
batillipes	-11.4585
▁abyssalis	-11.4585
▁eulimidae	-11.4585
▁habrotrochidae	-11.4585
▁teritoryo	-11.4585
▁arenosa	-11.4585
▁natalensis	-11.4585
holothuria	-11.4585
▁anders	-11.4587
bonellia	-11.4587
gorgonia	-11.4588
▁timm	-11.459
iseto	-11.4594
margarites	-11.4604
aspe	-11.461
▁ingon	-11.4622
chan	-11.4629
▁nasodnon	-11.4632
▁paris	-11.4635
bic	-11.4636
trun	-11.464
▁celleporina	-11.4648
sulti	-11.4649
fay	-11.4649
▁taga	-11.4653
mitrella	-11.4654
tegula	-11.4655
ailles	-11.4656
lect	-11.4656
diodora	-11.4659
diphasia	-11.4659
▁myxillidae	-11.4659
▁pygmaea	-11.4659
▁typica	-11.4659
▁contorta	-11.4659
▁repens	-11.4659
▁harold	-11.4659
▁1835.	-11.4659
eumida	-11.4659
▁pedro	-11.4659
▁nitida	-11.466
▁leon	-11.4662
celles	-11.4665
magny	-11.4687
thyone	-11.4701
▁spongilla	-11.4704
agnac	-11.4713
▁bois	-11.4716
▁bernard	-11.4718
▁marphysa	-11.4721
vière	-11.473
vermiliopsis	-11.4733
▁axonolaimidae	-11.4733
hoeff	-11.4735
field	-11.4738
▁cooper	-11.4739
lande	-11.4741
▁puyde	-11.4743
mira	-11.4752
bulla	-11.4753
▁sun	-11.4759
aglais	-11.4762
▁malay	-11.4763
▁luna	-11.477
▁acanthochitona	-11.4773
▁exogone	-11.4774
gang	-11.4778
▁caecum	-11.4784
turbanella	-11.4787
onchus	-11.4797
upi	-11.4798
jones	-11.4803
amplirhagada	-11.4807
▁adolf	-11.4807
▁antillarum	-11.4807
▁berkeley	-11.4807
▁subtilis	-11.4808
gonaxia	-11.4808
▁siglo	-11.4808
▁baird	-11.4808
▁tinipon	-11.4808
▁loxosomatidae	-11.4808
▁1945.	-11.4809
icourt	-11.4809
▁kimik	-11.4809
ophiocoma	-11.481
brania	-11.4812
▁mang	-11.482
kong	-11.4821
euclymene	-11.4822
▁septiyembre	-11.4825
user	-11.4827
uke	-11.4834
▁bale	-11.4835
deltocyathus	-11.484
▁nephtys	-11.4843
oz	-11.4843
ophiopsila	-11.4849
▁angusta	-11.4853
▁kabahin	-11.4857
▁nagka	-11.4875
vor	-11.4876
pseudonannolene	-11.4877
rupt	-11.4878
▁chuni	-11.4879
andro	-11.488
resse	-11.488
messicobolus	-11.4883
terebratulina	-11.4883
▁alcock	-11.4883
▁duchassaing	-11.4883
▁siphonophoridae	-11.4883
▁territoire	-11.4883
▁wollaston	-11.4883
▁xeniidae	-11.4883
escharoides	-11.4883
▁philippinensis	-11.4883
▁sabellariidae	-11.4883
canthochitonidae	-11.4883
▁pauper	-11.4883
errina	-11.4883
orhynchidae	-11.4883
bey	-11.4885
uvre	-11.4887
▁ehlersi	-11.4889
neopetrosia	-11.4891
▁caryophyllia	-11.4897
▁lee	-11.4897
anthenea	-11.4902
landes	-11.4903
kasadpan	-11.4909
bré	-11.4929
rger	-11.4934
▁sarsi	-11.4934
hun	-11.4938
▁aspidosiphon	-11.4943
▁ininggles	-11.4946
▁naay	-11.4947
tapos	-11.4953
▁californicus	-11.4958
▁lactea	-11.4958
▁polymorphidae	-11.4958
▁paraonidae	-11.4958
▁plumosa	-11.4958
▁acuta	-11.4959
▁robertson	-11.4961
thesea	-11.4961
▁gordius	-11.4985
lais	-11.4993
phakellia	-11.4995
▁chitwood	-11.4996
▁gravier	-11.5007
initon	-11.501
▁petrosia	-11.5011
run	-11.5011
serre	-11.5011
acarnus	-11.5012
▁liu	-11.5012
hara	-11.502
▁are	-11.5031
▁media	-11.5031
▁gosse	-11.5032
zoroaster	-11.5035
oswaldella	-11.5035
▁gapasan	-11.5035
▁municipalidad	-11.5035
▁orihinal	-11.5035
▁collaris	-11.5035
tricoma	-11.5035
▁bouillon	-11.5036
emma	-11.5036
▁ig	-11.5037
nerilla	-11.5039
▁château	-11.504
▁luzon	-11.5041
▁attenuata	-11.5047
▁fri	-11.5058
halo	-11.5062
itz	-11.5063
▁actinia	-11.5068
pinna	-11.5074
iophon	-11.5075
staurotheca	-11.5078
inadak	-11.5079
▁lain	-11.509
ation	-11.5092
▁pun	-11.5094
julus	-11.5103
asychis	-11.5112
boccardia	-11.5112
spiophanes	-11.5112
▁dorylaimidae	-11.5112
▁magnifica	-11.5112
▁polymastiidae	-11.5112
▁striatus	-11.5112
▁tilbrook	-11.5112
hamacantha	-11.5112
▁dubius	-11.5112
laonice	-11.5112
plakina	-11.5112
▁call	-11.5117
lacuna	-11.5118
iron	-11.5121
villa	-11.5124
▁thalassema	-11.513
idia	-11.5134
oderma	-11.5144
tima	-11.5157
▁otto	-11.5164
▁diopatra	-11.5169
ott	-11.5174
auge	-11.5177
aclis	-11.5182
contracaecum	-11.5189
distichopora	-11.5189
inanidrilus	-11.5189
trachyjulus	-11.5189
▁campanulariidae	-11.5189
electra	-11.5189
goniopora	-11.5189
belle	-11.519
▁scolelepis	-11.5195
lucilina	-11.5196
▁densa	-11.5199
uve	-11.5202
▁kr	-11.5215
kov	-11.5226
▁calliostoma	-11.5228
low	-11.523
arabella	-11.523
fé	-11.5232
alvania	-11.5235
eva	-11.5239
buhi	-11.525
▁sul	-11.525
bispira	-11.525
▁termino	-11.5252
dawat	-11.5257
▁parvula	-11.5261
tukod	-11.5265
châtillon	-11.5267
fasciospongia	-11.5267
synthecium	-11.5267
▁granulosa	-11.5268
▁amahan	-11.5269
nag	-11.527
▁strong	-11.527
▁labaw	-11.5271
▁bella	-11.5271
▁1840	-11.5274
▁cli	-11.5288
vieille	-11.5291
chaux	-11.5298
▁iii	-11.531
mastig	-11.5311
nex	-11.5312
put	-11.5316
ophiomusa	-11.5317
dakbayan	-11.5318
aude	-11.5322
▁arab	-11.5328
aix	-11.5338
▁ferr	-11.5339
▁stimpson	-11.5344
prionopetalum	-11.5346
▁amomongpong	-11.5346
▁furcata	-11.5346
▁israel	-11.5346
▁californiensis	-11.5346
▁naggikan	-11.5347
▁laxa	-11.5348
bonnet	-11.5352
hina	-11.5358
gru	-11.5361
▁koren	-11.5364
ayan	-11.537
▁luidia	-11.5384
linckia	-11.5387
▁brachionus	-11.5392
▁higgins	-11.5398
callochiton	-11.5399
kat	-11.54
ksyon	-11.5402
roque	-11.5404
aryo	-11.5411
▁leucosolenia	-11.5418
▁kinainitan	-11.5425
▁parasitica	-11.5425
▁peryodiko	-11.5425
aquilonastra	-11.5425
hydrodendron	-11.5425
lampsilis	-11.5425
polyschides	-11.5425
psammoclema	-11.5425
semotrachia	-11.5425
▁gaimard	-11.5425
▁koltun	-11.5425
▁venusta	-11.5425
ceramaster	-11.5427
mystides	-11.5428
rémy	-11.5431
kung	-11.5435
gun	-11.5435
rotaria	-11.5437
micr	-11.5445
reau	-11.5451
orb	-11.5455
mier	-11.5455
▁bang	-11.5466
lottia	-11.547
▁jullien	-11.5474
▁dalli	-11.5483
▁rotunda	-11.5489
▁hutton	-11.5491
aspis	-11.5496
ft	-11.5501
▁gihatag	-11.5505
▁hydrobiidae	-11.5505
▁kinabasaan	-11.5505
▁kinabugnawan	-11.5505
▁kinaugahan	-11.5505
▁meridionalis	-11.5505
▁muelleri	-11.5505
▁mutabilis	-11.5505
▁spongiidae	-11.5505
▁1946.	-11.5506
chlamys	-11.5507
▁pterasteridae	-11.5513
imo	-11.5522
ikal	-11.5528
coll	-11.553
▁plo	-11.5536
wil	-11.5542
bir	-11.5561
laeospira	-11.5567
▁marionina	-11.5579
▁rhynchozoon	-11.5581
▁michael	-11.5586
coeloplana	-11.5586
rhabditis	-11.5586
tubifex	-11.5586
▁cheilostomatida	-11.5586
▁expansa	-11.5586
▁kaugalingon	-11.5586
grantessa	-11.5586
▁americanus	-11.5586
caberea	-11.5586
phelliactis	-11.5586
siphonochalina	-11.5586
▁1854.	-11.5587
▁gemma	-11.5588
▁pteraster	-11.5594
pecten	-11.5595
▁has	-11.5597
▁pagta	-11.5598
▁tenera	-11.5599
▁mawatari	-11.5605
▁pré	-11.561
chalin	-11.5616
▁unsa	-11.5624
haw	-11.5627
▁johnsoni	-11.5628
▁gorgonocephal	-11.5633
ayo	-11.5638
hari	-11.5642
phascolion	-11.5648
gymno	-11.5661
awan	-11.5663
arhythmorhynchus	-11.5667
bathylaimus	-11.5667
ectopleura	-11.5667
verrucella	-11.5667
▁clifford	-11.5667
▁ibabaw	-11.5667
▁leptolaimidae	-11.5667
▁oxystominidae	-11.5667
▁crassus	-11.5667
nannaria	-11.5667
▁kaiphan	-11.5667
▁phloeodictyidae	-11.5667
leptoxis	-11.5668
macrodasys	-11.5668
▁1822	-11.5673
text	-11.5677
pang	-11.5678
grande	-11.5679
lion	-11.5681
▁carlos	-11.5684
▁octopodidae	-11.5686
▁callochiton	-11.5695
▁cirratulus	-11.57
tudlo	-11.5702
mak	-11.5708
▁lobophytum	-11.5721
▁beania	-11.573
sama	-11.5733
▁metro	-11.5744
marcel	-11.5747
1000	-11.5747
vexillum	-11.5749
▁arbuscula	-11.5749
▁cervicornis	-11.5749
▁flabellata	-11.5749
▁peripatopsidae	-11.5749
▁pyriformis	-11.5749
▁tridentata	-11.5749
▁valdiviae	-11.5749
▁incerta	-11.5749
▁delicata	-11.5749
▁fimbriata	-11.575
▁dysidea	-11.575
▁russell	-11.575
tegella	-11.575
nicolas	-11.575
▁1848	-11.5752
aricia	-11.5752
▁atomik	-11.5755
▁ophidiasteridae	-11.5755
▁balak	-11.5756
▁sulu	-11.5759
rian	-11.5759
▁jules	-11.5762
geo	-11.5765
haye	-11.577
lito	-11.5774
salacia	-11.5775
▁sem	-11.5777
▁wulfert	-11.5793
▁hydractinia	-11.5794
▁island	-11.5804
puis	-11.5811
tabang	-11.5816
oscolex	-11.5829
benthopecten	-11.5832
caulophacus	-11.5832
cirriformia	-11.5832
ophiomastix	-11.5832
▁acarnidae	-11.5832
▁linhomoeidae	-11.5832
▁polychaeta	-11.5832
▁polyxenidae	-11.5832
thalassoalaimus	-11.5832
▁plicata	-11.5832
▁tethyidae	-11.5832
▁leptosomatidae	-11.5832
thoracostoma	-11.5832
▁weberi	-11.5833
lisso	-11.5837
").	-11.584
lette	-11.584
▁axi	-11.584
▁max	-11.5865
▁desmoscolex	-11.5865
naw	-11.5878
▁polycirrus	-11.588
ampo	-11.5889
▁hermann	-11.5891
parti	-11.5894
eusyllis	-11.59
condé	-11.59
tika	-11.5903
phallodrilus	-11.5905
master	-11.5913
ramazzottius	-11.5914
▁david	-11.5915
gyptis	-11.5915
hippoporina	-11.5915
hyalinoecia	-11.5915
laetmonice	-11.5915
▁ambigua	-11.5915
▁communis	-11.5915
▁kwadrado	-11.5915
▁spirobolidae	-11.5915
▁winston	-11.5915
licornia	-11.5915
▁scabra	-11.5915
▁gibson	-11.5916
pterogorgia	-11.5916
echinomuricea	-11.5919
▁sci	-11.592
montreuil	-11.5933
echinus	-11.5941
▁by	-11.5944
tter	-11.5954
▁arte	-11.5956
fun	-11.5962
▁balanophyllia	-11.5964
▁aglais	-11.5968
sige	-11.5969
▁olavius	-11.5973
▁bré	-11.5975
▁1,5	-11.5976
▁pseudomelatom	-11.5981
▁sertularell	-11.5982
▁johnston	-11.5988
▁dam	-11.5996
▁crisia	-11.5997
camptoplites	-11.5999
coralliodrilus	-11.5999
halisarca	-11.5999
idanthyrsus	-11.5999
lophoturus	-11.5999
smithsonidrilus	-11.5999
▁antipathidae	-11.5999
▁tunokogpanit	-11.5999
amphilectus	-11.5999
quentin	-11.5999
namalycastis	-11.5999
abralia	-11.6
▁punctidae	-11.6008
rissoina	-11.6014
antinoe	-11.6018
milly	-11.6018
pristina	-11.6021
biflustra	-11.6028
▁ophiomusa	-11.6031
glos	-11.6031
▁sphaerosyllis	-11.6037
ugh	-11.6044
dani	-11.6045
"),	-11.6045
▁chrysogorgia	-11.6045
▁arenicola	-11.6046
menella	-11.6047
sab	-11.6049
▁siboglinum	-11.6051
▁gadila	-11.6052
▁asa	-11.6065
maldane	-11.6074
odasys	-11.6077
▁kom	-11.6077
▁(19	-11.6078
hil	-11.6078
polymorphus	-11.608
amphiblestrum	-11.6084
crepidula	-11.6084
▁lundbeck	-11.6084
▁petrosiidae	-11.6084
▁simpson	-11.6084
▁josé	-11.6084
rhizaxinella	-11.6085
▁1832	-11.6089
▁palma	-11.6093
▁leptochitonidae	-11.6094
▁44	-11.6095
oreaster	-11.6095
▁ito	-11.6099
thia	-11.6111
fresne	-11.6112
breuil	-11.6116
▁suba	-11.6121
▁aphrodita	-11.6121
▁tubulipora	-11.6128
▁acanthogorgia	-11.6131
▁binda	-11.6143
arra	-11.6145
isip	-11.6148
pionosyllis	-11.6149
▁desmoscolecidae	-11.617
▁mucronata	-11.617
▁mytilidae	-11.617
▁demange	-11.617
▁diadema	-11.617
(	-11.617
orbinia	-11.617
inrich	-11.617
estasyon	-11.6171
▁hyalonematidae	-11.6172
▁bukidnon	-11.6173
▁1845	-11.6177
mare	-11.618
sion	-11.6183
isson	-11.6185
rossella	-11.6195
ulles	-11.6198
got	-11.62
reuil	-11.6203
▁agassizi	-11.6204
▁cerithiopsis	-11.6204
▁eber	-11.621
▁johnstoni	-11.6216
▁billard	-11.6218
▁thor	-11.6227
▁crella	-11.6237
▁fauveli	-11.6238
▁46	-11.6239
▁raphitom	-11.6241
pholoe	-11.6255
aaptos	-11.6256
acanthogorgiidae	-11.6256
menipea	-11.6256
ophiophragmus	-11.6256
poecillastra	-11.6256
zanclea	-11.6256
▁cladorhizidae	-11.6256
▁longispina	-11.6256
▁socialis	-11.6256
▁ovalis	-11.6256
lumbriconereis	-11.6258
▁angulata	-11.6262
air	-11.6266
▁martin	-11.6271
acanthocephal	-11.6271
barentsia	-11.6272
▁nobiyembre	-11.6276
▁sagitta	-11.6282
patay	-11.629
▁perrier	-11.6295
▁cladiella	-11.6297
▁land	-11.6299
ancy	-11.6305
mopalia	-11.6325
lumbri	-11.6326
usson	-11.634
pacific	-11.6341
notopygos	-11.6343
▁rutger	-11.6343
▁sugilanon	-11.6343
thracia	-11.6343
▁gustav	-11.6343
▁ellisellidae	-11.6343
dinastiya	-11.6344
out	-11.6344
▁green	-11.6344
▁stimpsoni	-11.6345
astrea	-11.6345
▁1766	-11.6347
rez	-11.635
▁tomopteris	-11.635
▁limnodriloides	-11.6366
▁thy	-11.6393
▁chamb	-11.6394
allier	-11.6408
igo	-11.642
ignat	-11.6426
▁laubier	-11.6429
buffonellaria	-11.643
meckelia	-11.643
paracyathus	-11.643
pseudaneitea	-11.643
steginoporella	-11.643
vittatus	-11.643
▁benjamin	-11.643
▁cagayan	-11.643
▁singularis	-11.643
▁splendens	-11.643
▁stechow	-11.643
amastigia	-11.643
dumala	-11.6431
▁pedunculata	-11.6432
campagne	-11.6433
ikong	-11.6434
ahan	-11.6436
ophelina	-11.6438
sipunculus	-11.6438
paracis	-11.6439
house	-11.6443
▁halalaimus	-11.6463
amage	-11.6471
bana	-11.6479
tipo	-11.6486
▁dell	-11.6489
arene	-11.6493
glyph	-11.6502
borlasia	-11.6508
▁alcyonidium	-11.651
▁cyclo	-11.6516
▁castanea	-11.6519
▁concinna	-11.6519
aegires	-11.6519
keratoisis	-11.6519
ophiarachnella	-11.6519
teinostoma	-11.6519
aspelta	-11.6519
▁sepiidae	-11.6519
▁mamm	-11.6521
▁paggamit	-11.6525
oye	-11.6526
▁1828	-11.6526
▁michaelseni	-11.6534
macoma	-11.6536
loligo	-11.6543
patik	-11.6556
ctis	-11.6557
▁plate	-11.6561
lup	-11.6567
nicella	-11.6571
▁varia	-11.6573
oso	-11.6587
▁clytia	-11.66
metz	-11.6601
linatin	-11.6602
acteocina	-11.6608
sabatieria	-11.6608
▁grasshoff	-11.6608
▁uncinata	-11.6608
moniliformis	-11.6608
themiste	-11.6608
enoplus	-11.6608
▁tuba	-11.6608
▁ryland	-11.6609
▁hawaiiensis	-11.6611
▁porosa	-11.6612
▁0,	-11.6612
psamm	-11.6615
▁vitr	-11.662
epiactis	-11.6621
ilia	-11.6623
▁erylus	-11.6625
▁3,0	-11.6626
▁magelona	-11.6641
▁kaniadtong	-11.6643
▁fenestrulina	-11.6644
▁xenia	-11.6645
prin	-11.6646
grange	-11.6646
▁gihimo	-11.6647
▁micrura	-11.6659
post	-11.666
▁aplysina	-11.6664
▁hall	-11.6665
▁politika	-11.6693
ammotrypane	-11.6698
cauloramphus	-11.6698
dragmacidon	-11.6698
dytaster	-11.6698
hiltonius	-11.6698
pleurotomella	-11.6698
pomphorhynchus	-11.6698
siphonodictyon	-11.6698
triphora	-11.6698
▁hoshino	-11.6698
▁tubuliporidae	-11.6698
▁armatus	-11.6698
▁gracile	-11.6698
▁university	-11.6698
jpg	-11.6698
▁albida	-11.6699
▁brandt	-11.6699
▁ponder	-11.6699
▁lepraliellidae	-11.6699
▁moyano	-11.67
▁castel	-11.6702
melon	-11.6703
front	-11.6703
courcelles	-11.6704
▁clathrina	-11.6712
▁tubificoides	-11.6713
tosia	-11.6716
villy	-11.6718
▁baker	-11.6728
▁national	-11.6729
▁dictyo	-11.6732
mugna	-11.6736
padayon	-11.6737
cat	-11.6739
totyphlonemertes	-11.6743
▁aga	-11.6749
thil	-11.6763
▁mc	-11.6763
▁golfingia	-11.6764
libotan	-11.677
▁kur	-11.6773
▁(20	-11.6773
nghem	-11.6775
tubo	-11.6782
▁kir	-11.6783
▁cornu	-11.6786
▁kudenov	-11.6789
caulleriella	-11.6789
dipsastraea	-11.6789
thyasira	-11.6789
▁adeonidae	-11.6789
▁cincta	-11.6789
▁microporellidae	-11.6789
▁trichocercidae	-11.6789
dagkong	-11.6789
▁maxima	-11.6789
▁lineatus	-11.6789
▁tubulosa	-11.6789
acromegalomma	-11.6789
sepiola	-11.6789
▁arcticus	-11.6789
▁partido	-11.679
cingula	-11.679
▁alemanya	-11.6791
▁biemna	-11.6791
▁rissoidae	-11.6795
▁leloup	-11.6795
▁dw	-11.6804
▁apil	-11.6805
laing	-11.6806
cephalo	-11.6811
thorac	-11.6816
▁sabellaria	-11.6816
▁heneral	-11.6819
▁agassizii	-11.6822
2003	-11.6826
schizotricha	-11.683
ical	-11.6834
natica	-11.684
▁taylor	-11.6843
mano	-11.6851
▁buccinum	-11.6852
magne	-11.6854
lange	-11.6861
▁amphiophiura	-11.687
epioblasma	-11.6881
glycinde	-11.6881
myriochele	-11.6881
plaxiphora	-11.6881
stenoplax	-11.6881
▁acuminata	-11.6881
▁bonelliidae	-11.6881
▁cambalopsidae	-11.6881
▁lanceolata	-11.6881
▁manfred	-11.6881
climocella	-11.6881
▁okada	-11.6881
▁brook	-11.6881
▁webster	-11.6881
beroe	-11.6882
▁school	-11.6882
▁caesar	-11.6882
▁calvet	-11.6882
echinochalina	-11.6884
pisidium	-11.6884
pandora	-11.6887
seille	-11.689
▁dalag	-11.689
hornera	-11.6893
eutima	-11.6894
▁tetilla	-11.6895
▁pangulo	-11.6898
▁agassiz	-11.6903
▁ceratonereis	-11.6905
victor	-11.6912
▁steiner	-11.6918
▁grubei	-11.6918
▁104	-11.6926
▁carteri	-11.6928
▁dys	-11.6933
ceaux	-11.6937
▁hymenaster	-11.6945
cker	-11.6951
arki	-11.6961
anemonia	-11.6974
chromadorina	-11.6974
eupomatus	-11.6974
figularia	-11.6974
flabelligera	-11.6974
lygdamis	-11.6974
▁brevicauda	-11.6974
▁corrugata	-11.6974
▁delicatula	-11.6974
▁flabellidae	-11.6974
▁groenlandica	-11.6974
▁haleciidae	-11.6974
▁sinuosa	-11.6974
pelagonemertes	-11.6974
▁sukad	-11.6974
retusa	-11.6976
roman	-11.6979
onyx	-11.6982
▁metros	-11.6986
▁loveni	-11.6987
▁chordodes	-11.6987
drepanophorus	-11.6988
▁philodina	-11.6998
varennes	-11.6998
▁hypo	-11.7
▁caroli	-11.7002
aki	-11.7005
▁komp	-11.7007
kini	-11.701
piri	-11.7015
▁victoria	-11.7024
▁nova	-11.7025
nyo	-11.703
▁uschakovi	-11.7033
bini	-11.7036
▁sthenelais	-11.7045
fosse	-11.705
▁euphrosine	-11.7051
belli	-11.7059
xenotrichula	-11.706
fau	-11.7061
▁mapa	-11.7062
eugène	-11.7067
▁aphroditidae	-11.7067
▁halechiniscidae	-11.7067
▁irciniidae	-11.7067
▁virgini	-11.7067
▁napoleon	-11.7067
▁obesa	-11.7067
niphates	-11.7067
yoldia	-11.7067
ancorina	-11.7067
halcampa	-11.7068
donald	-11.7069
center	-11.7071
▁donner	-11.7077
nha	-11.7077
▁leptasterias	-11.7078
▁wang	-11.7081
▁autolytus	-11.7085
devant	-11.7103
▁chil	-11.7111
rières	-11.7112
daghan	-11.7118
laval	-11.712
neuville	-11.712
▁patag	-11.7121
fran	-11.7121
ail	-11.7125
▁andre	-11.7131
strongylus	-11.7139
comb	-11.7143
▁branch	-11.7146
bursa	-11.7148
▁candida	-11.7151
▁beaumont	-11.7156
ophus	-11.7156
▁echinoderes	-11.7156
▁thuiaria	-11.7159
hères	-11.7159
ascandra	-11.7161
boreotrophon	-11.7161
donoghue	-11.7161
himantozoum	-11.7161
linopherus	-11.7161
ophiomyxa	-11.7161
reteporellina	-11.7161
salvatoria	-11.7161
sicyonis	-11.7161
westraltrachia	-11.7161
▁modestus	-11.7161
▁reticulatus	-11.7161
▁rudolf	-11.7161
▁incisa	-11.7161
▁hopper	-11.7161
pennatula	-11.7162
cossura	-11.7162
corbula	-11.7162
ophiomastus	-11.7162
balhin	-11.7162
▁tanita	-11.7164
▁1858	-11.7168
vio	-11.717
▁rhadinorhynch	-11.7172
▁mipa	-11.7173
▁taas	-11.7175
▁kramp	-11.7175
lora	-11.7177
pontonema	-11.7178
mega	-11.719
▁thé	-11.7195
wood	-11.7199
issy	-11.7203
oligacanth	-11.7205
tricellaria	-11.721
▁west	-11.7213
▁roque	-11.7213
neu	-11.7213
bug	-11.7222
▁balay	-11.7222
neuil	-11.7223
▁schizoporella	-11.7224
▁ijima	-11.7228
▁edwardsia	-11.7233
olle	-11.7234
ouche	-11.7242
▁ralph	-11.7249
chlo	-11.7249
▁normani	-11.7251
adong	-11.7253
▁she	-11.7255
fungiacyathus	-11.7257
jasmineira	-11.7257
psammocinia	-11.7257
▁chrysogorgiidae	-11.7257
▁maguindanao	-11.7257
▁neglecta	-11.7257
▁tropica	-11.7257
▁1814.	-11.7258
baw	-11.7258
manuel	-11.7259
forges	-11.7265
well	-11.727
gari	-11.7283
▁cadulus	-11.7289
prostoma	-11.7289
lleville	-11.729
emplectonema	-11.7297
tuba	-11.7309
▁alder	-11.7309
▁châtel	-11.7316
▁butang	-11.7319
▁maurice	-11.7323
▁branchiobdell	-11.735
argyrotheca	-11.7353
nausithoe	-11.7353
remulopygus	-11.7353
▁coccinea	-11.7353
▁complanata	-11.7353
▁horrida	-11.7353
▁hydrozoa	-11.7353
▁melithaeidae	-11.7353
▁ocellata	-11.7353
▁spinosus	-11.7353
▁vulgaris	-11.7353
calyptrophora	-11.7353
nicomache	-11.7353
▁annandale	-11.7353
▁cerithiopsidae	-11.7353
derlein	-11.7353
musculus	-11.7353
galeopsis	-11.7353
trabaho	-11.7353
▁campbelli	-11.7353
▁sterrer	-11.7353
▁ovata	-11.7354
sphaerolaimus	-11.7354
physella	-11.7354
celleporella	-11.7356
oroperipatus	-11.7356
châteauneuf	-11.7357
protosuberites	-11.7358
▁rudis	-11.7359
▁conidae	-11.7361
uroteuthis	-11.7361
gonium	-11.7361
vez	-11.7363
dieu	-11.7363
plaine	-11.7371
▁symplectoscyph	-11.7371
▁cox	-11.7378
▁parte	-11.7386
▁tuber	-11.7391
pione	-11.7394
rene	-11.7396
hing	-11.7398
cysti	-11.74
villeneuve	-11.7401
tema	-11.7406
tawi	-11.7407
phos	-11.7411
tamaria	-11.7412
▁ridleyi	-11.7423
▁perrieri	-11.7434
amphinome	-11.7435
oshi	-11.7436
chamb	-11.7442
gard	-11.7448
▁lumbriconereis	-11.7448
▁pourtal	-11.7449
▁islam	-11.7449
aequorea	-11.745
aphelochaeta	-11.745
dodecaceria	-11.745
gnathostomula	-11.745
hyrtios	-11.745
iotrochota	-11.745
macrorhynchia	-11.745
odontophora	-11.745
ophiocreas	-11.745
rhamphobrachium	-11.745
stygarctus	-11.745
yoldiella	-11.745
▁canariensis	-11.745
▁catenicellidae	-11.745
▁cellariidae	-11.745
▁kagaangan	-11.745
▁magellanica	-11.745
▁vietnam	-11.745
▁haswell	-11.745
cytora	-11.745
▁gayod	-11.745
loimia	-11.745
nymphaster	-11.7452
▁musika	-11.7462
▁uchida	-11.7468
▁eteone	-11.7469
ohan	-11.7472
▁tentaculata	-11.7472
anasterias	-11.7474
▁eunoe	-11.7479
opalia	-11.748
▁pagpang	-11.7483
echino	-11.7493
vigne	-11.7493
▁savigny	-11.7506
▁grantia	-11.7514
aise	-11.7518
baha	-11.7521
▁clarki	-11.7534
coralliophila	-11.7548
doratogonus	-11.7548
hololepidella	-11.7548
pentaceros	-11.7548
▁bicornis	-11.7548
▁cancellata	-11.7548
▁pilargidae	-11.7548
▁tuberculatus	-11.7548
▁polaris	-11.7548
▁agusan	-11.7548
▁renaud	-11.7548
amorphinopsis	-11.7548
▁isao	-11.7549
▁barto	-11.7552
▁tubig	-11.7563
lemann	-11.757
▁porites	-11.757
vich	-11.7571
▁rosacea	-11.7575
▁notommata	-11.7585
elia	-11.7587
▁amphimedon	-11.7595
▁philip	-11.7618
▁tau	-11.762
▁ekonomiya	-11.7627
▁conescharellin	-11.7629
▁loligo	-11.7638
▁1,6	-11.7643
▁horn	-11.7645
cellarinella	-11.7647
cerithium	-11.7647
doryphoribius	-11.7647
hymenancora	-11.7647
pleurocera	-11.7647
rhabdastrella	-11.7647
▁oenonidae	-11.7647
▁tabugok	-11.7647
naineris	-11.7647
▁katsila	-11.7654
▁superba	-11.7655
capnella	-11.7656
renne	-11.7659
▁lampr	-11.767
ulok	-11.7674
▁plessis	-11.7677
tière	-11.7682
clau	-11.7684
▁ophryotrocha	-11.7687
▁clava	-11.7688
init	-11.7688
▁dagang	-11.7695
amin	-11.7697
▁litophyton	-11.7702
pinulongang	-11.7705
▁castanotherium	-11.7705
▁pina	-11.7714
petite	-11.7718
▁aglaophamus	-11.7723
rouge	-11.773
▁dicranophorus	-11.7734
conopeum	-11.7747
hinungdan	-11.7747
opisthosyllis	-11.7747
sechelleptus	-11.7747
▁coriacea	-11.7747
▁demospongiae	-11.7747
▁flexuosa	-11.7747
▁goniadidae	-11.7747
▁halopterididae	-11.7747
▁katilingban	-11.7747
▁carolinensis	-11.7747
millepora	-11.7747
cacospongia	-11.7747
▁ivanov	-11.7747
bugulina	-11.7747
ferté	-11.7747
glyphiulus	-11.7747
zygonemertes	-11.7747
▁africanus	-11.7747
▁chinensis	-11.7747
▁limbata	-11.7747
cardium	-11.7748
heteromeyenia	-11.7748
nnes	-11.7749
▁pelagica	-11.7749
▁2009	-11.7752
leptosomatum	-11.7753
▁1826	-11.7755
▁2008.	-11.7755
▁kinahanglan	-11.7756
▁clavigera	-11.7758
villars	-11.7758
▁bitin	-11.7758
▁amerikano	-11.7778
▁67	-11.778
▁yu	-11.7786
▁cladocarpus	-11.7792
paramuricea	-11.7794
▁mniobia	-11.7795
mine	-11.7797
agny	-11.7815
burg	-11.7827
▁valle	-11.7828
▁monta	-11.783
▁indo	-11.7832
rossia	-11.7835
▁solen	-11.7842
rue	-11.7844
pala	-11.7844
dendrilla	-11.7848
adeonellopsis	-11.7848
artemisina	-11.7848
characodoma	-11.7848
pachastrella	-11.7848
propebela	-11.7848
turritella	-11.7848
▁ecuador	-11.7848
▁perkins	-11.7848
▁romancheinidae	-11.7848
▁rombosoa	-11.7848
▁sphaerodoridae	-11.7848
euplectella	-11.7848
▁iligan	-11.7848
chondrilla	-11.7848
siphonolaimus	-11.7849
yllochaetopterus	-11.785
douard	-11.785
▁clapar	-11.7851
▁tinagalog	-11.7853
▁marioni	-11.7855
▁paagi	-11.7855
virgularia	-11.7855
mediaster	-11.7859
▁phallodrilus	-11.786
▁acti	-11.7868
▁amphiodia	-11.7871
▁corr	-11.7874
ming	-11.7875
idge	-11.7878
hanon	-11.7882
pseudosuberites	-11.7884
clio	-11.7889
ugny	-11.7891
▁tawag	-11.7891
▁siphonogorgia	-11.79
▁emil	-11.7901
parachiton	-11.7909
▁kanila	-11.7916
ack	-11.7917
lepidochitona	-11.792
spadella	-11.7929
calliactis	-11.793
▁marcel	-11.7938
flo	-11.7941
floscularia	-11.795
pallisentis	-11.795
pedicellaster	-11.795
schistomeringos	-11.795
▁areolata	-11.795
▁lawrence	-11.795
▁sanguinea	-11.795
▁vivipara	-11.795
bittium	-11.795
▁arabica	-11.795
▁ophiodermatidae	-11.795
corynactis	-11.795
▁magnus	-11.795
hormathia	-11.795
inodrillia	-11.795
phyllospongia	-11.7951
▁millard	-11.7951
▁agilis	-11.7951
▁pilosa	-11.7952
eupolymnia	-11.7954
vitrinella	-11.7954
polia	-11.7955
tiil	-11.7956
▁gamit	-11.7957
▁villiers	-11.7962
▁palmata	-11.7963
chat	-11.7968
▁rao	-11.7969
fromia	-11.7969
▁fau	-11.7969
acryptolaria	-11.7978
▁banda	-11.7979
atake	-11.799
roff	-11.7991
▁sug	-11.7996
fleur	-11.8
▁niger	-11.8001
▁testudinella	-11.8003
▁celle	-11.8008
inar	-11.801
ague	-11.8014
▁ophidiaster	-11.8025
▁carpenteri	-11.8029
▁westheide	-11.8046
agon	-11.8047
▁esc	-11.8048
▁santos	-11.8053
amphoriscus	-11.8053
dynamena	-11.8053
muriceides	-11.8053
nipponnemertes	-11.8053
ophiocentrus	-11.8053
▁gilchristi	-11.8053
▁mcknight	-11.8053
siphonosoma	-11.8054
▁king	-11.8054
odontaster	-11.8054
rsheim	-11.8058
ophiomitra	-11.8059
▁shun	-11.8063
éry	-11.8065
▁sphaeri	-11.8066
▁sarcophyton	-11.8066
▁massa	-11.8068
▁keratella	-11.8077
▁macrophiothrix	-11.8077
▁odontosyllis	-11.8081
▁chromonephthea	-11.8096
▁amathia	-11.8096
sagitta	-11.8105
▁harmeri	-11.8111
hart	-11.8114
▁florida	-11.8118
▁bern	-11.8121
▁42	-11.8128
longue	-11.8132
malo	-11.814
rel	-11.8148
▁collotheca	-11.8151
pheronema	-11.8157
asterodiscides	-11.8157
candelabrum	-11.8157
labastide	-11.8157
pileolaria	-11.8157
pontogenia	-11.8157
rhamphostomella	-11.8157
scoletoma	-11.8157
▁bulbosa	-11.8157
▁laevigata	-11.8157
▁lasaeidae	-11.8157
▁norvegica	-11.8157
▁kreis	-11.8157
▁sinica	-11.8157
▁kamatayon	-11.8157
▁crispa	-11.8158
▁tumida	-11.8159
file	-11.816
▁1838	-11.8164
▁hero	-11.8164
siphonia	-11.8165
protodrilus	-11.8167
tena	-11.817
microspio	-11.8173
mora	-11.8173
kina	-11.8176
1966	-11.8178
▁acanthocephalus	-11.8178
rix	-11.8184
iran	-11.8189
▁lepidasthenia	-11.8193
ophiosphalma	-11.8205
▁medya	-11.8206
▁ulok	-11.821
▁dayi	-11.8211
▁pourtalesi	-11.8216
aven	-11.8216
bras	-11.822
celle	-11.8224
▁66	-11.8226
1823	-11.8234
hadra	-11.8235
▁dura	-11.8241
row	-11.8245
jr	-11.8245
alma	-11.825
léon	-11.825
solariella	-11.8254
mana	-11.8255
▁sagad	-11.8256
kawa	-11.8259
ladislavella	-11.8262
praxillella	-11.8262
saccocirrus	-11.8262
scrupocellaria	-11.8262
▁epitoniidae	-11.8262
▁euplectellidae	-11.8262
▁galatheae	-11.8262
▁hydractiniidae	-11.8262
▁insularis	-11.8262
▁pfeiffer	-11.8262
▁province	-11.8262
monommata	-11.8263
▁forbes	-11.8263
fontenay	-11.8263
anachis	-11.8264
siphonaria	-11.8264
▁evans	-11.8265
uran	-11.8265
▁hari	-11.8272
philine	-11.8277
tunga	-11.828
ehlersia	-11.8285
beno	-11.8286
▁2006	-11.8292
▁marie	-11.8295
liko	-11.83
ish	-11.8307
▁ginoo	-11.8307
▁spio	-11.832
▁banse	-11.8325
▁up	-11.833
▁pax	-11.8332
▁ato	-11.8334
▁loxosoma	-11.8343
pong	-11.8347
away	-11.8351
▁tasmani	-11.8365
▁montigny	-11.8367
arche	-11.8368
comesoma	-11.8369
argonauta	-11.8369
balanoglossus	-11.8369
centrorhynchidae	-11.8369
polycyathus	-11.8369
sigambra	-11.8369
sphaerirostris	-11.8369
spirocamallanus	-11.8369
teratocephalus	-11.8369
tharyx	-11.8369
trochosodon	-11.8369
▁atlanticus	-11.8369
▁bengalensis	-11.8369
▁bermudensis	-11.8369
▁denticulata	-11.8369
▁ehipto	-11.8369
▁flustridae	-11.8369
▁giganteus	-11.8369
▁granulatus	-11.8369
▁inaequalis	-11.8369
▁rugosus	-11.8369
▁speciosa	-11.8369
▁zibrowius	-11.8369
antheopsis	-11.8369
vanadis	-11.8369
spiraserpula	-11.837
zemitrella	-11.837
castelnau	-11.8372
pagawas	-11.8373
tubularia	-11.8377
alaimus	-11.8378
▁producta	-11.8378
▁scoloplos	-11.8386
acq	-11.8386
psis	-11.839
▁vittata	-11.839
▁boury	-11.8394
mour	-11.8398
▁risso	-11.8398
nellidae	-11.8403
malmgrenia	-11.8414
▁micropora	-11.8417
ubi	-11.8419
▁koste	-11.8426
nidalia	-11.8426
▁mori	-11.8428
▁emp	-11.8434
▁gitukod	-11.8441
▁chen	-11.8452
▁eks	-11.8462
polyodontes	-11.8466
panthalis	-11.8467
cavellia	-11.8476
ctenocella	-11.8476
membranipora	-11.8476
strongylacidon	-11.8476
▁hormathiidae	-11.8476
▁litoralis	-11.8476
▁puthaw	-11.8476
pisinna	-11.8476
▁karsch	-11.8476
atlanta	-11.8477
enoploides	-11.8477
sumpay	-11.8477
cephalodiscus	-11.8477
▁proales	-11.8478
nhon	-11.8478
protomystides	-11.8479
uzan	-11.8484
lobophyllia	-11.8485
ichi	-11.8489
nya	-11.849
parafontaria	-11.849
▁albany	-11.8492
kri	-11.8495
zawa	-11.8495
base	-11.8499
trina	-11.8499
▁diaphana	-11.8502
prosphaerosyllis	-11.8502
▁thomsoni	-11.8515
▁rossi	-11.8517
mello	-11.8519
mut	-11.8521
tak	-11.8522
parachordodes	-11.8523
basili	-11.8524
lindia	-11.8526
trois	-11.8528
nzac	-11.8533
este	-11.8537
▁myr	-11.8548
▁82	-11.8551
chelle	-11.8559
ueil	-11.856
▁48	-11.8566
joseph	-11.8569
ndez	-11.8571
▁pseudarchaster	-11.8576
ephydatia	-11.8585
ndsted	-11.8585
rhabdocalyptus	-11.8585
succinea	-11.8585
trochospongilla	-11.8585
▁audouin	-11.8585
▁bidentata	-11.8585
▁bigelow	-11.8585
▁cinerea	-11.8585
▁fasciata	-11.8585
▁septentrionalis	-11.8585
▁tulunghaan	-11.8585
aphanolaimus	-11.8585
ichthy	-11.8585
▁naticidae	-11.8585
▁sulcatus	-11.8586
▁dan	-11.8586
▁curvata	-11.8588
▁labiata	-11.8591
pakita	-11.8591
▁polymorphus	-11.8591
cornulum	-11.8591
▁sultan	-11.8593
▁philippines	-11.8593
▁zygophylax	-11.8596
lophaster	-11.8596
▁dayon	-11.8607
arca	-11.8609
▁lamina	-11.8617
,000	-11.8628
gorgonocephalus	-11.8632
▁corona	-11.8639
▁richardi	-11.8645
▁prostoma	-11.8647
feld	-11.8648
ryo	-11.865
sarsia	-11.8655
▁gwyn	-11.8658
▁bise	-11.8665
▁adeonella	-11.8669
bah	-11.867
▁sipunculus	-11.8685
juga	-11.8688
▁mic	-11.869
chaetoderma	-11.8694
cier	-11.8695
cupedora	-11.8695
lycoris	-11.8695
onychoteuthis	-11.8695
▁constricta	-11.8695
▁emperador	-11.8695
▁fibrosa	-11.8695
▁grisea	-11.8695
▁spectabilis	-11.8695
haplosyllis	-11.8695
▁troschel	-11.8695
▁taliwala	-11.8695
tripyla	-11.8695
pavona	-11.8695
eirene	-11.8695
▁meyer	-11.8695
▁tsina	-11.8696
sclerasterias	-11.8696
▁cirrata	-11.8697
namanereis	-11.8697
tek	-11.8698
▁francisco	-11.8701
episiphon	-11.8702
dampierre	-11.8709
▁grimaldii	-11.8712
pseudopotamilla	-11.8716
▁thalamoporella	-11.8719
▁fauchaldi	-11.8722
▁conescharellina	-11.8725
▁pero	-11.8728
▁dicyema	-11.8729
▁lobatus	-11.8734
pseudopolydora	-11.8734
▁stephensoni	-11.8737
▁forcepia	-11.8741
▁iophon	-11.8748
▁relihiyon	-11.8748
schizoporellidae	-11.875
stemma	-11.8751
▁phakellia	-11.8752
lucina	-11.8753
adocia	-11.8754
▁cana	-11.8759
chari	-11.876
eman	-11.8769
teuthis	-11.8782
scosoma	-11.8783
▁euc	-11.8789
▁longicauda	-11.8797
▁unom	-11.8804
▁profundi	-11.8806
ancistrosyllis	-11.8806
cinachyra	-11.8806
crisularia	-11.8806
streptosyllis	-11.8806
▁annulatus	-11.8806
▁bibliya	-11.8806
▁corticata	-11.8806
▁gobyerno	-11.8806
▁kasundalohan	-11.8806
▁longissima	-11.8806
▁marginata	-11.8806
▁paucispina	-11.8806
carbasea	-11.8806
▁golvan	-11.8806
acanella	-11.8806
▁haime	-11.8806
carinina	-11.8806
limatula	-11.8806
▁phrixgnathus	-11.8808
suporta	-11.8808
▁calcar	-11.8818
taeni	-11.8818
▁114	-11.8821
▁goniada	-11.8836
spongeli	-11.8844
▁fredri	-11.8845
pay	-11.8846
▁arg	-11.8865
range	-11.8866
ilya	-11.8866
clymenella	-11.8875
mary	-11.8884
▁archi	-11.8891
▁utlanan	-11.8896
▁moorei	-11.89
mesacanthion	-11.8901
▁138	-11.8904
▁mediorhynchus	-11.8904
havan	-11.8904
dorylaimus	-11.8908
▁ophelina	-11.8908
paractis	-11.8913
mena	-11.8916
voluta	-11.8918
drillia	-11.8918
antarctothoa	-11.8918
anthomastus	-11.8918
eunapius	-11.8918
exochella	-11.8918
hymeraphia	-11.8918
leonnates	-11.8918
limnodrilus	-11.8918
ophiolebes	-11.8918
plagioecia	-11.8918
selenaria	-11.8918
sthenolepis	-11.8918
▁dicyemidae	-11.8918
▁evelinae	-11.8918
▁stiasny	-11.8918
▁whitelegge	-11.8918
anthelia	-11.8918
▁sundalo	-11.8918
▁lutea	-11.8919
▁mahimo	-11.8919
hailovi	-11.8919
didier	-11.8919
acmaea	-11.8919
▁pectinidae	-11.8919
▁hauer	-11.892
gattyana	-11.8922
paranaitis	-11.8924
mooreonuphis	-11.8927
hesione	-11.8928
▁cruz	-11.893
tryonia	-11.8933
gnicourt	-11.8942
eulima	-11.8943
owenia	-11.8943
kinorhynchus	-11.895
panda	-11.8952
ours	-11.8956
châ	-11.8956
moulins	-11.8956
calliostomatidae	-11.896
▁alvania	-11.8965
paradentalium	-11.8973
▁turk	-11.8981
hana	-11.8986
▁rubi	-11.8987
kaw	-11.899
▁smitti	-11.8994
ibo	-11.9002
▁margarit	-11.9003
guen	-11.9004
▁fisheri	-11.9022
▁calyptotheca	-11.9022
▁wolfgan	-11.9025
▁cobbi	-11.9027
▁triangula	-11.9031
porrorchis	-11.9032
pterocirrus	-11.9032
sphaerodoridium	-11.9032
▁arborea	-11.9032
▁canaliculata	-11.9032
▁carinatus	-11.9032
▁caudatus	-11.9032
▁gingharian	-11.9032
▁gobernador	-11.9032
▁obliqua	-11.9032
▁popular	-11.9032
▁sycettidae	-11.9032
▁tedaniidae	-11.9032
anseropoda	-11.9032
bebryce	-11.9032
cribrilaria	-11.9032
gervais	-11.9032
gonoplectus	-11.9032
planorbella	-11.9032
tichosina	-11.9032
▁rostrata	-11.9032
rhinotus	-11.9032
▁longipes	-11.9032
▁crisiidae	-11.9032
▁fusiformis	-11.9032
▁rubens	-11.9032
▁vicente	-11.9032
▁canadensis	-11.9032
▁pinnata	-11.9033
peloscolex	-11.9033
▁pulcher	-11.9035
▁kadagatang	-11.9035
remy	-11.9038
▁lasse	-11.9043
melanella	-11.9044
nap	-11.9044
basse	-11.9047
▁pagtuon	-11.9057
▁phascolion	-11.9059
tibo	-11.9063
▁smithi	-11.9074
▁isabel	-11.9075
limopsis	-11.9076
▁greg	-11.9085
pour	-11.9089
philippine	-11.9093
aya	-11.9096
ngalan	-11.91
▁lyra	-11.9114
▁lib	-11.9117
▁blainville	-11.912
▁loph	-11.9124
▁prolifera	-11.9132
gast	-11.914
californi	-11.9147
clavularia	-11.9147
hippothoa	-11.9147
hormiphora	-11.9147
inarabigo	-11.9147
macrochaetus	-11.9147
oxystomina	-11.9147
rhytida	-11.9147
▁euryalidae	-11.9147
▁kritikal	-11.9147
▁nigrescens	-11.9147
porcellanaster	-11.9147
▁finlay	-11.9147
bubaris	-11.9147
▁unidos	-11.9147
▁pandeidae	-11.9147
▁kusog	-11.9147
▁hebes	-11.9147
▁diplogasteridae	-11.9147
▁silang	-11.915
phylo	-11.915
▁lrt	-11.9151
nuculana	-11.9154
silbi	-11.9155
▁crosslandi	-11.9158
▁vitrea	-11.916
▁rowe	-11.9164
polygordius	-11.9167
gorgon	-11.9168
▁good	-11.917
tilly	-11.9174
ormes	-11.9185
lén	-11.9196
▁marenzeller	-11.9199
▁fischer	-11.9204
big	-11.9204
oisy	-11.921
uzet	-11.921
ctena	-11.9214
1)	-11.9216
▁awit	-11.9219
▁1786	-11.9253
▁kristensen	-11.9263
▁valenciennes	-11.9263
ascaltis	-11.9263
crucibulum	-11.9263
enoplolaimus	-11.9263
eucheilota	-11.9263
helicochetus	-11.9263
malacoceros	-11.9263
metroperiella	-11.9263
psammolyce	-11.9263
synelmis	-11.9263
▁fuscus	-11.9263
▁inornata	-11.9263
▁ochracea	-11.9263
▁réunion	-11.9263
▁ciliata	-11.9263
filipino	-11.9263
▁schubart	-11.9263
▁pieter	-11.9263
▁namatay	-11.9263
▁haddon	-11.9264
▁segers	-11.9264
thauma	-11.9264
sagartia	-11.9265
▁curta	-11.9265
best	-11.9266
▁polymorpha	-11.9266
▁pagdumala	-11.9267
aetea	-11.9272
▁ikatulong	-11.9279
capelle	-11.9282
▁kri	-11.9283
kasadpang	-11.9284
▁2015	-11.9288
discosoma	-11.9288
▁danae	-11.9289
▁garcia	-11.9291
marche	-11.9296
▁ijimai	-11.9299
montfort	-11.9305
▁taenia	-11.9334
escu	-11.9336
aquila	-11.9339
ivry	-11.934
foug	-11.9345
▁bakeri	-11.9348
sakop	-11.9348
rah	-11.9354
alang	-11.9357
vignes	-11.9359
hopl	-11.9372
▁deshayes	-11.9381
northern	-11.9381
ameritella	-11.9381
cirrhipathes	-11.9381
cucumaria	-11.9381
cylindrolaimus	-11.9381
ecionemia	-11.9381
leitoscoloplos	-11.9381
lycopodina	-11.9381
spinther	-11.9381
▁alaskensis	-11.9381
▁alternata	-11.9381
▁chrysopetalidae	-11.9381
▁glyceridae	-11.9381
▁inconspicua	-11.9381
▁metropolitan	-11.9381
▁nahitabo	-11.9381
▁sydney	-11.9381
muusoctopus	-11.9381
auletta	-11.9381
filinia	-11.9381
▁antonio	-11.9381
obranchus	-11.9382
tortus	-11.9386
frey	-11.9388
pseudarchaster	-11.9392
fabriciola	-11.9399
almidae	-11.9404
microspirobolus	-11.9413
cebuano	-11.9414
bomba	-11.9415
▁base	-11.9415
baya	-11.9416
▁dios	-11.9428
lund	-11.9434
▁115	-11.945
brou	-11.9451
cand	-11.9454
bato	-11.9455
▁row	-11.9467
▁babaye	-11.9469
▁benham	-11.9471
goux	-11.9471
▁bocki	-11.9471
moutiers	-11.9478
égu	-11.9481
▁124	-11.9492
▁jacob	-11.9498
acteon	-11.95
clément	-11.95
beatogordius	-11.95
corvospongilla	-11.95
epsilonoides	-11.95
graptacme	-11.95
hexapodibius	-11.95
hymenodiscus	-11.95
lagenipora	-11.95
orthopyxis	-11.95
pentaceraster	-11.95
polyzonium	-11.95
pterognathia	-11.95
reptadeonella	-11.95
siphonodentalium	-11.95
stelodoryx	-11.95
▁dentatus	-11.95
▁muricata	-11.95
▁otagoensis	-11.95
▁spinulosa	-11.95
▁regalis	-11.95
falloria	-11.95
▁pumila	-11.95
bocage	-11.95
▁totton	-11.95
▁editor	-11.95
pyrg	-11.9501
leptosynapta	-11.9501
radiospongilla	-11.9501
▁nudus	-11.9501
▁hô	-11.9502
helobdella	-11.9502
polypus	-11.9503
▁libera	-11.9505
hemigellius	-11.9506
▁litob	-11.9506
epiperipatus	-11.9508
▁capitata	-11.9508
maure	-11.9509
robert	-11.951
▁1825	-11.951
talaan	-11.951
▁hamata	-11.9512
luz	-11.9514
▁valida	-11.9515
▁inahan	-11.9518
sarthe	-11.9521
ironus	-11.9525
adto	-11.9525
itche	-11.9526
beaumont	-11.9526
▁galea	-11.9529
ignol	-11.9529
▁tinu	-11.9537
anguina	-11.9538
wala	-11.954
agnan	-11.9543
▁peyr	-11.9547
issac	-11.9569
taas	-11.9576
kha	-11.9577
▁remane	-11.9592
▁barba	-11.9593
▁moro	-11.9609
alban	-11.961
▁acicula	-11.9611
bati	-11.9618
onoba	-11.962
cyclocardia	-11.962
esnault	-11.962
pectinodrilus	-11.962
▁artikulo	-11.962
▁clathrata	-11.962
▁peninsula	-11.962
▁hinuon	-11.962
▁knight	-11.962
lukop	-11.9621
▁hoffman	-11.9621
bellonella	-11.9621
vallée	-11.9621
▁rowland	-11.9621
goniodiscaster	-11.9621
feu	-11.9622
stellaster	-11.9628
uko	-11.9629
achromadora	-11.9637
paracyatholaimus	-11.964
▁hancocki	-11.9642
▁cuba	-11.9644
▁roseus	-11.9649
0,000	-11.965
paraturbanella	-11.9654
▁jeffreys	-11.9656
▁porma	-11.9673
coel	-11.9687
▁koehleri	-11.9688
fontaines	-11.969
▁47	-11.9696
basa	-11.9701
▁hum	-11.9712
▁134	-11.9721
▁walo	-11.9725
▁challengeri	-11.9742
antennella	-11.9742
armaueria	-11.9742
bougainvilliidae	-11.9742
leocrates	-11.9742
plexaurella	-11.9742
polinices	-11.9742
psilaster	-11.9742
▁adenophorea	-11.9742
▁asymmetrica	-11.9742
▁gracillima	-11.9742
▁nangamatay	-11.9742
▁vanhoeffeni	-11.9742
bruyère	-11.9742
stegophiura	-11.9742
▁debilis	-11.9742
langkob	-11.9743
laxland	-11.9743
▁ingens	-11.9743
▁year	-11.9743
▁clench	-11.9743
macrochaeta	-11.9744
▁fasciculata	-11.9744
▁andrew	-11.9744
balaenanemertes	-11.9745
aff	-11.9746
urodasys	-11.9748
▁south	-11.975
bankia	-11.9751
beaulieu	-11.9754
dactylia	-11.9754
ubay	-11.9756
lanice	-11.9759
▁iv	-11.9761
hyattella	-11.9767
▁remanei	-11.9772
vida	-11.979
▁bartschi	-11.9791
pachy	-11.9797
▁cumingi	-11.9804
bie	-11.9816
plumo	-11.9841
▁joubini	-11.9853
▁quadra	-11.9855
▁harmelin	-11.9861
bn	-11.9862
cerianthus	-11.9863
anelassorhynchus	-11.9866
anoplostoma	-11.9866
madracis	-11.9866
plakortis	-11.9866
prinanses	-11.9866
sycandra	-11.9866
▁chondropsidae	-11.9866
▁cornelius	-11.9866
▁djakonov	-11.9866
▁dysideidae	-11.9866
▁microsoft	-11.9866
▁novaezelandiae	-11.9866
▁trigoniulidae	-11.9866
paragorgia	-11.9866
▁australe	-11.9866
elysia	-11.9866
▁central	-11.9866
cyanea	-11.9866
▁pacificum	-11.9866
spiochaetopterus	-11.9867
tylobolus	-11.9867
glandula	-11.9867
bussière	-11.9868
leuckartiara	-11.9869
▁sugboanon	-11.987
tikong	-11.9875
paralinhomoeus	-11.9879
vay	-11.9879
ource	-11.9882
▁156	-11.9886
▁voss	-11.9893
parapionosyllis	-11.9896
laur	-11.9915
jeu	-11.9917
▁hickson	-11.9919
jour	-11.9919
▁gisulat	-11.9922
mara	-11.9924
human	-11.9925
▁delle	-11.9927
combe	-11.9931
▁49	-11.9931
▁glan	-11.9934
allen	-11.9935
prés	-11.9936
cyatholaimus	-11.9961
▁boa	-11.9965
othuria	-11.9975
▁giila	-11.9976
nannolene	-11.9976
ousse	-11.9989
aphelenchus	-11.9991
clypeaster	-11.9991
corallistes	-11.9991
homalopoma	-11.9991
laevidentalium	-11.9991
novocrania	-11.9991
pedicellina	-11.9991
plutonaster	-11.9991
stylarioides	-11.9991
stylissa	-11.9991
▁antarcticum	-11.9991
▁articulata	-11.9991
▁cavernosa	-11.9991
▁flabelliformis	-11.9991
▁frigida	-11.9991
▁infundibulum	-11.9991
▁kelly	-11.9991
▁ljungman	-11.9991
▁membranacea	-11.9991
▁torquata	-11.9991
▁anceps	-11.9991
▁fulva	-11.9991
modiolus	-11.9991
▁arcuata	-11.9991
▁dilatata	-11.9991
▁ventricosa	-11.9991
▁granifer	-11.9991
▁mixta	-11.9991
psammogorgia	-11.9991
▁citrina	-11.9991
paraonis	-11.9991
▁armiger	-11.9992
prunum	-11.9992
gonatus	-11.9992
hubad	-11.9993
▁ross	-11.9996
berville	-11.9996
▁patula	-11.9999
fleury	-12.0001
odesma	-12.0003
fauveliopsis	-12.0007
▁1776	-12.0009
otrocha	-12.0016
bernard	-12.0017
▁norman	-12.0022
▁panahona	-12.0028
chondr	-12.0044
▁koch	-12.0052
▁schulzei	-12.0052
ayon	-12.0067
table	-12.0073
llet	-12.0073
▁kanta	-12.0073
▁hedley	-12.0088
▁auricula	-12.0101
adoncholaimus	-12.0115
phanoderma	-12.0117
aidanosagitta	-12.0117
astrangia	-12.0117
benthopectinidae	-12.0117
cavernularia	-12.0117
cespitularia	-12.0117
dipsacaster	-12.0117
holascus	-12.0117
hypodontolaimus	-12.0117
lepidopora	-12.0117
melicerita	-12.0117
oncosclera	-12.0117
onithochiton	-12.0117
petraliella	-12.0117
polymerurus	-12.0117
pulsellum	-12.0117
rhabdodemania	-12.0117
rhamphidarpoides	-12.0117
▁actinostolidae	-12.0117
▁brevipes	-12.0117
▁flavescens	-12.0117
▁galapagensis	-12.0117
▁perforata	-12.0117
gaillard	-12.0117
terpios	-12.0117
ylindrotheristus	-12.0117
▁annenkova	-12.0117
▁ditlevsen	-12.0117
▁nidaliidae	-12.0117
sathodrilus	-12.0117
▁poritidae	-12.0117
culicia	-12.0118
vertigo	-12.0118
▁knox	-12.0118
astroceras	-12.0118
priest	-12.012
▁gihapon	-12.0121
▁nivea	-12.0122
▁1830	-12.0124
rochefort	-12.0125
▁sangka	-12.0126
paracanthonchus	-12.0126
ert	-12.0133
leaena	-12.0141
thoosa	-12.0151
bretagne	-12.0158
▁uschakov	-12.0164
gikan	-12.0168
polycera	-12.0173
lapu	-12.0173
villard	-12.0174
guba	-12.0174
angkon	-12.0185
pach	-12.0186
rose	-12.0191
reh	-12.0194
▁hastings	-12.0208
vray	-12.0212
▁tener	-12.0215
▁pito	-12.0218
dagan	-12.0232
acanthion	-12.0244
symphorien	-12.0246
english	-12.0246
▁orbicula	-12.0246
anaitides	-12.0246
ephesiella	-12.0246
kompsoprium	-12.0246
▁aequalis	-12.0246
▁duplex	-12.0246
▁fleming	-12.0246
▁fruticosa	-12.0246
▁gibbosa	-12.0246
▁longicornis	-12.0246
▁neozelanica	-12.0246
▁notabilis	-12.0246
▁pallidus	-12.0246
▁perplexa	-12.0246
▁piscicolidae	-12.0246
▁sepiolidae	-12.0246
mytilina	-12.0246
puncturella	-12.0246
▁acutus	-12.0246
▁glasby	-12.0246
clermont	-12.0246
▁conferta	-12.0246
▁nodulosa	-12.0246
▁kanunay	-12.0246
▁ferox	-12.0246
theonella	-12.0246
fimbria	-12.0246
▁lucinidae	-12.0247
▁grupo	-12.0247
▁tornidae	-12.0247
▁splendida	-12.0247
▁aurea	-12.0247
▁flores	-12.0247
▁recta	-12.0247
▁light	-12.0248
temple	-12.0248
metavermilia	-12.0251
metachromadora	-12.0253
▁wolf	-12.0255
▁quadrata	-12.0256
▁longicaudata	-12.0257
▁barbata	-12.0258
▁stylifera	-12.0258
▁joubin	-12.0259
heteroxenia	-12.026
▁reid	-12.0261
▁suteri	-12.0268
nellia	-12.0269
▁mariae	-12.027
▁rudolphi	-12.0275
tibuok	-12.0291
▁walkeri	-12.0294
▁vaud	-12.03
cnid	-12.0303
▁alpabeto	-12.0304
migny	-12.0308
roz	-12.0309
amand	-12.0312
▁mah	-12.0314
▁hemphilli	-12.0314
▁herman	-12.0316
▁bayeri	-12.0317
vron	-12.032
▁transi	-12.0324
▁ocean	-12.0324
asclerocheilus	-12.033
avit	-12.0341
vulcanella	-12.0341
▁bk	-12.0344
▁maz	-12.0345
comte	-12.036
ophiur	-12.0365
▁tuo	-12.0369
▁cleave	-12.0369
▁studeri	-12.0372
onchium	-12.0374
bordes	-12.0375
pocillopora	-12.0376
daphnella	-12.0376
stomatopora	-12.0376
▁baybayon	-12.0376
▁economi	-12.0376
▁electridae	-12.0376
▁kermadecensis	-12.0376
▁lichenoporidae	-12.0376
▁peripatidae	-12.0376
▁primitiva	-12.0376
▁turbinoliidae	-12.0376
▁pyramida	-12.0376
ophiotreta	-12.0376
▁comesomatidae	-12.0376
teredo	-12.0376
▁rioja	-12.0376
▁1829.	-12.0376
▁lewis	-12.0377
libo	-12.0377
▁lokal	-12.0377
▁kasalu	-12.0377
pectinura	-12.0377
▁torben	-12.0378
boissière	-12.0379
▁1837	-12.0382
bresse	-12.0385
▁zone	-12.0389
leux	-12.0392
▁mali	-12.0407
fabricia	-12.0409
retz	-12.0411
▁broch	-12.0411
illet	-12.0424
butang	-12.043
canda	-12.0434
▁marshalli	-12.0438
▁kalibotanon	-12.0439
ocystis	-12.0471
▁nakapa	-12.0479
omma	-12.048
ully	-12.0483
archi	-12.049
aiptasia	-12.0507
cardiomya	-12.0507
compsodrillia	-12.0507
crateromorpha	-12.0507
guitarra	-12.0507
polyarthra	-12.0507
prosadenoporus	-12.0507
▁arborescens	-12.0507
▁fenestrata	-12.0507
▁foliacea	-12.0507
▁hiniusang	-12.0507
▁hirsutus	-12.0507
▁longiseta	-12.0507
▁multiformis	-12.0507
▁purpureus	-12.0507
▁turgida	-12.0507
▁verticillata	-12.0507
▁danielssen	-12.0507
▁tenuissima	-12.0507
leptoseris	-12.0507
▁roxas	-12.0507
adineta	-12.0507
chaperia	-12.0507
ilyodrilus	-12.0507
tritonia	-12.0507
▁keller	-12.0508
▁triangularis	-12.0509
dota	-12.0509
procamallanus	-12.051
boa	-12.051
▁andamanensis	-12.0511
awit	-12.0515
▁aciculata	-12.0518
▁lambe	-12.0529
marque	-12.0544
turner	-12.0558
thorpe	-12.0559
▁sarsii	-12.0563
▁levinsen	-12.0571
▁fred	-12.0596
▁sri	-12.0597
▁spirobolellidae	-12.06
2,	-12.0604
ubos	-12.0621
▁kinbergi	-12.0624
▁chiaje	-12.0625
rousse	-12.0633
▁america	-12.0636
hebella	-12.0639
scalibregma	-12.0639
▁rullier	-12.064
▁karakter	-12.064
axiothella	-12.064
crepidacantha	-12.064
dercitus	-12.064
fissurella	-12.064
geotypodon	-12.064
idmidronea	-12.064
phoriospongia	-12.064
scalisetosus	-12.064
scyphoproctus	-12.064
sphaerodorum	-12.064
staurocalyptus	-12.064
tetreres	-12.064
timarete	-12.064
▁cambalidae	-12.064
▁cucumariidae	-12.064
▁cuspidariidae	-12.064
▁difficilis	-12.064
▁olivacea	-12.064
▁masbate	-12.064
ianthella	-12.064
▁oliver	-12.0641
▁saussure	-12.0641
▁album	-12.0641
endectyon	-12.0641
castillon	-12.0641
▁petersen	-12.0641
▁trochidae	-12.0642
gorgorhynchus	-12.0642
▁senso	-12.0644
blanche	-12.0646
castel	-12.0647
monanchora	-12.0647
▁1819	-12.0647
planktonemertes	-12.0648
rent	-12.0648
▁class	-12.0653
martial	-12.0659
tir	-12.0659
euchromadora	-12.0663
▁154	-12.0669
tourne	-12.0675
daog	-12.0679
lingula	-12.0688
vielle	-12.0698
▁hubrecht	-12.0698
ash	-12.0702
basahon	-12.0706
pion	-12.0722
▁leidy	-12.0744
▁lamella	-12.0771
adelodrilus	-12.0776
asbestopluma	-12.0776
basedowena	-12.0776
genetyllis	-12.0776
gymnobela	-12.0776
ophlitaspongia	-12.0776
parkermavella	-12.0776
pleuretra	-12.0776
schwartziella	-12.0776
stephanocyathus	-12.0776
sycettusa	-12.0776
▁aculeatus	-12.0776
▁antillensis	-12.0776
▁clathrinidae	-12.0776
▁corallicola	-12.0776
▁deichmann	-12.0776
▁divaricata	-12.0776
▁exiguus	-12.0776
▁flexilis	-12.0776
▁griyego	-12.0776
▁lamellosa	-12.0776
▁langyab	-12.0776
▁montereyensis	-12.0776
▁ofwegen	-12.0776
▁pachybolidae	-12.0776
▁parvulus	-12.0776
▁polygyridae	-12.0776
▁tropikal	-12.0776
▁undulata	-12.0776
hemiasterella	-12.0776
▁1767.	-12.0776
▁minutum	-12.0776
▁punctatus	-12.0776
▁pusillus	-12.0776
enoploteuthis	-12.0776
▁festiva	-12.0776
▁dictyonellidae	-12.0776
▁brasil	-12.0776
▁martinika	-12.0776
sigmaxinella	-12.0776
▁columbiana	-12.0778
pachycerianthus	-12.0779
▁chaney	-12.078
inusara	-12.0781
▁politikal	-12.0784
▁latus	-12.0786
villedieu	-12.0788
▁laden	-12.0788
▁pagsu	-12.0789
▁malayensis	-12.0789
eupolia	-12.0792
simnia	-12.0795
▁toyo	-12.0797
saulx	-12.08
metania	-12.08
▁lider	-12.0801
plain	-12.0801
aye	-12.0814
erre	-12.0817
gastrocopta	-12.0818
▁clo	-12.0827
▁tara	-12.0828
▁monroi	-12.0829
vanne	-12.0839
nemato	-12.0843
eign	-12.0861
▁pilsbryi	-12.0872
rance	-12.0874
▁hartmani	-12.0878
edit	-12.0878
▁arb	-12.0882
▁thalamoporell	-12.0895
zelles	-12.0895
▁thalass	-12.0898
astrophyton	-12.0913
chromadorita	-12.0913
cylichna	-12.0913
darwinella	-12.0913
flustrellidra	-12.0913
haminoea	-12.0913
patinatius	-12.0913
scaphiostreptus	-12.0913
staurocephalus	-12.0913
tripyloides	-12.0913
volutopsius	-12.0913
▁atopetholidae	-12.0913
▁chaperiidae	-12.0913
▁eirenidae	-12.0913
▁konstantin	-12.0913
▁planorbidae	-12.0913
▁skeneidae	-12.0913
▁southward	-12.0913
▁synchaetidae	-12.0913
alveopora	-12.0913
vexin	-12.0913
▁hendri	-12.0913
▁nielsen	-12.0913
okenia	-12.0913
suberea	-12.0913
histioteuthis	-12.0913
hoffen	-12.0918
▁rota	-12.0918
▁libro	-12.0926
▁1821	-12.0929
▁ellis	-12.0959
dompierre	-12.0964
murex	-12.097
▁rob	-12.0977
puyo	-12.0988
tenay	-12.0998
acella	-12.1004
▁georgi	-12.1007
▁vaughan	-12.1009
▁niadto	-12.1014
▁kirkegaard	-12.1014
oué	-12.1015
fonte	-12.1021
▁thompson	-12.1022
enipo	-12.1028
logo	-12.1037
tung	-12.1044
ostrea	-12.1049
euphrosyne	-12.1051
hippasteria	-12.1051
primnoella	-12.1051
trichobranchidae	-12.1051
▁adriatica	-12.1051
▁amboinensis	-12.1051
▁attenuatus	-12.1051
▁corymorphidae	-12.1051
▁daghag	-12.1051
▁enigmatica	-12.1051
▁excavata	-12.1051
▁flaccida	-12.1051
▁frondosa	-12.1051
▁imbricata	-12.1051
▁multispina	-12.1051
▁nigricans	-12.1051
▁pamaagi	-12.1051
▁papillosus	-12.1051
▁princeps	-12.1051
aplysia	-12.1051
arrondissement	-12.1051
manayunkia	-12.1051
ophiocamax	-12.1051
tanarctus	-12.1051
▁maucci	-12.1051
▁mcginty	-12.1051
carteriospongia	-12.1051
▁caudata	-12.1051
▁confusa	-12.1051
▁terminal	-12.1052
▁serratus	-12.1052
▁littorinidae	-12.1052
▁tuberculosa	-12.1052
▁oreasteridae	-12.1052
telesto	-12.1052
▁lawas	-12.1053
▁longicirrata	-12.1055
▁yves	-12.1055
siliqua	-12.1056
zygo	-12.1056
▁1803	-12.1057
eglise	-12.1059
▁jonesi	-12.1059
▁morris	-12.106
▁1790	-12.1067
▁langerhans	-12.1067
monostyla	-12.1067
▁moseleyi	-12.1077
foy	-12.1078
mez	-12.1079
lliker	-12.1091
▁lanceopor	-12.113
tethy	-12.1133
dictyo	-12.1139
ffen	-12.1146
▁mik	-12.1147
▁richters	-12.1154
▁miles	-12.1156
▁pila	-12.1156
▁hircini	-12.118
proctus	-12.1192
actinostola	-12.1192
axonolaimus	-12.1192
ceratopsion	-12.1192
copidozoum	-12.1192
fusconaia	-12.1192
lacydonia	-12.1192
melinnopsis	-12.1192
novodinia	-12.1192
opisthoteuthis	-12.1192
plectroninia	-12.1192
podocoryna	-12.1192
potamothrix	-12.1192
rhamphidarpe	-12.1192
▁brisingidae	-12.1192
▁eudendriidae	-12.1192
▁flosculariidae	-12.1192
▁plakinidae	-12.1192
neotonchus	-12.1192
médard	-12.1192
cupuladria	-12.1192
▁hoyle	-12.1192
▁helicarionidae	-12.1192
valvata	-12.1193
▁aklan	-12.1193
▁rizal	-12.1193
nolella	-12.1193
alagad	-12.1194
cyclopecten	-12.1194
oshua	-12.1194
notophyllum	-12.1195
▁kibol	-12.1195
dictyonella	-12.1196
entalina	-12.1198
▁bifurcata	-12.12
▁chang	-12.1202
zal	-12.1202
▁gravi	-12.1203
▁cran	-12.121
ophiochiton	-12.1211
▁hier	-12.1218
amphinema	-12.1223
▁gerlachi	-12.1225
zor	-12.1253
poricella	-12.1254
anodonta	-12.1256
imong	-12.1258
mysta	-12.127
micropora	-12.1278
batan	-12.1288
▁web	-12.1293
▁bastian	-12.1297
barbe	-12.1307
nasod	-12.1309
conte	-12.1309
▁tina	-12.1317
bayan	-12.1322
adour	-12.133
lihok	-12.133
alasmidonta	-12.1335
bunodosoma	-12.1335
chrysopetalum	-12.1335
conasprella	-12.1335
cryptoplax	-12.1335
hesionides	-12.1335
hexarthra	-12.1335
hôpital	-12.1335
itaquascon	-12.1335
plocamia	-12.1335
skrjabin	-12.1335
stenosemus	-12.1335
styracaster	-12.1335
tetraplaria	-12.1335
wijnhoff	-12.1335
▁broderip	-12.1335
▁divergens	-12.1335
▁elliptica	-12.1335
▁formosus	-12.1335
▁integra	-12.1335
▁propinqua	-12.1335
▁pygmaeus	-12.1335
▁arenaria	-12.1335
▁distans	-12.1335
▁kasamtangan	-12.1335
antropora	-12.1335
▁hamatus	-12.1335
▁wyville	-12.1335
▁kolonya	-12.1335
▁hessle	-12.1335
mesochaetopterus	-12.1335
▁potts	-12.1335
▁diversi	-12.1335
ospinosus	-12.1336
▁sentral	-12.1336
anadara	-12.1336
chondropsis	-12.1336
▁lingua	-12.1337
▁daday	-12.1337
marcilly	-12.1337
mopsea	-12.1337
aubigny	-12.1339
hayag	-12.1339
characella	-12.134
▁tanom	-12.1341
▁hancock	-12.1341
▁natans	-12.1342
▁uniformis	-12.1343
▁pettiboneae	-12.1346
stelospong	-12.1351
beaufort	-12.1352
▁edwardsiidae	-12.1352
▁rag	-12.1363
▁hicksoni	-12.1369
prat	-12.1371
▁will	-12.1385
eurete	-12.1391
▁salles	-12.1394
▁watersi	-12.1394
▁2005	-12.1412
▁naapil	-12.142
margaretta	-12.142
boy	-12.1423
somme	-12.1433
▁capita	-12.1434
lagis	-12.1437
chondro	-12.1438
▁hug	-12.1449
mantala	-12.145
▁unyon	-12.1461
▁bill	-12.1461
noz	-12.1462
chromadorella	-12.1468
paranemertes	-12.1471
ophyllum	-12.1475
▁tali	-12.1475
abbaye	-12.148
bryodelphax	-12.148
cerianthula	-12.148
cristilabrum	-12.148
dactylobiotus	-12.148
eleutherobia	-12.148
flabellopora	-12.148
florarctus	-12.148
myxicola	-12.148
octochaetus	-12.148
orthoscuticella	-12.148
peosidrilus	-12.148
rhyssoplax	-12.148
schizoretepora	-12.148
sphenotrochus	-12.148
spilophorella	-12.148
spongionella	-12.148
syndesmogenus	-12.148
tylopathes	-12.148
▁arafat	-12.148
▁cerianthidae	-12.148
▁dofleini	-12.148
▁hippothoidae	-12.148
▁squamosa	-12.148
calloporina	-12.148
dischides	-12.148
goniaster	-12.148
lirobittium	-12.148
▁airport	-12.148
hyalopomatus	-12.148
▁pontica	-12.148
▁internasyonal	-12.148
▁dick	-12.148
astrogorgia	-12.1481
▁sugod	-12.1481
▁diyos	-12.1482
▁brevispina	-12.1482
uer	-12.1483
calliaster	-12.1484
▁katitikan	-12.1485
▁1817	-12.149
moulin	-12.1491
pseudostomella	-12.1492
leptychaster	-12.1492
echinopora	-12.1493
▁bali	-12.1502
euphysa	-12.1505
▁stella	-12.1506
▁hansen	-12.1507
authie	-12.1509
laure	-12.1521
lobatus	-12.1524
grave	-12.1527
▁alberti	-12.153
lumbriclymene	-12.1534
▁dean	-12.1545
eppe	-12.1555
▁malmgren	-12.1559
▁166	-12.1564
turbo	-12.1565
coste	-12.1565
▁tele	-12.1566
bion	-12.158
ôme	-12.1583
sticho	-12.1588
▁chu	-12.1589
columbian	-12.1593
bécourt	-12.1595
rès	-12.1597
voy	-12.1599
▁hanley	-12.1603
dore	-12.161
▁biemn	-12.161
laye	-12.1612
lysilla	-12.1624
▁mihelcic	-12.1627
aciculites	-12.1627
bryocryptellidae	-12.1627
chrysaora	-12.1627
dasybranchus	-12.1627
kinetoskias	-12.1627
lichenopora	-12.1627
rhopalura	-12.1627
saccoglossus	-12.1627
siphonotus	-12.1627
▁abruzzo	-12.1627
▁beaniidae	-12.1627
▁bispinosa	-12.1627
▁britanya	-12.1627
▁comune	-12.1627
▁echinoderidae	-12.1627
▁exclus	-12.1627
▁geniculata	-12.1627
▁hemieuryalidae	-12.1627
▁longirostris	-12.1627
▁magnificus	-12.1627
▁maximus	-12.1627
▁mopaliidae	-12.1627
▁oxeata	-12.1627
▁petraliidae	-12.1627
▁proxima	-12.1627
▁seychellensis	-12.1627
▁spongiosa	-12.1627
columnella	-12.1627
▁importante	-12.1627
crossaster	-12.1627
lafoea	-12.1627
▁foliata	-12.1627
▁loricata	-12.1627
▁undata	-12.1628
milnesium	-12.1628
niac	-12.1628
▁nobela	-12.1628
homaxinella	-12.1628
resulta	-12.1628
pouy	-12.1628
laqueus	-12.163
garde	-12.1631
▁stellifera	-12.1632
▁1827	-12.1636
silva	-12.1646
▁polita	-12.1649
▁lamarcki	-12.1652
perche	-12.1697
oscarella	-12.1708
▁jesus	-12.1725
appa	-12.1733
cogn	-12.1735
▁solander	-12.1744
caro	-12.1753
ual	-12.1757
gattya	-12.1773
belmont	-12.1774
corallium	-12.1774
▁cort	-12.1776
▁korotkevi	-12.1776
aulospongus	-12.1776
lauratonema	-12.1776
lumbrinerides	-12.1776
lysippe	-12.1776
nectonemertes	-12.1776
viviparus	-12.1776
▁acoetidae	-12.1776
▁alcyonidiidae	-12.1776
▁cleopatra	-12.1776
▁desqueyroux	-12.1776
▁eburnea	-12.1776
▁hajdu	-12.1776
▁hilabihan	-12.1776
▁marginellidae	-12.1776
▁quadrigyridae	-12.1776
▁versluys	-12.1776
▁wadalup	-12.1776
amphicorina	-12.1776
bolbosoma	-12.1776
diastopora	-12.1776
euniphysa	-12.1776
phymanthus	-12.1776
▁strongyla	-12.1776
▁healy	-12.1776
▁bungto	-12.1777
modulus	-12.1777
▁pillai	-12.1777
▁titulo	-12.1777
laimella	-12.1777
cephalobus	-12.1777
▁numero	-12.1777
montaigu	-12.1777
obelia	-12.1778
maldanella	-12.1778
vsky	-12.1779
▁crellidae	-12.1781
▁natural	-12.1781
▁paghimo	-12.179
▁rang	-12.1791
▁yama	-12.1795
chant	-12.1798
▁gani	-12.1801
▁pseudonannolen	-12.1804
iulus	-12.1806
▁kataposan	-12.1816
louis	-12.1827
meaux	-12.1834
esh	-12.1842
▁holt	-12.1865
philo	-12.1865
▁nuttingi	-12.1866
peachia	-12.1873
mort	-12.1878
yonne	-12.1879
atys	-12.1887
▁kerm	-12.1889
▁pangalan	-12.1906
▁todaro	-12.1907
▁kinaiya	-12.1911
acanthorhynchus	-12.192
▁11,	-12.1924
acoetes	-12.1928
acrocirrus	-12.1928
anthothoe	-12.1928
cyclostremiscus	-12.1928
glacidorbis	-12.1928
hesionura	-12.1928
leucettusa	-12.1928
monographis	-12.1928
paralaoma	-12.1928
▁appendiculata	-12.1928
▁balsamo	-12.1928
▁brevicornis	-12.1928
▁fistulosa	-12.1928
▁imperialis	-12.1928
▁japonicum	-12.1928
▁mexicanus	-12.1928
▁pellucidus	-12.1928
▁sagittidae	-12.1928
▁sobyet	-12.1928
▁tabachnick	-12.1928
▁tripylidae	-12.1928
amphilimna	-12.1928
fasciola	-12.1928
▁glandulosa	-12.1928
▁reducta	-12.1928
arinolus	-12.1928
▁brazier	-12.1928
▁epsilonematidae	-12.1928
▁crenata	-12.1928
▁islandica	-12.1928
bailleul	-12.1928
rullierinereis	-12.1928
▁transversa	-12.1928
demonax	-12.1928
▁naumov	-12.1928
solmaris	-12.1928
▁placenta	-12.1928
▁longicaudatus	-12.1928
▁nasuta	-12.1928
bushiella	-12.1928
▁sibil	-12.1929
sosane	-12.193
aurelia	-12.193
▁georgiana	-12.1931
cominella	-12.1932
▁kinata	-12.1933
smittipora	-12.1933
cereus	-12.1934
▁1839	-12.1938
▁lamellata	-12.1939
loges	-12.1941
nueva	-12.1943
▁guyane	-12.1945
▁jeffreysii	-12.1955
▁smitt	-12.1956
village	-12.1957
joux	-12.1962
▁sent	-12.1964
richtersia	-12.1969
kirchenpaueria	-12.1974
ophiothamnus	-12.1987
▁taylori	-12.1992
hubrechtella	-12.1996
▁nanga	-12.2003
eiro	-12.2008
pseudonereis	-12.2016
▁mula	-12.202
▁schu	-12.202
▁senado	-12.2046
thalassema	-12.2046
genest	-12.205
▁procera	-12.2063
▁marenzelleri	-12.2076
▁hill	-12.2079
langerhansia	-12.208
▁244	-12.2081
bicellariella	-12.2082
chaussée	-12.2082
ctenoplana	-12.2082
dialychone	-12.2082
hexactinella	-12.2082
lophocharis	-12.2082
oligobrachia	-12.2082
pananglitan	-12.2082
paradoneis	-12.2082
phalacrostemma	-12.2082
plagiorhynchidae	-12.2082
sarcotragus	-12.2082
siphonicytara	-12.2082
staurocladia	-12.2082
swiftia	-12.2082
trefusia	-12.2082
zoosphaerium	-12.2082
▁alderslade	-12.2082
▁bathyalis	-12.2082
▁clavulariidae	-12.2082
▁fernando	-12.2082
▁marginatus	-12.2082
▁pennatulidae	-12.2082
▁rhytididae	-12.2082
désert	-12.2082
junceella	-12.2082
▁aquino	-12.2082
▁organisasyon	-12.2082
tanakh	-12.2082
▁tubulanidae	-12.2082
▁hudiyo	-12.2082
ooperipatus	-12.2082
▁cardiidae	-12.2082
▁fromont	-12.2082
pardalis	-12.2082
scalibregmatidae	-12.2083
▁squamata	-12.2085
aplysilla	-12.2087
hunong	-12.209
peyre	-12.2093
▁litera	-12.2093
ritz	-12.2101
▁urban	-12.2109
▁huttoni	-12.2109
stelligera	-12.2113
astraea	-12.2118
abogon	-12.2118
▁shell	-12.212
▁easter	-12.2125
▁krus	-12.2145
leap	-12.2153
hinay	-12.2155
▁graz	-12.2158
chione	-12.217
▁claus	-12.2175
▁makit	-12.2178
▁ako	-12.218
▁sigma	-12.2182
▁gipang	-12.2186
kent	-12.2195
vittata	-12.2207
▁scho	-12.2213
villar	-12.2214
epsilonema	-12.2238
antiguraleus	-12.2238
arachnactis	-12.2238
callistoctopus	-12.2238
carazziella	-12.2238
crispatotrochus	-12.2238
diplonotos	-12.2238
domosclerus	-12.2238
eulithidium	-12.2238
exechonella	-12.2238
glossobalanus	-12.2238
haliclystus	-12.2238
hippaliosina	-12.2238
hippomenella	-12.2238
klyxum	-12.2238
mesoginella	-12.2238
odontostreptus	-12.2238
ovabunda	-12.2238
paramonohystera	-12.2238
placostegus	-12.2238
planipapillus	-12.2238
pomatoceros	-12.2238
powellisetia	-12.2238
retevirgula	-12.2238
styraconyx	-12.2238
tectidrilus	-12.2238
turbinaria	-12.2238
▁annectens	-12.2238
▁aupouria	-12.2238
▁commensalis	-12.2238
▁dissimilis	-12.2238
▁edukasyon	-12.2238
▁esperiopsidae	-12.2238
▁ferruginea	-12.2238
▁maculatus	-12.2238
▁norvegicus	-12.2238
▁ortmann	-12.2238
▁probinsiya	-12.2238
▁setosus	-12.2238
▁spinosum	-12.2238
▁stekhoven	-12.2238
▁superbus	-12.2238
▁umbonata	-12.2238
▁versicolor	-12.2238
▁zebra	-12.2238
▁zelandica	-12.2238
ainudrilus	-12.2238
▁caribbean	-12.2238
amphictene	-12.2238
▁heteropiidae	-12.2238
stylatula	-12.2238
favites	-12.2238
▁crystallina	-12.2238
crambe	-12.2238
▁duncan	-12.2238
▁papillatus	-12.2238
▁carnea	-12.2238
▁kristo	-12.2238
amphidelus	-12.2238
▁rhabditidae	-12.2238
▁nitens	-12.2238
▁mactan	-12.2238
colombier	-12.2239
▁pachyderma	-12.2239
▁linearis	-12.2239
rhynchonereella	-12.2239
serpent	-12.2239
▁tenue	-12.224
hydridae	-12.224
iège	-12.2241
▁costatus	-12.2241
▁virens	-12.2242
echinolittorina	-12.2243
▁misunod	-12.2243
oculina	-12.2246
metoncholaimus	-12.2247
▁claparedii	-12.2248
▁lucida	-12.2249
pseudofabriciola	-12.2255
▁murdoch	-12.2259
▁hanna	-12.2268
▁obl	-12.2271
▁thompsoni	-12.2271
heterokrohnia	-12.2276
cymatium	-12.2291
palud	-12.2293
▁wellsi	-12.2298
vitrina	-12.2298
king	-12.231
uzon	-12.2319
hincksina	-12.232
▁vervoorti	-12.232
tillo	-12.2338
yuta	-12.2341
pathi	-12.2343
cout	-12.2351
▁boidae	-12.2356
▁levinseni	-12.2363
▁porat	-12.2365
lanne	-12.2371
ikaduha	-12.2373
pse	-12.2374
leucilla	-12.2376
fontaria	-12.2378
duol	-12.2381
chispirostreptus	-12.2384
stomella	-12.2386
▁tradisyon	-12.2394
abraliopsis	-12.2397
branchiosyllis	-12.2397
bylgides	-12.2397
cytaeis	-12.2397
eucalathis	-12.2397
notocirrus	-12.2397
ophioplocus	-12.2397
plakinastrella	-12.2397
sagartiogeton	-12.2397
stratospongilla	-12.2397
xanthomelon	-12.2397
▁camarines	-12.2397
▁disjuncta	-12.2397
▁dorsalis	-12.2397
▁euphrosinidae	-12.2397
▁fungiidae	-12.2397
▁lumulupyo	-12.2397
iotroata	-12.2397
rhaphoxya	-12.2397
▁dujardin	-12.2397
▁purpura	-12.2397
▁cochliop	-12.2397
▁simulans	-12.2397
synonchus	-12.2397
▁proalidae	-12.2397
euphione	-12.2397
▁lepida	-12.2397
cladostreptus	-12.2397
chondrosia	-12.2397
▁solasteridae	-12.2397
▁laguna	-12.2398
liasis	-12.2402
ophioscolex	-12.2402
carcinonemertes	-12.2403
▁antique	-12.2403
auriac	-12.2406
▁marcos	-12.2408
solen	-12.2408
ségur	-12.2409
ellisina	-12.2411
ism	-12.2422
▁marina	-12.2437
▁moll	-12.2438
fri	-12.2458
titik	-12.2463
reilles	-12.2467
dendrostom	-12.2468
firm	-12.2473
luna	-12.2477
▁longa	-12.2477
atsa	-12.2478
▁10,	-12.2499
philippe	-12.2513
▁bryce	-12.2513
▁stelliger	-12.2525
▁moseley	-12.2529
filho	-12.2538
kabat	-12.2539
▁claviger	-12.254
▁campanula	-12.2541
ectyo	-12.2544
▁gabriel	-12.2554
admete	-12.2556
▁columna	-12.2557
alcithoe	-12.2558
coscinasterias	-12.2558
fluminicola	-12.2558
nemertopsis	-12.2558
nfundibuliformis	-12.2558
ophiarachna	-12.2558
squatinella	-12.2558
thersites	-12.2558
▁alvarez	-12.2558
▁calyptraeidae	-12.2558
▁coerulea	-12.2558
▁distincta	-12.2558
▁elegantula	-12.2558
▁glauca	-12.2558
▁heterochaeta	-12.2558
▁ingolfi	-12.2558
▁kuekenthali	-12.2558
▁kurilensis	-12.2558
▁longisetosus	-12.2558
▁luetkeni	-12.2558
▁magelonidae	-12.2558
▁marmorata	-12.2558
▁mauritiana	-12.2558
▁pasipiko	-12.2558
▁pulcherrima	-12.2558
▁pycnophyidae	-12.2558
▁stipitata	-12.2558
▁trilineata	-12.2558
▁tubulariidae	-12.2558
▁uncinatus	-12.2558
▁vesiculariidae	-12.2558
▁mexico	-12.2558
▁pectinariidae	-12.2558
cycloseris	-12.2558
▁bifida	-12.2558
▁spicata	-12.2558
▁aurora	-12.2558
▁scleractinia	-12.2558
▁bidens	-12.2558
▁aperta	-12.2558
▁gaussi	-12.2558
holopsamma	-12.2558
▁alatus	-12.2558
▁lorenz	-12.2558
madagascariensis	-12.2559
▁plectidae	-12.2559
placobdella	-12.2559
lyonsia	-12.2559
▁pagpan	-12.2561
olividae	-12.2562
onymus	-12.2562
▁guille	-12.2566
▁giardi	-12.2568
▁rufa	-12.2568
▁1818	-12.2574
cylic	-12.2577
rhynchus	-12.2579
donax	-12.258
▁garc	-12.2581
laincourt	-12.2582
▁moser	-12.2582
hru	-12.2589
▁benhami	-12.2596
mbri	-12.26
▁enter	-12.2615
▁gravieri	-12.2621
▁fern	-12.2638
▁natad	-12.2641
▁savignyi	-12.2642
=2059	-12.2643
▁marna	-12.2643
lopadorrhynchus	-12.2645
▁browne	-12.2651
▁arthrosphaer	-12.2677
chaumont	-12.2678
▁brinkhurst	-12.268
▁punnett	-12.2682
nepanthia	-12.2687
murrayon	-12.2697
kinahanglan	-12.2707
haran	-12.271
▁decora	-12.2713
stichopus	-12.272
zanzibar	-12.2722
▁hartlaub	-12.2722
craspedacusta	-12.2722
lepidodermella	-12.2722
mediomastus	-12.2722
monhystrella	-12.2722
monopylephorus	-12.2722
potamethus	-12.2722
telodeinopus	-12.2722
volvulella	-12.2722
▁charcoti	-12.2722
▁ligulata	-12.2722
▁magallanes	-12.2722
▁miksosoa	-12.2722
▁neapolitana	-12.2722
▁nobyembre	-12.2722
▁ophiactidae	-12.2722
▁secernentea	-12.2722
▁siquijor	-12.2722
▁vladimir	-12.2722
alciopa	-12.2722
▁serbisyo	-12.2722
simplic	-12.2722
gersemia	-12.2722
▁falcata	-12.2722
dictya	-12.2722
▁rehder	-12.2722
▁quezon	-12.2723
sabellides	-12.2724
▁regina	-12.2724
▁graham	-12.2725
luffari	-12.2726
ilog	-12.2727
▁penna	-12.2729
lophostreptus	-12.2729
▁fossa	-12.2729
▁miabot	-12.273
saulog	-12.2732
iphione	-12.2747
▁lance	-12.2748
▁kanhing	-12.2749
verneuil	-12.2752
rosaster	-12.2762
parexogone	-12.2774
coryn	-12.2778
akaplagan	-12.2789
▁clara	-12.2791
carinella	-12.28
sikat	-12.2802
réville	-12.2813
▁nakuha	-12.2817
moro	-12.2835
arman	-12.2846
▁latin	-12.2852
kun	-12.2858
▁fenestrulin	-12.2871
aisne	-12.2873
tinagalog	-12.288
▁cooperi	-12.2883
▁ater	-12.2886
▁scopa	-12.2886
adlaw	-12.2887
african	-12.2888
abergement	-12.2889
▁dohrni	-12.2889
amblyosyllis	-12.2889
anuraeopsis	-12.2889
aphrodite	-12.2889
bunodactis	-12.2889
ceratocephale	-12.2889
condylactis	-12.2889
fustiaria	-12.2889
melaphe	-12.2889
octobranchus	-12.2889
phoronis	-12.2889
ploesoma	-12.2889
rosphylostreptus	-12.2889
strongylophora	-12.2889
subergorgia	-12.2889
▁albicans	-12.2889
▁alciopidae	-12.2889
▁brevicirra	-12.2889
▁duplicata	-12.2889
▁grandiflora	-12.2889
▁higayon	-12.2889
▁imperfecta	-12.2889
▁pedicellaris	-12.2889
▁reptans	-12.2889
▁siphonotidae	-12.2889
▁spongicola	-12.2889
▁tubulifera	-12.2889
▁variegatus	-12.2889
molpadia	-12.2889
▁microporidae	-12.2889
▁spatula	-12.2889
alectona	-12.2889
▁panulat	-12.2889
▁berzin	-12.2889
▁capiz	-12.2889
thyroscyphus	-12.2889
viminella	-12.2889
▁ilocos	-12.2889
lumbricus	-12.2889
▁tingog	-12.2889
corhiza	-12.2889
▁international	-12.2889
▁argentea	-12.2889
perkinsiana	-12.2889
goniodisc	-12.2889
▁cristatus	-12.2889
▁kalibutan	-12.289
▁station	-12.2891
hemicorallium	-12.2891
nogent	-12.2894
▁maculosa	-12.2897
monoporella	-12.2906
script	-12.2906
vivier	-12.2907
▁isda	-12.2914
comps	-12.292
pseudovermilia	-12.2926
▁primi	-12.2931
rsted	-12.2935
▁ganti	-12.2943
▁jacksoni	-12.2945
prosuberites	-12.2946
▁iyaha	-12.2947
▁manag	-12.2955
▁nanus	-12.2956
melle	-12.296
▁crater	-12.2966
▁melo	-12.2969
▁catena	-12.2969
▁fischeri	-12.2975
▁arist	-12.2976
▁vosmaer	-12.3005
▁lesueur	-12.3019
▁michaelsen	-12.303
▁willey	-12.3035
▁fistula	-12.3049
▁abyssi	-12.305
anthogorgia	-12.3058
abyssocladia	-12.3058
aplousina	-12.3058
astreopora	-12.3058
astrocladus	-12.3058
austrognatharia	-12.3058
calycopsis	-12.3058
cenogenus	-12.3058
chronogaster	-12.3058
cladocroce	-12.3058
epsilonematina	-12.3058
garveia	-12.3058
haplognathia	-12.3058
hippopodina	-12.3058
hippoporidra	-12.3058
lepidotheca	-12.3058
meridiastra	-12.3058
myriopathes	-12.3058
neoguraleus	-12.3058
nereiphylla	-12.3058
otostephanos	-12.3058
patiriella	-12.3058
pliciloricus	-12.3058
ptychostomella	-12.3058
stellettinopsis	-12.3058
tibiomus	-12.3058
▁anisakidae	-12.3058
▁ellobiidae	-12.3058
▁lafoeidae	-12.3058
▁pruvot	-12.3058
▁wheeler	-12.3058
amphilepis	-12.3058
anchinothria	-12.3058
▁biliran	-12.3058
▁industriya	-12.3058
cuthona	-12.3058
discoporella	-12.3058
goniastrea	-12.3058
holospira	-12.3058
cirsonella	-12.3058
corticium	-12.3058
dissotrocha	-12.3058
doliodrilus	-12.3058
spirinia	-12.3058
trophoniella	-12.3058
sepioteuthis	-12.3058
sonorella	-12.3058
megaciella	-12.3058
▁cuvier	-12.3058
eubranchus	-12.3058
heliaster	-12.3058
mastigoteuthis	-12.3059
aesopus	-12.3059
adeona	-12.3059
semele	-12.3059
▁ortho	-12.3059
saturnin	-12.3062
▁harris	-12.3063
cellepora	-12.3064
neuvy	-12.3065
▁ampla	-12.3071
cranopsis	-12.3071
parellisina	-12.3074
strongylidae	-12.3086
▁pelagi	-12.3089
delos	-12.3105
▁complex	-12.3109
diacarnus	-12.3109
avril	-12.3109
▁augeneri	-12.311
iodrilus	-12.3113
homoe	-12.3119
▁natukod	-12.312
pildi	-12.3123
buch	-12.3149
pettiboneia	-12.3159
euryst	-12.3166
ellida	-12.3172
xon	-12.3174
colomb	-12.3176
▁wells	-12.3176
prime	-12.3178
perrierina	-12.3183
▁214	-12.3184
truncatella	-12.3185
▁soul	-12.3188
▁144	-12.3189
▁friele	-12.319
▁gibber	-12.32
point	-12.3205
▁12,	-12.3208
stilla	-12.3218
▁stearns	-12.3229
cott	-12.3229
zoanthidae	-12.323
austrolaenilla	-12.3231
bhawania	-12.3231
cylindrus	-12.3231
dasychone	-12.3231
dendronotus	-12.3231
glyptorhagada	-12.3231
ilyphagus	-12.3231
isocirrus	-12.3231
leiodermatium	-12.3231
monoposthia	-12.3231
neodexiospira	-12.3231
peripatoides	-12.3231
pleuroxia	-12.3231
plicifusus	-12.3231
rhaphidophlus	-12.3231
siphonophorella	-12.3231
▁ambiguus	-12.3231
▁averincev	-12.3231
▁ceylonensis	-12.3231
▁cucullata	-12.3231
▁falklandica	-12.3231
▁glossiphoniidae	-12.3231
▁granulosus	-12.3231
▁gérard	-12.3231
▁monilifer	-12.3231
▁ophionereididae	-12.3231
▁oregonensis	-12.3231
▁paradoxus	-12.3231
▁virgata	-12.3231
antiplanes	-12.3231
argonne	-12.3231
diplasterias	-12.3231
▁iharos	-12.3231
▁notialis	-12.3231
euryspongia	-12.3231
fibulia	-12.3231
▁misakiensis	-12.3231
ophioconis	-12.3231
▁pablo	-12.3231
wsky	-12.3231
cribrilina	-12.3231
caruncul	-12.3231
▁coronatus	-12.3231
▁giuseppe	-12.3231
taonura	-12.3231
▁barbadensis	-12.3231
▁claviformis	-12.3231
quadricoma	-12.3231
cunina	-12.3231
gemme	-12.3231
couture	-12.3231
bulimus	-12.3231
podarkeopsis	-12.3231
▁schuster	-12.3231
▁zonata	-12.3232
▁trigona	-12.3232
trochochaeta	-12.3232
▁bruuni	-12.3233
cadlina	-12.3233
ulahing	-12.3235
▁naghimo	-12.3235
luwas	-12.3237
▁willem	-12.3237
▁conulosa	-12.3238
▁decorata	-12.3241
▁ruber	-12.3248
neochromadora	-12.3249
▁brown	-12.3252
mosoma	-12.3253
▁mawsoni	-12.3253
metridium	-12.3254
solanderia	-12.3268
jouy	-12.3274
alicia	-12.3276
▁gregoryano	-12.3277
▁smithii	-12.3281
mail	-12.33
lanceopora	-12.3312
▁ball	-12.3321
▁4,0	-12.3326
shev	-12.3332
trans	-12.3343
cluse	-12.3346
ggio	-12.3346
beringius	-12.335
palola	-12.3355
ssard	-12.3369
▁dalan	-12.3372
cymb	-12.3379
mark	-12.3386
▁rusya	-12.339
doryx	-12.3402
unom	-12.3404
paucibranchia	-12.3406
barthélemy	-12.3406
bonneviella	-12.3406
ganthorhynchidae	-12.3406
halicnemia	-12.3406
hippolyte	-12.3406
initalyano	-12.3406
melampus	-12.3406
terebripora	-12.3406
▁anoculata	-12.3406
▁cerithiidae	-12.3406
▁discodorididae	-12.3406
▁drilliidae	-12.3406
▁golfingiidae	-12.3406
▁konstitusyon	-12.3406
▁obesus	-12.3406
▁procumbens	-12.3406
▁sibugay	-12.3406
▁spinulosus	-12.3406
▁symmetrica	-12.3406
▁talagsaon	-12.3406
▁tomopteridae	-12.3406
cheilopora	-12.3406
hermadion	-12.3406
▁college	-12.3406
chiroteuthis	-12.3406
▁nassariidae	-12.3406
onykia	-12.3406
▁hinapon	-12.3406
▁stokes	-12.3406
▁corynidae	-12.3406
▁general	-12.3406
mathilda	-12.3407
▁puerto	-12.3407
▁hirta	-12.3407
lysasterias	-12.3407
▁ramazzotti	-12.3409
alsa	-12.3409
wihr	-12.341
scopalina	-12.3411
protodorvillea	-12.3412
onnière	-12.3413
ophiocnida	-12.3414
▁tugon	-12.3415
pelago	-12.3416
rehiyon	-12.3417
▁oras	-12.3419
▁bowerbanki	-12.3421
hawa	-12.3428
ungan	-12.3429
amphioctopus	-12.343
▁daang	-12.3433
micronephthys	-12.3435
raye	-12.3436
▁nott	-12.3436
ugdan	-12.3438
aignan	-12.3445
▁kaulohan	-12.3479
écu	-12.3487
bussy	-12.3495
allant	-12.35
theil	-12.3512
audin	-12.3516
rathkea	-12.3518
▁micoletzky	-12.3521
arabiko	-12.3528
blay	-12.3531
▁keferstein	-12.3537
▁colon	-12.3547
▁barentsi	-12.3551
brock	-12.3551
haboga	-12.3556
teuil	-12.3556
aceae	-12.357
▁bifurca	-12.3575
viel	-12.3584
periploma	-12.3585
ekonomik	-12.3585
marguerite	-12.3585
catostylus	-12.3585
cosciniopsis	-12.3585
coscinoderma	-12.3585
euprymna	-12.3585
exidmonea	-12.3585
filellum	-12.3585
heteromastus	-12.3585
isoporostreptus	-12.3585
lepidisis	-12.3585
leptopsammia	-12.3585
odontolaimus	-12.3585
petaloproctus	-12.3585
platygyra	-12.3585
sphaerospira	-12.3585
staurodiscus	-12.3585
tanacetipathes	-12.3585
▁abranchiata	-12.3585
▁atlantiko	-12.3585
▁dawsoni	-12.3585
▁doederleini	-12.3585
▁eximia	-12.3585
▁floridensis	-12.3585
▁foliosa	-12.3585
▁fulgens	-12.3585
▁inconstans	-12.3585
▁kudarat	-12.3585
▁mossambica	-12.3585
▁nipponica	-12.3585
▁plumatellidae	-12.3585
▁schneider	-12.3585
▁secunda	-12.3585
▁theonellidae	-12.3585
▁vancouverensis	-12.3585
lepralia	-12.3585
▁porcella	-12.3585
lovenella	-12.3585
nicidion	-12.3585
▁rustica	-12.3585
▁vasseur	-12.3585
▁lottiidae	-12.3585
▁cruenta	-12.3585
▁esteban	-12.3585
ophiothela	-12.3585
▁meteor	-12.3585
▁fascicularis	-12.3585
▁tristis	-12.3585
▁nagpuyo	-12.3586
▁helenae	-12.3588
▁terebratulidae	-12.3589
▁kalihokan	-12.3592
▁espa	-12.3593
▁1831	-12.3593
vosmaeropsis	-12.3596
▁259	-12.3601
▁harpa	-12.3602
▁huang	-12.3602
▁lepta	-12.3608
▁misyon	-12.361
onov	-12.3614
paraspadella	-12.3621
pycno	-12.3621
▁mariana	-12.3621
montigny	-12.3624
▁2011	-12.3632
▁gamiton	-12.3632
amant	-12.3633
▁hull	-12.3642
avon	-12.3643
euspira	-12.3647
gilles	-12.3648
stomachetosella	-12.3653
▁rogick	-12.3672
▁jeffreysi	-12.3681
▁16,	-12.3685
anjou	-12.3699
▁papilla	-12.3702
▁iris	-12.3704
▁montana	-12.3716
▁campo	-12.3716
levinsenia	-12.3718
ilding	-12.3724
née	-12.3731
metro	-12.3733
henne	-12.3739
▁chun	-12.3741
ndar	-12.3743
pallasia	-12.3745
▁albin	-12.3746
="2059	-12.3747
vicq	-12.375
barleeia	-12.3752
lancourt	-12.3754
seguenzia	-12.3756
▁kuba	-12.3761
chaetopterus	-12.3762
phloeodicty	-12.3766
ceramonema	-12.3766
antillogorgia	-12.3766
aphroceras	-12.3766
cavolinia	-12.3766
crucigera	-12.3766
erythropodium	-12.3766
eurytellina	-12.3766
fridericia	-12.3766
hermundura	-12.3766
longicollum	-12.3766
nesobolus	-12.3766
pleurobrachia	-12.3766
ptilocaulis	-12.3766
thrombus	-12.3766
umbellula	-12.3766
volvarina	-12.3766
▁dastych	-12.3766
▁dawydoff	-12.3766
▁foundation	-12.3766
▁kasingkasing	-12.3766
▁latrunculiidae	-12.3766
▁programa	-12.3766
▁testudinellidae	-12.3766
▁utinomi	-12.3766
▁zambales	-12.3766
boulogne	-12.3766
diplodonta	-12.3766
proboscina	-12.3766
crossota	-12.3766
▁freyellidae	-12.3766
nectria	-12.3766
▁pakig	-12.3766
▁stellatus	-12.3766
ograpiya	-12.3767
▁tylenchidae	-12.3767
▁hilbig	-12.3767
dactylactis	-12.3767
▁lalaki	-12.3767
▁gabb	-12.3767
tethyopsis	-12.3768
▁robson	-12.3768
ovactis	-12.3768
▁pagkahuman	-12.377
eukrohnia	-12.3773
▁murina	-12.3775
▁1778	-12.3779
puget	-12.378
=470	-12.3784
▁bilang	-12.3787
▁hendersoni	-12.3788
▁hinds	-12.3788
euborlasia	-12.3789
▁euretidae	-12.3791
▁willeyi	-12.3792
eunereis	-12.3796
ogang	-12.3805
▁27,	-12.381
▁224	-12.3811
kirkegaardia	-12.3816
▁184	-12.3822
rtley	-12.3823
▁benedeni	-12.3826
▁haeckeli	-12.3832
guha	-12.3841
nyang	-12.3848
west	-12.3852
myxi	-12.387
pontaster	-12.3877
▁steineri	-12.3896
▁bett	-12.3901
donne	-12.3904
merga	-12.3905
▁brucei	-12.3907
▁spengel	-12.3913
▁grimaldi	-12.3922
▁align	-12.3923
verrière	-12.3928
apod	-12.393
▁stylifer	-12.3934
▁bonn	-12.3934
ophthalmus	-12.3939
▁butler	-12.3945
akop	-12.3947
samytha	-12.3948
▁zygophyla	-12.395
▁manga	-12.395
père	-12.3951
vieil	-12.3951
antarctoscyphus	-12.3952
arachnoidella	-12.3952
asteriscus	-12.3952
austrognathia	-12.3952
campeloma	-12.3952
chiastosella	-12.3952
clavodorum	-12.3952
clymenura	-12.3952
crockerella	-12.3952
favartia	-12.3952
favosipora	-12.3952
hippoporella	-12.3952
iciligorgia	-12.3952
kurtziella	-12.3952
lissotesta	-12.3952
lithasia	-12.3952
mecynoecia	-12.3952
mpressidentalium	-12.3952
muhammad	-12.3952
otionellina	-12.3952
pachysentis	-12.3952
parougia	-12.3952
phenacohelix	-12.3952
primnoisis	-12.3952
rhizopsammia	-12.3952
scepanotrocha	-12.3952
skenea	-12.3952
spiroxya	-12.3952
steggoa	-12.3952
▁abnormis	-12.3952
▁adhaerens	-12.3952
▁aggregata	-12.3952
▁alpheus	-12.3952
▁aplysinidae	-12.3952
▁cherbonnier	-12.3952
▁derjugini	-12.3952
▁escharinidae	-12.3952
▁falcifera	-12.3952
▁fluviatilis	-12.3952
▁hispidus	-12.3952
▁immersa	-12.3952
▁kabungtoran	-12.3952
▁lateralis	-12.3952
▁lehnert	-12.3952
▁mediterraneus	-12.3952
▁obtusus	-12.3952
▁operculata	-12.3952
▁panghitabo	-12.3952
▁pellucidum	-12.3952
▁problematica	-12.3952
▁rubiginosa	-12.3952
▁scutata	-12.3952
▁solitarius	-12.3952
▁valenciniidae	-12.3952
▁virgulariidae	-12.3952
▁wiedenmayer	-12.3952
labioporella	-12.3952
leiosella	-12.3952
lophocalyx	-12.3952
mesacanthoides	-12.3952
mexidrilus	-12.3952
▁antipoda	-12.3952
lagenicella	-12.3952
▁boninensis	-12.3952
▁taiwan	-12.3952
esiocleidochasma	-12.3952
▁truncatus	-12.3952
marstonia	-12.3952
▁parkeri	-12.3952
araeolaimus	-12.3952
grubeosyllis	-12.3952
▁floridanus	-12.3952
fectola	-12.3952
lituaria	-12.3952
tonicia	-12.3952
triticella	-12.3952
▁aurita	-12.3952
▁regia	-12.3952
amalda	-12.3952
▁alyado	-12.3952
▁oweniidae	-12.3952
▁basilan	-12.3952
mesotheristus	-12.3952
epacanthion	-12.3952
▁salazar	-12.3953
novafabricia	-12.3953
mornant	-12.3953
▁beringiana	-12.3953
▁turismo	-12.3954
▁cavite	-12.3954
▁mucosa	-12.3954
hypocambala	-12.3954
palambo	-12.3955
▁vasiformis	-12.3955
rhynchonema	-12.3955
pseudonchus	-12.3957
blé	-12.3958
▁panid	-12.3959
▁filum	-12.396
▁davis	-12.396
▁spinigera	-12.3961
actinauge	-12.3961
cribrochalina	-12.3962
patinella	-12.3968
▁velata	-12.3968
eudorylaimus	-12.3969
▁annae	-12.3972
▁234	-12.3975
▁clausa	-12.3976
ennucula	-12.398
roso	-12.3981
ininggles	-12.3982
otay	-12.3987
pareurythoe	-12.399
boissy	-12.3991
▁hedleyi	-12.3994
cribr	-12.3996
punnettia	-12.3997
ledella	-12.3998
▁kostei	-12.4002
▁ehrenbergi	-12.4006
▁prima	-12.4014
beauce	-12.4039
▁kirchenpaueri	-12.404
rô	-12.4066
pulong	-12.407
▁music	-12.4074
uwan	-12.4079
▁arabo	-12.4083
▁251	-12.4103
didiscus	-12.4103
▁malmgreni	-12.4106
▁pagtuo	-12.4107
villette	-12.4112
▁thene	-12.4119
oerstedi	-12.4121
▁lobophylli	-12.4125
desmolaimus	-12.4138
publika	-12.4139
▁fristedt	-12.414
▁kapupud	-12.414
▁yamaguti	-12.414
anobothrus	-12.414
buccinulum	-12.414
diaperoecia	-12.414
dinophilus	-12.414
ethmolaimus	-12.414
euryale	-12.414
gastropoda	-12.414
hypsicomus	-12.414
madrepora	-12.414
membraniporella	-12.414
ophistreptus	-12.414
oxypyge	-12.414
petricola	-12.414
proboscidactyla	-12.414
prosthenorchis	-12.414
salmacina	-12.414
samythella	-12.414
solenozophyllum	-12.414
sternaspis	-12.414
terschellingia	-12.414
▁carvalho	-12.414
▁chaetopteridae	-12.414
▁demograpiya	-12.414
▁kisielewski	-12.414
▁loliginidae	-12.414
▁longicollis	-12.414
▁miyembro	-12.414
▁ophiomyxidae	-12.414
▁plagioeciidae	-12.414
▁tessellata	-12.414
▁triphoridae	-12.414
▁visayas	-12.414
▁gallardo	-12.414
▁white	-12.414
▁inarmata	-12.414
▁rousselet	-12.414
▁wallace	-12.414
bolinopsis	-12.414
▁katingog	-12.414
piromis	-12.414
▁cantero	-12.414
▁jordan	-12.414
▁komunidad	-12.414
trichobranchus	-12.414
dakaria	-12.414
menetus	-12.414
▁zealand	-12.4141
rouvres	-12.4141
▁ilabi	-12.4141
▁uriz	-12.4141
histoderm	-12.4141
▁cristo	-12.4142
aspido	-12.4142
▁damp	-12.4143
barrois	-12.4143
dinonemertes	-12.4144
▁milya	-12.4144
pellina	-12.4145
▁climo	-12.4146
▁papillifera	-12.4153
manda	-12.4153
eupanthalis	-12.4158
mahal	-12.4161
▁1788	-12.4164
▁komon	-12.4165
neoamphitrite	-12.4165
faye	-12.4167
phylactella	-12.4177
utlanan	-12.4178
▁lesson	-12.4179
agalma	-12.418
▁saudi	-12.418
cieux	-12.4183
lambert	-12.4185
cancellaria	-12.4187
▁bisa	-12.4188
▁browni	-12.4199
ocerca	-12.4205
ritus	-12.4207
clathri	-12.421
▁284	-12.4212
nasyonal	-12.4217
▁echina	-12.4218
onnet	-12.4227
livet	-12.4228
=1846	-12.4232
oust	-12.4236
sulong	-12.4237
▁ilaha	-12.4243
poix	-12.425
lavau	-12.4264
ouillé	-12.4285
épine	-12.4301
▁krohn	-12.4301
▁olindi	-12.4306
▁rosen	-12.4309
▁grant	-12.431
usseau	-12.4311
▁langerhansi	-12.4313
saysay	-12.432
▁pentagona	-12.4323
▁demani	-12.4324
▁elisabeth	-12.4328
aphanipathes	-12.4333
apheloria	-12.4333
apionsoma	-12.4333
lauragais	-12.4333
myrmekioderma	-12.4333
pahigayon	-12.4333
sycetta	-12.4333
terranova	-12.4333
▁anomalus	-12.4333
▁bifaxariidae	-12.4333
▁brachiata	-12.4333
▁diegensis	-12.4333
▁elegantissima	-12.4333
▁fasciatus	-12.4333
▁hozawai	-12.4333
▁incertus	-12.4333
▁lamouroux	-12.4333
▁limicola	-12.4333
▁lophoproctidae	-12.4333
▁mertoni	-12.4333
▁mirabile	-12.4333
▁orensanz	-12.4333
▁papyracea	-12.4333
▁sagartiidae	-12.4333
▁schizopathidae	-12.4333
▁serpens	-12.4333
▁thyasiridae	-12.4333
▁translucens	-12.4333
▁ventilabrum	-12.4333
▁wesenberg	-12.4333
▁bulbifer	-12.4333
▁robustum	-12.4333
▁tricolor	-12.4333
actinostella	-12.4333
▁discors	-12.4333
▁nuculanidae	-12.4333
▁rubrum	-12.4333
▁parvum	-12.4333
▁konseho	-12.4333
▁biserov	-12.4333
▁bantogan	-12.4333
pilargis	-12.4333
▁high	-12.4334
▁1815.	-12.4334
▁dugang	-12.4334
▁inglis	-12.4334
▁lopez	-12.4335
▁glaber	-12.4336
▁nelson	-12.4338
▁gouldii	-12.4339
ogma	-12.4339
▁malayana	-12.4339
labot	-12.4339
ferdina	-12.434
ectyon	-12.4348
heteropia	-12.4349
▁rotundata	-12.4356
▁argus	-12.436
ecques	-12.4361
micronereis	-12.4361
villon	-12.4361
▁bataan	-12.4364
bank	-12.4365
aigues	-12.437
charente	-12.4383
béth	-12.4385
rhabdus	-12.439
▁yin	-12.4394
▁daw	-12.4402
▁rathke	-12.4405
▁asia	-12.4406
▁barbara	-12.4414
▁martensi	-12.4414
dianthus	-12.4432
weiss	-12.4436
ukas	-12.4462
▁steenstrupi	-12.4486
sphaerium	-12.449
steineria	-12.4495
protis	-12.4499
pusil	-12.4516
▁lunula	-12.4521
estrée	-12.4524
▁from	-12.4524
▁lorenzo	-12.4528
▁zenkevitch	-12.4528
alexandre	-12.4529
armagnac	-12.4529
cassidula	-12.4529
chromaspirina	-12.4529
cirrophorus	-12.4529
echinostylinos	-12.4529
egmundella	-12.4529
falkland	-12.4529
nautilus	-12.4529
opisthodonta	-12.4529
pentamera	-12.4529
plethocrossus	-12.4529
potamolepis	-12.4529
psammocora	-12.4529
serrasentis	-12.4529
▁andvakiidae	-12.4529
▁cephalobidae	-12.4529
▁gordiidae	-12.4529
▁impressa	-12.4529
▁luidiidae	-12.4529
▁nerillidae	-12.4529
▁ochotensis	-12.4529
▁pasidungog	-12.4529
▁profundus	-12.4529
▁sagamiensis	-12.4529
▁salvador	-12.4529
▁tongiorgi	-12.4529
▁turbanellidae	-12.4529
eupleura	-12.4529
negosyo	-12.4529
phialella	-12.4529
procerastea	-12.4529
▁alexandri	-12.4529
▁personal	-12.4529
circeaster	-12.4529
javania	-12.4529
▁diphyidae	-12.4529
hamigera	-12.4529
▁mclean	-12.4529
laonome	-12.4529
▁sinugdan	-12.4529
circulus	-12.4529
▁voigt	-12.4529
▁yoshi	-12.4529
atsushi	-12.4529
▁system	-12.453
pseudocella	-12.453
visayan	-12.453
balcis	-12.453
▁thorne	-12.453
morvan	-12.453
thormora	-12.4531
▁gatos	-12.4531
▁1774.	-12.4532
astroboa	-12.4533
▁pluma	-12.4535
▁301	-12.4537
▁semana	-12.4537
polydesmus	-12.4537
trophonia	-12.4538
pectinia	-12.4541
lunatia	-12.4544
▁arya	-12.4552
▁carmen	-12.4562
hall	-12.4565
marais	-12.4568
▁240	-12.4573
agosto	-12.4583
cambo	-12.4594
thenay	-12.4596
retaster	-12.4618
antoni	-12.4636
pulex	-12.4638
paranais	-12.4644
brice	-12.4655
conopora	-12.4656
▁xu	-12.4664
▁fér	-12.4664
pitar	-12.4668
centrelus	-12.4686
heteronereis	-12.4686
calv	-12.4692
▁heim	-12.4699
mareuil	-12.47
morte	-12.4702
linhomoeus	-12.4706
niso	-12.4706
▁product	-12.4711
bathypathes	-12.4714
▁bukid	-12.4721
▁299	-12.4723
iphitime	-12.4728
primnoa	-12.4728
actinernus	-12.4729
calthropella	-12.4729
chaetogaster	-12.4729
coryphella	-12.4729
diplocirrus	-12.4729
gigantorhynchus	-12.4729
halammohydra	-12.4729
inflatella	-12.4729
lucernaria	-12.4729
lueheia	-12.4729
micranellum	-12.4729
nemertea	-12.4729
opisthus	-12.4729
piscicola	-12.4729
spissustreptus	-12.4729
spongodes	-12.4729
tzheim	-12.4729
▁annulatum	-12.4729
▁anthoathecata	-12.4729
▁benayahu	-12.4729
▁coralloides	-12.4729
▁darwinellidae	-12.4729
▁depressus	-12.4729
▁elongatum	-12.4729
▁flagellifer	-12.4729
▁gracilior	-12.4729
▁hilario	-12.4729
▁hirsutum	-12.4729
▁horridus	-12.4729
▁jamaicensis	-12.4729
▁lacunosa	-12.4729
▁lacustris	-12.4729
▁linstow	-12.4729
▁lymnaeidae	-12.4729
▁macfarland	-12.4729
▁middendorff	-12.4729
▁pectinifer	-12.4729
▁pigmentata	-12.4729
▁ramsayi	-12.4729
▁scarabino	-12.4729
▁scotiae	-12.4729
▁senegalensis	-12.4729
▁sexradia	-12.4729
▁tubicola	-12.4729
▁typicus	-12.4729
▁unguicula	-12.4729
▁unicolor	-12.4729
▁violaceus	-12.4729
cymospira	-12.4729
pomponema	-12.4729
strongylocentrot	-12.4729
▁boreale	-12.4729
▁octavi	-12.4729
▁polyceridae	-12.4729
▁siyensiya	-12.4729
stilifer	-12.4729
tectus	-12.4729
world	-12.4729
▁callistopla	-12.4729
apomatus	-12.4729
sphinct	-12.4729
▁dubium	-12.4729
trichotria	-12.4729
▁baltica	-12.4729
corbières	-12.4729
coudray	-12.4729
▁ambrosi	-12.4729
▁diego	-12.4729
▁aruensis	-12.4729
▁fuji	-12.4729
suzanne	-12.4729
pardoux	-12.4729
▁kagawasan	-12.4729
▁goesi	-12.4729
▁nakig	-12.473
▁tenax	-12.4731
▁diomedeae	-12.4732
▁calcarea	-12.4732
halechiniscus	-12.4733
dragon	-12.4734
▁harrison	-12.4734
▁multidentata	-12.4735
▁pustulata	-12.4736
fonds	-12.4736
▁granulifera	-12.4736
rimula	-12.4738
▁302	-12.4739
bunode	-12.4739
▁schultzei	-12.4739
paraonides	-12.474
minyo	-12.4741
zieux	-12.4742
tinuod	-12.4745
alentia	-12.4746
▁suluensis	-12.4748
▁linya	-12.475
▁mantalaan	-12.475
plage	-12.4758
▁kinahab	-12.4761
isey	-12.4762
verdon	-12.4764
▁bergh	-12.4766
▁jenkin	-12.4771
▁dollfusi	-12.4773
▁columbi	-12.4773
▁tegul	-12.4774
organisa	-12.4778
chain	-12.4784
▁soria	-12.4786
kultura	-12.4791
essé	-12.4794
book	-12.4796
quay	-12.4803
▁bruno	-12.4811
porina	-12.4822
amnicola	-12.4825
volva	-12.4836
indre	-12.4837
patella	-12.4853
▁jam	-12.4863
bantay	-12.4893
tarn	-12.4894
ichon	-12.49
wing	-12.49
gnière	-12.4904
bière	-12.4908
media	-12.4909
▁marion	-12.491
▁stephenson	-12.4914
ophiopholis	-12.493
▁madagascar	-12.4932
acanthorhynchina	-12.4933
aeneator	-12.4933
antarctonemertes	-12.4933
artacama	-12.4933
austrochloritis	-12.4933
buffonellodes	-12.4933
caryocorbula	-12.4933
chaureopa	-12.4933
chelonaplysilla	-12.4933
cigclisula	-12.4933
cistenides	-12.4933
compressidens	-12.4933
corbulella	-12.4933
diplotrema	-12.4933
drepanophora	-12.4933
entalophoroecia	-12.4933
euginoma	-12.4933
filisparsa	-12.4933
gemelliporidra	-12.4933
gigantopora	-12.4933
gregarinidra	-12.4933
grubeulepis	-12.4933
gâtinais	-12.4933
inebreo	-12.4933
kophobelemnon	-12.4933
leurocodonellina	-12.4933
octophialucium	-12.4933
oncousoecia	-12.4933
ophiomusium	-12.4933
paralvinella	-12.4933
pelagonemertidae	-12.4933
quadrula	-12.4933
simplisetia	-12.4933
solenocaulon	-12.4933
stenohelia	-12.4933
stephanollona	-12.4933
stratiodrilus	-12.4933
streptocaulus	-12.4933
stylotella	-12.4933
thrinacophora	-12.4933
▁agariciidae	-12.4933
▁awtoridad	-12.4933
▁ceylonica	-12.4933
▁chathamensis	-12.4933
▁collothecidae	-12.4933
▁darwini	-12.4933
▁eatoniellidae	-12.4933
▁hayashi	-12.4933
▁livingstone	-12.4933
▁maculatum	-12.4933
▁ophiocomidae	-12.4933
▁rafinesque	-12.4933
▁santiago	-12.4933
▁tagbilaran	-12.4933
cribralaria	-12.4933
mylonchulus	-12.4933
semperella	-12.4933
▁caecidae	-12.4933
▁miguel	-12.4933
▁machado	-12.4933
▁normal	-12.4933
astyris	-12.4933
cranchia	-12.4933
▁criconematidae	-12.4933
lanicides	-12.4933
▁hastata	-12.4933
cornechiniscus	-12.4933
▁causey	-12.4933
oxyonchus	-12.4934
acanthodoris	-12.4934
lawom	-12.4935
neoleprea	-12.4937
protolaeospira	-12.4937
▁mamahimo	-12.4938
nemanema	-12.4938
abyssidrilus	-12.4939
neoferdina	-12.4939
▁tubulata	-12.494
anthomuricea	-12.4942
klugerella	-12.4943
polybrachia	-12.4944
galba	-12.4946
desmus	-12.495
▁radio	-12.495
▁odhneri	-12.4951
▁buot	-12.4953
questa	-12.4957
▁280	-12.496
arcy	-12.4966
morelia	-12.4967
paramesacanthion	-12.497
▁sensu	-12.4971
morin	-12.4973
parasagitta	-12.4973
▁1824	-12.4974
koellikerina	-12.4975
▁sudan	-12.4976
pseudoflustra	-12.4979
rochette	-12.498
bantayan	-12.4982
lanassa	-12.4987
antoine	-12.5004
amida	-12.5005
sever	-12.5023
oinville	-12.5029
roga	-12.5032
paratimea	-12.5036
▁bash	-12.5039
tampo	-12.504
resko	-12.5042
▁288	-12.5064
luce	-12.5068
▁jackson	-12.5071
ussey	-12.5073
abril	-12.5079
bulok	-12.5103
abli	-12.5118
achaeta	-12.512
▁raymond	-12.5135
▁atom	-12.5139
amorphin	-12.514
▁linea	-12.5141
▁greeff	-12.5141
▁zelinka	-12.5141
asteroporpa	-12.5141
atopetholus	-12.5141
carassius	-12.5141
chitinopoma	-12.5141
cymbastela	-12.5141
dasynemella	-12.5141
egestula	-12.5141
halicometes	-12.5141
hypereteone	-12.5141
lacinularia	-12.5141
laodicea	-12.5141
leiochrides	-12.5141
lyogyrus	-12.5141
phakettia	-12.5141
saveljevia	-12.5141
stryphnus	-12.5141
▁amphora	-12.5141
▁arachnactidae	-12.5141
▁bicarinata	-12.5141
▁biserialis	-12.5141
▁bispinosus	-12.5141
▁cuneata	-12.5141
▁emarginata	-12.5141
▁enoploteuthidae	-12.5141
▁espanyol	-12.5141
▁exochellidae	-12.5141
▁fasciolariidae	-12.5141
▁fimbriatus	-12.5141
▁guadalupensis	-12.5141
▁hebellidae	-12.5141
▁hyperborea	-12.5141
▁incognita	-12.5141
▁incrustata	-12.5141
▁incurva	-12.5141
▁insolita	-12.5141
▁kolehiyo	-12.5141
▁leucosoleniidae	-12.5141
▁mcmurrich	-12.5141
▁minuscula	-12.5141
▁neglectus	-12.5141
▁obscurus	-12.5141
▁olivaceus	-12.5141
▁praelonga	-12.5141
▁proyekto	-12.5141
▁siyudad	-12.5141
▁sphenopidae	-12.5141
▁yoldiidae	-12.5141
anthenoides	-12.5141
ascomorpha	-12.5141
hermione	-12.5141
margaritifera	-12.5141
metrarabdotos	-12.5141
mézières	-12.5141
▁jihad	-12.5141
escharina	-12.5141
provincia	-12.5141
▁timeidae	-12.5141
heteractis	-12.5141
▁crinita	-12.5141
▁tenuicaudatus	-12.5141
▁pheronematidae	-12.5141
▁kasabotan	-12.5141
rhopalonematidae	-12.5141
▁young	-12.5141
▁hudeyo	-12.5141
pelagonema	-12.5142
patiria	-12.5142
crenella	-12.5142
▁eisen	-12.5142
limnias	-12.5142
▁montanus	-12.5145
▁serrulata	-12.5145
ukot	-12.5147
▁hesus	-12.5149
mactra	-12.5149
renilla	-12.5149
tagalog	-12.5151
▁indian	-12.5152
vaast	-12.5153
palais	-12.5154
▁vitie	-12.5156
coronaster	-12.5157
black	-12.5158
▁conifera	-12.5158
prochromadorella	-12.5158
adamsia	-12.5159
prosth	-12.5172
augeneriella	-12.5173
paralaeospira	-12.5185
moutier	-12.5187
▁kirchenpauer	-12.519
▁leuckarti	-12.5196
yssac	-12.5198
pouilly	-12.5202
soult	-12.5202
vère	-12.5208
hymerhabdia	-12.5222
tigom	-12.5222
shiel	-12.5223
dispio	-12.5224
▁margaret	-12.5228
▁badia	-12.5246
paraperipatus	-12.5247
▁2001	-12.5287
▁cui	-12.5288
royal	-12.5289
▁pristi	-12.53
ophiotoma	-12.5315
▁sluiter	-12.5333
guyon	-12.5347
dictyum	-12.5351
▁punoan	-12.5351
▁walker	-12.5352
stichaster	-12.5353
lycastis	-12.5354
antipathella	-12.5354
bathyarca	-12.5354
conochilus	-12.5354
diadumene	-12.5354
glycymeris	-12.5354
liothyrella	-12.5354
podosphaeraster	-12.5354
▁acrocirridae	-12.5354
▁amoureux	-12.5354
▁benthicola	-12.5354
▁camiguin	-12.5354
▁mactridae	-12.5354
▁maplestone	-12.5354
▁munisipalidad	-12.5354
▁neotylenchidae	-12.5354
▁pictet	-12.5354
▁produkto	-12.5354
▁stenolaemata	-12.5354
beauvoir	-12.5354
camacolaimus	-12.5354
stauronereis	-12.5354
▁bathalad	-12.5354
▁okuda	-12.5354
▁writer	-12.5354
costifer	-12.5354
▁pransya	-12.5354
paragonaster	-12.5354
psolus	-12.5354
▁diploma	-12.5354
chaetaster	-12.5354
▁epizoanthidae	-12.5354
▁york	-12.5354
rhodactis	-12.5354
▁circula	-12.5354
▁semperi	-12.5354
limacina	-12.5355
▁bullata	-12.5355
biscay	-12.5355
▁palawan	-12.5355
▁hummon	-12.5356
▁pareho	-12.5359
dasig	-12.5362
▁tasmanica	-12.5363
▁komun	-12.5364
uriès	-12.5365
polyophthalmus	-12.5365
hincksella	-12.537
▁1820	-12.537
▁force	-12.5374
schwiller	-12.5376
samson	-12.5377
valentin	-12.5385
fontan	-12.5391
étang	-12.5395
▁baeri	-12.5396
rissoa	-12.541
reine	-12.5418
inhac	-12.5421
ophiopyrgus	-12.5428
lisod	-12.5433
oktubre	-12.5443
thaumastoderma	-12.5443
sinum	-12.5455
=2069	-12.5482
▁hoplo	-12.5499
▁state	-12.5503
▁hyatt	-12.5528
yanhon	-12.5529
▁phylact	-12.5529
axin	-12.5531
dallina	-12.5537
▁297	-12.5538
▁albus	-12.5546
▁nick	-12.5551
▁spinifer	-12.5553
▁conifer	-12.5554
▁virgula	-12.5555
filicollis	-12.556
acanthonchus	-12.5564
nazaire	-12.5571
pelogenia	-12.5571
▁abbreviata	-12.5571
▁arachnopusiidae	-12.5571
▁atlanticum	-12.5571
▁biseriata	-12.5571
▁cavernicola	-12.5571
▁convexa	-12.5571
▁crucifer	-12.5571
▁cuspidata	-12.5571
▁elastica	-12.5571
▁hoplolaimidae	-12.5571
▁investigatoris	-12.5571
▁isodictyidae	-12.5571
▁lacazei	-12.5571
▁lacernidae	-12.5571
▁lacteus	-12.5571
▁novaehollandiae	-12.5571
▁proboscidea	-12.5571
▁protecta	-12.5571
▁solitaria	-12.5571
▁stolonifera	-12.5571
▁subterranea	-12.5571
▁troglodytes	-12.5571
▁tuberculosus	-12.5571
▁undulatus	-12.5571
▁verrucosus	-12.5571
▁vestita	-12.5571
▁washington	-12.5571
aeolidiella	-12.5571
aphistogoniulus	-12.5571
branchinotogluma	-12.5571
costoanachis	-12.5571
cyphastrea	-12.5571
dictyocladium	-12.5571
grimpoteuthis	-12.5571
hemicyclopora	-12.5571
lophoproctus	-12.5571
ophiogymna	-12.5571
ophiopristis	-12.5571
peripatopsis	-12.5571
pleurotrocha	-12.5571
polyplumaria	-12.5571
prosorhochmus	-12.5571
pterodrilus	-12.5571
quistrachia	-12.5571
romanchella	-12.5571
siphonorhinus	-12.5571
stenosarina	-12.5571
torresitrachia	-12.5571
trachycladus	-12.5571
trematooecia	-12.5571
▁batakang	-12.5571
▁farreidae	-12.5571
▁queenslandi	-12.5571
▁sebastian	-12.5571
▁trinité	-12.5571
anurostreptus	-12.5571
arhythmacanth	-12.5571
leptolaimus	-12.5571
touraine	-12.5571
▁austria	-12.5571
▁crassum	-12.5571
▁mandaue	-12.5571
▁gulf	-12.5571
▁pagsukod	-12.5571
▁albidus	-12.5571
▁tylota	-12.5571
caulospongia	-12.5571
▁albula	-12.5571
▁komisyon	-12.5571
▁clavatus	-12.5571
▁gotoi	-12.5571
campages	-12.5572
cyamon	-12.5572
stephanauge	-12.5572
▁gibba	-12.5572
▁oerstedii	-12.5572
▁medyo	-12.5572
▁bouchet	-12.5572
▁quito	-12.5574
higala	-12.5574
actinodendron	-12.5575
▁seguenzi	-12.5575
▁fissurata	-12.5575
▁edgar	-12.5579
assigny	-12.558
wierzejskiella	-12.558
▁hatai	-12.5583
▁swedmarki	-12.5585
pilsbryspira	-12.5588
▁auriculata	-12.5588
▁seguenziidae	-12.5588
▁acus	-12.5588
arctonoe	-12.559
avant	-12.5595
xymene	-12.5595
outre	-12.5598
mononchus	-12.5599
anchora	-12.5601
cappel	-12.5604
thais	-12.5604
▁lebel	-12.5605
▁petersi	-12.5607
alderina	-12.5618
verdun	-12.5626
ndot	-12.5627
lapad	-12.5627
aubert	-12.5642
repos	-12.5651
▁vincenti	-12.5653
ophiozon	-12.566
arenicola	-12.5665
▁dali	-12.5688
astrophiura	-12.569
belleville	-12.5708
haliotis	-12.5732
▁crypta	-12.5735
▁mawson	-12.5764
quint	-12.5766
▁barko	-12.5766
2)	-12.5772
vén	-12.5774
aonides	-12.5781
▁lainlain	-12.5782
brain	-12.5783
jouin	-12.5791
president	-12.5793
hirudisoma	-12.5793
acladocricus	-12.5793
echinophyllia	-12.5793
emarginula	-12.5793
epicrates	-12.5793
floridobia	-12.5793
haemopis	-12.5793
halichoanolaimus	-12.5793
immergentia	-12.5793
orbiniella	-12.5793
oregodasys	-12.5793
penetrantia	-12.5793
prionobelum	-12.5793
prismatolaimus	-12.5793
spiliphera	-12.5793
stomphia	-12.5793
teginoporellidae	-12.5793
▁cancellariidae	-12.5793
▁cranchiidae	-12.5793
▁crenulata	-12.5793
▁drygalskii	-12.5793
▁klunzinger	-12.5793
▁mertensi	-12.5793
▁modernong	-12.5793
▁pachastrellidae	-12.5793
▁pangkalibutanon	-12.5793
▁pfeffer	-12.5793
▁pleijel	-12.5793
▁pocilloporidae	-12.5793
▁priapulida	-12.5793
▁veretillidae	-12.5793
cerodrillia	-12.5793
nudospongilla	-12.5793
phymactis	-12.5793
▁nuculidae	-12.5793
entalophora	-12.5793
▁cingulatus	-12.5793
▁huzio	-12.5793
borsonella	-12.5793
▁koreana	-12.5793
▁dibisyon	-12.5793
carinoma	-12.5794
▁iwata	-12.5794
▁katesismo	-12.5794
berthella	-12.5794
culcita	-12.5794
acodontaster	-12.5794
▁nukos	-12.5794
dragma	-12.5794
vallejo	-12.5795
▁yabe	-12.5795
onulidae	-12.5796
▁warren	-12.5796
▁drama	-12.5797
▁colombia	-12.5798
porania	-12.58
mysella	-12.58
asnières	-12.58
oliva	-12.5801
▁foster	-12.5802
▁crista	-12.5804
▁ducr	-12.5806
bessin	-12.5806
▁heart	-12.5806
sinati	-12.5807
▁syria	-12.581
▁barleei	-12.5811
tungha	-12.5815
lamellaria	-12.5817
▁mismo	-12.582
▁carmel	-12.5821
amance	-12.5839
tethyaster	-12.5841
▁macra	-12.5848
albertia	-12.5861
megasyllis	-12.5868
billy	-12.5875
▁5,0	-12.5883
▁nanguna	-12.5892
nied	-12.5897
froid	-12.5924
croze	-12.5927
acca	-12.5927
artigue	-12.5928
essin	-12.5946
cryptopelta	-12.5954
▁indya	-12.5963
trivia	-12.5987
▁italyano	-12.5987
▁liga	-12.5991
▁lumadnon	-12.5995
elaine	-12.5998
nishi	-12.5998
▁grippi	-12.6
▁schulz	-12.601
asplanchna	-12.6021
astroceramus	-12.6021
atlantidrilus	-12.6021
bathyepsilonema	-12.6021
bifaxaria	-12.6021
bitectipora	-12.6021
botrucnidifer	-12.6021
bythotiara	-12.6021
camaricoproctus	-12.6021
coenocyathus	-12.6021
curtitoma	-12.6021
diplodasys	-12.6021
echiniscoides	-12.6021
erinaceusyllis	-12.6021
evoplosoma	-12.6021
fasciculipora	-12.6021
glandiceps	-12.6021
helgicirrha	-12.6021
hippomonavella	-12.6021
hirsutonuphis	-12.6021
histampica	-12.6021
hoplochaetina	-12.6021
imbriosthenelais	-12.6021
impluwensya	-12.6021
integripelta	-12.6021
laciniogonus	-12.6021
munditia	-12.6021
nevianipora	-12.6021
nootkadrilus	-12.6021
obovaria	-12.6021
ocenebra	-12.6021
ocinebrina	-12.6021
odontohenricia	-12.6021
onychocella	-12.6021
ophiomisidium	-12.6021
oreohelix	-12.6021
phreatodrobia	-12.6021
phryssonotus	-12.6021
phyllangia	-12.6021
pierrefitte	-12.6021
placiphorella	-12.6021
pleurocorallium	-12.6021
pygospio	-12.6021
raxifabia	-12.6021
representar	-12.6021
rhyacodrilis	-12.6021
scabrotrophon	-12.6021
sclerobelemnon	-12.6021
setobaudinia	-12.6021
trypostega	-12.6021
turgenitubulus	-12.6021
veleropilina	-12.6021
▁aleutica	-12.6021
▁arenarius	-12.6021
▁azorica	-12.6021
▁cinctus	-12.6021
▁costulata	-12.6021
▁crassicornis	-12.6021
▁crosnieri	-12.6021
▁curacaoensis	-12.6021
▁decussata	-12.6021
▁gregorio	-12.6021
▁guttata	-12.6021
▁inornatus	-12.6021
▁januarii	-12.6021
▁madeirensis	-12.6021
▁maldivensis	-12.6021
▁mamillata	-12.6021
▁membraniporidae	-12.6021
▁microlaimidae	-12.6021
▁multispinosa	-12.6021
▁obtusicauda	-12.6021
▁oculifer	-12.6021
▁psammophila	-12.6021
▁pustulosa	-12.6021
▁ricardo	-12.6021
▁ritteri	-12.6021
▁rubescens	-12.6021
▁rugosum	-12.6021
▁sipunculidae	-12.6021
▁stylommatophora	-12.6021
▁tridentatus	-12.6021
▁veleronis	-12.6021
▁zetlandica	-12.6021
archepsilonema	-12.6021
argalista	-12.6021
axionice	-12.6021
elephantanell	-12.6021
galaxea	-12.6021
littoraria	-12.6021
macroperipatus	-12.6021
platonea	-12.6021
striodentalium	-12.6021
taguahelix	-12.6021
▁ginikanan	-12.6021
▁semelidae	-12.6021
costaticella	-12.6021
loliolus	-12.6021
monoplex	-12.6021
trissonchulus	-12.6021
▁braziliensis	-12.6021
▁cirratus	-12.6021
▁islandicus	-12.6021
acanthoptilum	-12.6021
eulalie	-12.6021
malacobdella	-12.6021
▁glabrus	-12.6021
deinodrilus	-12.6021
▁carnosa	-12.6021
ophiopeza	-12.6021
borniola	-12.6021
▁hyalinus	-12.6021
▁achille	-12.6021
▁oblonga	-12.6021
▁falcatus	-12.6021
rhodope	-12.6021
▁angulatus	-12.6021
▁dinagat	-12.6021
▁eliason	-12.6021
▁minimus	-12.6021
gesaia	-12.6021
astrotoma	-12.6021
▁misugo	-12.6021
▁fucata	-12.6021
damiria	-12.6021
rhodolaimus	-12.6021
▁pendula	-12.6021
lacerna	-12.6021
école	-12.6021
▁reniformis	-12.6021
saccella	-12.6021
eranno	-12.6021
sepiella	-12.6021
▁torresi	-12.6021
▁1836.	-12.6022
▁branchiata	-12.6022
isodactylactis	-12.6023
▁stearnsii	-12.6023
bellegarde	-12.6023
nucella	-12.6024
▁murphy	-12.6024
vicomte	-12.6025
▁bersyon	-12.6025
ophiophyllum	-12.6025
▁elisabethae	-12.6027
▁serye	-12.6027
subcancilla	-12.6027
oléja	-12.6029
▁with	-12.6031
▁venosa	-12.6032
▁fistulata	-12.6034
▁pennata	-12.6034
▁kahoy	-12.6034
paraminabea	-12.6035
▁chambon	-12.6036
semivermilia	-12.6038
▁solariell	-12.6039
asteropus	-12.604
ralpharia	-12.6041
▁351	-12.6041
alatina	-12.6044
janua	-12.6046
▁poecili	-12.6048
thalasso	-12.605
neoncicola	-12.605
▁ophiotom	-12.6066
caminus	-12.6071
mollia	-12.6109
fresn	-12.6111
bronn	-12.6112
▁thornely	-12.612
cassiopea	-12.6122
gamhanan	-12.6126
nusa	-12.6127
aunay	-12.613
▁bourne	-12.6137
tardigrada	-12.6142
pilipinas	-12.6142
cephalodasys	-12.6143
cobbia	-12.6151
chapt	-12.6175
lagarde	-12.6176
macandrewia	-12.6195
▁ideya	-12.6201
tylost	-12.6202
normand	-12.6209
bipora	-12.6213
dominica	-12.6233
noble	-12.6237
▁hawaii	-12.6246
podarke	-12.6246
▁wikipedya	-12.6253
arhynchite	-12.6253
centrobolus	-12.6253
diplopteraster	-12.6253
dougaloplus	-12.6253
heterocirrus	-12.6253
macandrevia	-12.6253
marilynia	-12.6253
notaulax	-12.6253
ommastrephes	-12.6253
placospongia	-12.6253
proalinopsis	-12.6253
pterozonium	-12.6253
schizotheca	-12.6253
spurlingia	-12.6253
toxolasma	-12.6253
travisiopsis	-12.6253
▁bilineata	-12.6253
▁caerulea	-12.6253
▁desmacellidae	-12.6253
▁halcampidae	-12.6253
▁hexactinellida	-12.6253
▁kawhaan	-12.6253
▁magbabalak	-12.6253
▁oncousoeciidae	-12.6253
▁polyzoniidae	-12.6253
▁thraciidae	-12.6253
▁tripyloididae	-12.6253
▁yisra	-12.6253
▁zehntner	-12.6253
aspidostoma	-12.6253
▁carditidae	-12.6253
essarts	-12.6253
▁ceramonematidae	-12.6253
strigilla	-12.6253
malletia	-12.6253
▁kahimtang	-12.6253
vallonia	-12.6253
allostichaster	-12.6254
▁hudson	-12.6254
blaise	-12.6254
pugos	-12.6254
fusinus	-12.6254
▁bouvier	-12.6254
▁nagpabilin	-12.6254
acanthoisis	-12.6254
▁dabaw	-12.6255
▁gontar	-12.6256
▁tradisyonal	-12.6257
poterie	-12.6257
bonnières	-12.6257
brunn	-12.6258
watersipora	-12.626
▁padulo	-12.626
asteronyx	-12.626
agaricia	-12.6263
finella	-12.6264
▁konsul	-12.6265
fresnay	-12.6265
▁beauchamp	-12.6266
▁320	-12.6267
▁nuttalli	-12.6271
▁1780	-12.6272
▁sasaki	-12.6272
▁senna	-12.6274
lamothe	-12.6276
▁misak	-12.6276
cassis	-12.6286
olindias	-12.6287
▁kinadu	-12.6288
aponuphis	-12.6289
paramphinome	-12.629
gtuon	-12.6299
ambly	-12.6303
arctic	-12.6305
murat	-12.6308
▁nagkalainlain	-12.6311
pseudochordodes	-12.6318
agnat	-12.632
atubang	-12.6321
▁triloba	-12.6327
mbach	-12.6334
boncourt	-12.6353
chemin	-12.6365
▁ototyphlonemert	-12.6373
amans	-12.6383
essonne	-12.6386
▁zio	-12.6388
▁jim	-12.6438
▁koellikeri	-12.6442
brousse	-12.6469
▁satur	-12.6469
▁vermicula	-12.6473
▁abietina	-12.6475
ussat	-12.648
▁seguenziida	-12.6482
▁aurantia	-12.6487
▁littorini	-12.6491
▁levenstein	-12.6491
arachnanthus	-12.6491
bathydorus	-12.6491
charactopygus	-12.6491
chloritis	-12.6491
columbella	-12.6491
cyphoma	-12.6491
eudistylia	-12.6491
guillaume	-12.6491
halosydnella	-12.6491
heliacus	-12.6491
inespanyol	-12.6491
macrodactyla	-12.6491
ophiurolepis	-12.6491
oscolecidae	-12.6491
▁alcicornis	-12.6491
▁belgicae	-12.6491
▁caespitosa	-12.6491
▁californicum	-12.6491
▁campanulinidae	-12.6491
▁carinifera	-12.6491
▁corrugatus	-12.6491
▁cupuladriidae	-12.6491
▁cyclostomatida	-12.6491
▁cylindricus	-12.6491
▁erythraea	-12.6491
▁flabellifer	-12.6491
▁furcatus	-12.6491
▁giganteum	-12.6491
▁hartmeyeri	-12.6491
▁hummelincki	-12.6491
▁kieschnick	-12.6491
▁lankesteri	-12.6491
▁longisetis	-12.6491
▁longispinus	-12.6491
▁macrodasyidae	-12.6491
▁magtutudlo	-12.6491
▁mammillata	-12.6491
▁mananaog	-12.6491
▁matsumoto	-12.6491
▁mitsukurii	-12.6491
▁myriopathidae	-12.6491
▁novaecaledoniae	-12.6491
▁oculatus	-12.6491
▁ortodokso	-12.6491
▁porrecta	-12.6491
▁quadrilobata	-12.6491
▁reticulatum	-12.6491
▁reticulum	-12.6491
▁saxicola	-12.6491
▁spitzbergensis	-12.6491
▁takashi	-12.6491
▁terrestris	-12.6491
▁tortuosa	-12.6491
▁tricuspida	-12.6491
▁tumidus	-12.6491
▁uniserialis	-12.6491
▁venustus	-12.6491
▁weltner	-12.6491
hadlok	-12.6491
notoproctus	-12.6491
ophiolimna	-12.6491
▁camerano	-12.6491
▁stanley	-12.6491
▁vegae	-12.6491
▁miranda	-12.6491
▁pwersa	-12.6491
▁riisei	-12.6491
assiminea	-12.6491
▁punctatum	-12.6491
▁setifer	-12.6491
▁scaber	-12.6491
mohnia	-12.6491
▁acerata	-12.6491
▁latens	-12.6491
▁primera	-12.6492
▁coates	-12.6492
▁helleri	-12.6492
▁arcticum	-12.6492
corallus	-12.6492
▁kaumahan	-12.6492
fresnoy	-12.6492
sabellastarte	-12.6492
▁semoni	-12.6492
haplota	-12.6492
corambe	-12.6492
radiella	-12.6492
columella	-12.6492
▁zoroasteridae	-12.6492
▁microcephala	-12.6492
▁lorioli	-12.6492
▁cordata	-12.6493
avesnes	-12.6493
▁crateriformis	-12.6493
ventrico	-12.6493
▁nutrix	-12.6493
▁gitabi	-12.6494
▁paxton	-12.6494
▁davidson	-12.6494
▁coronatum	-12.6497
▁clavatum	-12.6498
▁spiculifera	-12.6498
▁tenuispina	-12.6499
▁mysti	-12.65
▁marionensis	-12.65
▁trilobata	-12.6501
▁fortis	-12.6504
▁papua	-12.6507
aujac	-12.6507
acerv	-12.6508
▁stone	-12.6509
▁miagi	-12.651
▁nux	-12.6518
down	-12.655
▁503	-12.6553
forskalia	-12.6553
nassa	-12.6558
chalinopsi	-12.6566
uchon	-12.6572
parantipathes	-12.6576
pukan	-12.6583
▁duwa	-12.6592
longueville	-12.6595
besse	-12.6606
inger	-12.6608
paranthus	-12.661
▁islamiko	-12.6615
histi	-12.6619
faux	-12.6623
protesta	-12.6623
▁zea	-12.6635
hulyo	-12.6635
pagny	-12.6641
agnon	-12.6649
osanne	-12.6688
▁holm	-12.6701
himutang	-12.6708
nsang	-12.6716
cyliosoma	-12.6717
monhyster	-12.6717
=1436	-12.6725
helicarion	-12.6735
municipal	-12.6735
▁brazil	-12.6735
independen	-12.6735
anethoporus	-12.6735
arachnidium	-12.6735
bathyglycinde	-12.6735
beethoven	-12.6735
boccardiella	-12.6735
calcarobiotus	-12.6735
cellicephaloides	-12.6735
cerithidea	-12.6735
coscinaraea	-12.6735
diplolaimella	-12.6735
diyalekto	-12.6735
doryteuthis	-12.6735
dysponetus	-12.6735
epistreptus	-12.6735
galathowenia	-12.6735
hippothyris	-12.6735
laevicardium	-12.6735
laomedea	-12.6735
lepidonotopodium	-12.6735
microscleroderma	-12.6735
mitrocomella	-12.6735
oncholaimellus	-12.6735
pneumodermopsis	-12.6735
rhabdochona	-12.6735
sphaerotheriidae	-12.6735
sphaerotylus	-12.6735
storthophorus	-12.6735
stylophora	-12.6735
thorectandra	-12.6735
typhloscolex	-12.6735
uniporodrilus	-12.6735
valdemunitella	-12.6735
▁anonyma	-12.6735
▁anticomidae	-12.6735
▁aucklandica	-12.6735
▁bavestrello	-12.6735
▁costellariidae	-12.6735
▁entalinidae	-12.6735
▁kongreso	-12.6735
▁mononchidae	-12.6735
▁okutani	-12.6735
▁phascoliidae	-12.6735
▁pholadidae	-12.6735
▁ptychoderidae	-12.6735
▁rhizangiidae	-12.6735
▁tenuispicula	-12.6735
▁teredinidae	-12.6735
▁velutinidae	-12.6735
faverolles	-12.6735
orchistoma	-12.6735
rhophodon	-12.6735
sphaeriodiscus	-12.6735
velutina	-12.6735
▁barnard	-12.6735
▁hercules	-12.6735
▁jirkov	-12.6735
▁nierstrasz	-12.6735
heterogorgia	-12.6735
▁albatrossi	-12.6735
▁indonesia	-12.6735
criconema	-12.6735
▁kugita	-12.6735
▁french	-12.6735
leodora	-12.6735
penitella	-12.6735
▁internet	-12.6735
smilasterias	-12.6735
▁phanodermatidae	-12.6735
bugulella	-12.6735
fungia	-12.6735
▁dekada	-12.6735
▁aphelenchidae	-12.6735
janolus	-12.6736
▁tinuohan	-12.6736
halcurias	-12.6736
anatoma	-12.6736
lignières	-12.6736
▁acanthodes	-12.6736
tzler	-12.6736
léonard	-12.6737
rhynchospio	-12.6737
pseudocnus	-12.6737
▁andaman	-12.6738
▁award	-12.6738
leiaster	-12.6739
macrolaimus	-12.6739
▁2008	-12.674
▁actiniaria	-12.674
pectinaster	-12.674
noyers	-12.6741
amphissa	-12.6742
▁torrey	-12.6742
ascet	-12.6745
▁pagbalik	-12.6745
▁east	-12.6747
polygona	-12.6752
rosières	-12.6753
marché	-12.6753
ophionephthys	-12.6755
eupolyodontes	-12.676
▁helen	-12.6765
▁tunghaan	-12.6772
▁gallo	-12.6772
▁kurso	-12.6779
paracalliactis	-12.6786
oingt	-12.6809
▁beringi	-12.6812
ophiobyrsa	-12.6825
odendron	-12.6846
sabaco	-12.6849
feldt	-12.6857
vrain	-12.6862
▁leach	-12.6871
▁rhyncho	-12.6926
himu	-12.6933
planaria	-12.6935
ambit	-12.6944
▁ferreira	-12.6944
="2069	-12.695
cred	-12.6957
fons	-12.6975
▁panit	-12.6982
drepanophori	-12.6984
aedicira	-12.6985
aequipecten	-12.6985
anthemiphyllia	-12.6985
cleptoria	-12.6985
derholm	-12.6985
doriopsilla	-12.6985
epipolasis	-12.6985
ktenostreptus	-12.6985
listriolobus	-12.6985
lyonsiella	-12.6985
nerillidium	-12.6985
onchidoris	-12.6985
phragmatopoma	-12.6985
pyramidella	-12.6985
rchitectonicidae	-12.6985
spathipora	-12.6985
stauridiosarsia	-12.6985
tetrocycloecia	-12.6985
tripoplax	-12.6985
tubiluchus	-12.6985
turritopsis	-12.6985
▁annularis	-12.6985
▁antennata	-12.6985
▁anthothelidae	-12.6985
▁baculifer	-12.6985
▁bilamellata	-12.6985
▁brunneus	-12.6985
▁caliculata	-12.6985
▁camallanidae	-12.6985
▁cochlear	-12.6985
▁diffusa	-12.6985
▁digitatus	-12.6985
▁distinctus	-12.6985
▁geminata	-12.6985
▁hertwig	-12.6985
▁hexactis	-12.6985
▁hirohito	-12.6985
▁illiosentidae	-12.6985
▁inopinata	-12.6985
▁iotrochotidae	-12.6985
▁kardenal	-12.6985
▁lovenellidae	-12.6985
▁macintoshi	-12.6985
▁macquariensis	-12.6985
▁margaritacea	-12.6985
▁mercator	-12.6985
▁multicostata	-12.6985
▁nesiotes	-12.6985
▁occulta	-12.6985
▁patagonicus	-12.6985
▁phillipensis	-12.6985
▁propinquus	-12.6985
▁radiatus	-12.6985
▁rostratus	-12.6985
▁scalaris	-12.6985
▁selenka	-12.6985
▁stanisic	-12.6985
▁sumusunod	-12.6985
▁temperatura	-12.6985
▁timorensis	-12.6985
▁unicornis	-12.6985
grammaria	-12.6985
leodamas	-12.6985
nerinides	-12.6985
proclea	-12.6985
robertsonidra	-12.6985
thouars	-12.6985
▁anderssoni	-12.6985
▁cubensis	-12.6985
▁drepanophoridae	-12.6985
▁gagmay	-12.6985
▁ramosum	-12.6985
▁stewarti	-12.6985
▁tubifer	-12.6985
bâtie	-12.6985
corbicula	-12.6985
urticina	-12.6985
▁administratibo	-12.6985
▁farquhar	-12.6985
▁radians	-12.6985
▁ramosus	-12.6985
batzella	-12.6985
phrontis	-12.6985
eurysyllis	-12.6985
ophiocomella	-12.6985
▁geayi	-12.6985
▁planulata	-12.6985
galeomma	-12.6985
▁andersoni	-12.6985
yahoo	-12.6985
privat	-12.6985
▁gupta	-12.6985
kategoriya	-12.6985
scaridium	-12.6985
apororhynchus	-12.6985
isolda	-12.6985
▁viride	-12.6985
hermaea	-12.6985
▁tridens	-12.6985
cladochalina	-12.6985
▁heteracanth	-12.6986
▁umbella	-12.6986
anchino	-12.6986
bunyag	-12.6986
cylicolaimus	-12.6986
kuyog	-12.6986
mesonerilla	-12.6986
piloch	-12.6986
neolepton	-12.6986
rotifer	-12.6986
▁cingulata	-12.6986
setopus	-12.6986
▁index	-12.6987
▁gigikanan	-12.6987
hugpong	-12.6987
▁pichon	-12.6988
▁castilla	-12.6988
draconema	-12.6988
▁email	-12.6989
lugia	-12.699
baume	-12.699
hisgot	-12.699
petta	-12.699
firmin	-12.699
borges	-12.6991
pirma	-12.6994
distolasterias	-12.6999
▁ampulla	-12.7001
▁marinus	-12.7004
procyliosoma	-12.7004
kontrol	-12.7005
chavanne	-12.7011
ardenne	-12.7016
▁memor	-12.7023
doryp	-12.7024
lorica	-12.7024
bisaya	-12.7026
stoich	-12.7048
azza	-12.7071
leptonereis	-12.7073
operati	-12.7088
korona	-12.709
▁globula	-12.71
hemphillia	-12.7105
charmes	-12.7106
=604	-12.7131
national	-12.7154
disyembre	-12.7155
yvelines	-12.7155
habagatang	-12.7155
izant	-12.7158
senz	-12.7162
cryptolaria	-12.7172
homme	-12.7228
assé	-12.7238
specula	-12.7238
opsamma	-12.7242
acanthopharynx	-12.7242
acremodontina	-12.7242
acutogordius	-12.7242
aimulosia	-12.7242
caobangia	-12.7242
catholic	-12.7242
cephalothricidae	-12.7242
chiridota	-12.7242
chonaphe	-12.7242
coenocharopa	-12.7242
congopyge	-12.7242
costentalina	-12.7242
crateritheca	-12.7242
dactylocalyx	-12.7242
dactylopodola	-12.7242
dentatisyllis	-12.7242
diplobrachia	-12.7242
eguchipsammia	-12.7242
eleutherolaimus	-12.7242
eosphora	-12.7242
epigamia	-12.7242
falcidens	-12.7242
fastosarion	-12.7242
galadistes	-12.7242
galeolaria	-12.7242
haplocochlias	-12.7242
hiantopora	-12.7242
hipponix	-12.7242
lamellisabella	-12.7242
lirularia	-12.7242
litocorsa	-12.7242
malacosaccus	-12.7242
mauritixenus	-12.7242
minervois	-12.7242
myliusia	-12.7242
neoturris	-12.7242
nephridiacanthus	-12.7242
octopoteuthis	-12.7242
ophiostigma	-12.7242
orhynchoides	-12.7242
orthoporoides	-12.7242
ostertagia	-12.7242
paradontophora	-12.7242
pelodera	-12.7242
perissogorgia	-12.7242
perknaster	-12.7242
petaloconchus	-12.7242
petalostegus	-12.7242
petromica	-12.7242
pillsburiaster	-12.7242
plesiothoa	-12.7242
pomphorhynchidae	-12.7242
priapulus	-12.7242
psammoryctides	-12.7242
pselionema	-12.7242
pteronisis	-12.7242
pulusphaera	-12.7242
rhinoclama	-12.7242
rhizosmilia	-12.7242
schizosmittina	-12.7242
sclerolinum	-12.7242
scyphidium	-12.7242
solariorbis	-12.7242
soleneiscus	-12.7242
subadyte	-12.7242
talivittaticella	-12.7242
terebratella	-12.7242
tesseracme	-12.7242
tethocyathus	-12.7242
thairopora	-12.7242
thalassodrilides	-12.7242
veretillum	-12.7242
xystocheir	-12.7242
▁bertolani	-12.7242
▁bilobata	-12.7242
▁corallina	-12.7242
▁dickinson	-12.7242
▁eschscholtz	-12.7242
▁ferdowsi	-12.7242
▁fitzhugh	-12.7242
▁heteroxyidae	-12.7242
▁obispo	-12.7242
▁onychocellidae	-12.7242
▁ophiolepididae	-12.7242
▁pasahero	-12.7242
▁pierantoni	-12.7242
▁schwank	-12.7242
▁tulearensis	-12.7242
▁turritellidae	-12.7242
cypraea	-12.7242
ditrupa	-12.7242
ferosagitta	-12.7242
heterosentis	-12.7242
leptastrea	-12.7242
megerlina	-12.7242
phisidia	-12.7242
pinulungan	-12.7242
resticula	-12.7242
heterorotula	-12.7242
ophioplax	-12.7242
▁texana	-12.7242
publish	-12.7242
malmiana	-12.7242
▁felix	-12.7242
▁richardsoni	-12.7242
chaetonema	-12.7242
▁gibbs	-12.7242
duridrilus	-12.7242
microxina	-12.7242
pleurata	-12.7242
▁edwin	-12.7242
▁abjad	-12.7242
mastigias	-12.7242
▁zachs	-12.7242
radiaster	-12.7242
acanthopleura	-12.7242
drulia	-12.7242
mesodorylaimus	-12.7242
liarea	-12.7242
▁medusa	-12.7242
▁zebin	-12.7242
pararete	-12.7242
▁adrianov	-12.7243
▁ironidae	-12.7243
gorgoniapolynoe	-12.7243
zeadmete	-12.7243
acanthotetilla	-12.7243
▁binney	-12.7243
acanthomuricea	-12.7243
▁colloni	-12.7244
pristinella	-12.7244
manania	-12.7245
▁lasang	-12.7247
terminoflustra	-12.7247
isozoanthus	-12.7248
laxus	-12.7252
klugeflustra	-12.7253
▁gusto	-12.7258
pseudonepanthia	-12.7262
tonicella	-12.7265
stomatella	-12.7269
micromaldane	-12.727
▁pilar	-12.727
▁punto	-12.7272
paraleucilla	-12.7275
▁lucas	-12.7292
▁thulin	-12.7307
bastiania	-12.7311
mononcholaimus	-12.7312
alaba	-12.7323
paradesmodora	-12.7331
sclerocheilus	-12.7334
seison	-12.7334
kaalam	-12.7338
paragordius	-12.7356
trichostrongylus	-12.7376
helminthoglypta	-12.7406
dictyodendrilla	-12.7414
parisis	-12.7415
cocculina	-12.7424
plessis	-12.7424
hunyo	-12.7433
cleidochasma	-12.7435
victorella	-12.7473
▁papillifer	-12.7487
▁vesicula	-12.7488
▁pustula	-12.7496
▁represent	-12.7505
bathypolypus	-12.7505
cirrineris	-12.7505
clitellio	-12.7505
conotrochus	-12.7505
ctenodiscus	-12.7505
desmanthus	-12.7505
eothinia	-12.7505
filisoma	-12.7505
heptabrachia	-12.7505
hexadella	-12.7505
leptosomatides	-12.7505
leucascus	-12.7505
onychelus	-12.7505
ophiosteira	-12.7505
ophiurothamnus	-12.7505
plocamionida	-12.7505
poraniomorpha	-12.7505
smenospongia	-12.7505
syrnola	-12.7505
zyzzyzus	-12.7505
▁amphoriscidae	-12.7505
▁arcuatus	-12.7505
▁aviculifera	-12.7505
▁bergendal	-12.7505
▁branchiatus	-12.7505
▁catalinensis	-12.7505
▁concentrica	-12.7505
▁corallistidae	-12.7505
▁corniculata	-12.7505
▁crassipes	-12.7505
▁durissima	-12.7505
▁dyscrita	-12.7505
▁erinaceus	-12.7505
▁formosum	-12.7505
▁gelatinosa	-12.7505
▁gibbons	-12.7505
▁hippoporidridae	-12.7505
▁izuensis	-12.7505
▁laciniosa	-12.7505
▁lineolata	-12.7505
▁longisetosa	-12.7505
▁longispicula	-12.7505
▁longispinosa	-12.7505
▁murmanica	-12.7505
▁nebulosa	-12.7505
▁neopilinidae	-12.7505
▁nigropunctata	-12.7505
▁nudibranchia	-12.7505
▁oldroydi	-12.7505
▁peruviana	-12.7505
▁prosorhochmidae	-12.7505
▁publiko	-12.7505
▁quadrioculata	-12.7505
▁roosevelt	-12.7505
▁schmitti	-12.7505
▁speciosus	-12.7505
▁spinosissima	-12.7505
▁symbiotica	-12.7505
▁synaptidae	-12.7505
▁tesselata	-12.7505
▁yehuda	-12.7505
eulepis	-12.7505
▁cortezi	-12.7505
▁glaucus	-12.7505
▁silliman	-12.7505
codakia	-12.7505
parviturbo	-12.7505
pommier	-12.7505
▁autonom	-12.7505
▁bahamensis	-12.7505
▁kempi	-12.7505
▁lobifer	-12.7505
cydonium	-12.7505
▁guineensis	-12.7505
▁pilosus	-12.7505
▁zealandica	-12.7505
▁blanchard	-12.7505
▁oceanica	-12.7505
▁filicaudatus	-12.7505
▁mundus	-12.7505
▁aurantiacus	-12.7505
▁siamensis	-12.7505
janthina	-12.7505
▁tabula	-12.7505
▁luteus	-12.7505
▁bolivar	-12.7505
▁vagans	-12.7505
▁gelida	-12.7505
padayag	-12.7505
marginella	-12.7505
▁spencer	-12.7505
▁stichasteridae	-12.7505
sauveterre	-12.7505
▁projecta	-12.7505
erignatha	-12.7505
▁foresti	-12.7505
amaeana	-12.7505
▁humbert	-12.7506
▁glypta	-12.7506
▁vermicularis	-12.7506
▁ramulosa	-12.7507
chaetodermatidae	-12.7507
▁riseri	-12.7507
▁susama	-12.7507
▁spissa	-12.7509
▁heinz	-12.751
▁alfon	-12.7511
abarenicola	-12.7511
▁silingan	-12.7512
sclerodomus	-12.7513
corps	-12.7513
▁miingon	-12.7513
genova	-12.7514
▁turton	-12.7517
estado	-12.7518
▁free	-12.7522
bugnaw	-12.7525
▁kastila	-12.7525
nanostreptus	-12.7532
aulnay	-12.7532
ophioglycera	-12.7536
nereid	-12.7539
▁domini	-12.754
eulagisca	-12.7546
leachia	-12.7547
champigny	-12.7564
ocnus	-12.7575
▁missi	-12.7595
▁wilk	-12.7601
nimba	-12.7633
balita	-12.766
▁cymati	-12.7687
horai	-12.7693
rosacea	-12.7702
kasaysayan	-12.7721
▁tryon	-12.7746
ibiya	-12.776
radegonde	-12.7775
▁oligobranchia	-12.7775
archiminolia	-12.7775
batillaria	-12.7775
brachioteuthis	-12.7775
cambrésis	-12.7775
cosmasterias	-12.7775
gemmula	-12.7775
hermodice	-12.7775
hyphalaster	-12.7775
maizières	-12.7775
neilonella	-12.7775
pachymatisma	-12.7775
pegantha	-12.7775
plusioporus	-12.7775
stylocordyla	-12.7775
tibiozus	-12.7775
universidad	-12.7775
▁aguinaldo	-12.7775
▁contracta	-12.7775
▁euchlanidae	-12.7775
▁glomerata	-12.7775
▁kristiyano	-12.7775
▁lindgren	-12.7775
▁neptuni	-12.7775
▁ovulidae	-12.7775
▁potamolepidae	-12.7775
▁stefani	-12.7775
▁syntheciidae	-12.7775
▁umbonulidae	-12.7775
leiochone	-12.7775
minuspio	-12.7775
▁ponticus	-12.7775
▁spicula	-12.7775
▁gidaghanon	-12.7775
▁relasyon	-12.7775
▁sierra	-12.7775
▁tenuisetis	-12.7775
inaleman	-12.7775
oulactis	-12.7775
▁catalina	-12.7775
lacrimula	-12.7776
▁physidae	-12.7776
▁1798.	-12.7776
lobonema	-12.7776
▁vidal	-12.7777
▁vienna	-12.7777
puits	-12.7777
▁asawa	-12.7778
▁sanglit	-12.7778
▁nagpakita	-12.7779
▁hastatus	-12.778
▁kadaogan	-12.7781
▁munda	-12.7781
▁bulak	-12.7784
▁liao	-12.7787
calvadosia	-12.7789
illiers	-12.7792
buskia	-12.781
préaux	-12.7817
lingaw	-12.7836
▁macandrewi	-12.7843
=1370	-12.789
▁gardiner	-12.791
shah	-12.792
trichaster	-12.7927
clathurella	-12.7929
issé	-12.7937
diaphana	-12.7988
nobiyembre	-12.7988
octopodidae	-12.7988
septiyembre	-12.7988
lungsod	-12.7989
▁iphion	-12.8011
▁abyss	-12.8045
▁splendi	-12.805
acrocnida	-12.8053
amphiglena	-12.8053
austrophyllum	-12.8053
bisrock	-12.8053
bryocryptella	-12.8053
callianira	-12.8053
corydendrium	-12.8053
cosmioconcha	-12.8053
fannyella	-12.8053
foveolaria	-12.8053
gastrophanella	-12.8053
goniadella	-12.8053
grinyego	-12.8053
gyrocochlea	-12.8053
hemipodus	-12.8053
hybocodon	-12.8053
isochaetides	-12.8053
lithoplocamia	-12.8053
lithopoma	-12.8053
medionidus	-12.8053
ophiophycis	-12.8053
pachycordyle	-12.8053
periphragella	-12.8053
petaserpes	-12.8053
placinolopha	-12.8053
plerogyra	-12.8053
pleurobrachiidae	-12.8053
poliopogon	-12.8053
polyeunoa	-12.8053
pyroteuthis	-12.8053
regadrella	-12.8053
tiaropsidium	-12.8053
xenobrochus	-12.8053
xironogiton	-12.8053
▁aurivilli	-12.8053
▁bioculata	-12.8053
▁capillaris	-12.8053
▁capricorn	-12.8053
▁carnosus	-12.8053
▁choniolaimidae	-12.8053
▁distorta	-12.8053
▁elevata	-12.8053
▁exquisita	-12.8053
▁facelinidae	-12.8053
▁fastigiata	-12.8053
▁filamentosa	-12.8053
▁fulvus	-12.8053
▁holothuriidae	-12.8053
▁hylleberg	-12.8053
▁iheringi	-12.8053
▁impatiens	-12.8053
▁incrassata	-12.8053
▁indicum	-12.8053
▁indistincta	-12.8053
▁inexpectata	-12.8053
▁interrupta	-12.8053
▁laciniata	-12.8053
▁macrophthalma	-12.8053
▁marsupialis	-12.8053
▁network	-12.8053
▁nodosus	-12.8053
▁penicillatus	-12.8053
▁peregrina	-12.8053
▁phuketensis	-12.8053
▁pictus	-12.8053
▁porifera	-12.8053
▁pulchellus	-12.8053
▁quadridentata	-12.8053
▁racemosa	-12.8053
▁sessilis	-12.8053
▁sibilisasyon	-12.8053
▁simplicissima	-12.8053
▁sylvanus	-12.8053
▁terebratellidae	-12.8053
▁tricornis	-12.8053
▁tricuspis	-12.8053
▁variabile	-12.8053
▁verrucosum	-12.8053
▁zancleidae	-12.8053
dixioria	-12.8053
ophioleuce	-12.8053
parvicardium	-12.8053
pleraplysilla	-12.8053
venezue	-12.8053
▁mehiko	-12.8053
▁minimum	-12.8053
ophiopsammus	-12.8053
▁corniger	-12.8053
▁hobson	-12.8053
▁rubella	-12.8053
lithosoma	-12.8053
moerisia	-12.8053
myxaster	-12.8053
▁faviidae	-12.8053
▁pertusa	-12.8053
▁turrita	-12.8053
leptoecia	-12.8053
pontodrilus	-12.8053
neomenia	-12.8053
paglitok	-12.8053
pommera	-12.8053
▁incisus	-12.8053
▁papuensis	-12.8053
▁prayidae	-12.8053
▁umbra	-12.8053
seinura	-12.8053
▁vorax	-12.8053
phycopsis	-12.8053
▁sordida	-12.8053
▁proteus	-12.8053
▁werner	-12.8053
▁wireni	-12.8053
mendax	-12.8053
▁eltanin	-12.8053
mortagne	-12.8053
▁errans	-12.8053
euzonus	-12.8053
lingkod	-12.8053
▁politus	-12.8053
▁abbott	-12.8053
croisille	-12.8053
▁science	-12.8053
crepis	-12.8053
egypt	-12.8053
cladonema	-12.8053
▁paucibranchiata	-12.8053
anthosactis	-12.8053
silicula	-12.8053
▁odontasteridae	-12.8054
skaja	-12.8054
▁divae	-12.8054
rhodine	-12.8054
▁cassidae	-12.8054
▁micans	-12.8055
maupasia	-12.8055
▁columnaris	-12.8055
▁alleni	-12.8056
noyelles	-12.8056
▁convoluta	-12.8056
basiliola	-12.8056
▁ingles	-12.8056
gymnonereis	-12.8056
▁alaskana	-12.8056
▁work	-12.8057
▁dugay	-12.8057
embata	-12.8058
▁massalis	-12.8058
▁guinea	-12.8058
kasal	-12.8059
mesonchium	-12.8059
▁clavus	-12.8059
dendoryx	-12.806
▁bayani	-12.8062
acanthastrea	-12.8063
isops	-12.8064
enoplo	-12.8066
bisita	-12.8069
▁1801	-12.807
ficus	-12.8074
krohnia	-12.8083
scilla	-12.809
="1436	-12.8103
▁vulcanell	-12.8127
gnéville	-12.8146
solemya	-12.8155
anthea	-12.8211
athyp	-12.8219
rapha	-12.826
pebrero	-12.8283
pamuno	-12.8286
buskea	-12.8319
▁tubula	-12.8326
addabbo	-12.8339
astrothorax	-12.8339
athoracophoridae	-12.8339
aulosaccus	-12.8339
chlidonophoridae	-12.8339
chonelasma	-12.8339
clavarctus	-12.8339
clinocardium	-12.8339
coelotrochus	-12.8339
corallimorphus	-12.8339
crassostrea	-12.8339
cyanoplax	-12.8339
distorsio	-12.8339
drepanophorella	-12.8339
echiurus	-12.8339
geneviève	-12.8339
hislopia	-12.8339
hydrasterias	-12.8339
hydrichthys	-12.8339
leiopathes	-12.8339
lithophaga	-12.8339
macoploma	-12.8339
montfaucon	-12.8339
neritina	-12.8339
opisthopatus	-12.8339
phyllocomus	-12.8339
poecilochaetidae	-12.8339
pomatostegus	-12.8339
radicipes	-12.8339
rhabdopleura	-12.8339
rhizorhagium	-12.8339
stomacrustula	-12.8339
thoracostomopsis	-12.8339
▁authority	-12.8339
▁brevibranchia	-12.8339
▁celebensis	-12.8339
▁compactus	-12.8339
▁coralliidae	-12.8339
▁dasydytidae	-12.8339
▁harrimaniidae	-12.8339
▁hershler	-12.8339
▁kishinouye	-12.8339
▁maciolek	-12.8339
▁mackie	-12.8339
▁nipponensis	-12.8339
▁nuchalis	-12.8339
▁ortonektida	-12.8339
▁panagrolaimidae	-12.8339
▁ritchie	-12.8339
▁winaray	-12.8339
bryopastor	-12.8339
lizzia	-12.8339
pneumoderma	-12.8339
▁aenigma	-12.8339
▁atlantis	-12.8339
▁bruguière	-12.8339
▁buwao	-12.8339
▁eroplano	-12.8339
▁fernandez	-12.8339
briareum	-12.8339
halophila	-12.8339
▁pumilus	-12.8339
ophiopteron	-12.8339
acrobeles	-12.8339
typhis	-12.8339
▁amihang	-12.8339
▁proseso	-12.8339
▁muricy	-12.8339
calohypsibius	-12.8339
fossé	-12.8339
sugyot	-12.8339
▁pagkakaron	-12.8339
▁echinatus	-12.8339
patigayon	-12.8339
hacelia	-12.8339
▁kompanya	-12.8339
▁igsoon	-12.8339
guimaras	-12.8339
carinaria	-12.8339
florentin	-12.8339
loriol	-12.8339
comitas	-12.8339
spisula	-12.8339
▁collins	-12.8339
▁crambeidae	-12.8339
▁acteonidae	-12.8339
▁persyano	-12.8339
▁church	-12.8339
▁langyaw	-12.8339
rhabdolaimus	-12.834
▁gigama	-12.834
▁pennant	-12.8341
▁kanton	-12.8342
euthalenessa	-12.8344
disasterina	-12.8344
kompleto	-12.8347
▁total	-12.8348
▁gatas	-12.8348
roquefort	-12.8349
xac	-12.8349
psk	-12.8351
profilicollis	-12.8354
boisset	-12.8361
padagan	-12.8363
atolla	-12.8365
▁mituo	-12.8372
schel	-12.8376
▁lioti	-12.8384
ferreiraella	-12.8386
abbé	-12.8418
▁uttley	-12.842
▁lepidochiton	-12.8424
antonin	-12.8425
pisaster	-12.8427
nchez	-12.8432
▁amphianth	-12.8451
yrton	-12.8452
katag	-12.8454
▁clathurell	-12.8468
parasphaerascler	-12.8477
écl	-12.8484
=2057	-12.8496
▁jesu	-12.8503
uberella	-12.8547
stylact	-12.8553
attenuata	-12.8585
thomas	-12.8586
pransiya	-12.8587
militar	-12.8587
▁nordgaard	-12.8592
pikas	-12.8613
▁crosse	-12.8621
polymnia	-12.8622
▁bathybia	-12.8624
▁tenuicauda	-12.8633
beauregard	-12.8633
▁malakhov	-12.8633
▁sanctae	-12.8633
acanthascus	-12.8633
acrobeloides	-12.8633
actinothoe	-12.8633
agastrophus	-12.8633
aglauropsis	-12.8633
ailsastra	-12.8633
ampheraster	-12.8633
amphitritides	-12.8633
angarozonium	-12.8633
anomocora	-12.8633
anticyclus	-12.8633
aoteatilia	-12.8633
aphaostracon	-12.8633
aphrocallistes	-12.8633
arenosclera	-12.8633
bathyvermilia	-12.8633
belondira	-12.8633
benthocardiella	-12.8633
brisingella	-12.8633
calliotropis	-12.8633
callipelta	-12.8633
campylaimus	-12.8633
cantharidus	-12.8633
caralinda	-12.8633
carychium	-12.8633
cheiloporina	-12.8633
chorizopora	-12.8633
cladopsammia	-12.8633
cnemidaster	-12.8633
cribellopora	-12.8633
cucullanellus	-12.8633
cystogonopus	-12.8633
deontostoma	-12.8633
dermomurex	-12.8633
diplastrella	-12.8633
discolaimium	-12.8633
discradisca	-12.8633
dorylaimopsis	-12.8633
drepanonema	-12.8633
echinoptilum	-12.8633
epiphanes	-12.8633
eubostrichus	-12.8633
freyastera	-12.8633
glabrilaria	-12.8633
globivenus	-12.8633
gyrotoma	-12.8633
hippopleurifera	-12.8633
hyalascus	-12.8633
hydnophora	-12.8633
impluwensiya	-12.8633
inermonephtys	-12.8633
iplolaimelloides	-12.8633
ithycythara	-12.8633
kimboraga	-12.8633
kophosphaera	-12.8633
lamellibrachia	-12.8633
lasmigona	-12.8633
leptonemella	-12.8633
leucaltis	-12.8633
lienardia	-12.8633
liolophura	-12.8633
liratilia	-12.8633
lissotestella	-12.8633
lithophyllon	-12.8633
loughlin	-12.8633
lucapinella	-12.8633
lumbricalus	-12.8633
macrozafra	-12.8633
mathewsoconcha	-12.8633
melicertissa	-12.8633
melloconcha	-12.8633
meridolum	-12.8633
ncellothyrididae	-12.8633
nematomenia	-12.8633
nidificaria	-12.8633
obesotoma	-12.8633
olenozophyllaria	-12.8633
ooperipatellus	-12.8633
ophiozonoida	-12.8633
paleanotus	-12.8633
phacussa	-12.8633
phidolopora	-12.8633
philometra	-12.8633
platicrista	-12.8633
plectorhagada	-12.8633
plocamione	-12.8633
potamilus	-12.8633
protoariciella	-12.8633
protoptilum	-12.8633
reussirella	-12.8633
rhyacodrilus	-12.8633
scalarispongia	-12.8633
sinantherina	-12.8633
spatangus	-12.8633
spinochordodes	-12.8633
stegopoma	-12.8633
thecidellina	-12.8633
therasiella	-12.8633
thynnascaris	-12.8633
thyonidium	-12.8633
trileptium	-12.8633
valencinia	-12.8633
virchowia	-12.8633
watichelus	-12.8633
zeidora	-12.8633
▁ambonensis	-12.8633
▁antipodum	-12.8633
▁armillata	-12.8633
▁australiae	-12.8633
▁babylonia	-12.8633
▁biyernes	-12.8633
▁brachyactis	-12.8633
▁caribaea	-12.8633
▁cellulosa	-12.8633
▁cerebrum	-12.8633
▁composit	-12.8633
▁compressus	-12.8633
▁connectens	-12.8633
▁couthouy	-12.8633
▁dibranchiata	-12.8633
▁echinulata	-12.8633
▁excavatus	-12.8633
▁forcipula	-12.8633
▁friabilis	-12.8633
▁guwardiya	-12.8633
▁hechtel	-12.8633
▁hertlein	-12.8633
▁huxleyi	-12.8633
▁impormasyon	-12.8633
▁informis	-12.8633
▁intricata	-12.8633
▁kahibalo	-12.8633
▁kinoshita	-12.8633
▁lamellifera	-12.8633
▁leucaltidae	-12.8633
▁maculosus	-12.8633
▁megastoma	-12.8633
▁miliaris	-12.8633
▁mitchelli	-12.8633
▁moerchi	-12.8633
▁multipapillata	-12.8633
▁obtecta	-12.8633
▁penicillata	-12.8633
▁perplexus	-12.8633
▁pulcherrimus	-12.8633
▁punctulata	-12.8633
▁quadricornis	-12.8633
▁retifera	-12.8633
▁rufescens	-12.8633
▁saldanha	-12.8633
▁sculpta	-12.8633
▁scutiger	-12.8633
▁sexoculata	-12.8633
▁tentaculatus	-12.8633
▁tropicus	-12.8633
▁tuberculatum	-12.8633
▁tunicata	-12.8633
▁turricula	-12.8633
▁vesiculosa	-12.8633
▁zosterae	-12.8633
▁zostericola	-12.8633
ancylostoma	-12.8633
astrostole	-12.8633
fabricinuda	-12.8633
felimare	-12.8633
fontenelle	-12.8633
gregariella	-12.8633
heronidrilus	-12.8633
kidderia	-12.8633
leiocapitella	-12.8633
ningbingia	-12.8633
polydorella	-12.8633
pomatiopsis	-12.8633
sinupetraliella	-12.8633
telestula	-12.8633
▁bipartita	-12.8633
▁hexagona	-12.8633
▁nodosum	-12.8633
albanidrilus	-12.8633
eatonina	-12.8633
syndactylactis	-12.8633
▁balticus	-12.8633
▁barbarensis	-12.8633
crystall	-12.8633
podospongia	-12.8633
▁amoyensis	-12.8633
catriona	-12.8633
▁mortoni	-12.8633
tholopora	-12.8633
▁abraham	-12.8633
levizonus	-12.8633
monestier	-12.8633
▁inversa	-12.8633
tectura	-12.8633
▁aktibo	-12.8633
▁palmeri	-12.8633
circeis	-12.8633
▁antiqua	-12.8633
loxomitra	-12.8633
▁lenticula	-12.8633
amphibolus	-12.8633
cornulella	-12.8633
lissarca	-12.8633
▁dunker	-12.8633
▁subulata	-12.8633
scandia	-12.8633
▁mitridae	-12.8633
▁capitatus	-12.8633
▁tecta	-12.8633
▁thomassini	-12.8633
▁macrodon	-12.8633
▁cameron	-12.8633
▁pantalan	-12.8633
▁laeve	-12.8633
▁madsen	-12.8633
banabana	-12.8633
tubastraea	-12.8633
▁cordiformis	-12.8633
cervera	-12.8633
boonea	-12.8633
▁komunista	-12.8633
▁exile	-12.8633
gracilisentis	-12.8633
▁angulifer	-12.8633
▁hallmann	-12.8633
anchiocerianthus	-12.8634
▁anyos	-12.8634
trichotheristus	-12.8634
▁korset	-12.8634
hyalinella	-12.8634
ectyonopsis	-12.8634
aulolaimus	-12.8635
▁turneri	-12.8635
siphonostoma	-12.8635
▁amaral	-12.8635
willeysthenelais	-12.8635
haliplectus	-12.8636
cryptopora	-12.8636
microphiopholis	-12.8636
metalinhomoeus	-12.8636
▁cesar	-12.8638
semicassis	-12.8638
pseudechinus	-12.864
▁malaysia	-12.8641
ovula	-12.8641
imonides	-12.8643
leptopecten	-12.8644
cleaveius	-12.8647
hemismittoidea	-12.8648
mooreobdella	-12.8658
▁trono	-12.866
neovermilia	-12.8663
notasterias	-12.8665
neosabellaria	-12.8666
▁mayoriya	-12.8671
paranepanthia	-12.8673
sixt	-12.869
spengelia	-12.8695
▁indiya	-12.8696
propolyxenus	-12.8706
pampa	-12.8716
▁chaetopleur	-12.8727
prooncholaimus	-12.8733
▁rutila	-12.8734
▁halioti	-12.8746
arsac	-12.8749
=396	-12.8749
▁cephalodasy	-12.8775
intoshia	-12.8784
▁lenti	-12.8791
chuniella	-12.8798
marsac	-12.885
indig	-12.8868
▁distr	-12.8894
amerika	-12.8897
doubs	-12.89
▁misulo	-12.8918
bathynoe	-12.8936
cirsotrema	-12.8936
cliothosa	-12.8936
dendropoma	-12.8936
drieschia	-12.8936
fenimorea	-12.8936
glossoscolecidae	-12.8936
glottidia	-12.8936
gnathostomulidae	-12.8936
halenchus	-12.8936
haloclava	-12.8936
hyboscolex	-12.8936
idiosepius	-12.8936
inintsik	-12.8936
neofibularia	-12.8936
paradasys	-12.8936
pedinogyra	-12.8936
pododesmus	-12.8936
pompholyx	-12.8936
pseudoceratina	-12.8936
ptychogena	-12.8936
pyrgocythara	-12.8936
saroxenus	-12.8936
sthenelanella	-12.8936
sulculeolaria	-12.8936
▁aequoreidae	-12.8936
▁alaimidae	-12.8936
▁aplysiidae	-12.8936
▁asiatica	-12.8936
▁brondstedi	-12.8936
▁buffonellodidae	-12.8936
▁coriaceus	-12.8936
▁direktor	-12.8936
▁edipisyo	-12.8936
▁ensiklopedya	-12.8936
▁erectus	-12.8936
▁filifera	-12.8936
▁guadeloupe	-12.8936
▁hamacanthidae	-12.8936
▁hupferi	-12.8936
▁isidro	-12.8936
▁kabukiran	-12.8936
▁kristiyanismo	-12.8936
▁kutikova	-12.8936
▁laodiceidae	-12.8936
▁lepidus	-12.8936
▁mediteranyo	-12.8936
▁messicobolidae	-12.8936
▁onchidorididae	-12.8936
▁prinsipe	-12.8936
▁sanderson	-12.8936
▁strelzov	-12.8936
▁telebisyon	-12.8936
▁trinidad	-12.8936
▁unidentata	-12.8936
▁wiszniewski	-12.8936
bazoches	-12.8936
palmicellaria	-12.8936
xobolus	-12.8936
béarn	-12.8936
crambione	-12.8936
desdemona	-12.8936
discodoris	-12.8936
graphonema	-12.8936
heteropyge	-12.8936
ophiochondrus	-12.8936
▁tuyom	-12.8936
galiteuthis	-12.8936
umbraculum	-12.8936
▁gloria	-12.8936
asconema	-12.8936
▁pease	-12.8936
glossiphonia	-12.8936
kadosactis	-12.8936
rosalinda	-12.8936
thalassodrilus	-12.8936
fictor	-12.8936
scolecolepides	-12.8936
pirodrilus	-12.8936
▁oerstediidae	-12.8937
psammochela	-12.8937
bunodeopsis	-12.8937
▁riedl	-12.8941
▁englan	-12.8941
ernstia	-12.8942
nanteuil	-12.8942
anatina	-12.8943
graneledone	-12.8944
ervilia	-12.8945
châtre	-12.8948
▁politiko	-12.8966
idioteuthis	-12.8968
neochordodes	-12.8976
causse	-12.8986
fried	-12.8991
▁romanhon	-12.8995
penion	-12.8999
▁melvill	-12.9004
▁balaan	-12.9009
heteropora	-12.904
▁peachi	-12.9048
▁lopadorrhynch	-12.908
morum	-12.9092
masala	-12.9093
lendenfeldia	-12.9121
mazière	-12.9123
▁nagkalain	-12.9185
▁larochei	-12.9186
arques	-12.9193
flour	-12.9217
vitrea	-12.922
sugbo	-12.9224
polybrachi	-12.923
▁multidenta	-12.9239
▁olivi	-12.9242
▁curva	-12.9242
elizabeth	-12.9248
▁kirsteuer	-12.9248
▁filicauda	-12.9248
diplosolen	-12.9248
▁multicirra	-12.9248
▁recurva	-12.9248
andvakia	-12.9248
apistobranchus	-12.9248
austrognathiidae	-12.9248
brachidontes	-12.9248
cabardès	-12.9248
euplokamis	-12.9248
gomophia	-12.9248
halcampella	-12.9248
kinatumhaan	-12.9248
laxosuberites	-12.9248
leptorhynchoides	-12.9248
leucophl	-12.9248
madeleine	-12.9248
nectonema	-12.9248
ophiodermella	-12.9248
scleritodermidae	-12.9248
siphonacme	-12.9248
sphaeronectes	-12.9248
trachyiulus	-12.9248
▁androsova	-12.9248
▁arndti	-12.9248
▁bimaculata	-12.9248
▁bipapillata	-12.9248
▁bractea	-12.9248
▁broomensis	-12.9248
▁buitendijki	-12.9248
▁bunonematidae	-12.9248
▁bythotiaridae	-12.9248
▁caelatus	-12.9248
▁calcinai	-12.9248
▁caledonica	-12.9248
▁ceratomyxidae	-12.9248
▁claparedei	-12.9248
▁clypeata	-12.9248
▁coarctata	-12.9248
▁complicata	-12.9248
▁crassicosta	-12.9248
▁dendritica	-12.9248
▁digitalis	-12.9248
▁echinulatus	-12.9248
▁edentula	-12.9248
▁espiritu	-12.9248
▁flagelliformis	-12.9248
▁flexibilis	-12.9248
▁fraterna	-12.9248
▁frigidus	-12.9248
▁furuya	-12.9248
▁gemmifera	-12.9248
▁glaucum	-12.9248
▁goniodorididae	-12.9248
▁gracilipes	-12.9248
▁guayaquil	-12.9248
▁heteropoda	-12.9248
▁hodgsoni	-12.9248
▁hyadesi	-12.9248
▁hystricis	-12.9248
▁implexa	-12.9248
▁jucunda	-12.9248
▁lekythoporidae	-12.9248
▁limnicola	-12.9248
▁lugubris	-12.9248
▁macrosigma	-12.9248
▁mediterraneum	-12.9248
▁michaelsarsi	-12.9248
▁mighels	-12.9248
▁mohammad	-12.9248
▁multisetosa	-12.9248
▁nemenzo	-12.9248
▁obtusum	-12.9248
▁parasiticum	-12.9248
▁pectinatus	-12.9248
▁phyllophoridae	-12.9248
▁podospongiidae	-12.9248
▁protodrilidae	-12.9248
▁pulvinata	-12.9248
▁punicea	-12.9248
▁rakiura	-12.9248
▁rathbuni	-12.9248
▁rhabderemiidae	-12.9248
▁rhopaluridae	-12.9248
▁robillardi	-12.9248
▁ruetzleri	-12.9248
▁rusticus	-12.9248
▁sanguineus	-12.9248
▁scalariformis	-12.9248
▁scutella	-12.9248
▁siphonolaimidae	-12.9248
▁solidum	-12.9248
▁surinamensis	-12.9248
▁terebridae	-12.9248
▁terricola	-12.9248
▁torquatus	-12.9248
▁toulouse	-12.9248
▁triquetra	-12.9248
▁ulmaridae	-12.9248
▁viviparidae	-12.9248
▁xishaensis	-12.9248
arachnoidea	-12.9248
collarina	-12.9248
▁bedoti	-12.9248
▁lapulapu	-12.9248
▁pawson	-12.9248
▁peruanus	-12.9248
▁radiatum	-12.9248
▁sandersi	-12.9248
▁strigosa	-12.9248
▁striolata	-12.9248
▁vermiformis	-12.9248
▁willetti	-12.9248
erpobdella	-12.9248
hamingia	-12.9248
▁brevispinus	-12.9248
▁cirrosa	-12.9248
▁ormoc	-12.9248
▁pupinidae	-12.9248
▁spiculosa	-12.9248
▁trifida	-12.9248
▁varicosa	-12.9248
marginaster	-12.9248
▁franciscana	-12.9248
▁ikeda	-12.9248
▁katuyoan	-12.9248
▁metaniidae	-12.9248
▁pusillum	-12.9248
pagkla	-12.9248
▁apicula	-12.9248
▁problema	-12.9248
▁striatum	-12.9248
▁pagsugod	-12.9248
liripora	-12.9248
▁agalmatidae	-12.9248
▁poculum	-12.9248
rsdorf	-12.9248
▁porosus	-12.9248
▁herdmani	-12.9248
▁yunit	-12.9248
cornularia	-12.9248
▁birhen	-12.9248
sologne	-12.9248
bretteville	-12.9248
▁kahulogan	-12.9248
▁césar	-12.9248
▁regius	-12.9248
▁unciger	-12.9248
mytilus	-12.9248
iconaster	-12.9249
peracle	-12.9249
▁hertz	-12.9249
lampea	-12.9249
maisoncelles	-12.9249
▁loboc	-12.9249
bimeria	-12.9249
▁pratensis	-12.9249
pronax	-12.9249
▁parasita	-12.9249
▁gesae	-12.925
admetella	-12.925
arwick	-12.925
taranis	-12.925
people	-12.925
▁gatosay	-12.925
▁hians	-12.925
▁valvatida	-12.925
▁angularis	-12.9251
▁lawis	-12.9251
▁densus	-12.9251
▁planeta	-12.9251
▁fortun	-12.926
savignac	-12.9266
▁bikol	-12.9267
loxo	-12.9278
heterospio	-12.9281
juvigny	-12.9302
atteville	-12.931
▁helm	-12.9317
▁dictyodendrill	-12.936
▁borojevi	-12.9367
cassagn	-12.9373
abbe	-12.9409
▁avena	-12.9491
augustin	-12.9505
▁rayna	-12.952
▁odhner	-12.9542
simbahan	-12.9555
gironde	-12.9555
villosa	-12.956
leprea	-12.9565
▁alaska	-12.9568
acabaria	-12.9571
acanthancora	-12.9571
achramorpha	-12.9571
aplysinopsis	-12.9571
aspersentis	-12.9571
criconemoides	-12.9571
cryoturris	-12.9571
cyclostrema	-12.9571
diplopleura	-12.9571
discorhabdella	-12.9571
elsothera	-12.9571
eoschrammeniella	-12.9571
ercolania	-12.9571
fanulena	-12.9571
[...]
