<unk>	0
<s>	0
</s>	0
"	-3.01074
.	-3.01839
="	-3.08841
▁	-3.3285
▁sa	-3.43609
▁nga	-3.72217
doc	-3.7661
>	-3.76823
s	-3.98194
▁ang	-4.12339
d	-4.20905
-	-4.36408
▁ka	-4.4083
=	-4.41061
/	-4.44731
▁<	-4.44959
ies	-4.45384
org	-4.4544
curi	-4.45968
▁id	-4.46035
ceb	-4.46054
?	-4.46073
wiki	-4.46091
wikipedia	-4.46111
http	-4.46131
://	-4.46131
▁title	-4.46135
▁categor	-4.46136
▁url	-4.46138
▁</	-4.4733
▁ni	-4.63331
▁ug	-4.74907
▁"	-4.76029
▁matang	-4.99087
▁kabanay	-5.21862
▁sakop	-5.22739
henera	-5.2589
▁kini	-5.25927
▁gi	-5.27211
▁kaliwatan	-5.35335
▁niini	-5.35894
adtong	-5.36323
▁una	-5.37885
hulagway	-5.38128
nalista	-5.38931
▁ning	-5.39359
▁walay	-5.42568
▁sama	-5.42634
",	-5.43657
i	-5.51996
:	-5.74963
,	-5.76208
▁usa	-5.771
▁may	-5.84605
4	-5.86686
▁rehiyon	-5.88437
▁nahimutang	-5.88867
▁pransiya	-5.88944
▁komyun	-5.89043
a	-5.89506
▁departamento	-5.89675
▁na	-5.89924
▁molupyo	-5.90616
us	-6.02871
wag	-6.08102
▁sab	-6.09179
▁hayop	-6.09489
c	-6.38294
▁mga	-6.41457
de	-6.44623
ta	-6.48594
e	-6.5182
en	-6.63194
la	-6.65319
o	-6.6949
le	-6.76571
y	-6.84656
g	-6.87249
t	-6.97004
idae	-6.97653
ensis	-6.98271
n	-6.98439
an	-6.98809
▁mao	-6.99366
et	-7.01395
um	-7.0146
ng	-7.01875
ma	-7.10841
▁muragwati	-7.12274
▁of	-7.13719
ella	-7.17664
1"	-7.21713
l	-7.22658
▁life	-7.22708
▁catalogue	-7.22809
or	-7.26718
na	-7.27011
0"	-7.28514
ca	-7.33033
on	-7.33785
11	-7.33992
ulod	-7.35653
6"	-7.35703
to	-7.3572
▁mananap	-7.35766
8"	-7.36191
▁banaog	-7.3622
13	-7.37239
ia	-7.37831
ae	-7.38224
▁dawhilahila	-7.39895
▁kladogram	-7.40283
15	-7.40836
▁saint	-7.41646
ti	-7.42012
tu	-7.43055
9"	-7.44705
▁a	-7.46595
ra	-7.50671
'	-7.50816
▁matud	-7.51061
li	-7.52275
▁la	-7.52758
sur	-7.53041
ri	-7.53137
is	-7.53813
▁(	-7.54018
p	-7.55012
r	-7.55306
7"	-7.5567
2"	-7.56325
b	-7.56538
si	-7.57297
18	-7.59342
14	-7.5944
ne	-7.60851
ni	-7.60948
5"	-7.6168
3"	-7.64274
▁gasang	-7.6574
saint	-7.6621
21	-7.68572
ata	-7.69208
k	-7.69229
▁dapawdapaw	-7.71221
re	-7.71401
m	-7.71669
ula	-7.71764
in	-7.71893
12	-7.72202
ch	-7.72237
th	-7.73325
ro	-7.73472
lo	-7.73749
10	-7.74836
loire	-7.76804
alpes	-7.78591
▁grand	-7.78795
di	-7.79118
no	-7.79483
▁est	-7.79675
da	-7.81009
sa	-7.81808
)	-7.82684
france	-7.86024
ph	-7.87162
é	-7.88502
pa	-7.88962
vi	-7.89527
16	-7.90445
te	-7.90515
se	-7.92468
pi	-7.92764
ul	-7.94185
x	-7.94632
ukab	-7.96551
at	-7.97462
rhône	-7.97812
z	-7.98135
co	-7.9821
mo	-7.98851
▁occitanie	-8.00219
aquitaine	-8.00819
▁nouvelle	-8.00841
ina	-8.01869
h	-8.01998
cu	-8.02068
tum	-8.05278
ana	-8.05606
▁ma	-8.05629
ic	-8.05691
▁lingin	-8.06033
▁si	-8.06326
ville	-8.06679
45	-8.07087
me	-8.07231
▁auvergne	-8.07856
oides	-8.10506
es	-8.10804
al	-8.12435
ar	-8.13649
▁o	-8.13691
franche	-8.13817
po	-8.14412
cul	-8.15007
▁le	-8.15016
6	-8.15241
au	-8.15429
ha	-8.15631
mi	-8.15973
comté	-8.16228
▁bourgogne	-8.16488
24	-8.16882
ce	-8.17322
▁mi	-8.17545
val	-8.17944
hi	-8.18376
40	-8.18751
les	-8.18933
▁de	-8.19752
bi	-8.2047
ci	-8.21016
lis	-8.21063
op	-8.2191
▁in	-8.22085
ulo	-8.22305
ya	-8.22478
▁di	-8.23764
▁tiladtilad	-8.23784
ba	-8.24104
ea	-8.24584
50	-8.24792
er	-8.24995
▁pa	-8.25089
▁f	-8.25929
▁pagka	-8.26575
#	-8.26657
51	-8.26766
ris	-8.26856
os	-8.27129
20	-8.27289
▁pag	-8.27389
eu	-8.27506
▁e	-8.29051
hauts	-8.29079
fer	-8.29801
ka	-8.29826
▁b	-8.3006
19	-8.30071
ga	-8.30783
▁haute	-8.32139
v	-8.32151
go	-8.32229
28	-8.32543
ol	-8.32672
25	-8.3273
aster	-8.32897
klase	-8.32924
ang	-8.33414
▁normandie	-8.3346
63	-8.33481
71	-8.3357
▁#	-8.34421
u	-8.34872
30	-8.35056
ii	-8.35181
ty	-8.35439
▁bi	-8.36751
ur	-8.36774
29	-8.36821
chi	-8.36835
yo	-8.37139
17	-8.37864
ria	-8.38273
▁1,	-8.38409
as	-8.38828
▁wala	-8.39558
va	-8.39691
do	-8.40793
76	-8.41196
▁al	-8.4148
ter	-8.41591
74	-8.42585
▁re	-8.42608
34	-8.43135
▁espesye	-8.43795
mont	-8.44263
88	-8.46053
gi	-8.46056
▁niya	-8.47122
39	-8.47405
▁para	-8.48254
▁i	-8.49598
53	-8.496
iyang	-8.49986
mer	-8.50155
bo	-8.50349
du	-8.51145
▁karon	-8.51261
58	-8.51302
cy	-8.51315
im	-8.51554
31	-8.51579
ex	-8.51648
cha	-8.52418
ry	-8.53221
so	-8.5398
▁ubos	-8.54178
the	-8.5443
▁ca	-8.54792
pe	-8.55
61	-8.55012
osa	-8.55726
59	-8.55997
f	-8.56474
94	-8.56525
ge	-8.56798
60	-8.57015
73	-8.57183
hy	-8.5765
eri	-8.5785
que	-8.58226
26	-8.58314
81	-8.58481
ola	-8.59369
▁pay	-8.59436
opsis	-8.59463
▁m	-8.59834
ay	-8.60097
ron	-8.60138
tri	-8.60547
che	-8.60955
▁mar	-8.60963
▁con	-8.61189
des	-8.61252
▁tuig	-8.61309
90	-8.61406
be	-8.61425
el	-8.61539
ve	-8.61864
era	-8.61967
43	-8.62114
lus	-8.62892
gu	-8.62925
para	-8.635
54	-8.63679
68	-8.64106
▁siak	-8.64174
ida	-8.64731
he	-8.65749
mar	-8.65843
tidae	-8.66214
iidae	-8.66847
han	-8.67147
01	-8.67163
w	-8.672
ton	-8.67324
oc	-8.67348
un	-8.67834
23	-8.6793
38	-8.6809
41	-8.68291
62	-8.68373
tic	-8.69102
▁co	-8.69255
▁ha	-8.69771
▁ar	-8.69974
▁p	-8.70002
ko	-8.70326
22	-8.70486
son	-8.7074
▁mo	-8.70841
70	-8.71097
gon	-8.71641
27	-8.71947
il	-8.72527
▁k	-8.72869
▁ra	-8.73082
▁ligid	-8.73475
89	-8.73478
der	-8.73519
ho	-8.73751
02	-8.73791
ran	-8.73934
198	-8.74246
▁bakaybakay	-8.74354
▁tri	-8.74371
man	-8.74562
ly	-8.74672
196	-8.74782
92	-8.74915
84	-8.75593
ber	-8.75814
com	-8.76732
▁g	-8.76959
ki	-8.76997
36	-8.77129
52	-8.77176
nu	-8.77368
195	-8.77511
130	-8.78008
32	-8.78257
197	-8.78555
209	-8.7856
▁kinhason	-8.78579
▁ba	-8.78702
nes	-8.78779
tro	-8.78813
219	-8.79446
▁bituonbituon	-8.79798
ig	-8.79857
57	-8.79894
▁he	-8.79898
218	-8.7993
▁li	-8.79986
io	-8.80005
157	-8.80117
par	-8.80138
za	-8.80574
lin	-8.80649
pla	-8.80674
ot	-8.80732
145	-8.81433
mon	-8.81471
▁nahiubos	-8.81481
ong	-8.81517
▁pro	-8.81609
pt	-8.81795
lu	-8.81902
cor	-8.82069
lan	-8.82221
208	-8.824
it	-8.82574
ine	-8.82658
215	-8.82665
per	-8.83043
lia	-8.83086
ing	-8.83302
car	-8.83303
con	-8.83312
▁me	-8.8338
elli	-8.83402
▁par	-8.8357
210	-8.83628
126	-8.83692
pu	-8.83832
▁ika	-8.83978
199	-8.84068
150	-8.84182
▁ngadto	-8.84371
207	-8.84454
▁po	-8.84736
147	-8.84845
87	-8.85015
▁pilipinas	-8.85193
court	-8.85355
am	-8.85398
120	-8.85419
170	-8.85664
▁lu	-8.8597
▁per	-8.8602
▁1	-8.86041
don	-8.86138
▁car	-8.86272
08	-8.86292
▁kaginharian	-8.86444
200	-8.86507
tes	-8.87125
st	-8.87184
194	-8.87318
lès	-8.87471
133	-8.87589
bu	-8.87888
pin	-8.8831
216	-8.88515
217	-8.88818
▁centre	-8.8907
55	-8.89121
179	-8.89299
▁cor	-8.89379
140	-8.89752
127	-8.89768
07	-8.89872
hanay	-8.89923
136	-8.90136
139	-8.90289
128	-8.90305
203	-8.90647
ill	-8.90718
193	-8.90973
180	-8.9099
em	-8.91233
col	-8.91344
▁singsing	-8.915
tor	-8.91503
72	-8.91575
33	-8.91704
146	-8.9172
176	-8.918
129	-8.91902
122	-8.9199
206	-8.92168
;	-8.92331
65	-8.92604
35	-8.92638
ke	-8.93041
bat	-8.93104
212	-8.93185
aria	-8.93426
171	-8.93794
qu	-8.94012
135	-8.94388
br	-8.94473
▁vi	-8.94514
177	-8.94618
75	-8.94668
174	-8.94687
178	-8.94834
213	-8.94963
132	-8.94986
173	-8.95112
103	-8.95277
ru	-8.95382
▁barangay	-8.95669
▁sp	-8.95678
96	-8.95785
149	-8.95974
iformis	-8.95992
ver	-8.96023
maritime	-8.96188
▁nag	-8.96453
ze	-8.96651
100	-8.96769
148	-8.96912
165	-8.96935
if	-8.97075
112	-8.97245
▁siya	-8.97379
▁og	-8.97661
220	-8.97898
117	-8.97995
188	-8.98431
▁dakbayan	-8.98501
▁mont	-8.98514
164	-8.98781
118	-8.98809
119	-8.98843
▁maoy	-8.98896
142	-8.98927
▁kah	-8.9897
▁se	-8.99008
ou	-8.9905
▁lalawigan	-8.99072
113	-8.99329
204	-8.99336
172	-8.99539
98	-8.99619
ug	-8.99675
▁ru	-8.99828
phy	-8.99933
185	-9.00413
190	-9.00533
ag	-9.00599
105	-9.00618
106	-9.00625
▁ro	-9.00681
ré	-9.00704
ll	-9.00767
169	-9.01005
nereis	-9.01228
125	-9.01306
183	-9.01425
▁no	-9.01668
nia	-9.01763
▁seine	-9.0233
mb	-9.02349
83	-9.02364
80	-9.02562
168	-9.02662
for	-9.02703
zi	-9.02827
wa	-9.02886
93	-9.02932
▁segun	-9.03131
ric	-9.03227
tre	-9.03291
05	-9.03436
▁jean	-9.03493
123	-9.03606
dia	-9.03983
189	-9.04058
utong	-9.04293
tis	-9.0469
116	-9.04725
por	-9.04873
ucn	-9.05037
97	-9.05042
▁pseudo	-9.05063
▁ta	-9.05112
175	-9.05321
99	-9.05442
▁eu	-9.05639
▁pagsakop	-9.05831
187	-9.06054
202	-9.0619
ère	-9.06225
zo	-9.06248
▁bo	-9.07128
102	-9.073
160	-9.07404
201	-9.07487
ium	-9.07783
111	-9.07848
182	-9.07894
37	-9.08331
107	-9.08436
▁lungsod	-9.08673
186	-9.08728
ok	-9.08917
155	-9.08952
hu	-9.09223
marne	-9.09327
men	-9.09354
garonne	-9.09396
ey	-9.09982
108	-9.10019
ellidae	-9.1002
▁long	-9.10168
▁pe	-9.10224
tra	-9.10254
192	-9.10467
109	-9.10473
110	-9.10636
▁su	-9.10989
69	-9.1107
8	-9.11193
▁eure	-9.11247
pyrénées	-9.1153
163	-9.12174
▁mu	-9.12248
56	-9.12493
121	-9.12564
158	-9.12673
▁pays	-9.12692
▁hukal	-9.13024
ois	-9.13056
▁sub	-9.13244
85	-9.13558
205	-9.13648
ell	-9.14445
167	-9.14613
141	-9.14645
159	-9.15247
bar	-9.15481
▁var	-9.1564
tan	-9.15937
ir	-9.16267
153	-9.1689
cin	-9.17292
▁2,	-9.1742
09	-9.17795
ura	-9.17901
uc	-9.18003
▁dall	-9.18018
91	-9.18212
162	-9.18396
131	-9.18503
og	-9.18923
▁br	-9.19092
pseudo	-9.19251
ent	-9.19364
211	-9.1958
137	-9.19668
lt	-9.19771
▁au	-9.1988
▁mag	-9.19951
tia	-9.20715
▁pas	-9.20858
lon	-9.21125
illa	-9.21884
151	-9.21994
▁poly	-9.22202
77	-9.22402
▁ho	-9.22573
fi	-9.23055
pro	-9.23065
181	-9.23225
ros	-9.233
ster	-9.23455
▁ver	-9.23511
ff	-9.23703
95	-9.23734
nay	-9.23832
▁côte	-9.24243
00	-9.24493
ja	-9.24643
▁cha	-9.24722
mp	-9.25292
thi	-9.25419
▁micro	-9.25957
101	-9.26016
▁bretagne	-9.26074
▁gracilis	-9.26089
land	-9.26288
provence	-9.26715
gen	-9.27135
ep	-9.27237
ut	-9.27332
cho	-9.27627
▁nasod	-9.28245
▁ga	-9.28527
▁bu	-9.28542
▁du	-9.28774
▁val	-9.28895
▁man	-9.29111
od	-9.29247
tr	-9.29596
drilus	-9.29749
▁h	-9.29803
78	-9.29974
my	-9.29988
ita	-9.30108
▁del	-9.30126
▁da	-9.30246
tin	-9.30248
▁r	-9.30447
86	-9.30615
152	-9.3062
martin	-9.3074
haliclona	-9.30818
bol	-9.30874
▁bar	-9.31255
▁pi	-9.3132
ye	-9.31531
▁aduna	-9.31556
bre	-9.31603
actis	-9.31674
neo	-9.32011
▁lo	-9.32036
bri	-9.32289
rhin	-9.32294
xi	-9.32343
branch	-9.32479
py	-9.32728
ak	-9.33091
ali	-9.33249
zon	-9.3329
mus	-9.33777
79	-9.33845
om	-9.33969
oidea	-9.33977
lat	-9.34331
asterias	-9.34577
rus	-9.34644
pel	-9.34725
dis	-9.34976
▁pu	-9.35392
▁charente	-9.35486
enta	-9.35555
gan	-9.35705
onema	-9.36198
lla	-9.36394
ser	-9.36749
cer	-9.36773
▁te	-9.36857
▁tawo	-9.36885
191	-9.37122
ger	-9.37762
▁bas	-9.37856
ob	-9.3788
ini	-9.38379
▁tardigrada	-9.38399
gy	-9.38499
aux	-9.38545
ix	-9.38549
ant	-9.38596
▁gikan	-9.38705
ans	-9.38734
ard	-9.38891
161	-9.38922
ud	-9.39087
▁fi	-9.39348
sia	-9.39353
tom	-9.39429
res	-9.39542
côte	-9.39585
ple	-9.39666
rac	-9.39778
ino	-9.39805
▁do	-9.4022
nema	-9.40342
▁an	-9.40656
lina	-9.4076
clathria	-9.40779
ières	-9.40946
ner	-9.40963
uli	-9.41025
▁mon	-9.41473
stra	-9.41484
ren	-9.41739
ophi	-9.41869
calais	-9.42056
ves	-9.42194
syllis	-9.42703
ap	-9.42916
pora	-9.43162
tte	-9.43373
fa	-9.43443
acanth	-9.43554
ax	-9.43592
ophora	-9.43665
chy	-9.43899
plo	-9.44014
qui	-9.44315
inus	-9.44442
bro	-9.44453
mis	-9.44888
▁somme	-9.44906
▁sumal	-9.45253
▁t	-9.45312
▁fa	-9.45321
▁ophio	-9.45361
bois	-9.45362
ophio	-9.45395
ku	-9.45481
min	-9.45547
▁go	-9.45579
▁ne	-9.45819
▁klase	-9.46369
rin	-9.46872
▁tu	-9.46979
mat	-9.47176
pan	-9.47194
ven	-9.47258
ila	-9.4734
▁van	-9.4735
▁muragkigwa	-9.47482
san	-9.47496
mac	-9.47656
▁am	-9.47717
pal	-9.47903
non	-9.48015
lum	-9.48093
su	-9.48246
▁hetero	-9.48482
ion	-9.48509
ano	-9.48755
ian	-9.48824
▁aisne	-9.49237
cher	-9.49244
wi	-9.49397
▁usab	-9.49399
▁william	-9.49827
vo	-9.5
macr	-9.50066
fu	-9.50091
▁adlaw	-9.50325
pri	-9.50342
j	-9.50758
▁the	-9.51043
▁bre	-9.51093
▁pang	-9.51173
ham	-9.5124
azur	-9.51262
troch	-9.51469
hel	-9.51564
▁cla	-9.51579
eo	-9.5179
▁haut	-9.52333
▁w	-9.52506
▁cr	-9.5269
▁ph	-9.53179
mu	-9.53212
▁elegans	-9.53349
▁neo	-9.53542
▁l	-9.54024
▁ge	-9.54102
pina	-9.54246
iya	-9.54282
spongia	-9.54589
▁hu	-9.5489
opora	-9.5504
est	-9.55057
▁cy	-9.55142
ad	-9.55153
▁cra	-9.55434
matod	-9.55597
uni	-9.55655
▁be	-9.55675
char	-9.56286
lio	-9.56413
2	-9.56512
▁cal	-9.56627
pter	-9.56835
")	-9.56985
lle	-9.57083
nic	-9.57727
ban	-9.57823
143	-9.57883
yon	-9.58086
▁st	-9.5825
▁calvados	-9.58382
mes	-9.58453
sous	-9.58529
pierre	-9.58585
yn	-9.58607
eux	-9.59016
vic	-9.59074
▁san	-9.5912
ani	-9.59218
sta	-9.59283
▁tor	-9.59354
cia	-9.59411
cir	-9.59465
ley	-9.59609
▁ko	-9.59617
▁tenuis	-9.59681
▁kon	-9.59978
06	-9.59985
bel	-9.60001
uri	-9.60332
▁polynoidae	-9.60457
ier	-9.60563
bahin	-9.61031
▁so	-9.6109
cos	-9.61136
▁pan	-9.61675
▁puy	-9.62049
▁lot	-9.62081
▁oise	-9.62535
ès	-9.63091
hal	-9.63111
rat	-9.64002
▁j	-9.64028
▁syllidae	-9.64267
cera	-9.64508
ides	-9.6529
▁nord	-9.65303
pes	-9.65308
syon	-9.6539
ny	-9.6548
▁populasyon	-9.65995
mani	-9.66091
lay	-9.662
▁can	-9.66662
▁ja	-9.66685
▁my	-9.6708
aw	-9.67082
cur	-9.67229
we	-9.6725
cata	-9.67645
olaimus	-9.67881
bert	-9.67994
▁isip	-9.68029
▁2	-9.68098
leu	-9.68195
inella	-9.68503
nga	-9.68596
illy	-9.686
ling	-9.68633
▁carl	-9.68699
▁clark	-9.68975
cou	-9.69159
lé	-9.69447
ostreptus	-9.69783
met	-9.69831
tar	-9.69918
vin	-9.7028
lar	-9.70549
▁sy	-9.70604
▁at	-9.70815
▁for	-9.70841
lam	-9.70881
atong	-9.70883
fo	-9.71047
▁col	-9.71111
moselle	-9.71216
▁naididae	-9.71244
ari	-9.71261
bon	-9.71432
saône	-9.71597
ub	-9.71618
q	-9.71747
ab	-9.71929
▁australis	-9.72352
bell	-9.72432
ju	-9.72437
ostoma	-9.72752
▁henero	-9.72973
▁makita	-9.72973
ille	-9.7304
all	-9.73164
amphiura	-9.73276
ret	-9.734
ev	-9.73445
eunice	-9.7346
▁va	-9.73462
tel	-9.73467
▁ab	-9.73557
igny	-9.74095
▁gu	-9.74232
▁moselle	-9.74256
▁manche	-9.74642
▁mor	-9.74911
mycale	-9.75364
mil	-9.7547
nat	-9.75701
cal	-9.75754
ilang	-9.75794
av	-9.75972
ist	-9.76132
▁gra	-9.76343
dendronephthya	-9.76428
odon	-9.76716
gar	-9.76772
ili	-9.76869
ara	-9.76898
lain	-9.77067
▁ser	-9.77159
art	-9.77528
▁tarn	-9.77713
van	-9.77851
▁nu	-9.78022
▁saône	-9.78233
▁haliclona	-9.78318
▁rené	-9.78499
ip	-9.78525
fe	-9.78582
ram	-9.78802
ius	-9.78876
ridae	-9.78972
▁1909	-9.79028
jo	-9.79091
▁5	-9.79281
▁cer	-9.79363
▁hautes	-9.79368
▁gastrotricha	-9.79406
▁marne	-9.79617
▁3,	-9.79648
▁gironde	-9.79675
bou	-9.79819
▁1905	-9.79954
turbonilla	-9.80246
1	-9.80278
▁nabahin	-9.80408
iata	-9.80419
ero	-9.80818
▁james	-9.80888
▁simplex	-9.81555
ue	-9.81562
villers	-9.81605
▁sch	-9.81833
inidae	-9.81862
har	-9.81867
▁ju	-9.82038
echiniscus	-9.82203
▁19	-9.82289
line	-9.82324
▁pal	-9.82354
nac	-9.8248
▁meurthe	-9.8251
lit	-9.8301
▁her	-9.83202
▁es	-9.83271
▁ap	-9.83289
▁chapelle	-9.83722
uk	-9.83776
her	-9.83787
▁to	-9.83796
▁kin	-9.83844
▁2000	-9.83861
dactyl	-9.8389
▁doubs	-9.83891
gre	-9.84181
fla	-9.84182
num	-9.84237
jean	-9.84376
gin	-9.84544
not	-9.84666
5	-9.8484
▁bou	-9.84975
▁les	-9.85121
▁un	-9.85284
▁lyman	-9.85306
▁fran	-9.85758
acantho	-9.85805
ste	-9.85808
banay	-9.85846
▁dordogne	-9.85856
▁3	-9.86035
▁papa	-9.86146
bal	-9.86206
hen	-9.86229
astro	-9.86662
▁mega	-9.86692
hali	-9.86756
crypto	-9.86789
▁verrill	-9.86824
▁fo	-9.86933
▁gibahin	-9.86946
▁apan	-9.87054
▁nereis	-9.87105
▁tur	-9.87248
hang	-9.87294
lecane	-9.873
ez	-9.87486
▁indre	-9.87575
ost	-9.87666
▁mas	-9.87829
lig	-9.87881
oux	-9.87888
sphaer	-9.87935
▁20	-9.88154
cri	-9.88204
▁bahin	-9.88219
▁ku	-9.88351
▁ri	-9.88486
▁har	-9.88605
orhynchus	-9.88688
▁v	-9.89131
▁cir	-9.89259
▁sainte	-9.89416
▁japonica	-9.89464
nan	-9.89555
▁clathria	-9.89556
octopus	-9.89906
gnath	-9.89938
opus	-9.89988
▁nereididae	-9.90201
),	-9.90207
▁jura	-9.90226
▁17	-9.90242
▁é	-9.90255
vis	-9.9031
ller	-9.90473
è	-9.90515
▁orne	-9.90524
berg	-9.90836
loph	-9.90837
cel	-9.90919
til	-9.90923
▁yonne	-9.91096
ise	-9.91102
bis	-9.91399
lang	-9.91672
▁ng	-9.91691
pon	-9.91701
▁isère	-9.91856
803	-9.91872
uro	-9.91983
ben	-9.92016
elle	-9.92113
nemertes	-9.92207
▁bal	-9.9232
▁naka	-9.92459
ux	-9.92483
▁ber	-9.9265
▁vosges	-9.9275
▁semi	-9.93151
▁1889	-9.93219
long	-9.93329
▁hilahila	-9.93512
typosyllis	-9.93665
sar	-9.93734
▁lam	-9.93862
chiton	-9.94359
nidae	-9.94549
cra	-9.94658
▁4,	-9.94662
ek	-9.9485
by	-9.94892
ain	-9.9491
rach	-9.95049
tal	-9.95137
echinorhynchus	-9.95452
gra	-9.95452
ona	-9.95476
astr	-9.95681
rh	-9.95783
fr	-9.95795
mata	-9.95829
▁chamberlin	-9.95834
▁bubong	-9.95994
llo	-9.96038
arc	-9.9604
mel	-9.96052
▁augustus	-9.96212
bia	-9.96251
bas	-9.96456
mé	-9.96658
rou	-9.96814
ers	-9.96881
▁fe	-9.96965
chaetonotus	-9.96995
▁labing	-9.97136
▁pacifica	-9.97256
punoang	-9.97413
rey	-9.97445
los	-9.97566
gui	-9.97608
loir	-9.97967
oxy	-9.98072
az	-9.98337
rot	-9.98444
▁1,0	-9.98492
atlantiques	-9.98584
sul	-9.98596
▁ch	-9.98627
lepidonotus	-9.98694
▁gers	-9.9876
▁koehler	-9.98855
ismo	-9.98902
epi	-9.98917
▁dili	-9.98935
amphi	-9.98953
▁plan	-9.99001
mina	-9.99078
▁lin	-9.99127
sainte	-9.99228
▁amphi	-9.99347
lac	-9.99363
▁minuta	-9.99992
tungod	-9.99992
703	-10.0007
▁pen	-10.0013
gny	-10.0043
442	-10.0053
▁arthur	-10.0065
ker	-10.0067
rata	-10.0072
▁grube	-10.0081
▁thomas	-10.0081
▁addison	-10.0114
▁ple	-10.0119
▁ardennes	-10.0147
acro	-10.015
447	-10.0161
403	-10.0162
▁ernst	-10.0164
anthus	-10.0185
ment	-10.0196
onchus	-10.021
▁er	-10.0216
rio	-10.0225
rie	-10.0225
▁bel	-10.0231
tang	-10.0242
zy	-10.0243
▁sugbo	-10.0246
▁1886	-10.0248
▁z	-10.0254
anne	-10.0259
▁emery	-10.0264
mal	-10.0268
▁chi	-10.0277
morpha	-10.0348
dôme	-10.0348
▁1993.	-10.0365
▁kabisay	-10.0399
hon	-10.0415
siphon	-10.042
ome	-10.0421
dina	-10.0426
▁ad	-10.0442
onia	-10.0463
▁john	-10.0482
▁attems	-10.0484
▁1928	-10.0505
tub	-10.0509
macrobiotus	-10.0522
▁aube	-10.0528
482	-10.0545
ice	-10.0566
sis	-10.0584
▁maka	-10.0593
▁sensus	-10.0605
cten	-10.0619
our	-10.0619
one	-10.0622
cr	-10.0628
481	-10.0629
▁1910	-10.063
▁den	-10.0673
▁1927.	-10.0675
up	-10.0682
▁actin	-10.0695
▁che	-10.0696
303	-10.0698
din	-10.0702
▁cri	-10.0705
lou	-10.0708
encentrum	-10.0709
▁1904	-10.0714
▁pin	-10.0715
ilis	-10.0723
hetero	-10.0726
ches	-10.0726
▁quadri	-10.0727
▁ce	-10.074
▁ven	-10.0741
404	-10.0742
cidae	-10.0746
allo	-10.0758
498	-10.0775
444	-10.0778
iger	-10.0791
mit	-10.08
▁pinulongan	-10.0805
466	-10.0814
903	-10.0815
▁kun	-10.0819
ette	-10.0826
mann	-10.0826
▁gard	-10.0838
osoma	-10.0839
▁cap	-10.0874
ama	-10.0876
▁stephen	-10.0886
pl	-10.0895
▁x	-10.0898
▁hartman	-10.0898
▁capensis	-10.0914
▁pagpa	-10.0928
0	-10.0929
▁terebellidae	-10.094
bus	-10.0941
rhabd	-10.0941
649	-10.0948
callyspongia	-10.0959
ib	-10.0966
schr	-10.0968
603	-10.097
▁bartsch	-10.0977
harmothoe	-10.0978
onemertes	-10.0991
habrotrocha	-10.0994
▁antarctica	-10.0994
acropora	-10.1002
▁alang	-10.1006
sou	-10.1009
mia	-10.1016
▁aude	-10.1026
lissodendoryx	-10.103
▁serpulidae	-10.103
lim	-10.1034
467	-10.1038
obdella	-10.1045
500	-10.1053
▁pra	-10.1053
▁habagatang	-10.1073
ulosa	-10.1076
▁wa	-10.1076
▁ain	-10.1082
gat	-10.1094
493	-10.1098
448	-10.1112
ophiura	-10.1116
495	-10.1119
▁mur	-10.112
▁gr	-10.1125
pat	-10.1133
▁1911.	-10.1158
465	-10.1161
427	-10.1179
tetra	-10.1185
704	-10.1185
▁fragilis	-10.1194
suberites	-10.1196
▁6	-10.1198
▁spirostreptidae	-10.1213
486	-10.1216
war	-10.1228
doris	-10.1229
449	-10.1234
hr	-10.1243
▁ste	-10.1244
ler	-10.1246
▁1981.	-10.1268
ilo	-10.1269
ira	-10.127
▁graf	-10.128
▁robusta	-10.1287
bin	-10.1292
ah	-10.1313
spira	-10.1313
bourg	-10.1322
fontaine	-10.1324
▁pipila	-10.1324
smittina	-10.1331
▁min	-10.1331
▁baptiste	-10.1332
▁tra	-10.1337
elles	-10.1338
hymedesmia	-10.1339
gal	-10.1348
né	-10.1352
479	-10.1355
yong	-10.1356
himo	-10.1358
▁1991.	-10.1361
426	-10.1367
nong	-10.1371
ogorgia	-10.1373
▁1885.	-10.138
▁1990.	-10.138
dentalium	-10.1399
trichocerca	-10.1399
discus	-10.14
via	-10.1417
472	-10.1426
443	-10.1427
halecium	-10.1436
▁pyramidellidae	-10.1436
246	-10.1443
▁meuse	-10.1444
491	-10.1449
▁odontopygidae	-10.1455
amphiporus	-10.1455
▁1938	-10.1459
487	-10.1465
odostomia	-10.1476
gt	-10.1476
armor	-10.1489
axinella	-10.1506
646	-10.1512
gues	-10.1526
300	-10.1531
▁spionidae	-10.1531
sson	-10.1531
▁1907.	-10.1531
actinia	-10.1538
248	-10.1545
thal	-10.1547
polynoe	-10.1575
▁fl	-10.1588
▁loire	-10.16
544	-10.1601
ika	-10.1608
▁panahon	-10.1612
asyon	-10.1618
▁eunice	-10.1621
▁sila	-10.1621
▁1906	-10.1629
ado	-10.1631
▁sen	-10.1638
▁dendy	-10.1646
luc	-10.1648
ais	-10.1656
644	-10.1656
422	-10.1666
ble	-10.1667
illon	-10.1682
▁ben	-10.1683
scler	-10.1695
600	-10.1696
cliona	-10.1707
ray	-10.1712
469	-10.1727
▁por	-10.1732
ulan	-10.1733
▁paul	-10.174
thyr	-10.1741
clav	-10.1742
483	-10.1745
▁pl	-10.1749
423	-10.1754
onuphis	-10.1757
pont	-10.1759
647	-10.176
prionospio	-10.1762
▁elongata	-10.1762
904	-10.1763
497	-10.1765
▁fr	-10.1773
hydroides	-10.1782
cephalodella	-10.1795
ange	-10.1801
▁char	-10.1812
▁topsent	-10.1813
lumbrineris	-10.1815
lag	-10.1816
477	-10.1825
ignac	-10.1832
dur	-10.1835
ischnochiton	-10.1851
3	-10.1851
▁plexauridae	-10.186
249	-10.1864
804	-10.1873
▁aron	-10.1895
▁hartmann	-10.1899
▁1984.	-10.19
aminosa	-10.1903
441	-10.1916
230	-10.1916
▁inter	-10.1917
ante	-10.1922
upat	-10.1924
illes	-10.1924
lica	-10.1925
lineus	-10.1935
ast	-10.1942
▁émi	-10.1945
ire	-10.1948
▁sin	-10.1955
▁corse	-10.1964
▁1914.	-10.1979
mun	-10.1985
micro	-10.1994
pp	-10.1995
242	-10.1997
spinotarsus	-10.1999
▁1929	-10.2004
glycera	-10.2019
▁and	-10.2021
gr	-10.2023
oteuthis	-10.2037
oncholaimus	-10.2039
648	-10.204
kan	-10.2064
▁uban	-10.2065
▁el	-10.2072
▁bur	-10.209
436	-10.2091
ista	-10.2092
fil	-10.2098
▁anti	-10.2102
405	-10.2109
474	-10.2121
▁ten	-10.2132
ido	-10.2135
1893	-10.2136
log	-10.2136
sept	-10.2137
myxilla	-10.2139
henricia	-10.2142
ela	-10.2142
ochaeta	-10.2166
▁carter	-10.2169
are	-10.217
▁ban	-10.2178
flor	-10.2193
▁we	-10.2197
▁nephtheidae	-10.22
cé	-10.2212
640	-10.2216
peri	-10.2217
beau	-10.2219
▁1908	-10.2224
bor	-10.2229
▁amphiura	-10.2235
▁busk	-10.224
bay	-10.2243
▁ki	-10.2255
▁mal	-10.2262
▁unang	-10.228
825	-10.2327
430	-10.2329
ircinia	-10.233
dou	-10.2332
hol	-10.2337
▁intermedia	-10.2343
▁ti	-10.2353
247	-10.2368
▁kalabotan	-10.2385
667	-10.2387
250	-10.2389
▁bri	-10.2391
642	-10.2391
455	-10.2397
505	-10.2402
▁brevis	-10.2403
▁mono	-10.2409
cellaria	-10.2418
260	-10.242
547	-10.2433
▁minor	-10.2436
yu	-10.2441
hypsibius	-10.2447
▁1881	-10.2449
oise	-10.2449
je	-10.2451
▁1988	-10.2452
yan	-10.2462
346	-10.2466
▁linnae	-10.2468
ung	-10.2469
▁ville	-10.2473
664	-10.2478
stelletta	-10.2487
290	-10.2493
usa	-10.2498
sepia	-10.2498
symplectoscyphus	-10.2506
▁erséus	-10.251
▁bor	-10.2521
▁1913	-10.2522
mento	-10.253
267	-10.2539
266	-10.2542
var	-10.2551
▁pinulongang	-10.2556
348	-10.2563
548	-10.2563
plumularia	-10.2573
347	-10.2575
▁cas	-10.2576
tricho	-10.2584
546	-10.2584
pres	-10.2595
lom	-10.2605
▁rho	-10.2605
▁dendronephthya	-10.261
▁bukya	-10.2615
siphonophora	-10.2616
661	-10.2629
506	-10.2635
spio	-10.2643
400	-10.2643
▁mycale	-10.2659
▁sarthe	-10.266
▁sabellidae	-10.2668
ie	-10.2677
catus	-10.2679
▁lim	-10.2693
▁microcionidae	-10.2701
▁muragtuway	-10.2701
800	-10.2702
ik	-10.2712
act	-10.2715
▁turbonilla	-10.2716
orthoporus	-10.2722
tedania	-10.2722
bun	-10.2734
406	-10.2742
lys	-10.2743
ophiacantha	-10.2751
▁duha	-10.2757
▁1986.	-10.2765
germain	-10.2765
▁grandis	-10.2766
rt	-10.2771
leptogorgia	-10.2787
456	-10.2795
305	-10.2804
sabella	-10.2805
542	-10.2806
melithaea	-10.2808
calli	-10.2813
▁bru	-10.2814
▁lepto	-10.2814
▁camaenidae	-10.283
reteporella	-10.283
▁lan	-10.283
452	-10.2835
neanthes	-10.2852
▁1884.	-10.2852
283	-10.2854
vers	-10.2859
▁gla	-10.2864
tethya	-10.2865
rom	-10.288
odontopyge	-10.2895
▁kalendaryo	-10.2895
enne	-10.2902
tig	-10.2921
567	-10.2934
▁1924.	-10.2939
807	-10.294
ova	-10.2943
806	-10.2947
580	-10.2952
270	-10.2958
▁lamarck	-10.2961
▁ci	-10.2967
944	-10.2972
700	-10.2975
▁amphiuridae	-10.2983
dio	-10.2984
cap	-10.2985
▁dako	-10.2988
▁kay	-10.2992
vel	-10.2998
château	-10.3005
▁alcyoniidae	-10.3005
spirorbis	-10.3005
641	-10.3007
▁1936	-10.3009
▁louis	-10.3011
566	-10.3028
sycon	-10.3038
802	-10.3038
▁maine	-10.3039
polydora	-10.3042
867	-10.3045
▁phyllodocidae	-10.3049
vilaine	-10.3049
▁dunay	-10.3052
▁bul	-10.3054
▁gipa	-10.3055
cerebratulus	-10.3068
▁hérault	-10.3071
helix	-10.3073
roy	-10.3073
746	-10.3075
dendro	-10.308
poly	-10.3089
▁1967.	-10.3093
▁bag	-10.3094
458	-10.3102
▁pont	-10.3105
672	-10.3114
tenui	-10.3118
conus	-10.3132
papill	-10.3134
▁crassa	-10.3138
iti	-10.3139
678	-10.3148
340	-10.3149
▁cher	-10.3151
▁je	-10.3161
rhiz	-10.3162
ring	-10.3167
pé	-10.3174
oy	-10.3175
▁hayward	-10.3183
▁lendenfeld	-10.3187
671	-10.3203
diphascon	-10.3205
942	-10.3213
ich	-10.322
282	-10.3224
▁lecane	-10.3225
342	-10.3231
▁cl	-10.3236
bru	-10.3238
▁tr	-10.3244
549	-10.3245
serpula	-10.325
▁1959.	-10.325
halichondria	-10.3254
900	-10.3259
766	-10.3262
▁1879.	-10.3273
▁1878	-10.3274
882	-10.3283
isis	-10.3294
celleporaria	-10.3296
▁ardèche	-10.3296
▁1960.	-10.3296
662	-10.3299
tera	-10.3305
lumbricillus	-10.3318
679	-10.3325
sigm	-10.3339
leptochiton	-10.3347
▁pul	-10.3355
▁allier	-10.3368
432	-10.3369
leucandra	-10.3372
663	-10.3382
846	-10.3383
▁sta	-10.3384
437	-10.3384
7	-10.3393
nella	-10.3395
▁5,	-10.3397
ji	-10.3404
▁1900.	-10.341
643	-10.3415
asi	-10.3417
ente	-10.3429
245	-10.3435
pré	-10.3438
▁parva	-10.3442
805	-10.3443
▁astro	-10.345
▁norte	-10.3456
▁ariège	-10.3456
▁is	-10.3462
▁2000.	-10.3463
747	-10.3463
phyllodoce	-10.347
235	-10.3471
▁bug	-10.3479
cey	-10.3485
yer	-10.3486
306	-10.3491
606	-10.3491
864	-10.3501
spirostreptus	-10.3502
▁1983.	-10.3502
▁1912	-10.3512
▁deux	-10.3519
lepto	-10.3521
▁gordon	-10.3525
▁1978.	-10.3525
▁george	-10.3547
▁1982	-10.355
pista	-10.355
▁loiret	-10.355
809	-10.3553
866	-10.3557
ago	-10.3557
echin	-10.3559
oceanapia	-10.3572
elimia	-10.3572
meso	-10.3572
309	-10.3575
237	-10.3581
330	-10.3582
755	-10.3585
673	-10.3585
705	-10.3587
677	-10.3589
750	-10.36
plac	-10.3605
â	-10.3607
pit	-10.3609
335	-10.361
366	-10.3615
690	-10.3615
▁cam	-10.3617
porella	-10.3618
atan	-10.3618
▁indica	-10.3619
▁henry	-10.3619
748	-10.3619
phorus	-10.3622
cru	-10.3624
uz	-10.3625
▁lang	-10.363
227	-10.3638
chordodes	-10.364
255	-10.3642
eulalia	-10.3642
▁1880	-10.3644
ema	-10.3644
pol	-10.3649
spirobolus	-10.3653
257	-10.3656
660	-10.3658
▁gregoryan	-10.3666
308	-10.3669
742	-10.3677
▁ille	-10.3687
antipathes	-10.3689
▁1897	-10.3691
273	-10.3691
gamit	-10.37
706	-10.37
233	-10.3704
225	-10.3708
▁canu	-10.3709
som	-10.3721
▁loir	-10.3735
sèvres	-10.3738
▁cook	-10.3744
709	-10.3762
▁ur	-10.3782
▁alba	-10.3784
▁1965.	-10.3784
▁im	-10.3789
).	-10.3798
285	-10.3805
bur	-10.3805
565	-10.3806
355	-10.381
▁vienne	-10.3812
olo	-10.3818
eaux	-10.3823
707	-10.3825
675	-10.3826
▁californica	-10.3832
▁1997.	-10.3832
sinularia	-10.3833
▁pun	-10.3836
▁landes	-10.3839
337	-10.3842
▁kina	-10.3848
chromadora	-10.3852
vé	-10.3855
tsch	-10.3856
▁1903	-10.3858
grand	-10.3858
▁bulan	-10.3864
tol	-10.3871
827	-10.3873
▁chalinidae	-10.388
▁1989.	-10.388
▁city	-10.3883
574	-10.3886
▁von	-10.3894
camp	-10.3899
exogone	-10.3904
loxosomella	-10.3904
▁milimetro	-10.3904
286	-10.3905
665	-10.391
684	-10.3926
aga	-10.3926
▁1996.	-10.3928
▁1971.	-10.3928
▁bon	-10.3931
782	-10.3934
euil	-10.3935
287	-10.3938
948	-10.394
310	-10.3943
haute	-10.3946
▁atlantica	-10.3952
▁ag	-10.3955
947	-10.3967
bach	-10.397
amp	-10.3972
▁1961.	-10.3977
▁1970.	-10.3977
906	-10.398
253	-10.3981
ting	-10.3984
▁dom	-10.399
907	-10.3997
▁claude	-10.4001
▁day	-10.4002
rella	-10.4003
698	-10.4005
vigny	-10.4006
bos	-10.4008
676	-10.401
▁ann	-10.4011
837	-10.4018
243	-10.4025
▁borealis	-10.4025
polymastia	-10.4025
645	-10.4029
338	-10.4031
324	-10.4032
909	-10.4045
238	-10.4059
360	-10.4064
vir	-10.4065
003	-10.407
263	-10.4073
▁bassler	-10.4074
▁1979.	-10.4074
693	-10.4076
▁levi	-10.4077
668	-10.4082
geodia	-10.4084
tem	-10.4085
▁1998.	-10.4099
▁similis	-10.4099
perinereis	-10.4101
682	-10.4104
689	-10.4104
694	-10.411
astropecten	-10.411
578	-10.4113
695	-10.4114
fal	-10.4116
▁nièvre	-10.4116
ile	-10.412
▁balat	-10.4121
▁pachy	-10.4129
▁arc	-10.4132
let	-10.4136
949	-10.4145
apil	-10.4148
fort	-10.415
760	-10.415
gua	-10.4154
microporella	-10.416
623	-10.4165
anadenobolus	-10.4173
terebella	-10.4173
▁lévi	-10.4176
754	-10.4178
582	-10.4182
289	-10.4192
▁drôme	-10.4198
▁1972.	-10.4198
stylaster	-10.4199
756	-10.4203
826	-10.4205
894	-10.4208
296	-10.4211
gordius	-10.4211
isohypsibius	-10.4213
269	-10.4218
847	-10.4223
279	-10.4223
▁ngalan	-10.4227
tox	-10.4227
▁1922	-10.4227
▁stri	-10.4231
centrorhynchus	-10.4248
eb	-10.4248
982	-10.4251
▁sh	-10.4252
▁jo	-10.4257
256	-10.4266
illac	-10.4268
655	-10.4272
▁1902.	-10.4273
258	-10.4275
822	-10.4276
292	-10.4279
967	-10.4287
382	-10.4293
609	-10.4293
ox	-10.4296
▁1888	-10.4299
339	-10.4311
othe	-10.4314
349	-10.4317
rhysodesmus	-10.4323
▁fisher	-10.4323
▁pat	-10.4331
223	-10.434
307	-10.4344
▁christian	-10.4348
607	-10.4349
lico	-10.4353
▁tan	-10.4355
celle	-10.4355
▁sur	-10.4356
232	-10.4357
964	-10.4359
537	-10.4361
lot	-10.4361
tetrastemma	-10.4369
lau	-10.4371
▁1898.	-10.4373
▁lineidae	-10.4374
435	-10.4374
228	-10.4375
808	-10.4377
pul	-10.4389
pas	-10.4389
829	-10.4389
683	-10.4392
hou	-10.4393
melan	-10.4394
ault	-10.4394
▁epi	-10.4396
▁vo	-10.4398
▁1930.	-10.4399
605	-10.4403
401	-10.4415
▁eunicidae	-10.4424
macrotrachela	-10.4424
▁1999.	-10.4424
295	-10.4428
326	-10.4433
▁gal	-10.4433
▁beau	-10.4442
334	-10.4443
far	-10.4446
wal	-10.4446
hymeniacidon	-10.4449
▁1966.	-10.4449
275	-10.4452
353	-10.4453
stephan	-10.4454
265	-10.4455
actin	-10.446
226	-10.4462
champ	-10.4472
villiers	-10.4475
844	-10.4476
367	-10.4482
848	-10.4488
236	-10.449
520	-10.4498
kin	-10.4499
vern	-10.4504
tti	-10.4506
anan	-10.451
rhinocricus	-10.4511
egli	-10.4518
roc	-10.452
▁hubert	-10.4528
▁dubia	-10.4528
yang	-10.4528
229	-10.453
699	-10.4534
▁1954	-10.4537
585	-10.4542
895	-10.4544
239	-10.4544
noy	-10.4545
327	-10.4558
966	-10.4561
740	-10.4565
hard	-10.4566
363	-10.4566
kia	-10.4567
▁pulo	-10.4568
petit	-10.4574
697	-10.4575
sertularia	-10.4577
savoie	-10.4581
loc	-10.4582
dun	-10.4594
ubang	-10.4604
692	-10.4605
278	-10.4605
637	-10.4611
▁ant	-10.4613
jou	-10.4613
fol	-10.4617
cast	-10.4618
plan	-10.4618
▁chaetonotus	-10.4619
font	-10.4626
▁oscar	-10.4629
▁1919.	-10.463
702	-10.463
880	-10.4638
527	-10.464
659	-10.4649
raspailia	-10.4655
▁johan	-10.4665
esper	-10.4666
▁simbahan	-10.4681
tura	-10.4686
ophiothrix	-10.4687
333	-10.4693
770	-10.4698
ock	-10.4699
685	-10.47
idium	-10.4708
pag	-10.471
276	-10.471
▁hemi	-10.4731
594	-10.4731
828	-10.4733
psamm	-10.4734
▁powell	-10.4735
540	-10.4738
vaux	-10.4743
708	-10.4748
842	-10.4748
696	-10.4757
343	-10.4758
▁1995.	-10.476
▁1968.	-10.476
▁katoliko	-10.476
▁2003.	-10.4765
602	-10.4775
lor	-10.4778
mga	-10.4782
antho	-10.4787
▁1866	-10.4788
▁orientalis	-10.479
650	-10.4795
lepadella	-10.4797
293	-10.4811
▁aveyron	-10.4812
▁1977	-10.4816
277	-10.4817
tour	-10.4822
583	-10.4823
michel	-10.4828
▁moore	-10.483
414	-10.4835
▁savoie	-10.4836
325	-10.4839
way	-10.4839
ecto	-10.4852
hyalonema	-10.4853
crisia	-10.4854
▁camp	-10.4858
▁ay	-10.4858
sulat	-10.486
aglaophenia	-10.4865
774	-10.4871
849	-10.4874
298	-10.488
vus	-10.4882
639	-10.4883
629	-10.4883
757	-10.4883
wan	-10.4887
898	-10.4893
▁cantal	-10.4893
323	-10.4894
416	-10.4903
baptiste	-10.4907
mur	-10.4908
anti	-10.4908
820	-10.4914
365	-10.4914
port	-10.4916
▁arctica	-10.4919
▁1973.	-10.4919
▁albert	-10.4925
688	-10.4927
268	-10.493
monhystera	-10.4935
▁u	-10.4938
gor	-10.4944
▁mirabilis	-10.4945
▁nahabilin	-10.4945
phorbas	-10.4945
336	-10.4946
635	-10.496
▁habagatan	-10.4962
amphioplus	-10.4963
▁ulohan	-10.4965
▁1933	-10.4969
rep	-10.4969
▁variabilis	-10.4972
montipora	-10.4972
▁1957.	-10.4972
433	-10.4974
627	-10.4982
569	-10.4987
pili	-10.4989
▁laevis	-10.4999
pre	-10.5013
633	-10.5014
aricidea	-10.5026
630	-10.503
998	-10.5052
alcyonium	-10.5053
780	-10.5071
jan	-10.5074
sertularella	-10.5075
656	-10.5079
222	-10.508
332	-10.5085
836	-10.5085
995	-10.509
473	-10.5099
▁1887	-10.511
960	-10.5111
derma	-10.5112
herm	-10.5116
322	-10.512
658	-10.5123
908	-10.5123
eil	-10.5128
759	-10.5134
▁kang	-10.5135
▁vendée	-10.5135
865	-10.5135
▁hin	-10.5139
753	-10.5141
758	-10.5146
agi	-10.5152
543	-10.5153
nephtys	-10.5162
reniera	-10.5162
▁1937.	-10.5162
▁1992.	-10.5162
687	-10.5166
▁6,	-10.5169
▁kor	-10.517
▁human	-10.5171
▁sim	-10.5171
272	-10.5177
▁syllis	-10.5177
730	-10.5179
celleporina	-10.5189
▁1985.	-10.519
▁echinorhynchus	-10.5191
▁phy	-10.5219
▁sto	-10.522
777	-10.522
897	-10.5221
315	-10.5223
▁sol	-10.5227
▁gon	-10.523
356	-10.5232
▁spongia	-10.5236
317	-10.5236
502	-10.5238
sel	-10.5241
iko	-10.5243
▁charopidae	-10.5244
▁reticulata	-10.5244
▁didto	-10.5245
▁dapit	-10.5246
▁schmidt	-10.5252
ssac	-10.5258
marphysa	-10.5261
grania	-10.5261
262	-10.5261
509	-10.5262
▁macrobiotus	-10.5267
sten	-10.527
▁1926	-10.5271
▁1918.	-10.5273
▁1915.	-10.5273
▁imp	-10.5275
535	-10.5276
▁1956	-10.5276
▁1952	-10.5277
▁amihanang	-10.528
252	-10.5281
570	-10.5284
589	-10.5299
eudendrium	-10.53
▁affinis	-10.53
▁chaetonotidae	-10.53
cry	-10.5303
790	-10.5312
pra	-10.5314
aul	-10.5316
993	-10.5319
313	-10.5323
pectin	-10.5325
▁corrèze	-10.5327
▁rudolph	-10.5327
sagitta	-10.5328
diin	-10.5339
418	-10.5342
gula	-10.5347
peripatus	-10.535
zephronia	-10.5355
▁km	-10.5358
idad	-10.5366
plect	-10.5366
329	-10.537
nucula	-10.5372
595	-10.5373
abi	-10.5374
628	-10.5375
986	-10.5379
794	-10.538
▁carpenter	-10.5383
iningles	-10.5383
▁1864.	-10.5384
▁marcus	-10.5385
abot	-10.5398
990	-10.5401
▁yvelines	-10.5411
▁manila	-10.5417
parasmittina	-10.5421
▁2006.	-10.5428
525	-10.5432
paul	-10.5433
nais	-10.5436
821	-10.5439
tetilla	-10.544
▁2001.	-10.544
bang	-10.5444
▁ikaduha	-10.5447
419	-10.5449
▁1916	-10.545
▁nan	-10.545
395	-10.5451
763	-10.5457
980	-10.5459
▁harmothoe	-10.5464
eff	-10.5465
773	-10.5466
▁glob	-10.5467
laurent	-10.5468
hay	-10.5471
ota	-10.5475
igné	-10.5476
ure	-10.5477
ophiactis	-10.5481
939	-10.5486
592	-10.5486
▁wal	-10.5489
ney	-10.549
653	-10.5492
vre	-10.5494
acanthochitona	-10.5496
▁pugitagnukos	-10.5496
▁ridley	-10.5496
625	-10.5497
chela	-10.5511
ariidae	-10.552
▁hypsibiidae	-10.5524
▁sinugboanon	-10.5524
▁dagat	-10.5526
▁1758	-10.553
pur	-10.5534
801	-10.5537
bac	-10.5546
614	-10.5552
▁binisaya	-10.5553
▁palibot	-10.5553
spongilla	-10.5553
▁cobb	-10.5554
788	-10.5556
▁armata	-10.5559
352	-10.556
▁meta	-10.5571
362	-10.5571
389	-10.5572
930	-10.5576
786	-10.5579
775	-10.558
belle	-10.5604
▁1964.	-10.561
856	-10.5614
▁kalibotan	-10.562
styla	-10.5626
776	-10.5637
ceratonereis	-10.5638
▁cairns	-10.5638
▁1987.	-10.5638
950	-10.5639
328	-10.5641
▁francis	-10.5642
sec	-10.5645
anda	-10.5649
319	-10.5651
yal	-10.5653
046	-10.5656
720	-10.5663
cant	-10.5673
▁1932	-10.5688
roche	-10.5692
nou	-10.5694
▁creuse	-10.5696
▁rhinocricidae	-10.5696
▁thomson	-10.5696
727	-10.5697
▁ophi	-10.5704
▁kom	-10.5704
▁micr	-10.5706
316	-10.5713
691	-10.5715
dom	-10.5716
rens	-10.5721
gay	-10.5722
tion	-10.5723
▁tig	-10.5723
theristus	-10.5725
▁ludwig	-10.5725
▁maria	-10.5728
372	-10.573
996	-10.5733
622	-10.5733
▁nutting	-10.5754
▁napulo	-10.5755
752	-10.576
kon	-10.5771
vol	-10.5783
▁1882.	-10.5783
955	-10.5784
▁1969	-10.5787
▁gubat	-10.5787
783	-10.5793
281	-10.5797
785	-10.5798
556	-10.5804
▁callyspongia	-10.581
657	-10.5813
▁not	-10.5815
997	-10.582
899	-10.5826
trich	-10.5829
877	-10.5829
889	-10.5832
588	-10.5836
769	-10.5837
pia	-10.5837
617	-10.584
893	-10.5841
caryophyllia	-10.5841
▁madutlan	-10.5841
508	-10.5842
▁matag	-10.5842
▁hj	-10.5844
840	-10.5846
iso	-10.5851
▁nel	-10.5864
523	-10.5865
culosa	-10.5866
378	-10.587
762	-10.587
isodictya	-10.5871
▁hymedesmia	-10.5876
834	-10.5878
624	-10.5883
teuthis	-10.5894
illé	-10.5895
596	-10.5896
villa	-10.5905
meta	-10.5907
784	-10.591
▁trans	-10.5913
271	-10.5916
965	-10.5918
▁australiensis	-10.5929
▁hangtod	-10.5929
▁vel	-10.5932
870	-10.5934
▁1931	-10.5935
765	-10.5942
hemi	-10.5942
869	-10.5943
887	-10.5954
985	-10.5955
vermilia	-10.5956
▁spinosa	-10.5959
▁1962	-10.5965
973	-10.5965
▁1920	-10.5967
▁poli	-10.5973
law	-10.5977
uru	-10.5978
859	-10.5979
hun	-10.5983
835	-10.5987
▁fauchald	-10.5989
926	-10.5999
marie	-10.6
dos	-10.601
wood	-10.6013
779	-10.6013
417	-10.6016
868	-10.6018
desmoscolex	-10.6018
▁leyte	-10.6019
▁gitawag	-10.6026
sphaerosyllis	-10.6031
568	-10.6039
522	-10.6043
scolelepis	-10.6048
▁agassiz	-10.6048
▁mcintosh	-10.6048
chondr	-10.6049
gol	-10.6057
994	-10.6059
957	-10.6067
345	-10.6069
559	-10.6069
920	-10.6075
▁odostomia	-10.6076
gran	-10.6077
▁1950.	-10.6079
577	-10.6085
roi	-10.6088
acanthocephalus	-10.609
hom	-10.6099
▁xystodesmidae	-10.6108
▁helix	-10.6109
962	-10.6112
724	-10.6114
▁kr	-10.6122
768	-10.6129
▁mart	-10.613
▁bisaya	-10.6139
▁1958.	-10.6139
533	-10.6142
575	-10.6146
▁mayenne	-10.615
rim	-10.6152
872	-10.6152
734	-10.6158
zel	-10.6162
878	-10.6163
▁smittinidae	-10.6169
▁1940.	-10.6169
uy	-10.617
838	-10.618
392	-10.6185
619	-10.619
387	-10.6192
953	-10.6192
▁pre	-10.6194
flabellum	-10.6199
▁pinaagi	-10.6199
▁1901.	-10.6199
muricea	-10.6201
▁edward	-10.6203
▁santo	-10.6206
597	-10.6214
892	-10.6217
▁rosea	-10.6223
seine	-10.6229
▁distrito	-10.6229
caecum	-10.6229
▁maculata	-10.6229
▁1895.	-10.6229
▁1896	-10.6231
almar	-10.6232
789	-10.6246
963	-10.6248
▁mol	-10.6253
725	-10.6256
▁michael	-10.626
maurice	-10.626
729	-10.6264
558	-10.6267
maria	-10.6273
bata	-10.6275
385	-10.6276
tun	-10.6277
886	-10.6282
sabellaria	-10.6285
▁gran	-10.6286
723	-10.6287
976	-10.6291
778	-10.6291
082	-10.6292
▁walter	-10.6293
tier	-10.6297
▁gui	-10.6304
241	-10.6305
hyal	-10.631
petrosia	-10.6312
923	-10.6318
daghan	-10.632
dysidea	-10.6321
rhynchozoon	-10.6321
▁ramosa	-10.6321
▁1963.	-10.6321
châtel	-10.6322
diopatra	-10.6326
376	-10.6339
alia	-10.634
049	-10.6344
999	-10.6345
743	-10.6346
pot	-10.6347
879	-10.6349
901	-10.6349
▁carlgren	-10.6352
▁1939.	-10.6352
▁harmer	-10.6357
▁qu	-10.636
nom	-10.6362
737	-10.6375
age	-10.638
cirratulus	-10.6383
marionina	-10.6383
▁1955.	-10.6383
557	-10.6385
383	-10.6389
943	-10.6392
855	-10.6409
thelepus	-10.6414
047	-10.6414
▁datos	-10.6414
▁myers	-10.6415
well	-10.6418
▁malay	-10.642
793	-10.6427
év	-10.6433
▁pilsbry	-10.644
status	-10.644
▁his	-10.6444
▁monhysteridae	-10.6445
▁1899.	-10.6445
772	-10.6448
▁bata	-10.6464
win	-10.647
▁kapos	-10.6474
▁richard	-10.6476
▁acanth	-10.6479
▁burton	-10.6479
839	-10.6488
▁bisan	-10.6488
ski	-10.649
▁coe	-10.6497
hir	-10.6502
odonta	-10.6503
julien	-10.6505
858	-10.6508
iens	-10.6515
954	-10.6518
ingon	-10.652
mini	-10.6521
380	-10.6521
ador	-10.6533
▁2004.	-10.6539
beania	-10.6539
ery	-10.654
▁lumbrineris	-10.6548
▁magna	-10.6549
▁cephalodella	-10.6549
▁gray	-10.6555
934	-10.6556
616	-10.6558
himong	-10.6561
▁prob	-10.6568
863	-10.6568
brachionus	-10.657
▁sertulariidae	-10.657
wo	-10.6571
726	-10.6575
555	-10.6575
787	-10.6586
857	-10.6588
716	-10.6588
929	-10.659
nce	-10.6595
318	-10.6599
970	-10.6603
572	-10.6612
chal	-10.6616
lobophytum	-10.6633
ophryotrocha	-10.6633
▁champ	-10.6639
914	-10.664
bio	-10.6653
ensya	-10.6654
261	-10.6658
952	-10.6662
▁census	-10.6665
▁phidoloporidae	-10.6665
▁1974	-10.6678
luidia	-10.6683
▁bour	-10.6688
alcyonidium	-10.6697
▁morbihan	-10.6697
olavius	-10.6697
916	-10.6698
▁mé	-10.6701
883	-10.6703
may	-10.6704
9	-10.6704
isco	-10.672
933	-10.6724
cadulus	-10.6729
cam	-10.673
▁chilensis	-10.6733
▁gigamit	-10.6734
978	-10.6734
hatag	-10.6739
mas	-10.6747
tong	-10.6751
▁romano	-10.6751
hydractinia	-10.6761
polycirrus	-10.6761
▁onuphidae	-10.6761
▁viridis	-10.6761
kenthal	-10.6761
lakip	-10.6761
▁1865	-10.6763
denis	-10.6769
799	-10.6771
lent	-10.6776
▁str	-10.6776
341	-10.678
▁echino	-10.6792
flustra	-10.6793
balanophyllia	-10.6793
siboglinum	-10.6793
▁studer	-10.6793
▁1917.	-10.6793
gadila	-10.6794
vienne	-10.6794
798	-10.6801
361	-10.6811
▁ophiacantha	-10.6814
ochalina	-10.6816
▁finistère	-10.6825
▁1941.	-10.6825
gel	-10.6827
▁stelletta	-10.6828
042	-10.6829
938	-10.6846
▁sem	-10.685
959	-10.6857
chrysogorgia	-10.6857
sthenelais	-10.6857
048	-10.6858
373	-10.6859
536	-10.6888
937	-10.6888
▁ornata	-10.689
968	-10.6895
acanthogorgia	-10.6896
924	-10.6898
fro	-10.69
awa	-10.6905
fl	-10.6907
852	-10.6912
bot	-10.6914
ô	-10.6921
850	-10.6921
tubulipora	-10.6922
▁bohol	-10.6924
956	-10.6926
▁1935	-10.6928
pecten	-10.693
312	-10.693
▁ger	-10.6934
932	-10.6938
359	-10.6945
992	-10.695
751	-10.6951
▁rou	-10.6957
georges	-10.6957
922	-10.6959
591	-10.6962
917	-10.6966
▁samar	-10.697
817	-10.6973
cala	-10.6982
▁cro	-10.6983
369	-10.6984
▁inc	-10.6988
aphrodita	-10.6988
▁echiniscus	-10.699
▁1883	-10.699
edwardsia	-10.6999
935	-10.7002
853	-10.7008
arion	-10.7009
marc	-10.7014
927	-10.7017
buccinum	-10.7021
tetranchyroderma	-10.7021
▁unionidae	-10.7021
cladiella	-10.7021
▁1994.	-10.7021
▁johnson	-10.7024
▁tom	-10.7028
pteraster	-10.7028
875	-10.7033
una	-10.7051
cerithiopsis	-10.7054
▁lea	-10.7057
willer	-10.7058
▁henrik	-10.7059
651	-10.7067
idia	-10.7072
▁thiele	-10.7087
pang	-10.7087
945	-10.7087
lich	-10.7088
chapelle	-10.7094
micrura	-10.7101
▁pulong	-10.7105
576	-10.7112
aspidosiphon	-10.712
979	-10.7121
▁joseph	-10.7132
én	-10.7137
975	-10.7142
732	-10.7142
dicranophorus	-10.7153
▁daghang	-10.7154
736	-10.7165
▁gidak	-10.7166
745	-10.717
▁quin	-10.7172
taw	-10.7173
797	-10.7181
odasys	-10.7186
halalaimus	-10.7187
▁7,	-10.7188
681	-10.7189
▁1934	-10.7201
066	-10.7207
xenia	-10.7212
crella	-10.7213
545	-10.7213
843	-10.7216
leucosolenia	-10.722
▁1870.	-10.7221
▁enero	-10.7222
schizoporella	-10.7245
▁alpes	-10.7247
digit	-10.7254
limnodriloides	-10.7254
magelona	-10.7254
▁goniasteridae	-10.7254
phyllo	-10.7264
067	-10.7269
357	-10.727
379	-10.7275
uze	-10.7275
796	-10.7276
▁cour	-10.7287
▁caryophylliidae	-10.7288
calyx	-10.7288
vil	-10.729
coryne	-10.729
chone	-10.7291
983	-10.7298
mati	-10.7298
datu	-10.7304
bit	-10.7309
▁lima	-10.7315
581	-10.7317
▁ginganla	-10.7322
988	-10.7329
541	-10.7329
▁dr	-10.7335
910	-10.7335
▁tar	-10.7336
dendr	-10.7346
▁barba	-10.7347
398	-10.7349
833	-10.7358
timea	-10.7358
528	-10.7359
▁cerebratulus	-10.7361
832	-10.737
ane	-10.737
vet	-10.738
845	-10.7382
fenestrulina	-10.7385
▁1944.	-10.739
▁2010	-10.7402
221	-10.7403
▁bé	-10.7405
proto	-10.7407
▁naga	-10.7408
scoloplos	-10.7424
tomopteris	-10.7424
▁sibogae	-10.7424
▁formosa	-10.7424
▁bituon	-10.7424
▁1868.	-10.7424
erylus	-10.7426
969	-10.7428
▁lumbrineridae	-10.7459
▁tuberculata	-10.7459
▁allgen	-10.7459
▁africana	-10.7459
▁1951	-10.7468
neuville	-10.7469
roux	-10.7474
estasyon	-10.7482
▁mes	-10.7482
ral	-10.7483
860	-10.7484
plectus	-10.7488
615	-10.7489
529	-10.7493
tubificoides	-10.7493
▁nidariya	-10.7493
▁nikolai	-10.7493
clathrina	-10.7494
tou	-10.7497
▁notommatidae	-10.7528
oligacanth	-10.7528
▁estado	-10.7529
croix	-10.7538
▁peter	-10.754
231	-10.7548
987	-10.7549
issa	-10.7552
lini	-10.7556
oeci	-10.7556
ance	-10.7558
oria	-10.7559
▁kilometros	-10.7562
▁irregularis	-10.7562
▁1976.	-10.7563
andré	-10.7569
hondt	-10.7569
▁fusca	-10.7575
▁port	-10.7578
936	-10.7583
▁2005.	-10.7597
▁gerlach	-10.7598
nel	-10.7601
▁sepia	-10.7602
villar	-10.761
717	-10.7617
719	-10.762
▁sidlakang	-10.7623
▁gitudlo	-10.7627
▁mus	-10.7629
739	-10.7631
eunoe	-10.7633
vincent	-10.7633
albi	-10.7634
lyon	-10.7636
try	-10.7649
781	-10.7653
386	-10.7656
atlantique	-10.7656
532	-10.7658
cour	-10.7665
▁maldanidae	-10.7667
▁pulchra	-10.7667
leptasterias	-10.7667
bic	-10.7673
991	-10.7674
▁os	-10.7675
hydra	-10.7675
glyph	-10.769
ize	-10.7692
358	-10.7695
▁augener	-10.7702
▁pallida	-10.7703
clytia	-10.7703
▁kinatib	-10.7703
▁1947	-10.7705
trix	-10.7717
esia	-10.7719
792	-10.7724
ight	-10.7727
951	-10.7727
bag	-10.774
colus	-10.7742
331	-10.7746
873	-10.775
▁luci	-10.7756
715	-10.7771
▁kodigo	-10.7773
▁rugosa	-10.7773
ampharete	-10.7773
▁labi	-10.7788
▁iso	-10.7792
ute	-10.7802
▁ancorinidae	-10.7809
515	-10.781
▁fra	-10.7822
▁phyllodoce	-10.7827
lie	-10.7829
815	-10.7832
hip	-10.7833
▁halichondria	-10.7839
▁rose	-10.784
ocephalus	-10.7842
thuiaria	-10.7845
tukod	-10.7845
villeneuve	-10.785
biemna	-10.7851
amphiophiura	-10.7856
▁bin	-10.7861
377	-10.7864
mya	-10.7872
lens	-10.7874
halo	-10.7874
cephalo	-10.7874
553	-10.7875
▁proto	-10.7876
▁kinberg	-10.7878
echinoderes	-10.788
▁1953.	-10.7881
▁1890	-10.7882
▁1894	-10.789
aba	-10.789
cyr	-10.7895
▁cat	-10.7903
▁phascolosoma	-10.7904
roque	-10.7913
▁laubenfels	-10.7916
989	-10.7937
tron	-10.7938
rhadinorhynchus	-10.7941
813	-10.7944
▁ampharetidae	-10.7953
▁calloporidae	-10.7953
▁halichondriidae	-10.7953
▁zamboanga	-10.7953
euphrosine	-10.7953
972	-10.7976
795	-10.7979
▁jan	-10.7979
▁enchytraeidae	-10.7989
▁rigida	-10.7989
▁kapital	-10.7989
obranchus	-10.7994
▁wi	-10.7995
912	-10.8009
▁adams	-10.8013
▁amihanan	-10.8015
aplysina	-10.8025
▁bay	-10.8039
mou	-10.8044
599	-10.8048
▁leucandra	-10.8049
722	-10.805
hymenaster	-10.8062
▁cylindrica	-10.8062
▁gigantea	-10.8062
▁swakigtuyom	-10.8062
▁bugulidae	-10.8062
291	-10.8064
▁1872	-10.8065
▁punctata	-10.8066
glos	-10.8066
561	-10.8071
mag	-10.808
caul	-10.8089
375	-10.8094
713	-10.8095
▁inermis	-10.8098
▁muricidae	-10.8098
▁kasaysayan	-10.8098
▁2002.	-10.8098
▁1846	-10.81
hem	-10.8118
▁astropecten	-10.8119
lier	-10.8121
kit	-10.8132
nal	-10.8132
374	-10.8133
orientales	-10.8135
▁italya	-10.8135
▁postal	-10.8135
▁1943.	-10.8135
▁scott	-10.8136
771	-10.8136
▁1923	-10.8142
physa	-10.8143
▁alan	-10.8164
itz	-10.8164
▁rhinocricus	-10.8171
nephthys	-10.8172
tentaculata	-10.8172
ancourt	-10.8177
ding	-10.8182
▁tour	-10.8184
wer	-10.8204
calliostoma	-10.8208
amphitrite	-10.8209
itan	-10.821
918	-10.8217
▁sor	-10.8218
phascolosoma	-10.8222
diparti	-10.8244
▁rubra	-10.8246
▁1877	-10.8249
958	-10.8256
▁bala	-10.8262
mastig	-10.827
▁hincks	-10.8277
915	-10.8278
uff	-10.8283
aglaophamus	-10.8283
▁kraus	-10.8284
▁charles	-10.829
381	-10.8296
▁marso	-10.8299
éville	-10.8302
corse	-10.8315
pseud	-10.8322
913	-10.8326
int	-10.8336
▁mou	-10.8338
aire	-10.8349
kar	-10.8355
▁hymedesmiidae	-10.8358
eurypon	-10.8358
▁1980.	-10.8359
grantia	-10.8375
unang	-10.8378
isse	-10.838
isy	-10.8384
kuha	-10.8389
▁baba	-10.8391
▁pil	-10.8403
006	-10.8408
▁mesnil	-10.8412
pou	-10.8422
▁kaniya	-10.8423
loxosoma	-10.8434
cent	-10.8444
▁ehlers	-10.8452
loup	-10.8455
862	-10.8458
hin	-10.8464
castanotherium	-10.8472
▁situat	-10.8472
▁striata	-10.848
zar	-10.8481
563	-10.8489
eur	-10.849
onville	-10.8504
gur	-10.8507
hilaire	-10.851
litophyton	-10.851
▁arnold	-10.851
▁minima	-10.8511
560	-10.8514
▁occidentalis	-10.8516
▁tulo	-10.8529
▁tin	-10.8542
▁essonne	-10.8549
amphimedon	-10.8549
philodina	-10.8549
▁oculata	-10.8549
duc	-10.8551
791	-10.8555
▁7	-10.8572
919	-10.8572
ati	-10.8574
▁punct	-10.8577
thé	-10.8579
▁new	-10.858
ikong	-10.8584
oshi	-10.8585
▁sinularia	-10.8585
▁astropectinidae	-10.8587
salpidobolus	-10.8587
ophelia	-10.8587
▁schu	-10.8587
▁pseud	-10.8591
009	-10.8596
552	-10.8607
▁antho	-10.8616
mniobia	-10.8626
▁kasaranga	-10.8626
▁watson	-10.8626
siphonogorgia	-10.8627
▁arm	-10.8631
▁1975	-10.8632
aubin	-10.8634
368	-10.8639
dicyema	-10.8649
▁acropora	-10.8661
▁lozère	-10.8664
▁sowerby	-10.8664
autolytus	-10.8664
cladocarpus	-10.8664
notommata	-10.8664
testudinella	-10.8664
▁1869	-10.8667
gymno	-10.8674
▁roche	-10.8675
zé	-10.8686
div	-10.8691
ning	-10.8696
▁ophiacanthidae	-10.8703
▁stylasteridae	-10.8704
solen	-10.8709
▁cli	-10.8716
571	-10.8724
▁geodia	-10.8726
851	-10.8731
gang	-10.8737
▁buccinidae	-10.8742
▁quadrado	-10.8744
▁1873	-10.8746
▁mollis	-10.8746
rolles	-10.8755
▁hans	-10.8759
▁talaan	-10.8763
▁cribr	-10.8764
▁pis	-10.8767
562	-10.8774
archi	-10.8775
notomastus	-10.8782
▁bayer	-10.8799
voi	-10.8804
891	-10.8805
▁polynoe	-10.8816
cio	-10.8816
chromonephthea	-10.8821
▁macrobiotidae	-10.8821
amathia	-10.8821
eteone	-10.8821
aglais	-10.8821
porites	-10.8821
chen	-10.8822
basahon	-10.8825
▁ele	-10.8827
aure	-10.8831
vieux	-10.8837
▁katawo	-10.8838
raphi	-10.8842
inar	-10.8848
▁oriental	-10.8855
argent	-10.8864
▁amerika	-10.8879
▁vol	-10.8881
▁sabella	-10.8882
unci	-10.8882
▁lar	-10.8894
osse	-10.89
▁celleporidae	-10.89
▁abril	-10.89
871	-10.8903
ambo	-10.8908
▁apo	-10.8916
▁tanan	-10.8919
▁neoechinorhynch	-10.8926
agne	-10.8933
centro	-10.8939
lepidasthenia	-10.894
amphiodia	-10.894
▁nahi	-10.8941
521	-10.8942
397	-10.8945
▁kasadpang	-10.8949
hn	-10.8955
▁suter	-10.8956
▁war	-10.8967
▁lor	-10.8969
yano	-10.8969
odontosyllis	-10.898
▁friedrich	-10.898
▁davao	-10.898
▁blake	-10.898
▁mahimong	-10.8984
sud	-10.8994
guer	-10.8998
941	-10.8999
kong	-10.9011
asse	-10.9013
▁lou	-10.9015
asterina	-10.9017
emplectonema	-10.902
keratella	-10.902
callochiton	-10.902
▁milne	-10.9021
macrophiothrix	-10.9021
ocephala	-10.9025
kat	-10.9033
ation	-10.9037
761	-10.9049
mira	-10.905
812	-10.9056
golfingia	-10.9061
▁philodinidae	-10.9061
forcepia	-10.9061
▁1942.	-10.9061
▁kabayo	-10.9061
▁lineus	-10.9067
neville	-10.9069
▁isohypsibius	-10.9077
maldane	-10.9079
▁dana	-10.9086
ède	-10.9086
▁schulze	-10.9101
spirobolellus	-10.9101
phellia	-10.9102
▁pr	-10.9103
▁robert	-10.9104
rivière	-10.9106
pasabot	-10.9109
four	-10.9114
tay	-10.912
clymene	-10.9125
vent	-10.9139
sarcophyton	-10.9142
▁dicranophoridae	-10.9142
▁agosto	-10.9142
▁johnston	-10.9142
ophiomusa	-10.9142
aut	-10.9145
taka	-10.9164
977	-10.917
▁mala	-10.9174
861	-10.9182
▁douglas	-10.9182
▁raspailiidae	-10.9182
cosa	-10.9183
▁gould	-10.9183
tog	-10.9185
▁hyalonema	-10.9201
▁phil	-10.9206
obra	-10.9206
▁thor	-10.9211
▁silvestri	-10.9223
▁papillosa	-10.9224
008	-10.9225
981	-10.9239
auge	-10.9247
stein	-10.9249
▁tetrastemma	-10.9262
▁acroporidae	-10.9265
▁echiniscidae	-10.9265
▁vervoort	-10.9265
goniada	-10.9265
▁americana	-10.9267
smittoidea	-10.927
▁gawas	-10.927
ilia	-10.9278
jon	-10.929
321	-10.9294
▁juan	-10.9299
cidaris	-10.93
polyxenus	-10.9306
▁stimpson	-10.9306
terebra	-10.9307
fresn	-10.9309
▁lamang	-10.9313
▁chan	-10.9326
dictyo	-10.9327
dame	-10.9331
741	-10.9344
▁ole	-10.938
005	-10.938
uille	-10.9382
chau	-10.9385
collotheca	-10.9389
▁magsusulat	-10.9389
▁marshall	-10.9389
▁brasiliensis	-10.9389
▁1892.	-10.9389
zygophylax	-10.9398
▁mau	-10.9408
▁lepadella	-10.9413
lima	-10.9416
▁aglaopheniidae	-10.9431
▁patricia	-10.9431
▁waters	-10.9431
proales	-10.9432
uve	-10.9464
881	-10.9468
▁insignis	-10.9473
aucourt	-10.9484
971	-10.951
▁ferr	-10.951
ophidiaster	-10.9515
▁tugpahanan	-10.9515
bré	-10.952
▁candidae	-10.9522
blan	-10.9523
thalamoporella	-10.9526
513	-10.9527
tiko	-10.9528
▁cornuta	-10.9529
▁sar	-10.9534
ada	-10.9534
▁cebu	-10.954
lande	-10.9542
ignan	-10.9546
▁kanhi	-10.9549
uf	-10.9555
oscolex	-10.9557
étienne	-10.9558
phrixgnathus	-10.9558
conescharellina	-10.9562
gil	-10.9574
nant	-10.9574
thon	-10.9584
▁ophiothrix	-10.9589
▁tibuok	-10.959
▁abyssicola	-10.96
▁verrucosa	-10.96
dorvillea	-10.96
agelas	-10.9601
mega	-10.9601
uch	-10.9617
ayan	-10.9634
littorina	-10.9643
▁geodiidae	-10.9643
▁imajima	-10.9643
▁iredale	-10.9643
▁gorgoniidae	-10.9643
▁pusilla	-10.9643
▁1925.	-10.9643
▁uropa	-10.9643
911	-10.9644
écourt	-10.9644
▁wieser	-10.9645
of	-10.9662
gros	-10.9662
▁sertularella	-10.9666
▁ama	-10.9673
▁cirratulidae	-10.9686
▁1921.	-10.9687
▁negros	-10.9687
▁mipuli	-10.9688
mtang	-10.9694
fun	-10.9702
gene	-10.9703
tot	-10.9716
▁occidental	-10.9723
▁haeckel	-10.9729
▁primnoidae	-10.9729
▁pamilya	-10.9729
▁digitata	-10.9729
pez	-10.973
▁8,	-10.9736
921	-10.9737
▁metro	-10.9747
▁roma	-10.9768
calyptotheca	-10.9772
mediorhynchus	-10.9772
▁ikatulo	-10.9773
▁amphioplus	-10.9788
▁duola	-10.9791
▁victor	-10.9796
rupt	-10.9808
▁nigra	-10.981
▁ophiura	-10.9811
adeonella	-10.9816
giovanni	-10.9816
poecilia	-10.9816
▁robustus	-10.9816
puy	-10.9839
blanc	-10.9841
oderma	-10.9841
zer	-10.9853
▁nahimo	-10.9854
tter	-10.9858
chaperiopsis	-10.9859
▁bergquist	-10.9859
▁filippo	-10.9859
▁hulyo	-10.9859
▁2007.	-10.986
▁axinella	-10.9874
▁asper	-10.9874
▁tethya	-10.9879
bonne	-10.9903
▁1876	-10.9906
tino	-10.9907
▁mibah	-10.992
▁pettibone	-10.9922
nans	-10.9926
▁edwardsi	-10.9927
bec	-10.9929
trem	-10.9932
▁buhok	-10.9947
chlamys	-10.9948
▁nathan	-10.995
▁théo	-10.9951
ulok	-10.9956
phile	-10.9974
311	-10.9983
399	-10.9991
▁bowerbank	-10.9991
▁tixier	-10.9991
▁glabra	-10.9992
orbigny	-10.9992
▁smith	-10.9999
pey	-11.0012
plou	-11.0031
▁mycalidae	-11.0036
escharella	-11.0036
▁1857	-11.0039
psammo	-11.0042
▁vas	-11.0048
gau	-11.0051
ef	-11.0055
champs	-11.0074
pyrgulopsis	-11.0081
▁theodor	-11.0081
guin	-11.0089
▁mahi	-11.0093
uilly	-11.0093
▁monhystera	-11.0098
▁nailhan	-11.0101
tim	-11.0115
731	-11.0119
ssey	-11.0121
synchaeta	-11.0125
▁1949.	-11.0125
bour	-11.0134
oglypha	-11.0141
cand	-11.0166
▁monro	-11.017
phakellia	-11.017
▁alfred	-11.017
▁hutchings	-11.017
▁pellucida	-11.017
▁asya	-11.0183
ate	-11.0193
▁solem	-11.0195
ikal	-11.0203
laeospira	-11.0216
iophon	-11.0216
▁lanao	-11.0216
quin	-11.0219
prin	-11.0225
lieu	-11.0227
sunod	-11.0231
trun	-11.0231
fau	-11.0254
terre	-11.0257
▁antarcticus	-11.0261
▁lineata	-11.0262
anthopleura	-11.0268
kov	-11.0301
lumbriconereis	-11.0307
phallodrilus	-11.0307
▁dentaliidae	-11.0307
▁1867.	-11.0307
▁1875	-11.031
sign	-11.031
trophon	-11.031
▁anak	-11.0317
▁perrier	-11.0318
vert	-11.0319
astrea	-11.0323
▁vitr	-11.0324
kasadpan	-11.0324
nemertesia	-11.0326
▁parasmittina	-11.0347
corynosoma	-11.0353
olivella	-11.0353
palythoa	-11.0353
▁incrustans	-11.0353
▁1860.	-11.0353
▁soule	-11.0355
▁komp	-11.0361
solaster	-11.0376
▁ehrenberg	-11.0399
turbanella	-11.0399
alvania	-11.0399
▁1861.	-11.0399
▁anders	-11.0402
▁fraser	-11.0403
velle	-11.0405
hér	-11.0409
olohiya	-11.041
▁chau	-11.0426
▁clava	-11.0437
haw	-11.0444
latrunculia	-11.0445
▁chromadoridae	-11.0445
▁compressa	-11.0445
▁gustaf	-11.0445
▁hitler	-11.0445
ophyllum	-11.0445
thur	-11.0445
▁republika	-11.0446
cingula	-11.0447
▁sars	-11.0451
kh	-11.0456
▁cornu	-11.0456
▁tam	-11.0461
iseto	-11.0479
▁rosa	-11.0485
▁quadra	-11.0489
bernard	-11.0492
ivault	-11.0492
heterodrilus	-11.0496
eledone	-11.0513
terebellides	-11.0538
baseodiscus	-11.0538
▁sudlay	-11.0538
otti	-11.0544
utus	-11.0547
▁murray	-11.0573
arthrosphaera	-11.0579
halosydna	-11.0585
▁hentschel	-11.0585
▁cooper	-11.0586
epizoanthus	-11.0588
▁kasadpan	-11.0603
loligo	-11.0615
▁aurantiaca	-11.0635
ogne	-11.0639
freyella	-11.0639
parti	-11.0642
▁1834	-11.0645
buc	-11.067
hari	-11.0676
balik	-11.0679
phascolion	-11.068
viscosia	-11.068
reville	-11.0689
bosc	-11.0693
▁veron	-11.0694
▁disyembre	-11.0699
▁bansa	-11.07
▁corona	-11.0707
721	-11.0711
▁philippi	-11.0712
pedi	-11.0714
oenopota	-11.0727
polymorphus	-11.0727
▁henderson	-11.0727
▁oncholaimidae	-11.0727
▁edmond	-11.0727
esperiopsis	-11.0727
▁axinellidae	-11.0727
national	-11.0728
pyrg	-11.0729
vig	-11.0731
rhaphi	-11.0737
bog	-11.0745
▁kluge	-11.0768
notoplites	-11.0775
ennes	-11.0775
epitonium	-11.0775
▁grantiidae	-11.0775
▁sigalionidae	-11.0775
bains	-11.0778
papa	-11.0779
campanularia	-11.0783
▁2,0	-11.0806
▁pala	-11.0812
uan	-11.0821
▁opisyal	-11.0823
fissidentalium	-11.0823
▁annulata	-11.0823
lagisca	-11.0823
commonsdelinker	-11.0823
èze	-11.0828
echinaster	-11.0828
uban	-11.0828
tellina	-11.0828
west	-11.084
hing	-11.0849
▁9,	-11.0855
mesnil	-11.0855
ophus	-11.0856
▁fri	-11.0859
marcel	-11.0871
▁abyssorum	-11.0872
thaumastoderma	-11.0872
▁iran	-11.0873
▁ikalima	-11.0874
maison	-11.0875
▁soest	-11.0875
▁isla	-11.0876
prostoma	-11.0883
gru	-11.0886
thenea	-11.0903
run	-11.0909
chin	-11.0913
desmodora	-11.092
▁callyspongiidae	-11.092
▁mexicana	-11.092
disporella	-11.0924
▁1852	-11.0924
▁sarsi	-11.0925
ischnochitonidae	-11.0943
adel	-11.0955
vigne	-11.0961
lisso	-11.0963
jones	-11.0966
amphicteis	-11.0969
cephalothrix	-11.0969
sipunculus	-11.0969
thyropygus	-11.0969
pherusa	-11.0969
▁pocock	-11.0969
▁reeve	-11.0969
▁actiniidae	-11.0974
nsis	-11.0981
▁karl	-11.0992
notre	-11.1002
plexaura	-11.1002
roma	-11.1007
▁tho	-11.1015
▁aspera	-11.1016
lytocarpia	-11.1018
▁jeffreys	-11.1018
▁lecanidae	-11.1018
▁simbolo	-11.1018
▁rotunda	-11.1018
mona	-11.1018
▁palma	-11.1023
tek	-11.1032
mangelia	-11.1036
511	-11.1039
resse	-11.1066
ophelina	-11.1067
▁jensen	-11.1067
▁iloilo	-11.1067
pisione	-11.1073
▁pagsulat	-11.1073
abra	-11.1098
▁sidlakan	-11.1108
arenicola	-11.1117
▁zephroniidae	-11.1117
▁hooper	-11.1117
063	-11.1118
mitra	-11.1118
▁conica	-11.1122
▁kinatsila	-11.1122
mot	-11.1135
brie	-11.1135
siyon	-11.1148
▁coelosphaeridae	-11.1166
pycnophyes	-11.1166
▁major	-11.1167
nothria	-11.1167
▁papillata	-11.1167
▁conrad	-11.1168
▁verrilli	-11.1177
056	-11.1186
vor	-11.1195
lumbri	-11.1205
melon	-11.121
▁intermedius	-11.1216
▁truncata	-11.1217
▁1842.	-11.1217
dumala	-11.1218
wat	-11.1219
▁anaa	-11.1237
rch	-11.1242
dala	-11.1248
tawo	-11.1251
arki	-11.1256
branchiomma	-11.1267
minibiotus	-11.1267
craniella	-11.1267
abietinaria	-11.1272
jar	-11.1273
kinbergonuphis	-11.1273
ampo	-11.1274
▁kultura	-11.1305
gellius	-11.1314
▁dorvilleidae	-11.1317
▁mediterranea	-11.1317
▁treadwell	-11.1317
▁vaucluse	-11.1317
lemnalia	-11.1317
pionosyllis	-11.1317
▁carinata	-11.1317
▁lumad	-11.1319
▁dispar	-11.1319
bulla	-11.1322
illat	-11.1326
omma	-11.1348
hag	-11.1357
rth	-11.1364
▁kubotan	-11.1368
▁clavata	-11.1369
protula	-11.1369
lito	-11.1379
christ	-11.1385
▁sir	-11.1391
▁kirkpatrick	-11.1401
350	-11.1404
▁9	-11.1406
▁alexander	-11.1419
notoplax	-11.1419
cros	-11.142
▁baker	-11.1431
moy	-11.1432
echinoclathria	-11.1435
tulus	-11.1453
gawa	-11.1455
nau	-11.1456
032	-11.146
wil	-11.1465
amphipholis	-11.147
▁quatrefages	-11.147
desmacella	-11.147
thalassema	-11.1474
echinus	-11.148
zier	-11.1486
078	-11.1496
olles	-11.15
▁armand	-11.1504
ouville	-11.1511
ignon	-11.1519
▁nagpa	-11.152
▁hesionidae	-11.1522
▁macgillivray	-11.1522
▁kasagaran	-11.1522
▁sistema	-11.1522
pectinaria	-11.1524
arcto	-11.1553
ussy	-11.1558
▁kagamhanan	-11.1564
▁sulod	-11.1564
▁mindanao	-11.1574
spheciospongia	-11.1574
turbicellepora	-11.1574
▁1862.	-11.1574
▁gravier	-11.1574
tungang	-11.1574
▁mortensen	-11.1578
▁teres	-11.1583
811	-11.1589
▁hum	-11.159
▁santa	-11.1617
asteroschema	-11.1626
eurythoe	-11.1626
rigny	-11.1631
040	-11.1635
aricia	-11.1636
encourt	-11.1642
andro	-11.1649
▁alex	-11.1659
ive	-11.166
hong	-11.1671
stereonephthya	-11.1678
streblosoma	-11.1678
▁brunnea	-11.1678
▁ijima	-11.1678
▁1891	-11.1681
gué	-11.1689
chalin	-11.1693
ugh	-11.1712
piri	-11.1722
maur	-11.1723
bir	-11.1728
sphaerodoropsis	-11.1731
sphaerotherium	-11.1731
▁capitellidae	-11.1731
▁fallax	-11.1731
▁violacea	-11.1731
▁hutton	-11.1731
acarnus	-11.1731
corymorpha	-11.1731
microphthalmus	-11.1733
callopora	-11.1738
▁monte	-11.1738
uges	-11.1749
▁simon	-11.1753
▁topsenti	-11.1758
uville	-11.176
▁cyclo	-11.1762
▁mill	-11.177
hap	-11.1773
lepidozona	-11.1784
▁suberitidae	-11.1784
▁verseveldt	-11.1784
félix	-11.1784
cheiraster	-11.1784
farrea	-11.1784
▁asteriidae	-11.1785
léger	-11.1787
▁norman	-11.1788
micr	-11.1789
▁plana	-11.179
rieux	-11.1792
098	-11.1813
beaumont	-11.1822
073	-11.1829
loy	-11.183
chaetozone	-11.1837
▁obscura	-11.1837
nassarius	-11.1837
▁floridana	-11.1842
▁serrata	-11.1852
acanthella	-11.1857
uil	-11.186
▁capita	-11.1862
ophioderma	-11.1862
post	-11.1862
▁nagka	-11.1864
buhat	-11.1875
ninoe	-11.1877
baud	-11.1888
crassispira	-11.189
notholca	-11.189
▁osburn	-11.189
▁spiralis	-11.1891
bong	-11.1891
antalis	-11.1892
▁eugen	-11.19
▁thu	-11.1902
▁sé	-11.1919
nhong	-11.1929
eure	-11.1932
ininggles	-11.1944
spirobranchus	-11.1944
▁hirsuta	-11.1944
▁uschakov	-11.1944
inebreyo	-11.1944
capitella	-11.1944
▁yuta	-11.1953
▁shi	-11.1975
▁mangeli	-11.1979
fin	-11.199
nhon	-11.1994
neuf	-11.1994
chaleponcus	-11.1998
macellicephala	-11.1998
▁harpagophoridae	-11.1998
▁horst	-11.1998
▁1948.	-11.1998
▁politika	-11.1999
▁1863	-11.2004
montagne	-11.2012
cate	-11.2014
▁pana	-11.2025
puli	-11.2042
cke	-11.2047
osthimosia	-11.2052
▁aculeata	-11.2052
▁armadura	-11.2052
▁elongatus	-11.2052
▁mosunod	-11.2055
▁solida	-11.2056
▁1856	-11.2057
pseudechiniscus	-11.2062
▁pagsu	-11.2084
▁mang	-11.2089
osentis	-11.209
gymnangium	-11.2107
xestospongia	-11.2107
▁sladen	-11.2107
zoanthus	-11.2107
haut	-11.2128
069	-11.2142
dorylaimus	-11.2162
oncicola	-11.2162
▁gadilidae	-11.2162
▁indicus	-11.2162
▁hunyo	-11.2162
▁alta	-11.2176
af	-11.2188
clair	-11.2188
chan	-11.2211
cinachyrella	-11.2217
dendrophylliidae	-11.2217
peridontopyge	-11.2217
▁depressa	-11.2217
▁inflata	-11.2217
▁1859.	-11.2218
▁imperyo	-11.2218
ellisella	-11.2219
tigny	-11.2221
bugula	-11.2225
▁arab	-11.2227
amba	-11.224
▁dys	-11.2251
tethy	-11.2261
▁southern	-11.2273
desmacidon	-11.2273
platynereis	-11.2273
schizomavella	-11.2273
sphaeropoeus	-11.2273
bonellia	-11.2274
butang	-11.2274
uvre	-11.2279
echino	-11.2286
zay	-11.2286
▁fabrici	-11.2289
▁steiner	-11.2297
callistochiton	-11.2329
eatoniella	-11.2329
ophioplinthus	-11.2329
roman	-11.2374
usab	-11.238
ligo	-11.2382
drillia	-11.2384
stichopathes	-11.2385
▁siboglinidae	-11.2385
▁fascicula	-11.2385
▁granulata	-11.2385
ichthydium	-11.2385
▁frederick	-11.2385
microciona	-11.2385
▁kinabuhi	-11.2385
odontaster	-11.2387
frey	-11.2389
093	-11.2404
fleur	-11.2416
▁bush	-11.2418
▁kur	-11.2421
aspe	-11.2421
isip	-11.2424
▁columbellidae	-11.2441
▁entoprocta	-11.2441
▁wright	-11.2441
▁pulchella	-11.2441
▁pinaka	-11.2443
pseudarchaster	-11.2444
▁costata	-11.2456
dero	-11.2475
▁espanya	-11.2498
▁thorectidae	-11.2498
▁vacelet	-11.2498
gelliodes	-11.2498
plumatella	-11.2498
sinumelon	-11.2498
rhagada	-11.2498
▁pugita	-11.2498
▁pilato	-11.2498
▁nodosa	-11.2499
▁pacificus	-11.2499
▁presyon	-11.25
scosoma	-11.2503
gorgonia	-11.2503
▁harry	-11.2506
▁berry	-11.2507
eck	-11.2521
bana	-11.2522
châ	-11.2526
▁1851	-11.2551
cuspidaria	-11.2555
halopteris	-11.2555
▁taylor	-11.2555
▁lumot	-11.2558
pentagonaster	-11.256
èvre	-11.257
doto	-11.2573
row	-11.2609
chloeia	-11.2613
rhabditis	-11.2613
▁radiata	-11.2613
aumont	-11.2614
echinogorgia	-11.2614
▁oro	-11.2614
▁klima	-11.2615
▁1816	-11.2619
master	-11.265
castel	-11.266
topsentia	-11.2665
cambala	-11.267
zoroaster	-11.2671
▁rossellidae	-11.2671
brisinga	-11.2671
▁nagti	-11.2672
▁allman	-11.2678
neuil	-11.2702
dipolydora	-11.271
cladorhiza	-11.2729
▁cristata	-11.2729
▁brown	-11.2729
▁sulu	-11.2731
omer	-11.2752
▁tenella	-11.2753
awan	-11.2763
bray	-11.2765
eurhinocricus	-11.2765
xia	-11.2769
▁spongillidae	-11.2787
▁pilipino	-11.2787
▁dam	-11.2792
nerilla	-11.2795
oceras	-11.2795
▁august	-11.284
diplogaster	-11.2846
septiyembre	-11.2846
▁surigao	-11.2846
▁tag	-11.2867
born	-11.2867
fé	-11.2874
tibo	-11.2881
sidlakan	-11.2892
▁nova	-11.2895
text	-11.2898
coelosphaera	-11.2905
euchlanis	-11.2905
pacifigorgia	-11.2905
▁ferdinand	-11.2905
▁japonicus	-11.2905
leodice	-11.2905
misamis	-11.2906
▁harring	-11.2907
▁sentro	-11.291
lez	-11.2927
▁sinensis	-11.2934
▁alata	-11.2934
ophionereis	-11.2941
▁henri	-11.2949
colomb	-11.2957
▁longicauda	-11.2965
▁cribrilinidae	-11.2965
▁hispida	-11.2965
▁purpurea	-11.2965
borlasia	-11.2965
▁filiformis	-11.2965
▁echinata	-11.2965
oriopsis	-11.2966
ménil	-11.2966
euplexaura	-11.2984
▁thy	-11.299
euchone	-11.2994
uto	-11.3021
drilonereis	-11.3025
gordionus	-11.3025
trypanosyllis	-11.3025
▁novaezealandiae	-11.3025
▁opheliidae	-11.3025
près	-11.3025
▁muslim	-11.3026
pachychalina	-11.3029
fay	-11.3037
▁jose	-11.304
▁costa	-11.3045
chalina	-11.3048
▁kaayo	-11.3049
clar	-11.306
▁wilsoni	-11.3073
▁more	-11.3078
aktedrilus	-11.3085
▁aberrans	-11.3085
▁ophiotrichidae	-11.3085
▁orbiniidae	-11.3085
▁lovell	-11.3085
▁girard	-11.3085
▁ophiuridae	-11.3085
▁ernest	-11.3086
▁clionaidae	-11.3086
▁tuberosa	-11.3087
callogorgia	-11.3089
▁island	-11.3091
▁nuda	-11.3107
attenuata	-11.3146
chondrocladia	-11.3146
crypthelia	-11.3146
▁brachionidae	-11.3146
▁kerguelensis	-11.3146
▁munisipyo	-11.3146
▁obtusa	-11.3146
▁remane	-11.3146
▁gamay	-11.3148
jaspis	-11.3152
kapuo	-11.3157
tudlo	-11.3166
bathydrilus	-11.3206
discodermia	-11.3206
▁chordodidae	-11.3206
▁compacta	-11.3206
▁erecta	-11.3206
▁pulitzer	-11.3206
▁triangula	-11.3207
▁modesta	-11.3207
▁flava	-11.3207
finali	-11.3208
zat	-11.3224
▁coronata	-11.3226
awit	-11.3228
▁sun	-11.3228
▁gigas	-11.323
▁percy	-11.3231
gney	-11.3234
eulima	-11.3239
▁taga	-11.3244
reau	-11.3253
▁murrayi	-11.3268
ciocalypta	-11.3268
▁nagsugo	-11.3268
▁pebrero	-11.3268
dendrobeania	-11.3268
▁katawhan	-11.3269
▁spinifera	-11.3276
▁1874	-11.332
▁heyograpiya	-11.333
▁stellata	-11.333
▁claviger	-11.333
charopa	-11.333
▁david	-11.3331
▁chitonidae	-11.3331
micropora	-11.3337
tetrastemmatidae	-11.3344
pru	-11.3362
▁arti	-11.337
▁serra	-11.3372
▁johann	-11.3373
lobatus	-11.3375
ligny	-11.338
archaster	-11.3389
pinersyano	-11.3392
▁exigua	-11.3392
▁schmarda	-11.3392
▁kilometro	-11.3392
puellina	-11.3392
▁ani	-11.3392
kinahanglan	-11.3392
▁1850.	-11.3392
▁lobata	-11.3394
▁mamm	-11.3395
sigalion	-11.3454
trigoniulus	-11.3454
▁hancock	-11.3454
▁wilhelm	-11.3454
▁bréau	-11.3455
▁daniel	-11.3455
▁1855	-11.3459
vy	-11.3485
serre	-11.3497
aspidiophorus	-11.3517
elliptio	-11.3517
octopodidae	-11.3517
runcatoflabellum	-11.3517
tinagalog	-11.3517
trochocyathus	-11.3517
▁filipjev	-11.3517
villogorgia	-11.3517
▁acicula	-11.3517
▁constant	-11.3517
▁isididae	-11.3517
proceraea	-11.3517
▁joubin	-11.3517
mier	-11.3531
ndez	-11.3533
neuve	-11.3544
▁will	-11.3545
▁kinsa	-11.3548
garde	-11.357
adong	-11.3578
dyosesis	-11.358
enchytraeus	-11.358
▁hickson	-11.358
▁lepadellidae	-11.358
▁ornatus	-11.358
▁rebolusyon	-11.358
▁regularis	-11.358
vittata	-11.358
electra	-11.3581
▁exilis	-11.3581
▁pectinata	-11.3581
▁humilis	-11.3581
sigmoria	-11.3581
▁gahom	-11.3583
▁dendyi	-11.3583
▁globosa	-11.3585
moulin	-11.3587
microlaimus	-11.3595
esperia	-11.3596
rez	-11.3598
adto	-11.361
hina	-11.3632
amphisbetia	-11.3644
crassimarginat	-11.3644
ophioplinthaca	-11.3644
spirastrella	-11.3644
travisia	-11.3644
▁gardineri	-11.3644
▁dentata	-11.3644
anticoma	-11.3644
gmelin	-11.3644
▁sollas	-11.3646
oerstedia	-11.3667
lect	-11.3669
aube	-11.3689
eunicella	-11.3698
rive	-11.3706
gymnostreptus	-11.3708
▁enoplidae	-11.3708
▁hyalina	-11.3708
leanira	-11.3708
eoechinorhynchus	-11.3709
gattya	-11.3711
▁tuber	-11.3726
▁siyang	-11.3742
philippine	-11.3749
chlo	-11.3762
astarte	-11.3772
sauveur	-11.3773
plumarella	-11.3773
ophiolepis	-11.3773
▁loomis	-11.3773
ilhac	-11.3776
▁1833	-11.3777
krohnia	-11.3778
▁call	-11.3795
▁smitt	-11.3795
sidlakang	-11.3815
cornucopina	-11.3838
jacques	-11.3838
mucropetraliella	-11.3838
nephasoma	-11.3838
plagiorhynchus	-11.3838
pteroeides	-11.3838
ptygura	-11.3838
▁anomala	-11.3838
▁pranses	-11.3838
▁villosa	-11.3838
▁panamensis	-11.3838
▁setosa	-11.3838
spadella	-11.3838
▁1871.	-11.3838
▁picta	-11.3838
▁elemento	-11.3838
▁1853	-11.3844
ferrière	-11.3849
▁isang	-11.385
▁clapar	-11.3851
▁diha	-11.3891
▁barrie	-11.3897
▁flabelligeridae	-11.3903
▁pleuroceridae	-11.3903
▁profunda	-11.3903
auricula	-11.3903
echinodictyum	-11.3904
▁chuni	-11.3911
▁gimugna	-11.394
▁panag	-11.394
ilhan	-11.3963
nobiyembre	-11.3969
telmatactis	-11.3969
▁montagu	-11.397
bran	-11.3971
▁benham	-11.3972
▁1844	-11.3972
▁hapon	-11.3979
▁lugar	-11.3988
pinna	-11.4003
tegula	-11.4004
cava	-11.4006
meuse	-11.4009
▁kir	-11.4017
echinorhynchidae	-11.4019
▁chil	-11.4023
▁marenzeller	-11.4032
hapit	-11.4033
onchulus	-11.4035
caulibugula	-11.4035
syllides	-11.4035
▁niphatidae	-11.4035
▁windows	-11.4035
▁presidente	-11.4035
▁batok	-11.4036
placogorgia	-11.4036
anchora	-11.4036
python	-11.4037
champagne	-11.404
higginsia	-11.4045
christophe	-11.4049
onyx	-11.4049
▁wilson	-11.4049
▁florida	-11.4068
chama	-11.4076
base	-11.4076
auguste	-11.4082
▁schmidti	-11.4084
ame	-11.4096
ceratomyxa	-11.4102
pleurobema	-11.4102
rhabderemia	-11.4102
▁amphinomidae	-11.4102
▁cyatholaimidae	-11.4102
▁paradoxa	-11.4102
tubulanus	-11.4102
penares	-11.4102
▁minutus	-11.4102
▁belfort	-11.4103
cardium	-11.4103
▁1841	-11.4104
▁busa	-11.4106
issy	-11.4106
feld	-11.4107
nicella	-11.4128
▁neu	-11.4136
▁tubula	-11.4138
muni	-11.4138
eix	-11.4142
▁higgin	-11.4159
trina	-11.416
▁obl	-11.4162
▁mortenseni	-11.4163
▁atra	-11.4163
▁grimaldi	-11.4169
dicyemennea	-11.4169
poecilochaetus	-11.4169
triphyllozoon	-11.4169
▁littoralis	-11.4169
▁pilipinhon	-11.4169
▁tetillidae	-11.4169
rhododrilus	-11.4169
ophiozonella	-11.4169
▁rodano	-11.4169
muricella	-11.4169
iodictyum	-11.417
▁strong	-11.4174
nicolea	-11.4176
▁decora	-11.4176
ophiomitrella	-11.4178
▁kenne	-11.418
fabriciola	-11.4184
ksyon	-11.423
▁decipiens	-11.4236
▁glacialis	-11.4236
▁varians	-11.4237
▁tasmani	-11.4237
▁1847	-11.424
▁1,3	-11.4254
montigny	-11.4255
amphianthus	-11.426
rossia	-11.4262
▁pallas	-11.4277
narella	-11.4281
victor	-11.4292
▁koste	-11.4293
▁kaniadto	-11.4295
▁frank	-11.4298
▁pax	-11.43
acanthogyrus	-11.4304
aphelenchus	-11.4304
axinyssa	-11.4304
spongosorites	-11.4304
malmgreniella	-11.4305
field	-11.4312
cogn	-11.4314
gun	-11.4326
▁adam	-11.4336
uke	-11.4339
coel	-11.4347
pie	-11.4351
unom	-11.4355
potamilla	-11.4358
haplothysanus	-11.4373
somatogyrus	-11.4373
thorecta	-11.4373
▁assimilis	-11.4373
▁caullery	-11.4373
▁variegata	-11.4373
panthalis	-11.4373
tobrilus	-11.4373
amphinome	-11.4373
▁sulcata	-11.4373
▁abyss	-11.4373
catenicella	-11.4373
▁fischer	-11.4373
▁quoy	-11.4374
halichaetonotus	-11.4375
puis	-11.438
▁franz	-11.4386
anthenea	-11.4399
basili	-11.4408
ophiocten	-11.4413
akop	-11.4421
lalawigan	-11.443
▁hall	-11.4434
▁bitectiporidae	-11.4442
▁fissurellidae	-11.4442
▁hystrix	-11.4442
bothriembryon	-11.4442
sulpice	-11.4442
▁bicolor	-11.4442
▁asterinidae	-11.4442
▁karaang	-11.4443
just	-11.4459
baw	-11.4468
tken	-11.4476
▁eks	-11.4483
tika	-11.4485
evich	-11.4491
▁islam	-11.4493
▁aleman	-11.4511
dendrophyllia	-11.4511
stylopoma	-11.4511
▁cotabato	-11.4511
▁dichotoma	-11.4511
▁amphiporidae	-11.4511
pheronema	-11.4511
▁pamuno	-11.4511
▁product	-11.4512
longue	-11.4531
brada	-11.4536
▁ophiopyrg	-11.4549
paradiopatra	-11.4569
motte	-11.4571
kinatsila	-11.4573
▁frederi	-11.4581
lysidice	-11.4581
myrianida	-11.4581
▁tellinidae	-11.4581
columbian	-11.4581
iobasis	-11.4582
▁parvus	-11.4585
flo	-11.4591
liko	-11.4592
nomia	-11.46
▁grayi	-11.4601
▁juli	-11.4617
▁wu	-11.4631
▁asa	-11.4631
vanne	-11.4632
cambarincola	-11.4652
▁baranggay	-11.4652
▁patagonica	-11.4652
▁plumulariidae	-11.4652
▁nobilis	-11.4652
leuconia	-11.4652
melinna	-11.4652
utlanan	-11.4652
etienne	-11.4652
▁1791.	-11.4652
▁magasin	-11.4652
onchium	-11.4653
▁robertson	-11.4655
▁1849	-11.4655
lensia	-11.4665
armandia	-11.4677
front	-11.4705
▁paris	-11.4706
oxydromus	-11.4723
thouarella	-11.4723
▁desmodoridae	-11.4723
▁merulinidae	-11.4723
▁nephtyidae	-11.4723
▁militar	-11.4723
▁sinulat	-11.4723
epinannolene	-11.4725
orhynchidae	-11.4725
reuil	-11.4744
▁maayo	-11.4749
dako	-11.4753
eryx	-11.4769
▁fauveli	-11.478
▁smithi	-11.4782
rier	-11.479
hippospongia	-11.4794
▁benedict	-11.4794
▁gymnolaemata	-11.4794
scalibregma	-11.4794
▁papangig	-11.4794
▁parvula	-11.4794
▁ocean	-11.4795
▁nagpasabot	-11.4796
chalinula	-11.48
sulti	-11.4807
▁calcar	-11.4809
rger	-11.4813
acio	-11.4813
▁balaod	-11.4817
▁hartmanae	-11.482
bak	-11.4822
▁christoph	-11.4851
onoba	-11.4861
strongylus	-11.4864
eterolepidoderma	-11.4866
▁acanthodrilidae	-11.4866
▁unibersidad	-11.4866
arachnopusia	-11.4866
brachoria	-11.4866
leucetta	-11.4866
neptunea	-11.4866
ochetostoma	-11.4866
persephonaster	-11.4866
église	-11.4866
nardoa	-11.4866
▁aprika	-11.4866
thracia	-11.4866
caberea	-11.4866
colurella	-11.4866
maoridrilus	-11.4866
▁echinasteridae	-11.4866
rosacea	-11.4867
▁dinhi	-11.4867
calliactis	-11.4869
allen	-11.4871
▁kadaghanan	-11.4875
▁milyon	-11.4879
léon	-11.488
colombe	-11.4887
▁dugo	-11.4891
▁ehlersi	-11.4899
romain	-11.4901
▁gosse	-11.4915
eunicea	-11.4923
▁fauvel	-11.4931
▁levinsen	-11.4933
bougainvillia	-11.4938
▁caeca	-11.4939
chaetopleura	-11.494
mesacanthion	-11.4941
▁1843	-11.4944
parasabella	-11.4951
human	-11.497
batillipes	-11.5011
▁chitwood	-11.5011
▁eulimidae	-11.5011
▁habrotrochidae	-11.5011
▁teritoryo	-11.5011
▁abyssalis	-11.5011
▁arenosa	-11.5011
▁natalensis	-11.5012
holothuria	-11.5012
▁timm	-11.5018
thil	-11.5022
franc	-11.5025
axin	-11.5031
margarites	-11.5046
▁media	-11.5058
nsac	-11.5066
agnac	-11.5072
mitrella	-11.5075
▁thompson	-11.5085
diodora	-11.5085
diphasia	-11.5085
▁myxillidae	-11.5085
▁pygmaea	-11.5085
▁typica	-11.5085
▁repens	-11.5085
▁contorta	-11.5085
▁harold	-11.5085
▁1835.	-11.5085
eumida	-11.5086
▁pedro	-11.5086
▁nitida	-11.5089
bey	-11.514
vermiliopsis	-11.5159
▁axonolaimidae	-11.5159
▁green	-11.5162
hoeff	-11.5163
sticho	-11.5205
thyone	-11.5226
nepanthia	-11.5234
▁antillarum	-11.5234
▁berkeley	-11.5234
▁moseley	-11.5234
amplirhagada	-11.5234
ophiopsila	-11.5234
polyodontes	-11.5234
▁adolf	-11.5234
▁subtilis	-11.5234
gonaxia	-11.5234
▁loxosomatidae	-11.5234
▁tinipon	-11.5234
▁siglo	-11.5234
▁baird	-11.5234
▁1945.	-11.5235
▁kimik	-11.5237
brania	-11.5243
ophiocoma	-11.5243
magny	-11.5254
kri	-11.5261
euclymene	-11.5262
deltocyathus	-11.5296
▁duchassaing	-11.5309
▁siphonophoridae	-11.5309
▁territoire	-11.5309
▁wollaston	-11.5309
messicobolus	-11.5309
terebratulina	-11.5309
▁alcock	-11.5309
▁xeniidae	-11.5309
escharoides	-11.5309
▁philippinensis	-11.5309
▁sabellariidae	-11.5309
canthochitonidae	-11.5309
▁hedley	-11.5309
▁venusta	-11.5309
▁pauper	-11.5309
errina	-11.5309
pseudonannolene	-11.5323
neopetrosia	-11.5331
▁massa	-11.5338
▁angusta	-11.5344
dawat	-11.5353
oerstedi	-11.5357
admete	-11.5382
▁californicus	-11.5385
▁lactea	-11.5385
▁polymorphidae	-11.5385
▁stylifer	-11.5385
▁plumosa	-11.5385
▁paraonidae	-11.5385
▁acuta	-11.5385
tapos	-11.5386
acanthion	-11.5388
moutier	-11.539
thesea	-11.5391
pakita	-11.5411
▁risso	-11.5436
vière	-11.5443
initon	-11.5445
ilya	-11.5457
mort	-11.546
▁gapasan	-11.5461
▁jullien	-11.5461
▁municipalidad	-11.5461
▁orihinal	-11.5461
oswaldella	-11.5461
staurotheca	-11.5461
▁collaris	-11.5461
tricoma	-11.5462
▁bouillon	-11.5463
▁liu	-11.5472
▁axi	-11.5472
▁luzon	-11.5476
▁otto	-11.5478
reux	-11.5482
cylic	-11.5503
▁laubier	-11.5537
boccardia	-11.5538
podarke	-11.5538
spiophanes	-11.5538
▁dorylaimidae	-11.5538
▁magnifica	-11.5538
▁polymastiidae	-11.5538
▁tilbrook	-11.5538
asychis	-11.5538
hamacantha	-11.5538
▁striatus	-11.5538
plocamia	-11.5538
plakina	-11.5538
▁dubius	-11.5538
laonice	-11.5538
cker	-11.5547
lacuna	-11.5551
julus	-11.558
ussac	-11.558
lineya	-11.5599
thalasso	-11.5608
pacific	-11.5613
distichopora	-11.5615
trachyjulus	-11.5615
xenotrichula	-11.5615
▁campanulariidae	-11.5615
▁wulfert	-11.5615
contracaecum	-11.5615
diaphana	-11.5615
chaetoderma	-11.5615
inanidrilus	-11.5615
goniopora	-11.5616
glyphiulus	-11.5616
aclis	-11.562
cysti	-11.5635
lucilina	-11.5635
▁densa	-11.564
siphonia	-11.5644
iulus	-11.5647
emma	-11.5659
thorac	-11.5659
haye	-11.5664
rières	-11.567
inadak	-11.5672
▁termino	-11.5673
natica	-11.5692
ostrea	-11.5693
châtillon	-11.5693
fasciospongia	-11.5693
synthecium	-11.5693
▁mawatari	-11.5693
stichaster	-11.5693
vieille	-11.5694
▁granulosa	-11.5695
▁willey	-11.5695
▁amahan	-11.5697
▁labaw	-11.57
▁1840	-11.5702
dakbayan	-11.5729
aspis	-11.5736
arabella	-11.5737
astraea	-11.5738
bispira	-11.5763
lleville	-11.5769
prionopetalum	-11.5772
▁amomongpong	-11.5772
▁furcata	-11.5772
corallium	-11.5772
▁israel	-11.5772
▁bifurca	-11.5772
▁pseudomelatom	-11.5772
linckia	-11.5772
▁californiensis	-11.5772
▁naggikan	-11.5773
▁laxa	-11.5778
bonnet	-11.5785
chaux	-11.5785
▁koren	-11.5813
low	-11.5817
acanthocephal	-11.5824
▁nasodnon	-11.5838
mystides	-11.5849
▁horn	-11.585
▁gaimard	-11.5852
▁parasitica	-11.5852
▁peryodiko	-11.5852
aquilonastra	-11.5852
hydrodendron	-11.5852
lampsilis	-11.5852
polyschides	-11.5852
psammoclema	-11.5852
semotrachia	-11.5852
▁billard	-11.5852
▁kinainitan	-11.5852
▁koltun	-11.5852
ceramaster	-11.5853
lihok	-11.5854
rotaria	-11.5859
rémy	-11.5864
▁tinu	-11.5909
lottia	-11.593
ekonomiya	-11.5932
▁hydrobiidae	-11.5932
▁kinabasaan	-11.5932
▁kinabugnawan	-11.5932
▁kinaugahan	-11.5932
▁meridionalis	-11.5932
▁mutabilis	-11.5932
▁spongiidae	-11.5932
▁muelleri	-11.5932
▁1946.	-11.5932
voluta	-11.5932
▁pterasteridae	-11.5932
ndsted	-11.5933
▁gorgonocephal	-11.5956
buhi	-11.6
coeloplana	-11.6012
tubifex	-11.6012
▁cheilostomatida	-11.6012
▁expansa	-11.6012
▁kaugalingon	-11.6012
phelliactis	-11.6012
grantessa	-11.6012
▁americanus	-11.6012
▁raphitom	-11.6012
▁1854.	-11.6013
oreaster	-11.6013
siphonochalina	-11.6013
▁gemma	-11.6015
▁tenera	-11.602
palud	-11.6027
antoni	-11.6032
psis	-11.6059
▁greg	-11.6062
arhythmorhynchus	-11.6093
bathylaimus	-11.6093
ectopleura	-11.6093
verrucella	-11.6093
▁clifford	-11.6093
▁ibabaw	-11.6093
▁leptolaimidae	-11.6093
▁oxystominidae	-11.6093
▁crassus	-11.6094
nannaria	-11.6094
▁phloeodictyidae	-11.6094
▁kaiphan	-11.6094
leptoxis	-11.6094
macrodasys	-11.6095
▁1822	-11.6101
eutima	-11.6103
▁unsa	-11.6108
▁carlos	-11.6122
▁chu	-11.6125
1000	-11.6148
ignat	-11.6149
firm	-11.6169
vexillum	-11.6175
▁arbuscula	-11.6175
▁cervicornis	-11.6175
▁flabellata	-11.6175
▁peripatopsidae	-11.6175
▁pyriformis	-11.6175
▁tridentata	-11.6175
▁valdiviae	-11.6175
▁incerta	-11.6176
▁delicata	-11.6176
▁atomik	-11.6176
▁fimbriata	-11.6176
▁ophidiasteridae	-11.6176
dendrilla	-11.6177
▁russell	-11.6177
tabang	-11.6178
nicolas	-11.6178
▁pulcher	-11.6178
tegella	-11.6179
▁1848	-11.618
polypus	-11.618
▁dagang	-11.6185
▁langerhans	-11.6189
▁balak	-11.6191
▁penna	-11.6193
▁jules	-11.6195
ague	-11.6195
salacia	-11.6225
ousse	-11.6253
benthopecten	-11.6258
caulophacus	-11.6258
cirriformia	-11.6258
ophiomastix	-11.6258
▁acarnidae	-11.6258
▁leptosomatidae	-11.6258
▁linhomoeidae	-11.6258
▁polychaeta	-11.6258
▁polyxenidae	-11.6258
doryx	-11.6258
▁plicata	-11.6258
thalassoalaimus	-11.6258
▁weberi	-11.6258
▁tethyidae	-11.6259
thoracostoma	-11.6259
▁hermann	-11.6261
anachis	-11.6264
▁malmgren	-11.6266
arene	-11.6298
lucina	-11.6327
loxo	-11.633
gikan	-11.6334
▁pourtal	-11.6337
hippoporina	-11.6341
hyalinoecia	-11.6341
laetmonice	-11.6341
▁ambigua	-11.6341
▁communis	-11.6341
▁kwadrado	-11.6341
▁spirobolidae	-11.6341
▁winston	-11.6341
gyptis	-11.6341
▁scabra	-11.6341
licornia	-11.6341
phanoderma	-11.6341
▁gibson	-11.6342
pterogorgia	-11.6345
echinomuricea	-11.6349
condé	-11.6366
montreuil	-11.6367
ramazzottius	-11.6384
▁sertularell	-11.6398
comte	-11.6398
eusyllis	-11.6405
acteon	-11.6425
camptoplites	-11.6425
coralliodrilus	-11.6425
halisarca	-11.6425
idanthyrsus	-11.6425
lophoturus	-11.6425
smithsonidrilus	-11.6425
▁antipathidae	-11.6425
▁profundi	-11.6425
▁tunokogpanit	-11.6425
pristina	-11.6425
amphilectus	-11.6425
namalycastis	-11.6426
quentin	-11.6426
▁gracile	-11.6427
▁kramp	-11.6427
abralia	-11.6428
▁punctidae	-11.6446
renne	-11.6448
rissoina	-11.6464
▁margarit	-11.647
kung	-11.6488
rhynchus	-11.6495
biflustra	-11.6501
amphiblestrum	-11.651
crepidula	-11.651
▁lundbeck	-11.651
▁petrosiidae	-11.651
▁simpson	-11.651
▁josé	-11.651
▁leptochitonidae	-11.6511
rhizaxinella	-11.6512
▁1832	-11.6517
vitrea	-11.653
▁binda	-11.6537
ophiur	-11.6566
(	-11.658
chromadorella	-11.6596
▁bukidnon	-11.6596
▁desmoscolecidae	-11.6596
▁mucronata	-11.6596
▁mytilidae	-11.6596
barentsia	-11.6596
▁demange	-11.6596
▁diadema	-11.6596
orbinia	-11.6596
inrich	-11.6597
rossella	-11.6598
▁hyalonematidae	-11.66
▁1845	-11.6605
talaan	-11.6607
▁plate	-11.6633
breuil	-11.6635
▁46	-11.6638
▁sphaeri	-11.6645
pour	-11.6654
ocystis	-11.666
▁andre	-11.6663
milly	-11.6673
pholoe	-11.6681
acanthogorgiidae	-11.6682
menipea	-11.6682
ophiophragmus	-11.6682
poecillastra	-11.6682
sclerocheilus	-11.6682
zanclea	-11.6682
▁cladorhizidae	-11.6682
▁socialis	-11.6682
aaptos	-11.6682
▁longispina	-11.6682
▁ovalis	-11.6682
antinoe	-11.6685
▁angulata	-11.6698
▁good	-11.6712
allier	-11.6714
mopalia	-11.6745
notopygos	-11.6769
▁sugilanon	-11.6769
▁rutger	-11.6769
▁ellisellidae	-11.6769
▁squama	-11.6769
▁gustav	-11.6769
▁brook	-11.6769
rousse	-11.677
dinastiya	-11.6771
▁1766	-11.6775
metz	-11.6791
lindia	-11.6794
house	-11.6833
amage	-11.6838
▁patag	-11.6839
▁jackson	-11.6857
buffonellaria	-11.6857
meckelia	-11.6857
paracyathus	-11.6857
pseudaneitea	-11.6857
steginoporella	-11.6857
vittatus	-11.6857
▁benjamin	-11.6857
▁cagayan	-11.6857
▁singularis	-11.6857
▁splendens	-11.6857
▁splendi	-11.6857
▁stechow	-11.6857
amastigia	-11.6857
campagne	-11.6861
▁pedunculata	-11.6862
paracis	-11.6875
grange	-11.6941
proctus	-11.6944
petraliella	-11.6945
▁castanea	-11.6945
keratoisis	-11.6945
ophiarachnella	-11.6945
aegires	-11.6945
▁branchiobdell	-11.6945
▁concinna	-11.6945
teinostoma	-11.6945
aspelta	-11.6945
▁sepiidae	-11.6945
▁lorenz	-11.6947
▁paggamit	-11.6955
▁1828	-11.6955
patik	-11.6972
macoma	-11.7001
patay	-11.7002
odesma	-11.701
acteocina	-11.7034
▁hawaiiensis	-11.7034
▁uncinata	-11.7034
sabatieria	-11.7034
▁grasshoff	-11.7034
moniliformis	-11.7034
themiste	-11.7034
enoplus	-11.7034
owenia	-11.7035
▁loveni	-11.7035
▁ryland	-11.7035
serpent	-11.7036
▁0,	-11.704
▁porosa	-11.7044
dagan	-11.7057
epiactis	-11.7077
▁kaniadtong	-11.7081
vray	-11.7095
californi	-11.7124
jpg	-11.7124
ammotrypane	-11.7124
cauloramphus	-11.7124
dragmacidon	-11.7124
dytaster	-11.7124
hiltonius	-11.7124
pleurotomella	-11.7124
pomphorhynchus	-11.7124
siphonodictyon	-11.7124
triphora	-11.7124
▁hoshino	-11.7124
▁lepraliellidae	-11.7124
▁tubuliporidae	-11.7124
▁university	-11.7124
▁armatus	-11.7125
courcelles	-11.7125
▁albida	-11.7125
▁brandt	-11.7125
▁ponder	-11.7126
nghem	-11.7127
▁moyano	-11.7129
▁3,0	-11.7134
linatin	-11.7134
▁pangulo	-11.7151
villy	-11.7152
mugna	-11.7164
padayon	-11.7184
libotan	-11.7184
cyatholaimus	-11.719
acromegalomma	-11.7215
caulleriella	-11.7215
dipsastraea	-11.7215
schizotricha	-11.7215
thyasira	-11.7215
▁adeonidae	-11.7215
▁kudenov	-11.7215
▁lineatus	-11.7215
▁microporellidae	-11.7215
▁trichocercidae	-11.7215
▁cincta	-11.7215
▁arcticus	-11.7215
▁maxima	-11.7215
▁tubulosa	-11.7215
dagkong	-11.7215
sepiola	-11.7216
▁partido	-11.7216
▁alemanya	-11.7219
▁leloup	-11.7224
▁recta	-11.7226
▁rissoidae	-11.7227
taeni	-11.7236
hères	-11.7254
nassa	-11.7255
totyphlonemertes	-11.7287
2003	-11.7307
▁webster	-11.7307
climocella	-11.7307
epioblasma	-11.7307
glycinde	-11.7307
myriochele	-11.7307
plaxiphora	-11.7307
stenoplax	-11.7307
▁acuminata	-11.7307
▁bonelliidae	-11.7307
▁cambalopsidae	-11.7307
▁lanceolata	-11.7307
▁manfred	-11.7307
▁school	-11.7307
skenea	-11.7307
▁okada	-11.7307
pandora	-11.7308
▁caesar	-11.7309
▁calvet	-11.731
beroe	-11.731
echinochalina	-11.7312
cymb	-11.7315
pisidium	-11.7316
▁dalag	-11.7322
seille	-11.7327
hornera	-11.7331
▁hypo	-11.7337
ack	-11.7362
turner	-11.7395
▁brevicauda	-11.74
chromadorina	-11.74
eupomatus	-11.74
flabelligera	-11.74
lygdamis	-11.74
pelagonemertes	-11.74
plagioecia	-11.74
▁corrugata	-11.74
▁delicatula	-11.74
▁flabellidae	-11.74
▁groenlandica	-11.74
▁haleciidae	-11.74
figularia	-11.74
▁sinuosa	-11.74
anemonia	-11.74
▁sukad	-11.74
hesione	-11.7403
retusa	-11.7405
▁dick	-11.7418
varennes	-11.7431
▁caroli	-11.7443
▁victoria	-11.7469
acq	-11.7477
drepanophorus	-11.7485
eugène	-11.7493
▁aphroditidae	-11.7493
▁halechiniscidae	-11.7493
▁irciniidae	-11.7493
▁napoleon	-11.7493
▁virgini	-11.7493
niphates	-11.7493
▁obesa	-11.7493
yoldia	-11.7493
ancorina	-11.7493
▁donner	-11.7494
donald	-11.7495
center	-11.7501
magne	-11.7517
almidae	-11.7518
▁rhadinorhynch	-11.7524
devant	-11.7526
fosse	-11.7572
▁candida	-11.7573
ascandra	-11.7587
boreotrophon	-11.7587
donoghue	-11.7587
himantozoum	-11.7587
linopherus	-11.7587
ophiomastus	-11.7587
ophiomyxa	-11.7587
reteporellina	-11.7587
salvatoria	-11.7587
sicyonis	-11.7587
westraltrachia	-11.7587
▁modestus	-11.7587
▁reticulatus	-11.7587
▁rudolf	-11.7587
▁tradisyon	-11.7588
▁stephensoni	-11.7588
▁incisa	-11.7588
▁hopper	-11.7588
cossura	-11.7588
pennatula	-11.7588
corbula	-11.7588
balhin	-11.7589
▁tanita	-11.7592
▁1858	-11.7597
turbo	-11.7609
halcampa	-11.7627
pontonema	-11.7633
▁ralph	-11.7668
tricellaria	-11.7678
fungiacyathus	-11.7683
jasmineira	-11.7683
psammocinia	-11.7683
zoanthidae	-11.7683
▁chrysogorgiidae	-11.7683
▁maguindanao	-11.7683
▁neglecta	-11.7683
▁tropica	-11.7683
▁1814.	-11.7684
haboga	-11.7684
manuel	-11.7687
forges	-11.77
▁symplectoscyph	-11.7702
▁conescharellin	-11.7768
▁annandale	-11.7779
▁cerithiopsidae	-11.7779
▁coccinea	-11.7779
▁complanata	-11.7779
▁horrida	-11.7779
▁hydrozoa	-11.7779
▁melithaeidae	-11.7779
▁spinosus	-11.7779
▁vulgaris	-11.7779
argyrotheca	-11.7779
calyptrophora	-11.7779
nausithoe	-11.7779
remulopygus	-11.7779
▁ocellata	-11.7779
nicomache	-11.7779
▁campbelli	-11.7779
trabaho	-11.7779
derlein	-11.7779
musculus	-11.7779
▁brasil	-11.7779
galeopsis	-11.7779
châteauneuf	-11.7779
▁sterrer	-11.778
celleporella	-11.778
hebella	-11.778
▁ovata	-11.7782
▁thalass	-11.7782
sphaerolaimus	-11.7783
oroperipatus	-11.7784
physella	-11.7787
protosuberites	-11.7792
▁rudis	-11.7797
uroteuthis	-11.7804
gonium	-11.7804
plaine	-11.7808
▁philip	-11.7835
idge	-11.7847
otrocha	-11.7856
pione	-11.7863
▁vietnam	-11.7876
aequorea	-11.7876
dodecaceria	-11.7876
gnathostomula	-11.7876
hyrtios	-11.7876
iotrochota	-11.7876
macrorhynchia	-11.7876
nymphaster	-11.7876
odontophora	-11.7876
ophiocreas	-11.7876
rhamphobrachium	-11.7876
stygarctus	-11.7876
yoldiella	-11.7876
▁catenicellidae	-11.7876
▁cellariidae	-11.7876
▁kagaangan	-11.7876
▁magellanica	-11.7876
▁westheide	-11.7876
aphelochaeta	-11.7876
▁canariensis	-11.7876
▁mawson	-11.7876
▁fistula	-11.7876
▁haswell	-11.7876
loimia	-11.7877
▁gayod	-11.7877
cytora	-11.7877
▁musika	-11.7885
▁uchida	-11.7897
prat	-11.7911
opalia	-11.7913
▁peyr	-11.7943
coralliophila	-11.7974
doratogonus	-11.7974
hololepidella	-11.7974
pentaceros	-11.7974
▁bicornis	-11.7974
▁cancellata	-11.7974
▁pilargidae	-11.7974
▁stearns	-11.7974
▁tuberculatus	-11.7974
leucilla	-11.7974
▁polaris	-11.7974
▁agusan	-11.7974
▁renaud	-11.7974
▁isao	-11.7975
amorphinopsis	-11.7975
▁tubig	-11.8
▁sibil	-11.8002
nzac	-11.8057
ophthalmus	-11.807
cellarinella	-11.8073
cerithium	-11.8073
doryphoribius	-11.8073
hymenancora	-11.8073
pleurocera	-11.8073
rhabdastrella	-11.8073
▁oenonidae	-11.8073
▁tabugok	-11.8073
▁superba	-11.8073
ichthy	-11.8074
naineris	-11.8075
▁katsila	-11.8077
▁pourtalesi	-11.8079
capnella	-11.8095
▁kirchenpauer	-11.81
ectyo	-11.8105
pinulongang	-11.8114
conopeum	-11.8173
heteromeyenia	-11.8173
hinungdan	-11.8173
leptosomatum	-11.8173
opisthosyllis	-11.8173
oscolecidae	-11.8173
sechelleptus	-11.8173
zygonemertes	-11.8173
▁coriacea	-11.8173
▁demospongiae	-11.8173
▁flexuosa	-11.8173
▁goniadidae	-11.8173
▁halopterididae	-11.8173
▁ivanov	-11.8173
▁katilingban	-11.8173
▁carolinensis	-11.8173
cacospongia	-11.8173
millepora	-11.8173
bugulina	-11.8173
▁africanus	-11.8174
▁chinensis	-11.8174
▁limbata	-11.8174
▁pelagica	-11.8177
▁2009	-11.8184
▁1826	-11.8184
thauma	-11.8191
▁lampr	-11.8218
paramuricea	-11.8258
▁perkins	-11.8267
▁ecuador	-11.8274
▁romancheinidae	-11.8274
▁rombosoa	-11.8274
▁sphaerodoridae	-11.8274
adeonellopsis	-11.8274
artemisina	-11.8274
characodoma	-11.8274
pachastrella	-11.8274
propebela	-11.8274
turritella	-11.8274
virgularia	-11.8274
euplectella	-11.8274
▁iligan	-11.8274
crambe	-11.8275
chondrilla	-11.8277
siphonolaimus	-11.8278
douard	-11.8279
yllochaetopterus	-11.8282
,000	-11.8284
▁paagi	-11.8286
▁meyer	-11.8286
mediaster	-11.8291
▁82	-11.8315
▁67	-11.8315
▁amerikano	-11.8328
pseudosuberites	-11.8354
pedicellaster	-11.8376
eupolymnia	-11.8376
floscularia	-11.8376
pallisentis	-11.8376
pulsellum	-11.8376
schistomeringos	-11.8376
▁areolata	-11.8376
▁lawrence	-11.8376
▁sanguinea	-11.8376
▁vivipara	-11.8376
corynactis	-11.8376
ceramonema	-11.8376
▁arabica	-11.8376
bittium	-11.8376
▁ophiodermatidae	-11.8376
▁columna	-11.8376
▁magnus	-11.8377
hormathia	-11.8377
fromia	-11.8378
inodrillia	-11.8378
▁millard	-11.8378
phyllospongia	-11.8378
▁agilis	-11.8379
lepidochitona	-11.8381
▁pilosa	-11.8382
▁pagtuon	-11.8384
vitrinella	-11.8393
rouge	-11.8398
gorgon	-11.8425
onnière	-11.8432
bantay	-11.8433
parachiton	-11.8438
clymenella	-11.8441
▁kanila	-11.8463
fimbria	-11.8479
amphoriscus	-11.8479
cranchia	-11.8479
dynamena	-11.8479
muriceides	-11.8479
nipponnemertes	-11.8479
▁gilchristi	-11.8479
▁gwyn	-11.8479
▁longicirra	-11.8479
▁mcknight	-11.8479
ophiocentrus	-11.8479
rsheim	-11.848
siphonosoma	-11.8482
ophiomitra	-11.8501
▁beringi	-11.8544
labastide	-11.8583
asterodiscides	-11.8583
candelabrum	-11.8583
ophiosphalma	-11.8583
pileolaria	-11.8583
pontogenia	-11.8583
rhamphostomella	-11.8583
scoletoma	-11.8583
spirobolellidae	-11.8583
▁bulbosa	-11.8583
▁elisabeth	-11.8583
▁laevigata	-11.8583
▁norvegica	-11.8583
▁lasaeidae	-11.8583
▁kreis	-11.8583
▁kamatayon	-11.8584
▁sinica	-11.8584
▁crispa	-11.8585
▁tumida	-11.8586
▁1838	-11.8593
euryst	-11.8598
protodrilus	-11.8614
microspio	-11.8639
ectyon	-11.8653
▁medya	-11.8667
ladislavella	-11.8689
praxillella	-11.8689
saccocirrus	-11.8689
scrupocellaria	-11.8689
▁epitoniidae	-11.8689
▁euplectellidae	-11.8689
▁galatheae	-11.8689
▁hydractiniidae	-11.8689
▁insularis	-11.8689
▁pfeiffer	-11.8689
▁province	-11.8689
▁zealand	-11.8689
fontenay	-11.8689
monommata	-11.8689
teredo	-11.8689
▁hebes	-11.8689
▁forbes	-11.869
▁evans	-11.8691
siphonaria	-11.8697
hadra	-11.8715
solariella	-11.8728
aonides	-11.8728
▁rossi	-11.873
philine	-11.8731
stilla	-11.8736
▁2006	-11.8745
ndar	-11.8749
▁ginoo	-11.8774
malmgrenia	-11.8785
comesoma	-11.8795
argonauta	-11.8795
balanoglossus	-11.8795
centrorhynchidae	-11.8795
polycyathus	-11.8795
sigambra	-11.8795
sphaerirostris	-11.8795
spirocamallanus	-11.8795
teratocephalus	-11.8795
tharyx	-11.8795
trochosodon	-11.8795
▁atlanticus	-11.8795
▁bengalensis	-11.8795
▁bermudensis	-11.8795
▁denticulata	-11.8795
▁ehipto	-11.8795
▁flustridae	-11.8795
▁giganteus	-11.8795
▁granulatus	-11.8795
▁inaequalis	-11.8795
▁rugosus	-11.8795
▁speciosa	-11.8795
▁zibrowius	-11.8795
▁prolifera	-11.8795
ianthella	-11.8795
antheopsis	-11.8795
castelnau	-11.8795
vanadis	-11.8796
▁conifer	-11.8797
zemitrella	-11.8797
spiraserpula	-11.8797
▁gabriel	-11.8797
pectinura	-11.8799
pagawas	-11.8802
ehlersia	-11.8803
alaimus	-11.8816
tubularia	-11.8848
nidalia	-11.8869
sagartia	-11.8884
grave	-11.8901
ctenocella	-11.8903
enoploides	-11.8903
membranipora	-11.8903
strongylacidon	-11.8903
▁hormathiidae	-11.8903
▁litoralis	-11.8903
▁puthaw	-11.8903
cavellia	-11.8903
parafontaria	-11.8903
paucibranchia	-11.8903
pisinna	-11.8903
sumpay	-11.8903
▁karsch	-11.8903
atlanta	-11.8903
cephalodiscus	-11.8904
iphione	-11.8906
protomystides	-11.8906
▁albany	-11.8906
prosphaerosyllis	-11.8964
lobophyllia	-11.8968
joseph	-11.898
ephydatia	-11.9011
rhabdocalyptus	-11.9011
succinea	-11.9011
trochospongilla	-11.9011
▁bidentata	-11.9011
▁bigelow	-11.9011
▁cinerea	-11.9011
▁curvata	-11.9011
▁fasciata	-11.9011
▁septentrionalis	-11.9011
▁tulunghaan	-11.9011
▁vermicula	-11.9011
aphanolaimus	-11.9011
▁sulcatus	-11.9011
eupolia	-11.9011
▁diversi	-11.9012
▁naticidae	-11.9012
▁sultan	-11.9014
▁48	-11.9015
parachordodes	-11.9022
pycno	-11.9024
hopl	-11.9027
cornulum	-11.9028
silva	-11.9068
▁taliwala	-11.9121
cupedora	-11.9121
onychoteuthis	-11.9121
▁constricta	-11.9121
▁deshayes	-11.9121
▁emperador	-11.9121
▁fibrosa	-11.9121
▁spectabilis	-11.9121
▁troschel	-11.9121
▁papillifer	-11.9121
haplosyllis	-11.9121
▁beneden	-11.9121
aplysia	-11.9121
lycoris	-11.9121
▁grisea	-11.9121
eirene	-11.9121
tripyla	-11.9121
pavona	-11.9121
▁tsina	-11.9122
▁cirrata	-11.9125
namanereis	-11.9126
sclerasterias	-11.9126
dampierre	-11.9142
pseudopotamilla	-11.9145
episiphon	-11.9146
stemma	-11.9175
pseudopolydora	-11.9189
schizoporellidae	-11.9196
gorgonocephalus	-11.9198
▁cumingi	-11.9232
ancistrosyllis	-11.9232
cinachyra	-11.9232
streptosyllis	-11.9232
▁annulatus	-11.9232
▁bibliya	-11.9232
▁gobyerno	-11.9232
▁kasundalohan	-11.9232
▁longissima	-11.9232
▁paucispina	-11.9232
crisularia	-11.9232
▁marginata	-11.9232
▁corticata	-11.9232
▁bocki	-11.9232
▁golvan	-11.9232
carbasea	-11.9232
acanella	-11.9233
▁haime	-11.9233
carinina	-11.9233
limatula	-11.9233
suporta	-11.9239
rhynchonere	-11.9263
gnière	-11.9283
spongeli	-11.9288
mantala	-11.9321
▁karakter	-11.9345
antarctothoa	-11.9345
anthomastus	-11.9345
eunapius	-11.9345
exochella	-11.9345
hymeraphia	-11.9345
leonnates	-11.9345
ophiolebes	-11.9345
paranaitis	-11.9345
selenaria	-11.9345
sthenolepis	-11.9345
▁dicyemidae	-11.9345
▁evelinae	-11.9345
▁stiasny	-11.9345
▁whitelegge	-11.9345
limnodrilus	-11.9345
▁sundalo	-11.9345
anthelia	-11.9345
▁lutea	-11.9345
didier	-11.9345
acmaea	-11.9346
▁pectinidae	-11.9346
tryonia	-11.9346
▁hauer	-11.9347
hailovi	-11.9347
calliostomatidae	-11.935
gnicourt	-11.935
mooreonuphis	-11.9363
▁cruz	-11.9365
kinorhynchus	-11.9394
▁isabel	-11.9438
▁lasse	-11.9457
porrorchis	-11.9458
pterocirrus	-11.9458
sphaerodoridium	-11.9458
▁arborea	-11.9458
▁canaliculata	-11.9458
▁carinatus	-11.9458
▁caudatus	-11.9458
▁gingharian	-11.9458
▁gobernador	-11.9458
▁kadagatang	-11.9458
▁popular	-11.9458
▁sycettidae	-11.9458
▁tedaniidae	-11.9458
anseropoda	-11.9458
bebryce	-11.9458
planorbella	-11.9458
tichosina	-11.9458
▁canadensis	-11.9458
▁obliqua	-11.9458
cribrilaria	-11.9458
▁rostrata	-11.9458
gonoplectus	-11.9458
gervais	-11.9458
▁longipes	-11.9458
rhinotus	-11.9458
▁pustula	-11.9458
▁fusiformis	-11.9458
▁vicente	-11.9458
▁rubens	-11.9458
▁crisiidae	-11.9458
saysay	-11.9459
▁pinnata	-11.9459
peloscolex	-11.9461
▁south	-11.9471
sarsia	-11.9491
▁wolfgan	-11.9519
▁lyra	-11.9562
clavularia	-11.9573
hippothoa	-11.9573
hormiphora	-11.9573
macrochaetus	-11.9573
oxystomina	-11.9573
▁crosslandi	-11.9573
▁euryalidae	-11.9573
▁kritikal	-11.9573
▁nigrescens	-11.9573
porcellanaster	-11.9573
rhytida	-11.9573
▁finlay	-11.9573
▁harmelin	-11.9573
▁ampulla	-11.9573
▁pandeidae	-11.9573
▁unidos	-11.9573
▁kusog	-11.9573
bubaris	-11.9573
▁diplogasteridae	-11.9574
silbi	-11.9575
▁lrt	-11.9579
polygordius	-11.9628
ascaltis	-11.9689
crucibulum	-11.9689
enoplolaimus	-11.9689
eucheilota	-11.9689
euphrosyne	-11.9689
helicochetus	-11.9689
malacoceros	-11.9689
metroperiella	-11.9689
psammolyce	-11.9689
synelmis	-11.9689
▁hastings	-11.9689
▁inornata	-11.9689
▁kristensen	-11.9689
▁ochracea	-11.9689
▁réunion	-11.9689
▁valenciennes	-11.9689
▁fuscus	-11.9689
▁ciliata	-11.9689
▁schubart	-11.969
▁pieter	-11.969
▁namatay	-11.969
▁garcia	-11.969
▁segers	-11.969
▁haddon	-11.969
▁bastian	-11.969
laimella	-11.9691
▁curta	-11.9695
aetea	-11.9702
capelle	-11.9728
▁taenia	-11.9778
aquila	-11.9782
northern	-11.9807
ameritella	-11.9807
cirrhipathes	-11.9807
cucumaria	-11.9807
cylindrolaimus	-11.9807
ecionemia	-11.9807
leitoscoloplos	-11.9807
lycopodina	-11.9807
▁alaskensis	-11.9807
▁alternata	-11.9807
▁chrysopetalidae	-11.9807
▁glyceridae	-11.9807
▁inconspicua	-11.9807
▁metropolitan	-11.9807
spinther	-11.9807
▁sydney	-11.9807
▁nahitabo	-11.9807
auletta	-11.9807
muusoctopus	-11.9807
filinia	-11.9808
▁antonio	-11.9808
▁ortho	-11.9808
▁hô	-11.9811
tortus	-11.9822
▁triloba	-11.9841
cebuano	-11.9853
ivry	-11.9866
microspirobolus	-11.987
bomba	-11.9899
linhomoeus	-11.9901
barleeia	-11.9913
▁jacob	-11.9924
beatogordius	-11.9926
corvospongilla	-11.9926
epsilonoides	-11.9926
graptacme	-11.9926
hexapodibius	-11.9926
hymenodiscus	-11.9926
lagenipora	-11.9926
leptosynapta	-11.9926
orthopyxis	-11.9926
pentaceraster	-11.9926
pterognathia	-11.9926
radiospongilla	-11.9926
siphonodentalium	-11.9926
stelodoryx	-11.9926
▁dentatus	-11.9926
▁otagoensis	-11.9926
clément	-11.9926
reptadeonella	-11.9926
▁spinulosa	-11.9926
polyzonium	-11.9926
▁editor	-11.9926
▁regalis	-11.9926
▁muricata	-11.9926
falloria	-11.9926
▁pumila	-11.9926
▁totton	-11.9926
bocage	-11.9926
▁nudus	-11.993
lund	-11.9931
helobdella	-11.9933
hemigellius	-11.9935
▁libera	-11.9937
▁litob	-11.9938
epiperipatus	-11.9943
▁inahan	-11.9973
anguina	-11.9989
ignol	-12.0018
▁america	-12.0041
ophiopholis	-12.0047
▁artikulo	-12.0047
▁clathrata	-12.0047
▁knight	-12.0047
▁peninsula	-12.0047
cyclocardia	-12.0047
esnault	-12.0047
pectinodrilus	-12.0047
tylenchida	-12.0047
▁hinuon	-12.0047
samytha	-12.0047
▁rowland	-12.0047
▁hoffman	-12.0047
lukop	-12.0047
bellonella	-12.0047
vallée	-12.0047
stellaster	-12.0047
goniodiscaster	-12.0048
▁gatos	-12.0052
bunode	-12.0058
puget	-12.0065
paracyatholaimus	-12.0081
0,000	-12.0099
▁tenuicauda	-12.0169
armaueria	-12.0169
balaenanemertes	-12.0169
bougainvilliidae	-12.0169
leocrates	-12.0169
plexaurella	-12.0169
psilaster	-12.0169
▁adenophorea	-12.0169
▁asymmetrica	-12.0169
▁challengeri	-12.0169
▁gracillima	-12.0169
▁multidenta	-12.0169
▁nangamatay	-12.0169
▁vanhoeffeni	-12.0169
▁vaughan	-12.0169
polinices	-12.0169
desmolaimus	-12.0169
antennella	-12.0169
stegophiura	-12.0169
▁debilis	-12.0169
vsky	-12.0169
▁potts	-12.0169
laxland	-12.0169
langkob	-12.0169
▁hanley	-12.0169
▁ingens	-12.017
▁year	-12.017
▁clench	-12.0171
▁andrew	-12.0172
beaulieu	-12.0182
▁lepta	-12.0183
bankia	-12.0194
▁cuba	-12.0203
hyattella	-12.022
agnan	-12.0228
▁wolf	-12.0229
plumo	-12.0281
cerianthus	-12.0288
anelassorhynchus	-12.0292
filicollis	-12.0292
plakortis	-12.0292
prinanses	-12.0292
▁chondropsidae	-12.0292
▁cornelius	-12.0292
▁djakonov	-12.0292
▁dysideidae	-12.0292
▁microsoft	-12.0292
▁novaezelandiae	-12.0292
▁trigoniulidae	-12.0292
anoplostoma	-12.0292
madracis	-12.0292
polybrachi	-12.0292
cyliosoma	-12.0292
sycandra	-12.0292
paragorgia	-12.0292
leuckartiara	-12.0292
▁australe	-12.0292
▁central	-12.0292
spiochaetopterus	-12.0292
elysia	-12.0292
▁pacificum	-12.0293
cyanea	-12.0293
tylobolus	-12.0296
bussière	-12.0296
glandula	-12.0297
▁sugboanon	-12.0297
eiro	-12.0298
othuria	-12.0304
paralinhomoeus	-12.0319
nannolene	-12.0399
▁aurantia	-12.041
drepanophori	-12.0417
corallistes	-12.0417
homalopoma	-12.0417
laevidentalium	-12.0417
novocrania	-12.0417
pedicellina	-12.0417
plutonaster	-12.0417
stylissa	-12.0417
▁antarcticum	-12.0417
▁articulata	-12.0417
▁cavernosa	-12.0417
▁flabelliformis	-12.0417
▁infundibulum	-12.0417
▁ljungman	-12.0417
▁membranacea	-12.0417
▁ventricosa	-12.0417
clypeaster	-12.0417
stylarioides	-12.0417
▁frigida	-12.0417
▁odhner	-12.0417
▁torquata	-12.0417
periploma	-12.0417
▁anceps	-12.0417
▁dilatata	-12.0417
modiolus	-12.0417
▁fulva	-12.0417
▁leidy	-12.0417
▁arcuata	-12.0417
▁kelly	-12.0417
stichopus	-12.0417
▁granifer	-12.0417
▁mixta	-12.0417
▁citrina	-12.0418
gonatus	-12.0418
prunum	-12.0418
▁armiger	-12.0419
paraonis	-12.0419
psammogorgia	-12.0419
hubad	-12.0422
fauveliopsis	-12.0455
▁primi	-12.0478
▁rhyncho	-12.0494
benthopectinidae	-12.0544
▁actinostolidae	-12.0544
▁annenkova	-12.0544
▁brevipes	-12.0544
▁ditlevsen	-12.0544
▁flavescens	-12.0544
▁galapagensis	-12.0544
aidanosagitta	-12.0544
cavernularia	-12.0544
cespitularia	-12.0544
dipsacaster	-12.0544
holascus	-12.0544
hypodontolaimus	-12.0544
lepidopora	-12.0544
melicerita	-12.0544
oncosclera	-12.0544
onithochiton	-12.0544
polymerurus	-12.0544
primnoa	-12.0544
rhabdodemania	-12.0544
rhamphidarpoides	-12.0544
ylindrotheristus	-12.0544
▁chiaje	-12.0544
▁perforata	-12.0544
▁purpura	-12.0544
astrangia	-12.0544
paracanthonchus	-12.0544
sathodrilus	-12.0544
terpios	-12.0544
▁nidaliidae	-12.0544
gaillard	-12.0544
▁poritidae	-12.0544
culicia	-12.0544
vertigo	-12.0544
▁knox	-12.0545
astroceras	-12.0546
▁gihapon	-12.0546
rochefort	-12.0559
bretagne	-12.0569
leaena	-12.0581
thoosa	-12.0607
▁hemphilli	-12.0655
dictyum	-12.0667
symphorien	-12.0672
▁fleming	-12.0672
anaitides	-12.0672
english	-12.0672
ephesiella	-12.0672
kompsoprium	-12.0672
▁aequalis	-12.0672
▁fruticosa	-12.0672
▁gibbosa	-12.0672
▁longicornis	-12.0672
▁neozelanica	-12.0672
▁notabilis	-12.0672
▁orbicula	-12.0672
▁pallidus	-12.0672
▁perplexa	-12.0672
▁piscicolidae	-12.0672
▁sepiolidae	-12.0672
▁duplex	-12.0672
▁acutus	-12.0672
▁glasby	-12.0672
clermont	-12.0672
puncturella	-12.0672
mytilina	-12.0672
▁conferta	-12.0672
▁nodulosa	-12.0672
▁kanunay	-12.0672
▁grupo	-12.0672
▁ferox	-12.0672
theonella	-12.0673
▁lucinidae	-12.0674
▁flores	-12.0674
▁aurea	-12.0675
▁hubrecht	-12.0676
metavermilia	-12.0686
metachromadora	-12.0689
tibuok	-12.0702
heteroxenia	-12.0707
▁cleave	-12.0794
▁pyramida	-12.0802
▁steenstrup	-12.0802
pocillopora	-12.0802
stomatopora	-12.0802
▁economi	-12.0802
▁electridae	-12.0802
▁kermadecensis	-12.0802
▁lichenoporidae	-12.0802
▁peripatidae	-12.0802
▁primitiva	-12.0802
▁turbinoliidae	-12.0802
▁terebratulida	-12.0802
daphnella	-12.0802
▁baybayon	-12.0802
▁lokal	-12.0802
▁comesomatidae	-12.0802
▁rioja	-12.0802
ophiotreta	-12.0802
▁todaro	-12.0802
▁1829.	-12.0802
boissière	-12.0803
▁kasalu	-12.0803
▁lewis	-12.0804
vulcanella	-12.0814
▁broch	-12.0874
aspido	-12.0898
aiptasia	-12.0933
cardiomya	-12.0933
compsodrillia	-12.0933
crateromorpha	-12.0933
nemertopsis	-12.0933
orhynchoides	-12.0933
polyarthra	-12.0933
procamallanus	-12.0933
prosadenoporus	-12.0933
▁andamanensis	-12.0933
▁arborescens	-12.0933
▁fenestrata	-12.0933
▁foliacea	-12.0933
▁hiniusang	-12.0933
▁hirsutus	-12.0933
▁multiformis	-12.0933
▁purpureus	-12.0933
▁verticillata	-12.0933
▁danielssen	-12.0933
guitarra	-12.0933
▁longiseta	-12.0933
▁turgida	-12.0933
▁tenuissima	-12.0933
▁roxas	-12.0933
leptoseris	-12.0933
adineta	-12.0934
chaperia	-12.0934
ilyodrilus	-12.0934
▁keller	-12.0934
tritonia	-12.0934
hydridae	-12.0937
fabricia	-12.0998
▁thalamoporell	-12.1032
▁rullier	-12.1067
axiothella	-12.1067
crepidacantha	-12.1067
dercitus	-12.1067
geotypodon	-12.1067
hirudisoma	-12.1067
idmidronea	-12.1067
phoriospongia	-12.1067
planktonemertes	-12.1067
scalisetosus	-12.1067
scyphoproctus	-12.1067
sphaerodorum	-12.1067
staurocalyptus	-12.1067
timarete	-12.1067
▁cambalidae	-12.1067
▁cucumariidae	-12.1067
▁cuspidariidae	-12.1067
▁difficilis	-12.1067
▁olivacea	-12.1067
fissurella	-12.1067
tetreres	-12.1067
simplic	-12.1067
▁oliver	-12.1067
▁saussure	-12.1067
▁masbate	-12.1067
▁album	-12.1067
endectyon	-12.1068
▁petersen	-12.1068
gorgorhynchus	-12.1069
thorpe	-12.1097
martial	-12.1099
▁griyego	-12.1202
adelodrilus	-12.1202
asbestopluma	-12.1202
basedowena	-12.1202
bathypathes	-12.1202
enoploteuthis	-12.1202
gastrocopta	-12.1202
genetyllis	-12.1202
gymnobela	-12.1202
ophlitaspongia	-12.1202
parkermavella	-12.1202
pleuretra	-12.1202
schwartziella	-12.1202
stephanocyathus	-12.1202
sycettusa	-12.1202
▁aculeatus	-12.1202
▁corallicola	-12.1202
▁deichmann	-12.1202
▁dictyonellidae	-12.1202
▁divaricata	-12.1202
▁exiguus	-12.1202
▁flexilis	-12.1202
▁lamellosa	-12.1202
▁montereyensis	-12.1202
▁pachybolidae	-12.1202
▁parvulus	-12.1202
▁polygyridae	-12.1202
▁pusillus	-12.1202
▁tropikal	-12.1202
▁undulata	-12.1202
▁1767.	-12.1202
▁clathrinidae	-12.1202
▁langyab	-12.1202
▁ofwegen	-12.1202
▁antillensis	-12.1202
▁punctatus	-12.1202
▁minutum	-12.1202
hemiasterella	-12.1202
▁festiva	-12.1202
▁martinika	-12.1202
pachycerianthus	-12.1205
simnia	-12.1251
saulx	-12.1262
hoffen	-12.1288
chromadorita	-12.1339
darwinella	-12.1339
flustrellidra	-12.1339
haminoea	-12.1339
patinatius	-12.1339
scaphiostreptus	-12.1339
staurocephalus	-12.1339
tripyloides	-12.1339
volutopsius	-12.1339
▁atopetholidae	-12.1339
▁eirenidae	-12.1339
▁konstantin	-12.1339
▁planorbidae	-12.1339
▁skeneidae	-12.1339
▁synchaetidae	-12.1339
histioteuthis	-12.1339
▁southward	-12.1339
astrophyton	-12.1339
▁chaperiidae	-12.1339
▁hendri	-12.1339
cylichna	-12.1339
alveopora	-12.1339
vexin	-12.1339
mohnia	-12.1339
▁nielsen	-12.1339
okenia	-12.1339
suberea	-12.1339
▁pillai	-12.134
▁kirkegaard	-12.1408
▁olindi	-12.1441
▁lanceopor	-12.1462
strongylidae	-12.1469
hippasteria	-12.1478
primnoella	-12.1478
trichobranchidae	-12.1478
▁adriatica	-12.1478
▁amboinensis	-12.1478
▁attenuatus	-12.1478
▁corymorphidae	-12.1478
▁enigmatica	-12.1478
▁excavata	-12.1478
▁flaccida	-12.1478
▁frondosa	-12.1478
▁granulifer	-12.1478
▁imbricata	-12.1478
▁mcginty	-12.1478
▁nigricans	-12.1478
▁papillosus	-12.1478
▁princeps	-12.1478
arrondissement	-12.1478
carteriospongia	-12.1478
manayunkia	-12.1478
ophiocamax	-12.1478
tanarctus	-12.1478
▁multispina	-12.1478
▁pamaagi	-12.1478
▁caudata	-12.1478
▁confusa	-12.1478
▁daghag	-12.1478
▁maucci	-12.1478
▁littorinidae	-12.1478
▁terminal	-12.1478
▁serratus	-12.1478
telesto	-12.1478
▁tuberculosa	-12.1478
▁oreasteridae	-12.1478
siliqua	-12.1487
athyp	-12.1488
monostyla	-12.1503
lliker	-12.1543
▁richters	-12.1547
▁seguenziida	-12.1596
▁leuckart	-12.1618
▁korotkevi	-12.1618
axonolaimus	-12.1618
ceratopsion	-12.1618
copidozoum	-12.1618
cupuladria	-12.1618
fusconaia	-12.1618
lacydonia	-12.1618
melinnopsis	-12.1618
novodinia	-12.1618
opisthoteuthis	-12.1618
plectroninia	-12.1618
podocoryna	-12.1618
potamothrix	-12.1618
rhamphidarpe	-12.1618
▁brisingidae	-12.1618
▁eudendriidae	-12.1618
▁flosculariidae	-12.1618
▁plakinidae	-12.1618
actinostola	-12.1618
▁white	-12.1618
wsky	-12.1618
neotonchus	-12.1619
médard	-12.1619
▁helicarionidae	-12.1619
▁hoyle	-12.1619
▁rizal	-12.1619
▁alaska	-12.1619
▁aklan	-12.1619
dictyonella	-12.162
valvata	-12.162
alagad	-12.162
nolella	-12.1621
oshua	-12.1624
cyclopecten	-12.1625
▁fossa	-12.1643
poricella	-12.1722
aigues	-12.1741
▁biemn	-12.1741
skrjabin	-12.1761
wijnhoff	-12.1761
▁filicauda	-12.1761
alasmidonta	-12.1761
bunodosoma	-12.1761
chrysopetalum	-12.1761
conasprella	-12.1761
cryptoplax	-12.1761
hesionides	-12.1761
hexarthra	-12.1761
itaquascon	-12.1761
margaretta	-12.1761
stenosemus	-12.1761
styracaster	-12.1761
tetraplaria	-12.1761
▁broderip	-12.1761
▁divergens	-12.1761
▁elliptica	-12.1761
▁formosus	-12.1761
▁propinqua	-12.1761
▁pygmaeus	-12.1761
hôpital	-12.1761
▁integra	-12.1761
▁kasamtangan	-12.1761
▁wyville	-12.1761
▁distans	-12.1761
▁hamatus	-12.1761
▁arenaria	-12.1761
antropora	-12.1761
▁kolonya	-12.1761
mopsea	-12.1761
mesochaetopterus	-12.1762
▁hessle	-12.1762
▁sentral	-12.1762
▁daday	-12.1762
anadara	-12.1762
ospinosus	-12.1762
stelospong	-12.1799
script	-12.1803
eign	-12.1842
abbaye	-12.1906
bryodelphax	-12.1906
calloporina	-12.1906
cerianthula	-12.1906
cristilabrum	-12.1906
dactylobiotus	-12.1906
eleutherobia	-12.1906
flabellopora	-12.1906
florarctus	-12.1906
hyalopomatus	-12.1906
myxicola	-12.1906
octochaetus	-12.1906
orthoscuticella	-12.1906
peosidrilus	-12.1906
rhyssoplax	-12.1906
schizoretepora	-12.1906
sphenotrochus	-12.1906
spilophorella	-12.1906
spongionella	-12.1906
syndesmogenus	-12.1906
tylopathes	-12.1906
▁airport	-12.1906
▁arafat	-12.1906
▁cerianthidae	-12.1906
▁dofleini	-12.1906
▁hippothoidae	-12.1906
▁internasyonal	-12.1906
▁squamosa	-12.1906
dischides	-12.1906
lirobittium	-12.1906
▁lesueur	-12.1906
▁bryce	-12.1906
▁pontica	-12.1906
goniaster	-12.1907
patiria	-12.1907
▁katitikan	-12.1912
▁hircini	-12.196
▁vosmaer	-12.2032
▁dollfus	-12.2053
▁complex	-12.2053
aciculites	-12.2053
bryocryptellidae	-12.2053
chrysaora	-12.2053
dasybranchus	-12.2053
kinetoskias	-12.2053
lichenopora	-12.2053
onychocella	-12.2053
saccoglossus	-12.2053
▁abruzzo	-12.2053
▁bispinosa	-12.2053
▁britanya	-12.2053
▁echinoderidae	-12.2053
▁geniculata	-12.2053
▁hemieuryalidae	-12.2053
▁importante	-12.2053
▁longirostris	-12.2053
▁magnificus	-12.2053
▁maximus	-12.2053
▁mihelcic	-12.2053
▁mopaliidae	-12.2053
▁oxeata	-12.2053
▁petraliidae	-12.2053
▁seychellensis	-12.2053
▁spengel	-12.2053
▁spongiosa	-12.2053
▁stellifera	-12.2053
▁swedmark	-12.2053
rhopalura	-12.2053
▁exclus	-12.2053
siphonotus	-12.2053
▁comune	-12.2053
▁beaniidae	-12.2053
▁loricata	-12.2053
▁proxima	-12.2053
▁represent	-12.2053
columnella	-12.2053
crossaster	-12.2053
▁foliata	-12.2053
lafoea	-12.2054
▁undata	-12.2054
▁puerto	-12.2054
milnesium	-12.2054
▁nobela	-12.2055
resulta	-12.2056
lumbriclymene	-12.2112
▁solander	-12.2142
langerhansia	-12.2177
▁pseudonannolen	-12.2191
▁desqueyroux	-12.2202
aulospongus	-12.2203
bolbosoma	-12.2203
lumbrinerides	-12.2203
lysippe	-12.2203
nectonemertes	-12.2203
viviparus	-12.2203
▁acoetidae	-12.2203
▁alcyonidiidae	-12.2203
▁cleopatra	-12.2203
▁eburnea	-12.2203
▁hilabihan	-12.2203
▁marginellidae	-12.2203
▁quadrigyridae	-12.2203
▁versluys	-12.2203
▁wadalup	-12.2203
lauratonema	-12.2203
peachia	-12.2203
▁hajdu	-12.2203
diastopora	-12.2203
phymanthus	-12.2203
▁strongyla	-12.2203
euniphysa	-12.2203
amphicorina	-12.2203
montaigu	-12.2203
▁bungto	-12.2203
modulus	-12.2203
▁healy	-12.2203
▁titulo	-12.2203
▁numero	-12.2204
▁natural	-12.2209
gamhanan	-12.2231
▁kataposan	-12.2246
kirchenpaueria	-12.2312
▁pelagi	-12.2349
authie	-12.235
▁appendiculata	-12.2354
▁brevicornis	-12.2354
▁fistulosa	-12.2354
▁glandulosa	-12.2354
▁imperialis	-12.2354
▁japonicum	-12.2354
▁mexicanus	-12.2354
▁pellucidus	-12.2354
▁sagittidae	-12.2354
▁sanctae	-12.2354
▁tabachnick	-12.2354
▁tripylidae	-12.2354
acoetes	-12.2354
acrocirrus	-12.2354
anthothoe	-12.2354
cyclostremiscus	-12.2354
glacidorbis	-12.2354
hesionura	-12.2354
leucettusa	-12.2354
monographis	-12.2354
ophiothamnus	-12.2354
▁brazier	-12.2354
fasciola	-12.2354
paralaoma	-12.2354
▁balsamo	-12.2354
▁reducta	-12.2354
▁sobyet	-12.2354
amphilimna	-12.2354
▁epsilonematidae	-12.2354
rullierinereis	-12.2354
arinolus	-12.2354
smittipora	-12.2354
▁islandica	-12.2354
▁transversa	-12.2354
bailleul	-12.2354
▁crenata	-12.2354
▁naumov	-12.2354
demonax	-12.2354
▁placenta	-12.2354
solmaris	-12.2354
▁longicaudatus	-12.2354
▁nasuta	-12.2355
bushiella	-12.2355
oscarella	-12.2368
▁guyane	-12.2389
angyaw	-12.2402
richtersia	-12.2432
▁krohn	-12.2494
hubrechtella	-12.2503
chaussée	-12.2508
pananglitan	-12.2508
phalacrostemma	-12.2508
plagiorhynchidae	-12.2508
▁alderslade	-12.2508
▁bathyalis	-12.2508
▁brinkhurst	-12.2508
▁clavulariidae	-12.2508
▁fernando	-12.2508
▁marginatus	-12.2508
▁organisasyon	-12.2508
▁pennatulidae	-12.2508
▁rhytididae	-12.2508
bicellariella	-12.2508
ctenoplana	-12.2508
dialychone	-12.2508
désert	-12.2508
hexactinella	-12.2508
lophocharis	-12.2508
oligobrachia	-12.2508
paradoneis	-12.2508
sarcotragus	-12.2508
siphonicytara	-12.2508
staurocladia	-12.2508
swiftia	-12.2508
trefusia	-12.2508
zoosphaerium	-12.2508
junceella	-12.2508
▁aquino	-12.2508
tanakh	-12.2508
ooperipatus	-12.2508
▁hudiyo	-12.2508
▁fromont	-12.2508
pardalis	-12.2509
black	-12.2516
african	-12.2563
abogon	-12.2629
epsilonema	-12.2664
arachnactis	-12.2664
pomatoceros	-12.2664
▁annectens	-12.2664
▁aupouria	-12.2664
▁caribbean	-12.2664
▁claparedii	-12.2664
▁commensalis	-12.2664
▁crystallina	-12.2664
▁dissimilis	-12.2664
▁edukasyon	-12.2664
▁esperiopsidae	-12.2664
▁ferruginea	-12.2664
▁maculatus	-12.2664
▁norvegicus	-12.2664
▁ortmann	-12.2664
▁papillatus	-12.2664
▁rhabditidae	-12.2664
▁spinosum	-12.2664
▁stekhoven	-12.2664
▁superbus	-12.2664
▁umbonata	-12.2664
▁versicolor	-12.2664
▁zelandica	-12.2664
antiguraleus	-12.2664
callistoctopus	-12.2664
carazziella	-12.2664
crispatotrochus	-12.2664
diplonotos	-12.2664
domosclerus	-12.2664
eulithidium	-12.2664
exechonella	-12.2664
glossobalanus	-12.2664
haliclystus	-12.2664
hippaliosina	-12.2664
hippomenella	-12.2664
iphitime	-12.2664
klyxum	-12.2664
mesoginella	-12.2664
odontostreptus	-12.2664
ovabunda	-12.2664
paramonohystera	-12.2664
placostegus	-12.2664
planipapillus	-12.2664
powellisetia	-12.2664
retevirgula	-12.2664
styraconyx	-12.2664
tectidrilus	-12.2664
turbinaria	-12.2664
▁probinsiya	-12.2664
▁setosus	-12.2664
▁zebra	-12.2664
▁linearis	-12.2664
ainudrilus	-12.2664
amphictene	-12.2664
cymatium	-12.2664
stylatula	-12.2664
▁heteropiidae	-12.2664
▁kristo	-12.2664
▁friele	-12.2664
favites	-12.2664
▁duncan	-12.2664
draconema	-12.2664
amphidelus	-12.2664
▁carnea	-12.2665
▁nitens	-12.2665
▁mactan	-12.2665
iège	-12.267
oculina	-12.2696
▁seguenzi	-12.2706
stelligera	-12.2709
▁stelliger	-12.2777
ikaduha	-12.2784
hincksina	-12.2819
▁cochliop	-12.2823
▁camarines	-12.2823
▁disjuncta	-12.2823
▁dorsalis	-12.2823
▁dujardin	-12.2823
▁euphrosinidae	-12.2823
▁fungiidae	-12.2823
▁lumulupyo	-12.2823
abraliopsis	-12.2823
branchiosyllis	-12.2823
bylgides	-12.2823
cytaeis	-12.2823
eucalathis	-12.2823
notocirrus	-12.2823
ophioplocus	-12.2823
plakinastrella	-12.2823
rhaphoxya	-12.2823
sagartiogeton	-12.2823
stratospongilla	-12.2823
xanthomelon	-12.2823
▁rogick	-12.2823
carcinonemertes	-12.2823
chondrosia	-12.2823
iotroata	-12.2823
▁simulans	-12.2823
▁proalidae	-12.2823
synonchus	-12.2823
▁lepida	-12.2823
euphione	-12.2823
cladostreptus	-12.2825
▁laguna	-12.2825
ségur	-12.2832
auriac	-12.2836
titik	-12.2922
▁campanula	-12.2957
alcithoe	-12.2984
coscinasterias	-12.2984
fluminicola	-12.2984
holopsamma	-12.2984
nfundibuliformis	-12.2984
ophiarachna	-12.2984
squatinella	-12.2984
thersites	-12.2984
▁alvarez	-12.2984
▁calyptraeidae	-12.2984
▁coerulea	-12.2984
▁distincta	-12.2984
▁elegantula	-12.2984
▁heterochaeta	-12.2984
▁ingolfi	-12.2984
▁keferstein	-12.2984
▁kuekenthali	-12.2984
▁kurilensis	-12.2984
▁longisetosus	-12.2984
▁luetkeni	-12.2984
▁magelonidae	-12.2984
▁mauritiana	-12.2984
▁pycnophyidae	-12.2984
▁stipitata	-12.2984
▁uncinatus	-12.2984
▁vesiculariidae	-12.2984
▁pasipiko	-12.2984
▁pulcherrima	-12.2984
▁trilineata	-12.2984
▁tubulariidae	-12.2984
▁marmorata	-12.2984
▁mexico	-12.2984
▁pectinariidae	-12.2984
▁bifida	-12.2984
▁glauca	-12.2984
cycloseris	-12.2984
▁scleractinia	-12.2984
▁spicata	-12.2984
▁aurora	-12.2984
olividae	-12.2984
▁bidens	-12.2984
▁aperta	-12.2985
▁gaussi	-12.2985
▁alatus	-12.2985
madagascariensis	-12.2985
onymus	-12.2993
arsac	-12.2994
▁arthrosphaer	-12.3005
▁fenestrulin	-12.3008
▁punnett	-12.3073
▁vitie	-12.3096
lopadorrhynchus	-12.3119
dendrostom	-12.3121
dictya	-12.3147
zanzibar	-12.3148
craspedacusta	-12.3148
lepidodermella	-12.3148
mediomastus	-12.3148
monhystrella	-12.3148
monopylephorus	-12.3148
pelogenia	-12.3148
potamethus	-12.3148
telodeinopus	-12.3148
volvulella	-12.3148
▁hartlaub	-12.3148
▁magallanes	-12.3148
▁miksosoa	-12.3148
▁neapolitana	-12.3148
▁nobyembre	-12.3148
▁ophiactidae	-12.3148
▁secernentea	-12.3148
▁siquijor	-12.3148
▁vladimir	-12.3148
aphelenchida	-12.3148
eulepis	-12.3148
▁charcoti	-12.3148
▁ligulata	-12.3148
alciopa	-12.3148
▁serbisyo	-12.3148
▁rehder	-12.3148
▁falcata	-12.3148
gersemia	-12.3148
sabellides	-12.3151
vivier	-12.3152
▁regina	-12.3153
luffari	-12.3161
philippe	-12.3173
murrayon	-12.3193
onov	-12.3231
▁scopa	-12.3311
aphrodite	-12.3315
amblyosyllis	-12.3315
anuraeopsis	-12.3315
bunodactis	-12.3315
ceratocephale	-12.3315
condylactis	-12.3315
elizabeth	-12.3315
fustiaria	-12.3315
melaphe	-12.3315
octobranchus	-12.3315
phoronis	-12.3315
ploesoma	-12.3315
rosphylostreptus	-12.3315
strongylophora	-12.3315
subergorgia	-12.3315
thyroscyphus	-12.3315
▁albicans	-12.3315
▁alciopidae	-12.3315
▁brevicirra	-12.3315
▁dohrni	-12.3315
▁duplicata	-12.3315
▁grandiflora	-12.3315
▁higayon	-12.3315
▁imperfecta	-12.3315
▁pedicellaris	-12.3315
▁siphonotidae	-12.3315
▁spongicola	-12.3315
▁tubulifera	-12.3315
▁variegatus	-12.3315
abergement	-12.3315
▁raymond	-12.3315
▁reptans	-12.3315
molpadia	-12.3315
▁butler	-12.3315
▁microporidae	-12.3315
▁berzin	-12.3315
▁brucei	-12.3315
▁panulat	-12.3315
▁spatula	-12.3315
alectona	-12.3315
▁capiz	-12.3315
▁ilocos	-12.3315
▁tingog	-12.3315
lumbricus	-12.3315
perkinsiana	-12.3315
viminella	-12.3315
corhiza	-12.3315
goniodisc	-12.3316
▁kalibutan	-12.3318
akaplagan	-12.3322
nogent	-12.3326
monoporella	-12.3344
maupas	-12.3355
anthogorgia	-12.3484
abyssocladia	-12.3484
astrocladus	-12.3484
austrognatharia	-12.3484
calycopsis	-12.3484
cenogenus	-12.3484
chronogaster	-12.3484
epsilonematina	-12.3484
haplognathia	-12.3484
hippopodina	-12.3484
hippoporidra	-12.3484
lepidotheca	-12.3484
meridiastra	-12.3484
myriopathes	-12.3484
neoguraleus	-12.3484
nereiphylla	-12.3484
otostephanos	-12.3484
pliciloricus	-12.3484
ptychostomella	-12.3484
stellettinopsis	-12.3484
truncatella	-12.3484
▁anisakidae	-12.3484
▁ellobiidae	-12.3484
▁industriya	-12.3484
▁lafoeidae	-12.3484
aplousina	-12.3484
patiriella	-12.3484
tibiomus	-12.3484
▁sluiter	-12.3484
▁wheeler	-12.3484
▁zenkevitch	-12.3484
amphilepis	-12.3484
anchinothria	-12.3484
cladocroce	-12.3484
doliodrilus	-12.3484
garveia	-12.3484
▁pruvot	-12.3484
astreopora	-12.3484
discoporella	-12.3484
saturnin	-12.3484
cuthona	-12.3484
▁biliran	-12.3484
dissotrocha	-12.3484
holospira	-12.3484
corticium	-12.3484
goniastrea	-12.3484
spirinia	-12.3484
trophoniella	-12.3484
sepioteuthis	-12.3484
▁cuvier	-12.3484
cirsonella	-12.3484
sonorella	-12.3485
megaciella	-12.3485
eubranchus	-12.3485
cranopsis	-12.3485
heliaster	-12.3485
cladonema	-12.3488
neuvy	-12.349
avril	-12.3501
pildi	-12.3518
perrierina	-12.3621
austrolaenilla	-12.3657
bhawania	-12.3657
cylindrus	-12.3657
dasychone	-12.3657
glyptorhagada	-12.3657
ilyphagus	-12.3657
leiodermatium	-12.3657
monoposthia	-12.3657
neodexiospira	-12.3657
peripatoides	-12.3657
pleuroxia	-12.3657
plicifusus	-12.3657
rhaphidophlus	-12.3657
siphonophorella	-12.3657
▁ambiguus	-12.3657
▁averincev	-12.3657
▁ceylonensis	-12.3657
▁cucullata	-12.3657
▁falklandica	-12.3657
▁glossiphoniidae	-12.3657
▁granulosus	-12.3657
▁gérard	-12.3657
▁misakiensis	-12.3657
▁monilifer	-12.3657
▁ophionereididae	-12.3657
▁oregonensis	-12.3657
▁paradoxus	-12.3657
▁virgata	-12.3657
cypraea	-12.3657
isocirrus	-12.3657
metridium	-12.3657
▁giuseppe	-12.3657
▁spiculifer	-12.3657
dendronotus	-12.3657
▁notialis	-12.3657
diplasterias	-12.3657
▁iharos	-12.3657
antiplanes	-12.3657
fibulia	-12.3657
argonne	-12.3657
euryspongia	-12.3657
▁pablo	-12.3657
couture	-12.3657
cribrilina	-12.3657
ophioconis	-12.3657
caruncul	-12.3657
derholm	-12.3657
gemme	-12.3657
quadricoma	-12.3658
bulimus	-12.3658
▁trigona	-12.3659
homoe	-12.3704
solanderia	-12.3727
▁ramazzotti	-12.3742
pettiboneia	-12.3755
▁micoletzky	-12.3823
rehiyon	-12.3828
ganthorhynchidae	-12.3832
halicnemia	-12.3832
hermadion	-12.3832
initalyano	-12.3832
ophiocnida	-12.3832
terebripora	-12.3832
▁anoculata	-12.3832
▁cerithiidae	-12.3832
▁discodorididae	-12.3832
▁drilliidae	-12.3832
▁golfingiidae	-12.3832
▁procumbens	-12.3832
▁sibugay	-12.3832
▁spinulosus	-12.3832
▁symmetrica	-12.3832
▁talagsaon	-12.3832
▁tomopteridae	-12.3832
barthélemy	-12.3832
melampus	-12.3832
▁konstitusyon	-12.3832
▁obesus	-12.3832
bonneviella	-12.3832
cheilopora	-12.3832
hippolyte	-12.3832
▁jenkin	-12.3832
▁college	-12.3832
▁nassariidae	-12.3832
chiroteuthis	-12.3832
onykia	-12.3832
▁hinapon	-12.3832
▁general	-12.3832
mathilda	-12.3832
scopalina	-12.3842
lanceopora	-12.3852
rathkea	-12.3997
catostylus	-12.4011
chloritis	-12.4011
cosciniopsis	-12.4011
coscinoderma	-12.4011
ekonomik	-12.4011
euprymna	-12.4011
exidmonea	-12.4011
filellum	-12.4011
heteromastus	-12.4011
isoporostreptus	-12.4011
lepidisis	-12.4011
marguerite	-12.4011
petaloproctus	-12.4011
platygyra	-12.4011
sphaerospira	-12.4011
staurodiscus	-12.4011
stomachetosella	-12.4011
tanacetipathes	-12.4011
▁atlantiko	-12.4011
▁dawsoni	-12.4011
▁doederleini	-12.4011
▁floridensis	-12.4011
▁fulgens	-12.4011
▁inconstans	-12.4011
▁kudarat	-12.4011
▁mossambica	-12.4011
▁nipponica	-12.4011
▁plumatellidae	-12.4011
▁schneider	-12.4011
▁secunda	-12.4011
▁vancouverensis	-12.4011
▁zelinka	-12.4011
odontolaimus	-12.4011
▁abranchiata	-12.4011
▁eximia	-12.4011
▁helenae	-12.4011
leptopsammia	-12.4011
velutina	-12.4011
▁foliosa	-12.4011
▁theonellidae	-12.4011
lepralia	-12.4011
▁vasseur	-12.4011
▁rustica	-12.4011
nicidion	-12.4011
▁esteban	-12.4011
▁lottiidae	-12.4011
▁porcella	-12.4011
▁meteor	-12.4011
lovenella	-12.4011
ophiothela	-12.4011
levinsenia	-12.4025
vosmaeropsis	-12.4037
beringius	-12.4079
chaetopterus	-12.4178
phloeodicty	-12.4192
▁dawydoff	-12.4192
aphroceras	-12.4192
cavolinia	-12.4192
crucigera	-12.4192
erythropodium	-12.4192
fridericia	-12.4192
hermundura	-12.4192
longicollum	-12.4192
nesobolus	-12.4192
pleurobrachia	-12.4192
ptilocaulis	-12.4192
thrombus	-12.4192
▁foundation	-12.4192
▁kasingkasing	-12.4192
▁latrunculiidae	-12.4192
▁stellatus	-12.4192
▁testudinellidae	-12.4192
▁utinomi	-12.4192
▁zambales	-12.4192
diplodonta	-12.4192
volvarina	-12.4192
▁dastych	-12.4192
antillogorgia	-12.4193
eurytellina	-12.4193
proboscina	-12.4193
▁programa	-12.4193
boulogne	-12.4193
crossota	-12.4193
umbellula	-12.4193
▁pakig	-12.4193
nectria	-12.4193
ograpiya	-12.4193
▁gabb	-12.4195
ovactis	-12.4196
pallasia	-12.4274
kirkegaardia	-12.4285
arabiko	-12.4306
▁zygophyla	-12.4338
seguenzia	-12.4358
antarctoscyphus	-12.4378
arachnoidella	-12.4378
asteriscus	-12.4378
austrognathia	-12.4378
campeloma	-12.4378
chiastosella	-12.4378
clavodorum	-12.4378
clymenura	-12.4378
crockerella	-12.4378
favosipora	-12.4378
hippoporella	-12.4378
iciligorgia	-12.4378
kurtziella	-12.4378
lithasia	-12.4378
lophocalyx	-12.4378
mecynoecia	-12.4378
mpressidentalium	-12.4378
otionellina	-12.4378
parougia	-12.4378
phenacohelix	-12.4378
primnoisis	-12.4378
rhizopsammia	-12.4378
scepanotrocha	-12.4378
spiroxya	-12.4378
steggoa	-12.4378
▁abnormis	-12.4378
▁adhaerens	-12.4378
▁aggregata	-12.4378
▁alpheus	-12.4378
▁aplysinidae	-12.4378
▁cherbonnier	-12.4378
▁derjugini	-12.4378
▁escharinidae	-12.4378
▁falcifera	-12.4378
▁fluviatilis	-12.4378
▁hispidus	-12.4378
▁kabungtoran	-12.4378
▁lehnert	-12.4378
▁mediterraneus	-12.4378
▁nuttalli	-12.4378
▁obtusus	-12.4378
▁operculata	-12.4378
▁panghitabo	-12.4378
▁pellucidum	-12.4378
▁problematica	-12.4378
▁rubiginosa	-12.4378
▁scutata	-12.4378
▁solitarius	-12.4378
▁valenciniidae	-12.4378
▁virgulariidae	-12.4378
▁wiedenmayer	-12.4378
favartia	-12.4378
lissotesta	-12.4378
muhammad	-12.4378
pachysentis	-12.4378
▁immersa	-12.4378
▁lateralis	-12.4378
leiosella	-12.4378
mesacanthoides	-12.4378
▁antipoda	-12.4378
labioporella	-12.4378
lagenicella	-12.4378
mexidrilus	-12.4378
▁boninensis	-12.4378
▁taiwan	-12.4378
▁truncatus	-12.4378
esiocleidochasma	-12.4378
marstonia	-12.4378
▁parkeri	-12.4378
grubeosyllis	-12.4378
araeolaimus	-12.4378
fectola	-12.4378
triticella	-12.4378
▁cavite	-12.4379
▁alyado	-12.4379
novafabricia	-12.438
hypocambala	-12.4381
mornant	-12.4382
▁align	-12.4388
cribrochalina	-12.4391
rhynchonema	-12.4392
▁lobophylli	-12.4453
punnettia	-12.4463
publika	-12.4564
anobothrus	-12.4566
buccinulum	-12.4566
diaperoecia	-12.4566
dinophilus	-12.4566
ethmolaimus	-12.4566
gastropoda	-12.4566
hypsicomus	-12.4566
membraniporella	-12.4566
ophistreptus	-12.4566
oxypyge	-12.4566
petricola	-12.4566
proboscidactyla	-12.4566
prosthenorchis	-12.4566
sclerodomus	-12.4566
solenozophyllum	-12.4566
sternaspis	-12.4566
terschellingia	-12.4566
▁chaetopteridae	-12.4566
▁demograpiya	-12.4566
▁fristedt	-12.4566
▁kisielewski	-12.4566
▁loliginidae	-12.4566
▁longicollis	-12.4566
▁miyembro	-12.4566
▁ophiomyxidae	-12.4566
▁plagioeciidae	-12.4566
▁tessellata	-12.4566
▁triphoridae	-12.4566
▁visayas	-12.4566
▁yamaguti	-12.4566
madrepora	-12.4566
▁carvalho	-12.4566
▁kapupud	-12.4566
euryale	-12.4566
salmacina	-12.4566
samythella	-12.4566
▁gallardo	-12.4566
▁jordan	-12.4566
▁wallace	-12.4566
▁rousselet	-12.4566
bolinopsis	-12.4566
piromis	-12.4567
histoderm	-12.4571
phylactella	-12.4643
verrière	-12.465
=1846	-12.465
tylost	-12.4677
▁pentagona	-12.4744
aphanipathes	-12.4759
apionsoma	-12.4759
halenchus	-12.4759
lauragais	-12.4759
myrmekioderma	-12.4759
pilargis	-12.4759
terranova	-12.4759
▁anomalus	-12.4759
▁bifaxariidae	-12.4759
▁brachiata	-12.4759
▁diegensis	-12.4759
▁elegantissima	-12.4759
▁fasciatus	-12.4759
▁hozawai	-12.4759
▁incertus	-12.4759
▁lamouroux	-12.4759
▁lophoproctidae	-12.4759
▁mirabile	-12.4759
▁papyracea	-12.4759
▁sagartiidae	-12.4759
▁schizopathidae	-12.4759
▁serpens	-12.4759
▁thyasiridae	-12.4759
▁translucens	-12.4759
▁ventilabrum	-12.4759
▁wesenberg	-12.4759
apheloria	-12.4759
pahigayon	-12.4759
sycetta	-12.4759
▁limicola	-12.4759
▁orensanz	-12.4759
▁robustum	-12.4759
▁bulbifer	-12.4759
▁mertoni	-12.4759
▁biserov	-12.4759
▁tricolor	-12.4759
actinostella	-12.4759
▁rubrum	-12.4759
▁discors	-12.4759
haliotis	-12.4759
▁konseho	-12.4759
▁bantogan	-12.4759
▁high	-12.476
▁rathke	-12.4774
ecques	-12.4801
clathri	-12.4814
▁crypta	-12.4821
steineria	-12.4895
falkland	-12.4955
armagnac	-12.4955
chromaspirina	-12.4955
echinostylinos	-12.4955
egmundella	-12.4955
opisthodonta	-12.4955
pentamera	-12.4955
plethocrossus	-12.4955
potamolepis	-12.4955
procerastea	-12.4955
serrasentis	-12.4955
▁andvakiidae	-12.4955
▁cephalobidae	-12.4955
▁impressa	-12.4955
▁luidiidae	-12.4955
▁mclean	-12.4955
▁nerillidae	-12.4955
▁ochotensis	-12.4955
▁pasidungog	-12.4955
▁profundus	-12.4955
▁salvador	-12.4955
▁tongiorgi	-12.4955
▁turbanellidae	-12.4955
alexandre	-12.4955
cassidula	-12.4955
nautilus	-12.4955
phialella	-12.4955
▁alexandri	-12.4955
▁gordiidae	-12.4955
▁sagamiensis	-12.4955
cirrophorus	-12.4955
▁personal	-12.4955
eupleura	-12.4955
hamigera	-12.4955
psammocora	-12.4955
negosyo	-12.4955
polydesmus	-12.4955
thormora	-12.4955
circeaster	-12.4955
javania	-12.4955
atsushi	-12.4956
estrée	-12.4975
actinernus	-12.5155
calthropella	-12.5155
chaetogaster	-12.5155
coryphella	-12.5155
diplocirrus	-12.5155
gigantorhynchus	-12.5155
halammohydra	-12.5155
inflatella	-12.5155
lucernaria	-12.5155
lueheia	-12.5155
micranellum	-12.5155
nemertea	-12.5155
opisthus	-12.5155
piscicola	-12.5155
spissustreptus	-12.5155
spongodes	-12.5155
strongylocentrot	-12.5155
tzheim	-12.5155
▁anthoathecata	-12.5155
▁benayahu	-12.5155
▁darwinellidae	-12.5155
▁depressus	-12.5155
▁diomedeae	-12.5155
▁elongatum	-12.5155
▁gracilior	-12.5155
▁hilario	-12.5155
▁hirsutum	-12.5155
▁horridus	-12.5155
▁jamaicensis	-12.5155
▁lacunosa	-12.5155
▁lacustris	-12.5155
▁linstow	-12.5155
▁lymnaeidae	-12.5155
▁macfarland	-12.5155
▁middendorff	-12.5155
▁pigmentata	-12.5155
▁ramsayi	-12.5155
▁scarabino	-12.5155
▁scotiae	-12.5155
▁senegalensis	-12.5155
▁sexradia	-12.5155
▁siyensiya	-12.5155
▁tubicola	-12.5155
▁typicus	-12.5155
▁unguicula	-12.5155
▁unicolor	-12.5155
▁violaceus	-12.5155
▁annulatum	-12.5155
▁coralloides	-12.5155
▁callistopla	-12.5155
▁polyceridae	-12.5155
pomponema	-12.5155
▁boreale	-12.5155
▁pectinifer	-12.5155
amnicola	-12.5155
cymospira	-12.5155
sphinct	-12.5155
world	-12.5155
▁octavi	-12.5155
corbières	-12.5155
stilifer	-12.5155
tectus	-12.5155
▁ambrosi	-12.5155
kultura	-12.5202
tinuod	-12.5211
centrelus	-12.5271
▁madagascar	-12.5358
acanthorhynchina	-12.5359
aeneator	-12.5359
antarctonemertes	-12.5359
artacama	-12.5359
austrochloritis	-12.5359
buffonellodes	-12.5359
cephalodasys	-12.5359
chaureopa	-12.5359
chelonaplysilla	-12.5359
cigclisula	-12.5359
cistenides	-12.5359
compressidens	-12.5359
corbulella	-12.5359
diplotrema	-12.5359
drepanophora	-12.5359
entalophoroecia	-12.5359
euginoma	-12.5359
filisparsa	-12.5359
gemelliporidra	-12.5359
gigantopora	-12.5359
gregarinidra	-12.5359
grubeulepis	-12.5359
gâtinais	-12.5359
kophobelemnon	-12.5359
leurocodonellina	-12.5359
octophialucium	-12.5359
oncousoecia	-12.5359
paralvinella	-12.5359
pelagonemertidae	-12.5359
quadrula	-12.5359
simplisetia	-12.5359
solenocaulon	-12.5359
stenohelia	-12.5359
stephanollona	-12.5359
stratiodrilus	-12.5359
streptocaulus	-12.5359
stylotella	-12.5359
thrinacophora	-12.5359
▁agariciidae	-12.5359
▁awtoridad	-12.5359
▁ceylonica	-12.5359
▁chathamensis	-12.5359
▁collothecidae	-12.5359
▁darwini	-12.5359
▁eatoniellidae	-12.5359
▁hayashi	-12.5359
▁livingstone	-12.5359
▁maculatum	-12.5359
▁rafinesque	-12.5359
▁tagbilaran	-12.5359
caryocorbula	-12.5359
mylonchulus	-12.5359
▁santiago	-12.5359
cribralaria	-12.5359
ophiomusium	-12.5359
▁normal	-12.5359
semperella	-12.5359
abyssidrilus	-12.5359
lanicides	-12.5359
cornechiniscus	-12.5359
klugerella	-12.5375
doryp	-12.5414
koellikerina	-12.5427
amorphin	-12.5565
asteroporpa	-12.5567
atopetholus	-12.5567
carassius	-12.5567
chitinopoma	-12.5567
cymbastela	-12.5567
dasynemella	-12.5567
egestula	-12.5567
halicometes	-12.5567
hymerhabdia	-12.5567
hypereteone	-12.5567
lacinularia	-12.5567
laodicea	-12.5567
leiochrides	-12.5567
lyogyrus	-12.5567
metrarabdotos	-12.5567
phakettia	-12.5567
saveljevia	-12.5567
stryphnus	-12.5567
▁arachnactidae	-12.5567
▁bicarinata	-12.5567
▁biserialis	-12.5567
▁bispinosus	-12.5567
▁emarginata	-12.5567
▁enoploteuthidae	-12.5567
▁espanyol	-12.5567
▁exochellidae	-12.5567
▁fasciolariidae	-12.5567
▁guadalupensis	-12.5567
▁hyperborea	-12.5567
▁incognita	-12.5567
▁incrustata	-12.5567
▁insolita	-12.5567
▁kolehiyo	-12.5567
▁leucosoleniidae	-12.5567
▁mcmurrich	-12.5567
▁minuscula	-12.5567
▁neglectus	-12.5567
▁obscurus	-12.5567
▁olivaceus	-12.5567
▁praelonga	-12.5567
▁proyekto	-12.5567
▁siyudad	-12.5567
▁sphenopidae	-12.5567
▁vesicula	-12.5567
▁yoldiidae	-12.5567
margaritifera	-12.5567
▁amphora	-12.5567
▁cuneata	-12.5567
▁fimbriatus	-12.5567
anthenoides	-12.5567
ascomorpha	-12.5567
▁incurva	-12.5567
mézières	-12.5567
▁jihad	-12.5567
hermione	-12.5567
provincia	-12.5567
▁grippi	-12.5567
pommera	-12.5567
heteractis	-12.5567
augeneriella	-12.5568
achaeta	-12.5663
lycastis	-12.578
antipathella	-12.578
bathyarca	-12.578
conochilus	-12.578
diadumene	-12.578
glycymeris	-12.578
podosphaeraster	-12.578
▁acrocirridae	-12.578
▁amoureux	-12.578
▁bathalad	-12.578
▁benthicola	-12.578
▁mactridae	-12.578
▁maplestone	-12.578
▁munisipalidad	-12.578
▁neotylenchidae	-12.578
▁pransya	-12.578
▁produkto	-12.578
▁stenolaemata	-12.578
liothyrella	-12.578
stauronereis	-12.578
camacolaimus	-12.578
thelastoma	-12.578
▁camiguin	-12.578
▁pictet	-12.578
beauvoir	-12.578
rhodactis	-12.5781
▁dictyodendrill	-12.5782
adamsia	-12.5811
▁hyatt	-12.5907
▁phylact	-12.5909
▁spinifer	-12.597
▁queenslandi	-12.5997
arhythmacanth	-12.5997
▁abbreviata	-12.5997
▁arachnopusiidae	-12.5997
▁atlanticum	-12.5997
▁cavernicola	-12.5997
▁convexa	-12.5997
▁cuspidata	-12.5997
▁elastica	-12.5997
▁hoplolaimidae	-12.5997
▁investigatoris	-12.5997
▁isodictyidae	-12.5997
▁lacazei	-12.5997
▁novaehollandiae	-12.5997
▁proboscidea	-12.5997
▁protecta	-12.5997
▁sebastian	-12.5997
▁solitaria	-12.5997
▁stolonifera	-12.5997
▁subterranea	-12.5997
▁trinité	-12.5997
▁troglodytes	-12.5997
▁tuberculosus	-12.5997
▁undulatus	-12.5997
▁verrucosus	-12.5997
▁washington	-12.5997
aeolidiella	-12.5997
aphistogoniulus	-12.5997
branchinotogluma	-12.5997
costoanachis	-12.5997
dictyocladium	-12.5997
forskalia	-12.5997
grimpoteuthis	-12.5997
hemicyclopora	-12.5997
lophoproctus	-12.5997
ophiogymna	-12.5997
ophiopristis	-12.5997
peripatopsis	-12.5997
pleurotrocha	-12.5997
polyplumaria	-12.5997
prosorhochmus	-12.5997
quistrachia	-12.5997
siphonorhinus	-12.5997
stenosarina	-12.5997
torresitrachia	-12.5997
trachycladus	-12.5997
trematooecia	-12.5997
wierzejskiella	-12.5997
▁crucifer	-12.5997
▁lacernidae	-12.5997
▁lacteus	-12.5997
▁mandaue	-12.5997
▁vestita	-12.5997
cyphastrea	-12.5997
xymene	-12.5998
pilsbryspira	-12.603
hincksella	-12.6043
ophiopyrgus	-12.6102
president	-12.6219
acladocricus	-12.622
echinophyllia	-12.622
emarginula	-12.622
floridobia	-12.622
haemopis	-12.622
halichoanolaimus	-12.622
immergentia	-12.622
oregodasys	-12.622
penetrantia	-12.622
prionobelum	-12.622
prismatolaimus	-12.622
spiliphera	-12.622
stomphia	-12.622
teginoporellidae	-12.622
▁cancellariidae	-12.622
▁cranchiidae	-12.622
▁crenulata	-12.622
▁drygalskii	-12.622
▁klunzinger	-12.622
▁mertensi	-12.622
▁modernong	-12.622
▁pachastrellidae	-12.622
▁pangkalibutanon	-12.622
▁pfeffer	-12.622
▁pleijel	-12.622
▁pocilloporidae	-12.622
▁veretillidae	-12.622
epicrates	-12.622
▁priapulida	-12.622
nudospongilla	-12.622
cerodrillia	-12.622
▁trichostrongyl	-12.624
▁barleei	-12.6244
▁solariell	-12.6363
▁peduncula	-12.6432
acanthoptilum	-12.6447
asplanchna	-12.6447
atlantidrilus	-12.6447
bathyepsilonema	-12.6447
bifaxaria	-12.6447
bitectipora	-12.6447
botrucnidifer	-12.6447
bythotiara	-12.6447
camaricoproctus	-12.6447
cassiopea	-12.6447
coenocyathus	-12.6447
curtitoma	-12.6447
echiniscoides	-12.6447
elephantanell	-12.6447
erinaceusyllis	-12.6447
evoplosoma	-12.6447
fasciculipora	-12.6447
glandiceps	-12.6447
helgicirrha	-12.6447
hippomonavella	-12.6447
hirsutonuphis	-12.6447
histampica	-12.6447
hoplochaetina	-12.6447
imbriosthenelais	-12.6447
impluwensya	-12.6447
integripelta	-12.6447
laciniogonus	-12.6447
littoraria	-12.6447
nevianipora	-12.6447
nootkadrilus	-12.6447
obovaria	-12.6447
ocenebra	-12.6447
ocinebrina	-12.6447
odontohenricia	-12.6447
phreatodrobia	-12.6447
phryssonotus	-12.6447
phyllangia	-12.6447
pierrefitte	-12.6447
placiphorella	-12.6447
pleurocorallium	-12.6447
raxifabia	-12.6447
representar	-12.6447
rhyacodrilis	-12.6447
scabrotrophon	-12.6447
sclerobelemnon	-12.6447
setobaudinia	-12.6447
subcancilla	-12.6447
trypostega	-12.6447
turgenitubulus	-12.6447
veleropilina	-12.6447
▁aleutica	-12.6447
▁arenarius	-12.6447
▁azorica	-12.6447
▁cinctus	-12.6447
▁costulata	-12.6447
▁crassicornis	-12.6447
▁crosnieri	-12.6447
▁curacaoensis	-12.6447
▁decussata	-12.6447
▁gregorio	-12.6447
▁guttata	-12.6447
▁inornatus	-12.6447
▁januarii	-12.6447
▁madeirensis	-12.6447
▁maldivensis	-12.6447
▁mamillata	-12.6447
▁membraniporidae	-12.6447
▁microlaimidae	-12.6447
▁multispinosa	-12.6447
▁obtusicauda	-12.6447
▁oculifer	-12.6447
▁psammophila	-12.6447
▁pustulosa	-12.6447
▁rubescens	-12.6447
▁rugosum	-12.6447
▁sipunculidae	-12.6447
▁stylommatophora	-12.6447
▁tridentatus	-12.6447
▁veleronis	-12.6447
▁zetlandica	-12.6447
argalista	-12.6447
astroceramus	-12.6447
diplodasys	-12.6447
ophiomisidium	-12.6447
taguahelix	-12.6447
▁ginikanan	-12.6447
archepsilonema	-12.6447
axionice	-12.6447
pygospio	-12.6447
galaxea	-12.6447
trissonchulus	-12.6447
monoplex	-12.6447
costaticella	-12.6447
striodentalium	-12.6447
rhodope	-12.6447
rhodolaimus	-12.6448
▁glypta	-12.6448
saccella	-12.6449
artigue	-12.6466
ralpharia	-12.6483
▁ototyphlonemert	-12.6497
tardigrada	-12.6553
▁zehntner	-12.6679
arhynchite	-12.6679
dougaloplus	-12.6679
macandrevia	-12.6679
marilynia	-12.6679
ommastrephes	-12.6679
proalinopsis	-12.6679
pterozonium	-12.6679
schizotheca	-12.6679
spurlingia	-12.6679
toxolasma	-12.6679
travisiopsis	-12.6679
▁caerulea	-12.6679
▁desmacellidae	-12.6679
▁halcampidae	-12.6679
▁hexactinellida	-12.6679
▁kawhaan	-12.6679
▁magbabalak	-12.6679
▁nagkalainlain	-12.6679
▁oncousoeciidae	-12.6679
▁thraciidae	-12.6679
▁tripyloididae	-12.6679
aspidostoma	-12.6679
notaulax	-12.6679
▁wikipedya	-12.6679
diplopteraster	-12.6679
heterocirrus	-12.6679
iridogorgia	-12.6679
strigilla	-12.668
watersipora	-12.668
▁nagpabilin	-12.668
macandrewia	-12.6705
▁koellikeri	-12.6839
▁abietina	-12.6891
▁levenstein	-12.6917
▁littorini	-12.6917
▁ortodokso	-12.6917
arachnanthus	-12.6917
bathydorus	-12.6917
charactopygus	-12.6917
columbella	-12.6917
cyphoma	-12.6917
eudistylia	-12.6917
guillaume	-12.6917
halosydnella	-12.6917
inespanyol	-12.6917
macrodactyla	-12.6917
ophiurolepis	-12.6917
parasphaerascler	-12.6917
▁alcicornis	-12.6917
▁belgicae	-12.6917
▁caespitosa	-12.6917
▁californicum	-12.6917
▁campanulinidae	-12.6917
▁carinifera	-12.6917
▁corrugatus	-12.6917
▁cupuladriidae	-12.6917
▁cyclostomatida	-12.6917
▁cylindricus	-12.6917
▁erythraea	-12.6917
▁flabellifer	-12.6917
▁giganteum	-12.6917
▁hartmeyeri	-12.6917
▁hummelincki	-12.6917
▁kieschnick	-12.6917
▁lankesteri	-12.6917
▁longisetis	-12.6917
▁longispinus	-12.6917
▁macrodasyidae	-12.6917
▁matsumoto	-12.6917
▁mitsukurii	-12.6917
▁myriopathidae	-12.6917
▁novaecaledoniae	-12.6917
▁oculatus	-12.6917
▁porrecta	-12.6917
▁quadrilobata	-12.6917
▁reticulatum	-12.6917
▁reticulum	-12.6917
▁spitzbergensis	-12.6917
▁terrestris	-12.6917
▁tricuspida	-12.6917
▁uniserialis	-12.6917
▁uttley	-12.6917
▁weltner	-12.6917
heliacus	-12.6917
assiminea	-12.6917
hadlok	-12.6917
sabellastarte	-12.6918
helicarion	-12.7161
municipal	-12.7161
diyalekto	-12.7161
anethoporus	-12.7161
arachnidium	-12.7161
bathyglycinde	-12.7161
beethoven	-12.7161
boccardiella	-12.7161
calcarobiotus	-12.7161
cellicephaloides	-12.7161
cerithidea	-12.7161
coscinaraea	-12.7161
dysponetus	-12.7161
epistreptus	-12.7161
galathowenia	-12.7161
hippothyris	-12.7161
independen	-12.7161
laevicardium	-12.7161
lepidonotopodium	-12.7161
microscleroderma	-12.7161
mitrocomella	-12.7161
oncholaimellus	-12.7161
ophiobyrsa	-12.7161
pneumodermopsis	-12.7161
rhabdochona	-12.7161
sphaerotheriidae	-12.7161
sphaerotylus	-12.7161
storthophorus	-12.7161
stylophora	-12.7161
thorectandra	-12.7161
typhloscolex	-12.7161
uniporodrilus	-12.7161
valdemunitella	-12.7161
▁anonyma	-12.7161
▁aucklandica	-12.7161
▁bavestrello	-12.7161
▁borojevi	-12.7161
▁costellariidae	-12.7161
▁entalinidae	-12.7161
▁jirkov	-12.7161
▁mononchidae	-12.7161
▁nierstrasz	-12.7161
▁okutani	-12.7161
▁phascoliidae	-12.7161
▁pholadidae	-12.7161
▁ptychoderidae	-12.7161
▁rhizangiidae	-12.7161
▁teredinidae	-12.7161
▁velutinidae	-12.7161
diplolaimella	-12.7161
laomedea	-12.7161
orchistoma	-12.7161
▁tenuispicula	-12.7161
faverolles	-12.7161
sphaeriodiscus	-12.7161
▁albatrossi	-12.7161
rhophodon	-12.7161
penitella	-12.7162
bugulella	-12.7162
rhynchospio	-12.7169
aedicira	-12.7411
anthemiphyllia	-12.7411
doriopsilla	-12.7411
epipolasis	-12.7411
ktenostreptus	-12.7411
leodamas	-12.7411
listriolobus	-12.7411
phragmatopoma	-12.7411
pyramidella	-12.7411
rchitectonicidae	-12.7411
spathipora	-12.7411
stauridiosarsia	-12.7411
tetrocycloecia	-12.7411
tripoplax	-12.7411
tubiluchus	-12.7411
turritopsis	-12.7411
▁administratibo	-12.7411
▁antennata	-12.7411
▁anthothelidae	-12.7411
▁baculifer	-12.7411
▁bilamellata	-12.7411
▁caliculata	-12.7411
▁camallanidae	-12.7411
▁distinctus	-12.7411
▁hertwig	-12.7411
▁hirohito	-12.7411
▁illiosentidae	-12.7411
▁inopinata	-12.7411
▁iotrochotidae	-12.7411
▁kardenal	-12.7411
▁macintoshi	-12.7411
▁macquariensis	-12.7411
▁margaritacea	-12.7411
▁multicostata	-12.7411
▁nesiotes	-12.7411
▁patagonicus	-12.7411
▁phillipensis	-12.7411
▁propinquus	-12.7411
▁radiatus	-12.7411
▁rostratus	-12.7411
▁stanisic	-12.7411
▁sumusunod	-12.7411
▁temperatura	-12.7411
▁unicornis	-12.7411
hugpong	-12.7411
thouars	-12.7411
▁farquhar	-12.7411
robertsonidra	-12.7411
▁cochlear	-12.7411
bâtie	-12.7411
kategoriya	-12.7412
disyembre	-12.7566
normand	-12.7647
cleidochasma	-12.7663
acanthopharynx	-12.7668
acremodontina	-12.7668
acutogordius	-12.7668
aimulosia	-12.7668
caobangia	-12.7668
cephalothricidae	-12.7668
chiridota	-12.7668
chonaphe	-12.7668
congopyge	-12.7668
crateritheca	-12.7668
dactylopodola	-12.7668
dentatisyllis	-12.7668
diplobrachia	-12.7668
eguchipsammia	-12.7668
eleutherolaimus	-12.7668
eosphora	-12.7668
eulepethus	-12.7668
falcidens	-12.7668
fastosarion	-12.7668
galadistes	-12.7668
galeolaria	-12.7668
haplocochlias	-12.7668
hipponix	-12.7668
lirularia	-12.7668
malacosaccus	-12.7668
mauritixenus	-12.7668
minervois	-12.7668
myliusia	-12.7668
neoturris	-12.7668
nephridiacanthus	-12.7668
octopoteuthis	-12.7668
ophiostigma	-12.7668
ostertagia	-12.7668
paradontophora	-12.7668
perknaster	-12.7668
petaloconchus	-12.7668
petalostegus	-12.7668
petromica	-12.7668
pillsburiaster	-12.7668
plesiothoa	-12.7668
pomphorhynchidae	-12.7668
priapulus	-12.7668
psammoryctides	-12.7668
pselionema	-12.7668
pulusphaera	-12.7668
rhinoclama	-12.7668
rhizosmilia	-12.7668
schizosmittina	-12.7668
sclerolinum	-12.7668
scyphidium	-12.7668
solariorbis	-12.7668
soleneiscus	-12.7668
subadyte	-12.7668
talivittaticella	-12.7668
tesseracme	-12.7668
tethocyathus	-12.7668
thairopora	-12.7668
thalassodrilides	-12.7668
veretillum	-12.7668
xystocheir	-12.7668
▁bertolani	-12.7668
<	-13.8145
