<unk>	0
<s>	0
</s>	0
.	-3.34384
,	-3.46488
▁a	-3.98047
▁	-3.98895
▁v	-4.01286
a	-4.28455
y	-4.39484
u	-4.48396
▁se	-4.50523
m	-4.59451
▁na	-4.65735
▁s	-4.88275
i	-4.91265
▁je	-4.99794
▁z	-5.02194
ch	-5.03693
"	-5.15001
▁(	-5.15117
o	-5.16243
s	-5.27969
ho	-5.36094
em	-5.38357
▁do	-5.40885
ů	-5.43063
▁k	-5.43708
í	-5.4554
e	-5.47116
▁po	-5.53832
▁o	-5.57943
▁"	-5.64606
▁i	-5.68117
▁pro	-5.69764
á	-5.72185
é	-5.75208
##	-5.7719
▁za	-5.79278
)	-5.80412
▁ve	-5.80831
="	-5.83295
c	-5.84206
t	-5.85326
ou	-5.90555
▁od	-5.91375
▁jako	-5.94476
▁byl	-6.03658
d	-6.07393
ž	-6.08031
z	-6.09308
ní	-6.11825
▁roce	-6.1203
mi	-6.12055
▁že	-6.13457
▁u	-6.16464
l	-6.18071
▁roku	-6.19304
ý	-6.2237
▁jeho	-6.22578
ě	-6.2574
).	-6.2788
k	-6.28953
▁jsou	-6.3122
v	-6.33615
ce	-6.36335
-	-6.3832
ně	-6.38364
▁při	-6.39963
doc	-6.42256
▁c	-6.43132
>	-6.43302
:	-6.45902
ové	-6.49645
▁které	-6.49848
n	-6.52299
r	-6.53372
),	-6.53501
▁byla	-6.55033
▁nebo	-6.56131
p	-6.58284
▁který	-6.59327
né	-6.60119
ka	-6.60247
ci	-6.61526
▁ne	-6.61728
na	-6.63234
▁to	-6.64176
▁ale	-6.65199
▁také	-6.65333
/	-6.67998
▁„	-6.69087
ých	-6.71088
▁–	-6.71384
la	-6.7201
li	-6.73239
č	-6.74254
ná	-6.75058
it	-6.78793
ky	-6.79286
▁mezi	-6.79529
b	-6.81575
▁bylo	-6.82369
ské	-6.83721
h	-6.83768
ku	-6.84318
le	-6.9039
▁však	-6.935
▁až	-6.93895
▁tak	-6.93989
š	-6.9717
▁století	-6.97322
▁pod	-6.97344
▁která	-6.97681
▁ze	-6.99667
▁před	-7.00292
▁18	-7.0037
mu	-7.00763
▁id	-7.05238
org	-7.05738
lo	-7.06122
?	-7.06163
▁podle	-7.07936
▁první	-7.08467
wiki	-7.08483
cs	-7.08903
▁let	-7.09576
ech	-7.0973
▁má	-7.10185
st	-7.10334
wikipedia	-7.11664
://	-7.11997
ategorie	-7.12004
urid	-7.12162
https	-7.12198
▁url	-7.124
▁<	-7.12501
▁title	-7.12573
▁</	-7.12739
ný	-7.12818
ta	-7.1295
in	-7.14155
ská	-7.14343
ová	-7.1535
j	-7.15447
nou	-7.16021
cí	-7.17768
▁si	-7.18916
▁pře	-7.19143
▁či	-7.20064
▁de	-7.20381
to	-7.2063
uje	-7.21987
ne	-7.22048
po	-7.22849
ého	-7.23876
▁m	-7.24823
▁byly	-7.24983
“	-7.25072
al	-7.25469
▁kde	-7.25792
ovat	-7.2603
;	-7.26987
en	-7.28266
g	-7.29864
me	-7.30373
▁jejich	-7.31743
ř	-7.32414
",	-7.32999
no	-7.34274
ský	-7.3453
f	-7.35931
▁již	-7.36408
ných	-7.36477
va	-7.3902
ského	-7.393
▁své	-7.39427
▁další	-7.39564
ře	-7.40167
ových	-7.40235
▁pak	-7.41176
▁než	-7.41866
ra	-7.42215
▁být	-7.42687
▁letech	-7.43895
kou	-7.45442
ek	-7.45707
▁re	-7.45822
=	-7.48053
ny	-7.48488
▁by	-7.48596
ým	-7.48852
▁ke	-7.49593
▁roz	-7.50172
ování	-7.52016
ie	-7.5342
er	-7.53447
ni	-7.53871
ovi	-7.53876
oval	-7.53973
▁l	-7.54013
▁proti	-7.55764
ům	-7.56376
ova	-7.5662
▁území	-7.5699
▁jen	-7.58951
el	-7.5904
ov	-7.60919
il	-7.61195
ských	-7.61784
ti	-7.6226
▁kon	-7.62536
at	-7.62812
▁d	-7.63174
ách	-7.63216
▁pouze	-7.63325
▁aby	-7.63538
ří	-7.63552
x	-7.63724
▁například	-7.63963
▁země	-7.64035
se	-7.64362
▁("	-7.64588
ko	-7.6543
ují	-7.65522
ze	-7.65908
▁mu	-7.6594
▁co	-7.66431
vá	-7.67269
▁později	-7.673
▁b	-7.67625
skou	-7.67768
ovou	-7.67904
▁zde	-7.6799
▁%	-7.68913
re	-7.69426
▁kdy	-7.6962
▁1	-7.69833
▁může	-7.69841
▁ú	-7.69851
▁ho	-7.70022
dě	-7.71047
▁během	-7.71619
je	-7.71662
▁velmi	-7.71772
ově	-7.71959
te	-7.72301
▁což	-7.72796
de	-7.72958
da	-7.73232
▁formula	-7.7325
▁nad	-7.73782
sa	-7.74256
▁ob	-7.75447
▁více	-7.75686
▁jak	-7.75968
▁přes	-7.76071
co	-7.76438
ba	-7.77201
▁tedy	-7.77888
ový	-7.78027
2	-7.79121
▁její	-7.79764
▁tzv	-7.79949
ma	-7.80068
is	-7.80209
or	-7.80694
▁když	-7.81162
▁města	-7.81208
▁lze	-7.81213
ry	-7.81602
▁bez	-7.82208
▁pří	-7.82215
▁p	-7.8244
▁době	-7.82475
▁n	-7.82722
lu	-7.83677
ků	-7.83811
▁stal	-7.84388
čí	-7.84468
▁t	-7.84666
za	-7.84748
ného	-7.8488
tu	-7.84979
či	-7.85188
ro	-7.85622
by	-7.86132
▁h	-7.86283
ické	-7.86417
▁proto	-7.87043
▁např	-7.87205
▁především	-7.87241
ru	-7.87589
▁tento	-7.87813
▁nich	-7.88501
če	-7.88812
on	-7.89185
ním	-7.89231
3	-7.89453
vi	-7.89865
ace	-7.89882
us	-7.8992
▁patří	-7.90099
tá	-7.90161
".	-7.90868
ři	-7.92002
▁období	-7.92033
át	-7.92236
▁české	-7.92354
ká	-7.92812
cích	-7.92842
do	-7.92897
nu	-7.93178
▁této	-7.93514
▁2	-7.93924
▁ko	-7.94067
vě	-7.94188
ly	-7.94229
lé	-7.94894
ální	-7.94984
▁17	-7.94984
ních	-7.95071
et	-7.95538
w	-7.96284
▁zejména	-7.96485
sko	-7.966
▁ještě	-7.97068
▁není	-7.9723
hl	-7.97429
kem	-7.97465
▁část	-7.97916
an	-7.97957
že	-7.9805
▁3	-7.98963
ec	-7.99526
▁často	-8.01066
▁15	-8.01151
id	-8.01306
tě	-8.01636
▁g	-8.01666
▁nej	-8.02177
ství	-8.02333
si	-8.03861
rá	-8.04293
ter	-8.04334
▁měl	-8.04457
mo	-8.04514
▁ma	-8.0487
▁několik	-8.05138
ň	-8.054
ší	-8.05441
ty	-8.05988
ve	-8.06041
vy	-8.06134
aci	-8.06139
▁mají	-8.06195
lí	-8.06328
▁in	-8.06824
od	-8.07119
▁r	-8.07244
ál	-8.07293
▁f	-8.07548
▁dále	-8.0799
kteří	-8.08408
ční	-8.08508
▁velké	-8.08594
▁la	-8.089
ii	-8.09086
ův	-8.09676
▁ji	-8.09803
▁obyvatel	-8.10466
▁(19	-8.1073
▁16	-8.10797
vol	-8.10923
▁oblasti	-8.11144
▁000	-8.11759
▁tím	-8.11798
▁války	-8.12768
▁ra	-8.12827
▁ta	-8.1285
os	-8.12894
ující	-8.12926
án	-8.14504
")	-8.14607
pl	-8.14847
ích	-8.15135
ice	-8.15141
▁části	-8.15521
▁tyto	-8.15594
nost	-8.15746
ji	-8.15779
kon	-8.15853
du	-8.15887
▁e	-8.15923
▁20.	-8.16018
ví	-8.16086
pa	-8.16768
▁mnoho	-8.16817
ost	-8.16914
▁protože	-8.17109
ným	-8.17323
0	-8.17474
lá	-8.17732
5	-8.17933
▁asi	-8.17997
ha	-8.1808
▁poté	-8.18235
▁byli	-8.18269
▁město	-8.18551
▁všech	-8.18685
▁rok	-8.18751
ob	-8.18867
▁č	-8.18902
▁tato	-8.18961
=1	-8.19002
pe	-8.19115
ém	-8.19259
▁ani	-8.19448
ového	-8.1945
di	-8.19505
▁hlavní	-8.19933
▁ba	-8.20126
▁km	-8.20469
4	-8.21364
▁tomu	-8.21768
▁doby	-8.21805
es	-8.22088
▁dalších	-8.2211
▁některé	-8.22379
▁jan	-8.22727
–	-8.22934
ovy	-8.23127
1	-8.23244
nější	-8.23366
▁svého	-8.23403
ami	-8.23729
še	-8.23825
▁už	-8.24093
ó	-8.24762
▁těchto	-8.25263
vý	-8.25532
ú	-8.25576
▁též	-8.25951
▁vlastní	-8.26519
nosti	-8.26688
▁druhé	-8.2674
▁svou	-8.26801
▁ha	-8.26805
ul	-8.26949
▁spolu	-8.26982
jí	-8.27241
▁dvou	-8.27406
ska	-8.27692
ými	-8.27932
▁pokud	-8.28297
ur	-8.28402
ad	-8.28781
▁kolem	-8.28953
ení	-8.28975
▁největší	-8.29592
▁mohou	-8.30053
ované	-8.30703
“.	-8.30707
sku	-8.30735
▁tohoto	-8.30736
▁4	-8.31019
▁systém	-8.31053
bu	-8.31169
▁větší	-8.31283
▁14	-8.31439
▁toho	-8.31675
▁život	-8.31889
▁ru	-8.32298
ických	-8.32381
men	-8.32393
ing	-8.32631
–19	-8.32752
díky	-8.32907
▁10	-8.33002
dy	-8.33258
▁množství	-8.33363
ot	-8.34096
▁ná	-8.34169
ců	-8.34482
osti	-8.34766
▁tři	-8.34839
▁dne	-8.35017
▁per	-8.35584
▁mar	-8.35824
▁kom	-8.35848
sky	-8.35988
dr	-8.3609
▁státní	-8.36117
man	-8.36209
ám	-8.36343
tí	-8.36471
▁jiné	-8.3654
▁pa	-8.37326
▁kterou	-8.37352
ovým	-8.37374
val	-8.37753
▁5	-8.37843
ští	-8.37901
▁všechny	-8.38029
ga	-8.381
▁vlády	-8.38181
zi	-8.38302
10	-8.38324
prav	-8.38476
00	-8.38518
ická	-8.38604
tra	-8.38627
▁syn	-8.38712
ej	-8.39379
▁dva	-8.39403
ím	-8.39566
ck	-8.3964
▁1.	-8.39746
▁některých	-8.39888
žen	-8.39953
nit	-8.40041
▁12	-8.40817
▁tvoří	-8.40827
▁bo	-8.40835
6	-8.41077
▁počet	-8.41194
ent	-8.41342
ským	-8.42005
▁př	-8.42077
▁došlo	-8.42132
tel	-8.42132
▁jeden	-8.42391
▁světové	-8.42767
vat	-8.42836
“,	-8.4285
ber	-8.42899
th	-8.43891
▁her	-8.43967
▁š	-8.44142
ního	-8.44232
▁celé	-8.44353
▁hor	-8.4439
pro	-8.44472
▁místo	-8.44726
bi	-8.44799
▁základní	-8.44839
▁dvě	-8.4501
ání	-8.45058
▁13	-8.45123
▁světa	-8.45369
ť	-8.45661
▁19.	-8.45845
▁zatím	-8.45944
ši	-8.46563
ický	-8.46907
▁svých	-8.46949
▁autor	-8.47091
▁toto	-8.47248
▁film	-8.4752
bo	-8.4788
▁nové	-8.47971
tor	-8.48872
▁pomocí	-8.49253
|	-8.49366
▁jazyk	-8.49468
▁zemi	-8.49589
ol	-8.49789
▁kromě	-8.49833
▁té	-8.49888
▁mo	-8.49913
ovala	-8.50113
▁zemí	-8.50466
▁ovšem	-8.50794
ver	-8.50794
▁říše	-8.50802
▁strany	-8.50807
▁svět	-8.51261
vůli	-8.51395
▁di	-8.51486
▁ii	-8.51514
ském	-8.51805
▁stále	-8.51882
▁mimo	-8.52202
▁poslední	-8.52224
um	-8.52291
ri	-8.52586
ven	-8.52907
▁něm	-8.53034
ge	-8.53241
op	-8.533
▁světě	-8.53483
▁života	-8.53904
▁nachází	-8.54005
▁dnes	-8.54059
ila	-8.54105
▁kr	-8.54159
▁-	-8.54168
rod	-8.54258
8	-8.54415
ina	-8.54648
▁používá	-8.54653
vod	-8.54752
▁začal	-8.5477
▁většina	-8.54888
nice	-8.55303
zna	-8.55309
▁západní	-8.55473
▁smrti	-8.55633
ir	-8.55763
▁význam	-8.56004
▁obvykle	-8.5613
").	-8.56275
ton	-8.56279
▁bar	-8.56448
▁jej	-8.5665
▁několika	-8.56774
ant	-8.56831
▁pi	-8.57076
▁součástí	-8.57199
▁čas	-8.57324
ován	-8.57874
▁le	-8.57984
▁společnosti	-8.58113
hr	-8.58126
▁6	-8.58182
▁září	-8.58412
▁národní	-8.58566
▁jižní	-8.58935
iv	-8.5895
_	-8.5898
ickou	-8.58983
▁různých	-8.59073
su	-8.59151
▁rozdíl	-8.59343
ací	-8.59481
▁titul	-8.59626
např	-8.59678
▁če	-8.59885
▁jedno	-8.59889
▁tr	-8.60355
▁be	-8.60372
téměř	-8.60496
▁te	-8.60551
ismus	-8.60579
len	-8.60646
▁získal	-8.60784
lin	-8.60969
7	-8.6132
stav	-8.61491
▁zákon	-8.61543
▁ten	-8.61569
▁nakonec	-8.61691
▁název	-8.61929
▁nez	-8.62039
▁mezinárodní	-8.62139
bě	-8.6221
▁ti	-8.62342
▁he	-8.62439
▁7	-8.62521
▁rovněž	-8.62529
mat	-8.62704
ště	-8.62871
▁severní	-8.62885
▁měla	-8.63074
▁slov	-8.63102
▁státu	-8.63133
kové	-8.63383
▁jedna	-8.63552
ut	-8.63667
"),	-8.63702
▁vliv	-8.63744
▁pan	-8.63778
▁den	-8.64068
sti	-8.64113
zí	-8.64258
den	-8.64826
▁ro	-8.64915
▁kar	-8.65112
▁řád	-8.65432
tr	-8.65477
▁sta	-8.65479
'	-8.65552
▁jež	-8.65568
▁postupně	-8.65659
▁teorie	-8.65831
ic	-8.65859
ar	-8.6594
▁střední	-8.65967
gen	-8.65976
▁dnešní	-8.66004
▁zemřel	-8.66205
let	-8.66244
▁stát	-8.6625
▁mnoha	-8.66459
▁tu	-8.66622
▁někdy	-8.66832
hu	-8.6687
▁děl	-8.66871
▁prostředí	-8.66958
▁pe	-8.67156
▁ex	-8.67833
kr	-8.67893
ismu	-8.68017
▁tomto	-8.68036
str	-8.68246
▁válce	-8.68291
▁stejně	-8.68349
▁listopadu	-8.68552
▁případě	-8.68632
ev	-8.6908
▁stav	-8.69177
▁možné	-8.69182
pad	-8.69187
▁republiky	-8.69421
▁moc	-8.69449
▁lidí	-8.6956
té	-8.69897
roz	-8.70021
ační	-8.7009
▁vznik	-8.70116
▁zároveň	-8.70475
▁svůj	-8.70671
son	-8.70854
▁ni	-8.71013
▁nepo	-8.71078
br	-8.71116
▁rámci	-8.71129
form	-8.71173
av	-8.71248
▁sil	-8.71372
▁mil	-8.71911
▁ty	-8.72108
▁východní	-8.72292
be	-8.72323
▁vývoj	-8.72335
ovací	-8.72361
▁8	-8.72381
▁přibližně	-8.72524
▁přímo	-8.72729
un	-8.72756
ja	-8.72787
▁os	-8.72981
▁něj	-8.73064
▁usa	-8.73065
▁ja	-8.73554
▁bude	-8.73873
▁král	-8.74151
ili	-8.74204
zen	-8.74795
▁the	-8.74869
50	-8.74876
ického	-8.74954
▁jiných	-8.75034
▁prvním	-8.7527
▁musí	-8.75362
▁včetně	-8.75419
▁pra	-8.75617
▁energie	-8.75694
▁praze	-8.75705
▁nejvyšší	-8.75729
dl	-8.75949
stat	-8.76029
▁al	-8.76282
ovali	-8.76366
tivní	-8.76424
▁stala	-8.76452
ována	-8.76669
▁moderní	-8.76732
▁systému	-8.76754
▁většinou	-8.76963
lou	-8.77492
▁zcela	-8.77502
▁považován	-8.78119
▁pl	-8.78164
ština	-8.78195
▁historie	-8.78239
ají	-8.78566
▁j	-8.78599
▁(18	-8.78605
bou	-8.78831
liv	-8.78913
▁evropě	-8.79108
▁opět	-8.79151
mon	-8.79222
▁karel	-8.79236
▁skupiny	-8.79496
lit	-8.79503
▁jedná	-8.79547
▁práce	-8.79638
ran	-8.7964
▁rad	-8.7967
▁států	-8.79733
▁království	-8.79766
▁konce	-8.79916
uk	-8.80546
▁hrad	-8.80591
les	-8.80808
▁základě	-8.8096
ín	-8.80977
▁hlavním	-8.81216
▁pohyb	-8.81403
ovány	-8.81466
▁w	-8.81649
kov	-8.8169
tý	-8.8169
vr	-8.81978
▁církve	-8.81989
▁dokonce	-8.81991
20	-8.82009
▁dle	-8.82051
▁český	-8.82172
▁tisíc	-8.82347
tur	-8.82434
ici	-8.8245
ček	-8.82523
▁svým	-8.8257
▁jí	-8.8261
▁dílo	-8.82785
▁neboť	-8.82926
nění	-8.82945
so	-8.82999
▁císař	-8.8306
▁jedním	-8.83763
ón	-8.83788
pol	-8.83862
▁českých	-8.8389
fi	-8.84017
30	-8.84119
▁pre	-8.84182
dí	-8.84219
del	-8.84489
ovaly	-8.84653
▁měst	-8.84846
▁spojen	-8.85006
▁postup	-8.85148
▁vyh	-8.85152
▁právě	-8.8521
▁li	-8.85387
▁konci	-8.85563
▁jméno	-8.85711
▁obě	-8.86005
▁jejím	-8.86091
ak	-8.86112
▁umění	-8.86169
ok	-8.86299
▁května	-8.86378
nými	-8.86413
▁mohl	-8.86446
stup	-8.86553
▁vol	-8.8667
ovo	-8.8673
nes	-8.86748
▁fa	-8.86902
bit	-8.87079
▁naopak	-8.8724
▁mal	-8.87491
ér	-8.87527
▁následující	-8.8754
ö	-8.87626
▁osob	-8.87787
tek	-8.87884
▁funkce	-8.87936
ist	-8.87985
nd	-8.8813
vo	-8.88385
led	-8.88742
nil	-8.89034
▁lu	-8.89041
lt	-8.89064
▁tom	-8.89127
▁moře	-8.89456
▁sám	-8.89611
▁vyp	-8.89641
▁vyšší	-8.89644
▁pole	-8.89748
▁•	-8.8975
▁přičemž	-8.8991
▁původní	-8.89926
▁neu	-8.90075
▁prezident	-8.90123
iny	-8.90389
sk	-8.90409
sta	-8.90554
▁11	-8.90609
ia	-8.907
▁ju	-8.90762
▁znovu	-8.90854
19	-8.90869
▁městě	-8.9089
▁ní	-8.90945
▁soud	-8.91083
▁prosince	-8.91327
▁čtyři	-8.91407
▁různé	-8.91438
▁způsob	-8.91597
▁ledna	-8.91697
▁čtyř	-8.91768
▁x	-8.91809
▁rod	-8.91815
▁znám	-8.91965
▁poprvé	-8.91971
▁avšak	-8.92051
▁ga	-8.92135
▁evropské	-8.92174
átor	-8.92314
▁kor	-8.92523
▁původně	-8.92721
▁tehdy	-8.92759
▁práva	-8.92819
hled	-8.92842
▁října	-8.92863
▁vláda	-8.92994
bil	-8.9301
ající	-8.93101
▁označení	-8.93215
▁hnutí	-8.93556
(	-8.93617
pí	-8.93651
25	-8.93718
tin	-8.93728
▁počátku	-8.93763
bá	-8.93851
per	-8.93969
eb	-8.93993
▁biskup	-8.9401
▁plán	-8.94012
▁nor	-8.94139
▁společnost	-8.94334
▁du	-8.94379
▁jo	-8.94418
60	-8.94451
nik	-8.94481
▁ar	-8.94663
▁20	-8.94795
zá	-8.94813
▁díla	-8.94848
▁0	-8.94852
ika	-8.94955
▁mat	-8.95051
▁síly	-8.9518
▁me	-8.95217
ovaných	-8.95321
▁března	-8.95421
mal	-8.95434
aj	-8.95479
▁vydal	-8.95489
čen	-8.95633
ps	-8.95722
▁vždy	-8.95764
▁nes	-8.95774
▁tří	-8.95905
▁nejstarší	-8.95923
▁níž	-8.95952
▁nedo	-8.95997
▁9	-8.96037
▁června	-8.96102
▁vz	-8.96137
▁kalendáře	-8.96235
▁státy	-8.96328
nutí	-8.96385
▁2.	-8.96472
▁václav	-8.96494
▁každý	-8.96576
ké	-8.96586
der	-8.9671
▁třetí	-8.96783
▁da	-8.96826
▁vytvořil	-8.96852
▁go	-8.96879
ník	-8.96961
ič	-8.97228
▁navíc	-8.97283
▁led	-8.97306
the	-8.97363
▁kulturní	-8.97404
40	-8.97512
▁sp	-8.97568
▁vys	-8.97587
▁of	-8.97636
_1	-8.9775
15	-8.97897
80	-8.98018
▁op	-8.98106
and	-8.9813
▁vztah	-8.98174
▁krále	-8.98259
ü	-8.98303
▁vody	-8.98501
vé	-8.98548
▁evropy	-8.98562
▁tam	-8.98693
▁dobu	-8.98717
▁července	-8.98727
▁hvězd	-8.98729
▁boj	-8.9884
plat	-8.98879
zo	-8.98946
dá	-8.98973
▁organizace	-8.99001
▁náboženství	-8.99081
▁nový	-8.99274
ster	-8.99435
vin	-8.99564
▁velký	-8.99591
▁model	-8.99754
▁německé	-8.99822
ární	-8.99844
ném	-8.99921
▁vzniku	-9.00135
▁nicméně	-9.00215
nout	-9.00248
ovaný	-9.00406
ten	-9.00483
▁literární	-9.00565
▁malé	-9.0061
▁tuto	-9.00688
▁sv	-9.0081
ron	-9.01044
▁proces	-9.01148
tů	-9.01245
▁stál	-9.01262
▁tur	-9.01263
▁oblast	-9.01268
▁hus	-9.01346
▁práv	-9.01474
iz	-9.01631
▁plat	-9.01715
go	-9.01807
ke	-9.01851
tře	-9.01896
tické	-9.02083
▁program	-9.02274
12	-9.02372
▁dr	-9.02376
90	-9.02486
▁jde	-9.02552
▁přístup	-9.02598
▁svém	-9.02704
tem	-9.02785
18	-9.03018
▁korun	-9.03107
čin	-9.03123
▁kol	-9.03228
▁uveden	-9.03276
▁použití	-9.03279
▁inter	-9.03461
itu	-9.03516
ium	-9.0353
11	-9.03549
ější	-9.03582
▁začala	-9.03657
▁dubna	-9.03744
▁oh	-9.03751
▁vodní	-9.03871
▁°	-9.03894
▁no	-9.04053
▁klad	-9.04133
land	-9.04148
nic	-9.04163
▁gal	-9.04267
▁menší	-9.04331
▁symbol	-9.04416
▁průběhu	-9.04429
▁rychlost	-9.04554
ovalo	-9.04674
▁knih	-9.04739
▁vznikl	-9.04939
▁des	-9.05033
▁českého	-9.05059
▁kraj	-9.0521
icky	-9.05289
čka	-9.05311
gu	-9.05428
▁hudební	-9.05526
▁řada	-9.05657
rou	-9.05692
▁mnoh	-9.05702
ag	-9.0578
▁nevy	-9.05901
ard	-9.06176
gi	-9.06177
▁právo	-9.06268
▁plyn	-9.06469
▁rostlin	-9.06581
28	-9.067
▁dal	-9.06826
▁roli	-9.06837
▁popis	-9.06838
▁dalším	-9.07094
ex	-9.07202
istické	-9.07291
rt	-9.07301
▁román	-9.07348
ff	-9.07378
▁verze	-9.07401
▁dostal	-9.07429
měř	-9.07447
▁vzhledem	-9.07492
há	-9.07522
▁papež	-9.07544
▁vnitřní	-9.07581
▁místní	-9.0765
pis	-9.07899
ď	-9.07924
▁právní	-9.07934
kách	-9.08077
26	-9.08117
ala	-9.08118
▁motor	-9.08191
▁et	-9.08225
▁nebyl	-9.08321
rb	-9.08322
▁nejen	-9.08415
sil	-9.08504
sp	-9.08685
▁bi	-9.0888
▁josef	-9.09025
▁slunce	-9.09103
▁srpna	-9.09103
sto	-9.09167
▁zhruba	-9.09211
▁dříve	-9.09305
▁nazývá	-9.09323
▁vrchol	-9.09337
▁vzor	-9.09363
stra	-9.09434
▁svaz	-9.09524
▁projev	-9.09591
▁mas	-9.09625
▁současné	-9.09648
29	-9.09743
▁jim	-9.0977
▁nejsou	-9.0978
▁sice	-9.0984
klád	-9.09893
sen	-9.09919
▁hlavně	-9.09981
sel	-9.10067
70	-9.10093
▁napsal	-9.10097
ler	-9.10111
▁an	-9.10192
álně	-9.10306
▁slova	-9.10316
24	-9.10512
▁skupina	-9.10528
▁vznikla	-9.1053
▁dat	-9.1057
mer	-9.10674
▁pu	-9.10675
und	-9.10687
▁věd	-9.10748
21	-9.10766
▁jazyka	-9.10826
▁eu	-9.10846
tan	-9.10873
▁důsledk	-9.10908
hy	-9.10928
▁jednoho	-9.1095
▁zemích	-9.1107
▁gen	-9.11141
▁spíše	-9.11277
▁následně	-9.11358
ll	-9.11419
▁živ	-9.11444
ita	-9.11481
▁obsahuje	-9.11497
ovu	-9.11509
▁straně	-9.11541
▁30	-9.11551
ren	-9.11606
▁text	-9.11642
▁místě	-9.11653
rom	-9.11659
klad	-9.11674
▁pr	-9.11684
27	-9.1173
98	-9.11745
res	-9.11773
▁fi	-9.11784
▁mělo	-9.11811
ovými	-9.11872
▁gu	-9.11961
din	-9.12004
▁alexandr	-9.1202
▁jednou	-9.12052
▁celý	-9.12131
ed	-9.12184
ráž	-9.12423
zem	-9.12461
▁třeba	-9.12482
ity	-9.12781
99	-9.12909
izaci	-9.12985
▁st	-9.13041
čení	-9.13127
vor	-9.13136
▁post	-9.13221
16	-9.13256
ine	-9.13391
dal	-9.13419
ováno	-9.13851
▁vede	-9.13927
kl	-9.13935
▁přesto	-9.13946
▁takové	-9.14029
▁obchodní	-9.14047
viz	-9.14133
▁politické	-9.14152
33	-9.14206
vu	-9.14258
▁spisovatel	-9.14303
mar	-9.14317
ner	-9.14383
▁velkou	-9.14389
▁par	-9.14412
▁=	-9.14417
34	-9.14422
▁narodil	-9.14424
▁výraz	-9.14485
85	-9.14536
ang	-9.14539
▁bu	-9.14607
▁vysoké	-9.1462
▁tri	-9.1476
36	-9.14776
▁působil	-9.14822
65	-9.14829
▁ostatní	-9.14859
▁obraz	-9.14898
pi	-9.1503
75	-9.15038
▁mě	-9.15076
▁takže	-9.15133
rov	-9.15163
▁and	-9.15175
▁znamená	-9.15228
▁velká	-9.15234
vět	-9.15311
▁druhů	-9.15318
ilo	-9.15381
ologie	-9.15592
▁lo	-9.15769
35	-9.15817
slav	-9.15841
95	-9.15938
▁existuje	-9.15944
▁izrael	-9.15944
▁sebe	-9.15944
▁roky	-9.16023
▁moci	-9.16109
▁polovině	-9.16252
▁jednotlivých	-9.16406
lat	-9.16465
žil	-9.16473
pra	-9.16532
31	-9.16556
▁francie	-9.16562
▁člen	-9.16702
▁okolo	-9.16773
▁méně	-9.16843
▁zařízení	-9.16872
bra	-9.17021
rie	-9.17049
ca	-9.17091
▁jednotky	-9.17193
bor	-9.17226
▁okolí	-9.1729
▁milionů	-9.17309
▁základ	-9.17325
ému	-9.17445
tou	-9.17524
▁100	-9.17612
nov	-9.1765
fa	-9.17844
ali	-9.17888
▁bratr	-9.17993
▁válka	-9.18145
▁sociální	-9.18205
▁hra	-9.18219
▁man	-9.1824
rk	-9.18245
ruš	-9.18263
arch	-9.18337
▁výkon	-9.18379
▁kap	-9.18481
▁cen	-9.18501
stře	-9.18568
lan	-9.18653
▁musel	-9.18676
▁proud	-9.18766
čímž	-9.18902
▁převážně	-9.18965
bal	-9.18978
42	-9.18982
▁podíl	-9.19081
zení	-9.19184
▁car	-9.19309
ik	-9.19545
▁anti	-9.19573
gr	-9.19627
pr	-9.19668
bl	-9.19675
48	-9.19679
rn	-9.19725
▁typ	-9.19802
pá	-9.19819
▁tvar	-9.19913
▁společně	-9.19922
pt	-9.19932
▁bývá	-9.2012
▁poměrně	-9.20179
▁názvem	-9.20242
min	-9.20249
ment	-9.20278
▁podobně	-9.20339
▁církev	-9.2037
fik	-9.20601
šení	-9.20659
▁mír	-9.2071
▁stalo	-9.20711
věd	-9.20873
▁hodin	-9.20892
nt	-9.20893
era	-9.20907
▁zvolen	-9.20909
▁úspěch	-9.20995
▁dlouho	-9.21062
▁podob	-9.21064
▁člověk	-9.21159
▁osobní	-9.21223
dit	-9.21266
ovaná	-9.21276
22	-9.21289
nul	-9.2147
▁dá	-9.21493
▁var	-9.21604
▁sto	-9.21628
▁metod	-9.21669
raz	-9.2168
92	-9.21681
▁armády	-9.21681
39	-9.21692
lad	-9.21697
▁původ	-9.21764
▁jana	-9.21802
▁druhy	-9.21836
▁sport	-9.21839
▁vrátil	-9.21872
▁celkem	-9.21893
▁kop	-9.21941
37	-9.22079
▁používají	-9.2219
ecký	-9.22203
▁elektron	-9.2225
▁leží	-9.22293
▁hranice	-9.22301
▁tehdejší	-9.22408
▁neo	-9.22416
▁směr	-9.22426
▁projekt	-9.22492
89	-9.22529
▁planet	-9.22567
lar	-9.22591
lik	-9.22751
67	-9.22783
▁starší	-9.22856
▁les	-9.22893
▁pochází	-9.22923
as	-9.23258
▁podařilo	-9.23288
49	-9.23377
vaz	-9.23393
▁mor	-9.23416
▁strana	-9.23453
ig	-9.23491
▁rychle	-9.23501
▁kód	-9.23537
▁obecně	-9.23559
bin	-9.23562
▁tlak	-9.23641
▁výzkum	-9.23718
rit	-9.2377
17	-9.23778
▁sam	-9.23822
43	-9.23838
pat	-9.23872
▁prostor	-9.23953
▁patřil	-9.24002
▁dochází	-9.24055
▁charakter	-9.24146
▁člověka	-9.24253
izace	-9.24275
9	-9.24284
ion	-9.24291
▁rozhodl	-9.24291
▁jedné	-9.24309
tal	-9.24394
▁současnosti	-9.2441
▁obou	-9.24482
bur	-9.24585
▁ter	-9.24626
▁soubor	-9.24633
97	-9.2466
&	-9.24696
▁železniční	-9.24846
▁jednání	-9.24894
isté	-9.24901
47	-9.24921
▁označuje	-9.2507
vají	-9.25193
64	-9.25195
▁výrazně	-9.25215
–18	-9.25227
▁číslo	-9.2523
14	-9.25237
▁stra	-9.25252
til	-9.25331
41	-9.254
68	-9.25401
bír	-9.25476
nut	-9.25524
lon	-9.25574
66	-9.2561
▁spojení	-9.25784
▁potřeb	-9.25972
▁populace	-9.25974
▁funkci	-9.26089
77	-9.26162
▁čech	-9.26381
▁hodnot	-9.26401
▁objev	-9.2643
▁pol	-9.26466
var	-9.26507
▁bod	-9.26561
nem	-9.26641
▁vlastnosti	-9.26839
▁polo	-9.26901
▁provoz	-9.26999
▁gregoriánské	-9.27
▁filmu	-9.27054
▁času	-9.27187
voz	-9.27227
▁pozdější	-9.27229
38	-9.27319
▁spojené	-9.27324
▁bio	-9.2737
▁ri	-9.27428
ková	-9.27454
▁dní	-9.27544
23	-9.27549
▁jejichž	-9.27578
▁th	-9.27592
▁městem	-9.27594
fr	-9.27637
55	-9.27661
▁hry	-9.27837
96	-9.279
▁někteří	-9.27954
ger	-9.27969
krát	-9.28002
rop	-9.28043
▁us	-9.28055
▁tělesa	-9.28171
ence	-9.28208
▁zpět	-9.28366
▁února	-9.28449
▁pá	-9.28532
▁pravděpodobně	-9.28533
he	-9.28598
▁ostrov	-9.28687
▁průmysl	-9.28695
▁částí	-9.28906
▁jazyků	-9.28916
▁kraje	-9.28973
▁lit	-9.28992
59	-9.29016
▁potom	-9.29018
pon	-9.29084
ius	-9.29096
▁mít	-9.29216
▁česká	-9.29244
▁řeky	-9.29267
▁příliš	-9.2932
▁lid	-9.29375
▁3.	-9.29398
▁poměr	-9.29428
▁knihy	-9.29478
▁práci	-9.29485
▁republika	-9.29486
▁zvláštní	-9.29554
86	-9.29646
▁ukrajin	-9.2979
▁min	-9.29851
▁jenž	-9.29864
tv	-9.29885
ss	-9.2993
▁40	-9.29964
▁klášter	-9.30025
▁ber	-9.30127
tro	-9.30236
▁reform	-9.30291
▁povrch	-9.3033
skými	-9.30337
▁působení	-9.3038
91	-9.30403
pod	-9.30407
▁praha	-9.30432
pen	-9.30549
iště	-9.3055
▁seznam	-9.3057
▁stroj	-9.30577
▁zákona	-9.30616
▁pobřeží	-9.30618
▁povstání	-9.30618
▁fin	-9.3069
32	-9.30759
nské	-9.30762
▁hu	-9.30806
78	-9.30823
▁oba	-9.30876
▁členem	-9.30916
pu	-9.30997
▁čele	-9.31078
▁lidé	-9.31181
šť	-9.31224
88	-9.31261
57	-9.3129
▁dvoj	-9.31291
▁nová	-9.31323
▁obce	-9.31331
▁oficiální	-9.31333
▁orient	-9.31454
▁středo	-9.31499
%	-9.31544
]	-9.31675
▁povrchu	-9.31748
▁slouží	-9.31813
▁50	-9.31951
ián	-9.3208
▁nejlepší	-9.32175
▁počtu	-9.32177
▁chyb	-9.32223
rob	-9.32225
stal	-9.32286
▁unie	-9.32298
▁nikdy	-9.32306
▁využití	-9.32316
stru	-9.32453
har	-9.32758
šk	-9.32845
hal	-9.3285
▁dobře	-9.32961
▁existují	-9.32989
▁kterém	-9.33065
▁slovo	-9.33139
▁nejvíce	-9.33145
45	-9.33197
44	-9.332
ati	-9.33457
fil	-9.33473
▁nejprve	-9.33511
▁německo	-9.33513
graf	-9.3355
▁petr	-9.33646
▁nově	-9.33662
▁cel	-9.33671
▁atom	-9.33677
▁16.	-9.3371
▁vše	-9.33822
62	-9.33944
▁zda	-9.33959
▁stejné	-9.33976
q	-9.34107
13	-9.3411
fe	-9.34125
vit	-9.34241
▁dokument	-9.34248
▁pracovní	-9.34248
az	-9.34286
rat	-9.34336
▁řadu	-9.34405
▁způsobem	-9.34462
▁rozvoj	-9.34477
▁pět	-9.34491
ily	-9.34522
bel	-9.34544
▁žádné	-9.34618
▁těles	-9.34659
ící	-9.3469
▁hlediska	-9.34742
star	-9.34745
▁druhou	-9.34769
▁vydání	-9.34849
58	-9.35132
▁výstav	-9.35204
▁marie	-9.35206
ez	-9.35292
▁označován	-9.35363
ana	-9.35514
rac	-9.35515
▁boha	-9.35518
olog	-9.35701
▁kostel	-9.35729
▁materiál	-9.3575
▁kterých	-9.3578
rd	-9.35782
▁pracoval	-9.35911
▁spojených	-9.35945
69	-9.35968
72	-9.36046
▁trans	-9.36162
▁postavení	-9.36273
09	-9.36303
▁kterým	-9.36308
▁prvních	-9.36422
▁17.	-9.36453
▁měly	-9.36498
▁mod	-9.36533
kal	-9.36553
pre	-9.36653
tní	-9.36693
▁školy	-9.36703
▁snažil	-9.36745
čas	-9.36764
▁15.	-9.36877
▁němž	-9.36894
istů	-9.36944
vedl	-9.36972
▁jména	-9.36996
▁tradiční	-9.36996
56	-9.37023
▁ruské	-9.37072
▁činnost	-9.37123
87	-9.37205
kt	-9.37225
▁organ	-9.37296
▁druh	-9.3732
ivní	-9.3738
▁určité	-9.37463
▁pí	-9.37493
ovém	-9.37518
▁dán	-9.37585
▁totiž	-9.37633
▁iii	-9.3764
▁překlad	-9.37847
▁církevní	-9.37863
bar	-9.37953
79	-9.38085
▁druhý	-9.38096
▁postaven	-9.38137
▁vůbec	-9.38143
46	-9.382
▁kamen	-9.38245
▁informace	-9.38271
čky	-9.38297
▁stavu	-9.38364
▁československé	-9.38528
▁tábor	-9.38529
▁fe	-9.38637
ance	-9.38639
kol	-9.38643
eri	-9.38667
▁univerzity	-9.38681
▁nového	-9.38696
▁obsah	-9.3872
nek	-9.38727
▁největším	-9.38729
enci	-9.38772
▁mon	-9.38842
ňuje	-9.38909
▁princip	-9.3895
▁závod	-9.3901
▁dalšími	-9.39024
▁situace	-9.39044
▁podnik	-9.39058
▁stran	-9.39079
▁horní	-9.39141
ené	-9.39141
amp	-9.39162
▁sluneční	-9.39174
byl	-9.392
ena	-9.39266
▁imp	-9.39271
▁vedle	-9.39399
šel	-9.39538
▁(20	-9.39569
82	-9.39613
▁kam	-9.39636
dat	-9.39659
53	-9.39662
52	-9.39675
▁skupin	-9.3977
▁lékař	-9.39795
▁prvky	-9.39823
vel	-9.39874
▁tj	-9.39927
▁směrem	-9.39987
▁4.	-9.39993
▁planety	-9.40109
▁celou	-9.40149
lie	-9.40161
▁původu	-9.40254
▁nejvýznamnější	-9.40287
61	-9.40387
="12	-9.40404
que	-9.40515
▁vojenské	-9.40528
71	-9.40544
83	-9.40579
slov	-9.4065
▁dodnes	-9.40673
rán	-9.4072
▁vstup	-9.4078
▁tvořen	-9.40883
han	-9.40933
63	-9.40938
▁2000	-9.40948
▁platí	-9.40961
▁životní	-9.40965
ír	-9.40985
51	-9.41046
▁těž	-9.41133
▁jindřich	-9.41134
▁fakt	-9.41212
▁známé	-9.41265
▁většinu	-9.41266
▁21.	-9.41399
▁používal	-9.41531
▁postav	-9.41622
▁začátku	-9.41663
▁křesťanství	-9.41664
▁objevil	-9.41727
▁produkt	-9.41797
inu	-9.41798
▁domácí	-9.41798
▁for	-9.42006
stí	-9.42014
▁králov	-9.42043
▁rus	-9.42068
lez	-9.42097
54	-9.421
▁přestože	-9.42108
▁cílem	-9.42115
▁případ	-9.42181
nici	-9.42191
▁pal	-9.42245
ák	-9.42263
▁samo	-9.42528
▁ministr	-9.42592
▁typu	-9.42695
log	-9.42737
▁schopn	-9.42781
metr	-9.42861
▁termín	-9.42865
▁dob	-9.42867
▁správ	-9.42878
ění	-9.42969
nictví	-9.42981
▁san	-9.42988
▁1945	-9.43004
▁2011	-9.43019
sl	-9.43081
▁neměl	-9.43097
▁prostoru	-9.43146
pust	-9.43226
▁švýcarsk	-9.43269
▁ku	-9.43283
▁vítěz	-9.43307
▁česku	-9.43327
84	-9.43375
▁jazyky	-9.43431
▁cest	-9.43522
▁odmítl	-9.43549
▁operační	-9.43552
ickým	-9.43573
▁uměl	-9.43618
▁já	-9.43639
ud	-9.4367
user	-9.43767
▁německu	-9.4381
ris	-9.43813
▁zahraniční	-9.43836
cent	-9.43878
81	-9.43913
▁metrů	-9.44096
▁historické	-9.44145
▁založil	-9.44162
▁podobě	-9.44177
!	-9.44353
čně	-9.44451
ng	-9.44482
cím	-9.44508
▁pokus	-9.44592
▁brzy	-9.44637
▁odpor	-9.44691
▁nižší	-9.44764
iky	-9.44818
▁rodu	-9.44891
▁vln	-9.44942
▁působí	-9.4495
▁pěti	-9.45093
▁port	-9.45117
zuje	-9.45117
nické	-9.4514
▁prahy	-9.452
jící	-9.45203
.“	-9.45238
▁básník	-9.45263
▁obvod	-9.4541
▁německa	-9.4545
▁str	-9.45457
rak	-9.45476
▁2008	-9.45477
▁5.	-9.45493
kup	-9.45569
▁zpravidla	-9.45591
▁mí	-9.45617
cem	-9.45635
▁velikost	-9.45683
▁har	-9.45706
mil	-9.45842
mann	-9.45857
▁použit	-9.45861
▁nev	-9.45902
01	-9.4592
▁nimi	-9.45949
▁stanov	-9.46037
93	-9.46075
vis	-9.46092
▁nástup	-9.46122
="11	-9.46124
▁6.	-9.46155
)"	-9.46207
▁šest	-9.46217
▁bal	-9.46261
▁možnost	-9.46298
▁most	-9.46317
▁teplota	-9.46332
▁otevřen	-9.46388
▁"„	-9.46457
ané	-9.46501
▁obor	-9.46535
▁významné	-9.46557
▁případně	-9.46622
▁pla	-9.4673
▁jménem	-9.46838
▁útok	-9.46876
▁neza	-9.46879
▁apod	-9.47066
▁severu	-9.47094
wa	-9.47108
▁řádu	-9.47137
lení	-9.47234
▁rozhodnutí	-9.47258
▁trůn	-9.47331
▁18.	-9.47374
▁finanční	-9.47399
ian	-9.474
▁div	-9.47402
▁atd	-9.47439
▁přechod	-9.47457
▁občan	-9.47475
▁en	-9.47518
▁představ	-9.47676
▁prakticky	-9.4768
▁list	-9.47689
▁sobě	-9.47697
▁buď	-9.47698
▁2010	-9.47736
▁john	-9.47836
▁říši	-9.4784
dor	-9.47957
▁františek	-9.47962
▁gra	-9.48004
▁stojí	-9.48016
▁měsíce	-9.48079
už	-9.4808
▁speciální	-9.48104
▁park	-9.48131
▁obr	-9.48133
▁hmotnost	-9.48171
▁zásob	-9.48175
74	-9.48216
▁spoj	-9.48243
▁nechal	-9.48281
▁vir	-9.48336
svět	-9.48347
▁ben	-9.48354
▁trval	-9.48393
▁ed	-9.48394
▁započal	-9.48529
▁francii	-9.4853
▁14.	-9.4855
zu	-9.48596
▁kraji	-9.48665
▁novo	-9.48675
tar	-9.4874
zy	-9.48748
▁velitel	-9.48828
▁vítězství	-9.48849
▁úřad	-9.48911
hi	-9.4892
eg	-9.48921
▁cenu	-9.48953
▁hel	-9.49024
▁30.	-9.49068
▁podporu	-9.49194
▁jelikož	-9.49243
▁prostřednictvím	-9.49243
▁součást	-9.49245
▁vedení	-9.49268
cykl	-9.49393
wi	-9.49415
▁hráč	-9.49432
▁velkých	-9.49456
▁cit	-9.49516
▁členů	-9.49529
dra	-9.49557
▁pomoc	-9.49561
▁obcí	-9.49589
kami	-9.49737
▁styl	-9.49761
▁lev	-9.49898
▁přijal	-9.4992
▁hi	-9.49956
▁dohod	-9.50041
▁panovník	-9.50116
▁2005	-9.50141
ral	-9.50229
▁lety	-9.50248
▁teprve	-9.5025
▁7.	-9.50258
of	-9.50292
xi	-9.50304
▁or	-9.50304
ář	-9.50336
icí	-9.50384
▁sovětský	-9.50432
vou	-9.50493
kor	-9.50591
▁návrh	-9.50598
▁přijat	-9.50612
sek	-9.50614
▁val	-9.50621
▁národ	-9.50648
říd	-9.50679
▁obyvatelstva	-9.50704
ica	-9.50706
▁karl	-9.50738
▁přírodní	-9.50761
="13	-9.50891
▁kan	-9.50927
ä	-9.50976
▁bitvě	-9.50977
štiny	-9.51009
▁9.	-9.51069
▁cha	-9.51146
št	-9.51254
▁revoluce	-9.51267
▁otec	-9.51281
náš	-9.51284
▁rud	-9.51288
▁jiří	-9.51291
▁řek	-9.51315
+	-9.51316
▁[	-9.51346
▁napětí	-9.51416
▁krátce	-9.51418
▁1990	-9.5142
▁francouz	-9.51447
▁vět	-9.515
rost	-9.51546
▁25	-9.51612
▁svazu	-9.51712
ble	-9.51724
▁osn	-9.51727
běh	-9.51735
▁britské	-9.51738
▁2004	-9.51752
▁oblastech	-9.51849
▁karla	-9.51929
sh	-9.51958
her	-9.521
▁druhá	-9.52238
▁římské	-9.52284
pal	-9.5233
dil	-9.52426
▁pokračoval	-9.52443
▁ním	-9.52576
▁premiér	-9.52591
ari	-9.52604
ista	-9.5268
▁egypt	-9.5269
▁pohybu	-9.52693
fer	-9.5272
nič	-9.5275
rů	-9.52759
▁uživatel	-9.52764
▁prů	-9.52794
▁2006	-9.52816
▁fyzikální	-9.52898
▁dvěma	-9.529
par	-9.5313
▁hlav	-9.53199
▁resp	-9.53233
▁míst	-9.53306
▁iv	-9.53308
ph	-9.53415
ávají	-9.5342
▁bud	-9.53485
▁německý	-9.53607
▁vztahy	-9.53682
▁nemá	-9.5372
las	-9.53721
▁soustavy	-9.53759
▁dosáhl	-9.53759
▁řešení	-9.53784
▁jednu	-9.5379
mb	-9.53831
▁současně	-9.53844
▁br	-9.53906
▁bank	-9.53974
jedno	-9.5398
▁11.	-9.54015
▁odhad	-9.54021
▁zůstal	-9.54097
▁ca	-9.54108
▁uvádí	-9.54174
pan	-9.54212
lab	-9.54239
▁kterého	-9.54246
▁nu	-9.54256
▁latin	-9.54289
▁berlín	-9.54351
▁zřejmě	-9.54383
▁13.	-9.54405
vání	-9.54509
▁začaly	-9.5455
▁dřev	-9.54649
▁vedl	-9.54673
▁new	-9.54676
▁měli	-9.54843
▁problém	-9.54904
▁významným	-9.54914
▁armáda	-9.54952
živ	-9.55017
▁hlas	-9.55021
hra	-9.55031
▁americké	-9.55077
▁nových	-9.55144
▁1989	-9.55145
▁západ	-9.55165
▁vytvořen	-9.55167
▁zásad	-9.55182
▁brán	-9.55254
isty	-9.55314
▁%)	-9.55316
stvo	-9.55345
▁pán	-9.55351
▁učení	-9.55354
nat	-9.55364
▁změny	-9.55421
▁republice	-9.55444
▁věnoval	-9.55444
▁staré	-9.55476
▁nyní	-9.55492
▁rozšíření	-9.55541
ostí	-9.55558
▁metr	-9.55591
▁díl	-9.5562
▁změn	-9.55755
▁far	-9.55761
ovské	-9.5585
ld	-9.55857
▁takto	-9.55867
▁rozdělen	-9.55931
▁12.	-9.55968
▁koncem	-9.56011
▁lib	-9.56024
hrad	-9.56141
štině	-9.56172
ík	-9.56277
rát	-9.56293
ký	-9.56323
nor	-9.56375
▁značně	-9.56379
▁rovn	-9.56407
ecké	-9.5647
▁programu	-9.56518
▁odvozen	-9.56523
▁wi	-9.56629
▁záření	-9.56829
▁teplot	-9.56889
car	-9.56992
▁arab	-9.57004
tri	-9.57016
06	-9.5708
▁volbách	-9.57134
▁doprava	-9.57154
▁kultury	-9.57179
gt	-9.57186
▁známý	-9.57186
tzv	-9.57229
▁strom	-9.57236
▁žen	-9.57265
jší	-9.57285
▁jmenován	-9.57394
▁spor	-9.57425
▁napoleon	-9.57444
▁řízení	-9.57453
▁adres	-9.57454
▁2014	-9.57462
▁síla	-9.57509
▁rozdělení	-9.57574
▁žije	-9.576
▁využívá	-9.57612
jev	-9.57631
▁jednotlivé	-9.57636
▁jev	-9.57668
qu	-9.57758
kle	-9.57898
▁elektro	-9.57914
lid	-9.57915
▁městské	-9.57924
vek	-9.57978
▁představuje	-9.57993
▁předchozí	-9.58068
▁rakousko	-9.58099
▁ploch	-9.58113
▁svými	-9.58127
▁francouzské	-9.58199
▁2007	-9.58253
mor	-9.58307
▁silně	-9.58312
ori	-9.58333
▁věku	-9.58352
▁vod	-9.58383
ovský	-9.5854
▁nejčastěji	-9.58665
▁ně	-9.58676
▁oblastí	-9.5882
▁nás	-9.58823
zel	-9.58943
▁chtěl	-9.59013
izován	-9.59014
lek	-9.59045
mír	-9.59057
ben	-9.59201
▁názor	-9.59209
▁otce	-9.5927
“)	-9.59384
▁východ	-9.59513
▁umístěn	-9.59563
▁es	-9.59611
kovi	-9.59615
▁činnosti	-9.59632
▁učitel	-9.59807
▁mistr	-9.59808
▁děti	-9.59815
▁tisk	-9.59849
nech	-9.59853
▁žil	-9.59868
▁příběh	-9.599
▁dosud	-9.59901
▁spo	-9.59918
▁celkové	-9.5998
▁(„	-9.6003
▁jihu	-9.60061
top	-9.60083
▁teploty	-9.60087
▁ok	-9.60155
▁pojem	-9.60169
▁data	-9.60211
▁pár	-9.60213
▁literatury	-9.60259
▁ml	-9.60314
▁směru	-9.60327
▁škol	-9.60347
▁host	-9.60428
▁výhod	-9.60473
ité	-9.60533
cel	-9.60538
▁pri	-9.60555
▁můžeme	-9.60598
▁umožňuje	-9.60601
▁stejný	-9.60604
▁hl	-9.60607
▁morav	-9.6061
▁místa	-9.60645
94	-9.6069
▁ostatních	-9.60829
▁leg	-9.60859
▁málo	-9.60863
▁8.	-9.60872
▁real	-9.60892
▁server	-9.6093
▁koncert	-9.60961
ij	-9.60976
▁smyslu	-9.60995
▁nebylo	-9.61087
▁med	-9.61099
▁dis	-9.61149
▁hrál	-9.61165
▁problémy	-9.61266
▁manžel	-9.61314
▁francouzský	-9.61318
▁cíl	-9.61346
▁vlivem	-9.61369
kar	-9.61377
▁vzniká	-9.61427
nk	-9.61446
4"	-9.61474
ření	-9.61543
▁stranu	-9.61763
▁muž	-9.61769
▁začalo	-9.61774
▁log	-9.61846
▁veřejné	-9.61893
▁rudolf	-9.61893
▁tímto	-9.61911
stan	-9.61966
▁disku	-9.61994
před	-9.62038
níci	-9.62042
▁poloviny	-9.62056
▁katolické	-9.62064
fin	-9.62074
▁mag	-9.62137
▁nepře	-9.62162
▁palác	-9.62189
nský	-9.62241
▁2019	-9.62245
ovice	-9.62334
▁prvního	-9.62345
▁10.	-9.62364
▁posledních	-9.62376
▁látky	-9.62547
▁filozof	-9.6267
stran	-9.6269
▁ev	-9.6274
▁přenos	-9.6278
▁bra	-9.62788
ap	-9.62864
▁vládu	-9.62886
▁hr	-9.62897
▁písmen	-9.6296
nova	-9.63024
▁60	-9.63222
▁nebyla	-9.63271
▁procent	-9.63294
▁příprav	-9.63344
▁sovět	-9.63455
van	-9.63506
▁astronom	-9.63513
▁poli	-9.63553
▁vstoupil	-9.6358
▁kole	-9.63591
▁jar	-9.63658
ováním	-9.63659
▁poloh	-9.63688
▁stříbr	-9.63698
▁duch	-9.63718
uš	-9.63842
▁čr	-9.63842
▁režim	-9.639
kop	-9.63908
▁kdo	-9.6401
rovná	-9.64028
▁stanice	-9.64172
▁automobil	-9.64195
▁správní	-9.64216
nů	-9.64223
▁kultur	-9.64305
▁architekt	-9.64353
▁rytíř	-9.64364
ával	-9.64364
▁trest	-9.64373
▁zdroj	-9.64403
05	-9.64688
▁národů	-9.64693
pla	-9.64693
▁jmen	-9.64704
▁standard	-9.64813
tech	-9.64834
▁česko	-9.64844
▁nadále	-9.64868
▁kontrol	-9.64971
02	-9.64988
▁dráhy	-9.65028
1"	-9.65067
_2	-9.65071
burg	-9.65114
ór	-9.65187
▁sedm	-9.6523
▁skot	-9.65273
▁vojsk	-9.65308
▁red	-9.6533
▁pramen	-9.65352
▁nic	-9.65408
▁celém	-9.65422
▁200	-9.65441
gh	-9.65516
dle	-9.65618
▁znak	-9.65641
▁historii	-9.65693
▁konal	-9.65779
▁sub	-9.6578
▁podobné	-9.6585
▁systémy	-9.65852
▁příkaz	-9.65875
bili	-9.65941
03	-9.65943
▁plu	-9.65953
▁lidské	-9.65974
▁rady	-9.65998
▁vyskytuje	-9.66039
▁dokázal	-9.66056
▁zvuk	-9.66058
kla	-9.66149
▁rusko	-9.66342
▁nelze	-9.66381
▁síť	-9.66389
▁určen	-9.66462
▁islám	-9.66506
▁ludvík	-9.66549
mysl	-9.6657
▁2012	-9.66573
▁čtvrt	-9.66606
▁klub	-9.66638
▁500	-9.66733
▁hy	-9.66821
▁akce	-9.66835
hlav	-9.66862
▁ge	-9.66901
▁on	-9.66911
elné	-9.66915
▁2015	-9.66916
lom	-9.66921
▁vyk	-9.66926
ovatel	-9.66938
▁oper	-9.66981
▁rychlosti	-9.67069
▁2009	-9.67088
07	-9.67136
▁smrt	-9.67196
▁tým	-9.67219
▁viz	-9.67286
níků	-9.67382
don	-9.67575
▁podmínky	-9.67575
▁ital	-9.67578
▁pop	-9.6765
▁počítač	-9.67659
▁nemoc	-9.67665
▁dělí	-9.6769
▁ekonom	-9.67706
▁průměr	-9.67808
▁fo	-9.67837
▁tvrd	-9.67849
▁nejznámější	-9.67856
▁zemědělství	-9.6792
▁samotné	-9.67932
▁2018	-9.67945
▁troj	-9.68047
▁rozšířen	-9.68114
▁lednu	-9.68171
▁el	-9.68229
▁náměstí	-9.68266
oproti	-9.68314
▁pravd	-9.68321
tele	-9.68422
▁windows	-9.68439
▁vektor	-9.68445
▁budou	-9.68451
▁přinesl	-9.68465
port	-9.68506
“"	-9.68572
▁vesmíru	-9.68719
moc	-9.68795
▁lou	-9.68806
▁fyzik	-9.68813
▁lin	-9.68871
▁tříd	-9.68904
▁tank	-9.68936
▁domin	-9.68939
▁elektrický	-9.68952
▁existoval	-9.68961
▁2013	-9.68979
▁léta	-9.68986
▁konkrétní	-9.69135
▁zahrnuje	-9.69135
if	-9.69159
▁bul	-9.69183
jedná	-9.69245
řez	-9.69277
▁letiště	-9.69435
▁císaře	-9.69453
tit	-9.69466
▁evangel	-9.69485
▁teorii	-9.69485
▁island	-9.6949
▁eli	-9.69498
▁plně	-9.69501
▁květ	-9.69539
alo	-9.69684
▁manželství	-9.69696
▁václava	-9.69699
▁odbor	-9.6973
yl	-9.69811
▁československa	-9.69836
▁ant	-9.69856
▁svatého	-9.6986
nějším	-9.69873
áci	-9.69884
reg	-9.69931
▁objeven	-9.69948
nom	-9.69977
▁získala	-9.7004
stoupil	-9.70064
▁hranic	-9.70095
▁děd	-9.70109
▁divadelní	-9.70189
▁vlak	-9.70203
est	-9.70276
fon	-9.70369
▁blok	-9.70415
tl	-9.70474
ns	-9.70477
▁smlouvy	-9.70542
▁profesor	-9.70608
▁pozorování	-9.70641
iku	-9.70652
▁neboli	-9.70656
lov	-9.70716
▁integr	-9.7072
▁martin	-9.7075
pp	-9.70769
berg	-9.70781
▁(1	-9.70813
▁von	-9.70854
měst	-9.70992
▁výše	-9.71009
▁itálie	-9.71075
▁obchod	-9.71171
▁rodiny	-9.71217
▁zvláště	-9.71253
▁definice	-9.7127
ňování	-9.71271
▁dané	-9.7136
▁velkým	-9.71372
▁každé	-9.71431
ána	-9.71464
ností	-9.71486
▁minulosti	-9.71517
vně	-9.7155
ste	-9.71565
▁historik	-9.71594
▁složen	-9.71618
nému	-9.71633
▁alb	-9.71633
▁myšlen	-9.71665
▁poly	-9.71696
▁dolní	-9.71706
▁kvalit	-9.71743
▁složení	-9.71787
▁částečně	-9.71837
▁možno	-9.71863
▁kapel	-9.71901
šek	-9.71961
▁souvislosti	-9.71965
▁test	-9.71995
díl	-9.72058
▁ačkoli	-9.72153
▁hvězdy	-9.72186
▁ša	-9.72413
pil	-9.72442
▁hodnoty	-9.72455
▁výbor	-9.72479
▁robert	-9.72512
▁studoval	-9.72534
▁hranici	-9.72543
▁vytvoření	-9.72659
én	-9.72676
akt	-9.72688
▁ředitel	-9.72691
▁izo	-9.72713
▁prezidenta	-9.72734
▁uhlí	-9.72778
▁británie	-9.72872
▁zahájil	-9.72874
▁komunistické	-9.72882
▁měření	-9.72886
▁ivan	-9.72907
zor	-9.72917
▁80	-9.73051
▁arcibiskup	-9.73054
▁režisér	-9.73054
▁říká	-9.73107
▁kříž	-9.73127
▁mm	-9.73322
▁velice	-9.73434
▁molekul	-9.73499
for	-9.73534
▁bor	-9.7359
▁1991	-9.73606
▁způsoben	-9.73611
▁2016	-9.73625
▁tradice	-9.73627
▁atmosfér	-9.73651
▁chu	-9.73747
▁vzájemn	-9.73754
▁vydán	-9.7379
▁sbor	-9.73803
cího	-9.7382
);	-9.7384
▁vzduchu	-9.73958
gan	-9.74097
bud	-9.7411
▁začíná	-9.74153
▁1948	-9.74156
▁čísla	-9.74164
lád	-9.74246
ložit	-9.74291
onu	-9.74325
▁získat	-9.74333
▁následoval	-9.74333
▁rodin	-9.74344
▁minut	-9.74409
▁hlás	-9.74424
jo	-9.7447
▁skutečnosti	-9.74515
▁zahraničí	-9.74517
▁příkladem	-9.74521
▁celá	-9.74522
▁díle	-9.74546
▁2001	-9.7457
tika	-9.74646
▁církví	-9.74702
▁2017	-9.74724
▁účast	-9.74752
▁liší	-9.74798
vl	-9.74827
▁filip	-9.7489
dom	-9.74893
▁ří	-9.74899
▁skládá	-9.75124
▁chorvat	-9.75134
▁scén	-9.75149
aktiv	-9.75212
▁náboženské	-9.75257
wan	-9.75264
▁1918	-9.75265
▁mono	-9.75397
opis	-9.75438
а	-9.75443
▁1939	-9.7545
▁syna	-9.75464
▁jednotka	-9.7547
▁dia	-9.75489
▁univerzitě	-9.75593
▁rozšířil	-9.7563
▁jaroslav	-9.7563
▁čísel	-9.75632
pokoj	-9.75648
▁obyvatelstvo	-9.75667
▁2003	-9.75719
tiky	-9.75722
▁kra	-9.75762
▁dál	-9.75888
typ	-9.75914
▁případech	-9.75936
tion	-9.75963
tom	-9.75973
▁vlád	-9.76012
▁měsíců	-9.76034
▁půl	-9.7605
nec	-9.76099
▁plav	-9.76101
▁tvaru	-9.76286
▁sol	-9.76289
vrh	-9.76367
▁žádný	-9.76378
▁populární	-9.76378
▁údolí	-9.76378
▁svoji	-9.76384
▁boží	-9.76394
žíva	-9.76414
▁generál	-9.76414
nož	-9.76427
měl	-9.76439
▁americký	-9.76472
▁posl	-9.76536
▁dlouhé	-9.76566
▁hitler	-9.76566
▁téhož	-9.76571
▁album	-9.76599
▁jednotek	-9.76612
skému	-9.7675
▁con	-9.76766
▁dopad	-9.76773
▁značné	-9.76776
▁para	-9.76827
▁uzavřen	-9.76838
vil	-9.76882
▁interpret	-9.76943
▁proměn	-9.76988
▁lip	-9.77071
▁vyt	-9.77092
▁výjimkou	-9.77132
▁přitom	-9.77137
▁vyhrál	-9.77143
–20	-9.77146
tol	-9.77183
▁duchovní	-9.77323
▁východě	-9.77362
▁aktivní	-9.7737
▁centrální	-9.77372
▁řady	-9.77454
oh	-9.77465
chod	-9.77627
▁zpráv	-9.77691
▁umožnil	-9.77701
▁dynastie	-9.77892
▁parlament	-9.77897
▁fu	-9.78064
▁důkaz	-9.78083
▁prvků	-9.78083
štění	-9.78093
▁stol	-9.78188
gor	-9.78212
ill	-9.78213
▁ší	-9.78229
▁předmět	-9.78233
čín	-9.78258
▁oxid	-9.78352
▁taj	-9.78353
▁běž	-9.78361
▁řím	-9.7837
ickém	-9.78401
▁han	-9.78402
mít	-9.78415
pře	-9.78537
▁fran	-9.7861
▁mění	-9.78654
▁shromáždění	-9.78736
▁vzniklo	-9.78779
▁zemské	-9.78794
▁částic	-9.78825
▁gravitační	-9.7885
▁velikosti	-9.78912
▁graf	-9.78924
▁novou	-9.79017
▁zvířat	-9.79042
▁(17	-9.79045
lem	-9.79164
▁záznam	-9.79236
▁1968	-9.79242
▁univerzita	-9.79298
▁tro	-9.7944
▁změnil	-9.79482
▁proveden	-9.79547
▁vedlo	-9.79552
▁divadlo	-9.79623
▁fotbal	-9.79623
▁mladší	-9.79623
▁we	-9.79715
▁činí	-9.7972
voj	-9.79722
▁variant	-9.79819
▁soutěž	-9.79846
we	-9.79848
▁pás	-9.7986
▁dějin	-9.79978
▁komunit	-9.80013
hodno	-9.80039
ovanou	-9.80049
▁vyd	-9.80061
rem	-9.80149
▁roze	-9.80167
hn	-9.80175
▁reakce	-9.80206
dlo	-9.80239
mán	-9.80241
▁podobný	-9.80319
▁student	-9.8032
▁jazykem	-9.80356
−	-9.80384
kový	-9.80386
▁software	-9.80402
▁rukopis	-9.80402
▁rozhlas	-9.80428
kategorie	-9.80435
nej	-9.80456
vede	-9.80467
▁bos	-9.80476
ávání	-9.80552
▁odkaz	-9.80596
▁světla	-9.80662
ker	-9.80667
dž	-9.80779
des	-9.80827
▁základních	-9.80835
▁chování	-9.80867
tes	-9.8089
rád	-9.80912
▁vedoucí	-9.8099
▁spektr	-9.80993
▁my	-9.81017
pou	-9.81061
▁růst	-9.81074
▁průmyslu	-9.81111
▁přístav	-9.81125
▁parlamentu	-9.81165
rna	-9.8118
▁jinak	-9.81188
dává	-9.81229
▁nejdůležitější	-9.81384
▁studia	-9.81403
▁vychází	-9.81403
ier	-9.81404
▁brně	-9.81476
▁sssr	-9.81587
ujících	-9.8159
2.	-9.81606
▁vojska	-9.81613
▁britský	-9.81675
up	-9.81683
▁2002	-9.81703
▁částice	-9.81748
já	-9.81754
▁zaměřen	-9.81796
rus	-9.81805
▁bývalé	-9.81821
niž	-9.81852
kra	-9.8194
ndr	-9.81955
▁zájem	-9.81978
gl	-9.82013
▁těleso	-9.82024
▁posléze	-9.82177
▁alp	-9.82211
▁staro	-9.82316
▁pojetí	-9.82379
tky	-9.82395
▁jím	-9.82487
▁běžné	-9.82551
▁kyselin	-9.82555
▁vyskytují	-9.82576
▁nato	-9.82596
dia	-9.82636
hel	-9.82643
▁dějiny	-9.82657
▁vývoje	-9.82703
gram	-9.82752
▁parní	-9.82765
▁euro	-9.82811
▁dopravní	-9.82812
▁vědecké	-9.82876
▁jeruzalém	-9.82976
▁úkol	-9.83055
▁španěl	-9.83071
kat	-9.83085
▁králem	-9.83125
▁obec	-9.83158
▁lov	-9.83166
▁vyvinul	-9.83177
▁křesťanské	-9.83222
ros	-9.83254
▁liber	-9.83362
▁abeced	-9.83378
čný	-9.8339
▁ste	-9.83446
▁studium	-9.83449
bol	-9.8347
pag	-9.8348
▁90.	-9.8349
▁fr	-9.83497
fo	-9.83515
▁červen	-9.83546
odice	-9.83667
▁ženy	-9.83734
▁generální	-9.83742
▁ačkoliv	-9.8378
▁textu	-9.83786
▁zlom	-9.83895
ovců	-9.83942
▁nemohl	-9.83984
ván	-9.83991
▁rada	-9.83995
▁krok	-9.84
dla	-9.84012
▁důvodů	-9.84059
▁centra	-9.84074
▁jejího	-9.84209
ška	-9.84235
▁skončil	-9.84237
▁relativně	-9.84239
▁psal	-9.84256
▁sk	-9.84272
▁římský	-9.84343
▁opak	-9.84346
▁menšin	-9.84392
▁důvodu	-9.84396
▁používán	-9.84433
▁osad	-9.84487
▁foto	-9.84529
▁ústí	-9.84549
▁omezen	-9.8456
natý	-9.84581
▁rozloh	-9.84609
vka	-9.8462
▁zrušen	-9.84624
▁metody	-9.84628
gin	-9.84641
▁geo	-9.84682
nos	-9.84754
▁pozor	-9.8479
oid	-9.848
plň	-9.84827
▁množin	-9.84923
▁nebe	-9.84935
▁boje	-9.84993
▁bru	-9.84995
▁dospěl	-9.85002
▁politických	-9.85005
▁pokusil	-9.85125
▁střed	-9.85146
▁královské	-9.85163
ep	-9.85236
▁rozum	-9.85278
▁středověku	-9.85299
▁ostrovy	-9.85305
▁nalezen	-9.85308
▁milionu	-9.85317
▁oceán	-9.85327
ismem	-9.85368
▁získá	-9.85407
▁námořní	-9.85413
▁přelomu	-9.85415
▁vzdálenosti	-9.85486
▁národního	-9.85489
▁hol	-9.85498
▁mikro	-9.85502
▁odpovídá	-9.8551
▁pražské	-9.85586
▁televizní	-9.85618
▁proslul	-9.85619
▁pořád	-9.85673
▁60.	-9.85694
ňují	-9.85704
rz	-9.85721
▁indie	-9.85724
▁meta	-9.85746
▁dramat	-9.85771
▁dálnice	-9.85832
▁hrdin	-9.85844
▁sovětského	-9.85848
▁kruh	-9.85857
▁hlavního	-9.85869
kovou	-9.8595
ide	-9.85977
▁&	-9.86102
čku	-9.8613
asi	-9.86213
jan	-9.86226
▁ovlivněn	-9.86238
▁převzal	-9.86238
zn	-9.86241
▁čin	-9.86248
▁miliard	-9.86248
▁evropských	-9.8625
▁památ	-9.86277
▁dvor	-9.86354
▁rovnice	-9.86359
ecká	-9.86426
▁analýz	-9.86446
▁používat	-9.86446
▁výrobu	-9.86446
▁potravin	-9.86446
▁výskyt	-9.86447
čná	-9.86459
▁kosm	-9.86462
▁lidu	-9.86492
vali	-9.86553
gel	-9.86555
▁modern	-9.8658
▁uvnitř	-9.86654
▁svobod	-9.8667
▁voda	-9.8673
rs	-9.86731
tka	-9.86788
dek	-9.86798
▁všichni	-9.86862
▁elektrické	-9.86868
▁1999	-9.8687
lova	-9.86876
▁pas	-9.86903
gon	-9.86905
▁dělení	-9.86957
kládají	-9.86996
▁krist	-9.87042
▁služby	-9.87071
▁mnohé	-9.87099
▁2021	-9.87099
▁mys	-9.87107
▁tun	-9.87163
▁počítače	-9.87209
rad	-9.87238
▁kost	-9.87261
▁útvar	-9.8728
▁klasické	-9.87291
▁patrně	-9.87294
▁okolní	-9.87301
▁sloučenin	-9.87303
▁slav	-9.87305
▁německých	-9.87354
teč	-9.87414
▁hmot	-9.87426
▁ferdinand	-9.87489
▁dětí	-9.87494
ovaného	-9.87508
▁hudby	-9.877
izovat	-9.87718
▁výprav	-9.87746
▁politiky	-9.8778
▁králové	-9.87823
vár	-9.87882
▁drah	-9.87903
▁výběr	-9.8791
▁oficiálně	-9.87914
▁90	-9.87986
ation	-9.87989
▁mez	-9.88002
▁opustil	-9.88016
▁modul	-9.88045
▁formě	-9.88088
▁předsed	-9.88149
nové	-9.88207
▁mark	-9.88236
▁grup	-9.88237
▁vědy	-9.88331
▁zaveden	-9.88384
▁er	-9.88408
dán	-9.88415
tický	-9.88487
▁efekt	-9.88489
rik	-9.88521
▁sever	-9.88527
▁motiv	-9.88549
▁2020	-9.88583
▁bro	-9.88638
▁mj	-9.88683
▁metal	-9.88748
▁itálii	-9.88757
▁společenství	-9.88757
entní	-9.88785
fu	-9.88799
eň	-9.88808
▁rovin	-9.88818
▁uni	-9.8888
chov	-9.88918
▁etap	-9.89009
ivé	-9.89038
jde	-9.89041
ola	-9.89052
▁jediné	-9.89157
▁ovlivnil	-9.89183
ix	-9.89215
▁někter	-9.89241
evropský	-9.89247
▁jednalo	-9.89266
▁kal	-9.89369
▁škola	-9.89375
▁zpracování	-9.89396
▁prohlásil	-9.89418
▁ceny	-9.89421
▁portugalsk	-9.89426
izační	-9.89505
▁šesti	-9.89524
kázal	-9.89581
ft	-9.89597
▁českém	-9.89602
▁úprav	-9.89606
▁kapalin	-9.89616
▁zápis	-9.8966
ený	-9.89665
▁státech	-9.89692
▁stanoven	-9.89699
▁plynu	-9.89714
▁přemysl	-9.89737
▁typy	-9.89743
bíl	-9.89775
▁situaci	-9.89826
▁třídy	-9.89908
▁vyhlásil	-9.89963
nický	-9.90028
▁střel	-9.90032
▁vznikly	-9.90039
▁květnu	-9.90087
kám	-9.90177
▁služeb	-9.90256
též	-9.90272
▁bur	-9.90297
▁dra	-9.90318
ními	-9.9036
▁stop	-9.90365
▁open	-9.90402
▁osman	-9.90439
▁teolog	-9.90466
rg	-9.90542
álních	-9.90574
▁domov	-9.90617
například	-9.90628
▁snad	-9.90682
▁sídlí	-9.90688
▁změně	-9.90736
▁80.	-9.90771
▁budov	-9.90805
▁podílel	-9.90939
▁kultura	-9.90949
af	-9.9103
▁schopnost	-9.91036
▁nobelov	-9.91124
▁1992	-9.9113
oj	-9.91141
▁abs	-9.91162
▁pavel	-9.91162
▁začali	-9.91164
áři	-9.91174
▁rusku	-9.91213
▁kontinent	-9.9124
anc	-9.91252
▁zákony	-9.91262
eno	-9.91262
▁současn	-9.91275
▁založen	-9.91307
▁poloostrov	-9.9134
▁vzdělání	-9.9134
čet	-9.91345
▁1998	-9.91348
met	-9.91434
▁témat	-9.91439
▁čechách	-9.9144
ona	-9.91449
▁místech	-9.91466
▁březnu	-9.91559
nská	-9.91633
▁volební	-9.91716
▁konflikt	-9.9175
▁samostatné	-9.91778
▁sportovní	-9.9178
▁sedmi	-9.91812
psat	-9.91844
▁významnou	-9.91863
▁nena	-9.91902
▁kola	-9.91976
▁pevnost	-9.92008
▁zakladatel	-9.92016
▁soukrom	-9.92111
tických	-9.92133
▁vojáků	-9.92147
ány	-9.92148
▁zdroje	-9.92192
tvoř	-9.92213
▁microsoft	-9.92216
▁vytváří	-9.92216
▁muzeum	-9.92223
▁zeman	-9.92247
▁objekt	-9.92263
▁úsek	-9.92282
▁hodnota	-9.92283
▁děj	-9.92284
kry	-9.92291
▁formu	-9.92295
▁střet	-9.92321
▁spolupráci	-9.92437
▁výroba	-9.92437
▁dopravy	-9.92463
▁slovenské	-9.92506
▁epi	-9.92513
▁probíhá	-9.92528
▁oblíben	-9.92657
▁zdravotní	-9.92657
▁nutné	-9.92668
▁narození	-9.92703
lehl	-9.92719
dan	-9.92736
▁zdrojů	-9.92757
▁ekonomické	-9.92792
▁úřední	-9.92799
▁uvedl	-9.92841
▁roční	-9.92845
▁sloučeniny	-9.92854
▁snaží	-9.92879
▁látek	-9.92882
▁mimořádn	-9.92883
▁stalin	-9.92904
▁nárok	-9.92913
▁vztahu	-9.92917
▁řeč	-9.92922
▁rostliny	-9.92926
▁různ	-9.92967
▁svému	-9.92992
▁zase	-9.93014
psal	-9.93087
▁dědictví	-9.931
▁obdržel	-9.931
hen	-9.93161
▁ši	-9.93165
▁procesor	-9.93169
▁trh	-9.93204
nka	-9.93216
▁dar	-9.93232
▁kritik	-9.93271
ham	-9.93272
▁postavil	-9.93312
ki	-9.93322
▁říjnu	-9.93323
▁hovoří	-9.93323
▁délka	-9.93324
cu	-9.93369
▁silný	-9.9348
▁polské	-9.9351
▁míru	-9.93511
▁občanské	-9.93541
▁malíř	-9.93558
▁svaté	-9.93563
▁takový	-9.93596
čte	-9.9361
▁kniha	-9.93636
▁28.	-9.93692
▁budoucí	-9.93732
▁kur	-9.93757
▁většiny	-9.93769
▁william	-9.93769
lil	-9.93777
▁fre	-9.93895
nějších	-9.93929
▁přátel	-9.93962
▁literatuře	-9.93992
▁prosinci	-9.93992
▁front	-9.94024
▁něco	-9.94085
▁300	-9.94122
ip	-9.94171
pul	-9.94191
▁předpokládá	-9.94217
▁chráněn	-9.94217
▁červnu	-9.94224
▁vrch	-9.94343
kli	-9.9437
▁sal	-9.94504
ung	-9.94513
▁zpěv	-9.94574
▁nezávislost	-9.94606
▁mont	-9.94656
▁centrem	-9.94717
▁cestu	-9.9473
▁založení	-9.94733
ser	-9.94784
kur	-9.94883
▁ústav	-9.94896
▁jádro	-9.94898
▁vzduch	-9.94903
▁běžně	-9.94913
▁vzdálenost	-9.94927
▁události	-9.94976
▁provozu	-9.95022
▁paul	-9.95093
▁wa	-9.95107
▁nebyly	-9.9511
▁důležité	-9.95118
▁nepřátel	-9.95119
▁uložen	-9.9512
▁písem	-9.95124
▁kre	-9.95158
ada	-9.9518
▁stroje	-9.95256
angl	-9.95278
sc	-9.95279
▁pohled	-9.953
itě	-9.95314
▁ly	-9.9532
▁dopis	-9.95329
▁prosadil	-9.95346
▁kapacit	-9.9535
rok	-9.95383
▁seriál	-9.95579
▁podzim	-9.95584
▁sítě	-9.95596
▁představitel	-9.95623
▁pohybuje	-9.95644
▁barev	-9.95647
▁koncil	-9.9571
▁experiment	-9.95723
áře	-9.9576
▁ježíš	-9.95763
▁deseti	-9.95774
▁che	-9.9579
▁systémů	-9.95852
▁postoj	-9.95892
▁členy	-9.96009
čné	-9.96025
▁ryb	-9.96061
▁centrum	-9.96092
▁zničen	-9.96121
▁ztrát	-9.96173
▁brit	-9.96186
táhl	-9.96228
lát	-9.96259
▁zabývá	-9.9626
▁svatý	-9.9629
▁hmotnosti	-9.96324
istický	-9.96335
eš	-9.96367
▁slovan	-9.96475
▁alespoň	-9.96487
▁písně	-9.96488
▁prací	-9.96514
níky	-9.96535
▁protokol	-9.96565
▁roman	-9.96634
▁miliony	-9.96668
▁nastal	-9.96701
▁způsobil	-9.96715
▁zpočátku	-9.96717
▁mužů	-9.96722
▁návštěv	-9.96807
▁rozsáhlé	-9.96815
▁volby	-9.96842
net	-9.96899
▁politik	-9.969
▁válku	-9.96961
▁jediný	-9.96964
lán	-9.97005
▁protestant	-9.97017
▁vzdálen	-9.97061
▁hlad	-9.9712
▁hlavních	-9.97136
▁25.	-9.97172
▁výsledkem	-9.97178
▁linux	-9.97179
jme	-9.97351
▁černo	-9.97357
▁armén	-9.9741
▁londýn	-9.9745
▁klima	-9.97503
▁akt	-9.97518
▁příklad	-9.97525
▁70.	-9.97527
▁nástroj	-9.97565
ell	-9.97573
▁šlo	-9.97584
▁režimu	-9.97588
▁bla	-9.97611
▁univerzit	-9.97613
▁paříži	-9.97628
▁minerál	-9.97646
ečné	-9.97726
ickými	-9.97749
leté	-9.97767
lace	-9.97786
▁studie	-9.97791
▁nepři	-9.97803
▁vnější	-9.9781
▁okres	-9.97883
chází	-9.97982
▁procesu	-9.98005
▁jich	-9.98038
▁ztratil	-9.98108
▁hospodářství	-9.98108
▁disk	-9.98126
rol	-9.98156
▁plod	-9.98159
▁gi	-9.98206
ovského	-9.98257
▁druhu	-9.98314
▁skladatel	-9.98345
▁jednom	-9.98389
▁světový	-9.98432
tří	-9.98499
▁matematik	-9.98513
▁významu	-9.98518
▁kolon	-9.98538
▁kilometrů	-9.98543
ovaným	-9.98544
▁církvi	-9.98575
,6	-9.98576
▁obtíž	-9.98577
war	-9.98652
▁odpad	-9.98708
vaná	-9.98745
▁považoval	-9.9881
▁kontakt	-9.9881
ičtí	-9.99009
▁podstatn	-9.99033
kre	-9.99035
▁výrobě	-9.99045
▁akademie	-9.99048
stoupit	-9.9905
▁internet	-9.99114
▁gl	-9.99154
▁osm	-9.99184
▁popisuje	-9.99231
▁2,	-9.99237
▁dlouhý	-9.99281
▁německého	-9.99396
▁31.	-9.99433
▁mel	-9.99444
▁ph	-9.99507
▁přestupné	-9.99521
▁měsíc	-9.99522
▁še	-9.99557
▁velkého	-9.99639
▁zkrat	-9.99685
▁loď	-9.99785
▁(3	-9.99786
▁založena	-9.99825
▁divadla	-9.99992
▁regul	-10
▁křiv	-10.0001
▁praxi	-10.0002
mus	-10.0003
▁pomoci	-10.0003
▁kalendář	-10.0006
▁čs	-10.0007
▁židů	-10.0007
▁následujících	-10.0008
▁vedením	-10.001
▁časopis	-10.0015
▁hory	-10.0015
▁existence	-10.0023
▁probíhal	-10.0023
▁úrovni	-10.0023
▁funkcí	-10.0023
▁1994	-10.0024
▁energii	-10.0024
▁prodej	-10.0034
▁říma	-10.0039
▁dokončen	-10.0042
išti	-10.0045
▁france	-10.0046
▁1938	-10.0048
ski	-10.005
▁pozici	-10.0051
▁cena	-10.0054
tic	-10.0055
▁znaky	-10.0055
stva	-10.0056
▁nep	-10.006
▁změna	-10.0063
▁řadě	-10.0064
▁silné	-10.0066
▁technick	-10.007
▁československu	-10.0071
▁zmíněn	-10.0071
▁jediným	-10.0071
▁křiž	-10.0071
▁nějaké	-10.0072
▁jiho	-10.0074
▁škod	-10.0079
▁směs	-10.008
ero	-10.0084
▁nemůže	-10.0095
▁tomáš	-10.0098
▁70	-10.0104
kových	-10.0107
▁dub	-10.0107
▁mac	-10.0111
▁vysokou	-10.0112
cit	-10.0117
▁mohla	-10.0117
▁tlaku	-10.0121
nin	-10.0124
eck	-10.0132
▁objevuje	-10.0134
▁hodnotu	-10.0136
▁protest	-10.0138
dru	-10.0141
▁sekund	-10.0143
▁názvu	-10.0143
rovna	-10.0145
▁24	-10.0148
šlo	-10.0149
▁západě	-10.0149
▁hal	-10.0151
▁chrám	-10.0153
▁velko	-10.0166
▁označují	-10.0167
čnost	-10.0169
▁nepro	-10.0174
ňoval	-10.0174
▁němu	-10.0177
rot	-10.0179
qui	-10.0186
▁ústřední	-10.0193
▁zahrad	-10.0195
poz	-10.0195
▁neděl	-10.0202
▁paměti	-10.0216
▁rostoucí	-10.0216
▁chod	-10.022
▁vesmír	-10.0225
▁obecné	-10.0227
▁rakouské	-10.0231
▁sloužil	-10.024
▁operace	-10.0246
▁kořen	-10.0247
▁znalost	-10.025
▁objem	-10.025
die	-10.0253
čkou	-10.0254
▁komor	-10.0256
kan	-10.0257
▁nos	-10.0258
▁čet	-10.0261
▁počátkem	-10.0264
▁provincie	-10.0264
▁záležitost	-10.0264
▁web	-10.0267
▁účel	-10.027
ju	-10.0271
stoupen	-10.0286
▁doktor	-10.0289
list	-10.0289
▁tour	-10.0291
▁(2	-10.0297
▁přesně	-10.0298
▁sklad	-10.0304
▁moři	-10.0307
jet	-10.0309
▁autorem	-10.0314
▁(15	-10.0316
▁mr	-10.0316
▁klíč	-10.0317
ografie	-10.0319
▁bílé	-10.0325
▁bohu	-10.0326
▁nacházejí	-10.0335
▁navštívil	-10.0338
▁obsadil	-10.0338
▁oženil	-10.0338
▁hned	-10.0338
▁používání	-10.0338
▁jsem	-10.0339
▁pokles	-10.0339
▁polska	-10.0344
▁členové	-10.0349
cz	-10.0356
čnou	-10.0357
▁partner	-10.0362
▁žánr	-10.0362
▁odsouzen	-10.0363
▁vznikají	-10.0366
▁návratu	-10.0367
▁přispěl	-10.037
cl	-10.0373
itelné	-10.0379
íků	-10.0381
div	-10.0381
▁míry	-10.0385
▁verzi	-10.0385
▁legend	-10.0386
▁jupiter	-10.0387
▁zimní	-10.039
▁histori	-10.0391
tání	-10.0398
▁zavedl	-10.0399
▁víry	-10.0401
▁známo	-10.0401
▁zúčastnil	-10.0412
▁žijící	-10.0413
▁nucen	-10.0419
▁ruský	-10.042
rab	-10.0421
lín	-10.0422
▁hraje	-10.0423
cké	-10.0427
con	-10.0429
sloven	-10.043
▁lidové	-10.043
▁proudu	-10.0431
▁druhého	-10.0433
ivost	-10.044
▁21	-10.0451
▁malá	-10.0456
art	-10.0456
▁matka	-10.0458
▁rodina	-10.0463
▁stan	-10.0465
▁jednotliv	-10.0475
gar	-10.0476
▁skutečnost	-10.0477
▁start	-10.0478
luč	-10.0478
▁rez	-10.048
▁region	-10.048
▁paříž	-10.0483
▁form	-10.0485
▁územní	-10.0488
▁rozpad	-10.049
▁venkov	-10.0494
▁jiný	-10.0504
▁pat	-10.0505
ávat	-10.0511
▁krize	-10.0512
▁tažení	-10.0512
▁pořad	-10.0514
▁politika	-10.0514
▁půdy	-10.0531
▁soustav	-10.0532
▁pedagog	-10.0537
▁pól	-10.0537
▁sad	-10.0537
▁1996	-10.0537
▁chlad	-10.054
šan	-10.0544
▁filozofie	-10.0545
ling	-10.0545
▁rukou	-10.0546
dar	-10.0555
lf	-10.0556
▁hospodářské	-10.0562
▁novým	-10.0564
ává	-10.0564
mas	-10.0574
▁řeka	-10.0576
▁cesty	-10.0585
vržen	-10.0585
▁rozměr	-10.0586
ml	-10.0586
▁vratislav	-10.0587
▁viktor	-10.0587
▁cizí	-10.059
tj	-10.0591
hat	-10.0594
▁šach	-10.0596
▁amerických	-10.0599
éra	-10.0608
bat	-10.0615
▁komise	-10.0615
▁navrhl	-10.0616
tina	-10.0621
▁frank	-10.0622
▁konstant	-10.0622
vláda	-10.0622
▁paliv	-10.063
▁regionální	-10.0632
о	-10.0637
▁definován	-10.0638
▁knize	-10.0638
▁omezení	-10.0639
▁bran	-10.0643
,7	-10.0643
▁dobré	-10.0645
izované	-10.0647
lev	-10.0648
▁listin	-10.065
▁29.	-10.0655
naté	-10.0655
°	-10.0658
▁autorů	-10.066
▁považuje	-10.0661
pel	-10.0662
▁zákaz	-10.0663
▁řazen	-10.0663
fes	-10.0672
obraz	-10.0673
▁ruska	-10.068
▁stud	-10.0682
▁boji	-10.0682
▁souřadnic	-10.0685
▁tradici	-10.0685
blíž	-10.0688
▁podporoval	-10.0688
▁chemické	-10.069
▁bou	-10.0691
křesťan	-10.0696
▁josefa	-10.0697
▁kata	-10.0698
▁klid	-10.0702
▁oddíl	-10.0703
▁ut	-10.071
▁prezidentem	-10.071
▁struktur	-10.0711
▁komplex	-10.0712
▁británii	-10.0714
▁sčítání	-10.0714
kova	-10.0715
▁pravidla	-10.0715
▁23.	-10.0723
▁patri	-10.0724
▁němci	-10.0726
sr	-10.0727
stává	-10.0727
▁jas	-10.073
chan	-10.0735
tepl	-10.0736
př	-10.0737
kých	-10.0739
▁smysl	-10.0741
hav	-10.0754
▁hrob	-10.0755
▁tras	-10.0756
stu	-10.0761
▁rozsáhl	-10.0763
▁rezerv	-10.0765
tráv	-10.0767
▁poznání	-10.0767
▁karlov	-10.0767
išť	-10.0768
itou	-10.077
▁jisté	-10.077
dol	-10.0771
▁básní	-10.0774
vát	-10.0785
▁okresu	-10.0786
itelný	-10.0787
dání	-10.0789
▁podmínek	-10.0791
▁krátké	-10.0791
▁určit	-10.0796
při	-10.0802
nika	-10.0803
poli	-10.0804
▁kro	-10.0806
▁atmosféry	-10.0809
▁výsledky	-10.0816
▁lepší	-10.0816
▁22.	-10.0817
vých	-10.0822
tah	-10.0823
▁těla	-10.0827
▁čase	-10.083
ré	-10.0836
▁zlato	-10.0838
▁půd	-10.0839
▁firmy	-10.0842
▁řetěz	-10.0842
▁sídlem	-10.0842
ela	-10.0843
▁sjezd	-10.0843
▁ameriky	-10.0845
▁mini	-10.0846
iš	-10.0846
▁jiného	-10.0851
▁dna	-10.0855
▁sym	-10.0857
▁orl	-10.086
ovce	-10.0862
bez	-10.0862
▁literatura	-10.0868
▁výroby	-10.0868
▁samospráv	-10.0868
▁rozhraní	-10.0868
▁zbytek	-10.0868
▁1993	-10.0869
▁černé	-10.0874
▁čínské	-10.0875
▁george	-10.0877
▁"(	-10.088
nebo	-10.0884
▁soch	-10.0885
rup	-10.0889
×	-10.0894
▁lokomotiv	-10.0894
▁přední	-10.0895
▁pohoří	-10.0896
bus	-10.0913
▁vodě	-10.0916
▁únoru	-10.0918
▁caesar	-10.092
▁československo	-10.092
▁československý	-10.092
▁zůstává	-10.0921
▁jádra	-10.0922
▁mladý	-10.0923
▁psa	-10.0924
▁staly	-10.0926
střel	-10.0933
▁olomouc	-10.0937
▁snadno	-10.0938
▁fal	-10.0945
▁1920	-10.0948
ura	-10.0948
vala	-10.095
▁%.	-10.0952
▁24.	-10.0958
▁kult	-10.0961
▁řad	-10.0962
well	-10.0967
▁ukázal	-10.097
komunist	-10.0971
▁nahrazen	-10.0973
▁bůh	-10.0973
▁samotný	-10.0974
tz	-10.0976
ale	-10.0984
▁štít	-10.0986
▁uspořádání	-10.099
▁soustavě	-10.0992
▁deset	-10.0995
▁navzdory	-10.0999
▁kardinál	-10.0999
▁vedla	-10.0999
▁„"	-10.1009
▁posun	-10.101
zer	-10.1011
háj	-10.1011
ani	-10.1014
tín	-10.1017
▁pozice	-10.1017
vič	-10.1018
bělorusk	-10.1023
▁básně	-10.1025
▁známá	-10.1027
▁zbývá	-10.1028
alizace	-10.1029
▁předsedou	-10.1033
▁bývalý	-10.1039
ret	-10.1042
▁pen	-10.1053
▁moment	-10.1057
▁vládní	-10.1062
▁nastoupil	-10.1062
pustil	-10.1064
▁pád	-10.1066
▁ger	-10.1073
ller	-10.1076
▁hypotéz	-10.1078
▁použít	-10.1078
▁nim	-10.1079
▁pojmenován	-10.1079
rich	-10.1079
,8	-10.1079
▁společné	-10.1085
ovci	-10.1088
měnit	-10.1094
▁druhým	-10.1095
▁pozornost	-10.1096
▁hebrej	-10.1098
▁drobn	-10.11
▁oslav	-10.1101
▁přijetí	-10.1105
▁dylan	-10.1105
▁grand	-10.1108
▁soudní	-10.1109
prost	-10.111
ram	-10.1112
▁forma	-10.1113
▁červenci	-10.1123
▁26.	-10.1124
▁dosahuje	-10.1135
▁ksč	-10.1137
▁povolen	-10.114
_3	-10.1142
▁35	-10.1149
onální	-10.1149
▁volné	-10.115
vací	-10.1151
▁soli	-10.1152
):	-10.1153
cházet	-10.1153
▁celo	-10.1154
▁pardubic	-10.1158
olit	-10.1158
▁vlast	-10.1161
▁novin	-10.1163
▁roztok	-10.1166
tzn	-10.1166
nie	-10.1167
jíž	-10.1169
maďar	-10.1171
▁past	-10.1172
zin	-10.1173
▁mer	-10.1177
get	-10.1182
▁kandidát	-10.1184
▁generace	-10.1184
▁podstatě	-10.1185
▁mandát	-10.1185
▁2022	-10.1188
▁cca	-10.1192
tická	-10.1197
▁býval	-10.1199
ert	-10.1204
hnout	-10.1209
▁polsko	-10.121
▁tabul	-10.1211
▁pocházel	-10.1211
▁katolický	-10.1211
▁odešel	-10.1212
▁přišel	-10.122
▁základem	-10.1224
▁+	-10.1226
▁ple	-10.1228
▁tvrdí	-10.1228
přeměn	-10.123
▁františka	-10.1233
ovník	-10.1235
▁srpnu	-10.1238
▁bronz	-10.1238
▁parametr	-10.1239
▁nahradil	-10.124
▁svátek	-10.124
▁německá	-10.1241
▁světového	-10.1242
▁dubnu	-10.1242
▁obsahují	-10.1246
▁zanikl	-10.1246
▁umožňují	-10.1265
▁bas	-10.1267
▁sněm	-10.1269
▁petra	-10.1274
▁šíření	-10.1277
▁českou	-10.1279
▁poblíž	-10.128
▁22	-10.1286
▁(16	-10.1287
▁daně	-10.129
▁mistrovství	-10.1292
▁vyznání	-10.1292
▁přírodě	-10.1292
▁českým	-10.1293
▁potok	-10.1295
ida	-10.1297
▁závislosti	-10.13
lové	-10.1301
▁jízd	-10.1302
▁aktivit	-10.1307
▁map	-10.1308
štinu	-10.1309
▁up	-10.1314
▁platnost	-10.1317
▁společností	-10.1323
▁řadí	-10.1326
▁řecké	-10.1326
▁pražský	-10.1328
line	-10.1337
▁škole	-10.1342
▁dosavadní	-10.1346
▁ročně	-10.135
▁příchod	-10.1352
▁kanál	-10.1354
▁der	-10.1359
▁sovětské	-10.1363
▁průzkum	-10.1374
▁vytvořit	-10.1374
▁1944	-10.1374
▁írán	-10.1376
▁mnich	-10.138
▁příčin	-10.1388
▁pravidel	-10.1389
▁silnice	-10.1393
▁zásadní	-10.1394
řka	-10.14
člen	-10.1401
▁vypl	-10.1419
▁tón	-10.1422
ken	-10.1424
▁št	-10.1424
▁sond	-10.1424
▁david	-10.1424
▁malých	-10.1427
▁nacházel	-10.1428
▁charakteristik	-10.1428
▁evropa	-10.1429
▁předtím	-10.1429
▁založené	-10.143
▁dvakrát	-10.1434
▁údajně	-10.1438
▁soused	-10.145
▁alkohol	-10.1456
hrn	-10.1456
▁organizací	-10.1457
▁fotograf	-10.1459
▁senát	-10.146
▁neod	-10.147
▁mis	-10.1481
▁zabýval	-10.1481
děj	-10.1481
▁označil	-10.1483
▁rozšiř	-10.1484
▁anglický	-10.1486
▁wal	-10.1488
▁významný	-10.1489
ile	-10.149
▁setkal	-10.149
▁připojen	-10.1498
▁ods	-10.1511
▁svato	-10.1511
▁píseň	-10.1511
▁úplně	-10.1511
▁pravomoc	-10.1512
áním	-10.1512
▁asie	-10.1516
▁ulici	-10.1519
jako	-10.152
razil	-10.153
▁spis	-10.1535
▁samostatný	-10.1539
▁anglie	-10.1539
▁char	-10.1541
váděl	-10.1544
▁proběhl	-10.1547
▁oddělen	-10.155
▁tvořil	-10.1551
▁400	-10.1555
▁bývají	-10.1558
▁produkce	-10.1566
▁zrychlení	-10.1566
▁většině	-10.1566
▁desetiletí	-10.1567
▁zachoval	-10.1567
vázán	-10.1573
▁skutečně	-10.1575
▁bre	-10.159
▁létě	-10.1595
▁antonín	-10.1597
▁nález	-10.16
▁letní	-10.1602
▁formy	-10.1607
▁50.	-10.1608
tice	-10.1611
kv	-10.1611
▁noviny	-10.1612
▁podél	-10.1617
▁informací	-10.1622
▁dolarů	-10.1623
gn	-10.1625
▁výměn	-10.1625
▁pě	-10.1626
▁formát	-10.1628
▁projektu	-10.1629
▁johann	-10.1629
▁společný	-10.163
▁znaků	-10.1631
lka	-10.1633
▁luc	-10.1635
▁formální	-10.1636
▁turné	-10.1638
ejší	-10.1641
▁jezera	-10.1644
▁super	-10.1648
▁men	-10.165
▁ohrožen	-10.165
▁mládí	-10.165
▁anglii	-10.165
▁vysoká	-10.165
▁demokrat	-10.1651
▁prvek	-10.1652
▁orgán	-10.1659
▁novinář	-10.1664
▁del	-10.1666
laj	-10.1672
▁světlo	-10.1674
▁jinými	-10.1675
ingu	-10.1677
▁svobody	-10.1677
▁představoval	-10.1678
▁plzeň	-10.1678
▁1995	-10.1679
▁elektr	-10.1684
▁vojsko	-10.1687
▁přirozené	-10.1689
▁sb	-10.169
▁bomb	-10.1692
rin	-10.1695
ory	-10.1697
▁struktury	-10.1702
▁jakož	-10.1703
▁bavor	-10.1715
▁cu	-10.1716
part	-10.1719
▁malý	-10.1719
▁věda	-10.1729
▁vyhlášen	-10.1731
psané	-10.1732
▁školu	-10.1735
▁tchaj	-10.1735
▁1997	-10.1736
▁1960	-10.1736
▁stavby	-10.1752
▁nazvan	-10.1753
▁zvané	-10.1762
▁africe	-10.1763
▁zbraní	-10.1764
▁vydává	-10.1768
▁obnoven	-10.177
▁23	-10.1771
▁potřeba	-10.1775
čan	-10.1776
▁zón	-10.1776
▁významných	-10.1777
▁středu	-10.1779
▁každá	-10.1783
ony	-10.1785
▁úřadu	-10.1786
▁tele	-10.1786
“).	-10.1787
▁aplikace	-10.1792
▁blízkosti	-10.1793
▁přesvědč	-10.1796
▁sebou	-10.1798
stro	-10.1806
▁nemají	-10.1807
ett	-10.1807
růst	-10.1807
stři	-10.1811
wer	-10.1813
▁padl	-10.1817
▁závisí	-10.182
▁popular	-10.182
▁1940	-10.1821
▁takzvan	-10.1822
bet	-10.1823
▁třech	-10.1824
▁technické	-10.1825
▁kub	-10.1829
šle	-10.183
▁světová	-10.1834
spor	-10.1835
▁skupinu	-10.1837
ria	-10.1843
▁zvaný	-10.1848
▁revoluci	-10.1849
▁1950	-10.185
▁festival	-10.1851
▁úz	-10.1856
▁životě	-10.1858
▁kódu	-10.1858
▁problémů	-10.1859
▁technik	-10.1869
▁vlivu	-10.187
▁vojenský	-10.1871
tre	-10.1873
▁pořadí	-10.1876
▁největších	-10.1876
▁potvrdil	-10.1877
▁využívají	-10.1877
▁richard	-10.1877
sper	-10.1882
▁zlaté	-10.1888
▁získali	-10.1889
▁mluví	-10.1898
▁disciplín	-10.1906
▁konstantinopol	-10.1906
▁zavedení	-10.1906
▁delší	-10.191
▁několikrát	-10.1912
▁jiným	-10.1915
patr	-10.1918
▁rychlostí	-10.1925
▁chov	-10.1928
▁velení	-10.1928
▁institut	-10.1935
▁podepsal	-10.1935
▁1941	-10.1936
▁západo	-10.1939
▁mohlo	-10.1949
▁názory	-10.1958
pos	-10.196
▁cíle	-10.1962
ometr	-10.1963
▁kterému	-10.1964
stv	-10.1964
▁krystal	-10.1964
▁1949	-10.1965
▁york	-10.1965
pouští	-10.1966
▁zápas	-10.1967
▁češtině	-10.1967
▁cesta	-10.1971
▁sloves	-10.1981
▁pravé	-10.1981
▁osud	-10.1986
▁vynález	-10.1993
▁vatikán	-10.1993
▁saturn	-10.1993
▁pozdní	-10.1993
▁jedinou	-10.1994
sud	-10.1997
▁italské	-10.2001
vice	-10.2006
drží	-10.2017
▁předseda	-10.2018
▁lan	-10.202
▁ukončil	-10.2022
▁žilo	-10.2022
▁vybudován	-10.2022
▁uherské	-10.2023
▁1919	-10.2023
▁vládě	-10.2023
ens	-10.2025
dár	-10.2029
stroj	-10.2033
▁vykoná	-10.2037
▁brno	-10.2039
▁stavba	-10.2042
▁alba	-10.2046
cům	-10.2048
▁32	-10.2049
kot	-10.2051
▁buňky	-10.2051
▁moravy	-10.2052
▁subjekt	-10.2053
▁různými	-10.2054
austral	-10.206
▁průmyslové	-10.2061
alit	-10.2063
▁lodě	-10.2066
▁svá	-10.2067
▁mohli	-10.2069
san	-10.207
morf	-10.2072
▁argument	-10.208
▁hdp	-10.2081
stein	-10.2082
▁há	-10.2084
oko	-10.2088
ther	-10.209
▁dan	-10.2091
▁27.	-10.2092
▁kaz	-10.2094
▁rot	-10.2101
▁belg	-10.2102
pěst	-10.2105
▁prospěch	-10.2109
▁sídlo	-10.211
▁fl	-10.211
▁záměr	-10.2113
▁vlastnost	-10.2114
▁beroun	-10.2122
▁smí	-10.2123
▁státem	-10.2123
ologii	-10.2128
▁novém	-10.2129
sche	-10.2129
azují	-10.2133
▁přemyslov	-10.2135
ovité	-10.2136
▁stěn	-10.2138
▁studií	-10.214
▁hornin	-10.2144
dávají	-10.2152
ených	-10.2155
▁flor	-10.216
▁východo	-10.2165
▁prostředky	-10.2169
▁řecký	-10.2169
▁zvyk	-10.2172
grad	-10.2172
▁číny	-10.2173
ujícím	-10.2175
▁hrub	-10.2176
▁linie	-10.2181
▁maj	-10.2183
▁vysokých	-10.2186
▁pozorovatel	-10.2192
▁účelem	-10.2195
▁jaké	-10.2197
▁existenci	-10.2198
▁členění	-10.2201
▁starost	-10.2209
▁pravidelně	-10.221
▁nejvýznamnějším	-10.2211
▁pádu	-10.2214
buněčn	-10.2216
▁dostala	-10.2217
přes	-10.2221
izací	-10.2222
▁úroveň	-10.2228
▁soupeř	-10.2228
pin	-10.2228
▁pohledu	-10.2228
▁třetin	-10.2228
2,	-10.2232
▁radio	-10.2234
▁přijímá	-10.2236
▁sami	-10.2238
▁anglické	-10.224
▁vládou	-10.2243
▁těmi	-10.2244
▁ostrova	-10.2247
prostřed	-10.2249
▁dům	-10.2252
anů	-10.2256
král	-10.2256
▁papeže	-10.2258
▁autobus	-10.2258
▁použil	-10.2259
▁ekonomika	-10.226
▁městech	-10.2262
▁dohody	-10.2264
▁polsku	-10.2265
▁ekonomický	-10.2265
▁odkazy	-10.2266
ectví	-10.2269
▁tepeln	-10.2271
íme	-10.2271
▁koncilu	-10.2272
▁přímé	-10.2277
▁zvýšení	-10.2278
▁souhlas	-10.2281
elný	-10.2281
▁politiku	-10.2284
▁vladimír	-10.2287
▁žádost	-10.2287
vita	-10.2287
▁americe	-10.2287
▁všem	-10.229
▁doba	-10.2294
▁domů	-10.2297
▁možnosti	-10.2299
▁texty	-10.2305
▁veškeré	-10.2314
▁románu	-10.2315
▁španělské	-10.2315
▁globální	-10.2317
▁jazycích	-10.2317
▁1946	-10.2318
▁značn	-10.2319
▁struktura	-10.2332
▁švéd	-10.2339
lární	-10.2339
ovič	-10.2343
distribu	-10.2347
▁atmosféře	-10.2347
▁dětství	-10.2347
▁písní	-10.2348
▁udělen	-10.2349
▁mladé	-10.2349
▁styk	-10.2352
▁chemický	-10.2353
▁lodí	-10.2353
▁asii	-10.2354
▁sama	-10.2354
zně	-10.2355
▁občas	-10.2358
▁opatření	-10.2367
▁snížení	-10.2373
▁těžké	-10.2377
è	-10.2377
▁jazyce	-10.2377
▁okraj	-10.2383
tus	-10.2383
="14	-10.2388
▁neroz	-10.2394
▁označen	-10.2398
ers	-10.2402
▁signál	-10.2408
▁ocel	-10.241
▁nástroje	-10.242
▁trhu	-10.2421
kování	-10.2428
▁vrcholu	-10.2428
▁běžný	-10.2429
▁scénář	-10.243
dával	-10.2431
old	-10.2432
▁uk	-10.2435
▁teorií	-10.2438
▁afriky	-10.2438
▁zvítězil	-10.2438
:|	-10.244
▁adam	-10.2447
▁občanů	-10.245
▁apoštol	-10.2468
▁próz	-10.2468
▁výpočet	-10.2469
▁auto	-10.2474
přirozený	-10.2477
▁veřejnosti	-10.2483
cházejí	-10.2483
▁27	-10.2484
▁pand	-10.2485
▁panství	-10.2485
nicí	-10.2486
▁ek	-10.2491
ise	-10.2495
▁chi	-10.2497
▁uskutečnil	-10.2499
▁názvy	-10.2499
▁daniel	-10.2499
▁konec	-10.25
▁bodů	-10.2504
▁hodnost	-10.2512
▁vládl	-10.2513
lum	-10.2518
ovky	-10.252
▁tradičně	-10.2529
▁index	-10.2529
▁průměru	-10.253
▁telefon	-10.253
dnes	-10.2531
▁vídeň	-10.2535
ině	-10.2542
▁pražského	-10.2543
síla	-10.2545
▁něhož	-10.2546
▁kul	-10.2549
▁studiu	-10.2552
jez	-10.256
▁rock	-10.2565
▁ropy	-10.2567
,9	-10.2569
▁biolog	-10.2575
▁kníže	-10.2581
▁dispozici	-10.2591
▁ochranu	-10.2591
gres	-10.2592
▁vodíku	-10.2592
▁kup	-10.26
▁elektrického	-10.2601
▁hlasů	-10.2608
▁noci	-10.2612
kají	-10.2616
istická	-10.2618
přím	-10.262
▁posledním	-10.2621
com	-10.2621
▁majetku	-10.2622
▁poezie	-10.2622
▁délky	-10.2622
▁možná	-10.2622
týká	-10.2622
▁tok	-10.263
izuje	-10.2632
▁bílý	-10.2641
čel	-10.2643
▁budova	-10.2644
bývá	-10.2645
kin	-10.2652
▁definitivně	-10.2653
▁hloub	-10.2653
▁tvrzení	-10.2653
▁vyš	-10.2654
▁společenské	-10.2656
▁událost	-10.2661
▁ros	-10.2663
▁obchodu	-10.2664
▁událostí	-10.2664
▁objevují	-10.2665
▁mrav	-10.2671
▁teplo	-10.2675
▁literaturu	-10.2677
pur	-10.2677
▁každého	-10.2678
bro	-10.2679
▁monarchie	-10.2684
▁metoda	-10.2687
lice	-10.2694
bož	-10.2694
▁art	-10.2696
▁ústavní	-10.2703
▁zisk	-10.2704
▁magnetické	-10.2709
ifikace	-10.271
tříd	-10.2713
▁revoluční	-10.2714
▁předpoklad	-10.2715
▁televize	-10.2715
▁publika	-10.2715
rek	-10.2716
▁robot	-10.2718
▁trvá	-10.2719
▁pověst	-10.2721
▁meteor	-10.2725
▁spolkov	-10.2726
▁vlastností	-10.2729
▁porad	-10.2734
▁každém	-10.2735
▁žák	-10.2735
▁připojení	-10.2739
▁myšlení	-10.274
dělá	-10.274
▁dny	-10.274
▁kolo	-10.2744
sion	-10.2745
▁počáteční	-10.2746
▁end	-10.2749
▁společenský	-10.275
▁komet	-10.2755
▁spory	-10.2758
ino	-10.2759
▁latinské	-10.2773
▁referend	-10.2777
▁zastupitel	-10.2777
▁historických	-10.2778
skop	-10.2778
ef	-10.2787
▁česky	-10.2791
▁myšlenky	-10.2797
▁vnímán	-10.2802
▁nám	-10.2803
▁nese	-10.2803
▁výklad	-10.281
▁filmové	-10.281
▁energetick	-10.2811
cas	-10.2814
▁výboru	-10.2816
žít	-10.2816
▁nikoli	-10.2823
▁odboj	-10.2837
3.	-10.2837
tav	-10.284
▁demokracie	-10.284
▁výhradně	-10.284
▁1969	-10.2841
ped	-10.2842
▁bern	-10.2843
▁milost	-10.2843
▁nomin	-10.2846
▁hoře	-10.2847
▁agent	-10.2855
2)	-10.2859
▁italský	-10.2863
▁široké	-10.2869
▁trať	-10.2872
▁válkou	-10.2873
▁změnu	-10.2876
▁bol	-10.2876
cký	-10.2877
▁umělecké	-10.2879
▁prvo	-10.2879
▁daň	-10.2884
▁zdrojem	-10.2885
▁19	-10.2897
▁spolupráce	-10.2904
▁úspěšně	-10.2904
▁výšce	-10.2904
▁technologie	-10.2905
▁skaut	-10.2907
▁břehu	-10.2909
▁kas	-10.2914
▁voják	-10.2914
▁dnů	-10.2915
▁krás	-10.2916
▁kolej	-10.2923
▁int	-10.2925
▁zákonem	-10.2929
eng	-10.2932
▁neustále	-10.2936
▁vhodné	-10.2936
▁absolutní	-10.2937
▁vývoji	-10.2938
▁moravě	-10.2939
▁číně	-10.294
▁těch	-10.2941
▁veličin	-10.2945
▁textů	-10.2949
▁turistick	-10.295
▁ostrově	-10.2956
▁hydro	-10.2961
▁plan	-10.2963
▁končí	-10.2963
▁materiálu	-10.2964
▁tisíciletí	-10.2968
anglicky	-10.2969
▁účastnil	-10.2971
▁vyb	-10.2971
▁sílu	-10.2972
dis	-10.2976
▁volen	-10.2978
▁body	-10.2979
▁osmi	-10.2983
▁cor	-10.2984
▁druhém	-10.2987
▁hora	-10.2989
▁zřízení	-10.2996
▁zřízen	-10.3
▁stejnou	-10.3
▁divadle	-10.3
▁slovensku	-10.3
▁soudu	-10.3
▁vymezen	-10.3
▁rizik	-10.3
▁tělo	-10.3001
kud	-10.3004
▁tepla	-10.3007
mile	-10.3007
▁dost	-10.301
▁zahájen	-10.3012
▁automat	-10.3017
▁zařazen	-10.3032
nová	-10.3033
▁vešker	-10.3035
▁získává	-10.3037
dh	-10.3038
▁těm	-10.304
▁snah	-10.3042
dik	-10.3045
▁ústavy	-10.3045
▁van	-10.3054
▁trop	-10.3054
▁zákonů	-10.3054
▁lenin	-10.3057
▁obyvatelé	-10.306
▁pohřben	-10.3064
▁vycházel	-10.3064
▁nádraží	-10.3064
▁uváděn	-10.3064
▁dialekt	-10.3064
▁učinil	-10.3065
▁26	-10.307
–15	-10.3075
▁vysílání	-10.3078
▁ukončení	-10.3081
ářů	-10.3081
čísl	-10.3082
▁jihovýchodní	-10.3084
▁nazýván	-10.3087
anti	-10.3087
bsd	-10.3093
▁publikoval	-10.3096
▁tvorby	-10.3096
▁rekord	-10.3096
▁čtenář	-10.3097
▁historický	-10.3097
▁1980	-10.3098
▁kos	-10.3099
▁stavební	-10.3104
lus	-10.3105
ováni	-10.3109
▁válečné	-10.3114
▁lidských	-10.3116
▁potenciál	-10.3122
▁anton	-10.3126
▁tvorbě	-10.3129
▁využít	-10.3129
▁vůdce	-10.3129
ovec	-10.313
▁slovensko	-10.3132
▁pravo	-10.3137
david	-10.3141
▁pracovat	-10.3143
▁oprav	-10.3146
▁děje	-10.3147
▁cyklist	-10.3151
▁čtvrti	-10.3154
▁dosáhnout	-10.3161
▁nazývají	-10.3161
▁oznámil	-10.3161
▁hospodářský	-10.3162
▁estonsk	-10.3162
▁verzí	-10.3163
kání	-10.3173
▁standardní	-10.3182
▁maso	-10.3186
▁rudé	-10.3186
▁programy	-10.3187
kročil	-10.3194
▁madrid	-10.3194
▁důraz	-10.3194
▁autoři	-10.3198
▁formálně	-10.32
▁nik	-10.3205
▁stylu	-10.3208
▁nástupce	-10.321
▁zemský	-10.321
▁krym	-10.3217
stavil	-10.3217
▁píše	-10.3226
▁katastrof	-10.3227
▁smlouva	-10.3227
▁reakci	-10.3227
▁účinnost	-10.3227
▁srovnání	-10.3227
▁přístroj	-10.3232
–17	-10.3235
▁fla	-10.3239
▁nejvyšším	-10.324
▁(14	-10.3247
▁správy	-10.3249
▁dobro	-10.3255
▁činil	-10.3258
▁politický	-10.3258
▁poskytuje	-10.326
▁schopen	-10.326
▁navázal	-10.326
▁firma	-10.326
▁komplexní	-10.3262
▁bible	-10.3263
▁maximální	-10.3264
▁vzájemné	-10.3265
▁prach	-10.3275
▁vlastním	-10.3279
jak	-10.3283
▁bob	-10.3287
▁ras	-10.3291
ł	-10.3293
▁pravděpodobnost	-10.3293
▁funkční	-10.3293
▁řecko	-10.3293
▁pilot	-10.3294
▁vypukl	-10.3294
▁charles	-10.3295
▁nejméně	-10.3295
▁dostalo	-10.3297
▁trub	-10.33
▁zprávy	-10.3303
▁registr	-10.3309
histo	-10.3309
▁'	-10.3309
▁provedl	-10.3314
▁toku	-10.3322
gol	-10.3323
▁žid	-10.3324
▁organismů	-10.3326
▁vídni	-10.3326
▁vyroben	-10.3326
▁nemusí	-10.3326
▁západním	-10.3332
▁oxidu	-10.3335
▁převod	-10.3338
▁předmětem	-10.334
▁oceánu	-10.3341
vědomí	-10.3342
▁chal	-10.3342
▁ocenění	-10.3344
▁bojů	-10.3345
▁dnech	-10.3346
▁náklad	-10.3347
▁věk	-10.3347
▁časopisu	-10.3349
▁prsten	-10.3352
▁celkový	-10.3353
▁domén	-10.3356
▁náhod	-10.3359
▁výsledek	-10.3359
▁zvýšil	-10.3359
▁fáze	-10.3359
▁1961	-10.336
▁1917	-10.336
▁upraven	-10.3362
fal	-10.3371
gra	-10.3376
zar	-10.3385
▁představují	-10.3386
▁moravské	-10.3389
▁blízké	-10.3392
▁vyjadřuje	-10.3392
▁dvanáct	-10.3392
▁výzkumu	-10.3396
▁silnic	-10.3397
▁sousední	-10.34
telná	-10.3403
▁vyšla	-10.3406
▁dobrý	-10.3412
▁blízko	-10.3424
čar	-10.3425
▁římě	-10.3426
▁kapitol	-10.3426
istických	-10.3428
▁stává	-10.3434
koliv	-10.3435
▁slavnost	-10.344
dávat	-10.3446
ske	-10.3446
▁teror	-10.3449
▁august	-10.3453
▁důležitým	-10.3453
▁důležitou	-10.3459
▁konstrukce	-10.3459
▁zástupci	-10.3459
▁rychlé	-10.3459
▁básnick	-10.346
▁historicky	-10.346
▁zbraně	-10.346
▁slitin	-10.3464
▁parlamentní	-10.347
▁brod	-10.3473
▁černý	-10.3473
▁psycholog	-10.3475
▁masaryk	-10.3476
cká	-10.3476
▁can	-10.3479
▁(*	-10.3479
▁osoby	-10.3485
▁peck	-10.3485
▁magnet	-10.3487
▁muži	-10.3492
▁nejnižší	-10.3493
▁připojil	-10.3493
▁výslovnost	-10.3493
▁elektromagnet	-10.3493
lotyšsk	-10.3494
▁vyvolal	-10.3495
▁balkán	-10.3497
▁zůstala	-10.3497
▁starého	-10.3497
▁jader	-10.3498
▁jean	-10.35
▁labem	-10.3503
▁obsahující	-10.3504
boh	-10.3511
vlast	-10.352
▁rovnic	-10.3527
▁knížectví	-10.3527
▁působnost	-10.3527
▁zboží	-10.3527
▁obsahoval	-10.3535
ley	-10.3541
▁150	-10.3555
mýt	-10.3558
▁nedaleko	-10.3561
▁schválen	-10.3561
▁písmo	-10.3561
▁vilém	-10.3562
gg	-10.357
mot	-10.3574
/19	-10.3582
▁překladu	-10.3585
▁bezpečnosti	-10.3587
▁plochy	-10.3588
▁muslim	-10.3588
set	-10.3592
▁nalézt	-10.3595
▁zásah	-10.3595
▁mohutn	-10.3596
▁dobrovoln	-10.3601
▁znamenal	-10.3606
▁národním	-10.3607
▁deník	-10.3608
▁plynů	-10.361
▁civil	-10.3614
▁max	-10.3614
▁původních	-10.3615
▁soustava	-10.3617
fran	-10.3622
▁vlastně	-10.3628
▁chápán	-10.3629
▁nízké	-10.3629
▁politická	-10.363
▁kategorie	-10.364
▁dlouhou	-10.3642
rozum	-10.3648
účast	-10.3649
gal	-10.3651
sor	-10.3651
ňovat	-10.3655
▁hmoty	-10.3659
▁úst	-10.3659
▁role	-10.3662
▁pojmenování	-10.3662
▁jmenoval	-10.3662
▁federální	-10.3663
▁nezávislý	-10.3663
▁svěrák	-10.3663
▁používaný	-10.3663
▁diplomat	-10.3664
▁1921	-10.3665
▁životopis	-10.3668
▁naše	-10.367
▁závěr	-10.3677
▁uran	-10.3681
▁carl	-10.3683
bral	-10.3689
▁hudba	-10.3698
▁thomas	-10.3698
▁tramvaj	-10.3698
▁otakar	-10.3698
▁nějaký	-10.3698
učit	-10.37
▁kytar	-10.37
▁rozdíly	-10.3702
▁zdá	-10.3702
▁skupinou	-10.3703
izovaný	-10.3704
▁unix	-10.3706
▁1000	-10.3706
ovská	-10.3709
▁povinnost	-10.3712
▁rozpadu	-10.3712
ight	-10.3714
▁typické	-10.3716
mezi	-10.3716
▁míře	-10.3716
▁působící	-10.372
tedy	-10.3727
ring	-10.3728
▁karlovy	-10.3732
▁zakázán	-10.3732
▁stabilní	-10.3732
bb	-10.3732
▁krátký	-10.3734
▁zkoumání	-10.3735
▁způsoby	-10.3735
▁techniky	-10.3743
▁zdejší	-10.3743
▁hod	-10.3747
▁objevila	-10.375
lig	-10.3752
▁sdružení	-10.3753
lování	-10.376
▁pap	-10.3761
▁přítomnost	-10.3762
▁finsko	-10.3763
▁sar	-10.3766
▁tvorba	-10.3767
▁james	-10.3768
▁stupně	-10.3768
brž	-10.3772
▁dítě	-10.3774
▁užívá	-10.3775
▁socialismu	-10.3779
▁rozvoje	-10.3783
rub	-10.3785
▁...	-10.3785
▁oddělení	-10.3787
vad	-10.3798
▁jaře	-10.3799
▁považovat	-10.3801
▁náboj	-10.3803
▁psaní	-10.3807
▁teplotě	-10.3812
▁180	-10.3815
dos	-10.3819
int	-10.382
býval	-10.3821
▁cm	-10.3822
▁výkonu	-10.3825
▁ročník	-10.3826
▁filosof	-10.3829
▁světovou	-10.3832
▁liturgi	-10.3836
▁chorob	-10.3837
▁původního	-10.3844
▁soukromé	-10.3855
obec	-10.3868
▁budějovic	-10.3871
▁odvětví	-10.3871
▁využil	-10.3871
▁délce	-10.3871
▁zjištěn	-10.3874
▁dětsk	-10.3874
▁dosáhla	-10.3877
▁vzdal	-10.3879
iss	-10.389
▁dřívější	-10.3906
▁potvrzen	-10.3906
▁politice	-10.3907
▁dvacet	-10.3911
▁die	-10.3911
▁bodu	-10.3911
▁odporu	-10.3918
▁oblak	-10.3919
▁kněž	-10.3922
▁ostrovů	-10.3931
▁průměrná	-10.3931
▁zrušení	-10.3938
padají	-10.3939
▁ústavu	-10.3939
▁oboru	-10.394
▁osídlení	-10.394
▁španělsko	-10.3941
▁instituce	-10.3941
▁hustota	-10.3942
▁vyvinut	-10.3942
▁konzul	-10.3943
ičky	-10.3949
▁národa	-10.395
▁dílem	-10.3959
jó	-10.3962
▁židovské	-10.3966
▁45	-10.3972
▁návrat	-10.3972
druh	-10.3973
jat	-10.3974
▁onemocnění	-10.3977
▁zastával	-10.3977
hard	-10.3977
▁proslavil	-10.3978
▁adolf	-10.3978
▁připraven	-10.3978
▁status	-10.398
▁komunikace	-10.3981
▁čár	-10.3985
▁kmeny	-10.3987
▁jejích	-10.399
▁cestě	-10.3991
▁okrese	-10.3991
pán	-10.3994
▁mol	-10.4002
▁popsal	-10.4005
jal	-10.4008
▁demokratické	-10.4012
▁brambor	-10.4012
▁unesco	-10.4012
▁vojenskou	-10.4012
nato	-10.4014
▁vodou	-10.4015
antní	-10.4016
▁titan	-10.4033
nus	-10.4035
šti	-10.4036
zub	-10.4044
▁hru	-10.4047
▁petrohrad	-10.4048
▁silniční	-10.4048
vádějí	-10.405
▁proudění	-10.4051
▁využíván	-10.4055
syn	-10.4057
ferenc	-10.4062
▁krátko	-10.4064
fra	-10.4068
▁ep	-10.4071
▁indo	-10.4081
▁gar	-10.4081
stávající	-10.4082
▁reálné	-10.4086
▁nárůst	-10.4087
▁kg	-10.409
alismus	-10.4096
sie	-10.41
ement	-10.4104
▁ovládl	-10.4105
kládat	-10.4107
▁rom	-10.4107
příbuzn	-10.4114
ois	-10.4116
letý	-10.4116
▁bohem	-10.4121
▁stejném	-10.4128
▁přeprav	-10.4128
byť	-10.4132
tisk	-10.414
▁stupni	-10.414
kyně	-10.4142
lík	-10.4147
pri	-10.4148
▁28	-10.415
▁zakladatele	-10.4152
▁příležitost	-10.4154
▁federace	-10.4155
▁podnebí	-10.4155
▁zástupce	-10.4155
▁zjistil	-10.4155
▁záp	-10.4155
▁dráha	-10.4155
▁rané	-10.416
▁přírodních	-10.4173
▁dostatečn	-10.4174
▁paříže	-10.418
▁politického	-10.4181
▁principu	-10.4182
▁skal	-10.4186
_4	-10.4186
▁škoda	-10.4186
▁rozvoji	-10.419
▁úspěšné	-10.4192
▁článek	-10.4192
▁licence	-10.4192
▁tajemník	-10.4192
▁liberální	-10.4194
▁rakous	-10.4195
▁věc	-10.4195
pět	-10.4196
▁lok	-10.4198
▁bon	-10.4199
kládání	-10.4205
–16	-10.4209
▁jakub	-10.4214
▁smrtí	-10.4218
▁okresní	-10.4219
▁charakteristick	-10.422
▁pes	-10.422
elnost	-10.4221
▁ham	-10.4221
▁negativní	-10.4228
▁sopečn	-10.423
▁místních	-10.4233
myš	-10.4234
▁ion	-10.424
▁rád	-10.4242
▁porazil	-10.4244
▁dunaj	-10.4245
▁severo	-10.4256
▁váh	-10.4261
▁mezinárodního	-10.4261
▁beneš	-10.4262
▁američan	-10.4264
▁komerční	-10.4264
▁širší	-10.4264
▁externí	-10.4264
▁vlastnictví	-10.4265
▁věž	-10.4265
▁1970	-10.4266
▁800	-10.427
▁rakouska	-10.4278
šov	-10.4278
▁jiná	-10.4279
*	-10.4279
▁projevil	-10.4281
▁nasazen	-10.4281
▁vést	-10.4284
ern	-10.4286
▁hromadn	-10.4288
▁filmů	-10.4294
▁polský	-10.4296
▁průběh	-10.43
▁tudíž	-10.4301
▁athén	-10.4301
▁vysoce	-10.4301
▁klient	-10.4301
vzdělan	-10.4302
▁vybaven	-10.4304
▁fer	-10.4307
▁typů	-10.4308
▁hře	-10.4316
▁silou	-10.4325
▁růstu	-10.433
tlak	-10.4333
▁šlechtic	-10.4337
▁palestin	-10.4337
▁zdraví	-10.4337
▁nositel	-10.4337
▁zvíře	-10.4338
▁doložen	-10.4338
▁surovin	-10.4338
▁pokusy	-10.4338
▁chce	-10.4339
▁špi	-10.4358
▁skončila	-10.4365
elektr	-10.4366
▁daleko	-10.4373
▁docházelo	-10.4374
▁eduard	-10.4374
▁zajat	-10.4375
▁mir	-10.4392
▁němců	-10.44
▁řeckého	-10.4402
▁jih	-10.4403
med	-10.4404
▁koncentrace	-10.4411
▁důstojník	-10.4411
▁výsledn	-10.4411
▁peněz	-10.4412
▁mořské	-10.4412
▁okolnost	-10.4413
▁symbolem	-10.4414
▁celkově	-10.4422
▁důvod	-10.4424
/20	-10.4425
non	-10.4425
nická	-10.4425
▁vodík	-10.4426
▁rokem	-10.4434
▁stanic	-10.444
▁vzdělávání	-10.4448
▁začátkem	-10.4448
▁poškozen	-10.4448
▁slezska	-10.4448
▁dcera	-10.4448
▁strávil	-10.4448
▁psát	-10.4448
▁válek	-10.4451
▁fyziky	-10.4451
▁vyjádření	-10.4452
▁obecný	-10.4452
resp	-10.4454
▁formou	-10.4457
▁důvodem	-10.4457
▁indi	-10.4458
▁mig	-10.4463
▁osmanské	-10.4468
▁nutno	-10.4468
trž	-10.447
▁jezer	-10.4472
bon	-10.4479
▁evropského	-10.4481
▁svobodné	-10.4483
▁pákistán	-10.4485
▁uprchl	-10.4485
▁ukazuje	-10.4485
▁naproti	-10.4485
▁žena	-10.4486
▁setkání	-10.4486
▁multi	-10.4487
▁sektor	-10.4487
místo	-10.4499
▁studentů	-10.4504
▁systémem	-10.4506
▁závodu	-10.4506
▁spisy	-10.4507
vrátit	-10.4508
alismu	-10.451
▁zahraničních	-10.4515
▁určitý	-10.4516
pit	-10.4518
▁kancelář	-10.4522
▁majetek	-10.4522
▁vražd	-10.4523
▁jazz	-10.4523
▁politickou	-10.4523
▁fakulta	-10.4524
▁severním	-10.4526
▁školství	-10.453
▁zvýšen	-10.4534
▁větve	-10.4536
▁civilní	-10.4538
ička	-10.4541
▁slovník	-10.4543
▁sonda	-10.4544
čítal	-10.4547
▁zastoupení	-10.4554
▁domě	-10.4557
▁jednoduché	-10.456
▁katolík	-10.456
▁úvah	-10.4561
▁najít	-10.4562
▁zánik	-10.4563
šky	-10.4564
▁jiřího	-10.4569
▁obětí	-10.4572
▁některým	-10.4576
kán	-10.4585
▁sklon	-10.4591
ticky	-10.4595
▁žijí	-10.4596
▁friedrich	-10.4597
▁mnozí	-10.4598
▁kapitul	-10.4598
▁srdce	-10.4598
▁počtem	-10.4598
▁albert	-10.4599
▁papír	-10.46
▁pevné	-10.46
▁600	-10.4619
ras	-10.4619
▁objekty	-10.462
▁svobodný	-10.4626
▁míč	-10.4629
▁evropská	-10.4635
▁mládež	-10.4635
▁přestěhoval	-10.4635
▁zločin	-10.4635
▁obviněn	-10.4636
▁1988	-10.4636
držení	-10.4638
blik	-10.4638
mluvil	-10.4639
bíhají	-10.464
▁královský	-10.464
▁vystoupil	-10.464
▁olympijské	-10.4642
▁důležitý	-10.4642
▁obsahu	-10.465
▁svobodu	-10.4651
kos	-10.4652
▁akci	-10.4654
▁římského	-10.4655
▁prý	-10.4658
▁centr	-10.4663
pas	-10.4668
▁ploš	-10.4669
ont	-10.467
▁svoboda	-10.4671
▁klasifikace	-10.4673
▁obsažen	-10.4673
▁nejslavnější	-10.4673
▁vládnoucí	-10.4673
▁lokalit	-10.4674
▁gri	-10.4674
▁areál	-10.4674
▁vztahů	-10.4676
▁hlavy	-10.4679
▁anebo	-10.4687
▁ibm	-10.4687
sedl	-10.4687
árně	-10.4696
▁večer	-10.4702
▁mezinárodních	-10.4706
▁věřící	-10.4709
▁seznámil	-10.4711
▁uzavřel	-10.4711
▁rozhovor	-10.4711
▁1947	-10.4712
▁výstup	-10.4713
▁humor	-10.4714
▁převrat	-10.4714
▁kořeny	-10.4714
▁klasický	-10.4717
rál	-10.472
▁umělec	-10.4722
▁vedly	-10.4729
▁barvy	-10.4734
vádí	-10.4734
▁čísle	-10.474
▁administrativní	-10.4744
▁neprav	-10.4744
▁německem	-10.4749
▁nízko	-10.4753
▁uvolněn	-10.4753
▁ztráty	-10.4764
▁zastoupen	-10.4766
▁úřady	-10.4769
▁tah	-10.4774
národní	-10.4787
▁buněk	-10.4788
▁cyklus	-10.479
▁rozsah	-10.4791
▁rodině	-10.4791
▁měď	-10.4792
kého	-10.4792
▁relativní	-10.4793
▁programovací	-10.4795
▁(4	-10.4796
▁pobytu	-10.4796
mobil	-10.4801
mail	-10.4803
▁památky	-10.4809
▁osy	-10.4809
auto	-10.4812
žití	-10.4815
▁čechy	-10.4823
▁lépe	-10.4827
▁opat	-10.4833
▁limit	-10.4833
▁byzant	-10.4838
litevsk	-10.4841
vída	-10.4842
▁známým	-10.4859
▁únor	-10.4859
▁maur	-10.4862
haj	-10.4863
▁staveb	-10.4864
▁nejúspěšnější	-10.4865
▁úspěšný	-10.4865
▁úsilí	-10.4865
▁přírody	-10.4865
▁počasí	-10.4865
▁sobot	-10.4866
▁záhy	-10.4866
▁odtud	-10.4866
▁1914	-10.4866
▁koncept	-10.4872
▁úmrtí	-10.4872
▁berlíně	-10.4875
▁interval	-10.4875
počet	-10.4875
▁turk	-10.4877
▁povinn	-10.4878
▁poprav	-10.4887
▁matky	-10.4887
▁spojil	-10.4888
cus	-10.4889
▁zraněn	-10.4895
▁třetím	-10.4896
muž	-10.4897
nese	-10.4902
zápor	-10.4903
▁austrálie	-10.4903
▁fridrich	-10.4903
▁zasáhl	-10.4903
▁vojáci	-10.4903
▁prochází	-10.4907
▁kyseliny	-10.4907
▁jakým	-10.4908
▁amerického	-10.4909
▁číslic	-10.491
ure	-10.4912
novi	-10.4918
▁prus	-10.492
čko	-10.4924
▁dostatečně	-10.4924
▁národních	-10.4925
klas	-10.4927
tik	-10.4932
▁železnice	-10.4933
▁červené	-10.4936
▁soutěže	-10.4937
▁tisíce	-10.4937
▁vidět	-10.4942
gur	-10.4944
▁1967	-10.4944
▁válečný	-10.4949
▁požár	-10.495
▁marx	-10.4952
hání	-10.4956
bývají	-10.4956
jedna	-10.4959
▁přestal	-10.496
▁francouzského	-10.496
▁nádrž	-10.496
▁ukončen	-10.4961
▁věci	-10.4964
někud	-10.4965
▁potřeby	-10.4968
áků	-10.497
útoč	-10.4977
▁současný	-10.4978
▁slovní	-10.4978
▁system	-10.4979
▁aristotel	-10.4981
▁ladislav	-10.4981
▁dusík	-10.4982
▁majitel	-10.4982
▁elementární	-10.4982
▁výnos	-10.4982
▁umělecký	-10.4984
▁prá	-10.4991
▁vojenských	-10.4992
▁řekl	-10.4993
nců	-10.4997
char	-10.5003
jas	-10.5005
▁východním	-10.5005
▁louis	-10.5008
▁bab	-10.5012
▁ideální	-10.5015
▁einstein	-10.5021
▁určuje	-10.5021
▁souladu	-10.5021
▁nevýhod	-10.5021
▁prostředků	-10.5021
▁neptun	-10.5021
▁překladatel	-10.5021
▁1942	-10.5022
▁vrchní	-10.5024
▁češtiny	-10.5026
▁olympijských	-10.5028
▁miloš	-10.5029
▁matematiky	-10.5031
▁prohlášení	-10.5043
▁muže	-10.5047
▁londýně	-10.5053
▁odraz	-10.5055
spi	-10.5056
▁google	-10.506
▁požadavky	-10.506
▁vyjádřil	-10.506
▁zaznamenal	-10.506
▁písma	-10.506
▁čssd	-10.506
▁pokrok	-10.506
▁zdeněk	-10.5061
▁relativity	-10.5061
▁čím	-10.5061
▁izotop	-10.5062
▁osobností	-10.5063
▁dopravu	-10.5068
red	-10.5072
ban	-10.5073
▁starověké	-10.5076
▁teologie	-10.5078
▁verš	-10.5082
radi	-10.5083
▁volně	-10.5084
▁internetu	-10.509
nášel	-10.5091
▁každoročně	-10.51
▁nabízí	-10.51
▁vydavatel	-10.51
▁chvíli	-10.51
▁seznamu	-10.51
▁podpory	-10.51
▁1953	-10.5101
▁jezuit	-10.5101
▁1929	-10.5101
icko	-10.5102
▁zajištěn	-10.5102
▁významně	-10.5107
▁vyšších	-10.511
▁taktéž	-10.5118
tickou	-10.5121
▁středověké	-10.5122
▁uznání	-10.5126
▁expl	-10.5129
▁obrat	-10.513
▁ptáků	-10.5131
fl	-10.5132
▁tvrdil	-10.5132
▁hradu	-10.5136
▁likvid	-10.5139
▁otázky	-10.5139
▁autonomní	-10.5139
▁měšťan	-10.5139
▁enzym	-10.5139
▁povstal	-10.5139
▁kmen	-10.514
▁vězení	-10.5141
▁ohledu	-10.5141
▁amerik	-10.5142
▁látka	-10.5142
▁newton	-10.5145
period	-10.5147
▁obvykl	-10.5152
▁reformy	-10.5152
wood	-10.5154
▁kvant	-10.516
▁vesnic	-10.5164
▁mos	-10.5166
▁pocházejí	-10.5168
▁navržen	-10.5171
▁sjednocení	-10.5173
▁školní	-10.5173
▁panny	-10.5177
▁související	-10.5179
▁přímý	-10.5179
▁bitva	-10.518
▁nejdříve	-10.5181
▁natolik	-10.5181
▁přesun	-10.5185
▁touto	-10.5185
▁jihovýchod	-10.5195
▁psy	-10.5195
▁regionu	-10.5199
▁wo	-10.5202
▁sur	-10.5202
▁níže	-10.5203
dál	-10.5204
níku	-10.5207
▁následné	-10.5215
znává	-10.5216
▁habsburk	-10.5219
▁michael	-10.5219
▁navzájem	-10.5219
▁obřad	-10.5219
▁poražen	-10.5219
▁listy	-10.5222
▁lidmi	-10.5222
▁ostatními	-10.5229
▁bělo	-10.523
▁bohy	-10.5232
▁tre	-10.5234
▁fakult	-10.5236
▁užit	-10.5239
▁jimi	-10.5242
▁počítačů	-10.5242
trh	-10.5243
▁dorazil	-10.5245
▁devět	-10.5248
▁objektů	-10.5253
▁institucí	-10.5259
▁provincií	-10.5259
▁vyjádřit	-10.5259
▁aplikací	-10.5259
▁reakcí	-10.5259
▁bojoval	-10.5261
▁obvodu	-10.5262
▁sloup	-10.5262
▁pevný	-10.5267
boj	-10.5272
▁úředník	-10.5275
▁nížin	-10.5278
▁tíh	-10.5279
3)	-10.5282
got	-10.5285
plyn	-10.5285
-1	-10.5294
▁definic	-10.5296
lib	-10.5297
▁jaderné	-10.5297
▁severního	-10.5298
▁mikuláš	-10.53
▁mluvčí	-10.53
▁otázka	-10.53
▁1973	-10.53
▁trojúhelník	-10.53
▁nízký	-10.53
▁příležitosti	-10.5301
▁osobnosti	-10.5302
▁oči	-10.5304
▁východu	-10.5304
▁socialistické	-10.5305
▁obrovské	-10.5305
▁výtvarn	-10.5309
▁přidal	-10.5311
▁armádou	-10.5312
▁orgány	-10.5316
▁polární	-10.5317
▁kurz	-10.5323
▁částech	-10.5329
▁sýr	-10.5331
▁králi	-10.5334
▁základy	-10.5334
▁vědě	-10.5338
▁tvorbu	-10.534
▁odlišný	-10.534
▁poznamen	-10.534
▁neutron	-10.534
▁propuštěn	-10.5341
▁způsobuje	-10.5341
▁universit	-10.5341
▁dostane	-10.5342
▁filmový	-10.5345
▁daňové	-10.5354
▁hodiny	-10.536
zejména	-10.536
▁rádi	-10.5363
▁praž	-10.5363
▁cas	-10.5368
▁dlouhá	-10.5381
▁série	-10.5382
▁zbývající	-10.5382
▁fra	-10.5387
▁klíčový	-10.5388
▁časopisy	-10.5388
▁pražském	-10.539
▁vlasti	-10.5392
ting	-10.5397
▁programů	-10.5401
▁pohybují	-10.5403
hlas	-10.5408
▁marin	-10.5411
▁městský	-10.5415
▁pit	-10.5417
▁přehled	-10.5418
▁odkud	-10.5419
▁albrecht	-10.5421
▁beethoven	-10.5421
▁konkrétně	-10.5421
▁rozhodující	-10.5421
měsíční	-10.5421
▁přezdív	-10.5421
▁konečně	-10.5422
▁přerušen	-10.5424
hne	-10.5425
pyr	-10.5426
krat	-10.5426
▁potrat	-10.543
▁fond	-10.5433
▁kontrolu	-10.5436
▁nejznámějším	-10.5437
▁luž	-10.5439
▁věcí	-10.5446
ić	-10.5446
▁slib	-10.545
▁natočen	-10.5454
▁top	-10.5456
▁veličiny	-10.5457
▁mírně	-10.546
▁zvyšuje	-10.5462
▁bohatství	-10.5462
▁turnaj	-10.5465
▁určitou	-10.5466
para	-10.5467
▁konfliktu	-10.5468
▁náhrad	-10.547
levicov	-10.5474
ěji	-10.5477
bul	-10.5478
▁objevily	-10.5478
▁vědci	-10.548
▁120	-10.548
▁násiln	-10.5486
ves	-10.549
▁popraven	-10.5491
▁univerzitní	-10.5496
▁vyhlášení	-10.5496
bran	-10.5496
▁zásluh	-10.5504
▁padesát	-10.5504
▁stránky	-10.5504
▁jihoafrick	-10.5504
▁tradic	-10.5504
▁zasedání	-10.5504
▁1952	-10.5505
▁nádob	-10.5505
▁ekonomiky	-10.5506
žívají	-10.5506
▁terén	-10.5509
tiku	-10.5511
▁pohon	-10.5512
istou	-10.5515
▁lodi	-10.5517
▁social	-10.5526
níkem	-10.5527
▁dobytí	-10.5527
win	-10.5528
▁vysoký	-10.553
▁zatčen	-10.553
▁získalo	-10.5531
▁budovy	-10.5532
="7	-10.5535
▁starověk	-10.5541
▁podpořil	-10.5545
▁svatopluk	-10.5545
▁jednoduchý	-10.5545
▁článku	-10.5545
▁rozdělit	-10.5545
▁raket	-10.5546
▁indii	-10.5546
▁1986	-10.5546
jel	-10.5547
▁veliký	-10.5547
▁vyvolá	-10.555
▁bush	-10.5552
▁závěru	-10.5556
▁rakousku	-10.5557
▁vysoko	-10.5559
rud	-10.556
▁archeologick	-10.556
ckého	-10.5563
▁štěpán	-10.5564
snad	-10.5566
▁ústup	-10.5571
▁met	-10.5573
▁war	-10.5574
▁známých	-10.5576
sar	-10.5579
▁skok	-10.5582
▁způsobu	-10.5583
evropské	-10.5585
▁smlouvu	-10.5586
▁zájmu	-10.5586
▁prováděn	-10.5587
▁přítel	-10.5587
▁1971	-10.5588
▁pověřen	-10.5588
▁jestliže	-10.5588
▁páry	-10.5592
▁belgie	-10.5595
▁kyslík	-10.5599
zákon	-10.56
▁bezpečnost	-10.5603
▁lokální	-10.5609
▁vodič	-10.5614
▁indické	-10.5619
▁kněží	-10.5619
dají	-10.5623
▁žádná	-10.5628
▁1974	-10.5629
▁1979	-10.5629
▁cestou	-10.563
▁normální	-10.5631
▁ježíše	-10.5636
▁kanton	-10.5638
▁slovenský	-10.5642
pravit	-10.5642
▁čínský	-10.5646
▁květen	-10.5648
▁plast	-10.5651
▁rozklad	-10.5652
▁údaje	-10.5652
▁rakouský	-10.5654
▁maxim	-10.5655
▁zvolil	-10.5659
▁rozsahu	-10.5667
▁severozápad	-10.5667
▁čili	-10.5668
▁starý	-10.5669
▁rozvíjel	-10.567
▁vystoupení	-10.567
▁pokoušel	-10.567
▁katolická	-10.567
▁vyloučen	-10.567
▁židovský	-10.5671
▁týden	-10.5672
▁nijak	-10.5672
▁medvěd	-10.5673
▁zadní	-10.5674
▁olej	-10.5677
▁možný	-10.568
▁ré	-10.5682
▁vládce	-10.5682
▁vyšel	-10.5684
▁profesorem	-10.5696
harmoni	-10.5698
▁oběma	-10.57
▁jednotlivým	-10.5701
▁obrann	-10.5703
▁útoku	-10.5707
ford	-10.5709
▁židé	-10.571
▁počátek	-10.5712
▁lot	-10.5713
pořád	-10.5714
▁hněd	-10.5717
▁menších	-10.5717
▁gott	-10.5719
special	-10.5719
▁dějinách	-10.5723
▁jihozápad	-10.5731
▁žal	-10.5737
▁štěp	-10.5749
šli	-10.5752
řování	-10.5753
▁neexistuje	-10.5754
▁aktuální	-10.5754
▁výšky	-10.5755
▁rozvod	-10.5755
▁šu	-10.5756
▁začínají	-10.5757
▁pokryt	-10.5758
▁spisovatelů	-10.576
▁městy	-10.5765
▁obnovit	-10.5769
pozor	-10.5769
put	-10.577
▁uzná	-10.5771
▁fakultě	-10.5774
zovala	-10.5774
▁značný	-10.5775
ref	-10.5778
▁osobnost	-10.5781
4)	-10.5782
▁maria	-10.5787
▁1848	-10.579
▁něho	-10.5791
▁zlín	-10.5795
▁chlor	-10.5795
▁joseph	-10.5797
▁využíval	-10.5797
▁dráhu	-10.5797
▁vlny	-10.5797
▁kateřin	-10.5797
▁součin	-10.5798
▁1930	-10.5799
▁fakulty	-10.58
▁postavy	-10.58
▁egypta	-10.58
▁místem	-10.5801
▁komunistický	-10.5802
▁kovů	-10.581
▁taková	-10.5813
▁morava	-10.5814
▁podřízen	-10.5815
▁zobrazení	-10.5816
▁obdobn	-10.582
▁nesou	-10.5822
▁nikoliv	-10.5823
▁kali	-10.5826
právně	-10.5826
▁geologick	-10.5831
právní	-10.5836
▁nepodařilo	-10.5839
▁fluor	-10.5839
▁opevněn	-10.5839
▁pomohl	-10.5839
▁dominantní	-10.584
štejn	-10.584
▁staletí	-10.584
▁1962	-10.584
▁budoucnost	-10.5841
▁vedlejší	-10.5843
važuje	-10.5843
▁španělsku	-10.5844
▁příklady	-10.5854
▁původním	-10.5857
inský	-10.5859
společn	-10.5861
▁prince	-10.5865
hydr	-10.5866
▁zemského	-10.5869
▁nezávislé	-10.5882
▁sociálně	-10.5882
▁souvisí	-10.5882
▁zikmund	-10.5882
▁používané	-10.5882
▁kláves	-10.5882
▁konference	-10.5882
▁moldav	-10.5882
▁fázi	-10.5882
▁podpora	-10.5882
▁sociolog	-10.5884
▁ležící	-10.5885
▁sítí	-10.5885
▁úseku	-10.5886
stupuje	-10.5887
služ	-10.589
▁trati	-10.5891
▁východního	-10.5892
▁uranu	-10.5895
štinou	-10.5896
▁knížete	-10.5897
heim	-10.5901
eckého	-10.5907
▁vzniklé	-10.5911
▁odpovídající	-10.5912
fyzik	-10.5912
▁bibli	-10.592
▁protektorát	-10.5925
▁dlouhodobě	-10.5925
▁počátky	-10.5925
▁mechanik	-10.5925
▁praktik	-10.5925
▁barokní	-10.5925
▁ilustr	-10.5925
▁velmoc	-10.5925
▁pojmu	-10.5926
▁užívání	-10.5932
▁armádě	-10.5934
▁not	-10.5935
áček	-10.5936
ohledně	-10.5943
▁voleb	-10.5945
▁časopise	-10.5949
-2	-10.5955
▁náklady	-10.5956
▁finské	-10.5966
▁výročí	-10.5968
▁vrstvy	-10.5968
▁zavražděn	-10.5968
▁odlišné	-10.5968
▁úrovně	-10.5968
▁musela	-10.5968
▁pochyb	-10.5969
▁1984	-10.5969
▁získání	-10.5972
▁španělska	-10.5973
▁operací	-10.5974
▁nejmenší	-10.5978
▁nezávislosti	-10.5979
▁chr	-10.5981
▁(13	-10.5983
▁tito	-10.5984
▁bri	-10.5991
▁představení	-10.5992
▁rozsáhlý	-10.5996
▁filozofické	-10.5998
▁okruh	-10.6003
▁správu	-10.6006
▁redaktor	-10.6011
▁rozmanit	-10.6011
▁nakladatelství	-10.6012
▁příslušné	-10.6015
▁organismu	-10.6017
▁časem	-10.6018
▁potenciální	-10.6021
▁větru	-10.6024
▁dává	-10.6024
▁případů	-10.6029
▁fan	-10.6032
dži	-10.6044
▁bezpečnostní	-10.6047
▁německy	-10.6048
▁klavír	-10.6055
▁náboje	-10.6056
▁sláv	-10.6061
▁roste	-10.6069
▁kmenů	-10.6074
▁považují	-10.6075
▁zabit	-10.6081
úmrtí	-10.609
▁zákoník	-10.6091
▁souhrn	-10.6099
▁muzea	-10.61
▁dojde	-10.6104
▁postupem	-10.6105
▁klimatu	-10.6106
▁obyvatele	-10.6115
ztracen	-10.6117
▁jasné	-10.612
▁vodu	-10.6122
▁bratra	-10.6124
▁nacional	-10.6126
▁vytváření	-10.613
▁pet	-10.6131
▁společného	-10.6133
text	-10.6139
▁založeno	-10.6141
▁absolvoval	-10.6142
▁zajistit	-10.6142
▁článků	-10.6142
▁konzervativní	-10.6142
▁doprovod	-10.6142
▁dvacát	-10.6142
▁skončení	-10.6142
▁polovina	-10.6142
▁rozvinut	-10.6142
▁obrany	-10.6144
▁mezitím	-10.6144
▁java	-10.6145
▁systematick	-10.6145
▁hyper	-10.6146
▁vzhled	-10.6149
volil	-10.6156
▁židovského	-10.6158
jský	-10.6158
▁hrabě	-10.6159
▁aktivity	-10.6167
▁krista	-10.6176
▁zůstalo	-10.6178
▁lidem	-10.6186
▁srážek	-10.6186
▁podepsán	-10.6187
▁založený	-10.6187
▁1963	-10.6187
▁dalekohled	-10.6188
▁oblouk	-10.6189
▁podstatně	-10.6194
▁konečné	-10.6195
▁put	-10.6203
ologické	-10.6204
oň	-10.6213
▁milion	-10.6214
fan	-10.622
způsob	-10.6222
▁nesmí	-10.6222
▁geometrie	-10.623
▁okamžitě	-10.623
▁podmínkách	-10.623
▁připomíná	-10.623
▁vladislav	-10.623
▁funguje	-10.623
▁nebude	-10.6231
▁nacistické	-10.6232
_5	-10.6233
▁klesá	-10.6233
lex	-10.6234
▁významná	-10.6234
▁christian	-10.6236
▁kněz	-10.6236
▁ekologick	-10.6237
▁skutečné	-10.6237
▁daní	-10.6241
▁vystaven	-10.6243
▁představitelé	-10.6248
illa	-10.6252
▁těžký	-10.6259
▁čisté	-10.6262
▁hub	-10.6262
▁matematické	-10.6275
▁ochrany	-10.6275
▁peníze	-10.6275
▁kompost	-10.6275
kázat	-10.6275
▁spolupracoval	-10.6276
▁1924	-10.6277
▁nero	-10.6281
▁těsně	-10.6281
život	-10.6282
zur	-10.6285
▁armádu	-10.6285
▁učil	-10.6288
▁zkušenost	-10.629
▁plné	-10.6294
čern	-10.6311
▁arabské	-10.6315
čat	-10.6317
▁miliardy	-10.6317
▁japonské	-10.632
▁nesouhlas	-10.632
respektive	-10.6321
▁pozitivní	-10.6322
▁protein	-10.6323
▁problémem	-10.6323
▁názoru	-10.6324
mini	-10.6324
▁knihu	-10.6324
▁měsíci	-10.6325
▁zabí	-10.6326
cca	-10.633
▁museli	-10.6335
▁užití	-10.6338
▁širok	-10.6342
▁uvedené	-10.636
▁souboru	-10.6361
svobod	-10.6361
▁smluv	-10.6362
▁christ	-10.6363
▁navštěvoval	-10.6364
▁někdejší	-10.6364
▁pokračuje	-10.6364
▁vrstev	-10.6364
▁badatel	-10.6364
▁národnostní	-10.6365
▁jazykové	-10.6365
▁značka	-10.6365
▁1956	-10.6366
▁námět	-10.6368
▁pozemní	-10.6369
▁politickým	-10.6369
▁osvobození	-10.637
▁ustanovení	-10.6371
tet	-10.6372
podle	-10.6375
▁podporuje	-10.6378
▁jiní	-10.6379
▁vyšlo	-10.6381
▁norma	-10.6386
▁okruhu	-10.6391
▁čemu	-10.6403
▁zachování	-10.6404
▁sklo	-10.6405
včetně	-10.6407
▁dosažení	-10.6408
▁mojžíš	-10.6409
▁předchůdce	-10.6409
▁zapojil	-10.6409
▁1923	-10.6411
▁účely	-10.6412
▁vědeckých	-10.6415
▁world	-10.6417
▁objemu	-10.6437
▁bot	-10.6438
▁znamenalo	-10.644
▁kritika	-10.6442
▁indu	-10.6442
▁projevuje	-10.6444
▁proběhla	-10.6449
▁festivalu	-10.6451
▁eur	-10.6453
▁nejdelší	-10.6455
▁lingvist	-10.6455
▁koalice	-10.6455
king	-10.6456
▁geografie	-10.6456
▁pravopis	-10.6456
▁dž	-10.6457
▁akcí	-10.6458
▁závodník	-10.6461
▁národnosti	-10.6463
ional	-10.6463
gro	-10.6466
▁průměrný	-10.6469
▁700	-10.647
▁lidského	-10.647
árny	-10.6474
▁druž	-10.6476
▁jezero	-10.6481
▁týmu	-10.6482
▁hodnocení	-10.6483
vanou	-10.6493
▁ujal	-10.6495
▁výt	-10.6495
▁označoval	-10.65
▁spočívá	-10.65
▁primární	-10.65
vádět	-10.65
volal	-10.6502
▁radikální	-10.6513
▁spec	-10.6513
▁udává	-10.6513
rium	-10.6516
▁whi	-10.6517
▁kritiky	-10.6525
▁měří	-10.6529
▁chrámu	-10.653
▁krakov	-10.6533
▁návrhu	-10.6534
▁step	-10.6536
▁uher	-10.6536
▁černého	-10.6538
▁žádnou	-10.6546
▁pracuje	-10.6546
▁1964	-10.6547
▁císařem	-10.6548
▁jediná	-10.6548
▁labe	-10.6548
vrátil	-10.6549
západ	-10.6552
▁naprosto	-10.6555
▁gustav	-10.6555
▁umí	-10.6557
▁obci	-10.6563
▁gor	-10.6568
▁přehrad	-10.6569
▁hodně	-10.6569
rozené	-10.6573
▁starověku	-10.6578
▁počítačové	-10.658
▁středověk	-10.658
▁evropskou	-10.6592
▁výsledků	-10.6592
▁zahynul	-10.6592
▁policie	-10.6592
▁železa	-10.6593
▁viděl	-10.6593
▁meč	-10.6594
▁tvář	-10.6596
▁spodní	-10.6597
trvá	-10.6597
▁filosofie	-10.6599
▁zlata	-10.66
▁patent	-10.66
▁malou	-10.6604
▁závody	-10.661
▁všemi	-10.6613
▁takových	-10.6618
▁volný	-10.662
▁centru	-10.6625
▁hier	-10.6636
▁iso	-10.6638
▁dekret	-10.6638
▁1936	-10.6639
první	-10.664
▁usadil	-10.6647
▁novel	-10.6648
▁zeměpisn	-10.6648
▁win	-10.6655
mět	-10.6655
▁free	-10.6663
▁starých	-10.6665
▁klubu	-10.6665
▁anglického	-10.6665
▁potlačen	-10.6678
▁bakterie	-10.6684
▁přejmenován	-10.6684
▁zahrnoval	-10.6685
▁rozmach	-10.6685
▁poloměr	-10.6685
▁1943	-10.6686
▁1965	-10.6686
▁1985	-10.6686
▁1928	-10.6686
▁kolonií	-10.6687
▁rodiče	-10.6687
▁genetick	-10.6688
▁maďarské	-10.6694
▁gro	-10.6697
▁studovat	-10.6697
▁sovětském	-10.6707
ovitý	-10.6714
míst	-10.6717
▁marii	-10.6719
▁dobyt	-10.6721
▁výpravy	-10.6724
▁osvobozen	-10.6725
▁starších	-10.6727
enberg	-10.6728
▁inženýr	-10.6731
▁1976	-10.6731
▁vyplývá	-10.6731
▁znamení	-10.6731
▁kultuře	-10.6731
▁sbírky	-10.6731
▁zajetí	-10.6731
▁francis	-10.6732
▁příčinou	-10.6732
▁rozdělil	-10.6732
▁1975	-10.6732
▁snaha	-10.6734
▁možností	-10.6735
ovitých	-10.6736
▁obrozen	-10.6737
dynamic	-10.6739
▁členství	-10.6745
▁rozhodn	-10.6753
▁celek	-10.6754
▁obsahem	-10.6758
▁letecké	-10.6758
▁kyslíku	-10.6763
▁snahy	-10.677
ňan	-10.677
▁los	-10.6771
▁kolín	-10.6772
▁kosmonaut	-10.6777
▁samozřejmě	-10.6777
▁neutrální	-10.6777
▁interakce	-10.6777
fyl	-10.6778
▁slezsko	-10.6779
▁1922	-10.6779
▁rh	-10.6779
▁povýšen	-10.6781
▁dálnic	-10.6781
inter	-10.6781
později	-10.6782
▁nesl	-10.6782
▁procesů	-10.6784
▁tmav	-10.6786
▁řece	-10.6786
▁závěrečn	-10.6793
▁manželkou	-10.6794
▁sporu	-10.68
▁rovník	-10.68
taj	-10.6803
▁příběhy	-10.6809
▁gymnázium	-10.6813
▁vídeňské	-10.6816
▁pokrýv	-10.6822
▁evoluční	-10.6824
▁ministerstva	-10.6824
▁zemědělské	-10.6824
▁výrobní	-10.6824
▁pásu	-10.6826
▁thajsk	-10.6827
elnou	-10.6828
▁měsících	-10.683
▁pochod	-10.6831
boř	-10.6831
▁benešov	-10.6832
▁uherský	-10.6833
▁sociálních	-10.6834
▁císařství	-10.6845
▁česka	-10.6846
▁písmeno	-10.6846
tvář	-10.6848
▁jud	-10.6852
200	-10.6855
▁přednost	-10.6862
▁bytost	-10.6863
▁slovanské	-10.6863
▁nebezpečí	-10.6871
▁organismy	-10.6871
▁zajistil	-10.6871
▁aspekt	-10.6871
▁nazýval	-10.6871
▁architektury	-10.6872
nedávn	-10.6873
celková	-10.6877
▁invazi	-10.6879
▁živočichů	-10.6881
▁roh	-10.6882
▁islámské	-10.6883
▁přesunul	-10.6884
▁nemoci	-10.6884
▁lesní	-10.6887
verzi	-10.689
fen	-10.6899
▁obnovení	-10.6907
▁moderního	-10.691
▁vyžaduje	-10.6919
▁bitvy	-10.6919
▁1987	-10.692
▁1932	-10.692
]]	-10.6922
▁přenesen	-10.6923
ovka	-10.6923
▁každ	-10.6926
▁augustin	-10.6928
▁řídí	-10.6928
sed	-10.6929
▁kolonie	-10.6931
▁sněmu	-10.6931
▁byzantské	-10.6937
▁kontinentální	-10.6941
pravidl	-10.6948
▁statistick	-10.6948
kovat	-10.6957
▁informační	-10.6966
▁posloupnost	-10.6966
▁žebříčku	-10.6966
international	-10.6966
▁hudbu	-10.6966
▁japonsko	-10.6966
▁pavla	-10.6967
▁hledání	-10.6967
▁vrstva	-10.6967
setrvačn	-10.6967
▁ústava	-10.6968
▁archiv	-10.6969
▁svátost	-10.697
▁sochař	-10.6975
▁chart	-10.6977
▁hotel	-10.6979
▁strukturu	-10.698
▁podnět	-10.6981
▁údaj	-10.6989
can	-10.6991
skij	-10.6995
▁archeolog	-10.6997
▁vědomí	-10.6998
▁důsledkem	-10.7007
čítat	-10.7014
▁nedostatek	-10.7014
▁ramen	-10.7014
▁přírodověd	-10.7014
▁hliník	-10.7015
▁1951	-10.7016
▁merkur	-10.7016
zaměstnan	-10.7016
▁zrušil	-10.7016
▁výrazný	-10.702
▁hradiště	-10.702
▁průvod	-10.7021
▁parti	-10.7022
▁strojů	-10.7026
skrze	-10.7029
▁školách	-10.703
pek	-10.7032
ářství	-10.7036
▁zásobník	-10.7038
low	-10.7039
▁patřili	-10.7041
▁schopnosti	-10.7042
▁vápen	-10.7044
▁anarch	-10.7046
▁britové	-10.7047
▁podobu	-10.7049
▁kvas	-10.7051
▁anglo	-10.7052
▁tekutin	-10.7056
▁stranou	-10.7059
▁blízký	-10.7062
▁intelektuál	-10.7062
▁leopold	-10.7062
▁paměť	-10.7062
▁prohlížeč	-10.7062
▁rozlišuje	-10.7062
▁zemětřesení	-10.7062
▁vídně	-10.7062
šťastn	-10.7063
▁novověk	-10.7063
▁nedokázal	-10.7065
▁pevně	-10.7065
▁obrovský	-10.7066
▁astrolog	-10.7074
▁gnu	-10.7075
právě	-10.7077
▁center	-10.7078
▁atomů	-10.7081
▁založili	-10.7082
▁šv	-10.7083
těsn	-10.7085
▁plodin	-10.7087
▁francouzská	-10.7089
▁radikál	-10.7097
▁měnov	-10.7098
▁zlatý	-10.7102
▁veličina	-10.7104
▁nejbližší	-10.7111
▁provincii	-10.7111
▁články	-10.7111
▁minimální	-10.7111
▁vzrostl	-10.7111
▁pěstování	-10.7111
▁1978	-10.7112
▁architektura	-10.7112
▁husitské	-10.7113
▁žili	-10.7113
▁řadou	-10.7114
▁otcov	-10.7115
▁germánsk	-10.7115
ovití	-10.7117
▁byt	-10.712
▁rozchod	-10.7125
▁papežem	-10.7127
▁španělský	-10.7128
▁gram	-10.713
▁řeči	-10.7137
▁zahájení	-10.714
rick	-10.7141
▁pramenů	-10.7146
▁comp	-10.7149
▁špič	-10.7149
▁provádí	-10.7154
▁slavné	-10.7154
▁účastník	-10.7156
▁kostele	-10.7156
▁hejtman	-10.7159
▁následek	-10.7159
▁všeobecné	-10.7159
▁odmítal	-10.716
▁porovnání	-10.716
▁hřích	-10.716
▁1972	-10.7161
▁povodí	-10.7161
▁popel	-10.7161
▁cyklu	-10.7164
▁dav	-10.7165
▁františk	-10.7168
▁tentokrát	-10.7175
▁baltské	-10.7175
▁prix	-10.7177
▁překoná	-10.7178
▁množina	-10.7178
rian	-10.7179
▁dobách	-10.7181
▁organické	-10.7186
▁přistěhoval	-10.7188
▁pozorovat	-10.7188
▁uhlíku	-10.7191
▁neúspěš	-10.7192
▁vzpomín	-10.7202
▁výrazné	-10.7205
▁dramatik	-10.7207
▁pozůstat	-10.7208
▁týdnů	-10.7208
▁habsburské	-10.7208
▁knihovna	-10.7208
▁jaderný	-10.721
100	-10.7211
▁ruská	-10.7213
▁přítomnosti	-10.7214
▁náboženských	-10.7214
▁stráž	-10.7218
▁georg	-10.722
▁tunel	-10.7222
horské	-10.7223
ander	-10.7226
▁odhaduje	-10.7232
vlákn	-10.7235
▁oběžn	-10.7238
▁cestující	-10.724
▁znaku	-10.7241
laš	-10.7244
▁úloh	-10.7245
▁uprostřed	-10.7246
▁programování	-10.7246
▁johan	-10.7251
šly	-10.7253
▁předpokládal	-10.7257
▁konstrukt	-10.7257
▁odjel	-10.7257
▁složil	-10.7257
▁vzestup	-10.7258
▁zastavil	-10.7258
▁třemi	-10.726
▁doplněn	-10.7261
etika	-10.7263
▁přešl	-10.7268
▁pošt	-10.727
▁lidi	-10.7271
▁mangan	-10.7271
naze	-10.7279
▁čtvrté	-10.728
▁umístění	-10.7282
dow	-10.7283
▁císařské	-10.7285
▁unii	-10.7285
act	-10.7293
▁správce	-10.7294
▁vysokým	-10.7296
mdc	-10.7298
▁nutnost	-10.7302
▁kritizoval	-10.7306
▁překvap	-10.7306
▁studijní	-10.7306
▁čehož	-10.7307
▁zaznamenán	-10.7315
▁rozporu	-10.7315
▁africké	-10.7319
směr	-10.732
▁vesnice	-10.7322
▁noční	-10.7327
▁kvalitní	-10.733
měrné	-10.7331
▁veřejnost	-10.7332
▁norman	-10.7342
vír	-10.7344
▁frontě	-10.7349
▁valdštejn	-10.7356
▁zodpověd	-10.7356
▁pokračovat	-10.7356
▁statistik	-10.7356
▁vysvětlení	-10.7356
▁usiloval	-10.7357
▁transport	-10.7358
▁výši	-10.736
▁švédsko	-10.7361
▁finska	-10.7367
▁kate	-10.7369
▁existující	-10.737
▁položen	-10.7373
▁propojen	-10.7381
▁obsazen	-10.7388
▁nadace	-10.7393
vet	-10.7393
▁otevřel	-10.7405
▁udržel	-10.7405
▁knihovny	-10.7405
▁zaměstnán	-10.7406
▁pozadí	-10.7406
▁kořist	-10.7406
méně	-10.7406
▁1966	-10.7407
▁pohlavní	-10.7408
▁organizaci	-10.741
▁folk	-10.7411
▁moravský	-10.7415
▁přítok	-10.7415
ianus	-10.7415
▁jinou	-10.7419
▁vznikající	-10.7419
žívá	-10.7425
▁okraji	-10.7428
▁těžko	-10.7429
▁rozkládá	-10.7431
▁daný	-10.7437
rig	-10.7439
▁skutečný	-10.7442
▁anna	-10.7446
▁denně	-10.7447
▁kazachstán	-10.7455
▁týkající	-10.7455
▁zastánc	-10.7456
▁dcery	-10.7456
▁podzemní	-10.7457
▁říšské	-10.7457
▁připravil	-10.7457
▁příjem	-10.7457
▁novější	-10.7459
▁dur	-10.7461
▁typicky	-10.7461
▁pobýval	-10.7462
▁jednotné	-10.7463
▁teoreti	-10.7464
▁muslimsk	-10.7465
▁jung	-10.7465
▁linii	-10.7467
počty	-10.7472
▁obsazení	-10.7473
▁zastaven	-10.7475
▁libovoln	-10.748
▁spojit	-10.7483
▁veřejných	-10.749
▁dostává	-10.7494
▁elektřiny	-10.7506
▁oldřich	-10.7506
▁šlechty	-10.7506
▁turbín	-10.7506
▁ochrana	-10.7506
▁úmluv	-10.7506
▁slovenska	-10.7506
▁násilí	-10.7506
▁začleněn	-10.7506
▁vazby	-10.7506
▁sporů	-10.7507
▁morální	-10.7507
▁svátky	-10.7507
▁1983	-10.7507
▁dojít	-10.7507
▁1900	-10.751
▁mobilní	-10.7512
▁čína	-10.7518
▁okamžiku	-10.7518
▁památek	-10.752
▁pocit	-10.7522
▁daného	-10.7526
▁fri	-10.7528
▁vojenského	-10.7537
▁údajů	-10.7538
▁zkušenosti	-10.7539
▁pobyt	-10.7555
▁téma	-10.7555
▁frekvence	-10.7556
▁protéká	-10.7556
▁venuše	-10.7556
▁chemie	-10.7557
▁přišla	-10.7557
▁1937	-10.7558
▁držel	-10.7558
▁1933	-10.7558
▁vhodný	-10.756
▁spisovn	-10.756
▁kilometr	-10.7563
▁geografick	-10.7565
▁určení	-10.7566
▁slaví	-10.7567
▁manželka	-10.7572
▁pařížské	-10.7582
▁poslán	-10.7592
▁kun	-10.7592
▁časové	-10.7597
oměr	-10.76
▁emil	-10.7603
▁peter	-10.7605
▁intenzivní	-10.7607
▁rychlý	-10.7607
▁zjednodušen	-10.7607
▁taxon	-10.7607
▁výrok	-10.7608
▁1925	-10.7609
▁účastní	-10.7613
▁bodem	-10.7613
▁dánsko	-10.7615
▁uznal	-10.762
▁dohoda	-10.7628
▁důsled	-10.7632
▁ulice	-10.7639
▁uživatelů	-10.765
▁vzal	-10.7651
▁konstantin	-10.7653
▁severně	-10.7657
úr	-10.7658
▁benedikt	-10.7658
▁laboratoř	-10.7658
▁detail	-10.7659
▁výška	-10.7659
▁dosažen	-10.766
▁pomalu	-10.7661
▁kongresu	-10.7665
▁úlohu	-10.7673
▁popsán	-10.768
▁představil	-10.7688
▁tvořili	-10.7691
▁listopad	-10.77
▁vzrůst	-10.77
▁hlavou	-10.7703
enský	-10.7705
azoval	-10.7706
▁renesanční	-10.7709
▁obyčej	-10.7709
▁požadoval	-10.7709
▁minimálně	-10.7709
▁účinky	-10.7709
▁lineární	-10.7709
▁poskytl	-10.7709
▁dráze	-10.7709
▁americká	-10.771
▁výboj	-10.771
▁profesionální	-10.771
modern	-10.7712
▁judaismu	-10.7712
▁250	-10.7719
▁určitých	-10.7721
▁you	-10.7731
▁prohlášen	-10.7731
[	-10.7732
izující	-10.7733
▁uzavření	-10.7738
▁tepelné	-10.774
gna	-10.7742
absolut	-10.7759
▁austrálii	-10.7761
▁iniciativ	-10.7761
▁všeobecně	-10.7761
▁trpěl	-10.7761
▁jedenáct	-10.7761
▁nejsilnější	-10.7761
▁dcerou	-10.7761
▁pseudonym	-10.7761
▁vystupoval	-10.7761
▁prestiž	-10.7761
▁koloniální	-10.7761
▁dohromady	-10.7761
▁1912	-10.7763
▁alternativní	-10.7763
▁vrchovin	-10.7764
▁počítá	-10.7765
pus	-10.7768
deutsch	-10.777
▁spojuje	-10.7773
▁zpěvák	-10.7782
▁slavný	-10.7786
smrt	-10.7788
invest	-10.7794
▁břeh	-10.7805
lenin	-10.7807
▁latinského	-10.7808
tó	-10.7809
▁prozatím	-10.7813
▁mláďat	-10.7813
▁strategick	-10.7813
▁domácnost	-10.7813
▁konferenci	-10.7813
▁udělil	-10.7813
▁domorod	-10.7813
▁zámek	-10.7813
▁maďarsko	-10.7816
▁tanků	-10.7821
▁kněze	-10.7828
▁herec	-10.7829
▁peč	-10.7836
▁kosmické	-10.7842
▁třeb	-10.7845
▁mocensk	-10.7846
▁pořádá	-10.7851
kód	-10.7853
▁spojenci	-10.7856
▁dokončil	-10.7865
▁ministerstvo	-10.7865
▁požádal	-10.7865
▁softwaru	-10.7865
▁městská	-10.7867
▁havel	-10.7876
▁úmysl	-10.7879
▁nápis	-10.7879
▁vozy	-10.788
▁esej	-10.7883
▁činností	-10.7885
▁hrát	-10.7892
▁erb	-10.7895
ňující	-10.7899
ogenní	-10.7911
▁frankfurt	-10.7917
▁náleží	-10.7917
▁patnáct	-10.7917
▁univerzální	-10.7917
▁nářečí	-10.7917
▁okupace	-10.7917
▁finále	-10.7917
▁porážce	-10.7917
▁kongres	-10.7918
▁začne	-10.7918
▁černá	-10.7919
▁1977	-10.7919
řadit	-10.792
▁hrají	-10.7921
▁pohár	-10.7921
rej	-10.7921
▁omezené	-10.7924
ejít	-10.7924
▁160	-10.7933
▁rýn	-10.7936
▁hojně	-10.7939
poslední	-10.7944
▁pocházející	-10.7947
▁válečn	-10.795
dél	-10.7952
▁typickým	-10.7952
pojení	-10.796
brat	-10.796
pozitiv	-10.7966
▁nezávisle	-10.797
▁vyvrcholil	-10.797
▁československá	-10.797
▁polovinu	-10.797
▁cyril	-10.797
▁špatné	-10.797
▁zbroj	-10.7972
▁burian	-10.7974
▁kvalifik	-10.7984
bot	-10.7985
▁hrách	-10.7987
hromad	-10.7989
▁členských	-10.7995
▁stád	-10.7997
▁hans	-10.7998
▁kdyby	-10.8004
▁ekvivalent	-10.8023
▁esperanta	-10.8023
▁povídky	-10.8023
▁schválil	-10.8023
▁orchestr	-10.8023
▁zprvu	-10.8023
▁kratší	-10.8023
▁konzerv	-10.8024
▁1955	-10.8024
▁1915	-10.8025
▁rozkaz	-10.8025
▁stovky	-10.8025
▁obdiv	-10.8033
▁stanici	-10.8033
▁130	-10.8035
▁myšlenka	-10.8037
▁astronomick	-10.8044
▁skupině	-10.8047
pracovat	-10.8059
titanic	-10.8059
▁určené	-10.8065
▁samice	-10.807
▁mendělejev	-10.8076
▁skandináv	-10.8076
▁doporučen	-10.8076
legislativ	-10.8076
▁divize	-10.8076
▁odborné	-10.8076
▁stáří	-10.8077
▁sudet	-10.8077
▁1954	-10.8077
▁civilizace	-10.8077
pouhých	-10.8077
▁tratí	-10.8078
▁představitelem	-10.8078
ózní	-10.808
▁státě	-10.808
▁užíval	-10.8082
▁bohů	-10.8082
▁osobně	-10.8082
▁povinnosti	-10.8087
▁zálivu	-10.809
–14	-10.809
▁kamer	-10.8093
▁stavbu	-10.8097
funk	-10.8103
▁jihozápadní	-10.8106
▁obal	-10.8106
▁nadšen	-10.8111
▁cukr	-10.8114
▁intel	-10.8114
země	-10.812
východ	-10.8129
▁bílkovin	-10.8129
▁extrémní	-10.8129
▁hudbě	-10.8129
▁vystřídal	-10.8129
▁odchodu	-10.813
▁pěší	-10.8136
▁pluto	-10.8142
▁cín	-10.8143
▁mědi	-10.8147
▁spisů	-10.8163
▁afghánistánu	-10.8165
▁nehod	-10.8181
▁vynikající	-10.8183
▁vytvářejí	-10.8183
▁vyústil	-10.8183
▁zveřejněn	-10.8183
▁složky	-10.8183
▁matematický	-10.8183
▁zbytky	-10.8183
▁poezii	-10.8183
▁[[	-10.8184
▁1958	-10.8185
▁severovýchodní	-10.8186
▁trend	-10.8186
jdou	-10.8188
▁nikdo	-10.819
vojenská	-10.8191
▁měřítk	-10.8191
▁řídil	-10.8191
▁mluvící	-10.8197
▁datum	-10.8201
ářské	-10.8207
▁římané	-10.8217
padlo	-10.8218
▁karol	-10.8226
▁umělé	-10.8226
technologi	-10.8236
▁aktivně	-10.8236
▁horizont	-10.8237
▁zajišťuje	-10.8237
▁uvězněn	-10.8237
▁definuje	-10.8237
▁častěji	-10.8237
▁desítek	-10.8237
▁vlk	-10.8238
▁1982	-10.8239
▁osídlen	-10.8239
▁křesťanů	-10.8241
▁firem	-10.8241
▁barva	-10.8247
▁denní	-10.8247
▁čela	-10.8265
▁trvale	-10.8267
imp	-10.8267
▁republiku	-10.8269
▁tabulka	-10.8275
▁kanon	-10.8276
▁rybník	-10.8278
▁trav	-10.8281
▁prst	-10.8283
rock	-10.8283
▁tolik	-10.8287
uherska	-10.8288
▁vozidla	-10.8291
▁čtrnáct	-10.8291
▁vzdušn	-10.8291
▁řecka	-10.8292
▁hokej	-10.8292
▁1981	-10.8293
▁technologií	-10.8293
▁1934	-10.8293
čoval	-10.8297
bychom	-10.8299
▁skladby	-10.83
▁individuální	-10.8301
▁slep	-10.8302
▁homo	-10.8309
▁expres	-10.8309
▁plný	-10.8317
▁silnější	-10.8319
▁ryt	-10.832
denní	-10.8323
▁opustit	-10.8326
▁singl	-10.8329
řan	-10.833
▁značen	-10.8331
▁výtvarné	-10.8333
▁sklen	-10.8334
▁příslušníků	-10.8343
▁vyrábí	-10.8346
▁sněmovny	-10.8346
▁fosfor	-10.8346
▁opakovaně	-10.8346
▁vztažn	-10.8346
▁ihned	-10.8346
▁svědčí	-10.8346
▁jednotku	-10.8346
▁vzpour	-10.8346
▁křest	-10.8347
čsl	-10.8349
▁dosah	-10.8349
_6	-10.8351
▁liberal	-10.8351
wen	-10.8351
▁oxidační	-10.8351
▁vozů	-10.8353
▁bohaté	-10.8357
▁současných	-10.8359
▁kaš	-10.8365
▁1,5	-10.837
▁lyr	-10.8371
▁abd	-10.8372
rozená	-10.8373
▁kříže	-10.8384
▁jur	-10.8385
▁dění	-10.8387
▁uhlík	-10.8397
▁víc	-10.8399
▁veřejně	-10.8401
▁vyspěl	-10.8401
▁moskvě	-10.8401
▁ovládá	-10.8401
▁francií	-10.8401
▁příslušník	-10.8404
▁ohlas	-10.8404
▁balt	-10.8404
▁okresů	-10.8406
uhersko	-10.8406
▁ukázalo	-10.8412
▁občanství	-10.8414
draž	-10.8414
▁nejasn	-10.843
▁podpis	-10.8433
▁respekt	-10.8455
▁hospod	-10.8456
▁makedonie	-10.8456
▁manifest	-10.8456
▁desítky	-10.8456
▁dluh	-10.8457
▁vážně	-10.8458
stickou	-10.846
▁pozná	-10.8463
▁tržní	-10.8464
▁obecní	-10.8465
▁poslal	-10.8465
▁lang	-10.8468
▁jistý	-10.8468
▁zlatých	-10.8476
▁tření	-10.8483
▁úder	-10.8488
kultur	-10.8491
plet	-10.8492
▁lidský	-10.85
-34	-10.8501
▁cal	-10.8505
▁sfér	-10.8509
část	-10.8511
▁nazývané	-10.8512
▁poválečné	-10.8512
▁sultán	-10.8512
▁ostrava	-10.8512
▁nařízení	-10.8512
▁nezaměstnanost	-10.8512
braniborsk	-10.8512
▁posílen	-10.8512
▁politicky	-10.8513
▁facto	-10.8513
▁křesťané	-10.8513
▁zéland	-10.8513
▁můj	-10.8513
▁1927	-10.8514
čerpá	-10.8514
▁značí	-10.8514
▁plemen	-10.8521
▁znal	-10.8521
▁vědec	-10.8526
▁různá	-10.8539
slovan	-10.854
▁založená	-10.8541
▁miliónů	-10.8552
ařil	-10.8553
ářský	-10.8568
▁angličtině	-10.8568
▁dvůr	-10.8568
▁komunikaci	-10.8568
▁sloužit	-10.8568
▁komisař	-10.8568
▁publikován	-10.8568
▁jinde	-10.8568
▁předměstí	-10.8568
▁savců	-10.8568
▁reagoval	-10.8568
▁distribuce	-10.8568
▁natočil	-10.8568
▁podnikatel	-10.8569
▁methan	-10.8569
▁horách	-10.857
▁přesvědčení	-10.8573
▁nemocnice	-10.8574
▁rotace	-10.8576
▁láv	-10.858
▁dochoval	-10.8585
▁bohatý	-10.8585
▁experimentální	-10.8587
▁představitelů	-10.8594
hir	-10.8596
▁atlet	-10.8602
rij	-10.8603
▁švédské	-10.8614
bahn	-10.8617
▁vybavení	-10.8619
▁pivovar	-10.8624
▁kontextu	-10.8624
geomorfologick	-10.8624
▁přeložen	-10.8624
▁diamant	-10.8624
▁cestovní	-10.8624
▁darwin	-10.8625
▁ochrann	-10.8625
svěcen	-10.8626
▁chlorid	-10.863
▁ovládal	-10.8631
▁sběr	-10.8635
▁hřbitově	-10.8642
▁portugalské	-10.8646
wald	-10.8646
▁zahrnují	-10.8655
▁duše	-10.866
▁expo	-10.8675
▁následuje	-10.868
▁koncentrační	-10.868
▁řecku	-10.868
▁vysočin	-10.868
▁praktické	-10.868
▁jedinců	-10.8681
▁exilu	-10.8681
▁jedince	-10.8681
▁úplné	-10.8682
▁jugoslávie	-10.8686
▁investic	-10.8687
▁lord	-10.8688
český	-10.8693
▁rostl	-10.8697
▁paleo	-10.8712
▁linky	-10.8721
▁světle	-10.8724
▁aminokyselin	-10.8737
▁pobřežní	-10.8737
▁pohřeb	-10.8737
▁vojtěch	-10.8737
▁vozidel	-10.8737
▁wilhelm	-10.8737
▁kuchyně	-10.8737
▁nabídl	-10.8737
▁poskytují	-10.8737
▁watt	-10.8739
▁1935	-10.8739
▁mód	-10.874
▁vědom	-10.8742
▁přijmout	-10.8746
▁vzniknout	-10.8748
▁železnic	-10.8753
▁výstavba	-10.8757
▁tenis	-10.8766
▁hil	-10.8771
▁franz	-10.8774
společen	-10.8775
narození	-10.8783
povídá	-10.8786
▁atp	-10.8792
▁kružnice	-10.8794
▁utrpěl	-10.8794
▁pojmy	-10.8795
▁urban	-10.8795
▁zámku	-10.8795
▁aliance	-10.8796
▁1916	-10.8797
▁opuštěn	-10.8799
▁výs	-10.8803
▁čistě	-10.8806
▁barvu	-10.8807
▁gymnáziu	-10.8808
▁ruskem	-10.881
▁objektiv	-10.8815
▁malým	-10.8815
▁mnohd	-10.8815
organických	-10.8817
▁nápad	-10.8818
▁turecké	-10.8819
▁víru	-10.8823
▁gru	-10.8826
▁závislost	-10.8836
▁dosahují	-10.8843
▁náboženský	-10.8844
▁rozpor	-10.8846
▁rovině	-10.8846
▁velikonoční	-10.8852
▁nejrůznější	-10.8852
▁zařadil	-10.8852
▁rozpuštěn	-10.8852
▁nějakou	-10.8853
▁bohuslav	-10.8854
▁podobná	-10.8855
▁křesťanských	-10.8855
▁nedošlo	-10.8855
▁drtiv	-10.8856
▁latinsky	-10.8861
▁hledal	-10.8863
▁dialog	-10.8866
▁studio	-10.8866
efekt	-10.8869
▁elit	-10.8872
▁orgánů	-10.8872
▁gard	-10.8875
▁méd	-10.8881
▁jugosláv	-10.8881
▁piva	-10.8882
▁antické	-10.89
▁nazývaný	-10.891
▁vyráběn	-10.891
▁ovlivňuje	-10.891
▁posádky	-10.891
▁osmdesát	-10.891
▁pravoslavné	-10.891
▁nemohou	-10.891
▁vědecký	-10.891
▁prosazoval	-10.891
▁jsme	-10.891
▁snížil	-10.8911
▁1931	-10.8912
▁média	-10.8912
▁kypr	-10.8915
▁poukaz	-10.892
▁specifik	-10.892
▁republikou	-10.8933
vojen	-10.8939
▁obecná	-10.8944
lud	-10.895
pojit	-10.8952
elekt	-10.8965
▁odehrál	-10.8968
▁produkci	-10.8968
▁tvůrce	-10.8968
▁dokáže	-10.8968
▁slovenská	-10.8968
▁skvrn	-10.8968
▁hřeben	-10.8969
▁1910	-10.8972
▁slezské	-10.8976
▁dotaz	-10.8983
▁stadion	-10.8987
periodick	-10.8988
▁otrok	-10.899
...)	-10.899
▁alois	-10.9002
▁jednoty	-10.9003
▁stará	-10.9003
hvězd	-10.9018
▁komunismu	-10.9019
▁gpl	-10.9021
▁bakterií	-10.9026
▁báseň	-10.9026
▁držitel	-10.9026
▁vévodství	-10.9026
▁zlepšení	-10.9026
▁nedostatečn	-10.9026
▁rozmezí	-10.9026
▁emisí	-10.9026
▁posvátn	-10.9026
▁odmítnut	-10.9027
▁figur	-10.9028
▁brzd	-10.903
▁fakticky	-10.9032
▁pozemsk	-10.9033
▁programátor	-10.9035
▁zapsán	-10.9035
▁závodě	-10.9038
▁brna	-10.9039
▁mise	-10.9046
akademi	-10.9048
ijské	-10.9049
daných	-10.9053
ožní	-10.9059
rodič	-10.906
městských	-10.9068
dříve	-10.9076
▁mnichovsk	-10.9078
▁památník	-10.9084
▁kierkegaard	-10.9085
▁mechanické	-10.9085
▁nájezd	-10.9085
▁fosilní	-10.9085
▁délku	-10.9085
▁west	-10.9086
▁1913	-10.9087
▁čtení	-10.9088
▁chemik	-10.9089
▁severozápadní	-10.9089
▁přítele	-10.9091
▁položil	-10.9092
▁poruch	-10.9092
▁platil	-10.9095
▁změnám	-10.9095
▁těl	-10.9098
105	-10.9105
ečtí	-10.9111
▁potlač	-10.9112
▁ráz	-10.9116
▁trestní	-10.9116
jímá	-10.9119
▁široký	-10.9124
▁mik	-10.9137
▁věže	-10.9142
▁podání	-10.9144
▁zabránit	-10.9144
▁miroslav	-10.9144
▁umístil	-10.9145
▁klement	-10.9145
osvícen	-10.9145
▁svojí	-10.9146
▁akademii	-10.9146
▁setkat	-10.9146
chránil	-10.9148
▁ele	-10.9157
▁sokol	-10.9157
▁pronásledování	-10.9162
▁mírové	-10.9166
▁pronikl	-10.9168
▁napaden	-10.9174
▁mince	-10.9175
▁ulic	-10.9179
▁bill	-10.9183
železn	-10.9199
▁japonsku	-10.9204
▁vlhkost	-10.9204
script	-10.9204
▁empir	-10.9204
▁samostatně	-10.9204
▁úhlu	-10.9205
▁pojmem	-10.9205
▁1905	-10.9205
▁živé	-10.9206
▁pravý	-10.9207
▁henri	-10.9207
▁odhalen	-10.9209
▁vydával	-10.9211
▁říší	-10.9216
▁sekven	-10.9216
▁finsku	-10.9217
▁přínos	-10.9217
▁soustředěn	-10.9226
▁blan	-10.9237
▁manželky	-10.9246
loží	-10.9261
▁vzdělávací	-10.9264
▁sexuální	-10.9264
▁invaze	-10.9264
▁velikého	-10.9264
▁podpoře	-10.9264
▁sehrál	-10.9265
▁1926	-10.9266
▁řešit	-10.9266
▁zelené	-10.9274
antarkti	-10.9275
▁úhel	-10.9277
▁//	-10.928
▁portugalsko	-10.9292
▁bell	-10.9305
▁řízen	-10.9308
▁latinský	-10.9312
73"	-10.9319
▁ozbrojený	-10.9321
někdy	-10.9323
▁nejmladší	-10.9324
▁policejní	-10.9324
▁reprezentace	-10.9324
▁souhvězdí	-10.9324
▁vnitrozemí	-10.9324
▁vystudoval	-10.9324
▁římskokatolické	-10.9324
▁složitější	-10.9324
▁podporou	-10.9324
▁poštovní	-10.9324
▁devíti	-10.9324
▁obrátil	-10.9324
▁úrovní	-10.9324
▁zimě	-10.9324
▁zanechal	-10.9325
▁těle	-10.9325
▁1957	-10.9326
▁vyslal	-10.9328
inf	-10.9337
▁egyptské	-10.9338
▁průměrné	-10.9338
▁psů	-10.9346
hrozil	-10.9347
▁dolů	-10.9359
▁grafické	-10.9364
▁půdě	-10.9369
▁využit	-10.9376
▁přežil	-10.9379
▁angličtiny	-10.9385
▁basketbal	-10.9385
▁paradox	-10.9385
▁pokračování	-10.9385
▁třináct	-10.9385
▁hydroxid	-10.9385
▁sídlil	-10.9385
▁doposud	-10.9385
▁praxe	-10.9385
▁reklam	-10.9385
▁historická	-10.9385
▁konzum	-10.9386
▁prapor	-10.9386
▁1908	-10.9387
▁spjat	-10.9388
váží	-10.9388
▁karpat	-10.9395
▁slovanských	-10.9397
▁indický	-10.9398
▁prahu	-10.9401
▁představen	-10.9405
▁časté	-10.9408
▁čeští	-10.9409
▁nerv	-10.9425
▁hřbitov	-10.9426
▁říci	-10.9435
▁desky	-10.944
francouz	-10.9445
▁atentát	-10.9445
▁rozvinul	-10.9446
▁exaktní	-10.9446
▁zaměstnanců	-10.9446
▁zabývající	-10.9446
▁hymna	-10.9446
▁obnovil	-10.9446
▁věřil	-10.9446
▁saint	-10.9448
▁otci	-10.9457
▁zahrnující	-10.9473
▁masarykov	-10.9477
▁oběžné	-10.9482
▁zelený	-10.9489
_7	-10.9494
▁připadl	-10.9505
▁esperantist	-10.9507
▁katastrální	-10.9507
▁green	-10.9507
▁dceru	-10.9507
▁krizi	-10.9507
▁připadá	-10.9507
▁sbírka	-10.9508
▁pravěk	-10.9509
▁luther	-10.951
▁zřetel	-10.9514
▁polák	-10.9516
▁filozofii	-10.9521
▁galileo	-10.9523
▁levé	-10.9526
▁chrom	-10.9526
▁odborník	-10.9527
▁placen	-10.9535
pustit	-10.9538
▁kladen	-10.9547
▁správné	-10.9563
▁diváků	-10.9568
▁guvernér	-10.9569
▁nejrozšířenější	-10.9569
▁existovat	-10.9569
▁amoniak	-10.9569
▁ložisk	-10.9569
▁mlhovin	-10.9569
▁pierre	-10.9569
▁blíže	-10.957
▁1911	-10.9571
▁kánon	-10.9572
▁slavnostní	-10.958
▁jasně	-10.9581
sign	-10.9585
▁dostupný	-10.9588
▁oprávněn	-10.9599
▁otevřené	-10.9605
▁olympijsk	-10.9608
▁využívání	-10.9613
ičtější	-10.9615
▁eukaryot	-10.9631
▁mannerheim	-10.9631
▁vytvářet	-10.9631
▁vyznačuje	-10.9631
▁mytologie	-10.9631
▁boleslav	-10.9631
▁uspořádan	-10.9631
▁muslimů	-10.9631
jazyčn	-10.9631
▁postižen	-10.9631
▁říšský	-10.9632
▁ohledem	-10.9632
▁médií	-10.9632
▁zkoumá	-10.9633
▁křesťanský	-10.9635
▁reálný	-10.9636
▁výsad	-10.9636
▁genetické	-10.9639
▁strýc	-10.9645
▁strun	-10.9651
▁teplotní	-10.9651
▁průmyslových	-10.9664
▁armádní	-10.9667
▁přešel	-10.9668
▁vyjm	-10.9674
▁četné	-10.9678
▁soustředil	-10.9688
▁jízdní	-10.969
▁digitalizovan	-10.9693
▁inspiroval	-10.9693
▁připomínají	-10.9693
▁vyvíjel	-10.9693
▁slunci	-10.9693
▁specifické	-10.9693
▁žádal	-10.9693
▁stvoření	-10.9693
▁pomník	-10.9694
▁navazuje	-10.9694
▁dostupné	-10.9696
▁sibiř	-10.9697
▁přesah	-10.9699
moravské	-10.9699
▁nikl	-10.9706
▁švédský	-10.9706
▁nazval	-10.9719
▁jmenuje	-10.9721
▁formule	-10.9722
▁gest	-10.9722
▁koš	-10.9724
chemická	-10.9733
▁kmene	-10.9736
▁dělnick	-10.9741
zvlášť	-10.9756
▁kontroverzní	-10.9756
▁průkopník	-10.9756
▁spravedlnost	-10.9756
▁udržoval	-10.9756
▁zasloužil	-10.9756
▁knížat	-10.9756
▁satelit	-10.9756
▁těšín	-10.9756
▁zdaleka	-10.9756
▁samotná	-10.9756
▁němčiny	-10.9756
▁dočasně	-10.9756
▁dogmat	-10.9756
▁probíhající	-10.9757
▁krypt	-10.9757
▁obranu	-10.9758
▁spojenectví	-10.9759
▁řekové	-10.976
▁rodičů	-10.976
▁odmítá	-10.976
gb	-10.9762
všechna	-10.9765
▁čeledi	-10.9771
▁hlasování	-10.9774
▁britská	-10.9778
▁přišli	-10.9783
▁glo	-10.9787
▁libovolné	-10.9788
▁radia	-10.98
▁odstranění	-10.98
▁postavit	-10.981
▁ustanoven	-10.981
▁licencí	-10.9819
▁zbytku	-10.9819
▁zůstával	-10.9819
▁kancléř	-10.9819
▁příjmy	-10.9819
▁maršál	-10.9819
▁důchod	-10.9819
▁bratři	-10.9819
▁plzni	-10.9819
▁natáčení	-10.982
▁hmyz	-10.982
▁zčásti	-10.982
▁bázi	-10.982
▁pozic	-10.9822
▁spuštěn	-10.9826
▁verše	-10.9833
▁šíří	-10.9838
▁krve	-10.9841
▁opětovn	-10.985
▁drama	-10.986
▁hugo	-10.988
▁pohádky	-10.9883
▁termodynamick	-10.9883
▁zmínka	-10.9883
▁evropu	-10.9883
▁komedie	-10.9883
▁prvotní	-10.9886
▁studené	-10.9886
▁bolest	-10.9888
▁video	-10.9889
inger	-10.989
červen	-10.9892
▁červenec	-10.9894
▁ráno	-10.9897
▁nerost	-10.9904
▁milan	-10.9906
estavěn	-10.9906
▁příměs	-10.9915
76"	-10.9926
▁lidová	-10.9927
▁konstantní	-10.9929
▁polní	-10.9933
▁vědců	-10.9933
▁proton	-10.9947
▁caligul	-10.9947
▁diktatur	-10.9947
▁membrán	-10.9947
▁obklopen	-10.9947
▁umožňoval	-10.9947
▁specifický	-10.9947
▁stejná	-10.9947
▁oteplování	-10.9947
▁oslaben	-10.9947
▁financován	-10.9947
▁myslitel	-10.9948
▁nařídil	-10.9948
▁svoje	-10.9949
▁brusel	-10.9951
▁odolnost	-10.9952
▁vejce	-10.9955
▁normy	-10.9957
především	-10.9957
slyš	-10.9963
▁kolektivní	-10.9963
▁jmenovat	-10.997
▁biblické	-10.9972
▁pušk	-10.9973
▁římská	-10.9974
německé	-10.9974
▁tabulky	-10.9975
▁zapojen	-10.9979
▁nadmořsk	-10.9988
▁diplom	-10.999
▁vůle	-10.9994
átoři	-11.0005
▁sestaven	-11.0006
▁nákladní	-11.0007
▁spojován	-11.0008
důstojn	-11.0011
▁fenomén	-11.0012
▁třicetilet	-11.0012
▁reaktor	-11.0012
▁slezsku	-11.0012
▁jednotkou	-11.0012
▁prostředek	-11.0012
▁japonský	-11.0012
▁hybnost	-11.0013
▁vedené	-11.0013
▁bernard	-11.0014
▁ocitl	-11.002
▁třikrát	-11.0025
▁dvojice	-11.0028
▁neúspěšně	-11.0033
▁udržet	-11.0035
▁indián	-11.0035
▁rovnost	-11.0038
▁automatický	-11.0044
▁biologické	-11.0046
▁typický	-11.0055
▁vyjádřen	-11.007
▁filosofick	-11.0073
▁komplikovan	-11.0077
▁muzikál	-11.0077
▁učebnic	-11.0077
▁radioaktivní	-11.0077
▁věnuje	-11.0077
▁portrét	-11.0077
▁výbuch	-11.0077
▁rektor	-11.0077
▁stoupá	-11.0077
▁medaili	-11.0077
▁odchyl	-11.008
▁útěk	-11.0081
▁napsán	-11.0081
▁odměn	-11.0086
▁říční	-11.009
▁skutečn	-11.0091
▁stejnojmenné	-11.0096
poznámk	-11.0097
▁přechází	-11.0098
▁popř	-11.0105
▁meče	-11.0108
věřit	-11.011
▁lidových	-11.0111
▁přepis	-11.0111
▁volba	-11.012
▁lidská	-11.0121
držet	-11.0122
▁přijel	-11.0129
▁optick	-11.0137
▁bedřich	-11.0142
▁evoluce	-11.0142
▁varšavské	-11.0142
▁vyprávění	-11.0142
▁legionář	-11.0142
▁rozlišení	-11.0142
▁podporovat	-11.0142
▁arthur	-11.0142
▁definovat	-11.0142
▁značky	-11.0143
▁škál	-11.0146
▁těžiště	-11.0147
▁šelem	-11.0149
▁diplomatické	-11.0163
▁senátor	-11.0166
dmořské	-11.0166
▁ideál	-11.0177
▁procház	-11.0178
▁relativ	-11.018
▁energ	-11.0184
work	-11.0186
mark	-11.019
vládl	-11.0193
▁živočich	-11.0195
▁kated	-11.0206
▁babylón	-11.0208
▁otázku	-11.0208
▁vypuknutí	-11.0208
▁alžír	-11.0208
▁přeložil	-11.0208
▁nespokojen	-11.0208
▁producent	-11.0208
▁samostatnost	-11.0208
▁kapitán	-11.0208
▁snižuje	-11.0208
▁sérii	-11.0208
▁henry	-11.0208
▁aragon	-11.0208
▁děkan	-11.0208
▁kritické	-11.0211
▁očekává	-11.0212
▁molekulární	-11.0212
▁german	-11.0215
▁blesk	-11.0218
▁platón	-11.0219
▁působit	-11.0224
nejspíše	-11.0226
které	-11.0228
▁celkov	-11.0231
▁překladač	-11.0232
▁irsko	-11.0234
normál	-11.0235
▁důležitá	-11.0274
▁fyzice	-11.0274
▁lichtenštejn	-11.0274
▁naposledy	-11.0274
▁neúspěch	-11.0274
▁unikátní	-11.0274
▁impéria	-11.0274
▁vladimir	-11.0274
▁prvkem	-11.0274
▁hnízd	-11.0274
▁končetin	-11.0274
▁nikolaj	-11.0274
▁počest	-11.0275
▁ukazují	-11.0275
▁šířil	-11.0276
▁příslušnost	-11.0276
▁1959	-11.0276
▁masivní	-11.028
▁tramp	-11.0284
▁leden	-11.0286
▁realismu	-11.0297
▁oblib	-11.0298
tisíc	-11.0301
▁čtvrtý	-11.0303
▁vydat	-11.0304
▁kvantové	-11.0313
třicet	-11.0323
▁skalní	-11.0324
▁brazílie	-11.0341
▁digitální	-11.0341
▁nejčastější	-11.0341
▁odpovídal	-11.0341
▁využívat	-11.0341
▁zástupců	-11.0341
▁zřejmé	-11.0341
▁populaci	-11.0341
▁čtver	-11.0341
▁vybudoval	-11.0341
▁nechtěl	-11.0341
▁akademické	-11.0341
▁situací	-11.0341
▁ideologie	-11.0341
▁ostatky	-11.0341
▁řehoř	-11.0342
krývá	-11.0344
▁turistů	-11.0347
▁ustaven	-11.0348
print	-11.0348
▁pravidelné	-11.0348
▁nepřítele	-11.0352
▁psychologie	-11.0352
▁suché	-11.0358
dnešní	-11.0358
▁poutní	-11.0376
▁objevovat	-11.0382
▁proměnné	-11.0387
▁odehrává	-11.0408
▁příspěvk	-11.0408
▁výrobce	-11.0408
▁příjmů	-11.0408
▁buddhismu	-11.0408
▁erupce	-11.0408
▁nejlépe	-11.0408
▁závažn	-11.0408
hut	-11.0408
▁přídavn	-11.0408
▁fungoval	-11.0408
▁viditelné	-11.0408
▁podruhé	-11.0408
▁michal	-11.0408
▁pohlaví	-11.0409
▁kráter	-11.0409
▁1906	-11.0409
barvení	-11.041
▁spadá	-11.0411
▁nápoj	-11.0412
▁mírné	-11.0423
▁věří	-11.0424
▁vpád	-11.0425
▁vidí	-11.0432
place	-11.0433
▁ženev	-11.0448
▁ozbrojené	-11.045
▁větrn	-11.0459
▁teologické	-11.0463
▁obzvlášt	-11.0475
▁rozmnožování	-11.0475
▁zájmy	-11.0475
▁extrémně	-11.0475
▁racionální	-11.0475
▁moskvy	-11.0475
▁komiks	-11.0475
▁příměří	-11.0475
▁kobalt	-11.0476
▁přirozeně	-11.0476
▁rodné	-11.0477
▁závor	-11.0477
▁vodivost	-11.0478
▁sekundární	-11.0479
++	-11.0479
▁schůz	-11.048
▁žalob	-11.0482
▁kinetick	-11.0483
▁necelý	-11.0484
▁operaci	-11.0489
▁budování	-11.0492
▁železo	-11.0492
▁těžší	-11.0492
▁lékařství	-11.0492
řád	-11.0496
▁obdobně	-11.0506
▁plošin	-11.0507
–13	-11.0509
▁demokracii	-11.0543
▁expanze	-11.0543
▁křemík	-11.0543
▁souběžn	-11.0543
▁kritizován	-11.0543
▁poznatky	-11.0543
▁březen	-11.0543
▁matyáš	-11.0543
nedlouho	-11.0544
▁skleníkový	-11.0544
▁elektrárny	-11.0544
▁vážné	-11.0544
▁tratě	-11.0545
▁telegraf	-11.0546
▁demokratická	-11.0549
▁design	-11.0552
▁stavbě	-11.0563
▁síle	-11.0564
rozděl	-11.0568
▁spojenců	-11.057
▁liga	-11.058
▁svah	-11.0583
kraj	-11.0588
tlačil	-11.0605
▁dmitrij	-11.0612
▁gravitace	-11.0612
▁privilegi	-11.0612
▁zabezpečen	-11.0612
▁žďár	-11.0612
▁hrabství	-11.0612
▁služba	-11.0612
▁turecko	-11.0612
▁určují	-11.0613
▁irska	-11.0613
▁kovový	-11.0614
▁peking	-11.0616
▁nátlak	-11.0617
▁elektrická	-11.0617
▁dovolen	-11.0626
▁srbské	-11.0629
▁bub	-11.063
▁milión	-11.0632
▁flot	-11.0636
▁přihlásil	-11.0656
▁hraběte	-11.0667
▁liberál	-11.0676
▁chomutov	-11.0681
▁katedrála	-11.0681
▁inflace	-11.0681
▁stanislav	-11.0681
▁fyziolog	-11.0681
▁pamětní	-11.0681
▁galerie	-11.0681
▁provést	-11.0681
▁srpen	-11.0682
▁chemii	-11.0682
▁dopravě	-11.0682
▁fungují	-11.0683
▁papežské	-11.0684
▁kyjov	-11.0687
▁kusů	-11.0688
▁2023	-11.0689
▁mlýn	-11.069
▁slabé	-11.069
▁počítačový	-11.0694
▁středověký	-11.0699
▁reformace	-11.0704
optim	-11.0707
▁stranách	-11.0709
▁hradec	-11.0715
▁éry	-11.0717
▁císařov	-11.0719
ville	-11.0721
▁otevřený	-11.0725
▁chorvatsko	-11.0727
▁0,0	-11.0732
▁uheln	-11.0739
myk	-11.0747
▁definitivní	-11.075
▁polovodič	-11.075
▁výjimečně	-11.075
▁výjimky	-11.075
▁mrtvých	-11.075
▁vysvětlit	-11.075
▁věnovat	-11.075
▁říjen	-11.075
▁stupeň	-11.075
▁trvající	-11.075
▁obloze	-11.075
▁šéf	-11.0751
▁průtok	-11.0752
▁viking	-11.0753
▁pruh	-11.0755
▁brazilsk	-11.0755
_8	-11.0756
▁železné	-11.0756
▁vydané	-11.076
▁finský	-11.0765
▁pracující	-11.0774
▁následn	-11.0779
▁zpravodaj	-11.078
▁jednoznačně	-11.0783
▁nechá	-11.0797
▁zaměřuj	-11.0803
logický	-11.0804
▁červený	-11.0806
▁informaci	-11.082
▁krkonoš	-11.082
▁následky	-11.082
▁složek	-11.082
▁polokouli	-11.082
▁prosadit	-11.082
▁1907	-11.0822
▁klasik	-11.0823
▁mocností	-11.0827
skript	-11.083
▁příslušný	-11.083
▁pásma	-11.084
▁neobvykl	-11.0844
▁podnikl	-11.0854
long	-11.0873
alternativ	-11.0888
▁ekosystém	-11.0891
▁heinrich	-11.0891
▁označované	-11.0891
▁prodloužen	-11.0891
▁rumunsko	-11.0891
▁stockholm	-11.0891
▁vyžádal	-11.0891
▁zabránil	-11.0891
▁ondřej	-11.0891
▁samostatnou	-11.0891
▁expanzi	-11.0891
▁široce	-11.0891
▁podporován	-11.0891
▁opačné	-11.0891
▁domníval	-11.0891
▁michel	-11.0891
▁kanadě	-11.0891
▁rysy	-11.0891
▁freebsd	-11.0891
▁eminem	-11.0891
▁sídla	-11.0892
▁humanist	-11.0892
▁činitel	-11.0892
▁štáb	-11.0893
▁občanský	-11.0894
sílá	-11.0895
▁patron	-11.0896
−1	-11.0897
▁víno	-11.0902
izovaná	-11.0907
▁čaj	-11.091
▁umělců	-11.0914
▁otto	-11.0919
▁jezdec	-11.0922
▁slovenšt	-11.0923
▁republik	-11.0931
08"	-11.0935
▁rolí	-11.0943
zvuk	-11.0952
▁řídící	-11.0958
▁vyznamenán	-11.0962
▁katolickou	-11.0962
▁pomáhal	-11.0962
▁uspořádal	-11.0962
▁zajišťují	-11.0962
▁prosinec	-11.0962
▁edvard	-11.0962
▁industri	-11.0962
▁mozart	-11.0962
▁katalánsk	-11.0962
▁vazeb	-11.0962
ňák	-11.0963
▁vnitra	-11.0965
▁kámen	-11.0966
▁husitský	-11.0967
▁švédska	-11.0968
▁zvon	-11.097
▁administrativ	-11.0972
▁snížen	-11.0974
▁rodinné	-11.0977
▁přání	-11.098
▁biologie	-11.0983
▁poct	-11.0983
▁state	-11.0989
▁splněn	-11.0992
▁déle	-11.0997
▁počínaj	-11.1005
▁irské	-11.1007
3,5	-11.1009
▁únik	-11.1014
▁algoritmu	-11.1033
▁dlouhodobé	-11.1033
▁neexistoval	-11.1033
▁následkem	-11.1033
▁stupňů	-11.1033
▁fungování	-11.1033
▁šestnáct	-11.1033
▁poslanců	-11.1033
▁triumf	-11.1033
▁neznámé	-11.1033
▁prvku	-11.1033
▁porušení	-11.1033
▁iráku	-11.1034
▁gramatik	-11.1034
▁koupil	-11.1034
▁jezdí	-11.1035
▁nutně	-11.1035
▁zachován	-11.1035
tung	-11.1038
▁etnické	-11.104
▁export	-11.1042
▁sjednocen	-11.1045
▁souhlasil	-11.1049
▁originální	-11.1084
▁princ	-11.1094
▁xii	-11.1104
▁epidemie	-11.1105
▁koeficient	-11.1105
▁renesance	-11.1105
▁vyráběl	-11.1105
▁celostátní	-11.1105
▁chrudim	-11.1105
▁nejpopulárnější	-11.1105
▁podkarpatsk	-11.1105
▁šedesátý	-11.1105
▁tornád	-11.1105
▁pozoruhodn	-11.1105
▁přidělen	-11.1106
▁bydlel	-11.1106
▁1901	-11.1107
▁hladiny	-11.111
▁převeden	-11.1112
nášejí	-11.1113
▁přátelství	-11.1116
▁sucho	-11.1125
▁duben	-11.1133
schopnost	-11.114
▁sloh	-11.1146
vznik	-11.115
▁cukrov	-11.1154
▁daňový	-11.1157
▁plic	-11.1157
▁plát	-11.117
▁pravidelný	-11.1171
▁fantasy	-11.1177
▁sebevražd	-11.1177
▁žižkov	-11.1177
▁pomáhá	-11.1177
▁babylon	-11.1177
▁manévr	-11.1177
▁začínal	-11.1178
▁zmiňuje	-11.1178
▁spolku	-11.1178
▁element	-11.1179
▁cache	-11.1179
▁zakládající	-11.118
▁bílá	-11.118
▁vývoz	-11.118
▁blue	-11.1183
▁ovoce	-11.1183
▁omyl	-11.1184
▁jeseník	-11.1184
▁filosofii	-11.1185
bakalář	-11.1188
▁francouzsky	-11.1189
▁útočn	-11.1194
▁stavěl	-11.1195
▁nacházející	-11.1196
▁blíží	-11.1197
▁originál	-11.1198
ologií	-11.1221
▁leon	-11.124
▁protestantské	-11.1247
▁katar	-11.1248
▁bourbon	-11.125
▁brigád	-11.125
▁moskevsk	-11.125
▁srdeční	-11.125
▁uhlovodík	-11.125
▁pondělí	-11.125
▁kompletní	-11.125
▁asistent	-11.125
▁opozice	-11.125
▁vyslovil	-11.125
▁fází	-11.1251
▁binární	-11.1251
▁šířit	-11.1251
▁buddhist	-11.1251
▁duševní	-11.1251
▁bezprostředně	-11.1251
▁efektivní	-11.1253
▁skládal	-11.1254
píše	-11.1259
▁stával	-11.1261
být	-11.1263
křiv	-11.127
▁bosny	-11.1273
–12	-11.1303
▁mega	-11.1307
▁uznán	-11.1312
trans	-11.1319
ortodoxní	-11.1324
▁celosvětově	-11.1324
▁lucemburský	-11.1324
▁ludwig	-11.1324
▁pochopení	-11.1324
▁tvůrčí	-11.1324
▁rozkvět	-11.1324
▁zachycen	-11.1324
▁potravy	-11.1324
▁podporovan	-11.1324
▁srážky	-11.1325
▁tvořit	-11.1325
▁vycházející	-11.1325
▁lásky	-11.1325
▁řečeno	-11.1326
▁písni	-11.1326
▁dosahoval	-11.1327
▁lidstva	-11.1327
▁přesněji	-11.1333
slovanské	-11.1337
▁klíčovou	-11.1338
asijské	-11.1339
▁příbuzné	-11.1339
▁božstv	-11.1341
▁francouzskou	-11.1348
mongolsk	-11.1353
ensis	-11.1359
planet	-11.1365
▁částečn	-11.1368
▁stadi	-11.1373
aux	-11.1379
izolovan	-11.1389
▁avantgard	-11.1398
▁jednodušší	-11.1398
▁komunikační	-11.1398
▁medailí	-11.1398
▁místopředsed	-11.1398
▁uhličitého	-11.1398
▁začátek	-11.1398
▁vytvoří	-11.1398
▁zmocnil	-11.1398
▁službu	-11.1398
▁sbírku	-11.1399
▁textilní	-11.1399
▁ekonomiku	-11.1401
▁skladeb	-11.1402
▁pobočk	-11.1402
▁skoro	-11.1403
psaná	-11.1404
▁black	-11.1406
příklad	-11.141
řecky	-11.1413
obvykle	-11.1413
▁skryt	-11.1417
▁různým	-11.1418
▁dočkal	-11.1421
▁alfa	-11.1422
▁pohansk	-11.1428
většinou	-11.1439
▁africký	-11.1449
fried	-11.1456
▁přesnost	-11.1462
▁požadavků	-11.1473
▁teoreticky	-11.1473
▁nízká	-11.1473
▁požadovan	-11.1473
▁maďarska	-11.1473
▁témže	-11.1473
▁čínská	-11.1474
▁talent	-11.1474
bývat	-11.1474
▁jestli	-11.1474
stupňov	-11.1478
▁vnuk	-11.148
▁ekonomická	-11.1482
▁hráz	-11.1486
▁plamen	-11.1489
severovýchod	-11.1489
▁složitý	-11.15
neutral	-11.1506
▁jednoznačn	-11.1513
▁pásmo	-11.153
▁víra	-11.1532
▁hmotný	-11.1535
▁viii	-11.1537
▁přispě	-11.154
růstají	-11.1543
▁zdravotnic	-11.1548
▁konstrukci	-11.1548
▁kukuřice	-11.1548
▁neexistují	-11.1548
▁spravedliv	-11.1548
▁poslanecké	-11.1548
▁gautam	-11.1548
▁mechanismu	-11.1548
▁vévoda	-11.1548
▁ptáci	-11.1548
▁severovýchodě	-11.1548
▁vyzval	-11.1548
▁victor	-11.1548
▁šumav	-11.1549
▁filtr	-11.1549
▁souvislost	-11.155
▁1909	-11.155
▁kotle	-11.1551
▁vycházejí	-11.1553
▁esperantské	-11.1553
▁jakékoliv	-11.1563
terminologi	-11.1563
▁páté	-11.1569
uherské	-11.1576
▁font	-11.1597
▁magma	-11.1598
▁napadl	-11.1614
▁přestáv	-11.162
▁inteligence	-11.1624
▁označovaný	-11.1624
▁motocykl	-11.1624
▁fyzické	-11.1624
▁povídek	-11.1624
▁gottwald	-11.1624
▁péče	-11.1624
▁komunisté	-11.1625
▁makro	-11.1626
▁chmel	-11.1629
▁malířství	-11.1635
▁měnil	-11.1637
▁sdílen	-11.1644
▁pruské	-11.1644
▁obslu	-11.1664
▁spam	-11.1673
který	-11.1674
vyjadřova	-11.17
▁kategorii	-11.17
▁reprezentant	-11.17
▁reprezentoval	-11.17
▁zmrzlin	-11.17
▁pohraniční	-11.17
▁velikonoc	-11.17
▁dvoře	-11.17
▁rozhodnuto	-11.17
▁vidění	-11.17
▁praktický	-11.1701
▁masakr	-11.1701
▁odpovědnost	-11.1703
▁rituál	-11.1703
▁mladí	-11.1706
▁světelný	-11.1709
▁olomoucké	-11.171
▁následný	-11.1712
▁lék	-11.1715
▁křesťansko	-11.1717
▁dílčí	-11.1721
▁webový	-11.1728
▁plánovan	-11.174
seznam	-11.1748
▁prusko	-11.1751
▁kryt	-11.1757
střední	-11.176
čítají	-11.1764
objev	-11.1767
▁pozván	-11.1772
rozcestník	-11.1777
▁bruntál	-11.1777
▁výcvik	-11.1777
▁kombinaci	-11.1777
▁vytvářel	-11.1777
▁kilogram	-11.1777
▁náčelník	-11.1777
▁uplatnění	-11.1777
▁reforem	-11.1777
▁vakcín	-11.1777
▁afrika	-11.1777
▁letadla	-11.1777
▁snímek	-11.1778
▁svěcení	-11.1778
sféry	-11.1779
▁člun	-11.1779
▁kužel	-11.178
▁průchod	-11.178
field	-11.1781
▁rychlejší	-11.1782
▁švédsku	-11.1783
▁průliv	-11.1785
▁vítr	-11.1787
▁říkal	-11.1789
▁odstraněn	-11.1801
▁těžba	-11.1802
pozn	-11.1806
▁úměrn	-11.1817
pracoval	-11.1824
▁zkrácen	-11.1833
▁dánské	-11.1846
ivity	-11.1847
▁abstraktní	-11.1854
▁angličan	-11.1854
▁opoziční	-11.1854
▁vzápětí	-11.1854
▁žluté	-11.1854
▁účinek	-11.1854
lepšil	-11.1854
▁pascal	-11.1854
sféře	-11.1855
▁soutok	-11.1855
▁sopky	-11.1856
▁brněnské	-11.186
▁polymer	-11.186
▁následník	-11.1862
▁planetární	-11.1863
▁vyšly	-11.1867
▁větví	-11.1871
▁důl	-11.188
▁vzácně	-11.1895
▁teplic	-11.193
▁kurfiřt	-11.1932
▁matematice	-11.1932
▁vyjadřují	-11.1932
▁zveřejnil	-11.1932
▁zájmů	-11.1932
▁závislá	-11.1932
▁1904	-11.1932
▁nedostatku	-11.1932
▁kapitál	-11.1932
▁otvor	-11.1934
▁1903	-11.1934
▁doslova	-11.1937
▁vyslán	-11.1948
▁omezit	-11.1959
▁nacionalistick	-11.1962
▁určený	-11.1976
▁nesprávn	-11.199
▁devadesátých	-11.2011
▁diktátor	-11.2011
▁ethanol	-11.2011
▁hongkong	-11.2011
▁kategorií	-11.2011
▁příslušníci	-11.2011
▁tolkien	-11.2011
▁výrobky	-11.2011
▁ochraně	-11.2011
▁držav	-11.2011
bolševick	-11.2011
▁litoměřic	-11.2011
▁dostatek	-11.2012
▁chudob	-11.2012
▁heavy	-11.2012
▁středisko	-11.2012
▁spalování	-11.2013
▁demokratický	-11.2015
▁mořský	-11.2017
▁lodní	-11.2017
▁větev	-11.2021
▁kacíř	-11.2026
večer	-11.2041
vyřešen	-11.2048
▁vysílá	-11.2061
směs	-11.2064
čemž	-11.2075
▁želv	-11.2081
▁balík	-11.2085
▁derivace	-11.2091
▁hluboké	-11.2091
▁komponent	-11.2091
▁poděbrad	-11.2091
▁wikipedie	-11.2091
▁ofenzív	-11.2091
▁rozvíjet	-11.2091
▁religionist	-11.2091
▁svědectví	-11.2091
▁špatně	-11.2091
▁medaile	-11.2091
▁sezóny	-11.2091
▁konečný	-11.2091
▁zástav	-11.2094
▁diferenc	-11.2095
▁halič	-11.2112
▁krnov	-11.2122
pisoval	-11.216
▁angličtina	-11.2171
▁hnojiv	-11.2171
▁inspirovan	-11.2171
▁vietnam	-11.2171
▁odsoudil	-11.2171
▁středomoří	-11.2171
▁zrcadl	-11.2171
▁alexander	-11.2171
▁alfred	-11.2171
▁okupační	-11.2171
▁vévody	-11.2171
▁ostravě	-11.2171
▁obrácen	-11.2171
▁buňka	-11.2171
▁odráží	-11.2171
▁vazba	-11.2172
▁navazující	-11.2172
▁zřídil	-11.2174
▁vystupuje	-11.2175
▁děr	-11.2183
▁strakonic	-11.2186
▁náhle	-11.219
▁podnikání	-11.2192
▁čínšt	-11.2195
▁dolno	-11.22
▁saun	-11.2202
▁letoun	-11.2226
▁dítěte	-11.2235
▁hovořil	-11.2251
▁kariéry	-11.2251
▁kompatibilní	-11.2251
▁mezinárodně	-11.2251
▁moravskoslezské	-11.2251
▁převzetí	-11.2251
▁šampion	-11.2251
▁televizi	-11.2251
▁prokázán	-11.2251
▁udělal	-11.2251
▁sloučení	-11.2251
▁dobrovský	-11.2251
▁zdeňka	-11.2251
▁zbraň	-11.2251
▁připravuje	-11.2251
▁koncepce	-11.2251
▁mrtvé	-11.2251
▁srovnateln	-11.2252
xxx	-11.2252
▁debut	-11.2252
▁romantismu	-11.2252
▁parazit	-11.2252
▁oranž	-11.2253
▁dostával	-11.2253
▁wolf	-11.2254
▁zničil	-11.2255
▁složité	-11.2257
▁žup	-11.2257
▁užíván	-11.2258
▁operátor	-11.2258
▁archa	-11.2259
▁hladina	-11.2259
▁vědecká	-11.2261
▁naplněn	-11.2287
bíhá	-11.2312
▁enkláv	-11.2332
▁odpověď	-11.2332
▁udržuje	-11.2332
▁jednoduše	-11.2332
▁nizozemské	-11.2332
▁unicode	-11.2332
▁podmíněn	-11.2333
▁tendence	-11.2333
▁neznámý	-11.2333
▁šelmy	-11.2333
▁komentář	-11.2333
▁zaujal	-11.2334
▁zajímavosti	-11.2334
▁alonso	-11.2334
▁legendární	-11.2337
▁ekonomicky	-11.2338
▁lužice	-11.2339
▁modré	-11.234
0,1	-11.234
▁podobnost	-11.2342
▁pokrm	-11.2345
▁interpol	-11.2348
plývají	-11.2381
magistr	-11.2403
▁nizozemsko	-11.2414
▁spolupracovník	-11.2414
▁závislý	-11.2414
▁edward	-11.2414
▁výchozí	-11.2414
▁financí	-11.2414
▁čerstv	-11.2415
▁kariéra	-11.2415
▁poháněn	-11.2415
▁opačný	-11.2415
▁záchrann	-11.2415
▁kapalné	-11.2416
▁fanouš	-11.2417
▁jistou	-11.2419
univers	-11.2421
▁vrací	-11.2431
▁show	-11.2438
▁síti	-11.2454
▁vyhnán	-11.2459
kluz	-11.2476
▁doprovázen	-11.2497
▁kompromis	-11.2497
▁pevninsk	-11.2497
▁uskupení	-11.2497
▁vysokoškolské	-11.2497
▁hladomor	-11.2497
▁čtvereční	-11.2497
▁složka	-11.2497
▁potíže	-11.2497
▁havla	-11.2499
▁poledník	-11.2499
▁automaticky	-11.25
▁gross	-11.2501
▁legií	-11.2501
▁zůstávají	-11.2504
▁sumer	-11.2506
▁velkomoravsk	-11.2516
▁vytvářen	-11.252
▁vyslan	-11.2529
press	-11.2534
▁republikánsk	-11.2535
▁krajský	-11.2547
▁metropoli	-11.2579
▁churchill	-11.258
▁gándhí	-11.258
▁poznatků	-11.258
▁sídliště	-11.258
▁virtuální	-11.258
▁synagog	-11.258
▁taneční	-11.258
▁čapek	-11.2581
▁burgund	-11.2581
▁dokonale	-11.2581
▁zdarma	-11.2581
▁překládal	-11.2581
▁dodatečn	-11.2581
▁ochotn	-11.2583
▁jakýkoli	-11.2587
▁teoretické	-11.2589
▁psán	-11.2593
socialistick	-11.2595
▁úzké	-11.2596
▁provozován	-11.262
▁meteorologick	-11.2636
▁individu	-11.265
▁rychlo	-11.2657
▁autonomie	-11.2664
▁bombardování	-11.2664
▁rožmber	-11.2664
▁softwarov	-11.2664
▁vyrábějí	-11.2664
▁zajímavý	-11.2664
▁ovlivňují	-11.2664
▁uctíván	-11.2664
▁vypráví	-11.2664
▁olympiád	-11.2664
▁uvažoval	-11.2664
▁hektar	-11.2665
▁populací	-11.2665
▁jádrem	-11.2665
▁mechanický	-11.2665
▁maďarsku	-11.2665
▁určil	-11.2665
▁kepler	-11.2665
▁štěstí	-11.2665
▁křídla	-11.2665
▁nepřímo	-11.2666
▁schéma	-11.2666
▁donutil	-11.2668
▁klaus	-11.2668
▁opravdu	-11.2673
▁seminář	-11.2675
▁nosič	-11.2679
▁rozšířeno	-11.2685
hodná	-11.2717
▁frekvencí	-11.2749
▁japonska	-11.2749
▁kariéru	-11.2749
▁označit	-11.2749
▁rozptýlen	-11.2749
▁náležel	-11.2749
▁samostatná	-11.2749
▁primitivní	-11.2749
▁sezóně	-11.2749
▁třicátý	-11.2749
▁dálniční	-11.2749
▁asteroid	-11.2749
▁pomezí	-11.275
▁sergej	-11.275
▁hledat	-11.275
▁statutární	-11.275
▁odrůd	-11.2753
▁rotační	-11.2754
▁byzanc	-11.2757
▁maďarský	-11.2768
▁krajské	-11.2775
▁klesl	-11.2778
▁nalezl	-11.2785
demokrat	-11.2823
važují	-11.2824
▁olymp	-11.2834
▁nizozemí	-11.2835
▁vyznačují	-11.2835
▁posílil	-11.2835
▁domestik	-11.2835
▁žárov	-11.2835
▁převzat	-11.2835
▁usnesení	-11.2835
▁lyžování	-11.2835
▁pacient	-11.2835
▁udržován	-11.2835
▁kavkaz	-11.2835
▁syntax	-11.2835
▁souboj	-11.2835
▁kronikář	-11.2836
▁hrozí	-11.2836
▁dvd	-11.2836
▁mešit	-11.2837
▁čestný	-11.2838
▁podporují	-11.2838
▁bojovník	-11.2839
▁chrání	-11.284
▁zakončen	-11.284
▁olomoucký	-11.2853
▁wales	-11.2875
▁axiom	-11.2893
▁narušen	-11.2899
▁rodák	-11.2902
▁jaguár	-11.2921
▁partyzán	-11.2921
▁gabriel	-11.2921
▁galaxií	-11.2921
▁hřbet	-11.2921
▁obléhání	-11.2921
▁otázce	-11.2921
▁uhličitý	-11.2921
▁chápat	-11.2921
▁synonym	-11.2921
▁epizod	-11.2921
▁vězněn	-11.2922
▁statut	-11.2922
▁umírněn	-11.2922
▁věnován	-11.2922
bírají	-11.293
▁spoust	-11.2931
▁nepatrn	-11.2944
knih	-11.2945
▁čistý	-11.2946
▁panovnic	-11.2946
▁družic	-11.2978
systém	-11.2998
#	-11.3008
▁pseudo	-11.3008
▁anglikán	-11.3008
▁foglar	-11.3008
▁galaxie	-11.3008
▁nadvlády	-11.3008
▁oznámen	-11.3008
▁pravděpodobné	-11.3008
▁revolucí	-11.3008
▁úspěšná	-11.3008
▁lucemburské	-11.3008
▁argentin	-11.3008
▁stránek	-11.3008
▁slayer	-11.3008
▁rozloze	-11.3008
▁vlasteneck	-11.3008
▁zahrál	-11.3008
▁povahu	-11.3008
▁jedinci	-11.3009
▁jihočeské	-11.3009
▁metropolitní	-11.3009
▁zahrnut	-11.3009
▁regent	-11.301
▁kanada	-11.3012
▁spolek	-11.3013
▁belgii	-11.3019
▁neshod	-11.3021
reich	-11.3026
▁filolog	-11.3028
▁kolektiv	-11.3073
▁čarodějnic	-11.3096
▁hardware	-11.3096
▁kombinací	-11.3096
▁shakespearov	-11.3096
▁volejbal	-11.3096
▁lyžař	-11.3096
▁albánie	-11.3096
▁zdravotnictví	-11.3096
▁týdne	-11.3096
▁někdo	-11.3096
▁zkoušky	-11.3096
▁obydlen	-11.3096
▁připravoval	-11.3098
▁realizován	-11.3099
▁nemocnici	-11.31
▁obilí	-11.3101
▁ligy	-11.3103
▁keltské	-11.3106
4,5	-11.3106
▁suchý	-11.313
▁jedni	-11.3141
kronik	-11.3152
▁lvov	-11.3155
egypťan	-11.3184
▁asociace	-11.3184
▁budapešť	-11.3184
▁havlíčk	-11.3184
▁intenzivně	-11.3184
▁nepřízn	-11.3184
▁podmínkou	-11.3184
▁reliéf	-11.3184
▁uskutečněn	-11.3184
▁utrpení	-11.3184
▁výsledku	-11.3184
▁řemesln	-11.3184
▁zázemí	-11.3184
▁seifert	-11.3184
▁homogenní	-11.3184
▁pravoslavný	-11.3184
▁detektiv	-11.3186
▁irsku	-11.3186
▁faktory	-11.3187
▁linií	-11.3189
▁exilov	-11.3212
▁pravidlo	-11.3218
▁vykonával	-11.3245
tavení	-11.3249
▁záliv	-11.3254
▁hluboký	-11.3273
▁letopočtu	-11.3273
▁týdny	-11.3273
▁washington	-11.3273
▁istanbul	-11.3273
▁výslovně	-11.3273
▁zajímavé	-11.3273
▁výškou	-11.3273
▁tajemství	-11.3273
▁spalovací	-11.3273
▁vymřel	-11.3273
▁zjevení	-11.3273
▁energií	-11.3274
▁ernst	-11.3275
▁oltář	-11.3275
▁werich	-11.3276
▁zakládá	-11.3276
▁apple	-11.3276
▁řeší	-11.3276
▁emise	-11.3277
▁vystupují	-11.3277
▁vysvěcen	-11.3277
▁ledovce	-11.3278
▁jednotný	-11.328
▁bajt	-11.3283
▁směn	-11.329
▁slezský	-11.3301
▁pták	-11.3302
▁divák	-11.3306
maximálně	-11.3307
▁hodnocen	-11.3308
psáno	-11.3328
▁pochován	-11.333
▁okamžik	-11.3341
▁zněl	-11.3352
africk	-11.336
▁hetero	-11.3363
▁cimrman	-11.3363
▁hospodářská	-11.3363
▁implementace	-11.3363
▁konkurenční	-11.3363
▁lisabon	-11.3363
▁monarchii	-11.3363
▁posluchač	-11.3363
▁sňatek	-11.3363
▁prudce	-11.3363
▁většinov	-11.3364
▁philip	-11.3364
▁nemění	-11.3365
▁publicist	-11.3365
▁biblický	-11.3365
▁apollo	-11.3366
▁kroniky	-11.3366
▁objevitel	-11.3366
▁návštěvníků	-11.3366
uhersku	-11.3366
▁začít	-11.3366
▁naděje	-11.3367
▁raději	-11.3367
▁nahradit	-11.3367
▁srbsko	-11.3372
▁helén	-11.3372
▁kritický	-11.3374
▁bosensk	-11.3382
▁vajíčk	-11.339
▁nesmírn	-11.3393
▁uznáván	-11.3411
příliš	-11.3454
▁dosáhne	-11.3454
▁etymologie	-11.3454
▁hluboko	-11.3454
▁koncentraci	-11.3454
▁nejbohatší	-11.3454
▁nejjednodušší	-11.3454
▁nezbytné	-11.3454
▁salcburk	-11.3454
▁skupenství	-11.3454
▁vyšehrad	-11.3454
▁šlechta	-11.3454
▁html	-11.3454
▁indukce	-11.3454
▁příjmení	-11.3454
▁emirát	-11.3454
▁svrchní	-11.3455
▁vulkanick	-11.3455
▁definoval	-11.3455
▁délkou	-11.3455
▁přeměněn	-11.3455
▁porážku	-11.3455
▁expert	-11.3455
▁tcp	-11.3456
▁leonard	-11.3456
▁poznal	-11.3475
▁hotov	-11.3477
▁armád	-11.3508
▁pokládán	-11.3511
▁šlechtické	-11.3533
▁finančně	-11.3546
▁nejběžnější	-11.3546
▁rozlišují	-11.3546
▁celosvětové	-11.3546
▁podmínka	-11.3546
▁hustotu	-11.3546
▁vinohrad	-11.3546
▁stránce	-11.3546
▁všude	-11.3546
▁chemicky	-11.3546
▁turecka	-11.3546
▁editor	-11.3546
▁mléko	-11.3546
▁zvyšují	-11.3546
▁zaútočil	-11.3547
▁jistot	-11.3548
▁genom	-11.3583
nejmenším	-11.3617
▁rybář	-11.3632
▁barcelona	-11.3639
▁informatik	-11.3639
▁každodenní	-11.3639
▁narozenin	-11.3639
▁otroctví	-11.3639
▁ovzduší	-11.3639
▁vyřešit	-11.3639
▁zvýšit	-11.3639
▁závislé	-11.3639
▁poskytoval	-11.3639
▁misionář	-11.3639
▁obyvatelstvem	-11.3639
▁význačn	-11.3639
▁okupaci	-11.3639
▁chlapec	-11.3639
▁vítkov	-11.3639
▁sediment	-11.3639
▁mozku	-11.3639
▁nalézá	-11.3639
▁formuloval	-11.3639
▁socialistická	-11.364
▁naučil	-11.364
▁čestné	-11.3641
▁knižní	-11.3642
▁andrej	-11.3644
front	-11.3645
▁vzešl	-11.3655
▁srst	-11.3665
zkráceně	-11.3665
▁oceněn	-11.3683
▁vypadá	-11.3683
▁smith	-11.37
▁analytic	-11.3726
kromě	-11.3732
▁frekvenci	-11.3732
▁požadavek	-11.3732
▁souostroví	-11.3732
▁výzbroj	-11.3732
▁pojmenoval	-11.3732
▁táboře	-11.3732
▁primárně	-11.3732
▁akademický	-11.3732
▁přednášky	-11.3732
▁amatérsk	-11.3732
▁hraniční	-11.3732
▁uvést	-11.3732
▁příbuzných	-11.3733
▁děčín	-11.3733
▁jezdil	-11.3734
▁group	-11.3736
▁kronika	-11.3737
▁častým	-11.3738
▁dvojnásobn	-11.3768
charakteristické	-11.3778
▁prosté	-11.3795
▁doprovázel	-11.3826
▁vyjednávání	-11.3826
▁dominikánsk	-11.3826
▁trutnov	-11.3827
▁úpadek	-11.3827
▁vyučoval	-11.3827
▁theodor	-11.3827
▁příjmu	-11.3827
▁kodex	-11.3827
▁americkou	-11.3827
▁hymny	-11.3827
▁překonal	-11.3828
▁vypracoval	-11.3829
▁omezil	-11.3833
stoupí	-11.3833
▁veřejný	-11.3856
řízené	-11.3866
pojují	-11.3877
▁zbožn	-11.3879
punk	-11.3918
▁instrukce	-11.3922
▁letopočtem	-11.3922
▁spiknutí	-11.3922
▁těhotenství	-11.3922
▁veřejná	-11.3922
▁výpočtu	-11.3922
▁zasahuje	-11.3922
▁celoživotní	-11.3922
▁předválečn	-11.3922
▁reaguje	-11.3922
▁vůdčí	-11.3922
▁poskytovat	-11.3922
▁julius	-11.3922
▁turecku	-11.3922
▁sedmdesátých	-11.3922
▁rozděluje	-11.3922
▁architektuře	-11.3922
▁kanady	-11.3922
▁družstva	-11.3923
▁týče	-11.3923
▁1902	-11.3924
▁přímky	-11.3927
▁léto	-11.3927
▁marií	-11.3929
▁posuv	-11.3929
▁albánsk	-11.3931
▁letadlo	-11.3937
▁supernov	-11.3941
americký	-11.3946
▁jakékoli	-11.4
▁public	-11.4017
▁hospodářskou	-11.4018
▁ferrari	-11.4018
▁lucemburk	-11.4018
▁přispíval	-11.4018
▁bezdrátov	-11.4018
▁zavázal	-11.4018
▁ustálen	-11.4018
▁komunistická	-11.4018
▁dědičnost	-11.4018
▁střídání	-11.4018
▁považovan	-11.4018
▁péči	-11.4018
▁předpisů	-11.4019
▁aparát	-11.4019
▁společnou	-11.4019
▁sledování	-11.4019
▁vybrán	-11.4022
▁uspořádán	-11.4048
class	-11.406
▁bouřliv	-11.4115
▁habsburský	-11.4115
▁nežádoucí	-11.4115
▁násobení	-11.4115
▁posádka	-11.4115
▁nebezpečný	-11.4115
▁vilnius	-11.4115
▁korupce	-11.4115
▁šířky	-11.4115
▁vybojoval	-11.4115
▁pláště	-11.4115
▁skandál	-11.4115
▁claudi	-11.4115
▁diferenciální	-11.4115
▁chápe	-11.4115
▁poskytován	-11.4115
▁zdědil	-11.4115
▁velkolep	-11.4115
ifikační	-11.4115
▁zbaven	-11.4116
▁jacob	-11.4116
▁general	-11.4116
▁přizpůsoben	-11.4116
▁fašismu	-11.4117
luterán	-11.4117
▁houby	-11.4118
▁úterý	-11.412
▁jistě	-11.412
kruh	-11.4124
▁pláž	-11.4131
podobně	-11.4169
▁kolejnic	-11.4184
▁zaznamená	-11.4196
makedonsk	-11.4201
▁muzeu	-11.4213
▁intenzity	-11.4213
▁kružnici	-11.4213
▁otázkách	-11.4213
▁raketoplán	-11.4213
▁veřejnou	-11.4213
▁zvyšování	-11.4213
▁jordán	-11.4213
▁michail	-11.4213
▁schwarz	-11.4213
▁předložil	-11.4213
▁vykazuje	-11.4213
▁vyhrazen	-11.4213
▁kvašení	-11.4213
▁povahy	-11.4213
▁zjistit	-11.4213
▁technice	-11.4213
▁křesťanská	-11.4214
▁špatný	-11.4214
mdccc	-11.4214
▁řecká	-11.4214
▁prozaik	-11.4214
▁výlučn	-11.4215
▁kyjev	-11.4219
▁naměřen	-11.4227
▁vzácný	-11.4227
▁nacistický	-11.4241
▁domněn	-11.4259
▁socialistický	-11.4295
▁dozvěděl	-11.4312
▁federativní	-11.4312
▁hybrid	-11.4312
▁katolíci	-11.4312
▁nejlidnatější	-11.4312
▁vitamín	-11.4312
▁vztekliny	-11.4312
▁zvláštnost	-11.4312
▁gagarin	-11.4312
▁střídavé	-11.4312
▁konstituční	-11.4312
▁lehčí	-11.4312
▁bádání	-11.4312
▁oddělil	-11.4312
▁stuart	-11.4312
▁dodávk	-11.4312
▁fiktivní	-11.4312
▁antropolog	-11.4313
▁nastavení	-11.4313
▁jeroným	-11.4313
▁vybraný	-11.4317
▁ideologick	-11.432
▁šlechtický	-11.4327
německy	-11.4328
▁zobrazen	-11.4367
▁pracují	-11.438
▁bližší	-11.4412
▁budapešti	-11.4412
▁chromozom	-11.4412
▁giovanni	-11.4412
▁sanskrt	-11.4412
▁službách	-11.4412
▁smlouvou	-11.4412
▁stěhování	-11.4412
▁vysvětluje	-11.4412
▁vyznačoval	-11.4412
▁znamenat	-11.4412
▁mozilla	-11.4412
▁složkou	-11.4412
▁umožněn	-11.4412
▁rtuť	-11.4412
▁zábavn	-11.4412
▁licenci	-11.4412
▁snížit	-11.4412
▁palacký	-11.4412
▁goethe	-11.4412
▁ptačí	-11.4412
▁polskem	-11.4412
▁zajímal	-11.4412
▁pozemky	-11.4413
▁zřídka	-11.4413
▁mount	-11.4413
tlačit	-11.4416
▁sahají	-11.4417
atlantic	-11.4426
▁stezk	-11.4427
stadt	-11.4429
původně	-11.4436
sdorf	-11.4447
keltsk	-11.4461
tropick	-11.4471
▁deklarace	-11.4513
▁fragment	-11.4513
▁inspirován	-11.4513
▁maxmilián	-11.4513
▁metropole	-11.4513
▁nabídku	-11.4513
▁pokračující	-11.4513
▁rozhodování	-11.4513
▁markrabě	-11.4513
▁nejoblíbenější	-11.4513
▁nejvýraznější	-11.4513
▁ohraničen	-11.4513
▁saúdsk	-11.4513
▁palackého	-11.4513
▁očekával	-11.4513
▁interakcí	-11.4513
▁bezprostřední	-11.4513
▁venuši	-11.4513
▁vágnost	-11.4514
▁zajímavostí	-11.4514
▁převládají	-11.4514
▁láska	-11.4515
▁věnovan	-11.4517
▁vypuštěn	-11.4518
▁čtyřicet	-11.4521
▁přiznal	-11.4523
▁analytické	-11.4523
hlásilo	-11.4562
▁soustřed	-11.4585
svědčil	-11.459
▁politolog	-11.4592
▁realistick	-11.4604
▁algebraick	-11.4615
▁drážďan	-11.4615
▁nebezpečné	-11.4615
▁odpověděl	-11.4615
▁paradigma	-11.4615
▁samohlásky	-11.4615
▁shakespeare	-11.4615
▁vyšetřování	-11.4615
▁magnitud	-11.4615
▁mateřské	-11.4615
▁nejvýše	-11.4615
▁uplatňuje	-11.4615
▁jaromír	-11.4615
▁generací	-11.4615
▁kázání	-11.4615
▁naznačují	-11.4615
▁cvičení	-11.4615
▁přítomen	-11.4615
▁jádře	-11.4615
▁otáčení	-11.4615
▁smíšené	-11.4615
▁donucen	-11.4615
▁faktorů	-11.4615
▁židovská	-11.4616
▁teoretický	-11.4616
▁pouhé	-11.4617
letěl	-11.4617
▁sopek	-11.4617
▁zaměřil	-11.4618
▁vězni	-11.4621
▁odpovídají	-11.4646
ć	-11.4656
vázaný	-11.4687
▁krajinn	-11.4695
řízený	-11.4713
▁absolvent	-11.4718
▁databáze	-11.4718
▁diecéze	-11.4718
▁hercegoviny	-11.4718
▁imigrant	-11.4718
▁vojevůdce	-11.4718
▁atribut	-11.4718
▁elektrárna	-11.4718
▁firmou	-11.4718
▁pohádek	-11.4718
▁pravoslaví	-11.4718
▁surrealismu	-11.4718
▁generaci	-11.4718
▁rozvíjí	-11.4718
▁jednotkách	-11.4718
▁basilej	-11.4718
▁stížnost	-11.4718
▁hodonín	-11.4718
▁vápník	-11.4718
▁politici	-11.4718
▁optimální	-11.4718
▁najdeme	-11.4718
▁organizáto	-11.4719
▁zaměstnanci	-11.4719
▁kapitalismu	-11.4719
▁sdružuj	-11.4719
▁patrné	-11.472
▁pilíř	-11.4721
▁epoch	-11.4721
▁kritici	-11.4721
▁nevědom	-11.4722
ložku	-11.4724
▁slabý	-11.4762
zobecněn	-11.4792
sovětsk	-11.4796
▁hypotetick	-11.4822
▁označovat	-11.4822
▁počátcích	-11.4822
▁suverenit	-11.4822
▁balbín	-11.4822
▁pochopiteln	-11.4822
▁oxford	-11.4822
▁osvícenství	-11.4822
▁anglická	-11.4823
▁vysílač	-11.4823
▁rovnoměrně	-11.4824
▁liturgický	-11.4824
▁setrval	-11.4824
oxid	-11.4825
▁zalidněn	-11.4828
▁pozval	-11.4831
▁vyhláš	-11.4858
▁natural	-11.4904
▁firefox	-11.4928
▁geometrii	-11.4928
▁intenzita	-11.4928
▁nejnovější	-11.4928
▁rovnoběžn	-11.4928
▁smoljak	-11.4928
▁sňatku	-11.4928
▁uhličitan	-11.4928
▁ztvárnil	-11.4928
▁odstartoval	-11.4928
▁paralelní	-11.4928
▁podezření	-11.4928
▁kuiperov	-11.4928
▁terezie	-11.4928
▁poslanci	-11.4928
▁spočíval	-11.4928
▁pozemků	-11.4928
▁vyhynul	-11.4928
▁územně	-11.4928
▁rommel	-11.4928
▁uznávaný	-11.4928
▁podroben	-11.4929
▁křižáck	-11.4929
▁napříč	-11.4929
▁slabik	-11.493
▁queen	-11.4931
▁esperantský	-11.4937
▁biochemi	-11.4946
▁publiku	-11.4952
tehdy	-11.4957
pojuje	-11.4957
▁železný	-11.4965
odpor	-11.4995
▁versailles	-11.5034
▁klasicismu	-11.5034
▁lázeň	-11.5034
▁otázkou	-11.5034
▁očekávan	-11.5034
▁rozpočtu	-11.5034
▁tuberkulóz	-11.5034
▁vnitrozemsk	-11.5034
▁vybudovat	-11.5034
▁zdánlivě	-11.5034
▁mytologii	-11.5034
▁rakušan	-11.5034
▁speciálně	-11.5034
sław	-11.5034
▁kampaně	-11.5034
▁pojednává	-11.5034
▁palubě	-11.5034
▁mladá	-11.5035
▁chopil	-11.5035
▁přistál	-11.5035
craft	-11.5035
▁kroměříž	-11.5036
▁nerovnost	-11.5037
▁vzácné	-11.5037
vázat	-11.5037
▁odsunu	-11.5064
vědeckou	-11.5069
08)	-11.5082
numerick	-11.5086
▁červ	-11.5095
příslušn	-11.5114
▁http	-11.5133
▁ojediněl	-11.5141
▁vyžadoval	-11.5141
▁alžběta	-11.5141
▁mussolini	-11.5141
▁naznačuje	-11.5141
▁zprovozněn	-11.5141
▁šanghaj	-11.5141
▁cassini	-11.5142
▁provdala	-11.5142
▁sedmnáct	-11.5142
▁střediskem	-11.5142
▁transformace	-11.5142
▁odstřediv	-11.5142
▁opozici	-11.5142
▁hřiště	-11.5142
▁odlišnost	-11.5142
▁terminál	-11.5142
▁vzbudil	-11.5142
▁halogen	-11.5142
▁nemusel	-11.5142
▁vyobrazen	-11.5142
▁zasažen	-11.5142
▁sledovat	-11.5142
▁spirál	-11.5143
▁propukl	-11.5143
▁přítomný	-11.5143
▁tragick	-11.5144
skvěl	-11.5144
americké	-11.5145
pouštěl	-11.5148
▁dostupnost	-11.515
▁rolník	-11.5152
▁ventil	-11.5153
▁1873	-11.5165
dokončen	-11.5181
▁psycho	-11.5193
▁pokladn	-11.5199
▁hojn	-11.5203
▁spíš	-11.521
▁doporučuje	-11.525
▁expedice	-11.525
▁gymnázia	-11.525
▁klášteře	-11.525
▁mezopotámii	-11.525
▁sulfid	-11.525
▁ustanovil	-11.525
▁zdůrazňuje	-11.525
▁direct	-11.525
▁specializovaný	-11.525
▁vltavy	-11.525
▁vytrval	-11.525
▁uhrách	-11.525
úhelník	-11.5251
▁kouzel	-11.5253
jmout	-11.5255
▁stavitel	-11.5256
fantastic	-11.5259
▁1876	-11.5273
moravský	-11.5285
▁sdružen	-11.5295
▁zakázan	-11.5354
▁poskytnout	-11.536
▁pyramid	-11.536
▁rekreační	-11.536
▁struktuře	-11.536
▁velvyslanec	-11.536
▁voltaire	-11.536
▁koaliční	-11.536
▁vyvíjí	-11.536
▁theodosi	-11.536
▁tektonick	-11.536
▁střediska	-11.536
▁hraničí	-11.536
▁korutan	-11.536
▁zaujímá	-11.5361
▁science	-11.5361
▁přistání	-11.5361
▁zmizel	-11.5362
▁udělován	-11.5362
▁koncovk	-11.5363
▁cítil	-11.5363
▁dřevěné	-11.5363
▁přenášen	-11.5365
▁ládin	-11.5369
▁botanick	-11.5372
▁navazoval	-11.5374
šperk	-11.538
▁tekut	-11.5383
počítač	-11.5399
▁anorganick	-11.5422
▁kočov	-11.5447
▁marxistick	-11.5453
▁nepřítel	-11.5453
vladař	-11.5456
hlásit	-11.5461
▁překládá	-11.5469
▁abrahám	-11.5471
▁autonomii	-11.5471
▁brazílii	-11.5471
▁dareios	-11.5471
▁nestabilní	-11.5471
▁náboženská	-11.5471
▁spotřeba	-11.5471
▁vyvíjen	-11.5471
▁výrobků	-11.5471
▁zemědělských	-11.5471
▁zázrak	-11.5471
▁prudký	-11.5471
▁rozlišit	-11.5471
▁schizma	-11.5471
▁vrstvou	-11.5471
▁dobrovského	-11.5471
▁hřídel	-11.5471
▁rozmístěn	-11.5471
▁jagello	-11.5471
▁jedinec	-11.5472
▁lázní	-11.5472
▁němčina	-11.5472
▁zachovává	-11.5472
▁přerušil	-11.5472
▁podrobil	-11.5473
▁national	-11.5474
▁krevní	-11.5474
▁sněhov	-11.548
▁ceněn	-11.5482
▁sólov	-11.5483
▁šifrov	-11.5485
▁pahorkatin	-11.5584
▁adaptace	-11.5584
▁emigroval	-11.5584
▁hlubší	-11.5584
▁hořčík	-11.5584
▁nanebevzetí	-11.5584
▁negativně	-11.5584
▁onemocněl	-11.5584
▁používaná	-11.5584
▁rozhoduje	-11.5584
▁sázavou	-11.5584
▁vynalezl	-11.5584
▁zajišťoval	-11.5584
▁draslík	-11.5584
▁vyvolat	-11.5584
▁hustoty	-11.5584
▁rybolov	-11.5584
▁převahu	-11.5584
▁přiřazen	-11.5584
▁koridor	-11.5584
▁důkladn	-11.5584
▁němčině	-11.5584
▁benzín	-11.5584
▁neštovic	-11.5584
▁segment	-11.5584
▁součet	-11.5585
▁věrnost	-11.5585
▁účinku	-11.5586
▁řas	-11.5587
▁bezplatn	-11.5611
▁napojen	-11.5638
▁sesazen	-11.564
vulga	-11.5643
▁angažoval	-11.5697
▁bratislavě	-11.5697
▁dodržování	-11.5697
▁fenotyp	-11.5697
▁inkvizice	-11.5697
▁jmény	-11.5697
▁juliánského	-11.5697
▁pohřbu	-11.5697
▁rezignoval	-11.5697
▁rozšířit	-11.5697
▁šlechtě	-11.5697
environment	-11.5697
▁kampaň	-11.5697
▁osmnáct	-11.5697
▁elektráren	-11.5697
▁přirozenost	-11.5697
▁nepoužívá	-11.5697
▁jersey	-11.5697
▁záběr	-11.5697
▁žláz	-11.5697
▁klasická	-11.5697
▁hamburk	-11.5697
▁píšící	-11.5698
▁obvinil	-11.5698
▁snižování	-11.5698
▁lehký	-11.5698
▁jindy	-11.5698
▁týkal	-11.5698
▁mléka	-11.5698
▁vybudovan	-11.5698
▁vyrostl	-11.5698
▁výškov	-11.57
▁nestál	-11.5701
▁music	-11.5702
▁stavěn	-11.5704
▁společensko	-11.5707
▁makedonské	-11.5711
▁srbský	-11.5729
průměr	-11.5745
▁stejnojmenn	-11.5777
▁nejspíš	-11.5782
▁působi	-11.5783
▁pythagor	-11.5812
▁bolševiků	-11.5812
▁foundation	-11.5812
▁kabinet	-11.5812
▁odděluje	-11.5812
▁otázek	-11.5812
▁sacharid	-11.5812
▁sekretariát	-11.5812
▁stránkách	-11.5812
▁substrát	-11.5812
▁uděluje	-11.5812
▁vrtulník	-11.5812
▁švankmajer	-11.5812
▁vyžadují	-11.5812
▁zmínku	-11.5812
▁mateřský	-11.5812
▁vltavou	-11.5812
▁vánoční	-11.5812
▁procedur	-11.5812
▁voličů	-11.5812
▁humanismu	-11.5812
▁christoph	-11.5812
▁zaváděn	-11.5813
▁předcházející	-11.5813
▁užívat	-11.5813
▁mediální	-11.5813
▁ponechal	-11.5814
▁klokan	-11.5814
▁křídlo	-11.5817
▁dočasné	-11.582
▁předloh	-11.5824
▁sledoval	-11.5824
▁jednotkov	-11.5827
geograf	-11.5835
▁rozdělov	-11.59
▁upadl	-11.5909
germánských	-11.5918
▁advokát	-11.5928
▁demonstrace	-11.5928
▁dobrodružn	-11.5928
▁každoroční	-11.5928
▁ovládnutí	-11.5928
▁pokřtěn	-11.5928
▁pozvolna	-11.5928
▁prosazovat	-11.5928
▁scenárist	-11.5928
▁týdnu	-11.5928
▁vyhnanství	-11.5928
▁atlantik	-11.5928
▁disponuje	-11.5928
▁náročné	-11.5928
hlíží	-11.5928
▁koperník	-11.5928
▁příjezd	-11.5929
▁koncepci	-11.5929
▁kresby	-11.5929
▁zátěž	-11.5929
▁kelvin	-11.5929
▁selhání	-11.5929
moudrost	-11.593
▁manuel	-11.593
▁růžov	-11.5932
▁pasáž	-11.5935
▁zformoval	-11.5941
▁akustick	-11.5948
čtyř	-11.5988
▁aplikaci	-11.6046
▁delegát	-11.6046
▁inerciální	-11.6046
▁kästner	-11.6046
▁manažer	-11.6046
▁nejpoužívanější	-11.6046
▁nizozemsku	-11.6046
▁náboženskou	-11.6046
▁observatoř	-11.6046
▁pohraničí	-11.6046
▁přejmenoval	-11.6046
▁výjimečný	-11.6046
▁rezistor	-11.6046
▁výdaje	-11.6046
▁bazilik	-11.6046
▁kulomet	-11.6046
▁nakloněn	-11.6046
▁sametové	-11.6046
▁historickou	-11.6046
▁přemístěn	-11.6046
▁klasickou	-11.6046
▁monitor	-11.6046
▁lehké	-11.6046
▁slezská	-11.6047
▁technologické	-11.6047
▁válkách	-11.6047
▁sleduje	-11.6047
▁samuel	-11.6048
▁úplný	-11.6048
▁chudé	-11.6051
▁stávk	-11.6051
▁narozený	-11.6053
vázané	-11.6062
▁stručn	-11.6143
▁odpovědn	-11.616
▁doktrín	-11.6165
▁esperantu	-11.6165
▁klasifikaci	-11.6165
▁komunikací	-11.6165
▁kryštof	-11.6165
▁nabídky	-11.6165
▁nadvládu	-11.6165
▁odlišná	-11.6165
▁souvisel	-11.6165
▁vrstvách	-11.6165
▁zanedbateln	-11.6165
▁záleží	-11.6165
▁arnošt	-11.6165
▁elektrolýz	-11.6165
▁katedrály	-11.6165
▁mojmír	-11.6165
▁zmínky	-11.6165
▁nezískal	-11.6165
▁prudké	-11.6165
▁vystavěn	-11.6165
▁liszt	-11.6165
▁klobouk	-11.6165
▁disponoval	-11.6165
▁migrace	-11.6165
▁naleziště	-11.6165
▁oblečení	-11.6165
american	-11.6165
produkuje	-11.6165
▁ostravy	-11.6165
▁slabší	-11.6165
▁lázně	-11.6165
▁sdělení	-11.6165
▁vytlačen	-11.6166
▁režii	-11.6166
▁ladění	-11.6166
▁pdf	-11.6166
▁sodík	-11.6166
▁svěřen	-11.6167
▁odhalil	-11.6168
▁nákaz	-11.6179
▁úseč	-11.6187
▁účinně	-11.619
▁holub	-11.6193
▁tištěn	-11.6203
význam	-11.6222
josef	-11.6223
vítěz	-11.6223
▁zajímavo	-11.6283
▁admirál	-11.6286
▁družstev	-11.6286
▁korespondence	-11.6286
▁neoficiální	-11.6286
▁rumunsku	-11.6286
▁spotřebič	-11.6286
▁středozemního	-11.6286
▁trpaslík	-11.6286
▁vyučování	-11.6286
▁zhoršil	-11.6286
▁šafařík	-11.6286
▁legitimní	-11.6286
▁tvorbou	-11.6286
▁výrobou	-11.6286
▁řeholní	-11.6286
▁evropou	-11.6286
▁plukovník	-11.6286
▁expresionismu	-11.6286
▁záhad	-11.6286
▁všeobecný	-11.6286
násobek	-11.6286
▁přetrval	-11.6286
▁odvozuje	-11.6286
▁odstranit	-11.6286
▁dynamický	-11.6286
▁nevlastní	-11.6287
▁ohnisk	-11.6287
▁spokojen	-11.6289
▁hájil	-11.6291
▁hnací	-11.6293
▁spálen	-11.6293
mechaniz	-11.6323
molekul	-11.6345
hřívá	-11.6374
▁cizinců	-11.6408
▁emanuel	-11.6408
▁graubünden	-11.6408
▁konstrukcí	-11.6408
▁lucembursko	-11.6408
▁myanmar	-11.6408
▁nedosáhl	-11.6408
▁nelegální	-11.6408
▁neustálé	-11.6408
▁okamžité	-11.6408
▁popřípadě	-11.6408
▁portugalci	-11.6408
▁přicházel	-11.6408
▁rousseau	-11.6408
▁strategie	-11.6408
▁uzavřít	-11.6408
▁zaznamenan	-11.6408
▁zámořsk	-11.6408
▁smlouvě	-11.6408
▁specializované	-11.6408
▁geometrické	-11.6408
▁predátor	-11.6408
▁normalizace	-11.6408
▁řidič	-11.6408
▁vojensky	-11.6408
▁výšku	-11.6408
▁vychovatel	-11.6408
▁koalici	-11.6408
▁kritice	-11.6408
▁pevnou	-11.6408
▁slovinsko	-11.6408
object	-11.6408
▁alexej	-11.6408
▁alkalický	-11.6408
▁livonsk	-11.6408
▁pletiv	-11.6408
▁vodorovn	-11.6409
▁andorr	-11.641
▁eliáš	-11.6411
vznešen	-11.6417
▁modrý	-11.6421
struktur	-11.6471
původní	-11.6472
pohyb	-11.6481
starobyl	-11.6497
▁hospital	-11.6531
▁incident	-11.6531
▁neobsahuje	-11.6531
▁následovně	-11.6531
▁referenční	-11.6531
▁spotřeby	-11.6531
▁tsunami	-11.6531
▁vyrábět	-11.6531
▁nietzsche	-11.6531
▁spotřebu	-11.6531
▁bulharsko	-11.6531
▁průplav	-11.6531
▁zájmen	-11.6531
▁moskva	-11.6531
▁řečtiny	-11.6531
▁nepatří	-11.6531
pouštět	-11.6531
▁prohrál	-11.6532
▁záměn	-11.6532
▁přinutil	-11.6533
▁navrhoval	-11.6535
▁přiznán	-11.6537
kapitalis	-11.6539
▁gramatick	-11.6544
ethyl	-11.6547
▁ceremoniál	-11.6656
▁hluboce	-11.6656
▁neuspěl	-11.6656
▁ovlivnit	-11.6656
▁reproduktor	-11.6656
▁katedrále	-11.6656
▁přispívá	-11.6656
▁rozhodčí	-11.6656
▁wolfgang	-11.6656
▁hospodaření	-11.6656
▁názvů	-11.6656
▁pšenice	-11.6656
▁technologický	-11.6656
▁mléčné	-11.6656
▁morálky	-11.6656
▁stránku	-11.6656
▁literát	-11.6656
▁přivezl	-11.6656
▁draselný	-11.6656
▁kolísá	-11.6656
▁překonat	-11.6656
▁napájen	-11.6656
▁vulkán	-11.6656
▁zmiňovan	-11.6656
▁lišit	-11.6656
▁stažení	-11.6657
▁minulý	-11.666
▁trávil	-11.6661
▁lišil	-11.6661
▁podílejí	-11.6662
asijských	-11.6664
▁mozkov	-11.6673
view	-11.6699
▁opatřen	-11.6707
▁břetislav	-11.6783
▁etiopie	-11.6783
▁kritérií	-11.6783
▁nerovnoměrn	-11.6783
▁obrázku	-11.6783
▁anaerobní	-11.6783
▁důležitost	-11.6783
▁kompaktní	-11.6783
▁nejhorší	-11.6783
▁pomáhají	-11.6783
▁salcbursk	-11.6783
▁suverénní	-11.6783
▁vyzdvih	-11.6783
▁ovlivňován	-11.6783
▁nekonečné	-11.6783
▁shelley	-11.6783
▁sojuz	-11.6783
▁chápal	-11.6783
▁vyrovnání	-11.6783
▁rumunské	-11.6783
▁komunistickou	-11.6783
▁impuls	-11.6783
▁škrob	-11.6783
▁pojmů	-11.6783
▁revue	-11.6783
▁waters	-11.6783
▁komodit	-11.6783
▁procházející	-11.6784
▁tvrz	-11.6784
▁odmítají	-11.6787
držují	-11.6806
▁válcov	-11.6809
nesmrteln	-11.6811
▁maltsk	-11.6839
jnavštěvovanější	-11.6911
▁antisemit	-11.6911
▁bangkok	-11.6911
▁huygens	-11.6911
▁inspirací	-11.6911
▁literárně	-11.6911
▁odpůrců	-11.6911
▁ovladač	-11.6911
▁podmínkám	-11.6911
▁rumunska	-11.6911
▁shromáždil	-11.6911
▁střídavě	-11.6911
▁vysokoškolský	-11.6911
▁autoritativní	-11.6911
▁chlorovodík	-11.6911
▁konkurent	-11.6911
▁nedostatkem	-11.6911
▁přijímač	-11.6911
▁fernand	-11.6911
▁floyd	-11.6911
▁rovnovážn	-11.6911
▁andersen	-11.6911
▁tendenci	-11.6911
▁podléhá	-11.6911
▁prodělal	-11.6911
▁produkují	-11.6911
▁oponent	-11.6911
▁dynamické	-11.6911
▁říjnov	-11.6911
▁lukáš	-11.6912
▁kohout	-11.6912
▁kombinovan	-11.6912
▁slíbil	-11.6914
▁střídají	-11.6916
▁ležel	-11.6917
▁žatec	-11.692
▁ničiv	-11.6926
násobně	-11.6946
vrácení	-11.6968
jazyk	-11.6989
měrná	-11.7008
▁dodavatel	-11.7041
commonwealth	-11.7041
▁bavlny	-11.7041
▁bolševici	-11.7041
▁delegace	-11.7041
▁frenštát	-11.7041
▁jménu	-11.7041
▁kennedy	-11.7041
▁nepřítomnost	-11.7041
▁předchůdci	-11.7041
▁vymírání	-11.7041
▁zhroucení	-11.7041
▁fungovat	-11.7041
▁písmem	-11.7041
▁vysídlen	-11.7041
▁herečka	-11.7041
▁továrna	-11.7041
▁provázel	-11.7041
▁rozhodnout	-11.7041
▁vyhlíd	-11.7041
▁doplnil	-11.7041
▁russell	-11.7041
▁démon	-11.7041
▁smíšený	-11.7041
▁sběratel	-11.7041
▁majetkov	-11.7042
▁konvent	-11.7044
▁pozitivismu	-11.7051
dunaj	-11.7089
▁patogen	-11.714
▁dvořák	-11.7172
▁hovořit	-11.7172
▁laboratorní	-11.7172
▁monumentální	-11.7172
▁napájecí	-11.7172
▁nejvlivnější	-11.7172
▁odlišuje	-11.7172
▁probíhat	-11.7172
▁reprezentuje	-11.7172
▁středomořsk	-11.7172
▁thomson	-11.7172
▁trpasličí	-11.7172
▁interrupce	-11.7172
▁náročný	-11.7172
▁výrobci	-11.7172
▁imunitní	-11.7172
▁neměnn	-11.7172
▁peněžní	-11.7172
▁pověřil	-11.7172
▁reflex	-11.7172
▁sásán	-11.7172
▁přijímat	-11.7172
▁převezen	-11.7172
jížděl	-11.7174
▁uchovává	-11.7174
▁lovosic	-11.7174
▁upálen	-11.7176
šetření	-11.7176
▁syntetick	-11.7176
▁kavárn	-11.7177
▁příruč	-11.7188
▁zobrazován	-11.7197
▁doplňují	-11.7228
▁dipól	-11.7306
▁dělostřeleck	-11.7306
▁zdvojnásob	-11.7306
radioamatér	-11.7306
▁instrukcí	-11.7306
▁koncentrací	-11.7306
▁obratlovců	-11.7306
▁odehrávají	-11.7306
▁podmnožin	-11.7306
▁vyzbrojen	-11.7306
▁humanitní	-11.7306
▁průsmyk	-11.7306
▁zůstane	-11.7306
apokryf	-11.7306
▁odtržení	-11.7306
▁zakotven	-11.7306
▁chránit	-11.7306
▁dětmi	-11.7306
▁nejmocnější	-11.7306
▁čáslav	-11.7306
▁bambus	-11.7306
▁informoval	-11.7306
▁obležen	-11.7306
▁přítomné	-11.7306
úhlová	-11.7313
▁vážný	-11.7314
▁texas	-11.7324
standard	-11.7393
▁katoli	-11.7404
„	-11.7435
turbodmychadl	-11.7441
▁instrument	-11.7441
▁odpůrce	-11.7441
▁vojvodství	-11.7441
▁zpoždění	-11.7441
▁arábie	-11.7441
▁barceloně	-11.7441
▁emigrace	-11.7441
▁emigrant	-11.7441
▁mohamed	-11.7441
▁perspektiv	-11.7441
▁počátků	-11.7441
▁stuttgart	-11.7441
▁středoškolsk	-11.7441
▁udržovat	-11.7441
▁ukázka	-11.7441
▁vyřešil	-11.7441
▁zdůraznil	-11.7441
▁zemědělská	-11.7441
▁kinematograf	-11.7441
▁koncentrovan	-11.7441
▁panovníci	-11.7441
▁pernštejn	-11.7441
▁pravoslavná	-11.7441
▁nejdéle	-11.7441
▁redakce	-11.7441
▁chvíle	-11.7441
▁pečlivě	-11.7441
▁kompozic	-11.7441
▁újezd	-11.7441
▁zahřívání	-11.7441
▁učiněn	-11.7442
▁dávno	-11.7442
▁falešn	-11.7442
úředn	-11.7443
▁vynesl	-11.7444
▁připisován	-11.7444
▁užívaný	-11.7446
▁jakéhokoli	-11.7447
gramotn	-11.745
ogeneze	-11.7461
▁zpravodajsk	-11.7519
přístup	-11.7534
▁nakladatel	-11.7574
▁jednoduchá	-11.7578
▁makedonii	-11.7578
▁odpůrci	-11.7578
▁poválečný	-11.7578
▁příznivé	-11.7578
▁tragédie	-11.7578
▁hinduist	-11.7578
▁komerčně	-11.7578
▁čarodějnictví	-11.7578
▁blahoslav	-11.7578
▁náhorní	-11.7578
▁portugalšt	-11.7578
▁diabetu	-11.7578
▁nejistot	-11.7578
▁obhájil	-11.7578
modifikovan	-11.7578
▁vyrobil	-11.7578
▁priorit	-11.7578
▁shodné	-11.7579
▁páteř	-11.758
▁kalkul	-11.7581
▁valašsk	-11.7581
▁suezsk	-11.7583
konstitu	-11.7584
vzácn	-11.7604
podstatn	-11.7611
▁efektivně	-11.7632
vratné	-11.7634
▁zoologick	-11.7691
násobný	-11.7695
hérakleitos	-11.7717
▁aglomerace	-11.7717
▁barbaross	-11.7717
▁neznamená	-11.7717
▁varšavě	-11.7717
▁živočišné	-11.7717
▁folklór	-11.7717
▁itálií	-11.7717
▁podezřel	-11.7717
▁žurnalist	-11.7717
▁vymyslel	-11.7717
▁japonci	-11.7717
▁obohacen	-11.7717
▁potíží	-11.7717
▁vyčerpání	-11.7717
▁zavlaž	-11.7717
▁hudbou	-11.7717
▁uplatnil	-11.7717
▁službě	-11.7717
▁potravu	-11.7717
▁stránka	-11.7717
▁brown	-11.7717
podrobnější	-11.772
▁shodný	-11.772
▁náznak	-11.7721
baptist	-11.7738
hydrostatick	-11.7761
▁šířen	-11.7811
▁nadměrn	-11.7828
genetic	-11.7833
▁informatice	-11.7857
▁konfederace	-11.7857
▁kritéria	-11.7857
▁navštívit	-11.7857
▁pevniny	-11.7857
▁pojmenované	-11.7857
▁porcelán	-11.7857
▁prokaryot	-11.7857
▁převládá	-11.7857
▁rozlišovat	-11.7857
▁rozvíjející	-11.7857
▁souhlásky	-11.7857
▁čtvrť	-11.7857
hlížet	-11.7857
▁nadřazen	-11.7857
▁odcestoval	-11.7857
▁údržb	-11.7857
▁determin	-11.7857
▁husitství	-11.7857
▁agresivní	-11.7857
▁lásce	-11.7857
▁rtuti	-11.7858
▁jidiš	-11.7858
▁dceřin	-11.7858
www	-11.7858
▁lůžk	-11.7858
▁kanadské	-11.7858
pouštějí	-11.7859
▁literatur	-11.791
průhled	-11.7924
pravděpodobně	-11.796
▁místodržitel	-11.8
▁použije	-11.8
▁rovnocenn	-11.8
▁ázerbájdžán	-11.8
▁berkeley	-11.8
▁doporučil	-11.8
▁dynamik	-11.8
▁instituci	-11.8
▁kvantitativní	-11.8
▁lombard	-11.8
▁nabízel	-11.8
▁nalezneme	-11.8
▁nejrychlejší	-11.8
▁restaurace	-11.8
▁sicílii	-11.8
<	-13.6711
•	-13.6711
