<unk>	0
<s>	0
</s>	0
.	-3.28529
,	-3.50559
▁der	-3.70467
▁die	-3.80764
▁	-3.85233
s	-4.0368
▁und	-4.0386
en	-4.04018
▁in	-4.30666
e	-4.35421
n	-4.43404
-	-4.6109
▁von	-4.76031
▁den	-4.93474
▁im	-5.06808
▁das	-5.08415
▁des	-5.09613
▁mit	-5.11505
"	-5.15912
▁(	-5.16122
er	-5.17413
▁zu	-5.23758
▁"	-5.27173
▁als	-5.31256
▁auf	-5.32932
▁ein	-5.40136
▁ist	-5.4294
▁eine	-5.43857
▁dem	-5.45212
▁für	-5.51989
▁sich	-5.52254
)	-5.53711
#	-5.65236
▁an	-5.65812
▁auch	-5.6868
▁#	-5.69899
▁aus	-5.74553
▁er	-5.74866
▁wurde	-5.7624
r	-5.81747
▁„	-5.84926
▁nach	-5.8696
t	-5.92788
▁bei	-5.93561
▁es	-5.97699
▁durch	-5.97844
▁werden	-6.0098
▁nicht	-6.04828
▁sind	-6.0594
▁oder	-6.11532
:	-6.12378
▁einer	-6.13127
“	-6.14581
▁war	-6.14825
▁wird	-6.16346
▁sie	-6.20058
▁am	-6.23597
▁über	-6.23881
es	-6.25926
▁bis	-6.29474
▁vor	-6.3219
m	-6.34537
▁um	-6.36306
▁zum	-6.37897
▁wie	-6.38045
▁zur	-6.42722
▁unter	-6.43111
▁dass	-6.49109
▁einem	-6.50983
▁diese	-6.52553
▁ab	-6.53379
d	-6.64501
▁so	-6.66169
▁nur	-6.67511
▁einen	-6.6752
▁wurden	-6.70623
ung	-6.71821
▁–	-6.72348
="	-6.74392
de	-6.76325
;	-6.77862
|	-6.80002
).	-6.8128
in	-6.86661
te	-6.86846
a	-6.89012
▁aber	-6.91381
/	-6.94039
▁noch	-6.94692
▁b	-6.95555
),	-6.98034
▁ver	-6.99596
▁stadt	-7.01504
▁be	-7.01712
▁seit	-7.01738
▁dieser	-7.04401
▁zwischen	-7.06161
k	-7.0663
z	-7.07
▁etwa	-7.07492
▁seine	-7.0809
▁kann	-7.08103
vom	-7.0874
▁da	-7.11068
▁sowie	-7.11133
c	-7.11354
ten	-7.11381
▁ihre	-7.11502
▁man	-7.12187
▁hat	-7.1252
▁jahr	-7.14748
o	-7.15034
▁seiner	-7.16357
▁sein	-7.17046
▁waren	-7.17162
b	-7.21227
▁eines	-7.21267
▁zeit	-7.23014
▁zwei	-7.23153
▁jedoch	-7.24376
▁hatte	-7.24791
f	-7.28736
▁mehr	-7.31162
▁formula	-7.3218
g	-7.3244
l	-7.34093
i	-7.35828
▁a	-7.36653
▁jahre	-7.37151
▁können	-7.37331
h	-7.39274
doc	-7.39675
y	-7.41265
▁gegen	-7.42779
>	-7.43336
▁wieder	-7.43694
▁jahren	-7.46231
▁während	-7.46777
▁haben	-7.46948
ischen	-7.47183
an	-7.48916
den	-7.49021
us	-7.50525
▁jahrhundert	-7.5118
▁damit	-7.51383
▁gibt	-7.52191
▁anderen	-7.533
▁de	-7.53939
▁%	-7.56583
▁ersten	-7.57128
",	-7.5784
▁teil	-7.59069
be	-7.59298
▁drei	-7.59986
ge	-7.60513
▁alle	-7.60929
▁selbst	-7.61059
▁un	-7.63404
der	-7.63467
▁v	-7.64567
▁bereits	-7.65556
▁m	-7.6591
▁ge	-7.66364
ische	-7.66724
al	-7.67484
▁sehr	-7.68025
▁dabei	-7.68171
▁heute	-7.68326
▁neben	-7.68715
em	-7.70498
▁z	-7.71838
p	-7.71883
▁allem	-7.7224
▁erst	-7.72603
▁weitere	-7.73186
ver	-7.73763
▁ihr	-7.73817
▁deutschen	-7.73867
▁wo	-7.73965
▁wenn	-7.73971
▁später	-7.75583
▁re	-7.75621
▁erste	-7.75753
▁keine	-7.75955
ig	-7.76722
isch	-7.78228
▁film	-7.78559
▁deutschland	-7.78686
▁menschen	-7.78993
um	-7.79971
2	-7.80227
▁seinen	-7.81429
▁c	-7.81964
▁2	-7.82272
▁ende	-7.83113
▁k	-7.83247
▁dann	-7.833
▁ihrer	-7.83547
▁viele	-7.85253
▁1	-7.85542
w	-7.85547
▁welt	-7.85729
▁d	-7.87679
▁ihm	-7.88
sch	-7.88406
▁sondern	-7.88589
▁zusammen	-7.88864
▁seinem	-7.89086
▁hier	-7.90235
▁was	-7.92346
▁land	-7.92453
▁bezeichnet	-7.92556
org	-7.92759
▁beim	-7.9307
▁andere	-7.93132
▁konnte	-7.9342
v	-7.95651
?	-7.95687
grund	-7.96018
u	-7.9622
re	-7.96627
▁17	-7.9679
▁zurück	-7.96975
bzw	-7.97374
iert	-7.98466
▁immer	-7.98898
ismus	-7.99161
▁neu	-7.99162
st	-7.99722
▁form	-8.004
▁kam	-8.01223
▁beispiel	-8.0126
die	-8.01756
le	-8.01782
▁einige	-8.02138
▁diesem	-8.02394
ab	-8.02438
▁pro	-8.0285
it	-8.03578
–	-8.03955
ch	-8.03988
▁wasser	-8.04535
▁verwendet	-8.04638
▁sch	-8.04756
▁sei	-8.05009
lich	-8.05082
▁16	-8.0535
▁h	-8.05512
▁id	-8.05693
▁allerdings	-8.05907
wikipedia	-8.05907
is	-8.0705
▁dessen	-8.07051
▁gab	-8.07381
or	-8.07452
▁dort	-8.07497
▁vier	-8.07581
ar	-8.07793
▁große	-8.07995
")	-8.08337
▁("	-8.0849
▁liegt	-8.0967
▁(19	-8.10064
▁schon	-8.10281
wiki	-8.10595
▁g	-8.10611
https	-8.10808
land	-8.11562
▁ohne	-8.11672
“.	-8.11726
▁oft	-8.11979
▁url	-8.1198
▁weiter	-8.12025
://	-8.12133
▁meist	-8.12248
▁title	-8.12301
▁<	-8.12586
▁categories	-8.1264
curid	-8.12642
▁</	-8.12737
▁bekannt	-8.12803
▁of	-8.13693
ein	-8.13695
▁großen	-8.13869
▁15	-8.1387
on	-8.13891
▁ebenfalls	-8.14484
▁landes	-8.1532
▁dazu	-8.15461
▁rund	-8.1574
▁bedeutung	-8.15828
ä	-8.1587
et	-8.16287
ing	-8.166
▁3	-8.16687
▁ihn	-8.1682
▁also	-8.17084
)|	-8.17135
▁beiden	-8.17695
▁neue	-8.17994
▁t	-8.18123
“,	-8.19433
▁prozent	-8.19504
keit	-8.20219
at	-8.2029
▁daher	-8.21417
▁bau	-8.21494
▁anderem	-8.21611
▁grund	-8.21761
▁st	-8.21986
▁u	-8.22079
▁ent	-8.22413
ma	-8.22595
▁gilt	-8.22659
▁leben	-8.22749
▁welche	-8.23464
ungen	-8.23629
▁f	-8.23665
’	-8.23913
ern	-8.23966
os	-8.24203
mann	-8.246
▁insbesondere	-8.24863
▁us	-8.25394
▁beispielsweise	-8.25604
▁geschichte	-8.25794
▁w	-8.2593
3	-8.25992
▁zunächst	-8.26007
ation	-8.26056
gen	-8.27065
▁mehrere	-8.27136
▁je	-8.27166
▁worden	-8.273
▁millionen	-8.27318
▁deutsche	-8.27844
1	-8.27869
▁stark	-8.28385
el	-8.28833
▁jahrhunderts	-8.29654
▁10	-8.29771
zeit	-8.307
ta	-8.30802
na	-8.30866
▁la	-8.3111
sten	-8.31116
▁natur	-8.31302
▁zweiten	-8.31526
▁hoch	-8.31926
▁neuen	-8.32293
▁art	-8.32677
▁chr	-8.32869
▁mai	-8.3328
▁i	-8.33461
im	-8.33703
di	-8.33836
ter	-8.3439
▁ca	-8.34462
▁energie	-8.35378
the	-8.35625
▁wegen	-8.35682
▁entwicklung	-8.3572
un	-8.35988
▁haupt	-8.3607
▁besonders	-8.3645
▁kultur	-8.36452
bau	-8.36524
▁statt	-8.36728
▁1.	-8.36833
ne	-8.37597
zu	-8.37964
lichen	-8.38027
to	-8.3813
ö	-8.38209
▁meisten	-8.38401
▁unterschiedlich	-8.38603
ität	-8.38787
▁ober	-8.39485
▁genannt	-8.39594
ierung	-8.39716
aus	-8.39895
▁p	-8.40384
bar	-8.40632
ik	-8.40657
▁fünf	-8.40779
▁august	-8.40897
▁begriff	-8.40958
ieren	-8.40999
igen	-8.41308
ur	-8.41555
▁rolle	-8.41575
ion	-8.41829
▁namen	-8.4203
▁wobei	-8.42126
▁hin	-8.42859
ste	-8.42927
▁fast	-8.43083
▁gegenüber	-8.43226
stadt	-8.4327
ien	-8.43841
▁berlin	-8.4386
heit	-8.43873
ul	-8.43888
▁europa	-8.43918
▁häufig	-8.43919
ia	-8.4435
▁diesen	-8.44714
▁5	-8.44945
system	-8.45602
▁innerhalb	-8.45712
da	-8.45981
ü	-8.46099
▁führte	-8.47282
▁macht	-8.47385
liche	-8.47467
▁sollte	-8.47613
▁außerdem	-8.47748
▁besteht	-8.47807
▁fest	-8.4864
▁kunst	-8.48868
▁kaiser	-8.4944
gt	-8.49753
▁möglich	-8.50212
▁januar	-8.50247
▁zahl	-8.50258
▁sprache	-8.50274
▁14	-8.50277
▁bevölkerung	-8.5034
la	-8.50989
4	-8.51018
▁4	-8.51032
▁steht	-8.51213
stand	-8.51329
▁erstmals	-8.51561
▁märz	-8.51737
▁20	-8.51759
▁19.	-8.51802
▁oktober	-8.51931
é	-8.52101
▁(„	-8.52143
▁reich	-8.52345
▁juli	-8.52668
ierte	-8.52679
▁hatten	-8.53071
▁ob	-8.53205
▁wort	-8.53612
▁april	-8.53644
▁groß	-8.53865
▁reichs	-8.53959
=	-8.54247
▁l	-8.54265
berg	-8.54312
form	-8.54646
▁frei	-8.54875
▁verschiedene	-8.55382
▁staaten	-8.56027
0	-8.56136
▁staats	-8.56229
▁juni	-8.56506
▁september	-8.56633
ca	-8.56656
▁soll	-8.5674
▁al	-8.56926
ie	-8.57023
)"	-8.57255
▁allen	-8.57312
▁west	-8.57408
▁dezember	-8.57427
▁partei	-8.57969
j	-8.58161
enden	-8.58218
▁zwar	-8.58705
▁weiteren	-8.58797
▁november	-8.58967
▁nord	-8.59064
▁deutlich	-8.59381
man	-8.59817
ra	-8.60523
ler	-8.61106
▁weil	-8.61552
x	-8.61696
mo	-8.61699
▁erhielt	-8.61727
ton	-8.61976
▁finden	-8.62004
▁lebens	-8.62087
▁zudem	-8.62088
haus	-8.62222
(	-8.62224
▁musik	-8.62291
▁davon	-8.62378
▁denen	-8.62551
▁verschiedenen	-8.6268
▁mittel	-8.62777
▁euro	-8.62954
isten	-8.63098
ner	-8.63379
▁sowohl	-8.63606
▁insgesamt	-8.6388
▁the	-8.63962
▁werk	-8.64187
▁zahlreiche	-8.64531
▁aller	-8.64851
▁tod	-8.6486
▁literatur	-8.6502
au	-8.65035
ut	-8.65199
5	-8.65202
▁krieg	-8.65324
▁süd	-8.65398
▁lange	-8.65406
▁"(	-8.65418
▁gut	-8.65471
dem	-8.65515
▁lassen	-8.65529
▁nun	-8.65633
▁system	-8.65902
“)	-8.65922
▁habe	-8.6602
▁viel	-8.6608
lo	-8.66132
▁6	-8.66165
▁13	-8.66319
▁gesellschaft	-8.66327
▁bereich	-8.66439
ende	-8.66848
▁frankreich	-8.66935
▁km	-8.66972
▁muss	-8.67178
chen	-8.67256
▁anfang	-8.67669
ro	-8.67888
▁regierung	-8.67994
▁12	-8.68
zahl	-8.68514
▁regel	-8.68589
▁wert	-8.686
▁körper	-8.68738
ium	-8.68784
▁laut	-8.68822
▁bundes	-8.68862
art	-8.68928
ige	-8.69109
ist	-8.69183
▁teilweise	-8.69223
▁vielen	-8.69648
▁wahl	-8.69821
ck	-8.69853
▁relativ	-8.6986
▁personen	-8.70219
ad	-8.70259
▁befindet	-8.70321
he	-8.70555
co	-8.70561
fall	-8.7057
ke	-8.70621
▁her	-8.70695
▁letzten	-8.70711
▁8	-8.70757
as	-8.7076
▁seines	-8.70822
ko	-8.70866
ka	-8.70905
vor	-8.70947
▁weniger	-8.71601
▁spiel	-8.71638
th	-8.71829
▁buch	-8.72045
▁doch	-8.72339
id	-8.72459
▁1990	-8.72463
▁rechts	-8.72649
▁ost	-8.72701
▁national	-8.72883
▁karl	-8.73266
isierung	-8.73312
▁begann	-8.73515
▁daten	-8.73566
▁folge	-8.73573
▁luft	-8.73587
▁usa	-8.73811
▁ha	-8.74007
mit	-8.74046
▁schließlich	-8.741
mer	-8.74143
är	-8.74315
▁größte	-8.74411
werk	-8.74439
▁kommen	-8.74459
▁nachdem	-8.74489
▁7	-8.746
▁co	-8.74679
▁20.	-8.74846
▁findet	-8.74965
▁jede	-8.75219
▁europäischen	-8.75381
und	-8.75442
▁ziel	-8.75443
ic	-8.75522
▁arten	-8.75681
gruppe	-8.75762
▁dafür	-8.76024
▁direkt	-8.76031
_	-8.7611
▁kommt	-8.76566
siehe	-8.76656
▁lang	-8.76716
il	-8.77236
▁eingesetzt	-8.77405
▁fand	-8.77602
▁mal	-8.77651
▁kurz	-8.77802
▁arbeit	-8.77842
▁familie	-8.78126
▁gleich	-8.78295
▁se	-8.78518
▁erhalten	-8.78594
bahn	-8.78622
▁gehören	-8.79353
▁dadurch	-8.79893
straße	-8.79966
▁raum	-8.80479
▁konnten	-8.80499
am	-8.80719
▁beginn	-8.80748
▁lässt	-8.80778
amp	-8.80833
me	-8.80907
▁di	-8.80932
ba	-8.81041
▁universität	-8.8109
▁sprach	-8.81127
ster	-8.81322
▁sechs	-8.81427
ir	-8.81622
▁folgenden	-8.8172
do	-8.81787
▁weltweit	-8.81815
▁alt	-8.81986
▁jeweils	-8.81998
▁kein	-8.82343
▁ar	-8.82492
▁somit	-8.82585
▁sprachen	-8.82601
▁stand	-8.82655
▁beide	-8.82936
▁größten	-8.82973
▁zahlen	-8.83086
▁februar	-8.8313
ri	-8.83174
▁gesamt	-8.8324
▁sa	-8.83323
li	-8.83438
▁gehört	-8.83553
▁gebiet	-8.83881
ze	-8.83901
▁einfluss	-8.84296
ben	-8.84358
▁darauf	-8.84434
wissenschaftlich	-8.8459
▁entstanden	-8.84596
▁fall	-8.84804
▁ebenso	-8.84963
▁ließ	-8.85129
▁dar	-8.85317
▁licht	-8.8558
▁verwendung	-8.85585
▁arbeits	-8.85614
▁kirche	-8.85767
▁bilden	-8.86232
▁führt	-8.86253
▁bild	-8.86261
vi	-8.8637
tal	-8.8645
▁wichtige	-8.86554
▁ganz	-8.86629
schaft	-8.86717
▁gold	-8.86772
▁weit	-8.869
▁pa	-8.87094
▁kon	-8.87104
▁recht	-8.876
▁ging	-8.87781
▁könig	-8.8798
▁frauen	-8.88055
▁name	-8.88273
▁eigene	-8.88288
▁le	-8.88368
go	-8.88407
▁kinder	-8.88456
▁friedrich	-8.88499
lt	-8.88853
recht	-8.89029
▁eigenen	-8.89118
▁rahmen	-8.89227
ger	-8.89412
auf	-8.89505
▁see	-8.89528
pa	-8.89572
▁wirtschafts	-8.89769
ha	-8.8989
▁einwohner	-8.89994
▁städte	-8.90149
▁kriegs	-8.90387
▁anteil	-8.90571
18	-8.90579
▁hohen	-8.90767
▁mitte	-8.90839
▁entwickelte	-8.90893
▁bezeichnung	-8.90897
▁hinaus	-8.91032
ti	-8.91093
▁du	-8.91164
▁ihnen	-8.91239
platz	-8.91408
geschichte	-8.91779
▁weltkrieg	-8.91865
▁blieb	-8.92271
▁sogar	-8.92337
▁=	-8.92412
▁heutigen	-8.92666
bereich	-8.92911
▁per	-8.92911
ale	-8.93067
▁li	-8.93496
–19	-8.93652
▁haus	-8.93731
▁darüber	-8.94123
▁französischen	-8.94196
▁darunter	-8.94245
▁entstand	-8.94312
▁kreis	-8.94358
schen	-8.94477
▁blut	-8.94485
▁druck	-8.94531
▁ko	-8.94613
▁hohe	-8.94663
▁einigen	-8.94839
▁x	-8.9488
▁erde	-8.94909
los	-8.94942
▁damals	-8.95415
▁°	-8.95579
▁ma	-8.95681
ier	-8.95777
▁(18	-8.95803
▁100	-8.95892
▁sitz	-8.9593
rat	-8.95956
▁titel	-8.96055
das	-8.9608
son	-8.96152
▁platz	-8.9618
feld	-8.96858
▁heraus	-8.96873
ich	-8.96886
▁solche	-8.96891
stein	-8.96925
▁vi	-8.96927
20	-8.97062
▁politische	-8.97111
ph	-8.97176
▁o	-8.97247
▁genutzt	-8.97319
bach	-8.97392
sprache	-8.9754
6	-8.97842
her	-8.97876
▁go	-8.97905
▁nahm	-8.97999
▁volks	-8.98004
▁liegen	-8.98096
▁2011	-8.98139
▁eu	-8.98419
.“	-8.98466
▁vergleich	-8.98518
si	-8.98519
end	-8.98803
raum	-8.98928
iv	-8.98969
sche	-8.99009
▁unternehmen	-8.99095
▁roman	-8.9915
▁30	-8.99382
teil	-8.99536
▁entwickelt	-8.99544
▁weg	-8.99564
▁eigenschaften	-8.99566
▁wenig	-8.99798
▁enthalten	-8.99945
▁lag	-8.99967
▁stehen	-9.00049
▁alten	-9.00233
▁markt	-9.00549
so	-9.00661
▁münchen	-9.00696
▁gruppe	-9.00762
▁weiterhin	-9.00771
▁tag	-9.01041
tor	-9.01171
▁republik	-9.01457
_1	-9.01489
▁geht	-9.0149
▁ii	-9.01608
▁politischen	-9.0162
▁rhein	-9.01768
op	-9.01906
kreis	-9.01997
bildung	-9.02007
mittel	-9.02059
mm	-9.02168
▁stellte	-9.02206
ry	-9.02459
bi	-9.02465
spiel	-9.02482
▁pflanzen	-9.02531
▁2008	-9.02628
▁2010	-9.02883
ci	-9.02968
po	-9.03027
ell	-9.03076
mi	-9.03224
▁zehn	-9.03236
▁musste	-9.03257
▁gemeinde	-9.0336
▁obwohl	-9.03668
ja	-9.03918
ischer	-9.03985
arten	-9.0421
▁gegensatz	-9.04464
mal	-9.04497
▁2006	-9.04529
film	-9.04539
ierten	-9.04702
▁2000	-9.05185
▁he	-9.05488
▁handels	-9.05536
pp	-9.05537
▁führen	-9.05808
30	-9.06099
▁1980	-9.06127
träger	-9.06145
▁2007	-9.0637
▁folgende	-9.06374
▁18.	-9.06444
▁gewählt	-9.06491
ly	-9.06697
▁dagegen	-9.06903
welt	-9.06907
▁insel	-9.06909
▁gleichzeitig	-9.0732
▁einsatz	-9.07462
stellung	-9.07539
tin	-9.07653
ag	-9.07764
▁werke	-9.07767
▁zeichen	-9.078
▁zunehmend	-9.07824
ach	-9.0787
▁setzte	-9.07924
pl	-9.08069
▁frage	-9.08205
wert	-9.0826
▁11	-9.08377
▁sinne	-9.08392
▁bildung	-9.08423
▁zuvor	-9.08626
▁österreich	-9.08701
satz	-9.0875
▁selten	-9.08803
pe	-9.09057
▁r	-9.09277
▁2005	-9.09555
tik	-9.09619
ort	-9.09767
▁zusammenhang	-9.09993
▁fort	-9.10163
istische	-9.10198
▁zeigt	-9.10253
durch	-9.10283
▁kern	-9.10285
▁ra	-9.10331
▁gas	-9.10455
▁wirkung	-9.10464
▁acht	-9.10476
istischen	-9.10649
zi	-9.10955
▁stellt	-9.11065
▁forschung	-9.111
▁gegründet	-9.11138
ß	-9.11208
theorie	-9.11321
▁jahres	-9.11404
▁müssen	-9.11519
▁mond	-9.11541
▁1945	-9.11572
ga	-9.11654
▁&	-9.11674
▁verbindung	-9.11694
▁handelt	-9.11704
▁kirchen	-9.1174
▁voll	-9.11809
▁italien	-9.11931
0.000	-9.11941
weg	-9.12025
▁and	-9.12027
▁ki	-9.12038
▁2015	-9.1204
▁heißt	-9.12068
▁seite	-9.12087
▁trotz	-9.12126
▁sogenannte	-9.12164
▁anzahl	-9.1223
▁funktion	-9.12319
ve	-9.12327
technik	-9.12333
▁eher	-9.12363
▁einzelnen	-9.12381
▁2013	-9.12388
▁sommer	-9.12397
▁wissenschaft	-9.12454
▁2009	-9.12616
▁halb	-9.12753
▁na	-9.12774
▁danach	-9.12801
tag	-9.12828
ius	-9.12872
▁militär	-9.12909
bild	-9.13191
▁2016	-9.13192
ken	-9.13276
no	-9.1328
▁bildet	-9.13362
▁internationalen	-9.13368
nach	-9.13385
▁50	-9.13482
▁leicht	-9.13485
zug	-9.13607
▁japan	-9.13634
▁schrift	-9.1383
ol	-9.13902
▁computer	-9.13913
▁erster	-9.13947
tra	-9.13986
▁verbunden	-9.14026
pf	-9.14162
sp	-9.143
▁18	-9.14409
▁frühen	-9.14584
▁2017	-9.14596
▁deshalb	-9.14603
▁9	-9.14661
▁1970	-9.14823
10	-9.14834
▁arbeiten	-9.14843
▁trat	-9.14919
▁teile	-9.14968
▁jeder	-9.1501
50	-9.15087
▁vater	-9.15179
▁ka	-9.15321
ce	-9.15336
▁bestimmte	-9.15342
ologie	-9.15368
wie	-9.15399
br	-9.1564
▁westen	-9.15695
▁lage	-9.15701
▁kraft	-9.15916
▁hilfe	-9.15943
▁definition	-9.16001
je	-9.16107
über	-9.16113
▁zweite	-9.16264
▁mo	-9.16439
od	-9.16483
▁chemische	-9.16496
ho	-9.16587
▁main	-9.16709
tri	-9.16788
▁j	-9.16875
▁kritik	-9.16897
see	-9.16977
▁bestimmt	-9.17015
▁ri	-9.17138
▁ursprünglich	-9.17179
▁internationale	-9.17204
▁heinrich	-9.17288
▁berg	-9.17323
▁bar	-9.17348
ei	-9.17464
▁sohn	-9.17521
▁industrie	-9.17531
▁nationalsozial	-9.17576
▁gelten	-9.17577
▁klein	-9.17578
▁staat	-9.17579
▁2019	-9.17591
reich	-9.17654
▁meter	-9.17664
▁verfahren	-9.17737
▁schrieb	-9.17803
▁massen	-9.17925
▁weitgehend	-9.18184
▁2012	-9.18205
▁erneut	-9.18306
▁politik	-9.18412
▁allgemein	-9.18441
▁gewesen	-9.18461
ard	-9.18555
ed	-9.18695
▁40	-9.1873
▁hitler	-9.18753
▁mehreren	-9.18888
sel	-9.18907
▁kaum	-9.19006
▁vollständig	-9.19171
▁bestehen	-9.19404
&	-9.19455
▁1960	-9.19535
▁zusätzlich	-9.19555
▁2020	-9.19556
▁fach	-9.19571
▁new	-9.19612
io	-9.19761
▁norden	-9.198
▁fa	-9.1988
▁größere	-9.19905
von	-9.19936
▁hingegen	-9.20163
▁standard	-9.20212
19	-9.20351
mitglied	-9.20397
▁anschließend	-9.20446
▁ähnlich	-9.20512
▁geld	-9.20545
▁erreicht	-9.20586
▁eisen	-9.20593
▁masse	-9.206
▁speicher	-9.20601
ber	-9.20702
▁richtung	-9.21245
▁besitzt	-9.21271
▁ländern	-9.21274
▁allein	-9.21282
arbeit	-9.21292
▁nieder	-9.21299
▁einzel	-9.2131
ent	-9.21318
▁zentrum	-9.21491
gruppen	-9.21618
▁ur	-9.21668
▁sogenannten	-9.21705
▁erfolg	-9.21742
selben	-9.21776
log	-9.21902
punkt	-9.22037
▁2014	-9.2205
▁gruppen	-9.22096
ki	-9.22102
▁alter	-9.22147
lie	-9.22181
▁strom	-9.22186
▁johann	-9.22191
▁wohl	-9.22199
▁schnell	-9.22223
▁darin	-9.22398
tum	-9.22423
zeichen	-9.22583
kultur	-9.22637
politik	-9.22657
▁einzige	-9.22749
les	-9.22812
▁frau	-9.22935
▁etwas	-9.22944
'	-9.23018
25	-9.23039
▁reihe	-9.2308
sa	-9.2314
schrift	-9.2332
▁wahrscheinlich	-9.23391
▁bürger	-9.23408
namen	-9.23421
schule	-9.23539
programm	-9.23699
▁bestand	-9.23768
▁hamburg	-9.23773
▁wilhelm	-9.23813
▁preis	-9.23825
▁stein	-9.23962
▁veröffentlicht	-9.23964
▁gott	-9.2403
▁kleine	-9.24045
gabe	-9.24139
▁elemente	-9.24143
▁bisher	-9.24262
▁programm	-9.2433
▁tage	-9.24403
▁flug	-9.24414
▁schul	-9.24443
▁sp	-9.24482
▁rück	-9.24556
▁london	-9.24605
ac	-9.24672
▁medien	-9.24797
cht	-9.24934
▁gebäude	-9.25101
▁region	-9.25106
▁mutter	-9.25175
ring	-9.2521
▁gemeinsam	-9.25223
tel	-9.25226
▁john	-9.25263
▁osten	-9.25329
▁mitglieder	-9.25344
rich	-9.25368
8	-9.25397
kirche	-9.25429
▁ag	-9.25501
▁damalige	-9.25536
▁general	-9.25581
gebiet	-9.25633
▁anti	-9.25665
mon	-9.25721
fa	-9.25747
▁schwer	-9.25897
▁mitglied	-9.25984
▁erfolgt	-9.25991
▁daneben	-9.26058
iz	-9.26078
▁befinden	-9.26179
11	-9.26181
ex	-9.26319
▁gelang	-9.26455
▁schutz	-9.26568
▁basis	-9.26651
park	-9.26745
gel	-9.26794
▁sport	-9.26813
▁geprägt	-9.26899
bo	-9.27197
▁leipzig	-9.2724
▁manche	-9.27253
▁ddr	-9.2728
▁beträgt	-9.27386
burg	-9.27417
▁stellen	-9.27515
▁wenige	-9.27547
▁höhe	-9.2765
▁machte	-9.27739
▁2.	-9.27953
▁kamen	-9.27969
▁2018	-9.28076
ordnung	-9.28113
▁sozial	-9.28134
person	-9.28142
▁gar	-9.28172
64	-9.28259
▁hinter	-9.28363
▁lo	-9.28364
▁erd	-9.28369
▁klima	-9.28539
▁erschien	-9.28559
▁köln	-9.2858
▁gebildet	-9.28705
markt	-9.2885
▁ehemaligen	-9.28903
▁herrschaft	-9.28914
druck	-9.29055
net	-9.29245
▁würde	-9.29253
stoff	-9.29422
auch	-9.29567
▁privat	-9.29571
▁spielte	-9.29579
▁römischen	-9.29601
▁darstellung	-9.29683
gesellschaft	-9.29814
▁enthält	-9.29817
▁sieben	-9.29897
▁temperatur	-9.29898
▁1950	-9.30094
▁mar	-9.30096
▁seien	-9.30196
ine	-9.30264
schw	-9.30321
▁bayern	-9.30343
formen	-9.30597
▁schloss	-9.3065
▁25	-9.30697
netz	-9.30739
▁rom	-9.30885
▁2021	-9.3093
▁öffentliche	-9.31004
zellen	-9.31038
▁international	-9.31052
▁paris	-9.31067
begriff	-9.31069
▁süden	-9.31134
9	-9.3138
stellen	-9.31419
igkeit	-9.31442
▁gegeben	-9.3148
ling	-9.31557
krieg	-9.31569
▁struktur	-9.31583
wahl	-9.31804
hof	-9.31924
entwicklung	-9.32045
▁künstler	-9.32078
we	-9.32089
_2	-9.32111
▁jährlich	-9.32131
▁atom	-9.32235
▁entspricht	-9.32256
ff	-9.32381
rie	-9.32392
pro	-9.32439
▁liste	-9.32445
▁genau	-9.3252
▁bestimmten	-9.32537
schutz	-9.32565
▁sehen	-9.32593
funktion	-9.32605
▁artikel	-9.32832
ak	-9.3288
▁ru	-9.32946
▁3.	-9.3308
▁weise	-9.33212
zentrum	-9.33395
gang	-9.3357
▁2004	-9.33613
▁kilometer	-9.33644
▁boden	-9.33656
heim	-9.33671
▁verfassung	-9.33701
▁machen	-9.33718
macht	-9.33815
▁regelmäßig	-9.33839
▁hielt	-9.33939
▁bo	-9.34045
▁nie	-9.34279
▁hauptstadt	-9.34307
▁truppen	-9.34308
▁früher	-9.34327
▁wirtschaft	-9.3434
▁theater	-9.3452
▁union	-9.34558
bit	-9.34612
▁modell	-9.34628
▁modernen	-9.34643
bel	-9.34729
▁schweiz	-9.348
▁element	-9.3505
▁bewegung	-9.35161
▁hinzu	-9.35194
▁eingeführt	-9.35206
▁fluss	-9.35209
13	-9.35272
▁wichtigsten	-9.3545
▁zuge	-9.35453
▁grundlage	-9.355
▁filme	-9.35533
bewegung	-9.35565
▁folgen	-9.35586
▁veröffentlichte	-9.35588
▁außen	-9.35705
▁letzte	-9.35714
ment	-9.35738
▁vereinigten	-9.36007
▁größe	-9.36116
hl	-9.36183
▁verhältnis	-9.36204
▁entsprechend	-9.36425
▁ex	-9.3645
▁lediglich	-9.36619
▁pe	-9.36733
pi	-9.36874
▁baden	-9.36906
▁tatsächlich	-9.36913
gi	-9.36988
▁einheit	-9.36993
du	-9.37044
▁juden	-9.37166
ett	-9.37212
▁öffentlich	-9.37225
om	-9.37336
▁antike	-9.37346
▁theorie	-9.37355
ert	-9.37483
▁vertreten	-9.37704
▁car	-9.3772
80	-9.37723
▁hauptsächlich	-9.37803
kt	-9.3797
▁2002	-9.38
▁erfolgte	-9.38023
▁stil	-9.38108
▁jo	-9.38251
▁autoren	-9.38327
ug	-9.38468
▁china	-9.38485
▁überwiegend	-9.38496
▁hälfte	-9.38551
▁band	-9.38612
▁spielen	-9.38612
fe	-9.38828
▁allgemeinen	-9.38922
▁wiederum	-9.38985
▁hof	-9.38989
]	-9.39123
ll	-9.39135
kon	-9.39195
▁prä	-9.39209
▁gefunden	-9.39237
▁einzelne	-9.39268
▁alexander	-9.39308
▁straßen	-9.39338
ativ	-9.39439
kraft	-9.39516
▁französische	-9.39586
dr	-9.39634
buch	-9.39639
ide	-9.39817
▁rat	-9.39819
▁anderer	-9.39855
▁außerhalb	-9.39904
▁po	-9.4008
res	-9.40102
schlag	-9.40178
▁zählen	-9.40225
zen	-9.40706
▁zentral	-9.40865
ai	-9.4099
▁großer	-9.41001
wasser	-9.41218
ill	-9.41226
wand	-9.41241
geschwindigkeit	-9.4134
▁ort	-9.41398
▁mathematik	-9.41453
▁gemeinden	-9.41478
▁mittels	-9.41497
▁jugend	-9.41505
▁zog	-9.41688
▁stelle	-9.41706
▁ludwig	-9.41716
▁beschrieben	-9.41868
▁me	-9.41877
tion	-9.41951
▁düsseldorf	-9.42044
▁text	-9.42048
▁60	-9.42256
▁codice	-9.42373
führung	-9.42425
▁früh	-9.42453
▁metall	-9.42476
tische	-9.42477
verkehr	-9.42492
▁nahe	-9.42535
▁benannt	-9.42607
▁definiert	-9.42738
all	-9.4277
ven	-9.4286
▁moderne	-9.42926
▁unterscheiden	-9.42981
lin	-9.43021
▁wollte	-9.43039
mindestens	-9.43057
▁philosophie	-9.43078
▁regierungs	-9.43105
dollar	-9.43246
▁ni	-9.43268
▁hu	-9.43343
▁tier	-9.43435
"),	-9.4347
▁2003	-9.43487
▁länder	-9.43569
▁do	-9.43575
60	-9.43751
▁all	-9.43788
").	-9.4384
▁su	-9.43887
▁sollen	-9.43981
▁milliarden	-9.43998
nahme	-9.44235
▁verfügung	-9.44242
▁betrieb	-9.44289
nt	-9.44325
gas	-9.44333
▁hervor	-9.44418
▁ersetzt	-9.44444
▁sah	-9.44527
▁galt	-9.44709
neu	-9.44766
▁ausge	-9.44861
tu	-9.44875
12	-9.44956
▁rot	-9.45122
▁mensch	-9.45188
▁dennoch	-9.45198
▁gesamte	-9.4521
che	-9.45242
▁zugleich	-9.45331
7	-9.45442
erweise	-9.45445
▁anders	-9.45532
ant	-9.45586
▁umwelt	-9.45623
▁kleinen	-9.45633
▁tradition	-9.45644
wesen	-9.45701
▁grenz	-9.45802
▁ausschließlich	-9.45823
tischen	-9.4583
27	-9.46021
▁2001	-9.46039
mar	-9.46041
▁zählt	-9.46113
▁vertreter	-9.46117
▁ne	-9.46357
isiert	-9.46367
▁produktion	-9.4642
,5	-9.4646
26	-9.46558
▁entstehen	-9.46611
eck	-9.46632
▁not	-9.46637
ina	-9.46645
nis	-9.46683
▁länge	-9.46737
lauf	-9.46872
▁zahlreichen	-9.46928
▁wir	-9.46953
▁bald	-9.46958
▁möglichkeit	-9.4701
▁unmittelbar	-9.47054
▁17.	-9.47061
▁software	-9.47091
▁donau	-9.47182
▁16.	-9.47196
tz	-9.4725
▁ergebnis	-9.4728
▁typ	-9.47343
▁gerade	-9.47471
▁|	-9.47511
▁gleichen	-9.47552
ow	-9.47567
ft	-9.47578
▁ju	-9.47614
sam	-9.47719
▁wohn	-9.48024
▁aufgenommen	-9.48194
▁7.	-9.48204
▁daraus	-9.48322
▁post	-9.48361
▁seiten	-9.48369
▁herstellung	-9.48433
and	-9.4844
▁paul	-9.4863
▁alte	-9.48765
▁wesentlich	-9.48835
▁hand	-9.48901
ah	-9.48925
▁quellen	-9.49035
staat	-9.49069
▁betrachtet	-9.4907
▁verbindungen	-9.4911
▁prozess	-9.49184
ang	-9.49269
▁ja	-9.49319
▁1933	-9.49444
▁brachte	-9.49448
ator	-9.49452
▁for	-9.49556
▁eigen	-9.49588
tisch	-9.49595
änd	-9.49595
▁erzeugt	-9.49609
▁indien	-9.49694
oxid	-9.49759
22	-9.4976
del	-9.49856
jahr	-9.49891
▁feld	-9.49999
▁verkehrs	-9.50021
wirtschaft	-9.5005
▁umfasst	-9.50074
▁üblich	-9.50154
▁herz	-9.50229
▁robert	-9.50284
▁erreichen	-9.50293
▁folgt	-9.50301
▁ton	-9.50311
▁4.	-9.50326
▁verbreitet	-9.50344
▁projekt	-9.50419
▁mengen	-9.50477
uch	-9.5079
▁berliner	-9.50871
▁existiert	-9.50952
▁sollten	-9.50965
gesetz	-9.50971
▁unabhängig	-9.51017
▁stammt	-9.51028
dienst	-9.51107
▁charakter	-9.51114
▁spielt	-9.51172
▁person	-9.51185
▁si	-9.51218
▁aufbau	-9.5127
▁errichtet	-9.51334
▁mehrheit	-9.51372
▁landwirtschaft	-9.51392
za	-9.5143
▁nutzung	-9.51436
▁punkt	-9.51447
▁regisseur	-9.51476
lä	-9.51521
▁formen	-9.51583
▁gehörte	-9.51602
▁mittelalter	-9.51728
▁ta	-9.51735
▁winter	-9.51773
leistung	-9.51789
▁san	-9.519
▁bremen	-9.51974
▁england	-9.52004
▁siehe	-9.52088
per	-9.52091
▁geworden	-9.52145
▁gemacht	-9.52203
▁ordnung	-9.52241
ron	-9.52332
▁reiches	-9.52428
▁to	-9.52431
▁zeigen	-9.52475
▁mac	-9.52481
ian	-9.52593
▁gesamten	-9.52622
▁geschrieben	-9.52851
don	-9.52987
verfahren	-9.53051
▁menge	-9.53074
bare	-9.53085
40	-9.53131
unter	-9.53163
▁gu	-9.53187
▁bekannte	-9.532
ni	-9.53262
zahlen	-9.53262
con	-9.53378
▁städten	-9.53391
lage	-9.53397
▁knapp	-9.53425
▁tri	-9.53433
▁fern	-9.53464
▁end	-9.53515
tet	-9.53518
▁betriebssystem	-9.53519
igt	-9.53524
▁sauerstoff	-9.53569
▁5.	-9.53569
frei	-9.53602
▁keinen	-9.53687
literatur	-9.53688
▁nähe	-9.53743
▁ho	-9.53744
preis	-9.53756
▁britischen	-9.53765
▁13.	-9.53973
▁anwendung	-9.54201
▁ich	-9.54294
voll	-9.54297
▁sonder	-9.54304
▁koalition	-9.54344
▁tochter	-9.54445
▁otto	-9.54507
▁erklärt	-9.54517
▁erreichte	-9.54527
ika	-9.54528
des	-9.54688
bei	-9.54696
▁flughafen	-9.54787
▁besitzen	-9.54832
▁nachfolger	-9.54846
▁kampf	-9.54871
sitz	-9.54899
▁verbreitung	-9.54924
▁material	-9.55059
▁auftreten	-9.55078
museum	-9.55131
▁entstehung	-9.5516
▁königs	-9.55176
▁landkreis	-9.55303
säure	-9.55329
▁präsident	-9.55332
anlagen	-9.55406
▁klassischen	-9.55421
▁revolution	-9.55467
min	-9.5549
▁geboren	-9.5557
▁erfolgreich	-9.5557
setzung	-9.55596
▁8.	-9.55662
▁bernstein	-9.55766
▁gottes	-9.55865
▁südlich	-9.55865
up	-9.55922
▁neuer	-9.55962
▁ausdruck	-9.56051
▁beispiele	-9.56057
hi	-9.56091
▁ganze	-9.56107
par	-9.5611
▁wirtschaftliche	-9.56111
▁0	-9.56118
▁blei	-9.56125
14	-9.56175
▁nördlich	-9.5628
▁ehe	-9.56416
▁wäre	-9.56421
▁bedeutet	-9.56462
▁deutschlands	-9.56511
▁or	-9.56562
leben	-9.56595
▁11.	-9.56695
▁hergestellt	-9.56727
▁kar	-9.56737
▁sub	-9.56759
ib	-9.56764
▁con	-9.5682
▁besondere	-9.56826
▁folgte	-9.57027
ionen	-9.57074
▁wald	-9.57165
ana	-9.57196
verbindungen	-9.57348
▁schlacht	-9.5738
▁hans	-9.5738
▁deutscher	-9.57401
24	-9.57563
▁forschungs	-9.57571
▁regional	-9.57597
▁dargestellt	-9.57612
▁könnte	-9.57679
31	-9.57686
▁kosten	-9.57729
▁dis	-9.57785
ker	-9.57996
▁el	-9.58019
▁amt	-9.58058
▁starb	-9.58108
▁entsteht	-9.58151
▁jean	-9.58182
35	-9.58195
▁magdeburg	-9.58274
lu	-9.58278
▁9.	-9.58389
▁stimmen	-9.58395
▁farb	-9.58456
hin	-9.58491
▁vorhanden	-9.58582
▁no	-9.58701
49	-9.58716
▁(*	-9.58744
▁auto	-9.58774
▁park	-9.58986
▁jeweiligen	-9.59015
▁rein	-9.59069
70	-9.59108
wissenschaft	-9.59151
▁neun	-9.59168
▁marx	-9.59235
▁zeitpunkt	-9.59267
▁80	-9.59274
▁12.	-9.59302
15	-9.5932
▁wasserstoff	-9.59327
iger	-9.59468
▁starke	-9.5948
▁verwaltungs	-9.59525
einheit	-9.59531
▁bahn	-9.59547
▁gründung	-9.59583
▁bad	-9.59592
▁straße	-9.59645
▁14.	-9.59755
▁15.	-9.5978
mat	-9.59787
▁bio	-9.59825
▁stärker	-9.59827
fest	-9.59892
33	-9.59903
▁angesehen	-9.59987
yl	-9.60068
sport	-9.60129
ot	-9.60167
▁1999	-9.60361
▁gemäß	-9.60362
nd	-9.60431
gleich	-9.60478
▁grenze	-9.60586
▁kom	-9.60674
▁fanden	-9.60679
▁start	-9.60712
▁historische	-9.60722
▁klar	-9.60726
29	-9.60752
▁schriften	-9.6077
ott	-9.60782
seite	-9.60786
▁gewonnen	-9.60858
▁sodass	-9.6092
▁hafen	-9.60924
▁symbol	-9.60959
▁verlauf	-9.61082
▁gesetz	-9.61091
▁parallel	-9.61103
▁einmal	-9.61162
▁stadtteil	-9.61187
mäßig	-9.61195
▁wind	-9.61324
▁akademie	-9.61346
▁religion	-9.61347
▁internet	-9.61526
▁organisation	-9.61577
sta	-9.61812
▁inter	-9.61844
▁geführt	-9.61868
vo	-9.61889
▁parteien	-9.61907
▁königreich	-9.61958
▁andererseits	-9.62044
▁entfernt	-9.62045
▁pi	-9.622
va	-9.62216
▁carl	-9.62248
▁tonnen	-9.62259
▁provinz	-9.62271
▁samen	-9.62295
▁familien	-9.62336
▁6.	-9.62343
▁10.	-9.62349
▁ergibt	-9.62354
▁ausnahme	-9.62368
▁1998	-9.62428
staaten	-9.62534
last	-9.62563
▁namens	-9.62575
▁deutsch	-9.6265
▁außer	-9.62729
▁version	-9.62792
86	-9.62813
▁mess	-9.62847
innen	-9.62864
▁trans	-9.62902
kel	-9.62933
▁betrieben	-9.62954
▁bonn	-9.62981
▁glas	-9.62986
▁zer	-9.63028
▁hierbei	-9.63035
▁kant	-9.63138
▁georg	-9.63139
ino	-9.63287
▁dr	-9.63289
dorf	-9.63299
▁24	-9.63444
que	-9.63463
▁höchsten	-9.63528
▁einführung	-9.63536
▁öl	-9.63555
deutschland	-9.63629
▁einfach	-9.6365
lö	-9.6367
▁spd	-9.63676
▁benutzt	-9.63679
▁verloren	-9.6372
▁york	-9.63762
▁verfügt	-9.63805
21	-9.63816
▁größeren	-9.6392
ingen	-9.63926
▁gewann	-9.63956
▁amerikanischen	-9.64004
▁chemie	-9.6416
▁islam	-9.64202
▁durchgeführt	-9.64288
▁salz	-9.64307
▁daraufhin	-9.64357
▁europäische	-9.64427
▁besser	-9.64447
▁bezug	-9.64491
▁unterstützung	-9.64517
wald	-9.64523
▁dresden	-9.64535
▁beteiligt	-9.6454
▁lu	-9.6459
▁sinn	-9.64595
rü	-9.64596
minister	-9.64684
▁goethe	-9.64696
▁sonnen	-9.64712
▁gewicht	-9.64791
ica	-9.64853
▁technik	-9.65077
typ	-9.65122
▁mark	-9.65156
▁wochen	-9.65189
zer	-9.65308
produktion	-9.65405
plan	-9.65412
forschung	-9.65431
17	-9.65503
90	-9.65507
licher	-9.65637
▁existieren	-9.65709
veröffentlichung	-9.65709
geboren	-9.65748
▁tor	-9.6587
elle	-9.65936
▁betrug	-9.66099
jahren	-9.66131
str	-9.66267
▁weiterer	-9.66268
wissenschaften	-9.66276
▁bedeutende	-9.66312
▁bevölkerungs	-9.66399
▁y	-9.66818
▁großbritannien	-9.6689
▁aluminium	-9.66893
▁frankfurt	-9.66936
körper	-9.66975
stelle	-9.66984
▁fußball	-9.67
▁teils	-9.6702
if	-9.67051
cher	-9.67066
▁übernahm	-9.67071
▁griechischen	-9.67283
▁entweder	-9.67288
▁beeinflusst	-9.67288
▁nimmt	-9.67329
▁geschwindigkeit	-9.67402
fläche	-9.67404
23	-9.67434
chi	-9.67462
▁herkunft	-9.67494
bank	-9.67533
▁stadtgebiet	-9.67586
eine	-9.67598
▁studien	-9.67608
▁oben	-9.67652
gg	-9.67692
▁max	-9.67743
▁wahr	-9.67842
▁ihres	-9.67899
mus	-9.67917
▁bevor	-9.67968
▁untersuchung	-9.68013
tur	-9.68035
ost	-9.68084
▁nächsten	-9.68124
▁brief	-9.68162
▁laufe	-9.6817
oder	-9.68209
,7	-9.68213
▁beziehungsweise	-9.68293
▁apple	-9.68315
▁regionen	-9.68395
▁gi	-9.68403
▁ernst	-9.68419
brücke	-9.68456
▁plan	-9.6847
äu	-9.68529
=1	-9.68598
industrie	-9.68627
▁ger	-9.68664
handel	-9.68726
▁21.	-9.68822
▁demokratie	-9.6888
tro	-9.68888
▁wichtigste	-9.68888
▁teilen	-9.68892
fl	-9.68905
▁1930	-9.68907
haltung	-9.68941
bert	-9.68956
▁jedem	-9.69014
▁dritten	-9.69028
▁bayerische	-9.69061
▁wärme	-9.69078
hr	-9.69127
port	-9.69128
ek	-9.69187
struktur	-9.69226
▁museum	-9.69229
▁spricht	-9.69302
hm	-9.69394
▁problem	-9.69414
▁th	-9.69438
tan	-9.69504
führer	-9.69657
deutschen	-9.6967
age	-9.69678
“).	-9.69687
band	-9.69718
fach	-9.69805
▁ad	-9.69832
▁abge	-9.69862
amt	-9.69888
▁prinzip	-9.69998
öl	-9.70009
▁soldaten	-9.70042
universität	-9.70083
modell	-9.70086
▁welches	-9.70139
▁versuchte	-9.70141
_3	-9.70151
▁klassische	-9.70192
ku	-9.70215
▁genannten	-9.70285
menge	-9.7035
▁dortmund	-9.70374
▁heutige	-9.70389
▁buchstaben	-9.70396
▁kontakt	-9.70412
weise	-9.7043
setzen	-9.70469
▁zwölf	-9.70531
▁stets	-9.70534
▁schnitt	-9.70572
▁dienen	-9.70749
▁bildungs	-9.70842
rot	-9.70847
▁breite	-9.70895
▁afrika	-9.71001
▁themen	-9.71005
▁steuer	-9.7107
▁lösung	-9.71133
bruch	-9.71147
▁erwähnt	-9.7115
▁thema	-9.71187
16	-9.71208
▁dient	-9.71216
▁beschreibung	-9.71223
▁sachsen	-9.71224
▁mi	-9.71377
00	-9.71382
▁gebracht	-9.71405
wo	-9.71432
ari	-9.7145
▁trocken	-9.71568
▁gegner	-9.71601
mark	-9.71604
99	-9.71643
▁kur	-9.71697
ct	-9.7175
▁umstritten	-9.71774
▁bietet	-9.71774
bt	-9.71804
ack	-9.71842
▁höhere	-9.71881
wort	-9.71976
▁inzwischen	-9.71991
▁höher	-9.72012
pol	-9.7218
▁bekannten	-9.72185
▁rechte	-9.72273
▁kapital	-9.72288
▁finanz	-9.72398
▁göttingen	-9.72408
▁kalender	-9.7243
▁blüten	-9.72489
▁grünen	-9.72611
▁zerstört	-9.72612
▁200	-9.72647
▁(17	-9.72756
pen	-9.72791
▁wirtschaftlich	-9.72802
▁wechsel	-9.7285
▁englischen	-9.72982
▁bundesrepublik	-9.7304
atom	-9.73056
▁funktionen	-9.73073
ok	-9.73106
▁gesprochen	-9.73126
▁konstanz	-9.7318
▁bach	-9.73375
▁westlichen	-9.73408
▁1989	-9.73462
wirkung	-9.73467
▁erklärte	-9.73524
▁schriftsteller	-9.73537
▁fällen	-9.73543
musik	-9.73555
bra	-9.73569
morph	-9.73615
▁eng	-9.73664
▁vermutlich	-9.73669
_4	-9.73682
▁festgelegt	-9.73687
linie	-9.73749
▁stieg	-9.73898
▁arbeitete	-9.7393
▁armee	-9.73962
▁peter	-9.74016
kan	-9.74084
▁gewalt	-9.74171
▁kreuz	-9.74223
▁holz	-9.74261
▁1000	-9.7432
▁späteren	-9.74341
▁as	-9.74381
▁historischen	-9.74398
▁größer	-9.74464
kammer	-9.74615
▁ebene	-9.74688
,8	-9.74732
▁ring	-9.74799
▁ga	-9.74828
▁unterschied	-9.74869
ete	-9.74878
fer	-9.74879
werte	-9.74937
▁grundsätzlich	-9.74952
▁dienst	-9.74998
▁intensiv	-9.75126
▁satz	-9.75161
▁situation	-9.75169
▁entdeckung	-9.75176
▁fremd	-9.75177
▁gebiete	-9.75194
78	-9.75204
▁reaktion	-9.75227
▁tief	-9.75228
▁infolge	-9.7524
rad	-9.75254
▁ehren	-9.75354
▁aristoteles	-9.75384
▁benötigt	-9.75386
▁wenigen	-9.7542
▁kl	-9.75439
unternehmen	-9.75462
▁werde	-9.75507
▁inseln	-9.7554
76	-9.75589
deutsche	-9.75594
▁physik	-9.75612
ial	-9.75679
ay	-9.75681
rang	-9.75774
▁methoden	-9.75797
fahrt	-9.75812
▁unbe	-9.75817
▁mu	-9.75829
48	-9.7585
▁eisenbahn	-9.75857
▁einge	-9.75898
▁gestellt	-9.75932
▁schule	-9.76007
schein	-9.76041
▁aktiv	-9.76104
temperatur	-9.76106
verband	-9.76159
▁schüler	-9.76238
haft	-9.76311
betrieb	-9.7635
▁dreh	-9.76362
▁jungen	-9.76412
▁extrem	-9.76471
▁abschnitt	-9.76488
▁sh	-9.76525
▁hinsicht	-9.76709
34	-9.76712
▁position	-9.76781
▁aussage	-9.76851
▁elektronen	-9.76882
ose	-9.76883
▁unterscheidet	-9.76909
▁werte	-9.76938
▁europas	-9.76963
▁meer	-9.76995
ley	-9.77039
▁tätig	-9.77051
▁probleme	-9.77176
▁offiziell	-9.77207
▁os	-9.77279
▁ausbildung	-9.77331
▁1920	-9.77362
verein	-9.77365
▁vorkommen	-9.77415
dia	-9.77446
▁britische	-9.77481
▁dom	-9.77497
▁sonne	-9.77498
▁starken	-9.77592
▁planeten	-9.77631
regierung	-9.7766
▁zweck	-9.77663
name	-9.77721
▁untersucht	-9.77743
▁kg	-9.77776
▁tiere	-9.77815
▁gebaut	-9.77818
▁autor	-9.77846
▁geringer	-9.77851
▁zustand	-9.77859
fähigkeit	-9.77861
lass	-9.77915
▁aufgaben	-9.77965
▁sc	-9.78003
jo	-9.78018
graph	-9.78022
,9	-9.78026
richtung	-9.7808
▁hätte	-9.78154
energie	-9.78158
tes	-9.78173
▁gen	-9.78209
▁ergebnisse	-9.78278
▁+	-9.78286
▁fehler	-9.78398
▁verstärkt	-9.78458
▁entlang	-9.78481
gehalt	-9.785
legen	-9.78526
▁menschlichen	-9.78538
gericht	-9.78579
▁opfer	-9.78624
car	-9.78629
metall	-9.78663
▁geeignet	-9.78681
▁bruder	-9.78682
hu	-9.78704
▁teilchen	-9.78756
durchschnittlich	-9.78776
▁jünger	-9.7878
▁endgültig	-9.78907
88	-9.78955
▁berufs	-9.79017
97	-9.79022
lichkeit	-9.7903
▁gehen	-9.79121
eu	-9.79204
▁grenzen	-9.79217
▁grab	-9.79233
▁ro	-9.79235
ath	-9.79277
gon	-9.79433
▁spanien	-9.79434
stell	-9.79434
▁freiheit	-9.79451
▁cdu	-9.79457
▁herbst	-9.79496
lei	-9.7952
▁fl	-9.7955
▁netz	-9.79592
▁2022	-9.79606
etwa	-9.79655
▁älteste	-9.7974
ap	-9.79745
▁handel	-9.79771
▁gebrauch	-9.79843
▁dialekt	-9.79864
á	-9.79949
▁%)	-9.7997
▁angegeben	-9.79995
,1	-9.80002
▁verhalten	-9.80012
gut	-9.80045
▁lager	-9.80136
tage	-9.80164
gebiete	-9.80231
▁19	-9.80236
anti	-9.80243
▁stunden	-9.80258
gehen	-9.80266
▁fe	-9.80465
▁zentrale	-9.80504
int	-9.80597
ive	-9.80606
▁mann	-9.80694
▁iii	-9.80725
▁mon	-9.80734
ase	-9.80736
▁versuch	-9.80763
len	-9.80914
]]	-9.80954
▁dichte	-9.81006
▁frisch	-9.81016
ologe	-9.81088
▁wesentlichen	-9.8113
▁herrscher	-9.81132
▁bezeichnete	-9.81139
leg	-9.81163
anteil	-9.81216
▁sand	-9.81358
▁zeigte	-9.81375
▁menschliche	-9.81475
▁nannte	-9.8163
▁freie	-9.81745
▁monate	-9.81767
▁freien	-9.81781
▁ange	-9.81857
bohne	-9.81962
▁medizin	-9.81985
▁linie	-9.81996
▁allgemeine	-9.82018
▁reise	-9.82057
▁kor	-9.82071
▁32	-9.82075
hen	-9.82133
▁öffentlichkeit	-9.82134
89	-9.82183
▁christian	-9.82193
▁schauspieler	-9.82245
dro	-9.82355
▁besuchte	-9.8237
ya	-9.82386
organisation	-9.82459
▁bundeskanzler	-9.82487
dichte	-9.82532
sätze	-9.82537
▁lehr	-9.82543
▁grad	-9.8255
▁legte	-9.8259
▁geben	-9.82621
▁fi	-9.8271
kunst	-9.82739
▁(20	-9.82765
theater	-9.82794
87	-9.82859
ros	-9.82996
71	-9.83041
55	-9.8305
code	-9.83067
▁umgebung	-9.83073
pho	-9.83078
▁spät	-9.83096
fr	-9.83179
▁feuer	-9.83181
▁cr	-9.83208
ii	-9.8333
länder	-9.83455
institut	-9.83502
▁höchste	-9.83503
▁langsam	-9.8351
▁mussten	-9.83611
q	-9.83667
▁will	-9.83716
▁behandelt	-9.83724
▁70	-9.83761
▁höheren	-9.83764
▁signal	-9.83771
▁gründen	-9.83828
ding	-9.83879
▁bleiben	-9.83907
▁übernommen	-9.83957
wechsel	-9.83971
▁schulen	-9.83977
dos	-9.83996
▁zusammenarbeit	-9.84066
75	-9.84151
32	-9.84165
▁fuß	-9.84187
▁erkennen	-9.84197
▁1992	-9.84198
▁existenz	-9.84222
▁ns	-9.84247
▁parlament	-9.84288
▁eröffnet	-9.8434
▁wider	-9.84349
▁sicht	-9.84349
▁behandlung	-9.84413
▁zuletzt	-9.8443
▁beweis	-9.84432
▁innenstadt	-9.84448
▁fdp	-9.84464
halt	-9.84468
fluss	-9.84482
meister	-9.84543
flug	-9.8457
ju	-9.84578
▁natrium	-9.84606
95	-9.84611
▁würden	-9.84614
▁grün	-9.84619
▁nutzen	-9.84662
▁wissen	-9.84755
▁schwarz	-9.84778
▁har	-9.84779
▁übertragen	-9.84858
▁ba	-9.84878
▁völlig	-9.84904
▁charles	-9.84908
▁1949	-9.84911
▁interesse	-9.84934
▁links	-9.84945
kommen	-9.84959
▁maschinen	-9.84987
ahn	-9.85034
hel	-9.85082
reform	-9.85124
▁objekt	-9.85129
▁geist	-9.85247
▁radio	-9.85284
▁james	-9.85386
▁ähnliche	-9.85447
grenze	-9.85481
wer	-9.85488
baren	-9.85545
teilung	-9.85547
▁erscheinen	-9.85644
insel	-9.85653
val	-9.85656
▁erb	-9.85663
▁technische	-9.85673
position	-9.85697
▁volk	-9.85708
fi	-9.85728
▁gemeinschaft	-9.85734
▁untersuchungen	-9.85809
▁bedingungen	-9.85816
▁aussagen	-9.85824
west	-9.85824
▁ermöglicht	-9.85841
▁zumindest	-9.8586
▁1991	-9.85865
▁1940	-9.85868
▁angenommen	-9.85879
▁min	-9.85891
qui	-9.85957
rä	-9.86023
▁thomas	-9.861
versammlung	-9.86112
▁eindeutig	-9.86116
72	-9.86122
▁setzt	-9.86196
reif	-9.86253
gemeinschaft	-9.86358
▁langen	-9.86452
leiter	-9.86542
tre	-9.86551
▁beziehungen	-9.86641
▁malta	-9.8666
98	-9.86667
könig	-9.86687
▁george	-9.86693
▁23	-9.86699
69	-9.8679
▁rang	-9.86798
▁1995	-9.86831
59	-9.86845
▁bürgermeister	-9.86862
schicht	-9.86872
▁vers	-9.86887
lager	-9.86943
uk	-9.87171
▁merkmale	-9.8723
▁[	-9.87259
bus	-9.87313
▁studenten	-9.87324
bis	-9.8733
tr	-9.87346
36	-9.87432
har	-9.87455
▁getrennt	-9.87555
▁royal	-9.87556
▁geschaffen	-9.87594
ebene	-9.87665
oli	-9.87697
▁kopf	-9.87698
weit	-9.87734
▁walter	-9.87799
▁schmitt	-9.878
▁herzog	-9.87801
gelegt	-9.87918
wa	-9.87934
▁mehrfach	-9.87981
▁sieht	-9.88064
ris	-9.88127
▁unterschieden	-9.88134
▁michael	-9.88215
daten	-9.88241
▁kräfte	-9.88257
▁chile	-9.8826
74	-9.88292
stil	-9.88297
ob	-9.88349
▁weder	-9.88362
werke	-9.88459
000	-9.88459
logisch	-9.88461
hol	-9.88479
37	-9.88512
▁dahin	-9.88569
systeme	-9.88573
▁unterstützt	-9.88712
tar	-9.88742
▁stern	-9.88746
73	-9.88759
▁entgegen	-9.88794
üb	-9.888
39	-9.88828
28	-9.88889
spiegel	-9.88917
▁führten	-9.88933
▁kleinere	-9.88958
▁wissenschaften	-9.88961
▁publikum	-9.89009
▁tragen	-9.8904
▁augen	-9.89051
national	-9.89067
▁widerstand	-9.89112
▁et	-9.89153
▁bas	-9.89184
ny	-9.89205
bad	-9.89221
▁bi	-9.89276
▁englisch	-9.89277
stände	-9.89277
▁bestätigt	-9.89279
▁1996	-9.89285
▁vertrag	-9.89374
ast	-9.89468
▁kleiner	-9.89524
▁[[	-9.89532
▁verfassungs	-9.89545
tt	-9.89545
▁angaben	-9.89606
ham	-9.89698
▁1944	-9.89782
▁urteil	-9.89898
▁männer	-9.89938
länge	-9.8994
höhe	-9.89944
▁arbeiter	-9.89971
▁friedens	-9.90006
▁methode	-9.90072
nden	-9.90077
▁standort	-9.9016
▁kredit	-9.90178
96	-9.90182
▁sal	-9.90246
lat	-9.90265
räume	-9.90298
▁rest	-9.90376
▁bor	-9.90404
▁idee	-9.90411
aceae	-9.90432
▁bleibt	-9.90436
▁inneren	-9.90468
nicht	-9.90512
ick	-9.90513
rom	-9.90587
▁gattung	-9.90683
▁cm	-9.9069
dig	-9.90707
▁nahezu	-9.90751
▁mauer	-9.90777
▁nehmen	-9.90778
▁william	-9.90784
▁beschränkt	-9.908
▁historisch	-9.90861
77	-9.90885
züge	-9.90979
▁römisch	-9.90993
sicht	-9.91022
▁mikro	-9.91032
▁pan	-9.91035
amerikanischen	-9.91084
let	-9.91097
lose	-9.9114
▁krieges	-9.91209
▁schweizer	-9.91262
▁produziert	-9.91329
▁del	-9.9143
ey	-9.9147
▁bot	-9.91498
▁sieg	-9.91499
folge	-9.91522
▁entdeckt	-9.9156
pu	-9.91573
▁großteil	-9.91594
▁kohl	-9.9163
kle	-9.91652
45	-9.91656
▁nacht	-9.91681
▁regie	-9.91752
▁flächen	-9.91763
▁eis	-9.91867
▁abhängig	-9.91977
91	-9.91982
ober	-9.92001
▁natürliche	-9.92008
▁zufolge	-9.92076
93	-9.92093
für	-9.92118
setzt	-9.92192
▁erklärung	-9.92193
▁uhr	-9.92221
▁verschiedener	-9.92253
▁ku	-9.92284
▁transport	-9.92303
▁may	-9.92326
hausen	-9.92365
nz	-9.92372
tive	-9.92415
treten	-9.92417
▁vorbild	-9.9242
▁verwaltung	-9.92429
cy	-9.92458
rechte	-9.9251
zo	-9.92535
▁gemeinsame	-9.92619
holz	-9.92698
▁offen	-9.9277
▁konflikt	-9.92785
▁zuerst	-9.92842
herrschaft	-9.92848
▁bücher	-9.92862
gar	-9.92955
gestorben	-9.93013
79	-9.93074
▁nennt	-9.93078
▁original	-9.9308
▁gebieten	-9.93081
▁jene	-9.93081
▁daran	-9.93109
▁bilder	-9.93165
▁unabhängigkeit	-9.93166
▁könne	-9.93178
jährige	-9.9319
▁fiel	-9.93307
▁solchen	-9.93358
▁versucht	-9.93366
▁güter	-9.9338
bas	-9.93392
kunde	-9.93505
▁anfangs	-9.9352
61	-9.93528
▁voraus	-9.93528
ktion	-9.93544
▁dritte	-9.93551
▁motor	-9.93585
▁lithium	-9.93594
▁22	-9.93681
▁poly	-9.93713
▁mm	-9.93724
▁leit	-9.93743
▁einwohnern	-9.93839
▁konzept	-9.93863
▁auszu	-9.93874
partei	-9.93904
▁sammlung	-9.9394
▁ferner	-9.93952
▁minister	-9.93978
▁kanton	-9.93991
by	-9.94013
▁analog	-9.94076
acht	-9.94138
▁vielfach	-9.94224
▁römische	-9.94289
mp	-9.94299
ip	-9.94353
deutsch	-9.94372
▁regen	-9.94383
▁heiligen	-9.94436
▁handeln	-9.94442
▁ganzen	-9.94451
▁informations	-9.94497
▁spieler	-9.94518
▁zeitung	-9.94541
83	-9.94577
▁tätigkeit	-9.94625
legung	-9.94625
▁vorher	-9.94633
▁sowjetunion	-9.94638
▁interessen	-9.94666
▁auffassung	-9.94714
▁iso	-9.94754
82	-9.94757
38	-9.94827
▁bestandteil	-9.94915
▁dichter	-9.94936
▁silber	-9.9496
▁bank	-9.95033
▁90	-9.95135
41	-9.95149
kern	-9.9515
▁franz	-9.952
▁weist	-9.95205
▁rand	-9.95244
ständig	-9.95273
mail	-9.95419
▁mittlerweile	-9.95427
65	-9.95444
▁entsprechende	-9.95446
halle	-9.95456
tiv	-9.95462
▁mineral	-9.9551
iden	-9.95527
▁monat	-9.95531
▁späten	-9.95572
lang	-9.95613
▁gründete	-9.95614
▁1946	-9.95697
▁formel	-9.957
▁we	-9.95718
▁gebunden	-9.95719
kal	-9.95742
jährigen	-9.95743
▁dia	-9.95786
81	-9.95801
▁par	-9.95822
63	-9.95835
▁schritt	-9.95836
▁auftrag	-9.95842
▁te	-9.95866
▁praxis	-9.95877
ate	-9.95889
▁geschlossen	-9.95912
▁500	-9.95942
▁eigenständige	-9.95961
,3	-9.95979
ix	-9.95998
▁geringe	-9.96029
▁erschienen	-9.96082
projekt	-9.96091
▁notwendig	-9.961
isieren	-9.96143
▁bodensee	-9.96244
▁gesehen	-9.96256
kar	-9.96309
▁straf	-9.96327
▁deutschsprachig	-9.96339
bund	-9.96352
strom	-9.96367
▁natürlichen	-9.96382
ps	-9.96391
▁1994	-9.96495
▁bundestag	-9.96516
▁seitdem	-9.96561
53	-9.96561
boot	-9.96568
▁chlor	-9.96605
▁35	-9.96613
▁nationalen	-9.96619
▁21	-9.96624
▁wa	-9.96709
▁david	-9.96757
▁einerseits	-9.9676
▁1948	-9.96764
▁heer	-9.9678
▁verantwortlich	-9.96784
rechnung	-9.96816
tritt	-9.96869
▁besitz	-9.9691
▁verändert	-9.96915
▁baum	-9.96919
85	-9.96956
▁abstand	-9.96989
▁beginnt	-9.97061
isierte	-9.97071
gebäude	-9.97076
▁pu	-9.97157
▁spezielle	-9.97306
▁belegt	-9.97335
▁hart	-9.97342
viertel	-9.9737
cho	-9.97395
rand	-9.97396
rin	-9.97425
liste	-9.97435
▁stamm	-9.97526
▁[]	-9.97573
57	-9.97633
rt	-9.97653
roman	-9.9766
▁meinung	-9.97674
▁mag	-9.97724
▁weiß	-9.97726
▁elektrische	-9.97768
old	-9.97773
▁schreiben	-9.97792
gegangen	-9.97806
▁stammen	-9.97907
▁ältesten	-9.97912
▁halten	-9.97932
94	-9.97955
▁architektur	-9.98031
67	-9.98093
▁unterscheidung	-9.98105
▁gelegentlich	-9.98105
▁tra	-9.98108
ani	-9.98137
▁weiteres	-9.98162
off	-9.98176
▁26	-9.98203
▁küsten	-9.98235
▁hell	-9.98282
▁burg	-9.98297
▁jung	-9.98298
ging	-9.98352
47	-9.98353
▁politisch	-9.98359
▁lehre	-9.98375
▁liechtenstein	-9.98376
▁angelegt	-9.98512
▁trägt	-9.98596
▁stoff	-9.98604
grad	-9.98606
68	-9.98617
▁richard	-9.98649
▁rede	-9.98694
alen	-9.98706
barkeit	-9.98729
äng	-9.98872
▁fund	-9.98899
schl	-9.99079
▁entsprechenden	-9.9909
▁bestimmung	-9.99099
schluss	-9.99101
▁objekte	-9.99119
▁geringen	-9.99137
grün	-9.99147
licht	-9.99149
ref	-9.99149
▁cha	-9.99152
▁wild	-9.99193
▁nachgewiesen	-9.99196
▁em	-9.99251
▁bayreuth	-9.99305
▁hol	-9.99309
▁anhänger	-9.99312
dauer	-9.99317
speicher	-9.99533
san	-9.99539
rate	-9.99561
▁wal	-9.99579
sprachen	-9.99614
pat	-9.99664
▁rad	-9.99683
▁polen	-9.99734
▁eltern	-9.99747
klasse	-9.99804
istisch	-9.99856
haupt	-9.99925
oc	-9.99934
▁ehemalige	-9.99934
▁johannes	-9.99949
▁anerkannt	-9.99958
mond	-9.9997
46	-9.99985
▁regeln	-10.0001
▁kalium	-10.0003
56	-10.0013
92	-10.0013
stoffe	-10.0015
ori	-10.0015
_5	-10.002
lösung	-10.0021
▁tal	-10.0035
▁informationen	-10.0036
dü	-10.0037
og	-10.0038
geben	-10.0039
wi	-10.004
ili	-10.0044
▁ungefähr	-10.0045
▁studium	-10.0047
▁freund	-10.0053
▁joseph	-10.0053
isches	-10.0053
▁östlich	-10.0055
▁fläche	-10.0056
▁geschäfts	-10.0061
▁lebensmittel	-10.0065
▁300	-10.007
ud	-10.0074
▁denken	-10.0075
▁wuchs	-10.0077
▁technischen	-10.0083
ty	-10.0084
▁doppel	-10.0085
stück	-10.0086
▁1993	-10.0086
▁verwendete	-10.0101
▁maria	-10.0106
▁verein	-10.0106
mut	-10.0107
ziehen	-10.0108
app	-10.011
▁heimat	-10.0114
▁befehl	-10.0115
schnitt	-10.012
▁fernseh	-10.012
▁drittel	-10.0122
sk	-10.0122
▁stellung	-10.0126
▁verkehr	-10.0129
kette	-10.013
84	-10.0133
▁islamische	-10.0136
▁begriffe	-10.014
▁namensgeber	-10.0141
schiff	-10.0144
▁gering	-10.0146
verwaltung	-10.0151
▁kamera	-10.0154
▁hundert	-10.0154
westfalen	-10.0157
62	-10.0159
▁erheblich	-10.0161
▁täglich	-10.0164
württemberg	-10.0166
zone	-10.0167
rück	-10.0169
▁manga	-10.017
▁reduziert	-10.017
berlin	-10.017
▁frequenz	-10.0172
▁kontrolle	-10.018
kl	-10.0181
▁überhaupt	-10.019
▁martin	-10.0191
seit	-10.0194
▁materie	-10.0194
▁beobachtet	-10.0198
▁microsoft	-10.0198
▁kepler	-10.0198
▁mono	-10.02
▁bereit	-10.0207
▁übrigen	-10.0207
▁30.	-10.0216
▁roten	-10.0218
leitung	-10.022
bedingungen	-10.0222
▁unbekannt	-10.0227
▁stattdessen	-10.0227
ationen	-10.0229
▁kloster	-10.0234
ette	-10.0236
zum	-10.0246
▁star	-10.0249
est	-10.025
▁university	-10.0254
▁hollywood	-10.0254
laut	-10.0256
▁zellen	-10.0264
dan	-10.0269
2)	-10.0269
▁spezial	-10.027
arbeiten	-10.0271
ou	-10.0272
▁wissenschaftler	-10.0281
text	-10.0281
organ	-10.0282
▁ideal	-10.0283
▁krebs	-10.0285
▁möglicherweise	-10.0286
▁auseinandersetz	-10.0288
trop	-10.0289
han	-10.0293
▁31.	-10.0295
äre	-10.0296
▁kurze	-10.0299
▁gute	-10.0304
arm	-10.0309
▁schwierig	-10.0311
▁1938	-10.0312
fin	-10.0315
ys	-10.032
43	-10.0323
▁ges	-10.0327
▁erlaubt	-10.0329
ank	-10.0331
bro	-10.0334
greifen	-10.0336
▁weimar	-10.0338
▁temperaturen	-10.0339
▁26.	-10.0342
jahre	-10.035
▁haut	-10.0351
▁genommen	-10.0352
▁stück	-10.0354
▁orts	-10.0356
mag	-10.0356
▁tu	-10.0357
bibliothek	-10.0358
systems	-10.0358
cken	-10.036
▁wiederholt	-10.0371
▁merkel	-10.0372
▁beziehung	-10.0376
▁port	-10.0378
▁sicherheits	-10.0379
▁waffen	-10.0384
▁polizei	-10.0388
cl	-10.0397
▁22.	-10.0397
▁nötig	-10.0397
ance	-10.0397
▁wichtiger	-10.0399
blick	-10.0403
▁tritt	-10.0405
▁ed	-10.0408
anlage	-10.0409
▁strukturen	-10.0413
pflanzen	-10.0414
chte	-10.042
gestellt	-10.0421
weiß	-10.0422
▁mio	-10.0423
bürgermeister	-10.0423
▁information	-10.0426
hand	-10.0426
▁1941	-10.0427
▁1997	-10.0427
lit	-10.0428
bindung	-10.0436
▁arsen	-10.0437
▁infrastruktur	-10.0438
iker	-10.0439
▁unten	-10.044
ox	-10.0443
▁hierzu	-10.0446
vers	-10.0455
▁nordrhein	-10.0456
09	-10.0458
▁altstadt	-10.0462
▁hintergrund	-10.0462
▁gehörten	-10.0463
ano	-10.0464
bu	-10.0465
▁lateinischen	-10.0468
wiegend	-10.0475
linien	-10.0478
▁götter	-10.0478
▁miteinander	-10.0484
▁russland	-10.0484
▁1961	-10.0485
▁christentum	-10.0485
wind	-10.0486
▁paar	-10.049
▁pla	-10.0491
salz	-10.0493
▁wirken	-10.0505
▁neuseeland	-10.0513
▁populär	-10.0513
alle	-10.0513
▁sicher	-10.0513
ologische	-10.0515
▁stimm	-10.0515
▁näher	-10.0516
▁länger	-10.0528
▁heil	-10.0528
▁hanse	-10.0529
▁amts	-10.0533
▁wichtig	-10.0534
treu	-10.0534
lar	-10.0542
▁erscheint	-10.0542
▁begrenzt	-10.0542
masse	-10.0542
▁differenz	-10.0542
▁1939	-10.0543
▁aufnahme	-10.0551
01	-10.0552
▁ältere	-10.0552
▁militärische	-10.0552
▁hätten	-10.0553
tus	-10.0555
▁traf	-10.0555
statt	-10.0556
▁maß	-10.0559
tter	-10.0563
▁zuständig	-10.0565
cha	-10.0568
▁studie	-10.0569
▁private	-10.0569
▁schwerpunkt	-10.057
▁verteilt	-10.0572
▁papst	-10.0578
▁erhöht	-10.0588
erei	-10.0589
▁miss	-10.0591
▁los	-10.0591
fen	-10.0592
▁hör	-10.0595
▁gewisse	-10.0599
▁au	-10.0614
▁blieben	-10.0619
baum	-10.062
▁zeitraum	-10.0622
▁bildete	-10.0623
58	-10.063
▁manchmal	-10.063
▁analyse	-10.063
met	-10.0632
af	-10.0636
▁nachweis	-10.0637
titel	-10.0644
arch	-10.0649
tü	-10.0654
66	-10.0659
▁gezeigt	-10.066
▁geschätzt	-10.066
▁adenauer	-10.066
fälle	-10.066
▁trug	-10.0664
region	-10.0664
▁kulturelle	-10.0667
▁presse	-10.0674
engl	-10.0676
test	-10.0677
▁krankheit	-10.0677
▁sichtbar	-10.0677
tsch	-10.0678
leit	-10.0678
▁hitchcock	-10.0689
▁umgekehrt	-10.0689
▁primär	-10.0689
▁überliefert	-10.0689
▁produkt	-10.0691
▁griechenland	-10.0692
▁fragen	-10.0692
▁ausland	-10.0696
▁schwach	-10.0703
dy	-10.0703
elemente	-10.0706
▁bedingt	-10.0717
▁entscheidung	-10.0717
▁verwenden	-10.0719
▁produktions	-10.0719
▁frühjahr	-10.0721
▁anspruch	-10.0724
▁gene	-10.0724
▁standen	-10.0724
▁fahr	-10.0724
com	-10.0725
ole	-10.0726
▁'	-10.0727
▁bibliothek	-10.073
3)	-10.073
tier	-10.0732
▁französisch	-10.0732
▁linien	-10.0734
▁kino	-10.0734
▁ball	-10.0738
bundes	-10.0743
▁junge	-10.0748
▁kanada	-10.0749
▁bu	-10.075
▁völker	-10.075
low	-10.0753
▁religiöse	-10.0753
stern	-10.0757
▁logik	-10.0761
▁real	-10.0763
ski	-10.0764
sweise	-10.0767
▁my	-10.0774
▁soziale	-10.0775
küste	-10.0778
ille	-10.0779
blätter	-10.078
▁folgten	-10.078
▁oberfläche	-10.0782
▁persönlichkeit	-10.0782
ea	-10.0784
44	-10.0787
▁dauer	-10.0789
▁ly	-10.0791
▁produkte	-10.0793
ären	-10.0794
▁euler	-10.0797
▁tabelle	-10.08
▁entwicklungs	-10.0805
halb	-10.0806
hafen	-10.0809
▁air	-10.081
kla	-10.0818
▁diente	-10.0824
▁arabischen	-10.0828
rum	-10.083
schloss	-10.083
“),	-10.0833
▁mel	-10.0834
▁beschreibt	-10.084
▁bal	-10.0844
bauten	-10.0845
▁antiken	-10.0845
▁fisch	-10.0849
▁graz	-10.0852
rechts	-10.0858
▁code	-10.0859
▁leiter	-10.0861
▁dna	-10.0863
▁einheiten	-10.0865
kom	-10.0868
▁alphabet	-10.0869
anstalt	-10.0869
gebirge	-10.0871
▁45	-10.0881
▁abzu	-10.0884
▁(1	-10.0886
als	-10.0887
hoch	-10.089
▁ständig	-10.0895
reg	-10.0899
▁society	-10.0899
▁windows	-10.0906
▁garten	-10.0907
▁geburt	-10.0913
material	-10.0917
▁ideen	-10.0918
▁aufgabe	-10.0921
▁pf	-10.0925
▁älteren	-10.0927
▁gericht	-10.0928
▁gemessen	-10.0931
▁miet	-10.0935
);	-10.0936
▁23.	-10.0937
▁philipp	-10.0937
▁vo	-10.0938
alt	-10.0941
fähig	-10.0944
54	-10.0947
▁ei	-10.0948
▁at	-10.0948
prozess	-10.0949
▁tanz	-10.0956
▁test	-10.0962
▁phase	-10.0963
▁entwickelten	-10.0963
▁verlor	-10.0966
brechen	-10.0969
versorgung	-10.097
▁brando	-10.097
press	-10.0973
ice	-10.0974
kreuz	-10.0979
▁getreide	-10.0979
anten	-10.098
▁österreichische	-10.098
schaffen	-10.0985
▁goebbels	-10.099
▁kupfer	-10.099
▁treten	-10.0991
▁fritz	-10.0992
▁heiratete	-10.0993
trat	-10.0993
[	-10.0994
▁speziell	-10.0996
▁jazz	-10.1004
▁pol	-10.1005
vgl	-10.1006
▁religions	-10.1009
kanal	-10.101
punkte	-10.1011
42	-10.1017
bin	-10.1017
▁äußerst	-10.1021
▁sozialen	-10.1023
strahlung	-10.1031
▁irak	-10.1032
▁verlag	-10.1033
▁präsidenten	-10.1035
nord	-10.1036
zeichnung	-10.1046
▁vorstellung	-10.1048
▁fein	-10.105
▁vermutet	-10.1051
▁jüdische	-10.1054
▁albert	-10.1057
ting	-10.1059
▁bekam	-10.1059
▁schön	-10.106
ellen	-10.1063
▁video	-10.1063
▁laser	-10.1063
▁könnten	-10.1069
uv	-10.1072
▁serie	-10.1075
▁streit	-10.1075
inus	-10.1076
▁höchst	-10.1077
▁staatliche	-10.108
▁diskutiert	-10.1082
▁erforderlich	-10.1082
▁schröder	-10.1082
▁status	-10.1084
▁gehalten	-10.1085
▁gelb	-10.1089
▁beschäftigt	-10.1089
pel	-10.1089
▁organ	-10.1099
▁rote	-10.1099
emp	-10.1102
ünd	-10.1105
▁angeboten	-10.1109
füll	-10.1111
▁gestalt	-10.1113
▁schlag	-10.1113
▁christlichen	-10.1119
▁glaubens	-10.1122
▁ägypten	-10.1124
▁wirkt	-10.1128
ola	-10.113
▁weisen	-10.1131
▁ergeben	-10.1138
mel	-10.1138
▁innere	-10.1141
▁möglichkeiten	-10.1145
lehre	-10.1146
▁wesen	-10.1149
▁früheren	-10.1159
euro	-10.116
▁gleiche	-10.1165
▁leitung	-10.1167
▁schaffen	-10.1168
▁mathematiker	-10.1172
▁metern	-10.1173
ax	-10.1174
2-	-10.119
zustand	-10.1195
▁nationale	-10.1199
prä	-10.1202
laden	-10.1202
▁stahl	-10.1207
▁führung	-10.1209
▁flugzeug	-10.1209
▁minuten	-10.1214
▁brach	-10.1215
▁innen	-10.1228
qu	-10.1232
▁entwickeln	-10.1237
▁demnach	-10.1261
▁gingen	-10.1263
▁bringen	-10.1265
▁reagiert	-10.1269
▁pri	-10.1269
dt	-10.127
laub	-10.127
▁mor	-10.1271
sie	-10.1272
▁erweitert	-10.1279
hir	-10.128
▁bewusst	-10.128
▁glauben	-10.1281
put	-10.1284
one	-10.1288
▁verlust	-10.1294
▁zumeist	-10.1295
▁mg	-10.1296
▁rasch	-10.1296
reise	-10.1298
▁alkohol	-10.13
▁streng	-10.13
vertrag	-10.1302
ran	-10.1304
lan	-10.1311
▁mitarbeiter	-10.1319
▁cl	-10.1328
▁traditionell	-10.1329
▁atmosphäre	-10.1329
▁asteroiden	-10.1353
▁moral	-10.1357
▁senat	-10.1361
▁mittelmeer	-10.1363
▁maßgeblich	-10.1363
red	-10.1364
▁1975	-10.1364
▁römer	-10.1364
▁tat	-10.1367
▁darf	-10.1367
▁typische	-10.1369
▁van	-10.1374
sh	-10.1378
äl	-10.1379
kr	-10.1382
▁frühe	-10.1389
▁reform	-10.1394
reihe	-10.1395
▁nämlich	-10.1395
▁gmbh	-10.1395
▁viertel	-10.1398
▁texte	-10.1398
verbände	-10.1399
▁aufgebaut	-10.1405
ions	-10.1409
bl	-10.1416
▁ausgabe	-10.142
▁nationen	-10.142
▁dos	-10.1436
ew	-10.1438
ita	-10.1439
gesetzt	-10.1439
itu	-10.1447
leute	-10.1448
▁roh	-10.1454
▁blatt	-10.1455
▁diverse	-10.146
▁1918	-10.1461
▁verstanden	-10.1461
iii	-10.1465
▁besten	-10.1486
▁zukunft	-10.1487
▁gegenstand	-10.1489
▁methan	-10.149
ata	-10.1492
teilen	-10.1495
landschaft	-10.1503
▁is	-10.1512
▁japanischen	-10.1518
losen	-10.152
▁calcium	-10.1523
▁25.	-10.1523
▁1969	-10.1524
bal	-10.1524
▁vielmehr	-10.1524
▁1919	-10.1525
▁verb	-10.1532
lock	-10.1532
▁mission	-10.1532
kehr	-10.154
▁preußen	-10.1547
aff	-10.1552
▁universitäten	-10.1555
▁komplett	-10.1555
▁tr	-10.1556
mannschaft	-10.1559
▁usw	-10.1559
▁sprechen	-10.1564
ji	-10.1564
▁ernährung	-10.1567
schläge	-10.1582
51	-10.1583
eshalb	-10.1587
gemeinde	-10.1588
▁mer	-10.1589
▁iv	-10.1593
thal	-10.1594
▁meta	-10.1595
▁mittelalterlich	-10.1597
▁anschluss	-10.1599
rik	-10.1614
▁frieden	-10.1615
▁falsch	-10.1616
größe	-10.1619
straßen	-10.1619
▁gemeinsamen	-10.1621
genommen	-10.1621
▁bündnis	-10.1628
seitig	-10.1634
▁christen	-10.1634
anhand	-10.1639
lung	-10.164
ram	-10.1646
▁boot	-10.1647
▁para	-10.1649
▁geschichts	-10.1653
cent	-10.1655
▁kr	-10.1657
▁28	-10.1664
▁übergang	-10.1667
▁wein	-10.1669
steig	-10.167
▁farbe	-10.1671
▁beste	-10.1674
standard	-10.1677
wende	-10.1678
▁bit	-10.1679
geld	-10.1682
200	-10.1685
▁1979	-10.1686
stätte	-10.1693
gal	-10.1693
▁luxemburg	-10.1701
kampf	-10.1706
▁darstellen	-10.1706
süd	-10.1707
▁typisch	-10.1709
ruh	-10.1709
gezogen	-10.1709
▁pass	-10.1711
▁kohlenstoff	-10.1713
mil	-10.1713
▁ausbau	-10.1716
▁geheim	-10.1718
▁bielefeld	-10.1718
▁ozean	-10.1718
magazin	-10.1718
▁elefanten	-10.1719
▁protest	-10.1722
geschäft	-10.1724
flächen	-10.1724
gänge	-10.1726
▁linux	-10.1731
▁filmen	-10.1734
▁kind	-10.1735
▁wer	-10.1737
▁verhältnisse	-10.1738
▁zugang	-10.1742
cc	-10.1743
reichen	-10.1744
▁verband	-10.1748
▁argentinien	-10.1751
wärts	-10.1751
▁gefahr	-10.1753
▁pc	-10.1758
▁tagen	-10.1762
▁vieler	-10.1763
▁bürgerkrieg	-10.1763
▁cor	-10.1766
▁bislang	-10.1774
▁umfang	-10.1775
▁28.	-10.1775
günstig	-10.1777
find	-10.1777
dis	-10.178
▁zerfall	-10.178
▁zivil	-10.1784
▁cd	-10.1785
▁anwendungen	-10.1789
falls	-10.179
▁epi	-10.179
▁col	-10.1791
▁eigenschaft	-10.1791
lon	-10.1794
garten	-10.1794
steigen	-10.1795
▁tele	-10.1797
▁wichtigen	-10.1797
▁magnesium	-10.1799
▁/	-10.1809
pha	-10.1811
eisen	-10.1811
not	-10.1812
▁beliebt	-10.1812
▁bundestagswahl	-10.1817
▁oscar	-10.1817
▁bur	-10.1818
▁träger	-10.1823
▁patent	-10.1824
eten	-10.1829
▁erhält	-10.1832
are	-10.1835
▁besucher	-10.1837
weisung	-10.1837
▁[...]	-10.1837
▁com	-10.1838
):	-10.184
fo	-10.1845
ehr	-10.1848
▁madonna	-10.185
▁1973	-10.1851
▁()	-10.1851
▁ernannt	-10.1854
▁hoher	-10.1857
link	-10.1858
▁spätere	-10.1858
teile	-10.1859
sammlung	-10.1873
▁befand	-10.1874
▁veränderungen	-10.1878
▁italienischen	-10.1879
▁stabil	-10.1879
gh	-10.188
astronom	-10.1882
▁1943	-10.1884
▁1983	-10.1884
▁werken	-10.1886
ios	-10.189
cal	-10.189
▁karriere	-10.1894
▁provinzen	-10.1894
▁grundlagen	-10.1894
▁neuzeit	-10.1896
ec	-10.19
ical	-10.19
▁nachbar	-10.1901
ierende	-10.1903
maß	-10.1907
+	-10.1909
verbindung	-10.1909
▁fürsten	-10.1916
▁fallen	-10.1916
▁nsdap	-10.1917
gl	-10.1918
ierbar	-10.192
▁südlichen	-10.1922
▁anzu	-10.1924
pass	-10.1925
hilfe	-10.193
▁institut	-10.1936
▁kombination	-10.1938
▁jüdischen	-10.1939
din	-10.1942
▁auflösung	-10.1951
▁letztlich	-10.1951
▁helium	-10.1952
▁neues	-10.1953
▁formal	-10.1965
▁gra	-10.1966
▁ausgezeichnet	-10.1967
gu	-10.1967
gebracht	-10.1969
gott	-10.1971
▁englische	-10.1974
▁gr	-10.1975
▁zusätzliche	-10.1978
▁beruht	-10.1985
▁einrichtungen	-10.1985
▁hierfür	-10.1989
▁bekanntesten	-10.199
pri	-10.1991
ique	-10.1992
reiche	-10.1995
▁27.	-10.1998
▁eigentlich	-10.201
▁staates	-10.2011
▁stoffe	-10.2015
amerikanische	-10.2018
spalt	-10.2018
▁bulgarien	-10.2018
▁autobahn	-10.2019
▁1955	-10.2019
▁1971	-10.2019
▁bieten	-10.2019
ogene	-10.202
▁award	-10.202
maschinen	-10.2021
ierenden	-10.2021
ois	-10.2027
bevölkerung	-10.2028
wart	-10.2029
▁militärischen	-10.2029
▁oper	-10.2029
▁29.	-10.203
▁maßnahmen	-10.203
▁lokal	-10.2034
schau	-10.2043
ander	-10.2048
ras	-10.2049
▁klasse	-10.205
▁westlich	-10.2051
▁integriert	-10.2053
▁geo	-10.2055
▁milch	-10.2056
▁verfasste	-10.2057
▁konstruktion	-10.2057
phase	-10.2065
▁zugeordnet	-10.2087
▁weich	-10.2093
▁gewinnen	-10.2099
▁bund	-10.21
▁strecke	-10.2109
trag	-10.211
▁caesar	-10.2113
▁praktisch	-10.2115
ssen	-10.212
▁leonardo	-10.212
▁1984	-10.2121
▁inhalt	-10.2122
▁ursprung	-10.2123
▁verboten	-10.2125
inger	-10.2129
ford	-10.213
▁schwester	-10.2132
grenz	-10.2137
04	-10.2152
▁derzeit	-10.2154
▁patienten	-10.2154
▁florenz	-10.2155
gramm	-10.216
▁abgeschlossen	-10.216
▁neutronen	-10.216
▁systeme	-10.2178
▁newton	-10.2179
stärke	-10.2187
sektor	-10.2188
▁elf	-10.2188
▁verursacht	-10.2189
▁24.	-10.219
▁null	-10.2192
gehend	-10.2198
▁schiffe	-10.2198
▁fällt	-10.2199
äh	-10.2201
▁anerkennung	-10.2208
▁forderte	-10.2212
geführt	-10.2213
europäisch	-10.2214
▁louis	-10.2214
nischen	-10.2216
lässlich	-10.2223
schließlich	-10.2224
▁preußische	-10.2233
▁erkenntnis	-10.2233
▁radikal	-10.2235
physik	-10.2238
▁positiv	-10.224
▁mil	-10.224
▁binnen	-10.2242
gan	-10.2247
möglichst	-10.2247
▁qualität	-10.2249
uß	-10.225
▁tun	-10.2252
handels	-10.2254
▁1953	-10.2259
▁gesetze	-10.226
▁versuche	-10.2263
▁kre	-10.2267
▁dauerhaft	-10.2278
▁erfolgen	-10.2278
freie	-10.2281
isse	-10.2281
▁%.	-10.2284
wachsen	-10.2286
05	-10.2286
stätten	-10.229
▁begonnen	-10.2293
nummer	-10.2293
▁1968	-10.2293
▁1972	-10.2293
▁inflation	-10.2296
nehmen	-10.2296
stamm	-10.2297
hor	-10.2299
▁verkauft	-10.2301
häuser	-10.2307
▁jupiter	-10.2308
achse	-10.2308
▁reichen	-10.2309
▁wahlen	-10.231
▁27	-10.2314
52	-10.2323
meisterschaft	-10.2323
kosten	-10.2325
▁annahme	-10.2326
▁1987	-10.2328
▁gedanken	-10.2329
szeit	-10.2334
▁ereignisse	-10.2338
▁spiele	-10.234
▁schiff	-10.2344
▁lautet	-10.2344
▁kauf	-10.2346
▁eingestellt	-10.2348
08	-10.235
cker	-10.2354
▁sach	-10.2354
▁treffen	-10.2356
▁aufge	-10.2362
▁1962	-10.2363
tat	-10.2364
▁abgeleitet	-10.2366
▁wappen	-10.2367
▁american	-10.2369
▁berechnung	-10.2373
produkt	-10.2379
▁linken	-10.2382
methode	-10.2383
▁stuttgart	-10.2385
▁lebte	-10.2387
py	-10.2395
▁dampf	-10.2395
▁ibm	-10.2398
▁tourismus	-10.2406
▁...	-10.2408
turm	-10.2409
riss	-10.2417
kol	-10.2419
quelle	-10.2422
▁alles	-10.2425
win	-10.2426
bon	-10.2426
kandidat	-10.2429
effekt	-10.2435
enberg	-10.2437
▁zell	-10.2439
▁spiegel	-10.2444
▁hermann	-10.2445
▁//	-10.2449
▁entdeckte	-10.2461
siedlung	-10.2462
▁mali	-10.2464
▁konzentration	-10.2465
iß	-10.2468
▁goldenen	-10.2469
▁bezieht	-10.2471
▁ser	-10.2476
pt	-10.248
▁küste	-10.2482
▁digital	-10.2485
▁bedeutendsten	-10.2487
▁ä	-10.2487
bürger	-10.2489
▁israel	-10.2491
förmig	-10.2495
lau	-10.2497
halten	-10.2502
▁zeitgenössische	-10.2504
▁1956	-10.2504
▁1947	-10.2504
▁1988	-10.2504
▁alpen	-10.2507
blatt	-10.2509
sol	-10.251
▁basel	-10.2512
wege	-10.2513
griff	-10.2514
▁zusammensetzung	-10.2517
▁nürnberg	-10.2518
▁fre	-10.2518
▁programme	-10.2518
ov	-10.2521
▁wörter	-10.2526
▁36	-10.2531
line	-10.2533
▁medium	-10.2537
eder	-10.2539
chlorid	-10.2539
fahren	-10.254
tiere	-10.2541
▁64	-10.2544
▁nu	-10.2545
▁bindung	-10.2545
▁vorstellungen	-10.2546
▁rechen	-10.2552
tis	-10.2562
och	-10.2564
▁tages	-10.2565
▁japanische	-10.2568
▁entscheidend	-10.2575
▁befasst	-10.2575
strich	-10.2575
▁eroberung	-10.2575
▁1974	-10.2576
▁schweden	-10.2576
▁kommunikation	-10.2577
▁kehrte	-10.2577
▁einfache	-10.2578
lingen	-10.2581
▁mittleren	-10.2582
▁erz	-10.2583
my	-10.2584
▁web	-10.2588
stheorie	-10.2589
▁gesetzt	-10.2598
▁ir	-10.2599
▁latein	-10.2601
städte	-10.2601
sverfahren	-10.2601
▁staatlichen	-10.2604
▁lehrer	-10.2605
autor	-10.2606
▁risiko	-10.2607
kräfte	-10.2609
▁voneinander	-10.2611
▁ausreichend	-10.2612
▁basiert	-10.2613
▁kritiker	-10.2615
▁verlassen	-10.2617
frage	-10.2619
schritt	-10.262
▁ausgebaut	-10.262
▁höhepunkt	-10.2621
ruf	-10.2625
▁auflage	-10.2628
▁brenn	-10.2631
▁abschluss	-10.2633
verhältnisse	-10.2633
graf	-10.2643
▁schlüssel	-10.2646
gewächse	-10.2647
▁netzwerk	-10.2648
oren	-10.2648
▁verlegt	-10.2649
stoß	-10.2652
▁ruf	-10.2656
▁zeitschrift	-10.2657
,0	-10.2659
zy	-10.2667
▁richtig	-10.2668
▁wachsende	-10.2671
ini	-10.2672
▁übersetzt	-10.2674
▁tausend	-10.2676
▁wesentliche	-10.2676
▁kolonial	-10.2678
zeug	-10.268
▁besonderheit	-10.2683
▁leibniz	-10.2683
▁interpretation	-10.2683
▁geriet	-10.2683
▁med	-10.2684
orte	-10.2685
krat	-10.2693
▁genannte	-10.2694
▁einzu	-10.2694
▁meeres	-10.2697
bericht	-10.2698
eb	-10.2698
▁eck	-10.2706
streit	-10.2706
▁fer	-10.271
▁fran	-10.2716
ration	-10.2717
▁mobil	-10.272
▁mögliche	-10.2723
▁kü	-10.2724
wissenschaftler	-10.2725
▁beschrieb	-10.2731
▁begründet	-10.2733
▁erweiterung	-10.2733
▁endete	-10.2738
reaktion	-10.2741
szene	-10.2747
▁gezählt	-10.275
schriften	-10.2755
▁crowley	-10.2755
▁nennen	-10.2755
smittel	-10.2763
▁dollar	-10.2767
▁liebe	-10.2769
▁abend	-10.2771
weich	-10.2776
▁science	-10.2778
▁übersetzung	-10.2784
scher	-10.2785
▁einwohnerzahl	-10.2787
▁geistes	-10.279
▁lebewesen	-10.2792
▁1982	-10.2793
▁breiten	-10.2794
▁lizenz	-10.2796
herr	-10.2798
▁therapie	-10.28
▁lehnte	-10.2803
til	-10.2804
▁lebten	-10.2804
▁ufer	-10.2806
marsch	-10.2807
▁doppelt	-10.2808
filme	-10.281
▁flach	-10.2814
▁kühl	-10.2816
▁150	-10.2816
hör	-10.2817
ographie	-10.2817
▁leistung	-10.2818
gy	-10.282
artikel	-10.2821
▁wende	-10.2822
ins	-10.2824
▁gespräch	-10.2826
▁angebot	-10.2828
▁besaß	-10.2828
wälder	-10.2828
▁hardware	-10.2829
▁katholischen	-10.2831
▁offenbar	-10.2832
▁mir	-10.2836
konzept	-10.284
▁ruhe	-10.284
ufer	-10.2842
kor	-10.2846
▁franken	-10.2849
▁beton	-10.2856
▁schlug	-10.2857
schreibung	-10.2858
▁pre	-10.2863
▁can	-10.2865
▁kritisiert	-10.2867
▁philosoph	-10.2871
▁blick	-10.2874
▁jeden	-10.2874
▁pat	-10.2876
▁solcher	-10.2878
adresse	-10.2881
▁komplexen	-10.2884
yo	-10.2886
▁griechische	-10.2886
▁verließ	-10.2888
▁offizielle	-10.2891
illa	-10.2891
ep	-10.2891
▁strahlung	-10.29
▁verhindern	-10.2902
▁belgien	-10.2902
▁königlich	-10.2903
▁periode	-10.2903
▁besetzt	-10.2905
computer	-10.2916
▁seltener	-10.2921
▁professor	-10.2922
▁konsum	-10.2924
▁personal	-10.2925
▁braun	-10.2925
▁dürfen	-10.2926
▁prozesse	-10.2927
▁schwere	-10.2929
litz	-10.2933
av	-10.2936
▁afghanistan	-10.2939
▁angeblich	-10.2939
bezeichnung	-10.294
▁1900	-10.2941
▁platon	-10.2942
▁wahrheit	-10.2943
kin	-10.2944
▁nickel	-10.2944
▁hel	-10.2949
isierten	-10.2949
typen	-10.295
▁hitlers	-10.2951
ban	-10.2952
▁lateinische	-10.2954
▁op	-10.2959
▁inner	-10.2962
mitglieder	-10.2964
▁kra	-10.2969
▁generell	-10.2976
▁(16	-10.2979
▁forscher	-10.2983
ré	-10.2983
▁super	-10.2989
▁hersteller	-10.299
▁reg	-10.2993
su	-10.2994
▁schlecht	-10.3008
tru	-10.3014
▁1942	-10.3014
isation	-10.3018
ministerium	-10.3021
lim	-10.3024
▁nachrichten	-10.3024
▁rechner	-10.3029
▁city	-10.3029
▁ap	-10.3032
▁griechisch	-10.3032
▁maximal	-10.3036
▁übertragung	-10.3037
▁katholische	-10.3038
▁ansicht	-10.3038
kirchen	-10.3038
▁val	-10.3038
weisen	-10.3042
versuch	-10.3046
-1	-10.3047
▁blätter	-10.3049
▁1981	-10.3052
▁maschine	-10.3053
räte	-10.3056
▁offiziellen	-10.3061
üh	-10.3067
ball	-10.307
hy	-10.307
▁ursache	-10.3075
raten	-10.3079
▁gestaltet	-10.3082
▁mont	-10.3091
▁erkenntnisse	-10.3094
kat	-10.3098
▁beitrag	-10.3101
▁mittlere	-10.3104
vereinigung	-10.3107
▁möglichen	-10.3109
▁alternative	-10.3115
▁nördlichen	-10.3117
ala	-10.3121
▁gekennzeichnet	-10.3126
▁hadrian	-10.3126
waffen	-10.3135
▁multi	-10.3143
▁bedarf	-10.3145
mb	-10.315
einheiten	-10.3152
krise	-10.3155
▁wellen	-10.3158
kam	-10.3158
steuer	-10.316
▁statistisch	-10.3165
fassung	-10.3166
▁verbreitete	-10.3166
▁sk	-10.3167
dar	-10.3168
▁trennung	-10.317
▁östlichen	-10.3175
cu	-10.3177
format	-10.3178
▁verstehen	-10.3179
▁aufzu	-10.3182
▁bewusstsein	-10.3183
eis	-10.3188
luft	-10.3189
▁lüneburg	-10.3189
▁kurs	-10.3191
▁unver	-10.3192
▁vorgänger	-10.3195
▁asien	-10.3197
▁löste	-10.32
▁bevorzugt	-10.3202
▁1985	-10.3203
hang	-10.3204
▁verständnis	-10.3206
▁datei	-10.3206
serie	-10.3208
oni	-10.3211
▁einiger	-10.3212
▁mathematische	-10.3212
▁quer	-10.3212
pal	-10.3214
änderung	-10.3224
sgebiet	-10.3224
▁verliehen	-10.3225
ama	-10.3228
▁abbildung	-10.3236
fried	-10.3236
▁vitamin	-10.3241
▁vorgesehen	-10.3241
▁zürich	-10.3241
▁vergangenheit	-10.3241
▁1966	-10.3241
▁1935	-10.3242
for	-10.3243
kopf	-10.3247
▁spitze	-10.3248
▁schuf	-10.325
▁bahnhof	-10.3252
eth	-10.3255
odi	-10.3265
dor	-10.3269
rech	-10.3272
▁fossil	-10.3277
moschee	-10.3277
▁hängt	-10.3279
▁ph	-10.3279
▁fertiggestellt	-10.3279
▁norm	-10.3282
▁exakt	-10.3288
▁wetter	-10.3288
▁intern	-10.3289
▁eingerichtet	-10.3293
▁normal	-10.3295
▁opposition	-10.3296
▁zeitweise	-10.3297
aktion	-10.3299
▁unterschiede	-10.3308
▁trag	-10.3312
100	-10.3316
▁1976	-10.3318
▁auswirkungen	-10.3318
▁zweifel	-10.3323
▁einzigen	-10.3324
▁betroffen	-10.3334
▁arzt	-10.3336
▁rezeption	-10.3345
▁entfernung	-10.3347
▁stärke	-10.3351
▁uns	-10.3351
zunehmen	-10.3353
sekretär	-10.3356
▁identität	-10.3356
▁gegründete	-10.3358
fließ	-10.3359
07	-10.3361
spiele	-10.3363
▁sofort	-10.3365
▁sonstige	-10.337
▁reicht	-10.3373
▁mitgliedern	-10.3373
▁volumen	-10.338
▁bauern	-10.3384
▁angriff	-10.3389
▁planung	-10.3389
▁vereinten	-10.3394
▁1967	-10.3395
▁blau	-10.3395
nu	-10.3396
▁leber	-10.3398
▁nordsee	-10.3401
▁kennen	-10.3401
▁höhen	-10.3404
tieren	-10.3406
sinn	-10.3408
▁firma	-10.3409
▁erhoben	-10.341
▁sta	-10.3412
▁lauf	-10.3413
aktiv	-10.3414
▁unterhalb	-10.3416
sozial	-10.3417
▁christliche	-10.342
▁begriffs	-10.3421
getreten	-10.3423
liberal	-10.3424
iti	-10.3426
oid	-10.3426
wagen	-10.3427
▁vogel	-10.343
ile	-10.343
figur	-10.343
▁gebräuchlich	-10.3434
▁scheiterte	-10.3434
▁1934	-10.3435
▁1929	-10.3435
abel	-10.344
▁aufstieg	-10.3441
▁christi	-10.3443
▁marine	-10.3448
▁bus	-10.3449
grenzen	-10.3455
aut	-10.3461
bre	-10.3463
zelle	-10.3465
will	-10.3471
▁chemisch	-10.3471
▁1952	-10.3473
schirm	-10.3474
▁amtszeit	-10.3478
sehen	-10.348
▁anime	-10.3483
christ	-10.3487
sort	-10.349
▁erfolge	-10.349
▁flüssigkeit	-10.3493
rei	-10.3494
▁bro	-10.3495
▁organisiert	-10.3503
▁kaisers	-10.3506
▁beschlossen	-10.3506
verteilung	-10.3508
maßnahmen	-10.3509
▁erstreckt	-10.3512
▁jetzt	-10.3512
▁1977	-10.3513
post	-10.3513
▁elektrischen	-10.3523
▁elektro	-10.3528
▁darstellt	-10.3533
▁auftritt	-10.3536
ub	-10.3539
▁zentralen	-10.3541
▁kontinent	-10.3543
06	-10.3545
▁75	-10.3551
▁erklären	-10.3551
▁helgoland	-10.3551
strahl	-10.3551
▁ermöglichen	-10.3551
▁zuschauer	-10.3552
▁1954	-10.3552
▁1986	-10.3552
▁wall	-10.3556
▁bildeten	-10.3558
▁umfangreiche	-10.3559
▁renaissance	-10.3559
▁leipziger	-10.3561
▁niederlage	-10.3562
▁bl	-10.3564
▁klassen	-10.3571
▁fett	-10.3577
5.000	-10.3577
rats	-10.3577
▁sonst	-10.3578
col	-10.3582
gra	-10.3583
▁fla	-10.3585
flu	-10.3588
▁jahrzehnten	-10.3591
▁erfüllt	-10.3591
▁brutto	-10.3592
▁darmstadt	-10.3593
englisch	-10.3596
gehör	-10.3597
▁quelle	-10.3598
ella	-10.3602
gesellschaften	-10.3602
▁chinesischen	-10.3604
▁ti	-10.3607
gr	-10.3609
▁münch	-10.3613
bil	-10.3617
star	-10.3619
ähr	-10.362
▁änderung	-10.3624
gold	-10.363
▁augustus	-10.363
▁sämtliche	-10.363
▁scheint	-10.3632
▁bibel	-10.3636
▁album	-10.3638
heute	-10.3639
▁bezirk	-10.3639
groß	-10.3641
▁atome	-10.3641
spannung	-10.3643
main	-10.3644
▁spe	-10.3644
binde	-10.3652
▁bereichen	-10.3658
dra	-10.3658
act	-10.3663
▁ac	-10.3668
▁ausgehend	-10.3668
▁nietzsche	-10.367
▁dünn	-10.367
▁turm	-10.367
▁1965	-10.3671
bogen	-10.3672
▁heftig	-10.3672
ria	-10.3675
ace	-10.3676
▁bruch	-10.3677
▁brand	-10.3682
element	-10.3683
▁fischer	-10.3684
programme	-10.3686
bio	-10.3686
▁durchschnitt	-10.37
therapie	-10.3701
▁aspekte	-10.3703
▁bekannteste	-10.3704
spezifisch	-10.3706
▁bestimmen	-10.3707
ös	-10.371
▁galilei	-10.371
▁knochen	-10.3714
▁musiker	-10.3721
gelassen	-10.3722
▁evolution	-10.3723
vier	-10.3725
▁sammel	-10.3727
sdorf	-10.3728
zier	-10.3737
°	-10.3742
alter	-10.3746
▁verhindert	-10.375
▁konzentriert	-10.3751
▁1963	-10.3751
▁bewegen	-10.3752
▁ärzte	-10.3754
▁wahrnehmung	-10.3754
▁traditionellen	-10.3755
gliederung	-10.3756
krank	-10.3763
auer	-10.3765
▁design	-10.3766
pan	-10.3767
van	-10.3777
ström	-10.378
objekt	-10.3784
▁fin	-10.3784
▁wechselwirkung	-10.3788
▁qu	-10.3788
▁aldi	-10.3789
▁gesundheits	-10.3789
▁kommunal	-10.379
▁experiment	-10.379
ante	-10.379
▁1936	-10.3792
▁kontext	-10.3793
▁(2	-10.3802
stä	-10.3803
lex	-10.3806
kurs	-10.3813
▁durchaus	-10.3816
▁herrschafts	-10.3818
ziel	-10.3822
▁mais	-10.3823
▁gelände	-10.3825
▁liefert	-10.3827
▁massiv	-10.3828
nie	-10.383
▁ammoniak	-10.3831
▁kroatien	-10.3831
▁zentimeter	-10.3831
▁1932	-10.3832
partner	-10.3835
▁korrekt	-10.3841
lagen	-10.3841
▁geräte	-10.3847
kritik	-10.3848
▁400	-10.385
▁spuren	-10.3852
hafte	-10.3854
▁planck	-10.3861
▁gespielt	-10.3861
inter	-10.3862
▁nachfolge	-10.3863
▁mechanik	-10.3865
ull	-10.3866
kaiser	-10.3866
▁münzen	-10.387
▁1978	-10.3873
llen	-10.3873
▁1964	-10.3874
güter	-10.3874
nah	-10.3874
▁positive	-10.3875
kasse	-10.3882
▁chi	-10.3888
▁schließen	-10.389
▁wollen	-10.3892
bestand	-10.3893
mengen	-10.3897
adi	-10.3903
▁abs	-10.3906
geist	-10.3909
▁berechnet	-10.3913
▁abgrenzung	-10.3913
▁tatsache	-10.3913
ausgabe	-10.3915
▁dinge	-10.3915
▁erkannte	-10.3919
bereiche	-10.3924
ray	-10.3924
spor	-10.3926
▁iod	-10.3929
▁eth	-10.3929
▁religionen	-10.393
▁diskussion	-10.3933
lebt	-10.3934
▁han	-10.3938
▁bre	-10.3938
▁german	-10.3938
▁bischof	-10.3938
witz	-10.3938
produkte	-10.394
ura	-10.394
▁längere	-10.3941
geräte	-10.3949
▁telefon	-10.3949
wörter	-10.395
lek	-10.3951
liga	-10.3953
▁ergänzt	-10.3954
▁faraday	-10.3954
▁tau	-10.3956
gat	-10.3959
oberfläche	-10.396
▁umlauf	-10.3964
▁verfügbar	-10.3966
ht	-10.3968
▁erbaut	-10.3976
cur	-10.3979
stieg	-10.3979
familie	-10.3987
wendung	-10.399
att	-10.399
version	-10.3993
▁dänemark	-10.3995
▁kafka	-10.3995
▁gehirn	-10.3995
▁religiösen	-10.3996
pflanze	-10.3999
▁ingenieur	-10.3999
▁abhängigkeit	-10.4002
zog	-10.4011
▁todes	-10.4015
ym	-10.4016
▁kaiserliche	-10.4019
fang	-10.4019
▁modelle	-10.4023
spieler	-10.4024
▁farben	-10.4025
▁einflüsse	-10.403
rhein	-10.4031
▁genaue	-10.4032
spann	-10.4032
▁geplant	-10.4032
▁amerikanische	-10.4034
▁geometrie	-10.4035
▁karls	-10.4035
periode	-10.4036
▁dominiert	-10.4036
▁1957	-10.4037
▁erfindung	-10.4047
▁amerika	-10.4049
▁gast	-10.4052
cm	-10.4066
▁dach	-10.4071
▁systems	-10.4073
▁söhne	-10.4078
▁spätesten	-10.4078
▁zusammengefasst	-10.4078
▁erzeugen	-10.4079
kult	-10.4085
▁schau	-10.4087
lip	-10.4089
▁etc	-10.4093
▁begannen	-10.4096
▁bereiche	-10.4099
ender	-10.4104
▁anbau	-10.4109
▁kan	-10.411
▁weltkriegs	-10.4111
termin	-10.4116
▁bezeichnungen	-10.4119
analyse	-10.4119
▁gleichnamige	-10.4119
▁unendlich	-10.412
▁1914	-10.4121
▁arm	-10.4121
▁gattungen	-10.4121
gunsten	-10.4123
▁uran	-10.4125
cycl	-10.4126
▁universitäts	-10.4127
▁hält	-10.4132
▁funk	-10.4134
▁fo	-10.4134
pflicht	-10.4136
▁kritisch	-10.4138
raub	-10.4138
▁kult	-10.414
▁ak	-10.4144
fre	-10.4145
▁coburg	-10.4148
▁napoleon	-10.4154
wirken	-10.4154
▁neckar	-10.4155
▁gesellschafts	-10.4156
misch	-10.4157
▁gestaltung	-10.416
ies	-10.4161
▁geb	-10.4161
▁unterteilt	-10.4162
▁zerstörung	-10.4162
▁mrd	-10.4162
▁benutzer	-10.4164
zehn	-10.4164
vent	-10.4169
ru	-10.4171
▁schweren	-10.4173
▁bezeichnen	-10.4174
ato	-10.4178
▁reichstag	-10.4179
▁durchmesser	-10.418
kreislauf	-10.4182
takt	-10.4184
▁letztere	-10.4186
can	-10.4188
▁betriebs	-10.4189
▁figuren	-10.4191
▁gekommen	-10.4194
▁ursprünglichen	-10.4199
▁jan	-10.4202
▁gesch	-10.4203
▁ip	-10.4203
▁hektar	-10.4203
▁honecker	-10.4203
▁1958	-10.4204
hä	-10.4208
▁frankreichs	-10.4208
▁gewinnung	-10.4218
▁fluor	-10.4228
▁maße	-10.4228
ada	-10.4235
▁bewohner	-10.4238
▁mangel	-10.4238
▁(15	-10.4244
wehr	-10.4244
▁umsetzung	-10.4244
▁zugänglich	-10.4245
▁systematik	-10.4245
eg	-10.4248
verarbeitung	-10.4248
▁methanol	-10.4249
▁kenn	-10.4251
cd	-10.4252
▁erkannt	-10.4255
▁aktuelle	-10.4256
stufe	-10.4257
bezüglich	-10.4264
verhältnis	-10.4269
ara	-10.427
gegeben	-10.4274
▁schmelz	-10.4279
▁gefördert	-10.4288
präsident	-10.4289
▁darwin	-10.429
▁marken	-10.429
bücher	-10.4291
▁hilfs	-10.4292
▁gipfel	-10.4294
▁erhielten	-10.4298
pot	-10.4303
kul	-10.4307
▁historiker	-10.4311
▁schluss	-10.4312
▁museen	-10.4312
▁mode	-10.4314
mes	-10.4316
regeln	-10.4322
ico	-10.4329
▁substanz	-10.433
stimm	-10.433
▁medici	-10.4331
▁flüsse	-10.4331
stan	-10.4331
▁etabliert	-10.4331
▁argument	-10.4334
wahr	-10.4335
▁alters	-10.434
▁these	-10.4341
wal	-10.4342
▁universal	-10.4347
▁wurzel	-10.4348
▁hochschule	-10.4348
▁meister	-10.4348
▁besuch	-10.4352
▁isotope	-10.4352
▁dean	-10.4353
▁comic	-10.4355
ali	-10.4357
▁zi	-10.4357
▁koran	-10.4362
top	-10.4365
▁operation	-10.4366
▁sin	-10.437
abhängig	-10.437
▁direkte	-10.4374
bringen	-10.4377
ld	-10.4377
▁wien	-10.438
▁ben	-10.4382
▁lokale	-10.4382
▁wachstum	-10.4384
▁haltung	-10.4385
▁kontinuierlich	-10.4387
▁weite	-10.4389
▁fleisch	-10.439
schulen	-10.4392
▁ließen	-10.4392
▁verwendeten	-10.4399
▁gl	-10.44
▁wander	-10.4402
stab	-10.4402
▁nahmen	-10.4405
elli	-10.4407
alität	-10.441
▁frucht	-10.4411
▁landschaft	-10.4411
▁münz	-10.4412
▁bestehende	-10.4414
▁gustav	-10.4416
▁faktor	-10.4422
gewicht	-10.4426
▁negativ	-10.4442
gebieten	-10.4442
▁grönland	-10.4446
▁physikalische	-10.4452
▁ch	-10.4458
▁geschützt	-10.4461
▁mitteleuropa	-10.4461
ppel	-10.4461
▁verläuft	-10.4463
izi	-10.4467
handlung	-10.4468
▁alternativ	-10.447
▁gall	-10.4472
etz	-10.4478
wellen	-10.4482
▁funde	-10.4483
▁schalt	-10.4483
feier	-10.4484
▁leiden	-10.4486
▁export	-10.4489
tanz	-10.4492
▁zweier	-10.4493
beute	-10.4494
▁niedriger	-10.4498
arbeiter	-10.4499
▁kleineren	-10.4504
▁lernte	-10.4507
▁million	-10.4508
▁kulturellen	-10.4508
vermögen	-10.451
münzen	-10.4511
▁beliebig	-10.4513
▁ausgerichtet	-10.4514
▁verbot	-10.4515
▁wei	-10.4519
▁fehlt	-10.452
▁hydro	-10.4521
▁hessen	-10.4522
▁berichtet	-10.4523
▁gewerbe	-10.4524
▁hinein	-10.4526
nau	-10.4532
treffen	-10.4537
▁besatzung	-10.4542
sein	-10.4544
mont	-10.4546
▁rückkehr	-10.4547
▁1925	-10.4548
▁haft	-10.4549
ula	-10.455
▁gewissen	-10.4551
▁bezogen	-10.4551
berger	-10.4563
▁rohstoff	-10.4564
weil	-10.4565
echt	-10.4568
▁stadtteile	-10.4572
wan	-10.4575
▁schwarzen	-10.4576
▁gewinn	-10.4578
▁absolute	-10.4578
▁häufiger	-10.4581
▁neo	-10.4582
ckel	-10.4587
▁politiker	-10.4587
▁chávez	-10.4589
konzern	-10.4591
▁1926	-10.4591
▁informatik	-10.4591
▁identisch	-10.4593
▁vulkan	-10.4594
▁theoretisch	-10.4596
sprozess	-10.4596
▁fernsehen	-10.4604
▁zugelassen	-10.4605
deutscher	-10.4606
trans	-10.4608
az	-10.4614
▁beschäftigte	-10.4616
▁generation	-10.4616
▁protein	-10.4619
▁gewässer	-10.4622
▁polar	-10.4625
ish	-10.4628
samt	-10.4634
▁ansatz	-10.464
itter	-10.4641
fluorid	-10.4643
▁pariser	-10.4644
els	-10.4645
zusetzen	-10.4647
plätze	-10.4647
▁schneller	-10.4652
▁top	-10.4653
bb	-10.4654
wohn	-10.4655
▁geh	-10.4655
uel	-10.4657
▁umgesetzt	-10.4657
▁demokratischen	-10.4663
_6	-10.4669
02	-10.467
▁helsinki	-10.4677
▁cosimo	-10.4677
wanderung	-10.4678
▁1951	-10.4678
▁act	-10.468
▁human	-10.468
▁kongo	-10.4685
▁frank	-10.4687
architektur	-10.469
▁wolf	-10.4693
herstellung	-10.4695
▁elektromagnet	-10.4695
ografie	-10.4696
prüfung	-10.4696
▁festung	-10.4697
▁kalifornien	-10.4701
logie	-10.4702
hard	-10.4703
▁kas	-10.4707
_8	-10.4708
▁bedeutenden	-10.4711
▁einteilung	-10.4717
▁institutionen	-10.4718
war	-10.4718
▁chaplin	-10.4722
▁erkennbar	-10.4722
▁verpflichtet	-10.4722
▁beruf	-10.4723
▁sam	-10.4723
▁automatisch	-10.4723
zeiten	-10.4726
▁genauer	-10.4727
▁umgang	-10.4729
▁hall	-10.4733
▁algorithmus	-10.4735
▁hi	-10.4736
nieder	-10.4739
lebens	-10.4745
▁handlung	-10.4745
▁gegründeten	-10.4746
▁komplexe	-10.4747
▁effekt	-10.4748
▁hauptrolle	-10.4751
▁33	-10.4752
▁variante	-10.4753
▁natürlich	-10.4754
strecken	-10.4755
ville	-10.4759
maschine	-10.476
_7	-10.4763
sätzen	-10.4763
▁alfred	-10.4766
▁eingeschränkt	-10.4766
▁vergleichsweise	-10.4768
dynamik	-10.4769
▁motiv	-10.477
ity	-10.4771
medizin	-10.478
behörde	-10.478
▁nachfrage	-10.4782
verlust	-10.4783
▁elementen	-10.4789
mals	-10.479
▁wohnung	-10.4794
iso	-10.4797
▁65	-10.4798
▁1,5	-10.4799
▁fotografie	-10.4799
artig	-10.4805
▁sur	-10.4806
▁kindern	-10.4807
▁ausgeführt	-10.4808
▁teilnehmer	-10.4809
▁apollo	-10.4811
▁eiffelturm	-10.4811
▁1924	-10.4812
▁vorder	-10.4812
▁misch	-10.4815
trieb	-10.4815
▁eröffnete	-10.4816
meter	-10.4819
▁vorläufer	-10.4821
▁island	-10.4822
italien	-10.4824
▁preise	-10.483
▁aufgelöst	-10.4831
information	-10.4832
gemäß	-10.4833
▁anordnung	-10.4838
▁begründete	-10.4838
▁kristall	-10.484
dienste	-10.4844
▁kurzen	-10.4846
▁dorf	-10.4847
frieden	-10.4848
▁cla	-10.485
▁beobachten	-10.4856
▁verurteilt	-10.4856
▁zug	-10.4856
▁wolfgang	-10.4856
▁ss	-10.4857
spruch	-10.4858
▁übergangs	-10.4862
▁reaktionen	-10.4862
▁trotzdem	-10.4863
▁ungarn	-10.4863
▁schichten	-10.4864
▁mittelpunkt	-10.4868
▁aufenthalt	-10.4872
inhalt	-10.4876
funktionen	-10.4878
▁heim	-10.4883
▁eigener	-10.4887
oper	-10.49
▁habermas	-10.4901
▁vernunft	-10.4901
▁muslime	-10.4901
▁räumlich	-10.4901
▁1959	-10.4902
▁dick	-10.4902
▁goldene	-10.4903
schi	-10.4909
▁gegenseitig	-10.4909
lik	-10.491
▁fertig	-10.4916
fabrik	-10.4917
▁sicherheit	-10.4918
tätigkeit	-10.4919
zähl	-10.4921
▁magnet	-10.4924
▁technisch	-10.4928
prim	-10.493
▁fehlen	-10.4932
▁papier	-10.4937
▁echte	-10.4938
▁ok	-10.4946
▁adolf	-10.4946
haltige	-10.4946
▁osmanische	-10.4946
▁1937	-10.4947
▁antwort	-10.4948
*	-10.4952
gol	-10.4952
▁gegenwart	-10.4954
cia	-10.4956
▁leucht	-10.4963
gre	-10.4966
sburg	-10.4967
übung	-10.497
▁sar	-10.4972
▁bewegt	-10.4978
▁geographie	-10.4981
▁russischen	-10.4983
▁auswahl	-10.4984
wach	-10.4984
▁alb	-10.4985
▁indischen	-10.4985
▁konkurrenz	-10.4991
▁academy	-10.4991
▁angepasst	-10.4991
▁lynch	-10.4991
▁zwerg	-10.4991
▁akzeptiert	-10.4992
▁ordens	-10.4995
gift	-10.4998
ön	-10.5
▁athen	-10.5003
▁evangelischen	-10.5004
▁äußeren	-10.5005
schuld	-10.5007
zweck	-10.501
▁fehl	-10.5012
sur	-10.5013
▁demokratische	-10.5015
felder	-10.5018
dal	-10.5018
▁bericht	-10.5021
▁kongress	-10.5023
▁varianten	-10.5025
ept	-10.503
▁ausgangs	-10.5033
▁38	-10.5035
▁berücksichtigt	-10.5037
▁gewöhnlich	-10.5037
uck	-10.5037
▁wehrmacht	-10.5038
▁1923	-10.5038
▁erdöl	-10.5039
▁feucht	-10.5041
▁kammer	-10.5041
tür	-10.5045
gne	-10.5045
▁voran	-10.5048
▁aufweisen	-10.5052
▁sagte	-10.5054
▁erzähl	-10.5055
▁edel	-10.5055
prinzip	-10.5057
ng	-10.5057
▁rock	-10.5058
▁beschloss	-10.5058
mehr	-10.5061
abschnitt	-10.5063
▁mecklenburg	-10.5063
problem	-10.5063
▁schreibweise	-10.5067
ae	-10.5067
üll	-10.5069
well	-10.5071
▁aktivitäten	-10.5076
▁verbesserung	-10.5083
▁leser	-10.5085
glo	-10.5085
▁setzen	-10.5086
▁bell	-10.5088
▁erlebte	-10.5091
▁rathaus	-10.5092
stücke	-10.5095
▁theorien	-10.5097
▁dank	-10.5097
best	-10.51
▁angewandt	-10.5101
▁lind	-10.5101
▁punkte	-10.5102
▁wandte	-10.5104
rup	-10.5105
phy	-10.511
angebot	-10.511
▁auseinander	-10.5112
▁förder	-10.5114
▁handelte	-10.5117
▁bip	-10.5117
schütz	-10.5118
sau	-10.5121
▁pakistan	-10.5122
itz	-10.5127
▁1928	-10.513
arische	-10.5139
▁politischer	-10.514
▁maler	-10.5143
cor	-10.5143
▁scharf	-10.5143
▁films	-10.5145
▁ausstellung	-10.515
transport	-10.5152
▁offenen	-10.5154
▁front	-10.5154
natur	-10.5158
mini	-10.5161
▁hamburger	-10.5165
heilig	-10.5168
▁elementar	-10.5169
ausschuss	-10.5169
▁marie	-10.5171
▁lesen	-10.5171
regel	-10.5172
▁dinosaurier	-10.5175
▁kontrovers	-10.5175
▁spätantike	-10.5175
▁verfügen	-10.5175
▁machten	-10.5178
▁beschreiben	-10.5183
▁unterstützte	-10.5189
gründung	-10.519
verordnung	-10.5191
▁server	-10.5196
bedarf	-10.5199
▁rechten	-10.5204
▁bezirks	-10.5204
▁tieren	-10.521
▁nahrungsmittel	-10.5219
▁gemein	-10.5222
▁besiedelt	-10.5222
▁rudolf	-10.5222
▁umbenannt	-10.5222
▁ansässig	-10.5222
beruf	-10.5226
▁barock	-10.5227
▁schützen	-10.5231
▁sprecher	-10.5232
fällen	-10.5236
▁ziele	-10.524
▁müsse	-10.5243
fern	-10.5244
katholisch	-10.5246
▁richter	-10.5246
dl	-10.5249
komplex	-10.5251
▁beobachtungen	-10.5256
▁suche	-10.5257
▁freiwillig	-10.5257
▁prozessor	-10.5259
▁pläne	-10.5261
▁adam	-10.5266
▁mathematischen	-10.5268
▁terror	-10.5268
ehrendoktor	-10.5268
▁unterstützen	-10.5268
kra	-10.5271
▁wirklichkeit	-10.5271
▁serien	-10.5281
tlich	-10.5286
▁herren	-10.5288
▁jahrzehnte	-10.529
▁präsentiert	-10.5291
▁persönlich	-10.5292
geht	-10.5296
▁sil	-10.5301
▁verarbeitet	-10.5301
▁konzert	-10.5301
▁jener	-10.5304
▁bisherigen	-10.5304
gegen	-10.5307
gestaltung	-10.5313
▁plural	-10.5315
brüche	-10.5316
▁muskel	-10.532
▁oberen	-10.5322
–17	-10.5324
zeile	-10.5324
▁100.000	-10.5326
fas	-10.5328
datei	-10.5329
allergie	-10.533
lis	-10.5336
▁darm	-10.5337
▁aktuellen	-10.534
▁bern	-10.534
ult	-10.5341
▁vollständige	-10.5342
▁knoten	-10.5343
▁beteiligung	-10.5345
spar	-10.5346
▁digitale	-10.5346
europa	-10.5347
▁kranken	-10.5347
kolleg	-10.5347
▁600	-10.5348
beziehung	-10.5349
▁vaters	-10.5359
tron	-10.5359
▁aufklärung	-10.5359
zig	-10.5362
via	-10.5362
▁stickstoff	-10.5363
▁college	-10.5363
▁verschieden	-10.5367
▁container	-10.537
wick	-10.5372
▁beobachtung	-10.5377
türme	-10.5377
▁tar	-10.5377
▁eigentlichen	-10.5378
kä	-10.5379
gie	-10.538
▁traditionelle	-10.538
▁erhard	-10.5381
kant	-10.5382
stehen	-10.5385
steine	-10.5388
▁hinweis	-10.5388
▁fat	-10.5389
▁summe	-10.539
▁mädchen	-10.5392
pur	-10.5392
▁brandenburg	-10.5394
▁entsprechen	-10.5395
farben	-10.5399
▁förderung	-10.5399
▁bedeutendste	-10.5399
▁gleichung	-10.5401
klein	-10.5401
▁privaten	-10.5404
▁brüder	-10.5406
▁gezielt	-10.541
quellen	-10.5412
▁nikolaus	-10.5412
▁albrecht	-10.5414
▁schreibt	-10.542
▁handlungs	-10.5423
▁auge	-10.5423
hoff	-10.5423
komm	-10.5425
horn	-10.5428
politische	-10.5429
präsidenten	-10.5431
▁zoll	-10.5431
▁begleitet	-10.5433
▁verwandt	-10.5435
▁fraktion	-10.5435
▁liga	-10.5435
konferenz	-10.5439
kommission	-10.5439
▁spitzen	-10.544
kre	-10.544
▁wiener	-10.5442
row	-10.5447
▁organisationen	-10.5449
ketten	-10.5454
▁aussprache	-10.5456
▁istanbul	-10.5458
▁kooperation	-10.5459
▁stetig	-10.5459
▁wege	-10.546
saal	-10.546
freien	-10.5461
▁global	-10.5462
▁ermöglichte	-10.5462
▁ke	-10.5466
▁jagd	-10.5468
▁nation	-10.5469
▁tour	-10.547
▁angebaut	-10.5472
schiffe	-10.5473
▁schwarze	-10.5474
▁bestehenden	-10.5478
▁toten	-10.5478
▁veranstaltungen	-10.548
▁veränderung	-10.5484
ement	-10.5485
ure	-10.5487
zentren	-10.5488
▁jahrtausend	-10.549
▁wissenschafts	-10.5491
▁keiner	-10.5492
hersteller	-10.5494
▁instrument	-10.55
▁hinweise	-10.5502
▁bakterien	-10.5503
▁bundesregierung	-10.5509
▁krankheiten	-10.5509
▁niederländische	-10.5513
▁merkur	-10.5514
▁neutral	-10.5514
▁orte	-10.5514
ida	-10.5517
▁(3	-10.5518
eller	-10.5519
▁leer	-10.552
▁reine	-10.552
▁ortsteil	-10.5521
▁block	-10.5522
artige	-10.5524
▁verkauf	-10.5525
▁australien	-10.5527
▁erstellt	-10.5531
uth	-10.5541
▁gnu	-10.5542
▁bir	-10.5551
▁abgelehnt	-10.5554
▁gaulle	-10.5554
geber	-10.5554
▁zins	-10.556
▁kugel	-10.5561
▁leistungs	-10.5561
aria	-10.5563
▁exp	-10.5568
byte	-10.5569
▁dokument	-10.5577
▁babylon	-10.5578
▁grammatik	-10.5581
schuss	-10.5581
2"	-10.5583
instrument	-10.5585
▁zusatz	-10.5587
▁nahrung	-10.559
▁vertrieben	-10.559
kw	-10.5592
station	-10.5593
bomb	-10.5597
muster	-10.5598
▁bri	-10.5598
orthodox	-10.5598
▁tiefe	-10.5599
srate	-10.5602
▁explizit	-10.5602
▁leeuwenhoek	-10.5602
▁vermehrt	-10.5602
▁bände	-10.5603
katastrophe	-10.5604
▁gauck	-10.5604
faktor	-10.5608
▁inhaltlich	-10.5608
▁enzym	-10.5618
charakteristisch	-10.5618
stru	-10.5619
▁ziehen	-10.5622
▁tro	-10.5623
▁nutzte	-10.5624
▁gründe	-10.5624
▁erlangte	-10.5626
▁kn	-10.5627
führen	-10.5627
▁mat	-10.5628
▁photo	-10.563
▁halbwertszeit	-10.563
sprechen	-10.5632
▁faktoren	-10.5632
▁800	-10.5633
verfassung	-10.5638
▁begleit	-10.5639
gewalt	-10.564
▁bel	-10.5641
vorsitzende	-10.5642
lia	-10.5643
tausch	-10.5646
▁verbindet	-10.565
▁red	-10.5651
server	-10.5652
kus	-10.5652
▁1910	-10.5653
oide	-10.5655
▁debatte	-10.5655
▁initiative	-10.5656
▁zweiter	-10.5656
prozessor	-10.5662
ney	-10.5666
▁fr	-10.5667
ite	-10.5672
▁breit	-10.5675
▁kanal	-10.5676
uri	-10.5679
▁guten	-10.5682
▁besonderen	-10.5682
▁angeordnet	-10.5684
▁aufgestellt	-10.5685
zentral	-10.5687
▁häuser	-10.5688
lum	-10.5689
▁schriftlich	-10.569
▁freunde	-10.5692
chem	-10.5693
▁reduktion	-10.5693
▁stellten	-10.5693
sendung	-10.5694
▁erhöhte	-10.5699
▁world	-10.5702
▁team	-10.5703
strecke	-10.5705
ction	-10.5706
▁linke	-10.5707
▁gesetzes	-10.5708
▁phänomen	-10.5709
▁gew	-10.5709
▁grüne	-10.5715
▁medizinische	-10.5721
▁archäologische	-10.5725
▁flügel	-10.5725
▁vereinigung	-10.5726
zustellen	-10.5727
▁figur	-10.5728
tig	-10.5732
▁umfassen	-10.5732
▁eigenes	-10.5733
alis	-10.5737
;/	-10.5738
▁prag	-10.5741
▁sciences	-10.5741
▁wurzeln	-10.5743
rest	-10.5745
▁nutz	-10.5748
▁himmler	-10.5748
▁interessiert	-10.5748
▁größtenteils	-10.5748
▁jüngste	-10.5749
öll	-10.575
▁q	-10.5753
▁oberflächen	-10.5755
▁bewirkt	-10.5755
▁partner	-10.5755
▁aktion	-10.5756
xi	-10.5756
▁vergleichbar	-10.5758
beispiel	-10.5758
▁reisen	-10.5758
▁versehen	-10.576
sgeschichte	-10.5761
zykl	-10.5764
hal	-10.5768
▁foto	-10.5771
fragen	-10.5774
▁passiv	-10.5775
dampf	-10.5785
produzent	-10.5785
räumen	-10.5786
bahnhof	-10.5789
verbot	-10.5789
▁mannschaft	-10.5791
ska	-10.5791
▁flucht	-10.5793
▁grundlegende	-10.5795
▁ermordet	-10.5797
▁offizier	-10.5798
▁frühmittelalter	-10.5798
▁atlantik	-10.58
▁gramm	-10.5801
▁intel	-10.5802
▁34	-10.5802
fiction	-10.5803
▁stau	-10.5803
▁überlieferung	-10.581
▁aktive	-10.5811
▁wirkte	-10.5814
▁experimente	-10.5817
▁aufgeführt	-10.5817
phil	-10.5821
zahlung	-10.5822
▁einfachen	-10.5822
platte	-10.5822
stufen	-10.5824
▁kontrolliert	-10.5826
essen	-10.5829
▁studio	-10.5833
▁bundesstaat	-10.5833
französisch	-10.5838
qualität	-10.5838
▁feste	-10.584
▁christoph	-10.5847
▁algerien	-10.5847
▁angesicht	-10.5848
air	-10.5852
▁ban	-10.5852
▁ursachen	-10.5857
▁vorgeschlagen	-10.5858
▁realisiert	-10.586
▁ausgebildet	-10.5861
▁drehte	-10.5862
▁abbau	-10.5864
▁37	-10.5865
▁10.000	-10.5866
nimmt	-10.5867
▁vögel	-10.5868
▁bauten	-10.587
lam	-10.5874
▁winkel	-10.5879
▁austausch	-10.5885
▁sy	-10.5886
▁abteilung	-10.5889
▁kal	-10.5889
rüstung	-10.5891
▁vorteil	-10.5892
sicherheit	-10.5894
einrichtungen	-10.5894
sequenz	-10.5895
sprachlich	-10.5897
▁bat	-10.5897
▁steigt	-10.5898
▁brücken	-10.5899
▁luftschiff	-10.5904
mu	-10.5905
▁versch	-10.5906
roh	-10.5907
det	-10.5909
_10	-10.591
▁kölner	-10.5911
anzeige	-10.5917
▁anwendungs	-10.5917
▁führer	-10.5918
tte	-10.5918
gam	-10.5919
▁elbe	-10.5919
istischer	-10.5921
sucht	-10.5925
sig	-10.5927
▁kulturen	-10.5927
▁schauspiel	-10.5934
systemen	-10.5935
▁comics	-10.5935
pul	-10.5936
signal	-10.5938
pfalz	-10.5938
international	-10.5941
▁mich	-10.5943
▁nordamerika	-10.5945
▁franzosen	-10.5948
▁1921	-10.5948
▁firmen	-10.5953
▁früchte	-10.5954
▁ursprüngliche	-10.5954
▁weiße	-10.5955
sbereich	-10.5956
erin	-10.5956
▁oxid	-10.5958
haften	-10.5959
▁betrachtung	-10.596
boden	-10.5961
▁negative	-10.5963
rede	-10.5966
skala	-10.5967
▁ergab	-10.5972
▁erfolgreiche	-10.5973
bru	-10.5973
▁29	-10.5974
▁absicht	-10.5976
▁alliierten	-10.5976
elt	-10.5977
▁cu	-10.5978
uff	-10.5979
▁zustimmung	-10.5981
bahnen	-10.5983
▁literarische	-10.5984
sing	-10.5992
1)	-10.5994
▁erwärmung	-10.5997
▁millimeter	-10.5997
▁jakob	-10.5997
▁leistungen	-10.6001
ary	-10.6005
▁rational	-10.6005
board	-10.6007
▁physikalischen	-10.6007
klima	-10.6008
▁entsprach	-10.601
▁effektiv	-10.6011
▁bush	-10.6011
▁anlagen	-10.6015
▁stadtrat	-10.6016
tau	-10.6018
geschrieben	-10.6023
▁weißen	-10.6023
▁free	-10.6024
▁direktor	-10.6028
▁schi	-10.6028
▁wollten	-10.6028
gef	-10.603
ima	-10.6038
uni	-10.6038
▁erfahrung	-10.604
▁ausländische	-10.6042
▁eben	-10.6047
▁psycho	-10.6047
▁lokalen	-10.6047
▁wahrgenommen	-10.6048
▁prägte	-10.6051
▁schwerer	-10.6052
artigen	-10.6053
▁magnetische	-10.6058
▁überleben	-10.6058
sha	-10.6062
block	-10.607
▁sende	-10.6072
our	-10.6072
fertig	-10.6074
▁krone	-10.6075
▁cal	-10.608
▁dialekte	-10.6081
▁zahn	-10.6086
▁verfügte	-10.6087
fehler	-10.6092
4)	-10.6092
▁leichter	-10.6095
▁entscheidungen	-10.6097
▁erdbeben	-10.6098
▁erinnert	-10.6098
▁friedrichshafen	-10.6098
▁brust	-10.6099
▁dreharbeiten	-10.6099
▁ermittelt	-10.6102
▁basketball	-10.6102
▁sed	-10.6104
▁landtag	-10.6105
▁davis	-10.6106
zweig	-10.6107
▁31	-10.6107
bur	-10.6109
▁che	-10.6109
▁hesse	-10.6112
sum	-10.6115
▁"„	-10.6116
geordnet	-10.6123
▁leitet	-10.6133
mission	-10.6133
▁unterricht	-10.6134
keiten	-10.6134
▁freundschaft	-10.614
▁ladung	-10.614
▁weibliche	-10.6146
konstante	-10.6147
chemie	-10.6147
▁olympische	-10.6148
▁dürfte	-10.6149
▁interpretiert	-10.615
▁online	-10.615
karten	-10.6151
fahrer	-10.6153
stag	-10.6155
▁konkrete	-10.6162
▁takt	-10.617
▁traten	-10.6172
flüge	-10.6174
▁tumor	-10.6175
out	-10.6175
▁italienische	-10.6178
akt	-10.6179
lev	-10.618
häusern	-10.6182
gleichung	-10.6183
▁griff	-10.6185
▁hal	-10.6185
schaffung	-10.6186
ries	-10.6188
sieg	-10.6193
▁biologische	-10.62
▁theoretische	-10.6201
▁universum	-10.6201
3"	-10.6203
▁schicht	-10.6203
▁phil	-10.6203
▁(14	-10.6204
sicher	-10.6204
gewinnung	-10.6206
▁44	-10.6206
▁halbinsel	-10.6206
▁geologisch	-10.6207
▁menschheit	-10.6208
▁vergeben	-10.621
rain	-10.6212
▁fu	-10.6214
▁enge	-10.6216
▁schiffs	-10.6216
runde	-10.6216
▁feder	-10.6218
▁streitkräfte	-10.6218
asso	-10.622
▁bäume	-10.6224
▁besetzung	-10.6227
▁pop	-10.6228
▁pflicht	-10.623
▁on	-10.6239
▁eigentum	-10.6239
▁darum	-10.624
▁ram	-10.6242
iro	-10.6243
▁spar	-10.6246
▁umfassende	-10.6246
▁wirklich	-10.6246
▁erstes	-10.6252
▁bedroht	-10.6252
▁ungewöhnlich	-10.6252
▁faktisch	-10.6252
▁vermittelt	-10.6253
▁herausgegeben	-10.6254
▁versorgung	-10.6254
▁sha	-10.6255
box	-10.6256
▁festgestellt	-10.6256
▁oberhalb	-10.6256
pra	-10.6257
srecht	-10.6258
quote	-10.6262
▁spanischen	-10.6262
ativen	-10.6268
▁beginnend	-10.6271
▁gebraucht	-10.6276
enburg	-10.6276
▁kap	-10.6284
▁gesteins	-10.6285
▁erscheinung	-10.6286
▁gespeichert	-10.6286
▁ep	-10.6286
▁äußere	-10.6288
schnittstelle	-10.6293
fä	-10.6294
way	-10.6295
▁labor	-10.6296
kur	-10.6298
▁mars	-10.6299
frequenz	-10.6299
real	-10.63
▁verbrachte	-10.6301
▁griechen	-10.6301
3.	-10.6303
quartier	-10.6303
▁afrikanischen	-10.6303
brief	-10.6303
▁nahrungs	-10.6304
schließung	-10.6304
▁premierminister	-10.6304
▁wunsch	-10.6304
▁henry	-10.6304
1"	-10.6305
▁enthielt	-10.6306
wir	-10.6307
big	-10.6307
▁kohle	-10.6315
▁schuld	-10.6318
▁einkommen	-10.6319
stiftung	-10.632
▁beziehen	-10.6321
▁muster	-10.6331
wertung	-10.6332
vin	-10.6333
▁chinesische	-10.6333
▁lösen	-10.6333
▁jüngeren	-10.6334
▁erich	-10.6334
▁vokal	-10.6335
oh	-10.6343
▁philosophen	-10.6347
▁lagen	-10.6349
▁42	-10.6352
▁seither	-10.6352
wing	-10.6353
befehl	-10.6354
▁frankfurter	-10.6355
forderung	-10.6356
▁empirisch	-10.6356
▁unklar	-10.6356
situation	-10.6356
atur	-10.6359
▁oftmals	-10.636
▁erdgas	-10.6361
▁koch	-10.6362
flüsse	-10.6363
▁exil	-10.6363
▁errichtete	-10.6364
▁speziellen	-10.6365
▁anlage	-10.6368
▁weltkrieges	-10.6371
lehrer	-10.6371
▁strecken	-10.6372
hom	-10.6375
gibt	-10.6378
▁unternehmens	-10.6379
▁änderungen	-10.6385
▁haushalt	-10.6389
▁verteilung	-10.6391
▁qui	-10.6394
eur	-10.6399
vest	-10.64
ons	-10.6404
aktivität	-10.6405
▁beherrscht	-10.6408
▁geändert	-10.6408
▁geblieben	-10.6408
▁isoliert	-10.6408
festival	-10.6411
dom	-10.6415
▁betont	-10.6415
aw	-10.6416
▁zugrunde	-10.6418
▁ausgeschlossen	-10.6428
breite	-10.6428
schlüssel	-10.6428
▁aminosäuren	-10.643
▁willen	-10.6433
▁drama	-10.6437
▁einstellung	-10.644
▁gefäß	-10.644
▁geleitet	-10.6442
▁entschied	-10.6443
mund	-10.6444
▁gelegene	-10.6448
uenos	-10.6448
▁technologie	-10.645
▁aires	-10.645
tyr	-10.6452
hell	-10.6455
▁funktions	-10.6459
▁beteiligten	-10.6459
)".	-10.646
▁allmählich	-10.6461
▁riefenstahl	-10.6461
▁vermeiden	-10.6461
▁kilogramm	-10.6461
▁wähler	-10.6462
▁kairo	-10.6462
▁endlich	-10.6462
▁1922	-10.6463
▁gehalt	-10.6466
schmelz	-10.6466
char	-10.6468
▁abgelöst	-10.6468
unt	-10.6471
läufe	-10.6473
▁entschieden	-10.6479
ér	-10.6484
var	-10.649
▁erwerb	-10.6491
▁ablauf	-10.6493
▁üblichen	-10.6498
parteien	-10.6502
▁persönliche	-10.6503
▁dortmunder	-10.6504
scha	-10.651
lassen	-10.6511
▁anpassung	-10.6514
stadion	-10.6514
schrieb	-10.6515
▁rundfunk	-10.6516
schwer	-10.6517
▁konrad	-10.6518
verkehrs	-10.6518
▁part	-10.6518
▁studierte	-10.6518
▁unterzeichnet	-10.652
zyklus	-10.652
tätig	-10.6522
▁zwecke	-10.6523
▁programmier	-10.6525
hänge	-10.6527
▁setzten	-10.6527
▁kanzler	-10.6528
operation	-10.6529
▁gezogen	-10.6531
abkommen	-10.6532
▁orten	-10.654
sgesetz	-10.6542
▁abkommen	-10.6543
▁größen	-10.655
laufen	-10.6554
▁schauspielerin	-10.6558
▁cholesterin	-10.6561
pit	-10.6563
▁systematisch	-10.6564
▁anna	-10.6565
▁lieder	-10.6567
bedingt	-10.6567
▁bemüht	-10.6567
▁marokko	-10.6567
▁hieß	-10.6567
▁bedient	-10.6567
▁sprachgebrauch	-10.6568
▁zurückzuführen	-10.657
▁künstlich	-10.6573
▁seh	-10.6574
nia	-10.6574
▁reformation	-10.6575
▁lau	-10.6575
▁umfasste	-10.6578
zwei	-10.658
▁ämter	-10.658
zins	-10.6581
▁gemeint	-10.6582
▁westliche	-10.6584
aire	-10.6588
▁zeiten	-10.6591
▁könige	-10.6591
welle	-10.6594
plus	-10.6594
▁anstieg	-10.6594
▁beider	-10.6594
▁rollen	-10.6596
spitze	-10.6597
vater	-10.6607
landes	-10.6607
skraft	-10.6608
▁sterne	-10.6609
▁nm	-10.6609
▁seele	-10.6613
▁spa	-10.6613
sofern	-10.6616
lippe	-10.662
▁insekten	-10.6621
▁herr	-10.6621
klinik	-10.6621
▁kommerziell	-10.6621
▁1927	-10.6622
unterricht	-10.6626
bezogen	-10.6626
denken	-10.6627
▁kreisfreie	-10.6629
▁erzielt	-10.6629
▁gerät	-10.663
waren	-10.6631
▁mangan	-10.6633
bezirk	-10.6633
▁währungs	-10.6639
▁stadtbezirk	-10.664
opti	-10.664
▁wirksam	-10.6644
▁gelegenen	-10.6646
kh	-10.6649
▁feind	-10.6649
▁fortan	-10.665
bein	-10.6651
/20	-10.6654
spielen	-10.6654
▁konfession	-10.6654
▁belegte	-10.666
▁wand	-10.6669
flugzeuge	-10.667
zel	-10.6672
▁95	-10.6672
streben	-10.6673
▁stieß	-10.6674
▁äußerte	-10.6676
republik	-10.6679
mobil	-10.6679
▁high	-10.668
mächtig	-10.6683
▁lebensjahr	-10.6684
▁bauwerke	-10.6685
schale	-10.669
▁elb	-10.6692
fuß	-10.6694
▁ausbreitung	-10.6699
▁gesundheit	-10.6702
unk	-10.6707
ehemals	-10.6707
▁kabinett	-10.6707
▁führenden	-10.671
▁lincoln	-10.6728
▁synonym	-10.6728
▁nummer	-10.6729
▁adress	-10.6729
▁sektor	-10.673
▁enorm	-10.6731
▁hauptbahnhof	-10.6731
▁impuls	-10.6734
▁mc	-10.6735
aufnahme	-10.6735
▁kapazität	-10.6738
lassung	-10.6739
ona	-10.6741
lag	-10.6742
▁institute	-10.6743
▁men	-10.6743
▁bou	-10.6744
▁geschehen	-10.6745
ular	-10.6746
lagerung	-10.6747
▁getroffen	-10.675
chel	-10.675
▁rheinland	-10.6751
▁nachhaltig	-10.6752
mauer	-10.6753
▁zweig	-10.6753
standort	-10.6763
▁monaten	-10.6768
wertige	-10.6769
hil	-10.677
urteil	-10.6771
glas	-10.6776
▁abkürzung	-10.6778
▁gelöst	-10.6778
dp	-10.678
▁bosnien	-10.6783
▁libyen	-10.6783
▁erwartet	-10.6783
▁erfasst	-10.6783
▁radioaktive	-10.6783
▁theodor	-10.6784
schreiben	-10.6784
▁suchte	-10.6787
▁heroin	-10.6789
▁briten	-10.6793
▁jack	-10.6794
▁küche	-10.6797
mangel	-10.68
mun	-10.6802
▁still	-10.6803
▁lebenden	-10.6806
▁indirekt	-10.6808
ritz	-10.6809
ladung	-10.6809
▁adel	-10.681
▁großes	-10.681
▁konflikte	-10.6813
▁verbessert	-10.6813
▁woche	-10.6816
▁einflussreich	-10.6819
stimmen	-10.6821
oma	-10.6823
▁experimentell	-10.6825
schlüsse	-10.6832
▁himmel	-10.6833
graben	-10.6834
▁konstantinopel	-10.6837
▁bloß	-10.6838
▁tendenz	-10.6838
▁angola	-10.6838
▁konsonanten	-10.6838
fund	-10.6842
▁gerecht	-10.6842
▁angesiedelt	-10.6842
ann	-10.6843
▁nar	-10.6844
anne	-10.6846
▁musical	-10.6848
▁immun	-10.685
▁39	-10.6851
▁markiert	-10.6852
▁tode	-10.6853
▁vertrat	-10.6854
▁versuchen	-10.6854
darstellung	-10.6855
flugzeug	-10.686
stoßen	-10.686
zie	-10.6861
▁club	-10.6862
ati	-10.6862
▁verfolgt	-10.6862
_9	-10.6865
▁sto	-10.6868
strukturen	-10.687
▁kaiserreich	-10.6873
7"	-10.6875
regen	-10.6876
▁beendet	-10.688
▁arabische	-10.6883
fahr	-10.6883
▁sorgte	-10.6888
▁dönitz	-10.6892
▁linné	-10.6892
medaille	-10.6892
▁bessere	-10.6895
▁indigo	-10.6896
▁kinos	-10.6896
▁tempel	-10.6896
trick	-10.6898
darm	-10.6898
▁henri	-10.69
mol	-10.6904
rus	-10.6906
sender	-10.6907
▁schopenhauer	-10.6908
▁hochschulen	-10.691
hall	-10.691
rufen	-10.6911
▁250	-10.6912
▁zelle	-10.6917
▁akt	-10.6919
walt	-10.692
klassen	-10.693
▁pierre	-10.6935
▁zweit	-10.6939
hauses	-10.6939
▁mischung	-10.6939
eo	-10.6939
nitz	-10.6942
▁darstellungen	-10.6943
amerikaner	-10.6948
▁mexiko	-10.6948
▁zeppelin	-10.6948
▁gesichert	-10.6948
senkung	-10.6948
▁arbeitgeber	-10.6949
▁hotel	-10.6951
tief	-10.6954
▁substanzen	-10.6957
molekül	-10.6959
software	-10.6961
▁ernte	-10.6962
▁gebet	-10.6964
verbrauch	-10.6966
massen	-10.6966
leb	-10.697
▁hypothese	-10.6974
platten	-10.6981
cus	-10.6983
▁körpers	-10.6985
▁gesellschaften	-10.6985
kauf	-10.6989
▁liter	-10.6989
tech	-10.6991
▁hyper	-10.7003
lot	-10.7003
▁helmut	-10.7004
amerikanischer	-10.7005
▁wettbewerb	-10.7006
iter	-10.7011
–16	-10.7014
wandel	-10.7015
mächte	-10.7017
▁kenia	-10.7018
▁gefangen	-10.7019
blut	-10.7021
nom	-10.7023
▁nächste	-10.7024
▁fusion	-10.7026
hung	-10.703
▁absinth	-10.703
▁herrscht	-10.703
▁nordwesten	-10.703
ergebnisse	-10.7034
▁algebra	-10.7035
reichs	-10.7036
▁legt	-10.7038
union	-10.7044
karte	-10.7046
▁schreib	-10.7048
▁evangelisch	-10.705
▁index	-10.7052
uz	-10.7056
▁evangelische	-10.7056
▁derartige	-10.7057
▁landschafts	-10.7058
▁sowjetischen	-10.7059
▁ferdinand	-10.7059
▁intelligenz	-10.7059
2.	-10.706
hop	-10.7061
▁drehbuch	-10.7061
▁merkmal	-10.7061
▁1913	-10.7061
▁grundlegend	-10.7062
▁grafik	-10.7062
▁geringere	-10.7064
▁veranstaltung	-10.7066
▁isar	-10.7068
▁kämpfen	-10.7072
▁zahlreicher	-10.7072
▁reiste	-10.7075
führt	-10.7077
▁brachten	-10.7085
schaltung	-10.7087
▁stiftung	-10.7087
uit	-10.7088
▁dreieck	-10.7089
▁bay	-10.709
▁sw	-10.7092
vorpommern	-10.7092
tom	-10.7093
▁*	-10.7093
▁kata	-10.7094
▁frühere	-10.7102
phys	-10.7103
▁dokumentiert	-10.7104
▁epoche	-10.7108
▁zucker	-10.7109
▁ausgaben	-10.7111
sc	-10.7111
häu	-10.7114
▁bangladesch	-10.7115
▁interessant	-10.7115
▁venedig	-10.7115
gier	-10.7116
▁kennt	-10.7116
▁schnee	-10.7117
▁geburtstag	-10.7118
erfolg	-10.7118
▁kategorien	-10.7119
▁ostsee	-10.7123
feuer	-10.7132
stehende	-10.7135
▁scha	-10.7139
▁vertrauen	-10.7143
gue	-10.7144
▁fantasy	-10.7145
▁messen	-10.7145
▁gerichtet	-10.7147
mul	-10.7147
▁häufigsten	-10.7148
reichste	-10.7149
kurz	-10.715
▁regionale	-10.7151
▁überblick	-10.7153
▁eigentliche	-10.7154
▁schmal	-10.7154
▁hannover	-10.7156
▁school	-10.7157
rund	-10.7159
▁nr	-10.7161
inseln	-10.7165
▁perspektive	-10.7166
pr	-10.7166
▁entwurf	-10.7166
▁leitete	-10.717
▁getötet	-10.7172
▁umgewandelt	-10.7172
▁untereinander	-10.7172
▁nominiert	-10.7172
▁türkei	-10.7172
stra	-10.7174
chip	-10.7175
▁cer	-10.7175
wood	-10.7177
sichtig	-10.7179
▁station	-10.7181
▁af	-10.7188
sis	-10.7188
route	-10.7188
4-	-10.7189
gattung	-10.719
▁eva	-10.7192
▁kilometern	-10.7193
symbol	-10.7194
▁kurt	-10.7195
▁lateinisch	-10.7195
▁verletzt	-10.7195
vertretung	-10.7196
mutter	-10.7197
▁merk	-10.7199
method	-10.7202
▁ass	-10.7212
▁finanzielle	-10.7213
▁voraussetzungen	-10.7214
▁grob	-10.7219
▁festen	-10.7221
▁minderheit	-10.7224
störung	-10.7225
▁expansion	-10.7228
▁säugetier	-10.7228
▁wehr	-10.7229
▁lief	-10.723
▁touristen	-10.7231
▁keim	-10.7235
sphäre	-10.7236
▁phasen	-10.7239
▁gelangte	-10.7239
▁bruno	-10.7241
▁siedlungs	-10.7245
kristall	-10.7246
▁55	-10.7247
▁fassung	-10.7249
demokratisch	-10.725
motor	-10.725
▁erhebung	-10.7251
▁kommission	-10.7252
richtungen	-10.7254
▁mur	-10.7256
bor	-10.7258
stechnik	-10.726
▁falle	-10.7263
▁graf	-10.7264
▁buddhismus	-10.7268
▁kos	-10.7268
▁sim	-10.7274
▁falls	-10.728
of	-10.7282
▁einrichtung	-10.7283
brand	-10.7283
färbung	-10.7286
▁beherbergt	-10.7286
▁langfristig	-10.7286
▁fließt	-10.7286
hauptstadt	-10.7287
dienstleistungen	-10.7287
▁mä	-10.7287
▁1912	-10.7288
fort	-10.7288
▁popper	-10.7289
wiesen	-10.7295
▁av	-10.7296
9"	-10.7297
▁neuro	-10.7298
ierungen	-10.7298
legierungen	-10.7301
▁wählte	-10.7302
▁kalt	-10.7302
▁anton	-10.7302
▁stra	-10.7305
elektro	-10.7307
winkel	-10.7307
▁cache	-10.7309
▁ker	-10.7313
chef	-10.7313
▁wachsen	-10.7316
lü	-10.7317
bezirke	-10.7317
säule	-10.7321
▁48	-10.7326
parti	-10.7328
▁bestanden	-10.7329
▁schwefel	-10.733
▁nordosten	-10.733
▁fähigkeit	-10.7336
▁ausführlich	-10.7343
▁ressourcen	-10.7343
▁ausgestattet	-10.7343
▁geregelt	-10.7343
▁verbinden	-10.7343
▁wellenlänge	-10.7344
▁1931	-10.7345
▁staatsbürger	-10.7346
▁zusammengesetzt	-10.735
fiel	-10.7356
bilder	-10.7357
bett	-10.7361
▁verbleib	-10.7361
auto	-10.7363
roy	-10.7364
studium	-10.7365
▁heilige	-10.7365
▁verstand	-10.7366
verhalten	-10.7369
▁ada	-10.737
▁sekundär	-10.7375
alte	-10.7375
feldzug	-10.7376
▁internationaler	-10.7378
▁mol	-10.7378
swert	-10.7383
▁mechanische	-10.7383
rechtliche	-10.7386
▁erschienenen	-10.7386
▁führende	-10.7386
▁wären	-10.7387
gro	-10.7388
▁sagen	-10.739
stationen	-10.7391
korn	-10.7395
schul	-10.7395
würdig	-10.7398
sänger	-10.7399
sorten	-10.7399
▁einheitliche	-10.7401
▁erinnerung	-10.7401
inlandsprodukt	-10.7401
phosphat	-10.7401
▁verheiratet	-10.7401
▁gegliedert	-10.7401
▁integration	-10.7401
▁zweitgrößte	-10.7401
kop	-10.7401
▁hawaii	-10.7402
▁vielleicht	-10.7402
▁hor	-10.7403
öse	-10.7403
cke	-10.7411
▁prinzipien	-10.7412
▁straßenbahn	-10.7412
▁lohn	-10.7413
▁besch	-10.7419
▁neuere	-10.7422
▁benannte	-10.7423
▁angeschlossen	-10.7424
▁glück	-10.7426
sky	-10.7428
▁errichtung	-10.743
▁übernehmen	-10.7434
schichten	-10.7435
▁bewegungen	-10.7439
ifi	-10.7439
▁kategorie	-10.744
sand	-10.7442
kraut	-10.7445
▁oxidation	-10.7447
▁ritter	-10.745
werten	-10.7454
▁württemberg	-10.7454
▁rechtlich	-10.7454
▁städtische	-10.7456
▁erhebliche	-10.7459
▁gefolgt	-10.7459
▁geschieht	-10.7459
▁künftig	-10.7459
▁sediment	-10.7459
▁gedacht	-10.7459
▁distanz	-10.746
förmigen	-10.7462
▁kindheit	-10.7463
geschoss	-10.7463
▁auszeichnungen	-10.7465
knoten	-10.7469
lösen	-10.7469
▁positionen	-10.7472
▁durchsetzen	-10.7472
teilchen	-10.7478
▁krankenhaus	-10.7481
taunus	-10.7483
frucht	-10.7484
beamte	-10.7486
▁zugriff	-10.7487
historische	-10.7489
▁philosophische	-10.7494
▁stimme	-10.7494
▁grenzt	-10.7495
▁langjährige	-10.7495
witt	-10.7496
med	-10.7496
förmige	-10.7506
gb	-10.7508
weite	-10.7509
▁ford	-10.7511
▁anlass	-10.7514
▁byzantinische	-10.7514
ziffer	-10.7516
▁testament	-10.7517
▁astronomie	-10.7518
▁unesco	-10.7518
▁stammende	-10.7519
▁beruhen	-10.7519
▁fifa	-10.752
qua	-10.7522
mahl	-10.7526
▁sprachraum	-10.7526
homo	-10.7527
▁vorschlag	-10.7529
meer	-10.7529
▁begründung	-10.7529
fache	-10.753
▁stich	-10.7531
aise	-10.7532
verbund	-10.7532
nutzung	-10.7534
▁eröffnung	-10.7535
▁tom	-10.7537
▁iran	-10.7538
▁südosten	-10.754
▁revolutionär	-10.7541
händler	-10.7543
▁startete	-10.7543
sprung	-10.7544
▁verzichtet	-10.7545
▁genre	-10.7545
frankreich	-10.7545
nur	-10.7546
▁währung	-10.7548
▁bühnen	-10.755
ence	-10.755
▁lü	-10.7551
▁vermögen	-10.7551
gestein	-10.7553
▁rh	-10.7557
▁ol	-10.7558
nacht	-10.7558
▁ya	-10.756
▁120	-10.7564
▁legen	-10.757
alismus	-10.7571
▁friedhof	-10.7575
▁eventuell	-10.7576
▁gezwungen	-10.7576
▁peirce	-10.7576
▁tulpen	-10.7576
▁abgesehen	-10.7577
▁gal	-10.7579
▁thron	-10.758
▁daniel	-10.758
bli	-10.7583
5"	-10.7591
▁aussicht	-10.7592
▁media	-10.7592
▁gefühl	-10.7595
uli	-10.76
▁kritische	-10.7601
streifen	-10.7604
kunft	-10.7605
front	-10.7605
▁büro	-10.7605
▁geladen	-10.7606
▁digitalen	-10.7607
▁vorgenommen	-10.7609
▁stücke	-10.761
▁mord	-10.7611
▁orientiert	-10.7614
histori	-10.7614
400	-10.7614
variante	-10.7617
▁zeigten	-10.7618
strömung	-10.7618
▁43	-10.7622
▁flagge	-10.7623
▁heeres	-10.7626
▁physiker	-10.7631
drücke	-10.7633
▁rö	-10.7633
▁leib	-10.7635
▁byzanz	-10.7635
▁dementsprechend	-10.7635
▁caesium	-10.7636
▁veranstaltet	-10.7636
ifizierung	-10.7636
lieb	-10.7636
▁balkan	-10.7637
▁ev	-10.7637
▁architekten	-10.7637
▁fortsetzung	-10.7639
▁chor	-10.764
formel	-10.764
▁dicht	-10.7641
▁naturschutz	-10.7641
wall	-10.7642
▁kunden	-10.7643
▁änderte	-10.7645
rakete	-10.7646
ui	-10.7647
▁bergbau	-10.7647
▁schall	-10.765
▁bundespräsident	-10.7651
▁irr	-10.7657
zeitung	-10.7659
▁char	-10.7661
8"	-10.7662
schwarz	-10.7664
studio	-10.7668
▁verbreiteten	-10.7669
vel	-10.7671
bot	-10.7672
▁gewerkschaften	-10.7673
▁angabe	-10.7674
▁fakultät	-10.7676
▁golden	-10.7683
▁verfasst	-10.7687
▁einst	-10.7688
▁lieb	-10.769
▁seen	-10.7692
▁ersatz	-10.7693
schü	-10.7695
▁gibraltar	-10.7695
frist	-10.7696
▁zugeschrieben	-10.7698
▁pest	-10.77
▁wahlrecht	-10.7702
para	-10.7702
▁neubau	-10.7706
new	-10.7709
part	-10.771
▁garantie	-10.7711
▁rosen	-10.7712
▁synthese	-10.7717
▁back	-10.7717
omi	-10.7719
stellte	-10.772
bestimmung	-10.7722
mos	-10.7722
iel	-10.7722
ici	-10.7723
▁kuba	-10.7724
gymnasium	-10.7725
▁messung	-10.7728
▁mü	-10.7729
4"	-10.773
▁widerspruch	-10.7735
chan	-10.7737
zuführen	-10.7738
gebrochen	-10.774
▁bringt	-10.7747
▁vorgänge	-10.7748
▁monopol	-10.7751
kämpfe	-10.7752
▁saison	-10.7753
▁autonom	-10.7754
▁fortschritt	-10.7754
rohr	-10.7755
▁golf	-10.7755
▁aspekt	-10.7755
▁alexandria	-10.7758
istik	-10.7758
bell	-10.7762
▁gerhard	-10.7762
ade	-10.7763
morphem	-10.7764
kli	-10.7768
rag	-10.7769
rische	-10.7771
▁ausnahmen	-10.7774
▁peri	-10.7774
▁reaktions	-10.7775
was	-10.7781
hielt	-10.7786
hypothese	-10.7787
▁zweimal	-10.7787
▁ähnlichkeit	-10.7787
▁wach	-10.7787
arzt	-10.7791
▁schmidt	-10.7792
vis	-10.7796
ländern	-10.7796
▁definitionen	-10.7799
0"	-10.78
▁comp	-10.7801
500	-10.7806
▁gro	-10.7808
mitte	-10.7808
▁grazer	-10.781
schwäche	-10.7812
▁engagement	-10.7815
▁aufgeteilt	-10.7815
▁justiz	-10.7815
zugeben	-10.7822
▁mehrmals	-10.7825
▁gau	-10.7828
gleichungen	-10.7828
▁neueren	-10.7828
▁spannung	-10.7831
kriege	-10.7834
▁zählte	-10.7834
konzentration	-10.7839
liegenden	-10.7844
ätz	-10.7845
denkmal	-10.7848
teur	-10.7848
▁flugzeuge	-10.7849
▁getragen	-10.7849
rät	-10.7851
▁finanziert	-10.7853
▁exemplar	-10.7856
▁hügel	-10.7856
▁erforschung	-10.7858
▁institution	-10.7859
▁erreichten	-10.7862
▁fan	-10.7865
gehalten	-10.7865
▁bett	-10.7865
glück	-10.7866
▁abwehr	-10.7868
gasse	-10.787
▁haar	-10.7872
▁ansätze	-10.7872
▁it	-10.7873
hütte	-10.7875
▁vereinzelt	-10.7876
▁priester	-10.7876
▁separat	-10.7876
▁zentralbank	-10.7878
▁prinzipiell	-10.7879
▁vielfalt	-10.7881
▁werner	-10.7881
silbe	-10.7882
pers	-10.7882
▁kommunistischen	-10.7885
▁benachbarten	-10.7886
genossen	-10.7891
▁entstandenen	-10.7892
▁fähigkeiten	-10.7892
stunden	-10.7895
paar	-10.7903
▁gemüse	-10.7905
▁song	-10.7907
club	-10.7911
finanz	-10.7912
▁beschäftigung	-10.7917
glieder	-10.792
fir	-10.7922
▁kz	-10.7925
komponente	-10.7934
▁douglas	-10.7937
▁identifiziert	-10.7937
▁passagier	-10.7937
▁sklaven	-10.7937
▁konstruiert	-10.7937
▁formulierung	-10.7937
▁persönlichen	-10.7937
▁erfüllen	-10.7938
gest	-10.7939
▁städtischen	-10.794
▁wandel	-10.7941
▁messe	-10.7941
geschnitten	-10.7945
▁vertrags	-10.7952
▁kalk	-10.7952
▁sowjetische	-10.7955
seh	-10.7958
▁armen	-10.796
▁brücke	-10.7963
▁mitunter	-10.7966
▁mini	-10.7966
▁dienten	-10.797
german	-10.7976
tol	-10.7976
medien	-10.7976
rechner	-10.7978
▁heide	-10.7982
mord	-10.7982
▁gerichts	-10.7984
▁var	-10.7984
án	-10.7994
▁festival	-10.7995
▁spin	-10.7995
▁ausmaß	-10.7996
branche	-10.7996
▁angewendet	-10.7998
▁jugoslawien	-10.7998
▁erfordert	-10.7998
▁kriterien	-10.7999
▁nerven	-10.8001
lands	-10.8002
▁quanten	-10.8004
streich	-10.8004
pulver	-10.8005
▁laufen	-10.8007
▁betreiben	-10.8007
▁arc	-10.8008
▁theologie	-10.8009
▁wechselte	-10.8014
▁spreng	-10.8017
technische	-10.8019
slehre	-10.802
▁flüchtlinge	-10.8022
schalt	-10.8022
▁gelegt	-10.8026
▁künste	-10.8032
beginn	-10.8036
zusammen	-10.8036
synthese	-10.8037
beton	-10.8038
azi	-10.8038
▁briefe	-10.8038
stark	-10.804
hilf	-10.8043
▁format	-10.8044
▁lob	-10.8045
förderung	-10.8046
▁sank	-10.8047
▁forderungen	-10.8048
▁hohem	-10.8049
▁schwimm	-10.805
▁instrumente	-10.8051
▁molekül	-10.8051
▁gefährlich	-10.8052
▁ci	-10.8054
sberg	-10.8056
normalerweise	-10.8057
christliche	-10.8059
kräftig	-10.8059
▁greenpeace	-10.806
▁reagieren	-10.806
▁gedreht	-10.806
▁fichte	-10.8062
▁spezifische	-10.8064
▁türkische	-10.8065
▁villa	-10.8065
ständen	-10.8071
▁sä	-10.8072
▁projekte	-10.8078
▁fri	-10.8081
▁ethnische	-10.8086
▁bewertung	-10.8086
schaften	-10.8088
▁bü	-10.8089
▁ketten	-10.8091
▁51	-10.8092
▁endet	-10.8098
kamera	-10.81
adler	-10.81
▁werkzeug	-10.8104
geb	-10.8104
tia	-10.8104
▁modul	-10.8104
rolle	-10.8107
fährt	-10.8109
biologie	-10.8113
zählung	-10.8114
▁nachlass	-10.8116
▁dunkel	-10.8116
▁bill	-10.8117
macher	-10.8117
work	-10.812
▁lehren	-10.812
▁esperanto	-10.8122
mechanismus	-10.8122
▁verringert	-10.8122
▁feiertag	-10.8123
▁niederschlag	-10.8123
▁1907	-10.8123
▁pflanze	-10.8123
▁verlangt	-10.8123
▁hy	-10.8124
▁kontinental	-10.8125
▁berühmte	-10.8126
▁kreta	-10.8127
herren	-10.8127
▁eiben	-10.8128
buchstaben	-10.8128
▁morgen	-10.8129
▁bestandteile	-10.8133
▁hinweg	-10.8134
▁erfolgreichen	-10.814
▁absolut	-10.8144
stel	-10.8147
▁unsere	-10.8147
ight	-10.8147
▁geburts	-10.8149
wirkt	-10.8154
analytische	-10.8162
▁linear	-10.8162
zentrationslager	-10.8164
bol	-10.8169
archiv	-10.8169
▁berühmt	-10.8174
▁letzter	-10.8174
angriff	-10.8179
▁umgeben	-10.8179
▁vorbereitung	-10.8181
▁lehn	-10.8183
▁lebt	-10.8183
▁ausgedehnt	-10.8184
▁josef	-10.8184
▁abgeordneten	-10.8186
▁1917	-10.8186
▁vorhandenen	-10.8187
▁1848	-10.8187
▁versteht	-10.8189
organisationen	-10.819
rio	-10.819
▁teilung	-10.819
preise	-10.8192
▁unternahm	-10.8192
ito	-10.8194
▁goethes	-10.8195
▁gesicht	-10.8196
max	-10.8197
▁ausgesprochen	-10.8198
▁museums	-10.8199
6"	-10.82
▁globalen	-10.8201
▁aufnahmen	-10.8204
▁führungs	-10.8205
familien	-10.8205
▁giftig	-10.8206
▁anstelle	-10.8206
schifffahrt	-10.8207
▁stammte	-10.8207
gestalt	-10.8208
▁lee	-10.8209
preisträger	-10.8209
beck	-10.8209
▁südwesten	-10.8211
▁erfuhr	-10.8211
▁ausgeprägt	-10.8213
▁gui	-10.8213
heer	-10.8213
▁gegenstände	-10.8214
ista	-10.8218
▁dateisystem	-10.8219
ago	-10.8219
▁zunehmende	-10.822
set	-10.8221
▁isotop	-10.8221
religion	-10.8227
▁mainz	-10.8228
fahrzeug	-10.8228
▁siedlung	-10.8229
ua	-10.8229
mantel	-10.8233
blau	-10.8235
▁künstlerische	-10.8236
▁beiträge	-10.8236
journal	-10.8236
verlag	-10.8243
▁verarbeitung	-10.8244
ira	-10.8244
▁basierend	-10.8244
▁wittgenstein	-10.8247
▁gegenwärtig	-10.8247
▁kollektiv	-10.8247
▁beinhaltet	-10.8247
fächer	-10.8248
▁va	-10.8248
▁sächsische	-10.8248
▁strategisch	-10.8249
▁1911	-10.825
▁jolie	-10.8252
▁curie	-10.8252
stor	-10.8253
cop	-10.8253
▁musikalische	-10.8254
drei	-10.8254
▁folgender	-10.8255
▁entstandene	-10.8256
▁aufgegeben	-10.8257
▁85	-10.8258
▁südamerika	-10.8259
eln	-10.826
▁durchbruch	-10.8262
▁elektron	-10.8262
zeugnis	-10.8263
werfen	-10.8264
▁gedicht	-10.8268
fällig	-10.8268
▁amtssprache	-10.8268
zutage	-10.8269
anhalt	-10.8272
betreiber	-10.8273
polit	-10.8275
▁literarischen	-10.8277
▁münster	-10.8279
▁erfahrungen	-10.8279
▁propaganda	-10.8279
▁gelangen	-10.8284
▁deck	-10.8285
▁fünfte	-10.8289
▁fahren	-10.829
tradition	-10.8291
wurzel	-10.8291
akademie	-10.8292
▁maxim	-10.8293
rey	-10.8295
▁vielfältig	-10.8296
▁expedition	-10.8297
funk	-10.8298
▁männern	-10.8298
grüne	-10.8301
▁modern	-10.8302
▁dialog	-10.8304
avi	-10.8305
▁schmuck	-10.8305
▁gauß	-10.8306
▁strategie	-10.8308
höhle	-10.8308
reaktor	-10.831
▁heidelberg	-10.8311
gürtel	-10.8311
▁(20.	-10.8311
▁geschichten	-10.8311
▁1908	-10.8312
▁werbe	-10.8312
treiben	-10.8312
kriminal	-10.8313
▁ziffern	-10.8313
▁dynastie	-10.8315
▁pflege	-10.8315
erkennung	-10.8315
▁effekte	-10.8316
▁castro	-10.8317
▁ele	-10.8317
▁spielten	-10.8321
▁orient	-10.8322
▁aktivität	-10.8324
▁nah	-10.8324
▁philosophischen	-10.8325
▁stabile	-10.8326
▁ausdehnung	-10.8326
▁horn	-10.833
eiche	-10.8332
projekte	-10.8333
▁festland	-10.8334
▁sig	-10.8336
▁gedenk	-10.8339
▁liegenden	-10.834
▁tv	-10.834
bie	-10.8341
▁insofern	-10.8344
toren	-10.8344
vision	-10.8344
▁herzen	-10.8352
▁definierte	-10.8353
krebs	-10.8356
pre	-10.8358
▁oberste	-10.8361
▁grau	-10.8363
▁roll	-10.8368
reinigung	-10.8373
gerät	-10.8373
▁substantiv	-10.8374
▁zukünftig	-10.8374
▁verknüpft	-10.8374
▁elektronische	-10.8376
dessen	-10.8379
ado	-10.8382
rock	-10.8383
affäre	-10.8384
illy	-10.8386
▁binär	-10.8389
▁himmels	-10.8392
▁stämme	-10.8393
▁verg	-10.8394
apparat	-10.8399
▁konvention	-10.84
bul	-10.8401
▁kommunikations	-10.8401
▁2,5	-10.8407
▁fahrrad	-10.8408
bewegungen	-10.8411
kritische	-10.8415
▁sum	-10.8416
heimer	-10.8418
▁bedeutender	-10.8418
▁starben	-10.842
▁geographische	-10.8421
▁sitze	-10.8421
▁mächtige	-10.8424
niveau	-10.8425
pos	-10.8426
▁behörden	-10.8429
▁sm	-10.8429
▁voraussetzung	-10.8431
▁erzeugung	-10.8434
▁platten	-10.8434
▁ursprungs	-10.8434
▁kritisierte	-10.8435
▁etablierte	-10.8437
▁steck	-10.8438
▁edinburgh	-10.8438
▁ausdrücklich	-10.8438
▁relevant	-10.8438
▁vertraut	-10.8438
gräber	-10.8438
▁optimal	-10.8438
▁mündet	-10.8439
körner	-10.8439
▁militärisch	-10.8439
▁bundesbank	-10.8444
kriegs	-10.8444
▁komödie	-10.8446
wirtschaftliche	-10.8447
▁ber	-10.8448
mischung	-10.8448
cord	-10.8449
▁far	-10.8455
ziehung	-10.8456
▁dänischen	-10.8458
hit	-10.8459
▁mittelalters	-10.846
▁archiv	-10.8461
basis	-10.8463
▁reellen	-10.8467
werbung	-10.8467
▁komplex	-10.847
▁künstliche	-10.8472
losigkeit	-10.8475
▁territorium	-10.8476
▁referenz	-10.8476
▁vermittlung	-10.8476
▁elektrizität	-10.8478
▁gründungs	-10.8481
▁berühmten	-10.8485
▁nutzer	-10.8486
▁52	-10.8493
abteilung	-10.8497
philosophie	-10.85
▁bedeutsam	-10.8503
▁adjektiv	-10.8503
▁betreibt	-10.8503
kündigung	-10.8503
▁russische	-10.8504
skript	-10.8505
▁ausgesetzt	-10.8505
▁sinnvoll	-10.8505
▁vorbei	-10.8506
▁vollkommen	-10.8506
▁flotte	-10.8508
▁fälle	-10.8509
▁parlaments	-10.8511
▁stärksten	-10.8512
▁niederlande	-10.8513
▁forderung	-10.8515
lp	-10.8515
▁kalten	-10.852
▁umständen	-10.8522
▁göttliche	-10.8522
▁computerspiel	-10.8525
▁unterstellt	-10.8526
cro	-10.8527
▁heißen	-10.8527
▁konferenz	-10.8528
hut	-10.8528
▁bon	-10.853
▁zeitalter	-10.8532
gerecht	-10.8533
▁produzierte	-10.8533
tl	-10.8536
▁schwierigkeiten	-10.8539
▁biografie	-10.854
spolitik	-10.8544
▁süß	-10.8545
▁fahrzeug	-10.8546
▁41	-10.8546
frau	-10.8551
reiter	-10.8553
regime	-10.8553
got	-10.8558
aka	-10.8559
▁einnahmen	-10.8559
zügen	-10.8561
▁ansehen	-10.8561
modul	-10.8561
lyse	-10.8566
▁entworfen	-10.8568
▁verdrängt	-10.8568
▁erhöhen	-10.8569
▁putsch	-10.8569
icus	-10.8571
schrei	-10.8571
▁1890	-10.8571
wasserstoff	-10.8573
▁autorität	-10.8575
krankheit	-10.8575
▁schu	-10.8578
▁dokumentation	-10.8578
rank	-10.858
▁gide	-10.8583
▁umfeld	-10.8583
▁aktuell	-10.8583
far	-10.8584
monat	-10.8586
▁vorkommende	-10.8587
verzeichnis	-10.8588
ong	-10.8588
zell	-10.859
folgen	-10.859
▁böse	-10.859
ohne	-10.8591
meist	-10.8591
▁materielle	-10.8592
gelände	-10.8593
hebe	-10.8594
phone	-10.8595
▁kirch	-10.8596
▁eier	-10.8597
▁untergebracht	-10.8599
▁gymnasium	-10.86
▁reife	-10.86
axiom	-10.8601
ordens	-10.8603
▁prüf	-10.861
▁99	-10.8612
▁(10	-10.8612
▁nordafrika	-10.8618
vertreter	-10.8621
österreich	-10.8621
zwischen	-10.8621
▁regime	-10.8622
▁verteidigung	-10.8633
▁thälmann	-10.8633
hydroxid	-10.8633
▁reihenfolge	-10.8634
++	-10.8635
▁handlungen	-10.8637
▁rü	-10.864
freiheit	-10.8641
▁eindruck	-10.8654
große	-10.8654
▁ebenen	-10.8656
spaltung	-10.8656
▁freizeit	-10.8658
▁beschäftigten	-10.8661
▁richtete	-10.8665
time	-10.8667
▁spezialisiert	-10.8672
▁vorgestellt	-10.8674
▁zeitlich	-10.8674
▁ausländer	-10.8676
sgrad	-10.8682
▁übersicht	-10.8684
heil	-10.8686
dokument	-10.8686
kapazität	-10.8687
beispielsweise	-10.8688
▁geplanten	-10.8688
unterschied	-10.8691
▁gang	-10.8693
▁gleicher	-10.8694
▁nor	-10.8697
▁einheitlich	-10.8698
▁trifft	-10.8699
▁rief	-10.8701
▁spektrum	-10.8704
▁700	-10.8706
zonen	-10.8707
▁gewebe	-10.8707
▁68	-10.871
ausstellung	-10.8711
▁arts	-10.8712
▁überall	-10.8716
▁gebirgs	-10.8716
▁extra	-10.8723
▁ionen	-10.8723
blue	-10.8725
▁typischen	-10.8734
▁hormon	-10.8737
▁ähnlichen	-10.8737
anthrop	-10.874
nic	-10.8741
▁kö	-10.8741
▁schließt	-10.8742
▁gran	-10.8744
▁übernahme	-10.8744
▁ballon	-10.8745
lade	-10.8748
ausgaben	-10.8754
früchte	-10.8755
▁besetzten	-10.8757
lob	-10.8759
▁chef	-10.876
palast	-10.8761
▁anderes	-10.8762
gard	-10.8762
schädigung	-10.8765
▁akademische	-10.8765
▁gescheitert	-10.8765
▁ablehnung	-10.8765
▁verantwortung	-10.8765
modifikation	-10.8765
▁circa	-10.8765
▁vieh	-10.8766
▁tim	-10.8766
▁1905	-10.8766
▁datiert	-10.8769
wy	-10.877
ökonomie	-10.8773
▁marke	-10.8773
▁termin	-10.8774
▁pr	-10.8775
▁helden	-10.8776
▁angeles	-10.8783
methyl	-10.8784
▁diamant	-10.8786
▁mach	-10.8786
also	-10.8788
loge	-10.8795
▁zogen	-10.8798
jan	-10.8802
non	-10.8804
shi	-10.881
▁verknüpfung	-10.8812
▁sozialdemokrat	-10.8813
▁induktion	-10.8814
▁genetische	-10.8817
▁verbundenen	-10.882
▁bin	-10.8821
kalender	-10.8824
jähriger	-10.8827
▁komponisten	-10.8827
▁michel	-10.883
▁engel	-10.8831
▁budapest	-10.8832
▁interview	-10.8832
▁vorherrschend	-10.8832
▁logarithmus	-10.8832
▁kanadische	-10.8832
▁problematisch	-10.8832
▁verhandlungen	-10.8832
▁spannungen	-10.8833
▁1909	-10.8833
▁niemals	-10.8833
▁volksrepublik	-10.8833
▁glaube	-10.8834
▁ehefrau	-10.8835
▁systematische	-10.8837
▁compiler	-10.8837
ics	-10.884
▁enger	-10.8842
lust	-10.8848
fra	-10.8849
▁bord	-10.8854
▁felder	-10.8858
▁widmete	-10.8859
▁zeitungen	-10.8862
besuch	-10.8863
▁sender	-10.8864
lanz	-10.8865
besitzer	-10.8865
sfreiheit	-10.8871
▁kenntnis	-10.8873
▁braucht	-10.8874
▁krise	-10.8877
▁verhaltens	-10.8879
▁schleswig	-10.8881
▁vorgang	-10.8882
▁csu	-10.8884
▁wachstums	-10.8884
codice	-10.8892
fu	-10.8894
cf	-10.8895
austausch	-10.8895
antwort	-10.8895
▁app	-10.8898
modem	-10.8898
elektronik	-10.8898
▁beschleunigt	-10.8899
▁kündigte	-10.8899
▁chemiker	-10.8899
▁smith	-10.8899
▁begünstigt	-10.8899
▁erzählung	-10.8899
▁angewiesen	-10.89
tö	-10.89
▁überzeugt	-10.89
▁vollzog	-10.8901
▁stammes	-10.8902
▁ausführung	-10.8904
▁einkaufs	-10.8904
▁service	-10.8906
▁abgebaut	-10.8909
lav	-10.8909
▁lat	-10.891
formation	-10.8912
–15	-10.8913
▁argon	-10.8914
gebunden	-10.8917
▁moderner	-10.8918
▁indische	-10.8921
▁teilgebiet	-10.8921
▁veränderte	-10.8927
ehrenbürger	-10.8929
▁schwedischen	-10.8931
▁koll	-10.894
tagen	-10.8944
▁din	-10.8944
▁gründeten	-10.8946
▁medizinischen	-10.8946
▁welle	-10.8947
quer	-10.8949
▁1800	-10.8951
verlauf	-10.8951
experiment	-10.8953
▁sonnensystem	-10.8953
▁(4	-10.8956
verständnis	-10.896
▁bios	-10.8961
infektion	-10.8962
ory	-10.8964
arabisch	-10.8965
▁erworben	-10.8967
▁registriert	-10.8967
▁satelliten	-10.8967
▁gesammelt	-10.8967
▁feuerwehr	-10.8967
▁überlegungen	-10.8967
▁arbeitnehmer	-10.8968
braun	-10.8968
▁1915	-10.8969
▁klage	-10.897
▁lieferte	-10.897
▁total	-10.8976
bet	-10.8978
▁fliegen	-10.8978
▁vierten	-10.8979
kanäle	-10.8979
▁(5	-10.898
▁germanischen	-10.8985
integr	-10.8991
▁dortigen	-10.8994
▁leo	-10.8997
▁fundamental	-10.8999
elf	-10.9008
dd	-10.9008
filmregisseur	-10.901
töne	-10.9016
▁karten	-10.9016
▁anfänge	-10.9018
▁kriege	-10.9018
▁berichtete	-10.902
▁störung	-10.902
wachstum	-10.902
▁körperliche	-10.9026
▁siedlungen	-10.9029
spektrum	-10.903
gelagert	-10.903
▁konstant	-10.903
messen	-10.9033
▁trugen	-10.9034
▁british	-10.9035
▁synagoge	-10.9035
▁aufweist	-10.9035
▁definieren	-10.9035
▁abweichend	-10.9035
▁aufschwung	-10.9035
▁installiert	-10.9035
melde	-10.9036
rennen	-10.9036
▁byzantinischen	-10.9038
▁reinen	-10.9038
▁fieber	-10.9039
▁kurzer	-10.904
▁mikroskop	-10.9042
▁kandidaten	-10.9042
imp	-10.9043
▁stufe	-10.9044
▁realität	-10.9047
▁börsen	-10.9047
fahrten	-10.9048
▁gleichgewicht	-10.9051
▁jeweilige	-10.9052
zid	-10.9057
ks	-10.9059
dio	-10.9066
▁verzicht	-10.9071
tischer	-10.9072
▁wü	-10.9072
gezeichnet	-10.9073
▁arthur	-10.9076
▁gedichte	-10.9079
▁sekunden	-10.9079
▁alexanders	-10.9086
stone	-10.9089
truppen	-10.9091
▁enzyme	-10.9092
▁mithilfe	-10.9092
▁mega	-10.9093
▁erzielte	-10.9093
▁dimension	-10.9093
filter	-10.9095
▁steigende	-10.9096
student	-10.91
risiko	-10.91
status	-10.9102
▁individuen	-10.9103
quadratkilometer	-10.9105
▁stalin	-10.9105
▁nunmehr	-10.9106
tempel	-10.9106
▁erhöhung	-10.9108
▁weser	-10.9108
chinesisch	-10.9109
inisterpräsident	-10.911
▁aufkommen	-10.9111
▁pilot	-10.9111
▁orientierte	-10.9114
▁granit	-10.9115
▁47	-10.9115
▁rotation	-10.9116
▁herzegowina	-10.9122
▁stadtverwaltung	-10.9125
▁strahlen	-10.9128
▁por	-10.9132
▁steuerung	-10.9135
▁vorliegen	-10.9136
ovi	-10.9138
automat	-10.9138
erkrankungen	-10.9141
kommentar	-10.9143
▁produzent	-10.9145
▁männliche	-10.9146
▁handschrift	-10.9147
▁niedrig	-10.915
▁antrag	-10.9152
▁kanon	-10.9153
▁brauch	-10.9154
weiterentwickelt	-10.9157
stellungen	-10.9157
griechisch	-10.9158
▁offene	-10.9159
▁regionalen	-10.9161
▁gemälde	-10.9166
asiatisch	-10.9166
▁public	-10.9167
interpret	-10.9168
gedanke	-10.917
künstler	-10.917
▁bronze	-10.917
▁jüngere	-10.9171
verschiebung	-10.9172
▁eingeweiht	-10.9172
▁verabschiedet	-10.9172
▁vorübergehend	-10.9172
▁demonstration	-10.9173
planet	-10.9175
kohl	-10.9175
▁theologische	-10.9177
▁finanzierung	-10.918
▁bohnen	-10.918
dol	-10.9184
▁unterhält	-10.9184
gelb	-10.9187
▁ausgewählt	-10.9189
oz	-10.9189
pd	-10.9191
▁bedeutete	-10.9196
▁beobachter	-10.9198
landeshauptstadt	-10.92
▁bier	-10.9204
schöpf	-10.9204
▁heut	-10.9205
▁gelehrten	-10.9205
golden	-10.9206
▁trieb	-10.9208
▁jahrhunderte	-10.921
▁ausbruch	-10.9211
▁produzenten	-10.9216
▁ewig	-10.9217
▁erweiterte	-10.9219
▁erzählungen	-10.9222
geworfen	-10.9223
▁halle	-10.9225
▁kapitel	-10.9225
▁rechnung	-10.9227
scheid	-10.9228
▁beschluss	-10.923
▁bundesminister	-10.924
▁deutung	-10.924
größte	-10.9241
sprecher	-10.9241
▁dezimal	-10.9241
▁illegal	-10.9242
▁landtagswahl	-10.9242
▁drogen	-10.9242
geburt	-10.9242
franken	-10.9243
▁komponenten	-10.9244
gangssprachlich	-10.9245
▁kpd	-10.9246
▁begründer	-10.9246
▁sonntag	-10.9247
▁makro	-10.9249
▁alltags	-10.9257
eigenschaften	-10.9258
preises	-10.9265
▁schifffahrt	-10.9266
▁erfolglos	-10.9266
polis	-10.9267
▁gase	-10.927
1.000	-10.927
holstein	-10.9272
▁biologie	-10.9273
▁ethik	-10.9275
▁emil	-10.9277
▁ausdrücke	-10.928
▁organische	-10.9281
▁schwedisch	-10.9281
orum	-10.9285
▁ägyptischen	-10.9288
▁gesetzliche	-10.9294
bos	-10.9296
▁stimmte	-10.9297
▁semi	-10.9298
▁mein	-10.9299
▁pyr	-10.9303
gesund	-10.9304
gewinn	-10.9306
▁oster	-10.9309
sehenswürdigkeit	-10.9311
▁offensichtlich	-10.9311
▁weibchen	-10.9311
▁stattfand	-10.9311
▁moskau	-10.9312
▁überzeugung	-10.9312
nominierung	-10.9312
bir	-10.9312
▁mittelmeerraum	-10.9314
▁state	-10.9315
▁statistik	-10.9317
▁liefern	-10.9318
▁live	-10.932
able	-10.9322
▁kaisertum	-10.9323
▁exemplare	-10.9325
▁kriegsende	-10.9326
▁berufen	-10.9327
▁eingriff	-10.9329
▁legende	-10.9331
▁gil	-10.9331
▁schienen	-10.9336
hülle	-10.9338
▁blüte	-10.9342
▁abenteuer	-10.9342
▁trier	-10.9344
▁meine	-10.9346
▁solar	-10.9346
▁entscheiden	-10.9348
ble	-10.935
wirbel	-10.9351
siegel	-10.9351
▁metalle	-10.9352
▁direkten	-10.9353
▁empfehlung	-10.9353
▁bekannter	-10.936
sprach	-10.9366
stift	-10.9368
▁kostenlos	-10.9368
▁attac	-10.9372
haltigen	-10.9373
philosoph	-10.9375
rhythm	-10.9377
▁zieht	-10.9377
rechtlichen	-10.938
▁einfacher	-10.9381
▁karthago	-10.9382
▁hoffnung	-10.9382
▁ermordung	-10.9382
▁marseille	-10.9382
▁christus	-10.9382
▁edward	-10.9382
▁zugehörige	-10.9383
▁gallium	-10.9385
▁herzogtum	-10.9385
wunder	-10.9386
schreck	-10.9386
▁lud	-10.9387
lach	-10.9387
hier	-10.9388
▁jugendliche	-10.9391
▁verwandten	-10.9395
▁abgeordnete	-10.9397
▁romane	-10.9398
strategie	-10.9399
erzeugung	-10.9401
▁atem	-10.9402
▁gpl	-10.9402
nähe	-10.9403
▁durfte	-10.9404
▁maßeinheit	-10.9404
▁trennt	-10.9404
bünde	-10.9405
lange	-10.9406
tek	-10.9406
▁stoffwechsel	-10.9409
▁schmerz	-10.9409
▁wissens	-10.941
▁macintosh	-10.941
▁verteidigungs	-10.9415
▁beauftragt	-10.9417
▁bürgerlichen	-10.9418
.&	-10.9421
▁komplexität	-10.9421
▁umsatz	-10.9421
▁erwies	-10.9422
▁billig	-10.9423
▁öko	-10.9423
dreh	-10.9424
kind	-10.9425
▁lösungen	-10.9426
machen	-10.9428
cs	-10.9429
lig	-10.9429
parteitag	-10.9431
▁andreas	-10.9432
";	-10.9433
▁wahlkreis	-10.9439
▁sprachliche	-10.9442
wenn	-10.9444
▁fielen	-10.9444
▁volkes	-10.9446
▁effizient	-10.9449
regionen	-10.9449
offizier	-10.9453
▁walzen	-10.9453
▁außerordentlich	-10.9453
▁bedrohung	-10.9453
▁company	-10.9453
▁auschwitz	-10.9453
▁verbessern	-10.9453
▁maltesisch	-10.9453
▁organismen	-10.9453
▁rostock	-10.9453
▁protestantische	-10.9453
▁chance	-10.9454
▁genug	-10.9456
arme	-10.9457
effizient	-10.9457
▁auffällig	-10.9457
▁sektion	-10.9457
drüse	-10.9462
▁probe	-10.9463
▁proteine	-10.9463
▁pferde	-10.9463
glied	-10.9463
▁fil	-10.9465
▁rechnen	-10.9468
schneiden	-10.947
▁ausgelöst	-10.9474
liches	-10.9475
essel	-10.9477
jahres	-10.9477
▁techniken	-10.9477
▁basic	-10.9482
▁gilgamesch	-10.9483
▁kommando	-10.9483
600	-10.9487
▁palm	-10.9487
▁umwandlung	-10.9488
▁sternen	-10.9488
spende	-10.9491
ikon	-10.9493
fug	-10.9494
▁revolutions	-10.9494
▁freier	-10.9495
▁tiefer	-10.9497
▁wh	-10.9497
team	-10.9498
germanische	-10.9501
▁geistige	-10.9502
▁hubschrauber	-10.9509
haut	-10.9509
▁formulierte	-10.9509
rlei	-10.951
messung	-10.9511
pc	-10.9519
brücken	-10.9519
wurf	-10.9522
▁benötigte	-10.9523
▁havanna	-10.9524
▁kombiniert	-10.9524
kopplung	-10.9524
▁kuwait	-10.9524
▁errichten	-10.9524
▁überregional	-10.9524
▁konzil	-10.9524
▁vegetation	-10.9524
draht	-10.9525
chirurgie	-10.9526
▁niedrigen	-10.9529
▁saint	-10.953
parlament	-10.953
ielle	-10.9531
liebe	-10.9531
sal	-10.9531
rechtlich	-10.9535
anbau	-10.9537
▁erwachsenen	-10.9542
kö	-10.9545
mineral	-10.9546
stehenden	-10.9547
colo	-10.9548
▁dauerte	-10.9549
▁versetzt	-10.955
king	-10.955
▁abgegeben	-10.955
▁antrieb	-10.955
▁geprägten	-10.9555
versicherung	-10.9556
spin	-10.9558
▁gregor	-10.956
▁vorfahren	-10.956
▁vorlage	-10.956
▁untersuchte	-10.9563
fc	-10.9564
▁46	-10.9567
▁plätze	-10.9568
▁ausgleich	-10.9571
berechtigt	-10.9571
▁66	-10.9574
▁rau	-10.9574
volt	-10.958
▁open	-10.9584
reaktionen	-10.9585
▁gravitation	-10.9588
▁wettbewerbs	-10.9592
empfindlich	-10.9593
beschränkung	-10.9596
▁baseball	-10.9596
wärme	-10.9597
orbital	-10.9597
▁komposition	-10.9598
▁indium	-10.9599
300	-10.9599
▁gegend	-10.96
itätstheorie	-10.9604
wilhelm	-10.9604
medium	-10.9606
may	-10.9606
▁parameter	-10.9607
▁ausgestellt	-10.9608
▁division	-10.9608
kurve	-10.9609
df	-10.9609
▁variablen	-10.961
besitz	-10.9611
▁formuliert	-10.9611
▁arbeitet	-10.9612
fiz	-10.9615
▁bauwerk	-10.9616
▁formale	-10.962
path	-10.9622
gesetzes	-10.9623
▁ausgetragen	-10.9625
▁anbieter	-10.9625
▁materialien	-10.9625
▁erkrankungen	-10.9627
fisch	-10.963
▁motive	-10.9631
▁färöisch	-10.9633
▁dänische	-10.9633
dach	-10.9633
▁arabisch	-10.9638
armen	-10.964
▁übernahmen	-10.9642
▁freiberg	-10.9649
kali	-10.9656
▁niederlanden	-10.9658
▁schafft	-10.9662
ora	-10.9662
▁turing	-10.9662
▁hochschul	-10.9663
wände	-10.9663
▁luther	-10.9665
währung	-10.9665
▁befreiung	-10.9668
dustrialisierung	-10.9669
entzündung	-10.9669
▁betrifft	-10.9669
▁gefährdet	-10.9669
▁porträt	-10.9669
▁kaufleute	-10.9669
ligen	-10.967
▁1906	-10.967
▁tempelhof	-10.967
neigung	-10.9671
vergiftung	-10.9671
▁erwarten	-10.9673
▁gewährt	-10.9674
▁kreise	-10.9674
gesteuert	-10.9675
▁hafer	-10.9675
▁noir	-10.9675
baden	-10.9675
▁staatspräsident	-10.9677
brachte	-10.9677
vögel	-10.9678
▁organisierte	-10.9678
"&	-10.9679
gearbeitet	-10.968
katalog	-10.9687
futter	-10.9688
rassen	-10.9689
▁hauptmann	-10.9689
▁bedingung	-10.9692
▁kleinste	-10.9694
gehoben	-10.9694
lé	-10.9698
ausbildung	-10.97
tafel	-10.9701
▁vorsitzender	-10.9704
▁typen	-10.9708
▁betroffenen	-10.971
awa	-10.9711
book	-10.972
▁schätzungen	-10.9722
onym	-10.9722
start	-10.9724
▁reguläre	-10.9726
▁stock	-10.9728
▁kurfürsten	-10.9728
religiös	-10.9729
▁fördern	-10.9731
rid	-10.9734
▁jiddisch	-10.9735
3-	-10.9738
tze	-10.9738
▁dreißigjährige	-10.9742
▁schicksal	-10.9742
▁territorial	-10.9742
▁ähnelt	-10.9742
▁empfänger	-10.9742
▁enigma	-10.9742
▁zueinander	-10.9742
▁geteilt	-10.9742
▁anzutreffen	-10.9742
▁funktional	-10.9743
▁chromosomen	-10.9743
▁kommunalwahl	-10.9743
▁ausgangspunkt	-10.9744
▁1806	-10.9745
▁hohl	-10.9745
▁judentum	-10.9747
politischen	-10.9747
▁zeugen	-10.975
gesagt	-10.9752
mid	-10.9756
▁stabilität	-10.9756
▁nutzt	-10.9757
▁königin	-10.9757
▁unternehmer	-10.976
▁landkreises	-10.976
▁gaben	-10.9762
ensis	-10.9763
gesetze	-10.9767
gemeinschaften	-10.9768
▁bekommen	-10.977
▁stadtteilen	-10.977
▁import	-10.9772
field	-10.9777
▁blind	-10.9777
▁bewies	-10.9779
kg	-10.9784
äst	-10.9785
▁texten	-10.9786
stick	-10.9787
festigkeit	-10.9789
▁brom	-10.9789
▁aufstand	-10.9791
fur	-10.9793
▁ansichten	-10.9795
▁konkret	-10.9797
▁südwest	-10.9797
▁pin	-10.9798
▁nordwest	-10.9798
▁anson	-10.9799
▁mund	-10.98
malige	-10.9803
▁subjekt	-10.9804
▁belegen	-10.9808
▁fix	-10.9808
▁moleküle	-10.981
linguist	-10.9812
▁betrachten	-10.9813
▁gedruckt	-10.9814
▁lebensmitteln	-10.9815
toleranz	-10.9815
▁association	-10.9815
▁folglich	-10.9815
▁joyce	-10.9815
▁lully	-10.9815
▁mettmann	-10.9815
▁serbien	-10.9815
▁verlief	-10.9815
▁periodensystem	-10.9815
source	-10.9815
▁löslich	-10.9816
▁zink	-10.9816
▁altgriechisch	-10.9817
▁gottfried	-10.9818
kapelle	-10.9822
kühl	-10.9822
▁szene	-10.9823
wissen	-10.9823
▁residenz	-10.9824
▁akut	-10.9825
now	-10.9826
▁korn	-10.9826
bayern	-10.9827
▁beg	-10.9828
add	-10.9829
slaw	-10.9831
brach	-10.9835
illi	-10.9837
▁folgezeit	-10.9838
messe	-10.984
▁stör	-10.9841
vorkommen	-10.9842
▁praktische	-10.9843
▁20.000	-10.9846
zuhalten	-10.9848
▁regelung	-10.9852
brett	-10.9852
▁cent	-10.9853
▁entscheidende	-10.9855
▁erkrankung	-10.9858
▁karte	-10.9858
▁nachteil	-10.9864
▁diamanten	-10.9864
beg	-10.9865
▁gedächtnis	-10.9867
deckung	-10.9872
kaserne	-10.9872
▁sorten	-10.9872
produkten	-10.9872
▁aussehen	-10.9877
▁theo	-10.9878
▁sagt	-10.9879
ave	-10.9881
▁grand	-10.9882
▁berichten	-10.9882
sheim	-10.9883
▁gebirge	-10.9884
fol	-10.9884
▁versammlung	-10.9886
4.000	-10.9886
▁prominente	-10.9889
▁pascal	-10.9889
▁variiert	-10.9889
▁spätmittelalter	-10.9889
but	-10.9889
▁verehrt	-10.989
▁gödel	-10.989
▁automobil	-10.989
▁spiral	-10.9891
▁herausgeber	-10.9891
▁unabhängige	-10.9891
gur	-10.9892
▁wiederaufbau	-10.9893
häuf	-10.9896
▁heran	-10.9898
direktor	-10.9902
revolution	-10.9903
gegründet	-10.9903
papier	-10.9904
▁zwang	-10.9904
protein	-10.9905
erste	-10.9905
index	-10.9918
▁bulgarische	-10.9919
▁win	-10.9923
▁heiß	-10.9923
▁camp	-10.9923
strafe	-10.9924
plätzen	-10.9924
▁unterfamilie	-10.9927
▁objektiv	-10.9927
▁qua	-10.993
höfe	-10.9933
ehren	-10.9933
▁hause	-10.9933
▁geschickt	-10.9933
zeitschrift	-10.9934
▁ersetzen	-10.9934
▁preußisch	-10.9937
paare	-10.9939
▁nasa	-10.994
sprinzip	-10.9941
▁korea	-10.9949
▁mary	-10.9949
entscheid	-10.995
behörden	-10.9951
▁geschlechts	-10.9951
▁verfilmung	-10.9951
▁ändert	-10.9952
ware	-10.9954
▁wett	-10.9956
una	-10.9956
▁sog	-10.9958
▁banken	-10.9959
▁partnerschaft	-10.9962
▁versuchten	-10.9962
▁3000	-10.9963
stuhl	-10.9963
spektral	-10.9964
▁bewaffnete	-10.9964
▁glucose	-10.9964
▁tucholsky	-10.9964
management	-10.9964
▁elfenbeinküste	-10.9964
▁jacob	-10.9964
▁vorbehalt	-10.9964
intervall	-10.9965
▁scheinbar	-10.9965
▁erlitt	-10.9966
hydrat	-10.9966
▁hob	-10.9966
modus	-10.9966
▁lösch	-10.9967
▁stufen	-10.9967
▁verglichen	-10.9967
▁wertvoll	-10.9971
vu	-10.9972
▁finanziellen	-10.9973
▁indiens	-10.9975
▁messungen	-10.9975
▁gewählten	-10.9976
pläne	-10.9976
▁bgb	-10.9977
technologie	-10.9979
definition	-10.998
▁gelangt	-10.9982
▁bauch	-10.9982
▁herum	-10.9982
▁geplante	-10.9983
▁wirk	-10.9983
stimmung	-10.9986
becken	-10.9988
▁sir	-10.999
▁malerei	-10.9991
▁hände	-10.9997
▁getränk	-11
partikel	-11.0004
web	-11.0005
▁norman	-11.0007
▁quadrat	-11.0008
▁speise	-11.0009
▁baute	-11.001
▁oliv	-11.0011
▁übrig	-11.0014
marke	-11.0017
▁dokumente	-11.0018
norm	-11.0019
▁bisherige	-11.0021
▁behauptet	-11.0022
terminal	-11.0022
sicherung	-11.0025
▁gru	-11.0032
glu	-11.0033
▁erfahren	-11.0033
reisen	-11.0034
▁gesetzlich	-11.0036
▁klöster	-11.0039
▁etymologie	-11.0039
▁gefordert	-11.0039
▁beeinflussen	-11.0039
▁insulin	-11.0039
▁schlaf	-11.0039
▁1916	-11.0041
▁erlangen	-11.0041
▁verzeichnet	-11.0044
▁lese	-11.0045
▁minderheiten	-11.0046
mönch	-11.0047
flüssig	-11.0052
▁berichte	-11.0055
räder	-11.0056
▁schlechte	-11.0057
▁vielfältige	-11.0057
sturz	-11.0057
▁lungen	-11.0058
86-	-11.0062
schlacht	-11.0065
erscheinung	-11.0066
▁fenster	-11.0067
▁tetra	-11.0076
▁hill	-11.0079
▁staub	-11.008
betriebe	-11.0081
symp	-11.0086
▁komitee	-11.0086
schreiber	-11.0092
▁geschäfte	-11.0092
▁algebraische	-11.0093
türk	-11.0095
▁restliche	-11.0096
▁his	-11.0096
katholischen	-11.0097
▁schenk	-11.0098
▁dm	-11.01
▁vorgehen	-11.01
▁ungleich	-11.0101
key	-11.0102
iller	-11.0103
▁flüssige	-11.0103
▁population	-11.0106
▁magen	-11.0108
reihen	-11.0111
▁häufigkeit	-11.0111
▁nachweisen	-11.0111
▁elisabeth	-11.0115
▁gestartet	-11.0115
▁katholiken	-11.0115
▁kopenhagen	-11.0115
▁quecksilber	-11.0115
▁coffein	-11.0115
▁lebzeiten	-11.0115
▁zedler	-11.0115
▁wagner	-11.0115
▁wohlhabend	-11.0115
▁gefeiert	-11.0115
▁versorgt	-11.0115
▁ändern	-11.0115
▁belgische	-11.0115
▁anforderungen	-11.0116
▁don	-11.0116
hochschullehrer	-11.0117
▁fungiert	-11.0117
▁sorgen	-11.0117
▁aufmerksamkeit	-11.0117
▁bernhard	-11.0118
▁1871	-11.0118
meldung	-11.0119
▁trinkwasser	-11.012
▁wählen	-11.0122
▁rosa	-11.0122
▁deswegen	-11.0126
▁sahen	-11.0127
einandersetzung	-11.0128
▁met	-11.0131
▁angela	-11.0133
tracht	-11.0136
▁unmöglich	-11.0138
▁eid	-11.0138
▁eintrag	-11.0139
▁verlags	-11.0141
▁vereinbart	-11.0142
epos	-11.0143
▁wortes	-11.0143
hagen	-11.0143
▁indus	-11.0144
▁dol	-11.0146
▁denkmal	-11.0149
▁finger	-11.0153
▁taucht	-11.0153
▁mandat	-11.0156
▁1200	-11.0156
orden	-11.0156
▁schäden	-11.0157
kation	-11.0158
▁organe	-11.0159
liefer	-11.0161
taten	-11.0161
▁ky	-11.0162
▁teilt	-11.0162
3.000	-11.0164
▁makedonien	-11.0168
▁engeren	-11.0168
füllung	-11.0172
▁dichtung	-11.0173
▁bearbeitung	-11.0173
ava	-11.0174
▁schien	-11.0175
armee	-11.0177
▁steuern	-11.0179
sprozesse	-11.019
▁bedeckt	-11.0191
▁caligula	-11.0191
▁celsius	-11.0191
▁eduard	-11.0191
▁kohlenhydrate	-11.0191
▁domitian	-11.0191
gebühr	-11.0191
▁gelungen	-11.0192
▁erzählt	-11.0193
▁konsequenz	-11.0193
agentur	-11.0194
sensor	-11.0196
▁riesige	-11.0196
▁sache	-11.0198
▁außenminister	-11.0201
▁monarchie	-11.0201
▁hochwasser	-11.0203
▁abstimmung	-11.0205
▁instabil	-11.0206
▁gängige	-11.0209
modelle	-11.021
▁gross	-11.021
▁proto	-11.0211
fremd	-11.0211
völker	-11.0213
stock	-11.0222
behandlung	-11.0222
800	-11.0225
geschlecht	-11.0225
▁eingabe	-11.0226
▁litt	-11.0226
2.000	-11.0232
svertrag	-11.0233
holt	-11.0238
▁53	-11.0238
▁handwerks	-11.0243
fähige	-11.0244
▁stunde	-11.0249
▁fuhr	-11.025
▁entwicklungen	-11.0251
▁schild	-11.0251
▁perfekt	-11.0256
▁dateien	-11.0256
▁aufwand	-11.0257
▁protonen	-11.0257
▁zusammenhänge	-11.0259
▁teleskop	-11.0261
▁nachfolgend	-11.0262
knüpf	-11.0262
▁kampfstoff	-11.0264
▁unser	-11.0265
genehmigung	-11.0268
▁inspiriert	-11.0268
▁manuskript	-11.0268
▁vergrößert	-11.0268
budget	-11.0268
▁einwanderer	-11.0268
▁ludwigshafen	-11.0268
▁vollendet	-11.0269
erlebnis	-11.0269
▁investitionen	-11.0269
zähne	-11.027
▁geometrische	-11.027
▁böhmen	-11.027
▁1860	-11.0273
lein	-11.0274
▁nato	-11.0274
▁force	-11.0274
gerechnet	-11.0278
▁reste	-11.028
adel	-11.0281
liber	-11.0281
asien	-11.0282
▁nachkommen	-11.0283
alb	-11.0283
▁lernen	-11.0286
▁leisten	-11.0286
▁serbische	-11.0289
▁eugen	-11.029
kongress	-11.0291
gewässer	-11.0295
▁ple	-11.0295
▁flora	-11.0296
▁erlaubte	-11.0298
schatz	-11.03
▁juristische	-11.0304
aq	-11.0308
▁angehörige	-11.031
▁eg	-11.0311
▁klang	-11.0311
fuhr	-11.0313
ky	-11.0315
itis	-11.0318
ländischen	-11.0323
▁konstante	-11.0324
kk	-11.0325
yth	-11.0325
dau	-11.0327
▁admiral	-11.0329
▁flüssig	-11.0333
osa	-11.0334
▁ohr	-11.0336
▁mut	-11.0337
▁zone	-11.0341
▁zuordnung	-11.0342
▁brasilien	-11.0346
▁hebräisch	-11.0346
▁washington	-11.0346
▁eingeteilt	-11.0346
▁verschoben	-11.0346
▁erwarb	-11.0346
▁moment	-11.0346
sulfid	-11.0346
▁bewertet	-11.0346
ohlenstoffdioxid	-11.0347
▁1904	-11.0347
▁edelgas	-11.0347
▁hauptdarsteller	-11.0347
▁volkszählung	-11.0347
▁industrielle	-11.0347
▁angehört	-11.0348
life	-11.0348
▁bomben	-11.0352
▁nom	-11.0354
▁abgebildet	-11.0356
schätze	-11.0357
▁jahreszeit	-11.0358
filmen	-11.0361
bereit	-11.0364
▁gesteine	-11.0365
▁polnischen	-11.0366
▁befanden	-11.0367
▁steve	-11.0368
▁blaue	-11.0369
▁mitteln	-11.0369
polizei	-11.037
würde	-11.037
▁hö	-11.0373
▁bundesweit	-11.0376
▁mos	-11.0377
schub	-11.038
▁schach	-11.0382
▁zwanzig	-11.0383
▁jenseits	-11.0388
▁sing	-11.0389
bräu	-11.039
geschlagen	-11.039
child	-11.0391
▁bulgarischen	-11.0393
▁aufgehoben	-11.0398
getriebe	-11.04
zur	-11.04
▁dörfer	-11.0403
▁männlichen	-11.0404
schätzung	-11.0407
▁1500	-11.0408
herz	-11.0409
legierung	-11.0411
zeichner	-11.0412
▁organischen	-11.0416
▁fels	-11.0419
omo	-11.0421
gefügt	-11.0423
▁pilz	-11.0423
synchron	-11.0424
▁guevara	-11.0424
▁humboldt	-11.0424
▁mythologie	-11.0424
▁stauffenberg	-11.0424
▁1903	-11.0424
▁verändern	-11.0424
stadium	-11.0424
▁brustkrebs	-11.0424
▁erschlossen	-11.0425
hund	-11.0427
▁1870	-11.0428
▁herbert	-11.043
▁spitz	-11.0437
diagramm	-11.0438
bestände	-11.044
siedler	-11.0443
bahnhöfe	-11.0443
ash	-11.0445
▁empfangen	-11.0447
opfer	-11.0448
▁prüfung	-11.0448
esse	-11.045
back	-11.0451
merkmale	-11.0452
▁kommerzielle	-11.0453
▁grundgesetz	-11.0457
prop	-11.0458
▁freistaat	-11.0459
▁anerkannte	-11.046
▁müller	-11.0463
▁datum	-11.0463
fränkisch	-11.0464
bänder	-11.0467
generation	-11.0472
express	-11.0477
▁enzyklopädie	-11.0479
nova	-11.0479
▁nachricht	-11.0484
▁zoo	-11.0486
▁elfenbein	-11.049
▁160	-11.0491
▁krisen	-11.0492
1,6	-11.0494
▁eintritt	-11.0498
delta	-11.05
aj	-11.0501
▁bezog	-11.0501
▁vierte	-11.0502
▁traditionen	-11.0502
loch	-11.0502
tzen	-11.0502
▁korruption	-11.0502
▁mönchengladbach	-11.0502
▁potentiell	-11.0502
▁kurzzeitig	-11.0502
▁erfunden	-11.0504
▁verwandtschaft	-11.0505
▁1889	-11.0506
▁verfolgung	-11.0507
endes	-11.0507
▁kollegen	-11.0509
▁1850	-11.051
▁genres	-11.0511
▁manchester	-11.0511
▁selbstständig	-11.0517
▁fehlende	-11.0519
bündel	-11.0521
▁vermögens	-11.0522
▁niveau	-11.0522
rausch	-11.0528
▁engen	-11.0528
kiefer	-11.053
betriebssystem	-11.0531
vereinigte	-11.0532
▁fahrt	-11.0532
▁botschaft	-11.0534
geographie	-11.0535
▁kaufmann	-11.0536
▁département	-11.0537
▁vertretern	-11.0537
gno	-11.0538
▁base	-11.0538
bö	-11.0538
▁drk	-11.0539
▁diplomatische	-11.0539
▁pra	-11.0544
studien	-11.0545
▁händler	-11.0547
▁hei	-11.0548
gau	-11.0549
▁plattform	-11.0559
▁wächst	-11.0559
▁züge	-11.056
▁globale	-11.056
▁abstrakte	-11.056
▁zufällig	-11.0561
pflege	-11.0563
lieferung	-11.0564
▁durchgesetzt	-11.0565
csu	-11.0567
uhr	-11.0567
▁transportiert	-11.0567
▁wil	-11.0568
▁auslands	-11.0569
▁vorteile	-11.0571
bk	-11.0572
bla	-11.0573
ographische	-11.0576
▁kontakte	-11.0578
▁gelegen	-11.0579
▁beschädigt	-11.0582
▁bologna	-11.0582
▁joachim	-11.0582
▁spontan	-11.0582
▁weihnachts	-11.0582
▁besagt	-11.0582
▁erinnern	-11.0582
▁klavier	-11.0582
▁finnland	-11.0582
▁zugewiesen	-11.0583
▁stehenden	-11.0584
bereitschaft	-11.0584
▁normen	-11.0586
▁entlassen	-11.0586
schärfe	-11.0587
lz	-11.0587
▁freiheits	-11.0588
▁organismus	-11.0591
kodierung	-11.0591
verletzungen	-11.0591
lagern	-11.0593
zulegen	-11.0594
lücke	-11.0595
ßt	-11.0599
sub	-11.0599
▁beendete	-11.0601
▁verwandte	-11.0603
kino	-11.0604
höchst	-11.061
gründen	-11.061
gli	-11.0612
kapital	-11.0612
volumen	-11.0612
übertragung	-11.0615
wahrscheinlich	-11.0616
▁stehende	-11.062
▁niedrige	-11.0622
städten	-11.0622
▁nahen	-11.0623
▁gefahren	-11.0623
▁western	-11.0623
decken	-11.0623
▁opern	-11.0624
▁geschmack	-11.0625
▁eingetragen	-11.0626
▁rücken	-11.0627
▁1,2	-11.0628
osi	-11.0629
▁derselben	-11.0631
regiment	-11.0633
hum	-11.0638
▁studios	-11.0641
▁kraftwerk	-11.0641
transfer	-11.0647
▁indogermanische	-11.0648
weide	-11.065
▁begab	-11.0652
▁überlegen	-11.0654
typisch	-11.0654
▁mondes	-11.0657
▁56	-11.0661
▁sat	-11.0661
▁angriffs	-11.0662
▁kürzer	-11.0662
▁mohammed	-11.0662
▁myanmar	-11.0662
▁töchter	-11.0662
▁gehabt	-11.0662
▁thermische	-11.0662
▁gehandelt	-11.0662
▁kommune	-11.0663
▁nachkriegszeit	-11.0663
gio	-11.0664
▁neander	-11.0664
▁traven	-11.0665
▁erreichbar	-11.0666
▁1830	-11.067
smöglichkeiten	-11.067
▁planet	-11.0671
tta	-11.0672
▁problemen	-11.0673
leid	-11.0676
▁pfalz	-11.0676
frauen	-11.0682
▁härte	-11.0682
▁nachfolgenden	-11.0686
lateinisch	-11.0689
haben	-11.069
▁fledermäuse	-11.069
gefäß	-11.0693
positiv	-11.0694
plattform	-11.0694
▁produzieren	-11.0695
▁wagen	-11.0697
geh	-11.0698
großkreuz	-11.0701
▁inhalte	-11.0706
▁längen	-11.0706
▁kath	-11.0707
seiten	-11.0707
läufer	-11.0707
▁blas	-11.0708
▁180	-11.0708
▁weber	-11.0709
▁gründer	-11.0711
politiker	-11.0711
akte	-11.0714
▁bühne	-11.0715
sperr	-11.0718
stall	-11.0722
alia	-11.0723
▁düsseldorfer	-11.0724
▁ausländischen	-11.0725
idae	-11.0729
geschichtliche	-11.0733
▁ms	-11.0734
edit	-11.0737
röhre	-11.074
▁studieren	-11.0741
sammler	-11.0742
▁anfänglich	-11.0742
▁church	-11.0742
▁kästner	-11.0742
▁herzinfarkt	-11.0743
▁aachen	-11.0743
▁popularität	-11.0743
▁1902	-11.0743
klo	-11.0745
astro	-11.0745
▁ausrichtung	-11.0747
▁54	-11.0748
▁frankenreich	-11.0749
ämie	-11.075
▁leistungsfähig	-11.0752
▁erteilt	-11.0752
üß	-11.0754
saat	-11.0755
theoretische	-11.0755
univers	-11.0756
ridge	-11.0757
▁immunsystem	-11.0759
kit	-11.076
▁solle	-11.0762
▁erheblichen	-11.0766
vita	-11.0767
woche	-11.077
schweiz	-11.0777
august	-11.0777
▁sturm	-11.0779
▁dieselbe	-11.0779
endung	-11.0782
▁gestein	-11.0784
▁eli	-11.0786
isa	-11.0789
▁lied	-11.079
geliefert	-11.0794
▁verbindlich	-11.0794
▁erhaltung	-11.0794
gesch	-11.08
▁pm	-11.0801
russ	-11.0802
gekommen	-11.0805
verbänden	-11.0805
waffe	-11.0808
▁heirat	-11.0811
gent	-11.0812
▁%).	-11.0813
verletzung	-11.0814
menschen	-11.0817
▁aufeinander	-11.0821
▁legitim	-11.0822
▁html	-11.0824
▁konsequent	-11.0824
▁resultat	-11.0824
▁doktor	-11.0824
▁angeregt	-11.0824
▁anwesenheit	-11.0824
▁syrien	-11.0824
▁homburg	-11.0824
▁ordnungszahl	-11.0824
▁group	-11.0825
▁reformen	-11.0826
▁positiven	-11.0828
▁vordergrund	-11.083
▁volkswirtschaft	-11.0831
▁gebe	-11.0832
▁brut	-11.0832
▁orientierung	-11.0833
▁reihen	-11.0834
▁96	-11.0836
bia	-11.0836
lesen	-11.0836
▁ausgedrückt	-11.0836
▁übte	-11.0837
▁belastung	-11.0838
▁lebendig	-11.0838
partnerschaften	-11.0843
▁fränkischen	-11.0843
getragen	-11.0844
wohl	-11.0848
▁beta	-11.0851
▁produktionen	-11.0854
mein	-11.0854
▁parlamentarisch	-11.0854
pto	-11.0855
▁weiten	-11.086
konsum	-11.0861
kredit	-11.0861
gültig	-11.0862
▁sätze	-11.0863
cp	-11.0863
▁axiome	-11.0865
▁vakuum	-11.0867
historiker	-11.0867
▁keinem	-11.0867
▁verfolgte	-11.0868
▁emission	-11.087
▁0,5	-11.0871
▁konservative	-11.0875
biografie	-11.0877
▁ausgeprägte	-11.088
▁stattfinden	-11.088
▁wüsten	-11.0884
freundlich	-11.0884
▁industriellen	-11.0886
▁monument	-11.0888
volks	-11.0888
just	-11.0897
▁orden	-11.0897
staats	-11.0904
▁existierende	-11.0904
bildenden	-11.0905
▁empfohlen	-11.0906
▁möchte	-11.0906
▁senkrecht	-11.0906
suffix	-11.0906
segment	-11.0906
lexikon	-11.0906
carbonat	-11.0906
▁byron	-11.0906
▁1901	-11.0907
▁gelegenheit	-11.0908
▁atomkern	-11.0909
auswahl	-11.0913
▁raumfahrt	-11.0913
▁riesen	-11.0914
▁france	-11.0915
scheide	-11.0916
vat	-11.0917
lehr	-11.0921
▁vorherige	-11.0921
▁perser	-11.0921
duk	-11.0922
vorschriften	-11.0926
staatliche	-11.0927
▁verwachsen	-11.0928
immer	-11.0931
sagen	-11.0935
▁58	-11.0937
lib	-11.0938
▁gelesen	-11.094
▁sucht	-11.0941
▁essen	-11.0942
▁tru	-11.0942
stärkste	-11.0944
transformation	-11.0944
▁vii	-11.0945
rent	-11.0945
ierend	-11.0947
friesisch	-11.0948
psych	-11.0948
linge	-11.0949
▁reiz	-11.0951
▁heinrichs	-11.0952
▁sprung	-11.0952
▁vorhandene	-11.0953
hans	-11.0953
ift	-11.0964
▁büchern	-11.0965
▁fc	-11.0966
▁beliebige	-11.0968
schuh	-11.0971
▁0,1	-11.0981
▁ansprüche	-11.0982
▁ökologische	-11.0983
▁relation	-11.0983
▁route	-11.0986
flügel	-11.0987
richter	-11.0988
denkmäler	-11.0988
▁beheimatet	-11.0988
▁browser	-11.0988
▁brüssel	-11.0988
▁shyamalan	-11.0988
▁unverändert	-11.0988
▁beachtet	-11.0988
geschaltet	-11.0989
▁lübeck	-11.0989
▁beansprucht	-11.0989
▁elektrolyse	-11.0989
▁tageszeitung	-11.0989
▁fauna	-11.099
hebung	-11.0992
▁umfangreichen	-11.0992
▁bremer	-11.0992
5)	-11.0992
phyll	-11.0993
▁niedergang	-11.0994
▁differenziert	-11.0994
guss	-11.0995
ähnliche	-11.0996
▁laufzeit	-11.0998
▁schaden	-11.0998
▁schnellen	-11.0999
hex	-11.1002
▁anthropologie	-11.1002
▁belagerung	-11.1002
▁zumal	-11.1003
▁talent	-11.1006
▁verwitterung	-11.1008
▁nochmals	-11.1008
▁gri	-11.1008
▁bol	-11.1009
▁erhaltene	-11.1012
▁legal	-11.1015
▁publizierte	-11.1017
▁regierungszeit	-11.1018
video	-11.1018
▁logischen	-11.1021
▁bogen	-11.1024
▁kolonien	-11.1024
▁forst	-11.1026
▁eigentums	-11.1028
provinz	-11.1029
ordin	-11.1029
beauftragte	-11.103
▁löwen	-11.103
▁soweit	-11.1031
▁erziehung	-11.1031
gefangen	-11.1031
▁verlängerung	-11.1034
aux	-11.1037
▁einstein	-11.1042
▁normalen	-11.1045
chor	-11.1046
▁textil	-11.1047
isotop	-11.1048
▁nass	-11.1051
▁halogen	-11.1051
führende	-11.1054
▁journalisten	-11.1055
▁erbe	-11.1056
aa	-11.1056
▁widerstands	-11.1058
▁wiesen	-11.1064
▁music	-11.1067
makedonische	-11.1072
wörtlich	-11.1072
▁befestigt	-11.1072
▁buddha	-11.1072
▁gewidmet	-11.1072
▁männchen	-11.1072
▁päpstliche	-11.1072
▁ikrk	-11.1072
▁verwaltet	-11.1072
▁hameln	-11.1072
skandal	-11.1072
▁bewohnt	-11.1072
▁zugehörigkeit	-11.1073
▁hervorgegangen	-11.1074
▁hansestadt	-11.1078
▁fachgebiet	-11.1078
zucht	-11.1079
▁jesus	-11.1081
zugehen	-11.1082
▁becken	-11.1089
▁elements	-11.1093
_16	-11.1095
▁spanische	-11.1096
▁konzepte	-11.11
damm	-11.1101
karl	-11.111
differenz	-11.111
▁hoheit	-11.1111
▁komplexer	-11.1111
pie	-11.1111
▁schnelle	-11.1112
container	-11.1114
mak	-11.1116
entscheidung	-11.1118
▁details	-11.112
▁christlich	-11.112
vorgang	-11.1124
▁publiziert	-11.1127
▁isotopen	-11.1128
▁besonderer	-11.1128
▁kampagne	-11.1129
▁erhaltenen	-11.1129
▁nobelpreis	-11.1132
cle	-11.1135
zerfall	-11.1137
hexa	-11.1144
▁zustände	-11.1144
▁cons	-11.1145
▁zustande	-11.1145
▁kolonie	-11.1146
▁auszeichnung	-11.1151
▁teilnahme	-11.1153
umschlag	-11.1155
▁eiffel	-11.1155
▁beträchtlich	-11.1156
▁margaret	-11.1156
▁vernichtet	-11.1156
▁sexual	-11.1156
▁deutet	-11.1156
▁ihrerseits	-11.1156
▁karlsruhe	-11.1156
hydroxy	-11.1158
halter	-11.1158
▁fürstentum	-11.1158
▁berechnen	-11.116
▁1815	-11.1161
▁euklidische	-11.1161
▁liebig	-11.1162
▁1880	-11.1162
▁maschinenbau	-11.1164
vergleich	-11.1169
ografisch	-11.1172
▁großstädte	-11.1173
tribut	-11.1174
▁ausstellungen	-11.1178
▁morse	-11.1179
▁böden	-11.1179
tit	-11.1181
tica	-11.1182
▁lebensweise	-11.1182
▁wohnte	-11.1187
▁beleg	-11.1188
▁jesu	-11.1191
feind	-11.1194
märkte	-11.1199
▁herrschte	-11.1199
konflikt	-11.12
koalition	-11.1201
bewusstsein	-11.1201
▁transformation	-11.1202
hai	-11.1203
▁stadtzentrum	-11.121
hain	-11.121
▁aufführung	-11.1211
▁versionen	-11.1213
▁mündung	-11.1213
gotische	-11.1214
▁geschlagen	-11.1214
▁zwangs	-11.1215
kämpfer	-11.1217
▁homo	-11.1218
stellige	-11.1218
▁afrikanische	-11.122
hat	-11.1221
peter	-11.1223
mg	-11.1226
thi	-11.1226
▁schlossen	-11.1227
▁desselben	-11.123
▁sichern	-11.1235
▁betragen	-11.1235
▁petr	-11.1235
dame	-11.1236
▁breiter	-11.1237
faktoren	-11.1238
▁vernichtung	-11.124
▁dresdner	-11.124
▁jerusalem	-11.124
▁attentat	-11.124
▁bundesver	-11.1241
▁veraltet	-11.1241
anth	-11.1241
▁linsen	-11.1243
▁tagebuch	-11.1246
▁auftrieb	-11.1247
▁dynamische	-11.125
haar	-11.1251
▁reiche	-11.1255
▁amtliche	-11.1255
▁sozialistischen	-11.1258
▁tropische	-11.1258
▁metallische	-11.1258
▁barium	-11.126
ließen	-11.1262
▁pen	-11.127
▁suchen	-11.127
▁kubanische	-11.1272
rou	-11.1273
▁aufnehmen	-11.1274
probleme	-11.1276
förder	-11.1277
grub	-11.1278
▁westfalen	-11.1278
leitungen	-11.128
▁unterrichtet	-11.1281
hundert	-11.1281
▁liegende	-11.1284
männer	-11.1288
charakter	-11.1288
▁cam	-11.129
▁einher	-11.1291
▁sicherung	-11.1291
▁matt	-11.1291
doppel	-11.1293
indien	-11.1294
general	-11.1296
▁dauert	-11.1296
rath	-11.1296
olith	-11.1297
lied	-11.1305
▁praktischen	-11.1305
horst	-11.131
▁thor	-11.1311
▁notwendige	-11.1316
▁durchschnitts	-11.1318
oxy	-11.132
▁stütz	-11.1323
arithmeti	-11.1324
effizienz	-11.1326
mechanismen	-11.1326
▁braunschweig	-11.1326
▁erforscht	-11.1326
▁taliban	-11.1326
▁vornehmlich	-11.1326
hygiene	-11.1326
▁europium	-11.1326
▁atheismus	-11.1326
▁vereinfacht	-11.1326
▁befördert	-11.1326
▁almaty	-11.1326
▁major	-11.1326
verehrung	-11.1327
▁geschah	-11.1327
▁rücktritt	-11.1329
▁flugzeugträger	-11.1329
▁siedelte	-11.1331
▁kämpfe	-11.1334
▁sorgt	-11.1334
chromat	-11.1335
▁glatt	-11.1335
▁notwendigkeit	-11.1338
▁vereins	-11.134
▁stadtmauer	-11.134
vorsitzender	-11.1344
legte	-11.1345
kopie	-11.1346
klapp	-11.1347
▁langer	-11.1348
▁autobahnen	-11.1349
▁protokoll	-11.135
▁sterben	-11.1351
▁psychologie	-11.1353
bonn	-11.1355
▁biologischen	-11.1356
▁weiblichen	-11.1357
▁geologie	-11.1362
▁konservativen	-11.1366
bat	-11.1367
▁maximale	-11.1373
onne	-11.1374
ulus	-11.1374
▁dritt	-11.1375
kommando	-11.1375
negativ	-11.1375
chlor	-11.1379
viel	-11.1379
nehmer	-11.1381
▁gefängnis	-11.1386
▁asiatischen	-11.1386
kraftwerk	-11.1387
▁jacques	-11.1388
▁bits	-11.1388
▁mw	-11.139
▁senats	-11.1396
strahlen	-11.1397
▁zonen	-11.1397
▁drehbuchautor	-11.1399
marine	-11.1401
▁märkte	-11.1403
▁erhältlich	-11.1404
▁thermo	-11.1405
ischem	-11.1408
iff	-11.1408
▁leopold	-11.1411
kräuter	-11.1412
▁annähernd	-11.1412
▁bemerkenswert	-11.1412
▁caracalla	-11.1412
▁verlängert	-11.1412
▁verallgemeiner	-11.1412
▁street	-11.1412
▁dienstleistungs	-11.1412
▁autismus	-11.1412
berliner	-11.1413
▁erfinder	-11.1413
▁zitiert	-11.1413
▁genua	-11.1413
farbe	-11.1413
▁verschwand	-11.1414
▁brunnen	-11.1414
▁republikanische	-11.1414
ergebnis	-11.1415
reicher	-11.1418
▁final	-11.1419
▁temp	-11.1419
▁hugo	-11.142
hart	-11.142
▁eingestuft	-11.1422
▁leonberg	-11.1422
▁hauptsitz	-11.1424
▁bestehend	-11.1424
▁finanziell	-11.1425
▁geraten	-11.1425
itische	-11.1425
▁hahn	-11.1425
▁behielt	-11.1425
▁unix	-11.1428
größen	-11.1428
▁solange	-11.1429
grundlage	-11.143
api	-11.143
▁angst	-11.1431
▁action	-11.1431
roth	-11.1433
▁diktatur	-11.1434
miet	-11.1435
kinder	-11.1439
apo	-11.1441
▁rekord	-11.1444
▁germanen	-11.1444
▁bemühungen	-11.1448
anspruch	-11.1453
▁kulturell	-11.1458
meta	-11.146
▁vereinigte	-11.146
▁aktiven	-11.1462
ugh	-11.1462
▁taunus	-11.1463
▁entscheidungs	-11.1463
potential	-11.1463
untersuchung	-11.1463
fusion	-11.1464
▁fahrzeuge	-11.1466
radio	-11.1466
▁dy	-11.1467
rumpf	-11.1467
▁bucht	-11.1467
▁glaubte	-11.1467
geschichtlich	-11.1473
▁landesweit	-11.1474
bäume	-11.1475
_12	-11.1475
augen	-11.1475
▁parks	-11.1479
▁(6	-11.1482
▁symptome	-11.1483
▁schatten	-11.1495
▁verblieb	-11.1498
▁nordmazedonien	-11.1499
▁benediktiner	-11.1499
▁fructose	-11.1499
verschuldung	-11.1499
▁externe	-11.1499
mai	-11.15
zauber	-11.15
privileg	-11.15
▁himmelskörper	-11.15
blöcke	-11.15
▁regensburg	-11.15
▁konsens	-11.1501
▁erzielen	-11.1501
assistent	-11.1501
▁fließend	-11.1502
▁sachverhalt	-11.1504
passage	-11.1504
▁granat	-11.151
▁kreativ	-11.151
▁weizen	-11.151
logik	-11.1511
einkommen	-11.1513
zent	-11.1516
▁weltliche	-11.1516
▁operationen	-11.1517
mir	-11.1517
▁menschenrechte	-11.1518
▁antigen	-11.1521
steuerung	-11.1521
▁binden	-11.1523
▁tang	-11.1524
▁betrachtete	-11.1525
alisierung	-11.1526
▁130	-11.153
▁angestellt	-11.1531
▁italienisch	-11.1532
▁besucht	-11.1541
▁raf	-11.1541
möglich	-11.1543
▁dio	-11.1544
7.000	-11.155
▁quell	-11.1551
erweiterung	-11.1553
▁kenntnisse	-11.1553
▁fabrik	-11.1554
veranstaltungen	-11.1555
▁gerechnet	-11.1556
▁umland	-11.1557
▁schlechter	-11.1557
schlägen	-11.1558
▁übergeben	-11.1562
▁publikationen	-11.1562
▁szenen	-11.1562
▁berater	-11.1565
▁finnischen	-11.1572
▁öffnung	-11.1576
▁monarch	-11.1577
hardt	-11.1578
▁(=	-11.1579
euklid	-11.1581
▁aufmerksam	-11.1584
quant	-11.1584
▁98	-11.1584
▁beitritt	-11.1585
▁zuverlässig	-11.1587
resonanz	-11.1587
▁argentinische	-11.1587
▁aufwendig	-11.1587
▁begegnung	-11.1587
▁geklärt	-11.1587
▁itzehoe	-11.1587
▁qualitativ	-11.1587
▁vermeintlich	-11.1587
▁gambia	-11.1587
▁allgemeiner	-11.1587
▁visuell	-11.1587
▁nordöstlich	-11.1588
schwingung	-11.1589
kritiker	-11.159
▁bundeswehr	-11.159
▁rückgang	-11.1593
▁schritte	-11.1595
geschenk	-11.1595
enfalls	-11.1596
proben	-11.1599
spd	-11.1599
▁vize	-11.16
geschlossen	-11.1602
sprachigen	-11.1602
▁mitgliedschaft	-11.1604
micro	-11.1609
▁repräsentiert	-11.1612
▁gö	-11.1618
▁europäer	-11.1622
▁reis	-11.1626
städter	-11.1628
6.000	-11.1628
semitisch	-11.1634
mittler	-11.1637
▁europäischer	-11.1638
▁errichteten	-11.1639
▁hessische	-11.164
ismen	-11.1641
▁warschau	-11.1644
scheibe	-11.1644
offiziell	-11.1646
▁pseudo	-11.165
▁gravitations	-11.1652
rick	-11.1652
▁turnier	-11.1653
aufnahmen	-11.1658
▁(8	-11.1662
gul	-11.1664
symmetrie	-11.1668
▁watt	-11.1669
manga	-11.1671
▁proportional	-11.1673
technisch	-11.1673
▁differential	-11.1675
▁fourier	-11.1675
kompatible	-11.1675
theoretiker	-11.1675
▁angestrebt	-11.1675
▁aufwändig	-11.1675
kriterium	-11.1675
konfiguration	-11.1675
syndrom	-11.1675
▁zeitweilig	-11.1675
thriller	-11.1675
▁curium	-11.1675
klang	-11.1678
▁hass	-11.1678
▁frühling	-11.168
▁blues	-11.168
▁klassifikation	-11.1683
soziologie	-11.1684
kreises	-11.1684
▁gre	-11.1686
▁dual	-11.1686
tugend	-11.1686
▁gewachsen	-11.1688
▁bundesstraße	-11.1688
▁vereine	-11.1689
▁fernsehserie	-11.1689
lampe	-11.1689
▁schema	-11.169
schüsse	-11.1691
▁anstatt	-11.1691
▁caesars	-11.1691
▁heimisch	-11.1692
▁russisch	-11.1692
té	-11.1693
planung	-11.1694
▁magnetfeld	-11.1695
zahlungen	-11.1695
krone	-11.1695
▁besiedlung	-11.1698
weitaus	-11.17
rud	-11.1702
▁gewünschte	-11.1703
▁eingebaut	-11.1708
▁benutzte	-11.1714
▁spring	-11.1714
day	-11.1715
▁aero	-11.1716
▁eichen	-11.1722
▁by	-11.1724
▁vorort	-11.1724
▁einzug	-11.1725
▁sitzung	-11.1725
isländisch	-11.1726
afrika	-11.1727
▁absoluten	-11.1727
tafeln	-11.1729
büro	-11.1734
blend	-11.1735
kontakt	-11.1736
▁dns	-11.1737
sturm	-11.1741
▁last	-11.1741
▁explosion	-11.1741
▁elementare	-11.1742
franc	-11.1743
▁südafrika	-11.1743
▁sturz	-11.1744
▁lymph	-11.1745
700	-11.1748
geschäfte	-11.1748
anwendung	-11.1748
qa	-11.1749
versionen	-11.1752
▁übersetzungen	-11.1753
▁verkaufte	-11.1754
▁ernannte	-11.1755
fenster	-11.1758
meisterschaften	-11.176
▁spielfilm	-11.1761
▁handwerker	-11.1761
anfang	-11.1761
▁elektronischen	-11.1762
▁unabhängigen	-11.1763
bewerber	-11.1763
▁augsburg	-11.1765
▁benötigen	-11.1765
▁bosporus	-11.1765
▁cambridge	-11.1765
▁fibonacci	-11.1765
▁karolinger	-11.1765
▁lebenserwartung	-11.1765
▁quantitativ	-11.1765
▁rauch	-11.1765
▁verzehr	-11.1765
▁verhaftet	-11.1765
▁araber	-11.1765
▁attribut	-11.1765
▁jürgen	-11.1765
▁ausgewiesen	-11.1766
▁erkrankte	-11.1766
▁herzustellen	-11.1768
▁quasi	-11.1768
▁lsd	-11.1768
pause	-11.1768
▁1896	-11.1768
▁1895	-11.1769
▁benutzen	-11.1769
▁gallien	-11.177
▁göttern	-11.177
neben	-11.177
▁außenpolitik	-11.1771
▁prinz	-11.1771
▁gleichmäßig	-11.1772
▁hegel	-11.1773
zufuhr	-11.1775
gemisch	-11.1775
▁erfolgreichsten	-11.1776
mac	-11.178
genre	-11.1781
▁säure	-11.1783
▁kunststoff	-11.1786
▁arg	-11.1788
münd	-11.1788
▁dampfmaschine	-11.179
▁zar	-11.1792
▁mannheim	-11.1792
▁register	-11.1794
teilige	-11.1802
geladen	-11.1803
▁weltbild	-11.1806
▁wunder	-11.1808
▁verkaufs	-11.1809
▁richtet	-11.1811
▁ergaben	-11.1813
produktionen	-11.1814
▁geschlossenen	-11.1816
▁orchester	-11.1819
▁schleif	-11.1821
▁hypo	-11.1821
disziplin	-11.1825
▁sieger	-11.1826
gefühl	-11.1827
regelung	-11.1828
laufwerk	-11.1831
born	-11.1832
zucker	-11.1833
▁mächte	-11.1834
▁tiefen	-11.1835
▁nordwestlich	-11.1838
sphase	-11.1839
zar	-11.1839
▁alltag	-11.1841
ianische	-11.1844
animation	-11.1847
▁titan	-11.185
fran	-11.1854
▁individuum	-11.1855
▁kompliziert	-11.1855
▁virtuelle	-11.1855
▁nährstoff	-11.1855
▁skelett	-11.1855
▁detailliert	-11.1855
▁anlehnung	-11.1855
▁besatzungszone	-11.1855
▁beratung	-11.1855
▁samuel	-11.1855
▁beachten	-11.1855
▁initiiert	-11.1857
▁vorlesungen	-11.1858
inhaber	-11.1858
▁zeus	-11.1859
▁schiller	-11.1859
▁biogas	-11.186
atorium	-11.1861
▁potenz	-11.1863
▁verleger	-11.1863
▁treib	-11.1865
▁zeitgenossen	-11.1865
▁nationalpark	-11.1866
basierte	-11.1867
▁hängen	-11.1868
▁straßenverkehr	-11.1868
tiefe	-11.1869
▁ernsthaft	-11.187
▁galten	-11.1872
bud	-11.1872
▁zusammenhängend	-11.1872
▁schlei	-11.1873
▁platin	-11.1874
banknote	-11.1884
▁abhandlung	-11.1885
▁großstadt	-11.1885
▁house	-11.1886
▁mangelnde	-11.1887
▁bürgerliche	-11.189
▁sankt	-11.1892
▁wörtern	-11.1893
hochschule	-11.1894
▁angriffe	-11.1897
▁verben	-11.1897
▁oberst	-11.1899
geschichtlichen	-11.19
▁bekanntheit	-11.1901
pil	-11.1901
city	-11.1902
▁pseudonym	-11.1902
seil	-11.1904
▁ginkgo	-11.1908
▁sperr	-11.1909
▁mailand	-11.1911
hält	-11.1911
warf	-11.1912
▁stadtbild	-11.1913
▁tausch	-11.1914
fällt	-11.1915
gefahr	-11.1917
stämme	-11.1919
wirtschaftskrise	-11.1926
mess	-11.193
▁syn	-11.193
▁gäste	-11.193
▁membran	-11.193
burger	-11.193
▁trau	-11.1931
▁gültig	-11.1932
tv	-11.1934
roll	-11.1936
nächst	-11.1936
äum	-11.1937
▁miles	-11.194
bulgar	-11.1942
kompetenz	-11.1942
milch	-11.1942
infarkt	-11.1945
fälschung	-11.1946
▁angreifer	-11.1946
▁babbage	-11.1946
▁diktator	-11.1946
▁eingemeindung	-11.1946
▁portugal	-11.1946
▁reduzieren	-11.1946
▁wässrige	-11.1946
umsetzer	-11.1946
▁gefertigt	-11.1946
▁kinetische	-11.1946
▁gefüllt	-11.1946
▁nolde	-11.1946
▁floh	-11.1947
▁genauigkeit	-11.1947
▁gewürz	-11.1948
▁revision	-11.1952
▁erwiesen	-11.1953
▁hirn	-11.1955
mast	-11.1955
amin	-11.1956
gebung	-11.1957
▁eingangs	-11.1957
stöße	-11.1958
trip	-11.1963
▁spenden	-11.1964
▁ereignis	-11.1966
▁symbole	-11.1967
▁palast	-11.1972
vereinbarung	-11.1972
▁wolle	-11.1978
▁haushalts	-11.1979
uf	-11.1985
▁verbesserte	-11.1986
psi	-11.1988
▁sex	-11.1992
organe	-11.1994
▁angehörigen	-11.1998
▁klaus	-11.1998
▁individuelle	-11.1998
▁außenpolitisch	-11.2001
▁grafische	-11.2002
fähigen	-11.2002
kow	-11.2004
faust	-11.2005
▁diejenigen	-11.2006
kanzler	-11.2009
▁irakische	-11.2009
▁vokale	-11.201
protokoll	-11.2012
arterie	-11.2012
register	-11.2012
▁marien	-11.2013
angaben	-11.2013
kloster	-11.2014
diktatur	-11.2014
malerei	-11.2016
schön	-11.2016
▁geistigen	-11.2016
▁ausgegeben	-11.2017
blüte	-11.2018
▁teilte	-11.202
▁unabhängigkeits	-11.202
atio	-11.2023
▁gesagt	-11.2024
▁persischen	-11.2025
.500	-11.2026
gewandt	-11.2029
urlaub	-11.2029
▁französischer	-11.2031
pflichtig	-11.2031
▁panzer	-11.2034
miss	-11.2034
▁bremerhaven	-11.2037
▁empfunden	-11.2037
▁freudenstadt	-11.2037
▁vorbereitet	-11.2037
▁variation	-11.2037
▁bearbeitet	-11.2037
▁erzbischof	-11.2037
triumph	-11.2037
fassade	-11.2038
▁lord	-11.2038
▁vermitteln	-11.2039
▁tänze	-11.2039
plastik	-11.2039
▁brett	-11.204
▁rotkreuz	-11.204
▁autonomie	-11.204
▁neon	-11.2041
▁benennung	-11.2042
ärt	-11.2042
▁geordnet	-11.2042
▁förderte	-11.2043
▁lern	-11.2043
▁generationen	-11.2043
hydro	-11.2043
▁kreises	-11.2044
▁achse	-11.2051
taxi	-11.2051
▁brot	-11.2052
▁desto	-11.2054
▁5000	-11.2057
sachsen	-11.2057
▁gerne	-11.2058
batterie	-11.2059
▁individuellen	-11.2065
einsatz	-11.2065
▁verbrechen	-11.2066
▁ausgelegt	-11.207
▁nachweisbar	-11.2072
▁pazifik	-11.2074
▁zuse	-11.2075
▁vorgegeben	-11.2076
▁fur	-11.2081
▁betrag	-11.2081
▁einnahme	-11.2086
▁http	-11.2087
▁maximilian	-11.2087
▁komponist	-11.2093
▁verweis	-11.2095
▁gefallen	-11.2103
pter	-11.2105
bündnis	-11.2106
▁endung	-11.2106
nerv	-11.2107
tina	-11.2109
frankfurt	-11.2109
▁eroberten	-11.211
fassungsgericht	-11.2111
▁mitarbeitern	-11.2112
lehn	-11.2115
drama	-11.2116
onia	-11.2116
philosophische	-11.2116
▁brems	-11.2117
8.000	-11.2117
▁vol	-11.2129
▁stellvertretend	-11.213
▁abraham	-11.213
▁cadmium	-11.213
▁gefärbt	-11.213
▁repräsentant	-11.213
▁postuliert	-11.213
▁dinkel	-11.2131
▁gleichwohl	-11.2132
▁helfen	-11.2132
▁warum	-11.2132
▁urban	-11.2133
kleid	-11.2133
abend	-11.2133
▁konflikten	-11.2135
▁rückzug	-11.2138
▁unbedingt	-11.2139
▁zurückgeführt	-11.2139
power	-11.2142
▁untersuchen	-11.2143
▁bonner	-11.2144
▁ibn	-11.2145
▁lebensraum	-11.2147
▁bahnstrecke	-11.2147
▁strahl	-11.2148
kum	-11.2149
▁entwickler	-11.215
schöpfung	-11.2154
▁kopier	-11.2155
mind	-11.2159
▁diskussionen	-11.2159
▁leon	-11.2163
▁fordert	-11.2163
▁liberale	-11.2163
▁sprech	-11.2164
▁liberalen	-11.2165
▁reelle	-11.2167
bier	-11.2176
isotope	-11.218
▁zimmer	-11.2181
maßnahme	-11.2182
light	-11.2184
sache	-11.2185
▁verbrennung	-11.2186
▁markante	-11.2186
▁hem	-11.2187
▁1,3	-11.2188
▁letzteres	-11.2188
▁freiburg	-11.2193
ämter	-11.2201
aussage	-11.2202
busse	-11.2202
emissionen	-11.2202
sommer	-11.2202
▁elektrisch	-11.2204
rollen	-11.2206
wähl	-11.2208
dé	-11.221
übergang	-11.221
akkumulator	-11.2223
kommandant	-11.2223
▁geschwister	-11.2223
▁geöffnet	-11.2223
▁molybdän	-11.2223
▁unzureichend	-11.2223
▁vermieden	-11.2223
▁abweichungen	-11.2223
▁überraschend	-11.2223
▁norwegen	-11.2223
owski	-11.2223
▁pharma	-11.2223
▁akzent	-11.2224
▁göttinger	-11.2225
▁minimal	-11.2225
▁jordanien	-11.2225
▁garantiert	-11.2226
▁urkunde	-11.2227
▁genus	-11.2228
▁1899	-11.2228
▁namentlich	-11.2229
▁wohnungen	-11.2238
▁menschenrechts	-11.2239
hallen	-11.2241
▁konstantin	-11.2243
▁mazedonische	-11.2245
▁einzig	-11.2245
▁gesamtheit	-11.2247
fänger	-11.2247
▁elbing	-11.2247
▁santa	-11.2248
pakt	-11.2249
▁willens	-11.2249
serien	-11.2249
▁30.000	-11.2249
▁ökonomische	-11.225
quadr	-11.2255
list	-11.2259
▁potential	-11.2262
▁disziplin	-11.2262
▁betonte	-11.2268
iva	-11.2269
▁steil	-11.2271
▁minerale	-11.2271
▁herausragende	-11.2279
▁mathematisch	-11.2284
head	-11.2285
dscha	-11.2288
▁gearbeitet	-11.2296
bühne	-11.2297
▁größter	-11.2301
moderne	-11.2301
▁genetisch	-11.2304
ökonom	-11.2305
arbeitslosigkeit	-11.2306
autobahn	-11.2307
▁mari	-11.2309
fürsten	-11.231
▁cap	-11.2315
▁überwachung	-11.2317
▁medikamente	-11.2318
▁invasion	-11.2318
▁komponiert	-11.2318
▁unterworfen	-11.2318
▁everest	-11.2318
▁mondkrater	-11.2318
▁amateur	-11.2318
▁geprägte	-11.2318
klage	-11.2319
himmel	-11.2319
▁kleinasien	-11.2319
▁markgraf	-11.2319
▁erlauben	-11.2319
▁souveränität	-11.232
▁einwanderung	-11.232
▁übliche	-11.232
▁gültigkeit	-11.2321
▁fortschritte	-11.2322
▁1898	-11.2322
gesellschaftlich	-11.2322
▁turn	-11.2322
▁freigesetzt	-11.2324
▁alpha	-11.2324
interesse	-11.2324
▁löst	-11.2326
▁kroatischen	-11.2327
▁armut	-11.2327
▁nadel	-11.2328
intern	-11.2328
▁verständlich	-11.233
sonder	-11.233
▁organisierten	-11.233
oskop	-11.2331
erträge	-11.2334
▁gottheit	-11.2334
▁master	-11.2334
▁you	-11.2337
wieder	-11.234
▁acker	-11.2341
▁wid	-11.2343
selbst	-11.2348
▁zentren	-11.2353
ebenen	-11.2356
font	-11.2357
▁konzerte	-11.2357
7)	-11.236
▁kontra	-11.2362
bauweise	-11.2362
prov	-11.2363
alpin	-11.2364
krankheiten	-11.2364
▁sul	-11.2366
▁900	-11.2367
weltmeister	-11.2375
▁stützt	-11.2377
reiz	-11.2385
▁sun	-11.2385
gemeinden	-11.2388
oft	-11.2389
▁älter	-11.239
▁polnische	-11.2392
▁gem	-11.2392
▁regierte	-11.2392
olo	-11.2393
▁röntgen	-11.2393
tunnel	-11.2394
▁tot	-11.2395
dul	-11.2396
ux	-11.2397
tanne	-11.2398
▁non	-11.2399
▁hülle	-11.2413
▁karolingische	-11.2413
▁mandelbrot	-11.2413
▁ukraine	-11.2413
▁abstammung	-11.2413
▁vermutung	-11.2413
▁verwirklicht	-11.2413
▁abgeschafft	-11.2413
6)	-11.2414
väter	-11.2414
▁angemessen	-11.2414
▁notwendigen	-11.2414
▁grundschule	-11.2415
▁reichweite	-11.2417
▁line	-11.2418
▁1840	-11.2419
▁reale	-11.242
möglichkeiten	-11.242
▁ableitung	-11.242
▁altertum	-11.2421
▁trend	-11.2422
▁antimon	-11.2423
▁allergen	-11.2429
▁50.000	-11.2431
▁ausgestorben	-11.2437
▁beinahe	-11.244
▁verkehren	-11.2441
▁entstehenden	-11.2445
iana	-11.2449
stützpunkt	-11.2452
▁allgemeines	-11.2453
ministeriums	-11.2454
▁wechselnde	-11.2457
▁darstellte	-11.246
▁etliche	-11.2461
▁ulm	-11.2463
▁erbaute	-11.2466
▁chilenische	-11.2469
funde	-11.2475
▁mehrheitlich	-11.2478
fries	-11.2479
▁geistliche	-11.2481
right	-11.2482
▁paket	-11.2483
phasen	-11.2484
lux	-11.2485
gni	-11.2487
▁berge	-11.2488
▁gefasst	-11.2489
läufig	-11.2489
cum	-11.2489
ässig	-11.2492
belastung	-11.2493
gegner	-11.2493
natürliche	-11.2493
durchschnitt	-11.2494
▁handwerk	-11.2495
▁amerikaner	-11.2495
vorstellungen	-11.2496
verträge	-11.2496
▁gelenk	-11.2497
füge	-11.2497
▁phänomene	-11.2498
gua	-11.2499
feindliche	-11.2503
▁gouverneur	-11.2505
▁king	-11.2507
▁buddhistische	-11.2509
▁herkömmliche	-11.2509
kommunismus	-11.2509
▁innovation	-11.2509
▁verschlüsselung	-11.2509
▁zulässig	-11.2509
▁meißen	-11.2509
gletscher	-11.2509
▁thematisiert	-11.2509
▁strikt	-11.2509
regulierung	-11.251
▁metaphysik	-11.251
▁jegliche	-11.251
lohn	-11.2511
▁wolken	-11.2511
▁eingang	-11.2512
▁fortgesetzt	-11.2513
▁raketen	-11.2513
tox	-11.2515
▁vergleichbare	-11.2516
▁seltene	-11.2517
▁einzigartig	-11.2519
▁fell	-11.252
▁reden	-11.2521
▁untergang	-11.2522
manager	-11.2522
▁gelehrte	-11.2523
▁jäger	-11.2523
▁kurfürst	-11.2526
▁dorn	-11.2527
▁paläo	-11.2527
▁vorläufig	-11.2527
▁erwachsene	-11.2528
▁schulter	-11.2529
▁game	-11.2531
▁verträge	-11.2531
▁behauptete	-11.2531
▁leistete	-11.2538
▁herab	-11.2539
▁simon	-11.2539
▁stattfindende	-11.2539
meyer	-11.254
▁proton	-11.2541
▁galen	-11.2542
▁vertritt	-11.2542
▁individual	-11.2545
▁weltraum	-11.2546
▁erhöhten	-11.2551
pack	-11.2555
▁inklusive	-11.2558
▁mindest	-11.2559
▁umkehr	-11.2562
▁streifen	-11.2562
▁verleihung	-11.2565
▁stumm	-11.2566
▁näherung	-11.2568
▁göttin	-11.2571
formula	-11.2572
▁mart	-11.2574
wirt	-11.2578
▁variable	-11.2579
▁durchgehend	-11.2582
heide	-11.2584
▁logische	-11.2584
notation	-11.2589
▁regiert	-11.2589
▁sekunde	-11.259
forscher	-11.259
▁künstlerischen	-11.2591
substanz	-11.2592
klassische	-11.2592
prozent	-11.2593
wappen	-11.2595
oideae	-11.2597
konstruktion	-11.2597
nahen	-11.2599
▁partition	-11.2599
▁optische	-11.2601
elefant	-11.2603
▁herrschen	-11.2603
▁minute	-11.2606
▁exponential	-11.2606
▁americium	-11.2606
▁dokumentarfilm	-11.2606
▁kaffee	-11.2606
▁kronach	-11.2606
▁ordnet	-11.2606
▁kurzfristig	-11.2606
▁präzise	-11.2606
staffel	-11.2606
pixel	-11.2607
▁südöstlich	-11.2607
▁niedersachsen	-11.2607
▁jedenfalls	-11.2607
intensität	-11.2607
▁verluste	-11.2607
streitigkeiten	-11.2608
stream	-11.2608
duc	-11.2609
▁1866	-11.261
▁gewaltsam	-11.261
▁1893	-11.261
▁niederschlags	-11.2611
fels	-11.2614
▁kristallisiert	-11.2615
laser	-11.2615
▁2023	-11.2616
_17	-11.2619
play	-11.262
▁kontroll	-11.2623
täler	-11.2623
▁frühzeit	-11.2624
▁tschech	-11.2626
2000	-11.2629
▁zeitliche	-11.2635
▁entdeckten	-11.2636
▁absatz	-11.2637
fix	-11.2637
▁beständig	-11.264
▁bereitete	-11.2642
▁angelegenheiten	-11.2642
▁journalist	-11.2643
ij	-11.2644
kenntnisse	-11.2644
▁milchstraße	-11.2644
▁betriebe	-11.2646
nahe	-11.265
▁loch	-11.2652
▁stift	-11.2658
▁olympia	-11.2659
▁einschätzung	-11.2662
▁betracht	-11.2663
▁hals	-11.2665
▁kernel	-11.2665
▁profitiert	-11.2667
▁erlassen	-11.2668
heft	-11.2671
▁territorien	-11.2674
komplexe	-11.2681
würfe	-11.2683
▁long	-11.2684
▁bundestages	-11.2685
digital	-11.2686
liter	-11.2687
laufende	-11.269
verständlich	-11.2691
komödie	-11.2693
▁längs	-11.2693
itsch	-11.2694
▁niedrigste	-11.2698
▁north	-11.2699
richtlinie	-11.2702
▁kämpfte	-11.2704
tle	-11.2704
verschwörung	-11.2704
▁addition	-11.2704
▁erneuerbare	-11.2704
▁chirac	-11.2704
▁hilbert	-11.2704
▁sobald	-11.2704
▁belastet	-11.2704
mythos	-11.2704
▁eastwood	-11.2704
▁derjenige	-11.2705
▁gemäßigten	-11.2706
▁francisco	-11.2706
▁einigung	-11.2706
place	-11.2706
▁wortschatz	-11.2707
▁luftangriff	-11.2707
orientierte	-11.2707
▁mass	-11.2707
installation	-11.2707
▁1867	-11.2708
▁pollen	-11.2709
▁1897	-11.2709
▁strukturell	-11.2709
▁keramik	-11.271
schreiten	-11.2713
▁grenzwert	-11.2713
gigant	-11.2714
▁1600	-11.2715
▁pionier	-11.2715
▁kubisch	-11.2715
▁segel	-11.2716
▁irland	-11.2717
▁schlicht	-11.2718
affen	-11.272
▁wohlstand	-11.272
▁graphen	-11.2721
▁vorkommt	-11.2722
▁gliederung	-11.2724
politisch	-11.2725
aga	-11.2735
▁sozialer	-11.2736
▁grundstück	-11.2737
▁boy	-11.2744
historisch	-11.2745
netzes	-11.2745
▁qualitäts	-11.2749
▁schulden	-11.2751
▁leid	-11.2752
▁maur	-11.2754
▁ortschaft	-11.2755
spitz	-11.2756
▁erobert	-11.2762
▁champ	-11.2763
▁auswertung	-11.2766
▁letzterer	-11.2767
▁ideale	-11.2768
▁angel	-11.2769
genauso	-11.277
olu	-11.2774
angehörige	-11.2774
▁nil	-11.2775
▁aktionen	-11.2775
sprachige	-11.2781
▁ascorbinsäure	-11.2784
▁versorgungs	-11.2786
▁sid	-11.2787
trakt	-11.2788
▁play	-11.2788
▁kleidung	-11.2789
▁montag	-11.2791
konzert	-11.2792
dichtung	-11.2793
initiative	-11.2793
ingenieur	-11.2793
wirklich	-11.2793
ehemalige	-11.2793
gewebe	-11.2793
lizenz	-11.2793
alphabet	-11.2793
feucht	-11.2793
▁umso	-11.2795
▁läuft	-11.2795
chirurg	-11.2797
kugel	-11.2797
album	-11.2799
▁kraftstoff	-11.2802
absorption	-11.2803
▁arafat	-11.2803
▁behindert	-11.2803
▁eingegliedert	-11.2803
▁sakral	-11.2803
reserven	-11.2803
▁debian	-11.2803
▁ausgrabung	-11.2804
▁ulrich	-11.2804
▁sultan	-11.2804
▁besiegt	-11.2804
▁maßstab	-11.2804
▁jemand	-11.2805
▁kriegsgefangene	-11.2805
motiv	-11.2805
▁verkörpert	-11.2805
▁mount	-11.2805
sterblichkeit	-11.2806
ibel	-11.2806
▁herausforderung	-11.2806
gegenstände	-11.2806
▁berechnungen	-11.2806
▁formalen	-11.2806
abschluss	-11.2807
beschreibung	-11.2807
▁bohr	-11.2808
▁baumwoll	-11.2809
aki	-11.2809
icum	-11.281
▁elite	-11.2813
▁arbeiteten	-11.2814
▁freud	-11.2823
▁gesundheitliche	-11.2823
▁gefangenen	-11.2824
studie	-11.2825
▁chat	-11.2831
▁3,5	-11.2832
▁adels	-11.2832
▁ausprägung	-11.2833
▁grönländische	-11.2835
▁nordost	-11.2835
▁saure	-11.2836
▁landrat	-11.2837
▁gestiegen	-11.2837
▁gras	-11.2843
▁rumpf	-11.2844
iat	-11.285
▁angrenzenden	-11.2851
batterien	-11.2855
fotograf	-11.2856
pokal	-11.2856
▁induktivität	-11.2859
▁steigerung	-11.2863
viren	-11.2863
▁argumentiert	-11.2863
▁alleinige	-11.2866
▁reichte	-11.2866
gil	-11.2866
▁basieren	-11.2867
▁landesteil	-11.287
schaftswahl	-11.2872
▁durften	-11.2872
▁vel	-11.2873
luc	-11.2875
iaceae	-11.2877
▁habsburger	-11.2878
▁sv	-11.2879
▁hochzeit	-11.2882
▁obige	-11.2886
▁südwestlich	-11.2893
▁ergänzung	-11.2894
statistik	-11.2895
▁disziplinen	-11.2895
impuls	-11.2895
ärzte	-11.2896
knochen	-11.2896
varietät	-11.29
▁plötzlich	-11.2903
▁unterbrochen	-11.2903
▁verbündeten	-11.2903
▁lewis	-11.2903
▁variieren	-11.2903
▁madrid	-11.2903
▁oxidationsstufe	-11.2904
▁nennenswerte	-11.2904
▁niemand	-11.2904
▁erdkruste	-11.2904
▁deuten	-11.2905
▁größenordnung	-11.2905
▁erdoberfläche	-11.2906
▁fertigstellung	-11.2906
▁spezifischen	-11.2906
▁1861	-11.2907
kenntnis	-11.2908
▁gemisch	-11.2909
▁psychische	-11.2909
▁locker	-11.291
▁luftfahrt	-11.2911
▁gesucht	-11.2913
▁glut	-11.2916
▁statue	-11.2917
anschluss	-11.2917
▁gallen	-11.2918
potenzial	-11.2919
▁diskurs	-11.2921
kruste	-11.2924
schel	-11.2924
▁cham	-11.2924
▁bitte	-11.2926
wai	-11.2926
▁hero	-11.2927
▁fränkische	-11.2929
▁schöpfung	-11.2929
ami	-11.2929
▁mannes	-11.2934
▁einander	-11.294
▁berühmteste	-11.2941
▁vertrieb	-11.2949
rezeptoren	-11.295
ometer	-11.2954
▁negativen	-11.2954
aya	-11.2957
thon	-11.2958
▁krypton	-11.2961
▁norwegische	-11.2962
▁neustadt	-11.2963
▁liebes	-11.2963
▁ankunft	-11.2963
kontrolle	-11.2963
▁schiffen	-11.2972
▁mannschaften	-11.2974
▁kälte	-11.2978
cdu	-11.2988
fasern	-11.299
▁molekular	-11.2991
▁grundsätze	-11.2996
▁spanisch	-11.2998
häfen	-11.2998
dynastie	-11.2998
erhöhung	-11.2998
mathematik	-11.2998
▁spannungs	-11.3004
▁funktionieren	-11.3004
▁potsdam	-11.3004
▁fortpflanzung	-11.3004
▁mikroorganismen	-11.3004
▁nicholson	-11.3004
▁rumänien	-11.3004
▁galileo	-11.3004
▁verschwinden	-11.3004
▁verlieren	-11.3004
▁bamberg	-11.3004
diplom	-11.3005
▁falsche	-11.3005
▁agrar	-11.3005
▁protestanten	-11.3006
▁angeführt	-11.3006
sulfat	-11.3007
▁basen	-11.3007
▁nutzten	-11.3007
▁festgehalten	-11.3008
▁kletter	-11.3008
▁kolo	-11.3009
▁antikörper	-11.3009
▁gliedert	-11.301
▁harz	-11.3013
wild	-11.3016
▁plasma	-11.3017
▁untergeordnete	-11.3019
▁teilnehmen	-11.3019
▁hard	-11.3021
▁rose	-11.3025
▁gla	-11.3025
▁geschlechter	-11.3026
täter	-11.3026
kommt	-11.3027
▁kreisstadt	-11.3028
▁soden	-11.3028
treiber	-11.3032
▁nationaler	-11.3034
▁arzneimittel	-11.3038
usa	-11.3038
wel	-11.3039
▁kapitulation	-11.304
übergreifend	-11.3041
▁90/	-11.3043
▁eingenommen	-11.3044
▁110	-11.3044
▁radius	-11.3048
▁sozio	-11.3051
osse	-11.3051
▁faz	-11.3052
anschlag	-11.3056
▁regierende	-11.3056
jung	-11.3059
▁umkreis	-11.3059
ziele	-11.3061
▁äquivalent	-11.3064
▁gemeinderat	-11.3068
▁oh	-11.3068
▁dominierende	-11.3068
▁fruchtbar	-11.307
▁(12	-11.3072
schema	-11.3083
▁wandelt	-11.3084
table	-11.3086
▁magische	-11.3088
▁benachbarte	-11.3089
▁gesang	-11.3091
öß	-11.3095
▁fra	-11.31
apfel	-11.3101
informatik	-11.3102
hälfte	-11.3102
ping	-11.3103
osphäre	-11.3103
musical	-11.3104
design	-11.3104
katalysator	-11.3106
▁allianz	-11.3106
▁keineswegs	-11.3106
kommissar	-11.3106
▁nominal	-11.3106
▁graphit	-11.3107
▁gysi	-11.3107
▁ultra	-11.3107
hierarchie	-11.3107
▁attraktiv	-11.3107
▁experten	-11.3108
▁befreit	-11.3108
▁ackerbau	-11.3109
turbine	-11.3109
umgebung	-11.3109
▁blumen	-11.3109
▁anatomisch	-11.3111
▁1891	-11.3111
▁1888	-11.3111
▁linth	-11.3112
meteor	-11.3112
▁scharon	-11.3112
▁friedlich	-11.3112
expression	-11.3112
▁fans	-11.3113
▁green	-11.3115
ful	-11.3119
▁alkali	-11.312
▁gemeinschaften	-11.3121
lieferant	-11.3126
▁rotor	-11.3127
▁single	-11.3127
amtes	-11.3128
▁staatlich	-11.3128
▁gesell	-11.3129
▁zuständigkeit	-11.3129
▁fähr	-11.3129
▁profil	-11.313
gesandte	-11.3133
kleiner	-11.3133
geheim	-11.3138
_14	-11.3139
▁350	-11.3139
römische	-11.3139
triebwerk	-11.3141
▁eingeleitet	-11.3142
0,6	-11.3142
▁börse	-11.3145
▁freitag	-11.3145
▁berufung	-11.3146
▁konventionelle	-11.3153
▁geschlecht	-11.3157
mikro	-11.3168
märkten	-11.3168
▁besuchen	-11.3169
▁durchführung	-11.3172
▁fair	-11.3175
▁out	-11.3181
pek	-11.3181
▁nahverkehr	-11.3187
münze	-11.3188
▁regelungen	-11.319
▁vorfeld	-11.3192
▁rob	-11.3193
▁jugendlichen	-11.3194
▁publikation	-11.3194
▁hunde	-11.3196
▁meinte	-11.3198
▁feierte	-11.32
bismarck	-11.3207
▁analysis	-11.3207
▁einheimischen	-11.3207
▁nutzbar	-11.3209
beleuchtung	-11.3209
▁praktiziert	-11.3209
▁stattfindet	-11.3209
▁tragödie	-11.3209
▁strebt	-11.3209
▁ehrenamtlich	-11.3209
matrix	-11.321
▁andauernde	-11.321
▁ethische	-11.321
▁zerfällt	-11.321
▁such	-11.3211
prognose	-11.3211
▁marcus	-11.3211
▁algorithmen	-11.3211
▁schaf	-11.3212
▁klammer	-11.3212
▁wörterbuch	-11.3212
▁palais	-11.3213
▁erschwert	-11.3213
gekauft	-11.3215
▁umweltschutz	-11.3215
außen	-11.3217
▁anhaltende	-11.3218
▁trennen	-11.322
▁eiserne	-11.3221
▁krater	-11.3225
▁verkehrt	-11.3229
▁tunnel	-11.323
flieger	-11.3233
bestandteile	-11.3235
▁wel	-11.3236
▁globe	-11.3236
▁kirchliche	-11.3237
▁dienste	-11.3237
▁niederschläge	-11.3237
▁hofheim	-11.3245
scheiben	-11.3246
▁asteroid	-11.3253
benz	-11.3254
▁bedeutend	-11.3257
▁heutiger	-11.3259
senator	-11.326
▁stationiert	-11.3261
▁eigentümer	-11.3262
▁tumoren	-11.3263
innung	-11.3266
▁grundstein	-11.3267
▁mobilfunk	-11.3271
lay	-11.3275
wein	-11.3276
▁law	-11.3283
hag	-11.3283
▁metro	-11.3286
▁wählt	-11.3289
▁werkstoff	-11.3291
▁vergangenen	-11.3295
ianus	-11.3301
▁julius	-11.3302
▁beschleunigung	-11.3302
häm	-11.3302
revolutionäre	-11.3302
wässer	-11.3304
operator	-11.3311
▁bak	-11.3311
▁fokus	-11.3313
brunnen	-11.3313
subjekt	-11.3313
koordinaten	-11.3314
▁architektonisch	-11.3314
▁scheitern	-11.3314
▁venezuela	-11.3314
▁anatomie	-11.3314
▁erwartungen	-11.3314
▁manifest	-11.3314
▁melodram	-11.3314
▁ehrungen	-11.3314
▁mythen	-11.3314
carotin	-11.3315
kontinent	-11.3315
▁galaxien	-11.3315
wettbewerb	-11.3316
▁elektrotechnik	-11.3317
▁verbraucher	-11.3317
▁blütezeit	-11.3318
▁1875	-11.3318
▁verhältnismäßig	-11.3318
▁endoskop	-11.3319
▁1876	-11.3319
▁vorsitzenden	-11.3319
stürz	-11.3319
▁überreste	-11.3324
▁abfall	-11.3324
▁herstellen	-11.3327
▁gleichberechtig	-11.3327
▁streu	-11.3327
summe	-11.3329
▁datenträger	-11.3329
▁schweizerische	-11.3332
▁ausgegangen	-11.3333
▁kommunistische	-11.3333
–14	-11.3335
▁enkel	-11.3335
fähre	-11.3338
jurist	-11.3338
▁bekämpfung	-11.334
▁salzburg	-11.3344
▁hab	-11.3345
▁belege	-11.3348
▁bistum	-11.3363
cio	-11.3373
▁gegenteil	-11.3373
▁decken	-11.3374
▁erbracht	-11.3377
▁archäologie	-11.3378
▁gärten	-11.3378
letzte	-11.3379
zuschließen	-11.3386
pb	-11.3387
▁hybrid	-11.3387
▁pala	-11.339
flor	-11.3397
▁bildern	-11.3398
vorgänge	-11.3401
▁befürwort	-11.3404
▁0,2	-11.3406
▁center	-11.3408
▁schätzung	-11.3409
grab	-11.341
▁lem	-11.3412
▁vektor	-11.3416
▁jordan	-11.3417
▁außergewöhnlich	-11.3419
▁kasachstan	-11.3419
▁multiplikation	-11.3419
▁sizilien	-11.3419
▁tolkien	-11.3419
▁ästhetische	-11.3419
▁amsterdam	-11.3419
▁tödlich	-11.3419
▁kultiviert	-11.3419
▁schottland	-11.3419
▁eignet	-11.3419
▁iwf	-11.3419
▁dutzend	-11.3419
▁verursachen	-11.3419
▁behauptung	-11.3419
▁verpflichtung	-11.3419
▁elektrolyt	-11.3419
▁lanthanoide	-11.3419
▁singular	-11.3419
▁bezeugt	-11.3419
▁blüh	-11.342
▁bedürfnisse	-11.342
▁safran	-11.3421
▁fracht	-11.3421
cluster	-11.3422
▁bezahlt	-11.3422
bilanz	-11.3423
▁leu	-11.3423
▁1892	-11.3423
herzog	-11.3423
▁holly	-11.3423
▁1859	-11.3423
friedhof	-11.3424
▁fassen	-11.3424
▁zeilen	-11.3424
▁konsul	-11.3427
▁stellenwert	-11.3428
fragment	-11.3429
▁umgebaut	-11.3429
court	-11.343
▁zeichnungen	-11.3432
▁jahrelang	-11.3432
schutzgebiete	-11.3433
bildende	-11.3434
▁streik	-11.3437
▁repräsentative	-11.3439
▁abschaffung	-11.3449
metrisch	-11.3454
kau	-11.3456
▁bull	-11.3458
▁pont	-11.3459
▁kinofilm	-11.346
▁marburg	-11.3467
▁peru	-11.3467
▁lebende	-11.3468
▁dt	-11.3473
▁familienname	-11.3475
▁enzyklopädien	-11.3475
▁jahrestag	-11.3475
▁gemischt	-11.3476
▁inszenierte	-11.3488
▁diagnose	-11.3488
▁implementierung	-11.3488
▁att	-11.3489
▁minder	-11.3489
xx	-11.3494
smethoden	-11.3494
▁dramatisch	-11.3495
▁darsteller	-11.3496
▁grafen	-11.3498
▁normale	-11.3499
▁reines	-11.35
▁umstand	-11.3501
rak	-11.3509
zustände	-11.3512
yan	-11.3514
▁sozialistische	-11.3516
basierten	-11.3517
▁befindlichen	-11.3517
leger	-11.3522
bedürfnis	-11.3524
ästhetik	-11.3525
▁berücksichtigen	-11.3525
▁gedeutet	-11.3525
▁gänzlich	-11.3525
▁stellvertreter	-11.3525
gebrannt	-11.3525
▁gestattet	-11.3525
▁laubblätter	-11.3525
gladbach	-11.3525
▁substrat	-11.3525
▁vergeblich	-11.3525
schwanz	-11.3525
▁arnim	-11.3526
training	-11.3526
▁isaac	-11.3526
▁kompakt	-11.3526
chemische	-11.3526
▁erreger	-11.3526
chronik	-11.3526
▁meeresspiegel	-11.3527
▁rettungs	-11.3528
johann	-11.353
▁zentraler	-11.3531
▁rod	-11.3531
▁roger	-11.3532
▁beachtung	-11.3533
▁entschloss	-11.3535
▁capra	-11.3537
▁schmelzpunkt	-11.3537
▁fleck	-11.3543
cup	-11.3544
▁zurzeit	-11.3546
ité	-11.3546
haushalt	-11.3548
blei	-11.3549
▁vorhaben	-11.3549
▁beirut	-11.3553
▁häufigste	-11.3553
▁reichtum	-11.3554
aufstand	-11.3555
▁konzeption	-11.356
▁dänisch	-11.3563
ventur	-11.3563
▁landung	-11.3564
▁jim	-11.3565
gleis	-11.3566
▁stärkste	-11.3567
gast	-11.3568
kathode	-11.3568
▁besetzte	-11.3569
regierungsbezirk	-11.3572
▁vögeln	-11.3573
▁schriftsprache	-11.3578
▁genfer	-11.3582
▁zahlenwert	-11.3583
▁kara	-11.3591
▁erwähnung	-11.3591
▁zinn	-11.3595
kost	-11.3596
▁formell	-11.3597
▁britischer	-11.3598
▁heck	-11.36
▁reformierte	-11.3605
▁charakterisiert	-11.3605
12)	-11.3605
prägung	-11.3606
▁mehl	-11.3607
stich	-11.3608
▁kabel	-11.3613
▁unterlagen	-11.3614
▁bürgerrecht	-11.3614
▁vereint	-11.3615
itischen	-11.3618
▁kleinsten	-11.3619
schmied	-11.3621
▁aufsicht	-11.3629
zieht	-11.363
▁abgetrennt	-11.3633
▁angekündigt	-11.3633
▁kompromiss	-11.3633
▁leukämie	-11.3633
▁nebeneinander	-11.3633
▁spacey	-11.3633
▁syntax	-11.3633
▁treibhausgas	-11.3633
▁verteidigt	-11.3633
▁neuseeländische	-11.3633
▁sokrates	-11.3633
ifikation	-11.3633
▁hinreichend	-11.3633
▁dickdarm	-11.3633
▁fuchs	-11.3633
▁integral	-11.3633
▁flughäfen	-11.3634
▁hinterlassen	-11.3635
▁anweisungen	-11.3635
ränge	-11.3637
▁westeuropa	-11.3637
gespräch	-11.364
relation	-11.364
▁häfen	-11.364
bundesliga	-11.364
▁gsm	-11.3641
▁davor	-11.3642
▁emmer	-11.3642
gegenüber	-11.3643
schüler	-11.3643
▁indigene	-11.3649
▁benutzung	-11.365
▁geltung	-11.3651
▁kennzeichen	-11.3653
▁lenk	-11.3655
▁brennstoff	-11.3658
▁drang	-11.3658
▁blütenstände	-11.3659
filmschauspieler	-11.3661
einführung	-11.3664
▁felsen	-11.3665
▁order	-11.3666
▁souverän	-11.3669
zivilisation	-11.3677
▁wann	-11.3681
römischen	-11.3684
▁galerie	-11.3689
▁nuklid	-11.3691
taschen	-11.3692
▁(7	-11.3693
▁solo	-11.3698
▁zeichnete	-11.3699
▁adrenalin	-11.3704
iodid	-11.3704
▁unterliegen	-11.3704
mara	-11.3706
demokratie	-11.3716
lagerstätte	-11.3717
virus	-11.3721
▁frühesten	-11.3723
▁müssten	-11.3728
gebot	-11.3733
▁gewerkschaft	-11.3734
läuft	-11.3741
gedrängt	-11.3741
vermeidung	-11.3741
verträglich	-11.3741
▁eritrea	-11.3741
▁holocaust	-11.3741
▁konzipiert	-11.3741
▁verkürzt	-11.3741
freimaurer	-11.3741
▁concorde	-11.3741
▁rüssel	-11.3741
▁cameron	-11.3741
▁fuller	-11.3742
▁botanik	-11.3742
▁bildhauer	-11.3742
▁vorrangig	-11.3742
violett	-11.3742
▁herangezogen	-11.3742
▁wüste	-11.3742
geachtet	-11.3742
▁audio	-11.3743
imperial	-11.3743
▁gregorianischen	-11.3743
▁schöpfer	-11.3744
▁gorillas	-11.3744
behälter	-11.3744
öffentlich	-11.3745
▁überzeugen	-11.3745
▁aufteilung	-11.3745
▁verbliebenen	-11.3745
▁homogen	-11.3745
▁anwesend	-11.3747
▁wahlkampf	-11.3747
▁gültigen	-11.375
dialekt	-11.3751
▁unterbrechung	-11.3751
genutzt	-11.3751
brüder	-11.3752
▁gelangten	-11.3753
▁zitat	-11.3755
▁landesregierung	-11.3756
flucht	-11.3757
▁betreffenden	-11.3759
uda	-11.3761
▁4000	-11.3761
▁200.000	-11.3761
▁konstanten	-11.3761
▁großraum	-11.3763
gelöst	-11.3766
▁kreuzzüge	-11.3766
▁ensemble	-11.3766
▁mechanisch	-11.3769
▁roma	-11.377
▁corn	-11.3775
▁ausfall	-11.3777
▁diesmal	-11.3782
▁monte	-11.3789
▁umfassenden	-11.379
▁fuge	-11.3792
▁pisa	-11.38
hlenwasserstoffe	-11.3803
▁gültige	-11.3804
abbau	-11.3815
therapeutische	-11.3819
cyan	-11.3825
▁plante	-11.3826
▁imperium	-11.3832
trasse	-11.3841
▁germanische	-11.3844
defizit	-11.3845
▁down	-11.3846
▁bilanz	-11.385
▁auswärtige	-11.385
▁kompression	-11.3851
▁ergänzen	-11.3851
▁fälschlich	-11.3851
▁silicium	-11.3851
▁tacitus	-11.3851
▁willkür	-11.3851
▁öffnen	-11.3851
abgekürzt	-11.3851
▁meitner	-11.3851
▁schädel	-11.3851
▁übereinstimmung	-11.3851
▁beryllium	-11.3851
▁kronberg	-11.3851
▁erneuert	-11.3851
▁verstarb	-11.3851
▁schickte	-11.3851
▁schöneberg	-11.3852
▁fernsehsender	-11.3852
reflex	-11.3852
saurier	-11.3853
▁parlamentswahl	-11.3853
▁onkel	-11.3853
▁föderation	-11.3853
▁indianer	-11.3854
▁reichskanzler	-11.3854
▁legion	-11.3854
▁bismarck	-11.3854
▁unterhaltungs	-11.3855
konservat	-11.3855
▁osteuropa	-11.3855
▁bronzezeit	-11.3855
▁1894	-11.3856
▁euromünzen	-11.3856
▁aktien	-11.3856
▁geografische	-11.3856
▁rekonstruktion	-11.3856
▁menschenaffen	-11.3856
▁zivilisten	-11.3857
▁abgerissen	-11.3859
▁angebracht	-11.3861
▁praktik	-11.3862
cholesterin	-11.3863
insbesondere	-11.3864
leib	-11.3864
teilnehmer	-11.3865
▁ritual	-11.3865
schafft	-11.3866
▁zusammenschluss	-11.3866
▁prägend	-11.387
▁landgericht	-11.387
▁beibehalt	-11.3871
▁kirchlichen	-11.3875
▁verwies	-11.388
▁wilder	-11.3881
schädlich	-11.3887
▁dreimal	-11.3887
grammiersprache	-11.3889
/3	-11.3889
▁übernimmt	-11.3895
▁verlieh	-11.3897
▁newtonsche	-11.3901
▁gerichtshof	-11.3904
▁bundesland	-11.3905
▁erlangt	-11.3908
▁fossilien	-11.3912
▁durchzusetzen	-11.3915
wohnung	-11.3916
lieder	-11.3916
ähnlich	-11.392
blasen	-11.3922
gebildet	-11.3929
▁reichsstände	-11.394
kno	-11.3942
öffnung	-11.3943
▁statische	-11.3944
▁bitter	-11.3949
▁brauerei	-11.3955
essiv	-11.3956
▁astronomische	-11.3959
musiker	-11.396
▁bundesliga	-11.396
▁francis	-11.3961
▁trink	-11.3962
▁anglikanische	-11.3962
▁ermittlung	-11.3962
▁getrocknet	-11.3962
▁unterirdisch	-11.3962
▁öffnet	-11.3962
▁infrarot	-11.3962
▁ammonium	-11.3962
▁unterliegt	-11.3962
distrikt	-11.3962
▁selber	-11.3963
▁veröffentlichen	-11.3963
▁tibet	-11.3965
▁veranlasste	-11.3967
▁orthodoxen	-11.3971
▁1810	-11.3973
limit	-11.3973
aldi	-11.3974
▁epochen	-11.3976
monopol	-11.3977
götter	-11.3977
▁hinterließ	-11.3977
ähnlichen	-11.3978
▁from	-11.3978
bevölkerungszahl	-11.3978
▁subjektiv	-11.3979
▁170	-11.3979
entwurf	-11.398
arium	-11.3981
▁kroatische	-11.3981
▁trivia	-11.3982
erzählung	-11.3982
stabil	-11.3983
sversuche	-11.3984
▁umgerechnet	-11.3987
▁140	-11.399
▁teuer	-11.399
mask	-11.3991
▁niger	-11.3992
▁milde	-11.3992
▁abgehalten	-11.3993
▁bön	-11.3993
▁professionelle	-11.4
▁feinde	-11.4002
▁distribution	-11.4008
▁busse	-11.4009
slawisch	-11.401
▁detail	-11.4011
▁meint	-11.4013
gelenk	-11.4018
▁zeichnen	-11.4019
▁diplomat	-11.4022
kapsel	-11.4025
rut	-11.4027
▁umrechnung	-11.4035
▁fertigung	-11.4038
▁importiert	-11.4039
▁misst	-11.4041
▁kontrast	-11.4041
▁lateinamerika	-11.4042
▁slawischen	-11.4042
▁daß	-11.4043
vogel	-11.4047
rupp	-11.4047
uelle	-11.405
▁gesteinen	-11.405
decke	-11.405
auflage	-11.4057
▁obst	-11.406
▁badische	-11.4067
gewähr	-11.4071
käfer	-11.4071
▁muslimischen	-11.4073
kathedrale	-11.4075
▁eingebettet	-11.4075
▁fühlte	-11.4075
▁gesteigert	-11.4075
▁hubble	-11.4075
▁magistrat	-11.4075
▁nuklear	-11.4075
▁eschborn	-11.4075
▁ausgeübt	-11.4075
▁gelingt	-11.4075
schlepp	-11.4075
▁befreundet	-11.4075
flossen	-11.4075
▁bandkeramik	-11.4075
fonds	-11.4075
▁bewahrt	-11.4075
▁xenon	-11.4076
machung	-11.4076
▁logo	-11.4077
▁leonhard	-11.4078
▁angehören	-11.4079
▁plo	-11.4081
▁nebel	-11.4081
▁silben	-11.4083
thio	-11.4085
▁forum	-11.4087
▁1,4	-11.4088
▁akku	-11.4089
▁gaia	-11.4089
quark	-11.4091
▁450	-11.4092
▁teu	-11.4093
▁ohnehin	-11.4094
▁aufgefasst	-11.4095
derivat	-11.4104
▁gleichheit	-11.4105
▁verstorbenen	-11.4105
write	-11.4109
▁harmonie	-11.411
kleidung	-11.411
datum	-11.4111
▁einschränkungen	-11.4111
▁geistlichen	-11.4114
▁schwert	-11.4121
these	-11.4121
▁theaterstück	-11.4124
▁säuren	-11.413
▁sang	-11.413
▁gerste	-11.4132
▁flusses	-11.4132
ück	-11.4134
einzel	-11.4138
▁nieren	-11.4143
wünsche	-11.4143
▁united	-11.4148
▁gewerkschafts	-11.4151
▁show	-11.4154
▁physische	-11.416
▁1,1	-11.4162
pop	-11.4168
rho	-11.4168
▁zeichnet	-11.4169
▁heinz	-11.4169
▁muse	-11.4174
fraktion	-11.4175
▁musikalisch	-11.4178
verkäufe	-11.4183
▁einziger	-11.4183
moral	-11.4184
silikat	-11.4186
▁zulassung	-11.4188
▁radi	-11.4188
kompatibilität	-11.4188
physiologie	-11.4188
treptow	-11.4188
▁begeistert	-11.4188
▁chemotherapie	-11.4188
▁flörsheim	-11.4188
▁giovanni	-11.4188
▁implikation	-11.4188
▁league	-11.4188
▁säkular	-11.4188
▁research	-11.4188
▁vorliegt	-11.4188
▁next	-11.4189
▁kolben	-11.4189
▁fußgänger	-11.4189
▁bestritt	-11.4189
▁annehmen	-11.419
▁black	-11.419
▁klimawandel	-11.419
zeremonie	-11.4194
▁instanz	-11.4196
▁grafschaft	-11.4196
▁wasserdampf	-11.4196
▁1864	-11.4198
falten	-11.4198
▁informiert	-11.4199
▁mühl	-11.4202
fliegen	-11.4203
▁genom	-11.4205
gereicht	-11.4206
mechanik	-11.4208
membran	-11.4208
verfilmung	-11.4208
bewohner	-11.4208
metrie	-11.4208
griech	-11.4208
rahmen	-11.421
herrscher	-11.421
abkürzung	-11.421
▁volta	-11.421
bedeutung	-11.4211
friedrich	-11.4211
▁befunde	-11.4213
auftritt	-11.4214
▁1700	-11.4214
ursache	-11.4215
▁grundsatz	-11.4217
▁symbolische	-11.4221
▁innenpolitisch	-11.4223
▁feststellung	-11.4228
circ	-11.4231
oran	-11.4233
▁luis	-11.4237
atlas	-11.4238
▁half	-11.4246
_15	-11.4247
▁kiel	-11.4247
fil	-11.4249
▁sud	-11.4249
▁eulersche	-11.4255
tod	-11.4258
▁eibe	-11.426
lab	-11.426
tragende	-11.4262
▁eingebunden	-11.4265
▁klassiker	-11.4267
▁fehlenden	-11.4268
genese	-11.4281
walter	-11.4282
illo	-11.4282
▁beigesetzt	-11.4284
▁fasste	-11.4286
englischsprachig	-11.4286
▁ägyptische	-11.4291
lio	-11.4292
▁genf	-11.4293
architekt	-11.4297
kurzgeschichte	-11.4299
▁ertrag	-11.43
sächlich	-11.4301
▁californium	-11.4303
präsidium	-11.4303
▁annäherung	-11.4303
▁bagdad	-11.4303
▁esoterik	-11.4303
▁intervention	-11.4303
▁metropolregion	-11.4303
▁resultierende	-11.4303
▁signifikant	-11.4303
▁verankert	-11.4303
▁kardinal	-11.4303
▁permanent	-11.4303
▁aufgegriffen	-11.4303
▁javascript	-11.4303
▁übertrug	-11.4303
▁drittgrößte	-11.4304
▁kennzeichnen	-11.4304
▁engagierte	-11.4304
löhne	-11.4304
▁horizontal	-11.4304
▁behandeln	-11.4304
▁entfallen	-11.4304
▁israelische	-11.4304
▁julia	-11.4305
▁sinkt	-11.4306
▁künstlerisch	-11.4307
▁aroma	-11.4308
script	-11.4308
▁schwächer	-11.4309
▁denkbar	-11.431
▁weitesten	-11.4312
▁vizepräsident	-11.4313
▁ehemaliger	-11.4314
trägt	-11.4317
▁humor	-11.4317
▁strand	-11.4322
▁ernennung	-11.4324
▁alan	-11.4324
aufgaben	-11.4326
soldaten	-11.4328
zwischenzeitlich	-11.4331
vorstand	-11.4331
▁kalkül	-11.4333
▁opera	-11.4333
▁zwangsarbeit	-11.4338
marx	-11.4339
ila	-11.434
grau	-11.4341
▁beigetragen	-11.4341
_13	-11.4341
gäste	-11.4342
▁örtlichen	-11.4343
▁protagonisten	-11.435
▁fördert	-11.4352
forum	-11.4353
zweite	-11.4357
verkauf	-11.4358
▁fledermaus	-11.4359
▁anonym	-11.436
abgabe	-11.436
strang	-11.4361
▁kirchengemeinde	-11.4364
letter	-11.4368
georg	-11.4378
meile	-11.4379
▁natural	-11.4382
gänger	-11.4382
▁vorstand	-11.4383
▁julianischen	-11.4383
▁buchstabe	-11.4385
alexandr	-11.4386
mitgliedstaat	-11.4388
▁steigenden	-11.439
watt	-11.4394
▁berufliche	-11.4394
probe	-11.4396
dorff	-11.44
▁urheberrecht	-11.4403
▁trauer	-11.4406
▁mehrzahl	-11.4409
▁bürgerschaft	-11.4412
füße	-11.4416
▁tote	-11.4416
labor	-11.4418
blütler	-11.442
▁beschäftigen	-11.442
▁felix	-11.442
▁rekonstruiert	-11.442
▁weitestgehend	-11.442
▁stoiber	-11.442
tägige	-11.442
kolibri	-11.442
▁edition	-11.442
▁ablehnte	-11.442
▁reflexion	-11.442
▁stirn	-11.442
▁botanische	-11.442
▁facto	-11.4421
epidemie	-11.4421
▁maxwell	-11.4421
▁irdische	-11.4421
▁fachhochschule	-11.4421
chronologisch	-11.4422
▁lösungsmittel	-11.4422
▁afghanische	-11.4422
▁briefwechsel	-11.4423
▁berber	-11.4423
▁1869	-11.4425
defekt	-11.4426
wöh	-11.443
mühle	-11.4438
blockade	-11.4438
welterbe	-11.4438
tius	-11.4443
admiral	-11.4445
flagge	-11.4445
▁bewirken	-11.4445
▁längsten	-11.4455
▁sichtweise	-11.4457
petit	-11.4459
gläubige	-11.4459
nobelpreisträger	-11.4469
▁verfall	-11.4475
▁programmierung	-11.4477
izität	-11.448
▁juristischen	-11.4484
später	-11.4484
▁physiologische	-11.4486
mühlen	-11.4497
▁leder	-11.4498
_11	-11.45
▁zylinder	-11.4514
schränkt	-11.4528
▁aktual	-11.4528
▁amtierende	-11.4534
diese	-11.4536
helm	-11.4537
▁ikosaeder	-11.4537
jubiläum	-11.4537
▁absolvierte	-11.4537
▁begegnet	-11.4537
▁fraunhofer	-11.4537
▁glasgow	-11.4537
▁hieroglyphen	-11.4537
▁homosexuelle	-11.4537
▁sklaverei	-11.4537
▁staatsoberhaupt	-11.4537
▁unternommen	-11.4537
▁urkundlich	-11.4537
▁deflation	-11.4537
▁hindenburg	-11.4537
pfeiler	-11.4537
▁biblische	-11.4537
▁bischöfe	-11.4537
▁staubblätter	-11.4538
▁clemens	-11.4538
pfarr	-11.4539
▁tarif	-11.4539
▁emmy	-11.4539
▁kernreaktor	-11.4539
▁kaufkraft	-11.454
▁aufzeichnungen	-11.4541
atmung	-11.4541
▁senatoren	-11.4543
menschliche	-11.4544
▁beliebtheit	-11.4545
▁unsicher	-11.4546
lore	-11.4549
▁herunter	-11.4549
▁regi	-11.455
farb	-11.4551
▁umstellung	-11.4556
▁zusammenbruch	-11.4559
aufbau	-11.4562
tio	-11.4562
zubringen	-11.4565
bearbeitung	-11.4565
allgemeine	-11.4566
sammel	-11.4567
schlug	-11.4569
therapeut	-11.4572
asse	-11.4576
ophon	-11.4585
▁abschließend	-11.4592
dick	-11.4592
▁äußerungen	-11.4602
▁präsidentschaft	-11.4607
▁händen	-11.4608
▁eroberte	-11.4614
▁wirkende	-11.4617
▁ungarischen	-11.4617
ritter	-11.4629
suchen	-11.4632
▁einladung	-11.4635
▁poli	-11.4637
hara	-11.4638
radweg	-11.4639
schiebe	-11.4643
▁bundesländern	-11.4648
▁moos	-11.4652
sterblich	-11.4655
leutnant	-11.4656
▁helgoländer	-11.4656
▁kommunisten	-11.4656
▁boolesche	-11.4656
▁inhaltsstoffe	-11.4656
▁client	-11.4656
▁kelvin	-11.4656
gehängt	-11.4656
▁verdacht	-11.4656
zertifikat	-11.4656
▁drachen	-11.4657
▁bebauung	-11.4657
▁umfrage	-11.4657
▁überarbeitet	-11.4657
peptid	-11.4657
▁bisweilen	-11.4657
▁gesetzgebung	-11.4657
vorlesung	-11.4658
▁droste	-11.4658
▁chronisch	-11.4658
▁kraftfahrzeug	-11.4658
theorem	-11.4659
▁barks	-11.466
▁1846	-11.4661
▁1865	-11.4661
▁germanium	-11.4661
▁1882	-11.4661
leuk	-11.4663
▁herrschenden	-11.4664
▁strömungen	-11.4664
dimensionale	-11.4669
▁ökonomischen	-11.467
town	-11.4673
▁hauptwerk	-11.4675
▁schrittweise	-11.4682
tausend	-11.4683
pilze	-11.4684
kategorie	-11.4687
preußen	-11.4687
louis	-11.4687
▁vorschläge	-11.4689
▁annahm	-11.4689
direct	-11.4695
▁feststoff	-11.47
▁genügend	-11.4702
▁zeitgleich	-11.4704
gespielt	-11.4704
▁jahrzehnt	-11.4712
▁nachkriegs	-11.4714
rezeptor	-11.4721
klausel	-11.4722
oß	-11.4731
▁sterbe	-11.4744
polymer	-11.4749
gebenden	-11.4749
▁vortrag	-11.4759
baustein	-11.4761
▁jh	-11.4763
▁renn	-11.4768
schleife	-11.4773
▁längste	-11.4776
bildern	-11.4776
▁befürchtet	-11.4777
▁modifiziert	-11.4777
▁rutherford	-11.4777
▁äquator	-11.4777
▁rugby	-11.4777
▁bemerkt	-11.4777
▁hervorragend	-11.4777
▁metaphysische	-11.4777
▁beurteilung	-11.4777
▁quarz	-11.4777
▁drohte	-11.4777
▁mobiltelefon	-11.4777
▁delegierte	-11.4777
▁erholung	-11.4777
zirkel	-11.4777
▁versaille	-11.4777
▁strauß	-11.4778
origin	-11.4778
▁muslimische	-11.4778
▁schwefelsäure	-11.4778
3+	-11.4779
schleuse	-11.4779
▁staatshaushalt	-11.4779
▁prägen	-11.4779
▁kyrillische	-11.478
gerüst	-11.478
▁entwarf	-11.478
offensive	-11.4781
▁mündlich	-11.4781
▁ideologisch	-11.4782
▁worauf	-11.4782
▁kreuzzug	-11.4783
▁beamten	-11.4783
▁keltische	-11.4784
▁standardisiert	-11.4784
▁raumtemperatur	-11.4785
▁hit	-11.4787
▁css	-11.479
▁arbeitsmarkt	-11.479
▁spiegelt	-11.4793
kontraktion	-11.4797
▁holland	-11.48
▁fischerei	-11.48
uro	-11.4801
asa	-11.4802
poly	-11.4803
parasit	-11.4804
darsteller	-11.4808
bernstein	-11.4811
außer	-11.4811
paket	-11.4811
ward	-11.4812
▁jura	-11.4812
powell	-11.4812
▁respekt	-11.4814
glauben	-11.4814
▁unit	-11.482
▁zugesprochen	-11.4821
super	-11.4822
aku	-11.4823
▁laien	-11.4833
fernseh	-11.4836
foul	-11.4836
personal	-11.4841
▁abzug	-11.4841
helfer	-11.4845
▁müll	-11.4855
thé	-11.4855
▁tauf	-11.4865
portal	-11.4866
▁belief	-11.4868
villa	-11.487
▁kommenden	-11.4872
▁periodisch	-11.488
gerichtet	-11.4882
▁sexuelle	-11.489
▁protestantisch	-11.4898
académie	-11.4899
hülshoff	-11.4899
▁broadway	-11.4899
▁county	-11.4899
▁dicaprio	-11.4899
▁identifikation	-11.4899
▁verbrannt	-11.4899
begeisterung	-11.4899
▁wikinger	-11.4899
▁winslet	-11.4899
▁gemeldet	-11.4899
▁betraf	-11.4899
▁äther	-11.4899
▁verliert	-11.4899
rbeitslosenquote	-11.4899
chronologie	-11.4899
semester	-11.4899
▁dogma	-11.4899
übersetzer	-11.4899
präsenz	-11.49
▁anregung	-11.49
▁erarbeitet	-11.49
▁mitochondrien	-11.49
▁datierung	-11.49
▁hochmittelalter	-11.49
▁leerzeichen	-11.4901
▁richtlinien	-11.4902
▁banknoten	-11.4903
▁1862	-11.4903
▁1874	-11.4904
▁einheimische	-11.4904
▁halbleiter	-11.4904
▁gaius	-11.4905
▁bekämpft	-11.4906
cula	-11.4908
▁astronomischen	-11.4908
inneren	-11.491
▁exekutive	-11.4913
regulation	-11.4917
▁profi	-11.4919
▁beschlüsse	-11.4919
=24	-11.4922
ship	-11.4924
▁rinder	-11.4924
▁laufenden	-11.4925
▁flog	-11.493
konvention	-11.4935
grönland	-11.4936
praxis	-11.4936
fini	-11.494
grammiersprachen	-11.4945
ansprüche	-11.4947
▁physikalisch	-11.4947
tabelle	-11.4947
▁times	-11.4953
▁unterhalten	-11.4959
mehl	-11.4963
▁seinerzeit	-11.4964
▁endo	-11.4977
gefallen	-11.4978
nuss	-11.4979
▁landete	-11.498
dv	-11.4981
2,6	-11.4981
fett	-11.4982
überschuss	-11.4983
▁übersee	-11.4984
yu	-11.4986
▁einmalig	-11.4988
antrag	-11.4993
▁erfolgreichste	-11.4997
▁konvent	-11.5007
▁mönche	-11.501
steck	-11.5012
verbandes	-11.5019
gläser	-11.5019
▁embryo	-11.5022
▁angeklagt	-11.5022
▁befragt	-11.5022
▁dissertation	-11.5022
▁föhn	-11.5022
▁glycerin	-11.5022
▁resultiert	-11.5022
▁thüringen	-11.5022
▁verschlechtert	-11.5022
▁öfter	-11.5022
debüt	-11.5022
▁fiktive	-11.5022
▁vermindert	-11.5022
absolvent	-11.5022
▁nacheinander	-11.5022
▁stefan	-11.5022
adaption	-11.5022
▁konstruktiv	-11.5022
▁lehnwörter	-11.5023
▁ideologie	-11.5023
▁pflegte	-11.5023
▁lehrstuhl	-11.5023
▁anschauung	-11.5023
▁regierungschef	-11.5024
insäure	-11.5025
▁1873	-11.5028
statut	-11.5028
wirft	-11.503
rost	-11.5031
▁schar	-11.5032
trainer	-11.5032
▁festlegung	-11.5032
wuchs	-11.5033
▁umlaufbahn	-11.5033
▁versicherungs	-11.5035
▁mad	-11.5035
▁pfund	-11.5035
▁flugplatz	-11.5035
netzwerk	-11.5038
▁walze	-11.5039
▁frege	-11.504
▁kiwis	-11.504
▁optischen	-11.5053
▁habsburg	-11.5054
▁vereinigt	-11.506
▁sho	-11.5061
göttin	-11.5062
kampagne	-11.5062
▁epik	-11.5065
brandenburg	-11.5066
▁prosa	-11.5067
▁brandt	-11.507
nahverkehr	-11.507
▁stadtgrenze	-11.5071
aufwand	-11.5073
knall	-11.5075
▁alma	-11.5078
▁eingeschlossen	-11.5087
label	-11.5091
kernel	-11.5091
▁staatlicher	-11.5097
staub	-11.5098
▁empfang	-11.511
früher	-11.5117
media	-11.5117
mündung	-11.5117
normal	-11.5123
meier	-11.5129
▁dritter	-11.5131
▁carlo	-11.5137
▁tast	-11.5146
begriffsklärung	-11.5147
▁foundation	-11.5147
▁ganymed	-11.5147
▁nachträglich	-11.5147
▁picture	-11.5147
▁reflektiert	-11.5147
▁santiago	-11.5147
mörder	-11.5147
redakteur	-11.5147
▁flexion	-11.5147
▁noether	-11.5147
emigrant	-11.5147
▁weblinks	-11.5147
▁chopin	-11.5147
▁langlebig	-11.5147
▁columbia	-11.5147
▁diogenes	-11.5147
▁letztendlich	-11.5147
arabien	-11.5147
▁verdient	-11.5148
double	-11.5148
▁woraufhin	-11.5148
▁kanzlerkandidat	-11.5148
▁folgendermaßen	-11.5148
neolithische	-11.5149
▁interaktion	-11.515
▁geformt	-11.515
▁skulpturen	-11.515
▁vernichten	-11.5151
▁ppm	-11.5152
▁1863	-11.5152
▁1887	-11.5153
▁verzeichnen	-11.5156
▁standpunkt	-11.5156
achtung	-11.516
▁echo	-11.516
▁rüstungs	-11.5161
awk	-11.5161
tsu	-11.5162
▁marktplatz	-11.5164
▁abbild	-11.5166
wirtschaftszweig	-11.5167
bremse	-11.5168
▁erbsen	-11.5169
▁40.000	-11.517
▁damen	-11.518
luftschiff	-11.518
mensch	-11.5188
hügel	-11.5188
absolut	-11.519
werkzeug	-11.5196
▁klimatisch	-11.5201
planck	-11.5201
blume	-11.5209
▁areal	-11.5211
anstieg	-11.5214
unfähig	-11.5216
ühle	-11.5222
▁reichspräsident	-11.5223
▁umliegende	-11.5223
face	-11.5225
▁1,8	-11.523
▁hip	-11.5231
▁scheu	-11.5235
▁levi	-11.5243
▁programmierer	-11.5245
möglichkeit	-11.5246
chu	-11.5246
▁wund	-11.5252
▁unregelmäßig	-11.5256
allo	-11.5256
▁erhob	-11.5257
werft	-11.5264
▁bah	-11.5265
ible	-11.5267
▁brun	-11.5271
kompatibel	-11.5274
▁administrativ	-11.5274
▁archimedes	-11.5274
▁bestrebungen	-11.5274
▁gewerblich	-11.5274
▁phosphor	-11.5274
▁schmetterling	-11.5274
▁selektion	-11.5274
lokomotive	-11.5274
▁schwankt	-11.5274
▁stephan	-11.5274
▁angegriffen	-11.5274
▁oxford	-11.5274
▁liestal	-11.5274
▁braille	-11.5274
▁darauffolgende	-11.5274
▁überprüft	-11.5274
▁beurteilt	-11.5274
▁anwender	-11.5274
▁begangen	-11.5275
▁latex	-11.5276
▁kuhn	-11.5277
▁modernisierung	-11.5277
erscheinungsbild	-11.5277
bleiben	-11.5278
▁andré	-11.5278
oxi	-11.5278
▁stasi	-11.5279
▁korrektur	-11.5281
▁1849	-11.5281
▁1831	-11.5281
▁1813	-11.5283
▁love	-11.5284
▁1820	-11.5288
▁prototyp	-11.5289
▁flut	-11.529
▁1793	-11.5291
▁1789	-11.5293
▁kapitalismus	-11.5295
rente	-11.5295
muschel	-11.5297
lappen	-11.5297
editor	-11.5298
jüdische	-11.5303
▁hallein	-11.5305
▁abgebrochen	-11.5305
köpfe	-11.5305
▁sozialismus	-11.5306
▁vorgeworfen	-11.5307
▁verdienste	-11.5308
ländische	-11.5309
ington	-11.5314
▁reinheit	-11.5318
beteiligung	-11.5319
gebrauch	-11.5319
getreide	-11.532
▁sammelte	-11.5322
gui	-11.5327
kombination	-11.5332
rmaßen	-11.5335
▁nazi	-11.5335
▁funktioniert	-11.5348
▁aufhebung	-11.5349
▁arbeitsplätze	-11.5351
▁gewinnt	-11.5352
liegende	-11.5354
▁heiz	-11.5356
tok	-11.5356
▁straßennetz	-11.5357
▁luc	-11.5359
▁synthetische	-11.5359
▁bekenntnis	-11.5361
ereignisse	-11.5361
stedt	-11.5367
kabel	-11.5371
▁gasförmige	-11.5378
gri	-11.5382
pfad	-11.5385
hou	-11.5385
▁fülle	-11.5393
▁nobel	-11.5396
ethanol	-11.5397
2+	-11.5397
▁abfolge	-11.5398
anstrengung	-11.5402
gekoppelt	-11.5402
kapitän	-11.5402
schwäbische	-11.5402
weltkulturerbe	-11.5402
▁entstehende	-11.5402
▁geweiht	-11.5402
▁hirohito	-11.5402
▁klassifiziert	-11.5402
▁stängel	-11.5402
▁volksabstimmung	-11.5402
▁wöchentlich	-11.5402
▁harmonisch	-11.5402
▁drastisch	-11.5402
▁theologen	-11.5402
▁weitreichende	-11.5402
pigment	-11.5402
▁betreut	-11.5403
▁glüh	-11.5403
▁morphologisch	-11.5403
▁inflationsrate	-11.5403
▁bernard	-11.5405
gottes	-11.5406
▁rücksicht	-11.5407
▁türken	-11.5408
▁1886	-11.5409
▁indiz	-11.541
▁befindliche	-11.5412
▁beliebteste	-11.5415
▁scott	-11.5418
▁durchgängig	-11.5419
▁engländer	-11.5423
widrig	-11.5424
▁psychologische	-11.5425
▁moralischen	-11.5426
▁verschiedenste	-11.5428
▁präsent	-11.5434
▁sz	-11.5434
▁leine	-11.5442
▁ländlichen	-11.5442
▁geographisch	-11.5445
buslinien	-11.5447
▁saline	-11.5447
vollständig	-11.545
komitee	-11.5451
▁ruder	-11.5451
kabinett	-11.5452
gefunden	-11.5453
stabilität	-11.546
gärten	-11.5461
▁abgesetzt	-11.5465
▁umgebende	-11.5466
▁mendel	-11.5466
▁fundament	-11.5469
lokal	-11.5469
zusatz	-11.5471
▁heine	-11.5488
kritisch	-11.549
5,2	-11.5502
wasserversorgung	-11.5504
▁aufruf	-11.5506
indian	-11.5516
▁botschafter	-11.5521
zuwachs	-11.5528
▁düssel	-11.5531
orchester	-11.5532
aldehyd	-11.5532
flüchtig	-11.5532
konjugation	-11.5532
▁analysiert	-11.5532
▁begrüßt	-11.5532
▁entnommen	-11.5532
▁erzbistum	-11.5532
▁holzwickede	-11.5532
▁jungsteinzeit	-11.5532
▁kaschmir	-11.5532
▁verhängt	-11.5532
▁verwundet	-11.5532
▁würzburg	-11.5532
publizist	-11.5532
▁pflanzliche	-11.5532
▁gagarin	-11.5532
▁zahlungsmittel	-11.5532
▁flandern	-11.5532
[...]
