<unk>	0
<s>	0
</s>	0
.	-3.35541
▁	-3.55486
,	-3.57608
▁der	-3.7772
en	-3.80297
▁die	-3.87991
s	-3.88203
▁und	-4.11245
e	-4.11982
n	-4.307
▁in	-4.36179
-	-4.67905
▁von	-4.83413
▁den	-4.98583
er	-5.03163
▁im	-5.12938
▁das	-5.15553
▁des	-5.16514
▁mit	-5.17964
▁(	-5.21554
"	-5.2232
▁zu	-5.28698
▁"	-5.35411
▁auf	-5.36336
▁als	-5.38649
▁ein	-5.38831
t	-5.4857
▁ist	-5.50376
▁eine	-5.51175
▁dem	-5.524
▁für	-5.5918
▁sich	-5.59304
)	-5.60403
▁an	-5.64423
r	-5.6626
#	-5.71839
▁aus	-5.7343
▁er	-5.74974
▁auch	-5.76076
▁#	-5.78077
▁wurde	-5.83447
▁nach	-5.9191
▁„	-5.92299
▁bei	-5.98713
▁durch	-6.00885
▁es	-6.0571
▁werden	-6.08345
es	-6.11949
▁nicht	-6.1224
m	-6.12476
▁sind	-6.13312
▁oder	-6.18925
ung	-6.19117
:	-6.19445
▁war	-6.19867
▁über	-6.20574
▁einer	-6.20913
“	-6.22871
▁wird	-6.23717
▁sie	-6.26151
▁vor	-6.27733
▁am	-6.29322
▁um	-6.34947
▁bis	-6.36278
d	-6.36413
▁unter	-6.44659
▁zum	-6.44895
▁wie	-6.45184
te	-6.45453
▁ab	-6.45959
▁zur	-6.49531
▁ver	-6.52557
▁dass	-6.57749
▁be	-6.58324
▁einem	-6.58515
▁diese	-6.59803
de	-6.61358
▁so	-6.64226
in	-6.65384
k	-6.68074
a	-6.74183
▁nur	-6.74858
▁einen	-6.78008
▁wurden	-6.78409
="	-6.7951
▁–	-6.79957
ten	-6.82808
c	-6.82987
;	-6.83716
z	-6.83726
g	-6.83788
b	-6.84753
).	-6.86149
|	-6.86641
f	-6.8722
▁b	-6.88977
o	-6.96078
/	-6.98397
▁aber	-6.99057
▁noch	-7.02063
),	-7.0324
▁stadt	-7.05007
us	-7.05343
▁seit	-7.0841
▁ge	-7.0959
▁da	-7.09878
l	-7.09936
▁dieser	-7.11945
▁18	-7.12331
den	-7.12771
h	-7.12847
▁zwischen	-7.13548
▁etwa	-7.14603
▁seine	-7.1522
▁kann	-7.15524
y	-7.15857
ischen	-7.15931
vom	-7.16287
an	-7.17895
▁man	-7.18479
▁sowie	-7.18505
▁hat	-7.19817
▁ihre	-7.20136
be	-7.20965
▁jahr	-7.21298
▁seiner	-7.21498
▁zeit	-7.22265
al	-7.22408
▁sein	-7.23594
▁waren	-7.26
der	-7.26655
▁zwei	-7.27413
ge	-7.27419
p	-7.29283
i	-7.30823
▁eines	-7.30845
▁a	-7.31013
▁jedoch	-7.31745
▁hatte	-7.32069
ische	-7.32428
u	-7.34037
ig	-7.35082
▁mehr	-7.37106
▁formula	-7.39565
▁gegen	-7.42203
▁jahre	-7.42728
▁de	-7.44265
▁un	-7.44441
▁können	-7.44713
▁wieder	-7.44882
w	-7.45061
▁re	-7.4587
um	-7.46321
doc	-7.46865
▁m	-7.4735
st	-7.49541
>	-7.50705
ver	-7.51275
sch	-7.51909
▁sch	-7.52318
▁teil	-7.52594
it	-7.53986
▁während	-7.54156
▁jahrhundert	-7.54346
▁haben	-7.54442
▁jahren	-7.54591
▁v	-7.54854
isch	-7.56485
▁damit	-7.58761
is	-7.58983
▁k	-7.5915
em	-7.59226
▁gibt	-7.59596
or	-7.60749
▁anderen	-7.6084
iert	-7.61731
re	-7.6221
▁d	-7.62329
▁1	-7.63111
le	-7.63133
",	-7.63201
▁c	-7.63615
▁drei	-7.63754
▁%	-7.63887
ar	-7.64036
▁ersten	-7.6525
▁selbst	-7.66276
▁z	-7.67068
v	-7.67318
▁alle	-7.68156
ch	-7.70231
ab	-7.70801
on	-7.71698
ä	-7.71775
ungen	-7.72405
▁bereits	-7.72882
▁neben	-7.73141
ö	-7.74563
gen	-7.75223
▁film	-7.75309
▁sehr	-7.75398
▁dabei	-7.75543
▁heute	-7.75763
ein	-7.7585
lich	-7.76405
2	-7.76407
▁erst	-7.76766
ma	-7.7695
▁erste	-7.78131
▁ihr	-7.78133
ü	-7.7816
el	-7.78205
ter	-7.78919
▁f	-7.79161
▁allem	-7.79657
▁wo	-7.79702
ation	-7.8002
▁weitere	-7.80331
▁wenn	-7.8138
▁deutschen	-7.81635
▁später	-7.82031
ul	-7.82095
ur	-7.82144
▁2	-7.8239
▁keine	-7.82472
▁h	-7.83216
▁welt	-7.83218
at	-7.83534
▁g	-7.84746
zeit	-7.85145
▁pro	-7.8551
▁deutschland	-7.85872
land	-7.85996
▁zusammen	-7.86078
ismus	-7.86118
org	-7.86325
▁menschen	-7.86379
▁17	-7.87194
▁ende	-7.87338
▁land	-7.89059
et	-7.89962
ieren	-7.90082
▁seinen	-7.90132
▁dann	-7.90682
▁ihrer	-7.91133
▁zurück	-7.91827
to	-7.92338
▁ent	-7.924
▁neu	-7.92668
di	-7.93366
▁viele	-7.94389
ing	-7.94921
▁andere	-7.95038
▁ihm	-7.95373
▁sondern	-7.95989
▁seinem	-7.96569
▁p	-7.96635
ern	-7.97173
▁st	-7.9734
▁hier	-7.97464
ste	-7.97501
▁bezeichnet	-7.99502
die	-7.99693
▁was	-7.99966
▁konnte	-8.00628
▁beim	-8.00772
keit	-8.02495
grund	-8.0253
▁la	-8.02674
os	-8.02923
▁form	-8.02942
?	-8.03055
▁verwendet	-8.0347
▁wasser	-8.03852
zu	-8.04369
▁3	-8.04451
bzw	-8.04758
sten	-8.04764
ia	-8.04836
ta	-8.05363
na	-8.0538
–	-8.06317
▁immer	-8.06415
ut	-8.06777
▁kam	-8.0718
ien	-8.08135
▁beispiel	-8.08326
▁große	-8.08908
3	-8.09266
▁bekannt	-8.09311
▁dort	-8.09487
▁landes	-8.09493
▁gab	-8.09629
heit	-8.09738
ie	-8.09906
▁diesem	-8.09976
▁einige	-8.10163
▁vier	-8.10191
▁16	-8.10406
▁sei	-8.10672
il	-8.11339
ierte	-8.12161
wikipedia	-8.13276
▁allerdings	-8.13276
▁weiter	-8.13441
▁id	-8.1393
igen	-8.14084
bau	-8.14319
▁dessen	-8.14782
stand	-8.14879
é	-8.15218
▁("	-8.15319
▁ohne	-8.15421
")	-8.1582
“.	-8.1696
▁fest	-8.17018
▁liegt	-8.17039
▁(19	-8.17442
▁schon	-8.17708
wiki	-8.18019
https	-8.18168
the	-8.18582
im	-8.18678
un	-8.18914
▁bau	-8.18937
▁grund	-8.18982
▁w	-8.19049
▁meist	-8.19054
▁url	-8.19286
ierung	-8.19339
▁oft	-8.19412
://	-8.19501
mann	-8.19611
▁title	-8.1967
ion	-8.19888
▁<	-8.19959
▁categories	-8.20009
curid	-8.20012
lichen	-8.20031
▁</	-8.20102
▁hoch	-8.20573
ik	-8.20789
▁of	-8.20949
4	-8.21197
▁ebenfalls	-8.21853
▁großen	-8.22298
▁15	-8.22333
▁dazu	-8.22867
▁bedeutung	-8.23115
▁rund	-8.23196
▁haupt	-8.23246
liche	-8.23259
▁ihn	-8.23691
bar	-8.24106
▁ober	-8.24322
)|	-8.24407
▁also	-8.24796
stadt	-8.24862
“,	-8.24942
▁neue	-8.24954
x	-8.25254
▁beiden	-8.25445
ne	-8.255
ium	-8.25577
▁t	-8.25603
da	-8.25647
är	-8.25786
j	-8.25787
▁geschichte	-8.26552
aus	-8.26785
▁prozent	-8.26913
▁leben	-8.27011
=	-8.27892
ität	-8.27914
schaft	-8.28168
▁natur	-8.28302
ra	-8.2837
he	-8.28489
▁daher	-8.28816
▁ca	-8.28974
▁anderem	-8.29055
▁art	-8.29148
lo	-8.29271
▁l	-8.29409
▁kultur	-8.29447
li	-8.29672
la	-8.29681
ck	-8.29791
▁gilt	-8.30011
system	-8.3039
▁welche	-8.30496
vi	-8.30729
▁le	-8.31252
’	-8.31282
▁je	-8.31465
me	-8.32185
▁insbesondere	-8.32265
▁mai	-8.32414
▁4	-8.32734
▁beispielsweise	-8.33032
▁hin	-8.33042
id	-8.33354
ende	-8.33359
▁zunächst	-8.33381
▁i	-8.3433
▁mehrere	-8.34398
▁millionen	-8.34432
▁groß	-8.34504
ige	-8.34651
▁worden	-8.34667
▁u	-8.34684
ic	-8.34915
▁fünf	-8.34943
▁stark	-8.34992
▁deutsche	-8.35313
▁frei	-8.35904
1	-8.36871
vor	-8.37098
▁us	-8.37339
▁entwicklung	-8.37378
au	-8.37397
_	-8.37605
▁statt	-8.3787
▁jahrhunderts	-8.37885
ri	-8.37914
▁5	-8.38659
▁her	-8.38713
▁rolle	-8.38735
▁zweiten	-8.39198
berg	-8.39259
mo	-8.39269
▁se	-8.3942
und	-8.3956
▁10	-8.40047
ro	-8.40072
▁chr	-8.40076
ben	-8.4013
auf	-8.40312
▁neuen	-8.40873
son	-8.41011
ad	-8.41023
man	-8.41175
▁energie	-8.41177
enden	-8.41219
as	-8.41351
cht	-8.42932
▁wegen	-8.4338
burg	-8.43766
▁besonders	-8.43773
ca	-8.43873
sa	-8.44372
▁macht	-8.45053
▁1.	-8.45179
▁bundes	-8.45239
th	-8.45394
ler	-8.45743
am	-8.45797
▁häufig	-8.45936
▁unterschiedlich	-8.45968
▁ko	-8.46002
ka	-8.46038
▁genannt	-8.46183
mer	-8.463
▁meisten	-8.46433
ster	-8.46538
▁reichs	-8.47082
▁gleich	-8.47331
iz	-8.4751
isten	-8.47882
haus	-8.48106
▁fast	-8.48268
▁al	-8.48279
▁august	-8.48288
ton	-8.48611
▁begriff	-8.48911
▁juli	-8.49033
her	-8.49211
▁wobei	-8.49497
tag	-8.49557
▁reich	-8.49573
po	-8.49877
▁west	-8.50024
ist	-8.50092
fall	-8.50117
▁namen	-8.50258
▁gegenüber	-8.50646
▁wort	-8.50984
▁europa	-8.51182
stein	-8.51393
▁berlin	-8.51482
gt	-8.51814
▁kon	-8.51954
▁kunst	-8.5202
)"	-8.5205
0	-8.5205
▁ob	-8.52462
form	-8.52485
ner	-8.52627
▁sa	-8.52701
▁kurz	-8.52841
mit	-8.53066
▁innerhalb	-8.53082
▁ma	-8.53776
▁zahl	-8.53966
▁ost	-8.54038
zahl	-8.54088
ir	-8.54197
▁werk	-8.54204
art	-8.54471
▁führte	-8.54736
ti	-8.54746
▁diesen	-8.54838
▁14	-8.54848
▁sollte	-8.54883
▁20	-8.54967
▁außerdem	-8.55117
▁besteht	-8.55173
▁luft	-8.55212
ke	-8.55638
▁soll	-8.55676
ko	-8.55978
zi	-8.56184
tor	-8.56254
isierung	-8.56273
▁möglich	-8.56306
▁lebens	-8.5653
▁körper	-8.56596
▁süd	-8.56822
▁kaiser	-8.57255
▁li	-8.57382
▁januar	-8.57616
ba	-8.57647
chen	-8.57676
ger	-8.57723
mm	-8.5793
mi	-8.5843
▁staats	-8.58478
▁steht	-8.58486
du	-8.588
▁sprache	-8.5881
▁erstmals	-8.58931
▁19.	-8.58941
▁märz	-8.59049
wert	-8.5916
▁oktober	-8.593
ze	-8.5933
▁gesellschaft	-8.59422
▁mittel	-8.59498
▁(„	-8.59511
▁per	-8.60005
▁nord	-8.60084
end	-8.60246
ol	-8.60403
▁gut	-8.60781
zen	-8.60842
▁tod	-8.60929
▁april	-8.61013
▁hatten	-8.61163
▁bevölkerung	-8.61418
ier	-8.61522
kt	-8.6176
ale	-8.61767
▁wahl	-8.61877
▁buch	-8.62047
▁mo	-8.62217
ß	-8.62304
satz	-8.62358
▁verschiedene	-8.62679
schen	-8.6338
▁di	-8.63467
pl	-8.63533
werk	-8.63586
tra	-8.63657
▁ha	-8.6366
▁juni	-8.63879
▁könig	-8.63948
▁september	-8.64002
ell	-8.64013
go	-8.64315
▁staaten	-8.64337
gel	-8.6441
ha	-8.64725
▁dezember	-8.64796
▁daten	-8.64847
iv	-8.64911
▁allen	-8.64998
hi	-8.65244
▁co	-8.65421
recht	-8.65554
▁partei	-8.65627
▁6	-8.65641
▁ar	-8.66019
bahn	-8.6609
▁zwar	-8.66097
tum	-8.66126
▁krieg	-8.66248
▁viel	-8.66254
▁november	-8.66337
co	-8.66452
▁deutlich	-8.66675
ll	-8.66815
▁aller	-8.6683
do	-8.67024
gang	-8.67321
pp	-8.67344
▁entstanden	-8.67458
▁weiteren	-8.67574
▁13	-8.67658
si	-8.68009
▁erhalten	-8.6806
▁arbeits	-8.68476
▁erhielt	-8.6861
dem	-8.68637
(	-8.68865
▁kreis	-8.68902
▁direkt	-8.69145
no	-8.69188
▁national	-8.69226
▁weil	-8.69287
▁finden	-8.69404
▁zudem	-8.69456
rat	-8.69549
ho	-8.69562
▁davon	-8.69748
5	-8.69807
▁recht	-8.69809
▁lange	-8.69963
▁musik	-8.70094
_1	-8.7021
▁fall	-8.70279
▁the	-8.70372
sp	-8.70386
▁verschiedenen	-8.70427
▁euro	-8.70546
ologie	-8.70607
▁sowohl	-8.70976
op	-8.70992
pf	-8.71051
▁insgesamt	-8.71248
ierten	-8.713
ci	-8.71409
▁zahlreiche	-8.71687
▁bo	-8.72084
0.000	-8.72088
▁sp	-8.72294
6	-8.72633
▁lassen	-8.72651
▁ra	-8.72703
▁"(	-8.72752
▁lang	-8.7282
▁literatur	-8.72853
reich	-8.72859
sprache	-8.72948
les	-8.72969
▁habe	-8.72996
▁system	-8.73021
mittel	-8.7317
▁nun	-8.73176
“)	-8.73194
tion	-8.73401
▁größte	-8.73653
geschichte	-8.73772
▁zahlen	-8.73914
▁pa	-8.73984
▁bereich	-8.74
▁frankreich	-8.74093
stellung	-8.74119
▁rechts	-8.74305
▁muss	-8.74489
10	-8.74502
ph	-8.74589
▁km	-8.74645
ft	-8.74892
▁7	-8.75023
▁regel	-8.75423
ja	-8.75463
▁ki	-8.75477
▁anfang	-8.757
▁8	-8.75725
ex	-8.75757
▁12	-8.76055
hl	-8.76128
▁laut	-8.76182
▁fa	-8.76195
bi	-8.76245
▁he	-8.76254
▁kommen	-8.76442
schw	-8.76462
▁teilweise	-8.76598
▁regierung	-8.76776
▁weit	-8.76938
▁wert	-8.76943
spiel	-8.77021
▁po	-8.77096
▁relativ	-8.77162
ischer	-8.77471
ag	-8.77494
▁befindet	-8.7769
▁personen	-8.77817
tel	-8.77934
▁vielen	-8.78028
pa	-8.78102
▁letzten	-8.78147
▁spiel	-8.78492
bild	-8.78604
gruppe	-8.78654
tri	-8.78661
teil	-8.78779
▁mal	-8.78852
io	-8.78919
▁weniger	-8.79072
▁eigene	-8.79199
ber	-8.79485
▁doch	-8.79741
▁1990	-8.79832
▁raum	-8.79852
druck	-8.79903
▁seines	-8.79974
▁begann	-8.80381
we	-8.8041
▁sitz	-8.80505
▁karl	-8.8056
lie	-8.8077
igkeit	-8.80785
▁gesamt	-8.80796
▁usa	-8.81042
▁rück	-8.8106
los	-8.81305
raum	-8.81358
straße	-8.81448
▁ri	-8.81487
wissenschaftlich	-8.81576
▁du	-8.816
▁schließlich	-8.81644
istischen	-8.8165
zug	-8.81662
▁gold	-8.81822
▁nachdem	-8.81857
▁dar	-8.81984
bereich	-8.82106
▁20.	-8.82108
od	-8.82124
18	-8.82141
tal	-8.82313
▁findet	-8.82333
ry	-8.82368
▁jede	-8.82415
▁folge	-8.82425
eck	-8.82659
per	-8.82804
▁ziel	-8.82873
ve	-8.82898
▁europäischen	-8.82943
ken	-8.83129
mal	-8.83234
siehe	-8.83267
▁dafür	-8.83406
platz	-8.83746
pi	-8.83847
▁kommt	-8.8439
amp	-8.84424
▁fand	-8.84515
▁funktion	-8.8454
▁ganz	-8.84652
va	-8.84678
▁sozial	-8.8475
▁eingesetzt	-8.84939
kreis	-8.85238
▁arten	-8.85488
sche	-8.85532
fe	-8.85603
ich	-8.85654
▁stand	-8.85796
▁familie	-8.8583
ius	-8.85851
film	-8.85873
▁j	-8.85979
▁heraus	-8.86082
mon	-8.86129
trag	-8.86228
▁ka	-8.86256
heim	-8.8626
so	-8.8637
▁ho	-8.86392
ga	-8.86425
bo	-8.8659
▁fl	-8.86639
istische	-8.86655
▁gehören	-8.86732
▁bild	-8.86968
▁roman	-8.87188
▁dadurch	-8.87265
▁beide	-8.87281
arten	-8.87524
lt	-8.87649
▁universität	-8.87721
▁arbeit	-8.87762
▁gra	-8.87842
ard	-8.87915
▁kein	-8.88036
▁beginn	-8.88059
▁see	-8.88139
▁sprach	-8.88165
▁konnten	-8.88258
20	-8.88269
▁lässt	-8.88332
stoff	-8.88353
weg	-8.88364
▁markt	-8.88528
ce	-8.88534
▁o	-8.8867
▁sechs	-8.88798
ei	-8.88973
▁unternehmen	-8.89161
▁weltweit	-8.89161
▁ro	-8.8923
▁folgenden	-8.89232
▁jeweils	-8.89303
ent	-8.89389
▁volks	-8.8941
▁alt	-8.89475
wand	-8.89846
om	-8.8994
▁somit	-8.90005
▁gehört	-8.90052
▁haus	-8.90387
▁februar	-8.90499
▁größten	-8.90643
▁blut	-8.90689
▁bilden	-8.90716
▁name	-8.91009
tik	-8.91024
▁gebiet	-8.91177
▁sprachen	-8.91315
▁industrie	-8.91523
▁su	-8.91759
gesetz	-8.91784
▁einfluss	-8.91788
▁darauf	-8.9181
▁ließ	-8.92
▁vi	-8.92011
▁ebenso	-8.92343
nis	-8.9235
ly	-8.92612
lei	-8.9289
▁verwendung	-8.92966
▁prä	-8.93049
▁me	-8.9318
▁führt	-8.93289
pe	-8.93309
br	-8.93357
buch	-8.93419
▁wichtige	-8.93754
▁licht	-8.9376
▁kirche	-8.93883
feld	-8.94066
▁kriegs	-8.94324
lang	-8.94619
▁gas	-8.94627
–19	-8.94738
▁erfolgreich	-8.94837
▁wirtschafts	-8.94935
▁lo	-8.94995
▁ging	-8.95163
▁lag	-8.95199
über	-8.9524
▁stehen	-8.95341
▁kinder	-8.95498
▁frauen	-8.95523
▁and	-8.95579
bel	-8.95619
▁friedrich	-8.95703
▁x	-8.95782
&	-8.9586
tz	-8.96023
▁rahmen	-8.96658
net	-8.97017
je	-8.97098
führung	-8.97209
▁einwohner	-8.97215
▁eigenen	-8.97255
▁mar	-8.97502
del	-8.97562
tin	-8.97742
log	-8.97839
▁bezeichnung	-8.98006
technik	-8.98043
▁städte	-8.98046
ring	-8.98079
50	-8.98097
zeichen	-8.98243
▁hohen	-8.98308
▁hinaus	-8.98415
▁entwickelte	-8.98435
ling	-8.9844
politik	-8.98533
▁na	-8.98559
▁weg	-8.98773
▁anteil	-8.98804
krieg	-8.98833
▁weltkrieg	-8.98897
bach	-8.98936
▁zunehmend	-8.99053
▁blieb	-8.99173
▁kern	-8.99196
▁bar	-8.99348
▁mess	-8.99362
▁kom	-8.99481
▁eu	-8.99561
▁sogar	-8.99664
▁ihnen	-8.99666
ot	-8.99712
unter	-9.00095
pro	-9.00127
▁heutigen	-9.00235
▁gewählt	-9.00348
▁mond	-9.0042
ed	-9.0042
.“	-9.00607
▁mitte	-9.00678
che	-9.00817
▁30	-9.00916
▁abge	-9.00994
▁entstand	-9.01231
netz	-9.01292
ff	-9.01431
▁gen	-9.01475
▁darunter	-9.01495
▁darüber	-9.01496
▁hohe	-9.01631
▁liegen	-9.01649
bildung	-9.01972
lö	-9.01982
▁französischen	-9.02024
punkt	-9.02185
selben	-9.02276
▁rhein	-9.02337
▁definition	-9.02337
▁=	-9.02405
▁pflanzen	-9.02501
ak	-9.02642
▁damals	-9.02662
träger	-9.02821
▁schnell	-9.02857
▁trat	-9.02868
▁einigen	-9.02969
▁°	-9.03135
▁(18	-9.03183
gabe	-9.03188
▁zeigt	-9.03213
ant	-9.03653
▁titel	-9.03687
▁bürger	-9.03717
▁100	-9.03722
ach	-9.03795
igt	-9.03802
▁erde	-9.03807
▁republik	-9.03835
ett	-9.03975
▁druck	-9.03976
▁solche	-9.03977
▁go	-9.04086
das	-9.04261
dr	-9.04586
▁zehn	-9.04605
säure	-9.04649
ni	-9.047
ort	-9.04741
▁genutzt	-9.04757
▁schrift	-9.04784
▁platz	-9.04829
▁nahm	-9.04849
▁politische	-9.04964
▁selten	-9.05134
▁verbunden	-9.05205
▁2011	-9.05509
30	-9.05577
▁geprägt	-9.05892
theorie	-9.06015
▁vergleich	-9.06034
▁entwickelt	-9.06082
▁wenig	-9.06112
welt	-9.06294
▁do	-9.06541
hr	-9.0655
tritt	-9.06555
▁ort	-9.06592
fer	-9.06683
▁or	-9.06743
▁eigenschaften	-9.06785
sel	-9.06877
kraft	-9.07319
▁enthalten	-9.07332
▁nieder	-9.07397
▁wohl	-9.07735
▁bio	-9.07756
yl	-9.07804
▁klima	-9.07889
▁weiterhin	-9.08152
▁münchen	-9.08193
▁alten	-9.08301
stellen	-9.08488
mitglied	-9.08599
wie	-9.08768
▁politischen	-9.09062
▁gruppe	-9.09097
▁ru	-9.0919
▁führen	-9.09192
▁ur	-9.09195
▁geht	-9.09307
▁9	-9.09382
▁ii	-9.09509
fa	-9.09625
port	-9.09658
rich	-9.09753
nach	-9.09865
▁stellte	-9.09988
▁2008	-9.09999
ativ	-9.10054
▁jahres	-9.10095
▁2010	-9.10118
▁wirkung	-9.10361
▁kirchen	-9.10367
ki	-9.10485
hin	-9.10515
▁musste	-9.10544
namen	-9.10677
▁tag	-9.10877
▁heinrich	-9.11001
▁obwohl	-9.11038
ott	-9.11144
▁bestand	-9.11453
▁gemeinde	-9.11597
12	-9.11637
▁voll	-9.11681
▁halb	-9.11711
▁pi	-9.11856
▁gegensatz	-9.11874
▁2006	-9.11898
▁mutter	-9.12105
arbeit	-9.1212
▁kraft	-9.12238
▁schwer	-9.12285
iger	-9.12324
ow	-9.12358
▁2000	-9.12374
ina	-9.12445
▁handels	-9.1281
▁anti	-9.12926
▁eng	-9.1307
war	-9.13154
tan	-9.13165
▁gelang	-9.13294
markt	-9.13415
▁bas	-9.13424
▁as	-9.13483
uch	-9.13487
▁1980	-9.13496
▁folgende	-9.13502
staat	-9.13575
▁allgemein	-9.13622
▁staat	-9.13683
▁erreicht	-9.13721
▁2007	-9.13739
ven	-9.13839
preis	-9.1384
gi	-9.13938
▁50	-9.13938
▁ni	-9.13958
lage	-9.14163
durch	-9.14276
▁dagegen	-9.14281
gleich	-9.14317
▁ähnlich	-9.14323
▁fort	-9.1437
▁bestehen	-9.14398
ian	-9.14524
▁insel	-9.14686
▁gleichzeitig	-9.1469
▁jo	-9.14759
sta	-9.14859
wasser	-9.14881
▁einsatz	-9.14912
▁darstellung	-9.15064
▁militär	-9.15137
nt	-9.15172
▁ta	-9.15247
▁setzte	-9.15299
brücke	-9.15323
19	-9.1541
▁berg	-9.15419
see	-9.15423
ac	-9.15494
▁11	-9.15505
▁ne	-9.15559
▁sommer	-9.15577
▁r	-9.15593
▁tri	-9.15662
▁österreich	-9.15692
verkehr	-9.15729
▁jeder	-9.15789
tischen	-9.15795
elle	-9.15857
▁frage	-9.16102
lin	-9.16148
ment	-9.16171
▁reihe	-9.16206
ordnung	-9.16215
▁sinne	-9.16237
▁zuvor	-9.16331
wahl	-9.16476
▁ausge	-9.1666
kon	-9.16732
▁zeichen	-9.16738
▁flug	-9.16804
äng	-9.16805
ang	-9.16834
▁werke	-9.16844
▁errichtet	-9.16903
▁2005	-9.16921
ionen	-9.16939
▁neuer	-9.16963
▁verein	-9.16989
▁0	-9.17035
▁atom	-9.17119
ator	-9.17151
▁üblich	-9.1725
▁zusammenhang	-9.17366
schluss	-9.17382
▁schul	-9.17519
▁stellt	-9.17568
▁hinter	-9.17632
▁gegründet	-9.17747
▁bildung	-9.17917
vo	-9.17964
▁standard	-9.18019
▁acht	-9.18104
hm	-9.18157
gebiet	-9.18293
ine	-9.18355
▁kilometer	-9.18482
ug	-9.18521
▁vorhanden	-9.18598
▁element	-9.18669
▁früher	-9.18704
▁handelt	-9.18766
▁einzige	-9.18812
▁verbindung	-9.1885
person	-9.18877
par	-9.18893
▁müssen	-9.1893
▁1945	-9.18941
tt	-9.18973
▁massen	-9.19011
schicht	-9.19017
kel	-9.19086
gruppen	-9.191
bt	-9.19122
▁regional	-9.19276
▁2015	-9.19409
▁sogenannte	-9.19439
▁trotz	-9.19498
▁anzahl	-9.19504
▁heißt	-9.19544
▁italien	-9.19619
25	-9.19637
legen	-9.19682
11	-9.19717
▁2013	-9.19759
▁eher	-9.19843
ert	-9.19855
▁bildet	-9.19878
▁einzelnen	-9.19882
▁sport	-9.19952
▁2009	-9.19986
kirche	-9.20028
nahme	-9.20039
64	-9.20051
▁fach	-9.20152
za	-9.20167
▁danach	-9.20181
▁2017	-9.20448
▁2016	-9.20565
▁leicht	-9.20582
▁si	-9.20636
leben	-9.20668
▁&	-9.20696
▁ag	-9.20765
▁japan	-9.2077
▁to	-9.20882
▁lage	-9.20923
▁forschung	-9.20934
▁geld	-9.20969
lauf	-9.20993
▁bewegung	-9.21034
▁privat	-9.2105
▁internationalen	-9.21318
▁(20	-9.21322
▁rein	-9.21354
▁computer	-9.21536
bewegung	-9.21701
▁stein	-9.21705
fl	-9.21845
33	-9.2185
▁ja	-9.21905
▁deshalb	-9.22
schutz	-9.22189
▁1970	-9.22192
▁einzel	-9.22207
▁erster	-9.22424
▁lu	-9.22491
▁ex	-9.22647
▁vater	-9.22647
tische	-9.22721
mat	-9.22806
ive	-9.22881
rä	-9.22897
▁bestimmte	-9.22927
▁frühen	-9.23004
▁kreuz	-9.23004
▁preis	-9.23038
▁arbeiten	-9.23197
weit	-9.23206
krank	-9.23206
rü	-9.23208
▁unabhängig	-9.23245
trieb	-9.23258
▁mitglied	-9.234
ai	-9.23465
▁schloss	-9.23528
▁seite	-9.23653
▁klein	-9.23658
▁ursprünglich	-9.23712
▁bestimmt	-9.23744
▁eisen	-9.23757
▁fi	-9.2382
▁gemeinsam	-9.23903
▁con	-9.23925
▁zweite	-9.23937
▁fluss	-9.23964
31	-9.24003
all	-9.24075
▁hilfe	-9.24098
zentrum	-9.24148
▁genau	-9.24165
wechsel	-9.24174
▁dis	-9.24221
isiert	-9.24259
▁pe	-9.2432
schule	-9.24438
▁hervor	-9.24629
▁stellen	-9.2463
▁internationale	-9.24637
▁schi	-9.2465
▁westen	-9.24667
▁sohn	-9.24721
▁kritik	-9.24726
▁tage	-9.24739
▁gott	-9.24794
,5	-9.24797
▁san	-9.24892
▁nationalsozial	-9.24945
▁gelten	-9.24957
▁2019	-9.24962
▁herz	-9.25002
fach	-9.25272
▁main	-9.25279
schl	-9.25315
cken	-9.25327
▁schrieb	-9.25352
▁allein	-9.25354
▁th	-9.25354
ete	-9.25357
▁weitgehend	-9.25558
von	-9.25561
▁2012	-9.25571
res	-9.25606
▁verfahren	-9.25628
▁nahe	-9.25643
▁40	-9.25651
▁erneut	-9.25676
▁vollständig	-9.25691
ana	-9.25717
▁hitler	-9.25812
▁gewesen	-9.25865
wi	-9.25881
▁mil	-9.2596
▁meter	-9.26007
▁hu	-9.26072
▁har	-9.26107
up	-9.26128
▁benannt	-9.2616
▁zusätzlich	-9.26184
▁teile	-9.26216
fi	-9.26276
richtung	-9.26306
▁letzte	-9.26348
ker	-9.26355
▁kaum	-9.26374
programm	-9.2646
leg	-9.26523
▁alexander	-9.26652
▁mehreren	-9.26695
▁new	-9.26728
13	-9.26824
ld	-9.26887
▁1960	-9.26904
▁2020	-9.26929
voll	-9.26959
ub	-9.27061
▁chemische	-9.27157
ktion	-9.27252
▁größere	-9.27314
rie	-9.2734
wa	-9.27361
29	-9.27383
▁hingegen	-9.27405
▁politik	-9.27462
▁anschließend	-9.27644
▁richtung	-9.27652
fähigkeit	-9.27744
▁band	-9.27838
▁erd	-9.27938
▁masse	-9.27958
▁erfolg	-9.27967
▁tief	-9.28121
▁zer	-9.28139
▁definiert	-9.28211
änd	-9.28304
▁ländern	-9.28323
▁norden	-9.28372
▁bayern	-9.28388
▁kor	-9.28615
tisch	-9.28631
▁speicher	-9.28677
▁besitzt	-9.28707
des	-9.28709
alen	-9.2876
▁künstler	-9.28863
▁sah	-9.28905
▁zog	-9.28932
ill	-9.2898
▁feld	-9.29
auch	-9.29051
ah	-9.29064
000	-9.29094
▁tradition	-9.29122
bit	-9.29242
kultur	-9.29246
▁sogenannten	-9.29252
▁ei	-9.29305
schrift	-9.29368
▁entstehen	-9.29379
ros	-9.29411
▁2014	-9.29424
▁spielte	-9.29446
▁zentral	-9.29492
▁programm	-9.29607
▁johann	-9.29614
'	-9.2962
macht	-9.29705
▁einfach	-9.29799
▁zählt	-9.29826
▁darin	-9.29847
▁brief	-9.29855
ide	-9.29903
▁jünger	-9.29913
ip	-9.29969
▁zentrum	-9.29985
▁umfasst	-9.30041
▁kl	-9.30054
▁metall	-9.30089
▁veröffentlicht	-9.30111
setzung	-9.30155
▁revolution	-9.30244
▁machte	-9.30317
▁strom	-9.30362
anlagen	-9.30421
▁frau	-9.30521
▁schutz	-9.30561
fahrt	-9.30587
gehalt	-9.30644
▁gruppen	-9.30739
▁hamburg	-9.30869
▁früh	-9.30909
▁alter	-9.31078
▁wahrscheinlich	-9.31121
▁übernahm	-9.31256
14	-9.31259
▁wilhelm	-9.3132
▁kleine	-9.31583
▁car	-9.31619
▁bisher	-9.31721
▁mag	-9.31731
▁brachte	-9.31738
halt	-9.31824
▁düsseldorf	-9.31849
▁london	-9.31974
▁struktur	-9.32049
ok	-9.32331
▁medien	-9.32336
▁region	-9.32422
▁elemente	-9.32431
▁john	-9.32497
▁hinzu	-9.32579
8	-9.32681
▁ange	-9.32747
▁erfolgt	-9.32811
äu	-9.3282
▁rom	-9.32829
▁gebäude	-9.32842
▁damalige	-9.32908
park	-9.32944
gesellschaft	-9.32972
schlag	-9.33022
▁etwas	-9.33032
sam	-9.33037
▁mitglieder	-9.33054
▁general	-9.33071
_2	-9.33093
00	-9.33156
lä	-9.33185
zer	-9.3325
▁daneben	-9.33415
▁steuer	-9.33524
▁befinden	-9.3355
▁sub	-9.3363
ya	-9.33638
ständig	-9.33815
wirtschaft	-9.33914
▁post	-9.33937
▁2.	-9.33984
att	-9.34001
mar	-9.34053
gelegt	-9.34122
86	-9.34175
gestellt	-9.34188
▁projekt	-9.34245
▁filme	-9.34474
struktur	-9.34578
▁leipzig	-9.34579
ron	-9.3461
kor	-9.34682
▁ddr	-9.34687
min	-9.34692
40	-9.34698
▁beträgt	-9.34761
▁ba	-9.34763
▁ger	-9.34862
ost	-9.34863
▁osten	-9.34882
▁gegeben	-9.3489
▁vertreter	-9.35061
▁basis	-9.35066
nz	-9.35106
▁boden	-9.35128
don	-9.35139
▁mittelalter	-9.3516
▁wenige	-9.35192
▁höhe	-9.35221
str	-9.35281
▁manche	-9.35326
acht	-9.35344
▁2018	-9.35449
▁stammt	-9.35458
▁erschien	-9.35463
tet	-9.35583
▁text	-9.35633
▁köln	-9.3569
99	-9.35729
formen	-9.35732
länder	-9.35926
▁straßen	-9.36024
▁stabil	-9.36039
▁betrieb	-9.36117
gesetzt	-9.36195
▁gebildet	-9.36352
▁stil	-9.36425
▁produktion	-9.36479
▁ehemaligen	-9.36514
▁verbreitet	-9.36558
▁würde	-9.36594
▁länge	-9.36675
▁no	-9.36839
▁galt	-9.36923
▁außen	-9.3695
▁18.	-9.36995
age	-9.37045
▁römischen	-9.37065
▁indien	-9.37083
con	-9.37098
sicht	-9.37098
zone	-9.37153
kl	-9.37169
▁lehr	-9.37186
▁enthält	-9.37191
▁nie	-9.37199
▁kamen	-9.37221
▁wäre	-9.37297
▁symbol	-9.37309
rang	-9.37384
que	-9.37418
▁1950	-9.37464
▁sieben	-9.37491
34	-9.37529
▁temperatur	-9.37576
begriff	-9.37687
▁international	-9.37724
▁mac	-9.37744
▁gar	-9.37777
ologische	-9.37807
37	-9.3783
tre	-9.37854
hof	-9.37861
mark	-9.37985
lass	-9.38093
nd	-9.38129
▁paris	-9.38205
▁typ	-9.38218
wald	-9.38245
▁wissenschaft	-9.38284
▁regierungs	-9.38299
▁2021	-9.38302
zellen	-9.38319
ob	-9.38373
24	-9.38443
▁bi	-9.38486
ica	-9.38508
ib	-9.38607
entwicklung	-9.38654
funktion	-9.38661
▁pu	-9.38724
tur	-9.38973
▁verfügt	-9.3898
▁betrachtet	-9.3898
▁trans	-9.39002
7	-9.3905
▁25	-9.39239
▁französische	-9.39245
lung	-9.39384
▁seien	-9.39387
▁jährlich	-9.39399
▁rot	-9.39412
gericht	-9.3945
▁entspricht	-9.3954
▁öffentlich	-9.39649
ku	-9.39742
seite	-9.39782
▁cha	-9.39791
▁kar	-9.39915
▁jugend	-9.39919
▁ju	-9.39962
nah	-9.40112
▁regelmäßig	-9.40117
führer	-9.40168
kommen	-9.40217
oxid	-9.40219
▁3.	-9.40238
▁süden	-9.40281
ast	-9.40301
▁hand	-9.40305
nehmen	-9.40474
▁artikel	-9.405
▁beteiligt	-9.40527
ünd	-9.40543
line	-9.40544
▁starb	-9.40588
cher	-9.40638
▁tier	-9.40688
▁bestimmten	-9.40693
produktion	-9.40746
▁sehen	-9.40778
▁bedeutet	-9.40811
38	-9.40821
▁ehe	-9.40827
▁aktiv	-9.40929
65	-9.40985
▁2004	-9.40988
▁weise	-9.41054
▁truppen	-9.41251
graph	-9.41345
▁unbe	-9.41355
▁machen	-9.41444
last	-9.4149
and	-9.41497
▁besser	-9.41693
▁liste	-9.41715
setzen	-9.4172
▁hielt	-9.41778
▁hauptstadt	-9.41893
▁gründung	-9.41977
pt	-9.41996
siedlung	-9.42165
60	-9.42218
]	-9.42221
▁schweiz	-9.42225
▁ausnahme	-9.4236
▁theater	-9.42365
32	-9.42377
ick	-9.42434
fest	-9.42451
▁union	-9.42473
dienst	-9.42482
gas	-9.42521
▁modell	-9.42523
▁modernen	-9.42547
80	-9.42623
▁eingeführt	-9.42675
stab	-9.42675
▁grundlage	-9.42841
▁wichtigsten	-9.42938
▁vereinigten	-9.4298
▁entsprechend	-9.42993
▁farb	-9.43
▁reg	-9.43006
körper	-9.43029
partei	-9.43051
▁gi	-9.43092
▁hof	-9.4315
folge	-9.43221
fähig	-9.43223
▁öffentliche	-9.43348
grün	-9.43419
ika	-9.4361
▁herrschaft	-9.43621
▁folgen	-9.43633
▁verhältnis	-9.43639
▁not	-9.43681
▁ad	-9.43748
▁charakter	-9.43812
bei	-9.43886
▁wal	-9.43941
▁lediglich	-9.43988
▁end	-9.44002
▁gu	-9.44058
▁paul	-9.44081
wandel	-9.44177
▁größe	-9.44242
▁spielt	-9.44258
▁tatsächlich	-9.44282
▁wir	-9.44286
▁mark	-9.4431
▁konflikt	-9.44344
▁veröffentlichte	-9.44348
▁juden	-9.44357
▁besondere	-9.44402
▁all	-9.44553
mus	-9.44561
▁zuge	-9.44622
▁baden	-9.44632
wesen	-9.4466
▁antike	-9.44672
zo	-9.44756
▁goethe	-9.45021
hor	-9.45071
tro	-9.45113
▁vertreten	-9.45119
▁verfassung	-9.4513
▁hauptsächlich	-9.45172
▁2002	-9.45371
▁einheit	-9.45444
neu	-9.45507
mut	-9.45564
▁china	-9.45635
▁überwiegend	-9.45881
55	-9.45889
rate	-9.45975
▁hälfte	-9.46032
▁theorie	-9.46035
▁autoren	-9.46071
bare	-9.46176
kal	-9.46289
▁erfolgte	-9.46335
=1	-9.46391
tu	-9.46469
▁mengen	-9.46485
▁wiederum	-9.46494
▁spielen	-9.46527
▁wirtschaft	-9.46592
▁einzelne	-9.46652
halten	-9.46725
ori	-9.46775
▁gefunden	-9.4693
staaten	-9.46984
haltung	-9.47061
sort	-9.471
16	-9.4715
wo	-9.47218
▁außerhalb	-9.47273
▁op	-9.47287
▁wohn	-9.47361
cho	-9.47443
▁inter	-9.47462
▁anderer	-9.47548
leitung	-9.4759
▁allgemeinen	-9.47608
▁zählen	-9.4763
zeug	-9.47779
industrie	-9.47785
▁ga	-9.47918
▁mittels	-9.47919
geschwindigkeit	-9.47942
▁auto	-9.47957
35	-9.47988
rt	-9.48013
▁park	-9.48064
ationen	-9.48101
39	-9.48153
▁einge	-9.48192
licher	-9.48231
49	-9.48238
tter	-9.48263
gy	-9.48321
▁60	-9.48345
▁präsident	-9.48435
ay	-9.48465
▁erb	-9.48472
▁erheblich	-9.4849
▁verkehrs	-9.48541
literatur	-9.48573
ou	-9.48584
llen	-9.48593
mäßig	-9.48661
▁gemeinden	-9.48753
▁großer	-9.48818
▁mathematik	-9.48878
▁dia	-9.48973
▁entscheidung	-9.49019
▁winter	-9.49126
▁ludwig	-9.49134
▁museum	-9.49135
▁aufbau	-9.49148
▁versuch	-9.49242
stände	-9.49371
▁beschrieben	-9.4945
▁eigen	-9.49514
sitz	-9.49542
27	-9.49545
tes	-9.49593
frei	-9.49596
▁stelle	-9.49624
▁stadtteil	-9.49662
"),	-9.49672
").	-9.49742
pen	-9.49823
dollar	-9.49848
48	-9.49852
logisch	-9.49892
▁codice	-9.4992
▁mon	-9.49937
▁ku	-9.49972
▁technik	-9.50127
isieren	-9.50139
▁umwelt	-9.50145
▁wollte	-9.50245
▁unterscheiden	-9.50352
ären	-9.50366
▁version	-9.5037
▁zweck	-9.50391
mindestens	-9.5045
▁dialekt	-9.50451
ose	-9.50499
▁min	-9.50552
getragen	-9.5061
▁moderne	-9.50616
▁donau	-9.50673
ari	-9.50714
gg	-9.50845
▁2003	-9.5086
▁verb	-9.50904
▁bonn	-9.50953
▁philosophie	-9.50961
bus	-9.51043
▁dauer	-9.51046
lehre	-9.51047
rin	-9.51094
san	-9.51184
▁milliarden	-9.51377
▁wechsel	-9.51442
▁benutzt	-9.5145
26	-9.51597
▁verfügung	-9.51608
98	-9.51624
▁mensch	-9.5169
sh	-9.51711
21	-9.5177
▁pf	-9.51859
spalt	-9.51867
▁reaktion	-9.51879
▁problem	-9.51879
▁ersetzt	-9.51892
▁eth	-9.51974
▁europäische	-9.52001
teilung	-9.52116
menge	-9.52134
▁geringer	-9.5226
▁königs	-9.52278
▁for	-9.52285
rand	-9.52378
lu	-9.52475
▁rad	-9.52482
42	-9.52533
üh	-9.52542
▁dennoch	-9.52569
▁real	-9.52632
▁länder	-9.52665
▁position	-9.52711
▁grenz	-9.5279
werte	-9.52803
▁bad	-9.52855
▁sollen	-9.52863
jahr	-9.52869
zeichnung	-9.52874
wachsen	-9.52928
modell	-9.52936
▁zugleich	-9.52987
kan	-9.53002
▁16.	-9.53028
▁gesamte	-9.53029
41	-9.53044
▁anders	-9.53147
haft	-9.53149
▁ausschließlich	-9.53195
aff	-9.532
plan	-9.53222
▁ton	-9.53327
▁unmittelbar	-9.53365
erweise	-9.53385
▁namens	-9.53393
▁2001	-9.53411
deutschen	-9.53439
tiv	-9.535
▁lösung	-9.53538
lon	-9.53605
▁vertrag	-9.53797
▁kleinen	-9.53913
hol	-9.53934
▁wider	-9.54148
einheit	-9.54351
wer	-9.54352
▁wahr	-9.5442
▁möglichkeit	-9.54425
lat	-9.54463
▁bald	-9.54483
▁y	-9.54581
▁erreichte	-9.54654
▁zahlreichen	-9.5467
lagen	-9.54676
▁software	-9.54688
▁sc	-9.54695
▁ergebnis	-9.54755
▁gal	-9.54775
▁fern	-9.54791
22	-9.54818
▁gerade	-9.54861
▁kontakt	-9.54869
▁rat	-9.54885
85	-9.54902
▁7.	-9.54956
han	-9.54961
oren	-9.55298
▁wesentlich	-9.553
▁kampf	-9.55343
95	-9.55396
▁17.	-9.55493
rechnung	-9.55511
▁wa	-9.55523
prä	-9.55544
echt	-9.55555
44	-9.55576
if	-9.55582
▁aufgenommen	-9.55636
23	-9.55676
▁daraus	-9.55704
q	-9.55713
bra	-9.55725
68	-9.55855
geben	-9.56017
typ	-9.56026
28	-9.5607
▁alte	-9.56076
▁koalition	-9.56196
ebene	-9.56201
▁herstellung	-9.56229
43	-9.56236
gon	-9.56277
üb	-9.56293
regierung	-9.56302
▁benötigt	-9.56309
▁prozess	-9.56427
ju	-9.56441
93	-9.56563
▁parlament	-9.56587
len	-9.56613
ial	-9.56619
66	-9.56631
▁folgt	-9.56801
▁1933	-9.56815
ahn	-9.56833
▁kohl	-9.56877
cu	-9.56928
▁notwendig	-9.56942
▁erzeugt	-9.56985
herr	-9.57122
▁quellen	-9.57238
▁kapital	-9.57309
lieb	-9.5738
▁ä	-9.57429
▁konzept	-9.57441
organisation	-9.575
sie	-9.57501
▁einmal	-9.57553
,7	-9.57565
fen	-9.57598
▁robert	-9.57666
▁erreichen	-9.57688
betrieb	-9.57751
▁verbindungen	-9.57924
46	-9.57934
liste	-9.57947
▁berliner	-9.58109
▁gleichen	-9.58182
ino	-9.58215
▁untersucht	-9.58265
cha	-9.58272
▁existiert	-9.58321
fr	-9.5834
leistung	-9.58362
dy	-9.5849
▁finanz	-9.58568
▁stimm	-9.58582
krise	-9.58625
▁gesetz	-9.58639
▁verhalten	-9.58646
▁landwirtschaft	-9.58648
47	-9.58706
trop	-9.58724
▁mehrheit	-9.58816
▁plan	-9.58828
▁gewalt	-9.58839
▁sal	-9.58844
▁sollten	-9.58903
▁regisseur	-9.58908
▁4.	-9.59067
zahlen	-9.59175
▁dr	-9.59236
▁studien	-9.59246
9	-9.59269
▁heutige	-9.5933
▁bremen	-9.59346
17	-9.59351
emp	-9.59371
▁england	-9.59404
gegeben	-9.59411
▁dienst	-9.59425
▁person	-9.59513
▁geworden	-9.59513
▁nutzung	-9.59524
▁gehörte	-9.59539
jo	-9.59608
▁gemacht	-9.59629
▁reiches	-9.59644
▁zeigen	-9.59691
▁verlauf	-9.59711
leit	-9.59741
▁carl	-9.598
chte	-9.59875
▁13.	-9.59926
90	-9.59963
,8	-9.60027
dorf	-9.60117
arm	-9.60168
▁punkt	-9.60179
▁bekannte	-9.60207
plätze	-9.60207
ruf	-9.60243
▁dient	-9.60282
15	-9.60378
▁ball	-9.60463
▁städten	-9.60581
▁5.	-9.60712
▁knapp	-9.60787
▁tele	-9.60808
▁sta	-9.60848
▁geschrieben	-9.60853
▁erklärt	-9.60888
76	-9.60902
▁tor	-9.60991
länge	-9.60992
▁senat	-9.61012
▁sauerstoff	-9.61017
▁betriebssystem	-9.61044
▁monat	-9.611
70	-9.61108
▁sinn	-9.61121
har	-9.61137
▁sonder	-9.6114
kehr	-9.61173
bruch	-9.61195
▁schlecht	-9.61243
pu	-9.61258
seit	-9.61303
▁britischen	-9.61322
▁ordnung	-9.61329
▁el	-9.61331
▁nähe	-9.61342
▁siehe	-9.61373
▁em	-9.6141
▁12.	-9.61549
▁gesamten	-9.61585
▁tochter	-9.61591
▁menge	-9.61594
ologe	-9.61605
▁otto	-9.61631
museum	-9.61735
aceae	-9.61772
▁forschungs	-9.61821
amt	-9.61861
band	-9.61871
▁seiten	-9.61878
▁nachfolger	-9.61943
▁flughafen	-9.61949
gemeinde	-9.61978
45	-9.61987
nicht	-9.61994
▁elektro	-9.62028
ement	-9.62072
ley	-9.62085
uk	-9.62129
▁wochen	-9.62158
▁11.	-9.62165
verfahren	-9.62171
88	-9.62218
ingen	-9.62289
▁verbreitung	-9.62294
für	-9.62339
▁8.	-9.62383
flug	-9.62398
▁persönlich	-9.62437
alter	-9.62457
▁auftreten	-9.62487
▁mu	-9.62533
53	-9.62564
are	-9.62569
pflicht	-9.62572
▁entstehung	-9.62616
▁landkreis	-9.62653
▁anwendung	-9.62662
▁15.	-9.6267
com	-9.62676
▁besitzen	-9.6274
bert	-9.62782
musik	-9.62808
▁glas	-9.62865
▁südlich	-9.6288
mb	-9.62922
▁formen	-9.62926
rad	-9.62927
▁klassischen	-9.62934
▁gottes	-9.63024
▁nördlich	-9.63062
morph	-9.63094
▁freiheit	-9.6314
▁wasserstoff	-9.63164
▁salz	-9.63176
▁zustand	-9.63192
▁miss	-9.63196
▁bank	-9.63206
▁keinen	-9.63231
▁bernstein	-9.63252
▁material	-9.63304
▁wissen	-9.6332
▁fußball	-9.63361
▁verkehr	-9.63364
innen	-9.63371
▁außer	-9.63398
▁spe	-9.63437
▁bevölkerungs	-9.63514
hel	-9.63625
▁ausdruck	-9.63748
▁geboren	-9.63869
▁mineral	-9.63882
▁gemäß	-9.63897
▁hergestellt	-9.63924
geboren	-9.63929
97	-9.63953
56	-9.63976
ct	-9.64078
äre	-9.64128
▁männer	-9.64133
▁ich	-9.64195
▁blei	-9.64214
▁bezug	-9.64217
verbindungen	-9.6422
sätze	-9.64247
▁digital	-9.64261
statt	-9.6427
lichkeit	-9.64324
▁hans	-9.64378
gemeinschaft	-9.6448
▁9.	-9.64499
▁meer	-9.64553
▁ganze	-9.64609
▁folgte	-9.64627
▁bahn	-9.64656
▁wind	-9.647
eine	-9.6472
▁radio	-9.64759
▁allgemeine	-9.64789
chi	-9.64875
▁könnte	-9.64886
▁schlacht	-9.64933
▁dargestellt	-9.64993
ander	-9.65129
▁kino	-9.65147
75	-9.65152
züge	-9.65271
▁beispiele	-9.65312
wissenschaft	-9.65329
licht	-9.65373
▁deutscher	-9.65401
▁%)	-9.65462
▁80	-9.655
▁britische	-9.65511
▁entsteht	-9.65517
▁magdeburg	-9.65517
▁produziert	-9.65517
▁kosten	-9.65544
ellen	-9.65555
schi	-9.65597
▁14.	-9.65609
ud	-9.6564
car	-9.65692
▁deutsch	-9.65693
▁deutschlands	-9.65716
versammlung	-9.65732
temperatur	-9.65781
rom	-9.65819
▁thema	-9.65837
▁jean	-9.65868
▁beruf	-9.65932
▁aufge	-9.66028
▁kur	-9.66081
sol	-9.66082
mp	-9.6612
treu	-9.66139
wissenschaften	-9.66158
▁erschienen	-9.66191
▁praktisch	-9.6625
▁(*	-9.66278
▁marx	-9.66301
verein	-9.66321
rück	-9.66346
▁jeweiligen	-9.66427
itter	-9.66438
92	-9.66459
▁|	-9.66523
▁pass	-9.66528
78	-9.66533
▁verwaltungs	-9.66555
ball	-9.666
vorsitzende	-9.66602
▁zeitpunkt	-9.66661
▁internet	-9.66691
▁will	-9.66707
▁os	-9.66715
ps	-9.66748
▁bestandteil	-9.66857
▁programmier	-9.66863
▁kant	-9.66918
val	-9.66924
▁sonnen	-9.66926
öl	-9.66955
▁anzu	-9.66977
▁bildungs	-9.67006
▁wald	-9.67029
bin	-9.67067
59	-9.67157
minister	-9.67166
▁geburt	-9.67202
ham	-9.67236
▁stärker	-9.67253
oli	-9.67309
gebiete	-9.67313
stell	-9.67329
▁breite	-9.6734
▁angesehen	-9.67359
▁stimmen	-9.67474
▁ebene	-9.67539
fälle	-9.67673
▁wirtschaftliche	-9.67678
projekt	-9.67678
zig	-9.67682
▁10.	-9.67709
▁1999	-9.67732
▁offen	-9.67747
▁versuchte	-9.67783
94	-9.67904
schläge	-9.6791
organ	-9.67951
ew	-9.67958
▁starke	-9.67958
▁gericht	-9.67991
▁gewonnen	-9.68097
qui	-9.68126
▁rest	-9.6813
▁blüten	-9.68217
▁fe	-9.68275
▁sodass	-9.6829
▁klar	-9.68296
verband	-9.68313
dia	-9.68324
83	-9.68344
ax	-9.68348
52	-9.68354
tive	-9.68372
▁organ	-9.68409
51	-9.68447
▁parallel	-9.68472
rot	-9.68519
▁start	-9.68528
handel	-9.68539
▁arbeitete	-9.68568
▁sh	-9.6859
▁bit	-9.68626
gh	-9.68646
á	-9.68668
▁historische	-9.68687
▁para	-9.68695
kar	-9.68735
▁neun	-9.68738
wort	-9.68901
▁straße	-9.68905
▁akademie	-9.68944
fo	-9.68956
▁völker	-9.68984
▁zi	-9.68987
setzt	-9.69061
▁grenze	-9.69127
schau	-9.69129
cker	-9.69143
▁hafen	-9.69148
sport	-9.6922
▁fanden	-9.69242
89	-9.69277
▁formal	-9.69293
▁königreich	-9.69306
▁provinz	-9.69313
hen	-9.69359
wirkung	-9.69397
▁andererseits	-9.69413
▁entfernt	-9.69414
bad	-9.69433
▁familien	-9.69479
▁eis	-9.69508
ding	-9.69523
69	-9.69584
vermögen	-9.69603
▁geplant	-9.69607
58	-9.69629
▁tonnen	-9.69643
▁ergibt	-9.69726
54	-9.69795
▁1998	-9.69799
▁6.	-9.69808
lose	-9.69906
▁organisation	-9.69928
▁fiel	-9.69978
▁georg	-9.69983
▁parteien	-9.69994
▁versch	-9.70009
▁24	-9.70021
▁verlag	-9.70043
▁samen	-9.70196
gewicht	-9.70197
▁widerstand	-9.70207
deutschland	-9.70229
durchschnittlich	-9.70243
atom	-9.70262
61	-9.70278
▁fremd	-9.70317
uck	-9.70372
tage	-9.70381
▁hierbei	-9.70409
▁geführt	-9.70449
stelle	-9.70467
by	-9.70511
scheid	-9.70518
▁reform	-9.70594
▁schriften	-9.70645
▁ges	-9.7071
▁verändert	-9.70747
städte	-9.70774
▁gründete	-9.70862
▁spd	-9.70906
▁einführung	-9.70928
▁dreh	-9.70939
illa	-9.70952
fried	-9.70977
▁islam	-9.71007
▁poly	-9.71081
▁mikro	-9.71108
87	-9.71129
▁betrieben	-9.7113
▁york	-9.71131
▁gewann	-9.71325
ix	-9.7133
ford	-9.71339
▁höchsten	-9.71358
gehend	-9.71403
▁verloren	-9.71404
av	-9.71418
astronom	-9.71521
legung	-9.71532
ek	-9.71559
technisch	-9.71596
▁durchgeführt	-9.71721
▁daraufhin	-9.71735
pol	-9.71809
pel	-9.71809
,1	-9.71876
▁mann	-9.71895
▁dresden	-9.71904
ette	-9.71927
▁unterstützung	-9.71951
ap	-9.71959
halle	-9.71976
▁amerikanischen	-9.71981
▁größeren	-9.72
linie	-9.72006
anlage	-9.72007
forschung	-9.7203
▁besetzt	-9.7205
▁normal	-9.72074
behörde	-9.72169
▁öl	-9.72179
▁chemie	-9.72188
rech	-9.72194
phase	-9.72347
▁existieren	-9.72435
ank	-9.72449
,9	-9.72459
▁amt	-9.72564
eu	-9.7265
szene	-9.72659
▁stern	-9.72748
96	-9.7282
▁gemeinschaft	-9.72841
74	-9.72857
häuser	-9.72904
fre	-9.72959
veröffentlichung	-9.73081
▁bedeutende	-9.73084
ys	-9.73173
sprachen	-9.73208
,3	-9.73218
▁dahin	-9.7325
forderung	-9.73281
▁gewicht	-9.73444
▁betrug	-9.73468
ru	-9.73527
stern	-9.73577
dig	-9.73625
anteil	-9.73695
meter	-9.73781
jahren	-9.73849
fläche	-9.7385
▁stoff	-9.73862
▁cor	-9.73862
▁schwierig	-9.73863
teile	-9.73868
▁religion	-9.73917
weise	-9.73966
73	-9.73976
lager	-9.73989
find	-9.74112
91	-9.74162
reg	-9.74183
▁großbritannien	-9.74259
ras	-9.74269
bank	-9.74286
▁schwarz	-9.74322
▁aluminium	-9.74336
▁frankfurt	-9.74382
67	-9.74387
▁ehren	-9.7446
▁laufe	-9.74486
ober	-9.74526
ii	-9.74584
af	-9.74584
▁weiterer	-9.74624
▁beeinflusst	-9.74657
▁entweder	-9.74657
▁hei	-9.74671
werke	-9.7469
su	-9.74763
▁bücher	-9.74779
leiter	-9.74849
▁herkunft	-9.74872
wind	-9.74952
▁stadtgebiet	-9.74972
▁griechischen	-9.75012
▁untersuchung	-9.75055
sweise	-9.75071
▁zeitung	-9.75105
▁aufnahme	-9.75147
72	-9.7517
▁sieg	-9.75181
▁bevor	-9.75221
mel	-9.75327
stil	-9.75397
▁organisiert	-9.75408
▁21.	-9.75527
▁nimmt	-9.75538
dichte	-9.75538
▁nächsten	-9.7556
int	-9.75578
▁wirtschaftlich	-9.75596
▁max	-9.75608
▁global	-9.7566
▁beziehungsweise	-9.75664
meister	-9.7568
▁grün	-9.75689
▁unabhängigkeit	-9.75715
▁apple	-9.75718
tat	-9.75718
▁geschwindigkeit	-9.75775
▁lebensmittel	-9.75937
82	-9.75939
▁regionen	-9.75976
▁ernst	-9.76021
äl	-9.76038
“).	-9.76038
rag	-9.76074
▁wichtigste	-9.76098
▁rechte	-9.76141
▁zivil	-9.76142
oder	-9.76145
ähr	-9.7624
▁bayerische	-9.76274
▁1930	-9.76276
01	-9.76277
gezogen	-9.76309
bl	-9.7639
▁demokratie	-9.76392
▁german	-9.76446
gestorben	-9.76468
produzent	-9.76468
▁monate	-9.76471
▁jedem	-9.76494
▁probleme	-9.76547
förmig	-9.76635
▁spricht	-9.76672
universität	-9.76694
falls	-9.76768
▁wärme	-9.76803
▁gebrauch	-9.76817
▁angriff	-9.7683
▁buchstaben	-9.76876
ehr	-9.76885
▁dritten	-9.76922
▁my	-9.77027
fluss	-9.77092
ani	-9.7712
▁anerkannt	-9.77127
ox	-9.77251
bon	-9.77275
▁oben	-9.77291
ea	-9.77316
tsch	-9.77335
79	-9.77335
wohn	-9.77348
▁soldaten	-9.7738
63	-9.7739
ssen	-9.77446
fassung	-9.7745
win	-9.77458
▁bericht	-9.7746
▁klassische	-9.77553
▁auszu	-9.77593
reif	-9.776
stoffe	-9.77603
▁schritt	-9.77618
▁dortmund	-9.77665
▁letztere	-9.77738
ack	-9.77841
laub	-9.77885
▁zwölf	-9.779
▁stets	-9.77909
▁trug	-9.77928
▁geschlossen	-9.78027
▁themen	-9.78124
deutsche	-9.78186
dt	-9.78208
▁beschreibung	-9.78231
▁afrika	-9.78295
36	-9.78369
dos	-9.78415
▁flugzeug	-9.78423
trat	-9.78432
▁erwähnt	-9.7852
dauer	-9.78537
region	-9.78551
greifen	-9.78555
▁teils	-9.78597
▁höher	-9.78643
nden	-9.78778
linien	-9.78812
barkeit	-9.78812
▁prinzip	-9.78816
▁welches	-9.78858
schein	-9.78882
▁sachsen	-9.78897
▁natrium	-9.78935
▁trocken	-9.78941
far	-9.78943
▁auseinandersetz	-9.79086
▁gegner	-9.79137
günstig	-9.79139
▁umstritten	-9.79143
▁bietet	-9.79144
▁erlaubt	-9.79155
77	-9.79222
ase	-9.79226
bücher	-9.79229
▁ihres	-9.79266
ös	-9.79293
grenze	-9.79322
▁inzwischen	-9.79346
▁höhere	-9.79417
▁schnitt	-9.79447
vent	-9.79532
▁verwandt	-9.79553
baren	-9.79582
▁genannten	-9.79637
▁lager	-9.79649
62	-9.7973
text	-9.79759
▁göttingen	-9.79771
jahre	-9.79829
▁bundestag	-9.7985
▁90	-9.79903
metall	-9.79961
▁zerstört	-9.79981
sektor	-9.79985
itz	-9.80011
▁sin	-9.80026
▁kalender	-9.80041
▁com	-9.80074
anti	-9.80096
▁gebracht	-9.80099
berlin	-9.80099
gra	-9.80131
teilen	-9.80135
▁(17	-9.80283
▁bilder	-9.80287
▁berühmt	-9.80359
westfalen	-9.80403
▁konstanz	-9.80403
▁bundesrepublik	-9.80411
▁sy	-9.8042
erei	-9.80502
strahl	-9.80529
▁vers	-9.8053
▁fahr	-9.80545
nummer	-9.80625
▁aussagen	-9.80657
▁200	-9.80699
name	-9.80748
code	-9.80756
▁leit	-9.80794
lit	-9.80818
▁englischen	-9.80828
▁1989	-9.80831
▁grünen	-9.80898
treffen	-9.80957
▁fällen	-9.80999
▁schriftsteller	-9.81014
▁vermutlich	-9.81038
▁cr	-9.81055
▁größer	-9.81073
▁elektronen	-9.81076
▁fre	-9.81082
▁festgelegt	-9.81084
gänge	-9.81115
institut	-9.81179
▁westlichen	-9.81184
kammer	-9.81195
▁frühe	-9.81215
▁entdeckt	-9.81368
ran	-9.81407
gut	-9.81433
▁entgegen	-9.81489
▁gesprochen	-9.8155
ate	-9.81595
▁peter	-9.81627
▁unterschied	-9.81649
▁armee	-9.8165
▁zeigte	-9.817
tru	-9.8178
▁dom	-9.81812
▁1000	-9.81822
+	-9.81827
speicher	-9.81839
ris	-9.81874
gebirge	-9.81896
▁sicher	-9.819
let	-9.81925
▁dienen	-9.81929
isches	-9.82035
unternehmen	-9.8208
▁erklärte	-9.82114
bli	-9.8214
▁stieg	-9.82159
schiff	-9.82183
insel	-9.82199
gegangen	-9.82211
tom	-9.82241
81	-9.82246
kr	-9.82282
größe	-9.82286
energie	-9.8229
hu	-9.82295
▁grundsätzlich	-9.82321
▁intensiv	-9.82322
▁historischen	-9.82386
breite	-9.82474
komplex	-9.82487
▁holz	-9.82527
logie	-9.82535
▁entdeckung	-9.82552
▁links	-9.82594
▁führung	-9.82619
ath	-9.82633
▁versucht	-9.82695
▁nachweis	-9.82715
▁aristoteles	-9.82753
▁erweitert	-9.82753
▁bach	-9.82825
▁situation	-9.82856
stehende	-9.8291
▁werde	-9.82944
isierte	-9.82958
flüssig	-9.82968
achse	-9.82998
aktion	-9.83025
▁ausland	-9.8308
▁hell	-9.83129
riss	-9.83169
▁eisenbahn	-9.83219
ht	-9.83255
systeme	-9.83289
▁methoden	-9.83336
▁infolge	-9.83361
▁funktionen	-9.83411
▁iso	-9.83431
▁bekannten	-9.83522
krat	-9.83578
▁aussage	-9.8359
dü	-9.83642
▁technische	-9.83673
▁bu	-9.83679
ions	-9.83742
▁schüler	-9.83762
niedrig	-9.83782
mini	-9.83832
▁extrem	-9.8384
▁papst	-9.8384
mag	-9.83844
▁zentrale	-9.83865
▁abzu	-9.83911
▁offiziell	-9.8392
▁inseln	-9.83951
▁meta	-9.83972
09	-9.84071
▁hinsicht	-9.84098
▁wenigen	-9.84148
▁kan	-9.84153
▁götter	-9.84184
▁abschnitt	-9.84252
▁unterscheidet	-9.84278
▁physik	-9.84354
ging	-9.84398
pur	-9.84462
▁jungen	-9.84466
low	-9.84482
▁vorkommen	-9.84528
isse	-9.84532
▁planeten	-9.84546
lebt	-9.84565
▁we	-9.84576
▁gebiete	-9.84632
vertrag	-9.8467
▁bor	-9.84688
▁sonne	-9.84689
▁bundeskanzler	-9.84723
▁1920	-9.84731
▁ideal	-9.84924
▁grab	-9.84929
▁todes	-9.84971
▁ausbildung	-9.85011
fas	-9.85041
▁teilen	-9.85114
▁may	-9.85128
ili	-9.85164
84	-9.85212
anten	-9.85268
▁ähnliche	-9.85306
▁schlag	-9.85308
▁tätig	-9.85314
▁wild	-9.85325
▁hätte	-9.85362
etwa	-9.85397
57	-9.85411
▁rang	-9.85425
rechtlich	-9.85458
hilfe	-9.85473
rechte	-9.85483
▁ring	-9.85499
iden	-9.85505
▁europas	-9.85521
▁autor	-9.85533
▁ehemalige	-9.85554
▁aufgaben	-9.856
▁späteren	-9.85603
▁geheim	-9.85613
tü	-9.85615
▁blau	-9.85712
▁schule	-9.85725
▁epi	-9.8573
▁berufs	-9.85764
reihe	-9.85765
kämpfe	-9.85773
hard	-9.85796
▁verstärkt	-9.85827
▁ursprung	-9.85835
▁entlang	-9.85918
▁geeignet	-9.8605
▁bruder	-9.86052
▁menschlichen	-9.86071
▁kg	-9.86153
▁näher	-9.86155
▁fehler	-9.86167
▁ergebnisse	-9.86185
▁mi	-9.86271
▁endgültig	-9.86282
▁besuchte	-9.86373
treten	-9.8641
▁teilchen	-9.86444
alt	-9.86472
▁gestellt	-9.86477
▁datei	-9.86478
▁cdu	-9.86503
▁tiere	-9.86525
▁opfer	-9.86531
van	-9.8657
deutsch	-9.86616
isation	-9.8663
▁can	-9.86637
uv	-9.86678
▁älteste	-9.86721
▁herbst	-9.86723
alität	-9.86743
kla	-9.86812
bedingungen	-9.86813
▁netz	-9.86863
▁spanien	-9.86916
▁gebaut	-9.8692
kern	-9.86939
▁zell	-9.86963
▁2022	-9.86975
spiele	-9.86991
spiegel	-9.87041
eten	-9.87092
▁werte	-9.87173
gehen	-9.87223
▁analog	-9.87224
▁+	-9.87226
handlung	-9.87251
▁zusammenarbeit	-9.87312
▁pri	-9.87313
▁starken	-9.87366
▁wörter	-9.87379
▁transport	-9.87439
▁medizin	-9.87531
reform	-9.87545
▁stunden	-9.87566
▁kristall	-9.87603
lan	-9.87657
▁angegeben	-9.87659
▁silber	-9.8768
_3	-9.87903
▁hör	-9.87903
▁satz	-9.87936
▁sil	-9.87958
kräfte	-9.87974
▁frisch	-9.88002
gebracht	-9.88095
▁beschäftigt	-9.88114
verbände	-9.88133
scha	-9.88195
▁gehen	-9.88213
▁instrument	-9.88291
]]	-9.88323
▁verfassungs	-9.88335
▁kredit	-9.88425
brechen	-9.88488
pri	-9.88577
arch	-9.88584
▁grenzen	-9.8863
kul	-9.8864
bas	-9.88643
▁herrscher	-9.88656
bis	-9.8878
▁dritte	-9.88811
▁handel	-9.88841
▁menschliche	-9.88855
▁iii	-9.88899
meisterschaft	-9.88905
steig	-9.88961
▁nannte	-9.88999
▁70	-9.89091
▁mü	-9.89148
▁stück	-9.89234
physik	-9.89255
▁wesentlichen	-9.89316
▁mono	-9.8934
kunst	-9.89343
▁kommunikation	-9.89354
bohne	-9.89377
nischen	-9.89387
▁freie	-9.89393
theater	-9.89398
▁motiv	-9.89399
▁tra	-9.89458
▁kn	-9.89488
schloss	-9.89488
▁öffentlichkeit	-9.89513
▁christian	-9.89586
71	-9.89597
dar	-9.89657
▁arm	-9.89732
▁reise	-9.89806
▁schauspieler	-9.89821
kunde	-9.89856
▁pla	-9.89887
▁pan	-9.89895
gar	-9.89968
▁gattung	-9.89982
▁umgebung	-9.9004
itu	-9.90126
▁legte	-9.90205
▁hol	-9.90236
▁linie	-9.90327
wehr	-9.90372
▁befand	-9.90389
geführt	-9.90447
▁dichte	-9.90471
messung	-9.90499
▁spät	-9.9058
▁kritisiert	-9.90622
weiß	-9.90634
▁vorher	-9.90739
schreibung	-9.90747
lau	-9.90749
vita	-9.90752
gr	-9.90851
old	-9.90854
lösung	-9.90862
▁feuer	-9.90868
07	-9.90887
▁langsam	-9.90888
▁bleiben	-9.90894
▁besitz	-9.90981
dan	-9.91014
▁höchste	-9.91051
ierende	-9.91071
reise	-9.91082
▁eröffnet	-9.91083
istisch	-9.91086
▁behandelt	-9.91095
▁finanziell	-9.91162
▁mitarbeiter	-9.91178
schrei	-9.91183
▁cl	-9.91195
national	-9.91201
▁nachbar	-9.91203
met	-9.9122
grad	-9.91224
kö	-9.91241
▁übernommen	-9.91326
▁gefahr	-9.91398
▁bezeichnete	-9.91411
hand	-9.91425
▁mussten	-9.9145
▁liebe	-9.91454
▁tragen	-9.91473
▁signal	-9.91496
geschäft	-9.91519
▁erkennen	-9.91563
▁1992	-9.91569
▁geist	-9.91681
▁existenz	-9.91689
west	-9.91743
▁erhöht	-9.91777
▁zuletzt	-9.91799
▁eindeutig	-9.91799
seitig	-9.91808
▁innenstadt	-9.91821
▁fdp	-9.91849
▁höheren	-9.91889
▁produkt	-9.91906
▁sand	-9.91924
iti	-9.91936
▁objekt	-9.91942
ov	-9.91948
▁theoretisch	-9.91967
▁nutzen	-9.92009
sucht	-9.92023
▁gründen	-9.92032
▁übertragen	-9.92051
▁behandlung	-9.92117
geordnet	-9.92168
▁konstant	-9.92247
▁würden	-9.92266
position	-9.92269
▁völlig	-9.92273
▁1949	-9.92281
▁charles	-9.92286
▁voraus	-9.92311
▁interesse	-9.92321
▁fuß	-9.92399
gef	-9.92426
▁ermöglicht	-9.92489
material	-9.92536
▁geben	-9.92537
▁ak	-9.92541
mund	-9.9257
holz	-9.92648
▁beweis	-9.92654
▁verlust	-9.92667
▁sach	-9.92727
pho	-9.9275
▁james	-9.92752
inger	-9.92805
reaktion	-9.92846
▁wirken	-9.9285
bu	-9.93003
daten	-9.93014
▁erscheinen	-9.93017
▁krebs	-9.93028
▁küsten	-9.9303
herrschaft	-9.93071
ite	-9.9313
elt	-9.93195
▁gr	-9.93221
▁zumindest	-9.93229
▁hal	-9.9323
▁1991	-9.93235
▁1940	-9.93238
könig	-9.93261
aktivität	-9.93272
▁angenommen	-9.93343
▁maschinen	-9.93349
▁schulen	-9.9335
▁wei	-9.9336
▁red	-9.93423
gültig	-9.9346
▁thomas	-9.93469
▁air	-9.9352
▁bro	-9.93619
ziehen	-9.93624
▁volk	-9.9367
▁substanz	-9.93714
▁32	-9.93743
▁burg	-9.93769
▁untersuchungen	-9.93782
▁maß	-9.93965
▁freien	-9.93981
räume	-9.94046
cy	-9.94054
▁malta	-9.94061
schnitt	-9.94109
▁elf	-9.94155
08	-9.94172
ographie	-9.94177
▁ernannt	-9.94194
▁1995	-9.94201
pan	-9.94206
genommen	-9.94213
▁grad	-9.94254
▁spannung	-9.94256
strahlung	-9.94304
din	-9.94307
ski	-9.9431
▁setzt	-9.94343
▁friedens	-9.94358
▁entscheidend	-9.94384
▁fra	-9.944
▁beziehungen	-9.94429
▁autobahn	-9.9447
nie	-9.94487
▁heimat	-9.94489
▁george	-9.94644
▁studenten	-9.94703
versorgung	-9.94768
prinzip	-9.94769
▁walter	-9.94808
▁straf	-9.94811
▁bedingungen	-9.94816
ano	-9.94904
▁bürgermeister	-9.94918
mun	-9.94918
▁getrennt	-9.94924
▁royal	-9.94925
▁formel	-9.94981
▁geschaffen	-9.95001
iker	-9.95134
▁sieht	-9.95154
ios	-9.95156
bre	-9.95167
▁schmitt	-9.9517
▁mor	-9.95182
ole	-9.95208
▁23	-9.95213
▁unterstützt	-9.9523
▁mehrfach	-9.95296
▁kap	-9.95303
▁michael	-9.95413
▁falsch	-9.95417
▁besuch	-9.9544
chef	-9.95451
▁[	-9.95452
groß	-9.95517
artige	-9.95517
glo	-9.95541
kat	-9.95624
▁caesar	-9.95661
▁merkmale	-9.95664
ance	-9.95671
frage	-9.95672
▁chile	-9.95686
vier	-9.95746
▁hundert	-9.95749
rei	-9.95776
▁weder	-9.95783
eller	-9.95789
hoch	-9.95808
▁kleiner	-9.95834
▁geo	-9.95851
▁kopf	-9.95896
synthese	-9.95905
üll	-9.95915
▁augen	-9.9592
▁inhalt	-9.9593
iß	-9.95947
▁port	-9.95977
▁pol	-9.95998
thal	-9.96006
▁unterschieden	-9.96179
▁vorbild	-9.96194
pflanze	-9.96289
▁herzog	-9.96304
▁staatliche	-9.96356
▁vo	-9.9636
maß	-9.96363
app	-9.96407
▁19	-9.96409
▁publikum	-9.9646
hafen	-9.96462
eisen	-9.96509
▁kleinere	-9.96527
höhe	-9.96542
tar	-9.96563
kre	-9.96565
ois	-9.96582
cc	-9.96596
ausgabe	-9.96643
▁bestätigt	-9.96648
▁1996	-9.96655
for	-9.96672
▁erklärung	-9.96739
arbeiten	-9.96754
oh	-9.9676
▁ansicht	-9.968
▁historisch	-9.96841
▁langen	-9.96875
▁regen	-9.96887
▁[[	-9.96901
▁typisch	-9.96942
eder	-9.96995
az	-9.97038
küste	-9.97056
▁1944	-9.97154
kle	-9.9724
▁angaben	-9.97251
format	-9.97253
▁kräfte	-9.97259
turm	-9.97261
smittel	-9.97324
▁sicherheits	-9.97348
*	-9.97355
flächen	-9.97371
bal	-9.97376
▁fin	-9.97381
füll	-9.97408
▁römisch	-9.97507
stä	-9.97519
kom	-9.97525
schriften	-9.97528
▁stellung	-9.97609
▁tritt	-9.97709
▁idee	-9.9772
will	-9.97747
▁wissenschaften	-9.97765
stimm	-9.97792
▁bleibt	-9.97808
▁nahezu	-9.97823
▁web	-9.97862
familie	-9.97922
▁urteil	-9.9794
▁standort	-9.97973
ön	-9.9801
▁methode	-9.98027
▁arbeiter	-9.9804
rhein	-9.98089
mond	-9.98117
ref	-9.98119
▁krieges	-9.98143
▁mont	-9.98147
▁betroffen	-9.9815
▁william	-9.9815
wach	-9.98152
vers	-9.98167
▁beschränkt	-9.9818
wanderung	-9.98183
▁inneren	-9.98197
strom	-9.98217
▁preußische	-9.98226
ketten	-9.98237
05	-9.98251
bro	-9.98286
▁schweizer	-9.98289
nord	-9.98297
kop	-9.98387
verarbeitung	-9.98415
▁führten	-9.98423
▁cm	-9.98443
▁französisch	-9.98459
▁mauer	-9.9853
sender	-9.98548
▁bereit	-9.98551
▁liefert	-9.98675
vel	-9.98685
gold	-9.98699
dro	-9.98734
mess	-9.98754
▁geb	-9.98773
▁studie	-9.98813
ruh	-9.9883
▁anfangs	-9.98888
weisung	-9.98888
▁uhr	-9.98975
▁großteil	-9.98997
▁englisch	-9.99063
rechts	-9.99097
oni	-9.99121
▁moral	-9.99167
hir	-9.99231
ille	-9.99297
fusion	-9.99509
cl	-9.99527
▁regie	-9.99569
ré	-9.99634
stärke	-9.99669
▁etabliert	-9.99675
▁multi	-9.99678
▁natürliche	-9.9969
sphäre	-9.9969
lob	-9.99735
▁chlor	-9.99736
▁verkauft	-9.99767
▁zufolge	-9.99799
▁lehre	-9.99833
halb	-9.99848
amerikanischen	-9.99904
württemberg	-9.99917
bundes	-9.99936
04	-9.99965
▁verschiedener	-10.0001
ration	-10.0004
▁informations	-10.0009
▁qualität	-10.0013
▁alphabet	-10.0016
▁fu	-10.0016
jährige	-10.0016
▁jung	-10.0022
▁zuerst	-10.0024
▁kas	-10.0028
yo	-10.0032
▁abhängig	-10.0033
▁amts	-10.0034
▁könne	-10.0039
▁nennt	-10.0045
▁original	-10.0045
▁orts	-10.0049
▁rede	-10.0053
▁flächen	-10.0056
▁übersetzung	-10.006
wiegend	-10.0061
▁daran	-10.0062
▁beliebt	-10.0066
▁enzym	-10.0071
inter	-10.0073
▁franken	-10.0074
zog	-10.0075
stan	-10.0083
bereit	-10.0083
▁presse	-10.009
▁solchen	-10.009
▁berechnung	-10.0093
isotop	-10.0096
▁lithium	-10.0096
▁verwaltung	-10.0109
kommission	-10.0112
▁gemeinsame	-10.0115
asien	-10.0116
▁güter	-10.0123
▁geschäfts	-10.0123
▁ns	-10.0124
▁norm	-10.014
▁kanton	-10.0142
stufe	-10.0142
▁vielfach	-10.0152
pit	-10.0153
eg	-10.0154
▁ferner	-10.0154
▁(1	-10.0156
_4	-10.0166
▁maximal	-10.0166
▁einwohnern	-10.0167
▁ir	-10.0167
▁protein	-10.0172
▁nehmen	-10.0175
konservat	-10.0175
mil	-10.0177
▁herr	-10.0178
▁kurze	-10.0181
dra	-10.0182
▁handeln	-10.0184
liegenden	-10.0185
▁del	-10.0187
▁heiligen	-10.019
▁sammlung	-10.0191
ight	-10.0196
▁wer	-10.02
▁sowjetunion	-10.0201
▁grundlegend	-10.0201
▁motor	-10.0205
steuer	-10.0205
mail	-10.0208
▁auffassung	-10.0208
ida	-10.0212
jährigen	-10.0214
ziel	-10.0221
▁interessen	-10.0223
▁jene	-10.0223
pal	-10.0225
▁dichter	-10.0229
raten	-10.0235
▁schön	-10.0236
▁mio	-10.0237
▁tätigkeit	-10.0239
▁35	-10.0241
▁effekt	-10.0241
kraftwerk	-10.0242
▁länger	-10.0245
▁neo	-10.0257
▁gebieten	-10.0258
▁weist	-10.0263
▁wachstum	-10.0265
▁geringe	-10.0265
▁franz	-10.0265
▁produktions	-10.0269
zähl	-10.0271
▁mittlerweile	-10.028
wir	-10.0288
▁stamm	-10.0293
dor	-10.0297
losen	-10.0303
wagen	-10.0304
▁1946	-10.0307
pul	-10.0308
lar	-10.0309
▁weite	-10.0314
boot	-10.0319
bund	-10.032
▁hart	-10.0322
▁video	-10.0325
▁berichtet	-10.0326
▁positiv	-10.0327
▁entsprechende	-10.0329
▁eigenständige	-10.0333
▁spieler	-10.0334
griff	-10.0334
▁handlung	-10.0337
▁praxis	-10.0341
gan	-10.0341
▁bill	-10.0343
hausen	-10.035
▁späten	-10.0351
▁bodensee	-10.0361
▁deutschsprachig	-10.0365
▁gesehen	-10.0367
tief	-10.0369
blätter	-10.0369
gebäude	-10.0369
ökonom	-10.0369
▁oper	-10.0369
gott	-10.0377
▁römische	-10.0378
▁1994	-10.0387
▁ke	-10.039
▁seitdem	-10.0392
▁umfangreiche	-10.0395
viertel	-10.0398
tanz	-10.0402
▁auftrag	-10.0405
▁gebunden	-10.0407
ny	-10.041
▁david	-10.0413
roman	-10.0413
▁einerseits	-10.0413
▁1948	-10.0413
▁fer	-10.0415
▁ganzen	-10.0417
▁natürlichen	-10.0424
▁politisch	-10.0425
▁verantwortlich	-10.0426
bomb	-10.043
weisen	-10.043
▁heer	-10.0431
our	-10.0435
one	-10.0435
ram	-10.0435
▁einheiten	-10.0436
▁abstand	-10.0437
▁bal	-10.0438
zwang	-10.044
▁kalium	-10.0441
▁belegt	-10.0457
produkt	-10.0457
▁förder	-10.0458
▁22	-10.0463
ita	-10.0472
ice	-10.0474
faktor	-10.0479
▁ph	-10.0479
tracht	-10.048
flugzeug	-10.048
2)	-10.0485
▁spezielle	-10.0485
ty	-10.0489
▁beginnt	-10.0491
▁baum	-10.0493
▁[]	-10.0494
stiftung	-10.0503
▁ed	-10.0504
dienste	-10.0505
zier	-10.0506
▁fertig	-10.0514
hy	-10.0515
▁vorteil	-10.0517
▁500	-10.052
▁israel	-10.052
▁elektrische	-10.0522
▁weiß	-10.0525
▁meinung	-10.0526
steigen	-10.0527
zustand	-10.0528
▁stammen	-10.053
durchschnitt	-10.0535
schaffen	-10.0536
ministerium	-10.054
▁kind	-10.0542
▁rand	-10.0545
▁unterscheidung	-10.0547
▁gelegentlich	-10.0548
▁ältesten	-10.0548
geld	-10.055
typen	-10.055
ierenden	-10.0555
akt	-10.0555
▁minister	-10.0558
pflanzen	-10.0572
uth	-10.0573
▁liechtenstein	-10.0575
▁schreiben	-10.0575
pat	-10.0577
▁bot	-10.0579
▁alb	-10.0581
punkte	-10.0586
▁architektur	-10.0587
ym	-10.0589
▁diente	-10.0589
politische	-10.0592
tieren	-10.0599
bauten	-10.0601
▁richard	-10.0602
▁nu	-10.0604
▁gute	-10.0604
reiche	-10.0607
▁kra	-10.061
welle	-10.061
▁par	-10.0615
▁trägt	-10.0615
▁angelegt	-10.0621
klasse	-10.0625
▁mission	-10.0626
▁anhänger	-10.0629
▁einzu	-10.0643
haupt	-10.0651
▁bayreuth	-10.0656
konferenz	-10.0656
verteidigung	-10.0656
▁nachgewiesen	-10.0657
mord	-10.0658
bogen	-10.066
enberg	-10.0661
▁maria	-10.0661
▁reicht	-10.0666
bie	-10.0668
▁verwendete	-10.067
wick	-10.0673
grenzen	-10.0677
wende	-10.0677
▁paar	-10.0678
gal	-10.0679
▁nationalen	-10.0683
▁elefanten	-10.0686
▁freund	-10.0692
schlüsse	-10.0694
horn	-10.0695
3)	-10.0697
▁typische	-10.0698
▁wein	-10.0701
kritik	-10.0703
▁östlich	-10.0707
▁30.	-10.0709
fahren	-10.0711
systems	-10.0711
läufig	-10.0712
▁eltern	-10.0712
ogene	-10.0712
▁mm	-10.0714
szeit	-10.0714
kreuz	-10.0717
▁sicht	-10.0718
▁geringen	-10.0718
▁krankheit	-10.0724
als	-10.0726
▁spiegel	-10.0727
press	-10.0728
tlich	-10.0732
fund	-10.0734
▁ungefähr	-10.0739
hör	-10.0739
wärts	-10.0739
▁johannes	-10.074
▁bestimmung	-10.0742
▁hall	-10.0747
serie	-10.0748
▁fund	-10.0749
▁technischen	-10.0754
▁kontrolle	-10.0755
▁entsprechenden	-10.0759
hal	-10.076
▁objekte	-10.0761
nu	-10.0764
ons	-10.0764
▁joseph	-10.0767
▁21	-10.077
▁super	-10.0772
▁gene	-10.0778
▁kulturelle	-10.078
▁doppel	-10.0781
tus	-10.0788
[	-10.0788
streit	-10.079
kurs	-10.0791
▁31.	-10.0797
▁26	-10.0801
og	-10.0801
▁heil	-10.0804
bb	-10.0811
▁polen	-10.0815
▁informationen	-10.0818
▁studium	-10.0821
freiheit	-10.0823
▁1993	-10.0823
ufer	-10.0825
zelle	-10.0827
▁fernseh	-10.0829
▁gering	-10.0837
▁darstellt	-10.0838
kanal	-10.084
▁einfache	-10.0843
zum	-10.0844
▁graf	-10.0851
▁namensgeber	-10.0851
▁regeln	-10.0853
▁300	-10.0854
denkmal	-10.0861
▁drittel	-10.0862
lehn	-10.0863
verwaltung	-10.0864
stück	-10.0869
version	-10.0873
würdig	-10.0878
och	-10.0883
▁fläche	-10.0885
regel	-10.0885
▁wuchs	-10.0888
▁tu	-10.0889
▁weiteres	-10.089
▁manga	-10.0891
▁befehl	-10.0892
5.000	-10.0897
▁erfahrung	-10.0903
problem	-10.0904
kette	-10.0904
▁halten	-10.0904
sprozess	-10.0905
qu	-10.0906
▁reduziert	-10.0907
schirm	-10.0911
▁martin	-10.0912
▁psycho	-10.0914
anne	-10.0916
▁materie	-10.0919
sehen	-10.0923
▁überhaupt	-10.0927
▁kamera	-10.0928
▁religions	-10.0929
bein	-10.0932
▁kohlenstoff	-10.0934
sau	-10.0935
▁beobachtet	-10.0935
▁microsoft	-10.0935
▁kepler	-10.0935
▁tr	-10.094
▁isotope	-10.0941
▁null	-10.0942
auer	-10.0943
▁denken	-10.0946
▁frequenz	-10.0949
▁kauf	-10.0953
▁übrigen	-10.0963
festival	-10.0963
▁unbekannt	-10.0964
▁stattdessen	-10.0964
iter	-10.0965
▁islamische	-10.0967
▁protest	-10.0968
▁26.	-10.0971
prüfung	-10.0975
▁vieler	-10.0978
haltige	-10.0978
off	-10.098
500	-10.0986
▁university	-10.0991
▁hollywood	-10.0991
▁kloster	-10.0994
test	-10.0995
bru	-10.0996
wertung	-10.1004
▁unver	-10.1012
▁spezial	-10.102
▁beliebig	-10.102
bibliothek	-10.102
▁diskussion	-10.1022
▁möglicherweise	-10.1023
ola	-10.1033
ätz	-10.1045
schritt	-10.1049
▁1938	-10.1049
▁weimar	-10.1049
▁22.	-10.1051
▁kr	-10.1053
▁stau	-10.1063
iii	-10.1064
strich	-10.1067
gliederung	-10.107
blick	-10.1071
▁opposition	-10.1078
▁schiff	-10.1078
▁wissenschaftler	-10.108
bürgermeister	-10.108
▁nacht	-10.108
▁texte	-10.1081
geschichtlich	-10.1082
bindung	-10.1088
ata	-10.1096
▁fo	-10.1101
200	-10.1101
▁beton	-10.1105
▁entwicklungs	-10.1105
sofern	-10.1106
▁erbaut	-10.1107
▁wiederholt	-10.1109
▁merkel	-10.1109
paar	-10.1111
▁täglich	-10.1115
▁begriffe	-10.1115
▁beziehung	-10.112
führt	-10.1127
▁haut	-10.113
▁nötig	-10.1134
rock	-10.1135
▁hel	-10.1138
▁neuzeit	-10.114
▁roten	-10.114
marsch	-10.1141
oc	-10.1142
▁star	-10.1143
▁komplexe	-10.115
uel	-10.1152
▁polizei	-10.1153
▁wichtig	-10.1155
eth	-10.116
spann	-10.1161
euro	-10.1162
▁operation	-10.1162
▁wichtiger	-10.1163
salz	-10.1163
▁1997	-10.1164
▁1941	-10.1164
fol	-10.1165
roll	-10.1174
luft	-10.1174
laut	-10.1176
▁temperaturen	-10.1183
▁strukturen	-10.1184
▁arsen	-10.1185
veranstaltung	-10.1186
▁fisch	-10.1189
▁infrastruktur	-10.1189
▁hierzu	-10.119
masse	-10.1193
▁nordrhein	-10.1194
▁waffen	-10.1194
ile	-10.1198
bett	-10.12
▁hintergrund	-10.12
▁altstadt	-10.1201
katholisch	-10.122
▁miteinander	-10.1221
▁russland	-10.1221
▁1961	-10.1222
▁christentum	-10.1222
▁pop	-10.1223
▁offenbar	-10.1226
▁kolonial	-10.123
abel	-10.123
geber	-10.1231
alle	-10.1231
▁differenz	-10.1236
▁genommen	-10.1241
▁gestein	-10.1242
▁lateinischen	-10.1247
▁zellen	-10.1248
▁neuseeland	-10.125
▁populär	-10.125
bestand	-10.1253
▁unten	-10.1259
ec	-10.1261
ierbar	-10.1264
▁schwerpunkt	-10.1265
▁medizinische	-10.1274
▁beste	-10.1277
▁erscheint	-10.1279
▁begrenzt	-10.1279
▁1939	-10.128
▁gesch	-10.1283
tier	-10.1284
▁ältere	-10.1285
kontroll	-10.129
stätte	-10.1294
titel	-10.1297
pass	-10.13
▁militärische	-10.1301
▁traf	-10.1307
▁tal	-10.1308
▁verteilt	-10.1309
hä	-10.131
▁hätten	-10.1311
klein	-10.1315
uß	-10.1319
▁gewisse	-10.132
▁et	-10.133
▁hanse	-10.1331
führen	-10.1331
baum	-10.1336
▁längs	-10.1339
chlorid	-10.1341
odi	-10.1347
▁dokument	-10.135
▁zuständig	-10.1359
▁wende	-10.1361
angehörige	-10.1363
lassung	-10.1364
▁zeitraum	-10.1365
▁information	-10.1367
▁manchmal	-10.1367
gehoben	-10.1367
quer	-10.1371
chel	-10.1375
hang	-10.1376
▁rechen	-10.1377
cke	-10.1392
▁geschätzt	-10.1397
▁himmel	-10.1397
▁gezeigt	-10.1397
▁adenauer	-10.1397
▁kritisch	-10.1397
▁gehörten	-10.14
sinn	-10.1401
▁schwach	-10.1403
gleichung	-10.1404
▁sichtbar	-10.1412
▁analyse	-10.1424
▁van	-10.1425
index	-10.1425
▁hitchcock	-10.1426
▁umgekehrt	-10.1426
▁überliefert	-10.1426
▁primär	-10.1426
▁systematisch	-10.1427
▁griechenland	-10.1428
▁bildete	-10.144
▁jüdische	-10.1446
“),	-10.1448
bil	-10.145
fir	-10.1456
▁verwenden	-10.1456
▁frühjahr	-10.1458
platten	-10.1458
▁beleg	-10.147
▁generation	-10.1475
,0	-10.1476
prozess	-10.1477
▁soziale	-10.1479
▁haushalt	-10.1481
▁religiöse	-10.1485
fabrik	-10.1486
▁tun	-10.1486
▁kanada	-10.1486
stufen	-10.1491
ständen	-10.1494
▁bedingt	-10.1497
ical	-10.1514
▁arabischen	-10.1514
▁blieben	-10.1514
pha	-10.1518
▁private	-10.1518
zy	-10.152
▁euler	-10.1526
▁persönlichkeit	-10.1527
fällig	-10.1528
▁fragen	-10.1533
maschinen	-10.154
gramm	-10.1541
engl	-10.1544
▁bibliothek	-10.1545
gerechnet	-10.1545
karten	-10.1546
▁ergeben	-10.1548
roh	-10.1549
etz	-10.1549
elemente	-10.1551
▁tabelle	-10.1553
▁anspruch	-10.1554
▁junge	-10.1554
▁oberfläche	-10.156
▁zukunft	-10.1562
main	-10.1563
kandidat	-10.1569
station	-10.1571
▁au	-10.1573
▁logik	-10.1574
▁beschreibt	-10.1575
▁erzielt	-10.1577
beck	-10.1578
▁pre	-10.1583
fern	-10.1585
▁23.	-10.1586
);	-10.159
▁suche	-10.1597
schiffe	-10.1599
märkte	-10.1606
▁konkret	-10.1606
anstalt	-10.1606
niveau	-10.1608
sein	-10.1613
lim	-10.1613
ula	-10.1614
▁ausstellung	-10.1615
▁antiken	-10.1618
▁gefangen	-10.1619
atur	-10.162
▁dna	-10.1621
▁45	-10.1625
▁speziell	-10.1631
▁graz	-10.1633
▁folgten	-10.1634
▁society	-10.1636
aufnahme	-10.1636
▁verkauf	-10.1638
▁gehalten	-10.1638
▁is	-10.1639
▁uns	-10.164
ala	-10.1644
▁'	-10.1645
▁glaubens	-10.1651
▁verlor	-10.1654
▁rh	-10.1657
▁windows	-10.1657
▁fein	-10.166
histori	-10.1661
▁at	-10.1661
reichen	-10.1666
▁philipp	-10.1666
▁gemessen	-10.1666
▁sammel	-10.1667
▁gre	-10.1673
ließen	-10.1674
▁aufgabe	-10.1675
▁produkte	-10.1684
▁linien	-10.1686
wirken	-10.1689
rik	-10.1692
▁ideen	-10.1694
▁älteren	-10.1696
▁standen	-10.1698
ban	-10.1711
▁brando	-10.1716
▁wohnung	-10.1718
▁irak	-10.1725
▁goebbels	-10.1727
▁heiratete	-10.1727
▁kupfer	-10.1727
ama	-10.1727
römische	-10.1728
▁fritz	-10.1731
garten	-10.1731
▁getreide	-10.1734
uni	-10.1735
vgl	-10.1738
▁miet	-10.1748
▁garten	-10.1749
▁sk	-10.1749
aktiv	-10.175
ins	-10.1752
zweig	-10.1756
▁jazz	-10.1757
▁äußerst	-10.1757
▁brand	-10.1758
▁vorstellung	-10.1764
▁code	-10.1765
▁versuche	-10.1769
stoß	-10.177
▁höchst	-10.1771
gu	-10.1776
▁studio	-10.1782
stieg	-10.1783
ara	-10.1787
▁vermutet	-10.1788
kol	-10.1789
▁leiter	-10.1795
▁test	-10.1796
▁albert	-10.1797
▁bekam	-10.18
▁erkenntnis	-10.1801
bio	-10.1807
▁korrekt	-10.1812
▁einheitlich	-10.1812
▁kalt	-10.1813
rats	-10.1814
▁wirkt	-10.1815
weil	-10.1818
▁diskutiert	-10.1819
▁erforderlich	-10.1819
▁schröder	-10.1819
pfalz	-10.1819
taunus	-10.1821
isierten	-10.1822
polit	-10.1825
tau	-10.1826
▁cent	-10.1828
▁laser	-10.1831
▁könnten	-10.1834
▁25.	-10.1837
▁nationale	-10.1843
schätzung	-10.1844
effekt	-10.1844
▁brach	-10.1845
▁fran	-10.1847
▁umlauf	-10.1849
▁ägypten	-10.185
▁elementar	-10.185
▁status	-10.1856
▁österreichische	-10.1858
▁dos	-10.1864
fang	-10.1865
▁gestalt	-10.187
▁treten	-10.1872
▁tanz	-10.1873
▁gelb	-10.1874
filme	-10.1882
bringen	-10.1886
▁christlichen	-10.1887
▁angeboten	-10.1889
bürger	-10.1894
wege	-10.19
▁adel	-10.1901
▁ausländische	-10.1901
▁entwickelten	-10.1909
▁möglichkeiten	-10.1909
▁chi	-10.1909
biologie	-10.1911
störung	-10.1912
▁besatzung	-10.1912
▁minuten	-10.1914
py	-10.1915
▁serie	-10.1919
▁mathematiker	-10.1921
▁gall	-10.1938
gymnasium	-10.1943
lip	-10.1943
▁phase	-10.1944
symp	-10.1944
▁stahl	-10.1946
▁risiko	-10.1948
▁streit	-10.1948
▁metern	-10.1951
graf	-10.196
02	-10.1961
kenntnis	-10.1962
änderung	-10.1972
▁breit	-10.1972
leute	-10.1972
▁entwickeln	-10.1974
var	-10.1975
▁tat	-10.198
straßen	-10.1981
sicher	-10.1981
▁ly	-10.1982
▁traditionell	-10.1987
▁abend	-10.1988
▁demnach	-10.2002
komm	-10.2004
2-	-10.2004
▁inner	-10.2005
▁alkohol	-10.2006
▁jupiter	-10.2006
▁reagiert	-10.2006
▁künstlich	-10.2007
▁präsidenten	-10.2008
stätten	-10.2009
▁leitung	-10.202
▁schaffen	-10.2021
▁schiffe	-10.2028
▁wettbewerb	-10.2029
▁zumeist	-10.2031
▁konzert	-10.2033
disziplin	-10.2037
▁atmosphäre	-10.2037
▁streng	-10.2037
▁mat	-10.2042
hoff	-10.2045
▁byzantinische	-10.2048
▁ständig	-10.205
▁vorder	-10.2051
zusetzen	-10.2055
▁mg	-10.2061
ade	-10.2063
not	-10.2063
▁weisen	-10.2064
▁früheren	-10.2064
▁gleiche	-10.2064
sand	-10.2067
laden	-10.2071
pot	-10.2079
▁rote	-10.2079
▁rasch	-10.208
▁bewusst	-10.2081
▁innere	-10.2081
▁orientiert	-10.2082
▁wesen	-10.2086
▁mel	-10.2097
▁mittelmeer	-10.21
▁maßgeblich	-10.21
▁gmbh	-10.21
▁1975	-10.2101
gl	-10.2101
▁römer	-10.2102
wunder	-10.2103
▁asteroiden	-10.2106
archiv	-10.2111
prüf	-10.212
▁darf	-10.2123
zustellen	-10.2125
▁bur	-10.2131
▁kommerziell	-10.2132
▁nämlich	-10.2132
zentren	-10.2133
gegen	-10.2135
▁bringen	-10.2138
▁mer	-10.2145
dis	-10.2148
▁intern	-10.2156
method	-10.2157
▁heiß	-10.216
landschaft	-10.2161
zent	-10.2162
▁bri	-10.2163
▁anton	-10.2165
well	-10.2166
bell	-10.2169
▁comp	-10.2173
dl	-10.2174
▁aufgebaut	-10.2179
▁gingen	-10.218
▁experiment	-10.2182
wiesen	-10.2183
▁glauben	-10.2186
▁eigentum	-10.2194
anhand	-10.2194
▁nationen	-10.2196
▁bre	-10.2196
▁1918	-10.2198
▁diverse	-10.2198
▁biologische	-10.22
▁darstellen	-10.2201
gesch	-10.2203
put	-10.2204
wart	-10.2206
figur	-10.2209
ada	-10.221
mächte	-10.221
para	-10.2218
▁ti	-10.2219
▁methan	-10.2226
▁verstanden	-10.2226
ali	-10.2228
▁viertel	-10.2228
▁part	-10.223
kä	-10.2232
▁weibliche	-10.2232
mannschaft	-10.2238
▁sozialen	-10.2239
▁gegenstand	-10.2243
▁derzeit	-10.225
ace	-10.2251
▁()	-10.2252
gerecht	-10.2254
▁calcium	-10.226
▁1969	-10.2261
▁vielmehr	-10.2261
▁1919	-10.2261
▁verband	-10.2262
▁blatt	-10.2263
▁annahme	-10.2264
fahrer	-10.2265
▁lauf	-10.227
col	-10.2271
fertig	-10.2272
▁japanischen	-10.2275
▁ergab	-10.2286
▁komplett	-10.2292
▁hilfs	-10.2292
methode	-10.2293
▁gewinn	-10.2293
▁entdeckte	-10.2295
tausch	-10.2295
tron	-10.23
kunft	-10.2304
▁preußen	-10.2305
▁bestimmen	-10.2306
▁med	-10.2307
cur	-10.2308
):	-10.2309
▁argument	-10.2309
▁val	-10.2312
▁usw	-10.2314
▁29.	-10.2318
ting	-10.2319
▁ernährung	-10.232
wan	-10.232
▁minderheit	-10.2325
▁verfügbar	-10.2325
▁anschluss	-10.233
▁besten	-10.2332
ziehung	-10.2335
termin	-10.2336
zel	-10.234
▁phänomen	-10.234
partner	-10.234
standard	-10.2344
eshalb	-10.2347
▁fischer	-10.2349
▁braun	-10.2349
ies	-10.2352
sprach	-10.2355
▁beendet	-10.2362
▁exemplar	-10.2363
kampf	-10.2366
▁ausgabe	-10.237
▁los	-10.237
süd	-10.2372
liberal	-10.2374
▁christen	-10.2374
▁vergleichbar	-10.2378
schifffahrt	-10.2385
▁mittelalterlich	-10.239
▁geschichts	-10.239
geschlagen	-10.2392
▁bündnis	-10.2392
regime	-10.2402
tiere	-10.2414
phy	-10.2422
▁linux	-10.2422
▁luxemburg	-10.2422
▁1979	-10.2423
abhängig	-10.2427
handels	-10.2428
▁fluor	-10.2428
rum	-10.2433
▁28.	-10.2434
wahr	-10.2437
adi	-10.2446
▁sprechen	-10.245
▁frucht	-10.2452
▁fan	-10.2454
▁bielefeld	-10.2455
▁ozean	-10.2455
sprüche	-10.2455
▁verfolgt	-10.2455
magazin	-10.2455
bezirk	-10.246
ckel	-10.246
sammlung	-10.2461
kopf	-10.2462
▁umfang	-10.2463
▁farbe	-10.2466
maschine	-10.2466
stücke	-10.2469
▁innen	-10.2479
währung	-10.248
▁boot	-10.2485
▁aufzu	-10.2485
▁argentinien	-10.2488
▁universitäten	-10.2493
▁bürgerkrieg	-10.2497
ura	-10.25
elektro	-10.2502
ähnlich	-10.2504
▁ausbau	-10.2518
verbindung	-10.2521
▁magnesium	-10.2521
▁ändert	-10.2521
▁vokal	-10.2522
kolonie	-10.2523
▁evolution	-10.2523
▁kühl	-10.2524
▁negativ	-10.2528
sprechen	-10.2533
cent	-10.2534
lia	-10.2536
▁reine	-10.2544
▁gemeinsamen	-10.2551
▁pc	-10.2551
samt	-10.2551
▁bislang	-10.2551
▁bus	-10.2553
▁[...]	-10.2554
▁bundestagswahl	-10.2554
▁oscar	-10.2555
slaw	-10.2558
autor	-10.2558
▁zerfall	-10.256
▁philosoph	-10.2562
zeichnet	-10.2563
takt	-10.2563
fin	-10.2565
▁patent	-10.2566
▁erhält	-10.2577
dal	-10.258
▁madonna	-10.2587
▁vulkan	-10.2587
grenz	-10.2588
▁verhältnisse	-10.2588
▁1973	-10.2588
▁export	-10.2596
my	-10.2597
▁zugang	-10.2602
binde	-10.2604
▁veränderungen	-10.2611
▁anwendungen	-10.2614
ante	-10.2615
▁%.	-10.2617
▁hoher	-10.2617
strategie	-10.2621
▁kombination	-10.2621
▁mannschaft	-10.2621
▁1983	-10.2622
▁1943	-10.2622
führende	-10.2623
tafel	-10.2623
gol	-10.2624
ärt	-10.2627
06	-10.2627
▁tagen	-10.2634
▁lokal	-10.2635
▁eigenschaft	-10.2635
▁eigentlich	-10.2635
▁27.	-10.2636
king	-10.2637
▁karriere	-10.2647
▁italienischen	-10.2652
spektrum	-10.2654
▁nsdap	-10.2654
▁auflösung	-10.2654
▁wichtigen	-10.2654
▁wall	-10.2656
▁sorgt	-10.2659
▁besucher	-10.2661
link	-10.2663
▁ser	-10.2664
inus	-10.2666
chem	-10.2666
▁maschine	-10.267
▁grundlagen	-10.2672
▁jüdischen	-10.2674
lock	-10.2675
amerikanische	-10.2676
▁fürsten	-10.268
bevölkerung	-10.2686
▁letztlich	-10.2688
▁herrscht	-10.2688
▁helium	-10.2691
erzeugung	-10.2699
▁ausgezeichnet	-10.2704
▁aktion	-10.2706
spieler	-10.2707
schü	-10.2707
▁bezirk	-10.2715
▁englische	-10.2716
▁westlich	-10.2719
▁provinzen	-10.272
▁sar	-10.2721
orthodox	-10.2721
händler	-10.2721
▁beruht	-10.2722
▁cd	-10.2723
kin	-10.2724
▁roh	-10.2725
700	-10.2726
▁molekül	-10.2727
lied	-10.2727
▁hierfür	-10.2728
▁südwest	-10.2728
▁übergang	-10.2735
▁genre	-10.2741
nimmt	-10.2742
▁bekanntesten	-10.2742
kasse	-10.2751
▁bulgarien	-10.2755
▁award	-10.2755
▁1971	-10.2756
star	-10.2756
▁1955	-10.2756
hülle	-10.2757
▁bieten	-10.2758
lot	-10.2759
▁südlichen	-10.276
karte	-10.276
▁gedicht	-10.2763
act	-10.2766
▁staates	-10.2769
▁institut	-10.2769
▁mein	-10.277
▁herrschafts	-10.277
▁ip	-10.277
▁28	-10.2771
▁verschieden	-10.2773
dampf	-10.2777
▁einrichtungen	-10.278
äh	-10.2782
ografie	-10.2782
▁integriert	-10.279
▁feind	-10.279
gebaut	-10.2796
▁human	-10.2797
ji	-10.2808
▁erz	-10.2813
ull	-10.2813
▁cla	-10.2813
lü	-10.2817
▁militärischen	-10.2818
▁frieden	-10.2819
_5	-10.2822
▁schwester	-10.2823
▁erobert	-10.2826
▁keiner	-10.2833
▁maßnahmen	-10.2834
bezüglich	-10.2835
▁24.	-10.2839
▁pat	-10.2839
▁char	-10.2843
sverfahren	-10.285
europäisch	-10.2852
▁bern	-10.2852
beute	-10.2856
▁leonardo	-10.2857
▁neutronen	-10.2857
▁verbessert	-10.2857
▁1984	-10.2858
▁zugeordnet	-10.2862
route	-10.2864
ique	-10.2865
▁klasse	-10.2866
▁niederlande	-10.2868
▁milch	-10.2869
ney	-10.287
▁erzählung	-10.2873
▁verbreitete	-10.2877
ular	-10.2877
▁willen	-10.2877
▁schuld	-10.288
felder	-10.2882
▁strecke	-10.2884
schließlich	-10.2884
schafft	-10.2886
flu	-10.2887
lex	-10.2887
sicherheit	-10.2889
lev	-10.2889
▁patienten	-10.2891
▁florenz	-10.2891
▁schwedisch	-10.2891
berger	-10.2892
▁tumor	-10.2894
▁träger	-10.2896
sprung	-10.2896
▁newton	-10.29
▁phil	-10.2901
▁verboten	-10.2902
▁abgeschlossen	-10.2902
▁leiden	-10.2903
▁verfasste	-10.2905
▁jesu	-10.2906
▁konstruktion	-10.2912
cal	-10.2915
▁zusätzliche	-10.2919
▁vögel	-10.2924
▁verursacht	-10.2926
▁vielfältig	-10.2926
▁abs	-10.2932
▁kennen	-10.2937
▁gewinnen	-10.2941
freie	-10.2942
aut	-10.2944
▁anerkennung	-10.2945
▁versorgung	-10.2948
▁karls	-10.2949
▁tau	-10.2952
▁bund	-10.2959
stamm	-10.2959
lässlich	-10.296
schaffung	-10.2961
red	-10.2972
▁louis	-10.2973
essen	-10.2975
lag	-10.2976
istischer	-10.2976
▁dauerhaft	-10.2978
▁weich	-10.2981
▁binnen	-10.2981
▁radikal	-10.2988
▁neues	-10.2994
▁ereignisse	-10.2995
▁inflation	-10.2995
▁1953	-10.2996
lingen	-10.2997
natur	-10.3001
▁flach	-10.3002
pil	-10.3009
▁col	-10.301
▁fallen	-10.3012
mission	-10.3013
▁spätere	-10.3013
▁reichstag	-10.3014
kirchen	-10.3023
italien	-10.3023
mächtig	-10.3024
kosten	-10.3027
▁begonnen	-10.303
▁1972	-10.303
▁1968	-10.3031
ity	-10.3032
▁fällt	-10.3033
alis	-10.3038
▁lebte	-10.3041
parti	-10.3043
▁bl	-10.3045
▁brenn	-10.3052
▁forderte	-10.3054
way	-10.3059
▁1987	-10.3065
▁gedanken	-10.3066
quelle	-10.3067
einheiten	-10.3075
nau	-10.3078
phone	-10.308
▁iv	-10.3081
▁nachrichten	-10.3095
▁american	-10.3098
▁napoleon	-10.3099
▁1962	-10.31
▁tourismus	-10.3103
▁lautet	-10.3105
▁betont	-10.3106
▁kranken	-10.3108
▁abgeleitet	-10.3112
schuld	-10.3112
kauf	-10.3116
geht	-10.3117
gebung	-10.3125
▁werken	-10.3128
zahlung	-10.3128
▁goldenen	-10.3129
▁stuttgart	-10.313
▁gast	-10.3131
zehn	-10.3132
▁wappen	-10.3132
▁linken	-10.3133
▁ibm	-10.3136
▁wachsende	-10.3137
lum	-10.3141
▁kult	-10.3141
schwer	-10.3145
▁gesetze	-10.3147
▁eingestellt	-10.3152
▁sank	-10.3154
▁prag	-10.3155
amerikaner	-10.3161
▁eben	-10.3163
▁leer	-10.3169
▁ap	-10.3171
blatt	-10.3171
▁erfolgen	-10.3178
▁//	-10.3185
▁mode	-10.3189
▁hermann	-10.319
gesellschaften	-10.3192
mul	-10.3198
▁trag	-10.3199
▁...	-10.3213
▁zusammensetzung	-10.3216
waffen	-10.3219
▁bezieht	-10.3219
ray	-10.3226
▁strahlung	-10.3231
lek	-10.3231
▁umfassende	-10.3234
▁bedeutendsten	-10.3235
verbrauch	-10.3238
effizient	-10.324
▁ausgeprägt	-10.324
▁nürnberg	-10.324
▁zeitgenössische	-10.324
▁1956	-10.3241
▁1988	-10.3241
▁1947	-10.3242
▁act	-10.3245
▁alpen	-10.3247
bericht	-10.3251
produkte	-10.3251
▁vorstellungen	-10.3254
▁basel	-10.3258
▁sam	-10.3259
▁personal	-10.3261
▁systeme	-10.3262
möglichst	-10.3263
frau	-10.3266
▁endete	-10.3272
brand	-10.3273
▁chemisch	-10.3274
gefühl	-10.3276
rüstung	-10.3276
▁dampf	-10.328
ima	-10.3291
▁umgang	-10.3295
hafte	-10.3297
▁japanische	-10.33
▁ac	-10.33
▁ruf	-10.3302
▁positive	-10.3304
bor	-10.3307
▁konfession	-10.3312
▁schweden	-10.3312
▁befasst	-10.3312
▁eroberung	-10.3312
▁1974	-10.3313
▁verlegt	-10.3313
▁medium	-10.3313
▁kritiker	-10.3314
verhältnisse	-10.3315
wissenschaftler	-10.3319
▁kehrte	-10.3319
▁netzwerk	-10.3324
lik	-10.3325
▁filmen	-10.3325
▁abschluss	-10.3326
fra	-10.3332
▁jahrzehnte	-10.3333
▁mittleren	-10.3335
▁kenn	-10.3338
▁staatlichen	-10.334
▁mali	-10.3344
ska	-10.3346
▁voneinander	-10.3348
▁formuliert	-10.3348
▁richtig	-10.3348
▁verlassen	-10.3348
▁ausreichend	-10.335
▁höhepunkt	-10.3357
▁tour	-10.3365
▁küste	-10.3366
▁begründet	-10.3367
▁einiger	-10.3367
zieht	-10.337
brett	-10.3371
▁antwort	-10.3371
▁gelehrt	-10.3372
▁bindung	-10.338
▁mangel	-10.3381
gewächse	-10.3384
▁ausgebaut	-10.3385
▁kre	-10.3387
tis	-10.3387
cycl	-10.3389
mid	-10.339
motor	-10.3393
▁treffen	-10.3397
▁27	-10.34
mals	-10.34
europa	-10.3405
▁stra	-10.3407
post	-10.3411
sdorf	-10.3413
▁exp	-10.3414
▁besonderheit	-10.342
▁leibniz	-10.342
▁interpretation	-10.342
▁geriet	-10.342
▁beschrieb	-10.3421
▁übersetzt	-10.3422
tätig	-10.3424
▁basiert	-10.3429
▁schlüssel	-10.3434
▁meeres	-10.3437
rain	-10.3439
biografie	-10.344
▁zeitschrift	-10.3444
weich	-10.3447
geladen	-10.3453
unt	-10.3455
qua	-10.3455
▁gezählt	-10.3456
-1	-10.3457
münzen	-10.3457
▁termin	-10.3459
▁lehnte	-10.3463
▁lebten	-10.3463
▁alters	-10.3466
artikel	-10.3467
▁wahlen	-10.3468
sperr	-10.348
▁stoffe	-10.3481
▁wesentliche	-10.3483
▁katholischen	-10.3486
▁spiele	-10.3487
dimension	-10.3492
▁crowley	-10.3492
▁individuell	-10.3492
▁reichen	-10.3493
▁nennen	-10.3493
russ	-10.3495
▁programme	-10.3497
stheorie	-10.3499
▁fla	-10.35
konzept	-10.35
ati	-10.3501
▁erweiterung	-10.3502
▁science	-10.3504
▁mobil	-10.3506
▁leber	-10.3509
psych	-10.351
kohl	-10.351
gift	-10.351
▁lehrer	-10.3511
▁einwohnerzahl	-10.3519
mengen	-10.3519
geschrieben	-10.3524
▁lebewesen	-10.3529
▁schlug	-10.3529
▁1982	-10.353
▁latein	-10.353
oper	-10.3531
▁geistes	-10.3532
zwei	-10.3535
▁gesetzlich	-10.3535
▁absolute	-10.3535
dynamik	-10.3535
real	-10.3537
▁tages	-10.3537
▁konzentration	-10.3537
ativen	-10.3542
media	-10.3544
krankheit	-10.3547
schütz	-10.3553
▁tausend	-10.3557
▁lizenz	-10.3561
▁hardware	-10.3565
▁besaß	-10.3565
wälder	-10.3565
wertige	-10.3566
▁fortschritt	-10.3567
streifen	-10.3568
out	-10.3572
▁mir	-10.3573
computer	-10.3576
stimmen	-10.3576
▁angebot	-10.3582
▁männliche	-10.3583
rakete	-10.3584
▁solcher	-10.3586
haar	-10.3588
▁gespräch	-10.3589
▁sto	-10.3592
stift	-10.3595
xi	-10.3596
ona	-10.3597
▁kurs	-10.3601
▁komplexen	-10.3602
▁therapie	-10.3607
monat	-10.3609
wal	-10.3609
nacht	-10.3613
bezeichnung	-10.3618
ladung	-10.3619
gro	-10.3625
adresse	-10.3631
▁doppelt	-10.3634
uz	-10.3634
vest	-10.3637
▁belgien	-10.3639
▁verhindern	-10.3639
▁nickel	-10.364
▁griechische	-10.3643
100	-10.3645
▁ruhe	-10.3646
▁alles	-10.3647
▁36	-10.3657
▁genannte	-10.366
kommt	-10.3663
▁dürfen	-10.3666
▁kü	-10.3668
▁feucht	-10.3669
▁begriffs	-10.3669
▁mögliche	-10.367
▁offizielle	-10.3671
cd	-10.3673
▁afghanistan	-10.3676
kritische	-10.3676
▁angeblich	-10.3676
▁150	-10.3679
▁platon	-10.368
▁1900	-10.3681
▁professor	-10.3681
▁russisch	-10.3681
▁elektronische	-10.3683
▁wahrheit	-10.3683
▁dollar	-10.3684
pflege	-10.3687
sgebiet	-10.3693
▁konsum	-10.3695
csu	-10.3696
▁seltener	-10.37
▁spitze	-10.3702
▁orient	-10.3705
▁breiten	-10.3707
▁jeden	-10.371
▁periode	-10.3711
▁blick	-10.3712
▁generell	-10.3714
▁ufer	-10.3719
▁lateinische	-10.3722
▁griechisch	-10.3724
mitglieder	-10.3725
▁künstlerische	-10.3729
▁(16	-10.3749
▁epoche	-10.3751
▁1942	-10.3752
▁königlich	-10.3752
prozessor	-10.3759
▁funktions	-10.376
versuch	-10.376
▁leistung	-10.3764
▁verließ	-10.3766
nutzung	-10.3766
vereinigung	-10.3767
▁sur	-10.3776
▁hitlers	-10.3782
▁beschäftigte	-10.3783
übung	-10.3788
▁quadrat	-10.3789
▁1981	-10.3789
▁hersteller	-10.3789
stämme	-10.3789
▁katholische	-10.3796
▁city	-10.3802
sächsische	-10.381
▁forscher	-10.3812
▁180	-10.3812
▁rechner	-10.3813
server	-10.3816
▁photo	-10.3816
▁fahrzeug	-10.3817
▁prozesse	-10.3821
lösen	-10.3823
▁gestaltet	-10.3828
▁beitrag	-10.3829
▁mittlere	-10.3833
▁mur	-10.3835
unk	-10.3839
ago	-10.384
krimi	-10.3842
rent	-10.3844
datei	-10.3845
▁64	-10.3848
oide	-10.385
knoten	-10.3857
▁gekennzeichnet	-10.3863
▁hadrian	-10.3863
haben	-10.3864
friedhof	-10.3865
▁ursache	-10.3866
▁gl	-10.3867
oid	-10.3875
▁erkenntnisse	-10.388
strömung	-10.3881
fuhr	-10.3882
▁übertragung	-10.3888
stock	-10.3889
▁offiziellen	-10.3901
▁lüneburg	-10.3901
▁richtet	-10.3902
▁statistisch	-10.3902
▁vorgänger	-10.3902
fiz	-10.3903
▁schwere	-10.3904
▁niederschlag	-10.3905
▁auflage	-10.3913
▁wellen	-10.3913
elf	-10.3921
▁75	-10.3921
▁tiefe	-10.3922
▁fossil	-10.3923
dol	-10.3924
chemie	-10.3926
▁blätter	-10.3926
▁bevorzugt	-10.3939
▁1985	-10.394
▁voran	-10.3942
▁verstehen	-10.3943
▁kontext	-10.3943
▁bulgarische	-10.3945
▁bedarf	-10.3945
förmige	-10.3946
präsident	-10.3949
▁gesetzt	-10.3953
▁bewusstsein	-10.3954
homo	-10.3955
spor	-10.3958
fuß	-10.3959
▁mathematische	-10.3964
▁nördlichen	-10.3964
▁abbildung	-10.3964
▁wetter	-10.3975
▁vergangenheit	-10.3977
▁zürich	-10.3977
▁vorgesehen	-10.3977
▁vitamin	-10.3977
▁schuf	-10.3978
▁1966	-10.3979
▁1935	-10.3979
▁verliehen	-10.3979
▁östlichen	-10.3983
▁trennung	-10.3984
▁kaisers	-10.4
▁löste	-10.4001
▁neutral	-10.4003
prim	-10.401
konvention	-10.4015
▁hängt	-10.4016
▁eingerichtet	-10.4016
vater	-10.4016
feier	-10.4017
räte	-10.4017
▁fertiggestellt	-10.4017
▁hyper	-10.4017
block	-10.4017
▁exakt	-10.403
▁alternative	-10.4031
▁zeitweise	-10.4036
▁verständnis	-10.404
sichtig	-10.4041
▁bahnhof	-10.4048
scher	-10.4053
journal	-10.4054
▁entfernung	-10.4054
▁1976	-10.4055
▁auswirkungen	-10.4056
arabisch	-10.4058
moschee	-10.406
fix	-10.406
ini	-10.4064
sha	-10.4067
▁400	-10.4068
▁block	-10.4072
sozial	-10.4078
planet	-10.4078
palast	-10.4087
▁einzigen	-10.409
▁rezeption	-10.4092
sekretär	-10.4093
▁erhoben	-10.4093
▁identität	-10.4093
▁firma	-10.4093
gearbeitet	-10.4094
▁wirksam	-10.4095
▁unterschiede	-10.4095
▁vogel	-10.4096
▁vereinten	-10.4097
▁sofort	-10.4102
▁qu	-10.4113
▁zweifel	-10.4118
▁sonstige	-10.4119
rohr	-10.412
▁arzt	-10.4122
komödie	-10.4132
▁1967	-10.4133
element	-10.4133
▁bauern	-10.4134
▁gedenk	-10.4136
▁nordsee	-10.4138
tte	-10.4138
raub	-10.4139
drücke	-10.4145
▁spezifische	-10.4148
christ	-10.4154
▁frank	-10.4154
▁volumen	-10.4154
▁unterhalb	-10.4156
▁mitgliedern	-10.4162
▁organische	-10.4163
kw	-10.4165
dynastie	-10.417
▁gebräuchlich	-10.417
▁scheiterte	-10.417
kommando	-10.4171
▁flüssigkeit	-10.4171
muster	-10.4172
▁1934	-10.4172
▁1929	-10.4172
verteilung	-10.4173
maßnahmen	-10.4176
inhalt	-10.4177
▁christi	-10.4182
gno	-10.4187
▁möglichen	-10.4188
▁höhen	-10.4188
▁kongo	-10.4188
▁aufstieg	-10.4191
gam	-10.4192
präsidenten	-10.4195
orte	-10.4196
heute	-10.4199
kam	-10.4202
tür	-10.4203
▁quer	-10.4205
▁gegründete	-10.4205
▁1952	-10.4211
▁christliche	-10.4211
▁amtszeit	-10.4217
▁anime	-10.4224
lam	-10.4234
▁genetisch	-10.4234
monopol	-10.4235
ritz	-10.4235
▁container	-10.4241
til	-10.4243
litz	-10.4244
▁erstreckt	-10.4249
▁jetzt	-10.4249
▁1977	-10.425
▁alltag	-10.4254
stör	-10.426
flagge	-10.4261
▁schiffs	-10.4262
▁asien	-10.4262
phil	-10.4266
▁marine	-10.4266
englisch	-10.4267
▁planung	-10.4267
▁nachfolgend	-10.4269
spezifisch	-10.4271
▁stärke	-10.4273
▁beschlossen	-10.4286
▁quanten	-10.4287
▁helgoland	-10.4288
▁erklären	-10.4288
▁ermöglichen	-10.4289
▁1954	-10.4289
▁zuschauer	-10.429
▁1986	-10.429
herstellung	-10.4292
▁kontinent	-10.4295
▁zweit	-10.4299
▁münch	-10.43
aria	-10.4301
glieder	-10.4301
▁elektrischen	-10.4305
▁sonst	-10.4306
▁marie	-10.4307
▁fett	-10.4308
▁labor	-10.4312
zeichnen	-10.4313
▁renaissance	-10.4314
▁niederlage	-10.4314
▁auftritt	-10.4314
elli	-10.432
▁still	-10.4322
getreten	-10.4323
oskop	-10.4325
▁leipziger	-10.4326
▁oxid	-10.4328
▁erfüllt	-10.4329
spannung	-10.433
▁darmstadt	-10.433
▁brutto	-10.433
zunehmen	-10.4342
mandat	-10.4349
▁chinesischen	-10.4355
fiel	-10.4358
▁gesellschafts	-10.436
gewebe	-10.4361
therapie	-10.4362
▁sämtliche	-10.4367
▁württemberg	-10.437
▁scheint	-10.437
▁erfolge	-10.4371
▁(2	-10.4374
ström	-10.4376
▁bibel	-10.4378
▁klassen	-10.438
studie	-10.4381
▁stadtteile	-10.4382
▁musiker	-10.4383
▁augustus	-10.4389
▁jahrzehnten	-10.4393
philosophische	-10.4397
°	-10.4403
häusern	-10.4403
gelassen	-10.4404
▁nietzsche	-10.4407
plattform	-10.4407
▁dünn	-10.4407
▁heftig	-10.4407
▁1965	-10.4409
▁album	-10.4411
hänge	-10.4414
▁schließen	-10.4415
▁arc	-10.442
ction	-10.4426
▁wander	-10.4427
gehör	-10.4432
▁hy	-10.4434
▁ausgehend	-10.4436
▁app	-10.4438
graben	-10.4438
objekt	-10.4443
bestimmung	-10.4444
blüte	-10.4445
▁galilei	-10.4448
konstante	-10.4452
▁bekannteste	-10.4456
hum	-10.4457
▁änderung	-10.4458
bereiche	-10.4459
▁aldi	-10.4462
liga	-10.4473
▁knochen	-10.4481
mol	-10.4482
▁verhindert	-10.4487
verletzung	-10.4487
cia	-10.4487
▁konzentriert	-10.4488
▁1963	-10.4488
▁wechselwirkung	-10.4489
▁bewegen	-10.449
▁bildeten	-10.4493
▁quelle	-10.4495
nieder	-10.4501
▁wahrnehmung	-10.4508
loch	-10.451
▁gesundheits	-10.4511
▁aspekte	-10.4513
best	-10.4517
bilder	-10.4518
ult	-10.4518
▁ärzte	-10.4522
▁kontra	-10.4525
▁kommunal	-10.4527
güter	-10.4527
kaiser	-10.4527
norm	-10.4527
kühl	-10.4527
▁massiv	-10.4528
▁spuren	-10.4528
▁1936	-10.4529
▁planck	-10.4534
▁eck	-10.4538
▁design	-10.4542
zählung	-10.4547
hom	-10.4556
univers	-10.4563
top	-10.4565
walt	-10.4567
würfe	-10.4568
▁ammoniak	-10.4568
▁kroatien	-10.4568
▁zentimeter	-10.4568
▁zentralen	-10.4568
quartier	-10.4569
▁1932	-10.457
▁traditionellen	-10.4571
▁nutzte	-10.4574
geist	-10.4586
kind	-10.4588
programme	-10.4589
▁durchaus	-10.4591
▁summe	-10.4594
▁cal	-10.4602
gebrochen	-10.4609
▁1978	-10.461
gesagt	-10.461
wörter	-10.461
▁1964	-10.4611
▁geistige	-10.4618
oberfläche	-10.4623
hil	-10.4623
▁gespielt	-10.4624
▁turm	-10.4629
▁gelände	-10.4635
▁reduktion	-10.4637
▁trau	-10.4639
versicherung	-10.464
▁spar	-10.4642
▁wollen	-10.4642
▁tro	-10.4645
▁berechnet	-10.465
erhöhung	-10.465
▁tatsache	-10.465
▁telefon	-10.465
▁abgrenzung	-10.465
hügel	-10.465
▁bischof	-10.465
sturz	-10.4651
vögel	-10.4652
analyse	-10.4653
▁umgeben	-10.4654
▁nachfolge	-10.4655
▁anwendungs	-10.4658
▁bruch	-10.4661
verkehrs	-10.468
trakt	-10.4684
▁ergänzt	-10.4691
▁faraday	-10.4691
▁terror	-10.4691
▁universal	-10.4694
▁ausgangs	-10.4694
periode	-10.4694
▁mich	-10.4697
▁bereichen	-10.4706
fließ	-10.4709
mehr	-10.4711
▁iod	-10.4714
▁heim	-10.4719
▁modern	-10.4723
fenster	-10.4724
row	-10.4725
pd	-10.473
▁mechanik	-10.473
▁dänemark	-10.4732
▁kafka	-10.4732
statistik	-10.4732
vereinigte	-10.4732
▁gehirn	-10.4732
▁geometrie	-10.4732
▁mari	-10.4733
▁abhängigkeit	-10.4737
2"	-10.4738
häu	-10.4739
▁dinge	-10.4739
zuführen	-10.4739
wendung	-10.4745
▁religionen	-10.4751
▁religiösen	-10.4758
kult	-10.476
▁erkannte	-10.4761
▁griff	-10.4761
▁amerika	-10.4763
ato	-10.4768
▁ingenieur	-10.4768
▁einflüsse	-10.4768
istik	-10.4772
ico	-10.4772
▁enge	-10.4772
▁durfte	-10.4773
▁dominiert	-10.4773
▁erfindung	-10.4774
▁1957	-10.4774
geräte	-10.4777
▁münzen	-10.4779
trans	-10.4779
part	-10.4787
▁bat	-10.4788
▁erwachsene	-10.479
fur	-10.4793
▁geräte	-10.4798
▁treib	-10.4798
▁kaiserliche	-10.4799
▁etc	-10.4801
vorgänge	-10.4802
▁bürgerliche	-10.4803
knüpf	-10.4809
▁modelle	-10.481
yth	-10.4814
▁söhne	-10.4815
▁stickstoff	-10.4815
▁spätesten	-10.4815
▁leucht	-10.4815
▁erzeugen	-10.4818
▁zusammengefasst	-10.4818
▁anbau	-10.4821
▁/	-10.4822
malerei	-10.4825
▁atome	-10.4835
▁bestehende	-10.4841
gest	-10.4852
▁gleichnamige	-10.4856
▁publiziert	-10.4856
▁neckar	-10.4856
▁unendlich	-10.4858
duk	-10.4858
▁1914	-10.4858
lanz	-10.4862
gunsten	-10.4864
transformation	-10.4866
gebunden	-10.487
▁coburg	-10.487
▁kalk	-10.488
char	-10.4884
▁uran	-10.4885
▁direkte	-10.4891
gre	-10.4897
ordin	-10.4898
▁benutzer	-10.4898
▁unterteilt	-10.4899
▁amerikanische	-10.4899
▁zerstörung	-10.4899
▁mrd	-10.4899
hielt	-10.4902
▁erkannt	-10.4905
verhältnis	-10.4908
beamte	-10.4909
heilig	-10.4911
▁bezeichnen	-10.4913
cm	-10.4914
▁anna	-10.4918
tech	-10.4921
rey	-10.4922
▁kugel	-10.4927
gb	-10.4928
gewerkschaft	-10.4934
kreislauf	-10.4939
▁durchmesser	-10.4939
▁optisch	-10.494
schulen	-10.494
▁honecker	-10.494
▁hektar	-10.494
▁1958	-10.4941
witz	-10.4945
gue	-10.4947
▁währungs	-10.4948
▁goldene	-10.4949
fahrzeug	-10.4951
▁figuren	-10.4971
▁gattungen	-10.4973
bla	-10.4973
▁gestaltung	-10.4979
▁geh	-10.4982
▁zugänglich	-10.4982
▁systematik	-10.4982
▁behauptet	-10.4982
wellen	-10.4983
▁museen	-10.4983
▁gekommen	-10.4983
▁weltkriegs	-10.4985
▁methanol	-10.4987
▁funk	-10.4988
sänger	-10.499
▁hält	-10.499
▁hydro	-10.4991
omi	-10.4991
▁umsetzung	-10.4999
▁sha	-10.4999
▁aktuelle	-10.5003
▁bewohner	-10.5004
ella	-10.5005
landes	-10.501
▁alternativ	-10.5021
▁(15	-10.5022
gemüse	-10.5025
▁gefördert	-10.5025
▁darwin	-10.5028
▁gewinnung	-10.5033
▁dach	-10.5042
phys	-10.5043
onym	-10.5044
stehen	-10.5045
▁wissenschafts	-10.5047
▁gipfel	-10.5049
sätzen	-10.5049
rolle	-10.5058
▁digitale	-10.5061
interpret	-10.5066
▁medici	-10.5067
▁gleichung	-10.5068
▁fleisch	-10.507
kur	-10.5072
geb	-10.5073
regeln	-10.5077
thon	-10.5078
▁pra	-10.5078
▁qua	-10.5083
▁längere	-10.5084
▁bezeichnungen	-10.5085
▁historiker	-10.5088
▁comic	-10.509
gemäß	-10.5091
truppe	-10.5092
▁farben	-10.5096
▁jan	-10.5096
▁begannen	-10.5105
▁sä	-10.5105
▁kontinuierlich	-10.511
▁gemein	-10.5112
branche	-10.5116
▁grammatik	-10.5116
▁schmelz	-10.5119
stru	-10.512
▁bereiche	-10.5121
artig	-10.5122
▁frankreichs	-10.5124
▁jugendliche	-10.5126
▁koran	-10.5127
▁maße	-10.5128
▁ursprünglichen	-10.5128
▁flüsse	-10.513
fällen	-10.513
▁universitäts	-10.5134
▁betriebs	-10.5136
▁münz	-10.5137
▁hochschule	-10.5138
höhle	-10.5139
▁genaue	-10.5139
alisierung	-10.514
▁wurzel	-10.5142
▁lokale	-10.5146
▁rechtlich	-10.5146
symbol	-10.5146
▁these	-10.5153
▁gustav	-10.5153
▁erwies	-10.5155
▁systems	-10.5155
▁niedriger	-10.5157
▁polnische	-10.5157
▁dean	-10.5163
ria	-10.5163
kra	-10.5165
▁schau	-10.5184
sicherung	-10.5185
deutscher	-10.5193
▁marken	-10.5193
subjekt	-10.5196
▁kulturellen	-10.5197
▁lernte	-10.5197
▁geschützt	-10.5198
liegende	-10.5198
▁wolf	-10.5198
▁mitteleuropa	-10.5198
▁steigende	-10.5201
▁mais	-10.5205
▁landschaft	-10.5206
ua	-10.5207
▁verläuft	-10.5208
flor	-10.5208
▁grönland	-10.521
▁physikalische	-10.5214
herzog	-10.5219
▁politiker	-10.5235
▁million	-10.5236
▁funde	-10.5237
gefasst	-10.5238
arbeiter	-10.5239
propaganda	-10.5239
▁ausgerichtet	-10.524
gne	-10.5265
▁übergangs	-10.5266
▁kal	-10.5267
▁schweren	-10.5273
▁hessen	-10.5278
▁verbot	-10.5279
▁hinein	-10.5281
▁1925	-10.5285
▁gewerbe	-10.5286
▁rückkehr	-10.5287
▁erlangte	-10.5287
frist	-10.5294
▁rohstoff	-10.53
macher	-10.5301
▁schichten	-10.5307
▁gewissen	-10.5315
▁polar	-10.5319
bühne	-10.5323
▁fehlt	-10.5325
▁immun	-10.5326
▁chávez	-10.5326
▁1926	-10.5328
konzern	-10.5329
▁identisch	-10.5331
▁top	-10.5331
▁morgen	-10.5337
▁zugelassen	-10.5338
einnahmen	-10.534
▁rö	-10.534
▁zeitlich	-10.5343
▁erhielten	-10.5348
▁gew	-10.5351
architektur	-10.5351
▁bou	-10.5354
▁kleineren	-10.536
▁informatik	-10.5361
fluorid	-10.5362
tyr	-10.5363
▁nahmen	-10.5369
stall	-10.5375
▁absolut	-10.5375
▁negative	-10.5375
▁bü	-10.5378
▁faktor	-10.5378
▁bezogen	-10.5379
▁schalt	-10.5383
▁preise	-10.5389
▁natürlich	-10.5392
nitz	-10.5392
wachstum	-10.5395
spitze	-10.54
spruch	-10.5401
▁pariser	-10.5407
▁gewässer	-10.5407
kenntnisse	-10.5414
▁cosimo	-10.5414
▁helsinki	-10.5414
▁kalifornien	-10.5414
▁algorithmus	-10.5414
▁häufiger	-10.5415
▁1951	-10.5416
▁bedeutenden	-10.5416
▁demokratischen	-10.5418
▁erhöhte	-10.5418
▁fernsehen	-10.542
belastung	-10.542
avi	-10.5424
kus	-10.5426
ppel	-10.5427
ong	-10.5427
▁meister	-10.5428
▁umgesetzt	-10.5428
formel	-10.5429
strecken	-10.543
▁glück	-10.543
artigen	-10.5431
kali	-10.5438
medizin	-10.544
verlust	-10.5444
big	-10.5447
gesprochen	-10.5452
▁schneller	-10.5453
▁legitim	-10.5459
▁chaplin	-10.5459
▁erkennbar	-10.5459
protokoll	-10.5459
▁verpflichtet	-10.5459
▁automatisch	-10.5462
▁hauptrolle	-10.5463
spreng	-10.5464
erfolg	-10.5466
union	-10.5468
▁zweier	-10.5469
geleitet	-10.547
▁misch	-10.5473
▁elektromagnet	-10.5476
▁nachfrage	-10.5476
▁stich	-10.5479
▁ansatz	-10.548
▁eli	-10.5492
information	-10.5494
▁haltung	-10.5495
▁einteilung	-10.5499
▁ordens	-10.5501
▁schwarzen	-10.5501
diktatur	-10.5503
▁alfred	-10.5503
▁eingeschränkt	-10.5503
rio	-10.5503
streben	-10.5504
▁vergleichsweise	-10.5506
komitee	-10.5507
ory	-10.5507
rennen	-10.5512
leb	-10.5515
arische	-10.5526
ér	-10.5529
zusammen	-10.5532
▁genauer	-10.5534
▁institutionen	-10.5535
gegenstände	-10.554
▁600	-10.5541
▁apollo	-10.5548
▁eiffelturm	-10.5548
▁ungarn	-10.5548
gebieten	-10.5549
▁1924	-10.5549
▁variante	-10.5552
bol	-10.5556
▁island	-10.5556
▁vorläufer	-10.5558
est	-10.556
▁fehlen	-10.5565
▁ausgeführt	-10.5567
▁aufgelöst	-10.5567
▁nr	-10.5568
▁kata	-10.5568
▁neuro	-10.5569
▁quell	-10.5569
▁regelung	-10.557
▁fehl	-10.5574
▁teilnehmer	-10.5578
vorgang	-10.558
tätigkeit	-10.5582
geworfen	-10.5592
▁beobachten	-10.5592
▁verurteilt	-10.5593
klinik	-10.5593
▁stütz	-10.5593
▁besch	-10.5594
▁wolfgang	-10.5594
▁fels	-10.5594
▁trotzdem	-10.5599
▁anordnung	-10.5602
▁kleinste	-10.5607
▁mittelpunkt	-10.5607
▁geographie	-10.5613
of	-10.5613
air	-10.5614
lz	-10.5615
▁magnet	-10.5617
▁tim	-10.5619
▁festung	-10.5622
schmelz	-10.5625
pek	-10.5627
izi	-10.5628
▁aufenthalt	-10.563
▁kindern	-10.5633
▁1,5	-10.5635
potential	-10.5638
▁habermas	-10.5638
▁vernunft	-10.5638
▁muslime	-10.5638
▁nahrungs	-10.5638
▁räumlich	-10.5638
▁1959	-10.5639
can	-10.5644
▁gegenseitig	-10.5649
verfilmung	-10.565
▁fotografie	-10.566
▁erzähl	-10.5662
▁wh	-10.5663
▁hö	-10.5663
▁enzyklopädie	-10.5668
zweck	-10.5671
▁dick	-10.5677
▁ließen	-10.5683
▁adolf	-10.5683
▁osmanische	-10.5683
▁1937	-10.5684
register	-10.5685
▁eröffnete	-10.5685
▁bewegt	-10.5685
▁bip	-10.5688
▁gegenwart	-10.5692
▁aktivitäten	-10.5695
▁bush	-10.5697
ville	-10.57
fragen	-10.57
▁temp	-10.5702
▁gegründeten	-10.5702
▁begründete	-10.5703
funktionen	-10.5706
▁eigener	-10.5718
▁papier	-10.5721
abschnitt	-10.5726
▁konkurrenz	-10.5728
verzeichnis	-10.5728
▁academy	-10.5728
▁angepasst	-10.5728
▁lynch	-10.5728
▁zwerg	-10.5728
▁akzeptiert	-10.5729
▁indischen	-10.5736
zell	-10.5738
gat	-10.5738
zykl	-10.5739
schul	-10.5741
folgen	-10.5744
▁einflussreich	-10.5744
▁reaktionen	-10.5748
▁athen	-10.5748
▁landschafts	-10.5752
▁wandte	-10.5752
historische	-10.5754
opti	-10.5756
▁demokratische	-10.5756
▁äußeren	-10.5756
▁fränkische	-10.5759
▁beschloss	-10.5759
▁han	-10.576
▁mecklenburg	-10.5774
▁berücksichtigt	-10.5774
▁gewöhnlich	-10.5774
▁wehrmacht	-10.5775
▁1923	-10.5775
angebot	-10.5776
▁erdöl	-10.5777
▁varianten	-10.5778
▁schreibweise	-10.5779
▁haft	-10.5787
▁auswahl	-10.5793
▁evangelischen	-10.5796
ausschuss	-10.5797
ept	-10.5798
öll	-10.5802
▁orte	-10.5802
▁kongress	-10.5806
▁aufweisen	-10.581
transport	-10.5813
essel	-10.5813
▁edel	-10.5816
frieden	-10.5819
▁800	-10.5819
▁pakistan	-10.582
▁verbesserung	-10.582
anbieter	-10.582
ifizierung	-10.5821
▁russischen	-10.5823
▁rathaus	-10.5823
sprachige	-10.5827
iro	-10.5827
▁schluss	-10.5827
kriege	-10.5829
▁sagte	-10.5832
▁auseinander	-10.5832
▁hände	-10.5832
beruf	-10.5834
▁erlebte	-10.5837
▁angewandt	-10.5838
gesund	-10.584
▁dorf	-10.5841
▁leser	-10.5845
gründung	-10.5845
▁dank	-10.5846
drei	-10.5847
urteil	-10.585
bedarf	-10.5859
haften	-10.586
▁leo	-10.5862
vielfalt	-10.5866
▁scharf	-10.5866
▁kirch	-10.5867
▁1928	-10.5867
infektion	-10.5868
dichtung	-10.5872
eigenschaft	-10.5884
ary	-10.5884
▁theorien	-10.5886
meer	-10.5886
bur	-10.5886
metrisch	-10.5886
▁leistungs	-10.5891
▁lesen	-10.5892
▁zusatz	-10.5902
▁lind	-10.5905
handwerk	-10.5908
▁maler	-10.5912
▁dinosaurier	-10.5912
▁kontrovers	-10.5912
▁spätantike	-10.5912
▁verfügen	-10.5912
farben	-10.5913
bot	-10.5913
▁barock	-10.5914
schäden	-10.5914
▁nahrungsmittel	-10.5914
▁gauß	-10.5915
rumpf	-10.5915
▁politischer	-10.5919
bearbeitung	-10.592
seh	-10.5921
▁beschreiben	-10.5924
▁elementen	-10.5928
▁hamburger	-10.5937
räumen	-10.5941
platte	-10.5942
▁serien	-10.5942
▁sicherheit	-10.5944
illi	-10.5954
automat	-10.5958
▁kammer	-10.5958
▁umbenannt	-10.5959
▁besiedelt	-10.5959
▁rudolf	-10.5959
admiral	-10.5959
▁freiwillig	-10.5959
▁betrachtung	-10.5959
▁ansässig	-10.5959
▁müsse	-10.5964
▁juristische	-10.5965
▁veranstaltungen	-10.5969
alismus	-10.5969
▁schützen	-10.5975
gestaltung	-10.5982
fug	-10.5988
stärkste	-10.6002
▁front	-10.6003
beiträge	-10.6005
ehrendoktor	-10.6005
▁unterstützen	-10.6005
gläubige	-10.6005
▁verarbeitet	-10.6006
▁muskel	-10.6006
mönch	-10.6007
▁wirklichkeit	-10.6009
▁süß	-10.6009
wurf	-10.6013
beziehung	-10.6013
relation	-10.6014
box	-10.6017
▁handelte	-10.6022
7"	-10.6023
▁sprecher	-10.6025
▁richter	-10.6029
allergie	-10.6029
▁hinweis	-10.603
mahl	-10.604
charakteristisch	-10.6041
▁beobachtungen	-10.6043
▁adam	-10.6043
▁pläne	-10.6045
hall	-10.6046
▁camp	-10.6049
▁mathematischen	-10.6051
hersteller	-10.6051
▁bell	-10.6051
▁plural	-10.6052
▁brandenburg	-10.6052
byte	-10.6053
▁reisen	-10.6053
brüche	-10.6053
▁bisherigen	-10.6054
▁offenen	-10.6056
kant	-10.6057
▁jener	-10.6059
▁sterne	-10.606
–17	-10.6061
funk	-10.6063
▁100.000	-10.6068
▁präsentiert	-10.6068
▁bezirks	-10.6074
zeile	-10.6076
▁erhard	-10.6077
nova	-10.6079
via	-10.6081
▁beobachtung	-10.6082
▁gründe	-10.6085
▁auge	-10.6087
▁spitzen	-10.6087
▁unterstützte	-10.6088
▁server	-10.6088
1"	-10.6092
kolleg	-10.6093
▁proto	-10.6093
quellen	-10.6096
akte	-10.6097
▁mädchen	-10.61
gebirgs	-10.61
kriterien	-10.61
▁college	-10.61
brunnen	-10.61
umwandlung	-10.61
▁zoll	-10.61
▁theo	-10.6102
pfarr	-10.6103
sieg	-10.6106
▁bedeutendste	-10.6106
brach	-10.6107
▁aufklärung	-10.6112
vision	-10.6114
▁wehr	-10.6116
▁entsprechen	-10.6116
verordnung	-10.6121
▁schreibt	-10.6123
▁ziele	-10.6124
▁prozessor	-10.6125
▁rock	-10.6127
▁ele	-10.6128
▁aktuellen	-10.6131
freien	-10.6139
türme	-10.6141
orchester	-10.6147
▁jagd	-10.6147
▁gezielt	-10.6148
▁bestehenden	-10.6149
▁nikolaus	-10.615
▁spin	-10.6151
▁aktive	-10.6152
▁albrecht	-10.6154
▁organisationen	-10.6157
▁traditionelle	-10.616
key	-10.6164
wüste	-10.6172
work	-10.6174
▁begleitet	-10.6176
▁brüder	-10.6176
▁veränderung	-10.6183
▁nation	-10.6183
verfassung	-10.6183
germanische	-10.6189
▁wien	-10.6189
berechtigt	-10.619
uff	-10.619
▁mä	-10.6191
▁istanbul	-10.6195
▁herren	-10.6195
batterie	-10.6196
▁kooperation	-10.6196
▁stetig	-10.6198
philosophie	-10.62
▁eigentlichen	-10.62
front	-10.6204
▁fehlende	-10.6207
türk	-10.6208
rup	-10.621
▁beteiligung	-10.6211
▁wiener	-10.6211
scheibe	-10.622
▁vaters	-10.6221
▁gnu	-10.6225
▁förderung	-10.6226
3"	-10.6228
▁jahrtausend	-10.6234
▁punkte	-10.6239
▁echte	-10.6241
▁suchte	-10.6242
▁australien	-10.6242
▁detail	-10.6242
▁vertrieben	-10.6244
afrikanische	-10.6244
instrument	-10.6246
▁bundesregierung	-10.6249
▁niederländische	-10.6251
▁angebaut	-10.6252
▁ada	-10.6254
▁merkur	-10.6254
▁bakterien	-10.6257
▁erstellt	-10.6257
▁krankheiten	-10.6258
mont	-10.6259
▁institution	-10.6262
▁ortsteil	-10.6263
cor	-10.6264
▁liberale	-10.6267
▁knoten	-10.6268
▁liga	-10.6276
▁setzen	-10.6279
▁mars	-10.6282
▁toten	-10.6283
▁darm	-10.6286
▁nahrung	-10.6288
▁abgelehnt	-10.629
▁empfang	-10.629
verständlich	-10.629
▁gaulle	-10.6291
▁krypto	-10.6291
▁aussprache	-10.6293
onne	-10.6295
▁team	-10.6295
schmerz	-10.6296
▁umfassen	-10.63
▁adress	-10.6302
gewalt	-10.6305
ish	-10.6305
▁faktoren	-10.6308
▁gesetzes	-10.6313
teur	-10.6313
▁begleit	-10.6315
tol	-10.6316
▁verg	-10.632
schöpfung	-10.6321
▁laufen	-10.633
asso	-10.6332
▁vollständige	-10.6334
▁bände	-10.6336
gemisch	-10.6337
▁arabische	-10.6337
anthrop	-10.6338
katastrophe	-10.6339
▁explizit	-10.6339
▁halbwertszeit	-10.6339
▁leeuwenhoek	-10.6339
▁debatte	-10.6339
▁vermehrt	-10.6339
fliegen	-10.6339
▁hinweise	-10.6341
verträge	-10.6341
sendung	-10.6342
▁gauck	-10.6343
▁ermöglichte	-10.6344
zentral	-10.6347
strecke	-10.6353
ausstellung	-10.6353
gard	-10.6357
▁ok	-10.6357
▁gelangte	-10.6362
▁zins	-10.6377
sgrad	-10.6382
▁world	-10.6387
▁verbindet	-10.6387
▁babylon	-10.639
▁1910	-10.6391
▁inhaltlich	-10.6394
frucht	-10.6396
hauses	-10.6398
stellte	-10.6399
▁brücken	-10.6405
▁nutz	-10.641
sky	-10.6419
4)	-10.642
fä	-10.6427
beispiel	-10.6429
▁initiative	-10.643
▁lü	-10.6434
▁archäologische	-10.6436
pra	-10.644
▁botschaft	-10.6441
bahnhof	-10.6449
öffnung	-10.6451
▁bir	-10.6451
verbot	-10.6452
▁linke	-10.6457
▁handlungs	-10.6459
▁angeordnet	-10.6461
▁schwarze	-10.6462
;/	-10.6463
ifi	-10.6465
german	-10.6468
aw	-10.6468
▁(3	-10.6472
▁privaten	-10.6473
lux	-10.6475
▁tieren	-10.6477
▁himmler	-10.6485
▁jüngste	-10.6485
▁interessiert	-10.6485
▁größtenteils	-10.6485
▁sig	-10.6488
schuss	-10.6491
französisch	-10.6496
▁bewirkt	-10.6496
qualität	-10.6497
▁wurzeln	-10.6499
▁schriftlich	-10.6501
▁zweiter	-10.6502
▁grüne	-10.6506
▁wid	-10.6508
▁versehen	-10.6511
wähl	-10.6513
luc	-10.6514
▁aufgestellt	-10.6514
kurz	-10.6517
▁sciences	-10.6519
▁oberflächen	-10.652
▁foto	-10.6527
ziffer	-10.6531
basierte	-10.6532
▁frühmittelalter	-10.6534
▁ermordet	-10.6534
▁kontrolliert	-10.6537
▁passiv	-10.6538
▁bundesstaat	-10.6542
fiction	-10.6543
▁besonderen	-10.6543
▁überlieferung	-10.6547
einrichtungen	-10.6548
▁teu	-10.655
▁ökonomische	-10.655
standort	-10.6556
▁atlantik	-10.6557
kopie	-10.6563
▁vereinigung	-10.6563
▁flucht	-10.6565
sprachlich	-10.6567
▁abbau	-10.6567
rest	-10.6567
▁ziehen	-10.6573
stationen	-10.6573
ira	-10.6574
▁regiert	-10.6578
9"	-10.6582
▁nordamerika	-10.6583
▁algerien	-10.6584
▁christoph	-10.6584
▁offizier	-10.6585
▁aufgeführt	-10.6586
tunnel	-10.6586
▁flügel	-10.6586
▁angesicht	-10.6587
grab	-10.6588
▁figur	-10.6591
theoretisch	-10.6598
signal	-10.6599
international	-10.6599
saal	-10.6603
regen	-10.6605
▁ausgebildet	-10.6606
▁realisiert	-10.6606
▁vorgeschlagen	-10.6613
▁ursachen	-10.6615
▁tar	-10.6617
▁10.000	-10.6621
▁überleben	-10.6623
ländische	-10.6625
▁kanal	-10.6628
sequenz	-10.6632
▁luftschiff	-10.6633
/20	-10.6634
▁firmen	-10.6634
▁steigt	-10.6637
▁comics	-10.664
▁öko	-10.6643
▁drehte	-10.6647
volk	-10.665
tausend	-10.6652
▁schauspiel	-10.6653
boden	-10.6654
hilf	-10.666
iff	-10.6664
▁sul	-10.6666
anzeige	-10.6674
▁partner	-10.6674
▁freunde	-10.6674
klima	-10.6675
▁kölner	-10.6682
▁schwefel	-10.6682
▁winkel	-10.6683
gefügt	-10.6684
kampagne	-10.6684
▁zustimmung	-10.6684
▁franzosen	-10.6685
▁1921	-10.6685
▁wege	-10.6692
▁austausch	-10.6697
übertragung	-10.6701
hebung	-10.6702
antwort	-10.6703
▁abteilung	-10.6705
▁elbe	-10.6707
0"	-10.6715
▁alliierten	-10.6717
▁wirkte	-10.6717
▁literarische	-10.6719
▁weiße	-10.672
▁ban	-10.6722
▁sterbe	-10.6723
▁gramm	-10.6723
1)	-10.6726
asiatisch	-10.6729
▁leitet	-10.6729
▁stellten	-10.6732
▁maur	-10.6733
▁erwärmung	-10.6734
▁millimeter	-10.6734
▁jakob	-10.6734
mündung	-10.6738
skala	-10.6741
▁absicht	-10.6742
▁geographische	-10.6743
▁verbrachte	-10.6744
▁fat	-10.6746
▁zahn	-10.6749
▁früchte	-10.675
▁weißen	-10.675
technologie	-10.6753
verständnis	-10.6753
▁bauten	-10.6753
fehler	-10.6753
▁rational	-10.6757
▁büro	-10.6759
5"	-10.6761
röhre	-10.6764
▁effektiv	-10.6766
▁sende	-10.6766
uri	-10.6767
geschlossen	-10.6775
mikroskop	-10.678
▁entsprach	-10.678
▁stadtrat	-10.6781
▁physikalischen	-10.6784
membran	-10.6784
▁protestantische	-10.6785
▁fri	-10.6785
▁wahrgenommen	-10.6786
integr	-10.6791
▁wählte	-10.6791
▁prägte	-10.6791
hara	-10.6794
aire	-10.6799
▁fraktion	-10.68
▁leistungen	-10.6804
konstruktion	-10.6811
board	-10.6812
▁wollten	-10.6818
▁dreieck	-10.6818
▁pyr	-10.6821
▁nar	-10.6823
▁oberste	-10.6824
▁ursprüngliche	-10.6829
strafe	-10.6829
▁erdbeben	-10.6835
▁erinnert	-10.6835
▁tulpen	-10.6835
▁friedrichshafen	-10.6835
gründen	-10.6835
▁dreharbeiten	-10.6836
▁brust	-10.6837
blei	-10.6837
▁davis	-10.6838
400	-10.6838
▁freundschaft	-10.684
▁hesse	-10.6841
lé	-10.6842
▁ermittelt	-10.6842
ielle	-10.6842
▁direktor	-10.6848
gäste	-10.6848
▁"„	-10.6851
▁landtag	-10.6854
rede	-10.6854
▁basketball	-10.6859
▁krone	-10.6864
▁italienische	-10.6869
gewinnung	-10.6872
▁leichter	-10.6874
schnittstelle	-10.6878
▁lokalen	-10.688
▁vorgehen	-10.688
▁dürfte	-10.6886
expedition	-10.6886
▁online	-10.6887
▁streitkräfte	-10.6887
▁interpretiert	-10.6887
▁naturschutz	-10.689
▁afrikanischen	-10.6892
geographi	-10.6892
astro	-10.6892
▁schwerer	-10.6898
edit	-10.69
▁magnetische	-10.6902
▁einstellung	-10.6902
▁olympische	-10.6908
▁nutzt	-10.6913
▁mc	-10.6914
▁spanischen	-10.6933
wasserstoff	-10.6933
flüge	-10.6933
▁vergeben	-10.6937
▁universum	-10.6938
▁unterricht	-10.6939
▁halbinsel	-10.6943
hag	-10.6947
▁menschheit	-10.6947
inseln	-10.696
frequenz	-10.6963
▁service	-10.6964
brief	-10.6964
▁feder	-10.697
▁bedroht	-10.6989
▁ungewöhnlich	-10.6989
demonstration	-10.6989
▁faktisch	-10.6989
▁gespeichert	-10.6989
▁darum	-10.6989
▁studierte	-10.699
geliefert	-10.6991
▁vermittelt	-10.6992
prägung	-10.6993
▁herausgegeben	-10.6993
▁oberhalb	-10.6994
▁besetzung	-10.6995
▁moment	-10.6998
▁festgestellt	-10.7
quote	-10.7003
▁experimente	-10.7005
▁bäume	-10.7008
▁äußere	-10.7009
▁beginnend	-10.7012
iel	-10.7015
konsul	-10.7016
befehl	-10.7016
▁kroatische	-10.7016
situation	-10.7017
flüsse	-10.7022
läuft	-10.7026
höfe	-10.7035
▁heide	-10.7037
▁abgeordneten	-10.7037
gelenk	-10.7039
▁griechen	-10.704
gibt	-10.7041
▁sed	-10.7041
schließung	-10.7041
▁premierminister	-10.7041
▁wunsch	-10.7041
anspruch	-10.7041
▁henry	-10.7042
▁zugrunde	-10.7045
▁enthielt	-10.7045
runde	-10.7048
▁250	-10.7051
wirbel	-10.7053
▁free	-10.7066
▁chinesische	-10.707
▁beziehen	-10.7071
wing	-10.7072
leid	-10.7072
▁erscheinung	-10.7075
▁wirklich	-10.7077
▁ladung	-10.7078
rassen	-10.7079
8"	-10.7092
▁empirisch	-10.7093
▁unklar	-10.7093
häfen	-10.7094
▁widerspruch	-10.7094
angriff	-10.7096
▁erdgas	-10.7097
linguist	-10.7097
▁oftmals	-10.7097
▁studieren	-10.7104
▁(14	-10.7104
▁ablauf	-10.7105
▁back	-10.7106
▁exil	-10.7109
▁takt	-10.7112
▁frankfurter	-10.7117
▁seither	-10.7119
▁gebraucht	-10.712
ash	-10.7123
wahrscheinlich	-10.7123
dom	-10.7125
▁erich	-10.7125
▁entschied	-10.713
▁weltkrieges	-10.7131
mitte	-10.7138
▁aminosäuren	-10.7143
lehrer	-10.7144
▁beherrscht	-10.7145
▁geändert	-10.7145
▁geblieben	-10.7145
fragment	-10.7145
▁isoliert	-10.7145
▁lieder	-10.7156
▁stadtbezirk	-10.7159
schrieb	-10.7173
play	-10.7173
heil	-10.7179
▁ausgeschlossen	-10.7179
fährt	-10.7186
fotograf	-10.7188
▁änderungen	-10.7188
▁gelegene	-10.7192
▁geistliche	-10.7194
abkommen	-10.7194
▁sw	-10.7195
▁allmählich	-10.7198
▁kilogramm	-10.7198
▁riefenstahl	-10.7198
▁vermeiden	-10.7198
▁philosophen	-10.7198
operation	-10.7199
▁1922	-10.72
▁kairo	-10.72
▁wähler	-10.72
läufe	-10.7203
▁schauspielerin	-10.7203
▁abgelöst	-10.7206
▁aires	-10.7208
schlüssel	-10.7209
▁drama	-10.7219
kleidung	-10.722
▁größen	-10.722
▁speziellen	-10.7222
▁erwerb	-10.7222
▁strecken	-10.7225
bedingt	-10.7227
▁muster	-10.723
glück	-10.7237
▁mol	-10.724
▁endlich	-10.7249
gemälde	-10.7251
empfindlich	-10.7251
▁anpassung	-10.7251
stadion	-10.7251
▁einkommen	-10.7253
▁rundfunk	-10.7254
gefallen	-10.7255
▁konrad	-10.7257
▁anstieg	-10.726
▁gefäß	-10.726
zyklus	-10.7261
▁verteilung	-10.7262
▁gerät	-10.7263
▁dortmunder	-10.7265
uli	-10.7265
▁entschieden	-10.7267
▁kurfürsten	-10.727
revolutionäre	-10.727
zins	-10.7275
▁unterzeichnet	-10.7276
▁grafik	-10.728
hop	-10.7281
▁lösen	-10.7282
uenos	-10.7283
unterricht	-10.7286
bezogen	-10.7287
▁gesteins	-10.7288
dreh	-10.7291
▁geologisch	-10.7301
▁modul	-10.7303
deckung	-10.7303
▁bemüht	-10.7304
▁marokko	-10.7304
▁hieß	-10.7304
▁bedient	-10.7304
bismarck	-10.7304
▁sprachgebrauch	-10.7305
▁dicht	-10.7305
▁zurückzuführen	-10.7309
▁kanzler	-10.731
▁koch	-10.7313
▁zug	-10.7313
holt	-10.7315
▁seele	-10.7315
▁reformation	-10.7321
ergebnisse	-10.7333
▁cholesterin	-10.7335
▁technologie	-10.7338
republik	-10.7338
denken	-10.7345
▁gemeint	-10.7349
mobil	-10.7349
prov	-10.7354
án	-10.7355
▁führenden	-10.7355
▁insekten	-10.7357
▁high	-10.7358
▁1927	-10.7359
▁turing	-10.736
▁ämter	-10.7361
hai	-10.7368
quant	-10.7371
▁westliche	-10.7371
plus	-10.7377
▁kreisfreie	-10.7378
paket	-10.7378
▁gesundheit	-10.7379
▁lebensjahr	-10.738
got	-10.738
▁abkommen	-10.7385
▁residenz	-10.7388
axiom	-10.7388
▁irr	-10.739
▁präsent	-10.7394
▁nachhaltig	-10.74
▁fortan	-10.74
▁ausbreitung	-10.7411
▁stieß	-10.7411
▁tschech	-10.7411
▁abkürzung	-10.7423
trick	-10.7425
▁mangan	-10.7428
▁geleitet	-10.7433
bilanz	-10.7433
mauer	-10.7433
schale	-10.7434
▁ev	-10.7434
▁gelegenen	-10.7434
tischer	-10.7438
busse	-10.744
but	-10.7441
schreiben	-10.7444
▁luther	-10.7444
ehemals	-10.7447
genossen	-10.7458
▁setzten	-10.7459
elektrizität	-10.7465
▁getroffen	-10.7465
▁lincoln	-10.7465
▁synonym	-10.7465
▁gebet	-10.7467
▁hauptbahnhof	-10.7468
endung	-10.7471
mangel	-10.7471
▁enorm	-10.7473
▁äußerte	-10.7473
aufführung	-10.7474
▁kabinett	-10.7477
6"	-10.7477
fahr	-10.748
gelagert	-10.7483
banknote	-10.7484
gerichtshof	-10.7492
lücke	-10.7492
▁rheinland	-10.7493
▁küche	-10.7496
_8	-10.7503
lippe	-10.7504
größte	-10.7508
▁wil	-10.7508
▁geschehen	-10.7509
▁kirchliche	-10.7511
darstellung	-10.7512
verleih	-10.7512
▁impuls	-10.7514
▁lebenden	-10.7515
▁gö	-10.7517
▁nom	-10.7517
▁bosnien	-10.752
▁libyen	-10.752
▁heroin	-10.752
▁erwartet	-10.752
▁erfasst	-10.752
▁theodor	-10.752
göttin	-10.7521
▁radioaktive	-10.7521
richtlinie	-10.7521
glas	-10.7521
▁bauwerke	-10.7522
max	-10.7529
reichste	-10.7533
▁belegte	-10.7534
▁kapazität	-10.7538
▁briten	-10.754
▁jack	-10.7542
▁gelöst	-10.7553
darm	-10.7555
▁siedlungs	-10.7557
▁institute	-10.7563
variante	-10.7564
hält	-10.7571
▁angesiedelt	-10.7574
▁konstantinopel	-10.7574
rezeptor	-10.7574
▁bloß	-10.7574
▁tendenz	-10.7575
▁angola	-10.7575
▁indirekt	-10.7575
▁konsonanten	-10.7576
▁qui	-10.759
▁experimentell	-10.7593
▁kaiserreich	-10.7594
▁gründer	-10.7594
dach	-10.7597
▁woche	-10.7598
▁legt	-10.7607
▁merkmal	-10.7612
klassen	-10.7612
▁vertrat	-10.7617
molekül	-10.762
software	-10.7621
krebs	-10.7621
bundesliga	-10.7627
▁musical	-10.7628
▁schopenhauer	-10.7629
▁dönitz	-10.7629
▁linné	-10.7629
medaille	-10.7629
▁sum	-10.7629
▁pierre	-10.7629
▁indigo	-10.7634
zügen	-10.7635
▁finnische	-10.7643
▁elb	-10.7645
melde	-10.7647
▁nm	-10.7648
lagerung	-10.7656
▁henri	-10.7657
uit	-10.7657
▁markiert	-10.7658
massen	-10.7665
waffe	-10.7667
▁club	-10.767
bir	-10.7678
▁unsere	-10.7682
▁mexiko	-10.7684
▁zeppelin	-10.7684
▁habsburg	-10.7684
jiddisch	-10.7684
▁gesichert	-10.7685
amerikanischer	-10.7686
senkung	-10.7687
▁arbeitgeber	-10.7687
blut	-10.7689
▁liter	-10.7691
kleid	-10.7691
ografisch	-10.7695
rekord	-10.7696
▁hotel	-10.7696
aka	-10.7697
▁kämpfen	-10.7698
▁tempel	-10.7698
▁evangelisch	-10.77
▁seh	-10.77
▁gelangt	-10.7702
▁ausgaben	-10.7705
▁brut	-10.7706
▁hochschulen	-10.7707
▁gau	-10.773
fällt	-10.7733
komponist	-10.7734
verwitterung	-10.774
▁absinth	-10.774
hell	-10.774
▁helmut	-10.7742
hexa	-10.7743
▁ram	-10.7743
▁algebra	-10.7751
–16	-10.7754
▁korea	-10.7754
▁mischung	-10.7759
▁nächste	-10.7765
rund	-10.7772
▁ernte	-10.7774
gier	-10.7779
▁hypothese	-10.7782
▁drehbuch	-10.779
kristall	-10.7792
feuer	-10.7793
vorpommern	-10.7796
▁ferdinand	-10.7796
▁intelligenz	-10.7796
stoßen	-10.7798
▁1913	-10.7798
▁eva	-10.7802
▁nordwesten	-10.7806
▁einheimische	-10.7807
▁sowjetischen	-10.7811
▁isar	-10.7812
▁evangelische	-10.7815
▁gui	-10.7818
_6	-10.7821
▁kenia	-10.7822
abilität	-10.7822
verleihung	-10.7824
▁häufigsten	-10.7833
hut	-10.7838
▁gerichtet	-10.784
▁schreib	-10.7844
▁zahlreicher	-10.7847
gattung	-10.785
▁bay	-10.7851
hubschrauber	-10.7852
▁bangladesch	-10.7852
▁fantasy	-10.7852
▁hannover	-10.7852
▁interessant	-10.7852
▁venedig	-10.7852
▁school	-10.7852
▁geburtstag	-10.7852
rhythm	-10.7853
▁perspektive	-10.7853
▁schnee	-10.7857
flügel	-10.7862
▁ostsee	-10.7863
▁grob	-10.7864
▁lateinisch	-10.7865
iso	-10.7867
mutter	-10.7867
▁kennt	-10.7868
mask	-10.7871
▁kategorien	-10.7872
nahverkehr	-10.7873
schaltung	-10.7874
zimmer	-10.7877
▁phasen	-10.7883
▁dokumentiert	-10.7883
▁werbe	-10.7884
▁fördert	-10.7887
turnier	-10.7889
▁überblick	-10.7892
gau	-10.79
▁total	-10.7907
wurzel	-10.7908
darsteller	-10.7908
kompetenz	-10.7909
▁umgewandelt	-10.7909
▁getötet	-10.7909
▁untereinander	-10.7909
▁nominiert	-10.7909
▁türkei	-10.7909
steigerung	-10.7909
path	-10.791
▁bedingung	-10.7911
modus	-10.7914
▁reiste	-10.7915
auto	-10.7922
hütte	-10.7927
▁schmal	-10.7932
▁eigentliche	-10.7936
demokratisch	-10.7939
wood	-10.7944
▁entwurf	-10.7945
vertretung	-10.7945
▁verletzt	-10.7953
▁zucker	-10.7958
gängig	-10.7962
▁expansion	-10.7965
▁säugetier	-10.7965
▁bruno	-10.7965
▁touristen	-10.7969
winkel	-10.7969
▁keim	-10.7973
▁verweis	-10.7975
hauptstadt	-10.7978
▁merk	-10.7984
monarchie	-10.7992
▁leitete	-10.7994
▁voraussetzungen	-10.7996
▁erhebung	-10.8004
▁sagen	-10.8014
_7	-10.8016
▁buddhismus	-10.802
synchron	-10.8022
färbung	-10.8022
▁beherbergt	-10.8022
▁langfristig	-10.8023
▁verbleib	-10.8023
▁arbeitet	-10.8024
dienstleistungen	-10.8024
▁fließt	-10.8024
mechanik	-10.8025
▁zoo	-10.8025
studium	-10.8025
▁1912	-10.8025
▁popper	-10.8026
▁lief	-10.8026
_10	-10.8033
modul	-10.8035
▁gri	-10.8036
verhalten	-10.8043
▁peri	-10.8052
▁kath	-10.8055
▁cache	-10.8058
▁einrichtung	-10.8065
▁kurt	-10.8071
legierungen	-10.8074
fort	-10.8074
chip	-10.8074
▁ressourcen	-10.808
▁sekundär	-10.808
▁ausführlich	-10.808
▁ausgestattet	-10.808
▁geregelt	-10.808
▁verbinden	-10.808
privileg	-10.8081
▁wellenlänge	-10.8081
▁1931	-10.8082
▁auszeichnungen	-10.8083
▁staatsbürger	-10.8083
▁prinzipien	-10.8089
möglichkeit	-10.809
kernel	-10.8091
▁ritter	-10.8093
▁nordosten	-10.8096
▁zusammengesetzt	-10.8097
säule	-10.8101
logik	-10.8113
gestein	-10.8123
inlandsprodukt	-10.8138
phosphat	-10.8138
▁erinnerung	-10.8138
▁hawaii	-10.8138
▁verheiratet	-10.8138
▁vielleicht	-10.8138
▁gegliedert	-10.8138
▁integration	-10.8138
pseudo	-10.8138
▁zweitgrößte	-10.8138
▁sim	-10.8143
▁straßenbahn	-10.8145
feldzug	-10.8146
gärten	-10.8147
▁heilige	-10.8148
▁krankenhaus	-10.8155
schätze	-10.8162
spin	-10.817
▁kontinental	-10.8171
▁meint	-10.8175
▁städtische	-10.8177
▁angeschlossen	-10.8179
▁internationaler	-10.8179
profil	-10.818
wässer	-10.818
▁verstand	-10.8181
geschoss	-10.8184
▁oxidation	-10.8187
orientierung	-10.8188
▁gefolgt	-10.8196
▁geschieht	-10.8196
▁künftig	-10.8196
▁muslimische	-10.8196
▁sediment	-10.8196
▁südosten	-10.8196
▁gedacht	-10.8196
▁befindliche	-10.8196
▁lohn	-10.8197
▁kategorie	-10.8198
▁distanz	-10.8198
▁grenzt	-10.82
▁bühnen	-10.8201
▁kindheit	-10.8203
frankreich	-10.8204
azi	-10.8206
kraut	-10.8208
sekunden	-10.8217
▁langjährige	-10.8218
▁übernehmen	-10.8221
▁opern	-10.8225
getriebe	-10.8227
add	-10.8228
▁verfasst	-10.823
▁durchsetzen	-10.8238
▁errichtung	-10.824
opfer	-10.8244
▁zugriff	-10.8249
börse	-10.8251
mehl	-10.8254
▁chor	-10.8254
▁testament	-10.8254
▁unesco	-10.8255
▁astronomie	-10.8255
▁beruhen	-10.8258
▁fifa	-10.826
300	-10.8261
franken	-10.8264
▁sprachraum	-10.8265
stone	-10.8267
▁begründung	-10.8273
web	-10.8273
▁leib	-10.8274
▁vorschlag	-10.828
anhalt	-10.8282
▁trenn	-10.8283
▁wü	-10.8284
▁verzichtet	-10.8289
▁startete	-10.8289
▁anlass	-10.8289
▁iran	-10.8292
▁eröffnung	-10.8295
bulgar	-10.8304
roy	-10.8308
▁eventuell	-10.8313
▁gezwungen	-10.8313
▁peirce	-10.8313
▁abgesehen	-10.8316
▁thron	-10.8318
▁daniel	-10.8318
gli	-10.8322
▁gewerkschaften	-10.8322
studio	-10.8325
schwarz	-10.8325
power	-10.8329
▁aspekt	-10.8335
▁mach	-10.8336
lav	-10.8359
▁vorgenommen	-10.8359
wall	-10.836
oma	-10.8361
bud	-10.8364
▁physiker	-10.8369
▁petr	-10.8371
nobelpreis	-10.8371
gedächtnis	-10.8372
▁byzanz	-10.8372
▁dementsprechend	-10.8372
▁heeres	-10.8372
▁veranstaltet	-10.8372
▁caesium	-10.8372
▁befreiung	-10.8373
zugehörigkeit	-10.8373
▁balkan	-10.8374
▁architekten	-10.8376
▁fortsetzung	-10.8377
teilchen	-10.8379
▁stammende	-10.8381
▁makro	-10.8381
▁neubau	-10.8384
▁kunden	-10.8387
▁bergbau	-10.8389
cop	-10.8391
▁france	-10.8391
▁aussicht	-10.8395
▁schall	-10.8402
▁bundespräsident	-10.8403
nehmer	-10.8408
einkommen	-10.841
zentrationslager	-10.8413
▁fakultät	-10.8427
awa	-10.8428
▁gibraltar	-10.8432
▁saison	-10.8432
▁bringt	-10.8432
▁kuba	-10.8433
forum	-10.8438
volt	-10.844
hypothese	-10.8447
▁michel	-10.8452
▁angabe	-10.8454
▁zugeschrieben	-10.8455
morphem	-10.8455
arzt	-10.8458
▁120	-10.8462
▁wahlrecht	-10.8463
▁mechanische	-10.8464
verbund	-10.8468
witt	-10.847
▁rosen	-10.847
▁garantie	-10.8476
▁autonom	-10.8489
▁schmidt	-10.8492
▁alexandria	-10.8492
▁golf	-10.8493
▁gerhard	-10.8494
konzentration	-10.8496
▁pilz	-10.8498
900	-10.8502
icus	-10.8503
füge	-10.8507
▁ähnlichkeit	-10.851
stunden	-10.8511
▁bedeuten	-10.8515
blau	-10.8517
▁zweimal	-10.8517
cro	-10.8522
▁gla	-10.8527
aise	-10.853
▁abwehr	-10.8533
▁textil	-10.8538
▁nordafrika	-10.8538
schwäche	-10.8548
▁engagement	-10.8552
▁aufgeteilt	-10.8552
entwickler	-10.8552
▁justiz	-10.8552
analytische	-10.8552
sammler	-10.8552
nuklid	-10.8552
▁dominieren	-10.8553
able	-10.8554
dp	-10.8557
▁müsste	-10.856
▁ersatz	-10.8563
▁mehrmals	-10.8564
▁pest	-10.8565
▁grazer	-10.857
finanz	-10.8571
club	-10.8573
▁axiome	-10.8578
▁extra	-10.8589
▁erforschung	-10.8597
ado	-10.86
wirtschaftliche	-10.8602
mara	-10.8609
▁ansätze	-10.861
klassifikation	-10.8613
makedonien	-10.8613
assembl	-10.8613
kh	-10.8613
▁vereinzelt	-10.8613
▁priester	-10.8613
▁diejenige	-10.8614
▁separat	-10.8614
▁zentralbank	-10.8616
kabel	-10.8616
▁prinzipiell	-10.8616
▁werner	-10.862
gestiegen	-10.8625
▁kommunistischen	-10.8632
▁benachbarten	-10.8632
book	-10.8636
▁song	-10.8638
medien	-10.8639
rechner	-10.8645
▁sowjetische	-10.8649
▁finanziert	-10.8659
miet	-10.8663
gio	-10.8664
wärme	-10.8669
▁beschäftigung	-10.8669
komponente	-10.867
galerie	-10.8674
▁douglas	-10.8674
▁einschränkung	-10.8674
▁identifiziert	-10.8674
▁passagier	-10.8674
▁sklaven	-10.8674
▁formulierung	-10.8674
▁konstruiert	-10.8674
▁erfüllen	-10.8676
geschnitten	-10.8693
▁städtischen	-10.8694
beginn	-10.8696
gasse	-10.8699
show	-10.8699
▁nor	-10.8706
förderung	-10.8713
▁gefährlich	-10.8735
▁jugoslawien	-10.8735
▁örtlich	-10.8735
▁angewendet	-10.8735
▁erfordert	-10.8735
▁schwimm	-10.8735
▁nerven	-10.8736
▁künste	-10.8736
christliche	-10.8739
zugeben	-10.8745
stark	-10.8745
▁betreiben	-10.8748
pulver	-10.875
▁theologie	-10.8752
▁ausmaß	-10.8754
forscher	-10.876
kamera	-10.8762
▁tot	-10.8766
▁bewertung	-10.8766
gerät	-10.8783
schalt	-10.8785
▁kz	-10.8796
kräftig	-10.8796
▁greenpeace	-10.8797
▁reagieren	-10.8797
▁dunkel	-10.8797
▁gedreht	-10.8797
methyl	-10.8797
2.000	-10.8805
▁fichte	-10.8805
▁basierend	-10.8808
▁türkische	-10.8809
▁eiben	-10.881
wirkt	-10.8813
▁hohem	-10.8814
beton	-10.8815
normalerweise	-10.8815
▁flüchtlinge	-10.8825
ophon	-10.8828
ibel	-10.8838
glied	-10.8854
▁nachlass	-10.8856
mechanismus	-10.8859
▁esperanto	-10.8859
▁verstorben	-10.8859
wächst	-10.8859
▁verringert	-10.8859
▁vorbereitung	-10.8859
▁feiertag	-10.886
▁veranlass	-10.886
radius	-10.886
▁1907	-10.886
▁verlangt	-10.8864
▁kreta	-10.8865
gestalt	-10.8866
minute	-10.8869
▁litt	-10.887
fini	-10.8873
adler	-10.8877
▁hinweg	-10.8877
▁ethnische	-10.8881
religion	-10.8887
kommunikation	-10.8887
formation	-10.8894
ui	-10.8896
▁dateisystem	-10.8901
preisträger	-10.891
ographische	-10.8914
eiche	-10.892
▁ausgedehnt	-10.8921
▁versteht	-10.8921
▁josef	-10.8921
▁1917	-10.8923
lust	-10.8926
▁pferde	-10.8928
▁unternahm	-10.8931
▁bundesländer	-10.8931
▁wechselte	-10.8934
▁südamerika	-10.894
▁philosophischen	-10.8943
akademie	-10.8952
tradition	-10.8952
▁fasst	-10.8953
▁1848	-10.8954
▁gesicht	-10.8961
zutage	-10.8963
▁ausgesprochen	-10.8967
▁giftig	-10.8972
▁anstelle	-10.8976
just	-10.8977
▁erfuhr	-10.8978
▁gegenwärtig	-10.8984
▁kollektiv	-10.8984
▁strategisch	-10.8984
▁wittgenstein	-10.8984
▁beinhaltet	-10.8984
jäger	-10.8984
▁münster	-10.8984
▁curie	-10.8985
fächer	-10.8986
▁1911	-10.8987
▁jolie	-10.8994
bildende	-10.9
psi	-10.9002
▁maxim	-10.9003
▁mainz	-10.9003
▁tv	-10.9008
cord	-10.901
▁durchbruch	-10.901
werfen	-10.9012
▁amtssprache	-10.9012
betreiber	-10.9016
teilige	-10.9021
zeugnis	-10.9026
▁folgender	-10.9031
inisterpräsident	-10.9032
verlag	-10.9039
reaktor	-10.9047
gürtel	-10.9047
▁leopold	-10.9047
▁heidelberg	-10.9048
▁widmete	-10.9048
tänze	-10.9048
▁1908	-10.9049
▁ziffern	-10.9052
▁literarischen	-10.9055
▁castro	-10.9058
losigkeit	-10.906
dessen	-10.9062
▁ausdehnung	-10.9063
▁dialog	-10.9066
erkennung	-10.9067
früh	-10.9069
mischung	-10.907
mantel	-10.9078
▁voraussetzung	-10.908
höchst	-10.9084
polis	-10.9093
▁aufgegeben	-10.9098
time	-10.9098
▁festland	-10.9099
chirurg	-10.9108
reinigung	-10.9111
varietät	-10.9111
▁substantiv	-10.9111
▁zukünftig	-10.9111
distribution	-10.9111
▁militärisch	-10.9111
▁verknüpft	-10.9112
▁fahrrad	-10.9113
▁binär	-10.9115
▁dänischen	-10.9117
drehbuchautor	-10.9122
basis	-10.9125
ohne	-10.9129
▁reellen	-10.9134
apparat	-10.9142
affäre	-10.9142
▁bedeutender	-10.9145
▁nutzer	-10.9148
abteilung	-10.9166
bekämpfung	-10.9175
mitochondri	-10.9175
▁ausdrücklich	-10.9175
▁edinburgh	-10.9175
▁referenz	-10.9175
▁relevant	-10.9175
körner	-10.9175
▁vertraut	-10.9175
▁optimal	-10.9175
▁mündet	-10.9175
gräber	-10.9175
schneiden	-10.9175
▁2,5	-10.9176
zähne	-10.9177
▁stärksten	-10.9181
▁bundesbank	-10.9182
pionier	-10.9198
▁ausländer	-10.9201
werbung	-10.9212
▁ben	-10.9214
▁aktuell	-10.923
▁adjektiv	-10.924
▁bedeutsam	-10.924
▁betreibt	-10.924
kündigung	-10.9241
inhaber	-10.9243
▁sinnvoll	-10.9243
skript	-10.9244
▁vollkommen	-10.9245
gelände	-10.9247
▁unterstellt	-10.9248
▁computerspiel	-10.9257
▁vorbei	-10.926
rath	-10.9272
grub	-10.9273
▁umständen	-10.9279
erklärung	-10.9281
österreich	-10.9281
vertreter	-10.9281
▁worau	-10.9283
zwischen	-10.9283
▁göttliche	-10.93
▁entworfen	-10.9305
▁verdrängt	-10.9305
▁erhöhen	-10.9306
überwachung	-10.9308
▁putsch	-10.9308
▁musikalische	-10.9308
rät	-10.9312
▁autorität	-10.9312
tribut	-10.9322
▁ansehen	-10.9324
▁böse	-10.9328
▁dokumentation	-10.9329
▁1890	-10.9335
▁ausgesetzt	-10.9336
▁umfeld	-10.9338
orum	-10.934
statue	-10.9344
kapazität	-10.9348
beteiligung	-10.9348
unterschied	-10.9348
dokument	-10.9348
wuchs	-10.9349
beispielsweise	-10.9349
▁untergebracht	-10.935
keramik	-10.9369
▁gide	-10.937
▁thälmann	-10.937
hydroxid	-10.937
▁reihenfolge	-10.937
meist	-10.937
++	-10.9372
plasma	-10.9379
▁spezialisiert	-10.9406
früchte	-10.9415
▁freizeit	-10.9422
malige	-10.9427
▁trifft	-10.9436
schmied	-10.9437
▁rief	-10.9441
▁komponisten	-10.9443
colo	-10.9448
▁mächtige	-10.9452
▁vorgestellt	-10.9464
blue	-10.9465
▁materielle	-10.9466
▁übersicht	-10.9468
besitzer	-10.9476
also	-10.9478
▁überall	-10.9483
kalender	-10.9484
spanisch	-10.9489
▁schließt	-10.9489
planung	-10.9498
schädigung	-10.9502
▁akademische	-10.9502
▁gescheitert	-10.9502
▁verantwortung	-10.9502
modifikation	-10.9502
▁ablehnung	-10.9502
▁verknüpfung	-10.9502
▁circa	-10.9502
agentur	-10.9503
▁1905	-10.9503
▁vieh	-10.9504
streik	-10.9505
ensemble	-10.9506
▁vorkommende	-10.9507
▁datiert	-10.9509
▁angeles	-10.9512
bia	-10.9522
▁helden	-10.9523
illy	-10.9529
▁strahlen	-10.9531
▁rob	-10.9539
jähriger	-10.9545
ometer	-10.955
codice	-10.9552
büro	-10.9552
▁glaube	-10.9557
austausch	-10.9558
besuch	-10.9565
gouverneur	-10.9569
▁budapest	-10.9569
▁interview	-10.9569
▁vorherrschend	-10.9569
▁logarithmus	-10.9569
▁problematisch	-10.9569
▁kanadische	-10.9569
▁verhandlungen	-10.957
▁1909	-10.957
▁ehefrau	-10.957
▁volksrepublik	-10.9571
▁niemals	-10.9571
elektronik	-10.9572
▁sozialdemokrat	-10.9575
lyse	-10.9579
▁bundesminister	-10.9595
▁dritt	-10.9599
▁bord	-10.9602
olith	-10.9604
▁brom	-10.9607
▁engel	-10.961
möglich	-10.961
▁indische	-10.9615
experiment	-10.962
▁reife	-10.9626
verlauf	-10.963
braun	-10.9634
▁beschleunigt	-10.9636
▁kündigte	-10.9636
▁chemiker	-10.9636
▁smith	-10.9636
▁begünstigt	-10.9637
▁dynamische	-10.9637
▁stammes	-10.9638
▁angewiesen	-10.9638
▁überzeugt	-10.9639
▁vollzog	-10.9639
geltung	-10.9641
▁argon	-10.9644
–15	-10.965
▁teilgebiet	-10.9658
ehrenbürger	-10.9661
treiben	-10.9663
▁germanischen	-10.9668
kämpft	-10.9673
▁auffällig	-10.9675
▁abgebaut	-10.9676
▁sonnensystem	-10.9685
kennzeichen	-10.9689
▁dänische	-10.969
▁dortigen	-10.9691
▁anfänge	-10.9697
_9	-10.97
▁vierten	-10.9703
▁molekular	-10.9703
▁erworben	-10.9703
▁gesammelt	-10.9703
▁registriert	-10.9703
▁satelliten	-10.9703
explosion	-10.9704
carbonat	-10.9704
▁feuerwehr	-10.9705
▁arbeitnehmer	-10.9705
▁überlegungen	-10.9705
▁1915	-10.9705
▁börsen	-10.9708
head	-10.9719
prop	-10.972
kanäle	-10.9731
▁moderner	-10.9735
filmregisseur	-10.9737
harmonie	-10.9737
▁fundamental	-10.9741
▁brauch	-10.9744
modem	-10.9746
▁1800	-10.975
gefäß	-10.9759
risiko	-10.976
koalition	-10.976
▁braucht	-10.9761
jurist	-10.9762
status	-10.9765
tempel	-10.9767
ianische	-10.9768
töne	-10.9769
skulptur	-10.9771
▁british	-10.9771
▁synagoge	-10.9771
▁arthur	-10.9772
▁aufweist	-10.9772
▁definieren	-10.9772
▁abweichend	-10.9772
kalkül	-10.9772
▁aufschwung	-10.9772
▁installiert	-10.9772
▁jeweilige	-10.9773
filter	-10.9774
▁pilot	-10.9774
▁blind	-10.9776
quark	-10.9782
▁kandidaten	-10.9786
▁einkaufs	-10.9787
▁slawische	-10.9795
▁granit	-10.9797
▁verzicht	-10.98
▁realität	-10.9801
patri	-10.9805
stick	-10.9807
feind	-10.9809
franc	-10.9811
▁ungleich	-10.9811
▁komplexität	-10.9818
▁sekunde	-10.9822
chinesisch	-10.9822
griechisch	-10.983
künstler	-10.9831
innere	-10.9832
spät	-10.9834
student	-10.9835
quadratkilometer	-10.984
▁herzegowina	-10.984
▁individuen	-10.984
▁nunmehr	-10.9843
▁stalin	-10.9846
▁weser	-10.9848
kommentar	-10.9848
▁heut	-10.9856
▁stadtverwaltung	-10.9862
▁entscheiden	-10.9863
▁rotation	-10.9863
weiterentwickelt	-10.9879
variable	-10.9884
laufende	-10.9885
meyer	-10.9886
▁handschrift	-10.9892
▁legende	-10.9893
▁spa	-10.9894
geburt	-10.9897
table	-10.99
landeshauptstadt	-10.9901
sprecher	-10.9902
gedanke	-10.9905
▁bronze	-10.9906
verschiebung	-10.9909
▁beobachter	-10.9909
▁eingeweiht	-10.9909
▁verabschiedet	-10.9909
▁vorübergehend	-10.9909
▁theologische	-10.9919
▁finanzierung	-10.992
▁bohnen	-10.9921
▁ausgewählt	-10.9926
▁unterhält	-10.9929
schöpf	-10.9933
ritual	-10.9935
itätstheorie	-10.9937
oxy	-10.9945
äum	-10.9953
gewinn	-10.9963
med	-10.9966
▁ausbruch	-10.9969
▁erfolglos	-10.9973
parlament	-10.9973
hydro	-10.9976
analysis	-10.9978
ergänzung	-10.9978
▁dezimal	-10.9978
▁landtagswahl	-10.9978
▁begründer	-10.9978
▁illegal	-10.9978
▁drogen	-10.9979
▁julianische	-10.9982
▁komponenten	-10.9983
gangssprachlich	-10.9983
▁körperliche	-10.9984
brecher	-10.9985
▁kpd	-10.9988
▁attac	-11
wy	-11.0011
holstein	-11.0024
▁ausdrücke	-11.0037
▁emil	-11.0039
▁ewig	-11.0041
▁abenteuer	-11.0048
sehenswürdigkeit	-11.0048
▁moskau	-11.0048
▁offensichtlich	-11.0048
▁weibchen	-11.0048
▁stattfand	-11.0048
nominierung	-11.0048
▁aktual	-11.0049
▁überzeugung	-11.0049
amin	-11.005
▁mittelmeerraum	-11.0052
ässig	-11.0052
▁liefern	-11.0058
nähe	-11.0058
▁kaisertum	-11.0069
▁kriegsende	-11.0071
▁abgeordnete	-11.0086
▁solar	-11.0092
▁unterfamilie	-11.0093
machen	-11.0098
▁eingriff	-11.01
▁kostenlos	-11.0103
cyan	-11.0105
▁gru	-11.0111
▁fruchtbar	-11.0114
offizier	-11.0117
angelegenheiten	-11.0119
▁karthago	-11.0119
▁edward	-11.0119
▁marseille	-11.0119
▁hoffnung	-11.0119
▁ermordung	-11.0119
vektor	-11.0119
▁rechnen	-11.0119
▁christus	-11.0119
britanni	-11.0119
semester	-11.012
▁zugehörige	-11.012
bräu	-11.0124
▁herzogtum	-11.0124
parteitag	-11.0125
▁gallium	-11.0125
schreck	-11.0133
▁wahlkreis	-11.0135
ensis	-11.0135
▁maßeinheit	-11.0141
▁atem	-11.0149
gelb	-11.0163
philosoph	-11.0165
▁gpl	-11.0165
▁koll	-11.0169
haut	-11.0173
kürzung	-11.0174
gezeichnet	-11.0182
ugh	-11.0184
intellektuelle	-11.019
▁außerordentlich	-11.019
▁bedrohung	-11.019
▁gilgamesch	-11.019
▁sexuell	-11.019
▁company	-11.019
▁auschwitz	-11.019
▁verbessern	-11.019
▁maltesisch	-11.019
▁organismen	-11.019
600	-11.019
gebot	-11.0191
▁chance	-11.0191
▁ungarische	-11.0192
▁rostock	-11.0192
meteor	-11.0195
▁volkes	-11.0195
armee	-11.0199
▁genug	-11.02
▁sektion	-11.0203
▁ausgelöst	-11.0211
▁akku	-11.0212
▁variablen	-11.0215
drüse	-11.022
▁volkswirtschaft	-11.0223
▁bauwerk	-11.0228
lagerstätte	-11.0237
▁hochschul	-11.0237
wenn	-11.024
ikon	-11.0242
wel	-11.0244
▁basic	-11.0248
▁palm	-11.0254
▁state	-11.0254
staatliche	-11.0261
ascorbinsäure	-11.0261
föderation	-11.0261
▁havanna	-11.0261
▁kuwait	-11.0261
▁kombiniert	-11.0261
kopplung	-11.0261
▁errichten	-11.0261
▁überregional	-11.0261
▁konzil	-11.0262
▁vegetation	-11.0262
kodierung	-11.0262
draht	-11.0264
▁division	-11.0264
wilhelm	-11.0264
chirurgie	-11.0265
medium	-11.0267
▁saint	-11.0271
▁materialien	-11.0275
ausbildung	-11.0278
▁blas	-11.028
besitz	-11.028
▁wirk	-11.0283
epos	-11.0283
mineral	-11.0287
lach	-11.0295
▁live	-11.0298
▁beauftragt	-11.0298
smöglichkeiten	-11.0303
▁vorfahren	-11.0311
aki	-11.0316
▁versetzt	-11.0318
▁sprachliche	-11.0328
wissen	-11.0333
beschleunigung	-11.0333
beschränkung	-11.0333
▁abgegeben	-11.0333
kompression	-11.0333
▁baseball	-11.0333
▁engagiert	-11.0333
orbital	-11.0334
▁ultra	-11.0335
zid	-11.0335
▁begab	-11.0336
▁komposition	-11.0337
▁indium	-11.0338
kapital	-11.0338
dänisch	-11.0342
▁schätzungen	-11.0348
spende	-11.0358
▁gregor	-11.0361
gebildet	-11.0364
milch	-11.0365
katalog	-11.0369
kurve	-11.0374
▁vorliegen	-11.0383
klo	-11.0386
wände	-11.0404
dustrialisierung	-11.0406
entzündung	-11.0406
▁betrifft	-11.0406
▁gefährdet	-11.0406
▁emotion	-11.0406
▁porträt	-11.0406
▁kaufleute	-11.0406
▁1906	-11.0407
▁tempelhof	-11.0407
laufwerk	-11.0407
▁staatspräsident	-11.0408
vergiftung	-11.0411
neigung	-11.0411
▁erwarten	-11.0411
definition	-11.0413
wirklich	-11.0413
▁gewährt	-11.0414
▁noir	-11.0417
gesteuert	-11.0419
▁hafer	-11.042
▁unternehmer	-11.0425
▁vii	-11.0428
▁hauptmann	-11.0431
▁freiberg	-11.0432
nächst	-11.0434
religiös	-11.0435
siegel	-11.045
brachte	-11.0453
futter	-11.0456
▁lud	-11.0477
▁dreißigjährige	-11.0478
▁schicksal	-11.0478
▁territorial	-11.0478
▁ähnelt	-11.0478
▁empfänger	-11.0479
▁zueinander	-11.0479
▁enigma	-11.0479
▁geteilt	-11.048
▁kommunalwahl	-11.048
▁anzutreffen	-11.0481
▁chromosomen	-11.0481
start	-11.0482
▁ausgangspunkt	-11.0482
▁semi	-11.0483
▁nordwest	-11.0485
▁judentum	-11.0487
bayern	-11.0488
protein	-11.049
▁hohl	-11.0494
ergebnis	-11.05
▁1806	-11.05
qa	-11.0502
poly	-11.0504
1.000	-11.0508
▁landkreises	-11.0511
▁zeugen	-11.0512
asse	-11.0514
vorkommen	-11.0515
▁brot	-11.0516
bünde	-11.0524
chemische	-11.0539
schub	-11.054
▁geschlechts	-11.0543
▁befürwort	-11.0552
territorien	-11.0552
toleranz	-11.0552
▁association	-11.0552
▁folglich	-11.0552
▁joyce	-11.0552
▁mettmann	-11.0552
▁lully	-11.0552
symmetrisch	-11.0552
▁serbien	-11.0552
▁periodensystem	-11.0552
▁verlief	-11.0552
source	-11.0553
▁bekommen	-11.0553
▁altgriechisch	-11.0554
▁zink	-11.0554
▁löslich	-11.0555
▁gottfried	-11.0556
▁sagt	-11.0561
entscheid	-11.0563
gegründet	-11.0564
papier	-11.0564
pläne	-11.0565
revolution	-11.0565
▁akut	-11.0566
direktor	-11.0568
▁endo	-11.0571
▁trennt	-11.0577
▁metro	-11.0577
▁folgezeit	-11.0589
ista	-11.0594
icum	-11.0594
▁20.000	-11.0604
▁nasa	-11.061
▁außenminister	-11.0618
▁spätmittelalter	-11.0626
▁prominente	-11.0626
▁wiederaufbau	-11.0626
▁geschickt	-11.0626
▁pascal	-11.0626
▁variiert	-11.0626
▁automobil	-11.0627
▁verehrt	-11.0628
▁spiral	-11.0628
▁gödel	-11.0628
prophet	-11.063
▁herausgeber	-11.063
brauerei	-11.0634
▁aussehen	-11.064
container	-11.064
feucht	-11.0641
▁sozio	-11.0647
roth	-11.0649
▁grundgesetz	-11.0651
field	-11.0658
▁partnerschaft	-11.0658
zeitschrift	-11.0675
▁objektiv	-11.0678
kapelle	-11.0685
proben	-11.069
▁stimmte	-11.0691
metrie	-11.0697
häuf	-11.07
stuhl	-11.0701
▁übrig	-11.0701
häftling	-11.0701
spektral	-11.0701
▁bewaffnete	-11.0701
▁elfenbeinküste	-11.0701
▁glucose	-11.0701
▁tucholsky	-11.0701
management	-11.0701
pack	-11.0701
▁trinkwasser	-11.0701
▁jacob	-11.0701
▁vereinbart	-11.0702
intervall	-11.0702
▁scheinbar	-11.0702
▁vorbehalt	-11.0703
▁erlitt	-11.0704
hydrat	-11.0705
▁verglichen	-11.0706
▁lösch	-11.0709
▁wertvoll	-11.0711
stürz	-11.0711
kaserne	-11.0713
▁wett	-11.0718
▁heran	-11.0718
▁bgb	-11.072
▁3000	-11.0721
schlacht	-11.0727
▁mary	-11.0728
▁rosa	-11.0733
kli	-11.0733
erscheinung	-11.0733
▁spanische	-11.0737
▁aero	-11.0744
festigkeit	-11.0747
▁taucht	-11.0753
schreiber	-11.0756
partikel	-11.0769
▁herum	-11.0771
liefer	-11.0772
▁oliv	-11.0775
▁bisherige	-11.0775
▁beeinflussen	-11.0776
▁etymologie	-11.0776
▁proportional	-11.0776
▁gefordert	-11.0776
violett	-11.0776
▁insulin	-11.0776
▁norman	-11.0777
▁schlaf	-11.0778
▁1916	-11.0778
▁erlangen	-11.0783
▁rau	-11.0784
▁handwerks	-11.0786
▁vorlage	-11.0792
▁erfahren	-11.0794
▁finger	-11.0798
gefunden	-11.0799
gur	-11.0799
▁bauch	-11.0802
▁verzeichnet	-11.081
▁tetra	-11.0814
▁häufigkeit	-11.0821
räder	-11.0824
▁lungen	-11.0825
▁hill	-11.0834
▁geschäfte	-11.0834
▁elisabeth	-11.0852
▁katholiken	-11.0852
▁kopenhagen	-11.0852
▁quecksilber	-11.0852
zeichner	-11.0852
▁coffein	-11.0852
▁gestartet	-11.0852
▁lebzeiten	-11.0852
▁zedler	-11.0852
▁wagner	-11.0852
▁belgische	-11.0852
▁wohlhabend	-11.0852
▁gefeiert	-11.0852
▁versorgt	-11.0852
▁ändern	-11.0852
▁fokus	-11.0853
hochschullehrer	-11.0853
▁bernhard	-11.0853
▁aufmerksamkeit	-11.0855
premier	-11.0855
▁anforderungen	-11.0855
▁sorgen	-11.0857
▁protonen	-11.0857
▁fungiert	-11.0858
meldung	-11.0859
800	-11.0859
▁deswegen	-11.0866
▁ohr	-11.0869
▁wählen	-11.0871
völker	-11.0873
fremd	-11.0877
▁1871	-11.0878
zuhalten	-11.0879
glu	-11.0879
▁lese	-11.0882
▁nachteil	-11.0889
▁algebraische	-11.0896
behandlung	-11.0899
omo	-11.09
▁1200	-11.0904
▁indus	-11.0912
▁caligula	-11.0928
▁celsius	-11.0928
▁bedeckt	-11.0928
▁domitian	-11.0928
▁eduard	-11.0928
▁kohlenhydrate	-11.0928
▁abstimmung	-11.0928
gebühr	-11.0928
treibung	-11.093
▁gelungen	-11.0931
▁bewies	-11.0931
▁konsequenz	-11.0931
imperium	-11.0932
▁flora	-11.0932
▁riesige	-11.0932
▁gross	-11.0936
sensor	-11.0936
▁hochwasser	-11.0947
kongress	-11.0951
ursache	-11.0953
fränkisch	-11.0953
füllung	-11.0959
üß	-11.096
gewässer	-11.0961
oideae	-11.099
▁eid	-11.0993
wider	-11.0997
▁zusammenhänge	-11.0997
▁verkünd	-11.1004
genehmigung	-11.1005
▁maximilian	-11.1005
▁inspiriert	-11.1005
▁manuskript	-11.1005
▁vergrößert	-11.1005
▁einwanderer	-11.1005
budget	-11.1005
▁ludwigshafen	-11.1005
▁glaubte	-11.1005
▁geometrische	-11.1006
▁kampfstoff	-11.1006
▁vollendet	-11.1006
erlebnis	-11.1006
▁böhmen	-11.1009
▁investitionen	-11.1011
schatz	-11.1012
▁erzählt	-11.1013
▁force	-11.1014
räumt	-11.1018
polizei	-11.1031
würde	-11.1031
öß	-11.1034
▁paläo	-11.1045
▁eugen	-11.1045
▁leisten	-11.1046
▁1860	-11.1048
▁restliche	-11.1052
▁nato	-11.1054
▁jahreszeit	-11.1055
fähre	-11.1055
aux	-11.1067
▁serbische	-11.1071
▁schenk	-11.108
▁brasilien	-11.1082
▁hebräisch	-11.1082
▁washington	-11.1082
▁zwanzig	-11.1082
westfälische	-11.1082
▁jenseits	-11.1082
▁eingeteilt	-11.1082
hybrid	-11.1083
▁verschoben	-11.1083
▁erwarb	-11.1083
▁gamma	-11.1083
sulfid	-11.1083
▁edelgas	-11.1084
ohlenstoffdioxid	-11.1084
▁1904	-11.1084
väter	-11.1084
▁bewertet	-11.1084
▁volkszählung	-11.1085
schiebe	-11.1085
bänder	-11.1086
▁angehört	-11.1086
▁hauptdarsteller	-11.1086
▁bundesweit	-11.1096
▁champ	-11.1097
schuh	-11.1099
▁abgebildet	-11.1099
▁bomben	-11.1102
wohl	-11.1102
legierung	-11.1109
▁game	-11.111
merkmale	-11.1111
▁unmöglich	-11.1119
4.000	-11.1119
▁teilnahme	-11.1119
▁steve	-11.1139
generation	-11.1141
▁angela	-11.1151
investition	-11.1154
▁guevara	-11.1161
▁humboldt	-11.1161
▁mythologie	-11.1161
▁stauffenberg	-11.1161
▁1903	-11.1161
▁verändern	-11.1161
▁brustkrebs	-11.1161
stadium	-11.1161
schlepp	-11.1162
sachsen	-11.1163
▁erschlossen	-11.1163
aq	-11.1163
viel	-11.1166
▁1500	-11.1171
▁herbert	-11.1171
▁nachricht	-11.1172
diagramm	-11.1179
bahnhöfe	-11.1181
siedler	-11.1183
back	-11.119
betriebssystem	-11.1192
olympia	-11.1193
▁1870	-11.1197
▁freistaat	-11.12
express	-11.1212
immer	-11.1212
▁bezog	-11.1215
face	-11.1216
1,6	-11.1223
schutzgebiet	-11.1224
▁kaufmann	-11.1227
life	-11.1227
delta	-11.1233
induktivität	-11.1239
äquivalent	-11.1239
▁département	-11.1239
▁korruption	-11.1239
▁potentiell	-11.1239
▁mönchengladbach	-11.1239
▁kurzzeitig	-11.1239
▁abstrakte	-11.124
rausch	-11.1241
▁erfunden	-11.1242
bündel	-11.1245
▁gängige	-11.1245
▁verwandtschaft	-11.1249
▁verfolgung	-11.1249
▁kollegen	-11.125
klassiker	-11.125
▁manchester	-11.1252
3.000	-11.1257
▁selbstständig	-11.1268
▁gelegen	-11.1272
volumen	-11.1273
▁1889	-11.1273
kugel	-11.1283
hebe	-11.1286
kiefer	-11.1292
▁drk	-11.1302
▁1850	-11.1308
liber	-11.1314
▁diplomatische	-11.1314
implementierung	-11.1319
▁beschädigt	-11.1319
▁bologna	-11.1319
▁geschmack	-11.1319
▁joachim	-11.1319
▁weihnachts	-11.1319
▁spontan	-11.1319
▁erinnern	-11.1319
▁klavier	-11.1319
diagnose	-11.1319
▁besagt	-11.1319
▁finnland	-11.1319
gläser	-11.1319
▁entlassen	-11.1319
▁zugewiesen	-11.1321
regiment	-11.1324
▁transportiert	-11.1325
lieferung	-11.133
kino	-11.1331
▁organismus	-11.1336
schärfe	-11.1336
▁sturm	-11.1338
bereitschaft	-11.135
positiv	-11.1354
lateinisch	-11.1354
zweifel	-11.1355
manga	-11.138
▁western	-11.1382
▁schach	-11.1389
logarithm	-11.1398
▁mohammed	-11.1399
▁myanmar	-11.1399
▁töchter	-11.1399
▁kürzer	-11.1399
▁nachkriegszeit	-11.1399
▁gehabt	-11.1399
▁thermische	-11.1399
▁gehandelt	-11.1399
▁kommune	-11.1403
▁traven	-11.1403
▁neander	-11.1404
▁erreichbar	-11.1405
pto	-11.1417
▁indogermanische	-11.142
august	-11.1437
schweiz	-11.1438
lässt	-11.1438
großkreuz	-11.1438
transfer	-11.1445
partnerschaften	-11.1449
läufer	-11.1456
▁1830	-11.1463
falk	-11.1465
adrenalin	-11.1479
zylinder	-11.1479
▁kästner	-11.1479
▁popularität	-11.1479
▁anfänglich	-11.1479
▁church	-11.1479
synthetisch	-11.1479
▁produzieren	-11.148
defizit	-11.148
▁herzinfarkt	-11.148
▁1902	-11.1481
▁aachen	-11.1481
auswahl	-11.1482
▁freud	-11.1483
▁frankenreich	-11.1485
hund	-11.1488
▁wüsten	-11.1495
▁erteilt	-11.1495
▁immunsystem	-11.1498
ridge	-11.1501
▁dieselbe	-11.1508
▁1,2	-11.1509
häm	-11.1516
woche	-11.1519
konsum	-11.1521
kredit	-11.1522
dame	-11.1528
historiker	-11.1534
typisch	-11.1547
▁stattfinden	-11.1549
oxi	-11.1553
freundlich	-11.1554
publikation	-11.1554
▁aufeinander	-11.1556
atio	-11.1561
erwähnung	-11.1561
▁html	-11.1561
▁konsequent	-11.1561
▁vakuum	-11.1561
▁resultat	-11.1561
▁anwesenheit	-11.1561
▁doktor	-11.1561
▁group	-11.1561
▁angeregt	-11.1561
▁homburg	-11.1561
▁syrien	-11.1561
▁ordnungszahl	-11.1561
kombinat	-11.1567
▁vordergrund	-11.1569
▁sinken	-11.1571
▁ausgedrückt	-11.1573
richter	-11.1575
▁lebendig	-11.1582
bestimmt	-11.1586
▁parlamentarisch	-11.1593
▁übte	-11.1595
beauftragte	-11.16
stopp	-11.1627
alexandr	-11.1643
▁empfohlen	-11.1643
▁senkrecht	-11.1643
▁möchte	-11.1643
▁anthropologie	-11.1643
suffix	-11.1643
▁journalisten	-11.1643
▁pharma	-11.1643
▁byron	-11.1643
thio	-11.1643
segment	-11.1643
lexikon	-11.1643
▁1901	-11.1645
▁gelegenheit	-11.1646
▁0,5	-11.1646
▁atomkern	-11.1647
▁riesen	-11.165
▁raumfahrt	-11.1653
▁perser	-11.167
▁logischen	-11.1679
provinz	-11.1689
▁emission	-11.169
umschlag	-11.1693
gefangen	-11.1699
dynami	-11.171
lehr	-11.1711
zulegen	-11.1716
friesisch	-11.1717
video	-11.172
▁lymph	-11.1724
denkmäler	-11.1725
▁beheimatet	-11.1725
▁brüssel	-11.1725
▁exekutiv	-11.1725
▁shyamalan	-11.1725
▁unverändert	-11.1725
▁browser	-11.1725
eigentümer	-11.1725
▁fauna	-11.1725
▁tageszeitung	-11.1725
▁beachtet	-11.1725
geschaltet	-11.1726
▁lübeck	-11.1726
▁elektrolyse	-11.1726
reflex	-11.1726
▁beansprucht	-11.1726
▁schaden	-11.1729
vereinbarung	-11.1729
filiale	-11.1731
▁bremer	-11.1732
▁laufzeit	-11.1736
phyll	-11.1737
▁niedergang	-11.1739
seil	-11.174
▁physische	-11.1742
pokal	-11.1744
▁belagerung	-11.1747
▁nochmals	-11.1748
bestände	-11.1751
▁talent	-11.1751
▁regierungszeit	-11.1754
weide	-11.1757
▁christlich	-11.1758
▁ökologische	-11.1759
▁differenziert	-11.1767
gekommen	-11.1774
bewusst	-11.1775
meta	-11.1776
differenz	-11.1779
hochschule	-11.1789
▁forst	-11.1804
makedonische	-11.1809
wörtlich	-11.1809
▁buddha	-11.1809
▁gewidmet	-11.1809
▁männchen	-11.1809
▁päpstliche	-11.1809
▁schwanger	-11.1809
▁befestigt	-11.1809
karl	-11.1809
▁ikrk	-11.1809
▁verwaltet	-11.1809
▁hameln	-11.1809
▁böden	-11.1809
▁vorherige	-11.1809
▁music	-11.1809
skandal	-11.1809
▁fachgebiet	-11.1811
▁bewohnt	-11.1811
▁betragen	-11.1812
▁hervorgegangen	-11.1812
▁hansestadt	-11.1816
zerfall	-11.1817
▁großstädte	-11.1819
▁halogen	-11.1819
amtes	-11.1822
▁legal	-11.1824
saat	-11.183
direct	-11.1833
flüchtling	-11.1854
konflikt	-11.1857
bewusstsein	-11.1861
zugehen	-11.1862
▁0,1	-11.1871
▁hoheit	-11.1888
▁eiffel	-11.1892
▁nass	-11.1892
entscheidung	-11.1892
▁beträchtlich	-11.1893
▁sexual	-11.1893
▁berechnen	-11.1893
▁margaret	-11.1893
▁vernichtet	-11.1893
▁ihrerseits	-11.1893
▁karlsruhe	-11.1893
▁deutet	-11.1893
▁liebig	-11.1894
hydroxy	-11.1895
▁fürstentum	-11.1897
▁leistete	-11.19
horst	-11.1901
▁euklidische	-11.1901
▁maschinenbau	-11.1903
vergleich	-11.1911
semitisch	-11.1913
guss	-11.1913
▁existierende	-11.1915
förder	-11.1924
▁lebensweise	-11.1927
▁1815	-11.1932
peter	-11.1937
▁1880	-11.194
hundert	-11.1942
männer	-11.1948
charakter	-11.1948
doppel	-11.1951
abgabe	-11.1955
general	-11.1957
indien	-11.1961
▁dresdner	-11.1977
▁jerusalem	-11.1977
▁attentat	-11.1977
symmetrie	-11.1977
▁veraltet	-11.1978
▁linsen	-11.198
prince	-11.198
▁tagebuch	-11.1987
▁morse	-11.1993
▁barium	-11.2003
klapp	-11.201
▁leistungsfähig	-11.2015
▁kubanische	-11.2019
▁amtliche	-11.2024
▁tropische	-11.2025
▁monarch	-11.2025
gotische	-11.2029
▁unterrichtet	-11.2029
negativ	-11.2035
isländisch	-11.2037
▁jim	-11.2042
chlor	-11.2043
damm	-11.206
arithmeti	-11.206
marine	-11.2062
effizienz	-11.2063
mechanismen	-11.2063
▁taliban	-11.2063
▁vornehmlich	-11.2063
▁almaty	-11.2063
▁braunschweig	-11.2063
▁erforscht	-11.2063
hygiene	-11.2063
▁europium	-11.2063
▁atheismus	-11.2063
▁befördert	-11.2063
▁vereinfacht	-11.2063
▁major	-11.2063
▁geschah	-11.2066
verehrung	-11.2066
baryon	-11.2067
gieß	-11.2068
▁flugzeugträger	-11.2068
chromat	-11.2069
▁siedelte	-11.2074
▁asiatischen	-11.2074
▁rücktritt	-11.2076
▁stadtmauer	-11.2077
▁notwendigkeit	-11.208
▁glatt	-11.2082
▁teure	-11.2088
stellige	-11.2118
radio	-11.2123
untersuchung	-11.2124
▁thor	-11.2139
▁thermo	-11.2139
▁erhältlich	-11.2142
▁annähernd	-11.2149
▁bemerkenswert	-11.2149
▁bemühungen	-11.2149
▁caracalla	-11.2149
▁eingestuft	-11.2149
▁embryo	-11.2149
▁äußerung	-11.2149
▁verlängert	-11.2149
kräuter	-11.2149
▁dienstleistungs	-11.2149
▁verallgemeiner	-11.2149
▁street	-11.2149
▁leonberg	-11.2149
▁autismus	-11.2149
▁erfinder	-11.215
▁solange	-11.2151
telhochdeutsch	-11.2151
▁zitiert	-11.2151
▁republikanische	-11.2152
▁genua	-11.2152
▁verschwand	-11.2155
▁publikationen	-11.2156
▁titan	-11.2157
▁hugo	-11.2162
▁hauptsitz	-11.2164
▁landesweit	-11.2171
bäume	-11.2172
▁hahn	-11.2173
▁unix	-11.2176
▁action	-11.2178
▁angst	-11.2178
▁behielt	-11.2178
▁geraten	-11.2182
▁metallische	-11.2186
▁wohnte	-11.2196
essiv	-11.2199
gua	-11.22
▁italienisch	-11.2203
erweiterung	-11.2213
▁fructose	-11.2236
▁nordmazedonien	-11.2236
▁himmelskörper	-11.2236
▁benediktiner	-11.2236
▁regensburg	-11.2236
assistent	-11.2236
verschuldung	-11.2237
▁externe	-11.2237
zauber	-11.2237
origin	-11.2238
▁berater	-11.2238
▁erzielen	-11.2239
▁verblieb	-11.2239
blöcke	-11.2239
▁konsens	-11.224
▁fließend	-11.224
▁sachverhalt	-11.2241
ismen	-11.2246
▁kreativ	-11.2248
▁menschenrechte	-11.2258
▁binden	-11.2262
fasern	-11.2272
▁südafrika	-11.2279
▁antigen	-11.228
grundlage	-11.2301
offiziell	-11.2303
_16	-11.2312
euklid	-11.2315
▁aufmerksam	-11.232
anwendung	-11.2323
resonanz	-11.2324
▁argentinische	-11.2324
▁aufwendig	-11.2324
▁begegnung	-11.2324
▁europäer	-11.2324
▁geklärt	-11.2324
▁itzehoe	-11.2324
▁nordöstlich	-11.2324
▁qualitativ	-11.2324
▁repräsentiert	-11.2324
▁vermeintlich	-11.2324
▁verweigert	-11.2324
▁zuverlässig	-11.2324
▁gambia	-11.2324
▁visuell	-11.2324
▁hessische	-11.2326
schwingung	-11.2327
▁bundeswehr	-11.2332
pflichtig	-11.2333
▁magma	-11.2339
▁spring	-11.2341
micro	-11.2341
passage	-11.2342
▁mitgliedschaft	-11.2343
▁rückgang	-11.2343
▁eichen	-11.2346
▁vize	-11.2347
mittler	-11.2352
gelehrte	-11.2353
city	-11.236
▁tang	-11.2371
afrika	-11.2381
hex	-11.2381
krone	-11.2395
kontakt	-11.2398
kompatible	-11.2412
theoretiker	-11.2412
▁angestrebt	-11.2412
▁aufwändig	-11.2412
▁differential	-11.2412
▁gewünschte	-11.2412
kriterium	-11.2412
syndrom	-11.2412
thriller	-11.2412
▁fourier	-11.2412
aggregat	-11.2412
konfiguration	-11.2412
▁zeitweilig	-11.2412
▁curium	-11.2412
▁fernsehserie	-11.2414
▁prinz	-11.2417
▁handwerker	-11.2418
▁blues	-11.242
▁frühling	-11.2421
tugend	-11.2427
kost	-11.2429
soziologie	-11.2429
▁magnetfeld	-11.2433
schüsse	-11.2441
anfang	-11.2444
▁eingangs	-11.2449
schlange	-11.2457
▁bundesstraße	-11.2459
▁gewachsen	-11.246
weitaus	-11.2473
▁spielfilm	-11.2478
blend	-11.2489
▁turn	-11.2498
bewerber	-11.2501
▁benutzen	-11.2501
▁benötigen	-11.2501
▁bosporus	-11.2501
▁fibonacci	-11.2501
▁jürgen	-11.2501
▁karolinger	-11.2501
▁lebenserwartung	-11.2501
▁augsburg	-11.2501
▁cambridge	-11.2501
▁quantitativ	-11.2501
▁verzehr	-11.2502
▁verhaftet	-11.2502
▁attribut	-11.2502
▁araber	-11.2502
zucker	-11.2503
allergene	-11.2503
▁ausgewiesen	-11.2504
▁hass	-11.2505
▁quasi	-11.2507
▁herzustellen	-11.2508
▁lsd	-11.2509
▁erkrankte	-11.251
▁außenpolitik	-11.251
▁mannheim	-11.251
▁gallien	-11.2511
▁rauch	-11.2513
▁gleichmäßig	-11.2514
wäg	-11.252
▁dampfmaschine	-11.2525
▁hegel	-11.2526
▁kunststoff	-11.2532
▁ernsthaft	-11.2535
▁1896	-11.2538
fossilien	-11.254
geschenk	-11.2541
atlas	-11.2541
▁weltliche	-11.2542
▁1895	-11.2545
▁schleif	-11.2549
▁hypo	-11.2564
▁nordwestlich	-11.2574
genannt	-11.2577
▁heimisch	-11.2577
lampe	-11.258
controller	-11.2592
▁individuum	-11.2592
▁kompliziert	-11.2592
▁pseudonym	-11.2592
▁virtuelle	-11.2592
▁nährstoff	-11.2592
gruppierung	-11.2592
▁besatzungszone	-11.2592
▁skelett	-11.2592
▁detailliert	-11.2592
schränke	-11.2592
▁anlehnung	-11.2592
▁schiller	-11.2592
▁vergessen	-11.2592
▁beratung	-11.2593
▁samuel	-11.2593
▁verleger	-11.2593
▁beachten	-11.2594
▁vorlesungen	-11.2597
▁initiiert	-11.2597
▁platin	-11.2598
ämie	-11.2598
▁biogas	-11.2599
▁zeus	-11.2601
käfer	-11.2603
▁nationalpark	-11.2603
▁zeitgenossen	-11.2604
▁zusammenhängend	-11.2609
▁straßenverkehr	-11.261
▁hängen	-11.2615
▁fordert	-11.2619
atorium	-11.2621
▁mangelnde	-11.2636
▁wolle	-11.2637
▁you	-11.2645
7.000	-11.2657
kanzler	-11.2668
kloster	-11.2675
angaben	-11.2676
fledermaus	-11.2682
fälschung	-11.2682
▁diktator	-11.2682
▁angreifer	-11.2682
▁babbage	-11.2682
▁eingemeindung	-11.2682
▁portugal	-11.2682
▁protagonist	-11.2682
▁reduzieren	-11.2682
▁wässrige	-11.2682
umsetzer	-11.2683
▁gefertigt	-11.2683
▁kinetische	-11.2683
▁gefüllt	-11.2683
▁nolde	-11.2684
infarkt	-11.2684
spirit	-11.2685
▁gewürz	-11.2685
▁panzer	-11.2687
muschel	-11.2687
▁floh	-11.2688
▁revision	-11.2694
▁hirn	-11.2699
stöße	-11.2702
wirtschaftskrise	-11.2703
▁spenden	-11.2724
▁außenpolitisch	-11.2725
faust	-11.2752
bündnis	-11.2767
frankfurt	-11.2767
▁klaus	-11.2767
schön	-11.2767
algorithm	-11.2768
taxi	-11.2772
▁pazifik	-11.2774
▁bremerhaven	-11.2774
▁empfunden	-11.2774
▁erzbischof	-11.2774
konkurrent	-11.2774
sprünge	-11.2774
▁benennung	-11.2774
▁freudenstadt	-11.2774
▁variation	-11.2774
▁vorbereitet	-11.2774
▁bearbeitet	-11.2774
triumph	-11.2774
▁lord	-11.2775
plastik	-11.2777
▁rotkreuz	-11.2777
▁vermitteln	-11.2777
▁autonomie	-11.2779
drama	-11.2787
arterie	-11.2791
urlaub	-11.2798
▁5000	-11.2806
pause	-11.2809
gewandt	-11.2812
▁gerne	-11.2814
zufuhr	-11.2817
▁elektrisch	-11.2834
▁nachweisbar	-11.284
▁http	-11.2842
flamme	-11.2845
owski	-11.2852
gefahr	-11.2854
ämter	-11.2862
sommer	-11.2863
▁cadmium	-11.2867
▁gefärbt	-11.2867
▁repräsentant	-11.2867
▁stellvertretend	-11.2867
▁abraham	-11.2867
▁untersuchen	-11.2867
▁postuliert	-11.2867
▁dinkel	-11.2867
▁gleichwohl	-11.2869
▁helfen	-11.2871
▁urban	-11.2872
▁unbedingt	-11.2877
emissionen	-11.2878
übergang	-11.288
▁irakische	-11.2881
▁zurückgeführt	-11.2881
▁bahnstrecke	-11.2882
▁rückzug	-11.2885
▁sprech	-11.2885
▁brems	-11.289
▁lebensraum	-11.289
▁ibn	-11.2896
fassungsgericht	-11.2902
▁löst	-11.2912
maßnahme	-11.2915
6.000	-11.2917
▁mobilfunk	-11.2925
▁mathematisch	-11.2927
▁kopier	-11.2936
amino	-11.2944
▁markante	-11.2953
▁geöffnet	-11.296
▁molybdän	-11.296
▁vermieden	-11.296
akkumulator	-11.296
kommandant	-11.296
restaurant	-11.296
▁geschwister	-11.296
▁unzureichend	-11.296
▁überraschend	-11.296
▁abweichungen	-11.296
▁norwegen	-11.296
▁göttinger	-11.296
▁minimal	-11.2961
autobahn	-11.2961
▁kälte	-11.2961
moderne	-11.2961
▁akzent	-11.2962
▁jordanien	-11.2963
▁garantiert	-11.2964
▁urkunde	-11.2965
▁namentlich	-11.2968
▁menschenrechts	-11.2976
▁elbing	-11.2988
erträge	-11.3
interesse	-11.301
fries	-11.3011
codier	-11.3013
arbeitslosigkeit	-11.3034
quadr	-11.3035
▁älter	-11.3036
himmel	-11.3041
▁mazedonische	-11.3042
bauweise	-11.3047
▁santa	-11.3054
▁komponiert	-11.3055
▁medikamente	-11.3055
▁souveränität	-11.3055
▁unterworfen	-11.3055
▁everest	-11.3055
▁invasion	-11.3055
▁mondkrater	-11.3055
▁amateur	-11.3055
▁gültigkeit	-11.3055
▁markgraf	-11.3057
▁stumm	-11.3058
▁erlauben	-11.3058
▁kleinasien	-11.3058
▁alpha	-11.3063
fänger	-11.3065
▁nadel	-11.307
selbst	-11.307
▁freigesetzt	-11.3072
▁gottheit	-11.3079
▁armut	-11.308
alpin	-11.3125
▁röntgen	-11.3133
▁grundschule	-11.3143
ible	-11.3149
▁mandelbrot	-11.315
▁karolingische	-11.315
▁professionelle	-11.315
▁ukraine	-11.315
▁abstammung	-11.315
▁angemessen	-11.315
▁verwirklicht	-11.315
▁vermutung	-11.315
▁reichweite	-11.3152
▁beinahe	-11.3153
▁abgeschafft	-11.3153
natürliche	-11.3153
gegner	-11.3153
ozyten	-11.3158
lohn	-11.3161
▁altertum	-11.3163
▁trend	-11.3165
▁grafische	-11.3168
▁antimon	-11.317
füße	-11.3171
▁1,3	-11.3179
pakt	-11.3196
▁kurfürst	-11.3212
▁etliche	-11.3216
▁mehrheitlich	-11.3219
▁chilenische	-11.3222
akzept	-11.3244
stützpunkt	-11.3245
substanz	-11.3245
▁buddhistische	-11.3246
▁herkömmliche	-11.3246
▁innovation	-11.3246
gletscher	-11.3246
▁verschlüsselung	-11.3246
▁zulässig	-11.3246
▁meißen	-11.3246
regulierung	-11.3246
spekulation	-11.3246
▁thematisiert	-11.3246
▁einzigartig	-11.3246
▁strikt	-11.3247
▁jegliche	-11.3248
▁wolken	-11.3249
wappen	-11.3253
▁fortgesetzt	-11.3254
prozent	-11.3256
klassische	-11.3258
▁wechselnde	-11.3259
formula	-11.3259
manager	-11.326
▁niedrigste	-11.3266
▁mindest	-11.3283
▁dorn	-11.3284
leiste	-11.3289
▁simon	-11.3292
▁ulm	-11.3293
▁lenk	-11.3308
bricht	-11.3311
laser	-11.3315
8.000	-11.3322
elefant	-11.3337
regierungsbezirk	-11.3337
▁partition	-11.3338
▁americium	-11.3343
▁exponential	-11.3343
▁profitiert	-11.3343
▁südöstlich	-11.3343
▁dokumentarfilm	-11.3343
▁kronach	-11.3343
▁kaffee	-11.3343
▁ordnet	-11.3343
▁kurzfristig	-11.3343
▁präzise	-11.3343
pixel	-11.3344
▁niedersachsen	-11.3345
intensität	-11.3345
▁jedenfalls	-11.3345
▁kubisch	-11.3345
streitigkeiten	-11.3346
stream	-11.3346
▁erlassen	-11.3349
▁gewaltsam	-11.3349
digital	-11.3351
▁2023	-11.3355
▁stattfindende	-11.3358
▁kristallisiert	-11.336
▁milchstraße	-11.3376
font	-11.3381
light	-11.3383
▁bereitete	-11.3396
täler	-11.3411
verschwörung	-11.3441
▁addition	-11.3441
▁eastwood	-11.3441
▁erneuerbare	-11.3441
▁chirac	-11.3441
▁hilbert	-11.3441
▁sobald	-11.3441
mythos	-11.3441
▁gemäßigten	-11.3441
▁belastet	-11.3441
schaftswahl	-11.3442
▁francisco	-11.3443
▁derjenige	-11.3443
▁wortschatz	-11.3444
▁luftangriff	-11.3445
feindliche	-11.3447
▁einigung	-11.3447
▁grenzwert	-11.3451
initiative	-11.3453
ingenieur	-11.3453
alphabet	-11.3453
ehemalige	-11.3453
konzert	-11.3453
lizenz	-11.3454
album	-11.3454
▁pollen	-11.3456
gigant	-11.3456
▁irland	-11.3458
▁berühmteste	-11.3461
▁1600	-11.3463
▁north	-11.3473
▁grundstück	-11.3489
▁hetero	-11.3493
notation	-11.3496
place	-11.3497
genauso	-11.3507
▁nordost	-11.3528
▁strukturell	-11.3532
absorption	-11.354
▁arafat	-11.354
▁baumwoll	-11.354
▁behindert	-11.354
▁eingegliedert	-11.354
▁angrenzenden	-11.354
reserven	-11.354
▁sakral	-11.354
▁debian	-11.354
▁ulrich	-11.3541
▁kriegsgefangene	-11.3542
▁jemand	-11.3542
▁besiegt	-11.3542
sterblichkeit	-11.3543
▁maßstab	-11.3544
▁kaufkraft	-11.3544
▁diskurs	-11.3545
▁mount	-11.3546
▁verkörpert	-11.3546
▁herausforderung	-11.3547
triebwerk	-11.3552
impuls	-11.3555
heide	-11.3555
knochen	-11.3555
motiv	-11.3557
ärzte	-11.3559
▁gesundheitliche	-11.3571
▁montag	-11.3571
_17	-11.358
▁grönländische	-11.3588
jährig	-11.3596
olu	-11.3602
▁saure	-11.3628
potenzial	-11.364
▁geschlechter	-11.364
▁plötzlich	-11.364
▁madrid	-11.364
▁unterbrochen	-11.364
▁verbündeten	-11.364
▁norwegische	-11.364
▁nennenswerte	-11.364
▁variieren	-11.364
▁oxidationsstufe	-11.3641
▁lewis	-11.3641
▁niemand	-11.3641
▁erdkruste	-11.3641
▁größenordnung	-11.3642
▁erdoberfläche	-11.3643
▁fertigstellung	-11.3646
▁locker	-11.3654
▁luftfahrt	-11.3655
trennung	-11.3658
mathematik	-11.3658
▁psychische	-11.3663
▁glut	-11.3666
eigentum	-11.3667
kruste	-11.3669
viren	-11.3673
▁kämpfte	-11.3686
▁argumentiert	-11.3687
wild	-11.37
▁südwestlich	-11.3729
▁grundsätze	-11.3731
▁galileo	-11.3741
▁mikroorganismen	-11.3741
▁nicholson	-11.3741
▁potsdam	-11.3741
▁rumänien	-11.3741
▁fortpflanzung	-11.3741
hockey	-11.3741
▁verschwinden	-11.3741
atlantisch	-11.3741
▁bamberg	-11.3741
▁kletter	-11.3742
▁verlieren	-11.3742
▁festgehalten	-11.3742
diplom	-11.3742
▁agrar	-11.3742
▁protestanten	-11.3743
apfel	-11.3743
sulfat	-11.3748
▁gliedert	-11.3756
informatik	-11.3762
hälfte	-11.3763
design	-11.3764
musical	-11.3765
▁untergeordnete	-11.3775
täter	-11.3784
▁mechanisch	-11.3788
▁alleinige	-11.3799
▁benachbarte	-11.381
▁gemeinderat	-11.3811
mikro	-11.382
münze	-11.3824
katalysator	-11.3843
kommissar	-11.3843
▁ackerbau	-11.3843
▁allianz	-11.3843
▁keineswegs	-11.3843
▁nominal	-11.3843
▁experten	-11.3844
pyramide	-11.3844
▁attraktiv	-11.3844
▁scharon	-11.3844
▁single	-11.3844
▁gysi	-11.3844
hierarchie	-11.3844
▁graphit	-11.3844
operator	-11.3845
▁befreit	-11.3846
▁konventionelle	-11.3846
▁anatomisch	-11.3849
turbine	-11.385
expression	-11.385
▁linth	-11.3851
▁blumen	-11.3853
▁zuständigkeit	-11.3855
▁friedlich	-11.3858
lieferant	-11.3863
pumpe	-11.3864
▁alkali	-11.3868
▁gemischt	-11.387
▁regierende	-11.387
außen	-11.3883
▁gesell	-11.3891
gesandte	-11.3923
▁erbracht	-11.3925
englischsprachig	-11.3926
summe	-11.3932
▁nutzbar	-11.3941
beleuchtung	-11.3946
▁stattfindet	-11.3946
▁praktiziert	-11.3946
▁klammer	-11.3946
▁taxon	-11.3946
▁tragödie	-11.3946
▁palais	-11.3946
▁ehrenamtlich	-11.3946
▁strebt	-11.3946
schädlich	-11.3946
▁marcus	-11.3947
matrix	-11.3947
zuschließen	-11.3947
▁benedikt	-11.3947
▁andauernde	-11.3947
▁zerfällt	-11.3948
▁asteroid	-11.3949
▁stationiert	-11.395
berechenbar	-11.3952
▁erschwert	-11.3952
▁wörterbuch	-11.3952
▁niederschläge	-11.3953
▁umweltschutz	-11.3953
▁algorithmen	-11.3953
▁hofheim	-11.3957
gekauft	-11.396
▁anhaltende	-11.3966
▁eiserne	-11.3969
kontinent	-11.3974
wettbewerb	-11.3974
flieger	-11.3994
letzte	-11.4004
▁hunde	-11.4022
0,6	-11.4024
gui	-11.4037
konstrukt	-11.4037
▁architektonisch	-11.405
▁unregelmäßig	-11.405
▁venezuela	-11.405
▁scheitern	-11.405
▁anatomie	-11.4051
▁erwartungen	-11.4051
▁manifest	-11.4051
▁aikid	-11.4051
▁melodram	-11.4051
▁blütezeit	-11.4051
▁ehrungen	-11.4051
▁mythen	-11.4051
carotin	-11.4052
▁galaxien	-11.4053
▁verhältnismäßig	-11.4056
▁verbraucher	-11.4058
▁elektrotechnik	-11.4058
▁salzburg	-11.4064
▁überreste	-11.4065
▁kommunistische	-11.4066
militär	-11.4082
▁gleichberechtig	-11.4109
▁jordan	-11.4152
▁erwähnen	-11.4156
▁kasachstan	-11.4156
▁sizilien	-11.4156
▁tolkien	-11.4156
▁ästhetische	-11.4156
▁amsterdam	-11.4156
▁außergewöhnlich	-11.4156
▁multiplikation	-11.4156
▁singular	-11.4156
▁tödlich	-11.4156
▁schottland	-11.4156
▁kultiviert	-11.4156
▁dutzend	-11.4156
▁eignet	-11.4156
▁iwf	-11.4156
▁safran	-11.4156
▁verursachen	-11.4156
▁lanthanoide	-11.4156
▁behauptung	-11.4156
▁aurel	-11.4156
▁elektrolyt	-11.4156
▁bezeugt	-11.4158
▁bedürfnisse	-11.4158
▁blüh	-11.4158
cluster	-11.416
▁holly	-11.4162
▁bezahlt	-11.4164
▁zeilen	-11.4165
▁fassen	-11.4169
▁lateinamerika	-11.4171
court	-11.4177
johann	-11.4191
▁kinofilm	-11.4204
▁familienname	-11.4212
tägliche	-11.4227
▁dramatisch	-11.4235
▁charakterisiert	-11.4239
▁obige	-11.425
bedürfnis	-11.426
ästhetik	-11.4262
▁auswärtige	-11.4262
▁berücksichtigen	-11.4262
▁gedeutet	-11.4262
▁gänzlich	-11.4262
▁konkurrieren	-11.4262
▁rettungs	-11.4262
▁stellvertreter	-11.4262
gebrannt	-11.4262
▁laubblätter	-11.4262
gladbach	-11.4262
▁gestattet	-11.4262
▁isaac	-11.4262
▁vergeblich	-11.4262
schwanz	-11.4263
▁arnim	-11.4263
training	-11.4263
chronik	-11.4264
▁kompakt	-11.4264
▁meeresspiegel	-11.4264
▁erreger	-11.4264
▁beirut	-11.4265
▁capra	-11.4268
▁schweizerische	-11.4272
▁schmelzpunkt	-11.4273
gespräch	-11.43
gegenüber	-11.4305
schüler	-11.4307
gleis	-11.4309
kathode	-11.4333
derivat	-11.434
▁zinn	-11.4341
iodid	-11.4346
▁musikalisch	-11.4366
ifikation	-11.4369
filmschauspieler	-11.437
▁leukämie	-11.437
▁verteidigt	-11.437
▁abgetrennt	-11.437
▁angekündigt	-11.437
▁kompromiss	-11.437
▁neuseeländische	-11.437
▁syntax	-11.437
▁treibhausgas	-11.437
▁nebeneinander	-11.437
▁spacey	-11.437
▁hinterlassen	-11.437
▁sokrates	-11.437
▁dickdarm	-11.437
▁hinreichend	-11.437
▁fuchs	-11.4371
▁kelch	-11.4371
▁integral	-11.4371
▁flughäfen	-11.4372
▁westeuropa	-11.4376
demokratie	-11.4377
virus	-11.4383
▁gsm	-11.4387
▁brennstoff	-11.4396
▁indigene	-11.4399
▁0,2	-11.4401
öffentlich	-11.4405
dialekt	-11.4408
genutzt	-11.4412
brüder	-11.4412
▁blütenstände	-11.4419
flucht	-11.4424
gelöst	-11.4427
konvert	-11.4435
▁wann	-11.4449
▁unterliegen	-11.4453
gedrängt	-11.4478
kontinuum	-11.4478
verträglich	-11.4478
▁bildhauer	-11.4478
▁holocaust	-11.4478
▁konzipiert	-11.4478
▁eritrea	-11.4478
▁rüssel	-11.4478
▁entropie	-11.4478
▁verkürzt	-11.4478
▁concorde	-11.4478
freimaurer	-11.4478
▁cameron	-11.4478
▁botanik	-11.4478
▁fuller	-11.4479
▁vorrangig	-11.4479
▁homogen	-11.4479
▁herangezogen	-11.4479
imperial	-11.448
geachtet	-11.448
▁gregorianischen	-11.4482
▁schöpfer	-11.4482
▁gorillas	-11.4483
▁audio	-11.4483
behälter	-11.4483
▁anwesend	-11.4484
▁wahlkampf	-11.4485
▁verbliebenen	-11.4485
▁überzeugen	-11.4487
innung	-11.4504
bevölkerungszahl	-11.4505
treiber	-11.4511
▁kreuzzüge	-11.4522
cholesterin	-11.4523
insbesondere	-11.4524
teilnehmer	-11.4526
kroatisch	-11.453
sversuche	-11.4555
hlenwasserstoffe	-11.4555
prakti	-11.4575
▁verlieh	-11.4584
▁silicium	-11.4588
unerwünscht	-11.4588
▁beryllium	-11.4588
▁ergänzen	-11.4588
▁fälschlich	-11.4588
▁tacitus	-11.4588
▁willkür	-11.4588
▁öffnen	-11.4588
▁übereinstimmung	-11.4588
▁meitner	-11.4588
▁schädel	-11.4588
abgekürzt	-11.4588
▁kronberg	-11.4588
▁periodisch	-11.4588
▁erneuert	-11.4588
▁verstarb	-11.4588
▁parlamentswahl	-11.4588
▁menschenaffen	-11.4589
▁aktien	-11.4589
▁schickte	-11.4589
▁schöneberg	-11.4589
saurier	-11.459
▁onkel	-11.459
▁fernsehsender	-11.459
therapeutische	-11.459
▁westafrika	-11.4591
▁reichskanzler	-11.4591
▁indianer	-11.4592
▁euromünzen	-11.4593
▁osteuropa	-11.4594
▁bronzezeit	-11.4594
▁legion	-11.4596
▁geografische	-11.4603
▁beibehalt	-11.4612
▁praktik	-11.4616
▁unterhaltungs	-11.4623
götter	-11.4637
entwurf	-11.4645
▁newtonsche	-11.4692
▁francis	-11.4698
▁anglikanische	-11.4699
▁ermittlung	-11.4699
▁transzendent	-11.4699
▁öffnet	-11.4699
▁unterirdisch	-11.4699
▁infrarot	-11.4699
▁unterliegt	-11.4699
▁ammonium	-11.4699
distrikt	-11.4699
▁veröffentlichen	-11.47
▁selber	-11.47
▁subjektiv	-11.47
osse	-11.4701
▁tibet	-11.4703
▁diplomat	-11.4706
rupp	-11.4734
▁hinterließ	-11.4735
▁trivia	-11.4754
spektive	-11.4758
▁hubble	-11.4812
kathedrale	-11.4812
▁eingebettet	-11.4812
▁eschborn	-11.4812
▁fühlte	-11.4812
▁nuklear	-11.4812
▁gesteigert	-11.4812
▁magistrat	-11.4812
▁leonhard	-11.4812
▁ausgeübt	-11.4812
kapsel	-11.4812
▁befreundet	-11.4812
▁gelingt	-11.4812
fonds	-11.4813
flossen	-11.4813
▁xenon	-11.4813
▁bewahrt	-11.4813
▁bandkeramik	-11.4813
machung	-11.4814
schneider	-11.4816
▁angehören	-11.4817
silikat	-11.4817
▁volta	-11.4817
verkäufe	-11.482
▁statische	-11.4832
fraktion	-11.4847
▁theaterstück	-11.4861
labor	-11.4865
bewohner	-11.4869
rahmen	-11.4871
herrscher	-11.4871
write	-11.4877
wünsche	-11.4889
kompatibilität	-11.4925
▁chemotherapie	-11.4925
▁flörsheim	-11.4925
▁fußgänger	-11.4925
▁giovanni	-11.4925
▁implikation	-11.4925
physiologie	-11.4925
▁begeistert	-11.4925
▁league	-11.4925
▁research	-11.4925
▁säkular	-11.4925
treptow	-11.4925
▁vorliegt	-11.4925
▁kolben	-11.4926
▁next	-11.4926
▁black	-11.4928
griech	-11.4929
▁bestritt	-11.4929
zeremonie	-11.4932
▁informiert	-11.4938
▁trink	-11.4941
falten	-11.4943
▁innenpolitisch	-11.4951
widrig	-11.4959
▁befunde	-11.4971
trägt	-11.4972
gereicht	-11.4972
▁indiz	-11.4977
moral	-11.4982
aufgaben	-11.4987
soldaten	-11.499
▁eulersche	-11.5027
▁humor	-11.5027
circ	-11.5027
architekt	-11.503
sächlich	-11.5038
▁californium	-11.504
karzinom	-11.504
präsidium	-11.504
▁annäherung	-11.504
▁bagdad	-11.504
▁esoterik	-11.504
▁intervention	-11.504
▁javascript	-11.504
▁metropolregion	-11.504
▁resultierende	-11.504
▁signifikant	-11.504
▁neptun	-11.504
▁verankert	-11.504
▁kardinal	-11.504
▁permanent	-11.504
▁zwangsarbeit	-11.504
▁aufgegriffen	-11.504
▁übertrug	-11.5041
script	-11.5041
▁drittgrößte	-11.5041
▁kennzeichnen	-11.5041
löhne	-11.5041
▁horizontal	-11.5041
▁behandeln	-11.5042
▁entfallen	-11.5042
gewähr	-11.5044
▁aroma	-11.5046
▁schwächer	-11.5049
▁vizepräsident	-11.5049
▁denkbar	-11.505
zwischenzeitlich	-11.5072
lutherisch	-11.5087
meile	-11.5102
menschliche	-11.5106
▁urheberrecht	-11.5153
trasse	-11.5155
blütler	-11.5157
▁beschäftigen	-11.5157
▁physiologische	-11.5157
▁rekonstruiert	-11.5157
▁weitestgehend	-11.5157
kolibri	-11.5157
trächtig	-11.5157
▁stoiber	-11.5157
▁felix	-11.5157
tägige	-11.5157
▁reflexion	-11.5157
▁edition	-11.5157
▁vegeta	-11.5158
▁ablehnte	-11.5158
▁fachhochschule	-11.5158
▁stirn	-11.5158
▁botanische	-11.5158
epidemie	-11.5159
▁maxwell	-11.5159
nobelpreisträger	-11.5159
▁berber	-11.5159
chronologisch	-11.516
▁irdische	-11.516
▁lösungsmittel	-11.516
▁afghanische	-11.5161
materiell	-11.5167
defekt	-11.517
spira	-11.5171
wöh	-11.5179
welterbe	-11.5182
blockade	-11.5186
▁sichtweise	-11.5199
allgemeine	-11.5226
schränkt	-11.5259
▁verwies	-11.527
therapeut	-11.5272
▁amtierende	-11.5272
jubiläum	-11.5274
▁abschließend	-11.5274
▁begegnet	-11.5274
▁fraunhofer	-11.5274
▁hieroglyphen	-11.5274
▁homosexuelle	-11.5274
▁ikosaeder	-11.5274
▁sklaverei	-11.5274
▁staatsoberhaupt	-11.5274
▁staubblätter	-11.5274
▁unternommen	-11.5274
▁urkundlich	-11.5274
▁clemens	-11.5274
▁glasgow	-11.5274
▁deflation	-11.5274
▁bischöfe	-11.5274
▁hindenburg	-11.5274
pfeiler	-11.5274
▁biblische	-11.5274
▁tarif	-11.5276
▁kernreaktor	-11.5277
▁emmy	-11.5277
atmung	-11.5281
petit	-11.5294
kategorie	-11.5347
preußen	-11.5348
louis	-11.5348
▁jahrzehnt	-11.5364
gespielt	-11.5387
sterblich	-11.5393
leutnant	-11.5393
▁helgoländer	-11.5393
▁kommunisten	-11.5393
▁kelvin	-11.5393
▁boolesche	-11.5393
▁inhaltsstoffe	-11.5393
gehängt	-11.5393
zertifikat	-11.5393
▁verdacht	-11.5394
▁drachen	-11.5394
▁überarbeitet	-11.5394
peptid	-11.5394
folgung	-11.5394
▁bisweilen	-11.5395
▁droste	-11.5395
▁gesetzgebung	-11.5396
▁chronisch	-11.5396
▁kraftfahrzeug	-11.5396
▁barks	-11.5397
theorem	-11.5398
vorlesung	-11.5398
▁adria	-11.5399
town	-11.5427
klausel	-11.5431
▁schrittweise	-11.5431
schleife	-11.5452
bernstein	-11.5472
außer	-11.5472
fernseh	-11.5512
▁kyrillische	-11.5514
▁mobiltelefon	-11.5514
▁modifiziert	-11.5514
▁rutherford	-11.5514
▁staatshaushalt	-11.5514
▁äquator	-11.5514
▁befürchtet	-11.5514
▁rugby	-11.5514
▁hervorragend	-11.5514
▁metaphysische	-11.5514
▁bemerkt	-11.5514
▁versaille	-11.5514
▁beurteilung	-11.5514
▁quarz	-11.5514
▁delegierte	-11.5514
▁erholung	-11.5514
zirkel	-11.5514
▁mündlich	-11.5515
▁strauß	-11.5516
▁schwefelsäure	-11.5517
offensive	-11.5521
schleuse	-11.5521
gerüst	-11.5524
▁ideologisch	-11.5524
überschuss	-11.5528
▁keltische	-11.5533
parasit	-11.5548
▁kara	-11.5561
unserer	-11.5575
kontraktion	-11.5581
▁physikalisch	-11.5592
grönland	-11.5596
praxis	-11.5596
▁evangeli	-11.5624
académie	-11.5636
hülshoff	-11.5636
▁broadway	-11.5636
▁dicaprio	-11.5636
▁hochmittelalter	-11.5636
▁identifikation	-11.5636
▁verbrannt	-11.5636
▁winslet	-11.5636
begeisterung	-11.5636
▁county	-11.5636
▁wikinger	-11.5636
rbeitslosenquote	-11.5636
▁äther	-11.5636
▁gemeldet	-11.5636
▁dogma	-11.5636
übersetzer	-11.5636
regulation	-11.5636
chronologie	-11.5636
▁betraf	-11.5636
▁verliert	-11.5636
▁datierung	-11.5637
▁erarbeitet	-11.5637
präsenz	-11.5638
▁anregung	-11.5638
2,6	-11.5649
haufen	-11.566
▁respekt	-11.5692
▁belief	-11.5709
▁angeklagt	-11.5759
▁dissertation	-11.5759
▁föhn	-11.5759
▁glycerin	-11.5759
▁resultiert	-11.5759
▁thüringen	-11.5759
▁verschlechtert	-11.5759
▁vermindert	-11.5759
▁öfter	-11.5759
debüt	-11.5759
▁befragt	-11.5759
▁fiktive	-11.5759
▁lehnwörter	-11.5759
absolvent	-11.5759
▁nacheinander	-11.5759
▁pflegte	-11.5759
adaption	-11.5759
▁stefan	-11.5759
▁konstruktiv	-11.576
▁ideologie	-11.5761
▁lehrstuhl	-11.5761
▁anschauung	-11.5762
statut	-11.5771
trainer	-11.5772
absolut	-11.5849
jüdische	-11.5851
bremse	-11.5858
begriffsklärung	-11.5884
▁foundation	-11.5884
▁ganymed	-11.5884
▁nachträglich	-11.5884
▁picture	-11.5884
▁reflektiert	-11.5884
▁santiago	-11.5884
▁woraufhin	-11.5884
emigrant	-11.5884
▁columbia	-11.5884
mörder	-11.5884
redakteur	-11.5884
▁folgendermaßen	-11.5884
▁flexion	-11.5884
▁noether	-11.5884
▁weblinks	-11.5884
▁chopin	-11.5884
▁langlebig	-11.5884
▁diogenes	-11.5884
▁letztendlich	-11.5884
double	-11.5884
arabien	-11.5885
▁kanzlerkandidat	-11.5885
▁verdient	-11.5885
direkt	-11.5886
neolithische	-11.5887
▁geformt	-11.589
▁vernichten	-11.5893
wirtschaftszweig	-11.5928
blume	-11.5976
gebrauch	-11.5979
getreide	-11.5981
grafikkarte	-11.5986
ürzt	-11.5989
indian	-11.6002
kompatibel	-11.6011
▁archimedes	-11.6011
▁bestrebungen	-11.6011
▁gewerblich	-11.6011
▁schmetterling	-11.6011
analytik	-11.6011
lokomotive	-11.6011
▁administrativ	-11.6011
▁phosphor	-11.6011
▁schwankt	-11.6011
▁selektion	-11.6011
▁stephan	-11.6011
▁angegriffen	-11.6011
▁liestal	-11.6011
▁braille	-11.6011
▁oxford	-11.6011
schießen	-11.6011
▁darauffolgende	-11.6011
▁beurteilt	-11.6011
▁anwender	-11.6011
▁überprüft	-11.6012
▁psychologische	-11.6014
erscheinungsbild	-11.6014
köpfe	-11.6017
▁prototyp	-11.6035
tabelle	-11.6043
selbstverwaltung	-11.6057
gemein	-11.6064
kabinett	-11.6112
ethanol	-11.6133
anstrengung	-11.6139
gekoppelt	-11.6139
pädagogisch	-11.6139
schwäbische	-11.6139
weltkulturerbe	-11.6139
▁geweiht	-11.6139
▁hirohito	-11.6139
▁klassifiziert	-11.6139
▁volksabstimmung	-11.6139
▁wöchentlich	-11.6139
kapitän	-11.6139
▁stängel	-11.6139
▁drastisch	-11.6139
▁inflationsrate	-11.6139
▁weitreichende	-11.6139
▁harmonisch	-11.6139
pigment	-11.614
dämme	-11.6141
▁betreut	-11.6142
▁glüh	-11.6142
▁morphologisch	-11.6142
▁beliebteste	-11.6162
lappen	-11.6175
▁fundament	-11.6197
▁düssel	-11.6268
konjugation	-11.6269
▁analysiert	-11.6269
▁begrüßt	-11.6269
▁entnommen	-11.6269
▁erzbistum	-11.6269
▁holzwickede	-11.6269
▁jungsteinzeit	-11.6269
▁kaschmir	-11.6269
▁verhängt	-11.6269
▁verwundet	-11.6269
▁würzburg	-11.6269
publizist	-11.6269
aldehyd	-11.6269
▁pflanzliche	-11.6269
flüchtig	-11.6269
▁gagarin	-11.6269
▁marketing	-11.6269
▁zahlungsmittel	-11.6269
schuppen	-11.6269
▁arnold	-11.6269
▁aussterben	-11.6269
▁flandern	-11.6269
verschmutzung	-11.6269
▁entfernen	-11.6269
▁irrational	-11.6269
▁metropole	-11.6269
▁saturn	-11.6269
▁hitze	-11.627
▁dramen	-11.627
▁konsumenten	-11.627
▁drückt	-11.627
minderung	-11.627
▁gerufen	-11.627
predigt	-11.6271
▁zeugnisse	-11.6273
spür	-11.6279
▁orange	-11.6282
5,2	-11.6283
▁initial	-11.6287
▁schildert	-11.6288
zuwachs	-11.6292
million	-11.6381
sogenannte	-11.6382
böhm	-11.6386
▁nikola	-11.6392
besser	-11.6394
grammatik	-11.6398
▁konstituier	-11.64
neolithikum	-11.64
oberbefehlshaber	-11.64
saccharid	-11.64
▁armstrong	-11.64
▁aufbewahrt	-11.64
▁empfahl	-11.64
▁hafnium	-11.64
▁halifax	-11.64
▁nomenklatur	-11.64
▁nützlich	-11.64
▁ungeklärt	-11.64
▁vergrößerung	-11.64
pronomina	-11.64
▁logistik	-11.64
▁deportiert	-11.6401
brockhaus	-11.6401
▁witwe	-11.6401
▁unruhen	-11.6401
▁entstammt	-11.6401
▁siedepunkt	-11.6402
▁würfel	-11.6402
skizze	-11.6403
▁fluid	-11.6403
wolke	-11.6404
bäder	-11.6405
barriere	-11.648
gewählt	-11.649
dehnung	-11.6501
professor	-11.6518
▁kardio	-11.6521
▁brau	-11.653
▁football	-11.6534
boykott	-11.6534
▁alljährlich	-11.6534
▁assoziiert	-11.6534
▁commodore	-11.6534
▁filmfestspiele	-11.6534
▁fortgeschritten	-11.6534
▁geäußert	-11.6534
▁gleichermaßen	-11.6534
▁horror	-11.6534
▁propagiert	-11.6534
▁renommierte	-11.6534
▁stadtverordnete	-11.6534
▁südkorea	-11.6534
▁transkription	-11.6534
▁vatikan	-11.6534
▁verschärft	-11.6534
▁ärztlich	-11.6534
▁einzugsgebiet	-11.6534
▁ausgeglichen	-11.6534
▁abwesenheit	-11.6534
tagsabgeordnete	-11.6534
apotheke	-11.6534
▁angefertigt	-11.6534
▁ausgestrahlt	-11.6534
zwiebel	-11.6534
▁osmanen	-11.6534
▁glocken	-11.6534
▁adlige	-11.6536
▁geliebte	-11.6537
▁with	-11.6538
tribun	-11.6538
göttlich	-11.6545
▁ernest	-11.6549
gnade	-11.6598
product	-11.66
▁überlebte	-11.6616
%	-11.6657
zentriert	-11.6668
geschmolzen	-11.6669
verzögert	-11.6669
▁akkadisch	-11.6669
▁mesopotamien	-11.6669
▁québec	-11.6669
▁rechtsprechung	-11.6669
▁söldner	-11.6669
▁veranschaulich	-11.6669
▁bachelor	-11.6669
▁vorangetrieben	-11.6669
muskulatur	-11.6669
▁kollision	-11.6669
▁cicero	-11.6669
▁hirntod	-11.6669
▁vorhersage	-11.6669
▁weigerte	-11.6669
spezies	-11.667
▁erheben	-11.667
▁behaupten	-11.667
zettel	-11.6671
▁frost	-11.6671
heidnisch	-11.6675
trommel	-11.6685
tauglich	-11.6715
gewerbe	-11.6797
jugend	-11.6798
physikalische	-11.6798
gorilla	-11.6801
galaxie	-11.6802
▁berkelium	-11.6806
▁coppola	-11.6806
▁verdauung	-11.6806
skandinavisch	-11.6806
▁beabsichtigt	-11.6806
▁bonaparte	-11.6806
▁exklusiv	-11.6806
▁fichtelgebirge	-11.6806
▁geringfügig	-11.6806
▁mazedonien	-11.6806
▁massage	-11.6806
▁vorträge	-11.6806
▁zwingend	-11.6806
▁wasserlöslich	-11.6806
▁suizid	-11.6806
▁märchen	-11.6806
▁erfordern	-11.6806
▁trajan	-11.6806
▁untersagt	-11.6806
▁fragestellungen	-11.6806
▁hirsch	-11.6809
▁ankara	-11.6809
discount	-11.6811
bändige	-11.6811
▁meldete	-11.6816
aufbereitung	-11.6818
schiefer	-11.682
schnell	-11.6823
ablagerungen	-11.6825
▁estnische	-11.6843
metabol	-11.6853
schweige	-11.6909
science	-11.694
wirksam	-11.694
diagnostik	-11.6945
navigation	-11.6945
palästinensische	-11.6945
▁chicago	-11.6945
▁durkheim	-11.6945
▁erläutert	-11.6945
▁großzügig	-11.6945
▁schwankungen	-11.6945
▁unerwartet	-11.6945
▁vietnam	-11.6945
▁ähneln	-11.6945
▁plinius	-11.6945
▁donald	-11.6945
▁beherrschen	-11.6945
▁föhr	-11.6945
▁luhmann	-11.6945
▁vermischt	-11.6945
africa	-11.6945
▁schräg	-11.6945
▁antoine	-11.6945
▁vinci	-11.6945
▁rebellen	-11.6945
▁gabriel	-11.6946
▁abitur	-11.6946
▁akteure	-11.6946
▁vertikal	-11.6946
▁behaart	-11.6946
gehäuse	-11.6947
faltung	-11.6948
knospe	-11.6949
▁inhaftiert	-11.695
▁knüpfte	-11.6961
behaftet	-11.6963
▁haltbar	-11.6966
▁äußert	-11.7065
3,6	-11.7072
▁erkennt	-11.7084
horizont	-11.7084
chemikalie	-11.7086
professur	-11.7086
verteidiger	-11.7086
▁angezeigt	-11.7086
▁etablieren	-11.7086
▁optimierung	-11.7086
▁ruhrgebiet	-11.7086
▁sebastian	-11.7086
▁semmelweis	-11.7086
▁skandinavien	-11.7086
zigeuner	-11.7086
▁wiesbaden	-11.7086
hydrid	-11.7086
▁greift	-11.7086
▁erfassen	-11.7086
▁zensur	-11.7086
▁office	-11.7086
▁furcht	-11.7086
▁milieu	-11.7086
▁icq	-11.7086
▁landsgemeinde	-11.7086
▁verborgen	-11.7086
▁raumsonde	-11.7087
▁leichen	-11.7088
▁niue	-11.7088
▁überwacht	-11.7088
wolf	-11.7089
metastase	-11.7091
tournee	-11.7092
freunde	-11.7092
▁aminosäure	-11.7092
ornith	-11.7098
▁bemannte	-11.7107
tagsfraktion	-11.7115
collect	-11.7116
▁sortier	-11.7204
verdächtig	-11.7228
spektroskopie	-11.7228
verzögerung	-11.7228
▁beeindruckt	-11.7228
▁essentiell	-11.7228
▁föderal	-11.7228
▁kriftel	-11.7228
▁legislative	-11.7228
▁tertiär	-11.7228
▁koordiniert	-11.7228
▁navy	-11.7228
▁rätsel	-11.7228
köpfige	-11.7229
▁namhafte	-11.7229
▁verdoppelt	-11.7229
gremium	-11.7229
▁claude	-11.723
▁wusste	-11.723
durchmesser	-11.7232
american	-11.7232
jazz	-11.7233
▁fixiert	-11.7233
zulassen	-11.7237
▁klinische	-11.7237
▁sowjet	-11.7246
gestützte	-11.7293
siedeln	-11.7336
▁klassik	-11.7353
gaddafi	-11.7373
succinit	-11.7373
▁aggressiv	-11.7373
▁aristotelische	-11.7373
▁artillerie	-11.7373
▁cricket	-11.7373
▁gewährleistet	-11.7373
▁jugoslawische	-11.7373
▁matthias	-11.7373
▁missbrauch	-11.7373
▁referendum	-11.7373
▁zamenhof	-11.7373
trägheit	-11.7373
▁dominikaner	-11.7373
▁garnison	-11.7373
▁theatre	-11.7373
▁tabak	-11.7374
▁entscheidet	-11.7374
▁gesichtspunkt	-11.7374
▁spanier	-11.7374
▁alkalimetalle	-11.7374
▁desktop	-11.7374
▁dvd	-11.7374
reservat	-11.7374
kompanie	-11.7374
▁return	-11.7374
routine	-11.7374
▁blutgefäße	-11.7375
▁kostete	-11.7375
▁universelle	-11.7376
▁mineralogi	-11.7377
▁iberische	-11.7377
▁marcel	-11.7379
▁böhmische	-11.7384
▁stürzte	-11.7384
brände	-11.7393
kirchlich	-11.7447
▁feierlich	-11.7457
magnetische	-11.7474
leuc	-11.7493
▁0,4	-11.7512
▁lanthan	-11.752
schädling	-11.752
▁amnesty	-11.752
▁dodekaeder	-11.752
▁empfiehlt	-11.752
▁erleichtert	-11.752
▁kubikmeter	-11.752
▁langobarden	-11.752
▁lörrach	-11.752
▁slowenien	-11.752
▁verfehlt	-11.752
▁versammelt	-11.752
▁bonsai	-11.752
▁gegeneinander	-11.752
detektor	-11.752
aquilegia	-11.752
▁entlehnt	-11.7521
▁erosion	-11.7521
dungeon	-11.7521
▁dasselbe	-11.7522
▁stress	-11.7522
▁krautige	-11.7522
edikt	-11.7524
amerika	-11.7526
plateau	-11.7531
infrastruktur	-11.7533
▁kriegerische	-11.7569
▁staatsangehörig	-11.7588
▁bestellt	-11.7604
rippe	-11.7664
glänzend	-11.767
qualifiziert	-11.767
▁berührt	-11.767
▁berührung	-11.767
▁böblingen	-11.767
▁etymologisch	-11.767
▁gewährleisten	-11.767
▁hervorgerufen	-11.767
▁massaker	-11.767
▁schimpansen	-11.767
▁prestige	-11.767
▁geschieden	-11.767
▁promotion	-11.767
▁iulius	-11.767
▁godard	-11.767
▁twain	-11.767
attraktion	-11.767
european	-11.767
▁knolle	-11.7671
▁erregte	-11.7675
▁verhandelt	-11.7675
referat	-11.7675
▁rasant	-11.7679
schriftsteller	-11.7688
maritime	-11.7689
flasche	-11.777
erfahrung	-11.7786
simula	-11.7811
ology	-11.7813
gesättigt	-11.7821
wöchige	-11.7821
▁bertolucci	-11.7821
▁fortschreitende	-11.7821
▁genehmigt	-11.7821
▁korrespondenz	-11.7821
▁pompeius	-11.7821
▁widersprüchlich	-11.7821
independent	-11.7821
▁iupac	-11.7821
▁potenziell	-11.7821
▁weltanschauung	-11.7821
▁fennek	-11.7821
▁jpeg	-11.7821
▁anscheinend	-11.7821
▁roboter	-11.7821
▁widerlegt	-11.7821
▁geleistet	-11.7822
gitarre	-11.7822
▁numerische	-11.7822
▁vereinheitlich	-11.7822
▁verhaftung	-11.7822
monitor	-11.7823
▁schweine	-11.7823
generator	-11.7825
▁anschaulich	-11.7827
kölln	-11.7827
▁saudi	-11.783
gärung	-11.7832
erkannt	-11.7833
▁loyal	-11.7836
halogenide	-11.7839
▁fortlaufend	-11.7842
ernährung	-11.7844
spanien	-11.7844
sverhandlungen	-11.7846
präfixe	-11.787
„	-11.7896
▁charlotte	-11.7974
egislaturperiode	-11.7975
hohenzollern	-11.7975
quotient	-11.7975
▁antisemitismus	-11.7975
▁benchmarking	-11.7975
▁gadolinium	-11.7975
▁kehlkopf	-11.7975
▁großflächig	-11.7975
▁organisatorisch	-11.7975
▁thomson	-11.7975
▁anwendbar	-11.7975
▁genügt	-11.7975
▁griffith	-11.7975
▁verdanken	-11.7975
▁schwanken	-11.7975
pipeline	-11.7975
▁antarktis	-11.7975
▁getestet	-11.7975
verringerung	-11.7975
▁beseitigung	-11.7975
▁erweitern	-11.7975
darlehen	-11.7975
▁eiderente	-11.7975
einträge	-11.7975
▁aufzubauen	-11.7975
▁urheber	-11.798
einanderfolgende	-11.7984
versagen	-11.7988
bunker	-11.7989
aufenthalt	-11.8002
entstehung	-11.8002
▁gestützt	-11.8061
betäubungsmittel	-11.8131
spektakulär	-11.8131
▁coltrane	-11.8131
▁corporation	-11.8131
▁demonstriert	-11.8131
▁hexadezimal	-11.8131
▁illustriert	-11.8131
▁implizit	-11.8131
▁innerstädtische	-11.8131
▁kohlendioxid	-11.8131
▁makedonen	-11.8131
▁pazifische	-11.8131
▁technology	-11.8131
▁verschwunden	-11.8131
▁beendigung	-11.8131
▁energetisch	-11.8131
▁entsprechung	-11.8131
▁erhitzen	-11.8131
▁irgendw	-11.8131
▁palästina	-11.8131
▁verfasser	-11.8131
▁descartes	-11.8131
▁genitiv	-11.8131
▁sesshaft	-11.8131
▁website	-11.8131
▁andrew	-11.8131
▁aneinander	-11.8131
▁glarus	-11.8131
▁berief	-11.8132
▁novell	-11.8132
▁davy	-11.8132
▁toxisch	-11.8133
▁verwechselt	-11.8134
▁beseitigt	-11.8134
▁literarisch	-11.8161
geschehen	-11.8163
karriere	-11.8163
radikal	-11.8163
franzose	-11.8196
führbar	-11.829
administration	-11.829
berücksichtigung	-11.829
▁promoviert	-11.829
▁spirituelle	-11.829
▁steiermark	-11.829
▁uhrzeigersinn	-11.829
▁äußerlich	-11.829
gefährdung	-11.829
▁hingewiesen	-11.829
▁mnemotechnik	-11.829
▁eppstein	-11.829
stufige	-11.829
▁depression	-11.829
▁kurzlebige	-11.829
▁stephen	-11.829
▁cayman	-11.829
▁dazugehörige	-11.829
▁zugeteilt	-11.829
▁semantisch	-11.829
<	-13.1607
