<unk>	0
<s>	0
</s>	0
.	-3.39229
▁	-3.43659
,	-3.61257
en	-3.73687
▁der	-3.81491
s	-3.81572
▁die	-3.91714
e	-4.02213
▁und	-4.15
n	-4.25946
▁in	-4.39176
-	-4.71272
▁von	-4.8717
er	-4.93745
▁den	-5.02293
▁im	-5.1668
▁das	-5.19154
▁des	-5.19947
▁mit	-5.21705
"	-5.23094
▁(	-5.23372
▁zu	-5.30334
t	-5.359
▁auf	-5.38149
▁"	-5.39588
▁ein	-5.40179
▁als	-5.42444
▁ist	-5.54163
▁eine	-5.54914
▁dem	-5.55724
r	-5.56603
)	-5.62466
▁an	-5.62567
▁für	-5.62935
▁sich	-5.63059
▁aus	-5.69967
▁er	-5.71853
#	-5.75302
▁auch	-5.79851
▁#	-5.82136
▁wurde	-5.87133
▁nach	-5.94218
▁„	-5.96051
▁bei	-6.01679
ung	-6.02062
m	-6.02566
▁durch	-6.03112
es	-6.08796
▁es	-6.09586
▁werden	-6.12099
▁nicht	-6.16014
▁sind	-6.17066
▁über	-6.18714
d	-6.2001
▁oder	-6.22687
:	-6.23224
▁war	-6.23502
▁einer	-6.24903
▁vor	-6.2608
“	-6.26894
▁wird	-6.27471
te	-6.29223
▁sie	-6.29292
▁am	-6.30845
▁um	-6.36011
▁ver	-6.38583
▁bis	-6.39545
▁be	-6.40026
▁ab	-6.42146
▁unter	-6.42771
▁wie	-6.47043
▁zum	-6.48691
▁zur	-6.53429
in	-6.5351
de	-6.5548
k	-6.58537
▁dass	-6.61739
▁einem	-6.62342
a	-6.63183
▁diese	-6.63551
g	-6.66146
▁so	-6.66942
z	-6.70991
c	-6.7189
ten	-6.72991
f	-6.73552
b	-6.75164
▁b	-6.78079
▁nur	-6.78616
▁wurden	-6.82329
▁einen	-6.82676
="	-6.83267
▁ge	-6.83676
▁–	-6.83792
;	-6.85296
).	-6.88974
|	-6.90208
o	-6.90453
▁18	-6.96547
/	-6.96698
us	-6.97263
ischen	-6.9809
l	-6.98476
h	-6.98515
an	-7.00482
al	-7.02722
▁aber	-7.02879
be	-7.02937
▁noch	-7.04253
y	-7.04397
▁stadt	-7.05024
),	-7.06165
ge	-7.08049
▁da	-7.08058
den	-7.08894
ische	-7.10137
▁seit	-7.11993
▁dieser	-7.1581
u	-7.1595
der	-7.16737
▁zwischen	-7.17304
i	-7.18249
▁etwa	-7.18262
w	-7.18378
p	-7.1861
▁seine	-7.18872
▁kann	-7.19293
vom	-7.20095
▁man	-7.21111
▁sowie	-7.22258
ig	-7.23065
▁hat	-7.23574
▁zwei	-7.2368
▁ihre	-7.23864
▁a	-7.24441
▁jahr	-7.24783
▁zeit	-7.24848
▁seiner	-7.25346
▁sein	-7.26903
▁waren	-7.30158
isch	-7.33667
st	-7.34666
▁un	-7.35078
▁eines	-7.35425
▁jedoch	-7.35496
▁hatte	-7.35789
sch	-7.35843
um	-7.35924
▁m	-7.36853
or	-7.37441
is	-7.38514
▁re	-7.38754
▁mehr	-7.40113
▁k	-7.42117
ver	-7.42254
▁de	-7.43249
▁formula	-7.43261
iert	-7.445
▁gegen	-7.44668
▁sch	-7.45034
it	-7.45461
▁jahre	-7.46408
▁wieder	-7.46432
▁können	-7.4847
▁teil	-7.4848
le	-7.4876
re	-7.49038
on	-7.49064
doc	-7.50562
ä	-7.5264
>	-7.54457
v	-7.55016
ar	-7.55465
ch	-7.55573
zeit	-7.55778
▁v	-7.55914
▁g	-7.5693
em	-7.57193
ungen	-7.57453
▁während	-7.5787
▁jahrhundert	-7.5797
▁haben	-7.58235
▁1	-7.58494
▁jahren	-7.58651
▁d	-7.59612
ter	-7.59822
ein	-7.60073
▁%	-7.60527
2	-7.61598
lich	-7.61836
▁damit	-7.62515
ü	-7.62738
ab	-7.62957
▁gibt	-7.63361
▁z	-7.63899
ma	-7.64263
▁c	-7.64451
▁anderen	-7.64648
at	-7.65227
▁alle	-7.65237
▁selbst	-7.6526
di	-7.65937
ation	-7.66127
▁drei	-7.66159
",	-7.66453
el	-7.66774
ul	-7.66883
gen	-7.68052
ö	-7.6819
ern	-7.69155
▁ersten	-7.69218
▁f	-7.70231
▁h	-7.71469
▁film	-7.72499
et	-7.73646
ismus	-7.74498
ur	-7.75311
▁ent	-7.76389
▁bereits	-7.76767
▁neben	-7.76895
land	-7.77205
▁später	-7.77577
▁sehr	-7.79139
▁dabei	-7.79299
▁heute	-7.79471
▁erst	-7.8041
▁2	-7.80568
▁menschen	-7.81097
▁keine	-7.81214
▁ihr	-7.81612
▁erste	-7.81963
▁welt	-7.82047
ut	-7.82727
▁allem	-7.8345
▁wo	-7.83554
▁weitere	-7.83977
▁pro	-7.84018
▁wenn	-7.85025
to	-7.85232
ta	-7.85373
▁deutschen	-7.85504
ien	-7.85623
▁zusammen	-7.85987
zu	-7.86766
org	-7.88467
ste	-7.89168
▁deutschland	-7.89553
▁p	-7.89879
il	-7.90648
keit	-7.90898
▁land	-7.90916
▁17	-7.91178
ion	-7.91234
▁st	-7.91751
ieren	-7.91825
▁ende	-7.92017
▁zurück	-7.92219
ing	-7.92303
ia	-7.93082
▁seinen	-7.9429
▁dann	-7.94444
▁neu	-7.94511
▁ihrer	-7.95023
bau	-7.95648
au	-7.95847
os	-7.96462
grund	-7.9771
igen	-7.97983
▁viele	-7.98229
▁andere	-7.98681
▁ihm	-7.99126
ie	-7.99196
▁t	-7.99198
▁hier	-7.99301
▁sondern	-7.99753
ierte	-8.00364
▁seinem	-8.00375
cht	-8.01754
liche	-8.02001
3	-8.0216
die	-8.03026
▁bezeichnet	-8.03131
na	-8.03239
me	-8.03258
he	-8.03783
▁was	-8.03786
▁3	-8.03941
▁beim	-8.042
▁konnte	-8.04315
heit	-8.04604
▁w	-8.05572
lichen	-8.05722
ierung	-8.05907
im	-8.05936
▁form	-8.06003
är	-8.06073
sten	-8.06084
▁grund	-8.06312
?	-8.06808
▁verwendet	-8.07093
▁la	-8.07658
▁dort	-8.07736
▁wasser	-8.07872
é	-8.07906
bzw	-8.08524
▁landes	-8.09046
▁se	-8.09235
la	-8.09581
mann	-8.09728
–	-8.0977
▁vier	-8.09819
schaft	-8.0992
bar	-8.09997
▁immer	-8.10083
▁kam	-8.10671
aus	-8.10858
ne	-8.11074
▁le	-8.11265
stand	-8.11356
vi	-8.11399
_	-8.11462
ium	-8.11821
▁16	-8.11932
▁beispiel	-8.11966
▁bekannt	-8.12759
▁große	-8.12795
ik	-8.12856
▁sei	-8.13358
▁gab	-8.13616
ige	-8.13741
▁diesem	-8.13832
▁einige	-8.13912
▁haupt	-8.14165
▁l	-8.14324
▁frei	-8.1461
▁fest	-8.14654
un	-8.14924
▁id	-8.15111
ri	-8.15541
li	-8.15627
x	-8.15707
und	-8.16219
▁her	-8.16284
4	-8.16401
da	-8.1647
the	-8.16559
ra	-8.16782
▁weiter	-8.16946
ende	-8.16955
▁sp	-8.17017
▁allerdings	-8.17027
wikipedia	-8.17027
ic	-8.17365
▁neue	-8.17649
▁bau	-8.17842
▁meist	-8.17898
▁dessen	-8.1849
▁hoch	-8.18843
▁("	-8.19156
▁ohne	-8.1919
ck	-8.19508
")	-8.19638
mo	-8.1998
“.	-8.20026
am	-8.2047
▁ca	-8.20618
▁liegt	-8.20791
ir	-8.21124
▁(19	-8.21184
gt	-8.21241
▁schon	-8.21491
wiki	-8.21781
https	-8.21919
▁sa	-8.22614
stadt	-8.22961
▁leben	-8.22978
▁url	-8.23005
▁oft	-8.23217
://	-8.23253
▁15	-8.2331
▁title	-8.23421
▁<	-8.23709
▁categories	-8.23761
curid	-8.23764
▁of	-8.23832
▁</	-8.23855
▁bundes	-8.23858
sa	-8.23932
=	-8.24213
lo	-8.24247
▁al	-8.24266
man	-8.24349
▁mai	-8.24446
end	-8.24601
▁ober	-8.24676
id	-8.24791
▁ebenfalls	-8.25605
▁großen	-8.26372
▁rund	-8.26373
▁dazu	-8.26645
po	-8.2669
▁bedeutung	-8.26866
▁ko	-8.26936
▁ihn	-8.27301
kt	-8.2732
ität	-8.27403
ro	-8.27497
“,	-8.28091
)|	-8.28115
▁also	-8.28479
▁beiden	-8.29318
vor	-8.29558
th	-8.29977
auf	-8.30168
j	-8.30399
▁i	-8.30489
▁geschichte	-8.30489
▁prozent	-8.30536
ba	-8.30593
1	-8.30788
ben	-8.31563
▁häufig	-8.3163
▁möglich	-8.31878
▁groß	-8.31946
▁natur	-8.32235
▁hin	-8.32489
▁daher	-8.32573
▁anderem	-8.32837
ad	-8.32913
▁je	-8.33212
enden	-8.33235
▁kultur	-8.33313
▁art	-8.33419
▁gilt	-8.33765
as	-8.33876
system	-8.33937
▁welche	-8.34125
▁gleich	-8.34232
burg	-8.34398
gel	-8.34443
▁west	-8.34771
’	-8.35033
sp	-8.35375
form	-8.35695
son	-8.35792
▁genannt	-8.3593
▁insbesondere	-8.3603
ler	-8.36252
zi	-8.36265
ca	-8.3637
▁kaiser	-8.364
ster	-8.36432
berg	-8.36544
stein	-8.36704
▁beispielsweise	-8.36807
mer	-8.37029
▁zunächst	-8.37132
▁luft	-8.37297
io	-8.37348
▁4	-8.37651
▁millionen	-8.37927
▁mehrere	-8.3812
▁begriff	-8.38128
▁u	-8.38151
▁worden	-8.38418
▁stark	-8.38612
▁fünf	-8.38615
isten	-8.38694
ha	-8.38717
ber	-8.38964
▁deutsche	-8.39069
▁5	-8.39112
ze	-8.39146
ka	-8.40148
iz	-8.40256
ß	-8.40359
rat	-8.40711
▁kon	-8.40905
▁reich	-8.41109
▁entwicklung	-8.41304
chen	-8.41472
▁statt	-8.41794
▁jahrhunderts	-8.4193
▁rolle	-8.42247
▁nord	-8.42441
mm	-8.425
fall	-8.42747
▁zweiten	-8.42765
▁macht	-8.4285
▁chr	-8.4293
satz	-8.43055
ist	-8.43186
ton	-8.43202
▁li	-8.43284
gang	-8.43482
▁us	-8.43585
si	-8.44003
pp	-8.44202
▁10	-8.44219
do	-8.44407
▁neuen	-8.44859
du	-8.44929
6	-8.45044
▁energie	-8.45099
▁wahl	-8.45106
▁fa	-8.453
▁reichs	-8.459
tum	-8.46424
haus	-8.46455
▁gesellschaft	-8.4691
▁na	-8.47197
▁wegen	-8.4721
ger	-8.47322
▁besonders	-8.47524
▁ha	-8.47709
▁di	-8.47825
ti	-8.48141
▁lebens	-8.48145
▁namen	-8.48206
co	-8.48466
tag	-8.48482
▁bereich	-8.48608
ischer	-8.49047
▁wort	-8.49084
ner	-8.49259
▁1.	-8.49291
mi	-8.49426
▁kunst	-8.49516
her	-8.49733
▁unterschiedlich	-8.4975
▁mo	-8.49786
ko	-8.49954
pl	-8.50219
▁he	-8.50357
go	-8.50523
▁meisten	-8.5054
▁ob	-8.50709
ell	-8.513
tra	-8.51624
0	-8.51849
hl	-8.51866
▁august	-8.52052
▁fast	-8.52085
mit	-8.52363
heim	-8.5268
▁juli	-8.52785
▁20	-8.52882
▁ost	-8.53056
▁wobei	-8.53251
stellung	-8.53259
ol	-8.53285
▁staats	-8.53439
wert	-8.53484
tion	-8.53919
▁gegenüber	-8.54254
zahl	-8.54993
▁ra	-8.55021
▁europa	-8.55189
▁berlin	-8.55252
art	-8.55267
)"	-8.55739
▁direkt	-8.56093
schen	-8.56382
▁mar	-8.56403
▁ar	-8.56461
▁kurz	-8.56569
▁fall	-8.56665
pf	-8.56702
▁innerhalb	-8.56833
iv	-8.5692
▁per	-8.5716
tor	-8.57397
▁musik	-8.57728
▁erhielt	-8.57738
▁zahl	-8.57779
▁ma	-8.57853
▁werk	-8.58123
▁führte	-8.5853
ale	-8.5856
▁sollte	-8.58597
▁viel	-8.58677
▁außerdem	-8.58868
▁besteht	-8.58924
ierten	-8.58949
ke	-8.59021
▁14	-8.59039
▁ro	-8.59196
▁rück	-8.59216
▁soll	-8.59262
zen	-8.59318
we	-8.59475
ll	-8.59574
▁diesen	-8.59585
recht	-8.6022
teil	-8.6045
▁süd	-8.60454
▁körper	-8.60483
bi	-8.60551
ken	-8.60767
no	-8.60908
ex	-8.60932
▁januar	-8.61367
werk	-8.61385
isierung	-8.61447
▁vi	-8.61873
ologie	-8.62022
▁frankreich	-8.6214
ier	-8.62217
▁steht	-8.62238
bahn	-8.62645
▁co	-8.62646
▁19.	-8.62663
▁erstmals	-8.62685
▁märz	-8.628
▁sprache	-8.62849
▁oktober	-8.63052
eck	-8.63068
▁(„	-8.63262
▁zahlreiche	-8.63292
ph	-8.63784
ach	-8.63959
pa	-8.6396
▁mittel	-8.64103
tik	-8.64193
▁krieg	-8.64208
op	-8.64421
ho	-8.64427
▁april	-8.64765
▁recht	-8.64849
▁gut	-8.64853
▁tod	-8.65082
▁bevölkerung	-8.65103
▁hatten	-8.65201
so	-8.65271
▁system	-8.65309
ativ	-8.65326
▁national	-8.65438
ja	-8.65507
ci	-8.65747
▁verschiedene	-8.66358
▁buch	-8.66602
_1	-8.66735
▁aller	-8.66767
▁kom	-8.67089
▁begann	-8.67425
▁könig	-8.6762
hi	-8.67623
▁juni	-8.67633
▁september	-8.67753
bereich	-8.67788
▁mal	-8.68049
▁euro	-8.68166
0.000	-8.68211
▁pa	-8.68225
trag	-8.68237
säure	-8.68247
▁staaten	-8.68315
ag	-8.68324
dem	-8.68407
▁dezember	-8.68547
5	-8.68548
leg	-8.6864
▁funktion	-8.68745
ich	-8.68754
▁fl	-8.68794
▁6	-8.68797
▁the	-8.68803
▁daten	-8.68956
schw	-8.68989
sche	-8.69261
▁allen	-8.69338
legen	-8.69359
▁partei	-8.6941
ius	-8.69758
▁zwar	-8.69851
▁november	-8.70088
▁12	-8.70094
▁ka	-8.70194
om	-8.70216
▁raum	-8.70288
▁deutlich	-8.70427
reich	-8.70481
per	-8.70612
ft	-8.70618
stoff	-8.70619
▁13	-8.70985
▁ziel	-8.71157
▁entstanden	-8.71315
istischen	-8.71363
▁rechts	-8.71404
mon	-8.71665
▁weiteren	-8.7172
zug	-8.71748
▁erhalten	-8.71852
ry	-8.71939
ly	-8.71972
▁arbeits	-8.72213
(	-8.7233
rä	-8.72338
▁ho	-8.72379
pi	-8.72401
tri	-8.72501
les	-8.72738
▁j	-8.72794
▁kreis	-8.72956
▁bo	-8.72977
raum	-8.73033
▁weit	-8.73082
▁finden	-8.73165
va	-8.73191
▁zudem	-8.73226
lei	-8.7329
▁universität	-8.73297
▁weil	-8.73319
▁davon	-8.73501
▁spiel	-8.73528
pe	-8.73673
▁to	-8.73737
▁lang	-8.73839
▁lange	-8.73873
spiel	-8.73886
über	-8.73927
ce	-8.73949
▁po	-8.74168
mittel	-8.74199
▁verschiedenen	-8.7428
fe	-8.74336
▁sowohl	-8.74716
straße	-8.74849
▁insgesamt	-8.74999
▁muss	-8.75199
buch	-8.75315
lauf	-8.75378
gabe	-8.75637
ent	-8.75671
10	-8.75679
▁ausge	-8.75736
gebiet	-8.75789
los	-8.75851
tel	-8.7597
ga	-8.76075
▁folge	-8.76302
sprache	-8.76372
▁lassen	-8.76446
▁"(	-8.76487
▁literatur	-8.76743
▁habe	-8.76783
▁7	-8.76951
film	-8.7698
▁nun	-8.77018
“)	-8.77058
rich	-8.77169
geschichte	-8.77235
feld	-8.77297
▁größte	-8.77572
del	-8.77709
▁ur	-8.77769
ring	-8.77948
▁zahlen	-8.78024
ator	-8.78259
▁gegründet	-8.78484
▁lo	-8.78592
▁km	-8.78644
▁regel	-8.79129
▁8	-8.79393
▁ri	-8.79699
▁anfang	-8.79706
ei	-8.79836
▁laut	-8.80114
▁teilweise	-8.80368
▁arbeit	-8.80416
▁regierung	-8.80699
kl	-8.80702
▁o	-8.80738
▁relativ	-8.80913
▁kinder	-8.81126
▁heraus	-8.81182
▁wert	-8.81229
od	-8.81304
gesetzt	-8.81421
▁befindet	-8.81441
istische	-8.81545
▁kommen	-8.81548
▁personen	-8.81641
▁dar	-8.81786
▁kein	-8.81844
20	-8.81862
bild	-8.81875
ve	-8.81875
igkeit	-8.81881
▁me	-8.81935
▁letzten	-8.8194
lö	-8.82008
gruppe	-8.8205
wahl	-8.82081
▁bezeichnung	-8.82171
tal	-8.82212
ard	-8.82247
▁vielen	-8.82364
lass	-8.82466
lt	-8.82507
▁ki	-8.82534
▁weltkrieg	-8.82582
▁ließ	-8.8278
▁blut	-8.82882
▁weniger	-8.82889
▁nieder	-8.82926
▁eigene	-8.83031
▁schwer	-8.83097
▁kriegs	-8.83173
druck	-8.83357
▁doch	-8.83505
haft	-8.83559
▁1990	-8.83583
lie	-8.83812
gesetz	-8.83856
▁karl	-8.83948
wi	-8.84008
verkehr	-8.84054
▁20.	-8.84056
18	-8.84124
▁gesamt	-8.84348
▁seines	-8.84409
wand	-8.84529
▁ta	-8.84727
▁hohe	-8.84735
▁usa	-8.84826
ff	-8.8488
theorie	-8.84904
wissenschaftlich	-8.85147
▁go	-8.85203
▁sitz	-8.85276
pro	-8.85401
ort	-8.85406
▁schließlich	-8.85464
mal	-8.85509
▁nachdem	-8.85617
▁gold	-8.85646
krieg	-8.85691
▁ursprünglich	-8.85867
▁abge	-8.86045
▁jede	-8.86053
▁findet	-8.86085
ak	-8.86129
ed	-8.86314
änd	-8.86339
tritt	-8.86376
ett	-8.86387
▁schnell	-8.86576
log	-8.86648
ot	-8.86693
▁du	-8.86704
▁europäischen	-8.86731
siehe	-8.8675
tin	-8.8707
leistung	-8.87116
▁dafür	-8.87158
platz	-8.8721
▁prä	-8.87214
▁bar	-8.87222
50	-8.87323
▁eu	-8.87352
kommen	-8.8744
fer	-8.87528
br	-8.87662
träger	-8.87905
▁fand	-8.88145
▁ganz	-8.88168
▁kommt	-8.88208
amp	-8.88313
gi	-8.88338
kon	-8.88353
▁sozial	-8.88398
dr	-8.88478
▁nahm	-8.88537
bo	-8.88539
▁ort	-8.88573
punkt	-8.88643
kreis	-8.88702
▁eingesetzt	-8.88895
ow	-8.89365
▁anti	-8.89511
▁gra	-8.89718
nis	-8.89748
00	-8.89804
▁arten	-8.89836
▁familie	-8.89959
ktion	-8.90114
ling	-8.90221
▁stand	-8.90419
▁gehören	-8.90499
▁bild	-8.90532
▁eng	-8.90636
arten	-8.90643
▁gebiet	-8.90685
▁dadurch	-8.91023
▁roman	-8.91083
ine	-8.912
▁beide	-8.91265
▁weg	-8.9128
ant	-8.91442
▁sprach	-8.91621
▁beginn	-8.91773
politik	-8.91822
kel	-8.91836
▁lässt	-8.92115
▁konnten	-8.92167
je	-8.92415
weg	-8.92473
▁sechs	-8.92551
net	-8.92652
technik	-8.92776
bildung	-8.92797
▁kern	-8.928
▁markt	-8.92872
▁weltweit	-8.92924
▁jeweils	-8.93054
▁unternehmen	-8.93054
ill	-8.93134
▁industrie	-8.93186
▁folgenden	-8.93207
tische	-8.9322
▁italien	-8.93224
ki	-8.93233
ok	-8.93445
▁x	-8.93479
elle	-8.9351
▁gehört	-8.93529
▁volks	-8.93547
ost	-8.93564
▁somit	-8.93762
weit	-8.93776
richtung	-8.93849
nahme	-8.94
ide	-8.94009
▁and	-8.94042
▁frauen	-8.94183
▁februar	-8.9425
▁größten	-8.94477
30	-8.94494
▁alt	-8.94499
▁su	-8.94509
▁tri	-8.94545
▁bilden	-8.94722
▁haus	-8.94912
uch	-8.94957
fa	-8.94962
▁name	-8.95
▁see	-8.95227
schluss	-8.95281
▁sprachen	-8.95435
▁darauf	-8.95566
▁einfluss	-8.95579
vo	-8.95747
▁ebenso	-8.96097
sel	-8.96354
▁verwendung	-8.9674
▁führt	-8.9685
ib	-8.96893
▁gen	-8.97147
▁atom	-8.97158
▁wichtige	-8.97442
▁führen	-8.97455
▁städte	-8.97518
nt	-8.97536
all	-8.97537
äng	-8.97596
ac	-8.97657
▁licht	-8.97789
▁mark	-8.97811
▁kirche	-8.97816
bruch	-8.97964
lang	-8.98026
gestellt	-8.98091
sicht	-8.9827
▁ja	-8.98313
bel	-8.98363
lage	-8.98429
64	-8.98469
–19	-8.98489
▁wirtschafts	-8.98541
▁erfolgreich	-8.98557
▁dr	-8.98581
ino	-8.98592
yl	-8.9869
min	-8.98712
▁ba	-8.98722
igt	-8.98854
mat	-8.98881
nach	-8.98903
▁ging	-8.98962
&	-8.99325
▁stehen	-8.9934
▁lag	-8.99341
▁gas	-8.9943
▁friedrich	-8.99455
schlag	-8.99472
schicht	-8.99733
sta	-8.99892
tischen	-9.00022
▁rahmen	-9.00182
sam	-9.00328
tz	-9.00361
▁leicht	-9.0046
ionen	-9.00492
kraft	-9.00732
schule	-9.00742
▁einwohner	-9.00906
▁bio	-9.00971
führung	-9.01019
▁eigenen	-9.01178
▁handelt	-9.01563
setzen	-9.01651
zeichen	-9.01684
cker	-9.01724
ni	-9.01727
▁30	-9.02047
▁0	-9.02114
▁hinaus	-9.02178
tur	-9.02207
▁jahres	-9.02211
▁bildet	-9.02228
▁entwickelte	-9.02256
▁hohen	-9.02439
▁ne	-9.02728
▁anteil	-9.02795
▁zunehmend	-9.0281
▁blieb	-9.02825
▁fach	-9.02837
bach	-9.02899
▁folgende	-9.03009
.“	-9.03087
▁genau	-9.0309
tan	-9.03135
wa	-9.03148
▁preis	-9.03196
res	-9.03207
ku	-9.03263
▁mess	-9.03418
▁sogar	-9.03421
programm	-9.03459
▁tief	-9.03486
hof	-9.03649
staat	-9.03674
▁ihnen	-9.03722
unter	-9.03792
▁gewählt	-9.03899
▁ange	-9.03936
che	-9.03978
welt	-9.04001
▁heutigen	-9.0402
fried	-9.04095
ina	-9.04301
▁vater	-9.04303
sätze	-9.04401
hin	-9.04424
wasser	-9.04583
▁mond	-9.04619
▁ni	-9.04822
netz	-9.04833
▁entstand	-9.04857
▁darunter	-9.05247
▁darüber	-9.05253
▁pi	-9.05477
▁mitte	-9.05509
gleich	-9.05539
hm	-9.05557
▁gemeinde	-9.05617
▁liegen	-9.05681
▁militär	-9.05789
iger	-9.05839
▁französischen	-9.05879
selben	-9.06076
▁rot	-9.06127
▁definition	-9.06128
oxid	-9.06261
zer	-9.06287
wie	-9.0629
▁rhein	-9.06353
▁pflanzen	-9.0636
▁damals	-9.06424
▁stellte	-9.06477
lu	-9.06485
▁privat	-9.06614
▁si	-9.06755
▁zeigt	-9.06785
▁vollständig	-9.06885
▁°	-9.06959
nz	-9.06961
▁(18	-9.06997
▁element	-9.07023
▁fort	-9.07042
▁einigen	-9.07108
▁=	-9.07119
▁trat	-9.07162
port	-9.07269
hr	-9.07299
isiert	-9.0739
▁bürger	-9.07452
▁titel	-9.0754
▁100	-9.07557
▁solche	-9.07629
▁republik	-9.0764
ang	-9.07697
gesellschaft	-9.078
▁or	-9.07808
▁hu	-9.07864
▁kraft	-9.08009
äu	-9.0802
▁as	-9.08029
▁stellt	-9.08079
▁druck	-9.08096
▁lu	-9.08217
bra	-9.08226
sitz	-9.08248
das	-9.08296
ian	-9.08386
▁zehn	-9.0844
ros	-9.08452
▁genutzt	-9.08536
▁do	-9.08536
ordnung	-9.08681
▁politische	-9.08759
▁setzte	-9.0877
▁erde	-9.08797
▁selten	-9.08828
fahrt	-9.08836
ive	-9.08865
▁platz	-9.08939
▁verbunden	-9.08959
▁schrift	-9.09004
griff	-9.09254
▁2011	-9.09262
▁erd	-9.09295
▁entwickelt	-9.09405
▁vergleich	-9.0948
▁wenig	-9.0962
▁geprägt	-9.09644
kal	-9.10019
▁hamburg	-9.10147
▁verb	-9.10185
pt	-9.10216
reg	-9.10217
durch	-9.10387
ert	-9.10497
▁eigenschaften	-9.10584
namen	-9.10762
▁flug	-9.1091
rü	-9.10987
▁enthalten	-9.11094
▁wohl	-9.11132
▁bi	-9.11309
ete	-9.11544
▁zentral	-9.11551
▁klima	-9.11703
14	-9.11727
haltung	-9.11786
mitglied	-9.11847
▁weiterhin	-9.11905
halt	-9.1198
▁münchen	-9.11983
▁betrieb	-9.12077
rie	-9.12225
ub	-9.12309
▁alten	-9.12364
▁ad	-9.1238
▁kl	-9.12449
▁größe	-9.12503
12	-9.12601
▁gelang	-9.12621
▁no	-9.12648
str	-9.12671
▁frage	-9.12688
▁politischen	-9.12941
▁bas	-9.13102
▁gruppe	-9.13169
▁geht	-9.13174
stellen	-9.1321
arbeit	-9.13366
000	-9.13539
▁ii	-9.13566
mus	-9.13569
ment	-9.13699
▁2008	-9.1375
▁zer	-9.13776
schrift	-9.13846
wo	-9.1387
▁2010	-9.13871
▁main	-9.13987
▁berg	-9.1411
tt	-9.14186
▁wirkung	-9.14215
▁musste	-9.14279
▁ru	-9.14305
▁kirchen	-9.14318
tet	-9.14396
lin	-9.14445
ug	-9.14493
schutz	-9.14532
▁heinrich	-9.14576
▁mitglied	-9.14578
▁klein	-9.1471
▁9	-9.14757
▁obwohl	-9.14786
▁mil	-9.1482
trieb	-9.14832
▁th	-9.14956
▁tage	-9.15002
q	-9.15072
▁50	-9.15098
▁tag	-9.15228
funktion	-9.15363
▁bestand	-9.15418
▁köln	-9.15529
mar	-9.15585
▁gegensatz	-9.15648
▁2006	-9.15654
▁bestehen	-9.15664
folge	-9.15812
▁mutter	-9.15914
▁halb	-9.15927
▁voll	-9.15943
war	-9.15976
,5	-9.16061
▁2000	-9.16153
▁ei	-9.1616
ständig	-9.16164
▁schwarz	-9.16431
▁handels	-9.16539
ack	-9.16549
ott	-9.16587
▁gott	-9.16591
▁modell	-9.16592
7	-9.16684
▁dis	-9.16778
▁kreuz	-9.16895
markt	-9.17013
19	-9.17024
▁schi	-9.17095
▁allgemein	-9.17151
▁1980	-9.17248
▁erreicht	-9.17279
preis	-9.1731
▁2007	-9.17493
▁san	-9.17569
za	-9.17597
ven	-9.17708
mäßig	-9.17877
▁allein	-9.17928
▁dagegen	-9.18042
▁ähnlich	-9.18056
up	-9.18071
ip	-9.18089
schau	-9.18231
▁gleichzeitig	-9.18441
cken	-9.18498
▁aktiv	-9.18579
auch	-9.18584
▁r	-9.18718
▁einsatz	-9.1884
▁darstellung	-9.18883
kor	-9.19037
ai	-9.19043
▁staat	-9.19046
▁österreich	-9.19102
brücke	-9.19144
lieb	-9.19197
▁grenz	-9.19217
▁jo	-9.19249
▁insel	-9.19334
▁sommer	-9.19364
weise	-9.19395
üh	-9.19565
▁jeder	-9.19619
▁verein	-9.19704
▁bisher	-9.19744
länder	-9.19755
11	-9.19819
▁11	-9.19846
▁ger	-9.19946
wechsel	-9.19987
▁zuvor	-9.19992
▁reihe	-9.20103
▁früh	-9.20175
tre	-9.20197
▁sinne	-9.20198
ron	-9.20234
alen	-9.20314
▁gu	-9.20349
voll	-9.20406
▁metall	-9.20479
▁gar	-9.20611
▁errichtet	-9.20654
▁2005	-9.20673
▁zeichen	-9.20837
25	-9.20898
▁üblich	-9.21004
▁band	-9.21074
▁zusammenhang	-9.21118
▁stadtteil	-9.21128
▁werke	-9.21164
▁internationale	-9.21205
see	-9.21246
lä	-9.21253
▁neuer	-9.21254
27	-9.21297
▁schul	-9.21348
fl	-9.21352
nehmen	-9.21391
▁hinter	-9.2141
ana	-9.21562
zeug	-9.21562
hor	-9.21656
▁mag	-9.217
▁bedeutende	-9.21715
▁ex	-9.21858
▁standard	-9.21875
gegeben	-9.21934
▁besondere	-9.22007
fi	-9.22116
▁kilometer	-9.22234
▁massen	-9.22254
person	-9.22346
▁vorhanden	-9.2235
▁alter	-9.22442
▁ag	-9.22473
▁früher	-9.22497
▁einzige	-9.2251
▁acht	-9.22519
▁verbindung	-9.22573
gruppen	-9.22665
▁1945	-9.22693
▁müssen	-9.227
park	-9.22852
33	-9.22875
▁sogenannte	-9.2288
cher	-9.22926
des	-9.22937
▁(20	-9.22958
ika	-9.23015
▁theorie	-9.23023
▁regional	-9.23039
28	-9.23137
▁2015	-9.23164
▁manche	-9.23211
▁trotz	-9.23245
▁bildung	-9.23273
▁herz	-9.23279
▁anzahl	-9.2328
▁struktur	-9.23324
▁heißt	-9.23332
▁sta	-9.23411
kirche	-9.23427
▁2013	-9.23512
▁eher	-9.23649
▁einzelnen	-9.23687
▁2009	-9.23738
itz	-9.23745
ld	-9.23784
akt	-9.23808
tisch	-9.23867
▁sport	-9.23941
▁danach	-9.2395
leben	-9.24129
▁2017	-9.24201
▁2016	-9.24319
60	-9.24352
▁japan	-9.24396
par	-9.24445
hen	-9.24693
age	-9.248
▁&	-9.24817
tro	-9.24881
ologische	-9.24886
▁geld	-9.24909
▁bewegung	-9.25074
bewegung	-9.25163
▁computer	-9.25397
▁rein	-9.25571
▁internationalen	-9.2565
kan	-9.25738
▁deshalb	-9.25804
▁forschung	-9.25816
▁reaktion	-9.25898
▁einzel	-9.2592
▁1970	-9.25944
▁nahe	-9.26025
bt	-9.26043
▁lage	-9.26104
▁außen	-9.26112
▁har	-9.26123
31	-9.2616
▁con	-9.26244
▁straßen	-9.26259
▁kor	-9.26357
▁regierungs	-9.26523
neu	-9.26563
bei	-9.26659
dorf	-9.26666
▁bestimmte	-9.26703
▁international	-9.2677
▁erster	-9.26777
nd	-9.26859
krank	-9.26934
▁unabhängig	-9.26995
▁zweite	-9.27031
sort	-9.27127
▁wollte	-9.27129
▁frühen	-9.27238
nah	-9.27249
80	-9.27301
▁bestimmt	-9.27306
ationen	-9.27315
▁stein	-9.27328
stab	-9.27334
stell	-9.27337
▁gemeinsam	-9.27415
▁schloss	-9.27433
zentrum	-9.27613
▁elemente	-9.27728
dia	-9.27805
▁eisen	-9.27835
▁hilfe	-9.28013
▁farb	-9.28017
▁arbeiten	-9.28029
▁fluss	-9.28031
bit	-9.28095
mut	-9.28172
13	-9.28206
ssen	-9.28247
▁hervor	-9.28402
▁kritik	-9.28422
▁sohn	-9.28477
schl	-9.28509
▁nationalsozial	-9.28697
▁2019	-9.28714
▁gelten	-9.2872
züge	-9.28726
▁seite	-9.28732
▁stellen	-9.28837
tes	-9.28858
frei	-9.29058
▁40	-9.29095
▁lehr	-9.29139
▁schrieb	-9.29172
▁gi	-9.29188
▁weitgehend	-9.2931
▁2012	-9.29324
▁anwendung	-9.29325
▁erneut	-9.29431
▁hitler	-9.29438
▁kar	-9.29506
stände	-9.29528
von	-9.29536
▁fi	-9.29594
▁gewesen	-9.29637
▁verfahren	-9.29647
▁westen	-9.29761
▁zusätzlich	-9.29794
▁digital	-9.29828
fen	-9.29861
ud	-9.2989
▁end	-9.29903
▁benannt	-9.29912
bare	-9.29918
▁meter	-9.3
▁letzte	-9.30021
typ	-9.30059
▁pe	-9.3007
▁kaum	-9.30157
fach	-9.30209
▁ga	-9.30295
▁alexander	-9.30404
kar	-9.30414
hol	-9.30517
▁new	-9.30564
▁mehreren	-9.30626
▁1960	-9.30656
▁chemische	-9.30662
▁2020	-9.30684
▁maß	-9.30805
gas	-9.30842
faktor	-9.30905
▁wir	-9.30919
ander	-9.31004
fest	-9.31005
halten	-9.31026
▁größere	-9.31078
rück	-9.31125
▁hingegen	-9.31159
▁em	-9.31317
▁anschließend	-9.31396
▁erfolg	-9.31562
licher	-9.3166
▁teile	-9.31712
▁definiert	-9.31771
29	-9.31795
▁reg	-9.31818
75	-9.31858
▁politik	-9.31873
acht	-9.31966
▁ländern	-9.32132
ker	-9.32171
▁bayern	-9.32193
▁künstler	-9.3232
▁masse	-9.32401
cu	-9.32499
▁besitzt	-9.32512
anlagen	-9.32597
▁speicher	-9.32601
▁tier	-9.32612
▁philosoph	-9.32674
▁tradition	-9.32683
kultur	-9.32718
ox	-9.32905
logisch	-9.32975
▁richtung	-9.32986
▁sogenannten	-9.33077
'	-9.33094
▁gesetz	-9.33122
▁wechsel	-9.3315
▁2014	-9.3318
▁entstehen	-9.33253
macht	-9.33272
▁zog	-9.33322
iden	-9.33345
▁johann	-9.33386
▁einfach	-9.33394
▁norden	-9.33457
▁spielte	-9.33533
▁zählt	-9.33592
▁car	-9.33606
ünd	-9.33639
▁veröffentlicht	-9.3365
▁darin	-9.33654
▁jünger	-9.33664
▁revolution	-9.33673
▁brief	-9.33681
▁sah	-9.33686
▁umfasst	-9.33793
qui	-9.33899
setzung	-9.3398
▁for	-9.34029
▁zentrum	-9.34043
▁verhältnis	-9.34193
▁frau	-9.34255
▁theater	-9.34256
▁strom	-9.34261
▁feld	-9.34299
fähigkeit	-9.34324
▁programm	-9.34426
and	-9.34469
lung	-9.345
äl	-9.34527
▁charakter	-9.34535
ya	-9.34715
gericht	-9.34738
att	-9.34783
▁gruppen	-9.349
▁hof	-9.34944
▁wahrscheinlich	-9.34945
alt	-9.3495
wer	-9.34952
▁wohn	-9.34953
plan	-9.35024
▁machte	-9.3504
▁brachte	-9.35056
▁wilhelm	-9.35124
▁schutz	-9.35221
formen	-9.35254
40	-9.35364
▁düsseldorf	-9.35466
▁übernahm	-9.35547
▁elektro	-9.3567
▁london	-9.35725
▁kleine	-9.35744
▁filme	-9.35785
turm	-9.35807
▁ak	-9.35837
gehalt	-9.35947
▁weiß	-9.36133
▁medien	-9.36161
fälle	-9.36205
▁region	-9.36213
▁john	-9.36248
san	-9.36281
▁hinzu	-9.36347
ick	-9.36443
▁erfolgt	-9.36455
▁cha	-9.3663
▁damalige	-9.3666
▁gebäude	-9.36738
änderung	-9.3676
▁unbe	-9.36762
8	-9.36857
▁general	-9.36869
wald	-9.36882
▁mitglieder	-9.37075
▁daneben	-9.37167
86	-9.37232
wirtschaft	-9.37299
▁befinden	-9.37302
gu	-9.37314
▁steuer	-9.37424
▁sub	-9.37447
förmig	-9.37564
rang	-9.37661
▁religion	-9.37759
▁etwas	-9.37785
wehr	-9.37886
gelegt	-9.37905
que	-9.37938
figur	-9.37984
struktur	-9.38007
ou	-9.38032
▁leipzig	-9.38042
▁offen	-9.38124
▁post	-9.38161
▁rom	-9.38167
▁projekt	-9.38206
bl	-9.38224
▁ju	-9.38237
▁2.	-9.38282
▁ddr	-9.38464
▁beträgt	-9.38515
landschaft	-9.38737
▁mittelalter	-9.38782
graph	-9.38801
▁vertreter	-9.38874
▁höhe	-9.38978
▁boden	-9.3898
▁basis	-9.38994
anten	-9.39031
▁wenige	-9.39031
▁erschien	-9.39072
fas	-9.39081
▁zuge	-9.39127
oren	-9.3916
don	-9.39165
▁2018	-9.39202
▁text	-9.39271
asien	-9.3928
▁osten	-9.39337
con	-9.39424
rad	-9.39492
▁auto	-9.39623
▁länge	-9.39668
wachsen	-9.39802
▁umwelt	-9.39822
99	-9.39851
▁stammt	-9.39895
tu	-9.39929
9	-9.39935
körper	-9.39975
23	-9.40046
▁gegeben	-9.40047
▁stabil	-9.40091
ruf	-9.40121
▁verbreitet	-9.40136
▁organisation	-9.40251
_2	-9.40295
▁ehemaligen	-9.40307
▁produktion	-9.40314
▁stil	-9.40329
▁würde	-9.40331
70	-9.40354
kr	-9.40376
▁indien	-9.40417
▁einge	-9.40574
han	-9.4061
15	-9.4067
▁gebildet	-9.40703
tru	-9.40764
95	-9.40806
34	-9.40816
▁galt	-9.40875
24	-9.40922
▁römischen	-9.40933
▁enthält	-9.40967
▁moderne	-9.40972
ob	-9.41006
▁not	-9.41027
rin	-9.41096
▁lokal	-9.41097
▁symbol	-9.41156
▁wäre	-9.41175
begriff	-9.41195
▁1950	-9.41216
▁mon	-9.41301
65	-9.41307
▁sieben	-9.41311
mark	-9.41329
anti	-9.41364
rt	-9.41378
tiv	-9.41386
▁temperatur	-9.41401
zone	-9.41405
36	-9.41481
▁kamen	-9.41516
ica	-9.41539
▁stimm	-9.41617
▁mac	-9.41723
16	-9.41835
ju	-9.41891
ön	-9.41892
aff	-9.41901
▁paris	-9.41912
ah	-9.41918
zellen	-9.41936
▁2021	-9.42054
▁fre	-9.42143
entwicklung	-9.42155
▁25	-9.42209
á	-9.42313
▁stern	-9.42327
▁wider	-9.42351
llen	-9.42411
▁nie	-9.42433
▁el	-9.42543
▁wal	-9.42558
sol	-9.42572
▁kur	-9.42585
rate	-9.42614
37	-9.4267
▁verfügt	-9.42731
▁betrachtet	-9.42731
▁notwendig	-9.42871
▁trans	-9.42879
bert	-9.4289
▁französische	-9.42976
len	-9.43038
ford	-9.43148
▁jährlich	-9.43151
▁pri	-9.43171
▁jugend	-9.43283
▁entspricht	-9.43291
tar	-9.43383
▁pu	-9.4341
▁öffentlich	-9.43421
gänge	-9.43453
▁gr	-9.43567
if	-9.43568
führer	-9.43572
▁typ	-9.43603
zo	-9.43841
▁seien	-9.43848
▁regelmäßig	-9.43874
seite	-9.43887
ähr	-9.43893
▁amt	-9.43978
▁hand	-9.44139
▁folgen	-9.44155
produktion	-9.44214
▁3.	-9.44216
ahn	-9.44274
▁beschäftigt	-9.44278
▁beteiligt	-9.44278
mun	-9.44304
ial	-9.44313
▁starb	-9.44353
▁süden	-9.4437
stelle	-9.4439
▁lösung	-9.44482
illa	-9.44503
32	-9.44528
▁18.	-9.44557
▁bedeutet	-9.44562
lan	-9.4458
▁machen	-9.44677
▁ehe	-9.44683
▁bestimmten	-9.44692
▁wissenschaft	-9.44708
▁2004	-9.44736
▁landkreis	-9.44772
▁inter	-9.44787
▁artikel	-9.4491
▁grün	-9.44965
dy	-9.44996
▁truppen	-9.45005
gerät	-9.45035
38	-9.45056
▁besser	-9.45141
laub	-9.45212
▁sehen	-9.45505
handel	-9.45546
▁hauptstadt	-9.45733
fr	-9.45735
▁gründung	-9.45821
dienst	-9.45875
line	-9.45911
▁frankfurt	-9.45914
ari	-9.45933
▁schweiz	-9.45966
]	-9.45973
ären	-9.45998
▁eigen	-9.46019
ast	-9.46046
siedlung	-9.46072
▁grundlage	-9.46073
▁liste	-9.4608
▁hielt	-9.46145
last	-9.46188
▁mehrheit	-9.46247
werte	-9.4625
▁all	-9.4626
▁ausnahme	-9.46268
ehr	-9.46308
sehen	-9.4632
▁rat	-9.46387
bus	-9.46407
▁weise	-9.46476
▁eingeführt	-9.46492
▁union	-9.46508
partei	-9.46511
▁entsprechend	-9.46518
lagen	-9.46704
▁gewalt	-9.4672
▁vereinigten	-9.46734
▁wichtigsten	-9.46738
▁modernen	-9.46781
grün	-9.46794
▁physik	-9.46842
quelle	-9.46953
prä	-9.46955
▁para	-9.46958
fähig	-9.46972
forschung	-9.4698
rech	-9.4706
▁verkehrs	-9.47105
▁eigentlich	-9.47164
herr	-9.47242
setzt	-9.47359
▁öffentliche	-9.47531
▁paul	-9.47556
car	-9.4763
55	-9.47687
ori	-9.47689
▁lediglich	-9.47739
fahren	-9.47833
ellen	-9.47898
pflicht	-9.47973
▁tatsächlich	-9.48034
wandel	-9.48034
▁spielt	-9.48066
amt	-9.48088
▁juden	-9.48118
▁konflikt	-9.48148
wesen	-9.48191
▁versch	-9.48199
▁fernseh	-9.48284
kammer	-9.48298
▁veröffentlichte	-9.48345
▁antike	-9.48454
▁punkt	-9.48472
har	-9.48478
▁hei	-9.4859
▁baden	-9.48593
cho	-9.48603
▁dortmund	-9.48647
achse	-9.4877
▁goethe	-9.48773
minister	-9.48818
einheit	-9.48857
tter	-9.4886
▁herrschaft	-9.48884
▁vertreten	-9.48885
gg	-9.489
▁hauptsächlich	-9.48924
▁verfassung	-9.48989
▁2002	-9.49126
▁china	-9.49389
▁einheit	-9.49565
▁überwiegend	-9.49635
35	-9.49741
▁problem	-9.4979
▁hälfte	-9.49827
▁gattung	-9.49916
mp	-9.5011
▁autoren	-9.50124
staaten	-9.50126
▁wiederum	-9.50303
▁einzelne	-9.50325
▁organ	-9.5033
▁erfolgte	-9.50331
▁mengen	-9.50421
ay	-9.50573
▁gefunden	-9.50742
insel	-9.50851
▁mittels	-9.50869
▁spe	-9.50882
▁wirtschaft	-9.50905
▁außerhalb	-9.51025
▁spielen	-9.51111
dra	-9.51117
leitung	-9.51132
industrie	-9.5124
▁y	-9.51266
▁salz	-9.5135
chte	-9.51381
▁zählen	-9.51401
geschwindigkeit	-9.51407
▁anderer	-9.51476
▁positiv	-9.51479
teilung	-9.51494
rom	-9.51523
▁sc	-9.51568
▁60	-9.51594
falls	-9.51599
▁allgemeinen	-9.51616
gy	-9.51632
▁blüten	-9.51647
89	-9.51803
sh	-9.51815
arch	-9.5192
lon	-9.51966
▁op	-9.51967
gebiete	-9.51974
nicht	-9.52
literatur	-9.5203
kla	-9.52057
39	-9.52058
▁wahr	-9.52152
17	-9.52156
▁erheblich	-9.52241
▁entscheidung	-9.52256
schi	-9.52259
lehre	-9.52342
▁präsident	-9.52388
▁gal	-9.52455
49	-9.52519
▁erhöht	-9.52549
▁mathematik	-9.52555
▁kino	-9.52586
").	-9.52644
▁park	-9.52667
isieren	-9.52669
▁ludwig	-9.52703
pen	-9.52721
▁gemeinden	-9.52823
äre	-9.52835
▁eröffnet	-9.52857
"),	-9.52878
▁winter	-9.52881
▁zi	-9.52928
▁verhalten	-9.52992
städte	-9.53011
▁großer	-9.53021
gemeinde	-9.53139
▁museum	-9.53143
▁beschrieben	-9.53265
▁versuch	-9.53297
dollar	-9.53322
▁aufbau	-9.53377
handlung	-9.53449
48	-9.53478
nden	-9.53526
emp	-9.53631
▁pla	-9.53631
▁codice	-9.53741
stärke	-9.53754
württemberg	-9.53788
sie	-9.53874
▁ges	-9.53992
av	-9.54017
▁erb	-9.54079
▁real	-9.54089
▁unterscheiden	-9.54104
grad	-9.54176
kunde	-9.54198
mindestens	-9.54208
▁min	-9.54208
21	-9.54214
▁zweck	-9.54244
▁dialekt	-9.54246
lar	-9.54288
▁version	-9.54333
▁stelle	-9.54416
▁donau	-9.54421
getragen	-9.54426
41	-9.54465
dig	-9.54535
42	-9.54578
▁2003	-9.54612
▁reise	-9.54692
▁bonn	-9.54731
ap	-9.54777
96	-9.54801
▁technik	-9.54803
ama	-9.54823
ani	-9.54843
flu	-9.54868
ru	-9.54965
fo	-9.54971
ras	-9.54992
▁dauer	-9.5502
▁milliarden	-9.55043
schläge	-9.55053
ix	-9.55065
ebene	-9.55076
ps	-9.5508
▁philosophie	-9.55112
▁benutzt	-9.55201
lichkeit	-9.55221
▁mensch	-9.55259
26	-9.55319
▁verfügung	-9.55359
▁existieren	-9.5536
menge	-9.55541
alter	-9.55599
eine	-9.55666
▁europäische	-9.55733
▁ersetzt	-9.55742
▁ku	-9.55762
kehr	-9.55819
98	-9.55839
räume	-9.55909
spalt	-9.55914
▁bro	-9.55935
▁dia	-9.5599
jahr	-9.56003
▁geringer	-9.56094
▁ermöglicht	-9.56161
▁eth	-9.56174
▁königs	-9.56178
▁plan	-9.56263
▁tra	-9.56317
▁dennoch	-9.5632
▁pf	-9.56349
modell	-9.56349
partner	-9.56388
zent	-9.56432
dü	-9.56471
ath	-9.56523
zeichnung	-9.56578
▁16.	-9.56592
▁vorher	-9.56615
▁position	-9.5666
lat	-9.56735
betrieb	-9.56781
▁zugleich	-9.56823
ct	-9.56839
ement	-9.56885
▁familien	-9.56929
rand	-9.56952
▁ausschließlich	-9.56952
frage	-9.56971
▁sollen	-9.57
▁gesamte	-9.57014
▁anders	-9.57037
deutschen	-9.57047
▁unterstützt	-9.57116
▁unmittelbar	-9.57117
▁2001	-9.57153
▁ball	-9.57167
85	-9.57173
ose	-9.57206
sweise	-9.57233
▁wa	-9.57248
wähl	-9.57271
nehmer	-9.57327
▁länder	-9.5745
▁namens	-9.57516
trop	-9.57531
rechtlich	-9.57552
ziehen	-9.57597
▁prozess	-9.57663
▁german	-9.57674
pu	-9.57705
22	-9.57743
▁vertrag	-9.57886
treu	-9.57926
▁bad	-9.57985
▁kontakt	-9.58111
ingen	-9.58119
▁möglichkeit	-9.5817
wurzel	-9.58251
▁bald	-9.58281
maß	-9.5834
▁kleinen	-9.58346
statt	-9.58437
tive	-9.5852
▁software	-9.58527
▁ergebnis	-9.58529
▁17.	-9.58628
▁gerade	-9.58634
gon	-9.58647
▁fra	-9.58684
▁erreichte	-9.587
▁7.	-9.58705
43	-9.58728
▁wesentlich	-9.5881
oh	-9.58817
▁rad	-9.58849
▁kauf	-9.58877
▁sal	-9.58902
▁bor	-9.58918
44	-9.5893
forderung	-9.58931
▁zahlreichen	-9.58971
meister	-9.58983
seit	-9.58996
ette	-9.5901
erweise	-9.59016
rechnung	-9.59237
ax	-9.59247
▁länger	-9.59282
geben	-9.59288
uk	-9.59327
▁oper	-9.59356
▁aufgenommen	-9.59383
▁ernst	-9.59442
▁daraus	-9.5947
66	-9.59473
▁fern	-9.59525
▁kampf	-9.59718
▁verwandt	-9.59744
regierung	-9.59789
▁quellen	-9.59803
93	-9.59896
schiff	-9.59916
▁koalition	-9.59917
▁mann	-9.59926
gebracht	-9.59991
üb	-9.60001
laden	-9.60011
▁benötigt	-9.6006
▁aktuell	-9.6006
▁ä	-9.60098
▁herstellung	-9.60135
zahlen	-9.60146
▁folgt	-9.60268
▁alte	-9.60301
▁ton	-9.6035
isches	-9.60384
▁parlament	-9.60415
pol	-9.60442
68	-9.60496
val	-9.6053
▁1933	-9.60566
▁flugzeug	-9.60699
▁erzeugt	-9.60741
takt	-9.60754
▁sin	-9.60804
▁kohl	-9.60822
morph	-9.60889
gehen	-9.60892
organisation	-9.60902
46	-9.61124
▁kapital	-9.61127
▁einmal	-9.61131
▁os	-9.61147
90	-9.61168
echt	-9.61214
zig	-9.61267
▁at	-9.61305
▁konzept	-9.61328
inger	-9.61374
▁robert	-9.61421
liste	-9.61421
▁erreichen	-9.61485
▁landwirtschaft	-9.61884
▁miss	-9.61937
▁untersucht	-9.62019
,7	-9.62041
▁berliner	-9.62049
▁existiert	-9.62072
krise	-9.62147
▁verbindungen	-9.62152
bad	-9.62194
,3	-9.62242
verwaltung	-9.62243
innen	-9.62347
▁regisseur	-9.62411
▁4.	-9.62488
ions	-9.62566
▁knapp	-9.62587
▁fund	-9.62591
▁finanz	-9.62605
gramm	-9.62624
▁herr	-9.62647
jo	-9.62855
▁heutige	-9.62872
▁sollten	-9.62875
71	-9.6295
gezogen	-9.62976
▁verlauf	-9.62991
47	-9.63044
▁studien	-9.63045
öl	-9.6307
▁bremen	-9.63099
▁england	-9.63181
reif	-9.63252
▁geworden	-9.63265
by	-9.63286
▁13.	-9.63321
45	-9.63344
▁gemacht	-9.63414
▁zeigen	-9.63445
▁person	-9.63504
▁gehörte	-9.63515
▁max	-9.63532
▁reiches	-9.63553
▁nutzung	-9.63554
▁gleichen	-9.636
▁carl	-9.63645
▁dienst	-9.63678
,8	-9.6385
76	-9.63904
plätze	-9.6396
▁gesch	-9.63985
roll	-9.64012
rechte	-9.64019
▁bre	-9.64046
fre	-9.64053
▁evangelisch	-9.64396
▁bekannte	-9.64406
com	-9.64408
arm	-9.64423
▁erklärt	-9.64466
▁sauerstoff	-9.64471
▁5.	-9.64505
ball	-9.64559
leit	-9.64564
▁städten	-9.64588
rock	-9.6463
band	-9.64641
▁tele	-9.64733
hir	-9.64749
▁monat	-9.6476
länge	-9.64776
▁betriebssystem	-9.6482
▁sonder	-9.64832
▁dient	-9.64886
cha	-9.64901
53	-9.6493
▁schlecht	-9.64994
▁handlung	-9.65023
▁forschungs	-9.65035
barkeit	-9.65087
▁nachweis	-9.65109
▁nähe	-9.65109
▁dom	-9.65111
▁senat	-9.65116
mb	-9.65127
▁britischen	-9.6514
▁arbeitete	-9.65142
museum	-9.65196
▁aufge	-9.65223
▁sinn	-9.65335
▁tochter	-9.65343
▁otto	-9.65393
spiegel	-9.65428
▁12.	-9.65497
▁wochen	-9.65514
aceae	-9.65521
▁gesamten	-9.65556
▁11.	-9.65561
▁menge	-9.65607
▁nachfolger	-9.65621
▁geschrieben	-9.65641
▁krankheit	-9.6565
▁flughafen	-9.65701
▁schritt	-9.65702
für	-9.65792
verfahren	-9.65867
rot	-9.65895
▁gericht	-9.65898
▁siehe	-9.65913
▁8.	-9.65955
▁sonnen	-9.66007
▁verbreitung	-9.66045
▁ordnung	-9.66046
flug	-9.6606
ley	-9.66087
ologe	-9.66089
▁15.	-9.66105
▁freund	-9.66165
hält	-9.66173
▁persönlich	-9.66184
▁transport	-9.66217
▁auftreten	-9.66233
musik	-9.66285
pel	-9.66373
▁fe	-9.66386
▁entstehung	-9.66401
▁sy	-9.66455
licht	-9.6648
▁bernstein	-9.66587
wiesen	-9.66594
▁südlich	-9.66616
▁nördlich	-9.66672
▁außer	-9.6673
▁klassischen	-9.66744
gl	-9.66752
▁hans	-9.66762
▁bl	-9.66787
▁besitzen	-9.66791
oli	-9.66818
▁gottes	-9.66848
▁rest	-9.66863
▁bank	-9.66929
af	-9.66961
werke	-9.66964
aktion	-9.66965
▁glas	-9.67
88	-9.67013
wind	-9.67023
▁wasserstoff	-9.6703
isse	-9.67101
▁fußball	-9.67113
▁freiheit	-9.67115
▁wissen	-9.6714
▁seiten	-9.67194
stern	-9.6723
▁zustand	-9.67248
▁material	-9.67267
ram	-9.67353
geboren	-9.67395
▁ausdruck	-9.67528
raten	-9.67552
▁volk	-9.67621
▁meer	-9.67652
▁hergestellt	-9.67702
▁mineral	-9.67706
are	-9.67736
56	-9.67764
verbindungen	-9.67765
▁bevölkerungs	-9.67769
baren	-9.67833
▁kleiner	-9.67908
hel	-9.67912
▁geboren	-9.67914
stoß	-9.67938
gemeinschaft	-9.67939
▁männer	-9.67948
▁radio	-9.67952
▁formen	-9.68021
▁mu	-9.68058
▁9.	-9.68061
▁bezug	-9.68091
ek	-9.68109
▁blei	-9.6814
▁ehren	-9.68226
sicherheit	-9.68255
▁keinen	-9.68436
▁80	-9.68464
▁folgte	-9.68472
92	-9.68507
▁ganze	-9.68532
▁tor	-9.68537
▁anzu	-9.68563
▁könnte	-9.68572
▁gemäß	-9.6858
wissenschaft	-9.68619
lau	-9.68645
▁allgemeine	-9.68652
97	-9.68755
▁dargestellt	-9.68755
▁schlacht	-9.68756
▁14.	-9.68887
seitig	-9.68925
51	-9.68946
dan	-9.68978
bin	-9.69015
▁fiel	-9.69048
▁wind	-9.69051
▁britische	-9.69137
temperatur	-9.69236
▁entsteht	-9.69268
▁magdeburg	-9.69268
▁produziert	-9.69268
schmelz	-9.69277
kanal	-9.69322
▁deutsch	-9.69349
▁verkehr	-9.69365
▁deutscher	-9.69462
▁kosten	-9.69498
52	-9.69504
metall	-9.69509
versammlung	-9.69515
well	-9.69536
▁bildungs	-9.69555
uß	-9.69585
bon	-9.69633
▁thema	-9.69701
▁bahn	-9.69714
▁jean	-9.69725
▁beispiele	-9.69726
▁will	-9.69743
▁beruf	-9.69764
wissenschaften	-9.69769
klasse	-9.69805
▁com	-9.69807
bell	-9.69945
▁%)	-9.69997
▁praktisch	-9.70002
▁(*	-9.70023
familie	-9.70031
▁marx	-9.7009
▁ich	-9.701
▁erschienen	-9.7014
schein	-9.7014
▁deutschlands	-9.70186
▁belegt	-9.70193
▁jeweiligen	-9.70196
ace	-9.70219
▁bereit	-9.70247
bauten	-9.70268
verein	-9.70316
▁stärker	-9.70426
▁internet	-9.70448
▁zeitpunkt	-9.70459
name	-9.70482
▁kristall	-9.70485
▁pass	-9.70545
▁programmier	-9.70591
geführt	-9.70595
▁bestandteil	-9.70602
78	-9.70603
stoffe	-9.70608
vorsitzende	-9.70792
83	-9.7092
▁geburt	-9.71034
▁pan	-9.71035
teile	-9.71079
▁10.	-9.71086
▁angesehen	-9.7112
▁verwaltungs	-9.71123
projekt	-9.71138
▁manga	-9.71154
▁wei	-9.71177
gh	-9.7123
smittel	-9.71243
mil	-9.71265
▁breite	-9.7133
▁wörter	-9.71431
▁cor	-9.71459
▁hol	-9.71471
▁1999	-9.71483
▁wald	-9.71532
▁heer	-9.71572
▁kant	-9.71593
organ	-9.71656
▁versuchte	-9.71683
itter	-9.71698
▁start	-9.71698
▁mor	-9.71704
▁auszu	-9.71711
▁gestein	-9.7172
▁stamm	-9.71762
verband	-9.71788
▁wirtschaftliche	-9.71816
▁gewonnen	-9.71849
▁ebene	-9.71951
▁starke	-9.71994
94	-9.7204
▁sodass	-9.72042
61	-9.72048
sport	-9.72051
ständen	-9.72088
▁stimmen	-9.7212
54	-9.72132
▁peter	-9.72133
ank	-9.72164
▁klar	-9.72185
▁maschinen	-9.72223
▁parallel	-9.72223
tsch	-9.72311
wort	-9.72328
▁eis	-9.72347
rechts	-9.72369
▁magnet	-9.72444
59	-9.72463
fuhr	-9.72503
▁formal	-9.72523
▁historische	-9.72525
amerikanische	-9.72616
ierende	-9.72704
füll	-9.72783
▁akademie	-9.72784
▁samen	-9.72793
▁völker	-9.72809
meter	-9.72838
▁traditionell	-9.72851
wirkung	-9.72853
fluss	-9.72888
▁negativ	-9.7293
münzen	-9.72965
wässer	-9.72976
▁oberfläche	-9.72979
▁provinz	-9.72987
▁mi	-9.72987
▁neun	-9.73035
▁königreich	-9.73057
bli	-9.73087
▁hafen	-9.73138
▁serie	-9.73153
ski	-9.7316
▁übergang	-9.73161
atom	-9.73164
▁andererseits	-9.73165
▁entfernt	-9.73166
ii	-9.73206
▁bit	-9.73216
energie	-9.73283
anlage	-9.73323
▁bezirk	-9.73324
▁fanden	-9.7334
vermögen	-9.73354
▁geplant	-9.73362
ding	-9.73392
▁tonnen	-9.73401
wach	-9.7341
cy	-9.73423
ration	-9.73446
▁ergibt	-9.73484
su	-9.73505
eu	-9.73511
▁|	-9.73536
lebt	-9.73547
▁1998	-9.7355
▁6.	-9.73564
app	-9.7359
gewicht	-9.73659
deutschland	-9.73683
ös	-9.73691
▁georg	-9.73696
▁wirkt	-9.73814
alität	-9.73837
tage	-9.73844
elt	-9.73863
ham	-9.73887
▁straße	-9.73955
▁widerstand	-9.73965
pri	-9.7405
tat	-9.74062
durchschnittlich	-9.74062
punkte	-9.74072
uck	-9.74095
▁poly	-9.74132
▁grenze	-9.74146
▁parteien	-9.74159
▁hierbei	-9.7417
hu	-9.74173
74	-9.74275
▁islam	-9.74304
scheid	-9.74434
▁fremd	-9.7445
▁verändert	-9.74498
ran	-9.74537
lose	-9.74538
▁24	-9.7457
▁verlag	-9.74623
▁einführung	-9.74666
▁gründete	-9.74688
code	-9.74728
▁dreh	-9.74759
69	-9.74765
chi	-9.74815
gegangen	-9.74844
▁york	-9.74883
▁mikro	-9.74944
▁qua	-9.74947
▁exp	-9.74953
58	-9.74988
masse	-9.75034
▁höchsten	-9.75069
01	-9.75069
73	-9.75071
▁gewann	-9.75077
substanz	-9.7508
▁geführt	-9.75083
▁reform	-9.75112
▁schriften	-9.75132
▁spd	-9.75154
eder	-9.75183
zog	-9.7524
▁verloren	-9.7525
technisch	-9.75264
astronom	-9.75271
▁ser	-9.75311
,1	-9.7535
linie	-9.75371
iter	-9.75388
▁amerikanischen	-9.75442
▁daraufhin	-9.75488
win	-9.75507
▁durchgeführt	-9.75518
▁dresden	-9.75656
halle	-9.75657
reform	-9.75679
▁unterstützung	-9.75727
▁norm	-9.75788
▁besetzt	-9.7588
behörde	-9.75928
phase	-9.75958
▁größeren	-9.7599
legung	-9.76009
72	-9.7602
gehend	-9.76053
▁chemie	-9.7609
▁normal	-9.76095
▁betrieben	-9.76118
87	-9.76126
old	-9.76174
▁zentrale	-9.76176
mag	-9.76197
ade	-9.762
kurs	-9.76465
▁öl	-9.76559
häuser	-9.76597
fern	-9.76642
,9	-9.76674
dor	-9.76693
iti	-9.76735
▁laufe	-9.76761
lü	-9.76829
veröffentlichung	-9.76841
van	-9.76852
sprachen	-9.7689
▁gemeinschaft	-9.76909
91	-9.76927
▁dahin	-9.77021
=1	-9.77128
szene	-9.77174
▁betrug	-9.7722
▁autor	-9.77234
fläche	-9.77273
tieren	-9.77282
ice	-9.77335
tü	-9.77344
▁experiment	-9.77383
▁my	-9.77384
▁meta	-9.77387
lager	-9.77395
bank	-9.77425
isierte	-9.77456
anteil	-9.77484
▁gewicht	-9.77495
pan	-9.7754
jahren	-9.77541
▁bundestag	-9.7756
▁schwierig	-9.77615
daten	-9.77763
kö	-9.77766
gef	-9.77772
▁aluminium	-9.77812
itu	-9.77925
ano	-9.77973
▁großbritannien	-9.78011
gar	-9.78081
top	-9.78083
▁entgegen	-9.78245
for	-9.78342
63	-9.78353
82	-9.7838
aut	-9.78406
▁beeinflusst	-9.78409
▁entweder	-9.78409
ober	-9.78421
▁abzu	-9.78488
ate	-9.78497
leiter	-9.78518
find	-9.78527
▁absolut	-9.78528
bomb	-9.78553
▁sh	-9.78556
▁herkunft	-9.78627
▁mü	-9.78664
▁untersuchung	-9.78729
dichte	-9.78741
▁bücher	-9.7881
▁stadtgebiet	-9.78824
▁griechischen	-9.78881
▁weiterer	-9.78897
▁begründet	-9.79009
hard	-9.79045
▁wirtschaftlich	-9.79103
▁21.	-9.79128
▁bevor	-9.79162
dos	-9.7917
▁organisiert	-9.79192
▁alternativ	-9.7921
▁nächsten	-9.79339
▁aufnahme	-9.79341
“).	-9.79376
met	-9.7938
unterricht	-9.79389
▁global	-9.79412
▁beziehungsweise	-9.79416
▁nimmt	-9.79464
▁unabhängigkeit	-9.79473
▁apple	-9.79478
▁phase	-9.79577
▁stoff	-9.7959
▁lebensmittel	-9.79702
67	-9.79739
▁wichtigste	-9.79799
stück	-9.79827
▁geschwindigkeit	-9.79907
▁zivil	-9.79909
kat	-9.79947
▁zeitung	-9.79958
▁regionen	-9.79968
sau	-9.79993
▁bayerische	-9.80028
▁1930	-9.80028
ys	-9.80057
universität	-9.8012
▁demokratie	-9.80199
oder	-9.80212
gestorben	-9.8022
produzent	-9.8022
stil	-9.8023
▁nutz	-9.8024
▁sieg	-9.8026
▁setzt	-9.80268
▁jedem	-9.80307
ada	-9.80354
▁spricht	-9.80423
ea	-9.80478
▁gebrauch	-9.80504
▁monate	-9.8053
steig	-9.80586
let	-9.80614
62	-9.80615
▁soldaten	-9.80627
▁buchstaben	-9.80627
station	-9.80637
▁wärme	-9.80654
wohn	-9.8077
▁graz	-9.80805
▁anerkannt	-9.80831
▁schweizer	-9.80847
ov	-9.8102
▁probleme	-9.81026
sender	-9.81071
zy	-9.81124
fassung	-9.81194
ruh	-9.81238
▁bericht	-9.81243
▁dritten	-9.8125
▁kan	-9.8125
▁mari	-9.81293
▁klassische	-9.81301
▁russisch	-9.81303
erei	-9.8134
halb	-9.81347
79	-9.81365
bu	-9.81493
▁letztere	-9.81567
deutsche	-9.81642
▁zwölf	-9.81651
▁stets	-9.81665
▁trug	-9.81686
mel	-9.81773
▁angriff	-9.81794
▁ausgabe	-9.81804
chem	-9.81822
ight	-9.81842
jährige	-9.81845
▁themen	-9.81881
▁sachsen	-9.81904
qu	-9.81928
▁arm	-9.81939
▁pol	-9.81964
▁oben	-9.81986
▁beschreibung	-9.82007
uv	-9.82142
region	-9.82201
tlich	-9.82211
dauer	-9.82263
fällig	-9.82271
▁erwähnt	-9.82271
▁erkannt	-9.82271
greifen	-9.82321
linien	-9.82372
gal	-9.82405
▁afrika	-9.82539
▁auseinandersetz	-9.8267
▁natrium	-9.82686
▁trocken	-9.82688
bücher	-9.8269
wurf	-9.82719
hänge	-9.82741
▁spitze	-9.82796
▁prinzip	-9.82806
kul	-9.82814
eten	-9.82837
günstig	-9.82889
▁umstritten	-9.82895
▁bietet	-9.82896
▁erlaubt	-9.82914
▁höher	-9.82922
▁gegner	-9.82953
▁geschlossen	-9.82994
gleichung	-9.8305
logie	-9.83084
▁inzwischen	-9.83086
▁höhere	-9.83103
▁welches	-9.83148
▁kleinere	-9.83161
ierenden	-9.83181
▁we	-9.83205
ographie	-9.83231
▁institut	-9.83236
dro	-9.83243
grenze	-9.83268
text	-9.83295
▁science	-9.83375
▁fällen	-9.83384
ali	-9.83421
▁elb	-9.83449
jahre	-9.83454
▁rechte	-9.83461
low	-9.83516
▁grab	-9.83523
▁göttingen	-9.83523
berlin	-9.83583
int	-9.83598
kreuz	-9.83662
ris	-9.83706
beobachtung	-9.83732
▁zerstört	-9.83733
sektor	-9.83739
▁90	-9.83758
lehn	-9.83813
▁kalender	-9.83885
▁tiere	-9.83891
▁schnitt	-9.83939
ille	-9.8401
server	-9.84029
pha	-9.84093
ogene	-9.84109
▁berühmt	-9.84109
▁(17	-9.84134
▁konstanz	-9.84154
westfalen	-9.84154
▁bundesrepublik	-9.84164
brechen	-9.84201
front	-9.84216
cc	-9.8423
77	-9.84251
▁hel	-9.84259
strahl	-9.84277
▁besitz	-9.84283
krat	-9.84333
▁schriftsteller	-9.84366
▁genannten	-9.84375
nummer	-9.8438
treffen	-9.84426
▁ihres	-9.84473
▁aussagen	-9.84473
lit	-9.84483
▁teils	-9.84487
▁mont	-9.84527
▁westlich	-9.8453
institut	-9.84544
▁cr	-9.84558
▁1989	-9.84584
▁leit	-9.84592
pho	-9.84651
▁bilder	-9.84702
▁differenz	-9.84713
▁englischen	-9.84749
▁vermutlich	-9.8479
▁festgelegt	-9.84836
▁elektronen	-9.84846
▁größer	-9.84902
bereit	-9.8492
81	-9.84949
▁entdeckt	-9.84951
komplex	-9.84992
vereinigung	-9.85026
vel	-9.85033
▁200	-9.85062
far	-9.85082
▁unterschied	-9.85092
▁gebracht	-9.85106
teilen	-9.85161
▁grünen	-9.85189
kanzler	-9.8519
▁lager	-9.85244
+	-9.8529
speicher	-9.85296
nischen	-9.85351
▁westlichen	-9.8537
europa	-9.85401
▁fertig	-9.85461
az	-9.85508
unternehmen	-9.85541
▁armee	-9.85546
knoten	-9.85609
▁frühe	-9.8561
▁1000	-9.85628
gebirge	-9.85645
größe	-9.85682
▁produkt	-9.85778
▁zeigte	-9.85847
▁ursache	-9.85895
mess	-9.85937
bohne	-9.85961
stehende	-9.85967
▁ti	-9.85992
breite	-9.86006
prozessor	-9.86006
▁grundsätzlich	-9.86073
▁intensiv	-9.86074
gra	-9.86075
▁erklärte	-9.8608
▁beliebt	-9.86092
▁stieg	-9.86117
ios	-9.86212
▁entdeckung	-9.86306
▁versucht	-9.86333
▁historischen	-9.8634
▁links	-9.86354
▁gesprochen	-9.86491
▁aristoteles	-9.86504
▁erweitert	-9.86505
ladung	-9.86509
▁legte	-9.86514
▁holz	-9.86613
▁inseln	-9.86649
▁werde	-9.86656
mund	-9.86668
gut	-9.86698
kali	-9.86707
rag	-9.86713
flüssig	-9.8672
▁situation	-9.86731
ging	-9.868
▁straf	-9.86851
unt	-9.86868
▁hanse	-9.86882
blätter	-9.86904
dt	-9.86932
▁schüler	-9.86938
▁eisenbahn	-9.86971
▁gesetze	-9.86987
▁führung	-9.87017
▁web	-9.87051
▁dienen	-9.87122
▁methoden	-9.87156
schrei	-9.87238
▁ausland	-9.87242
vers	-9.87271
▁aussage	-9.87279
istisch	-9.87303
trat	-9.87307
▁technische	-9.87452
▁graf	-9.87464
▁bach	-9.87466
▁iso	-9.87471
ref	-9.87478
▁offiziell	-9.87502
▁funktionen	-9.87521
niedrig	-9.87526
systeme	-9.87549
▁extrem	-9.87592
▁papst	-9.87592
▁vorkommen	-9.87613
▁infolge	-9.87679
vent	-9.87789
ase	-9.87826
▁fu	-9.87828
▁hinsicht	-9.8787
▁hell	-9.8788
▁götter	-9.87994
▁ausbildung	-9.8802
▁unterscheidet	-9.88029
▁bekannten	-9.88087
nie	-9.88096
▁wenigen	-9.88107
▁abschnitt	-9.88152
vertrag	-9.88185
kult	-9.88293
▁planeten	-9.88306
oni	-9.88329
fund	-9.88344
▁bu	-9.88392
▁sonne	-9.8842
▁sicher	-9.88433
▁jungen	-9.88439
gr	-9.88452
lösen	-9.88457
▁wild	-9.8847
▁1920	-9.88484
▁bundeskanzler	-9.88497
liga	-9.88553
anne	-9.88554
▁fehler	-9.88564
▁ideal	-9.88614
ula	-9.88652
riss	-9.88664
▁dichte	-9.88683
▁protest	-9.8874
▁speziell	-9.88785
▁todes	-9.8879
als	-9.88851
▁tal	-9.88852
▁aufgaben	-9.88859
etwa	-9.88891
▁may	-9.88955
chel	-9.88989
▁hätte	-9.89047
hilfe	-9.89048
kop	-9.89106
mini	-9.89214
dar	-9.8923
▁ähnliche	-9.89288
▁ehemalige	-9.89305
84	-9.89337
rhein	-9.89367
reihe	-9.8948
kämpfe	-9.89515
▁geheim	-9.89564
▁verstärkt	-9.89578
▁ursprung	-9.89589
▁epi	-9.89591
treten	-9.89599
▁berufs	-9.89655
▁entlang	-9.89687
deutsch	-9.89757
▁europas	-9.89776
▁geeignet	-9.89801
weisen	-9.89802
▁bruder	-9.89803
09	-9.8981
kern	-9.89813
▁blau	-9.89819
▁rang	-9.89867
geschrieben	-9.89882
▁menschlichen	-9.89895
tätig	-9.89925
tom	-9.89978
▁näher	-9.89982
▁endgültig	-9.90035
▁vers	-9.90038
▁physikalische	-9.90107
▁ergebnisse	-9.9012
yo	-9.90128
▁gebiete	-9.90128
funk	-9.90167
ite	-9.90182
▁besuchte	-9.90218
▁spanien	-9.9025
bedingungen	-9.90278
isation	-9.90283
▁cdu	-9.90301
mond	-9.9035
▁tätig	-9.90359
▁teilchen	-9.90364
stimm	-9.90366
▁älteste	-9.90406
▁opfer	-9.90418
▁datei	-9.90421
▁herbst	-9.90475
▁kg	-9.90525
bis	-9.90677
57	-9.90694
pur	-9.90721
▁2022	-9.90728
▁späteren	-9.90744
din	-9.90769
▁stra	-9.90816
haupt	-9.90966
▁analog	-9.90999
▁zell	-9.91026
▁medizin	-9.91041
▁zusammenarbeit	-9.91067
gebaut	-9.9113
muster	-9.91155
arbeiten	-9.91261
▁+	-9.91283
▁netz	-9.91291
▁can	-9.91317
▁stunden	-9.91431
kräfte	-9.91437
▁silber	-9.91439
xi	-9.9144
spiele	-9.91451
▁ir	-9.91615
vier	-9.91642
▁angegeben	-9.9166
zähl	-9.91709
▁ring	-9.91722
▁spezielle	-9.91735
▁schlag	-9.91756
▁frisch	-9.91787
▁starken	-9.918
▁herrscher	-9.91834
▁schule	-9.91852
▁teilen	-9.9189
verbände	-9.91939
▁fahr	-9.91953
zeichnet	-9.91954
▁handel	-9.91954
▁vorder	-9.91968
▁hör	-9.92009
▁gebaut	-9.92067
]]	-9.92074
▁verfassungs	-9.9215
▁sicherheits	-9.92179
▁instrument	-9.92183
bro	-9.92196
▁zuständig	-9.92209
▁werte	-9.92244
rum	-9.9225
▁kredit	-9.92259
glo	-9.92287
schriften	-9.92294
fang	-9.92312
scha	-9.9234
fra	-9.92508
▁irak	-9.92539
meisterschaft	-9.92571
uth	-9.92588
▁motiv	-9.92602
▁comic	-9.92628
physik	-9.9264
▁tragen	-9.92657
gestaltung	-9.92666
▁menschliche	-9.92671
▁brenn	-9.92689
▁fehl	-9.92741
▁nannte	-9.92752
ole	-9.92788
kunst	-9.928
wende	-9.92803
ical	-9.92817
col	-9.92818
▁friedens	-9.92825
theater	-9.9284
schloss	-9.92896
welle	-9.92952
kategorie	-9.9298
▁iii	-9.93005
▁gestellt	-9.93064
bre	-9.93126
▁kommunikation	-9.93214
▁öffentlichkeit	-9.93271
▁gall	-9.93299
▁wesentlichen	-9.9331
systems	-9.93331
▁christian	-9.93344
▁sil	-9.93361
▁schauspieler	-9.93433
▁institution	-9.93563
▁gehen	-9.93567
▁mono	-9.93634
▁70	-9.93697
üll	-9.93709
verteilung	-9.93747
▁umgebung	-9.93825
ois	-9.93843
06	-9.9387
▁fin	-9.93885
▁nahrung	-9.93901
weiß	-9.93958
▁amts	-9.94016
räte	-9.94126
▁befand	-9.94141
wan	-9.94184
geschäft	-9.94188
darm	-9.94231
▁spät	-9.94248
lösung	-9.94323
▁bestehende	-9.94369
▁linie	-9.94371
▁kritisiert	-9.94374
▁kas	-9.94383
hä	-9.94392
▁grenzen	-9.94394
flüsse	-9.94402
eller	-9.94426
schreibung	-9.9449
▁del	-9.94495
zustellen	-9.94508
mail	-9.94516
▁kenn	-9.94562
hafte	-9.94589
reise	-9.94601
▁alb	-9.9461
▁nordwest	-9.94631
▁bleiben	-9.9465
▁langsam	-9.94653
national	-9.94672
graf	-9.9474
▁feuer	-9.9474
red	-9.94745
west	-9.94746
▁höchste	-9.94783
messung	-9.94788
▁behandelt	-9.94849
grenz	-9.94858
press	-9.9488
▁finanziell	-9.9491
▁mitarbeiter	-9.94921
og	-9.94969
▁wirken	-9.94976
bas	-9.95014
▁satz	-9.95061
▁übernommen	-9.95078
▁existenz	-9.95078
▁behandlung	-9.95099
▁flächen	-9.95183
▁höheren	-9.95209
artige	-9.95241
▁nachbar	-9.95283
grab	-9.95311
hand	-9.95312
▁erkennen	-9.95314
▁1992	-9.9532
▁signal	-9.95385
▁mussten	-9.95405
ita	-9.95409
format	-9.95431
▁dritte	-9.95438
▁geist	-9.95522
▁gefahr	-9.95533
▁zuletzt	-9.9555
▁eindeutig	-9.9555
sucht	-9.95571
▁innenstadt	-9.95573
▁fdp	-9.95579
▁objekt	-9.95645
gesch	-9.95669
position	-9.95724
vita	-9.9574
▁übertragen	-9.95808
geordnet	-9.95813
▁theoretisch	-9.95859
▁euler	-9.95865
▁stück	-9.95894
▁geschäfts	-9.95897
▁schulen	-9.95937
material	-9.95995
▁gründen	-9.96006
▁völlig	-9.96025
▁1949	-9.96032
▁charles	-9.96038
▁sicht	-9.96048
▁bezeichnete	-9.96068
▁interesse	-9.96083
▁voraus	-9.96084
▁würden	-9.96134
▁konstant	-9.96139
reaktion	-9.96288
ante	-9.96299
ht	-9.96335
holz	-9.96344
_3	-9.96358
▁fuß	-9.96362
▁nu	-9.96404
verbot	-9.96473
▁james	-9.96505
herrschaft	-9.96551
▁ph	-9.96571
▁verlust	-9.96601
bezogen	-9.9661
▁liebe	-9.96657
gelöst	-9.96664
gewinnung	-9.96688
könig	-9.96709
eisen	-9.96714
gan	-9.96717
▁erscheinen	-9.96776
▁küsten	-9.96838
iker	-9.96902
▁krebs	-9.96909
typen	-9.96967
kom	-9.96972
▁zumindest	-9.9698
▁1991	-9.96986
▁sand	-9.96989
▁1940	-9.96989
▁32	-9.96993
auer	-9.97025
glück	-9.97037
▁fürsten	-9.97055
▁angenommen	-9.97103
aktivität	-9.97114
▁nutzt	-9.97157
gültig	-9.97209
▁erhält	-9.97221
▁thomas	-9.97221
▁beweis	-9.97279
▁(1	-9.97292
▁sach	-9.97302
ppel	-9.9734
▁geben	-9.9734
▁geb	-9.9735
lum	-9.97371
▁freie	-9.97374
▁kre	-9.97425
kä	-9.9743
▁nutzen	-9.9744
▁hinweis	-9.97453
▁autobahn	-9.97494
▁kn	-9.97533
stä	-9.97553
ili	-9.97621
genommen	-9.97672
▁untersuchungen	-9.97712
strahlung	-9.97825
07	-9.97844
▁malta	-9.97854
kandidat	-9.9787
▁ernannt	-9.97945
wick	-9.9795
▁1995	-9.97954
▁hochschul	-9.97979
weil	-9.98019
enberg	-9.98044
▁einzu	-9.98099
▁entscheidend	-9.98142
▁spannung	-9.98193
schnitt	-9.98219
▁hal	-9.98226
▁heimat	-9.98228
prinzip	-9.98229
versorgung	-9.98234
geleitet	-9.98273
▁beziehungen	-9.98311
▁air	-9.98329
▁studenten	-9.98458
off	-9.9847
kle	-9.98504
▁23	-9.98544
ida	-9.98586
▁walter	-9.986
▁george	-9.98667
▁getrennt	-9.98675
▁royal	-9.98677
kin	-9.98705
▁geschaffen	-9.98775
08	-9.98834
▁et	-9.98863
gegen	-9.98892
▁sieht	-9.98894
▁argument	-9.9892
▁bürgermeister	-9.9892
▁schmitt	-9.98921
▁bedingungen	-9.9894
groß	-9.98948
lock	-9.98977
▁mehrfach	-9.99044
04	-9.99062
▁red	-9.99073
▁formel	-9.99161
▁elf	-9.99162
▁michael	-9.99165
▁falsch	-9.9917
▁besuch	-9.9933
hoch	-9.99361
häu	-9.9937
▁chile	-9.99411
▁caesar	-9.99413
straßen	-9.99438
▁heil	-9.99445
▁[	-9.99461
chef	-9.99538
▁hy	-9.99573
▁weder	-9.99573
▁hundert	-9.99582
▁merkmale	-9.99633
synthese	-9.99657
▁augen	-9.99676
artikel	-9.99703
▁freien	-9.998
▁vorbild	-9.99831
05	-9.99832
▁typisch	-9.9988
▁kopf	-9.99903
gefäß	-9.99904
pflanze	-9.99969
höhe	-9.99996
kol	-10.0005
hafen	-10.0008
variante	-10.0011
▁unterschieden	-10.0014
amerikanischen	-10.0016
flächen	-10.0017
▁staatliche	-10.0023
▁herzog	-10.0024
▁publikum	-10.0024
▁grad	-10.0026
kampf	-10.003
ausgabe	-10.0033
▁burg	-10.0034
▁bestätigt	-10.004
▁1996	-10.0041
▁historisch	-10.0041
▁regen	-10.0046
▁inhalt	-10.0047
küste	-10.0052
▁angaben	-10.0053
▁erklärung	-10.006
▁[[	-10.0065
▁cl	-10.0066
our	-10.007
▁geo	-10.0074
test	-10.008
▁port	-10.0083
▁med	-10.0086
▁ansicht	-10.009
▁1944	-10.0091
▁fo	-10.0091
▁vo	-10.0092
▁kap	-10.0096
200	-10.0102
drücke	-10.0102
▁cm	-10.0103
▁römisch	-10.0105
▁anfangs	-10.0108
ym	-10.0109
*	-10.0111
▁19	-10.0113
zins	-10.0124
bor	-10.0125
thal	-10.0125
klein	-10.013
▁cla	-10.0132
▁kräfte	-10.0133
▁milch	-10.0137
500	-10.0141
▁nahezu	-10.0148
▁langen	-10.0152
▁bleibt	-10.0155
ance	-10.0158
▁idee	-10.0166
will	-10.017
▁standort	-10.0179
para	-10.0182
schafft	-10.0186
▁betroffen	-10.019
▁william	-10.019
▁methode	-10.0195
▁beschränkt	-10.0195
wanderung	-10.0197
▁krieges	-10.0199
blick	-10.02
▁preußische	-10.0201
stan	-10.0208
▁wissenschaften	-10.0208
ätz	-10.0209
ketten	-10.021
▁französisch	-10.0213
liegenden	-10.0214
▁inneren	-10.0215
mals	-10.0217
verarbeitung	-10.0217
▁südwest	-10.0217
gold	-10.022
iß	-10.0222
fix	-10.0222
schiffe	-10.0225
ließen	-10.0226
strom	-10.0226
▁förder	-10.0233
▁moral	-10.0234
wege	-10.0234
prüf	-10.0242
▁informations	-10.0243
▁arbeiter	-10.0251
▁urteil	-10.0255
▁kra	-10.0257
▁liefert	-10.0257
weisung	-10.0268
▁studie	-10.027
600	-10.027
▁uhr	-10.0273
▁großteil	-10.0277
nord	-10.0277
▁führten	-10.0281
▁unver	-10.0291
▁regie	-10.0292
zier	-10.0299
▁englisch	-10.03
one	-10.031
rei	-10.0314
cl	-10.0329
fusion	-10.033
bundes	-10.0333
▁mauer	-10.0335
ministerium	-10.034
▁etabliert	-10.0343
gesprochen	-10.0344
sphäre	-10.0345
▁multi	-10.0345
▁natürliche	-10.0346
▁chlor	-10.0348
▁rede	-10.0349
kre	-10.0366
▁verkauft	-10.0371
seh	-10.0372
mul	-10.038
▁500	-10.0382
my	-10.0383
▁zufolge	-10.0383
▁bill	-10.0388
produkt	-10.0391
lob	-10.0394
▁verschiedener	-10.0394
ré	-10.0397
▁jung	-10.0397
▁alphabet	-10.0399
teur	-10.0399
▁zuerst	-10.04
▁tritt	-10.0403
▁qualität	-10.0403
sinn	-10.0405
▁könne	-10.0407
schü	-10.0414
▁nennt	-10.042
▁original	-10.0421
▁35	-10.0423
reichen	-10.0424
▁abhängig	-10.043
▁übersetzung	-10.0436
wiegend	-10.0436
▁daran	-10.0445
▁enzym	-10.0446
elf	-10.0454
isotop	-10.0456
ity	-10.0465
▁orts	-10.047
▁presse	-10.0471
▁lithium	-10.0471
technologie	-10.0472
▁berechnung	-10.0472
▁franken	-10.0473
▁solchen	-10.0482
▁stellung	-10.0487
fin	-10.0491
▁kohlenstoff	-10.0497
kommission	-10.0497
▁gemeinsame	-10.0506
stufe	-10.0511
▁kanton	-10.0511
▁güter	-10.0517
▁aufzu	-10.0522
führen	-10.0523
laut	-10.0527
▁vielfach	-10.0527
bal	-10.0528
luft	-10.0531
▁schön	-10.0535
mission	-10.0538
▁ferner	-10.0541
inter	-10.0541
▁maximal	-10.0541
horn	-10.0546
konservat	-10.055
▁lehre	-10.055
steuer	-10.0551
▁protein	-10.0558
▁einwohnern	-10.056
▁gebieten	-10.0564
reiche	-10.0565
▁heiligen	-10.057
atur	-10.0571
▁dichter	-10.0574
▁sowjetunion	-10.0576
▁grundlegend	-10.0577
▁newton	-10.0581
pul	-10.0582
▁handeln	-10.0582
▁auffassung	-10.0582
▁sammlung	-10.059
edit	-10.0605
▁interessen	-10.0605
▁kurze	-10.0606
kraftwerk	-10.0616
flügel	-10.0623
▁geringe	-10.0625
▁motor	-10.0626
▁anspruch	-10.0626
▁entschied	-10.0628
▁mio	-10.063
▁tätigkeit	-10.0632
2)	-10.0634
christ	-10.0636
▁effekt	-10.0641
▁weist	-10.0642
▁franz	-10.0643
▁mittlerweile	-10.0655
hy	-10.0655
▁wachstum	-10.0658
ziel	-10.0658
boot	-10.0666
▁bildete	-10.0667
jährigen	-10.0669
▁jene	-10.0682
verbrauch	-10.0682
▁1946	-10.0682
pal	-10.0684
▁300	-10.0686
▁produktions	-10.0688
bund	-10.0688
▁verwaltung	-10.0688
wagen	-10.0689
bil	-10.0697
geschlossen	-10.0705
▁berichtet	-10.0705
▁eigenständige	-10.0709
▁mathematische	-10.071
tief	-10.071
▁video	-10.0712
lagerung	-10.0714
gebäude	-10.0714
gb	-10.0715
▁entsprechende	-10.0715
wir	-10.0715
filme	-10.0721
▁praxis	-10.0723
▁nehmen	-10.0734
winkel	-10.0737
▁bodensee	-10.0737
▁deutschsprachig	-10.0739
ökonom	-10.074
problem	-10.074
binde	-10.074
▁späten	-10.0744
▁latein	-10.0744
viertel	-10.0745
▁neo	-10.0748
gott	-10.0748
▁gesehen	-10.0755
star	-10.076
disziplin	-10.0761
öffnung	-10.0761
▁verantwortlich	-10.0761
▁1994	-10.0762
roman	-10.0763
▁seitdem	-10.0768
▁politisch	-10.077
▁umfangreiche	-10.0771
▁hart	-10.0775
▁römische	-10.0777
▁david	-10.0788
▁literarische	-10.0788
▁einerseits	-10.0788
▁1948	-10.0789
▁spieler	-10.0789
▁22	-10.0799
▁gebunden	-10.0801
▁van	-10.0804
▁auftrag	-10.0814
losen	-10.0814
▁natürlichen	-10.0815
▁kalium	-10.0815
zwang	-10.0815
lek	-10.0816
stör	-10.0817
▁leitet	-10.0821
flugzeug	-10.0823
▁abstand	-10.0824
lim	-10.0825
durchschnitt	-10.0828
3)	-10.0833
hausen	-10.0839
▁ed	-10.0841
▁ganzen	-10.0846
▁weite	-10.0857
▁elektrische	-10.0859
▁einheiten	-10.0862
▁wer	-10.0869
▁[]	-10.0869
tracht	-10.0871
unk	-10.0875
▁jeden	-10.0877
zustand	-10.088
▁kind	-10.0881
schaffen	-10.0881
▁beginnt	-10.0883
stiftung	-10.0883
▁meeres	-10.0883
_4	-10.0889
dienste	-10.0893
▁israel	-10.0895
▁meinung	-10.0906
▁vorteil	-10.0908
stücke	-10.0909
ny	-10.0913
tanz	-10.0916
uni	-10.0918
gebung	-10.0919
▁militärische	-10.0922
▁gelegentlich	-10.0922
▁unterscheidung	-10.0923
pflanzen	-10.0924
▁ältesten	-10.0931
▁ns	-10.0935
ala	-10.0937
▁baum	-10.0941
▁private	-10.0946
▁liechtenstein	-10.095
politische	-10.0972
▁schreiben	-10.0975
▁rand	-10.0977
▁richard	-10.0977
▁architektur	-10.0981
▁trägt	-10.0997
▁angelegt	-10.0998
▁anhänger	-10.1004
pit	-10.1015
fiz	-10.1015
▁stammen	-10.1015
wirken	-10.1025
zum	-10.1029
verteidigung	-10.1032
▁bayreuth	-10.1032
konferenz	-10.1032
▁nachgewiesen	-10.1032
steigen	-10.1032
▁doppel	-10.1032
ty	-10.1033
uel	-10.1033
hör	-10.1034
▁diente	-10.1041
erscheinung	-10.1043
kritik	-10.1049
▁bal	-10.1051
bogen	-10.1051
▁gute	-10.1053
▁ältere	-10.1055
geld	-10.1056
▁par	-10.1059
schlüsse	-10.1059
lex	-10.1061
▁elefanten	-10.1061
bb	-10.1064
▁östlich	-10.1068
führende	-10.1069
▁30.	-10.107
▁paar	-10.1086
beteiligung	-10.1087
läufig	-10.1087
▁eltern	-10.1087
▁minister	-10.1088
versuch	-10.1091
serie	-10.1093
eth	-10.1095
▁rh	-10.1098
▁bot	-10.11
qua	-10.1101
▁typische	-10.1102
modul	-10.1104
▁mission	-10.1105
▁ungefähr	-10.1114
wärts	-10.1115
▁geringen	-10.1116
▁johannes	-10.1118
bud	-10.1126
▁kontrolle	-10.1133
▁pre	-10.1134
[	-10.1134
streit	-10.1137
▁bestimmung	-10.1137
▁technischen	-10.1139
▁joseph	-10.1142
▁verwendete	-10.1143
▁kulturelle	-10.1144
▁super	-10.1148
symp	-10.1149
▁wein	-10.1153
tiere	-10.1157
not	-10.1157
ufer	-10.1158
fiel	-10.1159
▁objekte	-10.1161
mord	-10.1162
▁31.	-10.1165
▁entsprechenden	-10.1168
freiheit	-10.1171
sprecher	-10.1171
▁fer	-10.1172
▁gre	-10.1173
▁maria	-10.1178
▁hall	-10.1178
800	-10.118
▁nationalen	-10.1182
hielt	-10.1188
grenzen	-10.1196
▁1993	-10.1198
iii	-10.12
▁21	-10.1202
▁informationen	-10.1204
▁studium	-10.1211
▁gering	-10.1211
▁darstellt	-10.1213
zelle	-10.1217
▁erfahrung	-10.1226
▁namensgeber	-10.1226
version	-10.1228
historiker	-10.1231
denkmal	-10.1237
▁spiegel	-10.124
▁drittel	-10.124
hal	-10.1246
sprozess	-10.1247
▁einfache	-10.1251
▁mobil	-10.1253
würdig	-10.1254
▁polen	-10.126
air	-10.1262
tier	-10.1267
▁regeln	-10.1271
regel	-10.1274
▁wuchs	-10.1276
pat	-10.1277
univers	-10.1277
▁reduziert	-10.1282
▁kloster	-10.1282
▁befehl	-10.1283
▁fläche	-10.1283
papier	-10.1283
fertig	-10.1283
wendung	-10.1286
ting	-10.1287
schirm	-10.1289
▁martin	-10.129
▁psycho	-10.1293
▁materie	-10.1293
▁kamera	-10.1297
▁ke	-10.1306
▁überhaupt	-10.1307
ara	-10.1309
▁beobachtet	-10.131
▁microsoft	-10.131
▁kepler	-10.131
▁null	-10.1318
strecken	-10.1319
▁26.	-10.1325
▁26	-10.1327
kette	-10.1328
essen	-10.1333
▁strecke	-10.1335
▁isotope	-10.1336
▁unbekannt	-10.1338
▁stattdessen	-10.1338
festival	-10.1338
▁frequenz	-10.134
5.000	-10.1342
▁übrigen	-10.1344
▁reicht	-10.1347
▁beton	-10.1348
▁spezial	-10.1351
▁diskussion	-10.1366
▁hollywood	-10.1366
▁university	-10.1366
▁erzähl	-10.1366
bibliothek	-10.1367
prüfung	-10.1367
▁islamische	-10.1367
glieder	-10.1369
▁gene	-10.1373
roh	-10.1373
liefer	-10.1379
▁weiteres	-10.1381
förderung	-10.1386
schritt	-10.1392
▁blatt	-10.1395
▁beliebig	-10.1395
asiatisch	-10.1396
▁möglicherweise	-10.1399
▁denken	-10.1402
▁haut	-10.1403
▁22.	-10.1405
früchte	-10.1423
▁1938	-10.1424
▁weimar	-10.1425
bürgermeister	-10.1426
wertung	-10.1427
bindung	-10.1428
ata	-10.1431
▁vieler	-10.1437
ola	-10.1441
hang	-10.1441
▁entwicklungs	-10.1443
py	-10.1445
strich	-10.1446
▁halten	-10.1448
▁opposition	-10.1453
gliederung	-10.1459
oberfläche	-10.1459
och	-10.146
geschichtlich	-10.146
mol	-10.146
▁human	-10.1462
ierbar	-10.1464
▁heiß	-10.147
▁religions	-10.1471
führt	-10.1471
paar	-10.1472
▁wissenschaftler	-10.1479
kongress	-10.1481
isierten	-10.1481
haltige	-10.1482
pläne	-10.1483
▁wiederholt	-10.1484
▁merkel	-10.1485
block	-10.1486
oc	-10.1489
bie	-10.1492
▁wichtig	-10.1496
▁täglich	-10.1497
bru	-10.1497
▁beziehung	-10.15
▁nötig	-10.1509
salz	-10.1509
bein	-10.1513
▁texte	-10.1524
▁neuzeit	-10.1528
tron	-10.1533
▁lateinischen	-10.1534
hypothese	-10.1538
▁komplexe	-10.1538
▁1997	-10.1539
▁1941	-10.1539
abkommen	-10.1539
▁polizei	-10.1539
störung	-10.1542
▁erbaut	-10.1543
▁mm	-10.1548
sofern	-10.1552
euro	-10.1554
▁wichtiger	-10.1557
veranstaltung	-10.156
▁tu	-10.1562
club	-10.1563
spann	-10.1564
▁konsum	-10.1565
▁arsen	-10.1567
▁kolonial	-10.1567
▁operation	-10.1568
▁nordrhein	-10.157
▁infrastruktur	-10.157
fahr	-10.1571
▁hierzu	-10.1571
▁act	-10.1574
▁schiff	-10.1575
▁hintergrund	-10.1576
▁altstadt	-10.1576
fol	-10.1589
katholisch	-10.1589
▁temperaturen	-10.1589
▁waffen	-10.1594
▁gelangt	-10.1595
▁miteinander	-10.1596
▁russland	-10.1596
▁1961	-10.1597
▁christentum	-10.1598
▁pop	-10.16
▁offenbar	-10.1605
ärt	-10.1607
bestand	-10.1613
▁star	-10.1617
hochschule	-10.1625
▁künstlich	-10.1625
▁neuseeland	-10.1625
▁populär	-10.1625
offizier	-10.1625
büro	-10.1626
abel	-10.1629
gerecht	-10.1642
marsch	-10.1643
titel	-10.1645
▁schwerpunkt	-10.1651
▁genommen	-10.1651
▁erscheint	-10.1654
▁begrenzt	-10.1655
▁1939	-10.1655
▁strukturen	-10.1658
kontroll	-10.1662
stätte	-10.1664
schwer	-10.1665
geber	-10.1672
pass	-10.1679
samt	-10.1683
▁verteilt	-10.1685
▁unten	-10.1687
▁gewisse	-10.1689
post	-10.1693
▁hätten	-10.1695
▁medizinische	-10.1701
▁zellen	-10.1702
▁traf	-10.1705
komm	-10.1709
odi	-10.1709
▁bus	-10.1711
▁längs	-10.1715
▁sowjetische	-10.1716
zeichnen	-10.1725
chlorid	-10.1727
▁dokument	-10.1734
baum	-10.1735
angehörige	-10.1741
▁manchmal	-10.1742
gehoben	-10.1743
▁zeitraum	-10.1744
tus	-10.1745
▁begriffe	-10.1759
pil	-10.1759
▁roten	-10.1761
walt	-10.1764
▁rechen	-10.1768
▁geschätzt	-10.1772
▁gezeigt	-10.1772
▁adenauer	-10.1772
▁beste	-10.1773
“),	-10.1775
▁fragen	-10.178
▁himmel	-10.1781
▁schwach	-10.1781
quer	-10.1783
▁fisch	-10.1792
▁stau	-10.1793
▁kritisch	-10.1795
kolleg	-10.1798
▁hitchcock	-10.1801
▁umgekehrt	-10.1801
▁primär	-10.1802
▁gestalt	-10.1802
▁überliefert	-10.1802
▁systematisch	-10.1802
schuld	-10.1802
▁griechenland	-10.1804
▁sichtbar	-10.1806
index	-10.181
gehör	-10.1813
▁nacht	-10.1816
▁analyse	-10.1821
▁jüdische	-10.1822
iff	-10.1823
kapazität	-10.1831
▁verwenden	-10.1831
▁bindung	-10.1832
▁gehörten	-10.1832
▁frühjahr	-10.1833
sperr	-10.1834
▁farbe	-10.1837
platten	-10.1838
lassung	-10.1849
▁information	-10.1854
schalt	-10.1857
▁religiöse	-10.1858
mid	-10.1858
▁haushalt	-10.186
bett	-10.186
▁städtische	-10.1861
fabrik	-10.1861
▁kanada	-10.1862
▁tabelle	-10.1862
▁generation	-10.1862
▁persönlichkeit	-10.1867
prozess	-10.1869
abteilung	-10.1871
stufen	-10.1874
▁tun	-10.1879
fur	-10.1882
▁wende	-10.1883
▁soziale	-10.1884
maschinen	-10.1885
▁abgeordnete	-10.1887
);	-10.189
▁sk	-10.1892
bio	-10.1893
▁arabischen	-10.1894
▁beleg	-10.1914
ati	-10.1915
▁kalt	-10.1916
gerechnet	-10.1921
elemente	-10.1922
▁ergeben	-10.1928
main	-10.193
▁blieben	-10.1934
▁junge	-10.1936
▁zukunft	-10.1937
fir	-10.194
▁23.	-10.1948
▁bibliothek	-10.195
▁beschreibt	-10.195
▁voraussetzung	-10.1952
▁erzielt	-10.1953
▁45	-10.1958
dimension	-10.1981
▁windows	-10.1981
▁konkret	-10.1981
märkte	-10.1981
anstalt	-10.1981
niveau	-10.1984
aufnahme	-10.1987
▁bedingt	-10.1987
,0	-10.1988
▁logik	-10.1993
▁verkauf	-10.1993
tausch	-10.1997
▁suche	-10.2004
▁dna	-10.2005
▁gefangen	-10.2005
haar	-10.2008
▁antiken	-10.2011
▁society	-10.2011
▁verlor	-10.2014
wirklich	-10.2015
▁älteren	-10.2015
▁gehalten	-10.2026
feier	-10.2026
▁col	-10.2033
▁glaubens	-10.2039
▁philipp	-10.2041
▁sammel	-10.2041
▁gemessen	-10.2042
▁folgten	-10.2046
▁wahrheit	-10.2048
karten	-10.2049
▁ausstellung	-10.205
histori	-10.205
vest	-10.2057
zweig	-10.2062
handwerk	-10.2064
▁jazz	-10.2072
austausch	-10.2074
▁bri	-10.2085
▁'	-10.2086
römische	-10.2089
pot	-10.2089
▁brando	-10.209
▁fein	-10.2091
freie	-10.2091
▁aufgabe	-10.2092
▁ideen	-10.2093
garten	-10.2097
▁goebbels	-10.2102
▁heiratete	-10.2102
▁kupfer	-10.2102
▁fritz	-10.2107
▁linien	-10.2112
engl	-10.2114
▁getreide	-10.2116
▁laser	-10.212
stieg	-10.2127
▁äußerst	-10.2133
▁korrekt	-10.2133
vgl	-10.2134
informatik	-10.2135
▁standen	-10.2136
▁gelb	-10.2139
ction	-10.2142
▁wohnung	-10.2144
▁vorstellung	-10.2147
▁miet	-10.2148
▁25.	-10.2161
▁brand	-10.2162
▁vermutet	-10.2163
aktiv	-10.2164
▁nationale	-10.2166
▁garten	-10.2167
▁höchst	-10.217
▁erkenntnis	-10.2171
schul	-10.2172
tempel	-10.2172
▁studio	-10.2173
rain	-10.2176
▁albert	-10.2177
▁bekam	-10.2177
▁fran	-10.2182
▁produkte	-10.2183
polit	-10.2184
▁schwere	-10.2185
effekt	-10.219
▁versuche	-10.2192
▁diskutiert	-10.2194
▁erforderlich	-10.2194
▁schröder	-10.2194
pfalz	-10.2194
taunus	-10.2196
fahrzeug	-10.2196
▁christlichen	-10.2201
▁gewinn	-10.2203
beck	-10.2209
▁einheitlich	-10.2209
schätzung	-10.2218
▁könnten	-10.222
▁spanische	-10.2221
▁ägypten	-10.2225
▁leiter	-10.223
bringen	-10.2237
alle	-10.2237
bürger	-10.2239
▁code	-10.224
▁status	-10.2245
▁mer	-10.2248
▁umlauf	-10.2249
würfe	-10.2256
adi	-10.2256
brach	-10.227
etz	-10.2271
ago	-10.2271
▁test	-10.2272
▁angeboten	-10.2278
▁tanz	-10.2282
▁treten	-10.2286
▁elementar	-10.2286
▁besatzung	-10.2287
▁ausländische	-10.2288
02	-10.2289
▁minuten	-10.2289
▁adel	-10.2294
▁cent	-10.2296
vision	-10.23
biologie	-10.2306
▁möglichkeiten	-10.2313
gymnasium	-10.2318
▁mathematiker	-10.232
▁stahl	-10.2323
▁brach	-10.2325
▁abend	-10.2326
kenntnis	-10.233
▁risiko	-10.2337
▁breit	-10.2341
▁österreichische	-10.2344
▁metern	-10.2344
sicher	-10.2344
▁entwickelten	-10.2345
▁entwickeln	-10.2349
entscheid	-10.235
▁streit	-10.2356
▁bauwerk	-10.2364
▁feind	-10.2375
gest	-10.238
▁alkohol	-10.2381
▁jupiter	-10.2381
▁reagiert	-10.2381
▁dos	-10.2385
istik	-10.239
▁demnach	-10.2393
▁zumeist	-10.2407
▁atmosphäre	-10.2412
▁streng	-10.2413
▁wettbewerb	-10.2413
leute	-10.2413
▁konzert	-10.2418
▁byzantinische	-10.2428
▁schaffen	-10.2429
ona	-10.243
dal	-10.244
▁münz	-10.2442
mannschaft	-10.2442
hum	-10.2448
stätten	-10.2459
lip	-10.246
▁orientiert	-10.2461
▁leitung	-10.2462
gno	-10.2465
▁bewusst	-10.2468
▁präsidenten	-10.2474
▁mittelmeer	-10.2474
lam	-10.2475
▁maßgeblich	-10.2475
▁gmbh	-10.2475
anhand	-10.2475
▁forderte	-10.2476
▁28.	-10.2476
▁rasch	-10.2476
▁1975	-10.2477
▁römer	-10.2477
▁verstanden	-10.2479
wunder	-10.2479
▁früheren	-10.2479
▁asteroiden	-10.2485
▁inner	-10.2485
archiv	-10.2492
▁voran	-10.2493
▁innere	-10.2494
method	-10.2499
▁dick	-10.2504
zusetzen	-10.2504
▁mg	-10.2505
istischer	-10.2506
▁kommerziell	-10.2507
▁nämlich	-10.2507
felder	-10.2508
rik	-10.2508
zentren	-10.2509
▁darf	-10.2515
antwort	-10.2522
uz	-10.2523
▁schiffe	-10.2523
▁wesen	-10.2524
):	-10.2525
ländische	-10.2529
▁bringen	-10.2543
▁chi	-10.2547
▁glauben	-10.2552
berger	-10.2552
▁bur	-10.2554
▁weisen	-10.2565
liberal	-10.2565
knüpf	-10.257
▁weibliche	-10.2571
▁1918	-10.2573
▁diverse	-10.2574
▁aufgebaut	-10.2575
▁darstellen	-10.2576
▁biologische	-10.2577
▁eigentum	-10.2579
hoff	-10.2579
▁nationen	-10.2585
▁fett	-10.2585
mächte	-10.2588
▁intern	-10.2588
luc	-10.2592
▁methan	-10.26
▁comp	-10.2601
präsident	-10.2604
▁gingen	-10.2609
▁uns	-10.2614
ji	-10.2619
▁gegenstand	-10.2621
▁anton	-10.2622
▁kü	-10.2626
▁calcium	-10.2635
▁ernährung	-10.2635
wart	-10.2635
▁1969	-10.2636
▁1919	-10.2637
▁vielmehr	-10.2637
▁viertel	-10.264
sprach	-10.2649
▁ständig	-10.265
schifffahrt	-10.2656
▁japanischen	-10.266
läufe	-10.2666
▁komplett	-10.2667
methode	-10.267
▁ergab	-10.2671
▁hilfs	-10.2673
▁sozialen	-10.2675
▁annahme	-10.2675
kunft	-10.2679
▁bestimmen	-10.2684
rent	-10.2686
▁27.	-10.2686
▁preußen	-10.2688
▁verband	-10.2691
standard	-10.2691
▁braun	-10.2692
fahrer	-10.2693
termin	-10.2694
▁29.	-10.2695
dl	-10.2698
▁exemplar	-10.27
▁minderheit	-10.27
▁verfügbar	-10.27
▁fischer	-10.27
▁entdeckte	-10.2701
▁usw	-10.2704
ziehung	-10.2706
gam	-10.2713
lia	-10.2713
▁sprechen	-10.2714
phy	-10.2714
maschine	-10.2717
put	-10.2717
süd	-10.272
▁phänomen	-10.272
nacht	-10.2721
lot	-10.2728
▁ly	-10.2731
lingen	-10.2734
sand	-10.2735
bäume	-10.2736
▁anschluss	-10.2739
▁tat	-10.2739
▁beendet	-10.274
eshalb	-10.2745
▁trenn	-10.2753
▁christen	-10.2754
▁besten	-10.2757
▁vergleichbar	-10.2759
▁part	-10.2762
initiative	-10.2765
▁geschichts	-10.2766
ckel	-10.2767
abhängig	-10.2773
▁block	-10.2774
motor	-10.2776
▁mel	-10.2777
▁bündnis	-10.2778
zeile	-10.2779
regime	-10.278
▁gleiche	-10.2781
geschlagen	-10.2781
▁mat	-10.2781
wahr	-10.2783
zel	-10.2783
mauer	-10.2785
▁fluor	-10.2791
bezirk	-10.2795
▁mittelalterlich	-10.2797
▁luxemburg	-10.2797
▁linux	-10.2797
▁1979	-10.2798
▁oscar	-10.2799
sammlung	-10.2801
kopf	-10.2805
möglich	-10.2808
ull	-10.2814
▁bielefeld	-10.283
▁ozean	-10.283
sprüche	-10.283
▁verfolgt	-10.283
magazin	-10.283
▁rote	-10.2835
▁zerfall	-10.2835
▁frucht	-10.2837
elektro	-10.2843
▁umfang	-10.2843
pra	-10.2845
▁herrschafts	-10.2846
▁val	-10.2846
gemisch	-10.2848
ähnlich	-10.2849
verbindung	-10.2852
krone	-10.2854
währung	-10.2854
▁argentinien	-10.2863
▁evolution	-10.2863
prim	-10.2864
gro	-10.2865
ico	-10.2865
▁italienischen	-10.2867
▁bürgerkrieg	-10.2868
urteil	-10.2874
▁music	-10.2874
sprechen	-10.2878
handels	-10.2893
▁magnesium	-10.2896
▁lateinische	-10.2897
▁ändert	-10.2897
brüder	-10.2897
▁boot	-10.2897
▁vokal	-10.2898
kolonie	-10.2899
psych	-10.2905
mehr	-10.2917
▁modern	-10.2919
direktor	-10.2922
▁kühl	-10.2923
▁bislang	-10.2925
▁[...]	-10.2929
▁bundestagswahl	-10.2929
oper	-10.2933
cur	-10.2939
slaw	-10.2939
autor	-10.294
parti	-10.2942
▁patent	-10.2942
▁dänische	-10.2944
▁pc	-10.2956
▁reine	-10.2957
▁madonna	-10.2962
▁vulkan	-10.2962
▁karriere	-10.2962
▁1973	-10.2963
illi	-10.2964
ordin	-10.2968
opti	-10.2968
▁gemeinsamen	-10.2972
▁export	-10.2972
bedingt	-10.2976
▁ausbau	-10.2976
▁is	-10.2995
strategie	-10.2996
▁kombination	-10.2996
▁1983	-10.2997
▁1943	-10.2997
▁veränderungen	-10.2998
tafel	-10.2999
tau	-10.301
▁eigenschaft	-10.3018
ies	-10.3023
präsidenten	-10.3028
▁auflösung	-10.3028
▁nsdap	-10.3029
spektrum	-10.3029
▁verhältnisse	-10.3032
▁mannschaft	-10.3033
bevölkerung	-10.3033
▁sorgt	-10.3035
▁hoher	-10.3035
▁wall	-10.3037
link	-10.3044
▁einrichtungen	-10.3045
▁zugang	-10.3045
▁innen	-10.3046
▁jüdischen	-10.3056
▁besucher	-10.3061
▁letztlich	-10.3063
▁grundlagen	-10.3064
▁herrscht	-10.3064
▁maschine	-10.3066
▁helium	-10.3068
▁wichtigen	-10.3069
▁fla	-10.3079
▁ausgezeichnet	-10.3081
erzeugung	-10.3082
nimmt	-10.3088
cent	-10.3088
ografie	-10.3088
▁universitäten	-10.3089
orthodox	-10.3096
händler	-10.3097
▁beruht	-10.3097
gol	-10.3098
▁englische	-10.3099
inus	-10.3099
ura	-10.3101
▁hierfür	-10.3103
▁militärischen	-10.3104
angriff	-10.3104
▁verboten	-10.3108
▁verschieden	-10.3113
▁molekül	-10.312
▁provinzen	-10.3121
▁bekanntesten	-10.3123
dampf	-10.3124
spieler	-10.3128
▁bulgarien	-10.313
▁award	-10.313
genossen	-10.313
▁1971	-10.3131
▁1955	-10.3131
▁bieten	-10.3134
bot	-10.3136
hülle	-10.3136
▁tagen	-10.3141
woche	-10.3141
▁staates	-10.3149
landes	-10.3153
▁genre	-10.3157
▁brauch	-10.3165
▁südlichen	-10.3165
ämter	-10.3165
▁integriert	-10.3165
▁cd	-10.3169
▁los	-10.3169
ular	-10.317
▁24.	-10.3172
▁proto	-10.3181
kasse	-10.3184
onym	-10.3185
sverfahren	-10.3187
lied	-10.3194
▁gedicht	-10.3195
king	-10.3198
▁schwester	-10.3198
▁mein	-10.3201
▁anwendungen	-10.3202
▁erobert	-10.3202
cal	-10.3203
europäisch	-10.3216
bezüglich	-10.3217
schließlich	-10.3228
▁leonardo	-10.3232
▁verbessert	-10.3232
▁kurfürst	-10.3232
▁christliche	-10.3232
▁neutronen	-10.3232
▁1984	-10.3233
▁maßnahmen	-10.3235
▁zugeordnet	-10.3236
▁derzeit	-10.3243
▁niederlande	-10.3248
▁aktion	-10.3248
▁fan	-10.3248
▁180	-10.3251
▁roh	-10.3264
▁patienten	-10.3267
▁schwedisch	-10.3267
▁florenz	-10.3267
▁tumor	-10.3271
sprung	-10.3277
ique	-10.3283
▁leiden	-10.3283
▁jesu	-10.3285
▁willen	-10.3285
▁abgeschlossen	-10.3287
kosten	-10.3289
▁char	-10.3289
▁phil	-10.3291
stamm	-10.3296
▁verbreitete	-10.3296
beute	-10.3296
▁verfasste	-10.3297
▁verursacht	-10.3301
▁vielfältig	-10.3301
▁radikal	-10.3301
▁konstruktion	-10.3307
700	-10.3316
▁erzählung	-10.3316
▁bern	-10.3317
▁anerkennung	-10.3321
▁vögel	-10.3323
▁gesundheit	-10.3327
karte	-10.3329
▁zusätzliche	-10.3334
lässlich	-10.3335
schaffung	-10.3336
▁schuld	-10.335
▁gewinnen	-10.3353
▁dauerhaft	-10.3356
▁louis	-10.3357
▁binnen	-10.336
▁versorgung	-10.3363
route	-10.3364
italien	-10.3365
mächtig	-10.337
▁ereignisse	-10.337
▁inflation	-10.337
▁1953	-10.3371
schuss	-10.3373
▁karls	-10.3376
ney	-10.3377
lev	-10.3378
kirchen	-10.3387
lag	-10.3387
▁reichstag	-10.339
-1	-10.3393
▁flach	-10.3394
way	-10.3395
▁bund	-10.3399
▁begonnen	-10.3405
▁1972	-10.3406
▁1968	-10.3406
natur	-10.3407
▁sim	-10.341
▁lebte	-10.3413
tech	-10.3413
▁1987	-10.344
▁kennen	-10.3441
▁gedanken	-10.3442
aufenthalt	-10.3443
▁klasse	-10.3447
amerikaner	-10.3452
kauf	-10.3457
▁ip	-10.346
▁weich	-10.3463
real	-10.3471
auto	-10.3474
phone	-10.3474
▁napoleon	-10.3474
▁stuttgart	-10.3474
▁1962	-10.3475
▁teu	-10.3476
▁nachrichten	-10.3476
zehn	-10.3478
▁tourismus	-10.3479
äh	-10.3481
▁american	-10.3481
einheiten	-10.3483
▁kranken	-10.3487
▁lautet	-10.3492
▁abgeleitet	-10.3498
geht	-10.3499
bol	-10.3502
▁erz	-10.3505
häfen	-10.3512
▁sar	-10.3513
▁ibm	-10.3513
▁goldenen	-10.3513
▁betont	-10.3514
▁linken	-10.3514
blatt	-10.3516
▁wappen	-10.3518
▁prag	-10.352
▁150	-10.3522
▁eben	-10.3524
▁wachsende	-10.3524
▁gast	-10.3527
_5	-10.3528
▁fällt	-10.353
impuls	-10.3548
einkommen	-10.3552
▁//	-10.3554
▁träger	-10.3561
oskop	-10.3565
waffen	-10.3569
▁hermann	-10.3574
▁erfolgen	-10.3576
▁schwefel	-10.358
▁eingestellt	-10.358
bericht	-10.3588
▁chemisch	-10.3589
▁zusammensetzung	-10.3591
▁bezieht	-10.3597
▁...	-10.3603
▁werken	-10.3604
ini	-10.361
▁umfassende	-10.3613
▁bedeutendsten	-10.3616
effizient	-10.3616
▁ausgeprägt	-10.3616
▁nürnberg	-10.3616
▁zeitgenössische	-10.3616
▁1988	-10.3617
▁1956	-10.3617
▁1947	-10.3617
frau	-10.3624
▁alpen	-10.3625
brand	-10.3635
zahlung	-10.3636
▁basel	-10.3638
▁personal	-10.3646
▁vorstellungen	-10.3647
▁strahlung	-10.3648
enzyklopädie	-10.3651
gefühl	-10.3651
rüstung	-10.3651
▁sto	-10.3664
wissenschaftler	-10.3665
fällt	-10.3666
verhältnisse	-10.3668
gre	-10.367
▁programme	-10.3672
produkte	-10.3673
til	-10.3684
▁dampf	-10.3686
▁konfession	-10.3687
▁schweden	-10.3687
▁eroberung	-10.3687
▁befasst	-10.3687
▁1974	-10.3688
▁zeitschrift	-10.3688
▁verlegt	-10.369
▁kehrte	-10.3696
▁umgang	-10.3698
▁netzwerk	-10.3699
cd	-10.3702
▁japanische	-10.3704
▁medium	-10.3705
▁jahrzehnte	-10.3706
▁endete	-10.3711
ray	-10.3715
▁mittleren	-10.3717
▁abschluss	-10.3719
cholesterin	-10.3723
▁voneinander	-10.3723
▁formuliert	-10.3723
aria	-10.3723
▁richtig	-10.3724
▁verlassen	-10.3725
▁ausreichend	-10.3725
▁staatlichen	-10.3726
öll	-10.3732
▁höhepunkt	-10.3734
▁leer	-10.3735
zieht	-10.3742
▁kritiker	-10.3745
kohl	-10.3748
▁tour	-10.3751
▁irr	-10.3757
gewächse	-10.3759
▁kult	-10.376
▁gelehrt	-10.3762
▁löste	-10.3765
cycl	-10.3767
▁iv	-10.3768
▁frieden	-10.3776
▁küste	-10.3777
▁ausgebaut	-10.3782
▁beschrieb	-10.3784
iel	-10.3786
▁mangel	-10.3788
▁einiger	-10.379
▁besonderheit	-10.3795
▁leibniz	-10.3795
▁interpretation	-10.3795
▁geriet	-10.3796
act	-10.3798
weich	-10.3801
▁übersetzt	-10.3809
box	-10.3812
biografie	-10.3818
farben	-10.3819
▁basiert	-10.382
▁treffen	-10.382
▁mode	-10.3823
yth	-10.3826
▁tau	-10.3828
▁gezählt	-10.3831
▁autonom	-10.3832
brett	-10.3833
▁sank	-10.3833
▁quanten	-10.3838
lohn	-10.384
▁lehnte	-10.3842
konzept	-10.3846
▁lebten	-10.3849
▁ap	-10.385
▁lind	-10.3858
▁mali	-10.3863
▁crowley	-10.3867
▁individuell	-10.3867
▁katholischen	-10.3869
▁nennen	-10.3869
▁termin	-10.387
▁wesentliche	-10.3874
▁quell	-10.3881
krankheit	-10.3886
größte	-10.3886
▁erweiterung	-10.3889
▁antwort	-10.389
▁systeme	-10.3891
▁einwohnerzahl	-10.3892
mengen	-10.3894
▁schlüssel	-10.3896
▁leber	-10.3897
▁ruf	-10.3897
gift	-10.3898
▁lebewesen	-10.3904
▁schlug	-10.3904
▁1982	-10.3905
▁geistes	-10.391
dynamik	-10.3911
computer	-10.3921
schütz	-10.3925
monat	-10.3931
▁konzentration	-10.3935
essel	-10.3936
▁hardware	-10.3941
▁besaß	-10.3941
wälder	-10.3941
▁fortschritt	-10.3942
streifen	-10.3944
▁mir	-10.3947
▁lizenz	-10.3947
▁alters	-10.3953
▁tausend	-10.3954
rakete	-10.3964
stift	-10.3965
▁männliche	-10.3965
bezeichnung	-10.3965
▁lehrer	-10.3966
▁angebot	-10.3966
gebildet	-10.3973
▁solcher	-10.3974
▁gespräch	-10.3974
zwei	-10.398
kritische	-10.3987
▁komplexen	-10.3987
out	-10.3996
adresse	-10.3996
thon	-10.4008
▁therapie	-10.401
▁stoffe	-10.4011
▁dürfen	-10.4014
▁verhindern	-10.4014
▁belgien	-10.4014
▁nickel	-10.4016
trakt	-10.402
▁griechische	-10.402
kommt	-10.4022
▁gesetzlich	-10.4024
wertige	-10.4027
▁kurs	-10.4028
▁spiele	-10.4028
alisierung	-10.4031
stimmen	-10.4036
▁tages	-10.4048
▁wellen	-10.405
möglichst	-10.405
lik	-10.405
▁afghanistan	-10.4051
▁angeblich	-10.4052
▁doppelt	-10.4052
▁1900	-10.4056
▁platon	-10.4057
▁offizielle	-10.4057
▁city	-10.4059
▁feucht	-10.4059
▁professor	-10.4064
russ	-10.4073
tol	-10.4073
▁orient	-10.4074
▁elektronische	-10.4077
sdorf	-10.4081
geb	-10.4084
csu	-10.4084
direkt	-10.4085
pfarr	-10.4087
▁generell	-10.4089
▁griechisch	-10.4091
▁seltener	-10.4098
▁ruhe	-10.4102
row	-10.4103
▁periode	-10.4112
nutzung	-10.4113
▁breiten	-10.4113
dol	-10.4117
▁epoche	-10.4126
▁dollar	-10.4126
▁1942	-10.4127
mitglieder	-10.4139
▁ufer	-10.4151
▁(16	-10.4156
▁quadrat	-10.4163
▁1981	-10.4164
stämme	-10.4165
▁katholische	-10.4171
▁blick	-10.4175
ska	-10.4176
▁app	-10.4178
wal	-10.4179
übung	-10.418
sächsische	-10.4183
▁königlich	-10.4185
▁hersteller	-10.4188
datei	-10.4191
▁verließ	-10.4192
▁hitlers	-10.4196
pflege	-10.4197
▁mechanisch	-10.4201
▁sur	-10.4203
▁forscher	-10.4204
▁mittlere	-10.4204
▁rechner	-10.4206
▁photo	-10.4208
▁künstlerische	-10.4208
▁gestaltet	-10.4211
krimi	-10.4213
▁beitrag	-10.4228
haben	-10.423
▁gekennzeichnet	-10.4238
▁hadrian	-10.4238
ifizierung	-10.424
▁erkenntnisse	-10.4265
strömung	-10.4267
▁prozesse	-10.4271
stock	-10.4271
chemie	-10.4274
▁lüneburg	-10.4276
▁vorgänger	-10.4277
▁richtet	-10.4277
▁statistisch	-10.4278
▁niederschlag	-10.4282
▁übertragung	-10.4286
▁fossil	-10.4288
rest	-10.429
▁dritt	-10.4294
▁mur	-10.4295
▁offiziellen	-10.4308
▁benachbarte	-10.4314
kabinett	-10.4314
▁bevorzugt	-10.4315
▁fahrzeug	-10.4315
▁neutral	-10.4315
▁1985	-10.4316
▁wetter	-10.4316
▁kontext	-10.4319
▁bulgarische	-10.4322
▁verstehen	-10.4325
▁bewusstsein	-10.4342
▁bedarf	-10.4344
fuß	-10.4345
▁abbildung	-10.4351
▁vergangenheit	-10.4353
▁zürich	-10.4353
▁vorgesehen	-10.4353
▁vitamin	-10.4353
▁schuf	-10.4353
▁auflage	-10.4354
▁1966	-10.4354
▁1935	-10.4354
▁krypto	-10.4354
blue	-10.4358
homo	-10.4359
▁verliehen	-10.4359
vater	-10.4366
▁nördlichen	-10.437
▁gew	-10.4375
▁östlichen	-10.4378
▁trennung	-10.4385
konvention	-10.439
▁hängt	-10.4391
▁eingerichtet	-10.4391
▁fertiggestellt	-10.4393
▁hyper	-10.4394
▁exakt	-10.4394
▁theo	-10.4397
▁zeitweise	-10.4421
sozial	-10.4422
arabisch	-10.4423
journal	-10.4429
▁rezeption	-10.4429
▁entfernung	-10.4429
▁1976	-10.443
▁auswirkungen	-10.4431
▁blätter	-10.4435
▁verständnis	-10.4437
raub	-10.4446
▁bahnhof	-10.4447
lateinisch	-10.446
element	-10.446
palast	-10.4461
maßnahmen	-10.4465
bünde	-10.4467
moschee	-10.4467
sekretär	-10.4468
▁erhoben	-10.4468
▁sofort	-10.4468
▁firma	-10.4468
▁identität	-10.4469
gearbeitet	-10.447
▁vogel	-10.4472
▁wirksam	-10.4477
▁vereinten	-10.4478
▁einzigen	-10.4488
▁unterschiede	-10.449
▁gedenk	-10.4493
elli	-10.4494
hom	-10.4499
▁sonstige	-10.45
komödie	-10.4507
▁zweifel	-10.4508
▁1967	-10.4508
100	-10.4508
▁planung	-10.451
▁frank	-10.4515
▁nordsee	-10.4515
▁arzt	-10.4517
izi	-10.4519
▁bauern	-10.4523
▁unterhalb	-10.4537
▁quer	-10.4542
▁volumen	-10.4544
inhalt	-10.4545
dynastie	-10.4546
▁gebräuchlich	-10.4546
▁scheiterte	-10.4546
kommando	-10.4546
▁flüssigkeit	-10.4546
▁1934	-10.4547
cia	-10.4547
▁1929	-10.4547
▁spezifische	-10.4547
▁400	-10.4549
rohr	-10.4556
▁mitgliedern	-10.4563
▁klassen	-10.4563
▁aufstieg	-10.4565
▁hö	-10.4566
▁kongo	-10.4569
heute	-10.4569
▁christi	-10.4571
planet	-10.4578
▁marine	-10.4581
▁äußert	-10.4585
▁1952	-10.4586
monopol	-10.4587
kam	-10.4589
▁labor	-10.459
▁höhen	-10.4592
▁amtszeit	-10.4594
phil	-10.4601
▁anime	-10.4602
rup	-10.461
▁genetisch	-10.4618
spezifisch	-10.4622
▁erstreckt	-10.4624
▁jetzt	-10.4624
▁1977	-10.4625
liegende	-10.4627
nobelpreis	-10.463
▁alltag	-10.463
▁container	-10.4632
sichtig	-10.4635
flagge	-10.4638
▁schiffs	-10.4642
herstellung	-10.4642
▁nachfolgend	-10.4645
tür	-10.4646
englisch	-10.465
flor	-10.465
asso	-10.4652
germanische	-10.4657
▁münch	-10.4661
▁helgoland	-10.4663
▁erklären	-10.4663
▁1954	-10.4664
▁ermöglichen	-10.4664
▁1986	-10.4665
▁zuschauer	-10.4666
schlüssel	-10.4672
▁beschlossen	-10.4674
▁kontinent	-10.4676
▁sonst	-10.4677
spannung	-10.4683
melde	-10.4691
philosoph	-10.4696
▁renaissance	-10.4696
▁elektrischen	-10.4696
▁niederlage	-10.4699
anthrop	-10.4703
▁darmstadt	-10.4703
schwäche	-10.4703
▁erfüllt	-10.4704
▁brutto	-10.4706
therapie	-10.4708
▁still	-10.4717
▁leipziger	-10.4719
ström	-10.4722
▁pat	-10.4732
▁auftritt	-10.4732
studie	-10.4735
▁chinesischen	-10.4736
mandat	-10.4736
▁sämtliche	-10.4742
gewebe	-10.4744
▁scheint	-10.4747
°	-10.4748
lz	-10.4749
hil	-10.4749
▁bibel	-10.4756
getreten	-10.4759
▁augustus	-10.477
oide	-10.4773
oid	-10.4776
▁wissenschafts	-10.4777
▁jahrzehnten	-10.4781
▁nietzsche	-10.4782
plattform	-10.4782
▁dünn	-10.4783
▁heftig	-10.4783
▁1965	-10.4784
▁organische	-10.4784
objekt	-10.4788
bestimmung	-10.479
gelassen	-10.479
▁schließen	-10.4792
häusern	-10.4792
▁album	-10.4801
zunehmen	-10.4802
konstante	-10.4803
▁wander	-10.4807
▁ausgehend	-10.4814
▁erfolge	-10.4816
blüte	-10.482
▁galilei	-10.4822
▁bekannteste	-10.4829
▁eli	-10.4829
nieder	-10.4847
▁aldi	-10.4857
▁sä	-10.4859
ima	-10.486
▁summe	-10.4861
basketball	-10.4862
▁konzentriert	-10.4862
▁verhindert	-10.4862
verletzung	-10.4862
▁1963	-10.4863
▁wechselwirkung	-10.4864
kw	-10.4865
▁bewegen	-10.4867
▁knochen	-10.4868
kaiser	-10.4869
güter	-10.4873
kühl	-10.4874
▁wahrnehmung	-10.4889
▁kontra	-10.4894
▁kommunal	-10.4901
kämpft	-10.4903
▁massiv	-10.4903
▁gespielt	-10.4903
▁spuren	-10.4904
▁1936	-10.4904
norm	-10.4905
▁aspekte	-10.4906
▁ärzte	-10.4909
▁planck	-10.4911
spor	-10.4914
artig	-10.4915
best	-10.4931
▁design	-10.4932
▁musiker	-10.4934
▁ammoniak	-10.4943
▁kroatien	-10.4943
▁zentimeter	-10.4943
▁reduktion	-10.4943
quartier	-10.4944
▁1932	-10.4945
loch	-10.4947
zählung	-10.4949
geist	-10.4953
wörter	-10.4953
bilder	-10.4972
gebrochen	-10.4984
▁1978	-10.4985
gesagt	-10.4986
▁1964	-10.4986
vögel	-10.4998
▁temp	-10.4999
analyse	-10.4999
▁durchaus	-10.5009
▁gesundheits	-10.501
▁bü	-10.5012
▁geistige	-10.5013
▁wollen	-10.5022
versicherung	-10.5025
▁berechnet	-10.5025
erhöhung	-10.5025
▁tatsache	-10.5025
▁telefon	-10.5025
▁abgrenzung	-10.5025
hügel	-10.5025
▁bischof	-10.5026
sturz	-10.5027
▁umgeben	-10.5031
▁nachfolge	-10.5037
▁gelände	-10.5039
▁traditionellen	-10.504
periode	-10.5041
gewalt	-10.5052
▁amerika	-10.5057
▁ergänzt	-10.5066
▁faraday	-10.5066
▁terror	-10.5066
via	-10.5067
▁universal	-10.507
▁ausgangs	-10.507
▁mich	-10.5086
▁iod	-10.5095
▁kalk	-10.5096
kind	-10.5106
vereinigte	-10.5107
▁dänemark	-10.5107
▁kafka	-10.5107
statistik	-10.5107
▁geometrie	-10.5107
reaktor	-10.5107
▁gehirn	-10.5107
▁abhängigkeit	-10.5113
trans	-10.5121
fenster	-10.5125
▁mechanik	-10.5126
▁religiösen	-10.5143
zuführen	-10.5143
erfolg	-10.5144
keramik	-10.5148
▁durfte	-10.5148
▁dominiert	-10.5148
▁erfindung	-10.5149
▁1957	-10.5149
▁sha	-10.515
▁kugel	-10.5155
▁ingenieur	-10.5156
▁dinge	-10.5165
▁spar	-10.5166
fließ	-10.5174
artigen	-10.5176
malerei	-10.5177
char	-10.5186
▁einflüsse	-10.5186
▁söhne	-10.519
▁stickstoff	-10.519
▁spätesten	-10.519
▁leucht	-10.519
▁erwachsene	-10.5191
▁treib	-10.5192
▁zusammengefasst	-10.5193
litz	-10.5194
▁etc	-10.5194
▁erzeugen	-10.5195
▁cal	-10.5196
part	-10.52
▁erwerb	-10.5205
gebunden	-10.5217
▁bürgerliche	-10.5231
▁gleichnamige	-10.5231
▁publiziert	-10.5231
▁neckar	-10.5231
transformation	-10.5232
▁durchmesser	-10.5232
▁1914	-10.5233
▁unendlich	-10.5233
gunsten	-10.5241
▁trau	-10.5241
verhältnis	-10.5244
▁gekommen	-10.5246
▁coburg	-10.5248
ritz	-10.5269
publikation	-10.5273
▁benutzer	-10.5273
▁unterteilt	-10.5274
▁zerstörung	-10.5275
▁mrd	-10.5275
truppe	-10.5278
▁tendenz	-10.5279
kraut	-10.5293
▁uran	-10.5295
▁bezeichnen	-10.5297
▁anbau	-10.5299
heilig	-10.5303
gewerkschaft	-10.5308
▁honecker	-10.5315
▁hektar	-10.5315
▁1958	-10.5316
▁währungs	-10.5324
▁goldene	-10.533
▁optisch	-10.5332
kreislauf	-10.5348
schöpf	-10.5351
▁gipfel	-10.5357
▁zugänglich	-10.5357
▁systematik	-10.5357
▁behauptet	-10.5358
▁museen	-10.5358
▁methanol	-10.5364
sänger	-10.5368
▁umsetzung	-10.5373
▁gla	-10.5382
ato	-10.5383
lanz	-10.5385
▁gemein	-10.5385
▁bewohner	-10.539
stehen	-10.5398
▁anna	-10.5399
gemüse	-10.54
▁gefördert	-10.54
▁bronze	-10.54
▁(15	-10.5401
▁darwin	-10.5403
▁hydro	-10.5405
duk	-10.5409
hai	-10.5429
regeln	-10.5435
interpret	-10.5441
phys	-10.5442
▁medici	-10.5442
patri	-10.5444
▁fleisch	-10.5446
pd	-10.5448
zeugnis	-10.5454
omi	-10.5456
ella	-10.5469
pek	-10.5478
▁kaiserliche	-10.5479
▁kontinuierlich	-10.5485
▁wolf	-10.5487
symbol	-10.5493
branche	-10.5494
kur	-10.5495
▁grammatik	-10.5501
beamte	-10.5507
▁koran	-10.5511
gemäß	-10.552
höhle	-10.5524
▁gustav	-10.5528
dehnung	-10.5528
afrikanische	-10.553
▁jugendliche	-10.553
dichtung	-10.5531
rey	-10.5532
▁niedriger	-10.5533
witz	-10.5542
▁polnische	-10.5545
deutscher	-10.5557
herzog	-10.5566
subjekt	-10.5571
▁gewerbe	-10.5571
▁lernte	-10.5573
▁mitteleuropa	-10.5575
▁geschützt	-10.5575
schatz	-10.5576
▁dean	-10.5582
▁steigende	-10.5582
▁kulturellen	-10.5584
▁verläuft	-10.5585
▁grönland	-10.5596
rassen	-10.5613
propaganda	-10.5614
▁ausgerichtet	-10.5615
gefasst	-10.5616
▁these	-10.5616
sicherung	-10.5634
arbeiter	-10.5643
▁pra	-10.5649
kra	-10.5653
axiom	-10.5658
▁1925	-10.566
▁politiker	-10.5662
▁erlangte	-10.5662
▁rückkehr	-10.5663
▁hessen	-10.5665
▁hinein	-10.5665
frist	-10.567
▁rohstoff	-10.5676
fries	-10.5679
▁öko	-10.5683
macher	-10.5693
architektur	-10.5697
bühne	-10.5698
▁geh	-10.5698
▁gewissen	-10.5701
▁chávez	-10.5702
▁1926	-10.5703
konzern	-10.5705
▁identisch	-10.5707
▁zugelassen	-10.5713
▁rö	-10.5713
▁polar	-10.5713
▁morgen	-10.5716
quant	-10.5727
einnahmen	-10.573
spitze	-10.5739
wachstum	-10.5741
▁besch	-10.5743
▁arc	-10.5744
▁elektromagnet	-10.5745
▁natürlich	-10.5751
tyr	-10.5752
fluorid	-10.5755
▁gesicht	-10.5755
▁immun	-10.5763
spruch	-10.5773
medizin	-10.5785
▁liter	-10.5787
▁cosimo	-10.5789
▁helsinki	-10.5789
▁kalifornien	-10.5789
▁algorithmus	-10.579
▁1951	-10.5791
verlust	-10.5792
kenntnisse	-10.5793
▁bat	-10.5794
information	-10.5795
belastung	-10.5797
▁demokratischen	-10.58
▁pariser	-10.5802
stall	-10.5806
▁nachfrage	-10.5817
▁legitim	-10.5834
▁chaplin	-10.5834
▁erkennbar	-10.5834
▁verpflichtet	-10.5834
protokoll	-10.5834
▁stattfinden	-10.5834
▁hauptrolle	-10.5837
bla	-10.5838
▁automatisch	-10.5839
▁zugrunde	-10.5846
▁umgesetzt	-10.5847
▁stich	-10.5862
▁genauer	-10.5871
▁ordens	-10.5877
zusammen	-10.5877
diktatur	-10.5878
▁alfred	-10.5878
express	-10.5878
▁eingeschränkt	-10.5879
▁bou	-10.5879
streben	-10.588
▁vergleichsweise	-10.5881
komitee	-10.5884
▁einteilung	-10.5884
union	-10.5885
feind	-10.5887
▁laufen	-10.5903
nova	-10.5916
▁zeitlich	-10.592
▁ansatz	-10.5921
kräftig	-10.5923
▁apollo	-10.5923
▁vorläufer	-10.5923
▁ungarn	-10.5923
▁eiffelturm	-10.5923
▁1924	-10.5924
formel	-10.5928
tätigkeit	-10.5931
▁island	-10.5933
got	-10.5945
▁leser	-10.595
▁erwies	-10.5953
▁stütz	-10.5953
rennen	-10.596
▁ausgeführt	-10.5961
▁beobachten	-10.5968
geworfen	-10.5968
▁verurteilt	-10.5968
klinik	-10.5968
▁wolfgang	-10.597
▁fels	-10.597
▁trotzdem	-10.5974
▁fehlt	-10.5979
▁mittelpunkt	-10.5984
▁neuro	-10.5986
▁geographie	-10.5996
▁anordnung	-10.5997
▁1,5	-10.6006
▁regelung	-10.6007
▁aufgelöst	-10.6009
potential	-10.6013
▁habermas	-10.6013
▁vernunft	-10.6013
▁muslime	-10.6013
▁räumlich	-10.6013
▁1959	-10.6014
zweck	-10.6017
▁varianten	-10.6021
▁gegenseitig	-10.6028
verfilmung	-10.6029
▁kleinste	-10.6037
▁fehlende	-10.6044
▁kata	-10.6048
▁adolf	-10.6058
▁osmanische	-10.6058
▁1937	-10.606
register	-10.606
▁bewegt	-10.6061
▁gegenwart	-10.6067
gegenstände	-10.6067
▁festung	-10.607
▁aktivitäten	-10.6072
abschnitt	-10.6073
▁bush	-10.6075
▁fotografie	-10.6079
historische	-10.608
avi	-10.6086
gne	-10.6098
zykl	-10.6098
▁nr	-10.61
verzeichnis	-10.6103
▁konkurrenz	-10.6103
▁academy	-10.6103
▁angepasst	-10.6103
▁lynch	-10.6104
▁zwerg	-10.6104
▁akzeptiert	-10.6104
▁einflussreich	-10.6105
▁indischen	-10.6119
▁bip	-10.6119
▁beschloss	-10.6125
angebot	-10.6126
▁athen	-10.6134
zell	-10.6134
▁demokratische	-10.6135
▁wandte	-10.6135
▁äußeren	-10.6137
▁eigener	-10.6145
▁gewöhnlich	-10.6149
▁berücksichtigt	-10.6149
▁mecklenburg	-10.6149
▁wehrmacht	-10.6149
german	-10.615
▁1923	-10.6151
▁erdöl	-10.6152
▁fränkische	-10.6154
leb	-10.6154
transport	-10.6155
▁schreibweise	-10.6155
gründung	-10.6188
beruf	-10.619
▁pakistan	-10.6195
▁verbesserung	-10.6195
anbieter	-10.6196
▁aufweisen	-10.6201
▁kirch	-10.6202
▁rathaus	-10.6202
hara	-10.6204
bedarf	-10.6205
▁edel	-10.6206
▁tim	-10.6209
ville	-10.6211
▁angewandt	-10.6213
▁erlebte	-10.6217
▁hände	-10.6218
▁lesen	-10.6226
▁dank	-10.6228
eigenschaft	-10.6228
fotograf	-10.6236
▁scharf	-10.6242
▁1928	-10.6243
infektion	-10.6244
▁auseinander	-10.6245
vorgang	-10.6246
drei	-10.625
ausschuss	-10.6257
eiche	-10.626
sprachige	-10.6266
metrisch	-10.6267
ory	-10.6272
gesund	-10.6284
▁dinosaurier	-10.6287
▁kontrovers	-10.6287
▁spätantike	-10.6287
▁verfügen	-10.6287
▁nahrungsmittel	-10.6289
ifi	-10.6289
▁gauß	-10.629
schäden	-10.629
sekunden	-10.629
▁barock	-10.6291
rumpf	-10.6292
stellte	-10.6293
bearbeitung	-10.6297
▁beschreiben	-10.6302
▁nom	-10.631
platte	-10.6314
▁politischer	-10.632
▁müsse	-10.6332
bur	-10.6333
▁besiedelt	-10.6334
▁umbenannt	-10.6334
▁rudolf	-10.6334
admiral	-10.6334
▁freiwillig	-10.6334
▁betrachtung	-10.6334
stuhl	-10.6334
▁ansässig	-10.6335
▁juristische	-10.6341
▁peri	-10.6344
▁veranstaltungen	-10.6346
▁bisherigen	-10.6349
gestalt	-10.6352
automat	-10.6352
▁schützen	-10.6353
beziehung	-10.6361
ong	-10.6361
▁adam	-10.6362
preisträger	-10.6366
stärkste	-10.6376
beiträge	-10.638
ehrendoktor	-10.6381
▁unterstützen	-10.6381
gläubige	-10.6381
▁süß	-10.6381
▁wirklichkeit	-10.6381
▁verarbeitet	-10.6381
▁muskel	-10.6381
mönch	-10.6383
relation	-10.6392
hersteller	-10.6397
▁plural	-10.6427
▁brandenburg	-10.6428
arische	-10.6428
brüche	-10.6429
allergie	-10.643
▁camp	-10.643
▁auge	-10.6437
–17	-10.6437
hall	-10.6441
▁100.000	-10.6444
key	-10.6444
▁präsentiert	-10.6446
▁jener	-10.6447
finanz	-10.6448
mahl	-10.6452
▁gründe	-10.6455
big	-10.6457
▁erhard	-10.6464
7"	-10.6468
charakteristisch	-10.647
▁mädchen	-10.6475
gebirgs	-10.6475
▁college	-10.6475
brunnen	-10.6475
▁bedeutendste	-10.6475
umwandlung	-10.6475
▁zoll	-10.6475
▁oxidation	-10.6475
▁entsprechen	-10.6488
chip	-10.6497
▁schreibt	-10.6506
folgung	-10.6514
türme	-10.6521
orchester	-10.6522
▁jagd	-10.6522
▁gezielt	-10.6523
▁nikolaus	-10.6525
byte	-10.6529
sieg	-10.653
▁albrecht	-10.6532
▁wiener	-10.6541
fug	-10.6542
▁ben	-10.6544
wüste	-10.6547
philosophie	-10.6548
work	-10.655
▁begleitet	-10.6554
berechtigt	-10.6565
▁istanbul	-10.657
batterie	-10.6572
▁kooperation	-10.6572
▁stetig	-10.6574
ianische	-10.6574
verfassung	-10.6578
▁veränderung	-10.6581
türk	-10.6588
verordnung	-10.6589
instrument	-10.6592
▁nation	-10.6595
▁gnu	-10.6602
uff	-10.6606
▁jahrtausend	-10.6608
scheibe	-10.6609
▁australien	-10.6617
▁detail	-10.6618
▁vertrieben	-10.6619
▁bundesregierung	-10.6625
▁merkur	-10.6633
▁ortsteil	-10.6638
▁niederländische	-10.664
▁suchte	-10.6646
▁erstellt	-10.6647
▁überleben	-10.6658
▁angebaut	-10.6658
▁abgelehnt	-10.6666
▁empfang	-10.6666
verständlich	-10.6666
▁gaulle	-10.6666
zähne	-10.6666
▁umfassen	-10.6669
schmerz	-10.6672
▁aussprache	-10.6675
▁leo	-10.6687
▁begleit	-10.6688
zentral	-10.6689
▁adress	-10.6691
▁liberale	-10.6693
▁wh	-10.6698
ausstellung	-10.6709
▁mathematisch	-10.671
verträge	-10.6713
katastrophe	-10.6714
▁explizit	-10.6714
▁halbwertszeit	-10.6714
▁kilogramm	-10.6714
▁leeuwenhoek	-10.6714
▁debatte	-10.6714
▁vermehrt	-10.6715
▁gauck	-10.6716
▁arabische	-10.6719
schöpfung	-10.6722
frucht	-10.6741
wing	-10.6746
strecke	-10.6749
▁babylon	-10.6753
hauses	-10.676
algorithm	-10.6762
▁world	-10.6763
▁verbindet	-10.6763
▁1910	-10.6766
▁echte	-10.6771
fliegen	-10.6776
beispiel	-10.6777
▁brücken	-10.6783
logik	-10.6784
▁inhaltlich	-10.6791
bahnhof	-10.6798
ish	-10.6798
reinigung	-10.6809
▁archäologische	-10.6811
rhythm	-10.6812
▁botschaft	-10.6817
iro	-10.682
▁linke	-10.6836
▁angeordnet	-10.6838
französisch	-10.6841
qualität	-10.6844
▁zweiter	-10.6847
▁himmler	-10.686
▁jüngste	-10.686
▁interessiert	-10.686
▁größtenteils	-10.686
standort	-10.6863
kurz	-10.6866
gat	-10.6869
kant	-10.6874
▁bewirkt	-10.6874
mont	-10.6891
einrichtungen	-10.6894
▁foto	-10.6906
ziffer	-10.6906
▁makro	-10.6908
▁frühmittelalter	-10.6909
▁ermordet	-10.691
▁überlieferung	-10.691
▁kontrolliert	-10.6913
▁passiv	-10.6916
▁mä	-10.6917
stürz	-10.6917
▁versehen	-10.6918
basierte	-10.6919
fiction	-10.692
▁schriftlich	-10.6921
▁ökonomische	-10.693
▁bundesstaat	-10.6936
sprachlich	-10.6939
international	-10.694
theoretisch	-10.6944
signal	-10.6945
ielle	-10.6945
gard	-10.6957
▁christoph	-10.6959
▁jordan	-10.6959
▁algerien	-10.6959
tunnel	-10.6961
▁angesicht	-10.6966
▁landtag	-10.6977
sky	-10.698
▁realisiert	-10.6982
▁aufgeführt	-10.6984
▁wid	-10.6988
▁vorgeschlagen	-10.6988
volk	-10.6989
▁nordamerika	-10.6993
lux	-10.6995
klima	-10.7
tausend	-10.7001
▁10.000	-10.7002
▁ausgebildet	-10.7004
boden	-10.7006
sequenz	-10.7006
▁firmen	-10.7009
/20	-10.701
▁steigt	-10.7013
▁regiert	-10.7032
9"	-10.7035
▁drehte	-10.7036
hilf	-10.7045
übertragung	-10.7047
schaltung	-10.7053
▁stadtrat	-10.7055
gefügt	-10.7059
▁alliierten	-10.7059
kampagne	-10.7059
▁zustimmung	-10.7059
▁1921	-10.706
▁franzosen	-10.706
kruste	-10.7061
anzeige	-10.7073
▁schauspiel	-10.7074
hebung	-10.7076
lücke	-10.7094
verständnis	-10.7099
fehler	-10.71
▁maur	-10.7102
▁erwärmung	-10.7109
▁millimeter	-10.7109
▁jakob	-10.7109
▁verbrachte	-10.7109
▁sterbe	-10.7112
mündung	-10.7113
▁naturschutz	-10.7118
▁geographische	-10.7122
▁zahn	-10.7128
schnittstelle	-10.713
lé	-10.713
onne	-10.7132
▁sul	-10.7137
röhre	-10.7139
▁effektiv	-10.7143
▁rational	-10.7143
skala	-10.7145
mikroskop	-10.7147
▁absicht	-10.715
integr	-10.7158
konstruktion	-10.7158
▁olympische	-10.716
membran	-10.716
▁protestantische	-10.716
▁wahrgenommen	-10.7161
▁entsprach	-10.7166
▁prägte	-10.717
gründen	-10.7184
board	-10.7189
▁dreieck	-10.7199
▁pyr	-10.7206
beschäftigung	-10.721
▁erdbeben	-10.721
▁tulpen	-10.721
▁erinnert	-10.721
▁friedrichshafen	-10.721
▁dreharbeiten	-10.7212
▁brust	-10.7212
▁davis	-10.7214
▁hesse	-10.7216
▁ermittelt	-10.7218
▁freundschaft	-10.7219
▁"„	-10.7226
gäste	-10.7228
▁oberste	-10.7239
saal	-10.726
▁dürfte	-10.7261
vertretung	-10.7261
▁online	-10.7262
▁streitkräfte	-10.7262
▁interpretiert	-10.7263
▁afrikanischen	-10.7268
▁vorgehen	-10.7269
blei	-10.7273
wasserstoff	-10.7286
strafe	-10.7289
frequenz	-10.7309
brief	-10.731
▁universum	-10.7313
▁halbinsel	-10.7316
▁vergeben	-10.7317
▁menschheit	-10.7323
▁fri	-10.7328
semitisch	-10.7333
flüge	-10.7336
just	-10.7351
▁feder	-10.7355
ässig	-10.736
befehl	-10.7362
situation	-10.7363
▁ungewöhnlich	-10.7364
demonstration	-10.7364
▁bedroht	-10.7364
▁gespeichert	-10.7365
▁faktisch	-10.7365
▁studierte	-10.7365
quote	-10.7366
▁vermittelt	-10.7369
prägung	-10.7369
▁oberhalb	-10.7371
▁herausgegeben	-10.7371
geliefert	-10.7372
▁moment	-10.7375
▁darum	-10.7377
▁äußere	-10.7378
▁festgestellt	-10.7381
▁besetzung	-10.7381
gibt	-10.7385
vorlesung	-10.7386
anspruch	-10.7388
konsul	-10.7388
läuft	-10.7399
▁beginnend	-10.7405
▁kroatische	-10.7407
kopie	-10.7414
▁griechen	-10.7415
schließung	-10.7416
▁premierminister	-10.7416
▁wunsch	-10.7416
▁henry	-10.7417
lust	-10.7423
▁enthielt	-10.7424
schale	-10.7429
▁sende	-10.743
meteor	-10.7433
wirbel	-10.7437
▁chinesische	-10.7445
hag	-10.7445
gelenk	-10.7446
lehrer	-10.7456
geographi	-10.7464
▁empirisch	-10.7468
▁unklar	-10.7468
▁francis	-10.7468
wahrscheinlich	-10.7469
▁widerspruch	-10.7469
▁beziehen	-10.7471
▁erdgas	-10.7473
▁oftmals	-10.7474
linguist	-10.7474
▁studieren	-10.7481
busse	-10.7485
▁exil	-10.7487
höfe	-10.7491
▁seither	-10.7496
schrieb	-10.7516
▁beherrscht	-10.752
▁geändert	-10.752
▁250	-10.752
▁geblieben	-10.752
fragment	-10.7521
▁isoliert	-10.7521
400	-10.7521
heil	-10.7522
banknote	-10.7523
▁gebraucht	-10.7524
▁ablauf	-10.7528
▁stadtbezirk	-10.7535
8"	-10.7535
▁lieder	-10.7535
▁weltkrieges	-10.7547
operation	-10.7553
ographische	-10.7554
▁schauspielerin	-10.7559
revolutionäre	-10.7569
▁allmählich	-10.7573
▁riefenstahl	-10.7573
▁vermeiden	-10.7573
▁1922	-10.7575
▁kairo	-10.7575
fährt	-10.7581
▁aires	-10.7581
▁wähler	-10.7583
▁ausgeschlossen	-10.7586
kleidung	-10.7599
▁geistliche	-10.7599
mitte	-10.7607
▁abgelöst	-10.7609
gemälde	-10.7626
empfindlich	-10.7626
▁anpassung	-10.7626
stadion	-10.7627
▁rundfunk	-10.7632
▁konrad	-10.7635
▁anstieg	-10.7636
zyklus	-10.7637
dreh	-10.7638
gefallen	-10.7654
aufführung	-10.7658
▁unterzeichnet	-10.7663
uenos	-10.7676
▁marokko	-10.7679
▁bemüht	-10.7679
▁hieß	-10.7679
deckung	-10.7679
bismarck	-10.7679
▁bedient	-10.768
▁sprachgebrauch	-10.768
ergebnisse	-10.7682
republik	-10.7683
amerikanischer	-10.7683
▁zurückzuführen	-10.7684
genannt	-10.7687
▁seele	-10.7687
▁kreisfreie	-10.7688
mobil	-10.7691
▁reformation	-10.7693
play	-10.7694
denken	-10.7706
▁nachhaltig	-10.773
▁endlich	-10.7732
▁grafik	-10.7732
▁gemeint	-10.7732
▁insekten	-10.7733
▁high	-10.7735
▁1927	-10.7735
▁turing	-10.7737
▁lebensjahr	-10.7756
paket	-10.7757
grub	-10.7763
▁präsent	-10.7767
gerichtshof	-10.7769
plus	-10.7776
▁ausbreitung	-10.7786
▁stieß	-10.7786
▁tschech	-10.7786
▁fortan	-10.7788
schreiben	-10.7788
öffentlich	-10.7795
▁abkürzung	-10.7799
▁luther	-10.78
dom	-10.7802
glas	-10.781
bilanz	-10.7811
mangel	-10.7829
ehemals	-10.7829
elektrizität	-10.784
▁getroffen	-10.784
▁lincoln	-10.784
▁synonym	-10.784
▁hauptbahnhof	-10.7844
▁koch	-10.7844
▁enorm	-10.785
▁geologisch	-10.7857
▁gebet	-10.7857
darstellung	-10.7859
sterblich	-10.7859
fremd	-10.786
hop	-10.786
gelagert	-10.7863
astro	-10.7866
prov	-10.7869
▁rheinland	-10.7871
▁siedlungs	-10.7874
▁küche	-10.788
▁wil	-10.7885
verleih	-10.7888
lippe	-10.7888
trick	-10.789
▁bosnien	-10.7895
▁libyen	-10.7895
▁erwartet	-10.7895
▁heroin	-10.7895
▁erfasst	-10.7895
▁theodor	-10.7896
göttin	-10.7896
▁radioaktive	-10.7896
turnier	-10.7897
richtlinie	-10.7897
▁lebenden	-10.7907
▁kirchliche	-10.7913
▁briten	-10.7919
▁jack	-10.7922
demokratisch	-10.7925
ografisch	-10.7949
▁angesiedelt	-10.7949
▁konstantinopel	-10.7949
rezeptor	-10.7949
▁konsonanten	-10.7949
▁bloß	-10.7949
▁angola	-10.795
afrika	-10.7954
▁gö	-10.7957
▁merkmal	-10.7959
software	-10.7966
molekül	-10.7966
krebs	-10.7967
holt	-10.797
leid	-10.7973
▁kaiserreich	-10.7975
reichste	-10.798
▁gründer	-10.7984
▁vertrat	-10.8001
▁experimentell	-10.8001
▁dönitz	-10.8004
▁schopenhauer	-10.8004
▁linné	-10.8004
medaille	-10.8004
▁pierre	-10.8005
▁indigo	-10.8009
ash	-10.8024
▁finnische	-10.803
waffe	-10.8037
blut	-10.8042
hexa	-10.8045
bundesliga	-10.8053
▁habsburg	-10.806
▁mexiko	-10.806
▁zeppelin	-10.806
jiddisch	-10.806
▁sum	-10.806
▁gesichert	-10.806
▁henri	-10.806
senkung	-10.8062
▁arbeitgeber	-10.8063
▁unsere	-10.807
rekord	-10.8073
▁hotel	-10.8074
abilität	-10.8075
▁kämpfen	-10.8075
▁brut	-10.8085
kleid	-10.8091
komponist	-10.8108
verwitterung	-10.8115
▁absinth	-10.8115
▁helmut	-10.8118
–16	-10.8129
▁korea	-10.8133
kristall	-10.8135
▁nächste	-10.8139
feuer	-10.8139
▁markiert	-10.816
▁drehbuch	-10.8167
max	-10.8169
vorpommern	-10.8171
▁ferdinand	-10.8171
▁intelligenz	-10.8171
▁1913	-10.8173
zimmer	-10.8174
wolke	-10.8178
▁lief	-10.8179
▁schreib	-10.8186
▁einheimische	-10.8189
▁isar	-10.819
▁total	-10.819
gattung	-10.819
▁ernte	-10.8201
verleihung	-10.8203
hütte	-10.8209
▁gri	-10.8214
▁häufigsten	-10.8217
mutter	-10.822
hubschrauber	-10.8227
▁bangladesch	-10.8227
▁fantasy	-10.8227
▁hannover	-10.8227
▁interessant	-10.8227
▁venedig	-10.8227
▁school	-10.8227
▁geburtstag	-10.8227
▁perspektive	-10.8228
▁gerichtet	-10.8232
but	-10.8233
▁schnee	-10.8234
nahverkehr	-10.8234
▁eva	-10.8235
▁ostsee	-10.8239
▁grob	-10.8244
hell	-10.8247
▁kenia	-10.8249
_8	-10.8251
▁ev	-10.8259
▁dokumentiert	-10.8264
möglichkeit	-10.8265
▁bay	-10.8267
▁bedingung	-10.8272
▁werbe	-10.8272
▁überblick	-10.8273
darsteller	-10.8284
kompetenz	-10.8284
▁getötet	-10.8284
▁umgewandelt	-10.8284
▁untereinander	-10.8284
▁nominiert	-10.8284
▁türkei	-10.8284
steigerung	-10.8285
modus	-10.8291
wood	-10.8303
▁kennt	-10.8306
gängig	-10.8317
▁schmal	-10.8327
▁verletzt	-10.8334
hauptstadt	-10.8334
therapeut	-10.834
▁expansion	-10.834
▁säugetier	-10.834
arithmeti	-10.8341
▁bruno	-10.8341
▁touristen	-10.8344
▁keim	-10.835
▁reiste	-10.8355
studium	-10.8371
mechanik	-10.8371
▁bedeuten	-10.8373
monarchie	-10.8373
▁erhebung	-10.8381
gli	-10.8389
▁merk	-10.8392
verhalten	-10.8395
synchron	-10.8398
▁beherbergt	-10.8398
färbung	-10.8398
▁langfristig	-10.8398
▁verbleib	-10.8398
▁fließt	-10.84
▁1912	-10.84
dienstleistungen	-10.8401
▁popper	-10.8401
uit	-10.8408
▁sagen	-10.8413
▁fördert	-10.8421
▁cache	-10.844
▁ausführlich	-10.8455
▁ressourcen	-10.8455
▁ausgestattet	-10.8455
▁sekundär	-10.8455
privileg	-10.8455
▁geregelt	-10.8456
▁verbinden	-10.8456
▁wellenlänge	-10.8456
▁1931	-10.8458
▁auszeichnungen	-10.8458
▁staatsbürger	-10.8459
path	-10.8465
▁prinzipien	-10.8467
mask	-10.8468
▁ritter	-10.8469
▁zoo	-10.8472
roy	-10.8474
▁zusammengesetzt	-10.8485
säule	-10.849
▁langjährige	-10.8509
phosphat	-10.8513
inlandsprodukt	-10.8513
▁erinnerung	-10.8513
▁verheiratet	-10.8513
▁vielleicht	-10.8513
▁hawaii	-10.8513
▁zweitgrößte	-10.8513
▁integration	-10.8513
▁gegliedert	-10.8513
pseudo	-10.8513
geschoss	-10.8517
▁verweis	-10.852
▁straßenbahn	-10.8522
gärten	-10.8524
kernel	-10.8524
feldzug	-10.8525
▁krankenhaus	-10.8529
▁heilige	-10.8537
frankreich	-10.8548
▁kontinental	-10.8553
schätze	-10.8556
orientierung	-10.8567
▁geschieht	-10.8571
▁künftig	-10.8571
▁gefolgt	-10.8571
▁muslimische	-10.8571
▁sediment	-10.8571
▁gedacht	-10.8571
▁südosten	-10.8571
▁befindliche	-10.8572
▁distanz	-10.8573
▁bühnen	-10.8577
▁verfasst	-10.8578
▁kindheit	-10.8578
_10	-10.8583
profil	-10.8584
▁meint	-10.8609
franken	-10.861
börse	-10.8625
▁testament	-10.863
▁unesco	-10.863
▁astronomie	-10.863
hut	-10.8634
▁beruhen	-10.8635
▁fifa	-10.8637
opfer	-10.8637
▁sprachraum	-10.8641
▁chor	-10.8646
▁begründung	-10.8651
▁wü	-10.8654
schwarz	-10.8662
▁leib	-10.8663
▁verzichtet	-10.8667
▁startete	-10.8668
▁iran	-10.8668
studio	-10.867
bulgar	-10.8677
▁mach	-10.8679
▁aspekt	-10.8684
▁eventuell	-10.8688
▁gezwungen	-10.8688
▁peirce	-10.8688
stone	-10.8689
▁daniel	-10.8694
▁abgesehen	-10.8694
▁thron	-10.8695
▁gewerkschaften	-10.8699
mehl	-10.8713
wall	-10.8731
power	-10.8734
▁vorgenommen	-10.8735
gedächtnis	-10.8748
▁byzanz	-10.8748
▁dementsprechend	-10.8748
▁veranstaltet	-10.8748
▁caesium	-10.8748
▁befreiung	-10.8748
zugehörigkeit	-10.8748
galaxie	-10.8749
▁balkan	-10.875
▁architekten	-10.8751
▁fortsetzung	-10.8753
▁france	-10.8768
▁bergbau	-10.8769
▁kunden	-10.8771
zentrationslager	-10.8779
▁schall	-10.8789
anhalt	-10.8789
▁petr	-10.8793
▁kuba	-10.8804
▁gibraltar	-10.8807
▁saison	-10.8807
▁bringt	-10.8808
arzt	-10.8808
▁bundespräsident	-10.8808
▁stammende	-10.8823
morphem	-10.8834
forum	-10.8838
konzentration	-10.8845
▁michel	-10.8845
stunden	-10.8858
teilchen	-10.8862
mazedonisch	-10.8867
▁schmidt	-10.8867
▁alexandria	-10.8867
▁wahlrecht	-10.8868
▁golf	-10.8868
▁gerhard	-10.887
▁pilz	-10.8876
▁neubau	-10.8877
cord	-10.8882
▁zweimal	-10.8886
füge	-10.8887
▁ähnlichkeit	-10.8887
witt	-10.8908
▁textil	-10.8911
web	-10.8917
▁engagement	-10.8927
▁aufgeteilt	-10.8927
entwickler	-10.8927
▁justiz	-10.8927
sammler	-10.8927
analytische	-10.8927
nuklid	-10.8927
▁nordafrika	-10.8929
▁dominieren	-10.8929
▁extra	-10.8934
verbund	-10.8937
▁müsste	-10.8937
▁abwehr	-10.8942
▁mehrmals	-10.8943
gasse	-10.8947
blau	-10.8948
▁pest	-10.895
medien	-10.8983
makedonien	-10.8988
assembl	-10.8988
klassifikation	-10.8988
▁vereinzelt	-10.8988
▁anfänge	-10.8988
▁priester	-10.8988
▁diejenige	-10.8989
▁separat	-10.8989
innere	-10.8991
▁prinzipiell	-10.8991
▁zentralbank	-10.8991
▁werner	-10.8997
rechner	-10.8997
gestiegen	-10.9003
getriebe	-10.9019
▁song	-10.902
wärme	-10.9022
kabel	-10.9031
aise	-10.9034
ometer	-10.9036
book	-10.9039
beginn	-10.9042
komponente	-10.9044
▁finanziert	-10.9046
900	-10.9048
▁douglas	-10.9049
▁einschränkung	-10.9049
▁identifiziert	-10.9049
▁konstruiert	-10.9049
▁sklaven	-10.9049
▁passagier	-10.9049
▁formulierung	-10.9049
▁axiome	-10.905
baryon	-10.9052
▁erfüllen	-10.9052
galerie	-10.9065
geschnitten	-10.9072
cop	-10.9083
drüse	-10.9093
show	-10.9093
miet	-10.9095
forscher	-10.9105
kamera	-10.9108
▁gefährlich	-10.911
▁jugoslawien	-10.911
trächtig	-10.911
▁schwimm	-10.911
▁örtlich	-10.911
▁angewendet	-10.911
▁erfordert	-10.911
▁nerven	-10.9111
▁künste	-10.9111
▁betreiben	-10.9126
pulver	-10.9128
zugeben	-10.9129
▁theologie	-10.9129
stark	-10.9135
▁bewertung	-10.9148
wirkt	-10.9151
fini	-10.917
volt	-10.9171
▁greenpeace	-10.9172
▁reagieren	-10.9172
▁dunkel	-10.9172
▁gedreht	-10.9172
methyl	-10.9172
normalerweise	-10.918
▁fichte	-10.9183
▁türkische	-10.9187
▁eiben	-10.919
▁basierend	-10.9196
ophon	-10.9202
christliche	-10.9209
▁flüchtlinge	-10.9211
wirtschaftliche	-10.9218
glied	-10.922
religion	-10.9225
lav	-10.923
kommunikation	-10.9233
mechanismus	-10.9234
▁esperanto	-10.9234
▁verstorben	-10.9234
wächst	-10.9234
▁verringert	-10.9234
▁vorbereitung	-10.9234
▁feiertag	-10.9235
▁1907	-10.9235
▁veranlass	-10.9235
▁verlangt	-10.9241
▁kreta	-10.9244
radius	-10.9245
minute	-10.9251
▁hinweg	-10.9252
▁litt	-10.9255
▁ethnische	-10.9262
▁dateisystem	-10.9273
▁ausgedehnt	-10.9296
▁versteht	-10.9296
▁josef	-10.9296
akademie	-10.9297
tradition	-10.9298
▁1917	-10.9298
▁südamerika	-10.9301
▁pferde	-10.9304
▁unternahm	-10.9309
▁bundesländer	-10.9311
zutage	-10.9313
2.000	-10.9318
adler	-10.9327
▁1848	-10.9334
▁giftig	-10.9347
erkennung	-10.9349
▁fasst	-10.935
▁gegenwärtig	-10.9359
▁kollektiv	-10.9359
▁strategisch	-10.9359
▁wittgenstein	-10.9359
▁beinhaltet	-10.9359
jäger	-10.936
▁münster	-10.936
fächer	-10.936
▁curie	-10.936
▁1911	-10.9362
bildende	-10.9368
▁jolie	-10.937
▁maxim	-10.938
▁amtssprache	-10.9389
mara	-10.9391
werfen	-10.9394
betreiber	-10.9404
inisterpräsident	-10.9414
time	-10.9418
gürtel	-10.9423
▁heidelberg	-10.9423
▁leopold	-10.9423
▁widmete	-10.9423
▁1908	-10.9424
früh	-10.9426
tänze	-10.9427
mantel	-10.9428
▁ziffern	-10.9428
höchst	-10.943
▁castro	-10.9434
▁dialog	-10.944
losigkeit	-10.9443
verlag	-10.9453
basis	-10.9479
300	-10.9481
chirurg	-10.9482
varietät	-10.9486
▁substantiv	-10.9486
▁zukünftig	-10.9486
distribution	-10.9486
▁verknüpft	-10.9487
▁fahrrad	-10.9489
▁binär	-10.9492
drehbuchautor	-10.9496
apparat	-10.9498
polis	-10.951
▁reellen	-10.9518
affäre	-10.9524
jährig	-10.9525
teilige	-10.9539
bekämpfung	-10.955
mitochondri	-10.955
▁ausdrücklich	-10.955
▁edinburgh	-10.955
▁referenz	-10.955
▁relevant	-10.955
körner	-10.955
▁vertraut	-10.9551
▁optimal	-10.9551
▁mündet	-10.9551
schneiden	-10.9551
gräber	-10.9551
ibel	-10.9554
▁2,5	-10.9556
▁stärksten	-10.9557
▁bundesbank	-10.9559
ohne	-10.9575
spanisch	-10.958
werbung	-10.9594
gelände	-10.9607
pionier	-10.9607
▁adjektiv	-10.9615
▁bedeutsam	-10.9615
▁betreibt	-10.9615
kündigung	-10.9616
▁sinnvoll	-10.9619
inhaber	-10.962
skript	-10.9621
▁vollkommen	-10.9624
▁unterstellt	-10.9624
▁computerspiel	-10.9624
österreich	-10.9625
vertreter	-10.9626
erklärung	-10.9626
zwischen	-10.9632
▁worau	-10.9671
▁entworfen	-10.968
▁verdrängt	-10.968
▁erhöhen	-10.9681
▁putsch	-10.9684
überwachung	-10.9684
▁autorität	-10.9689
▁göttliche	-10.9689
unterschied	-10.9692
dokument	-10.9693
beispielsweise	-10.9694
wuchs	-10.9695
tribut	-10.9699
▁dokumentation	-10.9708
▁böse	-10.9709
▁1890	-10.9716
▁thälmann	-10.9745
▁reihenfolge	-10.9745
hydroxid	-10.9745
++	-10.9747
statue	-10.9752
plasma	-10.9762
lyse	-10.9767
▁spezialisiert	-10.9781
▁trifft	-10.9811
schmied	-10.9813
▁rief	-10.9818
▁komponisten	-10.982
meist	-10.9823
kalender	-10.9831
▁materielle	-10.9862
▁schließt	-10.9864
schädigung	-10.9877
▁akademische	-10.9877
▁gescheitert	-10.9877
▁circa	-10.9877
▁verantwortung	-10.9877
modifikation	-10.9877
▁ablehnung	-10.9877
▁verknüpfung	-10.9878
▁1905	-10.9879
agentur	-10.9879
▁vieh	-10.9879
streik	-10.9881
ensemble	-10.9881
▁mächtige	-10.9885
▁datiert	-10.9886
▁angeles	-10.9892
▁sozialdemokrat	-10.9894
▁vorkommende	-10.9896
codice	-10.9898
▁helden	-10.9907
▁strahlen	-10.9911
besuch	-10.9919
▁glaube	-10.9924
olith	-10.9935
gouverneur	-10.9944
▁budapest	-10.9944
▁interview	-10.9944
▁vorherrschend	-10.9944
▁logarithmus	-10.9944
▁problematisch	-10.9944
▁kanadische	-10.9944
▁1909	-10.9945
▁ehefrau	-10.9945
▁volksrepublik	-10.9946
▁verhandlungen	-10.9946
▁niemals	-10.9946
elektronik	-10.9948
experiment	-10.9959
itätstheorie	-10.9959
laufende	-10.9981
braun	-10.9988
malige	-10.9989
treiben	-11.0007
▁beschleunigt	-11.0011
▁kündigte	-11.0011
▁chemiker	-11.0011
▁smith	-11.0011
▁dynamische	-11.0013
▁begünstigt	-11.0013
▁vollzog	-11.0015
▁angewiesen	-11.0015
▁überzeugt	-11.0015
geltung	-11.0019
▁indische	-11.0019
▁argon	-11.0021
–15	-11.0028
ehrenbürger	-11.0035
essiv	-11.0036
▁teilgebiet	-11.0055
▁sonnensystem	-11.0065
filmregisseur	-11.0079
▁molekular	-11.0079
▁erworben	-11.0079
▁gesammelt	-11.0079
▁registriert	-11.0079
▁satelliten	-11.0079
explosion	-11.0079
carbonat	-11.0079
▁überlegungen	-11.008
kennzeichen	-11.0081
▁1915	-11.0081
▁feuerwehr	-11.0081
▁börsen	-11.0084
▁arbeitnehmer	-11.0085
roth	-11.0092
▁fundamental	-11.0103
koalition	-11.0106
risiko	-11.0106
status	-11.0111
harmonie	-11.0113
kanäle	-11.0121
jurist	-11.0131
modem	-11.0141
▁jeweilige	-11.0141
skulptur	-11.0147
▁british	-11.0147
▁synagoge	-11.0147
▁arthur	-11.0147
▁aufweist	-11.0147
▁definieren	-11.0147
▁abweichend	-11.0147
kalkül	-11.0147
▁installiert	-11.0148
▁aufschwung	-11.0148
▁granit	-11.015
▁pilot	-11.015
filter	-11.015
▁blind	-11.0153
▁einkaufs	-11.0155
quark	-11.0168
▁kandidaten	-11.0168
▁verzicht	-11.0171
künstler	-11.0175
▁slawische	-11.0177
▁realität	-11.0181
spät	-11.0182
▁reife	-11.0185
chinesisch	-11.0189
griechisch	-11.0194
ritual	-11.0201
student	-11.021
quadratkilometer	-11.0215
weiterentwickelt	-11.0215
▁herzegowina	-11.0215
▁individuen	-11.0215
stick	-11.0217
▁nunmehr	-11.0218
▁stalin	-11.0224
▁weser	-11.0225
geburt	-11.0242
▁entscheiden	-11.0249
variable	-11.026
meyer	-11.0264
landeshauptstadt	-11.0265
head	-11.0267
▁handschrift	-11.0268
kommentar	-11.0273
böhm	-11.0278
gedanke	-11.028
töne	-11.0284
▁beobachter	-11.0284
▁eingeweiht	-11.0284
▁verabschiedet	-11.0284
verschiebung	-11.0284
▁vorübergehend	-11.0284
▁ungleich	-11.0294
▁theologische	-11.0297
▁finanzierung	-11.0297
▁bohnen	-11.0299
▁ewig	-11.0312
▁legende	-11.0315
parlament	-11.0319
hydro	-11.0323
gewinn	-11.0325
▁erfolglos	-11.0343
analysis	-11.0354
ergänzung	-11.0354
▁dezimal	-11.0354
▁landtagswahl	-11.0354
▁begründer	-11.0354
▁illegal	-11.0354
▁drogen	-11.0354
▁komponenten	-11.0359
gangssprachlich	-11.0359
▁julianische	-11.0359
brecher	-11.0365
▁kpd	-11.0365
▁attac	-11.0392
holstein	-11.0414
sehenswürdigkeit	-11.0423
▁abenteuer	-11.0423
▁moskau	-11.0423
▁offensichtlich	-11.0423
▁weibchen	-11.0423
▁stattfand	-11.0423
nominierung	-11.0424
▁aktual	-11.0424
▁überzeugung	-11.0425
▁mittelmeerraum	-11.0427
▁emil	-11.0432
prop	-11.044
▁liefern	-11.0442
nähe	-11.0443
▁körperliche	-11.0445
lagerstätte	-11.0455
parteitag	-11.0457
dänisch	-11.0463
▁kostenlos	-11.0473
franc	-11.0493
angelegenheiten	-11.0494
▁karthago	-11.0494
▁marseille	-11.0494
▁edward	-11.0494
klassiker	-11.0494
▁hoffnung	-11.0494
▁ermordung	-11.0494
vektor	-11.0494
britanni	-11.0494
▁rechnen	-11.0494
▁christus	-11.0495
semester	-11.0495
▁zugehörige	-11.0496
▁herzogtum	-11.05
▁gallium	-11.0503
▁fruchtbar	-11.0511
schreck	-11.0511
▁wahlkreis	-11.0513
armee	-11.0523
▁maßeinheit	-11.0533
▁atem	-11.054
▁volkswirtschaft	-11.0542
bräu	-11.0545
▁komplexität	-11.0548
kürzung	-11.0548
smöglichkeiten	-11.0559
ifikation	-11.0564
intellektuelle	-11.0565
▁außerordentlich	-11.0565
▁bedrohung	-11.0565
▁gilgamesch	-11.0565
▁organismen	-11.0565
▁sexuell	-11.0565
▁verbessern	-11.0565
▁company	-11.0565
▁auschwitz	-11.0565
partnerschaften	-11.0565
▁maltesisch	-11.0565
▁chance	-11.0566
▁ungarische	-11.0568
▁rostock	-11.0568
▁akku	-11.0573
gregorianisch	-11.0573
▁genug	-11.0577
▁variablen	-11.0589
▁sektion	-11.0591
ugh	-11.0607
wilhelm	-11.061
medium	-11.061
laufwerk	-11.0621
▁basic	-11.063
ascorbinsäure	-11.0636
föderation	-11.0636
▁havanna	-11.0636
▁kuwait	-11.0636
▁kombiniert	-11.0636
kopplung	-11.0636
▁überregional	-11.0637
▁errichten	-11.0637
▁konzil	-11.0637
▁vegetation	-11.0638
kodierung	-11.0638
draht	-11.064
▁division	-11.0641
chirurgie	-11.0642
▁palm	-11.0642
▁leistungsfähig	-11.0643
▁saint	-11.065
▁materialien	-11.0653
mineral	-11.0655
staatliche	-11.0673
wissen	-11.0681
kapital	-11.0684
▁beauftragt	-11.069
beschleunigung	-11.0708
beschränkung	-11.0708
▁baseball	-11.0708
kompression	-11.0708
▁engagiert	-11.0708
orbital	-11.0709
▁ultra	-11.071
▁begab	-11.0712
▁komposition	-11.0713
▁indium	-11.0715
▁schätzungen	-11.0726
gebot	-11.0733
katalog	-11.0745
definition	-11.0758
emissionen	-11.0761
▁vorliegen	-11.0765
dustrialisierung	-11.0781
entzündung	-11.0781
▁betrifft	-11.0781
▁gefährdet	-11.0781
▁porträt	-11.0781
▁emotion	-11.0781
▁tempelhof	-11.0781
▁1906	-11.0782
▁kaufleute	-11.0782
▁erwarten	-11.0787
vergiftung	-11.0787
neigung	-11.0788
▁gewährt	-11.079
▁staatspräsident	-11.0795
gesteuert	-11.0798
religiös	-11.0798
nächst	-11.0799
▁noir	-11.08
▁hafer	-11.0802
▁sprachliche	-11.0804
gezeichnet	-11.0816
bayern	-11.0834
▁blas	-11.0835
futter	-11.0836
protein	-11.0837
kurve	-11.0837
ergebnis	-11.084
▁gregor	-11.0845
▁algebraische	-11.0854
▁dreißigjährige	-11.0854
▁empfänger	-11.0854
▁schicksal	-11.0854
▁territorial	-11.0854
▁ähnelt	-11.0854
▁zueinander	-11.0854
▁enigma	-11.0854
▁thermo	-11.0856
▁anzutreffen	-11.0856
▁geteilt	-11.0856
▁kommunalwahl	-11.0856
▁chromosomen	-11.0857
▁ausgangspunkt	-11.0857
▁judentum	-11.0864
wände	-11.0883
oxi	-11.0897
gegründet	-11.0904
▁geschlechts	-11.0918
territorien	-11.0927
toleranz	-11.0927
▁association	-11.0927
▁befürwort	-11.0927
▁folglich	-11.0927
▁joyce	-11.0927
▁mettmann	-11.0927
▁lully	-11.0927
symmetrisch	-11.0927
▁periodensystem	-11.0927
▁serbien	-11.0927
▁verlief	-11.0928
source	-11.0928
▁altgriechisch	-11.0929
▁zink	-11.093
▁löslich	-11.0932
▁gottfried	-11.0935
▁metro	-11.0952
▁akut	-11.0956
container	-11.0986
feucht	-11.0987
▁spätmittelalter	-11.1001
brauerei	-11.1001
▁prominente	-11.1001
▁wiederaufbau	-11.1001
▁pascal	-11.1001
▁geschickt	-11.1001
▁variiert	-11.1001
▁spiral	-11.1001
▁automobil	-11.1002
▁gödel	-11.1003
▁verehrt	-11.1004
▁herausgeber	-11.1005
prophet	-11.1005
▁außenminister	-11.1007
▁sozio	-11.1032
siegel	-11.1053
▁objektiv	-11.1056
▁übrig	-11.1061
kapelle	-11.107
schlacht	-11.107
häftling	-11.1076
spektral	-11.1076
▁bewaffnete	-11.1076
▁elfenbeinküste	-11.1076
▁trinkwasser	-11.1076
▁tucholsky	-11.1076
▁glucose	-11.1076
management	-11.1076
▁verglichen	-11.1076
▁vereinbart	-11.1077
intervall	-11.1077
▁jacob	-11.1077
▁scheinbar	-11.1078
▁vorbehalt	-11.1078
▁erlitt	-11.108
hydrat	-11.1082
1.000	-11.1082
▁wertvoll	-11.1086
▁lösch	-11.1088
gerüst	-11.1094
festigkeit	-11.1103
metrie	-11.1104
proben	-11.1119
schreiber	-11.113
▁aero	-11.1132
▁taucht	-11.1135
rausch	-11.1138
gefunden	-11.1146
▁beeinflussen	-11.1151
▁etymologie	-11.1151
▁proportional	-11.1151
▁gefordert	-11.1151
kaserne	-11.1151
▁insulin	-11.1151
violett	-11.1151
▁schlaf	-11.1153
▁1916	-11.1154
▁erlangen	-11.1159
▁oliv	-11.1166
▁handwerks	-11.1168
▁tetra	-11.12
völker	-11.1218
▁elisabeth	-11.1227
▁gestartet	-11.1227
▁katholiken	-11.1227
▁kopenhagen	-11.1227
▁quecksilber	-11.1227
zeichner	-11.1227
▁lebzeiten	-11.1227
▁coffein	-11.1227
▁zedler	-11.1227
▁wagner	-11.1227
▁wohlhabend	-11.1227
▁fokus	-11.1227
▁belgische	-11.1227
▁versorgt	-11.1227
▁gefeiert	-11.1227
▁bernhard	-11.1228
▁ändern	-11.1228
hochschullehrer	-11.123
▁aufmerksamkeit	-11.123
premier	-11.123
▁anforderungen	-11.1231
▁sorgen	-11.1233
meldung	-11.1235
▁protonen	-11.1235
▁fungiert	-11.1236
▁deswegen	-11.1242
▁ohr	-11.1249
▁geschäfte	-11.1252
sensor	-11.1253
▁wählen	-11.1293
fränkisch	-11.1295
▁celsius	-11.1303
▁bedeckt	-11.1303
▁caligula	-11.1303
▁kohlenhydrate	-11.1303
▁domitian	-11.1303
▁eduard	-11.1303
▁abstimmung	-11.1303
gebühr	-11.1303
▁serbische	-11.1305
treibung	-11.1306
▁gross	-11.1306
▁konsequenz	-11.1307
imperium	-11.1308
▁flora	-11.1308
▁gelungen	-11.1308
▁riesige	-11.1309
ursache	-11.1363
oideae	-11.1365
würde	-11.1376
polizei	-11.1376
▁verkünd	-11.1379
genehmigung	-11.138
▁inspiriert	-11.138
▁manuskript	-11.138
▁maximilian	-11.138
▁vergrößert	-11.138
▁einwanderer	-11.138
▁ludwigshafen	-11.138
budget	-11.138
▁geometrische	-11.1381
▁glaubte	-11.1381
▁vollendet	-11.1381
erlebnis	-11.1381
▁kampfstoff	-11.1382
▁investitionen	-11.1387
▁böhmen	-11.1388
räumt	-11.1391
▁force	-11.1393
▁paläo	-11.1422
merkmale	-11.1457
▁brasilien	-11.1458
▁hebräisch	-11.1458
▁washington	-11.1458
▁zwanzig	-11.1458
▁jenseits	-11.1458
westfälische	-11.1458
▁eingeteilt	-11.1458
▁verschoben	-11.1458
hybrid	-11.1458
▁erwarb	-11.1458
sulfid	-11.1458
▁gamma	-11.1458
▁1904	-11.1459
▁edelgas	-11.1459
väter	-11.146
ohlenstoffdioxid	-11.146
▁volkszählung	-11.146
▁bewertet	-11.146
▁hauptdarsteller	-11.1462
▁angehört	-11.1463
▁champ	-11.1475
schuh	-11.1481
generation	-11.1494
bremse	-11.151
fähre	-11.1514
schiebe	-11.1523
▁steve	-11.1525
investition	-11.1528
▁nachricht	-11.1533
olympia	-11.1536
▁humboldt	-11.1536
▁guevara	-11.1536
▁mythologie	-11.1536
▁stauffenberg	-11.1536
▁1903	-11.1536
▁verändern	-11.1536
▁brustkrebs	-11.1536
stadium	-11.1537
betriebssystem	-11.1538
schlepp	-11.1538
▁erschlossen	-11.1539
▁restliche	-11.1543
äum	-11.1543
bahnhöfe	-11.1554
siedler	-11.156
diagramm	-11.1566
4.000	-11.1593
▁schenk	-11.1599
1,6	-11.1612
äquivalent	-11.1614
▁département	-11.1614
▁mönchengladbach	-11.1614
▁potentiell	-11.1614
induktivität	-11.1614
▁korruption	-11.1614
▁kurzzeitig	-11.1615
▁abstrakte	-11.1615
▁erfunden	-11.1618
volumen	-11.1618
▁gängige	-11.1648
kiefer	-11.1687
positiv	-11.1692
implementierung	-11.1694
▁beschädigt	-11.1694
▁joachim	-11.1694
▁bologna	-11.1694
▁weihnachts	-11.1694
▁spontan	-11.1694
▁geschmack	-11.1694
▁erinnern	-11.1694
▁indogermanische	-11.1694
▁klavier	-11.1694
diagnose	-11.1694
▁besagt	-11.1694
▁finnland	-11.1694
gläser	-11.1694
▁entlassen	-11.1695
▁zugewiesen	-11.1698
zweifel	-11.17
regiment	-11.17
schutzgebiet	-11.1704
schärfe	-11.1719
▁diplomatische	-11.1722
3.000	-11.1726
logarithm	-11.1774
▁mohammed	-11.1774
▁myanmar	-11.1774
▁nachkriegszeit	-11.1774
▁töchter	-11.1774
▁kürzer	-11.1774
▁gehabt	-11.1774
▁thermische	-11.1774
▁gehandelt	-11.1775
▁traven	-11.178
▁erreichbar	-11.1781
▁neander	-11.1783
▁kommune	-11.1783
august	-11.1783
schweiz	-11.1784
lässt	-11.1784
großkreuz	-11.1821
transfer	-11.1832
schränkt	-11.1837
▁dieselbe	-11.1852
adrenalin	-11.1854
▁church	-11.1854
▁kästner	-11.1854
▁popularität	-11.1854
zylinder	-11.1854
▁anfänglich	-11.1854
synthetisch	-11.1854
defizit	-11.1855
▁herzinfarkt	-11.1855
▁1902	-11.1856
▁aachen	-11.1857
▁frankenreich	-11.1861
▁freud	-11.1862
konsum	-11.1864
falk	-11.1866
kredit	-11.1869
▁wüsten	-11.1871
▁immunsystem	-11.1874
▁produzieren	-11.1875
▁erteilt	-11.1876
ridge	-11.1884
▁1,2	-11.1908
▁bewies	-11.1925
▁aufeinander	-11.1935
▁konsequent	-11.1936
▁resultat	-11.1936
▁vakuum	-11.1936
erwähnung	-11.1936
▁html	-11.1936
▁anwesenheit	-11.1936
▁doktor	-11.1936
▁group	-11.1936
▁homburg	-11.1936
▁angeregt	-11.1936
▁syrien	-11.1936
▁ordnungszahl	-11.1936
kombinat	-11.1945
bestimmt	-11.195
beauftragte	-11.1956
▁parlamentarisch	-11.1965
▁übte	-11.1977
alexandr	-11.2018
▁empfohlen	-11.2018
▁senkrecht	-11.2018
lexikon	-11.2018
▁möchte	-11.2018
▁gelegenheit	-11.2018
▁pharma	-11.2018
▁anthropologie	-11.2018
suffix	-11.2018
▁journalisten	-11.2018
▁byron	-11.2018
segment	-11.2018
▁ökologische	-11.2019
▁1901	-11.202
▁atomkern	-11.2023
▁riesen	-11.2027
provinz	-11.2034
stopp	-11.2039
freundlich	-11.2048
gefangen	-11.2051
video	-11.2079
dynami	-11.2084
▁lymph	-11.2099
denkmäler	-11.21
▁beheimatet	-11.21
▁brüssel	-11.21
▁exekutiv	-11.21
▁shyamalan	-11.21
▁unverändert	-11.21
eigentümer	-11.21
▁browser	-11.21
▁lübeck	-11.21
▁fauna	-11.2101
▁tageszeitung	-11.2101
▁beachtet	-11.2101
▁elektrolyse	-11.2102
geschaltet	-11.2102
▁beansprucht	-11.2102
reflex	-11.2102
▁schaden	-11.2105
vereinbarung	-11.2105
filiale	-11.2106
phyll	-11.2113
bewusst	-11.2121
▁physische	-11.2122
▁halogen	-11.2178
makedonische	-11.2184
wörtlich	-11.2184
▁buddha	-11.2184
▁gewidmet	-11.2184
▁männchen	-11.2184
▁päpstliche	-11.2184
▁schwanger	-11.2184
▁befestigt	-11.2184
▁ikrk	-11.2184
▁verwaltet	-11.2184
▁hameln	-11.2184
▁böden	-11.2184
skandal	-11.2185
▁bewohnt	-11.2187
▁hervorgegangen	-11.2188
▁betragen	-11.2189
konflikt	-11.2202
bewusstsein	-11.2207
direct	-11.2214
flüchtling	-11.2215
▁eiffel	-11.2267
▁beträchtlich	-11.2268
▁sexual	-11.2268
▁berechnen	-11.2268
▁margaret	-11.2268
▁leistete	-11.2268
▁vernichtet	-11.2268
▁ihrerseits	-11.2268
▁karlsruhe	-11.2268
▁deutet	-11.2268
▁liebig	-11.227
hydroxy	-11.227
▁euklidische	-11.2279
▁0,1	-11.2286
hundert	-11.2286
förder	-11.2286
charakter	-11.2292
männer	-11.2294
general	-11.2306
▁dresdner	-11.2352
▁jerusalem	-11.2352
▁attentat	-11.2352
symmetrie	-11.2353
▁veraltet	-11.2353
▁linsen	-11.2355
prince	-11.2357
▁kardio	-11.2366
negativ	-11.2373
chlor	-11.2392
▁monarch	-11.2394
▁kubanische	-11.2396
▁tropische	-11.2415
effizienz	-11.2438
mechanismen	-11.2438
▁taliban	-11.2438
▁vornehmlich	-11.2438
▁braunschweig	-11.2438
▁erforscht	-11.2438
▁almaty	-11.2438
▁europium	-11.2438
hygiene	-11.2438
▁atheismus	-11.2438
▁major	-11.2438
▁vereinfacht	-11.2438
▁befördert	-11.2438
chromat	-11.244
▁geschah	-11.2442
verehrung	-11.2443
gieß	-11.2446
▁siedelte	-11.2452
▁glatt	-11.2454
guss	-11.2466
untersuchung	-11.2469
▁annähernd	-11.2524
▁bemerkenswert	-11.2524
▁bemühungen	-11.2524
▁caracalla	-11.2524
▁eingestuft	-11.2524
▁äußerung	-11.2524
kräuter	-11.2524
▁verlängert	-11.2524
▁embryo	-11.2524
▁verallgemeiner	-11.2524
▁street	-11.2524
▁dienstleistungs	-11.2524
▁genua	-11.2524
▁leonberg	-11.2525
▁autismus	-11.2525
▁erfinder	-11.2526
telhochdeutsch	-11.2526
▁solange	-11.2526
▁zitiert	-11.2527
▁republikanische	-11.2528
▁angst	-11.2556
erweiterung	-11.2559
isländisch	-11.2564
▁benediktiner	-11.2611
▁fructose	-11.2611
▁nordmazedonien	-11.2611
▁himmelskörper	-11.2611
▁regensburg	-11.2611
assistent	-11.2611
verschuldung	-11.2612
▁externe	-11.2612
zauber	-11.2613
origin	-11.2613
▁erzielen	-11.2614
▁berater	-11.2615
blöcke	-11.2616
▁sachverhalt	-11.2616
▁fließend	-11.2616
▁konsens	-11.2617
selbst	-11.2626
offiziell	-11.2648
▁südafrika	-11.2648
euklid	-11.2687
gelehrte	-11.2691
▁aufmerksam	-11.2695
▁argentinische	-11.2699
▁begegnung	-11.2699
▁europäer	-11.2699
▁gambia	-11.2699
▁geklärt	-11.2699
▁itzehoe	-11.2699
▁nordöstlich	-11.2699
▁qualitativ	-11.2699
▁repräsentiert	-11.2699
▁vermeintlich	-11.2699
▁verweigert	-11.2699
▁zuverlässig	-11.2699
resonanz	-11.2699
▁aufwendig	-11.2699
▁visuell	-11.2699
schwingung	-11.2703
▁hessische	-11.2703
mittler	-11.2721
passage	-11.2725
kompatible	-11.2787
kriterium	-11.2787
theoretiker	-11.2787
▁angestrebt	-11.2787
▁differential	-11.2787
▁gewünschte	-11.2787
syndrom	-11.2787
thriller	-11.2787
▁aufwändig	-11.2787
▁fourier	-11.2787
aggregat	-11.2787
▁zeitweilig	-11.2787
konfiguration	-11.2788
▁curium	-11.2788
▁fernsehserie	-11.279
soziologie	-11.2803
tugend	-11.2804
schüsse	-11.2834
schlange	-11.2858
▁augsburg	-11.2877
▁benötigen	-11.2877
▁bosporus	-11.2877
▁fibonacci	-11.2877
▁karolinger	-11.2877
▁lebenserwartung	-11.2877
▁quantitativ	-11.2877
▁benutzen	-11.2877
▁cambridge	-11.2877
▁jürgen	-11.2877
▁verzehr	-11.2877
bewerber	-11.2877
▁attribut	-11.2878
▁verhaftet	-11.2878
▁araber	-11.2878
▁erkrankte	-11.2886
allergene	-11.2897
▁dampfmaschine	-11.2898
wäg	-11.2903
atlas	-11.2921
▁schleif	-11.2935
fossilien	-11.2939
gruppierung	-11.2967
▁individuum	-11.2967
▁kompliziert	-11.2967
▁pseudonym	-11.2967
▁virtuelle	-11.2967
controller	-11.2967
▁nährstoff	-11.2967
▁zusammenhängend	-11.2967
▁besatzungszone	-11.2967
▁skelett	-11.2967
▁detailliert	-11.2967
▁samuel	-11.2967
▁vergessen	-11.2967
schränke	-11.2967
▁anlehnung	-11.2967
▁schiller	-11.2968
▁beratung	-11.2969
▁verleger	-11.2969
▁beachten	-11.297
▁initiiert	-11.2973
▁wolle	-11.3005
ämie	-11.3014
▁mangelnde	-11.3016
angaben	-11.3023
fledermaus	-11.3058
▁angreifer	-11.3058
▁babbage	-11.3058
▁diktator	-11.3058
▁eingemeindung	-11.3058
▁portugal	-11.3058
▁protagonist	-11.3058
▁wässrige	-11.3058
fälschung	-11.3058
▁reduzieren	-11.3058
umsetzer	-11.3058
stöße	-11.3058
▁kinetische	-11.3059
▁gefertigt	-11.3059
▁gefüllt	-11.3059
▁nolde	-11.3059
infarkt	-11.306
▁gewürz	-11.3061
wirtschaftskrise	-11.3064
petit	-11.3068
▁außenpolitisch	-11.3102
frankfurt	-11.3108
bündnis	-11.3112
7.000	-11.3124
▁pazifik	-11.3149
▁bremerhaven	-11.3149
▁empfunden	-11.3149
▁erzbischof	-11.3149
konkurrent	-11.3149
sprünge	-11.3149
▁freudenstadt	-11.3149
▁variation	-11.3149
▁benennung	-11.3149
▁vorbereitet	-11.315
triumph	-11.315
▁bearbeitet	-11.315
faust	-11.315
▁lord	-11.3151
▁vermitteln	-11.3153
plastik	-11.3154
fassungsgericht	-11.3159
▁elektrisch	-11.3197
gewandt	-11.3206
sommer	-11.3209
▁http	-11.3222
arterie	-11.3238
spirit	-11.3239
geschenk	-11.3239
▁cadmium	-11.3242
▁gefärbt	-11.3242
▁repräsentant	-11.3242
▁stellvertretend	-11.3242
▁abraham	-11.3242
▁untersuchen	-11.3242
▁postuliert	-11.3242
▁dinkel	-11.3243
flamme	-11.3249
▁bahnstrecke	-11.3263
pause	-11.3303
▁mobilfunk	-11.3306
moderne	-11.3306
▁kopier	-11.333
restaurant	-11.3335
▁geöffnet	-11.3335
▁molybdän	-11.3335
▁norwegen	-11.3335
▁unzureichend	-11.3335
akkumulator	-11.3335
kommandant	-11.3335
▁vermieden	-11.3335
▁überraschend	-11.3335
▁abweichungen	-11.3335
▁geschwister	-11.3335
▁garantiert	-11.3336
▁göttinger	-11.3336
▁minimal	-11.3336
▁kälte	-11.3337
interesse	-11.3363
erträge	-11.3398
arbeitslosigkeit	-11.34
6.000	-11.3407
himmel	-11.3413
▁komponiert	-11.343
▁medikamente	-11.343
▁souveränität	-11.343
▁unterworfen	-11.343
▁everest	-11.343
▁invasion	-11.343
▁mondkrater	-11.343
▁amateur	-11.343
▁gültigkeit	-11.343
füße	-11.3431
▁stumm	-11.3434
▁erbracht	-11.3436
lampe	-11.3445
codier	-11.3489
digital	-11.3495
natürliche	-11.3499
gegner	-11.3499
▁röntgen	-11.351
alpin	-11.352
▁mandelbrot	-11.3525
▁karolingische	-11.3525
▁professionelle	-11.3525
▁ukraine	-11.3525
▁abstammung	-11.3525
▁angemessen	-11.3525
▁vermutung	-11.3526
▁verwirklicht	-11.3526
▁reichweite	-11.3529
ozyten	-11.3536
wappen	-11.36
▁chilenische	-11.3602
klassische	-11.3611
akzept	-11.3619
▁buddhistische	-11.3621
▁herkömmliche	-11.3621
gletscher	-11.3621
▁innovation	-11.3621
▁zulässig	-11.3621
▁verschlüsselung	-11.3621
▁meißen	-11.3621
regulierung	-11.3621
spekulation	-11.3621
▁thematisiert	-11.3621
▁einzigartig	-11.3621
▁strikt	-11.3622
▁jegliche	-11.3624
manager	-11.3637
▁niedrigste	-11.3643
stützpunkt	-11.3652
▁mindest	-11.3654
bricht	-11.371
elefant	-11.3711
regierungsbezirk	-11.3715
▁wechselnde	-11.3717
▁partition	-11.3717
▁exponential	-11.3718
▁americium	-11.3718
▁profitiert	-11.3718
▁südöstlich	-11.3718
▁dokumentarfilm	-11.3718
▁kronach	-11.3718
▁kurzfristig	-11.3718
▁ordnet	-11.3718
▁kaffee	-11.3718
▁präzise	-11.3719
pixel	-11.3719
intensität	-11.372
streitigkeiten	-11.3721
▁kubisch	-11.3721
stream	-11.3722
ehemalige	-11.3799
ingenieur	-11.3799
alphabet	-11.3799
konzert	-11.3799
lizenz	-11.38
album	-11.38
verschwörung	-11.3816
▁eastwood	-11.3816
▁erneuerbare	-11.3816
▁addition	-11.3816
▁chirac	-11.3816
▁hilbert	-11.3816
▁sobald	-11.3816
mythos	-11.3817
▁belastet	-11.3817
▁gemäßigten	-11.3817
schaftswahl	-11.3817
▁derjenige	-11.3819
täler	-11.383
▁berühmteste	-11.3837
gigant	-11.3841
8.000	-11.3844
▁hetero	-11.3895
knochen	-11.3901
ärzte	-11.3907
absorption	-11.3915
▁baumwoll	-11.3915
▁arafat	-11.3915
▁behindert	-11.3915
▁eingegliedert	-11.3915
▁angrenzenden	-11.3915
▁debian	-11.3915
reserven	-11.3915
▁sakral	-11.3916
▁kriegsgefangene	-11.3917
▁jemand	-11.3917
▁ulrich	-11.3917
▁besiegt	-11.3918
▁verkörpert	-11.3923
mathematik	-11.4003
trennung	-11.4004
potenzial	-11.4015
▁geschlechter	-11.4015
▁norwegische	-11.4015
▁plötzlich	-11.4015
▁madrid	-11.4015
▁unterbrochen	-11.4015
▁verbündeten	-11.4015
▁nennenswerte	-11.4015
▁variieren	-11.4015
▁oxidationsstufe	-11.4016
eigentum	-11.4016
▁niemand	-11.4016
▁lewis	-11.4016
▁psychische	-11.4047
▁saure	-11.4048
genauso	-11.4049
hälfte	-11.4108
design	-11.411
diplom	-11.4116
▁mikroorganismen	-11.4116
▁nicholson	-11.4116
▁potsdam	-11.4116
▁rumänien	-11.4116
▁fortpflanzung	-11.4116
▁galileo	-11.4116
hockey	-11.4116
▁verschwinden	-11.4116
▁bamberg	-11.4117
▁kletter	-11.4117
▁festgehalten	-11.4117
▁verlieren	-11.4117
atlantisch	-11.4117
▁agrar	-11.4118
apfel	-11.4119
sulfat	-11.4124
▁untergeordnete	-11.4151
täter	-11.4162
englischsprachig	-11.4201
mikro	-11.4212
katalysator	-11.4218
kommissar	-11.4218
▁allianz	-11.4218
▁keineswegs	-11.4218
▁nominal	-11.4219
▁scharon	-11.4219
▁attraktiv	-11.4219
pyramide	-11.4219
▁experten	-11.4219
▁single	-11.4219
▁gysi	-11.4219
hierarchie	-11.422
▁graphit	-11.422
▁konventionelle	-11.4222
▁befreit	-11.4223
▁anatomisch	-11.4225
▁linth	-11.4227
turbine	-11.4228
pumpe	-11.4251
▁friedlich	-11.4255
▁asteroid	-11.431
kontinent	-11.4319
wettbewerb	-11.432
gesandte	-11.4321
beleuchtung	-11.4321
▁praktiziert	-11.4321
▁tragödie	-11.4321
▁stattfindet	-11.4321
▁klammer	-11.4321
▁taxon	-11.4321
▁palais	-11.4321
▁ehrenamtlich	-11.4321
▁strebt	-11.4321
schädlich	-11.4322
matrix	-11.4322
zuschließen	-11.4322
▁andauernde	-11.4322
▁stationiert	-11.4328
▁erschwert	-11.4329
berechenbar	-11.433
▁gleichberechtig	-11.4331
gekauft	-11.4339
letzte	-11.4341
▁anhaltende	-11.4345
▁eiserne	-11.4351
konstrukt	-11.4409
militär	-11.4425
▁unregelmäßig	-11.4426
▁architektonisch	-11.4426
▁melodram	-11.4426
▁venezuela	-11.4426
▁scheitern	-11.4426
▁erwartungen	-11.4426
▁manifest	-11.4426
▁anatomie	-11.4426
▁aikid	-11.4426
▁blütezeit	-11.4426
▁mythen	-11.4427
▁ehrungen	-11.4427
carotin	-11.4428
flieger	-11.4444
▁amsterdam	-11.4531
▁außergewöhnlich	-11.4531
▁erwähnen	-11.4531
▁kasachstan	-11.4531
▁multiplikation	-11.4531
▁sizilien	-11.4531
▁tolkien	-11.4531
▁tödlich	-11.4531
▁ästhetische	-11.4531
▁singular	-11.4531
▁kultiviert	-11.4531
▁schottland	-11.4531
▁dutzend	-11.4531
▁eignet	-11.4531
▁iwf	-11.4531
▁safran	-11.4531
▁aurel	-11.4531
▁lanthanoide	-11.4531
▁verursachen	-11.4531
▁behauptung	-11.4532
▁elektrolyt	-11.4532
▁bedürfnisse	-11.4534
▁bezeugt	-11.4535
johann	-11.4536
cluster	-11.4537
▁bezahlt	-11.4542
court	-11.4555
▁volta	-11.4558
tägliche	-11.4576
0,6	-11.458
bedürfnis	-11.4634
ästhetik	-11.4637
▁konkurrieren	-11.4637
▁auswärtige	-11.4637
▁berücksichtigen	-11.4637
▁gedeutet	-11.4637
▁gänzlich	-11.4637
▁rettungs	-11.4637
▁stellvertreter	-11.4637
gebrannt	-11.4637
▁laubblätter	-11.4637
gladbach	-11.4637
▁gestattet	-11.4637
▁vergeblich	-11.4638
▁isaac	-11.4638
kathode	-11.4638
▁arnim	-11.4638
schwanz	-11.4638
training	-11.4639
chronik	-11.4639
münze	-11.464
gespräch	-11.4646
derivat	-11.4711
filmschauspieler	-11.4745
▁angekündigt	-11.4745
▁treibhausgas	-11.4745
▁abgetrennt	-11.4745
▁kompromiss	-11.4745
▁leukämie	-11.4745
▁neuseeländische	-11.4745
▁syntax	-11.4745
▁verteidigt	-11.4745
▁spacey	-11.4745
▁nebeneinander	-11.4745
▁sokrates	-11.4745
▁hinterlassen	-11.4745
▁hinreichend	-11.4745
▁integral	-11.4747
iodid	-11.4752
dialekt	-11.4753
genutzt	-11.4758
virus	-11.4765
bevölkerungszahl	-11.4783
demokratie	-11.4784
▁indigene	-11.4785
▁unterliegen	-11.4828
konvert	-11.485
kontinuum	-11.4853
verträglich	-11.4853
▁holocaust	-11.4853
▁konzipiert	-11.4853
gedrängt	-11.4853
▁eritrea	-11.4853
▁rüssel	-11.4853
▁bildhauer	-11.4853
▁verkürzt	-11.4853
▁concorde	-11.4853
▁entropie	-11.4853
▁cameron	-11.4854
freimaurer	-11.4854
▁botanik	-11.4854
▁fuller	-11.4854
▁vorrangig	-11.4854
▁homogen	-11.4854
▁audio	-11.4855
imperial	-11.4855
geachtet	-11.4856
treiber	-11.4859
▁anwesend	-11.486
▁0,2	-11.486
insbesondere	-11.4869
kroatisch	-11.4873
behälter	-11.4873
hlenwasserstoffe	-11.4921
▁verlieh	-11.4945
unerwünscht	-11.4963
▁beryllium	-11.4963
▁ergänzen	-11.4963
▁fälschlich	-11.4963
▁silicium	-11.4963
▁tacitus	-11.4963
▁öffnen	-11.4963
▁übereinstimmung	-11.4963
▁willkür	-11.4963
▁meitner	-11.4963
abgekürzt	-11.4963
▁schädel	-11.4963
▁kronberg	-11.4963
▁periodisch	-11.4963
▁erneuert	-11.4963
▁verstarb	-11.4964
▁parlamentswahl	-11.4964
▁schickte	-11.4964
▁schöneberg	-11.4965
saurier	-11.4965
▁aktien	-11.4965
prakti	-11.4967
▁geografische	-11.4982
götter	-11.4983
▁praktik	-11.4994
▁beibehalt	-11.4997
▁diplomat	-11.5035
▁anglikanische	-11.5074
▁ermittlung	-11.5074
▁transzendent	-11.5074
▁öffnet	-11.5074
▁unterirdisch	-11.5074
▁charlotte	-11.5075
▁infrarot	-11.5075
▁unterliegt	-11.5075
▁ammonium	-11.5075
distrikt	-11.5075
▁selber	-11.5076
▁subjektiv	-11.5076
▁tibet	-11.5078
▁hinterließ	-11.5112
spektive	-11.5147
▁hubble	-11.5187
▁nuklear	-11.5187
kathedrale	-11.5187
▁befreundet	-11.5187
▁eingebettet	-11.5187
▁eschborn	-11.5187
▁fühlte	-11.5187
▁gesteigert	-11.5187
▁magistrat	-11.5187
▁leonhard	-11.5187
▁ausgeübt	-11.5187
▁gelingt	-11.5188
fonds	-11.5188
flossen	-11.5188
▁bewahrt	-11.5189
kapsel	-11.5189
schneider	-11.5192
silikat	-11.5193
verkäufe	-11.5197
bewohner	-11.5214
wünsche	-11.5265
griech	-11.5272
write	-11.5279
kompatibilität	-11.53
▁chemotherapie	-11.53
▁flörsheim	-11.53
▁giovanni	-11.53
▁implikation	-11.53
▁league	-11.53
▁säkular	-11.53
physiologie	-11.53
treptow	-11.53
▁begeistert	-11.53
▁fußgänger	-11.53
▁research	-11.53
▁vorliegt	-11.5301
▁kolben	-11.5301
▁next	-11.5301
zeremonie	-11.5308
trägt	-11.5314
▁innenpolitisch	-11.5323
widrig	-11.5332
gewähr	-11.536
gereicht	-11.536
architekt	-11.5403
sächlich	-11.5413
▁californium	-11.5415
karzinom	-11.5415
präsidium	-11.5415
▁annäherung	-11.5415
▁bagdad	-11.5415
▁esoterik	-11.5415
▁javascript	-11.5415
%	-11.7001
„	-11.8243
<	-12.9812
