<unk>	0
<s>	0
</s>	0
▁the	-3.02301
,	-3.27184
s	-3.27336
.	-3.46196
▁of	-3.67387
▁and	-3.91388
▁in	-3.95145
▁a	-4.1498
▁to	-4.20454
▁	-4.273
▁"	-4.86787
-	-4.93917
▁is	-5.01993
▁was	-5.07949
"	-5.09929
▁as	-5.1216
ed	-5.13311
ing	-5.22065
▁for	-5.23863
'	-5.26924
▁by	-5.29425
▁that	-5.31557
▁with	-5.34756
▁(	-5.45181
▁on	-5.4663
d	-5.65948
▁from	-5.67449
e	-5.75465
▁an	-5.76267
▁his	-5.76296
▁it	-5.76702
▁are	-5.79407
▁he	-5.83794
##	-5.87718
▁be	-5.89077
▁at	-5.9047
ly	-5.92217
▁or	-5.94799
a	-5.9582
)	-5.96341
▁which	-6.01482
▁were	-6.08035
y	-6.10673
er	-6.12873
t	-6.18
▁this	-6.19989
n	-6.20965
al	-6.21653
▁have	-6.36237
|	-6.36304
i	-6.3652
▁not	-6.36604
▁had	-6.36963
th	-6.37741
▁also	-6.39093
es	-6.40157
▁has	-6.43073
c	-6.43913
;	-6.44048
▁but	-6.50742
▁their	-6.52785
:	-6.52849
in	-6.54397
en	-6.56493
▁other	-6.57501
▁one	-6.57867
o	-6.57894
▁its	-6.5853
▁re	-6.58848
m	-6.59667
▁first	-6.60874
r	-6.62695
g	-6.65217
",	-6.65731
▁been	-6.69708
="	-6.72074
),	-6.75558
▁they	-6.77862
▁after	-6.78025
the	-6.81482
▁all	-6.82527
▁who	-6.85117
b	-6.86126
▁such	-6.86713
▁some	-6.8718
or	-6.87574
▁more	-6.88568
▁most	-6.8981
▁can	-6.89887
▁new	-6.90131
▁used	-6.90184
k	-6.90315
▁two	-6.90818
".	-6.92723
p	-6.93412
▁de	-6.94618
ic	-6.95662
).	-6.9573
l	-6.96228
ation	-6.98805
re	-6.98805
▁when	-7.00498
ion	-7.01689
▁into	-7.01935
▁18	-7.01945
an	-7.04214
▁than	-7.06783
us	-7.07709
▁there	-7.08215
▁during	-7.08505
▁many	-7.08803
▁time	-7.08845
▁over	-7.09562
▁may	-7.09949
f	-7.10383
▁these	-7.12133
/	-7.1282
▁would	-7.14213
▁her	-7.14836
▁only	-7.16722
▁between	-7.18321
▁war	-7.18764
le	-7.20817
h	-7.20929
▁no	-7.26893
on	-7.26898
▁world	-7.27678
st	-7.28975
ar	-7.3051
doc	-7.33824
it	-7.3383
▁about	-7.33987
ers	-7.34407
v	-7.34754
▁while	-7.35155
▁so	-7.36156
ta	-7.36552
▁i	-7.3663
▁use	-7.38041
to	-7.39118
▁e	-7.39383
▁city	-7.39842
▁un	-7.40027
ity	-7.40438
>	-7.40639
▁al	-7.42092
▁known	-7.4225
▁years	-7.42304
w	-7.42457
▁later	-7.43153
▁states	-7.43208
na	-7.43276
▁him	-7.43811
▁out	-7.44312
▁under	-7.44389
ian	-7.44651
▁state	-7.45422
ma	-7.47526
ch	-7.48027
z	-7.48031
▁people	-7.48182
▁however	-7.48329
▁century	-7.49604
▁up	-7.49687
ia	-7.49699
▁both	-7.49718
▁where	-7.49739
ism	-7.50618
▁early	-7.50994
▁d	-7.53057
▁well	-7.53245
u	-7.53629
▁made	-7.53689
ro	-7.53751
ent	-7.54771
▁being	-7.55044
▁number	-7.55343
▁american	-7.55952
▁g	-7.56405
ist	-7.56606
▁became	-7.57544
▁part	-7.58334
▁three	-7.58639
ment	-7.58933
▁through	-7.59041
▁do	-7.59265
▁system	-7.59928
▁including	-7.60286
▁united	-7.61011
il	-7.61214
▁called	-7.61243
▁since	-7.6166
▁she	-7.61796
at	-7.62113
co	-7.62809
ne	-7.63024
–	-7.63563
able	-7.64428
ive	-7.64837
▁b	-7.65493
el	-7.65826
▁co	-7.66301
▁government	-7.66348
▁c	-7.66394
x	-7.66419
se	-7.66621
▁work	-7.67226
ry	-7.67843
ra	-7.68048
ck	-7.68375
te	-7.68866
as	-7.69076
▁national	-7.6919
▁1	-7.70267
man	-7.70442
▁title	-7.70878
▁con	-7.71187
▁if	-7.71919
▁because	-7.72402
▁them	-7.72806
▁formula	-7.72808
▁high	-7.72853
de	-7.73216
▁k	-7.73505
▁large	-7.74013
ter	-7.74031
▁year	-7.74279
la	-7.74428
ur	-7.74579
▁17	-7.74613
ri	-7.74832
li	-7.75349
ated	-7.75443
▁several	-7.75738
tic	-7.75797
▁could	-7.76166
▁3	-7.76334
▁second	-7.76376
ul	-7.76407
ate	-7.76465
▁before	-7.76597
ce	-7.771
▁name	-7.77195
ine	-7.79224
▁any	-7.79315
id	-7.79487
is	-7.80414
▁against	-7.80905
▁south	-7.8111
▁then	-7.81649
▁found	-7.81872
▁same	-7.82843
▁life	-7.83261
▁form	-7.835
▁each	-7.84236
▁north	-7.84459
▁ma	-7.84831
un	-7.85125
▁often	-7.8547
▁st	-7.85488
▁("	-7.8625
be	-7.8637
et	-7.86855
▁per	-7.87463
▁end	-7.87476
▁p	-7.87855
ol	-7.88005
▁4	-7.88075
▁f	-7.88156
▁according	-7.88458
▁until	-7.89694
▁british	-7.90067
▁example	-7.90225
▁will	-7.90969
um	-7.90988
org	-7.91433
▁although	-7.91955
▁group	-7.92858
ti	-7.93462
▁among	-7.93666
▁la	-7.93951
▁country	-7.9404
—	-7.94101
▁different	-7.94968
am	-7.95094
▁include	-7.95252
me	-7.95414
▁modern	-7.96169
▁sa	-7.96795
ad	-7.9703
▁pro	-7.9739
▁like	-7.97548
▁u	-7.97597
▁major	-7.9817
▁id	-7.9828
ton	-7.98663
▁own	-7.98793
▁man	-7.98992
▁around	-7.99022
▁19	-7.99162
5	-7.99164
▁water	-7.99397
ge	-7.99422
▁m	-7.99506
▁history	-7.9954
▁di	-7.99899
?	-8.00022
age	-8.00275
▁film	-8.00738
▁following	-8.01457
2	-8.01599
▁due	-8.0194
▁did	-8.02175
▁categories	-8.02285
▁four	-8.02454
▁language	-8.02955
▁those	-8.03206
▁2	-8.03283
▁pre	-8.0363
▁dis	-8.03658
▁even	-8.03806
."	-8.04049
▁population	-8.04135
go	-8.04153
ba	-8.04507
▁power	-8.04644
▁general	-8.04729
▁area	-8.04871
▁sea	-8.06013
▁5	-8.06383
▁church	-8.06707
▁roman	-8.06758
▁long	-8.06792
")	-8.07097
ary	-8.07102
▁common	-8.07135
no	-8.07312
lo	-8.07429
▁another	-8.07481
▁16	-8.07695
ha	-8.07739
▁art	-8.07775
▁period	-8.07814
▁o	-8.0834
ve	-8.08569
▁death	-8.0877
di	-8.08852
wikipedia	-8.08956
wiki	-8.09093
▁set	-8.09458
▁w	-8.09507
://	-8.09555
https	-8.09555
▁url	-8.09621
▁home	-8.09761
▁<	-8.09905
curid	-8.09957
▁</	-8.10023
ted	-8.10395
▁much	-8.10575
▁us	-8.10698
▁v	-8.10734
▁million	-8.1078
ca	-8.10831
ci	-8.10833
ant	-8.10891
ig	-8.12112
▁series	-8.12574
▁non	-8.12796
▁le	-8.13062
j	-8.13197
▁air	-8.13294
do	-8.13406
▁small	-8.13451
▁based	-8.14123
▁public	-8.14595
ous	-8.14767
▁international	-8.1502
4	-8.15155
ga	-8.15421
ies	-8.1544
▁began	-8.157
and	-8.15958
he	-8.16242
3	-8.16661
▁court	-8.16685
▁15	-8.16869
▁black	-8.17067
ir	-8.1714
ni	-8.1749
▁english	-8.1773
▁development	-8.17737
▁using	-8.17887
▁within	-8.17897
▁order	-8.18026
▁book	-8.18216
▁king	-8.18238
min	-8.18488
est	-8.18559
ll	-8.18684
▁car	-8.18899
▁apollo	-8.1982
▁back	-8.19912
▁10	-8.20048
▁west	-8.20467
▁20	-8.20552
▁support	-8.20688
▁term	-8.20838
▁east	-8.20911
ting	-8.21089
▁ba	-8.21224
▁very	-8.21348
▁6	-8.21812
▁military	-8.21841
▁day	-8.21954
▁ex	-8.22047
▁7	-8.22577
▁still	-8.22577
ized	-8.22652
bo	-8.22905
vi	-8.22958
▁ii	-8.23187
▁(19	-8.23622
▁great	-8.23743
▁land	-8.24001
tion	-8.24251
pe	-8.24328
son	-8.24611
▁music	-8.24651
▁place	-8.24739
ish	-8.24862
im	-8.24923
▁family	-8.25408
▁ca	-8.25585
da	-8.2578
▁greek	-8.26298
▁12	-8.26392
ac	-8.26607
▁university	-8.26617
▁sub	-8.26624
é	-8.2671
8	-8.26738
▁german	-8.26827
▁school	-8.27085
▁local	-8.27133
▁me	-8.27184
ke	-8.2745
▁last	-8.27503
0	-8.27617
nd	-8.27634
land	-8.27647
▁now	-8.27699
00	-8.27726
▁region	-8.27728
▁point	-8.28064
▁men	-8.28195
▁important	-8.2821
▁led	-8.28554
▁what	-8.28816
bi	-8.28832
▁considered	-8.28841
con	-8.28897
▁army	-8.29159
os	-8.2948
▁various	-8.29819
▁mo	-8.2995
▁'	-8.30063
▁–	-8.30164
▁main	-8.30227
▁late	-8.30464
ness	-8.30627
▁french	-8.31337
▁said	-8.31626
▁we	-8.31831
1	-8.32304
▁political	-8.32351
▁human	-8.32681
▁11	-8.33074
▁en	-8.33243
▁vi	-8.33448
per	-8.34056
ty	-8.34209
▁na	-8.34406
▁r	-8.34456
▁8	-8.34483
pa	-8.34857
▁anti	-8.35237
6	-8.35416
up	-8.35597
▁control	-8.35616
▁single	-8.36325
ut	-8.36341
▁empire	-8.36435
▁make	-8.36768
▁li	-8.3679
ial	-8.36947
▁son	-8.37546
▁h	-8.37645
▁law	-8.38522
va	-8.38756
▁union	-8.38837
ium	-8.38878
ally	-8.39061
▁space	-8.39152
▁along	-8.39167
▁l	-8.39328
op	-8.39369
ka	-8.39423
▁light	-8.39425
▁published	-8.39563
▁bc	-8.39612
▁given	-8.39648
em	-8.39994
▁se	-8.40086
▁wrote	-8.4009
▁act	-8.40341
▁largest	-8.40524
▁production	-8.40553
▁bo	-8.40721
ling	-8.40762
▁similar	-8.41326
▁species	-8.4162
century	-8.41637
▁become	-8.41812
▁free	-8.42063
▁without	-8.42085
sh	-8.42328
▁took	-8.4247
ius	-8.42502
▁popular	-8.42503
▁though	-8.42616
▁t	-8.4284
▁way	-8.43028
▁included	-8.43302
▁bar	-8.43444
ag	-8.43478
▁company	-8.44004
▁developed	-8.44157
▁n	-8.44532
▁less	-8.44956
▁ha	-8.4499
▁game	-8.45015
▁age	-8.45135
▁near	-8.45313
▁inter	-8.45384
▁members	-8.4541
▁ad	-8.45454
ance	-8.45641
▁party	-8.45702
▁president	-8.45836
▁sp	-8.46503
mo	-8.46651
ating	-8.46707
▁left	-8.46715
▁countries	-8.4683
▁design	-8.47076
▁river	-8.47208
▁european	-8.47283
ph	-8.47404
▁service	-8.4743
▁john	-8.47769
▁western	-8.48143
if	-8.48155
rs	-8.48279
▁line	-8.48345
▁14	-8.48387
▁ancient	-8.48695
iv	-8.48725
_	-8.48784
▁league	-8.49154
sa	-8.49261
▁house	-8.493
▁battle	-8.4978
▁europe	-8.49827
▁established	-8.5011
ron	-8.50117
lu	-8.50336
amp	-8.50381
▁works	-8.50433
▁central	-8.50466
ex	-8.50597
▁result	-8.50636
▁present	-8.50774
▁god	-8.50827
▁held	-8.50983
▁came	-8.51459
▁case	-8.51551
▁thus	-8.51652
▁research	-8.5166
▁third	-8.51902
▁five	-8.51911
▁down	-8.52156
ot	-8.52369
ence	-8.52504
▁times	-8.52527
ists	-8.52623
▁9	-8.52917
mon	-8.52968
▁named	-8.53009
▁ten	-8.53118
▁head	-8.53279
▁short	-8.53361
▁role	-8.53536
▁base	-8.53577
▁having	-8.5358
▁usually	-8.53629
▁team	-8.53755
io	-8.53984
men	-8.54049
▁island	-8.5419
▁body	-8.54413
ill	-8.54638
▁march	-8.54683
▁every	-8.54933
ny	-8.5496
▁just	-8.55539
▁few	-8.55716
▁13	-8.55727
▁ta	-8.55761
▁range	-8.55924
au	-8.56114
ite	-8.56389
▁kingdom	-8.56766
pro	-8.56779
▁j	-8.56902
▁produced	-8.56946
ber	-8.57168
▁market	-8.57346
▁old	-8.57379
▁economic	-8.57553
ts	-8.57768
we	-8.57824
▁earth	-8.58106
▁original	-8.58133
▁hand	-8.58284
▁father	-8.58346
▁alexander	-8.58562
▁further	-8.58627
ie	-8.5863
▁post	-8.58671
▁low	-8.58759
▁written	-8.58887
▁force	-8.59098
▁total	-8.59441
▁women	-8.59474
ho	-8.59541
lic	-8.596
▁york	-8.59617
mi	-8.59745
▁ro	-8.59859
▁go	-8.59913
7	-8.59947
▁side	-8.60069
▁best	-8.60283
line	-8.6041
ations	-8.6068
▁august	-8.60767
▁play	-8.60806
▁built	-8.60936
▁forces	-8.61437
▁mar	-8.61647
ru	-8.61805
▁systems	-8.61873
▁america	-8.61876
▁field	-8.62106
▁word	-8.62277
▁theory	-8.62406
om	-8.62478
ities	-8.6333
day	-8.63542
▁apple	-8.6361
▁white	-8.63668
▁natural	-8.63867
▁should	-8.64097
▁center	-8.64123
mp	-8.64128
▁southern	-8.64173
mer	-8.64308
▁lo	-8.64332
tal	-8.6436
▁former	-8.64638
▁ne	-8.64796
▁described	-8.64941
▁released	-8.65351
▁ti	-8.65375
▁groups	-8.65483
po	-8.6549
▁take	-8.65543
▁pa	-8.65722
que	-8.65843
▁sometimes	-8.65891
▁study	-8.66039
▁social	-8.66119
▁does	-8.66182
▁september	-8.66189
tra	-8.66216
gi	-8.66612
▁ni	-8.66977
▁either	-8.67023
▁culture	-8.67151
▁season	-8.67211
vo	-8.67421
▁process	-8.6769
▁won	-8.67737
▁test	-8.67818
ab	-8.67891
ization	-8.67982
▁england	-8.68403
▁how	-8.68544
ard	-8.68718
ology	-8.68746
oc	-8.68834
▁san	-8.6911
,000	-8.69152
▁pi	-8.69187
▁acid	-8.69293
hi	-8.69363
▁position	-8.69388
▁am	-8.69441
ster	-8.69569
ward	-8.69605
pl	-8.698
▁movement	-8.70062
les	-8.70167
lin	-8.70184
▁capital	-8.70311
tor	-8.70634
▁show	-8.70895
ful	-8.70896
one	-8.71211
▁african	-8.7123
▁april	-8.71334
▁su	-8.71423
▁languages	-8.71476
▁trade	-8.71501
▁far	-8.71563
ions	-8.71623
▁addition	-8.71636
der	-8.71764
▁royal	-8.72019
▁computer	-8.72111
ff	-8.72334
▁right	-8.72561
▁january	-8.72742
▁ka	-8.7288
▁children	-8.72892
▁person	-8.72947
▁areas	-8.73095
▁july	-8.73223
▁october	-8.73307
▁december	-8.73551
▁half	-8.73587
▁strong	-8.73608
less	-8.73702
qui	-8.73959
▁off	-8.73965
▁mission	-8.74168
ā	-8.74283
▁must	-8.74539
▁games	-8.74618
▁northern	-8.74779
ator	-8.74865
ten	-8.75043
ak	-8.75128
▁standard	-8.75142
▁council	-8.75272
pt	-8.75437
ric	-8.75502
▁food	-8.75778
▁office	-8.75794
▁november	-8.76019
▁throughout	-8.76138
▁june	-8.76232
way	-8.76259
▁received	-8.76278
▁influence	-8.76339
▁surface	-8.76354
▁rather	-8.76437
▁created	-8.76652
▁continued	-8.76696
▁especially	-8.7689
▁died	-8.76905
▁po	-8.76944
▁park	-8.76944
▁upon	-8.77032
▁ar	-8.77133
▁special	-8.77595
▁type	-8.77656
▁generally	-8.77664
▁ball	-8.77669
▁see	-8.77726
▁top	-8.77854
▁command	-8.77883
za	-8.78244
▁open	-8.78286
▁significant	-8.78366
nt	-8.78376
od	-8.78514
▁x	-8.78572
ide	-8.78584
▁cha	-8.78653
act	-8.78733
gu	-8.78743
▁next	-8.78807
▁eastern	-8.78845
▁star	-8.78859
ler	-8.78907
▁interest	-8.79022
▁version	-8.79161
lt	-8.79211
pi	-8.7931
▁aircraft	-8.79606
▁data	-8.79635
ki	-8.79675
▁town	-8.79764
"),	-8.79802
ner	-8.80017
▁six	-8.80075
ud	-8.80085
10	-8.80098
▁himself	-8.80281
▁instead	-8.80385
▁bi	-8.80398
▁com	-8.80435
ap	-8.80516
▁evidence	-8.80534
▁least	-8.80543
▁final	-8.80624
50	-8.80645
▁possible	-8.80709
▁tri	-8.81021
ns	-8.81028
fa	-8.81111
▁program	-8.8125
ver	-8.81332
ja	-8.81344
fi	-8.81435
▁lower	-8.81437
▁flight	-8.81515
▁played	-8.81964
▁france	-8.82045
▁mid	-8.82501
▁making	-8.82543
▁red	-8.82543
▁others	-8.82594
▁education	-8.82632
▁certain	-8.82648
▁pe	-8.82754
▁allow	-8.8286
▁thought	-8.83193
▁ho	-8.83225
▁christian	-8.83316
▁ja	-8.83691
our	-8.83712
▁model	-8.84186
ah	-8.84266
▁port	-8.84625
▁ju	-8.84801
▁formed	-8.85126
tu	-8.85146
▁gra	-8.85501
ger	-8.85511
▁higher	-8.85754
▁imp	-8.85931
9	-8.85939
▁subject	-8.85997
▁followed	-8.86028
▁once	-8.8608
▁together	-8.86181
▁middle	-8.86275
ect	-8.86279
▁fire	-8.86286
▁need	-8.86542
▁above	-8.86644
ative	-8.86671
▁lu	-8.86775
ip	-8.86862
▁again	-8.87037
▁catholic	-8.87039
]	-8.87079
▁sun	-8.87195
▁function	-8.87243
▁project	-8.87345
▁gas	-8.87366
▁almost	-8.8742
▁mass	-8.87565
▁community	-8.87574
▁crew	-8.87707
▁building	-8.87842
ana	-8.87893
▁seen	-8.8794
▁style	-8.88022
▁real	-8.88026
▁society	-8.88325
ning	-8.88597
▁average	-8.88703
q	-8.88765
mar	-8.88843
▁religious	-8.89088
▁ce	-8.89191
▁structure	-8.89223
▁energy	-8.89271
▁trans	-8.89545
ors	-8.89554
▁my	-8.89628
▁germany	-8.89686
▁forms	-8.89822
▁health	-8.90042
▁jo	-8.90164
▁bank	-8.90205
▁view	-8.90233
▁territory	-8.90419
▁value	-8.90504
ified	-8.90512
▁z	-8.9061
▁change	-8.90635
for	-8.90644
by	-8.90701
tan	-8.90825
▁el	-8.90837
▁ground	-8.91014
▁africa	-8.91093
▁personal	-8.91145
▁mis	-8.91164
tro	-8.91172
american	-8.91251
▁host	-8.91254
▁never	-8.91321
▁located	-8.91386
ship	-8.91419
▁character	-8.9143
▁division	-8.91593
▁latin	-8.91627
▁level	-8.91628
▁provide	-8.91651
log	-8.91782
▁young	-8.91858
▁meaning	-8.9206
▁help	-8.92218
▁sent	-8.92306
gen	-8.92532
▁science	-8.92537
espite	-8.92599
11	-8.92815
tri	-8.92819
▁minister	-8.92958
wa	-8.92993
▁current	-8.93052
ical	-8.93218
0,000	-8.9326
qu	-8.93379
ring	-8.93401
▁effect	-8.93481
▁size	-8.9352
▁ra	-8.93523
▁member	-8.93818
▁fall	-8.93848
▁lead	-8.93898
▁album	-8.94243
▁list	-8.94346
▁mother	-8.94356
▁foreign	-8.9445
si	-8.94484
▁islands	-8.94544
(	-8.94549
▁run	-8.94631
ct	-8.94655
▁du	-8.94735
▁ga	-8.94743
▁met	-8.94768
ea	-8.9478
▁means	-8.94998
▁information	-8.95048
▁good	-8.95093
▁elements	-8.95198
av	-8.95313
time	-8.95345
▁introduced	-8.95498
▁turn	-8.95555
▁em	-8.95726
▁little	-8.95865
mit	-8.96016
▁close	-8.96229
▁william	-8.96467
▁return	-8.96479
ile	-8.96509
▁official	-8.96514
▁cross	-8.96515
▁live	-8.96576
ure	-8.9661
▁lost	-8.9663
▁soviet	-8.96791
▁site	-8.96895
▁hu	-8.96913
▁today	-8.9692
▁industry	-8.96979
▁across	-8.96979
▁rock	-8.96982
com	-8.96982
▁sha	-8.97093
▁associated	-8.97164
▁rights	-8.97199
▁civil	-8.97204
▁sound	-8.97208
▁fact	-8.97335
▁available	-8.97597
▁br	-8.97859
▁terms	-8.97892
par	-8.97918
ley	-8.98055
▁stage	-8.98102
den	-8.98151
▁campaign	-8.98323
▁taken	-8.98417
▁full	-8.98619
▁particular	-8.98681
ow	-8.98708
▁itself	-8.99103
▁super	-8.99375
20	-8.99412
▁network	-8.99688
▁television	-8.99899
ou	-8.99926
▁australia	-8.99993
▁district	-9.00003
dic	-9.00038
▁&	-9.00067
▁story	-9.0016
▁gave	-9.00164
▁born	-9.00187
▁author	-9.0031
tt	-9.00339
▁traditional	-9.00375
▁media	-9.00469
▁record	-9.00536
▁economy	-9.00716
form	-9.00838
▁sc	-9.01018
▁source	-9.01147
▁treatment	-9.01512
comp	-9.0161
▁color	-9.01629
ub	-9.0165
▁parts	-9.01718
yl	-9.01811
ell	-9.01822
▁club	-9.01825
▁remained	-9.01835
▁days	-9.01883
▁increased	-9.02025
▁india	-9.02091
▁eventually	-9.02172
▁museum	-9.02252
ep	-9.02259
▁unit	-9.02301
▁ri	-9.02319
ize	-9.02351
▁method	-9.02379
▁oil	-9.02392
tive	-9.02526
istic	-9.0256
▁gu	-9.02618
che	-9.02689
▁native	-9.02739
▁rate	-9.02801
▁referred	-9.02802
ible	-9.03067
▁basic	-9.03115
▁related	-9.03223
ach	-9.03273
12	-9.03402
▁ru	-9.03494
▁30	-9.03773
▁da	-9.03793
▁0	-9.03831
▁announced	-9.03938
▁sign	-9.03946
▁lack	-9.04142
▁players	-9.04167
bit	-9.04204
▁books	-9.0421
▁cities	-9.04409
▁2010	-9.04476
har	-9.04569
▁text	-9.04622
▁designed	-9.04713
▁business	-9.04817
▁emperor	-9.05107
▁reported	-9.05355
▁college	-9.05442
▁february	-9.05442
▁ab	-9.05507
▁travel	-9.05546
▁fi	-9.05588
▁attack	-9.05671
▁rule	-9.05818
▁era	-9.06017
ious	-9.06163
▁code	-9.06239
vers	-9.06304
▁machine	-9.06341
▁allowed	-9.06412
▁believed	-9.06456
▁berlin	-9.06569
car	-9.06685
▁come	-9.06696
▁har	-9.06753
cre	-9.06856
▁particularly	-9.06936
▁concept	-9.06995
▁hit	-9.07003
▁read	-9.07145
▁board	-9.07154
▁nature	-9.07154
▁fa	-9.07223
▁served	-9.07368
▁writing	-9.074
mb	-9.07521
▁services	-9.07624
▁commercial	-9.07703
▁technology	-9.07703
led	-9.07728
▁coast	-9.07734
▁whose	-9.07788
▁lunar	-9.07924
▁director	-9.08014
▁individual	-9.08058
king	-9.08152
ox	-9.08153
ris	-9.08191
▁growth	-9.08224
▁private	-9.08277
▁events	-9.08373
▁origin	-9.08383
▁1990	-9.08422
▁might	-9.08622
30	-9.08755
gg	-9.08795
▁therefore	-9.08854
▁21	-9.08925
▁prevent	-9.09215
▁effects	-9.09217
▁features	-9.09378
▁moved	-9.09453
▁centre	-9.09531
her	-9.09561
ham	-9.09578
▁went	-9.09617
▁election	-9.09655
tr	-9.097
gon	-9.09735
▁video	-9.09821
▁access	-9.09888
ev	-9.09977
▁seven	-9.10118
▁amount	-9.10179
▁russian	-9.10211
▁sch	-9.10304
▁complex	-9.10307
rid	-9.10343
▁25	-9.10448
▁saw	-9.10452
▁class	-9.10551
su	-9.10572
▁arab	-9.10718
du	-9.10719
▁ph	-9.10903
▁software	-9.11077
▁beginning	-9.11202
▁hi	-9.11233
▁cr	-9.11242
▁success	-9.11315
▁cor	-9.11439
▁rest	-9.11488
off	-9.11633
▁brought	-9.11669
▁numbers	-9.11692
red	-9.1188
hu	-9.11978
▁construction	-9.12171
▁increase	-9.1221
").	-9.12262
tur	-9.12318
▁2009	-9.12406
▁love	-9.12495
▁award	-9.1251
▁account	-9.12513
▁indian	-9.12541
▁physical	-9.12542
▁republic	-9.12771
▁moon	-9.12805
▁returned	-9.1296
▁federal	-9.13025
▁started	-9.13232
year	-9.13261
▁para	-9.13269
▁direct	-9.13298
out	-9.13413
▁words	-9.13444
▁asia	-9.13474
▁launch	-9.13483
▁separate	-9.13485
▁key	-9.13607
▁provided	-9.1366
▁male	-9.13698
▁primary	-9.13712
fin	-9.13807
▁living	-9.13987
▁billion	-9.14025
based	-9.14042
▁pen	-9.14144
▁climate	-9.14199
ise	-9.14261
▁put	-9.14293
▁mu	-9.1433
▁able	-9.14423
▁founded	-9.14471
▁self	-9.14535
▁fe	-9.14659
▁material	-9.14715
▁mark	-9.14842
▁product	-9.14855
▁cause	-9.14884
▁required	-9.1497
ians	-9.15007
ix	-9.15113
fe	-9.15145
▁wa	-9.15178
can	-9.15223
▁outside	-9.15239
▁arabic	-9.15285
▁cost	-9.15361
▁latter	-9.15427
lan	-9.15617
▁you	-9.15644
▁leading	-9.15728
▁birth	-9.15799
▁sta	-9.15809
▁plant	-9.15855
▁2011	-9.15957
▁ge	-9.16039
▁london	-9.16047
▁va	-9.16112
▁tu	-9.16335
▁commonly	-9.16347
▁2000	-9.16394
ko	-9.16469
ec	-9.16481
pp	-9.16482
▁larger	-9.16595
▁question	-9.1667
▁transport	-9.16716
▁governor	-9.16795
▁added	-9.16829
kh	-9.17025
▁cultural	-9.17044
%	-9.17142
▁earlier	-9.17173
▁past	-9.17179
▁practice	-9.17298
▁iii	-9.17311
ene	-9.17327
á	-9.1745
21	-9.17494
▁away	-9.17546
port	-9.17601
40	-9.17614
my	-9.17653
▁products	-9.17653
▁legal	-9.17745
▁performance	-9.17814
▁reason	-9.17824
▁global	-9.18055
▁produce	-9.18157
▁radio	-9.18177
ü	-9.18309
▁consist	-9.18437
▁2007	-9.18461
▁report	-9.18536
16	-9.18544
▁conditions	-9.18579
ries	-9.18601
ran	-9.18695
▁remains	-9.18707
▁2008	-9.18713
▁multi	-9.18816
▁fer	-9.189
ya	-9.18943
▁typically	-9.19075
▁whether	-9.19075
▁australian	-9.19087
▁action	-9.19114
▁widely	-9.19182
▁companies	-9.19203
▁religion	-9.19203
duc	-9.1946
▁specific	-9.19528
▁historical	-9.19531
▁attempt	-9.19602
▁bur	-9.19632
▁studies	-9.19718
▁limited	-9.19827
▁prior	-9.19896
so	-9.19939
let	-9.19957
▁types	-9.19962
15	-9.20009
90	-9.20102
▁cases	-9.20124
ung	-9.20159
like	-9.20181
▁deal	-9.20295
▁buddha	-9.20364
▁association	-9.20494
▁daughter	-9.20494
▁2019	-9.20513
▁depend	-9.20554
gh	-9.20642
phy	-9.20652
▁auto	-9.20652
▁includes	-9.20688
▁caused	-9.20734
bu	-9.20839
80	-9.209
▁bell	-9.20917
bel	-9.20977
▁majority	-9.21094
▁highest	-9.2114
▁relationship	-9.21153
▁saint	-9.2117
ari	-9.21219
▁independent	-9.21219
▁2018	-9.21301
▁grand	-9.21347
▁front	-9.21385
▁variety	-9.21408
mat	-9.21412
▁flow	-9.21427
tes	-9.21502
▁metal	-9.21641
&	-9.21723
side	-9.2179
▁names	-9.21854
▁2017	-9.21959
▁chief	-9.22025
▁active	-9.22062
zo	-9.22216
gar	-9.22258
▁mostly	-9.223
▁double	-9.22331
▁towards	-9.2239
▁element	-9.22404
▁chemical	-9.22473
▁ac	-9.22596
ification	-9.22717
ised	-9.22757
art	-9.22784
▁blood	-9.22853
▁stated	-9.22866
▁nor	-9.229
▁discovered	-9.22975
▁hill	-9.23087
▁signal	-9.23119
▁1970	-9.2316
▁experience	-9.2318
▁[	-9.23228
ability	-9.23259
han	-9.23282
all	-9.23308
▁soon	-9.23344
▁province	-9.23502
▁months	-9.2351
▁novel	-9.23545
▁2020	-9.23564
oid	-9.23597
▁sold	-9.23616
▁below	-9.23724
▁hard	-9.23811
▁1980	-9.23832
▁paul	-9.23944
▁song	-9.23976
▁op	-9.24
of	-9.24015
ft	-9.24034
▁likely	-9.24079
▁reform	-9.24108
val	-9.24113
▁van	-9.24157
▁spanish	-9.24208
▁recent	-9.24211
▁greater	-9.24393
▁tax	-9.24506
▁object	-9.24537
▁2006	-9.24632
25	-9.24641
pho	-9.24661
▁letter	-9.24786
ological	-9.24798
gr	-9.249
cl	-9.24955
▁count	-9.24989
▁alternative	-9.25013
old	-9.25071
▁par	-9.252
▁hall	-9.25213
▁bridge	-9.25422
▁originally	-9.2543
rt	-9.25559
▁brother	-9.25618
▁career	-9.25672
▁prime	-9.25689
▁britain	-9.25696
▁working	-9.25736
▁tradition	-9.25808
▁schools	-9.25821
í	-9.25833
=2	-9.25962
▁always	-9.25974
▁directly	-9.26001
ture	-9.2609
▁successful	-9.26132
▁2016	-9.26137
ven	-9.26215
▁killed	-9.26232
▁organization	-9.26337
wi	-9.26368
▁bishop	-9.26521
▁percent	-9.26521
▁sources	-9.26556
▁disease	-9.26659
▁target	-9.2666
▁future	-9.26667
gan	-9.26692
▁sal	-9.26742
▁numerous	-9.26797
mes	-9.26968
▁review	-9.26971
▁festival	-9.27074
▁charge	-9.27144
▁supported	-9.2726
▁football	-9.27355
ib	-9.27471
▁david	-9.27499
▁band	-9.27673
0%	-9.2777
▁properties	-9.27773
▁whom	-9.27787
▁bu	-9.27834
▁defined	-9.27946
▁carbon	-9.28068
–19	-9.28123
▁writers	-9.28188
▁themselves	-9.28191
don	-9.28341
▁longer	-9.28367
34	-9.2838
sis	-9.28397
▁institute	-9.28477
dy	-9.28543
▁cur	-9.28644
▁appeared	-9.28764
ze	-9.28769
70	-9.28811
▁operations	-9.28882
▁degree	-9.28895
▁troops	-9.28895
end	-9.28947
ery	-9.29038
=1	-9.29108
ica	-9.29251
air	-9.29269
▁famous	-9.2932
▁complete	-9.29412
ng	-9.29431
▁proposed	-9.2951
▁wife	-9.29612
▁summer	-9.2962
head	-9.29681
▁length	-9.29744
▁centuries	-9.29746
▁contract	-9.29747
▁arch	-9.29793
▁24	-9.29794
nic	-9.29994
▁eu	-9.30033
▁changes	-9.30055
▁pan	-9.30119
▁valley	-9.30183
fl	-9.30189
des	-9.30239
▁equal	-9.30261
▁approximately	-9.30294
14	-9.30365
▁cla	-9.30403
▁micro	-9.30457
▁qua	-9.3051
▁100	-9.30523
▁regions	-9.30527
17	-9.30673
tin	-9.30698
▁share	-9.30775
onic	-9.30828
▁eight	-9.30844
▁congress	-9.30893
▁dr	-9.30997
▁matter	-9.31039
▁replaced	-9.31114
▁cave	-9.31211
▁results	-9.31238
▁nearly	-9.31382
▁canada	-9.31399
▁reached	-9.31421
▁appear	-9.31433
▁scientific	-9.31437
nes	-9.31522
rk	-9.31595
▁win	-9.31616
▁speed	-9.31622
▁charles	-9.31631
▁break	-9.31683
▁professional	-9.31686
ob	-9.3169
▁via	-9.31721
▁1960	-9.31789
▁section	-9.31798
ang	-9.31881
75	-9.3191
▁release	-9.31953
uc	-9.3209
nder	-9.32212
rd	-9.3229
▁academy	-9.32346
▁2001	-9.32401
▁plan	-9.32411
▁multiple	-9.32493
▁wide	-9.32535
ae	-9.3263
▁regional	-9.32672
▁smaller	-9.32771
▁dutch	-9.32933
▁mor	-9.32965
▁atari	-9.33109
▁response	-9.33228
▁better	-9.33232
▁te	-9.33242
ov	-9.33292
▁lines	-9.33339
▁china	-9.33425
fu	-9.33495
▁constant	-9.33523
▁player	-9.3359
ned	-9.33637
ey	-9.337
▁bra	-9.33718
▁im	-9.33801
▁probably	-9.3382
▁george	-9.3382
▁brazil	-9.33894
▁fr	-9.33905
▁sh	-9.33951
▁policy	-9.33968
tre	-9.34033
▁give	-9.34034
▁station	-9.3405
▁fu	-9.34072
rop	-9.34153
▁italy	-9.34162
▁$	-9.34228
▁ban	-9.34342
▁philosophy	-9.34416
ue	-9.34419
▁units	-9.34434
▁2005	-9.34445
▁problems	-9.34456
▁problem	-9.34465
mu	-9.34729
▁literature	-9.34865
▁ocean	-9.34865
▁jews	-9.34867
▁orbit	-9.34884
▁relatively	-9.34906
▁vote	-9.34923
▁risk	-9.34975
berg	-9.34987
▁financial	-9.35015
18	-9.35018
vis	-9.35142
ular	-9.35241
▁gold	-9.35252
▁baseball	-9.35327
▁classical	-9.35328
▁fo	-9.35369
▁estimated	-9.35407
▁decision	-9.35466
▁2015	-9.35499
▁forest	-9.35559
▁table	-9.35621
▁(18	-9.35652
▁require	-9.35733
▁animals	-9.3576
▁temperature	-9.35777
▁involved	-9.35844
▁create	-9.35946
▁step	-9.35963
▁clear	-9.36007
▁paper	-9.36026
▁stone	-9.36124
▁fl	-9.36169
ean	-9.36207
▁(20	-9.36209
▁compared	-9.36224
dra	-9.36291
▁road	-9.36301
▁green	-9.3633
▁distance	-9.3637
▁already	-9.36376
▁lake	-9.36397
▁previous	-9.36412
▁performed	-9.36474
▁rise	-9.36494
cur	-9.36812
▁airport	-9.36871
_1	-9.36977
▁limit	-9.37047
ier	-9.37096
▁scholars	-9.37233
▁bay	-9.37258
36	-9.37348
res	-9.37384
▁ever	-9.37441
▁collection	-9.3753
cent	-9.37556
▁placed	-9.37565
▁medical	-9.37609
bert	-9.37786
▁nations	-9.37788
▁definition	-9.37911
▁idea	-9.37934
▁peace	-9.38215
▁highly	-9.38229
ria	-9.38243
ö	-9.38323
zi	-9.38356
▁alcohol	-9.38436
ker	-9.38507
▁jewish	-9.38552
▁adopted	-9.38559
▁mal	-9.3859
rus	-9.38648
▁james	-9.38746
▁russia	-9.38765
▁elected	-9.3877
bar	-9.38775
▁egypt	-9.38885
▁formation	-9.38932
kin	-9.39045
▁leader	-9.39304
▁afghanistan	-9.39473
▁border	-9.39492
▁pri	-9.39553
▁aim	-9.39562
▁ya	-9.39562
▁approach	-9.39764
▁ko	-9.39789
▁films	-9.39808
▁route	-9.39967
▁address	-9.40103
▁wall	-9.40106
▁italian	-9.40265
▁2013	-9.40286
▁wave	-9.40322
▁parliament	-9.40386
▁sector	-9.40433
▁recorded	-9.40505
▁agreement	-9.40595
▁cre	-9.40646
chi	-9.4066
▁students	-9.40728
well	-9.40905
▁ven	-9.40951
13	-9.41119
▁independence	-9.41213
▁bio	-9.41217
▁henry	-9.41217
▁camp	-9.41351
▁()	-9.41353
▁uses	-9.4137
▁rome	-9.41433
▁whole	-9.41532
▁solution	-9.41534
▁village	-9.4158
▁too	-9.41659
▁street	-9.41695
▁married	-9.41695
▁appearance	-9.41718
▁call	-9.41721
▁additional	-9.41828
▁training	-9.41854
fer	-9.41861
▁app	-9.41913
burg	-9.41954
▁tend	-9.41957
▁che	-9.41982
arian	-9.42012
▁analysis	-9.42016
ice	-9.42021
▁deep	-9.4206
24	-9.42103
▁wood	-9.42139
▁start	-9.42144
▁engine	-9.4215
▁points	-9.42231
▁industrial	-9.4232
▁broad	-9.42362
37	-9.42379
rat	-9.42458
▁female	-9.42501
▁move	-9.42502
▁cell	-9.42644
▁conflict	-9.42825
▁sum	-9.42832
▁divided	-9.42913
▁cho	-9.42984
ves	-9.43075
ites	-9.43095
▁robert	-9.43176
▁poor	-9.43193
▁entire	-9.43209
▁paris	-9.43312
▁tour	-9.43333
▁department	-9.43641
mal	-9.43716
see	-9.43749
▁syn	-9.43768
▁influenced	-9.43832
▁ci	-9.43928
▁si	-9.44025
=3	-9.44084
▁relations	-9.44089
ins	-9.44246
▁mi	-9.44372
▁cover	-9.44394
▁represent	-9.44523
nce	-9.44551
▁tra	-9.44699
▁direction	-9.44703
▁receive	-9.44778
▁defense	-9.44794
▁pressure	-9.44807
▁annual	-9.44861
▁yet	-9.44997
▁medicine	-9.45126
▁worked	-9.45142
▁visit	-9.45195
war	-9.45395
);	-9.45496
▁initial	-9.45528
▁symbol	-9.45576
▁letters	-9.456
▁cast	-9.45654
▁sense	-9.45745
▁derived	-9.45751
ids	-9.4583
▁exist	-9.45895
▁develop	-9.45936
▁settlement	-9.45971
▁athens	-9.45975
▁sin	-9.45981
▁authority	-9.46057
▁cut	-9.46138
▁refer	-9.4616
▁poly	-9.46165
ates	-9.46195
▁characters	-9.46276
ug	-9.4632
xi	-9.46349
▁electron	-9.46359
▁shah	-9.46363
▁records	-9.46375
▁issue	-9.46452
▁serve	-9.46526
▁temple	-9.46551
ina	-9.46561
cy	-9.46591
cal	-9.46712
▁reign	-9.46805
▁simple	-9.46806
▁weak	-9.46864
▁night	-9.4692
▁meeting	-9.46949
=	-9.46971
▁enough	-9.46987
▁internal	-9.47008
▁face	-9.4702
gn	-9.47038
▁sur	-9.47118
med	-9.47143
▁upper	-9.47146
▁bomb	-9.47182
▁winter	-9.4721
▁constitution	-9.47214
▁pair	-9.47257
▁suggested	-9.47257
▁marriage	-9.47311
▁ser	-9.47357
ban	-9.47431
▁chinese	-9.47481
▁claimed	-9.4749
meter	-9.47494
▁event	-9.47635
▁navy	-9.47652
az	-9.47682
▁regard	-9.47764
▁demand	-9.47825
▁churches	-9.47869
▁shown	-9.47913
▁queen	-9.47998
▁40	-9.48018
ay	-9.4805
▁cap	-9.48111
▁1,	-9.48148
cha	-9.48154
▁mainly	-9.48182
▁minor	-9.48206
▁date	-9.48219
▁commission	-9.48265
▁believe	-9.48346
ax	-9.48459
▁je	-9.48481
▁finally	-9.48522
cor	-9.48537
▁potential	-9.48582
▁true	-9.48603
▁represented	-9.48607
▁location	-9.48693
35	-9.48754
▁initially	-9.48784
ides	-9.48815
▁security	-9.48852
39	-9.48984
▁burn	-9.49038
▁impact	-9.49054
cc	-9.49106
cycl	-9.4917
aw	-9.49231
▁get	-9.49232
▁blue	-9.49235
▁foundation	-9.49265
▁activity	-9.49271
▁find	-9.49296
use	-9.49332
cus	-9.49344
▁administration	-9.49371
▁iron	-9.49398
▁ram	-9.49446
ping	-9.49453
▁lincoln	-9.49545
▁spread	-9.49551
33	-9.49594
▁ver	-9.49719
▁kind	-9.49883
▁custom	-9.49893
▁basis	-9.49935
▁status	-9.5008
▁pay	-9.50081
▁display	-9.50191
▁moral	-9.50225
▁objects	-9.50231
▁fund	-9.50266
▁fish	-9.50273
ani	-9.50336
not	-9.50479
▁treaty	-9.50528
ese	-9.50565
▁heart	-9.5058
▁contains	-9.50634
▁artists	-9.50641
▁brain	-9.50682
▁cells	-9.50687
▁pass	-9.5071
ches	-9.50795
▁cannot	-9.50872
gue	-9.50874
▁ship	-9.50982
tus	-9.51013
tz	-9.51055
bri	-9.51106
▁sen	-9.51114
▁carried	-9.51122
51	-9.51144
▁laws	-9.51164
▁completed	-9.51201
▁smith	-9.51218
▁appointed	-9.51423
▁our	-9.51438
▁mon	-9.5155
▁agent	-9.51551
▁revolution	-9.5162
▁done	-9.51636
▁cy	-9.51647
▁speech	-9.51652
▁japanese	-9.51659
▁reaction	-9.51712
▁examples	-9.51763
ren	-9.51777
▁focus	-9.5178
▁california	-9.51829
▁care	-9.51877
▁bill	-9.51903
▁mer	-9.52053
ai	-9.52076
▁semi	-9.52123
ging	-9.52269
▁nu	-9.52285
▁methods	-9.52332
aries	-9.52367
▁bus	-9.52441
dr	-9.52493
▁egyptian	-9.52496
▁assembly	-9.52543
bra	-9.52591
▁primarily	-9.52722
▁appears	-9.52731
47	-9.52758
people	-9.52764
cri	-9.52812
ef	-9.52826
br	-9.52835
▁race	-9.52851
▁consider	-9.52883
▁presence	-9.52905
▁detect	-9.52942
99	-9.5295
▁opened	-9.53072
+	-9.53126
▁fourth	-9.53131
▁abd	-9.53156
27	-9.53208
ulat	-9.53221
▁sexual	-9.53357
▁operation	-9.53446
▁resistance	-9.53449
nu	-9.53604
▁levels	-9.53605
lia	-9.53744
38	-9.53795
▁combined	-9.53902
▁county	-9.53921
▁expansion	-9.53986
▁nation	-9.54101
ara	-9.54134
78	-9.54217
most	-9.54241
▁buildings	-9.54246
▁bor	-9.54255
▁arm	-9.54261
▁changed	-9.54278
▁maintain	-9.54305
86	-9.5435
▁=	-9.54384
▁prince	-9.54578
▁block	-9.54602
▁forced	-9.54604
tar	-9.54608
▁contrast	-9.54715
▁nine	-9.54811
▁weight	-9.54823
▁gun	-9.54836
▁richard	-9.54914
▁christ	-9.54988
▁americans	-9.5504
▁oxygen	-9.55082
85	-9.55167
45	-9.55175
▁launched	-9.55245
▁victory	-9.55339
len	-9.55346
▁azerbaijan	-9.55379
▁joined	-9.55501
▁notable	-9.55508
▁passed	-9.55524
▁23	-9.55644
▁failed	-9.55652
▁connection	-9.55659
▁lord	-9.55663
▁signed	-9.55705
▁needed	-9.55709
▁prominent	-9.55819
▁spain	-9.55913
▁albert	-9.55998
95	-9.56011
gul	-9.56051
60	-9.56134
▁50	-9.56135
▁chi	-9.56184
▁exchange	-9.5619
▁ethnic	-9.562
▁mean	-9.56202
▁accepted	-9.56284
▁hydrogen	-9.56386
▁taking	-9.5641
▁peter	-9.56443
ek	-9.56535
▁child	-9.56555
▁hours	-9.56557
row	-9.56559
▁course	-9.56661
▁environment	-9.56688
▁contain	-9.56692
▁compounds	-9.56725
▁israel	-9.56751
▁property	-9.56768
▁issues	-9.5683
▁regular	-9.56854
lav	-9.56857
▁argued	-9.56877
▁anglican	-9.56935
▁2004	-9.56977
▁resulting	-9.57004
rac	-9.57125
▁22	-9.5716
mic	-9.57165
▁track	-9.57207
▁remain	-9.57267
▁appeal	-9.57311
lon	-9.57406
▁difficult	-9.57435
▁sports	-9.57436
vic	-9.57462
▁intended	-9.57498
dor	-9.57542
▁here	-9.57659
▁composed	-9.57687
▁ottoman	-9.57696
▁texts	-9.57709
bl	-9.57714
▁decided	-9.57763
▁chain	-9.57766
book	-9.57825
▁uk	-9.57844
▁week	-9.57901
life	-9.57925
▁protect	-9.58125
sur	-9.58129
af	-9.58137
din	-9.5823
▁behind	-9.58254
ert	-9.58463
rate	-9.5856
which	-9.58574
▁earliest	-9.58824
▁gr	-9.58913
ji	-9.59012
▁memory	-9.59031
▁observed	-9.59089
ros	-9.59159
▁27	-9.59272
▁ability	-9.59295
▁plants	-9.59332
▁drive	-9.59422
▁motor	-9.59461
▁knowledge	-9.59589
▁washington	-9.59589
▁bear	-9.59602
▁content	-9.59785
graph	-9.59814
▁theatre	-9.59837
▁musical	-9.59846
▁hold	-9.59879
low	-9.59882
▁armenia	-9.59917
ville	-9.59921
▁previously	-9.59929
work	-9.59948
ps	-9.59957
▁ki	-9.59967
▁link	-9.59999
▁26	-9.60072
▁reduced	-9.60112
uch	-9.60157
▁thomas	-9.60168
▁avoid	-9.60171
▁architecture	-9.60176
pri	-9.6019
▁feature	-9.60299
▁commander	-9.6033
▁stars	-9.60345
▁magazine	-9.60361
ash	-9.60477
▁master	-9.60501
▁urban	-9.60563
65	-9.60605
▁gene	-9.60617
▁horse	-9.60622
▁money	-9.60631
▁friend	-9.60718
▁bosnia	-9.60728
▁heavy	-9.6075
▁offer	-9.60771
▁2003	-9.60789
▁mountain	-9.60806
nal	-9.60843
▁shows	-9.60885
▁ben	-9.60963
▁claim	-9.61028
68	-9.61039
▁print	-9.61175
ever	-9.61212
▁occur	-9.61241
▁committee	-9.61334
▁becoming	-9.61337
▁image	-9.61342
▁alexandria	-9.61347
sk	-9.61369
ju	-9.61382
▁identified	-9.61391
▁don	-9.61511
▁square	-9.61529
over	-9.61553
▁organ	-9.61589
ory	-9.61604
22	-9.61659
tel	-9.6167
state	-9.6168
▁boy	-9.61708
▁defeat	-9.61724
▁tro	-9.6173
with	-9.61756
▁advance	-9.6177
▁audi	-9.61805
▁shape	-9.61883
field	-9.61883
▁bring	-9.61885
48	-9.61916
▁defeated	-9.61925
▁albanian	-9.61931
▁1950	-9.61999
▁28	-9.62001
▁fort	-9.62021
▁arts	-9.62037
76	-9.62108
▁landing	-9.62134
19	-9.62211
▁unlike	-9.62213
ography	-9.62242
▁ur	-9.62293
▁imperial	-9.62316
▁positive	-9.62327
▁statement	-9.62366
pan	-9.62468
▁wild	-9.62502
▁carrier	-9.62515
▁ku	-9.62591
5%	-9.62618
▁noted	-9.6264
back	-9.62686
▁mono	-9.62796
▁min	-9.6285
▁convention	-9.62901
▁combination	-9.6291
▁broadcast	-9.62914
▁voice	-9.62936
▁johnson	-9.63002
▁faith	-9.6311
▁mode	-9.63161
88	-9.6321
▁rich	-9.63228
▁places	-9.63301
▁animal	-9.63324
▁1999	-9.63346
▁lived	-9.63354
▁poem	-9.63364
▁pra	-9.6337
▁wind	-9.63415
light	-9.63492
66	-9.63597
▁heat	-9.63605
▁functions	-9.63624
▁scale	-9.63628
▁turned	-9.63688
▁applied	-9.63708
▁atlantic	-9.63761
▁ray	-9.63797
arch	-9.63858
▁japan	-9.63915
▁railway	-9.63918
win	-9.63973
28	-9.64015
▁contemporary	-9.64109
▁loss	-9.64112
▁effective	-9.64113
▁2002	-9.64199
hal	-9.64255
▁match	-9.64292
▁algorithm	-9.6431
cle	-9.64312
▁murder	-9.64319
▁establish	-9.6443
▁ke	-9.64469
▁script	-9.64497
app	-9.6451
▁cal	-9.64545
matic	-9.64565
yn	-9.6458
qua	-9.64591
▁materials	-9.64671
▁bulgaria	-9.64679
▁alaska	-9.64716
▁ships	-9.64728
77	-9.64918
▁instance	-9.64921
▁techniques	-9.65019
cu	-9.65052
▁cup	-9.65089
07	-9.65105
▁responsible	-9.65119
▁offered	-9.65151
55	-9.65201
▁alpha	-9.65209
net	-9.65265
ez	-9.65266
▁activities	-9.65322
▁eli	-9.65339
▁leg	-9.65354
▁soldiers	-9.65368
▁louis	-9.65514
▁volume	-9.65527
▁rules	-9.65537
je	-9.65578
▁reduce	-9.65594
ual	-9.65612
ich	-9.65626
mark	-9.65647
rr	-9.65684
▁dance	-9.65804
32	-9.65807
▁trial	-9.65836
▁...	-9.6584
▁cu	-9.65852
▁increasing	-9.6587
▁abu	-9.6589
▁cl	-9.65919
▁respectively	-9.66002
pos	-9.66014
▁armed	-9.66022
▁keep	-9.66034
▁dead	-9.66056
▁fair	-9.66112
bb	-9.66137
▁module	-9.6614
▁principal	-9.66142
▁vehicle	-9.66263
▁den	-9.6627
ik	-9.66271
▁hospital	-9.66345
▁declared	-9.66421
▁press	-9.66431
▁historian	-9.66478
▁labor	-9.66549
▁dia	-9.66549
▁woman	-9.66551
▁2022	-9.6658
van	-9.6659
44	-9.66599
49	-9.66709
▁goal	-9.66735
▁ibn	-9.66764
▁islamic	-9.66879
ase	-9.66911
▁teaching	-9.66957
▁choice	-9.66975
gy	-9.671
▁muslim	-9.67123
▁stra	-9.67161
▁spent	-9.67165
▁remaining	-9.67353
04	-9.67408
▁staff	-9.67448
01	-9.67511
96	-9.67542
press	-9.67574
-1	-9.67593
▁older	-9.67625
▁know	-9.67637
▁tur	-9.67653
fo	-9.67659
98	-9.67725
dia	-9.67733
▁condition	-9.6777
▁ring	-9.67789
▁reference	-9.67792
▁families	-9.67794
pu	-9.67943
ration	-9.68047
02	-9.68097
▁defend	-9.68138
▁honor	-9.68185
▁situation	-9.68212
▁begin	-9.68213
▁atlanta	-9.68213
▁char	-9.68237
los	-9.68249
▁think	-9.68305
▁argument	-9.68422
▁export	-9.68467
ada	-9.68484
▁protection	-9.68544
▁currently	-9.68574
▁relative	-9.68586
▁zone	-9.68592
▁1998	-9.68666
ola	-9.68721
pped	-9.68838
▁magnitude	-9.68842
▁ion	-9.68928
74	-9.68943
house	-9.68984
▁advanced	-9.69005
set	-9.69035
▁secret	-9.69235
▁shi	-9.69247
▁path	-9.69355
09	-9.69377
▁harm	-9.69414
▁exception	-9.69457
▁poet	-9.69493
iz	-9.69535
▁os	-9.69561
29	-9.69597
▁except	-9.69669
▁communities	-9.69689
ino	-9.697
lit	-9.69704
▁mc	-9.6972
▁angle	-9.69729
tis	-9.69733
izing	-9.69747
▁wi	-9.698
▁portuguese	-9.69802
ire	-9.69871
▁card	-9.69953
▁gen	-9.69966
▁planet	-9.70039
▁values	-9.7016
▁generation	-9.70317
▁critical	-9.70361
▁figure	-9.70404
64	-9.70496
▁colonies	-9.70554
▁phase	-9.70568
▁palace	-9.70569
▁resulted	-9.70574
]]	-9.70576
▁ideas	-9.70638
▁individuals	-9.70737
▁mention	-9.70741
▁competition	-9.70757
ray	-9.70923
▁police	-9.70973
▁spring	-9.71021
ld	-9.71091
▁agriculture	-9.71188
63	-9.71191
▁occurred	-9.71201
▁ended	-9.71257
▁guard	-9.71284
▁makes	-9.71303
▁crown	-9.71312
▁figures	-9.71328
▁gain	-9.71349
▁favor	-9.71364
▁sm	-9.71376
vin	-9.71395
▁atom	-9.71453
▁nasa	-9.71494
ama	-9.715
▁affect	-9.71506
▁entered	-9.7152
▁stand	-9.71522
▁amsterdam	-9.7162
▁clinton	-9.7162
79	-9.71706
▁mentioned	-9.71784
dis	-9.71791
▁supreme	-9.71837
42	-9.72015
67	-9.72044
▁beyond	-9.72055
▁negative	-9.72055
▁freedom	-9.72074
▁hal	-9.72078
▁subsequently	-9.72085
ection	-9.72114
▁comment	-9.72151
▁alberta	-9.72156
▁motion	-9.72167
▁mag	-9.72177
ically	-9.72233
-19	-9.72284
▁stop	-9.72287
▁atoms	-9.72406
▁ice	-9.72474
▁adult	-9.72493
▁opposition	-9.72499
▁formal	-9.72535
▁round	-9.72579
ok	-9.72685
89	-9.72707
▁alphabet	-9.72711
▁analog	-9.72747
▁dig	-9.72778
cit	-9.72808
▁persian	-9.72825
▁consists	-9.72861
26	-9.72896
lip	-9.72922
▁concentration	-9.72929
▁greece	-9.72929
▁contact	-9.72929
▁operating	-9.72955
ably	-9.72969
97	-9.72979
▁hum	-9.73072
▁room	-9.73093
▁suggest	-9.73169
54	-9.73186
pir	-9.73331
jo	-9.73338
▁judge	-9.7337
▁existence	-9.73395
▁applications	-9.73399
▁grant	-9.73448
mate	-9.73487
▁indicate	-9.73639
▁extended	-9.73644
▁augustine	-9.73718
mor	-9.73747
▁territories	-9.73811
▁austin	-9.73813
▁2014	-9.73816
▁distinct	-9.73843
▁publication	-9.73868
▁file	-9.74017
▁botswana	-9.74033
▁distribution	-9.74033
83	-9.74238
▁administrative	-9.74255
▁sister	-9.74314
▁price	-9.74362
ney	-9.74367
lian	-9.74405
▁ty	-9.74429
▁benefit	-9.74478
▁programs	-9.74478
▁variable	-9.74478
▁stay	-9.74492
hood	-9.74596
▁disc	-9.74674
▁belong	-9.74713
▁reach	-9.74729
|19	-9.74737
▁armenian	-9.74768
ane	-9.74813
▁acids	-9.74822
▁dy	-9.74849
▁provides	-9.7487
▁pope	-9.74916
▁domestic	-9.74925
pic	-9.74956
▁perform	-9.74971
▁quickly	-9.75002
▁claims	-9.75042
▁extreme	-9.75069
▁mountains	-9.75084
▁farm	-9.75097
▁prize	-9.75172
▁aclu	-9.75195
▁branch	-9.75196
▁pal	-9.75198
▁2012	-9.75221
▁month	-9.75239
▁spoken	-9.75267
▁deaths	-9.75298
ace	-9.75351
▁medieval	-9.75373
▁scene	-9.75407
▁hot	-9.75418
eu	-9.75451
87	-9.75498
▁reflect	-9.75502
nia	-9.75569
▁del	-9.7559
▁reserve	-9.75599
▁simply	-9.75599
▁giving	-9.756
▁spiritual	-9.75604
▁teams	-9.75629
pre	-9.75695
72	-9.75779
cul	-9.75784
56	-9.75806
▁necessary	-9.75824
▁democratic	-9.75851
▁string	-9.75917
non	-9.75972
ral	-9.75986
▁brand	-9.76121
▁whereas	-9.76136
late	-9.76167
▁sites	-9.76207
▁sport	-9.76227
▁championship	-9.76289
leg	-9.76331
▁debate	-9.76342
wo	-9.76376
▁actor	-9.76394
▁fell	-9.76407
hy	-9.76414
▁atomic	-9.7648
▁spears	-9.76502
06	-9.76543
▁rain	-9.76556
▁request	-9.76557
bs	-9.76563
▁birds	-9.76593
▁|	-9.76604
gt	-9.7661
▁songs	-9.76631
▁amazon	-9.76733
▁digital	-9.76733
▁edition	-9.76733
▁composition	-9.76745
▁1930	-9.76799
▁$1	-9.76867
▁bre	-9.76874
▁eth	-9.76913
hen	-9.76928
▁marked	-9.76931
▁library	-9.76961
▁refused	-9.76961
▁establishment	-9.77019
▁sla	-9.77047
ore	-9.77047
▁regarded	-9.77067
▁byzantine	-9.7719
yan	-9.77261
▁immediately	-9.77292
▁article	-9.7731
int	-9.77329
▁overall	-9.77338
▁starting	-9.77347
mann	-9.77379
now	-9.77426
cher	-9.7746
▁priest	-9.77463
▁sex	-9.77466
▁explain	-9.77516
▁bad	-9.77529
▁greatest	-9.77551
▁purpose	-9.77551
ong	-9.77611
▁efforts	-9.77613
ford	-9.77615
▁pl	-9.77643
▁aid	-9.77663
▁serious	-9.77665
▁bit	-9.77745
oli	-9.77752
▁mel	-9.77755
▁agreed	-9.77838
▁look	-9.77848
▁executive	-9.77879
▁translation	-9.7788
▁disorder	-9.77894
▁officially	-9.78024
▁iv	-9.78035
▁orthodox	-9.7811
▁leaving	-9.78111
▁jackson	-9.78128
dd	-9.78158
gro	-9.78167
▁ste	-9.78172
▁asked	-9.78201
til	-9.78263
ula	-9.78264
ement	-9.7829
▁creation	-9.78294
▁sar	-9.78301
▁containing	-9.78337
▁vowel	-9.78343
▁fra	-9.78442
▁za	-9.78448
▁ruler	-9.78471
mm	-9.78539
▁continue	-9.78587
bre	-9.78593
▁parties	-9.78618
ency	-9.78692
▁device	-9.78752
▁tru	-9.78762
▁management	-9.78806
▁task	-9.78845
▁bond	-9.78864
";	-9.7895
▁dynasty	-9.79039
▁sequence	-9.79039
▁quarter	-9.7904
▁solid	-9.79045
▁context	-9.79053
84	-9.79074
▁1996	-9.79078
▁pur	-9.79143
bro	-9.7916
▁bible	-9.7916
▁told	-9.79182
▁enter	-9.79192
▁actually	-9.79218
ctor	-9.79219
▁connect	-9.79241
▁description	-9.79273
▁joint	-9.79295
▁stock	-9.79313
▁proper	-9.79318
41	-9.7934
▁frequently	-9.79394
▁opposed	-9.79542
▁presented	-9.79543
▁oldest	-9.79604
▁neo	-9.79719
▁candidate	-9.79742
71	-9.79818
92	-9.79926
▁principle	-9.79967
23	-9.79983
▁shift	-9.79991
▁martin	-9.80019
▁accept	-9.80072
▁hero	-9.8013
▁subsequent	-9.80181
▁agricultural	-9.80213
▁spacecraft	-9.80221
▁glass	-9.80284
▁opera	-9.80302
▁equipment	-9.8045
board	-9.80467
▁counter	-9.80473
right	-9.80499
top	-9.80515
▁bce	-9.80548
▁ordered	-9.80617
▁kh	-9.80683
▁fully	-9.80728
but	-9.80773
▁tell	-9.80792
▁plays	-9.80822
lor	-9.80825
▁inside	-9.80886
▁studio	-9.80924
▁factor	-9.80996
▁anal	-9.8107
▁fine	-9.8112
era	-9.8116
▁[[	-9.81172
ges	-9.81172
▁severe	-9.81178
▁importance	-9.8118
▁bat	-9.81294
▁walk	-9.81299
▁attacks	-9.81328
uk	-9.81331
▁growing	-9.81336
▁models	-9.81349
ttle	-9.81375
▁planned	-9.81418
▁unique	-9.81436
▁expressed	-9.81449
▁steel	-9.81454
▁income	-9.81463
cho	-9.81499
▁mind	-9.8161
▁document	-9.81662
▁hop	-9.81699
▁shell	-9.81757
81	-9.81891
▁leaders	-9.82077
73	-9.82094
▁nuclear	-9.8212
▁rival	-9.82143
[	-9.8216
▁val	-9.82217
▁showed	-9.82234
▁expected	-9.82251
▁setting	-9.8228
▁producer	-9.82293
93	-9.82327
▁devices	-9.82419
▁decades	-9.82432
ants	-9.82438
▁refers	-9.82489
ans	-9.82551
bol	-9.82602
▁michael	-9.82603
uff	-9.82606
52	-9.82618
▁portion	-9.82675
isation	-9.82781
▁brussels	-9.82845
▁scientists	-9.82845
▁big	-9.82885
▁vehicles	-9.82941
▁ali	-9.82959
▁drug	-9.82964
vid	-9.83
▁attract	-9.8306
▁conference	-9.83088
▁channel	-9.83088
bul	-9.83177
gor	-9.83256
born	-9.83367
sha	-9.83384
▁fuel	-9.83427
▁cat	-9.83449
▁foot	-9.83555
▁advantage	-9.83575
▁aristotle	-9.83575
▁resources	-9.83575
▁alfred	-9.83575
▁sand	-9.83578
▁frank	-9.8358
ble	-9.83634
▁seem	-9.83748
▁scotland	-9.83819
▁things	-9.83851
▁transfer	-9.83856
▁31	-9.83939
vel	-9.83979
▁holy	-9.84018
sp	-9.84019
▁aramaic	-9.84064
▁picture	-9.84065
▁republican	-9.84081
new	-9.84172
▁dark	-9.84376
°	-9.8439
bil	-9.84463
▁supply	-9.84556
tell	-9.84564
▁helped	-9.84567
▁say	-9.8464
▁fear	-9.84702
▁gal	-9.8471
▁successor	-9.84714
▁structures	-9.84743
▁fri	-9.84768
▁plate	-9.84839
43	-9.8484
▁write	-9.84855
▁powerful	-9.84904
▁elections	-9.84911
▁afghan	-9.84917
bal	-9.84949
▁ham	-9.84991
▁difference	-9.85006
ku	-9.85013
▁completely	-9.85025
▁baptist	-9.85051
▁alliance	-9.85052
▁hy	-9.85061
▁electronic	-9.85113
▁lm	-9.85124
▁operate	-9.85124
▁allows	-9.85137
▁connected	-9.85184
ath	-9.85213
▁threat	-9.85259
▁screen	-9.85296
▁politics	-9.85299
▁census	-9.85299
law	-9.85348
▁arrived	-9.85398
ode	-9.85519
lar	-9.85525
▁experiment	-9.85532
▁solar	-9.85615
nk	-9.85643
▁cold	-9.85668
such	-9.85735
▁sir	-9.85759
▁significantly	-9.85835
▁tele	-9.85937
▁equivalent	-9.85954
▁instruments	-9.86004
tical	-9.86008
▁aberdeen	-9.86047
▁institutions	-9.86061
▁grew	-9.86109
▁duke	-9.86131
▁airlines	-9.86168
69	-9.8631
tech	-9.86317
▁1997	-9.86337
bon	-9.86342
▁awards	-9.86358
31	-9.86381
are	-9.86429
lf	-9.86537
▁soul	-9.86561
46	-9.86629
▁1920	-9.8663
eo	-9.86641
▁removed	-9.86707
53	-9.86775
▁recently	-9.86799
▁attention	-9.86801
▁moving	-9.86806
▁29	-9.86858
82	-9.86952
amine	-9.86967
▁humans	-9.87032
▁layer	-9.87032
▁joseph	-9.87053
▁silver	-9.8708
sign	-9.87094
▁peak	-9.87102
rant	-9.87106
▁eva	-9.87107
ita	-9.87114
▁differences	-9.87118
▁follow	-9.87131
▁closed	-9.87159
91	-9.87226
▁build	-9.87273
59	-9.8729
▁mathematical	-9.87307
▁newspaper	-9.87307
▁defence	-9.87307
▁justice	-9.8734
▁recognized	-9.87379
ida	-9.87387
▁islam	-9.87409
▁writer	-9.87468
▁quality	-9.8758
▁1994	-9.87592
▁blues	-9.87594
▁andrew	-9.87595
▁hydro	-9.87614
▁fleet	-9.8769
▁han	-9.87714
▁wanted	-9.87726
▁salt	-9.87737
ets	-9.87764
▁directed	-9.87793
▁universal	-9.87815
▁survey	-9.87815
ware	-9.87825
▁occurs	-9.87902
▁normal	-9.87927
▁determined	-9.87968
▁pin	-9.88063
▁buddhist	-9.8807
▁surrounding	-9.8807
▁expanded	-9.88218
▁plain	-9.88229
▁artist	-9.88299
▁follows	-9.88308
ami	-9.88316
▁stories	-9.88336
▁naval	-9.88373
-2	-9.88476
▁attempted	-9.88477
▁tree	-9.88521
▁toward	-9.88529
▁describe	-9.88562
▁aluminium	-9.88582
▁substance	-9.88582
cia	-9.88605
▁map	-9.88623
▁desire	-9.88627
▁relation	-9.88675
▁playing	-9.88733
pha	-9.88801
▁variant	-9.88841
▁amiga	-9.88842
▁awarded	-9.88851
▁combat	-9.88853
istan	-9.88905
▁phone	-9.88927
lam	-9.89042
▁versions	-9.89074
hr	-9.89088
▁sought	-9.89097
▁liberal	-9.891
▁2.	-9.89102
▁fat	-9.89118
ball	-9.89124
▁saying	-9.89155
▁mary	-9.89212
▁asteroid	-9.89356
▁visual	-9.89357
cell	-9.89388
–20	-9.89416
▁slow	-9.89417
▁citizens	-9.89419
▁meant	-9.89469
vision	-9.89469
▁tre	-9.89471
▁mil	-9.89493
▁manuscript	-9.89614
▁crime	-9.89619
▁colour	-9.89624
▁ideal	-9.89676
▁shot	-9.89712
lay	-9.89723
dom	-9.89742
▁assist	-9.89763
▁captured	-9.89865
▁absolute	-9.89874
▁kept	-9.89897
▁winning	-9.89901
▁tank	-9.89914
▁rare	-9.89933
run	-9.89949
known	-9.8998
▁belief	-9.9
▁seat	-9.90032
▁closely	-9.90039
▁gained	-9.90069
rie	-9.90082
chan	-9.90128
▁alkali	-9.90155
▁die	-9.90161
ologist	-9.90202
▁join	-9.90248
▁says	-9.90279
▁differ	-9.90323
▁technical	-9.90396
$	-9.90403
bus	-9.90419
▁minutes	-9.90426
east	-9.90449
▁computers	-9.90451
gram	-9.90495
▁mac	-9.90518
ome	-9.9053
point	-9.90545
▁fit	-9.90584
▁proved	-9.90586
position	-9.90675
▁1991	-9.90693
▁electric	-9.9079
▁rank	-9.90857
▁featured	-9.90867
▁worldwide	-9.9092
▁ireland	-9.90921
▁astronauts	-9.90943
▁unknown	-9.90982
▁cycle	-9.90994
▁extend	-9.9112
▁tried	-9.91141
▁inspired	-9.91183
▁factors	-9.91196
▁mineral	-9.91197
▁gar	-9.91243
pen	-9.91279
hon	-9.91326
▁workers	-9.91345
▁metals	-9.91394
▁respect	-9.91399
▁perhaps	-9.91447
▁axiom	-9.91466
eus	-9.91467
▁myth	-9.91535
rom	-9.91629
▁studied	-9.91711
▁ammonia	-9.91712
▁athena	-9.91735
▁split	-9.91739
8%	-9.91802
long	-9.91921
▁error	-9.91977
▁sil	-9.92002
anti	-9.92014
range	-9.92072
▁gre	-9.92131
▁let	-9.9221
▁universe	-9.92243
▁escape	-9.92245
ken	-9.92286
▁bal	-9.92331
had	-9.92386
del	-9.92427
▁notably	-9.92453
▁sy	-9.92481
▁dedicated	-9.92509
▁spec	-9.92539
▁angola	-9.92555
▁sam	-9.92577
▁succession	-9.92723
▁bro	-9.92754
▁parallel	-9.92777
▁statue	-9.92781
▁investment	-9.92818
▁fast	-9.92825
▁extra	-9.92831
▁orbital	-9.92867
▁feed	-9.93031
▁typical	-9.93045
▁proportion	-9.93045
▁hebrew	-9.93045
▁interpretation	-9.93047
▁running	-9.93085
▁express	-9.93088
▁epi	-9.93091
▁failure	-9.9332
▁bone	-9.93364
▁pure	-9.93388
type	-9.93489
▁expression	-9.9352
▁consul	-9.93571
▁fighting	-9.93572
▁plane	-9.93641
mod	-9.93729
▁raised	-9.93781
▁damage	-9.93804
▁add	-9.93807
▁mechanism	-9.93853
▁weeks	-9.93854
▁student	-9.93865
▁takes	-9.93963
mus	-9.93965
ata	-9.94082
▁score	-9.94094
▁champion	-9.94111
▁einstein	-9.94125
61	-9.94126
▁firm	-9.9414
▁assyrian	-9.943
▁possibly	-9.94307
▁sim	-9.94345
▁train	-9.94349
qaeda	-9.94402
▁secondary	-9.94403
▁missile	-9.94428
▁suggests	-9.94442
▁soil	-9.94515
94	-9.94586
count	-9.94642
▁pop	-9.94661
▁acts	-9.94707
▁effort	-9.94712
▁specifically	-9.94718
▁react	-9.94737
ura	-9.94747
water	-9.94765
ini	-9.94813
▁etc	-9.94825
▁austrian	-9.94868
ux	-9.94887
lie	-9.94892
cious	-9.94936
▁conservative	-9.94942
▁alabama	-9.94942
▁texas	-9.94942
▁recording	-9.94964
▁increasingly	-9.95028
och	-9.95049
▁employ	-9.95121
rite	-9.95132
▁+	-9.95148
zer	-9.95214
▁behavior	-9.95216
▁legend	-9.9523
▁audience	-9.95244
▁ill	-9.95268
▁pu	-9.95465
▁thr	-9.95472
▁fan	-9.95488
▁influential	-9.95491
▁bronx	-9.95491
▁goddess	-9.95492
▁1995	-9.95541
05	-9.95642
▁canadian	-9.95696
▁khan	-9.95713
▁sales	-9.95741
▁ashoka	-9.95768
▁interview	-9.95777
▁throne	-9.95783
▁austria	-9.95801
▁gives	-9.95901
nova	-9.95979
▁worship	-9.96042
▁bodies	-9.96044
▁capacity	-9.96046
ram	-9.9613
mis	-9.96159
ographic	-9.96194
▁tv	-9.96237
▁import	-9.96297
ii	-9.96316
▁arkansas	-9.96319
▁favour	-9.96319
▁emb	-9.9634
▁fight	-9.96346
57	-9.96404
▁comes	-9.96427
liber	-9.96432
▁tribes	-9.96508
▁vo	-9.96559
▁belgium	-9.96597
▁indigenous	-9.96597
▁extensive	-9.96606
▁notes	-9.96607
pla	-9.96695
rm	-9.96709
!	-9.9686
▁pakistan	-9.96876
▁writings	-9.96924
▁ruled	-9.96937
▁mixed	-9.96938
▁sto	-9.96944
▁powers	-9.96961
▁environmental	-9.96966
▁opening	-9.96976
▁marine	-9.97017
script	-9.97063
▁des	-9.97142
▁suit	-9.97151
▁corporation	-9.97155
▁abortion	-9.97155
▁destroyed	-9.97171
▁folk	-9.97174
▁basin	-9.97289
▁aphrodite	-9.973
▁60	-9.97314
▁store	-9.97358
ough	-9.97378
▁expedition	-9.97435
▁invasion	-9.97436
▁brown	-9.97442
▁conducted	-9.97443
nne	-9.97496
▁electro	-9.9751
dal	-9.97665
▁dog	-9.9767
▁herzegovina	-9.97716
▁literary	-9.97716
▁anchor	-9.97726
▁shortly	-9.97729
▁switch	-9.97731
▁1992	-9.97757
▁rh	-9.97867
▁alone	-9.97961
▁tan	-9.97987
▁gdp	-9.98002
▁movie	-9.98002
▁colonial	-9.9801
▁issued	-9.98027
▁wing	-9.98034
▁1993	-9.98038
▁ran	-9.98056
▁discovery	-9.98084
▁visited	-9.98155
▁(1	-9.98156
▁obtained	-9.98183
▁hindu	-9.98268
▁labour	-9.98281
▁descent	-9.98296
–1	-9.9845
▁genetic	-9.98654
from	-9.98696
ala	-9.98752
▁traditionally	-9.98762
▁leave	-9.98764
▁causes	-9.98774
▁artillery	-9.98847
▁assault	-9.98847
▁netherlands	-9.98847
▁procedure	-9.98847
▁loyal	-9.9885
ude	-9.98873
▁syria	-9.98873
▁search	-9.98886
via	-9.9894
put	-9.98945
▁settled	-9.98964
▁abba	-9.98981
03	-9.99035
▁pla	-9.99077
▁something	-9.99153
▁output	-9.99192
▁skin	-9.99247
▁equation	-9.99253
▁stable	-9.99279
_3	-9.99352
▁dispute	-9.99356
▁ways	-9.99403
▁mathematics	-9.99418
▁inscription	-9.99425
▁skill	-9.99453
▁historically	-9.99465
nc	-9.995
wan	-9.99503
▁format	-9.99516
▁colony	-9.99535
▁send	-9.99547
ose	-9.99662
▁introduction	-9.99705
▁franklin	-9.99724
▁criticism	-9.99736
▁algebraic	-9.99759
▁covered	-9.99809
▁spin	-9.99823
▁christianity	-9.99901
|20	-9.99949
▁application	-9.99953
▁golden	-9.99976
▁destroy	-9.99976
▁spirit	-9.99986
▁anxiety	-9.99992
▁doctrine	-9.99992
▁intelligence	-9.99992
▁message	-9.99992
▁compris	-9.99994
▁cancer	-10.0001
▁columbia	-10.0003
▁slavery	-10.0004
▁protestant	-10.0004
▁flu	-10.0013
▁converted	-10.0016
▁challenge	-10.0022
▁core	-10.0026
▁artemis	-10.0028
▁leadership	-10.003
▁correct	-10.0032
▁stress	-10.0032
called	-10.0033
vol	-10.0035
▁reading	-10.0051
▁rose	-10.0051
▁plea	-10.0053
▁adelaide	-10.0057
▁felt	-10.0061
term	-10.0062
▁strength	-10.0071
▁standards	-10.0078
quite	-10.008
▁spa	-10.0083
▁paid	-10.0083
▁permanent	-10.0086
▁senate	-10.0095
national	-10.0097
▁meet	-10.0098
▁fellow	-10.0099
▁partner	-10.0104
▁entirely	-10.0105
▁tun	-10.0105
▁useful	-10.0109
▁progress	-10.011
▁succeeded	-10.0111
ç	-10.0115
▁boron	-10.0115
▁taught	-10.0116
▁note	-10.0119
arm	-10.013
▁shared	-10.0131
▁similarly	-10.0131
▁slaves	-10.0134
▁dry	-10.0135
▁ter	-10.0135
▁conduct	-10.0144
▁passenger	-10.0144
▁yield	-10.0144
▁sultan	-10.0145
▁developing	-10.0151
▁pitch	-10.0154
▁traditions	-10.016
amb	-10.0165
oon	-10.0169
▁trace	-10.0171
▁professor	-10.0173
▁brunei	-10.0174
▁turkey	-10.0174
▁popularity	-10.0174
08	-10.019
▁easily	-10.0203
▁slightly	-10.0203
▁external	-10.0203
▁concert	-10.0203
part	-10.0207
wood	-10.0215
▁user	-10.0217
▁teacher	-10.0223
▁academic	-10.0225
▁mediterranean	-10.0232
▁revenue	-10.0232
▁instrument	-10.0233
rel	-10.0235
lex	-10.0237
▁singer	-10.0241
▁2,	-10.0247
▁bru	-10.0252
▁disraeli	-10.0262
▁premier	-10.0262
▁fifth	-10.0262
▁ajax	-10.0262
ano	-10.0264
▁southeast	-10.0266
ped	-10.0267
▁sho	-10.0272
▁2021	-10.0272
▁bound	-10.0274
where	-10.0275
▁dar	-10.0289
ille	-10.0289
▁fiction	-10.0291
▁background	-10.0291
ress	-10.0294
▁safe	-10.0299
▁strip	-10.0301
▁representation	-10.0301
▁chart	-10.0309
▁positions	-10.031
▁creating	-10.0325
▁mobile	-10.0344
▁desert	-10.0353
other	-10.0357
▁nearby	-10.0357
▁instruction	-10.0362
cra	-10.0367
▁km	-10.0376
▁photograph	-10.0381
▁edward	-10.0384
▁understanding	-10.0386
▁slave	-10.0393
lock	-10.0397
morph	-10.0397
▁hol	-10.04
cut	-10.0401
▁ministry	-10.041
▁providing	-10.041
shi	-10.0411
▁philip	-10.0412
▁lands	-10.0421
▁mill	-10.0423
▁architect	-10.0439
▁heritage	-10.044
▁daily	-10.0441
▁conquest	-10.0443
▁amino	-10.0445
▁runner	-10.0445
▁rejected	-10.0448
▁components	-10.045
▁achieved	-10.045
▁controlled	-10.0452
comm	-10.0452
▁authors	-10.0457
gene	-10.0459
▁usage	-10.0466
▁temperatures	-10.0469
dan	-10.0469
▁episode	-10.0471
▁causing	-10.0471
▁cool	-10.0472
▁1969	-10.0475
▁views	-10.0483
▁births	-10.0484
▁technique	-10.0485
▁tea	-10.0499
▁inhabitants	-10.0501
▁fixed	-10.0501
▁speak	-10.0509
▁monarch	-10.051
▁swa	-10.0511
▁electrons	-10.0517
ó	-10.0525
▁est	-10.0528
▁acquired	-10.0531
▁heavily	-10.0531
▁traffic	-10.0531
▁manager	-10.0531
▁hardware	-10.0532
▁linear	-10.0535
▁amphi	-10.0535
▁carry	-10.0537
tric	-10.0541
▁tourism	-10.0542
▁engineer	-10.0543
▁got	-10.0545
▁friends	-10.0546
▁lay	-10.0553
▁producing	-10.0557
▁liquid	-10.0562
▁plans	-10.0562
▁pilot	-10.0563
▁journal	-10.0567
shire	-10.0567
tern	-10.0569
▁historians	-10.0572
▁canon	-10.0576
thus	-10.0578
found	-10.0583
▁stadium	-10.0592
▁crystal	-10.0592
▁measure	-10.0602
place	-10.0602
▁monk	-10.0602
iff	-10.0605
▁batter	-10.0607
space	-10.0611
aga	-10.0614
ré	-10.0616
▁albania	-10.0621
▁consonant	-10.0623
▁pacific	-10.0623
▁tourist	-10.0635
▁sciences	-10.0638
hand	-10.0638
▁sky	-10.065
▁proceed	-10.0653
ole	-10.0654
▁indicat	-10.0654
▁classification	-10.0656
▁sets	-10.0659
▁transition	-10.066
▁statistics	-10.0671
▁deposit	-10.0672
▁dialect	-10.0676
rated	-10.0683
▁fundamental	-10.0684
▁jesus	-10.0685
▁garden	-10.0686
▁continuous	-10.0686
▁fields	-10.0694
▁programming	-10.0701
_2	-10.0702
▁engineering	-10.0708
hor	-10.071
▁programme	-10.0713
▁improved	-10.0718
▁concluded	-10.0729
▁y	-10.0732
ties	-10.074
▁virgin	-10.0745
▁montgomery	-10.0746
▁platform	-10.0746
▁sufficient	-10.0746
▁substantial	-10.0746
▁husband	-10.0746
var	-10.0754
▁kill	-10.0755
▁reports	-10.0767
2.	-10.0767
▁tim	-10.0767
▁page	-10.0768
▁holding	-10.0772
mun	-10.0773
▁prison	-10.0775
lands	-10.0779
sch	-10.0781
▁rapid	-10.0782
▁existing	-10.0784
▁dialects	-10.0785
room	-10.0786
▁critics	-10.079
▁trees	-10.079
▁gi	-10.0792
▁determine	-10.0796
▁crop	-10.0799
▁listed	-10.0807
▁legacy	-10.0808
▁ultimately	-10.0808
▁zero	-10.0813
▁asian	-10.0816
vent	-10.0819
▁mad	-10.0821
▁users	-10.0837
▁bangladesh	-10.0839
▁cuisine	-10.0839
▁mexico	-10.0839
▁polish	-10.0839
▁employed	-10.0844
stein	-10.0844
▁raid	-10.0845
▁ratio	-10.0845
▁chemistry	-10.0848
mir	-10.0853
▁2012,	-10.0868
▁weapons	-10.087
▁abstract	-10.0871
▁practical	-10.0871
pol	-10.0871
▁historic	-10.0872
rahman	-10.0877
▁snow	-10.0879
▁flat	-10.0882
▁bow	-10.0884
▁consistent	-10.0884
▁alter	-10.0894
▁flower	-10.0899
▁actions	-10.09
▁circuit	-10.0902
▁identify	-10.0902
▁bavaria	-10.0903
rad	-10.0905
▁contained	-10.0907
▁augustus	-10.0909
▁reli	-10.0918
▁granted	-10.0926
▁net	-10.093
▁facilities	-10.0934
▁internet	-10.0937
▁1972	-10.0938
fr	-10.0939
▁plot	-10.0939
▁grow	-10.0949
▁improve	-10.0957
▁continental	-10.0957
cap	-10.0959
▁particles	-10.096
tim	-10.0963
▁luc	-10.0964
volving	-10.0965
sum	-10.0966
▁runs	-10.0967
▁essential	-10.097
▁apparent	-10.097
▁poll	-10.0975
▁organized	-10.0976
▁chosen	-10.098
▁highway	-10.0982
rn	-10.0984
2"	-10.0984
▁belarus	-10.0988
▁amd	-10.0994
▁scott	-10.0998
▁finding	-10.1001
▁1989	-10.1002
▁1940	-10.1006
ade	-10.1007
▁organizations	-10.101
▁projects	-10.1011
▁describes	-10.102
▁2021,	-10.1024
▁80	-10.1026
▁2014,	-10.1034
mid	-10.1039
onym	-10.104
its	-10.1049
▁transportation	-10.1052
▁pain	-10.1053
gate	-10.1056
▁label	-10.1058
▁dam	-10.106
▁uniform	-10.1061
▁personnel	-10.1061
ette	-10.1067
titut	-10.1071
metric	-10.109
▁advertising	-10.1093
▁nevertheless	-10.1093
▁eye	-10.1095
▁advis	-10.11
▁barb	-10.1101
▁plus	-10.1106
▁affected	-10.1116
▁seems	-10.1124
▁residents	-10.1125
▁scottish	-10.1128
▁medium	-10.1128
▁constructed	-10.113
wn	-10.1138
ising	-10.1152
▁widespread	-10.1157
▁guitar	-10.1158
▁arms	-10.1161
▁mount	-10.1167
ancy	-10.1185
▁moment	-10.1185
▁criminal	-10.119
▁perfect	-10.1191
▁secure	-10.1193
▁experiments	-10.1195
lio	-10.1199
bed	-10.1204
▁drugs	-10.1208
▁q	-10.1208
▁arc	-10.1211
tha	-10.1212
▁newly	-10.1213
▁kings	-10.1216
▁vast	-10.1222
▁hands	-10.1223
down	-10.1227
elect	-10.1228
▁warm	-10.123
▁scholar	-10.1234
▁assert	-10.1235
toxic	-10.1237
▁thousands	-10.1242
▁dio	-10.1247
▁protest	-10.1252
▁arsenic	-10.1255
▁selected	-10.1256
his	-10.1259
▁ranked	-10.1263
▁cook	-10.1264
glo	-10.1267
ali	-10.1268
▁communication	-10.1269
▁manufacturer	-10.127
▁attributed	-10.1274
▁ainu	-10.1276
▁towns	-10.1279
▁reasons	-10.1282
▁broke	-10.1285
▁alp	-10.1286
▁bermuda	-10.1287
▁muhammad	-10.1287
▁passage	-10.1294
▁option	-10.1294
logical	-10.1317
▁fragment	-10.132
▁fossil	-10.132
.5%	-10.1322
▁32	-10.1324
lum	-10.1325
▁1974	-10.1325
trans	-10.1329
▁sat	-10.1343
▁adam	-10.1348
▁cent	-10.135
▁practices	-10.1353
▁interior	-10.1353
▁strike	-10.1353
▁airline	-10.1357
▁flag	-10.136
▁attempts	-10.1363
round	-10.137
▁breed	-10.1375
▁classic	-10.1375
power	-10.1379
▁occasion	-10.1384
▁define	-10.1385
▁frequency	-10.1386
▁incident	-10.1386
kan	-10.1399
▁photo	-10.1401
▁rail	-10.1402
▁vary	-10.1403
▁invest	-10.1404
▁sample	-10.1406
rich	-10.141
▁height	-10.1412
▁extent	-10.1419
▁braille	-10.142
▁bulgarian	-10.1425
▁mari	-10.1426
▁processes	-10.143
inter	-10.1441
pass	-10.1443
including	-10.1446
▁resid	-10.1449
▁identity	-10.1452
▁wear	-10.1453
▁household	-10.1459
▁valid	-10.1463
▁euro	-10.1472
▁draw	-10.148
▁separated	-10.1482
▁crowley	-10.1486
▁extension	-10.1486
▁composer	-10.1486
▁watch	-10.1486
▁learning	-10.1488
▁box	-10.1497
5,000	-10.1505
▁decade	-10.1516
▁scr	-10.1519
▁save	-10.152
lm	-10.1528
roll	-10.1528
▁roughly	-10.1529
ute	-10.1539
▁ep	-10.1539
▁experienced	-10.154
vert	-10.1544
die	-10.1545
▁philosophers	-10.1551
▁additionally	-10.1551
▁sculpture	-10.1553
▁nazi	-10.1554
▁interface	-10.1554
phone	-10.1554
▁researchers	-10.1557
etic	-10.1558
▁capable	-10.1562
▁bull	-10.1564
hra	-10.1571
▁bright	-10.1573
▁wales	-10.1575
▁olympic	-10.1586
▁chamber	-10.1586
▁gather	-10.1587
aceae	-10.1589
▁abc	-10.1591
▁measurement	-10.1592
▁theories	-10.1592
▁1968	-10.1592
▁provinces	-10.1593
▁warhol	-10.1593
▁tar	-10.1593
pr	-10.1595
▁noble	-10.1597
uz	-10.1598
▁hundred	-10.1614
sky	-10.1615
▁sel	-10.1615
▁promote	-10.162
▁synthesis	-10.162
▁alleged	-10.162
▁superior	-10.162
▁boston	-10.1621
▁disk	-10.1621
▁maximum	-10.1622
▁cro	-10.1623
▁christians	-10.1628
▁younger	-10.1628
▁speakers	-10.163
▁comic	-10.1633
▁exhibit	-10.1633
▁ago	-10.164
▁affairs	-10.1641
▁occupied	-10.1642
▁sons	-10.1644
▁campus	-10.1645
mut	-10.1646
dent	-10.1652
▁twenty	-10.1654
▁violence	-10.1654
▁secretary	-10.1659
who	-10.166
▁maintained	-10.1662
▁attend	-10.1666
hom	-10.1668
▁angeles	-10.1672
▁forward	-10.1683
▁functional	-10.1684
▁mont	-10.1686
▁craft	-10.1688
▁monument	-10.1688
▁authorities	-10.1694
▁web	-10.1695
▁doctor	-10.1696
▁rates	-10.1697
▁suffered	-10.1706
▁founder	-10.1708
pur	-10.1709
▁designated	-10.1712
grad	-10.1715
▁institution	-10.172
▁vessel	-10.1722
▁agassi	-10.1722
▁(),	-10.1729
▁considerable	-10.1731
dict	-10.174
▁tower	-10.174
style	-10.1742
▁guns	-10.1743
▁boat	-10.1754
▁alfonso	-10.1756
▁strategy	-10.1756
▁fruit	-10.1756
▁copper	-10.1757
▁yu	-10.1757
▁parents	-10.1759
▁nothing	-10.176
▁managed	-10.176
▁sk	-10.1764
▁angel	-10.1781
▁rec	-10.1783
speaking	-10.1789
▁bolivia	-10.1791
also	-10.1791
▁density	-10.1791
town	-10.1795
▁contest	-10.1795
ogen	-10.1798
▁beer	-10.1799
west	-10.18
▁radical	-10.1813
western	-10.1817
play	-10.182
ett	-10.1823
▁bluetooth	-10.1825
▁opponent	-10.1825
▁200	-10.1825
▁georgia	-10.1826
▁allied	-10.1829
▁1984	-10.183
▁pet	-10.1844
lim	-10.1845
kes	-10.1848
▁von	-10.1849
▁gates	-10.1854
band	-10.1855
▁temp	-10.1856
▁rivers	-10.1858
▁vietnam	-10.186
▁ānanda	-10.186
▁column	-10.186
▁burkina	-10.186
▁revolt	-10.186
▁confirmed	-10.186
active	-10.186
gal	-10.1861
name	-10.1861
▁patent	-10.1865
▁1977	-10.1866
stone	-10.1868
bia	-10.1875
2)	-10.188
▁dan	-10.1885
▁dominant	-10.1895
▁online	-10.1895
▁agency	-10.1895
▁organisation	-10.1896
▁gulf	-10.1897
▁revealed	-10.1897
▁mere	-10.1907
pon	-10.1918
▁articles	-10.1918
▁collect	-10.1919
▁going	-10.1924
▁rap	-10.1924
▁treated	-10.1924
bla	-10.1925
▁chicago	-10.1929
▁irish	-10.193
▁ibm	-10.193
▁theorem	-10.1934
▁electrical	-10.1934
▁1971	-10.1935
▁hence	-10.1936
▁alongside	-10.1936
▁seats	-10.1937
▁lev	-10.1938
▁logic	-10.1941
char	-10.1952
▁northwest	-10.1961
vari	-10.1963
▁confederate	-10.1964
▁neither	-10.1964
▁physics	-10.1964
▁fought	-10.1964
▁infection	-10.1965
▁push	-10.1968
▁pattern	-10.1972
▁prepared	-10.1976
▁actual	-10.1977
▁continent	-10.1979
▁greatly	-10.198
▁treat	-10.199
cker	-10.1997
▁universities	-10.2
▁editor	-10.2
▁constitute	-10.2
bahá	-10.2
language	-10.2001
▁officers	-10.2003
free	-10.2005
▁1975	-10.2008
▁strongly	-10.201
▁sole	-10.2015
▁rad	-10.2016
▁hor	-10.2018
▁constitutional	-10.202
member	-10.2022
▁hitchcock	-10.2035
▁schwarzenegger	-10.2035
▁investigation	-10.2035
▁opinion	-10.2035
▁domain	-10.2035
▁array	-10.2038
▁christie	-10.2039
▁intention	-10.2041
ón	-10.2042
▁medal	-10.2044
ili	-10.205
▁bass	-10.2054
▁drag	-10.2062
▁branches	-10.2063
▁cars	-10.2063
wh	-10.2064
onia	-10.2064
▁crisis	-10.207
▁bengal	-10.2072
▁stations	-10.2072
▁infantry	-10.2072
▁500	-10.2076
▁1986	-10.2077
▁youth	-10.2083
lab	-10.2085
▁operated	-10.2089
yo	-10.2092
▁check	-10.2093
lem	-10.2096
▁algebra	-10.2099
▁approved	-10.2106
▁circle	-10.2106
▁philosophical	-10.2106
zar	-10.2107
▁interaction	-10.2107
▁kabul	-10.2108
▁binary	-10.2108
atory	-10.2112
▁emerged	-10.2115
ew	-10.2123
▁phil	-10.2124
▁contributed	-10.2129
▁descend	-10.214
pat	-10.2141
▁understood	-10.2141
▁otherwise	-10.2141
▁chapter	-10.2141
▁belize	-10.2141
▁anne	-10.2146
▁onto	-10.2146
polis	-10.2147
▁coming	-10.2148
mos	-10.215
▁obtain	-10.2153
▁possess	-10.2154
▁charged	-10.2159
▁70	-10.2168
▁wish	-10.2169
▁tomb	-10.2175
▁phrase	-10.2177
ira	-10.2178
▁amber	-10.2182
▁ensure	-10.2184
▁profit	-10.219
▁classes	-10.2196
aged	-10.2204
illa	-10.2204
direct	-10.2208
▁et	-10.2209
▁walls	-10.221
▁lee	-10.2213
▁modified	-10.2213
▁enemy	-10.2213
▁narrow	-10.2213
▁1985	-10.2219
▁presidential	-10.2226
▁adapted	-10.2228
▁lowest	-10.2229
–18	-10.223
▁transform	-10.2231
▁pack	-10.2233
▁der	-10.2234
rin	-10.2238
▁acting	-10.2239
▁gui	-10.2243
▁ann	-10.2246
▁want	-10.2247
▁caribbean	-10.2249
▁intellectual	-10.2249
▁portugal	-10.2249
cht	-10.225
▁decline	-10.225
▁capture	-10.2252
▁muslims	-10.2257
sim	-10.226
▁deliver	-10.2262
▁allies	-10.2267
9"	-10.2277
▁input	-10.2279
hop	-10.2283
▁carnegie	-10.2285
▁varieties	-10.2285
▁specimen	-10.2285
▁prayer	-10.2285
▁wallace	-10.2286
▁sentence	-10.2292
▁couple	-10.2297
▁py	-10.2303
post	-10.2304
rum	-10.2313
▁pot	-10.2321
▁girl	-10.2321
▁somewhat	-10.2326
▁orange	-10.2326
▁cult	-10.233
▁aol	-10.2331
dar	-10.2332
▁beat	-10.2334
▁gods	-10.2339
ella	-10.2342
▁processor	-10.2348
▁35	-10.2354
▁peninsula	-10.2357
▁conventional	-10.2359
800	-10.236
▁classified	-10.2362
▁unable	-10.2367
▁supporting	-10.2368
more	-10.2376
▁resolution	-10.2378
▁atmosphere	-10.2394
▁infrastructure	-10.2394
▁twelve	-10.2394
▁aspects	-10.2395
▁anthem	-10.2396
8"	-10.2397
▁1988	-10.24
▁vice	-10.2403
▁maria	-10.2413
▁drop	-10.2414
▁ken	-10.2415
▁component	-10.2419
▁wal	-10.2422
▁victoria	-10.2425
▁buffalo	-10.2429
▁prop	-10.243
▁advocate	-10.243
▁deco	-10.2436
zy	-10.2437
▁frame	-10.2439
▁selection	-10.2439
▁houses	-10.2443
▁roll	-10.2453
▁adaptation	-10.2454
300	-10.2458
▁stream	-10.246
some	-10.2461
3"	-10.2462
▁requires	-10.2465
1,	-10.2466
▁turkish	-10.2467
▁telephone	-10.2468
▁mol	-10.2468
▁talk	-10.2472
▁dates	-10.2488
▁edge	-10.2498
▁aspirin	-10.2502
▁ages	-10.2502
▁arrangement	-10.2504
▁wound	-10.2504
▁safety	-10.2507
omic	-10.2508
▁1966	-10.251
related	-10.2517
▁delay	-10.252
▁continu	-10.2525
▁newton	-10.2528
▁offering	-10.2537
mission	-10.2538
▁mouth	-10.2541
▁manufacturing	-10.2541
▁reduction	-10.2541
▁conversion	-10.2541
▁license	-10.2541
▁cloth	-10.2542
▁vocal	-10.2542
that	-10.2543
▁opposite	-10.2543
▁normally	-10.2545
▁guide	-10.2552
1"	-10.2558
▁organic	-10.2559
▁convert	-10.2562
▁coastal	-10.2569
▁communist	-10.2573
▁genre	-10.2576
▁fresnel	-10.2578
▁iraq	-10.2578
▁diverse	-10.2578
oma	-10.2582
▁armies	-10.2585
200	-10.2585
world	-10.2588
▁audio	-10.2592
▁iran	-10.2594
▁accounts	-10.2596
▁depict	-10.2597
▁correspond	-10.2597
▁tall	-10.2602
▁characteristics	-10.2604
▁medi	-10.2612
▁evolution	-10.2612
▁testing	-10.2619
▁measured	-10.2621
▁why	-10.2621
▁elder	-10.2623
▁gradually	-10.2624
▁expand	-10.2631
eon	-10.2634
▁brazilian	-10.2634
▁owned	-10.264
▁becomes	-10.264
▁dna	-10.2642
▁turing	-10.2645
▁orders	-10.2648
▁cable	-10.2651
▁accident	-10.2653
▁symptoms	-10.2653
▁translated	-10.2653
▁finished	-10.2656
▁improvement	-10.2659
▁mus	-10.2659
α	-10.2663
▁manner	-10.267
▁curve	-10.268
▁killing	-10.2681
▁rapidly	-10.2686
▁sit	-10.2689
▁archbishop	-10.2691
▁category	-10.2691
▁memorial	-10.2691
▁geometry	-10.2691
▁tube	-10.2695
▁index	-10.2696
▁ger	-10.2698
▁leaves	-10.2702
▁corresponding	-10.2708
▁spoke	-10.2709
▁assumed	-10.2709
under	-10.2716
▁approval	-10.2728
▁patriot	-10.2729
▁divine	-10.2729
▁jack	-10.273
▁compete	-10.2731
▁balance	-10.2732
▁inner	-10.2733
▁1983	-10.2734
▁attacked	-10.2739
▁images	-10.2741
▁reactions	-10.2742
▁celebrated	-10.2745
rap	-10.2748
▁chip	-10.2749
▁drawing	-10.2752
star	-10.2754
▁jobs	-10.2761
▁represents	-10.2761
2,	-10.2762
▁officials	-10.2763
▁headquarters	-10.2766
▁jurisdiction	-10.2766
▁vector	-10.2766
▁philosopher	-10.2768
▁sell	-10.2769
▁evolved	-10.2774
▁missions	-10.2775
met	-10.2782
▁por	-10.2789
▁abandoned	-10.279
▁founding	-10.2792
▁copies	-10.2804
▁caesar	-10.2805
▁1982	-10.2809
▁implementation	-10.2819
▁wealth	-10.2821
▁molecules	-10.2821
▁drink	-10.2827
▁graphics	-10.2842
▁budget	-10.2843
▁orchestra	-10.2843
▁pseudo	-10.2843
▁buried	-10.2843
oh	-10.2843
▁principles	-10.2844
▁protein	-10.2847
▁drama	-10.2848
▁faso	-10.2848
▁compound	-10.2848
▁1987	-10.2848
ibility	-10.2852
▁expect	-10.286
▁calls	-10.2864
pose	-10.2866
▁brothers	-10.2866
▁forming	-10.2872
bin	-10.2873
▁kar	-10.2876
▁democrat	-10.2876
▁experimental	-10.2876
▁bronze	-10.2881
▁encounter	-10.2881
▁proposal	-10.2881
claim	-10.2896
▁cub	-10.2897
interpret	-10.2898
stra	-10.2902
▁repeated	-10.2905
▁fox	-10.2906
▁attended	-10.2909
dh	-10.2909
▁poverty	-10.2919
▁provision	-10.2924
▁zeus	-10.293
▁dominated	-10.293
▁capp	-10.2933
▁communications	-10.2941
▁officer	-10.2948
▁exile	-10.2951
aba	-10.2954
▁etymology	-10.2958
▁honour	-10.2958
▁theater	-10.2958
▁decay	-10.2958
▁scheme	-10.2958
▁alloy	-10.2959
▁tactic	-10.296
▁marsh	-10.2961
▁battleship	-10.2966
▁dating	-10.2967
▁ye	-10.2969
▁focused	-10.2971
▁credit	-10.2977
rous	-10.2978
▁root	-10.2979
▁successfully	-10.2995
cat	-10.2995
▁explore	-10.2997
▁exists	-10.2997
▁anatolia	-10.2997
▁senior	-10.2997
▁radiation	-10.2999
▁biological	-10.3002
▁coll	-10.3018
jack	-10.3018
4"	-10.302
pel	-10.3033
▁seed	-10.3035
▁lies	-10.3035
▁comparison	-10.3036
▁consequence	-10.3036
▁restaurant	-10.3036
▁struggle	-10.3036
▁exercise	-10.3036
▁adding	-10.3039
▁flor	-10.3041
class	-10.305
▁debut	-10.3052
▁characteristic	-10.3053
test	-10.3062
▁rod	-10.3068
▁load	-10.3073
accompanied	-10.3075
▁neighbour	-10.3075
▁recognition	-10.3075
▁tissue	-10.3075
▁abraham	-10.3075
▁storage	-10.3075
▁ascii	-10.3077
ugh	-10.3078
▁lives	-10.3078
fra	-10.3081
▁1976	-10.3081
▁linguistic	-10.3085
▁incorporated	-10.3086
▁mig	-10.3091
wick	-10.3092
▁painting	-10.3092
▁pieces	-10.3095
▁nobel	-10.3096
tile	-10.3099
chu	-10.3099
psycho	-10.3099
▁jean	-10.3101
▁hope	-10.3106
▁seek	-10.3108
▁trip	-10.3109
▁los	-10.3113
inus	-10.3116
▁viewed	-10.3121
▁novels	-10.3121
▁prisoners	-10.3123
▁elect	-10.3126
▁thousand	-10.3129
▁argues	-10.3133
uri	-10.3133
▁ada	-10.3136
▁throw	-10.3137
▁variations	-10.3139
▁acupuncture	-10.3153
▁twice	-10.3153
▁weather	-10.3153
▁essay	-10.3153
▁visible	-10.3154
▁draft	-10.3154
aya	-10.316
▁achilles	-10.316
▁hell	-10.3161
franc	-10.3161
▁cle	-10.3165
▁gil	-10.3175
course	-10.3175
code	-10.3179
▁estate	-10.3179
▁patients	-10.318
▁paintings	-10.318
▁meta	-10.3183
▁ending	-10.319
▁zo	-10.3192
▁isotope	-10.3193
▁collapse	-10.3193
▁abbey	-10.3193
▁debt	-10.3194
▁patron	-10.3196
▁poetry	-10.3201
▁objective	-10.3207
▁preced	-10.3219
▁jan	-10.322
▁fame	-10.3221
▁hip	-10.3221
▁mayor	-10.3221
▁truth	-10.3222
▁bottom	-10.3232
▁kurosawa	-10.3232
cies	-10.3233
▁strict	-10.3233
6"	-10.3238
angular	-10.3247
▁increases	-10.3255
0"	-10.3262
▁sides	-10.3267
▁bicycle	-10.3272
▁roads	-10.3272
▁clubs	-10.3273
▁rural	-10.3275
▁poland	-10.3285
▁eat	-10.3292
▁col	-10.33
▁soft	-10.3301
▁piece	-10.3303
▁determin	-10.3304
▁showing	-10.3307
▁formally	-10.3311
▁prohibit	-10.3312
▁captain	-10.3312
▁serving	-10.3312
▁invented	-10.3314
semitic	-10.3314
mail	-10.3315
▁hyper	-10.3322
hn	-10.333
▁apply	-10.3341
▁origins	-10.3343
owing	-10.3352
▁policies	-10.3352
▁zealand	-10.3352
▁amateur	-10.3353
▁therapy	-10.3354
▁processing	-10.3355
hol	-10.3356
▁verb	-10.3356
load	-10.3362
▁effectively	-10.3366
than	-10.3375
▁sight	-10.3376
▁rocket	-10.3381
▁wire	-10.3382
▁holds	-10.3384
▁aarhus	-10.3393
▁hunting	-10.3396
▁distinguish	-10.3397
▁bid	-10.3397
▁mormon	-10.3398
▁1967	-10.3399
▁corps	-10.3402
▁giant	-10.3404
▁dual	-10.3416
▁°	-10.342
▁neuro	-10.3427
▁missiles	-10.3429
▁declined	-10.3432
yard	-10.3433
▁rebellion	-10.3433
▁mixture	-10.3434
▁assistance	-10.3437
▁mental	-10.3439
▁achieve	-10.3443
▁brief	-10.3447
▁purposes	-10.3451
base	-10.3459
▁bird	-10.3463
▁bacteria	-10.3464
ister	-10.3465
▁artistic	-10.3468
▁fly	-10.3469
▁emphasis	-10.3474
▁nitrogen	-10.3474
▁poirot	-10.3474
▁aesthetic	-10.3474
▁reputation	-10.3474
▁witness	-10.3474
▁assigned	-10.3475
▁vertical	-10.3476
▁1981	-10.348
▁characterized	-10.3485
▁oxide	-10.3493
▁rand	-10.3504
▁ant	-10.3508
▁buy	-10.3511
empt	-10.3511
▁biblical	-10.3515
▁refuge	-10.3515
▁survive	-10.3521
▁styles	-10.3528
▁vision	-10.3535
▁sn	-10.3537
▁accurate	-10.3556
▁pioneer	-10.3556
▁preferred	-10.3557
crypt	-10.3557
▁pat	-10.3581
▁tools	-10.3584
▁rob	-10.3584
▁(17	-10.3595
▁regime	-10.3596
▁jerusalem	-10.3597
▁mathematician	-10.3597
▁quantum	-10.3597
▁innovation	-10.3597
▁floor	-10.3597
▁reducing	-10.3597
▁linked	-10.36
itt	-10.3606
stat	-10.3611
▁antibiotics	-10.3614
▁bin	-10.3621
▁distinction	-10.3623
▁none	-10.3626
break	-10.3626
tte	-10.3629
cott	-10.363
▁survived	-10.3632
▁satellite	-10.3638
▁surrender	-10.3638
populated	-10.3639
▁anarchist	-10.3639
▁rarely	-10.364
▁adapt	-10.3641
▁tail	-10.3642
▁row	-10.3642
▁matches	-10.3642
▁1945	-10.3646
▁bede	-10.3647
▁chance	-10.3648
▁accused	-10.3649
▁measures	-10.3653
▁spot	-10.3658
.1%	-10.3663
▁pick	-10.3665
▁hair	-10.3669
ule	-10.3674
rah	-10.3678
▁explanation	-10.368
▁protocol	-10.368
▁anglo	-10.368
▁terminal	-10.368
.4%	-10.3681
▁virginia	-10.3681
!"	-10.3682
▁cards	-10.3682
▁decrease	-10.3686
▁lift	-10.3689
teen	-10.3692
▁reaching	-10.3697
▁partly	-10.3699
▁produces	-10.3711
▁continues	-10.3711
▁generated	-10.3716
▁consumption	-10.3721
▁renamed	-10.3721
▁migration	-10.3722
▁senator	-10.3725
▁straight	-10.3735
extremely	-10.3736
▁originated	-10.3737
▁vol	-10.3744
▁plato	-10.3745
▁preparation	-10.3745
mel	-10.3745
iii	-10.3749
▁aero	-10.3757
▁arrival	-10.3763
▁statistical	-10.3767
▁pel	-10.3767
▁serbia	-10.3768
▁1979	-10.377
▁percentage	-10.3773
awa	-10.3774
.6%	-10.3777
▁involves	-10.3781
german	-10.3785
▁topic	-10.3787
last	-10.3788
later	-10.3793
list	-10.3796
7"	-10.3797
▁beryllium	-10.3805
▁massoud	-10.3805
▁emotion	-10.3805
cm	-10.3806
▁ign	-10.3807
▁protected	-10.381
5"	-10.3819
▁apart	-10.3819
▁armoured	-10.3822
▁fur	-10.383
city	-10.383
▁proteins	-10.3842
▁amphetamine	-10.3847
▁opportunity	-10.3847
▁animation	-10.3848
▁voting	-10.3852
scale	-10.3861
▁ze	-10.3867
▁armour	-10.3876
▁mine	-10.3882
▁hungary	-10.3888
body	-10.3888
▁bodhisattva	-10.389
▁uncertain	-10.389
▁reverse	-10.3891
▁storm	-10.3891
▁racing	-10.3892
▁geography	-10.3892
▁agree	-10.3892
▁rational	-10.3893
▁gall	-10.3893
gha	-10.3897
▁proto	-10.3903
▁clean	-10.3904
▁goods	-10.3911
bur	-10.3911
▁massive	-10.3912
ique	-10.3914
▁attached	-10.3917
▁details	-10.3923
iya	-10.3928
▁worth	-10.3931
▁artificial	-10.3932
▁occupation	-10.3932
▁surviving	-10.3932
▁computing	-10.3932
▁tournament	-10.3932
▁philippine	-10.3932
▁monitor	-10.3932
▁narrative	-10.3932
▁mosque	-10.3933
▁gran	-10.3933
▁criticized	-10.3935
▁federation	-10.3937
▁winners	-10.3939
▁1944	-10.3939
▁algeria	-10.3947
▁astronomer	-10.3975
▁centauri	-10.3975
▁siege	-10.3976
▁suburb	-10.3976
▁gift	-10.3977
▁transferred	-10.3977
bell	-10.3979
▁arrow	-10.3979
▁references	-10.398
▁grain	-10.3985
uous	-10.3993
.7%	-10.3994
high	-10.4014
illustr	-10.4018
▁belgian	-10.4018
▁codice	-10.4018
▁sodium	-10.4018
▁microsoft	-10.4019
▁1973	-10.4024
▁wheel	-10.4024
▁diet	-10.4039
▁observations	-10.4044
mond	-10.4045
−	-10.4051
▁ker	-10.4054
▁flood	-10.4061
▁absence	-10.4061
▁associate	-10.4069
roman	-10.4074
▁64	-10.4074
▁denote	-10.4084
▁credited	-10.4084
▁explained	-10.4086
▁roots	-10.4094
vor	-10.41
erie	-10.4103
▁industries	-10.4104
▁brew	-10.4105
▁windows	-10.4106
▁logo	-10.411
bach	-10.4115
▁educational	-10.4115
▁hotel	-10.4117
▁dur	-10.412
▁gel	-10.4123
.3%	-10.4125
▁undergo	-10.4129
▁retain	-10.4133
▁ants	-10.4136
▁politician	-10.4148
▁cardinal	-10.4148
▁arbor	-10.4148
▁dropped	-10.4148
▁balkan	-10.4149
▁axon	-10.4151
▁axis	-10.4157
▁fled	-10.4163
▁lock	-10.4164
▁solo	-10.4169
▁supporters	-10.4171
▁mechanical	-10.418
pal	-10.4184
▁meat	-10.4191
▁enhance	-10.4192
▁crosby	-10.4192
sustain	-10.4192
▁danish	-10.4195
▁hub	-10.42
▁eyes	-10.4207
▁variation	-10.4208
▁existed	-10.4215
▁consumer	-10.4216
jan	-10.4221
heim	-10.4223
▁conservation	-10.4235
▁exploit	-10.4235
▁suppress	-10.4235
▁emission	-10.4243
▁proof	-10.4247
itz	-10.4249
▁designer	-10.4253
▁demonstrated	-10.4256
▁discussion	-10.4258
english	-10.4272
▁amp	-10.4274
▁rear	-10.4275
▁afonso	-10.4279
▁astronomical	-10.4279
▁buddhism	-10.4279
▁featuring	-10.4279
▁sponsor	-10.4279
▁velocity	-10.4279
▁baroque	-10.4279
▁exceed	-10.428
▁heaven	-10.428
▁poison	-10.4281
▁(2	-10.4281
▁borders	-10.4282
▁furthermore	-10.4282
▁bonds	-10.429
▁$2	-10.4292
▁controller	-10.4293
▁your	-10.4296
▁trust	-10.4297
▁proton	-10.4301
▁moderate	-10.4302
kha	-10.4313
_4	-10.4324
▁hypothesis	-10.4324
▁neutral	-10.4324
▁1962	-10.4324
▁invention	-10.4324
▁denmark	-10.4325
▁discuss	-10.4331
▁varies	-10.4336
▁generate	-10.4343
▁forests	-10.4345
▁coup	-10.4348
gli	-10.4349
▁65	-10.4351
▁thin	-10.4366
▁exact	-10.4368
▁rotation	-10.4368
▁learned	-10.4375
▁notion	-10.4385
chen	-10.4391
▁prepar	-10.4392
▁grace	-10.4393
▁collected	-10.4399
action	-10.44
bury	-10.4402
▁locations	-10.4409
▁prices	-10.4412
▁antidepressant	-10.4413
▁conquered	-10.4413
▁arthur	-10.4413
▁answer	-10.4413
▁magic	-10.4417
▁momentum	-10.4418
▁symbols	-10.4418
▁mur	-10.4424
▁genus	-10.4432
▁drawn	-10.444
▁rom	-10.4441
▁formerly	-10.4442
▁heard	-10.4448
▁ambrose	-10.4458
▁appropriate	-10.4458
▁expensive	-10.4458
▁depression	-10.4458
fold	-10.4478
▁pc	-10.4488
▁shall	-10.4496
▁ginsberg	-10.4503
▁exposure	-10.4503
compatible	-10.4503
▁lecture	-10.4503
▁integer	-10.4503
▁promoted	-10.4504
▁braves	-10.4506
▁cel	-10.4512
▁concerned	-10.4513
▁writes	-10.4516
nate	-10.4516
▁huge	-10.4518
▁verse	-10.4524
▁handle	-10.4531
2%	-10.4533
▁representative	-10.4536
minute	-10.4537
▁castle	-10.4539
ison	-10.4539
▁andorra	-10.4539
level	-10.454
chemical	-10.4545
▁unusual	-10.4545
▁metropolitan	-10.4548
▁strategic	-10.4548
▁adobe	-10.4549
▁anime	-10.455
▁saturn	-10.455
hl	-10.4559
▁observer	-10.4567
▁preserved	-10.4571
▁documents	-10.4583
án	-10.4583
▁tennessee	-10.4593
▁possibility	-10.4593
▁dollar	-10.4593
▁landscape	-10.4593
▁vienna	-10.4593
▁passing	-10.4599
▁membership	-10.46
▁baltic	-10.4601
▁supposed	-10.4603
print	-10.4606
hold	-10.4607
▁feet	-10.4608
ending	-10.4616
▁losing	-10.4626
▁patterns	-10.4629
▁quote	-10.4629
▁legislative	-10.4639
▁taliban	-10.4639
▁destination	-10.4639
▁pun	-10.4643
▁pala	-10.4645
bat	-10.4647
▁immigrants	-10.4649
▁scar	-10.4652
▁indeed	-10.4657
▁jim	-10.466
▁possession	-10.4669
take	-10.4669
▁incorporat	-10.4672
▁waste	-10.4672
ddle	-10.4673
▁concerns	-10.4676
▁understand	-10.4677
▁realm	-10.4677
▁arithmetic	-10.4685
▁constantinople	-10.4685
▁sleep	-10.4685
▁abbot	-10.4685
▁hymn	-10.4685
▁speer	-10.4685
▁laboratory	-10.4686
▁mining	-10.4686
▁cinema	-10.4687
▁horn	-10.4703
▁stem	-10.4707
ois	-10.4718
def	-10.4718
▁aurangzeb	-10.4731
▁structural	-10.4731
▁solve	-10.4732
▁ruling	-10.4741
▁dress	-10.4743
▁representatives	-10.4747
▁aalen	-10.4748
gel	-10.475
1)	-10.4754
▁lot	-10.4756
▁ski	-10.4759
▁canal	-10.4766
▁gate	-10.4774
▁polar	-10.4776
▁receiving	-10.4777
▁arsenal	-10.4777
▁reconstruction	-10.4777
▁testament	-10.4777
▁basketball	-10.4777
▁bbc	-10.4778
▁relief	-10.4778
▁visitors	-10.4782
▁twin	-10.4783
▁−	-10.4788
▁samples	-10.4797
▁civilian	-10.4806
▁shore	-10.4809
▁camera	-10.4812
▁outer	-10.4816
▁jet	-10.482
▁bitumen	-10.4824
▁resolve	-10.4824
▁cathedral	-10.4824
▁console	-10.4824
exclud	-10.4825
▁transmission	-10.4825
▁laid	-10.4832
▁sharon	-10.4833
▁palm	-10.484
▁thick	-10.484
▁retained	-10.4841
▁derive	-10.4843
▁beliefs	-10.4848
▁tanks	-10.4849
▁depicted	-10.4851
3)	-10.4851
▁exhibition	-10.4852
▁carl	-10.4854
dimensional	-10.4856
▁door	-10.4856
▁job	-10.4857
▁accus	-10.4862
poli	-10.4863
▁contributions	-10.4864
far	-10.4869
▁titled	-10.4869
▁accomplish	-10.487
▁constellation	-10.487
▁controversial	-10.487
▁pennsylvania	-10.487
▁jersey	-10.487
▁separation	-10.487
▁operator	-10.4874
▁brass	-10.4875
▁parent	-10.4875
▁norm	-10.4883
▁taxes	-10.4885
▁tha	-10.4889
.2%	-10.4889
▁encouraged	-10.4893
▁kit	-10.4899
▁dynamic	-10.4917
▁faction	-10.4917
▁begun	-10.4918
▁banjo	-10.4919
▁partnership	-10.492
nie	-10.492
worth	-10.492
▁cited	-10.493
how	-10.493
▁dated	-10.4931
▁drinking	-10.4937
▁grown	-10.4947
even	-10.4949
▁communion	-10.4965
▁recruit	-10.4965
▁sacrifice	-10.4965
▁reinforce	-10.4965
▁changing	-10.4965
▁weapon	-10.4965
▁funding	-10.4969
▁hundreds	-10.4973
600	-10.4983
▁clinical	-10.4988
south	-10.4994
▁reject	-10.5004
▁coordinate	-10.5012
▁merchant	-10.5012
▁neutron	-10.5012
▁fashion	-10.5012
▁victim	-10.5012
▁housing	-10.5012
▁random	-10.5015
▁achievement	-10.5018
▁1978	-10.5021
▁concentrated	-10.5021
osis	-10.5023
▁performing	-10.5032
▁grave	-10.5034
cast	-10.5041
▁parish	-10.5048
▁chose	-10.5057
▁marc	-10.5058
▁barbados	-10.506
word	-10.5062
largest	-10.5063
▁comedy	-10.5065
▁cattle	-10.5065
general	-10.5067
?"	-10.5079
▁(3	-10.5083
▁hungarian	-10.5089
▁annually	-10.5089
▁socialist	-10.5105
▁discipline	-10.5107
▁legislature	-10.5107
▁schopenhauer	-10.5107
▁ancestor	-10.5107
▁expert	-10.5108
▁finance	-10.5108
▁illness	-10.5112
▁csm	-10.5117
▁recognize	-10.5118
▁radar	-10.5119
.9%	-10.5126
▁300	-10.5127
▁standing	-10.5132
▁carrying	-10.5145
▁journalist	-10.5147
▁anthropology	-10.5156
▁astronomy	-10.5156
▁emphasiz	-10.5156
▁sweden	-10.5156
▁segment	-10.5156
▁isolated	-10.5156
▁sharp	-10.5157
▁municipality	-10.5161
▁1965	-10.5164
▁stability	-10.517
▁afl	-10.5174
jun	-10.5182
▁andalusia	-10.5182
▁neuron	-10.5193
▁concern	-10.5196
▁neu	-10.52
▁miller	-10.5202
▁archaeological	-10.5204
▁calculation	-10.5204
▁meanwhile	-10.5204
▁napoleon	-10.5204
▁earned	-10.5204
▁precise	-10.5204
▁astrology	-10.5204
▁cruise	-10.5204
▁mm	-10.5206
▁mini	-10.5206
british	-10.521
▁civilization	-10.5212
▁mix	-10.5221
pent	-10.5222
▁southwest	-10.5229
▁tale	-10.5234
▁sort	-10.5235
fish	-10.5238
▁borough	-10.5246
▁committed	-10.5252
▁legislation	-10.5252
▁companion	-10.5252
▁organisms	-10.5253
▁prophet	-10.5253
▁kyi	-10.5256
second	-10.526
▁electricity	-10.5264
▁stored	-10.5268
▁particle	-10.5275
vir	-10.5279
▁miles	-10.5284
▁notice	-10.5289
▁germanic	-10.53
▁apostolic	-10.5301
▁arizona	-10.5301
▁journey	-10.5301
▁sacred	-10.5301
▁stephen	-10.5303
▁faced	-10.5305
▁consequently	-10.5308
▁prove	-10.531
▁span	-10.5313
black	-10.5316
anda	-10.5322
▁distinguished	-10.5324
▁rodin	-10.5325
philosoph	-10.5349
▁commemorat	-10.535
▁yellow	-10.535
▁cloud	-10.535
▁identical	-10.535
▁phillip	-10.5351
▁muscle	-10.5351
▁anything	-10.5352
"("	-10.5352
▁printed	-10.5353
▁1961	-10.5356
▁lifetime	-10.537
▁estimates	-10.538
|18	-10.5383
▁belt	-10.5384
▁feeling	-10.5393
chlor	-10.5395
▁enzyme	-10.5399
▁nucleus	-10.5399
▁swedish	-10.5399
▁territorial	-10.5399
▁false	-10.54
nik	-10.54
▁occasionally	-10.5403
▁concerning	-10.5405
▁fuller	-10.5412
▁loan	-10.5414
▁returning	-10.5414
elle	-10.5426
▁tape	-10.5441
▁conclusion	-10.5449
▁molecular	-10.5449
▁monastery	-10.5449
▁feather	-10.5449
▁athenian	-10.5449
▁diamond	-10.545
▁alternate	-10.545
▁inhibitor	-10.5451
▁trend	-10.5454
european	-10.5459
fall	-10.5459
▁pap	-10.5466
▁observation	-10.5468
▁coal	-10.5471
gged	-10.5471
▁delivered	-10.5481
▁naturally	-10.5481
omorph	-10.5484
path	-10.5484
▁musicians	-10.5487
▁stating	-10.5494
conf	-10.5496
#	-10.5498
▁auschwitz	-10.5499
▁controversy	-10.5499
▁destruction	-10.5499
▁crusade	-10.5499
▁doubt	-10.5499
▁dismiss	-10.5499
▁florida	-10.5499
▁basque	-10.5499
▁entry	-10.55
▁implemented	-10.55
▁thermal	-10.5507
establish	-10.5509
▁bou	-10.551
▁roma	-10.5524
▁server	-10.5529
▁cancel	-10.553
▁charter	-10.5534
▁sixth	-10.5547
▁renaissance	-10.5549
▁spectrum	-10.5549
▁technologies	-10.5549
▁disagree	-10.5549
▁retired	-10.5549
▁prompt	-10.555
▁biography	-10.5553
▁hearing	-10.5553
ancient	-10.556
▁integrated	-10.556
▁partial	-10.5568
▁engaged	-10.5574
▁indicated	-10.5574
▁adopt	-10.5582
▁hunt	-10.559
▁speaking	-10.5591
shaped	-10.5597
▁accumulat	-10.5599
▁agrippina	-10.5599
▁potassium	-10.5599
▁significance	-10.5599
▁struck	-10.5599
▁gla	-10.5601
▁northeast	-10.5607
▁santa	-10.5612
▁beach	-10.562
▁continuing	-10.5622
face	-10.5639
▁infinite	-10.5639
▁argue	-10.5647
▁elizabeth	-10.5649
▁magnetic	-10.5649
▁margin	-10.565
▁trying	-10.5652
▁mythology	-10.5653
▁nfl	-10.5658
▁sunday	-10.5659
▁recovery	-10.5666
▁minority	-10.5668
▁remember	-10.5669
▁farming	-10.5671
▁goes	-10.5679
▁kin	-10.5687
▁learn	-10.5689
▁condemn	-10.57
▁commonwealth	-10.57
▁oxford	-10.57
▁retreat	-10.5701
1%	-10.5703
▁distributed	-10.5707
▁collective	-10.5707
media	-10.5712
▁critic	-10.5713
▁thor	-10.5715
▁suu	-10.5716
▁closer	-10.5717
▁wine	-10.5717
white	-10.5717
▁complexity	-10.5727
▁antibiotic	-10.5732
▁varying	-10.5733
▁wag	-10.5739
▁replace	-10.5746
-20	-10.5747
▁extract	-10.575
▁intermediate	-10.5751
▁minimum	-10.5751
▁plastic	-10.5752
▁descendants	-10.5752
▁installed	-10.5752
▁roger	-10.5762
arab	-10.5763
▁accounting	-10.5778
▁exactly	-10.5782
▁reflected	-10.5783
▁bob	-10.5789
▁mounted	-10.5795
▁try	-10.5796
▁restricted	-10.5799
▁ceremony	-10.5803
▁arranged	-10.5803
▁bmw	-10.5803
▁cotton	-10.5803
▁easy	-10.5803
▁interpreted	-10.5804
▁pursue	-10.5805
▁planning	-10.5808
▁sugar	-10.581
▁paint	-10.581
▁oppos	-10.5814
french	-10.5818
modern	-10.5818
▁azerbaijani	-10.5822
assi	-10.5824
▁regularly	-10.5825
pra	-10.5826
this	-10.5836
100	-10.5837
cum	-10.5848
▁offensive	-10.5854
▁stretch	-10.5854
▁aegean	-10.5854
▁situated	-10.5854
▁graduate	-10.5854
▁municipalities	-10.5856
▁detailed	-10.5857
▁compress	-10.5858
▁knew	-10.5864
▁1947	-10.5864
▁parliamentary	-10.5864
night	-10.5865
fire	-10.5869
▁rising	-10.5872
▁stack	-10.5873
▁pitcher	-10.5875
▁frequent	-10.5879
gno	-10.5886
▁cam	-10.5886
▁aaliyah	-10.5906
▁celebration	-10.5906
▁impossible	-10.5906
▁revival	-10.5906
▁coalition	-10.5906
▁initiative	-10.5909
▁neck	-10.5911
▁discussed	-10.5923
▁clearly	-10.5946
cade	-10.5953
▁copy	-10.5958
▁spinoza	-10.5958
▁autonomous	-10.5958
▁cricket	-10.5958
▁railroad	-10.5958
▁architectural	-10.5958
▁bought	-10.5958
▁warrior	-10.5958
▁advent	-10.596
▁referring	-10.5962
▁clock	-10.5967
▁lose	-10.5968
fix	-10.5979
▁nur	-10.5979
lot	-10.5982
▁construct	-10.5982
tory	-10.5985
▁cer	-10.5996
▁factory	-10.601
▁extinct	-10.601
▁responsibility	-10.601
▁absorb	-10.601
▁illegal	-10.601
▁ahmad	-10.601
▁items	-10.6021
riot	-10.6022
▁specialized	-10.6027
▁purchase	-10.6028
▁broken	-10.6043
▁purchased	-10.6045
▁chronicle	-10.6052
▁register	-10.6056
key	-10.6063
▁assassination	-10.6063
▁carolina	-10.6063
▁aberration	-10.6063
▁employees	-10.6063
▁trading	-10.6064
▁milk	-10.6064
▁recommended	-10.6069
▁sparta	-10.6069
▁followers	-10.6078
▁briefly	-10.6098
there	-10.6106
▁insect	-10.6107
▁fresh	-10.6116
▁deck	-10.6116
▁aphasia	-10.6116
▁denied	-10.6117
▁rabbi	-10.6117
▁knight	-10.612
▁1964	-10.6124
▁revolutionary	-10.6125
▁painter	-10.6126
ferr	-10.6142
▁participated	-10.6151
▁reality	-10.6151
▁recommend	-10.6163
ifying	-10.6167
▁brigade	-10.6169
▁entitled	-10.6169
▁supplement	-10.6169
▁advertise	-10.6169
▁demographic	-10.6169
▁circulat	-10.6169
▁racial	-10.6169
▁settlers	-10.6171
uv	-10.6172
▁shu	-10.6173
▁thing	-10.6178
▁sale	-10.6184
▁exclusively	-10.6185
▁dependent	-10.6186
▁participate	-10.6188
▁catch	-10.6192
pot	-10.6192
ér	-10.6194
▁bush	-10.6201
hell	-10.6212
▁kennedy	-10.6223
▁mughal	-10.6223
▁christmas	-10.6223
meric	-10.6226
▁francisco	-10.6227
▁systematic	-10.6229
▁mr	-10.623
▁progressive	-10.6231
lau	-10.6234
▁genera	-10.6243
▁mit	-10.6267
▁responded	-10.6274
▁philadelphia	-10.6276
▁amendment	-10.6276
▁exposed	-10.6276
▁theoretical	-10.6276
▁horizontal	-10.6277
▁diameter	-10.6278
▁evaluat	-10.6278
▁macro	-10.6279
▁saxon	-10.6281
▁pagan	-10.6283
view	-10.6287
▁lie	-10.6287
▁beads	-10.6291
sight	-10.6299
▁prefer	-10.6309
▁fail	-10.6312
order	-10.6313
▁creed	-10.6318
▁municipal	-10.6322
▁enjoyed	-10.6327
▁portray	-10.6329
▁athanasius	-10.633
▁describing	-10.633
▁sweet	-10.633
▁website	-10.6331
▁prussia	-10.6332
▁fishing	-10.6337
▁accordion	-10.6348
third	-10.6355
▁bowl	-10.6357
▁hour	-10.6373
▁filled	-10.6383
▁afrikaans	-10.6385
▁mutual	-10.6385
▁aachen	-10.6386
▁regiment	-10.6387
▁manual	-10.6395
▁colon	-10.6398
▁chair	-10.64
▁yo	-10.6402
built	-10.6409
group	-10.6415
mol	-10.642
▁geo	-10.6422
▁shop	-10.6429
▁essentially	-10.6431
▁memo	-10.6433
read	-10.6434
▁corn	-10.6439
▁kashmir	-10.6439
▁admiral	-10.6439
▁algae	-10.644
▁bakr	-10.644
▁attain	-10.6441
▁aviation	-10.6441
▁stood	-10.6442
▁cabinet	-10.6444
▁approaches	-10.6447
▁adoption	-10.6449
▁flying	-10.646
history	-10.6465
▁coach	-10.6469
▁unless	-10.6483
▁assumption	-10.6494
▁ptolemy	-10.6494
▁valuable	-10.6494
▁adverse	-10.6494
▁resist	-10.65
▁almond	-10.6503
▁bonn	-10.6519
▁hind	-10.652
natural	-10.6521
▁dense	-10.6522
blue	-10.6524
case	-10.6526
▁claiming	-10.6538
mund	-10.654
▁cm	-10.6545
▁finish	-10.6546
▁heir	-10.6549
▁denomination	-10.655
▁physician	-10.655
▁receptor	-10.655
▁biggest	-10.655
▁tropical	-10.655
▁trojan	-10.655
▁choose	-10.6551
▁drew	-10.6551
▁publisher	-10.6552
▁driver	-10.6556
▁1942	-10.6558
▁fewer	-10.6562
▁cpu	-10.6564
▁mir	-10.6571
▁remove	-10.6571
▁raise	-10.6577
inch	-10.6585
▁longest	-10.6587
▁sul	-10.6591
▁victor	-10.6594
▁tip	-10.6603
▁perceived	-10.6605
▁predecessor	-10.6605
▁resemble	-10.6605
▁inspiration	-10.6605
▁elsewhere	-10.6605
▁drain	-10.6606
▁altitude	-10.6608
▁crash	-10.6612
▁detail	-10.6614
▁difficulty	-10.6615
▁trained	-10.6615
▁attitude	-10.6618
▁qa	-10.6619
▁bath	-10.662
▁wil	-10.6624
comb	-10.6632
eptic	-10.6634
sexual	-10.6634
▁teach	-10.6636
elli	-10.6636
▁α	-10.6645
▁apparently	-10.6652
chel	-10.6655
▁gang	-10.6656
▁reveal	-10.6658
▁selling	-10.6661
▁adjacent	-10.6661
▁alexios	-10.6661
▁complement	-10.6661
▁quantities	-10.6661
▁thirty	-10.6661
▁surrounded	-10.6661
▁cavalry	-10.6661
▁skull	-10.6661
▁violent	-10.6661
▁stroke	-10.6661
▁contribut	-10.6665
▁walter	-10.6668
▁operational	-10.6671
billboard	-10.668
bound	-10.669
▁pole	-10.6691
abba	-10.6696
▁1900	-10.6698
▁happen	-10.6714
▁publicly	-10.6716
▁beautiful	-10.6717
▁democracy	-10.6717
▁spider	-10.6717
▁outcome	-10.6718
▁dramatic	-10.6721
▁tetra	-10.6729
▁blow	-10.6733
▁displayed	-10.6739
▁donat	-10.6744
▁ashes	-10.6755
▁cooper	-10.6765
itis	-10.6769
▁execution	-10.6774
▁antiquity	-10.6774
▁persuade	-10.6774
▁acoustic	-10.6774
▁gross	-10.6776
▁slowly	-10.6776
▁capone	-10.6779
▁employment	-10.6784
▁driven	-10.6784
▁seventh	-10.68
▁suffering	-10.6801
first	-10.6805
▁select	-10.6805
▁seal	-10.6806
▁diplomatic	-10.6807
▁pool	-10.6815
7%	-10.6824
▁aimed	-10.6829
▁massachusetts	-10.683
▁nickname	-10.683
▁oxidation	-10.683
▁ritual	-10.6831
▁spelling	-10.6831
making	-10.6835
oxide	-10.6835
▁marble	-10.6835
▁1941	-10.6839
▁hay	-10.6844
▁odd	-10.685
dispers	-10.6854
▁commissioned	-10.6856
eastern	-10.6858
game	-10.686
▁implement	-10.6863
▁(16	-10.6864
▁hypo	-10.6865
▁quo	-10.6868
▁monarchy	-10.6872
▁estimate	-10.6875
▁bind	-10.6883
▁derivative	-10.6888
▁provincial	-10.6888
▁suspect	-10.6888
▁veteran	-10.6888
▁canterbury	-10.6888
▁anarchism	-10.6888
▁gram	-10.6889
▁adjust	-10.689
▁optical	-10.689
3%	-10.6908
▁lamb	-10.6926
osaurus	-10.6934
▁binding	-10.6942
communica	-10.6943
▁switzerland	-10.6945
▁militia	-10.6945
introduc	-10.6946
▁scripture	-10.6949
▁executed	-10.6955
▁jump	-10.6958
▁assistant	-10.6958
▁attribute	-10.6968
▁voted	-10.6971
▁moreover	-10.6976
▁lesser	-10.6981
▁150	-10.6998
▁wet	-10.7002
▁faster	-10.7002
▁archimedes	-10.7003
▁unsuccessful	-10.7003
▁hybrid	-10.7003
▁crowd	-10.7003
phil	-10.7007
▁contribute	-10.7008
▁examine	-10.7009
▁limb	-10.702
9%	-10.7021
▁delta	-10.7027
▁calling	-10.7032
bru	-10.7036
▁efficient	-10.7038
%)	-10.7039
▁predict	-10.704
stall	-10.705
pound	-10.7056
get	-10.7056
baby	-10.7058
▁arrested	-10.7059
▁gregory	-10.7061
▁computation	-10.7061
▁tribute	-10.7061
▁depth	-10.7062
▁ranging	-10.7063
▁lutheran	-10.7067
kon	-10.7069
▁dimension	-10.708
▁partially	-10.7093
mont	-10.7095
saur	-10.71
▁rio	-10.7104
▁confirm	-10.7119
▁antisemitism	-10.7119
▁benedict	-10.712
▁circum	-10.712
▁anarcho	-10.712
▁cousin	-10.712
▁antigua	-10.712
▁max	-10.7122
▁boot	-10.7122
▁keyboard	-10.7122
▁memoir	-10.7123
▁merger	-10.7125
▁1963	-10.7129
▁covering	-10.7136
▁enable	-10.7141
stead	-10.7156
▁alien	-10.7162
flow	-10.7168
▁nest	-10.7173
▁cartridge	-10.7178
▁circumstances	-10.7178
▁perception	-10.7178
▁blind	-10.7178
▁1000	-10.7179
▁framework	-10.7179
▁predicted	-10.7179
▁childhood	-10.718
▁entertainment	-10.7181
▁besides	-10.7187
▁distinctive	-10.7191
▁mainland	-10.7207
▁publishing	-10.7213
▁fisher	-10.7214
▁businesses	-10.7214
kar	-10.7223
▁elaborate	-10.7237
▁holiday	-10.7237
▁manifest	-10.7237
▁shield	-10.7238
▁daniel	-10.7238
▁regulate	-10.7241
▁portrayed	-10.7243
▁1943	-10.7246
▁recall	-10.7246
▁suitable	-10.7248
▁1948	-10.7248
feld	-10.7248
▁1914	-10.7252
▁geographical	-10.7257
present	-10.7263
▁ple	-10.7278
▁metro	-10.7284
▁initiated	-10.7285
▁thermo	-10.7293
▁depiction	-10.7293
▁anniversary	-10.7297
▁supplies	-10.7297
▁complain	-10.7297
▁invited	-10.7298
▁periodic	-10.7298
▁varied	-10.7299
▁roof	-10.7306
▁cooperation	-10.7307
▁farmers	-10.7317
▁strait	-10.7328
▁consume	-10.7337
united	-10.7338
▁inhibit	-10.7355
▁facility	-10.7357
▁phenomena	-10.7357
▁terminology	-10.7357
▁antimony	-10.7357
▁astatine	-10.7357
▁treatise	-10.7359
▁residence	-10.7361
▁documentary	-10.7365
kov	-10.7367
resistant	-10.7368
gol	-10.7383
▁immediate	-10.739
▁cabin	-10.7417
▁antipsychotic	-10.7417
▁entrance	-10.7417
▁franchise	-10.7417
▁presidency	-10.7417
▁confess	-10.7417
rative	-10.7422
▁(15	-10.7423
▁replacement	-10.7424
▁shorter	-10.7435
▁fluid	-10.7436
lant	-10.7449
piece	-10.746
gir	-10.747
▁finite	-10.7475
ographer	-10.7475
▁ready	-10.7476
▁archipelago	-10.7478
▁autumn	-10.7478
▁avicenna	-10.7478
▁solzhenitsyn	-10.7478
▁telescope	-10.7478
▁bahamas	-10.7478
▁ordinary	-10.7478
▁trouble	-10.7478
▁bureau	-10.7478
▁dream	-10.7478
▁rainfall	-10.7478
▁fraction	-10.7479
▁ariane	-10.748
▁restored	-10.75
="19	-10.7516
still	-10.7519
science	-10.7522
plan	-10.7523
4%	-10.7532
guard	-10.7534
▁antibodies	-10.7539
▁brandenburg	-10.7539
▁guilty	-10.7539
▁teeth	-10.7539
▁johann	-10.7539
▁ethics	-10.754
▁dangerous	-10.7541
atta	-10.7548
▁loop	-10.7559
▁fill	-10.756
▁fiber	-10.7562
▁scheduled	-10.7563
quest	-10.7572
▁epic	-10.7575
▁preach	-10.7575
▁capita	-10.7581
▁collaborat	-10.7584
▁accord	-10.7587
lp	-10.7596
▁winner	-10.7597
horn	-10.76
▁discontinu	-10.76
▁judicial	-10.76
▁pronunciation	-10.76
▁reception	-10.76
▁anthony	-10.76
▁elevation	-10.76
▁voyage	-10.76
▁whorf	-10.7601
▁lewis	-10.7601
_5	-10.7601
▁grammar	-10.7602
▁arrest	-10.7603
▁rhine	-10.7609
▁really	-10.7622
owned	-10.7635
▁mild	-10.7635
love	-10.7636
▁marry	-10.7641
▁samuel	-10.7662
▁pupil	-10.7662
▁lithium	-10.7662
▁jazz	-10.7662
▁crater	-10.7663
▁respond	-10.7664
▁afterwards	-10.7665
▁downtown	-10.7665
▁attraction	-10.7671
▁1939	-10.7674
▁aaron	-10.7676
▁specification	-10.7677
▁oak	-10.7688
▁pit	-10.7691
▁dun	-10.7695
▁potentially	-10.7697
rank	-10.7697
▁rum	-10.771
▁cape	-10.7716
▁francis	-10.7719
▁wooden	-10.7723
▁configuration	-10.7724
▁congregation	-10.7724
▁portrait	-10.7724
▁advice	-10.7724
▁herself	-10.7731
▁1956	-10.7733
▁romantic	-10.7733
▁permit	-10.7744
▁laden	-10.7747
maker	-10.7748
▁feel	-10.7757
▁anyone	-10.7758
▁fired	-10.778
▁karl	-10.7781
▁aspect	-10.7785
▁synthetic	-10.7786
▁shadow	-10.7786
▁massacre	-10.7787
▁happened	-10.779
▁enjoy	-10.779
idae	-10.7792
▁habitat	-10.7795
▁explicitly	-10.7797
▁looking	-10.7809
–2	-10.7811
▁seeking	-10.7819
-130	-10.783
person	-10.7847
▁roussimoff	-10.7849
▁phenomenon	-10.7849
▁secular	-10.7849
▁alumni	-10.7849
▁gospel	-10.7849
▁threatened	-10.785
▁investigate	-10.785
▁maxim	-10.785
▁permitted	-10.7853
▁instrumental	-10.7858
▁strain	-10.7859
▁damaged	-10.7868
latin	-10.7873
abdu	-10.7877
▁strengthen	-10.7882
▁10%	-10.7884
▁wealthy	-10.7886
computer	-10.79
▁deployed	-10.7901
▁10,000	-10.7901
▁invad	-10.7908
▁thereby	-10.7909
▁sphere	-10.7912
▁frederick	-10.7913
▁guarantee	-10.7913
▁mississippi	-10.7913
▁plural	-10.7913
▁beauty	-10.7913
▁session	-10.7913
▁apostles	-10.7913
▁recovered	-10.7914
▁consent	-10.7917
▁tract	-10.7929
▁scored	-10.7931
▁trail	-10.7933
opo	-10.7938
gard	-10.7946
▁transit	-10.7953
just	-10.7953
▁corruption	-10.7976
▁battalion	-10.7976
▁matrix	-10.7976
▁likewise	-10.7976
▁americium	-10.7976
▁warfare	-10.7976
▁resigned	-10.7976
▁retail	-10.7976
▁resort	-10.7977
▁antimicrobial	-10.7977
▁stopped	-10.7979
design	-10.798
▁independently	-10.798
▁restrict	-10.798
▁acceptance	-10.7982
▁elite	-10.7982
kel	-10.7986
allosaurus	-10.7988
▁bun	-10.7989
▁1918	-10.7991
▁antigen	-10.7992
▁pull	-10.7995
▁divide	-10.8007
▁consideration	-10.8009
▁canton	-10.802
eight	-10.8022
▁invaded	-10.8036
▁judgment	-10.804
▁creature	-10.804
▁wrong	-10.804
▁recreation	-10.804
▁medication	-10.8041
▁wolf	-10.8041
pop	-10.8042
▁lawyer	-10.8043
▁persist	-10.8049
▁difficulties	-10.8051
auto	-10.8053
▁amway	-10.8055
lang	-10.8056
building	-10.8058
▁guest	-10.8058
▁franco	-10.8061
▁fighter	-10.8074
disc	-10.8078
▁1,000	-10.8079
▁clay	-10.809
about	-10.8104
▁michigan	-10.8105
▁virtue	-10.8105
▁clergy	-10.8105
▁bachchan	-10.8105
▁houston	-10.8105
▁geometric	-10.8105
▁jacob	-10.8106
▁everything	-10.8106
▁refract	-10.8106
▁thereafter	-10.8113
soft	-10.8121
▁contribution	-10.8126
▁combine	-10.8135
master	-10.8148
▁spending	-10.8153
russian	-10.816
▁bern	-10.8167
burn	-10.8168
▁wider	-10.817
▁friedrich	-10.817
▁hollywood	-10.817
▁salieri	-10.817
▁swiss	-10.817
▁trigger	-10.817
▁hopkins	-10.817
▁dozen	-10.817
▁mainstream	-10.8172
▁adventure	-10.8173
▁capability	-10.8174
▁punishment	-10.8174
look	-10.8174
▁habit	-10.8174
▁painted	-10.8186
▁someone	-10.8192
▁defendant	-10.8194
▁enabled	-10.8209
deemed	-10.8224
jewish	-10.8227
product	-10.8228
▁losses	-10.823
▁"...	-10.8233
▁absorption	-10.8235
▁defensive	-10.8235
▁mesopotamia	-10.8235
▁tarkovsky	-10.8235
▁enemies	-10.8235
▁impression	-10.8235
▁underground	-10.8235
oriented	-10.8235
▁neighborhood	-10.8235
▁nomination	-10.8235
▁evil	-10.8236
▁duties	-10.8238
▁banned	-10.824
▁1919	-10.8247
▁panel	-10.8268
ophi	-10.8273
▁tram	-10.8276
▁arabian	-10.8288
▁oblig	-10.8301
▁calendar	-10.8301
▁capabilities	-10.8301
▁familiar	-10.8301
▁devoted	-10.8301
▁pronounced	-10.8301
▁restoration	-10.8301
▁frog	-10.8301
▁distant	-10.8301
▁replica	-10.8302
box	-10.8302
▁cow	-10.8302
▁ammoniu	-10.8303
▁correspondence	-10.8305
▁pont	-10.8306
turn	-10.8307
▁ranking	-10.8309
▁upgrade	-10.831
stellar	-10.831
dale	-10.831
▁voters	-10.8313
▁predominantly	-10.8314
▁disputed	-10.8316
▁virtually	-10.8319
▁sheet	-10.8333
mount	-10.8337
north	-10.8355
▁ancestry	-10.8367
▁confusion	-10.8367
▁consecutive	-10.8367
▁declaration	-10.8367
▁alkanes	-10.8367
▁activist	-10.8367
▁merged	-10.8368
▁membrane	-10.8368
▁ninth	-10.8368
▁plateau	-10.8373
▁aruba	-10.8373
▁gender	-10.8378
▁cheap	-10.8379
▁chess	-10.8381
▁hunter	-10.8386
▁sick	-10.8387
▁1910	-10.8393
▁reportedly	-10.8395
▁johnston	-10.8399
▁kra	-10.8405
▁flee	-10.8408
▁bbs	-10.8412
▁tribe	-10.8418
▁decreased	-10.8423
saxon	-10.8429
▁moscow	-10.8434
▁nervous	-10.8434
▁thirteen	-10.8434
▁decimal	-10.8434
▁ownership	-10.8434
▁mirror	-10.8434
▁insurance	-10.8434
▁syllable	-10.8434
▁remote	-10.8434
▁ahmed	-10.8434
▁airways	-10.8435
▁croatia	-10.8435
▁literal	-10.8437
▁wilson	-10.8437
▁piano	-10.8438
holder	-10.8438
▁occurring	-10.8439
▁basil	-10.844
▁hired	-10.8441
▁finger	-10.8444
▁singing	-10.8445
▁slot	-10.8448
▁bread	-10.8451
▁calculated	-10.8454
quality	-10.8456
▁nar	-10.8457
▁package	-10.846
▁neighboring	-10.846
capitalism	-10.8463
▁milan	-10.8466
_6	-10.8469
▁ensu	-10.847
▁coat	-10.8473
▁colleague	-10.8501
▁competitive	-10.8501
▁compromise	-10.8501
▁encompass	-10.8501
▁intervention	-10.8501
▁lieutenant	-10.8501
▁admitted	-10.8501
▁tunnel	-10.8501
▁pathway	-10.8506
▁lady	-10.852
▁affair	-10.8528
▁educated	-10.8533
▁backup	-10.8535
▁steve	-10.8542
▁else	-10.8544
▁alchemy	-10.8569
▁contradict	-10.8569
▁disappear	-10.8569
▁necessarily	-10.8569
▁physicist	-10.8569
▁heavier	-10.8569
▁intercept	-10.8569
ecclesia	-10.8569
▁filter	-10.8569
▁hole	-10.8569
▁sculptor	-10.8569
▁antibody	-10.8572
▁radius	-10.8573
▁1955	-10.858
▁corner	-10.8581
after	-10.8587
▁antarctic	-10.8589
▁ankara	-10.8596
▁macedonian	-10.8598
▁preserve	-10.8602
▁cyclo	-10.862
two	-10.8621
▁irre	-10.8625
▁anabaptist	-10.8637
▁argentina	-10.8637
▁circular	-10.8637
▁maintenance	-10.8637
▁navigation	-10.8637
▁orientation	-10.8637
▁numeral	-10.8637
▁spectral	-10.8637
▁suicide	-10.8637
▁scope	-10.8637
▁governed	-10.8637
▁norman	-10.864
▁friendship	-10.8641
▁regardless	-10.8643
▁registered	-10.8645
▁arctic	-10.8646
ility	-10.8653
party	-10.8653
▁collaboration	-10.8654
film	-10.8656
▁archive	-10.8666
▁praised	-10.8667
▁jar	-10.8672
▁transformation	-10.8679
▁1880	-10.8684
▁equat	-10.8685
▁withdraw	-10.8687
▁steal	-10.8698
mov	-10.87
▁adhesive	-10.8705
▁armstrong	-10.8705
▁exploration	-10.8705
▁lawsuit	-10.8705
▁injury	-10.8705
grand	-10.8706
▁banach	-10.8711
▁babylonian	-10.8711
▁boundary	-10.8712
alpha	-10.8713
▁bosnian	-10.8713
▁succeed	-10.8715
▁nato	-10.8719
▁steam	-10.8731
induced	-10.8733
▁whit	-10.8746
fort	-10.875
▁princess	-10.876
held	-10.8761
▁grey	-10.8773
christian	-10.8773
fiction	-10.8773
self	-10.8773
beowulf	-10.8774
▁arbitration	-10.8774
▁participation	-10.8774
▁danger	-10.8774
▁alaric	-10.8776
methyl	-10.8776
▁defect	-10.8778
▁honey	-10.8779
▁morning	-10.8781
▁argon	-10.8786
▁withdrawal	-10.8794
▁vital	-10.8799
▁molecule	-10.8813
▁correction	-10.8815
▁battery	-10.8824
▁recover	-10.8833
genesis	-10.8836
▁replac	-10.8837
▁abuse	-10.8842
▁earthquake	-10.8843
▁diversity	-10.8843
▁promotion	-10.8843
▁reproduction	-10.8843
▁easier	-10.8843
▁removal	-10.8844
▁client	-10.8844
▁involve	-10.8844
▁nuclei	-10.8844
▁rifle	-10.8844
complete	-10.8845
▁blu	-10.8846
▁chairman	-10.8849
▁creative	-10.885
▁hitler	-10.8853
▁1952	-10.8853
▁oath	-10.8854
treaties	-10.8861
bird	-10.8863
aught	-10.8865
▁1912	-10.8865
▁administered	-10.8868
▁engage	-10.8873
▁mcc	-10.8876
▁cannon	-10.8877
▁eighth	-10.8879
made	-10.8884
▁sig	-10.8891
▁usual	-10.8898
▁connector	-10.891
craft	-10.8912
▁obvious	-10.8913
▁rhythm	-10.8913
▁acropolis	-10.8913
▁episcopal	-10.8913
▁mexican	-10.8913
▁sayyaf	-10.8913
▁suffix	-10.8913
▁volunteer	-10.8913
▁mammals	-10.8913
▁submitted	-10.8913
▁funeral	-10.8913
▁guidance	-10.8913
▁servant	-10.8913
▁cartoon	-10.8913
▁compact	-10.8914
▁zinc	-10.8914
cultural	-10.8914
august	-10.8914
▁darwin	-10.8915
mouth	-10.8915
▁passes	-10.8915
▁falcons	-10.8916
hydro	-10.8918
▁transmit	-10.8919
▁inventor	-10.8922
▁1928	-10.8925
▁challenged	-10.8928
string	-10.8951
▁rice	-10.8958
lov	-10.8977
tropic	-10.8982
▁behaviour	-10.8984
▁helicopter	-10.8984
▁perspective	-10.8984
▁volcanic	-10.8984
▁smooth	-10.8984
▁barrier	-10.8984
▁prototype	-10.8985
effect	-10.8986
▁frontier	-10.8989
▁hetero	-10.8991
▁loose	-10.8992
▁humanity	-10.8993
▁moses	-10.8996
▁belarusian	-10.9004
▁1860	-10.9018
▁gland	-10.9024
▁1890	-10.9033
governing	-10.9037
▁accrington	-10.9055
▁benjamin	-10.9055
▁confederation	-10.9055
▁crucial	-10.9055
▁emergency	-10.9055
▁fantasy	-10.9055
▁integral	-10.9055
▁precipitation	-10.9055
▁vegetable	-10.9055
▁terrain	-10.9055
▁shooting	-10.9055
▁modification	-10.9055
▁imposed	-10.9055
▁melting	-10.9064
▁jones	-10.9064
–17	-10.9081
blade	-10.9082
corp	-10.9084
▁informal	-10.9094
6%	-10.9122
▁benin	-10.9123
▁dürer	-10.9126
▁autonomy	-10.9126
▁commerce	-10.9126
▁livestock	-10.9126
▁welsh	-10.9126
▁louisiana	-10.9126
▁indonesia	-10.9126
▁citizenship	-10.9128
▁intense	-10.9128
▁chapel	-10.9129
▁talent	-10.913
▁simultaneously	-10.9136
▁lauren	-10.9141
plane	-10.9166
▁acknowledged	-10.9177
▁citizen	-10.9179
▁reflection	-10.9184
▁corporate	-10.9198
▁patriarch	-10.9198
▁concrete	-10.9198
▁huxley	-10.9198
▁attorney	-10.9198
▁requiring	-10.9198
▁jordan	-10.9198
▁bigfoot	-10.9199
▁entities	-10.9199
▁bulk	-10.9199
govern	-10.9199
▁hatch	-10.9199
▁tennis	-10.9199
▁latitude	-10.92
▁andersson	-10.92
▁coined	-10.9201
▁entity	-10.9201
▁dioxide	-10.9202
develop	-10.9203
although	-10.9203
▁venture	-10.9204
alumin	-10.9207
▁1929	-10.921
▁1949	-10.921
▁convinced	-10.9213
▁highlight	-10.9214
▁rush	-10.9224
▁promised	-10.9231
▁encourage	-10.9236
▁merit	-10.9238
▁vest	-10.9248
▁kir	-10.925
▁zoo	-10.9257
▁discover	-10.9261
▁drum	-10.9268
▁extensively	-10.9268
vertebra	-10.927
▁theologian	-10.9271
▁culminat	-10.9271
▁probability	-10.9271
▁nominated	-10.9271
▁chloride	-10.9271
fluoride	-10.9271
▁restrictions	-10.9273
▁considerably	-10.9273
▁arise	-10.9273
function	-10.9277
specific	-10.9277
▁taste	-10.9279
▁trap	-10.9281
▁octa	-10.9282
▁deploy	-10.9284
▁forcing	-10.9296
polar	-10.93
▁sid	-10.93
▁demonstrate	-10.9309
▁assume	-10.9313
▁scan	-10.9314
▁alcoholic	-10.9316
▁persia	-10.9319
▁proven	-10.9322
force	-10.9334
public	-10.9337
▁commodore	-10.9344
▁accuracy	-10.9344
▁constituent	-10.9344
▁demonstration	-10.9344
▁ingredient	-10.9344
▁mechanics	-10.9344
▁millennium	-10.9344
▁societies	-10.9344
▁1958	-10.9344
▁albedo	-10.9344
▁$3	-10.9345
▁mistake	-10.9346
▁worse	-10.9347
▁involvement	-10.9349
▁geological	-10.935
enberg	-10.9361
▁payment	-10.9365
▁homo	-10.9372
▁recognised	-10.9374
dependent	-10.9379
▁jam	-10.938
human	-10.9391
▁antarctica	-10.9395
3,000	-10.9403
▁dinosaur	-10.9417
▁integration	-10.9417
▁judaism	-10.9417
soluble	-10.9417
▁worn	-10.9418
▁unclear	-10.9424
front	-10.9426
great	-10.9427
▁arose	-10.9427
▁1946	-10.9427
▁1954	-10.9429
▁alcott	-10.9429
▁1917	-10.9435
▁terrorist	-10.9438
▁prediction	-10.945
▁cash	-10.9476
▁villa	-10.9479
▁astronaut	-10.9485
▁andronikos	-10.9491
▁equipped	-10.9491
▁polynomial	-10.9491
▁analytical	-10.9491
▁aquaculture	-10.9491
▁deficit	-10.9491
▁diocese	-10.9491
▁electoral	-10.9491
▁disaster	-10.9491
▁flew	-10.9493
▁dishes	-10.9494
▁caught	-10.9497
▁flame	-10.9498
father	-10.9501
▁arabia	-10.9506
▁shock	-10.9509
▁initiat	-10.9509
ör	-10.9517
▁trick	-10.9534
▁noise	-10.9536
▁speaker	-10.9538
▁algerian	-10.954
when	-10.9552
▁currency	-10.9566
▁decisive	-10.9566
▁temporary	-10.9566
▁predator	-10.9567
▁creek	-10.9569
▁engagement	-10.9571
▁actress	-10.9572
haus	-10.9577
generation	-10.9578
infect	-10.9578
▁subset	-10.9579
▁window	-10.958
▁1925	-10.9585
four	-10.9585
▁camus	-10.9586
▁50%	-10.959
text	-10.9596
keeping	-10.9596
▁chile	-10.96
▁sri	-10.9603
▁conclude	-10.9606
▁mike	-10.9611
rash	-10.9626
bow	-10.9632
▁aurochs	-10.9641
▁baptism	-10.9641
▁atlantis	-10.9641
▁proclaimed	-10.9641
▁driving	-10.9641
▁behalf	-10.9641
▁utiliz	-10.9642
▁polymer	-10.9644
▁apartment	-10.965
▁textile	-10.9651
▁1959	-10.9651
▁morris	-10.9652
number	-10.9653
▁relate	-10.9655
▁iranian	-10.9655
government	-10.9658
▁graphic	-10.9666
▁rav	-10.9676
▁deaf	-10.9682
astron	-10.9685
▁introduce	-10.9687
capitalist	-10.9708
▁grass	-10.9709
▁korea	-10.9716
▁abbreviation	-10.9717
▁aberdare	-10.9717
▁dissolved	-10.9717
▁sacrament	-10.9717
▁cluster	-10.9717
▁sudden	-10.9717
lecommunications	-10.9717
▁bromine	-10.9717
▁substitute	-10.9717
▁animated	-10.9717
▁afford	-10.9717
▁berber	-10.9718
▁bubble	-10.9718
▁preference	-10.972
▁fictional	-10.972
▁evolutionary	-10.9723
▁battlefield	-10.9725
▁wore	-10.9729
river	-10.9729
▁volta	-10.9739
death	-10.9745
electric	-10.9758
▁modest	-10.9759
▁simon	-10.9776
dorf	-10.9781
▁passion	-10.9788
▁abundant	-10.9793
▁aerodynamic	-10.9793
▁autobiography	-10.9793
▁chekhov	-10.9793
▁completion	-10.9793
▁lombard	-10.9793
▁unemployment	-10.9793
▁fulfill	-10.9793
▁psychological	-10.9793
▁rugby	-10.9793
▁mercury	-10.9793
▁barbuda	-10.9793
▁synthesize	-10.9793
▁bardot	-10.9793
▁regain	-10.9793
▁attested	-10.9793
syllab	-10.9794
▁meteor	-10.9794
▁cappella	-10.9794
▁biographer	-10.9795
▁eleven	-10.9795
▁confront	-10.9798
▁remainder	-10.98
▁sword	-10.9802
▁1957	-10.9803
▁weigh	-10.9804
▁1926	-10.9805
▁shut	-10.9808
lived	-10.981
▁uncle	-10.9811
stadt	-10.9813
construct	-10.9814
▁promise	-10.9835
brand	-10.9839
archaeopteryx	-10.987
▁occupy	-10.987
▁opportunities	-10.987
▁quantity	-10.987
▁agarose	-10.987
▁harvest	-10.987
▁austro	-10.9871
▁bias	-10.9872
▁isaac	-10.9873
▁maritime	-10.9873
▁davis	-10.9877
▁landmark	-10.988
▁1953	-10.988
▁plac	-10.9881
▁counterpart	-10.9884
▁1913	-10.9887
what	-10.9887
▁esp	-10.9889
▁hippo	-10.9905
▁mega	-10.9933
lé	-10.994
▁agamemnon	-10.9948
▁participant	-10.9948
▁persecution	-10.9948
▁routine	-10.9948
▁gordon	-10.9948
▁relocat	-10.9948
▁overseas	-10.9948
▁nerve	-10.9949
▁infant	-10.995
▁plague	-10.9952
▁appointment	-10.9952
coll	-10.9956
▁informed	-10.9956
▁abner	-10.996
▁metaboli	-10.9962
stream	-10.9962
▁thanks	-10.9967
▁spend	-10.9984
▁quick	-11.0001
▁warning	-11.0015
▁instruct	-11.0023
▁confederacy	-11.0026
▁durrani	-11.0026
▁illinois	-11.0026
▁multiplication	-11.0026
▁squadron	-11.0026
▁supplied	-11.0026
▁vacuum	-11.0026
▁agencies	-11.0026
▁profile	-11.0026
▁ultra	-11.0026
▁athlon	-11.0027
▁travelled	-11.0034
▁1938	-11.004
covered	-11.0047
▁harsh	-11.0052
allah	-11.0062
▁triple	-11.0073
▁geographic	-11.0082
▁comparative	-11.0104
▁lavoisier	-11.0104
▁symphony	-11.0104
▁coincide	-11.0104
▁burundi	-11.0104
▁fabric	-11.0104
▁korean	-11.0105
▁acute	-11.0109
▁metallic	-11.0116
▁dependence	-11.0117
▁1933	-11.012
through	-11.0123
season	-11.0125
▁1915	-11.0125
▁lung	-11.0128
▁mystic	-11.0134
▁ethical	-11.0138
▁celebrate	-11.0149
prim	-11.0156
▁acquisition	-11.0184
▁beethoven	-11.0184
▁efficiency	-11.0184
▁explosive	-11.0184
▁hellenistic	-11.0184
▁negotiate	-11.0184
▁jaguar	-11.0184
▁mortality	-11.0184
▁surprise	-11.0184
▁ongoing	-11.0188
▁tribal	-11.0189
▁2600	-11.02
▁1937	-11.0201
ceded	-11.0203
▁duty	-11.0204
three	-11.0207
▁manufactured	-11.0215
▁successive	-11.0216
▁furniture	-11.0264
▁athletic	-11.0264
▁carolla	-11.0264
▁fleming	-11.0264
▁motif	-11.0264
▁repair	-11.0264
▁abroad	-11.0264
▁saudi	-11.0264
▁liberation	-11.0264
▁fortress	-11.0267
▁pasha	-11.0273
▁ascend	-11.0277
hispanic	-11.0277
▁edict	-11.028
historic	-11.0285
current	-11.0285
correct	-11.0285
▁$5	-11.0302
▁seized	-11.0302
ogenic	-11.0303
▁rub	-11.0303
–16	-11.0305
▁pipe	-11.032
▁macedonia	-11.0321
apocrypha	-11.0344
▁arbitrage	-11.0344
▁bandwidth	-11.0344
▁enterprise	-11.0344
▁marlborough	-11.0344
▁relevant	-11.0344
▁skeleton	-11.0344
▁inherited	-11.0344
▁danube	-11.0344
▁algiers	-11.0344
▁readily	-11.0345
▁golf	-11.0351
bble	-11.0365
articulat	-11.0368
▁100,000	-11.0377
▁laser	-11.0378
▁raj	-11.038
▁raw	-11.0392
▁celestial	-11.0426
▁economist	-11.0426
▁enormous	-11.0426
apatosaurus	-11.0426
▁departure	-11.0426
▁prevail	-11.0426
▁russell	-11.0426
▁surgery	-11.0426
▁malaysia	-11.0426
▁avenue	-11.0426
▁arguing	-11.0426
▁analyze	-11.0426
▁scandal	-11.0426
▁emigrat	-11.0427
▁rescue	-11.0427
▁mongol	-11.0428
▁enforcement	-11.0431
▁accent	-11.0433
▁1908	-11.0435
▁1905	-11.0436
▁hugh	-11.0439
▁anderson	-11.044
▁robot	-11.044
▁extraction	-11.0442
▁olive	-11.0458
▁silk	-11.048
▁respective	-11.0496
▁chemist	-11.0503
universit	-11.0507
▁anatomy	-11.0508
▁ethiopia	-11.0508
▁fifteen	-11.0508
▁garrison	-11.0508
▁petroleum	-11.0508
▁schweitzer	-11.0508
▁survival	-11.0508
▁zubaydah	-11.0508
▁additive	-11.0508
▁hazard	-11.0508
▁sentiment	-11.0508
▁sulfur	-11.0508
▁pillar	-11.0508
correlation	-11.0508
▁unesco	-11.0508
▁emergence	-11.0508
▁crust	-11.0508
mahā	-11.0509
▁boundaries	-11.051
▁nominal	-11.0512
▁specified	-11.0512
▁underlying	-11.0513
▁trump	-11.0514
▁1923	-11.052
greek	-11.0533
foot	-11.0542
kara	-11.0555
▁burial	-11.0581
▁sydney	-11.059
▁cauchy	-11.059
▁deputy	-11.059
▁abalone	-11.059
▁antonio	-11.0591
▁suggestion	-11.0595
▁venice	-11.0595
▁1931	-11.0602
▁1922	-11.0605
▁appoint	-11.061
▁acknowledg	-11.0614
▁boom	-11.0618
▁gap	-11.062
weight	-11.0625
▁thi	-11.0633
ultimate	-11.0673
▁consensus	-11.0674
▁douglas	-11.0674
▁precision	-11.0674
▁proclamation	-11.0674
▁identification	-11.0674
▁harbour	-11.0674
▁sediment	-11.0674
▁shrine	-11.0674
▁converge	-11.0674
▁evangelical	-11.0674
▁turks	-11.0675
▁dylan	-11.0678
▁boost	-11.0678
▁rib	-11.0687
▁socio	-11.0691
written	-11.0702
▁lineage	-11.0719
▁earl	-11.0721
calvin	-11.073
clar	-11.0747
trust	-11.0747
▁excess	-11.0753
▁faculty	-11.0758
▁octavian	-11.0758
▁examination	-11.0758
▁privilege	-11.0758
▁relativity	-11.0758
▁apoptosis	-11.0758
▁comparable	-11.0758
▁abydos	-11.0758
▁adrenal	-11.0758
▁injuries	-11.0758
▁violation	-11.0758
austral	-11.076
▁victories	-11.0762
▁honorary	-11.077
▁realized	-11.0782
▁1861	-11.0786
political	-11.0789
▁overlap	-11.079
chief	-11.0793
▁facilitate	-11.0834
▁lamp	-11.0837
▁enforce	-11.084
▁punish	-11.0842
associative	-11.0842
▁acapulco	-11.0842
▁allegiance	-11.0842
▁asymptote	-11.0842
▁cognitive	-11.0842
▁grothendieck	-11.0842
▁accompany	-11.0842
▁wheat	-11.0842
▁widow	-11.0842
▁anticipat	-11.0843
▁liberty	-11.0843
▁1862	-11.0843
▁aleut	-11.0845
▁dramatically	-11.0846
▁nitride	-11.0848
▁abdul	-11.085
▁1901	-11.0856
▁mood	-11.0871
culture	-11.0881
▁andalusian	-11.0882
▁decide	-11.0894
▁steven	-11.0899
▁settle	-11.09
good	-11.0908
▁relat	-11.0915
$1	-11.0915
▁assembled	-11.0928
▁christopher	-11.0928
▁enlightenment	-11.0928
▁modulation	-11.0928
▁technological	-11.0928
▁expense	-11.0928
▁pilgrim	-11.0928
▁promoting	-11.0928
▁disciple	-11.0928
▁signature	-11.0928
▁gothic	-11.0928
▁defining	-11.0928
▁exhaust	-11.0928
▁cpc	-11.0928
peptide	-11.0929
▁scholarship	-11.0931
▁voltage	-11.0933
▁attendance	-11.0933
▁clause	-11.0933
▁getting	-11.0942
took	-11.0948
▁bacterial	-11.0948
music	-11.096
apollo	-11.0961
▁rally	-11.097
▁gaul	-11.0973
▁quin	-11.0976
▁terror	-11.099
▁mitchell	-11.1014
▁akkadian	-11.1014
▁comprehensive	-11.1014
▁hemisphere	-11.1014
▁whilst	-11.1014
▁ukraine	-11.1014
▁emerging	-11.1014
▁hawaii	-11.1014
▁variance	-11.1014
▁inflation	-11.1015
▁stick	-11.1016
▁tongue	-11.1016
▁gallery	-11.1016
jour	-11.1017
▁accessible	-11.1023
▁firing	-11.1026
▁serial	-11.1027
▁biology	-11.1031
▁bitter	-11.1032
hungarian	-11.1048
▁divorce	-11.1101
▁monastic	-11.1101
▁disrupt	-11.1101
▁withdrew	-11.1101
▁munich	-11.1101
▁slope	-11.1101
▁constrain	-11.1101
▁climb	-11.1101
▁automobile	-11.1102
▁revised	-11.1102
▁facing	-11.1102
▁communicate	-11.1104
▁transmitted	-11.1105
▁otto	-11.1112
symmetr	-11.1115
▁decree	-11.1118
▁chronic	-11.1119
▁carries	-11.1121
military	-11.1137
▁hang	-11.1138
▁altar	-11.1139
▁bruce	-11.1145
▁arrive	-11.1154
▁authentic	-11.1189
▁cambridge	-11.1189
▁irregular	-11.1189
▁syndrome	-11.1189
▁competing	-11.1189
▁harbor	-11.1189
▁punjab	-11.1189
▁worst	-11.1189
▁prefix	-11.1194
▁oscar	-11.1195
▁southeastern	-11.1195
▁interval	-11.1204
▁favorite	-11.1208
▁sancti	-11.1211
▁instant	-11.1215
▁similarities	-11.1216
fight	-11.1227
▁thy	-11.1243
▁battlecruiser	-11.1277
▁hurricane	-11.1277
▁ulvaeus	-11.1277
▁jupiter	-11.1277
▁vivaldi	-11.1277
▁epithet	-11.1277
▁finland	-11.1278
▁freshwater	-11.1278
▁carved	-11.1278
▁decoration	-11.1279
▁immigration	-11.128
▁raising	-11.1281
▁1927	-11.1294
wald	-11.1297
▁vega	-11.13
▁fever	-11.1321
urged	-11.1328
▁schedule	-11.1332
▁soldier	-11.1353
▁posit	-11.1355
▁caliph	-11.1362
▁preservation	-11.1367
▁compiler	-11.1367
anthropic	-11.1367
▁combining	-11.1367
▁mystery	-11.1367
▁caesium	-11.1367
▁ecological	-11.1367
▁brick	-11.1367
▁pulse	-11.1367
▁catalogue	-11.1368
amazing	-11.1369
▁airplane	-11.137
▁permission	-11.1376
▁feud	-11.1379
▁manufacture	-11.1379
▁1932	-11.1382
▁observe	-11.1384
▁1936	-11.1386
▁viking	-11.1387
smith	-11.142
▁ride	-11.1424
▁praise	-11.1427
court	-11.1429
▁definite	-11.1429
▁aggr	-11.1453
▁ealdred	-11.1457
▁legitimate	-11.1457
▁libraries	-11.1457
▁precursor	-11.1457
▁psychology	-11.1457
▁margaret	-11.1457
▁antoninus	-11.1457
▁dubbed	-11.1457
▁kelly	-11.1458
▁comfort	-11.1459
color	-11.1459
▁activate	-11.1459
▁polarization	-11.146
▁arcade	-11.1461
▁pump	-11.1463
▁effectiveness	-11.1468
▁commentary	-11.147
▁everyone	-11.1479
6,000	-11.1534
▁compute	-11.1536
▁abolition	-11.1548
▁engrav	-11.1548
▁monasteries	-11.1548
▁pandemic	-11.1548
▁phoenix	-11.1548
▁playwright	-11.1548
▁anguilla	-11.1548
▁triangle	-11.1548
phosphor	-11.1548
▁convey	-11.1548
▁wool	-11.1548
▁delegate	-11.1548
▁installation	-11.1548
▁colonel	-11.1556
▁virus	-11.1564
acetylene	-11.1577
writing	-11.1591
economic	-11.1591
ullah	-11.16
▁exclusive	-11.1612
▁publish	-11.1614
andalus	-11.1635
▁acceleration	-11.1639
▁abscess	-11.1639
▁ambassador	-11.1639
▁hydroxide	-11.1639
▁suspended	-11.1639
▁treasure	-11.1639
▁prospect	-11.1639
▁cemetery	-11.1639
▁happy	-11.1639
▁peasant	-11.1639
▁singular	-11.1639
▁vertebrate	-11.164
▁empty	-11.164
welcome	-11.1642
▁telegraph	-11.1642
▁bernard	-11.1642
▁crude	-11.1644
▁batting	-11.1651
▁covid	-11.1658
▁adhere	-11.1664
▁theodor	-11.169
▁rough	-11.1718
▁córdoba	-11.1732
▁cyprus	-11.1732
▁nutrient	-11.1732
▁enclos	-11.1732
▁numerical	-11.1732
▁julius	-11.1732
▁applies	-11.1732
▁violin	-11.1732
▁wavelength	-11.1732
▁inherent	-11.1733
▁aftermath	-11.1733
▁crack	-11.1733
▁steiner	-11.1733
▁appellat	-11.1735
▁henri	-11.1735
▁layout	-11.1735
super	-11.1736
▁monetar	-11.1737
bodhi	-11.1742
▁alpine	-11.1744
▁starred	-11.1745
▁feast	-11.1746
earth	-11.1766
▁attach	-11.177
biotic	-11.1781
connect	-11.1784
selling	-11.18
brook	-11.1809
▁alexandr	-11.1819
mamma	-11.1823
▁affirm	-11.1825
▁amplifier	-11.1825
▁measuring	-11.1825
▁primitive	-11.1825
▁retirement	-11.1825
▁rhetoric	-11.1825
▁treasury	-11.1825
▁maneuver	-11.1825
▁powder	-11.1825
▁ticket	-11.1825
▁asphalt	-11.1825
▁renowned	-11.1825
▁wisdom	-11.1825
▁extant	-11.1826
▁counsel	-11.1826
ometry	-11.1826
▁gamma	-11.1827
▁naming	-11.1827
▁residue	-11.1828
▁solvent	-11.1829
▁collins	-11.1829
▁fourteen	-11.1833
▁titan	-11.1844
▁coverage	-11.1845
▁repeat	-11.1863
afghan	-11.1874
indian	-11.188
▁declare	-11.1888
phosphate	-11.192
▁appreciat	-11.192
▁bauhaus	-11.192
▁nonetheless	-11.192
▁vancouver	-11.192
▁acrylic	-11.192
▁pierre	-11.192
▁flank	-11.192
▁abelian	-11.1921
▁spear	-11.1921
▁criticised	-11.1922
▁excessive	-11.1925
▁breath	-11.1928
▁algol	-11.1929
▁hook	-11.193
birth	-11.1971
central	-11.1975
witch	-11.2008
▁temporarily	-11.2015
▁commitment	-11.2015
▁conviction	-11.2015
▁excellent	-11.2015
▁striking	-11.2015
▁franz	-11.2015
▁bryozoan	-11.2015
▁michel	-11.2018
▁flash	-11.202
▁filmmaker	-11.202
▁caliphate	-11.202
▁2023	-11.2026
▁leaf	-11.2031
▁stake	-11.206
▁feder	-11.209
▁atmospheric	-11.2111
▁penicillin	-11.2111
▁scandinavia	-11.2111
▁assessment	-11.2111
▁hydrocarbon	-11.2111
▁tiberius	-11.2111
▁sicily	-11.2111
▁minimal	-11.2113
acacia	-11.2119
▁peaceful	-11.2121
▁1903	-11.2123
▁foster	-11.2123
▁reliable	-11.2126
▁database	-11.214
▁abandon	-11.2149
▁induce	-11.2165
▁virtual	-11.2181
▁restore	-11.2188
▁sovereign	-11.2206
▁accommodate	-11.2208
▁expelled	-11.2208
▁improving	-11.2208
▁nephew	-11.2208
▁ordained	-11.2208
▁remnant	-11.2208
▁pollution	-11.2208
▁lovelace	-11.2208
▁overthrow	-11.2208
▁ignored	-11.2208
▁implies	-11.2208
▁aquatic	-11.2209
▁interference	-11.2209
▁decorated	-11.2209
▁blend	-11.221
▁intent	-11.2214
▁garner	-11.2214
▁antony	-11.2229
▁plum	-11.2239
activity	-11.2266
classical	-11.2273
▁aegina	-11.2306
▁edinburgh	-11.2306
▁kentucky	-11.2306
▁sophisticated	-11.2306
▁vulnerable	-11.2306
lgbt	-11.2306
▁armament	-11.2306
▁awareness	-11.2306
▁duchy	-11.2306
▁floating	-11.2307
▁aeneas	-11.2307
360	-11.2318
▁geology	-11.232
▁amines	-11.2336
aqueous	-11.2346
▁imitat	-11.2359
especially	-11.2365
president	-11.2365
april	-11.2365
region	-11.2371
hydroxy	-11.2379
▁aggressive	-11.2405
▁alkaloids	-11.2405
▁antioxidant	-11.2405
▁barcelona	-11.2405
▁berkelium	-11.2405
▁casualties	-11.2405
▁frequencies	-11.2405
▁inclusion	-11.2405
▁satisfy	-11.2405
▁umayyad	-11.2405
▁impressed	-11.2405
▁turkic	-11.2405
▁conversation	-11.2405
▁azores	-11.2405
▁outdoor	-11.2405
▁abacus	-11.2406
▁abbasid	-11.2406
▁rubber	-11.2408
▁cellular	-11.2411
▁bottle	-11.2415
iliad	-11.2419
assyrian	-11.2466
▁patch	-11.2472
▁eventual	-11.2482
cephal	-11.2503
▁achaemenid	-11.2505
▁aspartame	-11.2505
▁colloquial	-11.2505
▁pharmaceutical	-11.2505
▁replied	-11.2505
▁vocabulary	-11.2505
▁allegations	-11.2505
▁statute	-11.2505
▁petition	-11.2505
▁stanley	-11.2505
▁ohio	-11.2505
▁aragonese	-11.2506
▁decorative	-11.2506
▁illustration	-11.2506
▁grandfather	-11.2507
▁swing	-11.2507
▁smoke	-11.2507
▁selective	-11.2514
▁organize	-11.258
▁achill	-11.2596
▁affiliate	-11.2605
▁ambrosius	-11.2606
▁arriving	-11.2606
▁excavation	-11.2606
▁practitioner	-11.2606
▁salamander	-11.2606
▁serotonin	-11.2606
▁confused	-11.2606
▁contrary	-11.2606
▁fifty	-11.2606
▁arminian	-11.2606
▁corpus	-11.2607
▁tight	-11.2664
profit	-11.2671
friend	-11.2671
▁linguist	-11.2682
▁propose	-11.2687
issa	-11.2694
▁charlemagne	-11.2708
▁floppy	-11.2708
▁imprisoned	-11.2708
▁macintosh	-11.2708
▁nicholas	-11.2708
▁phoenician	-11.2708
▁toriyama	-11.2708
▁twentieth	-11.2708
▁yankees	-11.2708
▁charlotte	-11.2708
▁occurrence	-11.2708
▁drought	-11.2708
▁guthrie	-11.2708
chromatic	-11.2708
▁revelation	-11.2708
▁eternal	-11.2709
▁renewed	-11.2709
▁uprising	-11.2709
▁attila	-11.2709
▁cosmic	-11.2709
▁sovereignty	-11.2711
▁chipset	-11.2711
▁colonists	-11.2712
▁sudan	-11.2715
parasit	-11.2732
▁patient	-11.2742
▁mandate	-11.2755
usually	-11.2781
▁aeschylus	-11.2811
▁alhazen	-11.2811
▁almoravid	-11.2811
▁composite	-11.2811
▁efficacy	-11.2811
▁elephant	-11.2811
▁limestone	-11.2811
▁outstanding	-11.2811
▁peripheral	-11.2811
▁terrestrial	-11.2811
▁closure	-11.2811
▁empirical	-11.2811
▁calcium	-11.2811
▁hidden	-11.2811
▁bromide	-11.2811
▁cernan	-11.2811
▁declaring	-11.2811
▁snake	-11.2812
▁thrust	-11.2812
▁shopping	-11.2813
▁embrace	-11.2814
▁bitola	-11.2814
▁spark	-11.2815
▁lanka	-11.2829
▁agp	-11.2829
▁clone	-11.2835
▁bohr	-11.2843
▁brooks	-11.2855
▁basket	-11.2915
▁ambiguity	-11.2916
▁arbitrary	-11.2916
▁compilation	-11.2916
▁welfare	-11.2916
▁nationwide	-11.2916
▁pradesh	-11.2916
▁qualities	-11.2916
▁olympia	-11.2916
▁diamondbacks	-11.2916
▁intensity	-11.2916
libertarian	-11.2916
▁removing	-11.2916
▁martyr	-11.2916
▁edited	-11.2916
▁shipping	-11.2921
pharma	-11.2942
▁recogniz	-11.2967
▁assembler	-11.3021
▁euclid	-11.3021
▁voluntary	-11.3021
▁czech	-11.3021
▁submarine	-11.3021
▁anonymous	-11.3021
▁diminish	-11.3021
▁oxidiz	-11.3021
▁actinium	-11.3021
cylinder	-11.3021
▁sketch	-11.3021
propelled	-11.3021
▁thunder	-11.3021
▁coefficient	-11.3023
▁fauna	-11.3024
▁discoveries	-11.3025
▁organised	-11.3026
▁conceptual	-11.3028
pyr	-11.3069
▁0.0	-11.3095
physical	-11.3097
walk	-11.3099
▁pronoun	-11.3127
▁swift	-11.3127
▁wollstonecraft	-11.3127
▁administrator	-11.3127
▁archaeologist	-11.3127
▁discrimination	-11.3127
▁enslaved	-11.3127
▁testimony	-11.3127
▁reproduce	-11.3127
▁borrowed	-11.3127
▁evident	-11.3127
▁healthcare	-11.3127
▁pearl	-11.3127
▁corinth	-11.3127
▁donald	-11.3128
affiliated	-11.3129
▁insisted	-11.313
▁tasman	-11.313
▁sixteen	-11.3131
▁florence	-11.3133
▁timber	-11.3134
hercule	-11.3195
▁assyria	-11.3207
▁anthropologist	-11.3235
▁criteria	-11.3235
▁encoding	-11.3235
▁karpov	-11.3235
▁mycenae	-11.3235
▁vespucci	-11.3235
▁immune	-11.3235
▁interchange	-11.3235
▁penalty	-11.3235
▁martial	-11.3235
▁unstable	-11.3235
▁quran	-11.3235
▁globe	-11.3235
▁homosexual	-11.3235
▁lynch	-11.3235
▁blockade	-11.3241
▁nitri	-11.3246
▁clark	-11.325
published	-11.3314
▁approximate	-11.3317
▁bletchley	-11.3343
▁strategies	-11.3343
▁subsidiary	-11.3343
▁mouthwash	-11.3343
▁dominance	-11.3343
▁salvation	-11.3343
▁ataxia	-11.3344
▁colorado	-11.3344
▁beverage	-11.3344
britney	-11.3344
▁shelter	-11.3344
▁staple	-11.3344
▁absent	-11.3346
▁libya	-11.335
cuba	-11.3361
recipients	-11.3363
atlantic	-11.3424
catholic	-11.3424
afroasiatic	-11.3453
isfahani	-11.3453
▁amplitude	-11.3453
▁availability	-11.3453
▁cultivated	-11.3453
▁dialogue	-11.3453
▁distributor	-11.3453
▁ecosystem	-11.3453
▁gaudí	-11.3453
▁habsburg	-11.3453
▁manhattan	-11.3453
▁residential	-11.3453
▁mobility	-11.3453
▁triumph	-11.3453
▁boolean	-11.3453
▁trinity	-11.3453
▁underwent	-11.3453
▁pleasure	-11.3454
▁alboin	-11.3454
▁mlb	-11.3454
▁resumed	-11.3454
▁tariff	-11.3455
▁screenplay	-11.3455
▁campbell	-11.3455
▁vogt	-11.3456
▁pipeline	-11.3456
▁tendency	-11.3457
▁nicol	-11.347
▁blame	-11.348
burials	-11.3486
▁cliff	-11.3494
▁revere	-11.3501
petr	-11.3502
structure	-11.3536
aircraft	-11.3538
living	-11.3539
green	-11.3539
particle	-11.3553
▁suffer	-11.3563
▁arthritis	-11.3564
▁claudius	-11.3564
▁eddington	-11.3564
▁fiorentina	-11.3564
▁mahmud	-11.3564
▁nineteenth	-11.3564
▁pregnancy	-11.3564
▁proximity	-11.3564
▁pursuit	-11.3564
▁subordinate	-11.3564
▁vegetation	-11.3564
▁widdecombe	-11.3564
▁compiled	-11.3564
▁drove	-11.3565
▁buffer	-11.3565
▁marple	-11.3565
▁vapor	-11.3565
▁apache	-11.3565
▁turret	-11.3565
sculpt	-11.3565
▁fault	-11.3566
▁copyright	-11.3566
▁isolation	-11.3567
▁lithuania	-11.3614
▁accelerate	-11.3677
▁pittsburgh	-11.3677
austroasiatic	-11.3677
▁aikido	-11.3677
▁consciousness	-11.3677
▁conspiracy	-11.3677
▁sanctuary	-11.3677
▁stimulate	-11.3677
▁tobacco	-11.3677
▁harvard	-11.3677
▁nobility	-11.3677
▁governance	-11.3677
▁istanbul	-11.3677
▁whig	-11.3677
▁eighteen	-11.3677
▁ransom	-11.3677
▁contend	-11.3679
▁stolen	-11.368
▁radioactive	-11.368
▁versus	-11.3681
▁afro	-11.3688
waiting	-11.3695
▁fringe	-11.3705
chemistry	-11.3765
▁macedon	-11.3774
▁believing	-11.379
▁caucasus	-11.379
▁confidence	-11.379
▁herodotus	-11.379
▁ludwig	-11.379
▁referendum	-11.379
▁wilhelm	-11.379
▁cultivation	-11.379
▁flemish	-11.379
▁discharge	-11.379
▁prevalent	-11.379
▁purple	-11.379
ahimsa	-11.379
▁socket	-11.3791
▁manuel	-11.3791
▁auction	-11.3791
▁announcement	-11.3791
▁detach	-11.3791
▁fortune	-11.3792
gotten	-11.3869
islamic	-11.3881
▁beneficial	-11.3905
▁conjunction	-11.3905
▁decreasing	-11.3905
▁dictionary	-11.3905
▁laboratories	-11.3905
▁motivation	-11.3905
▁obstacle	-11.3905
▁pashtun	-11.3905
▁revived	-11.3905
▁semiconductor	-11.3905
▁swimming	-11.3905
▁unveiled	-11.3905
▁chancellor	-11.3905
▁sparrow	-11.3905
▁uranium	-11.3905
▁intrinsic	-11.3905
▁derleth	-11.3905
▁maternal	-11.3905
▁blake	-11.3906
▁eldest	-11.3906
▁departed	-11.3906
▁plasma	-11.3906
▁migrated	-11.3907
▁naked	-11.3907
▁assuming	-11.3907
▁acadia	-11.3908
historia	-11.3909
▁isomer	-11.3926
bourg	-11.3938
articles	-11.3977
major	-11.3999
defined	-11.3999
▁pharaoh	-11.4022
▁assassinated	-11.4022
▁bosporus	-11.4022
▁competitor	-11.4022
▁liturgical	-11.4022
▁thompson	-11.4022
▁vaccine	-11.4022
▁ambush	-11.4022
▁junior	-11.4022
▁remarkable	-11.4022
▁qualify	-11.4022
▁devised	-11.4022
▁thorough	-11.4022
▁quiet	-11.4023
▁bundle	-11.4023
continental	-11.4097
▁calculate	-11.4104
titude	-11.4107
author	-11.4118
system	-11.4125
▁babylon	-11.4129
▁unexpected	-11.4139
▁agesilaus	-11.4139
▁babbage	-11.4139
▁coffee	-11.4139
▁inferior	-11.4139
▁necessity	-11.4139
▁nutrition	-11.4139
▁offspring	-11.4139
▁perpendicular	-11.4139
▁sakharov	-11.4139
▁thackeray	-11.4139
▁enabling	-11.4139
▁tertiary	-11.4139
▁andromeda	-11.4139
▁proponent	-11.4139
▁miracle	-11.4139
▁kansas	-11.4139
▁sensory	-11.4139
▁tolerance	-11.414
▁remarked	-11.414
▁murray	-11.4141
realism	-11.4161
generating	-11.4201
▁identifie	-11.4223
soviet	-11.4238
▁luther	-11.4248
▁adequate	-11.4258
▁aristophanes	-11.4258
▁conservator	-11.4258
▁jefferson	-11.4258
▁jeffrey	-11.4258
▁kandahar	-11.4258
▁posthumous	-11.4258
▁sarajevo	-11.4258
▁trajectory	-11.4258
▁hamilton	-11.4258
▁taiwan	-11.4258
▁speculation	-11.4258
▁taylor	-11.4258
▁cortex	-11.4258
▁alkyl	-11.4258
▁knock	-11.4258
▁sustainable	-11.4259
▁subtract	-11.4259
▁anagram	-11.4259
hedral	-11.426
▁saving	-11.426
▁pedro	-11.426
▁dominate	-11.4344
stabili	-11.4345
▁gradual	-11.4352
▁recipient	-11.4357
controlled	-11.4361
▁brooklyn	-11.4379
▁combustion	-11.4379
▁equilibrium	-11.4379
▁headquartered	-11.4379
▁theodosius	-11.4379
▁watterson	-11.4379
▁populous	-11.4379
▁pregnant	-11.4379
▁alameda	-11.4379
▁compensate	-11.4379
▁corridor	-11.4379
▁folklore	-11.4379
▁carefully	-11.4379
▁wedding	-11.4379
▁petersburg	-11.4379
▁hormone	-11.4379
▁uefa	-11.4379
▁aromatic	-11.4379
▁paved	-11.438
▁fiscal	-11.438
beneath	-11.4386
▁tsar	-11.4395
float	-11.4449
wheel	-11.4484
▁bloc	-11.4499
▁catalyst	-11.4501
▁fountain	-11.4501
▁griffith	-11.4501
▁kosovo	-11.4501
▁kournikova	-11.4501
▁offshore	-11.4501
▁prosperity	-11.4501
▁westminster	-11.4501
▁grammatical	-11.4501
▁dopamine	-11.4501
▁patrick	-11.4501
▁ceramic	-11.4501
▁denounc	-11.4501
▁sequel	-11.4501
▁vibration	-11.4501
▁heracles	-11.4501
▁implication	-11.4501
▁guidelines	-11.4501
▁amalric	-11.4501
▁confined	-11.4501
▁partition	-11.4501
▁ascetic	-11.4502
intensive	-11.4504
▁devil	-11.4572
columbia	-11.4609
▁aardvark	-11.4624
▁alabaster	-11.4624
▁ambiguous	-11.4624
▁anemometer	-11.4624
▁archaeology	-11.4624
▁nomenclature	-11.4624
▁respiratory	-11.4624
▁singapore	-11.4624
▁therapeutic	-11.4624
▁cretaceous	-11.4624
▁desktop	-11.4624
▁immense	-11.4624
▁morocco	-11.4624
▁bornholm	-11.4624
▁hijacking	-11.4624
▁innocent	-11.4625
▁chassis	-11.4625
▁theropod	-11.4625
▁pledge	-11.4625
▁stabilize	-11.4625
▁earthsea	-11.4625
▁beacon	-11.4626
altaic	-11.4641
keeper	-11.4647
capital	-11.4694
▁emerge	-11.4716
school	-11.4736
▁abundance	-11.4749
▁altruism	-11.4749
▁ambitious	-11.4749
▁contemporaries	-11.4749
▁certified	-11.4749
▁fluctuat	-11.4749
▁thracian	-11.4749
▁imagine	-11.4749
▁chicken	-11.4749
▁feminist	-11.4749
▁flavor	-11.4749
▁agrarian	-11.4749
▁dostum	-11.4749
▁fierce	-11.4749
▁autocad	-11.4749
▁congressional	-11.4749
▁vassal	-11.475
▁perseus	-11.475
▁differentiate	-11.4792
▁specify	-11.4805
▁educat	-11.4814
rgic	-11.4861
▁affiliation	-11.4876
▁economies	-11.4876
▁extraordinary	-11.4876
▁imprisonment	-11.4876
▁shuttlecock	-11.4876
karabakh	-11.4876
▁ayckbourn	-11.4876
▁connecticut	-11.4876
▁default	-11.4876
▁difranco	-11.4876
▁liberties	-11.4876
▁militant	-11.4876
▁infrared	-11.4876
▁arnold	-11.4876
▁ideology	-11.4876
▁overcome	-11.4876
▁farther	-11.4877
▁wesley	-11.4877
▁relieve	-11.4971
containing	-11.4993
standard	-11.4993
african	-11.4993
▁approximation	-11.5004
▁genocide	-11.5004
▁herbicide	-11.5004
▁kidnapping	-11.5004
▁prescribed	-11.5004
▁synagogue	-11.5004
▁bohemia	-11.5004
▁embedded	-11.5004
▁neglect	-11.5004
▁displaced	-11.5004
▁vitamin	-11.5004
▁laureate	-11.5004
▁innovative	-11.5004
▁righteous	-11.5004
▁imaging	-11.5004
▁aldrin	-11.5004
▁dominion	-11.5004
▁dancing	-11.5004
▁therapies	-11.5005
▁torture	-11.5007
▁iowa	-11.5008
▁patrol	-11.5013
▁achiev	-11.5044
▁releas	-11.5114
foreign	-11.5125
religious	-11.5125
family	-11.5125
songwriter	-11.5134
▁adiabatic	-11.5134
▁ajaccio	-11.5134
▁anointing	-11.5134
▁baldwin	-11.5134
▁bundestag	-11.5134
▁explosion	-11.5134
▁ibrahim	-11.5134
▁judiciary	-11.5134
▁larvae	-11.5134
▁talmud	-11.5134
▁hockey	-11.5134
▁prominence	-11.5134
▁spherical	-11.5134
▁alkenes	-11.5134
▁scotia	-11.5134
▁symmetry	-11.5134
▁delphi	-11.5137
▁whale	-11.5143
folk	-11.5144
▁dvd	-11.5172
mythological	-11.5249
princip	-11.5263
▁definitive	-11.5265
▁overwhelming	-11.5265
metaphysics	-11.5265
▁abbreviated	-11.5265
▁antwerp	-11.5265
▁baghdad	-11.5265
▁categoriz	-11.5265
▁edmonton	-11.5265
▁luxury	-11.5265
▁melbourne	-11.5265
▁obscure	-11.5265
▁propaganda	-11.5265
▁thomson	-11.5265
▁exponent	-11.5265
▁myanmar	-11.5265
▁palestine	-11.5265
▁wizard	-11.5265
▁activation	-11.5266
▁puerto	-11.5266
▁morphology	-11.5266
▁emirate	-11.5266
▁assignment	-11.5266
▁injured	-11.5266
▁orleans	-11.5266
▁aragon	-11.5266
▁robust	-11.5266
▁disabled	-11.5266
▁modify	-11.5268
falcon	-11.5271
▁excret	-11.5271
▁costume	-11.5272
▁symmetric	-11.5275
▁terminate	-11.5291
▁announc	-11.5339
▁entertain	-11.5394
▁reluctant	-11.5399
▁uzbek	-11.5399
aldehyde	-11.5399
dreadnought	-11.5399
▁ayahuasca	-11.5399
▁berkeley	-11.5399
▁coordination	-11.5399
▁eclipse	-11.5399
▁geoffrey	-11.5399
▁matthew	-11.5399
▁maximilian	-11.5399
▁messenger	-11.5399
▁pyramid	-11.5399
▁rothbard	-11.5399
▁scenario	-11.5399
▁spaceflight	-11.5399
▁dwarf	-11.5399
▁iodine	-11.5399
▁semantic	-11.5399
▁prefect	-11.5399
▁alcuin	-11.5399
▁silicon	-11.5399
▁alemanni	-11.5399
▁closing	-11.5399
▁shepard	-11.5399
▁premise	-11.54
▁regent	-11.5401
albertosaurus	-11.5402
▁trauma	-11.5402
partisan	-11.5419
▁sauce	-11.5423
beavis	-11.5432
▁fungi	-11.5504
alexander	-11.553
▁abergavenny	-11.5534
▁descartes	-11.5534
▁rudolf	-11.5534
▁ammunition	-11.5534
▁antimatter	-11.5534
▁ceremonies	-11.5534
▁diagnosis	-11.5534
▁disabilities	-11.5534
▁productivity	-11.5534
▁propagation	-11.5534
▁kidney	-11.5534
▁discrete	-11.5534
▁undertaken	-11.5534
▁lobby	-11.5534
▁resignation	-11.5534
▁utility	-11.5534
▁ambition	-11.5534
▁theatrical	-11.5534
▁ajanta	-11.5534
▁copied	-11.5534
▁deposed	-11.5534
▁eurasia	-11.5534
▁unrest	-11.554
optimiz	-11.5563
▁agnostic	-11.56
▁neighbor	-11.5616
▁militar	-11.5652
algebra	-11.5669
capacity	-11.5669
determin	-11.5669
▁shakespeare	-11.5671
sensitivity	-11.5671
▁ferdinand	-11.5671
▁lattice	-11.5671
▁masculine	-11.5671
▁propulsion	-11.5671
▁recession	-11.5671
▁derivation	-11.5671
▁paternal	-11.5671
▁allophone	-11.5671
▁beastie	-11.5671
▁ronald	-11.5671
▁eucharist	-11.5671
▁relax	-11.5671
▁pirates	-11.5672
▁tokyo	-11.5672
▁metabolism	-11.5672
▁scoring	-11.5672
▁drunk	-11.5672
▁oracle	-11.5673
▁guinea	-11.5674
▁indefinite	-11.5682
ocratic	-11.5706
reaches	-11.5809
disambiguation	-11.581
▁arcturus	-11.581
▁ceremonial	-11.581
▁communism	-11.581
▁compensation	-11.581
▁declining	-11.581
▁electrophoresis	-11.581
▁immortal	-11.581
▁literacy	-11.581
▁missouri	-11.581
▁participating	-11.581
▁preliminary	-11.581
▁steadily	-11.581
▁tuberculosis	-11.581
▁badminton	-11.581
▁lebanon	-11.581
▁schmitt	-11.581
▁revenge	-11.581
▁calgary	-11.581
▁pocket	-11.581
▁glacier	-11.581
▁leather	-11.581
▁naples	-11.581
▁caution	-11.581
▁vizier	-11.581
▁mhz	-11.581
synthesis	-11.581
▁hittite	-11.581
▁blank	-11.581
▁burgess	-11.581
sometimes	-11.581
launch	-11.581
▁carving	-11.5811
release	-11.5811
▁recognis	-11.5891
▁predominant	-11.5924
▁amethyst	-11.5951
▁bagpipe	-11.5951
▁electromagnetic	-11.5951
▁khorasan	-11.5951
▁mackenzie	-11.5951
▁presumably	-11.5951
▁quantitative	-11.5951
▁covenant	-11.5951
▁paradox	-11.5951
▁contingent	-11.5951
▁consort	-11.5951
▁lawrence	-11.5951
▁transcend	-11.5951
▁heinrich	-11.5951
▁penetrate	-11.5951
▁drift	-11.5951
▁mound	-11.5951
▁scots	-11.5952
▁aspiration	-11.5952
length	-11.5953
civil	-11.5954
sphere	-11.5954
salicyl	-11.5955
▁boast	-11.5955
▁knee	-11.5961
▁plutarch	-11.6093
▁affinity	-11.6094
▁carboxyl	-11.6094
▁certificate	-11.6094
▁palestinian	-11.6094
▁reconnaissance	-11.6094
▁regulatory	-11.6094
▁rubidium	-11.6094
▁tributaries	-11.6094
▁velvet	-11.6094
▁robinson	-11.6094
▁gabriel	-11.6094
▁stomach	-11.6094
▁ontario	-11.6094
▁enrolled	-11.6094
▁ernst	-11.6094
▁detroit	-11.6094
▁abilities	-11.6094
▁helmet	-11.6094
▁offense	-11.6094
▁flesh	-11.6095
buffalo	-11.6098
dharma	-11.6107
ocyt	-11.6209
▁alignment	-11.6238
▁endangered	-11.6238
▁expenditure	-11.6238
▁hierarchy	-11.6238
▁reservoir	-11.6238
▁ukrainian	-11.6238
▁unanimous	-11.6238
neurotransmitter	-11.6238
▁bachelor	-11.6238
▁qualification	-11.6238
▁fracture	-11.6238
▁cologne	-11.6238
▁renewable	-11.6238
▁devotion	-11.6238
▁pixel	-11.6238
▁dallas	-11.6239
▁aspirated	-11.6239
▁recipe	-11.6239
▁incarnation	-11.624
▁samoa	-11.6242
▁mourn	-11.6242
hungary	-11.6245
distance	-11.6246
ightened	-11.6267
▁statistic	-11.6288
▁antibacterial	-11.6385
▁birmingham	-11.6385
▁convenient	-11.6385
▁alyattes	-11.6385
▁demolished	-11.6385
▁embassy	-11.6385
▁integrity	-11.6385
▁minnesota	-11.6385
▁observing	-11.6385
▁occult	-11.6385
▁prestigious	-11.6385
▁secession	-11.6385
▁tragedy	-11.6385
▁vicinity	-11.6385
▁eligible	-11.6385
▁genuine	-11.6385
▁substrate	-11.6386
▁temperate	-11.6386
▁prairie	-11.6386
▁flanders	-11.6386
▁cipher	-11.6386
▁vincent	-11.6386
▁catalan	-11.6386
saharan	-11.6386
▁simulate	-11.6391
blood	-11.6394
louis	-11.6395
▁embryo	-11.6458
▁altogether	-11.6535
▁arnulf	-11.6535
▁calculus	-11.6535
▁columbus	-11.6535
▁critique	-11.6535
▁deceased	-11.6535
▁diaspora	-11.6535
▁energies	-11.6535
▁propellant	-11.6535
▁roosevelt	-11.6535
▁sympathetic	-11.6535
▁displacement	-11.6535
▁cassette	-11.6535
▁capitol	-11.6535
▁trilogy	-11.6535
▁jerome	-11.6535
▁admired	-11.6535
▁summary	-11.6535
▁ernest	-11.6535
▁obama	-11.6535
exaggerat	-11.6535
▁pepper	-11.6535
▁nicene	-11.6535
▁ralph	-11.6535
▁ideological	-11.6535
▁injection	-11.6535
▁essence	-11.6535
▁minimize	-11.6536
lunar	-11.6552
▁diplomat	-11.6597
▁clinic	-11.6611
▁catalog	-11.6684
▁controversies	-11.6686
▁dissolution	-11.6686
▁gautama	-11.6686
▁hokkaid	-11.6686
▁illegitimate	-11.6686
▁irrigation	-11.6686
▁neolithic	-11.6686
▁pausanias	-11.6686
▁simplified	-11.6686
aristotelian	-11.6686
▁maghreb	-11.6686
▁norwegian	-11.6686
▁screenwriter	-11.6686
▁transcription	-11.6686
▁cleveland	-11.6686
▁schirra	-11.6686
▁humanitarian	-11.6686
▁spectator	-11.6686
▁collision	-11.6686
<	-13.408
