<unk>	0
<s>	0
</s>	0
▁de	-2.89345
,	-3.16208
▁la	-3.40086
.	-3.54299
▁en	-3.74
▁el	-3.7481
s	-3.79785
▁y	-3.89423
▁que	-4.21835
▁a	-4.23051
▁los	-4.36165
▁se	-4.56383
▁del	-4.58866
▁	-4.61728
▁las	-4.80644
▁por	-4.91188
▁un	-4.91581
▁con	-4.96236
▁una	-5.04378
▁"	-5.16325
▁es	-5.16401
▁como	-5.2562
▁su	-5.2708
▁(	-5.289
"	-5.3738
n	-5.43435
▁para	-5.44042
▁o	-5.48437
▁al	-5.5012
▁más	-5.70178
es	-5.7108
▁##	-5.76861
▁no	-5.78213
r	-5.84926
:	-5.92183
)	-5.98723
▁lo	-6.09885
▁son	-6.15175
▁entre	-6.21946
a	-6.24929
▁fue	-6.25901
;	-6.32236
o	-6.33453
-	-6.41257
▁sus	-6.41538
do	-6.41592
▁también	-6.43773
),	-6.4424
ó	-6.48015
▁este	-6.49971
da	-6.56164
▁esta	-6.58176
la	-6.61721
c	-6.65616
mente	-6.67234
",	-6.68066
).	-6.6831
▁«	-6.70027
▁ha	-6.71904
▁ser	-6.78716
▁sobre	-6.81163
="	-6.81988
▁sin	-6.82367
▁parte	-6.85685
▁desde	-6.85745
▁dos	-6.85956
l	-6.86724
e	-6.87576
▁e	-6.90092
▁pero	-6.91196
ba	-6.96248
▁años	-6.96934
ndo	-6.97005
▁hasta	-6.99367
▁puede	-6.99528
▁le	-7.01972
▁forma	-7.04477
ron	-7.04624
▁otros	-7.05305
ción	-7.05349
durante	-7.05835
doc	-7.0845
▁si	-7.08787
el	-7.09833
se	-7.09956
/	-7.10279
▁gran	-7.10461
>	-7.11344
▁está	-7.11894
d	-7.14413
en	-7.17743
▁re	-7.20157
▁así	-7.20849
▁año	-7.22838
▁sistema	-7.23024
▁era	-7.23198
t	-7.23358
▁ya	-7.23447
▁donde	-7.25311
m	-7.25894
dos	-7.26099
".	-7.26194
▁[[	-7.27063
▁han	-7.27943
p	-7.28629
▁mayor	-7.29456
▁tiene	-7.29911
de	-7.29958
▁ciudad	-7.30545
y	-7.30744
▁muy	-7.32097
das	-7.32115
ta	-7.32488
▁cuando	-7.32505
]]	-7.32651
▁aunque	-7.32652
▁solo	-7.34075
▁pueden	-7.36117
▁c	-7.38747
»	-7.39613
▁estos	-7.39707
i	-7.41676
on	-7.42048
lo	-7.42446
▁país	-7.43096
ra	-7.43493
▁cada	-7.43722
▁otras	-7.44019
to	-7.44114
ca	-7.46675
ma	-7.47259
▁primera	-7.48404
▁había	-7.48777
▁todo	-7.48964
▁algunos	-7.49035
▁uno	-7.49553
▁además	-7.50482
▁tanto	-7.51476
▁estado	-7.52139
▁mundo	-7.53118
▁mismo	-7.5347
▁ejemplo	-7.53965
▁según	-7.54022
▁embargo	-7.56072
no	-7.57234
▁fueron	-7.58198
▁tiempo	-7.58945
▁vez	-7.60075
▁después	-7.61065
▁tres	-7.61119
▁número	-7.61145
na	-7.62133
co	-7.62286
te	-7.64172
▁san	-7.64945
▁cual	-7.65052
ban	-7.65603
▁general	-7.66
▁hay	-7.66616
?	-7.67108
▁in	-7.67176
f	-7.67255
que	-7.67757
▁esto	-7.67806
org	-7.68201
ar	-7.6985
▁id	-7.71034
le	-7.71406
ce	-7.71419
re	-7.71867
▁todos	-7.72038
▁estas	-7.72047
▁lugar	-7.72245
▁sido	-7.73506
▁mientras	-7.73729
g	-7.73735
▁1	-7.74143
▁%	-7.74257
▁nombre	-7.74265
▁gobierno	-7.74315
▁historia	-7.74447
ciones	-7.74524
wiki	-7.75161
▁españa	-7.75882
▁están	-7.77037
▁tienen	-7.77218
▁tras	-7.77276
▁guerra	-7.77574
▁población	-7.77774
wikipedia	-7.77902
h	-7.78324
▁categori	-7.78915
://	-7.7895
▁vida	-7.78989
title	-7.79812
▁url	-7.79991
https	-7.80034
▁primer	-7.80413
á	-7.80449
b	-7.80464
al	-7.80594
▁<	-7.80604
curid	-7.8065
▁</	-7.80733
rse	-7.80879
▁tipo	-7.81381
▁2	-7.81575
▁("	-7.82612
os	-7.82637
ía	-7.82695
▁desarrollo	-7.82748
▁otro	-7.84255
▁especies	-7.85209
z	-7.85223
▁hacia	-7.85805
▁debido	-7.86366
▁muchos	-7.8717
▁norte	-7.87947
ro	-7.88232
▁estados	-7.88799
▁3	-7.90204
▁obra	-7.90472
▁grandes	-7.91029
▁uso	-7.9113
▁algunas	-7.91353
▁nacional	-7.91755
|	-7.92105
».	-7.93029
▁diferentes	-7.93329
▁mayoría	-7.93567
di	-7.93794
=""	-7.94902
▁sur	-7.94998
ría	-7.9505
▁través	-7.96152
▁contra	-7.96663
▁países	-7.9672
ga	-7.97086
in	-7.9737
▁siendo	-7.97737
u	-7.98278
k	-7.99153
▁formula	-7.99234
▁dentro	-7.99299
▁bajo	-7.99851
▁importante	-7.99864
▁menos	-8.00166
▁millones	-8.00672
▁nuevo	-8.01232
▁bien	-8.01263
▁partir	-8.01835
▁día	-8.02023
an	-8.03423
▁región	-8.0349
▁nueva	-8.0353
▁otra	-8.0365
2	-8.04221
x	-8.04345
▁varios	-8.04459
mo	-8.05177
▁hace	-8.05249
go	-8.05313
▁grupo	-8.05873
pa	-8.06604
▁caso	-8.07094
▁medio	-8.07125
me	-8.08292
▁mar	-8.08343
▁punto	-8.08463
▁co	-8.08578
▁cuenta	-8.08654
res	-8.08926
▁tierra	-8.09135
▁mediante	-8.0959
les	-8.09712
ado	-8.10177
▁manera	-8.10764
▁i	-8.10767
'	-8.10798
í	-8.1081
▁época	-8.10908
er	-8.11059
as	-8.11151
▁m	-8.11364
▁familia	-8.11737
ci	-8.1177
▁origen	-8.12933
▁arte	-8.13081
▁ese	-8.13185
ti	-8.13242
▁todas	-8.13343
idad	-8.13678
sa	-8.14307
▁europa	-8.1441
▁antes	-8.14749
ada	-8.14874
▁muchas	-8.1501
▁15	-8.15153
▁teoría	-8.15285
▁entonces	-8.15423
los	-8.15451
▁centro	-8.15768
▁poder	-8.16174
▁género	-8.17043
▁datos	-8.17189
so	-8.17326
▁10	-8.17433
▁principales	-8.17703
▁ni	-8.18225
▁unidos	-8.18261
pe	-8.18366
▁mundial	-8.18418
▁provincia	-8.18447
v	-8.18583
▁17	-8.18587
ismo	-8.18793
▁proceso	-8.19268
▁energía	-8.19773
▁pre	-8.20108
▁encuentra	-8.20217
▁existen	-8.20524
▁—	-8.20938
▁media	-8.21959
is	-8.22038
▁5	-8.22162
▁veces	-8.2254
▁largo	-8.23377
▁personas	-8.23848
▁eran	-8.23908
▁4	-8.24405
vi	-8.24448
▁varias	-8.25127
▁agua	-8.25233
▁ellos	-8.25318
▁misma	-8.25352
▁nivel	-8.25769
▁cuatro	-8.26157
▁18	-8.26428
")	-8.26579
▁(19	-8.26949
_	-8.27241
▁debe	-8.27402
▁casi	-8.27591
▁base	-8.27806
▁di	-8.27858
▁junto	-8.27945
»,	-8.28014
con	-8.28112
▁principal	-8.28119
▁estudio	-8.28151
▁música	-8.2821
▁segunda	-8.28721
nte	-8.28967
▁zona	-8.28978
▁obras	-8.29058
▁él	-8.29073
▁hecho	-8.29309
▁juan	-8.29503
▁sino	-8.29568
▁plantas	-8.29577
▁término	-8.30754
▁da	-8.31065
▁decir	-8.31245
▁internacional	-8.31412
cu	-8.32282
▁16	-8.32454
▁conjunto	-8.33303
▁elementos	-8.33395
us	-8.33556
—	-8.33658
▁quien	-8.33878
po	-8.34112
▁unos	-8.34159
▁producción	-8.34243
▁incluso	-8.34298
▁importantes	-8.34502
▁política	-8.34518
▁cuales	-8.35015
▁tal	-8.3505
ri	-8.35272
▁primeros	-8.35305
un	-8.35823
▁trabajo	-8.35861
▁sí	-8.36107
za	-8.36402
▁español	-8.36496
li	-8.36683
▁territorio	-8.37231
▁edad	-8.37518
las	-8.37829
▁x	-8.37922
▁p	-8.38383
▁poco	-8.38412
▁tener	-8.38603
w	-8.38815
ne	-8.39091
▁méxico	-8.39631
▁campo	-8.39911
▁cultura	-8.39937
▁lengua	-8.40293
▁comunidad	-8.4031
▁real	-8.40518
▁movimiento	-8.40642
▁cualquier	-8.41051
▁6	-8.41161
▁toda	-8.4129
▁sa	-8.42235
▁grupos	-8.42262
▁momento	-8.42369
▁alta	-8.42524
mos	-8.42866
▁estructura	-8.43082
▁ma	-8.43112
mi	-8.4347
▁total	-8.43608
▁iglesia	-8.43724
▁luz	-8.43891
▁orden	-8.43971
▁principalmente	-8.44155
pi	-8.44437
▁sistemas	-8.4445
bi	-8.44811
▁sol	-8.4492
▁madrid	-8.45031
▁española	-8.45183
▁b	-8.45197
▁u	-8.45475
et	-8.4568
▁d	-8.45733
▁social	-8.45971
▁muerte	-8.46008
▁valor	-8.46143
▁pro	-8.46857
▁central	-8.47603
ver	-8.47823
▁actual	-8.47838
▁espacio	-8.47929
▁suele	-8.48187
▁encuentran	-8.48508
▁relación	-8.48513
▁información	-8.48654
ter	-8.48749
▁mucho	-8.48804
▁estaba	-8.48905
or	-8.49203
▁río	-8.49525
ia	-8.49547
fi	-8.49589
▁siglo	-8.49597
tu	-8.49743
án	-8.50372
▁función	-8.50373
▁tuvo	-8.50665
va	-8.50797
▁luego	-8.50861
▁8	-8.51103
▁vi	-8.51108
▁américa	-8.51266
rio	-8.51298
▁serie	-8.51575
▁características	-8.51617
▁existe	-8.51849
▁segundo	-8.51874
▁masa	-8.52297
▁reino	-8.5246
ni	-8.52791
ve	-8.52937
qui	-8.53199
▁universidad	-8.53254
▁etc	-8.53263
▁días	-8.53308
▁tan	-8.53381
▁g	-8.53415
▁actualmente	-8.53645
▁natural	-8.5373
▁modo	-8.53834
▁siguiente	-8.54139
▁cambio	-8.54292
▁color	-8.54341
dor	-8.54469
é	-8.54608
▁per	-8.5499
▁tipos	-8.5528
▁superficie	-8.55441
▁ciencia	-8.55634
▁especialmente	-8.56117
1	-8.56216
▁común	-8.56356
▁7	-8.57142
▁pa	-8.57363
▁ex	-8.57595
3	-8.57779
▁esa	-8.57807
▁red	-8.57816
▁14	-8.57925
▁imperio	-8.58192
ch	-8.58284
▁diferencia	-8.58521
▁llamado	-8.58575
▁rey	-8.58655
▁economía	-8.59059
▁alrededor	-8.59102
ación	-8.59137
▁hoy	-8.59259
ista	-8.59423
miento	-8.59443
▁ca	-8.59474
▁presidente	-8.60006
▁ley	-8.60059
▁ciudades	-8.60318
▁francia	-8.60329
▁siempre	-8.60543
be	-8.6072
▁costa	-8.60738
▁células	-8.6097
▁sub	-8.61009
▁república	-8.61121
▁ver	-8.61221
▁cantidad	-8.61467
▁superior	-8.61642
▁acuerdo	-8.61651
ge	-8.62128
▁conocido	-8.62521
▁década	-8.62559
▁mo	-8.62739
4	-8.62863
▁cuerpo	-8.63019
man	-8.6303
ón	-8.63055
▁sea	-8.63215
▁capital	-8.63266
si	-8.63401
▁igual	-8.63531
rá	-8.63844
▁f	-8.64126
▁hacer	-8.64247
▁popular	-8.64327
▁posible	-8.64356
▁último	-8.65009
▁finales	-8.65087
▁josé	-8.65154
▁números	-8.65246
▁zonas	-8.65543
▁final	-8.65573
▁versión	-8.65577
▁fin	-8.65703
▁20	-8.66105
▁ello	-8.66191
ados	-8.66299
▁libre	-8.66638
▁9	-8.66645
fa	-8.66662
▁haber	-8.66739
tos	-8.6682
▁modelo	-8.66833
▁-	-8.6687
▁estudios	-8.67151
nos	-8.67154
▁“	-8.67241
▁león	-8.67401
ir	-8.67424
▁estilo	-8.67522
▁unión	-8.67586
▁sociedad	-8.67629
▁000	-8.67721
▁libro	-8.67771
gi	-8.6781
▁resto	-8.68322
▁formas	-8.68379
▁antiguo	-8.68564
bo	-8.6861
cha	-8.68716
▁posteriormente	-8.68767
▁tales	-8.68811
▁12	-8.68955
ya	-8.68986
▁línea	-8.69227
ja	-8.69507
%	-8.69711
▁julio	-8.69838
▁ante	-8.69924
▁=	-8.7
ble	-8.70395
▁regiones	-8.7073
▁menor	-8.71002
▁pues	-8.71224
▁porque	-8.71368
ria	-8.71619
era	-8.71718
▁organización	-8.71837
▁período	-8.71954
▁importancia	-8.72039
▁generalmente	-8.72087
tó	-8.72105
car	-8.72165
▁casa	-8.72367
▁aún	-8.72529
▁finalmente	-8.72621
▁llamada	-8.72634
ck	-8.72881
▁pesar	-8.7297
j	-8.73109
ida	-8.73313
▁propio	-8.7359
▁cuyo	-8.73606
▁va	-8.73607
▁enero	-8.73654
▁lenguaje	-8.73661
▁fuerza	-8.73761
▁dios	-8.73854
▁influencia	-8.7406
tro	-8.74062
▁hizo	-8.74303
▁medida	-8.74445
▁resultado	-8.74503
▁área	-8.748
&	-8.7489
▁pi	-8.74935
▁cerca	-8.74963
lu	-8.75322
▁antigua	-8.75458
ones	-8.75598
▁principios	-8.75662
▁pe	-8.75723
▁presencia	-8.76782
▁griego	-8.76814
▁isla	-8.76902
▁car	-8.77004
▁cuya	-8.77078
▁sentido	-8.77291
▁concepto	-8.77379
▁fuera	-8.77742
▁tarde	-8.7783
▁dio	-8.77858
por	-8.78044
▁juegos	-8.78295
▁autor	-8.78329
▁programa	-8.78493
▁física	-8.7859
▁cinco	-8.78636
▁tenía	-8.78911
ur	-8.79153
▁ta	-8.79201
▁crecimiento	-8.79241
adas	-8.79334
▁control	-8.79351
▁diciembre	-8.79528
▁ar	-8.79567
▁velocidad	-8.7961
ten	-8.80064
▁siguientes	-8.80109
ña	-8.8018
▁ellas	-8.80217
▁código	-8.80343
▁inter	-8.80452
▁palabra	-8.80487
▁núcleo	-8.81014
ina	-8.81199
cia	-8.81363
▁habitantes	-8.81373
▁inglés	-8.81497
▁ambos	-8.81614
▁periodo	-8.81706
▁materia	-8.81742
▁naturaleza	-8.82087
▁utiliza	-8.82123
▁miembros	-8.82145
▁mi	-8.82269
▁actividad	-8.82494
▁partido	-8.82506
▁trata	-8.82787
▁humano	-8.82897
▁k	-8.83126
il	-8.83179
▁derecho	-8.83334
▁11	-8.8341
▁castilla	-8.83446
▁evolución	-8.83645
▁papel	-8.83645
▁educación	-8.83854
istas	-8.84269
▁alto	-8.84295
▁po	-8.84424
ización	-8.84433
▁les	-8.84454
▁frente	-8.84563
▁respecto	-8.8465
▁francés	-8.84777
▁cu	-8.8501
▁mejor	-8.8502
▁diversos	-8.85082
"),	-8.85116
▁lenguas	-8.85311
▁grande	-8.85338
th	-8.85592
”	-8.85625
▁permite	-8.85638
▁oficial	-8.85662
▁literatura	-8.85719
um	-8.85728
▁bo	-8.85728
▁tamaño	-8.8587
gt	-8.86064
▁diversas	-8.8608
▁aproximadamente	-8.86242
▁sería	-8.86277
▁incluye	-8.86376
zo	-8.86622
▁especie	-8.86671
mar	-8.86747
▁menudo	-8.87106
tra	-8.87301
▁septiembre	-8.87429
▁km	-8.879
▁comenzó	-8.87938
▁especial	-8.88003
▁cultural	-8.8804
▁santa	-8.88073
▁animales	-8.88171
▁considera	-8.88317
▁t	-8.88631
cio	-8.88783
▁ve	-8.888
▁octubre	-8.89003
ntes	-8.89031
▁causa	-8.8942
▁interior	-8.89606
ú	-8.89624
ándose	-8.89628
▁cuanto	-8.89729
▁dado	-8.89744
ho	-8.89999
▁significa	-8.90003
▁nuevas	-8.9003
▁carácter	-8.90048
▁europea	-8.9019
▁principio	-8.90211
▁par	-8.90231
▁industria	-8.90271
▁clasificación	-8.90382
▁te	-8.90447
▁mal	-8.90461
▁capacidad	-8.90677
▁análisis	-8.90724
▁construcción	-8.91144
▁ce	-8.9122
▁formación	-8.91248
▁primeras	-8.91379
▁mayo	-8.91562
ún	-8.91849
▁funciones	-8.91858
lt	-8.92024
▁idea	-8.92135
▁naturales	-8.92152
▁primero	-8.92359
▁13	-8.92674
▁público	-8.92703
▁occidental	-8.9278
▁casos	-8.92881
▁sal	-8.92901
▁incluyen	-8.93153
▁bi	-8.93333
▁me	-8.93395
▁sector	-8.9352
▁propia	-8.93593
▁investigación	-8.93644
▁estar	-8.93783
▁temperatura	-8.94171
▁unidad	-8.94337
▁perú	-8.94368
▁relaciones	-8.94427
▁juego	-8.94485
ros	-8.94585
(	-8.94757
6	-8.95032
▁hombre	-8.95183
▁definición	-8.95226
▁mil	-8.956
▁ba	-8.95776
▁creación	-8.95787
che	-8.95882
▁fa	-8.95953
▁islas	-8.96322
▁alemania	-8.96359
▁servicios	-8.96394
▁militar	-8.96415
▁distancia	-8.96469
▁vista	-8.96558
▁problemas	-8.96908
▁representa	-8.96924
▁ciencias	-8.96964
▁objeto	-8.96981
▁conocimiento	-8.96996
▁ii	-8.97065
▁radio	-8.9708
▁ra	-8.97135
▁proyecto	-8.97226
▁humanos	-8.97409
ing	-8.97435
▁marzo	-8.97498
▁fuente	-8.97558
▁clima	-8.97596
▁oro	-8.97835
▁partículas	-8.97852
como	-8.9787
tri	-8.979
▁junio	-8.97927
▁he	-8.98185
▁cine	-8.98364
▁anterior	-8.98593
aceae	-8.98681
▁civil	-8.98849
▁realidad	-8.98879
▁llegar	-8.99012
men	-8.99028
▁gracias	-8.99055
▁franco	-8.99111
▁presenta	-8.99144
it	-8.99185
▁puerto	-8.99263
▁v	-8.99393
▁áfrica	-8.9946
▁económica	-8.99586
▁w	-8.99632
▁so	-8.99735
tor	-8.99873
▁único	-8.99901
▁actualidad	-8.99955
▁similar	-8.9997
▁autores	-8.9999
▁última	-9.00024
tivo	-9.0014
▁posee	-9.00165
▁productos	-9.00184
▁cabo	-9.00195
▁30	-9.00345
▁salud	-9.00393
dores	-9.00393
▁existencia	-9.0047
per	-9.00558
ita	-9.00642
7	-9.00743
ica	-9.00781
▁conocida	-9.00799
▁the	-9.00811
▁posición	-9.00925
▁constitución	-9.01016
▁dis	-9.01087
▁referencia	-9.01135
▁h	-9.01389
▁anti	-9.01508
▁planeta	-9.01551
▁conoce	-9.01593
cas	-9.01626
tas	-9.01749
▁partes	-9.01762
jo	-9.01808
▁particular	-9.01938
▁condiciones	-9.02288
▁padre	-9.02431
▁sede	-9.02462
ero	-9.02548
ex	-9.0264
▁abril	-9.02652
▁fe	-9.02805
8	-9.02868
▁baja	-9.02999
▁puntos	-9.0307
▁paso	-9.03245
del	-9.03257
chi	-9.03378
▁hu	-9.03482
▁llama	-9.03733
fe	-9.03905
▁tra	-9.03928
▁forman	-9.03957
▁sociales	-9.03973
ían	-9.03976
ido	-9.04065
▁podría	-9.04168
▁llegó	-9.04235
▁carga	-9.04533
▁pueblo	-9.04762
);	-9.0496
▁últimos	-9.04969
▁ne	-9.05009
pro	-9.05184
ico	-9.05204
▁objetos	-9.05295
▁go	-9.05311
▁práctica	-9.05344
▁tradición	-9.05348
▁persona	-9.05402
▁propiedades	-9.05578
▁estándar	-9.05674
▁flores	-9.05893
▁película	-9.05904
▁puesto	-9.05967
▁febrero	-9.06096
je	-9.06127
▁noviembre	-9.06369
▁áreas	-9.06401
▁ella	-9.06474
▁'	-9.06595
▁mitad	-9.06601
▁cambios	-9.06724
▁siglos	-9.06784
▁na	-9.06799
▁escala	-9.068
▁figura	-9.07072
▁nuevos	-9.071
▁ejército	-9.07156
▁éxito	-9.0723
nd	-9.07284
ales	-9.0732
▁pueblos	-9.07371
▁única	-9.07528
▁método	-9.07533
ac	-9.07836
▁material	-9.07851
▁humana	-9.08055
▁li	-9.08261
ana	-9.08314
▁fuerzas	-9.08338
▁publicó	-9.08388
▁ti	-9.08389
▁of	-9.08509
▁situación	-9.08636
▁tri	-9.0871
▁convirtió	-9.08761
▁división	-9.08766
▁luis	-9.08827
▁realizar	-9.08852
▁efecto	-9.09025
▁técnicas	-9.09067
mb	-9.09099
▁be	-9.09128
▁produce	-9.09229
son	-9.0927
▁interés	-9.09284
ha	-9.09306
▁transporte	-9.09363
▁agosto	-9.09407
▁hijo	-9.0944
at	-9.09559
ec	-9.09612
▁términos	-9.09659
5	-9.09751
vo	-9.09853
ben	-9.09859
pu	-9.10212
tar	-9.10216
▁algo	-9.10265
ru	-9.10811
▁software	-9.10845
▁tradicional	-9.10974
▁géneros	-9.11041
tes	-9.11134
ber	-9.11139
ut	-9.11228
tiva	-9.11255
▁hojas	-9.11418
▁carlos	-9.11423
▁maría	-9.11554
nia	-9.11876
▁comercio	-9.11899
▁frecuencia	-9.11912
▁villa	-9.11934
nt	-9.12101
").	-9.12117
▁lado	-9.12233
▁novela	-9.12321
the	-9.12322
▁mayores	-9.12415
▁amplia	-9.12483
encia	-9.12734
▁mes	-9.12757
▁teatro	-9.13025
mas	-9.13094
9	-9.1312
▁premio	-9.13228
pre	-9.13244
▁arquitectura	-9.13266
▁dicho	-9.13308
▁escuela	-9.13319
▁to	-9.1353
io	-9.13587
du	-9.13619
▁organismos	-9.13683
▁moderna	-9.13695
▁indica	-9.13745
▁valle	-9.13825
▁objetivo	-9.13833
▁original	-9.13838
▁palabras	-9.13918
▁elemento	-9.14203
▁francisco	-9.14364
▁solar	-9.14389
▁longitud	-9.14414
▁jesús	-9.14503
ion	-9.14619
▁distintas	-9.14688
ión	-9.14812
der	-9.14819
▁pedro	-9.15017
▁ayuda	-9.15071
▁turismo	-9.15223
▁hi	-9.15236
▁ahora	-9.15269
▁unidades	-9.15327
ad	-9.15349
gu	-9.15562
▁j	-9.157
▁mu	-9.1579
▁obstante	-9.16098
▁n	-9.16249
▁memoria	-9.16321
▁utilizan	-9.16409
▁enfermedad	-9.16488
cho	-9.16547
▁dirección	-9.16678
-19	-9.16698
fo	-9.16711
▁(18	-9.16801
▁valores	-9.16912
▁político	-9.16931
▁seguridad	-9.17072
▁25	-9.17096
▁lu	-9.17255
▁procesos	-9.1729
▁romano	-9.17362
ka	-9.17442
▁distintos	-9.17548
▁independencia	-9.17915
▁medios	-9.17938
cal	-9.17997
ul	-9.18081
▁presentan	-9.18118
▁china	-9.18204
ea	-9.18282
▁química	-9.18381
▁latín	-9.18845
▁dar	-9.18882
gen	-9.1891
▁pu	-9.1922
bles	-9.19299
▁libros	-9.19367
▁servicio	-9.19418
▁fuerte	-9.19458
▁destacan	-9.19542
▁calidad	-9.19675
▁título	-9.19717
iendo	-9.19719
▁estaban	-9.19868
▁&	-9.19878
▁comunicación	-9.2007
cre	-9.20194
▁crear	-9.20295
nas	-9.20314
▁cal	-9.20398
▁aparece	-9.2041
▁industrial	-9.20458
ton	-9.20673
▁texto	-9.20746
▁roma	-9.20777
▁du	-9.21377
▁l	-9.21499
▁muestra	-9.21754
▁idioma	-9.21757
▁seis	-9.22086
▁fecha	-9.22229
▁publicado	-9.22258
sti	-9.22309
▁disco	-9.2234
▁económico	-9.22695
▁encontrar	-9.22704
▁acción	-9.22713
▁filosofía	-9.22747
par	-9.22849
▁religión	-9.22859
▁diseño	-9.22957
▁man	-9.22977
▁planta	-9.23008
▁variedad	-9.23084
▁aire	-9.23119
ncia	-9.23199
▁meses	-9.23212
▁numerosos	-9.23225
cor	-9.23384
ran	-9.23425
▁dice	-9.23431
▁pública	-9.23436
su	-9.23498
▁mercado	-9.23715
▁2000	-9.23832
▁alemán	-9.24017
ic	-9.24078
▁antonio	-9.24083
▁madre	-9.24415
▁campos	-9.24424
50	-9.24428
▁mujeres	-9.24724
▁inferior	-9.24735
▁web	-9.24783
▁considerado	-9.24873
▁°	-9.24892
▁bar	-9.24917
ven	-9.25003
ng	-9.25015
endo	-9.25049
▁nunca	-9.2507
sen	-9.25109
▁municipio	-9.25124
▁local	-9.25148
▁cómo	-9.2515
▁r	-9.2545
▁escribió	-9.25537
tion	-9.25571
▁utilizado	-9.25665
▁lista	-9.25674
lla	-9.25794
▁capa	-9.25853
▁0	-9.25918
▁actividades	-9.26041
▁ci	-9.26433
▁distribución	-9.26475
▁derechos	-9.26664
▁leyes	-9.26806
]	-9.26919
▁parís	-9.26949
▁estrellas	-9.27006
▁consecuencia	-9.27136
▁clase	-9.27211
10	-9.27295
▁métodos	-9.27307
cl	-9.27587
▁ho	-9.27676
▁consejo	-9.27879
▁presión	-9.27884
▁ocasiones	-9.28005
nes	-9.28013
▁producto	-9.28013
▁batalla	-9.28338
xi	-9.2836
▁instrumentos	-9.28428
▁contiene	-9.28436
▁basado	-9.28487
▁incluyendo	-9.28661
▁brasil	-9.28686
com	-9.28863
▁ru	-9.28867
▁utilizar	-9.28927
▁efectos	-9.28985
▁ro	-9.2932
▁independiente	-9.29375
▁problema	-9.29377
▁cha	-9.29427
▁histórico	-9.29481
▁corona	-9.29499
▁implica	-9.2952
▁sigue	-9.29654
▁líneas	-9.29694
▁acceso	-9.29718
▁aplicaciones	-9.29738
▁lugares	-9.29745
▁pan	-9.29786
▁elecciones	-9.29878
▁habla	-9.29883
▁24	-9.29952
▁ning	-9.30102
den	-9.30135
▁denominado	-9.30296
▁metros	-9.30331
▁suma	-9.30354
▁ciclo	-9.30354
▁ri	-9.30382
▁península	-9.30515
fer	-9.30598
▁dicha	-9.30656
▁denomina	-9.30766
▁alguna	-9.30844
=2	-9.30848
▁oeste	-9.31017
▁van	-9.31052
he	-9.31091
▁provincias	-9.31145
▁fuentes	-9.31323
▁francesa	-9.31333
▁fundamental	-9.31346
▁grado	-9.31377
▁llega	-9.31402
▁descripción	-9.31539
▁católica	-9.3164
▁expresión	-9.31644
▁colombia	-9.31703
▁banda	-9.31919
▁2006	-9.31983
0	-9.32035
▁lleva	-9.32057
sta	-9.32253
▁ven	-9.32261
▁trans	-9.32269
tica	-9.32312
▁tecnología	-9.32384
una	-9.32396
80	-9.32677
▁numerosas	-9.32785
▁territorios	-9.32871
▁italia	-9.32972
gar	-9.3308
▁auto	-9.33306
▁academia	-9.33307
cer	-9.33314
▁2010	-9.33532
▁toma	-9.33557
▁pequeñas	-9.33568
▁congreso	-9.33764
▁sierra	-9.34005
=3	-9.3418
hi	-9.34277
▁gas	-9.34351
▁murcia	-9.34419
▁100	-9.34546
▁super	-9.34642
▁cor	-9.34694
▁imagen	-9.34704
▁museo	-9.349
▁hombres	-9.34918
▁revolución	-9.35096
▁destaca	-9.35122
▁barcelona	-9.35149
▁mon	-9.35265
▁compuestos	-9.35315
11	-9.35393
▁fi	-9.35555
▁medicina	-9.35601
▁constante	-9.35606
▁canadá	-9.35637
▁presente	-9.35718
▁musical	-9.35775
▁obtener	-9.35781
ju	-9.35913
▁and	-9.36042
19	-9.36168
▁lucha	-9.36231
▁asia	-9.36302
cos	-9.36321
▁entrada	-9.36364
▁venezuela	-9.3647
▁representación	-9.3657
▁apoyo	-9.36615
▁don	-9.36626
▁tema	-9.36629
bra	-9.36685
▁científico	-9.36788
sh	-9.37115
▁tu	-9.37142
–	-9.37157
▁camino	-9.37164
▁falta	-9.37201
30	-9.37364
ry	-9.37467
▁todavía	-9.37471
bu	-9.37485
izado	-9.37577
des	-9.37835
▁2007	-9.37841
ando	-9.37845
▁recursos	-9.37943
▁asimismo	-9.38153
▁plan	-9.38162
▁chile	-9.38167
ente	-9.38307
▁equipo	-9.3834
▁internacionales	-9.38436
▁allí	-9.38453
▁cargo	-9.38564
▁pequeño	-9.38605
▁anteriores	-9.3865
ner	-9.38669
▁exterior	-9.38685
▁vino	-9.38693
▁comercial	-9.38828
▁desarrollado	-9.39023
▁ir	-9.39206
▁pequeña	-9.39461
▁artículo	-9.39666
ras	-9.39726
▁santiago	-9.39761
▁restos	-9.3992
▁pintura	-9.39942
tal	-9.40305
▁versiones	-9.40342
st	-9.40452
▁ejemplos	-9.40544
ine	-9.40549
▁usa	-9.40645
▁artes	-9.40692
▁pasado	-9.40936
▁pasó	-9.41001
icos	-9.41052
▁materiales	-9.4112
▁altura	-9.4117
=1	-9.41257
▁generación	-9.41292
▁razón	-9.41314
▁ambas	-9.41315
▁2011	-9.41327
▁antiguos	-9.41489
▁pasa	-9.41533
▁qué	-9.41755
eo	-9.41782
día	-9.41792
▁universal	-9.41867
▁hacen	-9.41947
▁municipios	-9.41983
▁agricultura	-9.42024
ed	-9.42024
▁ga	-9.42204
▁crisis	-9.42206
▁deriva	-9.4228
▁directamente	-9.42281
▁comunes	-9.42383
▁normalmente	-9.42465
▁unido	-9.42473
▁propiedad	-9.42634
▁llevó	-9.42744
▁verano	-9.42834
▁diferente	-9.42858
▁técnica	-9.42916
▁palacio	-9.43184
▁siete	-9.43305
▁argentina	-9.43353
▁contrario	-9.43651
▁viaje	-9.43666
mu	-9.43799
="3	-9.4382
▁libertad	-9.43825
25	-9.43837
ino	-9.4397
▁televisión	-9.44018
ki	-9.44162
▁oriental	-9.44385
▁consiste	-9.44563
mp	-9.44573
▁hidrógeno	-9.44627
▁españoles	-9.44631
▁rica	-9.44659
▁programas	-9.4467
▁calendario	-9.44751
▁2009	-9.44767
▁necesario	-9.44909
ly	-9.44951
▁naciones	-9.45011
▁ríos	-9.45028
▁eje	-9.45119
▁do	-9.45135
▁ju	-9.45199
tura	-9.45294
▁hitler	-9.45306
ke	-9.45372
▁geografía	-9.45403
▁ocupa	-9.45458
▁dan	-9.45528
▁50	-9.456
min	-9.45677
▁producir	-9.45777
▁realizó	-9.45875
▁llegada	-9.45915
ko	-9.45942
▁completa	-9.46014
▁produjo	-9.46051
▁mancha	-9.46095
=	-9.46191
ano	-9.46281
▁can	-9.46322
▁pequeños	-9.46409
▁instituto	-9.46424
▁basada	-9.46501
▁iii	-9.46525
▁habría	-9.46545
▁fase	-9.46577
▁personal	-9.46639
▁usar	-9.4667
rios	-9.46702
▁posterior	-9.46934
rra	-9.46982
▁aumento	-9.46993
▁comunidades	-9.47016
▁demás	-9.4705
▁conocidos	-9.47107
▁tierras	-9.47198
▁cristianos	-9.47248
▁clásica	-9.47256
ger	-9.473
▁aparición	-9.47365
▁aplicación	-9.47411
▁formar	-9.4754
▁edición	-9.47556
▁ambiente	-9.47587
amp	-9.47598
tado	-9.47615
▁torno	-9.4778
▁mecánica	-9.47803
▁corte	-9.47878
algún	-9.47966
▁estuvo	-9.47985
▁empresas	-9.47985
▁z	-9.47995
▁28	-9.48051
▁bastante	-9.48139
▁estadounidense	-9.48245
▁inicio	-9.4837
dio	-9.48374
▁grecia	-9.48511
▁parece	-9.48631
▁castellano	-9.48699
▁estrella	-9.4887
▁japón	-9.48892
▁comportamiento	-9.48894
ud	-9.48931
▁continente	-9.48953
▁resulta	-9.49064
▁fútbol	-9.49083
au	-9.49088
▁ninguna	-9.49094
▁científicos	-9.49112
▁bu	-9.4922
▁for	-9.49233
ley	-9.49252
▁ideas	-9.49387
til	-9.494
▁artistas	-9.49419
dia	-9.49566
mer	-9.4964
▁niveles	-9.49653
▁tenían	-9.49779
▁instituciones	-9.49856
▁carbono	-9.49908
▁her	-9.50303
▁bio	-9.50309
▁textos	-9.50335
▁científica	-9.50342
id	-9.50382
▁dominio	-9.50397
▁aquellos	-9.50463
▁mujer	-9.50613
▁mezcla	-9.50762
▁bolívar	-9.50831
▁plaza	-9.50879
▁acerca	-9.5097
▁similares	-9.50994
▁imágenes	-9.51027
ol	-9.51036
▁tratamiento	-9.51063
▁contacto	-9.51071
▁resultados	-9.51201
▁electrones	-9.51229
▁realiza	-9.51252
▁factores	-9.51258
▁ja	-9.51264
▁respuesta	-9.51314
▁tiempos	-9.51372
▁administración	-9.51432
▁mediterráneo	-9.51466
rían	-9.51479
▁ecuador	-9.5168
▁conquista	-9.51702
▁poli	-9.51724
▁compuesto	-9.51754
cul	-9.51801
18	-9.51803
▁negro	-9.51951
▁posteriores	-9.51968
▁corresponde	-9.52162
eron	-9.52171
▁culturales	-9.52348
▁extensión	-9.52413
▁cara	-9.5244
▁componentes	-9.52484
▁locales	-9.52496
▁com	-9.52513
▁tratado	-9.52648
▁políticas	-9.5272
▁estructuras	-9.52723
▁composición	-9.53012
pl	-9.53179
▁desarrolló	-9.53209
▁pensamiento	-9.5321
▁plano	-9.53212
ín	-9.53235
▁escribir	-9.53245
lin	-9.53252
▁cuba	-9.5327
▁movimientos	-9.53286
▁cabe	-9.53328
▁ámbito	-9.53377
▁máquina	-9.53381
▁cierta	-9.53382
▁completo	-9.5341
▁régimen	-9.5341
▁formado	-9.53444
▁19	-9.53463
▁catedral	-9.5348
▁poseen	-9.5355
▁john	-9.53553
iano	-9.53635
mon	-9.53638
▁crítica	-9.53657
▁aspectos	-9.53684
▁larga	-9.5387
▁contenido	-9.53996
tina	-9.54013
▁políticos	-9.54022
▁27	-9.5416
▁populares	-9.54227
▁simple	-9.54397
▁llevar	-9.5449
▁depende	-9.54559
em	-9.54566
▁nacionales	-9.5461
▁romana	-9.54722
▁máximo	-9.54827
tan	-9.54874
▁nombres	-9.54979
rán	-9.55007
▁entorno	-9.55037
▁imp	-9.55166
▁hipótesis	-9.55268
▁creó	-9.55313
▁enfermedades	-9.55319
▁quienes	-9.55337
▁etapa	-9.55458
▁corriente	-9.55461
°	-9.55509
▁observa	-9.55541
▁22	-9.55546
▁será	-9.55587
▁familias	-9.55623
▁junta	-9.55655
▁21	-9.55783
▁contexto	-9.55832
▁centros	-9.5585
▁europeos	-9.56008
20	-9.56058
▁atmósfera	-9.56265
▁futuro	-9.56265
▁mano	-9.56296
▁griega	-9.56298
▁tercera	-9.56341
▁sonido	-9.56452
▁prueba	-9.56656
▁militares	-9.56671
▁diez	-9.56701
tre	-9.56713
="4	-9.56725
aba	-9.5678
▁[	-9.56787
▁mono	-9.56787
ll	-9.56855
▁mercurio	-9.56887
▁oriente	-9.5689
▁recibió	-9.56892
▁evitar	-9.56926
▁temas	-9.5696
izar	-9.57072
▁comienza	-9.57095
▁cruz	-9.57106
=4	-9.57151
▁define	-9.57295
▁vasco	-9.57333
▁ad	-9.57453
00	-9.57462
▁gua	-9.57518
▁jo	-9.57602
▁usuario	-9.57688
ante	-9.57741
ario	-9.57789
▁carrera	-9.57798
▁colores	-9.57823
▁ocho	-9.58151
▁or	-9.58324
▁buena	-9.58434
▁40	-9.58455
mina	-9.58506
eta	-9.58636
▁fenómeno	-9.58697
via	-9.58759
▁honor	-9.58785
▁conserva	-9.58837
▁tabla	-9.58878
▁descubrimiento	-9.58881
▁internet	-9.59001
▁cierto	-9.59092
▁23	-9.59111
▁escrito	-9.59184
▁podía	-9.5921
▁altas	-9.59277
▁clases	-9.59306
▁universo	-9.59417
▁cosas	-9.59433
▁tercer	-9.59443
bilidad	-9.5949
▁mediado	-9.59764
có	-9.59792
iones	-9.5983
▁utilizando	-9.59873
im	-9.5998
▁blanco	-9.60041
rd	-9.6005
▁garcía	-9.60059
▁densidad	-9.60066
▁dura	-9.605
▁global	-9.60532
▁fo	-9.60533
▁miguel	-9.60533
▁canal	-9.60552
land	-9.60574
▁aspecto	-9.60627
br	-9.60665
▁corta	-9.60695
▁cuenca	-9.60705
▁2005	-9.60728
▁patrimonio	-9.60734
▁múltiples	-9.60789
▁municipal	-9.60803
yo	-9.60868
▁programación	-9.60902
▁consideran	-9.61007
▁qui	-9.61032
▁deporte	-9.61079
▁manuel	-9.61118
▁vio	-9.61132
▁nacimiento	-9.61139
▁mor	-9.61141
▁victoria	-9.61208
▁posibilidad	-9.6124
▁tasa	-9.61401
▁mac	-9.61407
▁empresa	-9.61527
▁humanidad	-9.61574
ment	-9.61793
▁alcanzar	-9.61861
tico	-9.61902
60	-9.61978
▁papa	-9.62138
▁vía	-9.62154
▁plata	-9.62178
ot	-9.62224
▁expansión	-9.6223
▁interna	-9.62441
▁seres	-9.62525
▁modelos	-9.62774
▁alimentos	-9.62831
▁adn	-9.62863
▁micro	-9.62866
▁generales	-9.62882
▁interpretación	-9.62938
▁federal	-9.62998
▁eventos	-9.63028
▁compañía	-9.63086
▁símbolo	-9.63175
▁pudo	-9.63245
27	-9.63273
▁2019	-9.63357
▁(17	-9.63432
▁clave	-9.63552
▁latina	-9.63687
▁licencia	-9.63765
▁caracteres	-9.63779
▁defensa	-9.63779
▁antigüedad	-9.63818
▁constituye	-9.63819
▁eléctrica	-9.63844
▁visión	-9.63891
llo	-9.63906
ct	-9.63989
▁autonomía	-9.64002
▁probablemente	-9.64137
▁mantener	-9.6414
ñ	-9.64238
▁dólares	-9.64277
▁suelo	-9.64416
▁autónoma	-9.64453
▁ciertas	-9.64481
▁indígenas	-9.64531
▁solamente	-9.64568
▁aves	-9.64629
▁moderno	-9.64686
▁bra	-9.64687
sis	-9.64723
▁disciplina	-9.6475
nta	-9.64823
▁nuclear	-9.64879
▁refiere	-9.64913
▁escudo	-9.64916
ces	-9.65085
▁bits	-9.65145
▁miembro	-9.65149
iza	-9.65174
▁parque	-9.65175
▁pocos	-9.65181
km	-9.65211
hu	-9.65224
▁1990	-9.65359
▁fines	-9.65376
▁basa	-9.65643
64	-9.65727
▁favor	-9.65795
op	-9.65863
▁valencia	-9.65908
▁cuerpos	-9.6592
▁ciertos	-9.65925
17	-9.66044
▁respectivamente	-9.66066
▁amor	-9.66174
▁películas	-9.66242
▁escritor	-9.66429
val	-9.66438
▁izquierda	-9.66545
▁hijos	-9.66565
▁cristianismo	-9.6672
▁esos	-9.66812
▁décadas	-9.66861
▁marca	-9.66874
1"	-9.66889
bar	-9.66904
ieron	-9.66923
ie	-9.66943
▁olímpicos	-9.67037
▁celular	-9.67049
▁pie	-9.67086
▁diversidad	-9.67181
▁correspondiente	-9.6719
26	-9.67226
▁relativamente	-9.67234
▁teorías	-9.6725
▁característica	-9.67252
▁mismos	-9.6744
fu	-9.67577
▁podemos	-9.67643
▁volumen	-9.67643
▁permiten	-9.67706
▁terrestre	-9.67723
▁escritura	-9.67751
▁limita	-9.67754
rum	-9.67766
▁personajes	-9.67819
▁director	-9.67838
▁proteínas	-9.67858
▁aristóteles	-9.67897
ología	-9.67939
pas	-9.68054
ig	-9.68057
▁célula	-9.68062
duc	-9.68193
▁jefe	-9.68225
▁actuales	-9.68297
▁fu	-9.68307
▁cáncer	-9.68341
▁2018	-9.68361
▁comprende	-9.68371
▁frontera	-9.68435
▁complejo	-9.68439
▁destacar	-9.68546
▁aparecen	-9.68578
▁hubo	-9.68607
eros	-9.68623
ren	-9.68655
mis	-9.68693
▁hechos	-9.68696
sto	-9.68704
▁liga	-9.68749
▁tomar	-9.68771
▁explica	-9.6883
oso	-9.68838
▁reyes	-9.68879
▁fundación	-9.68907
▁peso	-9.68992
ster	-9.69115
idas	-9.69136
ler	-9.69148
para	-9.69202
▁físico	-9.69397
▁césar	-9.69514
▁calle	-9.69598
▁rojo	-9.69685
ár	-9.69763
▁ur	-9.69847
lis	-9.69875
▁completamente	-9.69911
lí	-9.69928
▁monte	-9.6995
▁amplio	-9.69988
22	-9.70094
▁doble	-9.701
▁luna	-9.70122
▁trabajos	-9.70169
▁reales	-9.70181
▁musicales	-9.70223
▁salvador	-9.70233
▁2014	-9.70262
▁revista	-9.70264
▁tradicionales	-9.70351
▁resistencia	-9.70463
▁aguas	-9.70524
nu	-9.70681
▁bases	-9.70746
▁26	-9.7075
▁oficiales	-9.70767
▁gira	-9.70776
nda	-9.70817
▁escritos	-9.70827
▁31	-9.70891
lar	-9.70895
▁ber	-9.70922
▁reforma	-9.71149
gue	-9.71213
▁oxígeno	-9.71221
ff	-9.71247
+	-9.71256
▁continuación	-9.71256
▁sch	-9.71268
▁asociación	-9.71282
40	-9.7131
▁fernando	-9.71422
99	-9.71468
▁usando	-9.71472
▁determinar	-9.71546
▁genera	-9.71633
▁0,	-9.71668
15	-9.71693
▁significado	-9.71714
▁inició	-9.71904
▁egipto	-9.71949
▁poesía	-9.71978
14	-9.72022
ide	-9.72023
2"	-9.72068
▁partidos	-9.72075
om	-9.72114
▁niños	-9.72244
▁tuvieron	-9.72264
▁culturas	-9.72303
29	-9.72344
▁cataluña	-9.72389
▁aquel	-9.72419
▁valladolid	-9.72439
▁aquí	-9.72523
aron	-9.72592
▁consumo	-9.72633
▁reacción	-9.72653
▁madera	-9.72657
▁sola	-9.72682
▁moléculas	-9.72808
▁1,	-9.72809
▁marco	-9.72843
▁abarca	-9.72887
rlo	-9.72934
▁significativa	-9.72989
▁necesidad	-9.73031
]].	-9.73114
iva	-9.73115
▁radiación	-9.73127
ónico	-9.73137
▁salida	-9.73151
▁llamados	-9.73207
tivos	-9.7326
ev	-9.73322
icas	-9.73532
▁ka	-9.73551
dra	-9.73553
▁histórica	-9.73808
▁2008	-9.73825
idos	-9.73831
▁estableció	-9.7386
▁haya	-9.73883
▁considerada	-9.73914
▁idiomas	-9.73933
▁azul	-9.74011
▁difícil	-9.74017
▁espacial	-9.74017
▁creado	-9.74129
▁publicación	-9.74163
▁diferencias	-9.74217
▁lima	-9.74235
▁pib	-9.74245
▁golpe	-9.74358
▁1960	-9.7436
can	-9.74428
▁cabeza	-9.74452
▁desarrollar	-9.7457
53	-9.7459
ez	-9.74771
▁caracteriza	-9.74786
dr	-9.74814
▁ministerio	-9.74849
▁colón	-9.74866
4"	-9.74989
▁propios	-9.75032
▁órbita	-9.751
▁atención	-9.75102
▁bacterias	-9.75183
ura	-9.75229
▁cree	-9.7526
▁usuarios	-9.75269
▁contienen	-9.75295
▁pruebas	-9.75298
▁proporciona	-9.75414
▁producen	-9.75442
▁potencia	-9.75522
▁inglaterra	-9.75599
ivo	-9.75714
-18	-9.75723
▁acu	-9.75804
▁usan	-9.75811
▁permitió	-9.7585
categoría	-9.75866
▁mejores	-9.75925
▁fenómenos	-9.75993
▁extremo	-9.76123
▁india	-9.76176
▁im	-9.76262
bri	-9.76321
▁temperaturas	-9.76389
gre	-9.76451
cent	-9.76465
▁pérdida	-9.76645
▁océano	-9.76645
▁geometría	-9.76676
▁cristo	-9.76761
▁carta	-9.76822
▁semana	-9.76851
▁joven	-9.76874
▁presentes	-9.76937
▁flor	-9.77064
▁empezó	-9.77116
ata	-9.77119
torio	-9.77119
▁encima	-9.77125
▁manos	-9.77137
▁rápidamente	-9.77192
▁potencial	-9.77267
▁escuelas	-9.77278
▁átomos	-9.77287
▁conocer	-9.77372
▁tropas	-9.77377
cional	-9.7738
▁europeo	-9.77433
▁caída	-9.77441
ab	-9.77468
homo	-9.77505
▁ampliamente	-9.77613
▁griegos	-9.77616
▁operaciones	-9.77655
▁mer	-9.7769
▁29	-9.77754
▁figuras	-9.77809
am	-9.77841
▁estudia	-9.77844
▁hora	-9.77877
▁categoría	-9.77917
▁2004	-9.77919
▁selección	-9.77934
▁alfonso	-9.7814
qu	-9.78142
88	-9.78177
tón	-9.78189
▁busca	-9.78304
35	-9.78349
ium	-9.78366
▁establecer	-9.7839
able	-9.78472
▁estación	-9.78473
▁límite	-9.78483
▁letras	-9.78525
iana	-9.78563
▁ramas	-9.78579
▁errores	-9.78636
▁+	-9.78719
q	-9.78787
sas	-9.7884
▁regional	-9.78886
86	-9.78906
▁asamblea	-9.78916
▁capaz	-9.78985
ible	-9.79001
rro	-9.79024
▁60	-9.79124
▁fondo	-9.79125
▁representan	-9.7916
▁poblaciones	-9.79175
70	-9.79231
▁2001	-9.79262
▁ministro	-9.79278
▁genética	-9.79283
▁sean	-9.79301
2,	-9.79328
▁simplemente	-9.79338
▁2015	-9.79476
▁za	-9.79538
▁divide	-9.79539
▁índice	-9.79552
gua	-9.79557
tis	-9.79642
▁pacífico	-9.79743
▁propias	-9.79763
▁multi	-9.79771
▁nación	-9.79827
▁80	-9.79831
gra	-9.79864
▁realizado	-9.79908
▁reglas	-9.79983
▁motor	-9.80058
▁usado	-9.80072
▁rama	-9.80167
sco	-9.80187
▁cervantes	-9.80221
▁hierro	-9.80221
▁matrimonio	-9.80221
▁verde	-9.80235
tin	-9.80261
▁inicia	-9.80333
▁rico	-9.80354
7"	-9.80356
▁motivo	-9.8041
45	-9.80468
▁tenido	-9.80499
▁quedó	-9.80517
bor	-9.80568
▁recibe	-9.80575
▁proviene	-9.80578
5"	-9.80624
▁poeta	-9.80637
76	-9.80706
▁símbolos	-9.80777
▁antiguas	-9.80823
▁inicialmente	-9.80865
▁provoca	-9.80875
▁chi	-9.80906
▁nervioso	-9.80927
gas	-9.81008
▁culto	-9.81016
▁clásico	-9.81033
▁nada	-9.81059
zi	-9.81137
▁conflicto	-9.8116
▁dando	-9.81201
▁transición	-9.81278
▁podían	-9.81291
▁viene	-9.81456
▁club	-9.81477
▁armas	-9.81536
ió	-9.81613
▁/	-9.8174
▁pasar	-9.81767
▁paul	-9.81772
▁representar	-9.81774
▁horas	-9.8178
▁únicamente	-9.81809
▁cuarto	-9.81811
▁iglesias	-9.81905
▁conceptos	-9.8203
▁destino	-9.8206
▁nuestra	-9.82079
▁1970	-9.82086
▁quebec	-9.82092
23	-9.82096
▁dada	-9.82143
▁noche	-9.82179
▁paz	-9.82189
▁ab	-9.82276
▁supone	-9.82313
▁rango	-9.82385
16	-9.82386
▁santo	-9.82444
▁mando	-9.82554
osa	-9.82609
▁relatividad	-9.82615
13	-9.8277
▁danza	-9.82867
áceas	-9.82876
▁interacción	-9.82889
▁tele	-9.82945
▁conocidas	-9.83116
▁cocina	-9.83175
▁relacionados	-9.83193
▁fiestas	-9.83255
▁situado	-9.8336
▁sabe	-9.83382
▁suficiente	-9.83401
▁reconocimiento	-9.83436
▁decidió	-9.83698
▁toledo	-9.83698
▁descrito	-9.83701
▁torre	-9.83742
ato	-9.83742
▁derecha	-9.83807
32	-9.83815
▁matemáticas	-9.83884
▁describe	-9.83914
ifica	-9.83952
▁darwin	-9.83974
▁1936	-9.83976
ix	-9.84117
▁canarias	-9.84144
ño	-9.84237
▁acciones	-9.84259
antes	-9.84289
tur	-9.84302
▁territorial	-9.84456
wa	-9.84474
▁modernos	-9.84504
▁árboles	-9.84515
)|	-9.84571
rico	-9.84586
gan	-9.84714
▁lin	-9.84736
izada	-9.84757
▁haciendo	-9.84792
▁visto	-9.84839
▁semi	-9.84863
▁val	-9.84917
9"	-9.84939
▁gi	-9.84962
▁fruto	-9.85033
▁comerciales	-9.85046
▁continua	-9.85061
▁afirma	-9.85098
té	-9.85129
▁fósiles	-9.85209
▁normal	-9.85359
▁fundamentales	-9.85366
▁jugadores	-9.85404
▁denominación	-9.8545
▁hongos	-9.85463
lia	-9.8555
▁edificio	-9.856
▁kilómetros	-9.8562
▁vacío	-9.85621
lé	-9.85655
▁jugador	-9.85684
▁deportes	-9.85723
▁metal	-9.85753
ua	-9.85829
▁espacios	-9.85839
3"	-9.86048
▁complejos	-9.86061
▁gen	-9.8608
▁menores	-9.86118
▁seguido	-9.86159
▁compuesta	-9.8617
▁hicieron	-9.86177
▁protección	-9.86177
▁altitud	-9.86177
▁diseñado	-9.86178
▁impacto	-9.86181
ético	-9.86224
▁col	-9.86282
▁2003	-9.86321
cr	-9.86337
cro	-9.86415
tz	-9.86493
▁romanos	-9.86494
▁consideraba	-9.8652
▁allá	-9.86559
▁70	-9.86562
▁robert	-9.86562
▁ocurre	-9.86568
▁alcanza	-9.86622
▁emperador	-9.86681
▁occidente	-9.86788
_1	-9.86802
▁formato	-9.86857
▁mantiene	-9.86864
▁er	-9.86906
▁rápido	-9.87017
▁taxonomía	-9.87017
▁máxima	-9.87021
▁2016	-9.87046
▁visita	-9.87063
▁extra	-9.87123
ré	-9.8724
▁dependiendo	-9.87299
gó	-9.87318
8"	-9.8732
▁operativo	-9.87323
▁quedan	-9.87357
▁constituyen	-9.87414
▁picasso	-9.87582
▁excepción	-9.87586
▁formando	-9.87587
▁servidor	-9.87678
▁italiano	-9.87692
toria	-9.87728
▁llamadas	-9.87737
eg	-9.87747
▁marx	-9.87752
87	-9.87753
▁biología	-9.87755
▁animal	-9.8777
▁gra	-9.87843
elo	-9.87843
aria	-9.87856
▁evidencia	-9.87892
▁piedra	-9.87899
▁judíos	-9.87933
01	-9.87992
bel	-9.88029
82	-9.88043
ze	-9.88051
▁disputa	-9.88149
▁estatuto	-9.8815
▁polonia	-9.88155
▁invierno	-9.88177
tación	-9.88193
pan	-9.88421
▁jóvenes	-9.88434
▁cámara	-9.88549
▁debajo	-9.88561
nio	-9.8873
▁publicada	-9.88748
▁religiosa	-9.88811
▁nació	-9.88844
▁2020	-9.88854
▁podrían	-9.88877
▁inicial	-9.88883
▁medidas	-9.88901
▁propósito	-9.89009
▁marcha	-9.89089
esta	-9.89112
75	-9.89119
▁(20	-9.8913
▁árabe	-9.89145
▁bur	-9.89149
mento	-9.89161
21	-9.89234
tru	-9.89255
▁registro	-9.89357
illa	-9.89427
cua	-9.89456
▁emplea	-9.89509
▁volvió	-9.89581
▁cultivo	-9.8965
▁einstein	-9.89658
▁arn	-9.89676
▁estima	-9.89689
▁anual	-9.89702
▁hija	-9.89706
▁eso	-9.89746
▁secuencia	-9.89804
▁hemisferio	-9.89871
▁promedio	-9.89876
▁posibles	-9.89907
▁ingeniería	-9.89913
▁directa	-9.90035
▁totalmente	-9.90127
▁rasgos	-9.90129
▁equipos	-9.90147
▁gente	-9.90152
▁sevilla	-9.90161
38	-9.90169
▁cerebro	-9.90226
▁anteriormente	-9.90237
▁libres	-9.90314
▁escritores	-9.90338
▁factor	-9.90578
▁perteneciente	-9.90588
▁euro	-9.90602
▁matemática	-9.90604
31	-9.90609
▁data	-9.90674
▁ben	-9.90698
▁núcleos	-9.90735
▁adelante	-9.90743
▁funcionamiento	-9.90753
ral	-9.90802
▁líquido	-9.90834
▁enseñanza	-9.90838
▁viento	-9.9085
▁fuego	-9.90852
▁requiere	-9.90891
▁cadena	-9.91018
▁calor	-9.91094
▁sustancias	-9.91126
ólogos	-9.913
▁denominada	-9.91438
▁dioses	-9.91562
▁–	-9.91564
0"	-9.91619
▁catalán	-9.91622
▁alemana	-9.91623
stra	-9.91706
▁encontrado	-9.91737
zar	-9.91817
▁establece	-9.91821
▁gnu	-9.91834
▁determinado	-9.91869
▁trabajar	-9.91873
rias	-9.91893
▁espíritu	-9.91957
▁mm	-9.91961
▁participación	-9.91971
▁onda	-9.92025
cion	-9.92175
▁marte	-9.92191
▁obtuvo	-9.92214
6"	-9.92257
▁ciudadanos	-9.92313
47	-9.92409
▁firma	-9.92419
▁legal	-9.92431
000	-9.92453
▁informe	-9.92466
bio	-9.92467
▁pin	-9.92489
▁ibérica	-9.9251
▁raíces	-9.9251
▁noroeste	-9.9251
▁públicas	-9.92519
▁flujo	-9.92522
mé	-9.92525
▁ob	-9.9261
▁aumenta	-9.92613
▁miles	-9.92626
▁fusión	-9.92632
▁entidad	-9.92783
▁identidad	-9.92808
▁petróleo	-9.92808
▁solución	-9.92808
▁continental	-9.9281
▁bandera	-9.92819
▁utilizados	-9.92942
▁literaria	-9.92952
77	-9.92993
ética	-9.93096
▁ayuntamiento	-9.93106
▁castillo	-9.93115
▁consta	-9.93124
én	-9.93253
▁abierto	-9.93254
▁fija	-9.93256
▁médico	-9.9326
lio	-9.93345
▁exposición	-9.93415
▁york	-9.9344
▁renacimiento	-9.93476
illo	-9.93536
gui	-9.93566
▁ácido	-9.93568
▁muestran	-9.93619
ph	-9.93629
▁tor	-9.93691
▁lingüística	-9.93694
▁ter	-9.93793
mor	-9.93834
▁universidades	-9.93864
▁clara	-9.93888
▁claro	-9.94013
▁investigaciones	-9.94023
ier	-9.94055
▁considerar	-9.94106
ecto	-9.94128
▁bro	-9.94135
▁tendencia	-9.94182
▁reserva	-9.9425
lá	-9.94272
▁abierta	-9.9431
▁portugal	-9.94359
▁australia	-9.9438
▁frecuentemente	-9.94397
24	-9.94417
▁partícula	-9.94497
▁siguiendo	-9.94508
85	-9.94596
▁2013	-9.94645
▁sala	-9.94652
lan	-9.94655
▁concentración	-9.94682
▁suiza	-9.947
oc	-9.94785
72	-9.94877
▁profesional	-9.94886
▁viejo	-9.94927
▁aun	-9.95009
55	-9.95012
aciones	-9.95043
▁quijote	-9.95098
rón	-9.95106
▁aeropuerto	-9.95111
▁verdad	-9.95117
▁organismo	-9.95127
sal	-9.95181
▁construir	-9.95221
▁cuántica	-9.95221
▁prácticamente	-9.95226
▁dispositivos	-9.95251
▁pablo	-9.95287
ji	-9.95322
▁ge	-9.9554
▁sustancia	-9.95591
▁estilos	-9.95617
pen	-9.95687
▁últimas	-9.95832
▁tradiciones	-9.95833
▁aragón	-9.95834
▁maíz	-9.95834
bil	-9.95836
dera	-9.95866
▁entidades	-9.95872
lina	-9.95882
▁superiores	-9.95883
▁piezas	-9.95932
rie	-9.96038
▁experiencia	-9.96051
▁elegido	-9.96053
▁escrita	-9.96054
▁digital	-9.96115
▁cristiana	-9.96134
83	-9.96149
▁mexicana	-9.96155
▁autoridades	-9.96162
▁gu	-9.96181
▁desarrolla	-9.96309
lle	-9.96325
amiento	-9.96346
▁sexual	-9.96369
don	-9.96394
▁constitucional	-9.9645
▁buen	-9.9645
▁breve	-9.96475
▁lógica	-9.96479
▁utilizada	-9.96498
▁observar	-9.96564
▁comenza	-9.96591
dora	-9.96622
▁planetas	-9.96677
tt	-9.96729
▁biblioteca	-9.96756
▁referirse	-9.96767
▁norma	-9.96777
▁cortes	-9.96784
ona	-9.96799
és	-9.96855
78	-9.96943
▁rayos	-9.96975
▁perspectiva	-9.9707
▁edificios	-9.97093
ser	-9.97215
▁químicos	-9.97307
▁fre	-9.9735
▁londres	-9.97382
▁herramientas	-9.97409
dro	-9.97422
»)	-9.97457
eu	-9.97481
puso	-9.97503
stro	-9.97549
▁gobernador	-9.97583
net	-9.97589
idades	-9.97614
▁moral	-9.97648
sin	-9.97677
▁ramón	-9.97712
▁2017	-9.97718
28	-9.97736
▁particularmente	-9.97778
▁discurso	-9.9779
68	-9.97891
▁oposición	-9.97908
▁meta	-9.97944
▁búsqueda	-9.98007
▁rosa	-9.98012
▁500	-9.98021
▁formada	-9.9805
▁sitio	-9.98134
ena	-9.98136
ure	-9.98209
39	-9.98219
▁von	-9.98223
ático	-9.98238
xo	-9.98275
▁explicar	-9.98277
▁prensa	-9.98324
▁caribe	-9.98332
▁lanzamiento	-9.98333
ü	-9.98425
▁pos	-9.98494
56	-9.98544
▁azúcar	-9.98617
▁órgano	-9.9867
vol	-9.9873
▁molecular	-9.98753
▁comúnmente	-9.98846
65	-9.9887
▁200	-9.98931
▁dirigida	-9.98954
▁ficción	-9.98954
▁carne	-9.98976
▁máquinas	-9.98999
▁atlántico	-9.99013
▁pertenece	-9.99152
▁pueda	-9.99153
▁cer	-9.9925
▁creciente	-9.99273
▁andalucía	-9.99311
▁demanda	-9.99412
tismo	-9.99438
96	-9.99575
▁justicia	-9.9959
▁álbum	-9.9959
34	-9.99609
nder	-9.99632
▁príncipe	-9.99646
57	-9.9965
uro	-9.99656
▁mensaje	-9.99691
▁gar	-9.99715
2.	-9.99816
▁cero	-9.99836
▁incluir	-9.99909
▁raíz	-9.99909
▁convertido	-9.99909
▁unidas	-9.99931
lógica	-9.99958
89	-9.99992
▁cm	-10.0004
tista	-10.0012
bos	-10.0021
▁originalmente	-10.0021
▁aporta	-10.0022
▁diámetro	-10.0023
▁franceses	-10.0023
▁hermano	-10.0024
▁responsable	-10.0028
▁espera	-10.003
▁límites	-10.0045
▁dinosaurios	-10.0055
▁policía	-10.0055
▁infraestructura	-10.0055
▁galicia	-10.0055
▁prácticas	-10.0055
▁directo	-10.006
▁combinación	-10.0062
95	-10.0066
▁post	-10.0072
▁comp	-10.0072
▁definir	-10.0079
37	-10.0082
▁artificial	-10.0086
▁pronto	-10.0088
▁nobel	-10.0091
uri	-10.0092
▁estudiar	-10.0092
▁recientemente	-10.0098
▁igualmente	-10.0105
▁porcentaje	-10.012
▁genes	-10.0127
▁equivalente	-10.013
▁gui	-10.0147
eno	-10.0147
▁tro	-10.0149
’	-10.0152
▁formal	-10.0152
▁leche	-10.0157
ent	-10.016
ps	-10.0161
▁copa	-10.0163
▁arco	-10.0167
90	-10.0175
▁contaba	-10.0175
▁riesgo	-10.0176
ard	-10.0179
▁recientes	-10.0182
▁parlamento	-10.0185
▁surgió	-10.0185
▁pocas	-10.0186
dica	-10.0186
▁cielo	-10.0186
▁comparación	-10.0189
▁inteligencia	-10.0189
▁gestión	-10.0199
▁notable	-10.0199
▁ger	-10.0209
▁corrientes	-10.0215
▁mejorar	-10.0217
▁soporte	-10.0218
▁establecido	-10.0218
▁condición	-10.0218
▁mismas	-10.022
mit	-10.0223
met	-10.0225
▁organiza	-10.0226
▁usualmente	-10.0229
up	-10.023
";	-10.0233
1,	-10.0247
▁doctrina	-10.0256
▁maestro	-10.0256
▁autoridad	-10.026
entes	-10.0265
▁metro	-10.0267
▁documentos	-10.0274
▁señor	-10.0279
▁ecuaciones	-10.0283
▁permanente	-10.0283
▁zamora	-10.0283
▁productor	-10.0293
▁archivos	-10.0296
81	-10.0298
▁redes	-10.0307
san	-10.0309
▁acaba	-10.031
▁etimología	-10.0316
▁dejó	-10.0319
▁%)	-10.032
▁cantidades	-10.0322
▁aquellas	-10.0324
92	-10.0333
▁informa	-10.0335
▁bal	-10.0337
▁encontraba	-10.0339
▁1995	-10.035
▁electrónica	-10.0354
▁organizaciones	-10.0354
▁personaje	-10.0361
61	-10.0368
tia	-10.0374
▁seguir	-10.0378
▁profesor	-10.0382
▁festival	-10.0382
▁mantuvo	-10.0383
▁ofrece	-10.0386
▁neo	-10.0386
▁varía	-10.0387
▁int	-10.0391
▁documento	-10.0392
▁artista	-10.0395
▁tenga	-10.0399
gia	-10.0399
▁pla	-10.04
▁men	-10.0409
ito	-10.0409
ell	-10.0411
▁metropolitana	-10.0416
▁orígenes	-10.0416
tic	-10.0417
▁valenciana	-10.0428
tá	-10.0431
12	-10.0439
42	-10.0444
▁1000	-10.0444
▁partida	-10.0448
▁conseguir	-10.0449
▁vicente	-10.0449
▁oficialmente	-10.0457
▁duración	-10.0463
▁canales	-10.047
▁epi	-10.0471
dé	-10.0472
▁semillas	-10.0475
▁nombrado	-10.0476
dy	-10.0489
ris	-10.0492
51	-10.0494
▁simples	-10.0499
▁fundada	-10.0502
▁habitual	-10.0504
fin	-10.0504
▁iv	-10.0507
▁derrota	-10.0511
▁felipe	-10.0517
▁alcanzó	-10.0517
▁siguió	-10.0517
▁gregoriano	-10.0517
▁árbol	-10.0517
▁elección	-10.0517
jas	-10.052
▁nu	-10.0522
-1	-10.0528
▁templo	-10.0533
▁refleja	-10.0534
▁tur	-10.0535
dina	-10.0542
▁st	-10.0548
▁austria	-10.055
ste	-10.055
▁logró	-10.055
▁conexión	-10.055
▁escocia	-10.055
94	-10.0559
▁inf	-10.0566
97	-10.0567
mó	-10.0571
▁cuestión	-10.0584
▁lectura	-10.0584
▁asturias	-10.0584
▁individuos	-10.059
▁convierte	-10.0608
▁arriba	-10.0615
▁ana	-10.0618
▁1950	-10.062
▁fotografía	-10.0626
ty	-10.0629
▁involucra	-10.0633
▁barrio	-10.0637
▁clado	-10.0639
ny	-10.0652
▁órdenes	-10.0652
bul	-10.0653
cri	-10.0654
▁censo	-10.0655
69	-10.0657
hua	-10.0659
▁básico	-10.0668
▁comienzos	-10.0669
79	-10.067
▁proyectos	-10.0672
▁fácil	-10.0674
66	-10.0686
▁anunció	-10.0698
▁comenzar	-10.0701
▁banco	-10.0703
her	-10.0705
▁siguen	-10.0712
2)	-10.0714
91	-10.0715
cular	-10.0716
▁secundaria	-10.0721
▁ecuación	-10.0721
ple	-10.0726
▁bajas	-10.0727
▁dieron	-10.0729
49	-10.0731
▁eu	-10.0733
▁flora	-10.0733
▁expresa	-10.0735
▁comienzo	-10.0738
▁producido	-10.0739
▁propuesta	-10.0739
bol	-10.074
rina	-10.0742
▁religiosas	-10.0749
▁ko	-10.075
▁32	-10.0754
▁soviética	-10.0755
▁colegio	-10.0756
▁precisión	-10.0756
▁primaria	-10.0759
▁(«	-10.0763
36	-10.0764
▁urbano	-10.0773
46	-10.078
▁transforma	-10.0782
▁guerrero	-10.079
▁reacciones	-10.079
▁capaces	-10.0792
▁2022	-10.0793
▁ganó	-10.0795
▁relacionadas	-10.08
ip	-10.0806
ue	-10.0806
gos	-10.081
▁curso	-10.0815
tivas	-10.0816
▁traducción	-10.0825
▁rusia	-10.0826
▁ruta	-10.0834
▁empleo	-10.0837
ula	-10.0839
▁enfoque	-10.0844
▁pri	-10.0847
▁2012	-10.0858
▁equilibrio	-10.086
93	-10.086
▁transmisión	-10.086
▁presentó	-10.086
▁exclusivamente	-10.0865
▁william	-10.0866
▁variedades	-10.0868
▁bienes	-10.088
▁enrique	-10.0882
▁cambiar	-10.0885
inas	-10.089
gio	-10.0891
▁gal	-10.0892
44	-10.0892
izó	-10.0897
▁órganos	-10.0898
▁(15	-10.0907
▁metales	-10.0907
▁saber	-10.0913
59	-10.0914
sol	-10.0916
▁martín	-10.0931
▁otorga	-10.0933
▁discos	-10.094
gran	-10.0946
▁poderes	-10.0949
▁lema	-10.0952
▁fórmula	-10.0952
aje	-10.096
▁creada	-10.0961
▁absoluta	-10.0965
▁intercambio	-10.0965
▁razones	-10.0965
▁estambres	-10.0965
▁intenta	-10.0966
▁ten	-10.0968
▁hospital	-10.0972
▁dijo	-10.0972
gh	-10.0974
▁públicos	-10.098
▁letra	-10.0983
▁debía	-10.0994
mat	-10.1
▁cerveza	-10.1
▁cordillera	-10.1
▁demasiado	-10.1
▁apenas	-10.1
az	-10.1001
▁debate	-10.1004
▁históricos	-10.1006
ap	-10.1011
▁finalizar	-10.1012
▁(1	-10.1012
▁pl	-10.1035
▁ausencia	-10.1036
▁ahí	-10.1036
▁sectores	-10.1037
▁1.	-10.1038
62	-10.1041
vis	-10.1043
”.	-10.105
▁iso	-10.105
▁reinos	-10.1051
▁señal	-10.1051
▁codic	-10.1051
▁computadora	-10.1061
33	-10.1064
▁toneladas	-10.1071
▁1999	-10.1072
▁verdadera	-10.1076
▁dedica	-10.1089
▁herbáceas	-10.1093
▁estadística	-10.1097
▁puente	-10.1099
cara	-10.1106
▁cap	-10.1107
▁mala	-10.1107
▁amenaza	-10.1107
▁normas	-10.1115
41	-10.1125
▁montañas	-10.1134
▁necesita	-10.1136
▁ejecutivo	-10.1143
▁testamento	-10.1143
▁turing	-10.1145
▁críticas	-10.1147
73	-10.1152
▁1980	-10.1152
▁verdadero	-10.1152
ist	-10.1153
▁mexicano	-10.1171
▁artículos	-10.1171
▁teniendo	-10.118
▁descubrió	-10.118
▁electrón	-10.1185
▁sangre	-10.1186
archivo	-10.1188
▁describir	-10.1192
▁vol	-10.1196
▁concepción	-10.1198
ónica	-10.1198
▁aplica	-10.1206
▁existentes	-10.1207
▁británico	-10.1207
▁urbana	-10.1207
▁sociedades	-10.1212
▁1992	-10.1216
▁visual	-10.1216
▁1930	-10.1216
lic	-10.1217
▁mis	-10.1225
▁crea	-10.1226
mul	-10.1228
rm	-10.1229
▁lenguajes	-10.1243
▁et	-10.1243
▁pese	-10.1243
▁ángulo	-10.1244
▁departamento	-10.1244
gal	-10.1244
▁individuo	-10.1245
▁disciplinas	-10.1249
▁continuó	-10.1251
▁windows	-10.1251
▁pal	-10.1252
▁esposa	-10.1252
▁profesionales	-10.1255
▁vías	-10.1262
▁categorías	-10.128
▁error	-10.1281
▁recibir	-10.1287
▁venus	-10.1294
▁soldados	-10.1297
mal	-10.132
rí	-10.1321
▁femenino	-10.1324
▁2,	-10.1324
▁venta	-10.1325
▁señala	-10.1326
pin	-10.1327
▁económicas	-10.1327
int	-10.1331
74	-10.1338
ndi	-10.1339
▁aquella	-10.134
▁vuelta	-10.1343
▁estudiantes	-10.1344
chu	-10.1345
67	-10.1346
▁conocimientos	-10.1346
▁relieve	-10.1361
▁óptica	-10.1361
▁considerable	-10.1362
▁esfera	-10.1362
áticos	-10.1372
dios	-10.1376
inos	-10.138
tec	-10.1383
▁protocolo	-10.1397
ística	-10.1403
▁celebra	-10.1405
▁distinguir	-10.1405
mus	-10.1409
mia	-10.1415
bia	-10.1424
▁bosques	-10.1425
▁extiende	-10.1427
63	-10.143
▁variable	-10.1432
ólogo	-10.1433
▁1998	-10.1435
tus	-10.1435
arios	-10.1437
tera	-10.1438
▁ancho	-10.1438
▁conecta	-10.1438
▁membrana	-10.1439
tero	-10.144
▁colección	-10.1443
▁tomó	-10.1447
xa	-10.1456
09	-10.1462
pt	-10.1463
arse	-10.1467
▁construido	-10.1471
▁combate	-10.1471
▁mucha	-10.1475
▁marruecos	-10.1476
▁especiales	-10.1479
▁terrestres	-10.1496
ador	-10.1496
▁realizada	-10.1499
▁res	-10.1506
▁matemático	-10.1508
▁gastronomía	-10.1509
▁ataque	-10.1509
▁1920	-10.151
▁permitir	-10.1511
▁económicos	-10.1514
▁satélites	-10.1518
▁ki	-10.1522
mann	-10.1532
pec	-10.1535
_2	-10.1542
▁rol	-10.1542
▁bando	-10.1547
▁determina	-10.1547
48	-10.155
▁rotación	-10.1551
▁medieval	-10.1557
logía	-10.1562
▁aumentar	-10.1563
▁provincial	-10.1564
oides	-10.1567
▁mas	-10.1568
▁bajos	-10.1572
▁dividido	-10.1583
▁ejecución	-10.1583
forma	-10.1584
▁estética	-10.1584
▁mecanismo	-10.1584
▁decreto	-10.1586
bus	-10.1591
▁distrito	-10.1591
)"	-10.1592
▁apareció	-10.1595
▁ubica	-10.1598
▁relacionado	-10.16
▁altos	-10.16
▁ubicada	-10.1607
tr	-10.1614
▁domingo	-10.1621
▁institución	-10.1621
▁proyección	-10.1621
▁terminó	-10.1621
▁entró	-10.1621
▁externa	-10.1622
▁diamantes	-10.1622
▁situada	-10.1623
▁líder	-10.1625
▁convertirse	-10.1627
▁corea	-10.163
▁escultura	-10.1631
▁popularidad	-10.1634
▁determinada	-10.1637
▁(16	-10.1637
ense	-10.1638
▁corto	-10.1639
zos	-10.1646
▁hablar	-10.1648
▁1997	-10.1659
tio	-10.166
▁experimentos	-10.1669
▁comida	-10.1674
▁llegado	-10.1674
▁reciente	-10.1691
▁negativa	-10.1696
▁declaró	-10.1697
▁lograr	-10.1705
▁cultiva	-10.1713
▁bill	-10.1719
▁interno	-10.172
▁enorme	-10.1726
▁estatal	-10.1731
▁riqueza	-10.1734
▁reducir	-10.1735
▁establecimiento	-10.1736
▁cálculo	-10.1739
▁amigo	-10.1739
nzó	-10.1741
▁ideal	-10.1743
▁pat	-10.1744
ios	-10.1761
54	-10.178
▁comité	-10.178
▁ética	-10.1785
tradicionalmente	-10.179
art	-10.1803
▁masas	-10.1804
▁novelas	-10.1805
lista	-10.181
▁burgos	-10.1813
▁variables	-10.1813
we	-10.1818
ticos	-10.1821
uta	-10.1823
▁dinámica	-10.1825
▁minerales	-10.1828
▁entra	-10.1828
▁concentra	-10.1829
▁publica	-10.1832
▁enlaces	-10.184
▁ku	-10.1849
▁alemanes	-10.1849
▁sostiene	-10.1849
▁democracia	-10.1849
▁galileo	-10.1849
▁mitología	-10.1851
▁cliente	-10.1857
▁combina	-10.1858
▁canciones	-10.1859
bre	-10.1865
▁instrumento	-10.1866
▁doce	-10.1871
ts	-10.1874
▁buenos	-10.1878
▁blanca	-10.1888
▁imperial	-10.1888
▁propuso	-10.1891
▁jean	-10.1891
▁útil	-10.1893
52	-10.1896
bla	-10.19
▁usos	-10.1904
▁guerras	-10.1906
▁históricamente	-10.1908
▁moda	-10.1913
▁hidro	-10.1916
▁hacía	-10.1922
▁extranjeros	-10.1927
▁bilbao	-10.1927
▁introdujo	-10.1927
▁periódica	-10.1927
▁dictadura	-10.1927
▁casas	-10.193
▁ejecuta	-10.1932
▁deseo	-10.1935
▁geográfica	-10.1936
▁filósofo	-10.1936
▁montaña	-10.1937
▁computadoras	-10.1938
▁nueve	-10.1941
▁ingresos	-10.1952
▁tecnologías	-10.1956
▁activa	-10.1961
▁encontró	-10.1966
▁gallego	-10.1966
▁extensa	-10.1966
▁conjuntos	-10.1966
▁marcado	-10.1967
▁2021	-10.1971
▁zaragoza	-10.1973
▁alfabeto	-10.1974
▁moneda	-10.1976
▁apolo	-10.1982
[	-10.1982
58	-10.1993
▁enlace	-10.1997
ñe	-10.1997
▁señales	-10.2003
▁enfrenta	-10.2003
▁sencillo	-10.2005
▁estaciones	-10.201
▁bloque	-10.201
ás	-10.2017
▁café	-10.2019
▁psicología	-10.2023
▁campeonato	-10.2023
▁físicos	-10.2024
este	-10.2025
▁modernas	-10.2027
▁llevado	-10.2032
osos	-10.2036
teo	-10.2037
▁revela	-10.2037
▁proto	-10.2042
▁monarquía	-10.2044
5%	-10.2048
▁originario	-10.2052
▁intento	-10.2056
▁religiosos	-10.206
▁90	-10.2064
cano	-10.2069
▁realizan	-10.2076
ius	-10.2078
▁corre	-10.2078
▁opera	-10.2078
▁orgánica	-10.2083
▁esperanto	-10.2084
▁sección	-10.2087
▁impulso	-10.2088
▁corteza	-10.2088
▁iniciativa	-10.2092
▁ritmo	-10.2096
▁disponible	-10.2096
▁átomo	-10.2096
ov	-10.2103
▁reina	-10.2107
▁andorra	-10.2112
43	-10.2112
▁rock	-10.2112
cy	-10.2113
▁nicaragua	-10.2123
▁come	-10.2125
rom	-10.2125
▁civilización	-10.2128
▁observaciones	-10.2131
ografía	-10.2132
▁operación	-10.2132
▁vo	-10.214
08	-10.2142
▁excepto	-10.2144
▁católicos	-10.2145
▁derivados	-10.2145
▁fuertes	-10.2149
vas	-10.215
▁granada	-10.2163
▁murió	-10.2163
▁medir	-10.2163
▁dominante	-10.2172
▁biblia	-10.2177
▁evento	-10.2178
▁observación	-10.2179
▁recta	-10.2182
▁archipiélago	-10.2202
▁soporta	-10.2203
▁simetría	-10.2206
▁hablantes	-10.2207
dura	-10.2211
▁humanas	-10.2224
▁dinastía	-10.2242
▁difusión	-10.2243
▁individual	-10.2249
▁ruso	-10.2254
▁regionales	-10.2254
pp	-10.2257
▁latino	-10.2263
dar	-10.2265
06	-10.2273
▁cable	-10.2274
▁consiguió	-10.2283
▁george	-10.2288
▁fácilmente	-10.2297
▁tareas	-10.2303
▁queda	-10.2307
▁coloca	-10.2313
dal	-10.2314
▁representantes	-10.2321
▁argumenta	-10.2323
▁microsoft	-10.2323
▁cita	-10.2324
ciencia	-10.2325
eña	-10.2325
▁interpreta	-10.2325
▁fauna	-10.2326
▁ganado	-10.2328
▁sitios	-10.2329
▁independientes	-10.233
port	-10.2332
dido	-10.2334
dero	-10.2341
▁nuestro	-10.2341
bal	-10.2348
▁2.	-10.2351
iz	-10.2354
▁borde	-10.236
▁hermanos	-10.2362
▁federación	-10.2363
▁justo	-10.2365
▁vital	-10.2366
illas	-10.2367
vir	-10.2367
▁circuitos	-10.2368
historia	-10.2374
▁pertenecen	-10.2379
dad	-10.2386
▁foto	-10.2388
ker	-10.2395
▁entender	-10.2396
▁lagos	-10.2396
shi	-10.2396
▁vinos	-10.2398
▁ubicado	-10.24
▁neuro	-10.2402
▁pérez	-10.2404
▁variaciones	-10.2404
▁ópera	-10.2404
▁milenio	-10.2404
▁poáceas	-10.2406
itos	-10.2406
tino	-10.242
▁conflictos	-10.2422
▁judicial	-10.2433
var	-10.2435
▁pasando	-10.2435
▁peri	-10.2444
▁mínimo	-10.2445
for	-10.2446
3,	-10.2449
ola	-10.246
▁claramente	-10.2462
▁mama	-10.247
▁mont	-10.2472
▁unix	-10.2473
quí	-10.2475
▁registros	-10.2477
▁asociado	-10.2482
98	-10.2484
▁mamíferos	-10.2486
▁dinero	-10.2487
▁reproducción	-10.2487
▁bor	-10.2487
▁esquema	-10.2489
▁cura	-10.2489
▁ligeramente	-10.2491
itas	-10.2494
▁35	-10.2508
▁agrícola	-10.2509
▁reconocido	-10.251
ificación	-10.2525
▁sebastián	-10.2527
▁grados	-10.2535
▁lineal	-10.2535
bios	-10.2537
▁centra	-10.2539
▁pura	-10.2541
sia	-10.2542
▁misión	-10.2544
▁acto	-10.2546
▁aparte	-10.255
▁magnético	-10.255
▁literario	-10.255
▁mitos	-10.2551
ática	-10.2559
jos	-10.2563
▁veinte	-10.2568
ístico	-10.2585
▁paisaje	-10.2593
▁famoso	-10.2593
▁religioso	-10.2593
sur	-10.2602
▁rendimiento	-10.261
ski	-10.261
▁alicante	-10.261
uc	-10.2611
▁introducción	-10.2613
mes	-10.2621
arte	-10.2631
▁fiesta	-10.2637
▁niño	-10.2641
▁nuevamente	-10.2644
cula	-10.2647
▁mecanismos	-10.265
▁contemporánea	-10.2651
▁residencia	-10.2652
izados	-10.2654
▁acompaña	-10.2657
▁anuales	-10.2658
▁magnitud	-10.266
die	-10.266
rica	-10.2663
▁variantes	-10.2665
▁alma	-10.2676
▁escasa	-10.2679
▁tejido	-10.2679
▁descubierto	-10.2682
▁mejora	-10.2683
▁pen	-10.2685
▁opinión	-10.2693
▁detrás	-10.2693
▁1994	-10.2694
▁almacenamiento	-10.2694
▁formó	-10.2694
▁fundó	-10.27
▁parecen	-10.2705
▁gl	-10.2708
▁necesidades	-10.2709
▁duda	-10.2712
▁cifra	-10.2715
izo	-10.2717
▁serían	-10.2718
▁vivos	-10.2724
ub	-10.2724
sc	-10.2727
▁componente	-10.2728
▁menciona	-10.2729
▁termina	-10.2732
▁colonia	-10.2733
din	-10.2733
▁recibido	-10.2735
▁asegura	-10.2738
▁reducido	-10.2738
gna	-10.2739
▁decisión	-10.2739
▁intelectual	-10.2744
▁industriales	-10.2761
▁conocen	-10.2762
ham	-10.2767
▁individuales	-10.277
▁puerta	-10.2773
ella	-10.2777
▁primavera	-10.2778
▁frase	-10.2789
▁relaciona	-10.2791
▁cruza	-10.2791
▁sitúa	-10.2799
▁«"	-10.2804
05	-10.2804
▁rápida	-10.2807
▁organizado	-10.2808
▁mostrar	-10.2814
ní	-10.2818
▁dimensiones	-10.282
▁dirigido	-10.282
▁musulmanes	-10.282
▁amiga	-10.2821
▁perdido	-10.2822
▁marina	-10.2828
▁dr	-10.2836
▁cre	-10.2837
▁comedia	-10.284
ular	-10.2843
▁inicios	-10.2851
tribu	-10.2852
▁satélite	-10.286
▁fernández	-10.2862
▁profundidad	-10.2862
▁1993	-10.2863
lica	-10.2866
str	-10.2871
▁cuentan	-10.2872
▁predominante	-10.2873
▁básica	-10.2882
▁totalidad	-10.2885
vin	-10.2888
):	-10.289
▁cadenas	-10.2891
▁dichos	-10.2891
▁obispo	-10.2894
▁algas	-10.2896
entre	-10.2897
▁hd	-10.2897
▁peligro	-10.29
▁tampoco	-10.2905
▁toros	-10.2906
▁turistas	-10.2907
▁elevado	-10.2909
cina	-10.2911
▁puertos	-10.2912
▁espiritual	-10.2914
▁tribunal	-10.2915
▁inc	-10.2915
▁emb	-10.2915
▁localidad	-10.2923
▁separa	-10.293
▁eva	-10.2931
▁th	-10.2932
▁terreno	-10.2938
▁fla	-10.2939
▁je	-10.2942
▁amigos	-10.2943
▁llegando	-10.2944
ku	-10.2945
▁interfaz	-10.2948
▁conoció	-10.2948
▁famosa	-10.2949
▁1996	-10.2949
▁pecado	-10.295
▁integración	-10.2953
▁experimenta	-10.2961
▁explicación	-10.2964
▁300	-10.297
▁tratar	-10.297
▁atómico	-10.2971
▁cri	-10.2985
▁agujero	-10.299
▁lópez	-10.2991
▁poblada	-10.2991
rr	-10.3001
▁zo	-10.3013
▁frecuente	-10.3016
▁identificar	-10.302
▁ed	-10.302
▁au	-10.3027
rado	-10.3027
▁procede	-10.3029
tales	-10.3031
.000	-10.3031
▁avances	-10.3032
▁dia	-10.3032
▁religiones	-10.3034
▁utilizó	-10.3034
▁proporción	-10.3034
▁aceite	-10.3035
▁generar	-10.3035
ería	-10.3037
▁contraste	-10.3042
dado	-10.3044
▁q	-10.3045
▁primo	-10.3048
▁pol	-10.3058
▁socialista	-10.3059
▁rioja	-10.3068
▁canto	-10.3071
▁campaña	-10.3071
▁civiles	-10.3072
▁david	-10.3078
▁obtiene	-10.3078
▁pudiera	-10.3088
rt	-10.309
▁espiguillas	-10.3095
03	-10.3097
jar	-10.3099
▁estable	-10.31
-20	-10.3101
▁lago	-10.3101
▁analiza	-10.3102
▁wa	-10.3105
tada	-10.311
edad	-10.3111
▁manifestaciones	-10.3122
tom	-10.3122
▁ovario	-10.3122
▁protones	-10.3123
▁placer	-10.3123
▁charles	-10.3124
▁circuito	-10.3124
▁relacionada	-10.3132
▁tejidos	-10.3137
my	-10.3149
▁disponibles	-10.3151
▁dispositivo	-10.3161
▁aprecia	-10.3162
gri	-10.3163
▁componen	-10.3165
▁voluntad	-10.3165
▁budismo	-10.3165
miniatura	-10.3166
▁transferencia	-10.3166
▁propuesto	-10.3167
nar	-10.3168
▁comunista	-10.3171
04	-10.3171
leg	-10.3173
▁entrar	-10.3173
berg	-10.3173
dis	-10.3175
▁conservación	-10.3183
▁plantea	-10.3185
▁perl	-10.3189
▁inmigrantes	-10.3191
script	-10.3193
▁precisa	-10.3197
nza	-10.3203
▁bisiestos	-10.3207
mbo	-10.3208
▁entrega	-10.3209
▁incremento	-10.321
▁intensidad	-10.321
▁vertical	-10.321
inter	-10.321
▁frutos	-10.3215
▁huesos	-10.3219
07	-10.3222
ngo	-10.3225
ate	-10.3226
plan	-10.323
▁experimental	-10.3232
▁objetivos	-10.3234
▁probable	-10.3241
nal	-10.3241
▁presentar	-10.3243
ite	-10.3243
aunque	-10.3244
▁asocia	-10.3244
▁2002	-10.3244
glo	-10.3248
▁aleja	-10.3248
▁capas	-10.3249
osas	-10.3251
▁newton	-10.3254
▁peruano	-10.3254
▁llamó	-10.3254
▁inversión	-10.3256
▁barroco	-10.3257
▁salvo	-10.3259
ou	-10.3261
▁síntesis	-10.3273
▁conde	-10.3276
▁padres	-10.3279
▁mel	-10.328
▁atribuye	-10.3281
▁regla	-10.3281
▁apo	-10.3281
▁bach	-10.3287
▁posiciones	-10.3289
▁cristóbal	-10.3298
▁distinción	-10.3298
▁nietzsche	-10.3298
▁resolución	-10.3298
▁richard	-10.3298
▁comisión	-10.33
▁labor	-10.3309
▁investigadores	-10.3309
":	-10.3309
▁emp	-10.331
▁reformas	-10.3313
log	-10.332
▁mapa	-10.3321
▁básicos	-10.3322
▁influencias	-10.3326
▁quito	-10.3327
▁adapta	-10.3328
▁necesaria	-10.3329
▁senado	-10.3332
▁específico	-10.3342
▁cubierta	-10.3343
▁júpiter	-10.3343
▁responsabilidad	-10.3343
▁comunicaciones	-10.3346
▁judía	-10.3347
▁causas	-10.3349
▁volver	-10.3351
▁hor	-10.3356
hor	-10.336
▁supera	-10.3364
▁correo	-10.3369
▁ap	-10.3373
▁anillos	-10.3381
▁neuronas	-10.3386
▁viven	-10.3387
▁evidente	-10.3388
▁disposición	-10.3389
▁(3	-10.339
▁expedición	-10.339
▁separación	-10.3397
▁torres	-10.341
▁euros	-10.3411
▁desarrollaron	-10.3412
isa	-10.3415
tán	-10.3416
yu	-10.3417
▁creencias	-10.3426
▁400	-10.343
▁intervención	-10.3433
▁resolver	-10.3433
▁virgen	-10.3433
▁espectro	-10.3433
▁continuo	-10.3433
rena	-10.3433
▁diego	-10.3434
▁acepta	-10.3437
▁caña	-10.3446
pos	-10.3449
▁piel	-10.345
mática	-10.345
▁actos	-10.3455
▁considerados	-10.3457
▁cromosomas	-10.3472
▁contar	-10.3474
▁iba	-10.3475
eño	-10.3475
▁absoluto	-10.3478
▁gravedad	-10.3478
▁compleja	-10.3481
▁avance	-10.3481
▁tiende	-10.3481
▁explotación	-10.3484
▁encarga	-10.3486
ave	-10.3487
▁privada	-10.3487
▁colonial	-10.349
▁rural	-10.3492
▁diputados	-10.3502
▁positiva	-10.3503
▁químico	-10.3506
table	-10.3507
ast	-10.3518
▁europeas	-10.3522
▁teórica	-10.3523
jpg	-10.3524
▁extremadura	-10.3524
▁ejercicio	-10.3525
▁declara	-10.3531
▁latitud	-10.3536
▁cambia	-10.3549
bro	-10.3554
▁arena	-10.3559
▁diario	-10.356
ció	-10.3568
▁audiencia	-10.3569
▁republicana	-10.3569
▁temprana	-10.3569
▁trompeta	-10.3569
▁1982	-10.357
▁reinado	-10.3571
▁vuelve	-10.3571
▁reducción	-10.3571
mbre	-10.3572
▁mira	-10.3572
▁británica	-10.3573
▁negra	-10.3575
▁familiar	-10.358
▁copia	-10.358
▁viajes	-10.3583
▁aplicar	-10.3601
▁llevan	-10.3605
▁etapas	-10.3611
▁jorge	-10.3615
▁vivir	-10.3618
lus	-10.3619
▁fabricación	-10.362
zón	-10.362
▁eléctrico	-10.3621
oideae	-10.3623
comp	-10.3623
▁círculo	-10.363
▁helio	-10.3632
▁(2	-10.3633
▁bre	-10.3638
▁físicas	-10.364
grafía	-10.3643
▁premios	-10.3646
pal	-10.3646
▁filósofos	-10.365
tiempo	-10.3654
tir	-10.3656
▁usada	-10.3661
▁instrucciones	-10.3661
▁surgieron	-10.3661
▁provocó	-10.3662
▁identifica	-10.3664
▁signos	-10.3667
▁crítico	-10.3668
▁anillo	-10.3669
▁creencia	-10.3672
▁tubo	-10.3673
▁españolas	-10.368
-2	-10.3681
▁pertenecientes	-10.3693
phi	-10.3704
▁cinturón	-10.3707
▁comprensión	-10.3707
▁inglesa	-10.3707
▁neutrones	-10.3708
▁fases	-10.3708
▁nacido	-10.3708
▁dejando	-10.372
▁compositor	-10.3721
▁macro	-10.3726
▁definido	-10.3733
▁bru	-10.3736
▁cam	-10.3736
▁asigna	-10.3749
▁realmente	-10.3752
anos	-10.3754
cie	-10.3754
▁1940	-10.3756
grama	-10.3757
▁gases	-10.3758
▁punta	-10.3766
▁vive	-10.3767
▁geo	-10.3773
▁dispone	-10.3773
▁canción	-10.3776
▁oral	-10.3787
ii	-10.3794
▁pares	-10.3796
▁dividida	-10.3801
▁probabilidad	-10.3801
cus	-10.3803
▁procedentes	-10.3807
▁páginas	-10.3807
▁colaboración	-10.3807
▁ubicación	-10.3811
▁estadio	-10.3815
▁sar	-10.3821
kin	-10.3825
▁platón	-10.3827
▁apoya	-10.3828
▁hiper	-10.3833
▁precio	-10.3842
▁conforman	-10.3846
▁ajedrez	-10.3848
▁castellana	-10.3848
▁cueva	-10.3849
▁1985	-10.3849
▁destacados	-10.3849
▁trabajadores	-10.385
▁adaptación	-10.3857
▁alberga	-10.3858
▁cosa	-10.3858
▁bosque	-10.386
mic	-10.3866
▁hermana	-10.3869
▁fri	-10.3871
▁enzimas	-10.3872
▁viaja	-10.388
ete	-10.3882
▁carreteras	-10.3883
vio	-10.3886
▁esencial	-10.3888
▁bandas	-10.3889
cf	-10.3892
▁historiadores	-10.3895
▁cumplir	-10.3896
▁editorial	-10.3903
▁transformación	-10.3906
▁alimento	-10.3908
▁viola	-10.3908
iales	-10.3915
▁cl	-10.3934
▁exp	-10.394
▁dejar	-10.3942
▁estrategia	-10.3942
▁existir	-10.3942
▁intereses	-10.3943
▁continúa	-10.3946
▁seguidores	-10.3948
▁tono	-10.3962
▁consecuencias	-10.3966
▁posiblemente	-10.3967
▁incluido	-10.3971
▁supuso	-10.3973
▁considerarse	-10.3974
nis	-10.3979
▁centrales	-10.3983
▁leer	-10.3985
▁presidencia	-10.3987
▁italiana	-10.3987
▁baloncesto	-10.399
▁morfología	-10.399
▁tráfico	-10.399
▁alianza	-10.399
▁occidentales	-10.3992
ale	-10.3993
▁iguales	-10.3994
▁caza	-10.3998
▁astronomía	-10.4
van	-10.4
▁encuentro	-10.4001
bit	-10.4003
▁participa	-10.4004
ícula	-10.4024
▁estrecha	-10.4025
▁pantalla	-10.4038
▁soluciones	-10.4038
▁bronce	-10.4038
▁patrón	-10.4038
▁segura	-10.4038
ara	-10.4039
▁liberación	-10.4045
▁aprendizaje	-10.4046
▁puedan	-10.4056
oma	-10.4056
ang	-10.4059
fina	-10.4062
▁poetas	-10.4062
▁pala	-10.4067
fra	-10.4073
río	-10.4073
▁rod	-10.4078
ama	-10.4079
han	-10.4081
▁expresiones	-10.4086
▁guadalajara	-10.4086
▁resonancia	-10.4086
▁tolkien	-10.4086
▁cuarta	-10.4086
▁tendría	-10.4086
▁ediciones	-10.4086
▁sureste	-10.4091
▁aceptadas	-10.4091
▁tribu	-10.4093
▁exactamente	-10.4095
▁poemas	-10.4098
▁sor	-10.4101
▁comarca	-10.4102
▁laboratorio	-10.4102
▁canaria	-10.4105
▁cantante	-10.4107
▁coordenadas	-10.4113
▁localiza	-10.4115
▁45	-10.4115
dan	-10.4119
▁alimenta	-10.4119
cada	-10.4122
anti	-10.4126
ller	-10.4129
▁recuperar	-10.4132
también	-10.4132
▁cualquiera	-10.4133
▁multitud	-10.4134
▁quinto	-10.4134
▁linneo	-10.4134
▁masiva	-10.4135
▁voz	-10.4139
▁artístico	-10.4152
▁dieta	-10.4152
taria	-10.4154
ial	-10.4156
▁rec	-10.4157
▁cola	-10.4158
▁calles	-10.4168
ag	-10.4173
software	-10.4181
▁controversia	-10.4183
▁anuncia	-10.4183
▁intención	-10.4183
▁oscura	-10.4183
▁concilio	-10.4183
▁situaciones	-10.4183
▁am	-10.4183
▁compañías	-10.4188
▁ordenador	-10.419
▁bélgica	-10.4191
▁meseta	-10.4193
pina	-10.4196
▁bus	-10.4196
▁himno	-10.4196
▁americano	-10.4202
▁ejerci	-10.4205
▁acceder	-10.4209
▁supuesto	-10.4214
▁cent	-10.4221
▁42	-10.4221
▁videojuegos	-10.4223
▁díaz	-10.4226
ian	-10.4228
edi	-10.423
▁remonta	-10.4232
▁titulado	-10.4233
▁hielo	-10.4233
▁alternativa	-10.4234
eb	-10.4239
▁corresponden	-10.424
▁productores	-10.4242
▁mandato	-10.4244
▁ferrocarril	-10.4247
▁secretario	-10.4247
▁costumbres	-10.4249
▁pul	-10.4249
▁clásicos	-10.4254
sio	-10.4255
▁hardware	-10.4258
▁tropicales	-10.4261
end	-10.4263
▁asumi	-10.4269
ima	-10.4272
eza	-10.4273
▁utilización	-10.4274
▁sufrió	-10.428
▁suecia	-10.4281
▁quiere	-10.4281
▁fibras	-10.4283
▁sucede	-10.4284
▁buscar	-10.43
sim	-10.4302
▁cata	-10.4306
▁socio	-10.4306
▁calcula	-10.4308
02	-10.4315
▁asuntos	-10.4319
▁sucesor	-10.4319
▁coste	-10.432
ares	-10.4329
▁sil	-10.4329
▁sistemática	-10.433
▁teorema	-10.433
▁ontario	-10.433
uno	-10.4331
▁linux	-10.4334
▁capilla	-10.4335
▁aplicada	-10.4335
▁cd	-10.434
▁metano	-10.434
dice	-10.4343
▁racional	-10.4348
▁habitualmente	-10.4348
ui	-10.4352
▁dichas	-10.4354
▁tom	-10.4361
▁tribus	-10.4366
form	-10.4367
▁fer	-10.4368
ches	-10.4374
▁definiciones	-10.4379
▁navarra	-10.4379
▁específicos	-10.438
▁1991	-10.438
▁incluía	-10.4385
▁toca	-10.4388
▁paga	-10.4396
▁sexo	-10.44
▁competencia	-10.4403
▁tarea	-10.4405
más	-10.4413
▁definitiva	-10.4416
▁valles	-10.4424
▁litoral	-10.4429
▁2023	-10.4432
▁escribe	-10.4432
▁vapor	-10.4438
▁regular	-10.4438
▁poner	-10.444
▁prepara	-10.4441
▁declaración	-10.4447
line	-10.4462
▁funcional	-10.4469
▁incorpora	-10.447
▁monta	-10.4471
▁fuertemente	-10.4473
▁legislativo	-10.4479
▁corazón	-10.4479
▁rafael	-10.4479
’)	-10.4479
ías	-10.4481
▁plazo	-10.4483
▁obliga	-10.4483
▁juicio	-10.4489
▁ebro	-10.449
iera	-10.4493
mentos	-10.4501
tía	-10.4507
▁electrónico	-10.4508
▁estándares	-10.4513
ep	-10.4516
▁particulares	-10.4518
nés	-10.4521
▁grave	-10.4523
▁abajo	-10.4524
▁intentó	-10.4529
▁urano	-10.4531
▁64	-10.4531
▁cercana	-10.4533
tum	-10.4534
▁cercano	-10.4535
▁córdoba	-10.4538
▁electoral	-10.4546
mán	-10.4549
▁ganar	-10.4553
▁médicos	-10.4554
▁controlar	-10.4555
est	-10.4557
mpa	-10.456
ant	-10.4567
▁ip	-10.457
-3	-10.4575
▁convertir	-10.4575
▁fran	-10.4578
▁ejecutar	-10.4579
acto	-10.4579
▁tar	-10.458
▁aérea	-10.458
▁mozart	-10.458
▁alcance	-10.458
▁parecido	-10.458
ilo	-10.4581
▁millón	-10.4581
▁computación	-10.4582
col	-10.4586
▁ayudar	-10.4592
▁ácidos	-10.4603
▁republicano	-10.4609
▁artística	-10.4609
▁vega	-10.4614
▁carl	-10.4615
▁estadounidenses	-10.4617
▁entero	-10.463
▁complejidad	-10.463
▁evolutiva	-10.463
▁1937	-10.4632
100	-10.4635
▁mapas	-10.4637
▁is	-10.4639
▁lucas	-10.4639
vida	-10.4639
ug	-10.4639
marca	-10.464
▁ple	-10.4654
▁desplaza	-10.4654
▁reconoce	-10.4657
▁rutas	-10.4657
▁liberal	-10.4659
▁visible	-10.4661
phy	-10.4664
▁pinturas	-10.4669
pri	-10.467
cin	-10.467
▁debería	-10.4671
▁demostrar	-10.4675
▁accidente	-10.4681
▁astrología	-10.4681
▁1981	-10.4683
véase	-10.4684
▁minutos	-10.4685
▁existía	-10.4689
▁beneficios	-10.469
▁primos	-10.4693
▁frecuentes	-10.4699
mil	-10.47
▁gobiernos	-10.4705
▁bol	-10.4707
▁arquitecto	-10.4713
▁turístico	-10.4714
lado	-10.472
▁indígena	-10.472
▁fundador	-10.4725
▁acontecimientos	-10.4726
higgins	-10.4733
▁imposible	-10.4733
▁masculino	-10.4733
▁permitido	-10.4733
▁apertura	-10.4733
iéndose	-10.4739
▁ros	-10.4745
cle	-10.4747
izadas	-10.475
trajo	-10.4758
1%	-10.4759
mont	-10.4772
▁comprender	-10.4777
▁canta	-10.478
▁treinta	-10.4784
génesis	-10.4784
▁baile	-10.4786
let	-10.479
▁milla	-10.4794
▁informática	-10.48
▁rea	-10.4802
▁archivo	-10.4803
▁adecuado	-10.4811
▁asociados	-10.4817
▁gama	-10.4819
▁us	-10.4821
eras	-10.4825
if	-10.4827
▁utilizadas	-10.4834
jan	-10.4835
▁temporada	-10.4836
▁decisiones	-10.4836
▁virus	-10.4836
▁apple	-10.4837
▁fotones	-10.4837
▁tercio	-10.4839
▁selva	-10.4839
▁sonora	-10.484
▁paleo	-10.484
▁cho	-10.484
▁sha	-10.4841
▁caliente	-10.4842
▁desarrollada	-10.4843
▁sirve	-10.4844
▁surge	-10.4846
▁observado	-10.4848
▁pintor	-10.4857
▁funciona	-10.4858
ib	-10.4863
ento	-10.4873
▁incluidos	-10.4873
▁permitie	-10.488
americano	-10.4881
gin	-10.4883
▁circunferencia	-10.4888
▁unesco	-10.4893
▁proporcionar	-10.4894
▁ido	-10.4894
▁inca	-10.4895
▁acompañado	-10.4895
▁largas	-10.4895
siglo	-10.4898
▁servidores	-10.4899
▁historiador	-10.49
▁mencionar	-10.4906
▁ocupación	-10.4912
▁max	-10.4912
▁encargado	-10.492
▁estabilidad	-10.4922
▁periódico	-10.4926
▁conciencia	-10.4927
▁mag	-10.4932
▁judaísmo	-10.494
▁instalaciones	-10.4943
▁inmediatamente	-10.4945
anza	-10.4946
▁california	-10.495
▁básicas	-10.4953
▁necesariamente	-10.4955
▁llegan	-10.4958
cé	-10.4961
▁motivos	-10.4973
guer	-10.4979
▁poema	-10.498
▁referencias	-10.4984
▁postula	-10.4987
pica	-10.4988
▁ram	-10.4989
▁conducta	-10.4993
▁convirtier	-10.4994
▁palma	-10.4995
▁biografía	-10.4996
▁"[[	-10.5003
▁castro	-10.5004
▁adecuada	-10.5006
▁especifica	-10.5015
lig	-10.5016
▁reg	-10.5017
ológico	-10.5025
▁escena	-10.5028
ice	-10.5029
▁barra	-10.5031
▁dulce	-10.5033
▁reconocida	-10.5035
▁luc	-10.5042
▁integrado	-10.5045
▁vin	-10.5046
▁cambió	-10.5046
▁combustible	-10.5046
▁construyó	-10.5046
▁gonzález	-10.5046
▁protagonista	-10.5046
▁dvd	-10.5046
▁añadir	-10.5046
▁descendientes	-10.5047
▁reduce	-10.5047
▁james	-10.5047
▁polvo	-10.5048
▁publicaciones	-10.5052
▁mari	-10.5054
adores	-10.5057
▁deja	-10.5058
▁denominaciones	-10.506
bert	-10.507
▁alimentación	-10.5073
▁originales	-10.5075
aban	-10.5077
▁democrática	-10.5078
▁halla	-10.508
▁rurales	-10.5085
▁limitado	-10.5085
▁pico	-10.509
fil	-10.5095
▁mantenimiento	-10.5099
▁reducida	-10.5099
▁concreto	-10.51
▁herencia	-10.5102
▁moleculares	-10.5102
▁cuadrado	-10.5104
▁históricas	-10.5105
3.	-10.5106
▁costas	-10.5109
▁radical	-10.511
▁extremada	-10.5111
ducto	-10.5112
▁bri	-10.5118
▁utilizaba	-10.5119
tilla	-10.512
mera	-10.5121
▁agrícolas	-10.5123
▁alfa	-10.5126
▁sucesos	-10.5131
▁reciben	-10.5134
lum	-10.5136
▁elimina	-10.5136
▁laguna	-10.5143
▁gri	-10.5145
▁compra	-10.5147
▁exteriores	-10.5149
▁extendido	-10.5153
▁zacatecas	-10.5153
▁aparecieron	-10.5153
▁orquesta	-10.5153
▁vivió	-10.5153
▁freebsd	-10.5153
▁pop	-10.5154
▁1986	-10.5154
ío	-10.5157
▁elaboración	-10.516
▁golfo	-10.516
pé	-10.5161
▁auge	-10.5164
▁precios	-10.5168
▁terminal	-10.517
▁colonias	-10.5171
▁pies	-10.5175
▁cas	-10.518
▁carr	-10.5183
▁diccionario	-10.5191
recién	-10.5205
▁eduardo	-10.5206
▁bahía	-10.5206
▁fiscal	-10.5207
ich	-10.5208
▁compuestas	-10.5208
▁personales	-10.5208
cita	-10.5208
fec	-10.521
leo	-10.521
▁andrés	-10.5213
▁pensar	-10.5219
▁coma	-10.5219
▁pleno	-10.522
▁creía	-10.5222
▁estatus	-10.5229
▁islam	-10.523
güe	-10.5231
▁temporal	-10.5232
▁separados	-10.5239
▁ran	-10.5246
▁derivado	-10.5248
▁página	-10.5253
eri	-10.5254
▁signo	-10.5255
▁bolivia	-10.526
▁progreso	-10.526
▁otoño	-10.5261
▁atómica	-10.5261
▁tenemos	-10.5261
tl	-10.5262
▁afecta	-10.5263
▁representada	-10.5263
▁exportaciones	-10.5263
poniendo	-10.5265
▁circulación	-10.5267
ish	-10.5267
▁tren	-10.5268
▁uva	-10.5269
▁polen	-10.5272
▁cristianas	-10.5276
▁bon	-10.528
▁anima	-10.5281
▁creando	-10.5285
▁char	-10.529
▁testigos	-10.5293
ak	-10.5293
▁barrios	-10.5294
oide	-10.5295
▁pintores	-10.5295
wi	-10.5296
▁hel	-10.5299
▁empezar	-10.5301
▁bell	-10.5303
▁vehículos	-10.5306
▁conferencia	-10.5308
▁inflorescencia	-10.5308
▁diagnóstico	-10.5315
▁instancia	-10.5315
▁periodista	-10.5315
▁isabel	-10.5315
▁alcalde	-10.5315
▁esperanza	-10.5315
▁1975	-10.5317
dd	-10.5319
▁incrementa	-10.5323
▁empieza	-10.5325
▁externos	-10.5331
▁regula	-10.5333
▁tem	-10.5341
▁mito	-10.5342
clar	-10.5345
▁ch	-10.5348
▁plasma	-10.5349
▁superficies	-10.5351
▁relativa	-10.5351
▁parcial	-10.5357
ensis	-10.536
▁fundado	-10.5361
▁sólido	-10.5364
▁herramienta	-10.5365
▁térmica	-10.5369
▁electricidad	-10.537
▁prote	-10.5371
stein	-10.5378
blues	-10.538
▁king	-10.5382
▁abandonar	-10.5383
▁perder	-10.5384
ung	-10.5399
▁manual	-10.5406
▁perennes	-10.5417
▁notables	-10.5419
▁representado	-10.5422
▁cartas	-10.5424
▁bizantino	-10.5424
▁cerebral	-10.5424
▁infinito	-10.5424
▁estrecho	-10.5424
▁matemáticos	-10.5426
ná	-10.5427
ini	-10.5428
chos	-10.5432
▁arqueas	-10.5439
▁motores	-10.544
lip	-10.5441
▁llamar	-10.5443
▁cifras	-10.5443
ándola	-10.5445
▁requieren	-10.5452
▁pared	-10.5452
▁esfuerzos	-10.5454
▁específicas	-10.5455
fre	-10.5465
▁conservan	-10.5467
▁concreta	-10.5469
▁tropical	-10.5471
chas	-10.5475
tel	-10.5476
▁definida	-10.5477
▁cir	-10.5478
▁alejandro	-10.548
▁bretaña	-10.548
▁angiospermas	-10.548
▁hubiera	-10.548
▁1939	-10.5481
▁carbón	-10.5481
len	-10.5485
▁vincula	-10.5494
pat	-10.5494
▁constituido	-10.5499
dón	-10.5502
▁enviar	-10.5508
▁sustrato	-10.5512
▁provenientes	-10.5514
▁tim	-10.5517
▁designa	-10.5517
▁denominan	-10.5518
cher	-10.5519
▁fusiona	-10.5524
▁localidades	-10.5525
▁próximo	-10.5533
▁biológica	-10.5534
▁relato	-10.5534
▁brunswick	-10.5535
▁extenso	-10.5535
▁síntomas	-10.5535
▁patrones	-10.5535
▁fox	-10.5546
stre	-10.5548
▁púrpura	-10.5548
▁requisitos	-10.5549
terra	-10.5553
▁pra	-10.5554
ánico	-10.5557
▁infantil	-10.5557
ai	-10.556
▁boca	-10.5561
▁mantienen	-10.5566
▁títulos	-10.557
lización	-10.557
▁world	-10.5571
neo	-10.5574
▁sonidos	-10.5576
mir	-10.5586
sum	-10.5589
▁marcada	-10.559
fundamentalmente	-10.559
▁columna	-10.5591
▁violencia	-10.5591
▁extranjero	-10.5591
▁drama	-10.5593
▁málaga	-10.5603
▁sugiere	-10.5603
▁aprovecha	-10.5613
▁mundiales	-10.5615
▁exige	-10.5615
▁grasa	-10.5619
▁pasos	-10.5619
rito	-10.5621
▁we	-10.5623
rg	-10.5631
lito	-10.5633
poli	-10.5634
▁prima	-10.564
▁vertiente	-10.5647
▁supremo	-10.5648
▁canadiense	-10.5648
▁gusto	-10.565
▁nazi	-10.565
remos	-10.5653
nor	-10.5653
iforme	-10.5655
▁margen	-10.566
ali	-10.566
parti	-10.5665
▁identificado	-10.5668
▁mesa	-10.5685
▁wi	-10.5696
▁santos	-10.5701
▁á	-10.5702
▁soberanía	-10.5704
▁transbordador	-10.5704
▁angular	-10.5704
▁belleza	-10.5704
▁1983	-10.5705
▁llena	-10.5705
pol	-10.5705
▁esclavos	-10.5709
▁desarrollan	-10.5711
▁triángulo	-10.5712
▁eliminar	-10.5714
▁declarado	-10.5718
▁criterios	-10.5719
itz	-10.5721
▁historias	-10.5724
mio	-10.5725
liber	-10.5727
▁finalidad	-10.5731
▁neurona	-10.5736
gente	-10.574
▁cultivos	-10.5747
...)	-10.5748
▁químicas	-10.5752
▁semanas	-10.5753
▁cau	-10.5757
ik	-10.576
▁guatemala	-10.5761
▁interacciones	-10.5761
▁temprano	-10.5761
▁trasladó	-10.5761
▁sintetiza	-10.5761
▁asiático	-10.5761
▁privadas	-10.5761
ois	-10.5764
▁implementación	-10.5766
▁asociaciones	-10.5766
▁activo	-10.5766
▁magia	-10.5767
▁36	-10.5768
▁guarda	-10.5772
▁integrada	-10.5775
▁diálogo	-10.5776
_3	-10.5778
▁negros	-10.5779
▁far	-10.5781
▁lanza	-10.5785
lada	-10.5788
▁aparecer	-10.5789
▁rocas	-10.579
▁proteína	-10.5791
▁vegetales	-10.5794
ceae	-10.5796
idae	-10.5797
▁captura	-10.5804
pha	-10.5813
▁plena	-10.5814
▁resultó	-10.5818
▁peruana	-10.5818
▁sudamérica	-10.5818
▁corporal	-10.5818
▁poca	-10.5819
▁1979	-10.5819
▁especula	-10.5819
ach	-10.582
’,	-10.5821
▁abundante	-10.5825
▁emisión	-10.5826
▁culmina	-10.5827
▁específicamente	-10.5829
▁corri	-10.583
▁definitivamente	-10.5832
▁psoe	-10.5833
▁precisamente	-10.5834
▁uniforme	-10.5836
▁espaciales	-10.5838
▁rara	-10.5841
▁realizadas	-10.5842
mana	-10.5846
▁placa	-10.585
▁clasificar	-10.5854
▁caja	-10.5858
gl	-10.5861
▁enteros	-10.5865
▁demostró	-10.5875
▁nitrógeno	-10.5875
▁volúmenes	-10.5875
▁jurídica	-10.5875
▁materna	-10.5875
▁oferta	-10.5876
▁delimita	-10.5877
▁1978	-10.5877
▁recuperación	-10.588
▁plataforma	-10.5882
▁viva	-10.5886
▁circular	-10.589
▁dependencia	-10.5892
▁iniciado	-10.5893
▁administrativa	-10.5897
▁sucesión	-10.5897
ray	-10.5899
▁virtual	-10.5899
▁vegetal	-10.59
▁cen	-10.5903
▁pr	-10.5904
dista	-10.5909
uca	-10.5912
▁observador	-10.5915
▁distancias	-10.5915
▁proteger	-10.5919
▁ordenadores	-10.592
▁correcta	-10.592
▁electro	-10.5922
▁goza	-10.5923
▁evita	-10.5929
▁complejas	-10.593
▁placas	-10.593
▁anatomía	-10.5933
▁atrás	-10.5933
▁apunta	-10.5933
▁procesamiento	-10.5934
▁louis	-10.5935
▁eleva	-10.594
▁músicos	-10.5944
vel	-10.5945
▁celebración	-10.5947
▁vecinos	-10.5948
pó	-10.595
cept	-10.5952
▁polar	-10.5952
real	-10.5954
▁eucariotas	-10.5957
lismo	-10.5957
▁paquetes	-10.5957
▁(5	-10.596
nada	-10.5969
▁algoritmos	-10.5973
▁compone	-10.5976
▁logra	-10.5978
▁aparente	-10.5979
▁realizaron	-10.5988
▁cerámica	-10.5991
▁actitud	-10.5991
▁monarca	-10.5992
▁compresión	-10.5992
▁arroz	-10.5992
▁1989	-10.5992
▁joseph	-10.5993
▁modificaciones	-10.5995
▁andes	-10.5995
▁troya	-10.5996
▁glumas	-10.5996
▁pago	-10.6
▁paralelo	-10.6
▁renta	-10.6001
▁tallos	-10.6001
▁2008,	-10.6004
▁thomas	-10.6004
▁parcialmente	-10.6005
▁cast	-10.6012
▁posibilidades	-10.6023
▁raramente	-10.6029
gle	-10.6029
vert	-10.6031
▁valenciano	-10.6032
▁3.	-10.6034
▁entera	-10.6036
iga	-10.6038
▁momentos	-10.6039
▁cristal	-10.604
zu	-10.6042
▁copias	-10.6044
sky	-10.6044
▁operativos	-10.6047
▁cincuenta	-10.605
▁cádiz	-10.605
▁vaticano	-10.605
▁berlín	-10.605
▁gestiona	-10.605
▁fachada	-10.605
▁variación	-10.605
▁tendrá	-10.605
▁ibm	-10.605
▁telescopio	-10.605
▁1977	-10.6051
▁cuarks	-10.6054
▁tesis	-10.6054
▁fal	-10.6054
▁morales	-10.606
▁frío	-10.6062
▁parques	-10.6063
▁facilita	-10.6064
▁básicamente	-10.6067
▁ama	-10.607
▁arma	-10.607
curri	-10.6073
▁filo	-10.6084
▁ojo	-10.6085
▁tira	-10.6092
▁nave	-10.6094
▁asteroides	-10.6101
▁afirmó	-10.6108
▁dinamarca	-10.6108
▁intervalo	-10.6109
▁cerrado	-10.6109
▁seguida	-10.611
▁zeus	-10.6111
▁duero	-10.6113
vier	-10.6117
▁contrato	-10.612
▁pregunta	-10.612
▁sujeto	-10.612
ias	-10.612
▁paciente	-10.6122
▁presta	-10.6124
yer	-10.6127
▁roja	-10.6127
▁elaborado	-10.6133
▁técnico	-10.614
▁tercero	-10.6141
▁dedicado	-10.6149
▁armadas	-10.615
▁150	-10.6155
▁detalles	-10.6157
▁pc	-10.6163
▁indican	-10.6163
▁gráficos	-10.6166
▁platos	-10.6167
▁húmedo	-10.6168
▁juventud	-10.6168
▁rodríguez	-10.6168
▁vegetación	-10.6168
▁regreso	-10.6168
▁pareja	-10.6169
▁quechua	-10.6169
▁marcas	-10.6171
▁cobre	-10.6173
▁pista	-10.6174
▁hol	-10.6175
▁sesión	-10.6178
▁fan	-10.6181
▁nacionalidad	-10.6184
gada	-10.6187
▁nativos	-10.6192
▁pesca	-10.6196
trans	-10.62
▁empleado	-10.6201
ejo	-10.6203
▁personalidad	-10.6204
representaciones	-10.6204
▁existían	-10.6218
▁toro	-10.6218
▁colabora	-10.6219
▁creen	-10.6222
▁abundantes	-10.6222
▁hierbas	-10.6225
▁cuestiones	-10.6227
▁salamanca	-10.6227
▁segovia	-10.6227
▁pretende	-10.6227
▁secreto	-10.6228
▁precipitaciones	-10.6229
ómetro	-10.6229
ísmo	-10.6231
▁votos	-10.6232
▁revolucionario	-10.6233
rle	-10.6234
▁configuración	-10.6235
▁medición	-10.6235
▁agrega	-10.6241
▁característico	-10.6241
▁carretera	-10.6242
▁distinta	-10.6243
▁65	-10.6245
▁gráfica	-10.6246
▁//	-10.6248
tín	-10.6252
▁reservas	-10.6252
▁yacimientos	-10.6254
▁museos	-10.6254
▁indi	-10.6254
fri	-10.6262
▁lanzado	-10.6274
▁trama	-10.628
one	-10.6281
▁extremos	-10.6282
▁cop	-10.6285
▁promulg	-10.6285
▁infancia	-10.6287
▁ideología	-10.6287
▁desierto	-10.6287
▁sólo	-10.6287
▁civilizaciones	-10.6288
▁desemboca	-10.629
▁nervios	-10.6291
▁33	-10.6293
mm	-10.6293
gor	-10.6294
cena	-10.6296
▁bibliotecas	-10.6301
▁molécula	-10.6304
ándolo	-10.6306
▁tendencias	-10.6312
▁deuda	-10.6313
▁apg	-10.6317
▁"(	-10.6319
fl	-10.6321
1)	-10.6325
▁800	-10.6333
gado	-10.6335
▁intelectuales	-10.6335
▁árabes	-10.6336
▁bebidas	-10.6337
▁vela	-10.6343
▁estancia	-10.6344
bb	-10.6344
▁institucional	-10.6347
▁neptuno	-10.6347
▁oficina	-10.6347
▁vídeo	-10.6347
▁sensible	-10.6347
▁sencilla	-10.6347
▁convento	-10.6348
▁masivo	-10.6348
▁relatos	-10.6349
▁temática	-10.635
▁viena	-10.6351
▁%.	-10.6353
▁determinadas	-10.6355
▁aires	-10.6359
▁lejos	-10.6362
▁casco	-10.6363
▁tomado	-10.6363
▁ésta	-10.6365
▁nubes	-10.6369
▁fil	-10.637
▁depresión	-10.6372
▁varían	-10.6372
▁ángel	-10.6374
▁vivo	-10.6378
▁procesador	-10.6381
▁cubano	-10.6383
▁continuar	-10.6383
tula	-10.6385
▁destrucción	-10.6389
▁establecieron	-10.6408
▁filogenia	-10.6408
▁invasión	-10.6408
▁intensa	-10.6408
▁agencia	-10.6409
▁consulta	-10.641
cán	-10.6417
▁sueño	-10.6417
▁previamente	-10.6418
dul	-10.6419
▁ofrecen	-10.6427
▁leyenda	-10.6427
▁lluvia	-10.6427
▁algoritmo	-10.6427
▁tallo	-10.6429
▁detectar	-10.6432
sobre	-10.6436
ign	-10.6439
▁sta	-10.6439
posición	-10.644
▁desea	-10.6445
▁ejerce	-10.6446
▁americana	-10.6447
tadas	-10.6448
▁vientos	-10.6449
▁compositores	-10.6452
▁trataba	-10.6453
▁sh	-10.6455
▁receptor	-10.6458
▁horizontal	-10.6469
▁encontramos	-10.6469
▁adoptó	-10.6469
▁vigente	-10.6471
▁fermentación	-10.6473
▁orientación	-10.6474
▁monumentos	-10.6476
▁puestos	-10.6478
▁templado	-10.6483
▁enviado	-10.6484
▁narra	-10.6487
lie	-10.6489
▁cuadro	-10.6489
▁candidato	-10.6489
▁hablan	-10.649
▁origina	-10.6493
tología	-10.6496
ey	-10.6499
▁orbital	-10.6501
▁encontrarse	-10.6504
▁ferr	-10.651
rib	-10.6518
▁aparato	-10.652
▁alumnos	-10.6521
ográfica	-10.6524
1.	-10.6528
▁inmigración	-10.653
▁joaquín	-10.653
▁kafka	-10.653
▁participó	-10.653
▁acumula	-10.653
▁quince	-10.6531
▁ataques	-10.6532
▁mensajes	-10.6532
▁cinta	-10.6534
▁sueco	-10.6534
rada	-10.6535
▁expresar	-10.6536
▁cr	-10.6536
▁bat	-10.6537
200	-10.6539
tados	-10.6542
age	-10.6544
▁notación	-10.6545
cc	-10.6545
▁flota	-10.6546
▁afrodita	-10.655
▁rusa	-10.6555
mí	-10.6559
-17	-10.656
▁ke	-10.656
▁ganador	-10.6561
part	-10.6562
fran	-10.6563
by	-10.6567
lico	-10.6567
▁fama	-10.6572
▁intentos	-10.6573
▁vii	-10.6578
▁ee	-10.6582
▁críticos	-10.6583
▁karl	-10.6588
▁evolutivo	-10.6592
▁heráclito	-10.6592
▁siguieron	-10.6592
▁atletismo	-10.6592
▁cuántico	-10.6592
▁oscuro	-10.6592
▁encuesta	-10.6596
▁vendi	-10.6597
lítico	-10.6598
▁dependen	-10.66
sil	-10.66
▁agujeros	-10.6604
▁urbanas	-10.6605
▁polo	-10.6607
▁arista	-10.6609
▁escenario	-10.6617
▁eficiente	-10.6618
▁débil	-10.662
▁feria	-10.6623
sch	-10.663
▁pir	-10.6631
movi	-10.6632
▁ondas	-10.6638
▁presentación	-10.6638
▁pastor	-10.6641
▁exacta	-10.6641
▁basic	-10.6642
3%	-10.6648
▁demostrado	-10.6654
▁próxima	-10.6654
▁sapiens	-10.6654
▁capitán	-10.6654
▁noreste	-10.6654
▁navegación	-10.6659
onia	-10.6663
;/	-10.6666
▁tre	-10.6667
▁mexicanos	-10.6669
▁pone	-10.6671
izaciones	-10.6675
▁destacado	-10.6677
liza	-10.6677
▁proyecta	-10.668
▁llaman	-10.6684
▁nasa	-10.6688
▁diosa	-10.6688
▁descubrimientos	-10.6689
▁montes	-10.6696
▁armada	-10.6698
▁prosa	-10.6698
▁asociada	-10.6699
▁consideradas	-10.6701
▁conversión	-10.6702
▁conciertos	-10.6702
años	-10.6708
dec	-10.6708
unidad	-10.671
▁potencias	-10.6714
▁realizados	-10.6716
▁financiero	-10.6717
▁jehová	-10.6717
▁jerusalén	-10.6717
▁guardia	-10.6717
▁arqueología	-10.6717
▁gótico	-10.6717
▁sentencia	-10.6717
▁extendió	-10.6717
▁vieja	-10.6718
▁1929	-10.6718
▁interpretar	-10.6718
▁triple	-10.6719
')	-10.6722
▁600	-10.6725
▁caminos	-10.6725
▁medi	-10.6726
▁perdie	-10.6729
ville	-10.6731
▁procedimientos	-10.6732
▁interesante	-10.6737
▁salto	-10.6739
quina	-10.674
▁monasterio	-10.6743
▁presentado	-10.6745
▁navegador	-10.6747
electromagnética	-10.6747
agua	-10.6749
▁municipales	-10.6751
▁positivo	-10.6764
med	-10.6767
▁comunica	-10.6767
▁proclama	-10.6771
▁consolida	-10.6773
cado	-10.6777
tol	-10.6777
▁democrático	-10.6779
▁mesoamérica	-10.6779
▁cartagena	-10.6779
▁contempla	-10.678
▁impresión	-10.678
▁1933	-10.6781
sp	-10.6781
▁estelar	-10.6784
▁#	-10.6784
▁hab	-10.6785
win	-10.6787
▁humor	-10.6789
▁controlado	-10.679
▁ejemplares	-10.6791
▁expertos	-10.6794
▁específica	-10.6795
▁adicional	-10.6797
ay	-10.6799
ille	-10.6804
▁aceptado	-10.6806
▁notas	-10.6808
▁esfuerzo	-10.6808
▁dificultades	-10.6813
▁(4	-10.6818
▁crearon	-10.6823
▁guion	-10.6825
▁explota	-10.683
▁dificultad	-10.6837
▁cuestiona	-10.6843
▁climático	-10.6843
▁nota	-10.6843
▁tenerife	-10.6843
▁controla	-10.6843
▁ecología	-10.6843
▁pasajeros	-10.6843
▁aquiles	-10.6844
▁desplazamiento	-10.6845
▁hipo	-10.6847
▁previo	-10.6847
▁fechas	-10.6859
▁distingue	-10.6863
▁fina	-10.6866
▁solía	-10.6867
▁comparten	-10.6871
▁revistas	-10.6872
▁sagan	-10.6872
▁médica	-10.6873
ique	-10.6873
struct	-10.6877
interpretaciones	-10.6883
▁realización	-10.6885
▁chino	-10.6887
▁mega	-10.6887
-16	-10.6896
yendo	-10.6899
▁superar	-10.6905
▁albedrío	-10.6906
▁aprobación	-10.6906
▁construida	-10.6906
▁ponferrada	-10.6906
▁práctico	-10.6906
▁tragedia	-10.6906
▁astorga	-10.6906
▁preciso	-10.6906
▁ocurrió	-10.6906
▁espín	-10.6907
▁albania	-10.6907
▁atenas	-10.6907
▁1931	-10.6908
▁1976	-10.6908
rin	-10.691
▁inspiración	-10.6911
ling	-10.6912
▁muertos	-10.6913
▁portuguesa	-10.6914
▁identificación	-10.6918
▁portugués	-10.6925
▁cometas	-10.693
▁blas	-10.6932
▁evangelios	-10.6934
▁modificar	-10.6936
ob	-10.6948
▁esencia	-10.6948
▁aceptar	-10.6949
▁coordina	-10.6962
bl	-10.6963
▁rodea	-10.6964
▁inspirado	-10.6965
cd	-10.6967
eto	-10.6967
ther	-10.697
▁ocupar	-10.697
▁convirtiéndose	-10.6971
▁nicolás	-10.6971
▁israel	-10.6971
▁guitarra	-10.6971
▁obesidad	-10.6971
▁iones	-10.6971
▁alonso	-10.6971
▁topología	-10.6971
▁cooperación	-10.6971
▁conforme	-10.6971
cana	-10.6975
▁peces	-10.6977
▁exportación	-10.6977
▁añade	-10.6978
▁tv	-10.6981
ting	-10.6982
▁minas	-10.6987
▁mora	-10.6994
▁calcular	-10.6996
▁html	-10.7
▁escaso	-10.7003
▁científicas	-10.7003
▁binario	-10.7004
▁gana	-10.7005
▁fronteras	-10.7009
▁significativo	-10.7011
▁mol	-10.7012
▁acusa	-10.7014
ek	-10.7016
rita	-10.7018
iente	-10.702
▁tiro	-10.7024
▁dividir	-10.7026
▁limitada	-10.7028
▁industrias	-10.7032
▁dirige	-10.7032
▁new	-10.7032
año	-10.7035
▁fábrica	-10.7035
▁gómez	-10.7035
▁irregular	-10.7035
▁utilidad	-10.7035
aj	-10.7035
▁cabecera	-10.7036
▁tratados	-10.7037
doras	-10.7037
▁modos	-10.7038
▁presupuesto	-10.704
▁designar	-10.7047
▁codifica	-10.7054
tividad	-10.7056
af	-10.7057
▁codificación	-10.7057
▁ontología	-10.7061
▁publicar	-10.7063
▁gramática	-10.7064
▁negativo	-10.707
fono	-10.707
▁deportivo	-10.7071
▁ventaja	-10.7073
▁reconocer	-10.7075
▁carreras	-10.7079
▁verdes	-10.7079
9%	-10.7086
▁fósil	-10.7088
tim	-10.7092
▁eléctricos	-10.7099
▁ancestro	-10.71
▁conmemora	-10.71
▁facilidad	-10.71
▁invención	-10.71
▁direcciones	-10.71
▁tumba	-10.71
▁1932	-10.7102
ástica	-10.7105
▁saint	-10.7107
dh	-10.7107
▁simón	-10.7108
▁propiamente	-10.7109
ote	-10.7119
estado	-10.712
▁caballero	-10.7121
▁encontraban	-10.7121
▁noción	-10.7125
▁separado	-10.7127
▁funcionar	-10.7129
sistema	-10.713
▁documental	-10.713
▁indicar	-10.7131
▁verse	-10.7132
▁competencias	-10.7133
pera	-10.7135
▁38	-10.7138
▁caballo	-10.7139
ítica	-10.7141
8%	-10.7142
món	-10.7142
▁manda	-10.7143
ped	-10.7144
nie	-10.7147
aca	-10.7149
▁nace	-10.7152
▁generan	-10.7158
▁evangelio	-10.7161
▁registra	-10.7164
▁concluye	-10.7165
▁extinción	-10.7165
▁filosófico	-10.7165
▁horizonte	-10.7165
▁mostró	-10.7165
▁pétalos	-10.7165
▁saturno	-10.7165
▁180	-10.7166
▁roca	-10.7166
▁tomás	-10.7167
▁desarrollados	-10.7173
▁2012,	-10.7177
▁marinos	-10.7177
▁diaria	-10.7183
▁seguro	-10.7204
▁subfamilia	-10.7204
▁distinto	-10.7205
cí	-10.7208
▁estudi	-10.7211
▁servir	-10.7212
▁hecha	-10.7214
▁secuencias	-10.7215
▁pacientes	-10.7218
dem	-10.7218
nado	-10.7219
—.	-10.7221
▁cama	-10.7222
qué	-10.7223
▁ojos	-10.7225
▁revis	-10.7229
▁autónomas	-10.723
▁etiqueta	-10.7231
▁amistad	-10.7231
▁exceso	-10.7231
▁conexiones	-10.7231
▁ciento	-10.7235
▁rob	-10.7236
and	-10.7236
ológicos	-10.7242
▁domina	-10.7243
▁hablado	-10.7245
front	-10.7249
▁entrevista	-10.725
▁impuestos	-10.725
▁reunión	-10.7253
visión	-10.7259
tras	-10.7262
▁velocidades	-10.7263
▁dolor	-10.7266
tch	-10.7269
▁ministros	-10.7272
▁olímpico	-10.7272
star	-10.7277
▁prestigio	-10.7278
▁liberales	-10.7278
▁monedas	-10.7281
▁spa	-10.7287
▁costo	-10.7292
▁fueran	-10.7295
▁ocupó	-10.7297
sistió	-10.7297
▁consideró	-10.7297
▁venecia	-10.7298
▁usados	-10.7298
▁pierde	-10.7298
▁martínez	-10.7298
▁envió	-10.7302
▁actuación	-10.7303
rit	-10.7306
▁uruguay	-10.7306
▁códigos	-10.7307
cón	-10.7307
▁preparación	-10.7309
▁cristiano	-10.7313
▁peter	-10.7321
▁recorrido	-10.7323
▁puro	-10.7324
▁hacerlo	-10.7328
tuvieron	-10.7332
nombre	-10.7332
▁ecosistemas	-10.7335
▁tecnológico	-10.7339
▁secundario	-10.7339
▁costumbre	-10.734
▁rojas	-10.7352
▁hoja	-10.7353
▁existente	-10.7355
▁propone	-10.7358
▁decide	-10.7362
▁distritos	-10.7362
▁imita	-10.7363
▁dispersión	-10.7364
▁meridional	-10.7364
▁trabajó	-10.7364
▁amarillo	-10.7364
▁acorde	-10.7365
▁1968	-10.7366
▁colonización	-10.737
▁configura	-10.7373
▁debió	-10.7373
▁ajusta	-10.7374
▁conduce	-10.7377
rosa	-10.7381
▁esencialmente	-10.7382
▁falla	-10.7386
vul	-10.7386
▁actúa	-10.7387
▁constantes	-10.739
▁mach	-10.7394
eva	-10.7404
▁dividen	-10.7405
grado	-10.7406
▁mínima	-10.7408
aña	-10.7408
▁intérprete	-10.7408
▁variante	-10.7409
▁primario	-10.741
▁maya	-10.741
▁transmitir	-10.7415
mac	-10.7415
pac	-10.7418
▁largos	-10.7419
▁serán	-10.7426
tando	-10.7426
rock	-10.7426
▁elabora	-10.7427
▁proporcionan	-10.7429
▁chiapas	-10.7431
▁marítima	-10.7431
▁relevancia	-10.7431
▁referente	-10.7431
▁plural	-10.7431
▁dedicó	-10.7432
▁turística	-10.7432
▁1925	-10.7434
▁oculta	-10.7434
▁75	-10.7434
puesta	-10.7434
▁sustenta	-10.7436
▁fría	-10.7437
▁jugar	-10.7437
▁cientos	-10.7438
▁opción	-10.7439
▁cometa	-10.7445
▁coro	-10.7446
▁tramo	-10.7449
7%	-10.7451
ret	-10.7452
',	-10.7452
▁plana	-10.7452
▁ocio	-10.7452
6%	-10.7456
cate	-10.7456
pet	-10.746
▁johann	-10.7465
▁propuestas	-10.7465
▁adoptado	-10.7474
▁rechaza	-10.7482
cis	-10.7484
▁pieza	-10.7487
nom	-10.7487
cultura	-10.7488
▁incluida	-10.7493
▁construcciones	-10.7499
▁ibérico	-10.7499
▁legislativa	-10.7499
▁python	-10.7499
▁analítica	-10.7499
▁penetra	-10.7499
▁manejo	-10.75
▁1938	-10.75
▁quinta	-10.7503
▁mc	-10.7504
▁libra	-10.7504
iaceae	-10.7505
▁modificación	-10.7507
▁caracterizan	-10.7512
▁(14	-10.7526
▁ronda	-10.7526
▁encontraron	-10.7528
2%	-10.7537
▁actor	-10.7537
▁mata	-10.7537
▁paredes	-10.754
▁actuar	-10.7541
▁pescado	-10.7542
quin	-10.7543
▁registrado	-10.7544
▁obtenido	-10.7546
▁profundo	-10.7546
▁externo	-10.7547
▁experimento	-10.7547
cola	-10.755
▁ine	-10.7552
▁mejoras	-10.7553
▁1980,	-10.7554
▁onu	-10.7555
▁enseña	-10.7556
4%	-10.7559
▁intentar	-10.756
▁aliados	-10.7566
▁disminución	-10.7567
▁homenaje	-10.7567
▁musulmana	-10.7567
▁correcto	-10.7567
ianos	-10.7567
▁1988	-10.7569
▁futura	-10.7569
▁postura	-10.757
▁narrativa	-10.7572
▁salir	-10.7579
▁acelera	-10.758
▁alcanzado	-10.7581
▁ceremonia	-10.7582
▁falsa	-10.7584
▁parámetros	-10.759
▁confirma	-10.7593
▁compr	-10.7597
▁convencional	-10.7602
▁virtud	-10.7602
▁decimal	-10.7602
▁alterna	-10.7602
▁gla	-10.7604
▁presidencial	-10.7605
▁califica	-10.7614
▁destacando	-10.7615
▁vuelo	-10.7616
▁argumento	-10.7617
▁criterio	-10.7617
vino	-10.7619
▁doctor	-10.7622
▁ocasiona	-10.7623
icidad	-10.7625
▁che	-10.7627
▁sc	-10.7629
▁azerbaiyán	-10.7635
▁flósculo	-10.7635
▁dirigió	-10.7635
▁divisiones	-10.7635
▁regresó	-10.7635
▁silicio	-10.7635
▁consciente	-10.7636
▁michel	-10.7637
▁1987	-10.7637
▁1984	-10.7637
▁hotel	-10.7639
▁protón	-10.7641
▁métrica	-10.7642
500	-10.7647
▁meridiano	-10.7647
▁inferiores	-10.765
▁exponente	-10.7659
▁1500	-10.7661
▁tasas	-10.7661
▁organizar	-10.7662
▁celulares	-10.7667
"»	-10.7667
▁hogar	-10.7675
▁graves	-10.7676
▁nobles	-10.7679
▁talla	-10.768
▁bel	-10.7681
▁august	-10.7685
▁quizá	-10.7687
▁judío	-10.7688
uci	-10.7688
▁procedimiento	-10.7688
▁extrema	-10.7688
má	-10.7689
▁circunstancias	-10.7698
▁ensayo	-10.7702
▁facilitar	-10.7704
▁cari	-10.7704
▁celebró	-10.7704
▁numérico	-10.7704
▁restricciones	-10.7704
▁embrión	-10.7704
▁henry	-10.7704
▁abundancia	-10.7705
▁generado	-10.7706
▁lento	-10.771
▁3000	-10.7711
▁originaria	-10.7713
▁necesarios	-10.7714
▁cuento	-10.7721
▁fisiología	-10.7724
▁trigo	-10.7725
▁singular	-10.7726
▁cuidado	-10.7727
▁campeón	-10.7727
▁sancho	-10.7728
▁permitía	-10.773
pia	-10.773
bur	-10.7735
▁electrónicos	-10.7738
▁alberto	-10.7739
▁sam	-10.7742
▁agrupa	-10.7747
▁4.	-10.775
▁bloques	-10.7755
fos	-10.7757
▁producida	-10.7757
▁típico	-10.7758
pora	-10.7758
▁participar	-10.7761
▁orientales	-10.7763
▁contemporáneos	-10.7764
gina	-10.7765
▁modificado	-10.7766
▁aminoácidos	-10.7767
▁abstracto	-10.7774
▁acabó	-10.7774
▁atmosférica	-10.7774
▁japonés	-10.7774
▁manifiesta	-10.7774
▁triunfo	-10.7774
▁simplific	-10.7774
▁celeste	-10.7774
▁curva	-10.7774
▁nutrientes	-10.7774
▁sociología	-10.7774
▁demografía	-10.7775
▁percepción	-10.7775
▁introducir	-10.7775
▁datan	-10.7777
▁estaría	-10.7779
▁parecer	-10.7779
lusión	-10.7779
▁galería	-10.7781
▁definen	-10.7781
▁conforma	-10.7781
▁decía	-10.7781
▁barco	-10.7782
▁degrada	-10.7782
▁playas	-10.7783
▁hallan	-10.7786
▁argumentos	-10.7792
▁augusto	-10.7793
▁editor	-10.7798
igno	-10.7806
▁pseudo	-10.7806
▁reloj	-10.7811
natural	-10.7816
genera	-10.7819
ane	-10.7819
rich	-10.7823
▁gris	-10.7824
▁sugieren	-10.7828
cido	-10.7834
pusieron	-10.7835
▁afectado	-10.7835
▁líderes	-10.7836
▁libera	-10.7837
▁intel	-10.7837
▁critica	-10.7843
▁migración	-10.7844
▁insectos	-10.7844
▁láser	-10.7844
▁alquimia	-10.7844
▁promoción	-10.7844
▁definió	-10.7844
▁espiral	-10.7844
▁blues	-10.7844
▁brinda	-10.7845
▁dióxido	-10.7845
ecta	-10.7849
▁instalación	-10.7849
▁educativa	-10.785
▁impulsa	-10.7855
▁interpretado	-10.7856
▁aceptación	-10.7857
▁puesta	-10.7857
▁aproximación	-10.7857
aga	-10.7857
▁resultante	-10.7863
▁periódicos	-10.7863
▁pas	-10.7874
▁caracterizado	-10.7879
▁ataca	-10.7879
ring	-10.7886
▁ford	-10.7887
▁registrada	-10.7889
▁provienen	-10.789
pone	-10.7896
▁hilo	-10.7898
▁tomando	-10.7898
anas	-10.7899
pensa	-10.7899
▁logrado	-10.79
nga	-10.7901
dict	-10.7901
▁traza	-10.7902
▁naves	-10.7902
▁cle	-10.7903
igu	-10.791
▁rin	-10.7913
▁equi	-10.7913
▁foco	-10.7913
▁privado	-10.7913
▁aprobó	-10.7914
▁incluyó	-10.7914
▁semejante	-10.7914
▁gabriel	-10.7914
▁basándose	-10.7914
▁computacional	-10.7914
▁vargas	-10.7915
tte	-10.7915
▁1948	-10.7916
▁pata	-10.7917
▁capitales	-10.7922
▁negocios	-10.7924
▁períodos	-10.7925
▁entiende	-10.7926
▁alcohol	-10.7926
▁quizás	-10.7931
▁cru	-10.7936
ese	-10.7938
cat	-10.7938
ual	-10.794
▁pronuncia	-10.7941
▁marcos	-10.7942
▁famosos	-10.7943
▁chip	-10.7943
divi	-10.795
▁describen	-10.7958
idi	-10.7958
uv	-10.7961
zas	-10.7964
▁delante	-10.7971
▁|	-10.7971
▁extranjera	-10.7973
▁geográfico	-10.7974
▁min	-10.7976
▁pce	-10.7978
▁quedando	-10.7982
▁daba	-10.7984
▁adjetivo	-10.7985
▁hidrocarburos	-10.7985
▁columnas	-10.7985
▁cuál	-10.7986
▁matriz	-10.7986
▁necesarias	-10.7986
▁pobreza	-10.7987
cep	-10.7988
▁vigor	-10.7989
▁cortos	-10.7989
rat	-10.7996
▁bello	-10.8002
▁cali	-10.8004
▁escolar	-10.8006
vé	-10.801
ien	-10.8013
▁terminar	-10.8015
char	-10.8016
▁concha	-10.8018
▁har	-10.8019
▁dialectos	-10.8022
ines	-10.8028
▁sabor	-10.8029
dino	-10.8034
ear	-10.8036
ari	-10.8038
▁alberta	-10.8039
▁determinados	-10.8042
byte	-10.8046
▁brillante	-10.8046
▁femenina	-10.8046
▁teórico	-10.8047
▁giro	-10.8047
war	-10.8048
▁playa	-10.8051
3)	-10.8053
ógrafo	-10.8054
plicó	-10.8055
▁responsables	-10.8055
▁agustín	-10.8056
▁apariencia	-10.8056
▁compromiso	-10.8056
▁extendida	-10.8056
▁consenso	-10.8056
▁atenea	-10.8056
▁geométrica	-10.8057
▁elipse	-10.8057
▁1973	-10.8058
▁misiones	-10.8058
▁norteamérica	-10.8059
▁cumbre	-10.8059
▁comenta	-10.8059
▁digitales	-10.8063
▁gráfico	-10.8064
▁inflorescencias	-10.8065
hal	-10.8066
hue	-10.807
▁aparentemente	-10.8072
elle	-10.8074
▁escenas	-10.8075
▁dedicada	-10.8077
▁mit	-10.8078
▁emplean	-10.8078
etas	-10.8082
▁integra	-10.8083
▁xx	-10.8083
▁ll	-10.8084
▁familiares	-10.8085
▁almacenar	-10.8087
misión	-10.8091
lib	-10.8094
▁teclado	-10.8097
donde	-10.8101
▁cercanos	-10.8103
jer	-10.8105
▁distingui	-10.8114
gel	-10.8115
▁ag	-10.8117
▁muerto	-10.812
▁listas	-10.812
▁hacerse	-10.8123
▁expand	-10.8127
▁ascenso	-10.8128
▁relativista	-10.8128
▁dispersa	-10.8128
▁ocasión	-10.8128
▁oficio	-10.8128
▁pierre	-10.8128
▁genoma	-10.8129
▁filología	-10.813
▁restauración	-10.813
▁sexto	-10.813
▁lorca	-10.813
▁empleados	-10.8131
▁recuerda	-10.8132
xe	-10.8134
▁pacto	-10.8148
▁muestras	-10.815
▁test	-10.8151
▁pasan	-10.8152
▁elementales	-10.8152
▁fragmentos	-10.8152
ei	-10.8154
▁esté	-10.8155
▁at	-10.8157
imos	-10.8159
cam	-10.8159
▁ref	-10.8161
kh	-10.8162
▁finaliza	-10.8164
jes	-10.8168
hen	-10.817
▁periodos	-10.8188
▁beta	-10.8189
elli	-10.819
▁multiplica	-10.8192
uela	-10.8193
▁africanos	-10.8194
▁genético	-10.8196
blade	-10.8197
▁atletas	-10.8201
▁japonesa	-10.8201
▁sánchez	-10.8201
▁constituida	-10.8201
▁botánico	-10.8201
▁procedente	-10.8202
▁nobleza	-10.8203
▁ceuta	-10.8203
vía	-10.8204
▁machado	-10.8205
4.	-10.8207
▁costos	-10.8208
▁albert	-10.821
▁elevada	-10.8212
▁típica	-10.8213
▁típicamente	-10.8213
tele	-10.8216
▁variar	-10.8217
▁bomba	-10.8217
▁clasifica	-10.822
▁trabajando	-10.8221
▁aldea	-10.8228
▁canon	-10.8228
▁gala	-10.823
▁orgánicos	-10.8236
▁(10	-10.8239
▁adicionales	-10.8239
▁hermafroditas	-10.8242
anth	-10.8243
▁describió	-10.8244
usa	-10.8245
▁radi	-10.8246
▁piso	-10.8246
▁lluvias	-10.8251
▁teo	-10.8262
▁disminuye	-10.8264
▁evidencias	-10.8267
▁previa	-10.8271
▁friedrich	-10.8274
▁simbólico	-10.8274
▁soberano	-10.8274
▁coronel	-10.8274
▁deposita	-10.8274
▁potente	-10.8274
▁telecomunicaci	-10.8274
▁dicta	-10.8275
▁chu	-10.828
▁once	-10.828
▁gradualmente	-10.8281
▁atributos	-10.8284
▁ventas	-10.8291
▁gigantes	-10.8292
▁bene	-10.8294
▁necesitan	-10.8297
▁avanzada	-10.8301
▁cumple	-10.8313
▁nuestros	-10.8314
activa	-10.8323
▁adultos	-10.8324
▁organizada	-10.8324
▁1900	-10.8325
▁prado	-10.8328
teros	-10.8331
▁griegas	-10.8335
▁cien	-10.8338
▁ze	-10.8341
▁constituyente	-10.8345
▁diamante	-10.8345
▁electo	-10.8347
▁abandonó	-10.8347
▁célebre	-10.8347
▁franquista	-10.8347
▁genérico	-10.8347
▁metabolismo	-10.8347
▁perdió	-10.8347
▁intermedio	-10.8348
▁maestra	-10.8349
▁trayectoria	-10.835
ificado	-10.8352
▁explora	-10.8358
▁relativo	-10.8359
▁sp	-10.8362
▁basan	-10.8364
vista	-10.8365
▁ruido	-10.8367
▁escritas	-10.8368
▁paseo	-10.8376
▁ordenado	-10.8382
▁formaron	-10.8383
▁sierras	-10.8387
▁ángeles	-10.8388
▁crónica	-10.8393
zona	-10.8395
▁(12	-10.8406
_4	-10.8411
▁caro	-10.8414
▁equivale	-10.8416
▁orientada	-10.8418
▁académica	-10.8421
▁innovación	-10.8421
▁retórica	-10.8421
▁jardín	-10.8421
▁parecía	-10.8421
▁conclusión	-10.8421
▁firme	-10.8421
▁angola	-10.8422
▁minería	-10.8422
▁composiciones	-10.8422
▁oceanía	-10.8423
▁1962	-10.8423
▁retorno	-10.8426
tlán	-10.8429
▁franja	-10.843
▁exploración	-10.843
▁legado	-10.8434
▁cole	-10.8434
▁interesa	-10.8441
ira	-10.8448
▁frank	-10.8451
▁llevada	-10.8464
▁creador	-10.8465
lengua	-10.8471
▁regulares	-10.8476
▁fuese	-10.8477
ísimo	-10.8481
▁especializados	-10.8482
media	-10.8483
▁maestros	-10.8483
tla	-10.8483
▁recon	-10.8485
▁clásicas	-10.8486
▁estimula	-10.8487
▁ocupado	-10.8488
canta	-10.8491
▁asegurar	-10.8491
rey	-10.8494
▁monumental	-10.8496
▁peninsular	-10.8496
▁lorenzo	-10.8496
▁suroeste	-10.8496
▁consigue	-10.8496
▁karate	-10.8496
▁descrita	-10.8496
▁alcaloides	-10.8497
▁ninguno	-10.8497
▁1972	-10.8498
▁fresco	-10.8499
▁almacena	-10.85
▁eléctricas	-10.8501
▁descarga	-10.8504
presión	-10.8506
trico	-10.8507
▁tocar	-10.8509
ence	-10.8509
▁bit	-10.8512
▁voto	-10.8521
▁protestantes	-10.8528
▁climas	-10.8533
▁rival	-10.8538
▁actores	-10.8539
▁raza	-10.854
▁circula	-10.8544
▁persa	-10.8548
vu	-10.8551
eja	-10.8553
ok	-10.8553
endi	-10.8561
gén	-10.8565
dujeron	-10.8566
▁desempeña	-10.8567
▁adquirió	-10.8571
▁descubrir	-10.8571
▁dimensión	-10.8571
▁intercambia	-10.8571
▁rebelión	-10.8571
▁climática	-10.8571
▁consistente	-10.8571
▁nieve	-10.8572
▁tecnológica	-10.8572
▁introducido	-10.8576
▁relata	-10.8577
▁estudiado	-10.8577
▁volcánica	-10.8578
▁engloba	-10.8578
▁aceleración	-10.8581
▁costera	-10.8583
▁generaciones	-10.8585
▁estrechamente	-10.8591
▁elegidos	-10.8593
▁manifiesto	-10.8597
▁aceptada	-10.8597
▁mente	-10.8597
▁paisajes	-10.8602
▁dom	-10.8604
▁mide	-10.8604
varia	-10.8605
▁urbanos	-10.8608
▁señalar	-10.8609
▁citado	-10.861
▁grabado	-10.861
nus	-10.861
▁ambiental	-10.8613
▁estructural	-10.8615
▁influenciado	-10.8617
▁laboral	-10.8621
▁origin	-10.8621
▁celta	-10.8621
▁demuestra	-10.8624
spira	-10.8625
eae	-10.8627
▁esenciales	-10.8629
▁é	-10.8629
gur	-10.8634
▁modifica	-10.8638
▁agentes	-10.8639
▁funcionalidad	-10.8643
ándole	-10.8645
▁arbustos	-10.8647
▁competición	-10.8647
▁imprenta	-10.8647
▁septentrional	-10.8647
▁catalana	-10.8647
▁reposo	-10.8647
▁elegir	-10.8647
▁taxones	-10.8648
▁aislada	-10.8649
▁video	-10.865
▁documentación	-10.8651
▁académico	-10.8651
▁torneo	-10.8651
▁lisp	-10.8652
]]"	-10.8653
▁correspondencia	-10.8653
▁administrativo	-10.8654
▁48	-10.8658
illos	-10.8661
▁cráneo	-10.8664
éndose	-10.8668
chy	-10.8672
cea	-10.8674
▁alan	-10.8675
▁reconocidos	-10.8681
iste	-10.8682
▁afect	-10.869
▁nó	-10.8691
old	-10.8692
▁enlaza	-10.8693
▁sustituye	-10.8693
▁actúan	-10.8697
▁enseñanzas	-10.8699
▁cerro	-10.8699
▁distinguen	-10.8699
▁noticias	-10.8702
flexi	-10.8704
cito	-10.871
▁sirven	-10.8711
▁frecuencias	-10.8715
▁pudier	-10.8715
ult	-10.8716
▁compara	-10.8721
▁funda	-10.8722
▁descritas	-10.8723
▁filogenético	-10.8723
▁mediterránea	-10.8723
▁énfasis	-10.8723
▁atractivo	-10.8723
▁conceptual	-10.8723
▁firmó	-10.8723
▁ocasionalmente	-10.8723
▁rechazo	-10.8723
▁dibuja	-10.8723
▁cernuda	-10.8723
▁podrá	-10.8724
▁sello	-10.8724
▁italianos	-10.8726
▁secciones	-10.8726
▁madura	-10.8729
▁gpl	-10.8732
pti	-10.8732
▁lógico	-10.8732
▁típicos	-10.8741
▁instrumental	-10.8741
▁rituales	-10.8744
▁héroe	-10.8745
▁puertas	-10.8747
▁duro	-10.8748
uch	-10.8748
▁notablemente	-10.8753
▁anualmente	-10.8757
▁cerebelo	-10.8757
▁ciclos	-10.8767
españa	-10.8767
▁gram	-10.8768
▁bellas	-10.8771
quino	-10.8777
tipo	-10.878
▁aspira	-10.8795
▁académicos	-10.8796
▁series	-10.8798
▁planes	-10.8799
▁alejandría	-10.88
▁arquitectónico	-10.88
▁desaparición	-10.88
▁gramíneas	-10.88
▁humedad	-10.88
▁propietario	-10.88
▁pálea	-10.88
▁álgebra	-10.88
▁colectivo	-10.88
▁iridio	-10.88
▁eólica	-10.88
▁tambor	-10.88
▁abrió	-10.8801
▁piensa	-10.8801
▁art	-10.8802
▁geología	-10.8802
▁simultáneamente	-10.8806
▁africano	-10.8808
▁denominadas	-10.8809
▁adopta	-10.8812
▁asesinato	-10.8813
mayoritariamente	-10.8813
rb	-10.8821
▁reflejo	-10.8821
▁realista	-10.883
5.	-10.8838
▁producidos	-10.8839
▁cruzada	-10.8843
▁generalidad	-10.8847
▁rom	-10.8856
▁segundos	-10.8857
museo	-10.8858
▁campesinos	-10.8862
ieran	-10.8865
wer	-10.8866
▁procesa	-10.8873
libro	-10.8877
▁mini	-10.8877
▁atraviesa	-10.8878
▁confederación	-10.8878
▁gratuita	-10.8878
▁surgimiento	-10.8878
▁confianza	-10.8878
▁botánica	-10.8878
▁divina	-10.8878
▁cerrada	-10.8879
▁produciendo	-10.8879
▁1945	-10.888
▁fotón	-10.888
▁contenía	-10.8882
texto	-10.8884
▁sexuales	-10.8884
llón	-10.8886
graph	-10.8889
ífero	-10.8892
▁británicos	-10.8894
▁debían	-10.8898
-15	-10.8899
▁compatible	-10.8899
▁condujo	-10.8901
▁crece	-10.8907
▁vocales	-10.891
raz	-10.8911
▁ventajas	-10.8914
-5	-10.8919
▁facultad	-10.8922
▁fondos	-10.8928
▁nar	-10.893
▁cumpl	-10.8932
▁jota	-10.8938
▁cosm	-10.8939
▁abre	-10.8939
▁técnicos	-10.894
tti	-10.894
▁piedras	-10.8949
▁equivalentes	-10.8951
▁adquiere	-10.8956
▁hacienda	-10.8956
▁tardío	-10.8956
▁contribución	-10.8956
▁asistencia	-10.8956
▁corrupción	-10.8956
▁ibn	-10.8957
▁exilio	-10.8957
▁1928	-10.8958
riz	-10.8958
▁defecto	-10.896
cante	-10.8964
▁integral	-10.8964
▁contemporáneo	-10.8967
▁fluido	-10.8967
▁edita	-10.8968
▁incorporación	-10.8969
▁departamentos	-10.897
▁zu	-10.8974
▁pobres	-10.8978
▁duque	-10.8981
▁dibujos	-10.8984
▁difíciles	-10.8984
bá	-10.8986
▁artísticas	-10.8989
▁planos	-10.8996
▁literarias	-10.8996
▁ph	-10.8999
▁magos	-10.8999
kar	-10.9
▁oportunidad	-10.9001
▁seca	-10.9001
▁internas	-10.9004
▁americanos	-10.901
▁salón	-10.9025
▁cálculos	-10.9026
▁pena	-10.9026
gráfico	-10.9027
▁impreso	-10.9028
▁(6	-10.9029
ae	-10.9033
▁cuarenta	-10.9035
▁eficiencia	-10.9035
▁jurídico	-10.9035
▁polémica	-10.9035
▁récord	-10.9035
▁vizcaya	-10.9035
▁astronómica	-10.9035
▁influido	-10.9035
▁surrealista	-10.9035
▁petición	-10.9035
▁fischer	-10.9035
▁pionero	-10.9035
▁mantenía	-10.9035
▁microscopio	-10.9035
▁instrucción	-10.9036
▁bienestar	-10.9037
▁estatua	-10.904
▁poseer	-10.9043
▁capacidades	-10.9044
▁vieron	-10.9047
▁bebida	-10.9048
▁vehículo	-10.9048
▁maneras	-10.9051
▁laterales	-10.9056
»).	-10.9057
▁trono	-10.9058
0,	-10.906
▁habilidades	-10.9067
▁juega	-10.907
▁ocupan	-10.9071
puesto	-10.9076
▁abandona	-10.9082
▁manto	-10.9083
▁agente	-10.9091
▁clasifican	-10.9093
▁ste	-10.9095
filo	-10.9102
▁gre	-10.9104
▁germánico	-10.9114
▁marítimo	-10.9114
▁microorganismos	-10.9114
▁renacentista	-10.9114
▁testimonio	-10.9114
▁caballería	-10.9114
▁hebreo	-10.9114
▁reconquista	-10.9114
▁pidió	-10.9114
▁latinoamérica	-10.9114
▁suprema	-10.9114
▁ecológico	-10.9115
▁condensa	-10.9116
▁únicos	-10.9117
▁perfil	-10.9118
né	-10.9123
▁revisión	-10.9124
▁levanta	-10.9129
▁detalle	-10.9131
ves	-10.9132
▁concretamente	-10.9132
▁medalla	-10.9133
▁sustituido	-10.9134
▁mani	-10.9136
▁usadas	-10.9137
▁pretendía	-10.9141
▁guía	-10.9142
filia	-10.916
of	-10.9161
▁introduce	-10.9167
▁contener	-10.9168
ciudad	-10.9175
▁clientes	-10.918
▁cámaras	-10.9183
pie	-10.9184
▁minera	-10.9185
▁utilizarse	-10.919
▁cubierto	-10.9194
▁federico	-10.9194
▁jerarquía	-10.9194
▁visigodo	-10.9194
▁adopción	-10.9194
▁michael	-10.9194
▁runner	-10.9194
▁incendio	-10.9194
▁continuidad	-10.9194
▁inversa	-10.9194
▁barrera	-10.9194
▁defender	-10.9194
▁invadi	-10.9194
▁...	-10.9195
▁1949	-10.9196
planta	-10.9197
▁participan	-10.9198
▁salió	-10.9198
▁reparti	-10.92
▁trabaja	-10.92
▁ue	-10.9202
▁represión	-10.9202
▁dejado	-10.9204
▁cualidades	-10.9206
▁ingeniero	-10.9211
usó	-10.9211
▁hetero	-10.9211
▁recurso	-10.9211
▁tratan	-10.9216
▁móviles	-10.9219
ógenos	-10.922
▁lente	-10.9221
▁pino	-10.9223
▁formalmente	-10.9226
▁ramifica	-10.9226
hy	-10.9226
pra	-10.923
▁incon	-10.9241
▁representante	-10.9244
▁naval	-10.9249
▁nombrar	-10.9252
▁gil	-10.9257
ryu	-10.9257
▁37	-10.9259
▁xi	-10.9262
▁buda	-10.9265
itud	-10.9265
▁une	-10.9267
▁aprender	-10.927
▁antecessor	-10.9275
▁legislación	-10.9275
▁universitaria	-10.9275
▁esqueleto	-10.9275
▁efectivo	-10.9275
▁fracaso	-10.9275
▁ligero	-10.9275
▁respeta	-10.9275
▁demográfico	-10.9276
▁magno	-10.9277
▁produjer	-10.928
▁psico	-10.928
▁sólidos	-10.9283
▁permaneció	-10.9284
▁hacían	-10.9285
▁habilidad	-10.9287
tana	-10.9288
▁poblado	-10.9289
▁relevante	-10.9293
▁alguno	-10.9294
▁miró	-10.9303
▁neutrinos	-10.9308
▁ambientales	-10.931
▁nucleares	-10.9314
sha	-10.9317
▁concierto	-10.9317
▁cortas	-10.9317
▁separadas	-10.932
▁mencionado	-10.9325
▁permanece	-10.9328
actual	-10.9328
▁mineral	-10.9334
▁turco	-10.9336
▁carpelos	-10.9339
▁intermedia	-10.9341
0.000	-10.9346
tú	-10.9346
ani	-10.9349
-4	-10.935
▁basílica	-10.9356
▁excepciones	-10.9356
▁fermiones	-10.9356
▁financiera	-10.9356
▁ganadería	-10.9356
▁vocablo	-10.9356
▁dramática	-10.9356
▁misterio	-10.9356
▁intenso	-10.9356
▁ignora	-10.9357
▁templadas	-10.9357
▁habiendo	-10.9357
▁1927	-10.9359
▁sagrado	-10.9359
▁depósitos	-10.9361
▁prehistoria	-10.9361
▁convoca	-10.9363
▁exporta	-10.9366
▁semilla	-10.9367
▁declarada	-10.937
▁fabrica	-10.9371
ball	-10.9374
▁astrónomo	-10.9377
▁citar	-10.9378
▁contribuye	-10.9384
▁shi	-10.9385
▁ejercer	-10.9387
▁34	-10.939
▁negativos	-10.9393
nega	-10.9394
ej	-10.9396
ken	-10.9397
▁receptores	-10.9401
nc	-10.9401
▁system	-10.9404
▁vocal	-10.9407
ati	-10.9408
▁met	-10.9408
▁solares	-10.9409
▁comarcas	-10.9409
▁templos	-10.9412
▁astrónomos	-10.9417
▁frutas	-10.9418
▁responde	-10.9418
▁iniciar	-10.9418
▁budistas	-10.9422
▁destinada	-10.9422
▁emigra	-10.9428
▁eco	-10.9428
▁simula	-10.9433
▁aéreo	-10.9438
▁expresionista	-10.9438
▁inteligente	-10.9438
▁obtención	-10.9438
▁vanguardia	-10.9438
▁promover	-10.9438
▁decadencia	-10.9438
▁moscatel	-10.9438
▁tronco	-10.9438
▁1958	-10.9439
▁chamán	-10.944
bot	-10.9441
▁duró	-10.9443
▁progresivamente	-10.9446
ney	-10.9446
▁desarrolladores	-10.9457
▁cobra	-10.9458
▁primitivo	-10.946
▁educativo	-10.9461
▁noticia	-10.9461
▁pp	-10.9466
▁víctimas	-10.9466
gus	-10.9468
▁renuncia	-10.9472
▁celebrado	-10.9482
▁procesadores	-10.9486
▁garantiza	-10.9493
▁señora	-10.9495
ene	-10.9495
culo	-10.9496
▁predomina	-10.9503
▁ambientes	-10.9506
▁recopila	-10.9512
▁afectada	-10.9516
▁filme	-10.9516
anismo	-10.9516
▁afganistán	-10.952
▁aumentó	-10.952
▁ebullición	-10.952
▁falleció	-10.952
▁jalisco	-10.952
▁oldfield	-10.952
▁gnome	-10.952
▁cosecha	-10.9521
fan	-10.9521
▁jacob	-10.9521
▁licencias	-10.9526
▁aplicado	-10.9526
▁chanel	-10.9527
▁regresa	-10.9528
▁ilustración	-10.9528
▁comunistas	-10.953
▁combinaciones	-10.953
▁afectan	-10.9536
▁limitaciones	-10.9536
dur	-10.9537
cora	-10.9537
▁coincide	-10.9538
▁correctamente	-10.9539
▁prolonga	-10.9541
▁encargada	-10.9541
▁mencionada	-10.9541
▁ton	-10.9542
▁filamentos	-10.9544
▁parroquia	-10.9545
▁cromosómico	-10.9545
▁condena	-10.9551
▁afirman	-10.9552
▁naturalista	-10.9556
▁smith	-10.9557
▁plazas	-10.9559
▁analizar	-10.9564
▁vali	-10.9566
▁bast	-10.9566
▁desarrollando	-10.957
▁empeza	-10.9572
contra	-10.9578
copa	-10.958
▁investiga	-10.9581
▁surgen	-10.9583
▁coco	-10.959
tle	-10.9597
▁cruce	-10.96
lot	-10.9601
▁disolución	-10.9604
▁ecuatorial	-10.9604
▁ruptura	-10.9604
▁manitoba	-10.9604
▁argentino	-10.9604
▁siquiera	-10.9604
▁contribuciones	-10.9604
▁daniel	-10.9604
▁cayó	-10.9604
▁aceptó	-10.9604
▁festivales	-10.9604
▁sesenta	-10.9605
▁1924	-10.9606
▁1935	-10.9606
ibilidad	-10.9606
amba	-10.9607
▁1919	-10.9607
▁reúne	-10.9608
▁nominal	-10.9608
▁clasificaciones	-10.9609
▁regal	-10.9609
▁sustantivo	-10.9612
▁contenidos	-10.9612
ophyta	-10.9612
▁teóricos	-10.9615
▁trece	-10.9615
▁acumulación	-10.9616
▁celebrada	-10.9616
▁expone	-10.9617
▁mateo	-10.9622
▁terrenos	-10.9623
▁cuentos	-10.9625
iv	-10.9627
▁roll	-10.9628
▁hectáreas	-10.963
▁incluidas	-10.963
▁literarios	-10.964
▁transporta	-10.964
▁cavidad	-10.9654
▁emplear	-10.9657
▁globo	-10.9658
▁sublevados	-10.9662
ska	-10.9664
murcia	-10.9673
número	-10.9673
▁portada	-10.9685
eur	-10.9686
▁concluyó	-10.9688
▁desaparecido	-10.9688
▁energético	-10.9688
▁vulgar	-10.9688
▁observó	-10.9688
▁javascript	-10.9688
▁martin	-10.9688
▁reclama	-10.9688
▁aviones	-10.9688
▁paraguay	-10.9689
▁compensa	-10.9689
▁titulada	-10.9691
▁visitantes	-10.9692
▁condiciona	-10.9693
▁desconocido	-10.9694
▁contaminación	-10.9695
▁oscila	-10.9695
▁internos	-10.9696
▁morir	-10.97
ning	-10.9704
rk	-10.9704
▁tetra	-10.9708
▁55	-10.9711
campo	-10.9716
ví	-10.9726
asia	-10.9731
▁cima	-10.9733
tona	-10.974
▁maneja	-10.9748
ezca	-10.9749
lv	-10.9757
nueva	-10.9758
▁beneficio	-10.9759
▁consumi	-10.9759
ponía	-10.9764
hl	-10.9764
▁inclina	-10.9765
▁tomada	-10.9767
▁empa	-10.9772
▁ribera	-10.9773
▁tensor	-10.9773
▁obligatoria	-10.9773
▁tardía	-10.9774
▁1964	-10.9775
▁1914	-10.9775
▁vertebrados	-10.9777
▁basal	-10.9785
▁ámbitos	-10.9787
▁avión	-10.9788
úl	-10.9789
▁var	-10.9791
▁situados	-10.9798
▁tau	-10.9801
▁hábitat	-10.9804
▁proveniente	-10.9804
▁deportiva	-10.9805
▁ingreso	-10.9815
▁vendido	-10.9818
▁estudiosos	-10.982
ril	-10.9821
▁tablas	-10.9821
▁enemigos	-10.9822
uti	-10.9823
ños	-10.9824
▁teatral	-10.9824
▁sale	-10.9824
▁candidatos	-10.9829
▁conservado	-10.9833
▁ricos	-10.9836
▁ingenieros	-10.984
edo	-10.9842
química	-10.9844
▁hallado	-10.9848
▁comparti	-10.9851
▁beneficia	-10.9858
▁cotidiana	-10.9858
▁nomenclatura	-10.9858
▁razonamiento	-10.9858
▁reconoció	-10.9858
▁silvestre	-10.9858
▁válida	-10.9858
▁carnaval	-10.9858
▁ilegal	-10.9858
▁alguien	-10.9858
▁curvatura	-10.9859
▁taxón	-10.9859
▁linaje	-10.986
▁sintaxis	-10.9862
▁audio	-10.9862
▁poética	-10.9862
▁genéticos	-10.9866
yan	-10.9867
▁celebraciones	-10.9868
mante	-10.987
orden	-10.9871
▁copyleft	-10.9877
▁proporcional	-10.9878
érica	-10.9881
▁viajar	-10.9886
▁denota	-10.9889
▁universitario	-10.9891
▁verbo	-10.9893
fest	-10.9893
-12	-10.9896
estra	-10.99
▁especializadas	-10.9902
▁mad	-10.9905
▁pel	-10.9906
ere	-10.9909
▁formados	-10.9909
▁orientado	-10.991
mag	-10.9911
bú	-10.9916
▁diferencial	-10.992
▁hispano	-10.992
▁pila	-10.9924
burgo	-10.9925
normal	-10.9933
íes	-10.9936
mund	-10.994
6.	-10.9941
▁absorción	-10.9944
▁compatibilidad	-10.9944
▁demostración	-10.9944
▁descenso	-10.9944
▁glucosa	-10.9944
▁teléfono	-10.9944
▁gallega	-10.9944
▁mañana	-10.9944
▁prostitución	-10.9944
▁yukón	-10.9944
▁consistía	-10.9944
▁parecida	-10.9944
▁presiones	-10.9945
▁bueno	-10.9945
▁gusano	-10.9945
way	-10.9945
▁dedicados	-10.9945
▁cercanías	-10.9946
▁1917	-10.9947
▁participantes	-10.9948
▁capi	-10.9951
▁acento	-10.9954
▁carmen	-10.9956
▁normativa	-10.9959
▁op	-10.996
▁derivada	-10.9961
▁nombra	-10.9962
▁profunda	-10.9967
tres	-10.9967
▁localización	-10.9968
▁unió	-10.997
▁funcionan	-10.9976
▁filosófica	-10.998
▁lingüístico	-10.998
▁dependiente	-10.998
▁vivienda	-10.998
▁enemigo	-10.998
▁reto	-10.9981
▁aproxima	-10.9991
▁ropa	-10.9991
oli	-10.9993
▁alternativas	-10.9994
▁penal	-10.9997
gol	-10.9999
▁leyendas	-11.0004
ilia	-11.0008
▁asociadas	-11.0009
audi	-11.0009
tea	-11.0014
▁coi	-11.0017
▁exclusiva	-11.0019
▁clasificado	-11.0019
pur	-11.0021
▁presa	-11.0026
▁recoge	-11.003
▁léxico	-11.0031
▁netscape	-11.0031
▁ordinaria	-11.0031
▁sólida	-11.0031
▁álvarez	-11.0031
▁inflación	-11.0031
▁veinti	-11.0031
▁topónimo	-11.0031
▁vulva	-11.0031
▁surgido	-11.0032
▁pagar	-11.0032
▁cuerda	-11.0032
▁javier	-11.0032
▁folclore	-11.0033
▁levantamiento	-11.0033
▁nadie	-11.0034
▁igualdad	-11.0035
▁tls	-11.0037
hn	-11.0038
▁arqueológicos	-11.0038
▁épocas	-11.0038
▁situ	-11.004
▁xix	-11.0042
▁regulación	-11.0045
▁ancha	-11.0046
▁ideales	-11.0046
prim	-11.005
▁ordenó	-11.0057
▁top	-11.0057
pogon	-11.0057
human	-11.0058
▁conservar	-11.0064
acción	-11.0064
▁llanura	-11.0069
▁arcos	-11.0076
▁quake	-11.0078
▁seco	-11.0081
kov	-11.0084
▁católico	-11.0086
vá	-11.009
▁mam	-11.0091
vos	-11.0091
quilla	-11.0094
▁mercancías	-11.0099
hab	-11.0104
▁acuerdos	-11.0107
▁gor	-11.0108
pino	-11.0109
▁realismo	-11.0111
▁visuales	-11.0112
isla	-11.0113
▁opuesto	-11.0115
▁gli	-11.0118
▁adquirir	-11.0119
▁autonómica	-11.0119
▁autonómico	-11.0119
▁compostela	-11.0119
▁dirigir	-11.0119
▁enfermería	-11.0119
▁espontánea	-11.0119
▁excelente	-11.0119
▁magnética	-11.0119
▁ofreció	-11.0119
▁ortodoxo	-11.0119
▁parlamentaria	-11.0119
▁peculiar	-11.0119
▁sombra	-11.0119
▁ochenta	-11.0119
▁tuviera	-11.0119
▁openbsd	-11.0119
▁clínica	-11.0119
▁destacó	-11.0119
▁supervivencia	-11.012
▁siglas	-11.012
▁subgénero	-11.012
▁volvier	-11.0121
▁vaina	-11.0121
▁artificiales	-11.0122
fort	-11.0123
▁suelos	-11.0125
▁nacionalista	-11.0126
wo	-11.0129
ile	-11.0129
▁46	-11.0129
chel	-11.0133
▁séptimo	-11.0134
▁belga	-11.0134
▁descarta	-11.0135
▁determinación	-11.014
▁destacable	-11.0154
▁lámina	-11.016
▁cerdo	-11.0162
▁láminas	-11.0166
▁abs	-11.0176
lógico	-11.0178
▁racionales	-11.0179
▁terminales	-11.0181
ect	-11.0182
▁solicita	-11.0184
ord	-11.0189
cabeza	-11.0192
lf	-11.0193
▁manuscritos	-11.0194
▁propaga	-11.0199
▁manipula	-11.0199
bat	-11.02
▁otorgado	-11.02
▁estando	-11.0203
▁ayudó	-11.0207
▁estigma	-11.0207
▁extender	-11.0207
▁fortaleza	-11.0207
▁gineceo	-11.0207
▁moluscos	-11.0207
▁referéndum	-11.0207
▁censura	-11.0207
▁xml	-11.0207
▁bosones	-11.0208
▁guinea	-11.0208
▁abreviatura	-11.0208
▁1905	-11.0209
▁planificación	-11.0209
▁1934	-11.0209
▁fabricantes	-11.0213
carta	-11.0224
▁traslada	-11.0227
▁clubes	-11.023
▁vuelos	-11.0232
▁nudo	-11.0232
▁afirmación	-11.0235
▁hat	-11.0236
▁alfred	-11.0239
▁fórmulas	-11.0241
▁haz	-11.0242
▁probar	-11.0242
▁dato	-11.0244
▁comer	-11.0247
▁asentamiento	-11.025
▁comandos	-11.025
▁dialecto	-11.0251
ficientemente	-11.0253
▁liber	-11.0254
▁5000	-11.0257
erio	-11.0259
▁43	-11.026
▁gene	-11.0262
▁implementa	-11.0262
▁usarse	-11.027
▁adoptar	-11.0274
rata	-11.0277
▁representativa	-11.028
▁informal	-11.0282
▁enzima	-11.0285
▁trabajado	-11.0286
▁incluían	-11.0286
▁celebran	-11.0288
▁activos	-11.0296
▁commodore	-11.0297
▁euclides	-11.0297
▁marroquí	-11.0297
▁metodología	-11.0297
▁sirvió	-11.0297
▁tránsito	-11.0297
▁coruña	-11.0297
▁ortodoxa	-11.0297
▁exponencial	-11.0297
▁prominente	-11.0297
nombró	-11.0297
▁ultra	-11.0297
trópico	-11.0297
▁gtk	-11.0297
wood	-11.0297
▁creció	-11.0297
▁resalta	-11.0298
▁1974	-11.0299
▁1967	-11.0299
▁huella	-11.03
▁provee	-11.0301
▁rein	-11.0303
▁ren	-11.0318
áceo	-11.0324
▁aumentando	-11.0325
%8	-11.033
▁arquitectos	-11.033
av	-11.0334
▁hechas	-11.0336
▁700	-11.0338
lidad	-11.0338
▁parti	-11.0345
▁rugby	-11.0345
▁conectado	-11.0347
▁cesio	-11.0349
▁98	-11.0356
▁usaban	-11.0357
▁toman	-11.0357
▁localizado	-11.0359
tienden	-11.0364
métrica	-11.0369
▁experimentales	-11.0372
▁avanza	-11.0378
linux	-11.0378
▁vinculado	-11.0379
gráfica	-11.0381
anim	-11.0383
▁tru	-11.0385
▁armonía	-11.0387
▁egipcia	-11.0387
▁entretenimiento	-11.0387
▁erudito	-11.0387
▁ignacio	-11.0387
▁islámico	-11.0387
▁panamá	-11.0387
▁zelanda	-11.0387
▁dinámico	-11.0387
▁fotosíntesis	-11.0387
▁mahoma	-11.0387
▁demográfica	-11.0388
▁caudal	-11.0388
▁diarios	-11.0388
▁1956	-11.0389
▁observatorio	-11.0389
-10	-11.039
▁1921	-11.0392
▁geológica	-11.0393
cero	-11.0394
▁1910	-11.0396
▁secreta	-11.0398
▁lentamente	-11.0398
formula	-11.04
▁alternativo	-11.0404
rig	-11.0412
strato	-11.0412
inf	-11.0418
▁vitaminas	-11.0426
▁condado	-11.0427
▁open	-11.0434
▁planea	-11.0435
▁finito	-11.044
▁estudiante	-11.045
▁isótopos	-11.0451
▁120	-11.0452
▁recorre	-11.0463
▁océanos	-11.0464
▁respectiva	-11.0465
estructura	-11.047
▁convertiría	-11.0471
▁inaugur	-11.0472
▁dígitos	-11.0473
▁reacciona	-11.0478
▁amplitud	-11.0478
▁manifestación	-11.0478
▁venezolano	-11.0478
▁colecciones	-11.0478
▁corrección	-11.0478
▁filogenética	-11.0478
▁traducido	-11.0479
▁admite	-11.0479
▁brasileño	-11.048
▁1969	-11.048
▁avenida	-11.048
▁sirvie	-11.0481
ómica	-11.0482
▁excita	-11.0482
▁sacrificio	-11.0482
▁afro	-11.0483
▁recibieron	-11.0484
ef	-11.0489
▁palo	-11.0491
hard	-11.0491
▁marcó	-11.0491
▁permitieron	-11.0493
▁estables	-11.0495
▁68	-11.0497
▁atómicos	-11.0498
▁romance	-11.0501
esto	-11.0504
▁gale	-11.0504
▁dama	-11.0505
▁lograron	-11.0507
▁tela	-11.0509
emb	-11.0517
▁carece	-11.0527
▁agota	-11.0528
▁yacimiento	-11.0529
▁crecen	-11.0529
rar	-11.0529
▁cercanas	-11.0531
▁virtuales	-11.0531
guera	-11.0531
▁rota	-11.0532
▁ligado	-11.0534
ofitas	-11.0537
ance	-11.054
▁relevantes	-11.0548
▁barba	-11.0553
▁ligera	-11.0557
▁habitan	-11.0559
▁tarda	-11.0559
▁provocar	-11.0561
#	-11.0562
▁hospitales	-11.0565
▁designado	-11.0566
▁conseguido	-11.0569
▁eficaz	-11.0569
▁gravitatoria	-11.0569
▁oaxaca	-11.0569
▁poblacional	-11.0569
▁1971	-11.0569
▁escultor	-11.0569
▁producía	-11.057
▁monitor	-11.057
▁psicológico	-11.057
▁extracción	-11.057
▁miranda	-11.0571
▁mantuvieron	-11.0571
lú	-11.0571
▁1922	-11.0572
▁tinta	-11.0575
▁caracas	-11.0576
versión	-11.058
▁romanas	-11.0581
tillo	-11.0581
▁agrupación	-11.0581
▁especialistas	-11.0583
▁experimentado	-11.0588
▁obispos	-11.0592
tici	-11.0594
centro	-11.0594
▁utilizaron	-11.0595
▁acta	-11.0598
sus	-11.0602
scripciones	-11.0602
▁lectores	-11.0603
▁film	-11.0603
▁dejaron	-11.0603
▁wal	-11.0603
▁excepcional	-11.061
cid	-11.0611
▁pic	-11.0613
time	-11.062
pil	-11.0621
▁homo	-11.0621
▁óptico	-11.0622
▁ofrecer	-11.0623
▁paquete	-11.0623
▁protestante	-11.0625
▁lit	-11.0625
▁lector	-11.0629
▁ampliación	-11.063
mara	-11.0631
▁wil	-11.0634
▁debida	-11.0642
▁perro	-11.0643
ort	-11.0645
▁útiles	-11.065
▁ia	-11.0651
especialmente	-11.0656
▁vector	-11.0657
▁autónomo	-11.0662
▁badajoz	-11.0662
▁crédito	-11.0662
▁expresionismo	-11.0662
▁inmediato	-11.0662
▁mecánico	-11.0662
▁alcalá	-11.0662
▁denuncia	-11.0662
▁consigo	-11.0662
▁equivalencia	-11.0663
▁suerte	-11.0663
▁exposiciones	-11.0663
▁1963	-11.0664
▁sujeta	-11.0665
▁1912	-11.0669
▁conductor	-11.067
▁dientes	-11.067
▁eliminación	-11.0678
well	-11.0684
▁apóstoles	-11.0684
▁restantes	-11.0687
▁estadísticas	-11.0688
▁promovi	-11.0689
▁iniciales	-11.0689
▁falso	-11.0689
▁evolucionado	-11.0691
▁aeropuertos	-11.0696
▁ventana	-11.0702
enti	-11.0705
▁my	-11.0705
▁provinciales	-11.0709
▁hallazgos	-11.0709
▁actua	-11.0711
pico	-11.0711
tv	-11.0711
▁44	-11.0712
▁desarrolladas	-11.0713
▁(13	-11.0714
▁cpu	-11.0715
dez	-11.0718
▁lee	-11.0724
▁densa	-11.0726
▁grano	-11.073
▁latitudes	-11.0731
▁priva	-11.0731
inger	-11.0733
▁fuga	-11.0736
▁tomaron	-11.0737
▁residentes	-11.0742
meros	-11.0742
▁ocupada	-11.0742
aire	-11.0747
▁separada	-11.075
idioma	-11.0751
▁recomend	-11.0753
king	-11.0754
▁reside	-11.0754
▁derivadas	-11.0754
▁entornos	-11.0754
▁cirugía	-11.0755
▁consiguiente	-11.0755
▁gravitatorio	-11.0755
▁lígula	-11.0755
▁múnich	-11.0755
▁paradigma	-11.0755
▁gramatical	-11.0756
▁irlanda	-11.0756
▁islámica	-11.0756
▁obtenida	-11.0756
▁posesión	-11.0756
▁kilogramo	-11.0756
▁organizó	-11.0756
▁cubrir	-11.0756
▁procura	-11.0756
▁campus	-11.0757
▁1947	-11.0758
▁henri	-11.076
▁recepción	-11.0761
▁pelota	-11.0761
▁noble	-11.0761
▁sonoro	-11.0763
▁oxidación	-11.0763
color	-11.0764
rín	-11.0764
▁protocolos	-11.0767
▁profundamente	-11.0769
▁preferencia	-11.0773
▁disfruta	-11.0775
ciente	-11.0776
▁inaugurado	-11.0776
▁territoriales	-11.0776
▁bruto	-11.0779
▁crecer	-11.0782
▁barcos	-11.0782
▁opuestas	-11.0784
▁normales	-11.0785
-6	-11.079
▁turísticos	-11.0791
izan	-11.0793
▁gasto	-11.0793
_5	-11.0799
▁instalar	-11.0803
▁marea	-11.0807
cino	-11.0807
▁bot	-11.0808
▁positivos	-11.0809
▁vender	-11.0812
▁chinos	-11.0812
▁elaborar	-11.0815
▁superficial	-11.0816
ric	-11.0819
▁acero	-11.0819
red	-11.0819
▁sinónimo	-11.082
num	-11.0821
▁41	-11.0823
▁quedar	-11.0823
computador	-11.0829
cm	-11.083
▁capítulo	-11.0831
andro	-11.0835
▁crom	-11.0836
▁pérdidas	-11.0836
field	-11.084
▁fijo	-11.0842
▁cy	-11.0844
ecimiento	-11.0845
provincia	-11.0846
▁verso	-11.0847
uco	-11.0848
▁canadienses	-11.0849
▁(7	-11.085
▁astronómico	-11.085
▁descubierta	-11.085
▁diputación	-11.085
▁discusión	-11.085
▁emisiones	-11.085
▁mantenido	-11.085
▁mayúscula	-11.085
▁nebulosa	-11.085
▁virreinato	-11.085
▁opiniones	-11.085
▁escasez	-11.085
▁recinto	-11.085
▁obtienen	-11.085
▁bioquímica	-11.0851
▁espejo	-11.0851
▁manufactura	-11.0851
▁rueda	-11.0851
▁taifa	-11.0851
▁autovía	-11.0851
▁ayala	-11.0852
▁pensaba	-11.0854
▁estrictamente	-11.0858
▁bernardo	-11.086
▁ocurrir	-11.086
▁articula	-11.0861
▁tinte	-11.0862
▁realistas	-11.0862
▁campañas	-11.0865
▁poderoso	-11.0866
▁peña	-11.0871
▁ensayos	-11.0874
ides	-11.0874
▁mental	-11.0877
▁garantizar	-11.0881
▁difieren	-11.0883
parte	-11.0884
▁corn	-11.0885
sensu	-11.089
▁ilustra	-11.0893
metro	-11.0896
▁hereda	-11.0904
▁liberado	-11.0904
cari	-11.0907
uer	-11.0908
▁encontrados	-11.0908
▁dibujo	-11.0911
▁ix	-11.0915
▁39	-11.0917
▁nube	-11.0917
verde	-11.0918
▁peregrinos	-11.0919
▁constantemente	-11.0922
▁geográficas	-11.0924
nova	-11.0924
▁lineales	-11.0927
▁materias	-11.0929
▁sabio	-11.093
▁psi	-11.0936
▁coli	-11.0939
book	-11.0943
▁tour	-11.0944
▁alzhéimer	-11.0945
▁bóveda	-11.0945
▁hollywood	-11.0945
▁aislamiento	-11.0945
▁diseñada	-11.0945
▁cierre	-11.0945
▁cariopsis	-11.0945
ducentésimo	-11.0946
▁platino	-11.0946
▁jamás	-11.0947
▁1954	-11.0947
▁popper	-11.0947
"».	-11.0951
▁neu	-11.0952
tierra	-11.0953
▁guipúzcoa	-11.0953
▁preocupación	-11.0953
▁josefo	-11.0955
thi	-11.0955
pta	-11.0958
▁iron	-11.0963
▁llamaba	-11.0966
▁game	-11.0966
▁privados	-11.097
▁vaca	-11.0977
▁andina	-11.0977
▁escritorio	-11.0978
▁podi	-11.0986
pero	-11.099
▁carecen	-11.0991
▁reco	-11.0998
▁suponía	-11.1003
▁tensión	-11.1006
úa	-11.1008
▁comenzado	-11.1008
▁unir	-11.1008
▁continentes	-11.101
▁imagina	-11.101
▁recupera	-11.101
▁cromosómicos	-11.1012
erías	-11.1014
▁campeonatos	-11.1016
▁gustav	-11.1016
cosa	-11.1018
cay	-11.1022
casa	-11.1025
▁educa	-11.103
▁francesas	-11.1034
▁empresario	-11.1035
ami	-11.1037
lav	-11.104
▁envía	-11.104
▁aleixandre	-11.1041
▁catolicismo	-11.1041
▁coeficiente	-11.1041
▁estrenó	-11.1041
▁guillermo	-11.1041
▁jardines	-11.1041
▁madurez	-11.1041
▁simbólica	-11.1041
▁flamenco	-11.1041
▁resistente	-11.1041
▁experimentó	-11.1041
▁permiso	-11.1041
▁otomano	-11.1041
▁románico	-11.1042
▁esperar	-11.1042
▁duplica	-11.1042
▁detección	-11.1043
temp	-11.1043
▁1952	-11.1043
▁lleno	-11.1043
▁palencia	-11.1044
▁impide	-11.1044
▁habido	-11.1045
▁intra	-11.1046
cionista	-11.1047
ers	-11.1048
▁traslado	-11.1051
▁consagra	-11.1054
▁diseños	-11.1054
▁karma	-11.1056
▁arg	-11.1057
▁ligada	-11.1062
▁combinado	-11.1073
▁intérpretes	-11.1075
4)	-11.1079
_6	-11.1082
▁andaluza	-11.1084
▁bacteria	-11.1087
▁pesados	-11.109
▁navegadores	-11.1094
▁afirmaba	-11.1102
cap	-11.1102
▁deportivas	-11.1103
▁instalada	-11.1104
▁sacerdotes	-11.111
kan	-11.112
▁fríos	-11.1121
tier	-11.1126
▁francis	-11.1134
▁causado	-11.1135
burg	-11.1135
▁fra	-11.1136
▁cinematográfica	-11.1138
▁cobertura	-11.1138
▁competiciones	-11.1138
▁cápita	-11.1138
▁moscú	-11.1138
▁mágico	-11.1138
▁médula	-11.1138
▁persecución	-11.1138
▁infinita	-11.1138
▁artesanía	-11.1138
▁constituir	-11.1138
▁otorgó	-11.1138
▁navidad	-11.1138
▁marqués	-11.1138
▁acentua	-11.1138
▁mostraba	-11.1139
▁profesores	-11.1139
▁1955	-11.1141
▁1923	-11.1141
▁vecina	-11.1142
▁mediciones	-11.1145
▁determinante	-11.1146
▁sufrir	-11.1147
igió	-11.115
▁crean	-11.115
▁blo	-11.1151
▁aguda	-11.1153
▁encéfalo	-11.1154
osfera	-11.1154
▁contribuyó	-11.1157
▁instalado	-11.1157
▁georg	-11.1161
▁modificada	-11.1169
▁aficionados	-11.117
▁firmado	-11.117
▁sugiri	-11.1172
▁visibles	-11.1177
▁iniciaron	-11.1178
▁marinas	-11.1178
▁visitar	-11.1185
▁agro	-11.1191
▁estacional	-11.1193
▁decidier	-11.1194
▁acompañada	-11.1195
hora	-11.1195
▁rose	-11.1205
▁astur	-11.1207
▁impuesto	-11.1209
▁pobre	-11.121
▁fund	-11.1225
▁juntos	-11.1229
▁vid	-11.1231
evolución	-11.1235
▁extraordinaria	-11.1236
▁innovaciones	-11.1236
▁sinapsis	-11.1236
▁sépalos	-11.1236
▁constantinopla	-11.1236
▁provisional	-11.1236
▁representó	-11.1236
▁absorbe	-11.1236
▁plomo	-11.1236
inclán	-11.1236
▁serpiente	-11.1237
▁instaur	-11.1237
▁clínico	-11.1237
▁flauta	-11.1237
▁arroja	-11.1238
▁1961	-11.1239
▁expuesto	-11.1239
▁conjuga	-11.1239
▁causó	-11.1239
▁entran	-11.1239
▁escalada	-11.1241
▁opciones	-11.1242
▁obligado	-11.1243
ñón	-11.1243
▁teología	-11.1243
▁xiii	-11.1243
▁enfermo	-11.1245
cionismo	-11.1246
vice	-11.1247
ológicas	-11.1249
▁circun	-11.1252
▁acabar	-11.1254
▁49	-11.126
▁pelos	-11.1265
▁experiencias	-11.1265
kel	-11.127
▁operadores	-11.1271
▁retro	-11.1272
daron	-11.1274
▁conferencias	-11.1275
▁host	-11.1276
back	-11.1277
iéndole	-11.1284
▁médicas	-11.1288
▁emite	-11.1292
▁polares	-11.1294
ted	-11.1295
▁comparte	-11.1296
▁cubana	-11.1298
▁td	-11.1298
400	-11.13
▁casó	-11.1305
▁adaptado	-11.1308
▁funcionales	-11.1309
▁africana	-11.1309
▁polaco	-11.1309
ft	-11.1309
▁gigante	-11.131
itis	-11.131
▁abrir	-11.1313
peri	-11.1314
▁seno	-11.1321
▁suave	-11.1323
▁preparar	-11.1324
▁sho	-11.1324
▁avanzado	-11.1327
cient	-11.1332
▁diócesis	-11.1335
▁neerlandés	-11.1335
▁principado	-11.1335
▁profesión	-11.1335
▁reflexión	-11.1335
▁traducciones	-11.1335
▁autobuses	-11.1335
▁higgs	-11.1335
▁examen	-11.1335
▁reconstrucción	-11.1335
▁cortés	-11.1335
▁orquídeas	-11.1336
▁sufrido	-11.1336
▁sabía	-11.1336
▁teniente	-11.1336
▁ocurrido	-11.1336
▁lípidos	-11.1336
punto	-11.1337
▁reunir	-11.1337
▁herbert	-11.1337
▁mercados	-11.1337
▁panícula	-11.1337
▁1959	-11.1337
▁integran	-11.1339
▁cae	-11.134
▁salas	-11.1346
cera	-11.1349
▁1812	-11.1352
todo	-11.1354
▁bsd	-11.1355
▁reconocidas	-11.1359
▁hugo	-11.1362
▁detallada	-11.1367
▁formadas	-11.1368
guerra	-11.1368
nica	-11.1368
▁franz	-11.1369
▁contraria	-11.137
bula	-11.1375
▁destinos	-11.1376
▁flu	-11.1377
▁continuaron	-11.1377
▁habita	-11.138
▁empleada	-11.1381
▁deportivos	-11.1382
▁acoge	-11.1384
▁buscando	-11.1384
▁gastos	-11.1385
▁sitúan	-11.1386
▁morfológica	-11.1386
▁mario	-11.1389
meno	-11.139
siderablemente	-11.1397
ísima	-11.1404
▁invita	-11.1406
core	-11.1406
▁tumor	-11.1407
▁establecida	-11.1411
▁obrero	-11.1411
▁num	-11.1412
mol	-11.1416
▁asesinado	-11.1416
▁influyente	-11.1417
ight	-11.1418
▁bosón	-11.1418
▁consideración	-11.1418
say	-11.1421
▁indo	-11.1428
▁exigi	-11.1432
▁esculturas	-11.1433
▁comporta	-11.1434
▁compilador	-11.1435
▁adquirido	-11.1435
▁cumplimiento	-11.1435
▁cápsula	-11.1435
▁doméstico	-11.1435
▁escocés	-11.1435
▁hidalgo	-11.1435
▁híbrido	-11.1435
▁ingleses	-11.1435
▁jesucristo	-11.1435
▁puebla	-11.1435
▁emocional	-11.1435
▁ernst	-11.1435
▁inhibi	-11.1435
▁mutaciones	-11.1435
▁cohete	-11.1435
▁opengl	-11.1436
▁inclusión	-11.1436
▁tortilla	-11.1436
▁jamón	-11.1437
▁ruiz	-11.1438
▁carrillo	-11.1439
mano	-11.144
mundo	-11.1441
▁evaluación	-11.1442
epi	-11.1444
▁mud	-11.1445
▁(0	-11.1449
valor	-11.1449
▁viii	-11.1451
▁destacadas	-11.1451
▁fallo	-11.1454
▁colombiano	-11.1457
cir	-11.1462
▁éste	-11.1464
▁polos	-11.1466
▁lenta	-11.1467
▁publicaron	-11.1468
▁integrados	-11.1469
▁conservadores	-11.1472
mt	-11.1475
▁representaba	-11.1475
▁socialistas	-11.1475
▁ejecutado	-11.1477
lex	-11.1481
▁longitudes	-11.1482
lit	-11.1486
ert	-11.1486
▁celebrar	-11.1493
▁estén	-11.1497
mun	-11.1499
vision	-11.1501
culos	-11.1501
▁paralela	-11.1503
lino	-11.1506
▁separar	-11.1508
visa	-11.151
▁mur	-11.1511
▁primitiva	-11.1514
▁segmentos	-11.1514
▁controlada	-11.1514
▁hueso	-11.1515
pot	-11.1519
bé	-11.152
ímetro	-11.1524
▁medievales	-11.1526
▁escapar	-11.1531
▁ep	-11.1531
▁comercializa	-11.1532
▁ancestral	-11.1536
▁galápagos	-11.1536
▁sustitución	-11.1536
▁traducir	-11.1536
▁colectiva	-11.1536
▁esmeralda	-11.1536
▁refracción	-11.1536
▁águila	-11.1536
▁arthur	-11.1536
▁esférica	-11.1536
▁estadístico	-11.1536
▁isaac	-11.1536
▁romanticismo	-11.1536
▁crucial	-11.1536
▁dirac	-11.1537
▁entrenamiento	-11.1537
▁ecológica	-11.1537
▁surrealismo	-11.1538
▁mortalidad	-11.1539
▁brasileña	-11.1539
▁partidarios	-11.1539
▁vidrio	-11.1542
▁delgado	-11.1542
▁motiva	-11.1543
▁élite	-11.1543
▁contando	-11.1544
▁poderosa	-11.1544
▁seguía	-11.1547
▁contrasta	-11.1547
ochloa	-11.1555
▁espectáculos	-11.1556
▁unen	-11.1558
▁ví	-11.1558
▁integrar	-11.1559
pond	-11.1562
▁win	-11.1565
▁alternas	-11.1565
▁hall	-11.1567
▁flotante	-11.1568
▁practica	-11.1571
▁óvulos	-11.1571
▁azar	-11.1573
dir	-11.1578
▁vivían	-11.1578
▁carro	-11.1578
▁jazz	-11.1582
▁85	-11.1583
▁completar	-11.1589
transformaciones	-11.159
cultural	-11.1593
▁influye	-11.1596
ward	-11.16
▁complementa	-11.1605
▁hablada	-11.1605
▁elemental	-11.1605
▁residuos	-11.1615
▁espectáculo	-11.1618
▁músico	-11.1619
▁bou	-11.1626
▁elaborada	-11.1626
▁litro	-11.1632
▁alinea	-11.1636
nea	-11.1637
▁dominado	-11.1637
▁hip	-11.1637
▁órbitas	-11.1638
▁albacete	-11.1638
▁constelaciones	-11.1638
▁denominó	-11.1638
▁gabinete	-11.1638
▁glándulas	-11.1638
▁hélice	-11.1638
▁múltiplo	-11.1638
▁wilhelm	-11.1638
▁hispania	-11.1638
▁juvenil	-11.1638
▁mérito	-11.1638
▁verticilo	-11.1638
▁recogida	-11.1638
▁exitosa	-11.1638
▁fonema	-11.1638
▁binaria	-11.1638
▁muscular	-11.1639
▁dorsal	-11.1639
▁insular	-11.1639
▁lejano	-11.1639
ax	-11.1639
uz	-11.1639
▁enumera	-11.1641
iglesia	-11.1642
▁benito	-11.1643
▁enterrado	-11.1644
▁construyeron	-11.1645
▁patria	-11.1646
ódico	-11.1646
▁duros	-11.165
▁formatos	-11.165
▁tauromaquia	-11.165
▁helechos	-11.1655
▁ciudadano	-11.1657
▁espada	-11.1657
▁daños	-11.1658
▁uvas	-11.1659
▁»	-11.1661
rry	-11.1661
▁indicado	-11.1663
▁mariano	-11.1663
▁automóviles	-11.1663
▁7.	-11.1664
▁mención	-11.1666
▁liberar	-11.1669
▁reemplaza	-11.1669
▁compañeros	-11.1671
▁provocado	-11.1672
▁alas	-11.1677
▁trabajan	-11.1678
▁señaló	-11.1683
▁favoreci	-11.1685
▁eric	-11.1688
▁250	-11.169
▁significativos	-11.1694
cum	-11.1696
hm	-11.1697
verso	-11.1705
jón	-11.1708
▁apoyar	-11.1718
▁acusado	-11.1721
▁cat	-11.1723
▁minoría	-11.1723
▁doctrinas	-11.1725
▁cambiado	-11.1729
▁organ	-11.1732
▁veía	-11.1735
▁indias	-11.1736
vie	-11.1737
ívoros	-11.1741
▁baleares	-11.1742
▁citoplasma	-11.1742
▁combustión	-11.1742
▁disminuir	-11.1742
▁parkinson	-11.1742
▁portugueses	-11.1742
▁society	-11.1742
▁sucesivas	-11.1742
▁aprobado	-11.1742
▁romántico	-11.1742
▁sensibilidad	-11.1742
▁sudáfrica	-11.1742
▁sugerido	-11.1742
▁morelos	-11.1742
▁sílaba	-11.1742
▁teresa	-11.1742
▁milicia	-11.1742
▁bautista	-11.1742
▁pluma	-11.1742
▁modula	-11.1743
▁1944	-11.1744
▁1946	-11.1744
▁1966	-11.1744
prendió	-11.1745
▁revuelta	-11.1746
▁pobladores	-11.1746
madrid	-11.1746
millones	-11.1746
▁membranas	-11.175
▁calcio	-11.1752
▁concentraciones	-11.1753
▁secular	-11.1754
▁asume	-11.1757
tem	-11.1757
morfo	-11.176
modern	-11.1762
▁bautizado	-11.1768
emos	-11.177
▁fieles	-11.1773
cau	-11.1774
▁secundarios	-11.178
▁versos	-11.1785
▁zap	-11.1785
▁facultades	-11.1786
▁establecen	-11.1791
▁justifica	-11.1791
▁asimila	-11.1792
▁cursos	-11.1793
▁cori	-11.1794
▁dominios	-11.1795
▁salva	-11.1799
▁poseía	-11.1802
cales	-11.1805
▁emula	-11.1806
▁2002,	-11.1807
▁hábitats	-11.1807
tendiendo	-11.1811
▁ritmos	-11.1813
▁operador	-11.1818
villa	-11.1821
▁chilena	-11.1827
activo	-11.1828
▁cálido	-11.183
▁negocio	-11.183
▁reconocen	-11.1831
énica	-11.1831
▁salta	-11.1836
▁coloniza	-11.1836
▁té	-11.1839
▁recrea	-11.184
duciendo	-11.1844
▁restaur	-11.1844
▁aprobada	-11.1846
▁comandante	-11.1846
▁cáliz	-11.1846
▁energética	-11.1846
▁monofilético	-11.1846
▁musulmán	-11.1846
▁periodismo	-11.1846
▁pirámide	-11.1846
▁recuerdo	-11.1846
▁sucedió	-11.1846
▁ultravioleta	-11.1846
▁orinoco	-11.1846
▁arroyo	-11.1846
▁mostrado	-11.1846
▁ftp	-11.1846
▁validez	-11.1846
▁partitura	-11.1847
▁setenta	-11.1847
far	-11.1848
▁exacto	-11.185
▁divino	-11.185
segundo	-11.1852
auto	-11.1852
▁chan	-11.1853
▁kan	-11.1855
ity	-11.1856
▁coordinación	-11.186
▁[...]	-11.1862
▁interiores	-11.1862
▁banca	-11.1862
▁sabiduría	-11.1865
▁inventa	-11.1867
▁vale	-11.1872
▁cargas	-11.1873
▁cuadrados	-11.1874
▁preocupa	-11.1878
▁xvi	-11.1887
onio	-11.1888
▁cómic	-11.189
▁rodeado	-11.1891
▁roble	-11.1894
▁natal	-11.1896
▁instala	-11.1902
cedieron	-11.1905
▁penta	-11.1905
▁suyo	-11.1906
▁impresion	-11.1907
▁viviendas	-11.1907
▁declarar	-11.191
▁secos	-11.1911
▁cloro	-11.1911
amor	-11.1915
▁cuadros	-11.1916
▁líquidos	-11.1918
▁ejércitos	-11.1921
▁radial	-11.1925
▁tel	-11.1926
▁estudian	-11.1928
▁unificación	-11.1929
▁cli	-11.1937
har	-11.1938
▁efectiva	-11.1938
uria	-11.1938
▁músculos	-11.1941
▁regulado	-11.1946
▁romper	-11.1946
▁consola	-11.1949
▁entendimiento	-11.1951
▁euskera	-11.1951
▁extensiones	-11.1951
▁coherente	-11.1951
▁prisionero	-11.1951
▁primordial	-11.1951
▁sufragio	-11.1951
▁añadido	-11.1951
▁cuartel	-11.1951
▁perfecto	-11.1951
▁convenciones	-11.1951
▁daño	-11.1951
▁tanta	-11.1951
▁cataloga	-11.1951
▁atribuido	-11.1951
▁gregorio	-11.1951
▁llosa	-11.1952
▁causada	-11.1952
guin	-11.1953
▁sequía	-11.1953
▁steve	-11.1953
▁gauss	-11.1956
ota	-11.196
▁cabezas	-11.196
▁adaptaciones	-11.1961
▁monumento	-11.1962
corta	-11.1962
▁barroca	-11.1963
▁alimentaria	-11.1964
++	-11.1964
▁legales	-11.1965
▁suya	-11.1965
ulación	-11.1966
▁alcázar	-11.1973
uda	-11.1975
▁meca	-11.1979
▁proporciones	-11.198
▁convierten	-11.1981
▁sonda	-11.1995
▁gema	-11.1999
▁blancos	-11.2001
▁trabajaba	-11.2002
▁52	-11.2004
▁vera	-11.2011
▁orbitales	-11.2012
▁impar	-11.2012
adora	-11.2018
ical	-11.2018
▁considerando	-11.2021
▁irán	-11.2022
▁bob	-11.2023
▁denso	-11.2025
ram	-11.2028
ocitos	-11.2029
vita	-11.203
▁tarjetas	-11.2034
▁tribunales	-11.2034
▁conformada	-11.2043
gli	-11.2044
▁inercial	-11.2046
▁inspirada	-11.2046
▁plataformas	-11.2046
▁gobernante	-11.2048
▁aporte	-11.2048
300	-11.2049
▁protector	-11.205
▁contamina	-11.2052
▁emisor	-11.2054
▁habituales	-11.2057
▁auténtico	-11.2057
▁complemento	-11.2057
▁concurso	-11.2057
▁eclesiástico	-11.2057
▁idéntica	-11.2057
▁plástico	-11.2057
▁reptiles	-11.2057
▁criatura	-11.2057
▁reuniones	-11.2057
▁huerta	-11.2057
▁defiende	-11.2057
▁philip	-11.2058
▁conlleva	-11.2058
▁tridimensional	-11.2058
▁subclase	-11.2058
▁grabación	-11.2059
▁serrano	-11.2059
▁senegal	-11.2059
▁euler	-11.2059
▁esporas	-11.206
▁compuso	-11.206
▁1953	-11.206
▁califato	-11.2061
▁vasca	-11.2062
zy	-11.2062
▁salinas	-11.2062
▁constituyó	-11.2062
▁desintegración	-11.2063
▁1:	-11.207
▁retoma	-11.2072
ínico	-11.2073
▁hábitos	-11.2075
▁geográficos	-11.2075
flora	-11.2075
▁derivan	-11.2076
▁similitudes	-11.2077
▁ángulos	-11.2078
▁comparable	-11.208
▁elevadas	-11.208
cad	-11.2081
▁bolsa	-11.2083
mero	-11.2085
nato	-11.209
cidas	-11.209
▁venido	-11.2091
▁puentes	-11.2091
▁51	-11.2096
▁hy	-11.2097
▁reproducir	-11.21
▁republicanos	-11.2103
▁ventanas	-11.2104
sexual	-11.2108
▁introduc	-11.2109
▁huevos	-11.2114
▁dispar	-11.2115
▁popularmente	-11.2115
▁llanuras	-11.2118
▁efectu	-11.2118
tiene	-11.2118
frag	-11.212
▁nacen	-11.2129
▁móvil	-11.2131
▁aproximada	-11.2134
▁95	-11.2134
▁caer	-11.2138
▁constan	-11.2138
▁spi	-11.2152
▁mexicas	-11.2155
▁arqueológico	-11.2156
▁refieren	-11.2159
▁antecedentes	-11.216
128	-11.2161
▁granos	-11.2163
▁orienta	-11.2163
▁situadas	-11.2163
▁caracterizó	-11.2165
▁confirmó	-11.2165
▁costarricense	-11.2165
▁dividió	-11.2165
▁mesopotamia	-11.2165
▁sustituir	-11.2165
▁urbanismo	-11.2165
▁étnica	-11.2165
▁pudiendo	-11.2165
▁textura	-11.2165
▁repetida	-11.2165
▁ricardo	-11.2165
▁diseñar	-11.2165
▁perdida	-11.2166
▁partiendo	-11.2166
▁superan	-11.2167
▁1926	-11.2168
▁secretaría	-11.2169
mid	-11.217
▁inverso	-11.217
▁sorgo	-11.2173
▁supuestamente	-11.2176
▁unirse	-11.2177
▁oblig	-11.2178
siete	-11.2179
▁ul	-11.2183
▁montañosas	-11.2185
nero	-11.2185
▁resumen	-11.2186
▁imprimi	-11.219
metría	-11.22
▁piano	-11.2205
▁darse	-11.2207
rino	-11.2211
▁hal	-11.2216
▁ficha	-11.222
▁escalas	-11.2223
▁bancos	-11.2224
▁mueve	-11.223
nov	-11.2234
mita	-11.2236
▁mejorado	-11.2236
▁discuti	-11.2238
cole	-11.2244
ándolos	-11.2248
▁pasaba	-11.2248
▁aborda	-11.2251
▁coloniales	-11.2253
▁definidos	-11.2256
▁realizaba	-11.226
dilla	-11.2265
▁diversa	-11.2268
▁iban	-11.2271
▁estimado	-11.2273
▁arcoíris	-11.2274
▁aritmética	-11.2274
▁concedió	-11.2274
▁fenicio	-11.2274
▁húmeda	-11.2274
▁laberinto	-11.2274
▁nazaret	-11.2274
▁predicciones	-11.2274
▁shakira	-11.2274
▁taxonómica	-11.2274
▁ápice	-11.2274
▁bilateral	-11.2274
▁distintivo	-11.2274
▁melodía	-11.2274
▁transversal	-11.2274
▁solitario	-11.2274
▁fibra	-11.2274
▁encargó	-11.2274
▁morelia	-11.2274
▁brazo	-11.2274
▁edward	-11.2274
▁polaca	-11.2274
▁harris	-11.2275
▁1941	-11.2276
▁1965	-11.2276
▁estricto	-11.2276
▁destinado	-11.2278
ífica	-11.2278
▁precipitación	-11.2279
▁encontrada	-11.2279
dium	-11.2279
▁ajuste	-11.2281
meli	-11.2282
▁lanzar	-11.2283
▁encarna	-11.2283
▁trató	-11.2288
▁localizada	-11.229
▁convención	-11.2293
▁espectadores	-11.2294
▁dictador	-11.2294
▁conmuta	-11.2294
logia	-11.2294
▁leptones	-11.2295
▁libertador	-11.2296
uni	-11.2297
▁plenamente	-11.2298
▁marino	-11.23
▁navega	-11.2304
▁fiel	-11.2306
▁trazado	-11.2313
eca	-11.2321
▁cp	-11.2327
negr	-11.2329
▁rodeada	-11.2331
▁aroma	-11.2334
▁traje	-11.2336
▁cuerdas	-11.2338
▁robots	-11.2347
▁diferenciar	-11.2351
▁protestas	-11.2352
▁west	-11.2354
▁exportador	-11.2354
-14	-11.2358
aux	-11.2359
monte	-11.2362
▁iu	-11.2365
▁conformado	-11.2373
▁realizando	-11.2374
▁proceden	-11.2377
imo	-11.2381
new	-11.2383
▁remontan	-11.2383
▁determinó	-11.2383
▁excesiva	-11.2383
▁ferroviaria	-11.2383
▁introdujeron	-11.2383
▁octavo	-11.2383
▁aluminio	-11.2383
▁kelvin	-11.2383
▁atlántica	-11.2383
▁indoeuropea	-11.2383
fonía	-11.2384
▁trinidad	-11.2384
▁encuentre	-11.2384
▁numérica	-11.2384
▁traduce	-11.2384
▁sudeste	-11.2384
▁grasos	-11.2384
▁empresarial	-11.2385
▁obligatorio	-11.2385
▁borbón	-11.2385
▁decoración	-11.2385
tópico	-11.2386
▁58	-11.2386
▁aprovechamiento	-11.2387
▁importaciones	-11.2388
▁salvaje	-11.2388
▁santander	-11.2388
▁definidas	-11.239
bacteria	-11.2395
▁estético	-11.2395
incluyendo	-11.2395
bach	-11.2398
▁usaba	-11.2401
▁llevaba	-11.2403
▁marciales	-11.2405
▁semiconductores	-11.2409
▁distribuyen	-11.2412
▁radica	-11.2413
pila	-11.2415
▁huecos	-11.2417
▁literalmente	-11.2417
▁crucero	-11.2418
prop	-11.2425
ánica	-11.243
tex	-11.2432
▁retirada	-11.2433
▁publicados	-11.2433
▁retira	-11.2435
▁queso	-11.2435
▁jar	-11.2441
▁island	-11.2442
▁free	-11.2447
▁formaciones	-11.2451
aco	-11.2454
▁artísticos	-11.2454
_7	-11.2454
▁vivía	-11.2454
▁corredor	-11.2455
▁pí	-11.2457
▁56	-11.2457
osis	-11.2457
▁implementar	-11.2458
▁gesta	-11.2463
▁vot	-11.2469
izante	-11.2473
▁andré	-11.2484
cine	-11.2487
▁variada	-11.2493
▁informático	-11.2493
▁aniversario	-11.2495
▁añadió	-11.2495
▁erectus	-11.2495
▁gravitacional	-11.2495
▁irracional	-11.2495
▁maquinaria	-11.2495
▁márgenes	-11.2495
▁proximidad	-11.2495
▁válido	-11.2495
▁coalición	-11.2495
▁montañoso	-11.2495
▁pendiente	-11.2495
▁viajó	-11.2495
▁(2009)	-11.2495
▁jerez	-11.2495
▁enfatiza	-11.2495
▁inmensa	-11.2495
▁cardenal	-11.2495
▁geométrico	-11.2495
▁revolucionaria	-11.2495
▁apoyado	-11.2495
▁posguerra	-11.2495
▁declive	-11.2495
▁latinoamericano	-11.2495
▁etno	-11.2496
▁adición	-11.2498
▁900	-11.2499
▁presentaba	-11.2499
▁surgir	-11.2503
▁verbal	-11.2504
▁compartir	-11.2506
español	-11.2507
celular	-11.2508
top	-11.251
▁icono	-11.2512
nervia	-11.2512
▁primitivas	-11.2519
▁aquello	-11.2522
▁exista	-11.2522
▁sacar	-11.2524
▁palmas	-11.2527
▁primarios	-11.2535
ración	-11.2537
▁reflejan	-11.2541
junto	-11.2548
ange	-11.2553
▁nava	-11.2555
▁verifica	-11.256
desde	-11.2561
-7	-11.2561
▁observadores	-11.2573
asa	-11.2574
▁atracción	-11.2576
▁restaurantes	-11.2576
▁blancas	-11.2589
▁ray	-11.2591
▁círculos	-11.2594
▁aventuras	-11.2601
’.	-11.2601
▁denominar	-11.2601
▁muda	-11.2606
▁bombardeo	-11.2607
▁burguesía	-11.2607
▁comprendido	-11.2607
▁definitivo	-11.2607
▁descomposición	-11.2607
▁dominicana	-11.2607
▁etcétera	-11.2607
▁heredero	-11.2607
▁honduras	-11.2607
▁jiménez	-11.2607
▁repertorio	-11.2607
▁respeto	-11.2607
▁colapso	-11.2607
▁previsto	-11.2607
▁abuelo	-11.2607
▁sagrada	-11.2607
▁fracción	-11.2607
▁oviedo	-11.2607
▁cebada	-11.2607
▁tracto	-11.2607
▁agraria	-11.2607
▁metafísica	-11.2607
▁abandonado	-11.2608
▁maiden	-11.2608
tubular	-11.2608
▁pulgada	-11.2608
▁voces	-11.2609
▁inversiones	-11.261
▁habana	-11.261
▁petro	-11.2614
idea	-11.2616
▁php	-11.2617
▁bombas	-11.2618
▁femeninas	-11.2623
▁gubernamentales	-11.2627
▁geológico	-11.2627
▁joan	-11.263
▁ocupaba	-11.263
▁foro	-11.2632
▁infante	-11.2632
▁peor	-11.2637
▁resta	-11.2641
▁invitado	-11.2648
▁api	-11.2649
eira	-11.2663
grafo	-11.2664
▁coral	-11.2665
▁asentamientos	-11.2666
▁pesos	-11.2673
right	-11.2675
medio	-11.2675
▁raro	-11.2676
▁presentada	-11.2679
▁cubre	-11.2681
▁comparada	-11.2683
▁pali	-11.2689
▁primitivos	-11.2689
udo	-11.269
▁amante	-11.2694
▁medallas	-11.2701
vivencia	-11.2703
▁aumentado	-11.2706
▁ingredientes	-11.2707
▁oxida	-11.2713
▁nutri	-11.2716
▁grabados	-11.2718
▁máximas	-11.2719
▁filas	-11.2719
post	-11.272
céntrica	-11.2721
▁androceo	-11.2721
▁antropología	-11.2721
▁apéndice	-11.2721
▁catálogo	-11.2721
▁desempleo	-11.2721
▁dramaturgo	-11.2721
▁estímulo	-11.2721
▁evolucionó	-11.2721
▁hefesto	-11.2721
▁olímpica	-11.2721
▁sistemático	-11.2721
▁vicepresidente	-11.2721
▁apellido	-11.2721
▁inherente	-11.2721
▁instaló	-11.2721
▁national	-11.2721
▁inestable	-11.2721
▁prototipo	-11.2721
=10	-11.2722
▁encargo	-11.2723
▁nombramiento	-11.2723
▁módulo	-11.2724
▁negó	-11.2725
▁1911	-11.2726
eado	-11.2726
▁cusco	-11.2728
▁comentarios	-11.273
iber	-11.2731
▁perfectamente	-11.2732
▁listado	-11.2734
▁suprimi	-11.2735
fuerza	-11.2736
▁distribuidas	-11.2742
▁experimentación	-11.2744
ducido	-11.2745
▁consumidores	-11.2747
▁terminan	-11.2748
▁(9	-11.2751
champ	-11.2755
▁corola	-11.2757
▁programadores	-11.2762
▁recordar	-11.2762
▁derrotado	-11.2764
flor	-11.2764
▁monje	-11.2767
-8	-11.2768
▁producirse	-11.2773
▁agrupan	-11.2778
lim	-11.2783
gru	-11.2783
▁andaluz	-11.2784
▁miel	-11.2787
canto	-11.2788
▁determinan	-11.2789
uu	-11.2789
▁sable	-11.279
▁credo	-11.2791
gest	-11.2794
▁intentan	-11.2795
▁únicas	-11.2795
▁quedaba	-11.2796
▁barro	-11.2796
▁egipcios	-11.2802
▁ubicados	-11.2803
veni	-11.2806
▁saga	-11.2814
▁dudas	-11.2816
▁indios	-11.2817
▁fluidos	-11.282
row	-11.2821
▁boy	-11.2826
▁plato	-11.2827
▁mencionados	-11.2828
▁detecta	-11.2834
▁volcán	-11.2835
▁inusual	-11.2835
▁episcopal	-11.2835
▁estratégica	-11.2835
▁mesoamericana	-11.2835
▁terremoto	-11.2835
▁cuzco	-11.2836
▁sicilia	-11.2836
▁conveniente	-11.2836
▁transformar	-11.2836
▁suministro	-11.2836
dharma	-11.2836
▁extingu	-11.2836
▁neutro	-11.2836
▁expulsión	-11.2836
▁convenio	-11.2836
▁pasión	-11.2838
▁descubrieron	-11.2839
▁impresoras	-11.2839
▁1918	-11.284
pele	-11.284
▁actuaciones	-11.2841
gram	-11.2842
▁sobresale	-11.2842
▁fundamento	-11.2843
tell	-11.2843
estrógeno	-11.2843
▁propagación	-11.2847
▁diferenciación	-11.2849
▁extraño	-11.2849
▁leve	-11.2851
▁afirmaciones	-11.2854
▁suficientes	-11.2856
hombre	-11.2856
▁inspira	-11.2857
▁signific	-11.2857
▁marcel	-11.2861
▁responder	-11.2863
minist	-11.2867
▁canario	-11.2869
▁aventura	-11.2874
ísta	-11.2874
▁expulsado	-11.2878
▁comerciantes	-11.2879
▁creyentes	-11.2885
▁mera	-11.2888
american	-11.289
▁abiertos	-11.2894
▁buscaba	-11.2895
hay	-11.2896
▁chileno	-11.2897
▁profundas	-11.2904
▁iniciada	-11.2906
serv	-11.291
▁recorda	-11.291
▁jan	-11.2911
▁singularidad	-11.2915
▁buenas	-11.2923
▁situar	-11.2929
▁carbon	-11.293
▁esperaba	-11.2931
▁representaban	-11.2935
▁mir	-11.2941
▁regresar	-11.2942
▁cloroplastos	-11.2944
evo	-11.2945
▁band	-11.2947
▁posiciona	-11.295
▁patrona	-11.2951
▁algebraica	-11.2952
▁añadiendo	-11.2952
▁eficacia	-11.2952
▁fallecimiento	-11.2952
▁garantía	-11.2952
▁manteniendo	-11.2952
▁membranosa	-11.2952
▁predecir	-11.2952
▁proyecciones	-11.2952
▁recomienda	-11.2952
▁tortuga	-11.2952
▁transparente	-11.2952
▁visitó	-11.2952
▁violín	-11.2952
▁colonos	-11.2952
▁erosión	-11.2952
▁ciudadanía	-11.2952
▁sintético	-11.2952
▁grueso	-11.2952
▁debilita	-11.2952
▁obrera	-11.2952
▁psicológica	-11.2952
▁afuera	-11.2952
▁sublevación	-11.2952
▁voluntarios	-11.2953
▁brillo	-11.2953
▁disponía	-11.2954
▁macizo	-11.2954
▁expediciones	-11.2955
▁próximos	-11.2956
▁1913	-11.2957
▁desconocida	-11.2958
▁detenido	-11.2959
▁colima	-11.296
vest	-11.296
▁music	-11.2966
▁especialización	-11.2968
▁uu	-11.297
según	-11.297
línea	-11.2971
▁extienden	-11.2976
▁mover	-11.2977
▁minero	-11.2978
tónica	-11.2981
▁lóbulos	-11.2982
▁señalan	-11.2984
▁camina	-11.2987
▁clav	-11.2989
▁transportes	-11.2991
▁cuadri	-11.2994
▁reivindica	-11.2995
▁notar	-11.2995
▁darle	-11.2997
micro	-11.2999
▁cultivar	-11.3007
▁apreciar	-11.3019
▁ejes	-11.302
▁pirineos	-11.3021
▁acelerado	-11.3026
="12	-11.3028
▁preparado	-11.3029
▁modalidad	-11.3036
▁interesado	-11.3039
▁rub	-11.3041
▁característicos	-11.3041
▁permanecer	-11.3046
▁by	-11.305
▁estudiada	-11.3053
▁napoleón	-11.3053
▁causar	-11.3054
▁universales	-11.3054
▁reemplazado	-11.3056
▁formales	-11.3062
▁mina	-11.3067
▁creciendo	-11.3069
▁dragón	-11.3069
▁dramático	-11.3069
▁empírica	-11.3069
▁existió	-11.3069
▁giovanni	-11.3069
▁neutrón	-11.3069
▁respiración	-11.3069
▁sífilis	-11.3069
▁potosí	-11.3069
▁divinidad	-11.3069
▁potter	-11.3069
fanzine	-11.3069
▁tabaco	-11.3069
▁tensiones	-11.3069
▁ostenta	-11.307
▁estreno	-11.307
▁propaganda	-11.307
▁decidir	-11.3071
▁variadas	-11.3071
▁1951	-11.3072
▁etnia	-11.3073
▁alarga	-11.3076
▁explícitamente	-11.3077
dune	-11.3077
▁replica	-11.3077
▁citada	-11.3078
▁anteras	-11.3083
▁rasgo	-11.3083
▁pronunciación	-11.3084
▁introducida	-11.3084
▁orillas	-11.3086
▁mai	-11.3086
▁habermas	-11.3087
“	-11.3089
▁47	-11.3091
math	-11.3094
▁curvas	-11.3097
▁(8	-11.3097
éli	-11.3101
▁sy	-11.3104
▁orto	-11.3105
tándose	-11.3106
▁coloc	-11.3107
américa	-11.311
▁comparar	-11.3115
ilio	-11.3116
▁alcanzan	-11.3118
▁mariner	-11.312
▁titular	-11.312
▁enfoques	-11.3123
▁arc	-11.3125
▁lingüísticas	-11.3127
▁ocurren	-11.3135
▁documentado	-11.3135
ref	-11.3141
▁kar	-11.3142
▁temporales	-11.3143
▁reemplazar	-11.3151
▁terror	-11.3154
▁óxido	-11.3155
▁borra	-11.3158
dillo	-11.3161
▁importa	-11.3165
▁preguntas	-11.3165
▁terapia	-11.3167
▁judiciales	-11.3167
▁mayoritaria	-11.3169
termina	-11.3169
▁sentidos	-11.3171
▁mill	-11.3172
▁ji	-11.3179
▁fermenta	-11.318
▁originado	-11.3181
▁punt	-11.3188
▁asteroide	-11.3188
▁canciller	-11.3188
▁cúbico	-11.3188
▁excelencia	-11.3188
▁existido	-11.3188
▁explosión	-11.3188
▁guayaquil	-11.3188
▁metropolitano	-11.3188
▁rapidez	-11.3188
▁rechazó	-11.3188
▁transcurso	-11.3188
▁abandono	-11.3188
▁catorce	-11.3188
▁perianto	-11.3188
▁simboliza	-11.3188
▁neruda	-11.3188
▁santuario	-11.3189
▁microprocesador	-11.3189
reggae	-11.3189
▁aprobar	-11.3189
▁funcionarios	-11.3191
▁sentir	-11.3192
▁festivo	-11.3193
▁plantarum	-11.3194
▁estabiliza	-11.3194
así	-11.3195
▁cría	-11.3195
▁bay	-11.3196
▁viajeros	-11.3198
▁ubican	-11.3201
▁atrapa	-11.3202
▁episodio	-11.3203
▁acontecimiento	-11.3204
▁cromosoma	-11.3204
▁dividirse	-11.3204
▁favorable	-11.3206
▁biológico	-11.3207
▁noventa	-11.3208
▁especificación	-11.3208
▁enfrentamiento	-11.3209
▁pío	-11.3216
▁congela	-11.3218
fried	-11.3221
ith	-11.3223
▁gem	-11.3225
▁enseñar	-11.3225
▁reca	-11.323
▁danzas	-11.323
▁mentales	-11.3233
químicos	-11.3237
▁incorporado	-11.3238
▁magnéticos	-11.3241
▁binarios	-11.3247
▁urbe	-11.3249
mut	-11.3251
▁débiles	-11.3253
primera	-11.3269
capa	-11.3275
▁ritual	-11.3275
▁(11	-11.3283
pón	-11.3287
▁creían	-11.329
▁templ	-11.3295
opsis	-11.3296
▁británicas	-11.3298
gráficos	-11.3299
▁disponen	-11.3301
plica	-11.3304
▁case	-11.3307
▁adyacente	-11.3309
▁candidatura	-11.3309
▁desconoce	-11.3309
▁disponibilidad	-11.3309
▁esplendor	-11.3309
▁folclórica	-11.3309
▁legislatura	-11.3309
▁mallorca	-11.3309
▁nicaragüense	-11.3309
▁polígono	-11.3309
▁rodrigo	-11.3309
▁turquía	-11.3309
▁sobrevivir	-11.3309
▁túnel	-11.3309
▁oceánica	-11.3309
▁perfeccion	-11.3309
▁ártico	-11.3309
▁cementerio	-11.3309
▁sanitario	-11.3309
▁cuello	-11.3309
▁corregir	-11.3309
▁adulta	-11.331
enses	-11.331
▁cargos	-11.331
▁afines	-11.3311
▁significados	-11.3311
▁muere	-11.3312
▁roger	-11.3315
▁ratón	-11.3315
▁helen	-11.3316
▁1833	-11.3318
▁reglamento	-11.3318
▁bau	-11.3319
▁multiplicación	-11.3323
rog	-11.3324
▁incidente	-11.3324
▁delgada	-11.3326
▁manuscrito	-11.3327
▁alumno	-11.3328
▁inserta	-11.3329
▁milán	-11.3331
principalmente	-11.3331
terapia	-11.3332
chen	-11.3332
=12	-11.3333
▁basta	-11.3336
▁naranja	-11.3338
▁"«	-11.3338
▁profundos	-11.3346
mono	-11.3346
oto	-11.3347
▁creados	-11.3349
▁frías	-11.3351
ford	-11.3351
▁siria	-11.3355
▁pardo	-11.3357
▁sé	-11.3357
-200	-11.3371
▁periféricos	-11.3373
▁rap	-11.3379
▁comprobar	-11.338
▁brácteas	-11.3383
▁universitarios	-11.3383
▁pollo	-11.3386
12)	-11.3387
carga	-11.3389
▁baila	-11.339
▁diferencian	-11.339
▁inform	-11.3392
▁discípulos	-11.3393
▁cumplen	-11.3393
▁forestal	-11.3397
▁representados	-11.3398
▁select	-11.3401
▁galaxias	-11.3402
▁coinciden	-11.3402
base	-11.3404
▁cela	-11.3406
▁4000	-11.3413
▁59	-11.3417
▁perfecta	-11.3418
▁nazis	-11.3427
▁externas	-11.3427
émi	-11.3428
tab	-11.3428
▁1800	-11.3428
▁apropiado	-11.3431
▁autóctona	-11.3431
▁azufre	-11.3431
▁bañeza	-11.3431
▁cláusula	-11.3431
▁exclusivo	-11.3431
▁incorporó	-11.3431
▁influyó	-11.3431
▁isidoro	-11.3431
▁nosotros	-11.3431
▁predecesor	-11.3431
▁recibía	-11.3431
▁rectángulo	-11.3431
▁apogeo	-11.3431
▁errónea	-11.3431
▁virrey	-11.3431
▁contribuido	-11.3431
▁alergia	-11.3431
▁gaseoso	-11.3431
▁sedimentos	-11.3431
▁moderado	-11.3431
▁sufijo	-11.3432
▁desastre	-11.3433
▁1907	-11.3433
▁pascua	-11.3433
▁hegel	-11.3433
▁centroamérica	-11.3434
▁redujo	-11.3435
▁publicidad	-11.3436
tuoso	-11.3437
▁compilación	-11.3439
▁xii	-11.3441
▁aplican	-11.3441
▁danés	-11.3441
uk	-11.3441
_8	-11.3441
▁cerrar	-11.3443
▁destinados	-11.3443
▁inclinación	-11.3443
▁pintó	-11.3444
milla	-11.3444
▁medina	-11.3446
▁royal	-11.3447
0%	-11.3448
▁precursor	-11.3448
▁protegido	-11.3452
▁videojuego	-11.3453
▁usd	-11.3454
▁128	-11.3455
▁grabar	-11.3458
▁logros	-11.3459
▁breton	-11.3461
▁dulces	-11.3461
▁epístola	-11.3467
▁pesetas	-11.3469
▁tenis	-11.3471
ky	-11.3471
daceae	-11.3472
▁comprimidas	-11.3478
▁señalado	-11.3481
▁seguían	-11.3484
▁1200	-11.3486
▁plate	-11.3488
▁venía	-11.3499
td	-11.3503
▁dispara	-11.3504
▁sw	-11.3506
▁pesa	-11.3509
▁conocía	-11.351
ive	-11.3513
▁vectorial	-11.3521
▁long	-11.3521
▁proporcion	-11.3522
ugh	-11.3528
▁conservador	-11.3528
▁privilegios	-11.3535
▁soma	-11.3537
▁nodos	-11.3539
▁sospecha	-11.3539
▁progresiva	-11.3542
▁procariotas	-11.3546
gg	-11.3547
▁valde	-11.355
▁celtas	-11.355
apo	-11.3553
▁costeras	-11.3554
▁biodiversidad	-11.3554
▁calderón	-11.3554
▁homónima	-11.3554
▁imprescindible	-11.3554
▁incertidumbre	-11.3554
▁inestabilidad	-11.3554
▁jurisdicción	-11.3554
▁jesuita	-11.3554
▁silencio	-11.3554
▁cabildo	-11.3554
▁diciendo	-11.3554
▁henares	-11.3554
▁sanitaria	-11.3554
▁hernández	-11.3554
▁referido	-11.3554
▁certificado	-11.3555
▁botella	-11.3555
▁facto	-11.3555
▁desembocadura	-11.3555
▁xvii	-11.3556
▁amazonas	-11.3557
▁reiter	-11.3557
▁dieci	-11.3558
▁1915	-11.3558
▁tangente	-11.3559
▁sobrepasa	-11.3562
▁valiosa	-11.3563
▁clero	-11.3565
▁christian	-11.3565
▁satisfacer	-11.3567
▁horn	-11.357
▁imitación	-11.3571
▁basaba	-11.3571
▁matar	-11.3573
▁desencadena	-11.3573
▁tajo	-11.3573
posiciones	-11.3574
▁refut	-11.3579
▁lagunas	-11.3579
▁budista	-11.3581
▁leonesa	-11.3581
▁gau	-11.3583
▁producidas	-11.3583
electromagnético	-11.3583
more	-11.3584
eau	-11.3586
▁influyentes	-11.3587
juan	-11.3589
▁precedentes	-11.359
▁nativa	-11.359
▁dual	-11.359
▁dedicadas	-11.3597
▁propicia	-11.3606
actividad	-11.3609
▁emiten	-11.361
▁alcanzando	-11.3614
▁romances	-11.3614
triz	-11.3615
gul	-11.3616
▁personalidades	-11.3628
▁imponer	-11.363
▁gol	-11.3632
▁difiere	-11.3635
▁supuesta	-11.3637
▁sentimientos	-11.3638
▁lateral	-11.364
▁feudal	-11.3643
nota	-11.3643
solo	-11.3645
▁textil	-11.3646
▁bautiz	-11.3649
alia	-11.3655
sub	-11.3659
▁proc	-11.3662
▁saca	-11.3662
▁haría	-11.3665
▁tej	-11.3666
▁inviernos	-11.3667
▁basi	-11.3667
▁usual	-11.3668
mental	-11.3671
▁véase	-11.3673
▁generador	-11.3673
▁neutral	-11.3674
▁torneos	-11.3674
▁acostumbra	-11.3679
▁antecesor	-11.3679
▁aparecía	-11.3679
▁béisbol	-11.3679
▁estableciendo	-11.3679
▁estuviera	-11.3679
▁fantasía	-11.3679
▁fujimori	-11.3679
▁madrileña	-11.3679
▁minúscula	-11.3679
▁pedúnculo	-11.3679
▁prohibición	-11.3679
▁recibida	-11.3679
▁transcripción	-11.3679
▁violenta	-11.3679
▁idéntico	-11.3679
▁sufrimiento	-11.3679
▁jueces	-11.3679
▁dispuestas	-11.3679
▁deberían	-11.3679
▁sudamericano	-11.3679
▁cálida	-11.3679
▁sensación	-11.368
zur	-11.368
▁sindicato	-11.368
▁deficiencia	-11.368
▁prioridad	-11.368
▁longitudinal	-11.368
▁espiga	-11.3681
▁informáticos	-11.3682
▁étnicos	-11.3685
▁implantación	-11.3685
▁honda	-11.3689
▁recto	-11.369
▁berg	-11.369
▁reporta	-11.369
▁arcaico	-11.3692
▁admit	-11.3692
▁emigración	-11.3693
▁relativas	-11.3694
▁estimaciones	-11.3698
▁1830	-11.3698
▁cálidos	-11.3698
▁rivera	-11.37
▁cereales	-11.3702
▁mixto	-11.3702
constitu	-11.3706
▁tarjeta	-11.3707
▁segmento	-11.3707
▁concede	-11.3707
▁asunto	-11.3707
▁buque	-11.371
▁54	-11.3711
▁regularmente	-11.3712
▁especializado	-11.3717
reino	-11.3718
landés	-11.3718
▁manejar	-11.3718
ianas	-11.3722
▁sinónimos	-11.3728
▁cubren	-11.3728
uto	-11.3732
▁abogado	-11.3741
▁greco	-11.3743
▁cristales	-11.3752
▁enfoca	-11.3752
thumb	-11.3753
▁dependientes	-11.3754
▁evoluciona	-11.3754
▁propici	-11.3755
▁curs	-11.3755
idiendo	-11.3765
▁contribuyen	-11.377
▁mark	-11.377
▁fila	-11.3771
▁harry	-11.3773
▁magnitudes	-11.3781
▁dicen	-11.3781
▁paralelos	-11.3788
ítico	-11.379
▁biológicos	-11.3793
▁continúan	-11.3796
▁camp	-11.3797
▁diversifica	-11.3797
▁recibie	-11.3797
▁héroes	-11.3798
▁adquisición	-11.3806
▁balonmano	-11.3806
▁desempeño	-11.3806
▁didáctica	-11.3806
▁distribuciones	-11.3806
▁existiendo	-11.3806
▁financiación	-11.3806
▁jerónimo	-11.3806
▁limpieza	-11.3806
▁prohibido	-11.3806
▁aparecido	-11.3806
▁asemeja	-11.3806
▁hadrones	-11.3806
▁métrico	-11.3806
▁panteón	-11.3806
▁adelanta	-11.3806
▁mendoza	-11.3806
▁tiendas	-11.3806
▁viviente	-11.3806
▁muerta	-11.3806
▁forzado	-11.3806
▁wolf	-11.3806
▁edifica	-11.3807
▁elegida	-11.3807
▁diagrama	-11.3807
▁compacto	-11.3807
▁requería	-11.3808
▁enuncia	-11.3808
▁biosfera	-11.3808
▁recolección	-11.3808
▁1943	-11.3808
▁chicago	-11.3809
▁gimp	-11.381
▁cabello	-11.381
▁encabezado	-11.3811
▁admira	-11.3813
▁iluminación	-11.3813
▁ordenamiento	-11.3815
▁1821	-11.3818
tratado	-11.3821
▁gobernantes	-11.3821
enberg	-11.3821
▁patio	-11.3823
▁dosis	-11.3823
▁enciclopedia	-11.3825
▁cajal	-11.3829
▁66	-11.3833
▁paralelas	-11.3835
▁decenas	-11.3835
▁galaxia	-11.3837
▁fruta	-11.3838
▁130	-11.384
▁will	-11.3843
▁obtenidos	-11.3845
▁gracia	-11.3848
consider	-11.3848
▁tecnológicos	-11.3854
▁mueven	-11.3857
▁levaduras	-11.3859
▁seguros	-11.3859
▁distribuidos	-11.3864
▁caballos	-11.3865
▁decimales	-11.3869
▁respectivos	-11.3875
▁empleando	-11.3878
▁terminado	-11.388
▁trenes	-11.3887
▁generada	-11.3891
▁sn	-11.3893
png	-11.3895
primer	-11.3904
▁ira	-11.3909
imi	-11.3911
▁gan	-11.3914
▁agregado	-11.3916
▁titul	-11.392
▁ej	-11.3921
▁enormes	-11.3923
▁deberá	-11.3924
▁fundamentos	-11.3928
jada	-11.393
soci	-11.3932
("	-11.3932
▁carabobo	-11.3934
▁exclusión	-11.3934
▁kuiper	-11.3934
▁numeración	-11.3934
▁péndulo	-11.3934
▁reconstruir	-11.3934
▁respecta	-11.3934
▁toponimia	-11.3934
▁voltaje	-11.3934
▁comunismo	-11.3934
▁intestino	-11.3934
▁jaime	-11.3934
▁oxford	-11.3934
▁generó	-11.3934
▁ascii	-11.3934
▁schuman	-11.3934
▁paleolítico	-11.3935
▁riego	-11.3936
▁ganancia	-11.3936
▁reseña	-11.3936
▁rumbo	-11.3937
▁tío	-11.3938
bf	-11.3939
▁aceleradores	-11.394
▁peregrinación	-11.394
▁relativos	-11.3941
▁1916	-11.3941
lete	-11.3943
▁dorada	-11.3943
▁lidia	-11.3946
funcion	-11.3946
▁destacada	-11.3946
▁automáticamente	-11.3946
▁ornamentales	-11.3949
▁brillantes	-11.3952
bón	-11.3953
plu	-11.3953
▁otan	-11.3953
quia	-11.3956
izarse	-11.3962
▁murallas	-11.3963
juego	-11.3964
atómico	-11.3964
blanca	-11.3965
mud	-11.3966
cefal	-11.3967
▁cifrado	-11.3968
▁definirse	-11.3969
▁laderas	-11.3969
grupo	-11.397
▁llano	-11.397
▁natur	-11.3974
▁aprovechar	-11.3974
▁cambiando	-11.3975
▁operan	-11.3976
▁unida	-11.3976
teoría	-11.3976
▁tumores	-11.3977
▁avanzados	-11.3979
▁axón	-11.3979
▁comprob	-11.3982
cker	-11.3986
▁restringido	-11.3987
▁representando	-11.3994
cepción	-11.3998
▁libremente	-11.4
▁dolores	-11.4
▁vínculos	-11.4003
▁basales	-11.4004
▁compartido	-11.4005
▁concentrado	-11.4007
pita	-11.4007
bc	-11.4008
bru	-11.4015
mini	-11.4016
▁escucha	-11.4017
etano	-11.4021
▁gold	-11.4031
mida	-11.4032
gramo	-11.4033
▁pauli	-11.4035
▁mand	-11.4041
▁priori	-11.4043
▁impulsado	-11.4043
▁taller	-11.4048
▁ken	-11.4049
▁tubos	-11.405
▁explorador	-11.4054
_11	-11.4058
opus	-11.4058
▁sanidad	-11.406
▁ingenio	-11.406
▁pulgadas	-11.4063
desambiguación	-11.4064
▁cilindro	-11.4064
▁cinematográfico	-11.4064
▁cárcel	-11.4064
▁cúpula	-11.4064
▁descubre	-11.4064
▁filipinas	-11.4064
▁ofrecía	-11.4064
▁prefiere	-11.4064
▁productividad	-11.4064
▁somáticos	-11.4064
▁bruselas	-11.4064
▁destruir	-11.4064
▁solubilidad	-11.4064
▁volátil	-11.4064
▁discreta	-11.4064
▁fortalec	-11.4064
▁tormenta	-11.4064
▁prisión	-11.4064
textual	-11.4064
▁románica	-11.4064
▁brown	-11.4064
▁fracasa	-11.4064
▁merece	-11.4065
▁unamuno	-11.4065
▁homero	-11.4065
▁perfora	-11.4065
▁concejo	-11.4066
▁impuso	-11.4067
▁instante	-11.4071
▁interferencia	-11.4071
▁1895	-11.4075
▁dominada	-11.4076
▁manipulación	-11.4077
▁1870	-11.4077
▁necesitaba	-11.4078
▁molina	-11.4079
▁sesiones	-11.4079
▁gradual	-11.4081
▁java	-11.4084
▁presidi	-11.4085
▁extranjeras	-11.4086
▁expresado	-11.4086
▁estatales	-11.4091
▁hemos	-11.4092
padre	-11.4098
programa	-11.41
▁fisi	-11.4101
▁egipcio	-11.4101
▁sacerdote	-11.4102
▁isótopo	-11.4102
▁alrededores	-11.4102
▁suaves	-11.4102
http	-11.4103
caso	-11.4104
▁superado	-11.4106
▁hito	-11.4108
umbra	-11.4109
▁apartado	-11.411
▁protesta	-11.4115
iego	-11.4118
quiso	-11.412
▁aplicable	-11.4122
▁abad	-11.4122
▁ceremonial	-11.4128
proto	-11.4132
▁sueca	-11.4139
▁atraer	-11.4139
▁marie	-11.4143
▁significaba	-11.4145
nik	-11.415
ware	-11.4152
▁asignado	-11.4154
▁termo	-11.4157
▁orbita	-11.4159
▁mares	-11.4159
hasta	-11.4166
▁pica	-11.4166
▁labores	-11.417
▁sujetos	-11.417
▁conectar	-11.4173
▁67	-11.4177
▁fragment	-11.4178
▁visitado	-11.4178
▁galia	-11.4179
▁enfrentamientos	-11.4179
▁inmediata	-11.4183
▁austral	-11.4189
▁módulos	-11.4191
▁river	-11.4193
descendiente	-11.4193
▁alcohólica	-11.4196
▁arquitectónica	-11.4196
▁ascendencia	-11.4196
▁bilingüe	-11.4196
▁convirtiendo	-11.4196
▁desafío	-11.4196
▁descendencia	-11.4196
▁gibraltar	-11.4196
▁ludwig	-11.4196
▁monetaria	-11.4196
▁mozilla	-11.4196
▁producciones	-11.4196
▁vuelto	-11.4196
▁retablo	-11.4196
▁cuantifica	-11.4196
▁hembra	-11.4196
▁oceánico	-11.4196
▁óscar	-11.4196
▁veracruz	-11.4196
▁antepasados	-11.4196
▁calzada	-11.4196
▁ayudan	-11.4196
▁merced	-11.4196
▁suspendi	-11.4196
▁topografía	-11.4196
▁maduro	-11.4196
▁asesor	-11.4197
▁constituía	-11.4197
▁aviación	-11.4197
▁1908	-11.4198
▁1942	-11.4199
▁1957	-11.4199
▁opta	-11.4199
▁quién	-11.4199
▁cancel	-11.42
▁walter	-11.42
▁arcilla	-11.4202
▁1824	-11.4207
▁conjuntamente	-11.4207
▁lateralmente	-11.4209
ticismo	-11.4209
▁florida	-11.4212
▁paralelamente	-11.4212
▁yarda	-11.4215
▁festividades	-11.4219
roman	-11.422
▁nilo	-11.4221
▁veneno	-11.4222
▁cuna	-11.4225
▁ordenadas	-11.4227
▁bacteriana	-11.423
▁riesgos	-11.4231
▁participaron	-11.4232
▁masculinas	-11.4232
ume	-11.4235
▁american	-11.4236
▁discípulo	-11.4237
▁adulto	-11.4237
▁sublevado	-11.4238
▁edades	-11.424
()	-11.424
▁predicado	-11.424
kara	-11.4241
espacio	-11.4245
▁descubiertos	-11.4245
▁mayas	-11.4246
▁dominar	-11.4253
▁juez	-11.4253
▁obligados	-11.4255
▁visitas	-11.4256
estados	-11.4258
frac	-11.4259
▁variados	-11.426
▁federales	-11.4264
▁caracterizada	-11.427
▁gato	-11.4271
▁comparado	-11.4271
▁buscan	-11.4273
▁goberna	-11.4274
▁lingüísticos	-11.4274
▁reforz	-11.4275
▁patentes	-11.4275
▁incorporar	-11.4281
▁practicar	-11.4281
▁antoni	-11.4283
▁reunió	-11.4285
eiro	-11.429
▁educativos	-11.4293
▁inst	-11.4295
▁retrato	-11.43
▁arca	-11.431
▁afirmar	-11.4311
ound	-11.4312
▁permaneci	-11.4313
▁compatibles	-11.4314
▁administrativas	-11.4316
glu	-11.4316
▁negras	-11.4317
▁mayormente	-11.432
▁centenar	-11.4328
▁restablec	-11.4329
▁accesible	-11.4329
▁correspondía	-11.4329
▁epidemia	-11.4329
▁pleistoceno	-11.4329
▁promueve	-11.4329
▁refiriéndose	-11.4329
▁reputación	-11.4329
▁sentimental	-11.4329
▁desciende	-11.4329
▁monetario	-11.4329
▁lírica	-11.4329
▁exitoso	-11.4329
▁legión	-11.4329
▁hidroeléctrica	-11.4329
▁ideológica	-11.4329
▁cronología	-11.4329
▁emilio	-11.433
▁contenida	-11.433
▁ballet	-11.433
▁repite	-11.4331
▁pluri	-11.4331
▁moreno	-11.4332
▁garay	-11.4332
▁expandir	-11.4335
▁ionización	-11.4335
▁batería	-11.4336
▁1896	-11.434
▁cuadra	-11.4342
▁típicas	-11.4342
▁compila	-11.4342
▁emergente	-11.4344
life	-11.4344
▁cabra	-11.4345
▁imaginario	-11.4345
▁pasteur	-11.4348
▁novelista	-11.4351
▁aparatos	-11.4352
foro	-11.4354
▁explicaciones	-11.4354
▁interpretada	-11.4358
▁colocar	-11.4362
física	-11.4364
cillo	-11.4365
nuevo	-11.4365
▁vectoriales	-11.4366
▁niña	-11.4368
costa	-11.4371
▁sentimiento	-11.4373
mín	-11.4375
▁mínimas	-11.4376
▁if	-11.4379
gine	-11.4381
▁robot	-11.4382
▁trasladado	-11.439
▁novel	-11.4391
▁explorar	-11.4393
▁romp	-11.4393
▁invento	-11.4395
▁hostil	-11.4396
▁inventor	-11.4398
muestran	-11.4405
urus	-11.4408
▁cord	-11.4409
▁rompe	-11.4415
▁tanque	-11.4415
▁ferrocarriles	-11.4421
▁retratos	-11.4422
▁rayo	-11.4425
▁éstas	-11.4426
indoeuropeo	-11.4428
tización	-11.4428
▁rab	-11.4434
error	-11.4434
▁espirituales	-11.4435
▁gráficas	-11.4435
▁gradu	-11.4436
vor	-11.4446
▁olor	-11.4447
▁favorables	-11.4447
▁lie	-11.4454
▁medido	-11.4458
▁julia	-11.4459
db	-11.4461
▁generalizada	-11.4463
▁adolescente	-11.4464
▁atapuerca	-11.4464
▁celsius	-11.4464
▁exactitud	-11.4464
▁integridad	-11.4464
▁intrínseca	-11.4464
▁olimpo	-11.4464
▁olmeca	-11.4464
▁cartografía	-11.4464
▁fascista	-11.4464
▁tectónica	-11.4464
▁emitir	-11.4464
▁triunfa	-11.4464
▁scott	-11.4464
▁flagelo	-11.4464
▁leonés	-11.4464
▁planteó	-11.4464
▁rizoma	-11.4464
▁homosexual	-11.4464
▁escaños	-11.4464
▁secuela	-11.4464
▁embarca	-11.4464
▁maxwell	-11.4464
▁bulbo	-11.4465
▁murieron	-11.4465
▁remoto	-11.4465
▁señorío	-11.4465
▁asedio	-11.4467
▁criticado	-11.4469
ésimo	-11.447
▁biológicas	-11.4471
▁talento	-11.4472
▁rostro	-11.4473
▁gott	-11.4473
▁justa	-11.4475
▁económicamente	-11.4475
▁gps	-11.4476
▁aportes	-11.448
▁cruzadas	-11.4483
▁narración	-11.4484
▁fundaron	-11.4486
▁auxiliares	-11.4488
▁minorías	-11.4488
ividad	-11.4488
fosfato	-11.4489
▁recita	-11.4496
▁160	-11.4497
▁precursores	-11.4501
▁serna	-11.4502
▁ordenación	-11.4502
0000	-11.4505
▁rechazado	-11.4506
ófila	-11.451
xia	-11.4511
▁examina	-11.452
▁lope	-11.4522
▁investigar	-11.4523
▁emple	-11.4525
ifera	-11.4525
▁virtudes	-11.4531
▁decirse	-11.4533
▁cost	-11.4535
string	-11.4538
▁boda	-11.4542
▁mah	-11.4549
▁construye	-11.455
-&	-11.4551
▁ofrecie	-11.4553
lejo	-11.4553
▁laboratorios	-11.4554
▁productora	-11.4556
enio	-11.456
▁parroquias	-11.4561
])	-11.4562
▁pozo	-11.457
genes	-11.4572
rag	-11.4576
▁protegidos	-11.4578
▁nativas	-11.4579
▁coll	-11.458
▁2,5	-11.4588
▁indio	-11.4588
▁roman	-11.459
▁estructurales	-11.459
-11	-11.4591
▁automática	-11.4591
antí	-11.4591
▁expuls	-11.4591
▁exhibi	-11.4592
▁cátedra	-11.4601
▁discurre	-11.4601
▁epopeya	-11.4601
▁excavaciones	-11.4601
▁hobbit	-11.4601
▁juzgado	-11.4601
▁lorentz	-11.4601
▁manifestó	-11.4601
▁objetiva	-11.4601
▁wolfgang	-11.4601
▁claude	-11.4601
▁renovación	-11.4601
▁flecha	-11.4601
▁gamma	-11.4601
▁circundante	-11.4601
obteniendo	-11.4601
▁vergara	-11.4601
▁decisiva	-11.4601
▁boole	-11.4601
▁conspiración	-11.4601
▁circunscripción	-11.4601
▁hispánica	-11.4601
▁dónde	-11.4601
▁innovador	-11.4601
▁resultan	-11.4601
▁navarro	-11.4602
▁pensó	-11.4602
▁expresidente	-11.4602
▁coníferas	-11.4603
▁wilder	-11.4603
▁raquilla	-11.4603
▁algodón	-11.4604
▁germina	-11.4605
▁florencia	-11.4607
▁polinización	-11.4607
▁sostenible	-11.4608
pasaron	-11.4609
▁risc	-11.4613
▁110	-11.4613
▁identifican	-11.4617
▁itera	-11.4621
cesión	-11.4625
▁1810	-11.4625
poder	-11.4627
▁ilustrado	-11.4634
8000	-11.4637
óxido	-11.4642
▁influenciada	-11.4642
▁décimo	-11.4642
=6	-11.4645
▁activamente	-11.4646
▁limpia	-11.4648
=9	-11.4652
▁soviético	-11.4653
▁altar	-11.4654
▁pastos	-11.4659
▁pilar	-11.4659
eína	-11.4661
▁protegidas	-11.4662
▁interfaces	-11.4663
▁detallado	-11.4665
china	-11.4668
▁llamarse	-11.4669
▁oración	-11.467
▁directores	-11.4677
▁muros	-11.4677
600	-11.4683
▁sales	-11.4683
▁distribuye	-11.4685
▁detener	-11.4686
libre	-11.4687
▁sufre	-11.4687
▁conservadora	-11.4689
anqui	-11.4689
▁escenarios	-11.469
▁desaparecer	-11.4691
▁liderado	-11.4692
▁condenado	-11.4693
▁transmite	-11.4696
▁supra	-11.4696
tag	-11.4697
▁separan	-11.4704
▁fértil	-11.4706
▁automóvil	-11.4706
▁apóstol	-11.4706
fluor	-11.4709
▁carlista	-11.4709
▁usaron	-11.4718
▁lanzada	-11.4718
fus	-11.4719
▁cit	-11.4719
implementaciones	-11.4725
▁fabricado	-11.4729
▁originan	-11.4732
▁vuelven	-11.4734
▁francesc	-11.4737
▁fundar	-11.4737
▁abstracta	-11.474
▁alzheimer	-11.474
▁antipartícula	-11.474
▁aristotélica	-11.474
▁cognitiva	-11.474
▁consiguieron	-11.474
▁guzmán	-11.474
▁hindú	-11.474
▁izquierdo	-11.474
▁leonardo	-11.474
▁líquida	-11.474
▁octava	-11.474
▁proclamó	-11.474
▁recompensa	-11.474
▁súpero	-11.474
▁transparencia	-11.474
▁táctica	-11.474
▁ucrania	-11.474
▁washington	-11.474
▁jamaica	-11.474
▁volcanes	-11.474
▁ávila	-11.474
▁violento	-11.474
▁productivo	-11.474
▁viernes	-11.474
▁historieta	-11.474
▁huelga	-11.474
▁prostituta	-11.474
▁impedir	-11.474
▁tablero	-11.474
▁cacao	-11.474
▁hiciera	-11.474
▁hidrografía	-11.4741
▁ficheros	-11.4741
▁vasos	-11.4743
▁romero	-11.4743
▁expuesta	-11.4744
folk	-11.4744
▁votación	-11.4744
▁emisoras	-11.4745
▁abuso	-11.4747
▁xviii	-11.4747
▁contraposición	-11.4748
▁azúcares	-11.4749
bier	-11.4754
▁spe	-11.4756
ture	-11.4758
ifi	-11.4759
▁coincidie	-11.4763
off	-11.4763
▁combinar	-11.4765
thé	-11.4771
▁portador	-11.4772
▁obreros	-11.4774
▁soria	-11.478
diccionario	-11.4781
▁persistentes	-11.4786
fito	-11.4789
▁aloja	-11.479
▁practican	-11.479
▁estimada	-11.4792
topo	-11.4792
▁antiguamente	-11.4793
ponerse	-11.4797
▁testigo	-11.4797
direct	-11.4798
▁emil	-11.48
▁ópticos	-11.48
▁infra	-11.4801
nsamente	-11.4804
gm	-11.4805
▁horario	-11.4807
box	-11.4815
▁opuestos	-11.482
50)	-11.4821
▁monasterios	-11.4822
▁calificado	-11.4822
▁ganglios	-11.4826
▁soviéticos	-11.4828
▁recorri	-11.4828
▁suceso	-11.4829
roz	-11.4831
▁radicales	-11.4833
jero	-11.4834
▁caballeros	-11.4836
90)	-11.4849
▁poblados	-11.4849
▁administra	-11.4852
▁paris	-11.4853
▁kant	-11.4862
▁episodios	-11.4863
▁kim	-11.4865
▁realizarse	-11.4866
▁rou	-11.4872
▁cretácico	-11.4881
▁análoga	-11.4881
▁bartolomé	-11.4881
▁bélico	-11.4881
▁corporación	-11.4881
▁economista	-11.4881
▁group	-11.4881
▁húngaro	-11.4881
▁inspiró	-11.4881
▁luminosidad	-11.4881
▁medicamentos	-11.4881
▁movilidad	-11.4881
▁susceptible	-11.4881
▁tépalos	-11.4881
▁platillos	-11.4881
▁descartes	-11.4881
▁inmortal	-11.4881
▁prevenir	-11.4881
▁inmaterial	-11.4881
▁mayoritario	-11.4881
bióticos	-11.4881
▁profeta	-11.4881
▁frijol	-11.4881
▁desigualdad	-11.4881
▁elefante	-11.4881
▁marginal	-11.4881
▁vestido	-11.4881
▁atribuida	-11.4881
▁matanza	-11.4882
▁neolítico	-11.4882
▁ultramar	-11.4883
▁artesanos	-11.4884
▁miedo	-11.4884
▁constancia	-11.4888
▁chica	-11.4888
▁baños	-11.4888
▁1492	-11.4889
▁acercamiento	-11.4894
▁fraga	-11.4897
visi	-11.4898
▁daría	-11.4899
live	-11.4901
▁importar	-11.4904
▁conocemos	-11.4908
▁ritos	-11.4908
inven	-11.4914
▁cauce	-11.4914
▁fluye	-11.4914
▁alpes	-11.4915
▁murciano	-11.4915
▁hambre	-11.4919
▁polacos	-11.4919
▁transportar	-11.4919
hip	-11.4921
▁confusión	-11.4922
▁ceremonias	-11.4922
bona	-11.4923
materia	-11.4926
▁enormemente	-11.4928
▁fijado	-11.493
▁granja	-11.4931
▁prop	-11.4933
▁capítulos	-11.4935
▁pigmentos	-11.4936
▁flo	-11.4937
▁mitocondrias	-11.4939
igen	-11.494
▁subfamilias	-11.4941
▁ecosistema	-11.4942
doro	-11.4947
hei	-11.4947
▁jugo	-11.4949
▁aproximado	-11.4949
▁hogares	-11.495
mond	-11.4951
▁imparti	-11.4952
▁pisa	-11.4955
▁pasajes	-11.4955
▁hermanas	-11.496
▁ingres	-11.4964
▁soto	-11.4965
▁atrae	-11.4965
▁filosóficas	-11.4965
▁miden	-11.4978
▁tomate	-11.4983
▁fundadores	-11.4985
▁centrado	-11.4991
▁preserva	-11.5
▁misa	-11.5004
▁conjunta	-11.5011
▁tap	-11.5018
bodhisattva	-11.5024
▁aborígenes	-11.5024
▁agricultores	-11.5024
▁bogotá	-11.5024
▁carlomagno	-11.5024
▁digestivo	-11.5024
▁fotógrafo	-11.5024
▁incrementó	-11.5024
▁noruega	-11.5024
▁plinio	-11.5024
▁sanguíneo	-11.5024
▁solicitud	-11.5024
▁fonética	-11.5024
▁inventó	-11.5024
▁samuel	-11.5024
▁recogido	-11.5024
▁fortuna	-11.5024
▁ortega	-11.5024
▁termodinámica	-11.5024
▁cineasta	-11.5024
▁impresa	-11.5024
▁remota	-11.5024
▁atentado	-11.5025
▁maria	-11.5025
|[[	-11.5025
▁glabra	-11.5026
▁atraves	-11.5029
▁prólogo	-11.5029
-9	-11.503
▁eslavo	-11.5031
▁anciano	-11.5031
▁1898	-11.5033
▁agrupaciones	-11.5033
▁herrera	-11.5035
▁brazos	-11.5035
▁lesiones	-11.5035
▁choque	-11.5037
▁1600	-11.5037
▁kg	-11.5038
▁sacra	-11.5043
▁venera	-11.5046
▁kata	-11.5047
izaron	-11.5054
izando	-11.5054
▁pase	-11.5059
▁establecidas	-11.506
▁somete	-11.5062
▁adoptada	-11.5064
prueba	-11.5068
puerto	-11.5069
producto	-11.5072
potencia	-11.5072
▁anula	-11.5073
▁participado	-11.5073
▁datación	-11.508
prof	-11.5081
▁difundi	-11.5084
▁atacar	-11.5085
▁ausente	-11.5088
▁aislado	-11.5089
tilo	-11.5091
▁desarrollarse	-11.5093
▁larva	-11.5102
factor	-11.5103
▁ausentes	-11.5104
gé	-11.5112
hat	-11.5115
manuel	-11.5115
▁cesar	-11.5118
▁evaluar	-11.5125
just	-11.5125
▁nacionalismo	-11.5125
_13	-11.5127
ducción	-11.5129
▁may	-11.513
▁llanos	-11.5131
▁semiconductor	-11.5135
▁dólar	-11.5135
▁programador	-11.514
▁abrevia	-11.5143
▁dirigentes	-11.5145
▁siente	-11.5151
10)	-11.5156
quita	-11.5156
ppen	-11.5157
gy	-11.5157
▁comprar	-11.5157
▁obstáculos	-11.5159
▁ratific	-11.5163
▁afluentes	-11.5166
▁asumir	-11.5168
▁cadáver	-11.5169
▁déficit	-11.5169
▁ecuatoriano	-11.5169
▁heinrich	-11.5169
▁inorgánica	-11.5169
▁japoneses	-11.5169
▁lodículas	-11.5169
▁percusión	-11.5169
▁predicción	-11.5169
▁resurrección	-11.5169
▁rígida	-11.5169
▁sucesivamente	-11.5169
▁venezolana	-11.5169
▁vestigio	-11.5169
▁azteca	-11.5169
▁bíblico	-11.5169
▁certeza	-11.5169
▁espectacular	-11.5169
▁homínido	-11.5169
▁sostenía	-11.5169
▁terciario	-11.5169
▁criticó	-11.5169
▁semántica	-11.5169
▁embalse	-11.5169
▁asistir	-11.5169
▁asunción	-11.5169
▁sucedido	-11.5169
▁falange	-11.5169
▁suministra	-11.5169
▁incidencia	-11.5169
▁patriarca	-11.5169
▁distante	-11.517
▁artesanal	-11.517
▁sostener	-11.517
▁refería	-11.517
iii	-11.5171
▁renunció	-11.5171
▁neutralidad	-11.5172
ífera	-11.518
▁oscilación	-11.5184
▁inercia	-11.5185
▁corridas	-11.5186
▁extraer	-11.5187
▁cad	-11.5189
▁mostraron	-11.519
aut	-11.5192
▁([[	-11.5193
▁complementario	-11.5197
▁sometidos	-11.5198
▁enviada	-11.5201
▁circo	-11.5206
▁africanas	-11.5208
▁salen	-11.5208
▁rodean	-11.521
cientos	-11.5212
▁celebraron	-11.5212
bemos	-11.5212
arth	-11.5212
▁annan	-11.5215
▁phil	-11.5215
vían	-11.5216
llamado	-11.5217
ché	-11.5219
cava	-11.5219
arca	-11.5221
▁retina	-11.5226
▁complica	-11.5227
▁trato	-11.5229
eje	-11.5234
edicto	-11.5235
▁continuamente	-11.5236
▁vínculo	-11.5237
▁periférico	-11.5237
▁diputado	-11.5238
▁editores	-11.5239
▁huevo	-11.5239
super	-11.5242
santa	-11.5243
▁valen	-11.5244
alter	-11.5246
ioideae	-11.5247
ubicó	-11.5247
▁solitarias	-11.5251
▁importado	-11.5252
▁escapa	-11.5262
▁electorales	-11.5266
rique	-11.5268
▁centrada	-11.5268
▁generalizado	-11.527
todos	-11.5271
▁cantar	-11.5275
▁baya	-11.5278
minado	-11.5282
masa	-11.5285
▁libertades	-11.5292
▁literal	-11.5303
▁mutua	-11.5304
▁alejado	-11.5305
▁trayecto	-11.531
▁recetas	-11.5313
tira	-11.5314
monocotiledóneas	-11.5316
▁arreglo	-11.5316
▁federaciones	-11.5316
▁fármaco	-11.5316
▁gutiérrez	-11.5316
▁heráldico	-11.5316
▁historiografía	-11.5316
▁intrínseco	-11.5316
▁invasiones	-11.5316
▁lovecraft	-11.5316
▁mercantil	-11.5316
▁paulatinamente	-11.5316
▁pompeyo	-11.5316
▁rigurosa	-11.5316
▁trastornos	-11.5316
▁unisexuales	-11.5316
▁vocabulario	-11.5316
▁mesoamericano	-11.5316
▁divisor	-11.5316
▁análogo	-11.5316
▁zinc	-11.5316
▁gótica	-11.5316
▁arqueólogo	-11.5316
▁emociones	-11.5316
▁lombard	-11.5316
scendió	-11.5316
utopía	-11.5316
▁constantino	-11.5316
▁atender	-11.5316
▁unicode	-11.5316
▁axones	-11.5316
▁geógrafo	-11.5317
▁melilla	-11.5317
▁bala	-11.5319
▁1901	-11.5319
▁nicho	-11.532
▁tortura	-11.532
px	-11.532
▁quevedo	-11.5321
▁formulación	-11.5321
▁ssl	-11.5321
▁proliferación	-11.5321
▁mutación	-11.5321
vocó	-11.5322
camp	-11.5325
▁ingresa	-11.5326
▁pensado	-11.5326
▁cuidados	-11.5328
▁sacro	-11.5328
▁otto	-11.5331
▁agrupadas	-11.5331
▁preservar	-11.5332
▁arqueológicas	-11.5336
▁oponente	-11.5347
▁mural	-11.5348
0,1	-11.5351
▁pilotos	-11.5354
▁cera	-11.5358
▁operar	-11.536
▁hablaba	-11.536
quist	-11.5364
▁sql	-11.5364
histórico	-11.5365
punk	-11.5366
▁desaparece	-11.5367
imagen	-11.5369
▁compartida	-11.5373
planeta	-11.5376
▁dí	-11.5376
▁socialismo	-11.5376
haus	-11.5377
▁harina	-11.5378
▁cern	-11.538
▁efectuar	-11.538
▁morfológicos	-11.5382
▁dol	-11.5385
▁bella	-11.5386
▁pasaje	-11.5387
▁hallazgo	-11.5389
prime	-11.5396
ifa	-11.5397
▁aislados	-11.5398
0)	-11.5401
▁armados	-11.5401
rida	-11.5402
neuro	-11.5407
▁nano	-11.5407
gil	-11.541
▁haley	-11.541
▁habladas	-11.5411
fín	-11.5416
▁renovables	-11.5424
▁magna	-11.5431
▁gesto	-11.5437
▁milita	-11.5439
▁culmin	-11.5441
▁públicamente	-11.5443
▁estricta	-11.5452
▁ilumina	-11.5457
▁predominan	-11.546
▁salsa	-11.5461
▁alexander	-11.5465
▁anuncio	-11.5465
▁distribuir	-11.5465
▁elíptica	-11.5465
▁embajador	-11.5465
▁estípulas	-11.5465
▁galardonado	-11.5465
▁gravitación	-11.5465
▁hedonismo	-11.5465
▁huésped	-11.5465
▁jacques	-11.5465
▁progresivo	-11.5465
▁reemplazo	-11.5465
▁refugio	-11.5465
▁saskatchewan	-11.5465
▁stephen	-11.5465
▁sucesivos	-11.5465
▁vietnam	-11.5465
ándalus	-11.5465
▁bereber	-11.5465
▁palestina	-11.5465
▁apoyó	-11.5465
▁acuáticas	-11.5465
▁cinética	-11.5465
▁contribuir	-11.5465
ilíada	-11.5465
▁nevada	-11.5466
▁produzca	-11.5466
▁incompatible	-11.5466
▁campamento	-11.5466
▁marido	-11.5467
▁intervencion	-11.5467
▁evoca	-11.5467
▁niega	-11.5468
▁agregar	-11.5468
▁pensadores	-11.5468
▁pedir	-11.547
▁grab	-11.5471
▁triste	-11.5473
="20	-11.5474
▁dilata	-11.5478
▁habitación	-11.5478
▁postre	-11.5478
▁interactúan	-11.548
▁agrupados	-11.5482
▁mixta	-11.5483
▁efectivamente	-11.5483
▁segrega	-11.5487
salida	-11.5491
▁creta	-11.5491
▁narrativo	-11.5491
▁emperadores	-11.5495
▁actualización	-11.5497
▁lugo	-11.5502
▁qua	-11.5503
▁recuperado	-11.5507
▁orgánulos	-11.5512
ecido	-11.5514
▁representativos	-11.5515
cerebelo	-11.5517
tanto	-11.5517
siguiendo	-11.5517
▁contracción	-11.5518
elemento	-11.5518
▁escuchar	-11.552
▁salario	-11.5522
▁administrador	-11.5536
▁tomo	-11.5539
▁concesión	-11.5542
▁variado	-11.5543
▁orgánico	-11.5543
mosa	-11.5544
▁bordo	-11.5545
mira	-11.5545
polar	-11.5545
▁expresan	-11.5546
▁especializada	-11.5551
▁patente	-11.5551
▁filma	-11.5555
▁bares	-11.5556
▁punk	-11.5566
▁diploides	-11.5571
▁fijar	-11.5573
african	-11.5576
▁comando	-11.5577
▁defensor	-11.5583
zig	-11.5595
▁reflejado	-11.5601
▁saco	-11.5603
▁centímetros	-11.5603
▁vertebra	-11.5609
cordó	-11.5612
▁alérgica	-11.5616
▁autóctono	-11.5616
▁colaboró	-11.5616
▁cáceres	-11.5616
▁envejecimiento	-11.5616
▁extraordinario	-11.5616
▁güímar	-11.5616
▁impulsó	-11.5616
▁independentista	-11.5616
▁kandinski	-11.5616
▁madrileño	-11.5616
▁pamplona	-11.5616
▁panorama	-11.5616
▁ptolomeo	-11.5616
▁rítmica	-11.5616
▁solicitó	-11.5616
▁terminología	-11.5616
▁voleibol	-11.5616
▁chocolate	-11.5616
▁diagnostic	-11.5616
▁escocesa	-11.5616
▁nacieron	-11.5616
▁requerido	-11.5616
▁residual	-11.5616
▁arranque	-11.5616
▁manifestar	-11.5616
▁sombrero	-11.5616
▁aleatorio	-11.5616
▁olvidar	-11.5616
▁reveló	-11.5616
▁warner	-11.5616
cloruro	-11.5616
voyager	-11.5616
▁colisión	-11.5616
▁chamanes	-11.5616
▁claridad	-11.5616
▁emitido	-11.5616
▁concedido	-11.5617
▁rebelde	-11.5617
▁reparto	-11.5617
▁retraso	-11.5617
▁carecía	-11.5617
▁hispanoamérica	-11.5617
▁castigo	-11.5617
▁barranco	-11.5617
▁raquis	-11.5617
▁unitario	-11.5617
▁desnudo	-11.5618
▁cascada	-11.5618
▁1902	-11.5619
▁rigor	-11.5619
▁sexta	-11.5619
▁1909	-11.5619
▁redacción	-11.562
▁desuso	-11.5621
▁escribieron	-11.5621
hispan	-11.5622
▁demonio	-11.5622
▁inscripciones	-11.5624
▁indirectamente	-11.5624
▁archi	-11.5624
▁extraña	-11.5625
▁mongol	-11.5626
▁trunc	-11.5628
▁pesada	-11.5629
▁1808	-11.5629
▁cultivado	-11.5631
aceta	-11.5632
▁consolidación	-11.5637
▁afectar	-11.5639
ucci	-11.5641
▁fomentar	-11.5641
▁hormonas	-11.5645
▁metálicos	-11.5649
▁retorna	-11.5652
▁conquistadores	-11.5654
kg	-11.5662
lumin	-11.5665
▁investigador	-11.5665
▁impone	-11.5668
▁influyen	-11.5669
▁import	-11.5669
▁superficiales	-11.5671
▁silla	-11.5671
]].]]	-11.5671
país	-11.5673
▁rechazada	-11.5677
="28	-11.568
orient	-11.5684
▁potenciales	-11.5684
▁paridad	-11.5685
▁musa	-11.5688
▁rector	-11.569
▁convencionales	-11.5692
▁juegan	-11.5701
▁orbitador	-11.5701
▁moles	-11.5702
▁pato	-11.5714
▁conectan	-11.5717
▁cambian	-11.5717
▁creer	-11.5726
▁encamina	-11.5727
▁cuadrada	-11.5728
▁consume	-11.5731
▁colombiana	-11.5734
▁colocado	-11.5734
▁capturado	-11.5735
hoy	-11.5738
▁prometi	-11.5738
▁distribuido	-11.5739
▁71	-11.5741
▁concentran	-11.5742
▁axiomas	-11.5742
bsd	-11.5751
ull	-11.5751
▁chincha	-11.5753
greg	-11.576
liga	-11.576
▁subcultura	-11.5763
mmer	-11.5768
▁amplió	-11.577
▁atmosférico	-11.577
▁bicicleta	-11.577
▁conclusiones	-11.577
▁corporation	-11.577
▁ecuatoriana	-11.577
▁equinoccio	-11.577
▁estipula	-11.577
▁ethernet	-11.577
▁ferroviario	-11.577
▁lingüista	-11.577
▁micorriza	-11.577
▁negociaciones	-11.577
▁ofensiva	-11.577
▁rudolf	-11.577
▁science	-11.577
▁semejanza	-11.577
▁viceversa	-11.577
lanceolada	-11.577
▁disperso	-11.577
▁distintiva	-11.577
▁gratuito	-11.577
▁hubiese	-11.577
▁hungría	-11.577
▁invisible	-11.577
▁mancomunidad	-11.577
▁mérida	-11.577
▁perpendicular	-11.577
▁coloquial	-11.577
▁guayana	-11.577
▁portátil	-11.577
▁eminente	-11.577
▁fracciones	-11.577
▁concejal	-11.577
▁conjetura	-11.577
▁entendido	-11.577
▁promesa	-11.577
▁exhibe	-11.577
▁cadmio	-11.5771
▁ánimo	-11.5771
▁provenía	-11.5771
▁soluble	-11.5771
▁percibe	-11.5771
▁fotográfica	-11.5771
▁hidrográfica	-11.5771
▁subconjunto	-11.5771
▁deducir	-11.5772
▁terrorismo	-11.5774
▁señores	-11.5774
▁procesar	-11.5775
▁comunicado	-11.5778
▁perdura	-11.5778
▁cristalino	-11.578
▁oído	-11.578
▁moverse	-11.5782
▁nutrición	-11.5782
éri	-11.5782
▁relacionan	-11.5784
▁préstamos	-11.5785
▁declaraciones	-11.5785
▁alude	-11.5787
▁peligroso	-11.5788
▁cartago	-11.579
ónimo	-11.579
ílico	-11.5791
▁consultar	-11.5793
iño	-11.5793
▁partió	-11.5797
▁jones	-11.5797
disc	-11.5803
▁dispuestos	-11.5814
▁modalidades	-11.5815
▁mate	-11.5815
▁computa	-11.582
▁inaugura	-11.5825
▁cabal	-11.5825
▁armado	-11.5826
plaza	-11.5826
tensión	-11.5826
▁capitalidad	-11.5826
world	-11.5827
▁alberti	-11.5832
▁consideraciones	-11.5835
▁iris	-11.5836
lizó	-11.5836
▁oportunidades	-11.5837
▁comprometi	-11.584
lugar	-11.5843
▁conducción	-11.5846
▁protegida	-11.5858
alta	-11.5858
▁vitamina	-11.5858
▁protege	-11.5858
univers	-11.586
▁hongo	-11.5862
=7	-11.587
▁marcar	-11.5872
▁selecciona	-11.5877
tral	-11.5879
kai	-11.5879
▁estrena	-11.588
▁pesado	-11.588
▁diplomáticas	-11.5894
▁evangel	-11.5897
▁herido	-11.5897
▁planetaria	-11.5897
tieron	-11.5899
cuando	-11.59
graf	-11.59
arco	-11.5913
gnu	-11.5916
▁mike	-11.5916
▁permitiría	-11.5917
▁opone	-11.5922
▁astronauta	-11.5926
▁auténtica	-11.5926
▁báltico	-11.5926
▁cantabria	-11.5926
▁escándalo	-11.5926
▁germánica	-11.5926
▁gutenberg	-11.5926
▁inevitable	-11.5926
▁influir	-11.5926
▁kepler	-11.5926
▁macedonia	-11.5926
▁migraciones	-11.5926
▁registró	-11.5926
▁respondió	-11.5926
▁subcontinente	-11.5926
▁teotihuacán	-11.5926
▁tertulia	-11.5926
▁veterinaria	-11.5926
▁acrónimo	-11.5926
▁ejecutiva	-11.5926
▁monopolio	-11.5926
▁obedece	-11.5926
▁tácito	-11.5926
determinismo	-11.5926
▁fonético	-11.5926
▁ginebra	-11.5926
▁tranvía	-11.5926
▁gluones	-11.5927
▁criollo	-11.5927
▁modernismo	-11.5927
▁extinto	-11.5927
▁rally	-11.5927
▁reconocie	-11.5927
▁sabina	-11.5927
▁decisivo	-11.5927
▁retiro	-11.5927
▁transformó	-11.5927
▁sumerios	-11.5927
▁gloria	-11.5927
▁traductor	-11.5927
▁emprende	-11.5927
▁criminal	-11.5927
▁esclavitud	-11.5927
▁humanista	-11.5927
▁eterna	-11.5927
▁automatiza	-11.5927
▁noveno	-11.5927
▁sabana	-11.5928
▁policial	-11.5928
emitió	-11.5929
▁despleg	-11.593
▁natalidad	-11.5931
▁dobla	-11.5931
▁fiable	-11.5932
▁unificado	-11.5933
anthus	-11.5933
▁finalizó	-11.5935
▁ciego	-11.5935
▁cisne	-11.5935
oráculo	-11.5935
▁acomoda	-11.5937
▁autopistas	-11.5938
▁juliano	-11.5938
▁cristalina	-11.5939
▁adolfo	-11.594
▁sport	-11.5942
▁comunicarse	-11.5943
▁factorial	-11.5943
▁consumidor	-11.5945
▁aportaciones	-11.5948
volviendo	-11.5957
▁mosaico	-11.5958
▁catalizadores	-11.5959
▁doctorado	-11.5959
svg	-11.5959
▁ensamblador	-11.596
▁defensores	-11.5961
▁seleccionado	-11.5962
▁expresarse	-11.5967
nacional	-11.597
▁compar	-11.5972
▁planetario	-11.5974
▁habrá	-11.5976
court	-11.5978
▁conquistar	-11.5987
cruz	-11.5989
lenguaje	-11.599
novela	-11.5991
▁manu	-11.5992
mercur	-11.5992
="24	-11.5993
▁ponen	-11.5994
▁petr	-11.6003
▁permanecen	-11.6012
▁presidenciales	-11.6015
▁levadura	-11.6019
▁eucariota	-11.602
▁simon	-11.6027
play	-11.603
▁entregar	-11.6037
cataliza	-11.6042
▁fabricar	-11.6044
▁complicado	-11.6048
▁pelo	-11.6055
▁directorio	-11.6065
▁neutrino	-11.6072
▁expedi	-11.6074
▁optimiza	-11.6076
▁esclav	-11.608
▁combinada	-11.608
▁anna	-11.6081
▁manzana	-11.6082
▁divulg	-11.6084
▁perteneci	-11.6084
▁aniquila	-11.6085
▁alegoría	-11.6085
▁arzobispo	-11.6085
▁catálisis	-11.6085
▁conversaciones	-11.6085
▁cosmopolita	-11.6085
▁dieciséis	-11.6085
▁fenotipo	-11.6085
▁gonzalo	-11.6085
▁guadalupe	-11.6085
▁indispensable	-11.6085
▁prohibida	-11.6085
▁recipiente	-11.6085
▁ribosomas	-11.6085
▁térmico	-11.6085
▁válvula	-11.6085
▁vértice	-11.6085
▁concluir	-11.6085
▁endémica	-11.6085
▁excentricidad	-11.6085
▁estallido	-11.6085
▁prefijo	-11.6085
▁dirigía	-11.6085
▁drogas	-11.6085
▁exiliado	-11.6085
▁discreto	-11.6085
▁parientes	-11.6085
▁vacuna	-11.6085
▁moderada	-11.6085
▁islote	-11.6085
▁eterno	-11.6085
▁gruesa	-11.6085
▁cometido	-11.6085
▁puntual	-11.6086
▁grabaciones	-11.6086
▁épica	-11.6086
centésimo	-11.6086
▁fractal	-11.6086
▁tolera	-11.6086
▁ladrillo	-11.6086
▁montreal	-11.6086
▁crecido	-11.6086
▁obtuvieron	-11.6086
▁balanza	-11.6087
▁afinidad	-11.6087
▁racial	-11.6087
osaurios	-11.6088
▁detectado	-11.6088
▁limón	-11.6088
▁fomento	-11.6089
▁ruinas	-11.609
▁acetil	-11.609
▁integrantes	-11.609
▁gw	-11.6094
▁favorece	-11.61
▁bruce	-11.6101
▁1860	-11.6104
▁cthulhu	-11.6107
▁volcánico	-11.6107
▁bisexuales	-11.6108
▁premia	-11.6109
continu	-11.611
▁1850	-11.6115
▁atacante	-11.6118
▁racimos	-11.612
▁muro	-11.6121
▁textiles	-11.6128
▁forestales	-11.6129
▁pilares	-11.613
▁piero	-11.6134
▁roque	-11.6135
▁transmiten	-11.6136
▁desprende	-11.6136
▁moro	-11.6137
▁bailar	-11.6141
▁destila	-11.6142
región	-11.6148
▁1,5	-11.6149
crónica	-11.6149
▁mago	-11.6152
▁tecla	-11.6158
free	-11.617
▁transformado	-11.6172
▁subir	-11.6183
▁espiguilla	-11.6184
▁múltiple	-11.6184
▁resultando	-11.6184
ógeno	-11.6185
▁explic	-11.6188
▁paulo	-11.6194
▁expresada	-11.62
▁registrar	-11.62
logos	-11.6201
▁costero	-11.621
paso	-11.6212
▁borrador	-11.6219
▁raya	-11.6219
inici	-11.6222
llus	-11.623
▁prolongada	-11.6236
▁sobrevive	-11.6241
▁nula	-11.6242
▁acogida	-11.6247
▁aleksand	-11.6247
▁apweb	-11.6247
▁aristocracia	-11.6247
▁bambú	-11.6247
▁constelación	-11.6247
▁contradicción	-11.6247
▁deterioro	-11.6247
▁eclesiástica	-11.6247
▁fallecido	-11.6247
▁félix	-11.6247
▁jerárquica	-11.6247
▁preliminar	-11.6247
▁purkinje	-11.6247
▁refugiados	-11.6247
▁subterráneo	-11.6247
▁vivieron	-11.6247
▁apropiada	-11.6247
▁habsburgo	-11.6247
▁ordinario	-11.6247
▁cartucho	-11.6247
▁international	-11.6247
▁almidón	-11.6247
▁insuficiente	-11.6247
▁productiva	-11.6247
▁novedad	-11.6247
▁asiática	-11.6247
▁alteraciones	-11.6247
▁janeiro	-11.6247
▁modernista	-11.6247
scribe	-11.6247
▁callao	-11.6247
▁taurino	-11.6247
▁detector	-11.6247
▁emergencia	-11.6247
▁entierro	-11.6247
▁bautismo	-11.6247
▁claustro	-11.6247
▁reglamenta	-11.6247
▁genérica	-11.6248
▁modernización	-11.6248
▁vallenato	-11.6248
▁supervisa	-11.6249
▁fosa	-11.6249
▁compás	-11.6249
cript	-11.6249
▁olivares	-11.6249
▁soluto	-11.625
▁espinal	-11.625
▁filtra	-11.6251
▁escribiendo	-11.6252
ectromagnetismo	-11.6254
▁bariones	-11.6254
▁nieto	-11.6256
▁practicado	-11.6257
ésima	-11.6257
▁protectorado	-11.6257
▁gobernación	-11.6257
▁montaje	-11.6257
▁sodio	-11.6257
▁fortific	-11.6259
tosa	-11.6259
▁políticamente	-11.6259
▁hallar	-11.626
▁imaginación	-11.6261
▁especia	-11.6262
▁1823	-11.6262
84)	-11.6263
▁rené	-11.6266
▁dominación	-11.6268
aragonés	-11.6268
▁1820	-11.6269
▁adaptarse	-11.6269
▁colaboradores	-11.627
tónico	-11.6271
▁170	-11.6271
bajo	-11.6272
▁turbo	-11.6272
abc	-11.6274
▁1.0	-11.6277
▁llegaría	-11.6277
cediendo	-11.6279
▁temporalmente	-11.6285
▁procedi	-11.6285
▁1880	-11.6287
▁aliso	-11.6289
▁forja	-11.6291
800	-11.6293
▁campana	-11.6297
▁escribía	-11.6301
▁capitalismo	-11.6303
▁mero	-11.6303
rriba	-11.6304
▁liderada	-11.6304
▁molde	-11.6305
cristiano	-11.6311
código	-11.6311
memoria	-11.6311
harry	-11.6314
▁marta	-11.6314
▁finita	-11.6316
garra	-11.6323
cadena	-11.6324
▁johannes	-11.6328
▁eclipse	-11.6329
▁desempeñan	-11.6338
scripción	-11.6343
▁infantiles	-11.6345
▁permitían	-11.635
▁construyen	-11.6351
▁roberto	-11.6352
▁agrupar	-11.6353
▁entrado	-11.6365
▁nativo	-11.6367
house	-11.637
▁limit	-11.6371
muy	-11.6371
▁inventado	-11.6372
▁catalizador	-11.6377
▁linear	-11.6378
▁bernard	-11.6393
▁public	-11.6405
▁balsa	-11.6406
_9	-11.6408
▁anatómica	-11.641
▁association	-11.641
▁calentamiento	-11.641
▁expectativa	-11.641
▁folclórico	-11.641
▁intersección	-11.641
▁mozárabe	-11.641
▁prehispánica	-11.641
▁profecía	-11.641
▁prometeo	-11.641
▁prosperidad	-11.641
▁pájaros	-11.641
▁recuperó	-11.641
▁sebastian	-11.641
▁solidaridad	-11.641
▁inconsciente	-11.641
▁pacífica	-11.641
▁respalda	-11.641
▁vigencia	-11.641
▁cubismo	-11.641
▁requerir	-11.641
▁bierzo	-11.641
▁invariante	-11.641
▁compacta	-11.6411
▁destruido	-11.6411
▁rfc	-11.6411
▁corpus	-11.6411
▁deportistas	-11.6411
▁flexible	-11.6411
▁épico	-11.6411
▁lewis	-11.6411
▁almería	-11.6411
▁balance	-11.6411
▁pseudociencia	-11.6411
sistieron	-11.6411
▁arturo	-11.6412
nervada	-11.6412
▁editado	-11.6413
▁retrasa	-11.6413
▁1906	-11.6413
▁varones	-11.6414
▁infantería	-11.6416
▁rutina	-11.6419
▁sentía	-11.642
ificó	-11.6425
▁tinto	-11.6427
administraciones	-11.6428
▁tipología	-11.6428
▁carencia	-11.643
▁nacida	-11.6431
▁conformación	-11.6431
▁omni	-11.6432
▁suponer	-11.6434
▁ganando	-11.6436
▁logrando	-11.6438
▁violación	-11.6441
▁iván	-11.6442
▁recorrer	-11.6444
heli	-11.6444
gitan	-11.6445
▁dará	-11.6445
▁severa	-11.6447
▁fértiles	-11.645
▁gru	-11.6451
▁design	-11.6454
▁mitocondrial	-11.6455
▁terrorista	-11.6456
▁sostenido	-11.6456
▁consumen	-11.6458
▁kv	-11.6459
▁lili	-11.6461
valle	-11.6468
cuerda	-11.6472
▁aplicando	-11.6477
quijote	-11.6478
▁suscita	-11.6479
▁herb	-11.648
▁techo	-11.6483
viene	-11.6492
▁estática	-11.6495
▁austriaco	-11.6497
cinco	-11.6499
▁cargadas	-11.6505
▁evalua	-11.6509
▁hablaban	-11.651
▁identificada	-11.651
▁reproduci	-11.6512
▁big	-11.6517
▁óvulo	-11.6519
▁víctima	-11.6519
▁parámetro	-11.652
▁llevaban	-11.6525
▁torna	-11.6526
▁modela	-11.6531
▁empiezan	-11.6544
uvi	-11.6546
▁aboli	-11.6547
▁recurre	-11.6549
▁fomenta	-11.6551
▁complicada	-11.6551
▁dejaba	-11.6552
▁insert	-11.6554
▁fundamenta	-11.6559
▁causando	-11.6561
▁simultánea	-11.6564
▁parto	-11.6567
▁sacrific	-11.6569
▁marxista	-11.6576
▁amazónica	-11.6577
▁divergencia	-11.6577
▁fertilidad	-11.6577
▁foundation	-11.6577
▁hegemonía	-11.6577
▁heráldica	-11.6577
▁hexadecimal	-11.6577
▁influjo	-11.6577
▁mandíbula	-11.6577
▁náhuatl	-11.6577
▁parentesco	-11.6577
▁pedanía	-11.6577
▁precolombina	-11.6577
▁profundiz	-11.6577
▁redundancia	-11.6577
▁respaldo	-11.6577
▁aglutina	-11.6577
▁comprendida	-11.6577
▁mostrando	-11.6577
▁perfección	-11.6577
▁flexibilidad	-11.6577
▁variabilidad	-11.6577
▁submarino	-11.6577
▁patriota	-11.6577
▁meteorológico	-11.6577
▁sintética	-11.6577
▁indicios	-11.6577
▁tesoro	-11.6577
▁sumergi	-11.6577
▁éstos	-11.6577
▁diagonal	-11.6577
▁arabia	-11.6578
▁reproductor	-11.6578
▁desintegra	-11.6578
▁casual	-11.6578
▁prieto	-11.6578
▁ermita	-11.6578
▁frontal	-11.6578
▁predominio	-11.6578
viendo	-11.6579
▁faceta	-11.658
▁desfile	-11.6581
▁freud	-11.6582
▁anatoli	-11.6582
▁trilogía	-11.6582
▁vacaciones	-11.6585
cilla	-11.6585
▁nicola	-11.6586
▁inauguración	-11.659
▁marxismo	-11.6594
▁revoluciones	-11.6594
▁rosario	-11.6595
mayor	-11.6602
▁pega	-11.6603
▁temático	-11.6603
▁ancla	-11.6603
▁bloqueo	-11.6606
▁generaliza	-11.6607
▁adicionalmente	-11.6611
▁auster	-11.6615
▁inmuno	-11.6619
▁lujo	-11.662
▁fij	-11.6635
kal	-11.6644
system	-11.6647
▁xv	-11.6647
mujer	-11.6649
premio	-11.665
▁crono	-11.6652
▁avanzar	-11.6657
▁torero	-11.6663
▁recogen	-11.6664
▁recoger	-11.6668
▁presentarse	-11.667
2000	-11.6681
mayo	-11.6682
▁transmitido	-11.6684
fónico	-11.6685
80)	-11.6689
autor	-11.669
▁compañero	-11.6692
▁aficionado	-11.6692
▁persistente	-11.6693
▁destina	-11.6704
▁brit	-11.6707
▁destacaron	-11.6711
▁golf	-11.6711
raña	-11.6713
▁marcial	-11.6713
▁allen	-11.6722
▁basó	-11.6723
▁josef	-11.6733
▁protagoniz	-11.6735
hacer	-11.6738
▁preside	-11.6741
▁recombina	-11.6747
▁abastecimiento	-11.6747
▁anfibios	-11.6747
▁chávez	-11.6747
▁cofradía	-11.6747
▁diseñó	-11.6747
▁invernadero	-11.6747
▁julián	-11.6747
▁michoacán	-11.6747
▁positivismo	-11.6747
▁prohibió	-11.6747
▁simbolismo	-11.6747
▁contienda	-11.6747
▁determinista	-11.6747
▁infinitesimal	-11.6747
▁parlamentario	-11.6747
▁razonable	-11.6747
▁sorpresa	-11.6747
▁voluntaria	-11.6747
▁competidor	-11.6747
▁cronquist	-11.6747
▁felicidad	-11.6747
▁computer	-11.6747
▁consolidó	-11.6747
▁constructor	-11.6747
▁tonalidad	-11.6747
▁bachillerato	-11.6747
▁alteración	-11.6747
▁resolvi	-11.6747
▁glabro	-11.6747
▁permanecieron	-11.6748
bwv	-11.6748
▁tolerancia	-11.6748
▁rodaje	-11.6748
▁supervisión	-11.6749
▁bernal	-11.6749
▁envío	-11.6749
▁1904	-11.6749
▁compite	-11.675
▁cazadores	-11.6751
▁ocde	-11.6751
▁jugó	-11.6751
hit	-11.6752
▁planteamiento	-11.6754
▁from	-11.6755
▁comuna	-11.676
▁1890	-11.676
▁reporte	-11.6761
▁comarcal	-11.6762
▁sexualidad	-11.6763
▁1814	-11.6765
ámico	-11.6768
▁demostraron	-11.6768
▁asistente	-11.677
▁ciber	-11.677
▁guionista	-11.6773
▁fsf	-11.6773
▁elevación	-11.6773
histori	-11.6777
▁abreviado	-11.6778
▁adoptaron	-11.6778
▁asign	-11.6779
▁impresionismo	-11.678
▁terminación	-11.6782
phone	-11.6782
moral	-11.6785
▁euskal	-11.6785
▁ayudante	-11.6786
▁columbia	-11.6786
uve	-11.6789
▁wide	-11.6794
13)	-11.6796
▁vectores	-11.6809
▁mantenerse	-11.6813
música	-11.682
▁resina	-11.6822
quien	-11.6832
▁servía	-11.6856
▁recae	-11.686
▁hueco	-11.6867
▁regulada	-11.6869
species	-11.687
▁pertenecía	-11.6875
▁leones	-11.6882
▁atravesar	-11.6884
▁fragmento	-11.6891
▁observable	-11.6894
▁incrementar	-11.6894
▁cómico	-11.6895
▁excluye	-11.69
▁favorecer	-11.6904
▁superó	-11.6907
rik	-11.6908
▁wei	-11.6914
cíclica	-11.6919
▁anchura	-11.6919
▁campeones	-11.6919
▁carbohidratos	-11.6919
▁competir	-11.6919
▁consejería	-11.6919
▁custodia	-11.6919
▁descontento	-11.6919
▁disolvente	-11.6919
▁geodésica	-11.6919
▁gimnospermas	-11.6919
▁regímenes	-11.6919
▁repercusión	-11.6919
▁devuelve	-11.6919
▁fantástico	-11.6919
▁barriles	-11.6919
▁abraham	-11.6919
▁destruida	-11.6919
▁emitida	-11.6919
▁desapareció	-11.6919
▁asienta	-11.6919
▁empuja	-11.6919
▁consejero	-11.6919
▁diploma	-11.6919
▁cambridge	-11.6919
▁finanzas	-11.6919
▁ofrenda	-11.6919
▁establecía	-11.6919
direccion	-11.692
▁ideológico	-11.692
▁promociona	-11.692
▁tradujo	-11.692
▁eugeni	-11.692
▁judeo	-11.692
▁danesa	-11.6921
▁centenario	-11.6921
▁cronista	-11.6921
▁dueño	-11.6923
▁amazon	-11.6923
▁matt	-11.6924
▁sostuv	-11.6925
▁oleada	-11.6926
▁sorprendente	-11.6926
▁buscó	-11.6928
▁cordero	-11.6928
▁recesión	-11.6929
▁mitológica	-11.6929
board	-11.6929
▁protagonizada	-11.693
▁polarización	-11.6931
▁cerebeloso	-11.6931
▁fray	-11.6937
▁1822	-11.6938
▁desafi	-11.6941
tli	-11.6941
▁gobernar	-11.6947
sentaron	-11.6947
▁continuado	-11.6957
▁urss	-11.6957
▁abordar	-11.696
▁pertenecían	-11.6963
▁focal	-11.6964
▁habitada	-11.6967
document	-11.6968
▁provocada	-11.6968
▁encaja	-11.6969
turismo	-11.6971
▁confirmar	-11.6973
▁estrenada	-11.6974
▁opuesta	-11.6976
▁conocían	-11.6981
▁vall	-11.6983
▁adam	-11.6991
azul	-11.6991
▁poseían	-11.6993
política	-11.6996
▁eneas	-11.6996
▁accede	-11.6997
ciclo	-11.7
▁sabores	-11.7001
universidad	-11.7007
_10	-11.7007
▁limbo	-11.7011
▁casta	-11.7012
▁ocuparon	-11.7018
▁kb	-11.7018
nacionales	-11.7024
▁salvar	-11.7025
▁pigmento	-11.7026
▁ordenar	-11.7032
▁burla	-11.7034
▁sustancial	-11.7037
▁debut	-11.7041
▁jud	-11.7044
▁ocupando	-11.7045
▁masculina	-11.7045
▁implementado	-11.7046
▁precedente	-11.7048
▁dispuesto	-11.7048
▁plasm	-11.705
▁diverso	-11.7051
heim	-11.7053
▁permita	-11.7054
▁arquea	-11.7059
▁blu	-11.7062
▁prolongado	-11.7063
▁representativo	-11.7064
wald	-11.7066
▁esparc	-11.7073
▁peseta	-11.7078
▁confundir	-11.7086
▁hablando	-11.7086
ifolia	-11.7088
dimensional	-11.7092
diario	-11.7094
tenochtitlan	-11.7094
▁antártida	-11.7094
▁apostólica	-11.7094
▁cómputo	-11.7094
▁difracción	-11.7094
▁disminuido	-11.7094
▁eventual	-11.7094
▁hinduismo	-11.7094
▁hockey	-11.7094
▁pitágoras	-11.7094
▁sudamericana	-11.7094
▁unicelulares	-11.7094
▁upsala	-11.7094
▁virreinal	-11.7094
▁adversario	-11.7094
▁cósmico	-11.7094
▁elipsoide	-11.7094
▁estratégico	-11.7094
▁metabólica	-11.7094
▁minoritario	-11.7094
▁nocturno	-11.7094
▁sátiro	-11.7094
▁ciclismo	-11.7094
▁college	-11.7094
▁desgracia	-11.7094
▁espesor	-11.7094
▁emergi	-11.7094
▁esperantista	-11.7094
▁plutón	-11.7094
▁norteamericana	-11.7094
▁retiró	-11.7094
▁white	-11.7095
▁adjudic	-11.7095
▁convencer	-11.7095
▁arrastra	-11.7095
▁tcp	-11.7095
▁anticipa	-11.7095
▁consulado	-11.7095
▁alegría	-11.7095
▁dependía	-11.7095
▁actriz	-11.7095
▁estimó	-11.7095
▁discute	-11.7095
▁vencedor	-11.7096
▁apartamento	-11.7096
▁rescate	-11.7096
▁sahara	-11.7096
110	-11.7096
▁cisma	-11.7098
▁practicantes	-11.7099
▁cantones	-11.7099
▁considere	-11.7102
▁predice	-11.7104
▁preservación	-11.7105
▁cresta	-11.7105
▁xiv	-11.7106
▁engels	-11.7108
▁sabemos	-11.7112
▁interactuar	-11.7112
▁procesado	-11.7123
ófilos	-11.7127
+1	-11.713
▁sara	-11.7135
▁proponer	-11.7138
▁ciudadana	-11.7139
▁anterioridad	-11.714
▁gestor	-11.7145
▁elimin	-11.7146
catal	-11.7146
▁hund	-11.7147
▁rigen	-11.7149
▁sufren	-11.7151
habitante	-11.7156
▁10%	-11.7159
león	-11.7168
estrella	-11.7174
positiva	-11.7174
▁relojes	-11.718
bieron	-11.7208
▁destruye	-11.721
▁pardas	-11.7213
▁traer	-11.7216
lich	-11.7216
▁chill	-11.7217
▁comercialmente	-11.7225
whi	-11.7226
▁piloto	-11.7227
▁lóbulo	-11.7227
▁requisito	-11.7228
▁vecino	-11.7231
▁fm	-11.7231
▁roy	-11.7231
▁restante	-11.7232
▁excede	-11.7236
▁levantar	-11.7236
▁votar	-11.7237
▁malva	-11.724
▁soldado	-11.7241
▁dotado	-11.7243
▁desprecia	-11.7246
▁prusia	-11.7252
▁habitado	-11.7257
cisión	-11.7259
madre	-11.7265
▁turno	-11.7266
▁implanta	-11.7266
▁nacer	-11.7271
▁confirmado	-11.7272
▁clérigo	-11.7273
▁disminuyó	-11.7273
▁fecundación	-11.7273
▁fronteriza	-11.7273
▁gracián	-11.7273
▁identificó	-11.7273
▁incipiente	-11.7273
▁inconveniente	-11.7273
▁limítrofe	-11.7273
▁mármol	-11.7273
▁pandemia	-11.7273
▁perseguido	-11.7273
▁rectangular	-11.7273
▁reproduce	-11.7273
▁rígido	-11.7273
▁sábado	-11.7273
▁sésiles	-11.7273
▁álvaro	-11.7273
▁conversación	-11.7273
▁parásito	-11.7273
▁hudson	-11.7273
▁almirante	-11.7273
▁gluten	-11.7273
▁solemne	-11.7273
▁modernidad	-11.7273
▁funeral	-11.7273
▁amplifica	-11.7273
▁seguimiento	-11.7273
▁black	-11.7273
▁toronto	-11.7273
metamorfosis	-11.7273
▁ozono	-11.7273
▁descompone	-11.7273
▁escalera	-11.7273
▁extracto	-11.7274
▁paraíso	-11.7274
▁administrar	-11.7274
▁caído	-11.7274
▁brigada	-11.7274
▁decidido	-11.7274
▁germano	-11.7274
▁oculto	-11.7274
▁aguja	-11.7275
▁sumeria	-11.7275
▁naciente	-11.7275
▁raúl	-11.7276
▁inundaciones	-11.7277
▁fresca	-11.7278
▁asesina	-11.7279
legando	-11.728
▁fisiológico	-11.728
▁casado	-11.7281
▁irak	-11.7281
▁subyacente	-11.7284
▁pascal	-11.7284
▁expuso	-11.7284
▁nerviosas	-11.7284
▁ajeno	-11.7284
▁1889	-11.7288
198	-11.7288
▁senadores	-11.7289
▁planck	-11.729
▁especialidad	-11.729
▁renombre	-11.7293
▁50%	-11.7294
▁malta	-11.7299
▁originaron	-11.73
▁apical	-11.7302
▁recurrente	-11.7303
▁medicinales	-11.7307
▁regido	-11.731
químico	-11.7313
▁zen	-11.7314
▁adecuadamente	-11.7317
▁devasta	-11.7324
italia	-11.7326
▁fijación	-11.7328
▁formul	-11.7328
work	-11.7329
conocido	-11.7335
▁documenta	-11.7345
▁legalmente	-11.7351
versiones	-11.7351
clásico	-11.7352
judicial	-11.7355
cuerpo	-11.7355
▁capturar	-11.736
▁compilado	-11.7363
generación	-11.737
vitis	-11.7371
16)	-11.7374
▁avena	-11.7378
▁favorecido	-11.7379
▁tratarse	-11.7384
▁creadores	-11.7386
▁dificulta	-11.7388
adilla	-11.74
jara	-11.7402
▁tributo	-11.7404
▁promovido	-11.741
▁eliminado	-11.7411
▁logro	-11.7413
▁experto	-11.7413
▁espectador	-11.7421
▁estéril	-11.7422
pósito	-11.7441
▁negar	-11.7446
▁quit	-11.7453
▁actinomorfas	-11.7455
▁alimenticio	-11.7455
▁arbitraria	-11.7455
▁cotidiano	-11.7455
▁diabetes	-11.7455
▁diplomático	-11.7455
▁equipamiento	-11.7455
▁etiopía	-11.7455
▁existieron	-11.7455
▁fracciona	-11.7455
▁intestinal	-11.7455
▁pabellón	-11.7455
▁romántica	-11.7455
▁shakespeare	-11.7455
▁tuberculosis	-11.7455
▁víctor	-11.7455
▁accidental	-11.7455
▁chamanismo	-11.7455
▁consecutivo	-11.7455
▁falangista	-11.7455
▁atraído	-11.7455
▁yucatán	-11.7455
▁cráter	-11.7455
▁huelva	-11.7455
▁intervenir	-11.7455
▁tokio	-11.7455
▁escáner	-11.7455
▁papiro	-11.7455
▁asiento	-11.7455
▁ósea	-11.7455
▁apareciendo	-11.7455
▁recicla	-11.7455
▁ensanche	-11.7455
▁adecua	-11.7456
▁epigrama	-11.7457
▁recurrir	-11.7457
▁oliva	-11.7459
▁sindical	-11.746
▁vagina	-11.746
▁espinas	-11.746
▁edificaciones	-11.7461
perturba	-11.7462
▁elegía	-11.7462
▁nicea	-11.7462
▁jubil	-11.7463
recieron	-11.7465
▁diversificación	-11.7467
▁1848	-11.7468
▁mitológico	-11.7469
▁1868	-11.747
▁salvación	-11.747
▁sufrier	-11.7474
▁temor	-11.7476
▁poales	-11.7477
▁nau	-11.7483
▁desiguales	-11.7487
▁estériles	-11.7489
▁obligación	-11.749
▁cota	-11.75
▁permitan	-11.7501
▁barca	-11.7502
▁funcionaba	-11.7504
present	-11.7506
▁navegante	-11.751
▁esperado	-11.7518
▁escritora	-11.7525
▁teatrales	-11.7527
▁cavidades	-11.7529
film	-11.7532
rugby	-11.754
pequeño	-11.7541
hardware	-11.7541
▁desempeñar	-11.7546
▁almacenado	-11.7549
▁afirmando	-11.7555
género	-11.7561
▁125	-11.7572
▁liso	-11.7573
biología	-11.7582
▁aclara	-11.7583
▁mudo	-11.7587
▁zoo	-11.7589
▁molar	-11.7589
▁servido	-11.7595
▁metálico	-11.7601
▁115	-11.7603
▁proveer	-11.7604
▁similitud	-11.7606
▁albergar	-11.7609
▁combati	-11.761
revisiones	-11.7612
▁muralla	-11.7618
▁motivado	-11.7618
▁satisface	-11.762
▁presentaron	-11.7621
▁gubernamental	-11.7628
▁narrador	-11.7629
cerca	-11.7633
▁reorganiza	-11.7633
▁peregrina	-11.7635
▁pretendi	-11.7636
ington	-11.7637
▁disponer	-11.7639
▁frustra	-11.764
▁atestigua	-11.764
▁bivalvos	-11.764
▁cristiandad	-11.764
▁enfrentó	-11.764
▁franquismo	-11.764
▁incorrecta	-11.764
▁interpretó	-11.764
▁pertenencia	-11.764
▁potestad	-11.764
▁problemática	-11.764
▁protagonismo	-11.764
▁retroceso	-11.764
▁sánscrito	-11.764
▁transferir	-11.764
▁completó	-11.764
▁desventaja	-11.764
▁distorsiona	-11.764
▁espectral	-11.764
▁eurasia	-11.764
▁jornada	-11.764
▁subjetiva	-11.764
▁triangular	-11.764
▁descanso	-11.764
▁dureza	-11.764
▁despertar	-11.764
▁meteorito	-11.764
▁habló	-11.764
▁recluta	-11.764
www	-11.764
▁caudillo	-11.764
▁hispana	-11.764
▁delegación	-11.7641
▁cardinal	-11.7641
▁gijón	-11.7641
▁daneses	-11.7641
▁covalente	-11.7643
▁sartre	-11.7643
▁esperma	-11.7645
opsida	-11.7646
▁cociente	-11.7646
señor	-11.7648
700	-11.7649
archae	-11.7649
▁confundirse	-11.7649
persona	-11.765
▁dolina	-11.765
▁celda	-11.7653
▁1867	-11.7653
▁1897	-11.7654
[...]
