<unk>	0
<s>	0
</s>	0
▁de	-2.96929
,	-3.2505
s	-3.45116
▁la	-3.47638
.	-3.62574
▁en	-3.81373
▁el	-3.83661
▁y	-3.98472
▁a	-4.20224
▁que	-4.30767
▁los	-4.45544
▁	-4.5199
▁se	-4.62172
▁del	-4.68023
▁las	-4.9373
▁con	-4.97072
n	-4.97348
▁un	-4.98402
▁por	-5.00023
▁una	-5.13607
▁es	-5.18664
r	-5.2035
▁"	-5.24971
es	-5.29019
▁su	-5.30407
▁(	-5.3431
▁como	-5.34819
"	-5.45323
▁o	-5.475
▁para	-5.52509
▁al	-5.54006
do	-5.67299
▁más	-5.79366
▁no	-5.8108
▁##	-5.86047
a	-5.93904
:	-5.99744
da	-6.00549
)	-6.02395
o	-6.05999
c	-6.12887
▁lo	-6.15572
▁son	-6.23718
ó	-6.24946
▁entre	-6.29936
ción	-6.3078
la	-6.3102
▁fue	-6.3369
e	-6.34863
l	-6.35511
-	-6.39886
;	-6.40611
mente	-6.4194
),	-6.48022
▁sus	-6.51748
▁también	-6.52961
▁re	-6.53454
▁este	-6.59142
▁esta	-6.5985
ta	-6.599
ba	-6.60379
t	-6.61496
▁ha	-6.62835
d	-6.65608
ron	-6.69393
dos	-6.70426
to	-6.72022
).	-6.73092
ca	-6.73643
▁e	-6.74875
",	-6.75588
▁«	-6.78691
m	-6.79897
ndo	-6.80894
ra	-6.8117
p	-6.84625
y	-6.84663
de	-6.8523
▁sin	-6.85426
i	-6.85466
▁ser	-6.86742
en	-6.86833
="	-6.87461
▁sobre	-6.87693
▁le	-6.91057
ma	-6.91186
das	-6.92206
▁in	-6.93032
▁parte	-6.94016
se	-6.94435
▁dos	-6.94601
no	-6.9461
▁desde	-6.95015
co	-6.9575
lo	-6.97209
el	-6.97466
na	-6.98309
▁pero	-7.00446
▁si	-7.02647
te	-7.0313
ciones	-7.05231
▁forma	-7.05902
▁años	-7.06848
ce	-7.08166
▁puede	-7.08462
▁hasta	-7.08572
le	-7.09522
▁c	-7.13415
f	-7.1413
▁gran	-7.14182
▁otros	-7.14916
durante	-7.15174
re	-7.16396
/	-7.1654
doc	-7.17706
g	-7.18841
▁está	-7.19779
>	-7.2053
b	-7.24994
u	-7.26156
ti	-7.29661
▁así	-7.30055
ar	-7.30209
▁18	-7.30212
▁sistema	-7.31301
▁año	-7.31332
í	-7.31441
▁era	-7.31976
ro	-7.32029
z	-7.33286
".	-7.33441
▁ya	-7.33957
▁donde	-7.34526
ga	-7.35392
▁[[	-7.36242
▁ciudad	-7.36304
▁mayor	-7.36881
rse	-7.37375
ci	-7.37492
]]	-7.37663
▁han	-7.37852
▁tiene	-7.3885
so	-7.40965
▁muy	-7.41303
▁cuando	-7.41681
er	-7.41784
▁aunque	-7.41844
sa	-7.42107
di	-7.43232
»	-7.43238
▁solo	-7.43312
que	-7.43496
mo	-7.45198
á	-7.45223
▁pueden	-7.45662
pe	-7.46553
go	-7.46557
ban	-7.46852
li	-7.47213
al	-7.47302
▁estos	-7.49894
vi	-7.50532
▁país	-7.52091
ría	-7.53011
▁cada	-7.53144
me	-7.53276
▁otras	-7.53705
pa	-7.55446
os	-7.55479
▁pre	-7.56367
▁co	-7.56531
▁primera	-7.56712
▁todo	-7.57303
▁había	-7.57987
▁algunos	-7.58243
▁uno	-7.58626
idad	-7.58748
▁ma	-7.58786
mi	-7.58946
▁además	-7.59662
▁tanto	-7.60679
an	-7.61028
▁estado	-7.61039
in	-7.61468
▁mismo	-7.61788
▁ejemplo	-7.62256
ía	-7.62259
▁mundo	-7.62312
h	-7.62573
v	-7.62588
▁según	-7.6321
x	-7.63397
▁general	-7.64795
▁embargo	-7.65258
▁ca	-7.66059
cu	-7.66147
k	-7.66982
▁tiempo	-7.67242
▁san	-7.67278
▁fueron	-7.67533
les	-7.68634
on	-7.68913
▁vez	-7.69282
▁número	-7.69421
▁después	-7.70241
nte	-7.70252
▁tres	-7.70383
ri	-7.71239
▁cual	-7.71641
▁i	-7.72864
ismo	-7.72967
▁di	-7.73453
bi	-7.73901
▁esto	-7.74282
org	-7.74453
res	-7.74656
po	-7.74883
▁sa	-7.74974
▁1	-7.75184
▁hay	-7.75849
?	-7.76293
ne	-7.76975
▁pro	-7.76993
▁gobierno	-7.77162
▁p	-7.77228
▁historia	-7.77815
▁%	-7.78131
▁guerra	-7.78151
▁id	-7.78876
▁mar	-7.7982
as	-7.80383
▁lugar	-7.80646
▁3	-7.81171
rio	-7.81951
▁todos	-7.82419
▁nombre	-7.82604
tu	-7.82748
▁mientras	-7.82902
▁sido	-7.83153
▁pa	-7.83397
qui	-7.8357
pi	-7.8429
wiki	-7.84349
▁españa	-7.85073
▁estas	-7.8511
▁tras	-7.85462
tos	-7.86066
▁están	-7.86745
▁tienen	-7.86804
▁población	-7.86975
wikipedia	-7.87087
▁tipo	-7.87498
ve	-7.87934
ten	-7.88044
▁categori	-7.88101
://	-7.88137
curid	-7.88303
▁vida	-7.88392
ado	-7.884
dor	-7.88626
title	-7.88952
▁contra	-7.88973
▁vi	-7.89165
▁url	-7.89204
fi	-7.89242
https	-7.89245
▁primer	-7.89423
is	-7.89486
▁ex	-7.89538
▁<	-7.89794
us	-7.89801
▁</	-7.89913
los	-7.89993
ch	-7.90553
▁uso	-7.90643
▁2	-7.90867
ter	-7.90964
za	-7.91147
w	-7.91409
▁("	-7.91533
▁desarrollo	-7.91929
tra	-7.91964
ación	-7.92007
▁otro	-7.92674
ni	-7.93069
▁nacional	-7.93616
é	-7.9388
con	-7.94382
▁especies	-7.94734
▁hacia	-7.95025
ada	-7.9509
▁debido	-7.95558
|	-7.95817
▁m	-7.96443
_	-7.96781
▁muchos	-7.96861
ge	-7.97123
▁norte	-7.97134
tó	-7.97705
».	-7.97755
▁ni	-7.98371
▁obra	-7.98936
ja	-7.9957
▁estados	-7.99598
ver	-8.00192
▁pe	-8.00301
si	-8.00379
va	-8.00462
▁grandes	-8.0058
▁algunas	-8.00762
or	-8.01139
▁li	-8.01392
▁diferentes	-8.02724
▁mayoría	-8.02781
lu	-8.03907
mos	-8.03908
▁ar	-8.03935
=""	-8.04028
▁da	-8.04097
▁sur	-8.04887
▁través	-8.05337
▁formula	-8.05513
▁ro	-8.05699
▁pi	-8.05979
▁países	-8.06209
▁car	-8.06409
ria	-8.06474
▁siendo	-8.0694
▁ba	-8.07432
▁per	-8.07489
▁importante	-8.08135
▁bajo	-8.0814
▁va	-8.08164
miento	-8.08194
▁b	-8.08371
gi	-8.08442
▁dentro	-8.08506
be	-8.08664
las	-8.08873
▁cu	-8.08897
▁menos	-8.09379
▁nuevo	-8.09507
▁millones	-8.09862
▁bien	-8.10296
▁día	-8.105
▁hace	-8.10902
▁partir	-8.11063
un	-8.11492
je	-8.11543
▁nueva	-8.11792
nos	-8.11921
ur	-8.12178
▁otra	-8.12233
▁región	-8.12677
▁medio	-8.12723
'	-8.12806
fa	-8.13157
▁varios	-8.1366
2	-8.13718
ida	-8.13765
dores	-8.1382
▁mi	-8.13981
▁manera	-8.14018
▁grupo	-8.14103
▁19	-8.14251
▁mo	-8.14283
▁época	-8.14687
bo	-8.14933
▁ra	-8.15193
▁bo	-8.15211
▁caso	-8.15404
encia	-8.15533
ha	-8.16067
▁punto	-8.16759
tro	-8.16776
▁4	-8.16874
▁familia	-8.17002
▁sub	-8.17209
tas	-8.17297
▁tierra	-8.17417
▁cuenta	-8.17594
ña	-8.17915
cha	-8.18581
▁mundial	-8.18705
▁mediante	-8.18795
▁centro	-8.18822
nd	-8.19632
▁arte	-8.19662
▁f	-8.20178
▁poder	-8.20208
ización	-8.20266
▁17	-8.20627
▁5	-8.20758
▁(19	-8.2098
▁te	-8.21074
▁x	-8.21081
▁origen	-8.221
ista	-8.22118
era	-8.22119
gu	-8.2242
▁g	-8.22744
ir	-8.22756
▁todas	-8.23285
▁teoría	-8.23531
▁europa	-8.236
▁ese	-8.23701
rá	-8.23905
▁15	-8.24086
▁muchas	-8.24321
tar	-8.24326
%	-8.24513
▁entonces	-8.24597
▁provincia	-8.24646
▁largo	-8.24749
cia	-8.24783
▁10	-8.24907
ntes	-8.24944
ya	-8.25035
▁género	-8.25286
4	-8.25596
án	-8.25644
▁antes	-8.25652
▁datos	-8.26285
ita	-8.26682
car	-8.2669
▁sol	-8.26947
▁principales	-8.27048
et	-8.27201
▁debe	-8.27374
▁proceso	-8.27519
vo	-8.27718
▁unidos	-8.2787
th	-8.27963
cio	-8.28155
sta	-8.28435
ia	-8.2867
▁energía	-8.2896
▁encuentra	-8.29154
▁orden	-8.29321
ble	-8.2972
▁existen	-8.29835
▁ju	-8.30275
▁—	-8.303
▁media	-8.30577
▁tal	-8.31256
▁junto	-8.31472
▁veces	-8.3174
▁agua	-8.32654
ú	-8.32808
ros	-8.33032
ck	-8.33368
▁personas	-8.33446
▁ver	-8.33447
ncia	-8.3347
▁misma	-8.3365
—	-8.33828
▁eran	-8.33851
▁16	-8.33906
▁u	-8.33958
▁d	-8.34035
men	-8.34042
▁varias	-8.34327
gra	-8.34359
5	-8.34394
▁nivel	-8.34756
▁inter	-8.35007
▁cuatro	-8.35316
ido	-8.3572
»,	-8.35744
▁ellos	-8.3598
lla	-8.36018
▁estudio	-8.36045
▁casi	-8.36093
▁base	-8.36137
per	-8.36217
▁decir	-8.36243
")	-8.36278
▁principal	-8.37091
▁zona	-8.37193
▁música	-8.37399
▁hecho	-8.37593
▁segunda	-8.37881
▁mu	-8.3791
▁real	-8.38152
▁estructura	-8.38244
▁él	-8.38334
▁sino	-8.38737
▁juan	-8.38807
▁fi	-8.38834
▁política	-8.38955
▁término	-8.39009
▁me	-8.39234
▁plantas	-8.39288
▁obras	-8.39598
▁ci	-8.39839
istas	-8.39973
▁internacional	-8.40423
▁diferencia	-8.40497
▁ta	-8.40548
gen	-8.40702
▁española	-8.40832
▁momento	-8.40842
▁conjunto	-8.41584
▁po	-8.41615
▁t	-8.41827
▁especial	-8.41923
▁edad	-8.42194
ión	-8.42328
▁na	-8.42355
iones	-8.42425
▁quien	-8.429
▁cuales	-8.4295
▁hu	-8.4298
▁so	-8.42987
▁elementos	-8.42997
▁sí	-8.43164
▁her	-8.4317
ec	-8.43369
▁producción	-8.43402
▁incluso	-8.43463
jo	-8.44085
▁trabajo	-8.44094
tri	-8.44161
▁7	-8.44598
▁importantes	-8.4501
▁primeros	-8.45044
zo	-8.45054
0	-8.45064
▁6	-8.45214
il	-8.45236
▁español	-8.45276
fe	-8.45481
▁territorio	-8.45487
pro	-8.45595
00	-8.45643
ón	-8.45874
▁unos	-8.46059
1	-8.46231
ea	-8.46235
bra	-8.46269
▁poco	-8.46757
pu	-8.46765
ru	-8.47026
▁tener	-8.47493
▁tan	-8.47627
▁social	-8.47648
ven	-8.47711
▁campo	-8.48193
▁cultura	-8.48275
▁lengua	-8.48594
ico	-8.48652
▁red	-8.48719
j	-8.48738
▁méxico	-8.48793
▁movimiento	-8.48892
▁actual	-8.48954
▁causa	-8.49046
3	-8.49155
▁comunidad	-8.4932
▁alta	-8.49512
▁capital	-8.49583
▁toda	-8.49715
che	-8.49734
ados	-8.50116
▁cualquier	-8.50153
▁influencia	-8.50286
▁k	-8.504
du	-8.50435
▁ri	-8.50519
fo	-8.51285
▁total	-8.51292
▁dis	-8.51539
man	-8.51549
▁superficie	-8.51668
▁ce	-8.51715
▁iglesia	-8.52007
▁serie	-8.52023
sti	-8.52047
▁segundo	-8.52071
tivo	-8.52253
pre	-8.5263
▁ve	-8.52771
▁grupos	-8.52788
▁luz	-8.53085
▁modo	-8.53121
ales	-8.53311
▁principalmente	-8.53389
▁sal	-8.53529
cas	-8.54162
▁madrid	-8.54223
▁tra	-8.5439
▁8	-8.54851
▁bi	-8.55044
▁valor	-8.55098
▁muerte	-8.55176
▁siglo	-8.55304
xi	-8.55516
ac	-8.5555
▁14	-8.55691
▁costa	-8.55974
▁hi	-8.56033
▁to	-8.56046
▁espacio	-8.56175
▁ho	-8.56403
6	-8.56443
▁nu	-8.56633
▁central	-8.56721
▁sistemas	-8.56767
▁mucho	-8.57076
▁par	-8.573
▁suele	-8.57377
▁relación	-8.57682
▁río	-8.57827
▁información	-8.57874
▁encuentran	-8.58025
▁representa	-8.58143
▁estaba	-8.58191
adas	-8.58397
▁he	-8.58428
▁fa	-8.58567
ones	-8.59458
▁función	-8.59527
▁tuvo	-8.59827
▁luego	-8.6003
▁do	-8.60186
ng	-8.60397
▁américa	-8.60597
▁masa	-8.60611
▁reino	-8.60734
▁existe	-8.60833
um	-8.6091
▁características	-8.61096
hi	-8.61159
8	-8.61204
ina	-8.6137
▁acuerdo	-8.62069
ing	-8.62108
▁universidad	-8.62222
fu	-8.62258
▁siguiente	-8.62403
▁alrededor	-8.62437
▁cor	-8.62503
▁etc	-8.62533
▁cambio	-8.6256
ica	-8.6263
ka	-8.62732
▁natural	-8.62736
▁actualmente	-8.62846
▁popular	-8.62914
▁llama	-8.63208
ces	-8.63231
▁color	-8.63388
▁ven	-8.63609
▁12	-8.63666
▁ciencia	-8.64005
▁días	-8.64059
mu	-8.64061
ul	-8.64688
nu	-8.64732
par	-8.6474
ho	-8.64831
ero	-8.65208
▁especialmente	-8.65425
▁común	-8.65511
tor	-8.66181
ándose	-8.6636
▁presenta	-8.6649
▁tipos	-8.66566
mb	-8.668
ber	-8.66906
▁llamado	-8.67043
▁imperio	-8.67355
ieron	-8.67458
tiva	-8.67515
ño	-8.67947
▁fin	-8.68035
cal	-8.68187
▁economía	-8.68211
▁rey	-8.6823
▁libre	-8.68397
▁hacer	-8.68436
por	-8.6854
▁hoy	-8.68602
▁estudios	-8.68701
mar	-8.68848
su	-8.68876
▁física	-8.69009
▁ocupa	-8.69058
▁haber	-8.69091
▁período	-8.69233
▁presidente	-8.69256
ran	-8.6946
▁francia	-8.69487
▁9	-8.69495
▁ley	-8.69654
▁imp	-8.69654
▁siempre	-8.69709
▁final	-8.69776
▁cerca	-8.69815
duc	-8.69998
cor	-8.70115
▁ciudades	-8.70214
▁república	-8.7031
▁esa	-8.70342
▁fe	-8.70373
▁células	-8.70476
▁cantidad	-8.70476
7	-8.70606
▁superior	-8.70637
▁conocido	-8.70746
▁cal	-8.70762
▁década	-8.7083
▁be	-8.70922
▁cuerpo	-8.71326
lia	-8.71592
▁ante	-8.71667
tes	-8.71943
▁programa	-8.72412
ll	-8.72435
▁igual	-8.72507
có	-8.72518
ic	-8.72522
eo	-8.72533
▁posible	-8.72593
▁go	-8.726
▁-	-8.72638
io	-8.72934
tura	-8.73012
cer	-8.7303
(	-8.73165
▁último	-8.73258
▁ne	-8.73981
chi	-8.74211
▁or	-8.74221
▁indica	-8.74232
mer	-8.74311
▁josé	-8.74341
▁considera	-8.74443
▁finales	-8.74491
▁man	-8.74557
▁versión	-8.74773
mina	-8.74895
▁autor	-8.74922
mas	-8.74956
▁modelo	-8.75062
rios	-8.75108
▁velocidad	-8.75175
▁20	-8.75287
▁utiliza	-8.753
▁casa	-8.75551
▁trata	-8.75559
▁estilo	-8.75769
nes	-8.75851
▁código	-8.75904
10	-8.76004
▁libro	-8.76057
▁zonas	-8.76075
ín	-8.7618
iendo	-8.76302
min	-8.76308
▁“	-8.76434
▁león	-8.7659
▁sociedad	-8.76611
▁anti	-8.76654
▁isla	-8.76725
▁bar	-8.76728
▁sea	-8.76734
▁resto	-8.76767
▁antiguo	-8.76804
▁fuera	-8.76929
▁ja	-8.76967
▁pues	-8.77007
▁números	-8.77066
▁000	-8.77102
▁antigua	-8.77171
▁unión	-8.77235
&	-8.77405
▁línea	-8.77501
ino	-8.77607
bles	-8.7783
▁posteriormente	-8.77976
▁habla	-8.78141
▁periodo	-8.78155
▁europea	-8.78282
son	-8.78406
▁tales	-8.7859
▁sentido	-8.78848
▁mal	-8.79034
▁julio	-8.79037
▁=	-8.7908
▁ello	-8.79188
▁dio	-8.7923
▁du	-8.79603
ente	-8.79611
▁conserva	-8.79726
▁regiones	-8.79897
▁menor	-8.80023
nia	-8.80122
aceae	-8.80134
cos	-8.80473
▁materia	-8.80592
tado	-8.80642
▁mil	-8.80794
ex	-8.80847
▁organización	-8.81033
▁llamada	-8.81048
▁porque	-8.81134
▁importancia	-8.81232
fer	-8.8124
ton	-8.81312
▁generalmente	-8.8139
at	-8.81754
▁fo	-8.81841
▁finalmente	-8.81855
▁propio	-8.8186
▁lenguaje	-8.81905
dia	-8.81922
del	-8.81968
▁aún	-8.81989
▁puerto	-8.82008
▁fuerza	-8.82034
▁pesar	-8.82331
▁lu	-8.82385
ana	-8.82647
cri	-8.82775
▁cuyo	-8.82779
▁medida	-8.828
▁resultado	-8.82895
▁área	-8.83064
ine	-8.83102
ju	-8.8323
▁hizo	-8.83508
▁formas	-8.83529
▁enero	-8.83806
des	-8.84175
▁industria	-8.84267
▁dios	-8.84276
he	-8.84507
▁ti	-8.84668
▁jo	-8.84676
ún	-8.84749
nda	-8.8497
▁griego	-8.85057
ían	-8.85089
▁control	-8.85098
au	-8.85166
▁concepto	-8.85633
▁principios	-8.85654
▁auto	-8.85741
▁presencia	-8.85971
▁cuya	-8.86307
it	-8.86493
▁qui	-8.8657
▁11	-8.86912
▁tarde	-8.87039
▁capacidad	-8.87095
iza	-8.87101
▁ga	-8.87247
til	-8.87314
▁padre	-8.87555
▁distancia	-8.87663
bu	-8.87698
▁cinco	-8.8776
cho	-8.87809
▁tenía	-8.87866
ion	-8.87872
ct	-8.88182
▁juegos	-8.88274
▁santa	-8.88305
▁crecimiento	-8.88426
▁destaca	-8.88703
▁diciembre	-8.88714
▁palabra	-8.88754
tan	-8.88969
▁interior	-8.89099
nt	-8.89173
ras	-8.89286
▁núcleo	-8.89329
llo	-8.89361
ár	-8.8938
▁referencia	-8.89873
mp	-8.89909
▁valle	-8.90014
▁significa	-8.90406
▁mejor	-8.90412
nas	-8.90458
▁siguientes	-8.90502
▁habitantes	-8.9057
▁inglés	-8.90653
▁ambos	-8.90781
▁partido	-8.90824
gar	-8.90955
▁com	-8.90968
▁j	-8.91155
▁ir	-8.91157
▁humano	-8.91173
▁naturaleza	-8.9125
▁actividad	-8.91427
▁derecho	-8.9157
▁toma	-8.91636
▁ellas	-8.9164
tica	-8.91649
▁alto	-8.91715
▁miembros	-8.91737
▁bu	-8.9242
▁clima	-8.92435
▁castilla	-8.92633
▁ru	-8.92634
ut	-8.92742
mon	-8.92775
▁papel	-8.92832
▁evolución	-8.92841
▁paso	-8.92867
día	-8.92895
▁educación	-8.93049
"),	-8.93427
ud	-8.93643
nta	-8.93664
▁frente	-8.93776
▁respecto	-8.93836
▁grande	-8.93841
▁francés	-8.93937
▁escala	-8.94085
▁diversos	-8.94139
▁h	-8.94206
▁ob	-8.94291
ología	-8.94555
▁permite	-8.94575
▁oficial	-8.94682
▁comp	-8.94826
▁especie	-8.94879
▁literatura	-8.9491
”	-8.95041
▁tamaño	-8.95056
▁posee	-8.95093
▁ad	-8.95165
▁planeta	-8.95218
▁único	-8.95261
▁incluye	-8.95292
▁diversas	-8.95353
▁aproximadamente	-8.95421
▁and	-8.95501
yo	-8.95521
▁separa	-8.95541
can	-8.95726
▁tri	-8.95745
gt	-8.95754
▁w	-8.95765
▁lenguas	-8.95959
ad	-8.95969
ndi	-8.96101
▁objetivo	-8.96291
▁menudo	-8.96291
tal	-8.96499
▁carga	-8.96597
▁septiembre	-8.96602
rro	-8.96627
▁denomina	-8.96659
▁premio	-8.9673
ano	-8.96791
▁sería	-8.96808
▁puesto	-8.96853
▁13	-8.97056
▁cultural	-8.97068
▁comenzó	-8.97124
▁km	-8.97246
ide	-8.97288
▁v	-8.97359
▁animales	-8.97425
tina	-8.97476
dio	-8.97559
▁idea	-8.98016
▁octubre	-8.98173
sas	-8.98243
▁les	-8.98299
▁principio	-8.98478
tación	-8.98876
▁cuanto	-8.98915
val	-8.98954
▁carácter	-8.99234
▁económica	-8.9931
den	-8.99349
▁trans	-8.99505
ió	-8.99613
▁clasificación	-8.99641
ner	-8.99755
▁pu	-8.99769
cion	-8.99769
▁pasa	-8.99786
como	-8.99875
▁análisis	-8.99953
tera	-9.00192
▁dado	-9.00212
▁construcción	-9.00306
▁can	-9.0042
▁mayo	-9.00463
9	-9.00507
té	-9.00525
tre	-9.00684
cre	-9.00782
▁primero	-9.00787
▁funciones	-9.00956
▁público	-9.00976
▁formación	-9.01146
▁anterior	-9.01152
der	-9.01355
▁nuevas	-9.01429
▁the	-9.01489
▁conoce	-9.01551
▁naturales	-9.01596
▁afirma	-9.01609
▁occidental	-9.0182
▁poli	-9.01827
▁propia	-9.0183
icos	-9.02066
▁celebra	-9.02084
iano	-9.02206
▁super	-9.02417
▁incluyen	-9.02431
▁temperatura	-9.02439
ger	-9.02479
▁sector	-9.02532
ante	-9.02652
▁juego	-9.02755
lt	-9.02866
▁investigación	-9.0287
lle	-9.02916
50	-9.03094
cul	-9.03103
izado	-9.03122
▁usa	-9.03128
11	-9.0317
▁hombre	-9.03361
▁perú	-9.03553
▁relaciones	-9.03596
tru	-9.03689
▁salud	-9.03848
lí	-9.03856
▁gra	-9.04
▁casos	-9.04262
▁cine	-9.04292
▁definición	-9.04377
▁cre	-9.04421
gue	-9.04453
▁primeras	-9.04485
▁unidad	-9.04653
▁ejército	-9.0494
▁radio	-9.04986
▁frecuencia	-9.05053
▁creación	-9.051
▁objeto	-9.05202
pl	-9.05267
▁conocimiento	-9.05274
▁química	-9.05345
▁militar	-9.05422
▁proyecto	-9.05477
▁alemania	-9.05507
▁lista	-9.05679
ment	-9.05724
▁estar	-9.05758
▁deriva	-9.05901
ke	-9.05901
▁título	-9.05962
▁vista	-9.06015
▁fuente	-9.06061
▁única	-9.06142
▁oro	-9.06302
▁chi	-9.06304
▁servicios	-9.0632
▁ayuda	-9.06507
▁capa	-9.0658
rán	-9.0659
▁aparece	-9.06658
▁marzo	-9.06726
000	-9.06747
rra	-9.06767
▁problemas	-9.06767
▁for	-9.06768
▁considerado	-9.06791
▁ii	-9.06848
sen	-9.06945
▁islas	-9.0696
sh	-9.06973
▁junio	-9.07128
▁partículas	-9.07393
);	-9.07445
cional	-9.07446
▁ciencias	-9.07561
ario	-9.07573
▁humanos	-9.07672
▁particular	-9.07713
via	-9.07727
▁civil	-9.07846
lina	-9.0791
▁transporte	-9.08037
▁gracias	-9.08038
▁amplia	-9.08107
▁realidad	-9.08129
▁consecuencia	-9.08153
▁ge	-9.08255
▁última	-9.08293
▁dar	-9.08306
▁franco	-9.08345
ez	-9.08498
▁lleva	-9.08565
▁áfrica	-9.08621
▁viaje	-9.08881
▁solar	-9.08927
▁similar	-9.08933
sis	-9.08964
id	-9.09003
▁conocida	-9.09018
▁actualidad	-9.09184
▁constante	-9.09223
▁cabo	-9.09456
▁autores	-9.09517
▁cha	-9.09535
cua	-9.0955
▁estudia	-9.09618
tero	-9.09634
ry	-9.09644
▁existencia	-9.09662
cl	-9.09788
▁30	-9.09929
▁constitución	-9.10156
▁productos	-9.10202
▁posición	-9.10339
▁aire	-9.10557
▁fecha	-9.10557
iva	-9.10673
sto	-9.10859
▁longitud	-9.10871
12	-9.10994
▁fu	-9.11069
▁algo	-9.1122
▁material	-9.11298
▁baja	-9.11377
▁condiciones	-9.11476
ando	-9.11502
▁banda	-9.11601
▁llegar	-9.11612
▁dicha	-9.11835
▁abril	-9.11838
entes	-9.11861
idos	-9.11911
▁muestra	-9.12123
▁mon	-9.1229
▁25	-9.12332
tion	-9.12429
ie	-9.12489
the	-9.12588
20	-9.12637
▁realizar	-9.12847
lan	-9.12888
▁pueblo	-9.12977
gó	-9.12978
▁podría	-9.13105
gre	-9.1319
▁plan	-9.13419
▁llegó	-9.13421
▁sociales	-9.13544
▁práctica	-9.13575
▁persona	-9.13747
▁inferior	-9.14037
eron	-9.14121
▁película	-9.14123
ible	-9.14192
80	-9.14362
▁villa	-9.14404
▁mes	-9.14505
▁emplea	-9.14531
▁tradición	-9.14534
▁puntos	-9.14667
▁estándar	-9.14671
bilidad	-9.14723
▁propiedades	-9.14886
▁forman	-9.15193
▁continua	-9.1523
tico	-9.15252
▁figura	-9.15281
▁febrero	-9.15282
▁flores	-9.15386
▁objetos	-9.15494
▁destacan	-9.15531
▁noviembre	-9.15533
▁sede	-9.1554
▁últimos	-9.15543
▁mor	-9.15556
▁mitad	-9.15785
▁método	-9.15796
nal	-9.16053
▁'	-9.16162
▁humana	-9.1633
▁éxito	-9.16416
▁conquista	-9.16418
▁of	-9.16467
▁áreas	-9.16864
rias	-9.16994
14	-9.1704
lar	-9.1706
▁colombia	-9.17178
▁efecto	-9.17236
▁extra	-9.17285
▁tradicional	-9.17359
▁cambios	-9.17484
lin	-9.17497
▁pueblos	-9.17514
▁publicó	-9.17562
▁hijo	-9.17674
▁siglos	-9.17771
▁situación	-9.17819
▁diseño	-9.17829
▁convirtió	-9.17947
▁división	-9.17961
▁luis	-9.18057
▁produce	-9.18166
▁interés	-9.18488
com	-9.18506
▁agosto	-9.18595
osa	-9.18624
ol	-9.18744
▁z	-9.18804
▁fuerzas	-9.18841
▁mercado	-9.18855
▁técnicas	-9.18917
▁nuevos	-9.18968
able	-9.18972
▁partes	-9.19006
▁caracteriza	-9.19242
▁comenza	-9.19243
▁museo	-9.19428
▁pintura	-9.19518
gua	-9.19551
ivo	-9.19561
▁publicado	-9.19585
tur	-9.19647
▁planta	-9.19681
▁res	-9.19744
im	-9.19747
▁bal	-9.19842
sco	-9.19856
▁roma	-9.19921
▁chile	-9.20039
és	-9.20043
▁software	-9.20058
▁novela	-9.2046
").	-9.20471
▁ka	-9.20494
=	-9.20505
bla	-9.20695
▁carlos	-9.20701
▁hojas	-9.20796
▁ciclo	-9.20798
▁disco	-9.20824
▁términos	-9.20893
▁maría	-9.21036
▁comercio	-9.2109
land	-9.21479
▁escuela	-9.21549
▁dicho	-9.21567
endo	-9.21809
▁pública	-9.21964
▁moderna	-9.21967
30	-9.22052
▁fase	-9.22117
▁dice	-9.22131
15	-9.22136
▁teatro	-9.2215
▁camino	-9.22195
▁arquitectura	-9.22419
▁elemento	-9.22474
▁flor	-9.22489
▁géneros	-9.22609
ben	-9.2261
▁mayores	-9.22774
ier	-9.22791
▁original	-9.22858
▁sierra	-9.2296
▁cer	-9.23089
]	-9.23209
▁organismos	-9.23281
dido	-9.23503
▁l	-9.2351
▁francisco	-9.23518
▁jesús	-9.23637
ré	-9.23774
dera	-9.23789
▁pan	-9.23839
▁im	-9.23993
▁distintas	-9.24087
▁fuerte	-9.24184
▁pedro	-9.24207
▁ella	-9.24208
-19	-9.24315
▁turismo	-9.24348
▁palabras	-9.24405
▁ahora	-9.24502
13	-9.24537
▁termina	-9.24563
idas	-9.24841
▁unidades	-9.24938
▁francesa	-9.25007
▁desarrollado	-9.25121
▁político	-9.25203
ñ	-9.2526
▁obstante	-9.25284
▁expresa	-9.25288
=1	-9.25382
▁enfermedad	-9.25467
▁estadounidense	-9.2548
▁memoria	-9.25515
bre	-9.25581
▁romano	-9.25594
mento	-9.25723
▁dirección	-9.25839
▁utilizan	-9.25932
▁(18	-9.26033
ste	-9.26107
▁llega	-9.26228
▁seguridad	-9.26257
▁inicia	-9.2632
eta	-9.26352
▁utilizar	-9.26447
▁valores	-9.26458
▁r	-9.26573
aciones	-9.26577
una	-9.26702
zar	-9.26756
▁distintos	-9.26933
▁independencia	-9.27099
bri	-9.27162
ed	-9.27204
▁alcanza	-9.27242
rían	-9.27299
▁china	-9.2739
▁libertad	-9.27391
▁gas	-9.27497
lio	-9.27555
▁servicio	-9.27646
▁etapa	-9.27669
▁presentan	-9.27741
▁tu	-9.27933
eg	-9.28023
▁emp	-9.28175
▁mari	-9.28207
▁latín	-9.28444
tón	-9.28445
aba	-9.28634
▁calidad	-9.28938
▁procesos	-9.28956
▁texto	-9.29102
▁pin	-9.2918
▁industrial	-9.29206
▁comunicación	-9.29334
▁&	-9.29337
▁genera	-9.29367
▁realiza	-9.29582
▁acu	-9.29595
▁depende	-9.29712
▁estaban	-9.29764
pen	-9.29814
▁idioma	-9.30037
▁libros	-9.30115
▁ur	-9.3015
▁medios	-9.30243
ley	-9.3026
toria	-9.30382
▁local	-9.30391
▁necesario	-9.30395
▁don	-9.30443
▁larga	-9.30542
▁marca	-9.30578
▁oriental	-9.30768
▁eje	-9.30845
▁implica	-9.30846
▁dan	-9.30933
ónica	-9.30938
▁producto	-9.30962
▁económico	-9.31034
dr	-9.31205
▁basa	-9.31266
▁negro	-9.31275
tin	-9.31454
▁crear	-9.31586
tt	-9.31607
▁micro	-9.31745
st	-9.3175
mit	-9.31781
▁encontrar	-9.31857
illo	-9.31903
▁(20	-9.31912
▁filosofía	-9.3194
▁religión	-9.3201
▁variedad	-9.32093
▁acción	-9.32161
dra	-9.32244
▁numerosos	-9.32307
▁murcia	-9.32499
▁2000	-9.32548
▁seis	-9.32662
▁meses	-9.32685
ig	-9.32974
▁científica	-9.33052
oc	-9.33092
▁parece	-9.33127
▁alemán	-9.33203
gente	-9.3321
▁antonio	-9.3323
cular	-9.33262
col	-9.33282
▁municipio	-9.33367
▁0	-9.33374
fin	-9.3346
▁madre	-9.33503
amiento	-9.33604
ko	-9.33686
ly	-9.33893
▁clásica	-9.33913
▁web	-9.33918
▁mujeres	-9.34046
ki	-9.34089
tivos	-9.34149
illa	-9.34177
▁°	-9.34215
▁nunca	-9.34258
▁cómo	-9.34258
▁utilizado	-9.34289
▁busca	-9.34297
én	-9.34321
▁aplica	-9.34395
▁cargo	-9.34559
▁vo	-9.34582
▁compañía	-9.34711
▁escribió	-9.34711
▁resulta	-9.34713
ue	-9.34738
bil	-9.34791
stra	-9.3483
▁val	-9.34838
▁carta	-9.35043
hu	-9.35047
▁gua	-9.35095
dura	-9.35119
rico	-9.35399
▁clase	-9.35405
▁actividades	-9.35501
▁distribución	-9.35628
▁campos	-9.3576
gado	-9.35781
▁medicina	-9.35785
▁parís	-9.36095
▁ambiente	-9.36099
▁ber	-9.36164
▁leyes	-9.36323
▁sonido	-9.36394
▁mag	-9.36499
gui	-9.36612
izar	-9.36739
ónico	-9.36746
▁tratado	-9.36858
▁universal	-9.36865
=3	-9.36872
▁estrellas	-9.36941
▁provoca	-9.3702
▁consejo	-9.3703
▁multi	-9.3706
ografía	-9.37121
▁ocasiones	-9.37175
op	-9.37206
▁exp	-9.37217
▁derechos	-9.37288
▁24	-9.37329
▁pla	-9.37339
▁bio	-9.37351
▁contiene	-9.37372
▁presión	-9.37382
torio	-9.37397
▁batalla	-9.37487
▁estima	-9.37535
eros	-9.37584
▁métodos	-9.37628
▁problema	-9.37639
▁independiente	-9.37644
▁histórico	-9.37758
dora	-9.37777
▁brasil	-9.37796
▁er	-9.37821
▁fundamental	-9.3787
lógica	-9.37966
▁instrumentos	-9.37991
▁comercial	-9.38032
▁incluyendo	-9.38141
65	-9.38239
▁completa	-9.38268
antes	-9.3842
em	-9.38435
▁inf	-9.38513
br	-9.3857
nder	-9.38618
▁sigue	-9.38663
▁basado	-9.3871
▁corona	-9.38748
▁descubrimiento	-9.38759
▁acceso	-9.38904
▁carrera	-9.38905
▁plaza	-9.38957
▁tor	-9.38975
rd	-9.38988
▁aplicaciones	-9.38994
▁elecciones	-9.39068
▁alguna	-9.39104
25	-9.39164
▁ning	-9.39165
aria	-9.39252
▁efectos	-9.39309
tr	-9.39347
▁liga	-9.39558
▁península	-9.397
▁incorpora	-9.397
rlo	-9.39743
▁lugares	-9.39801
▁participa	-9.39811
▁grado	-9.39834
▁producir	-9.3986
▁continente	-9.39861
▁metros	-9.39969
▁50	-9.4006
=2	-9.40117
▁calle	-9.4015
▁funciona	-9.4026
▁oeste	-9.4026
nio	-9.40383
▁define	-9.40405
▁plano	-9.405
19	-9.40508
▁líneas	-9.40586
rum	-9.40619
▁combina	-9.40644
▁griega	-9.40664
▁tecnología	-9.40708
▁eu	-9.40825
▁católica	-9.40826
▁expresión	-9.40844
▁denominado	-9.40866
▁suma	-9.41045
▁descripción	-9.41114
▁2006	-9.41169
gan	-9.41246
18	-9.41296
cro	-9.41304
▁ámbito	-9.41312
▁am	-9.41369
tribu	-9.41375
▁contenido	-9.41478
▁determina	-9.41599
▁ter	-9.41642
▁italia	-9.41728
▁parque	-9.41779
▁numerosas	-9.41801
▁proporciona	-9.41863
zi	-9.41887
▁van	-9.41968
▁fuentes	-9.42135
dica	-9.4226
▁visita	-9.42272
▁dominio	-9.42292
▁gi	-9.42371
ecto	-9.42406
▁academia	-9.42456
▁agrupa	-9.42459
▁artes	-9.42618
ster	-9.42636
▁2010	-9.42652
▁qué	-9.42893
▁congreso	-9.42951
▁100	-9.43016
rt	-9.43337
tada	-9.43364
▁provincias	-9.43412
▁corta	-9.43435
▁tasa	-9.43528
▁n	-9.43538
▁pequeñas	-9.43632
tividad	-9.43648
tis	-9.43728
▁imagen	-9.4378
mática	-9.43786
▁monte	-9.43817
oso	-9.43854
▁pen	-9.43878
▁presente	-9.43987
▁romana	-9.44023
▁gu	-9.44058
bia	-9.44246
▁autónoma	-9.4428
▁barcelona	-9.4428
▁revolución	-9.44283
▁gen	-9.44294
▁cuba	-9.44305
▁men	-9.44347
▁entorno	-9.44462
tir	-9.44477
▁bra	-9.44478
▁territorios	-9.44479
▁fre	-9.44504
▁pie	-9.4455
port	-9.44554
▁usar	-9.44637
stro	-9.44682
▁canadá	-9.44783
▁musical	-9.44787
mé	-9.44835
▁crea	-9.44847
▁histórica	-9.44866
▁consiste	-9.44884
▁rec	-9.44929
▁obtener	-9.44952
▁científico	-9.45019
="3	-9.45042
▁tema	-9.45265
▁compuestos	-9.45292
▁lucha	-9.45358
izada	-9.45458
▁hombres	-9.45491
wa	-9.45503
▁venezuela	-9.45628
▁apoyo	-9.45806
▁tabla	-9.4583
▁entrada	-9.45905
▁representación	-9.4606
60	-9.46141
lé	-9.46161
▁poeta	-9.46176
ío	-9.46183
▁asia	-9.46185
iana	-9.46221
–	-9.46243
dina	-9.46272
▁equipo	-9.46631
▁falta	-9.46645
▁frontera	-9.46651
▁todavía	-9.46671
cr	-9.46765
puso	-9.46772
▁pequeño	-9.46775
▁cara	-9.46815
am	-9.46848
gia	-9.4699
▁acerca	-9.47005
▁eléctrica	-9.4703
▁2007	-9.47034
▁vino	-9.47064
▁clásico	-9.47077
mera	-9.47119
▁recursos	-9.47329
▁asimismo	-9.47339
spira	-9.47344
▁interna	-9.47412
’	-9.47474
▁posterior	-9.4753
▁celular	-9.47597
▁pequeña	-9.47664
▁exterior	-9.47694
▁revista	-9.47702
▁2008	-9.47707
▁artículo	-9.47941
▁allí	-9.47968
▁internacionales	-9.48136
▁anteriores	-9.48151
▁cabe	-9.48205
[	-9.4833
▁buena	-9.48392
▁compara	-9.48414
▁neo	-9.48423
para	-9.48533
▁observa	-9.48702
▁escrito	-9.48764
▁santiago	-9.48904
▁empresa	-9.48959
▁mac	-9.49053
pas	-9.49063
▁licencia	-9.4908
▁semana	-9.49084
▁epi	-9.49108
eno	-9.49172
▁hidro	-9.49174
ifica	-9.49328
▁motivo	-9.49363
▁wi	-9.49407
▁nuclear	-9.49431
▁versiones	-9.49434
qu	-9.49508
▁potencia	-9.49588
▁formado	-9.49595
▁intenta	-9.49621
q	-9.49625
om	-9.49657
▁halla	-9.49704
icas	-9.49849
▁tele	-9.49927
uro	-9.49971
vía	-9.50004
▁col	-9.5012
puesta	-9.50124
▁mezcla	-9.50139
▁extremo	-9.50139
acto	-9.50157
▁pasó	-9.50174
ética	-9.50263
▁data	-9.50296
▁señor	-9.50313
ería	-9.50381
▁razón	-9.50507
▁ambas	-9.50509
▁2011	-9.5052
▁generación	-9.50542
cle	-9.50618
▁materiales	-9.50636
▁suficiente	-9.50673
▁blanco	-9.50673
ima	-9.50673
amp	-9.5073
▁pasado	-9.5081
ético	-9.50821
▁altura	-9.50827
40	-9.50855
gas	-9.50886
mbo	-9.50907
mor	-9.50934
▁suelo	-9.50951
▁mono	-9.5096
▁restos	-9.51079
▁diferente	-9.51117
▁agricultura	-9.51209
▁técnica	-9.51242
▁bur	-9.51274
idades	-9.51379
▁espera	-9.51389
▁crisis	-9.51398
▁directamente	-9.5149
cent	-9.5152
▁comunes	-9.51569
▁propiedad	-9.51599
▁normalmente	-9.51717
▁unido	-9.51836
▁considerada	-9.51896
▁llevó	-9.51929
▁verano	-9.51976
ist	-9.5198
▁fil	-9.52011
▁ten	-9.52023
▁señala	-9.52224
▁municipios	-9.52272
▁palacio	-9.52302
▁hacen	-9.52354
▁argentina	-9.52473
▁siete	-9.52477
▁aumenta	-9.52556
▁antiguos	-9.52605
▁semi	-9.52852
tá	-9.52968
▁john	-9.5302
▁contrario	-9.53024
logía	-9.53025
ris	-9.53183
▁televisión	-9.53205
33	-9.53207
▁marco	-9.53414
▁cita	-9.53422
▁secuencia	-9.53571
▁compuesta	-9.53583
▁hidrógeno	-9.53753
▁calendario	-9.53937
▁2009	-9.53956
str	-9.54112
▁fal	-9.54254
▁españoles	-9.54344
▁naciones	-9.54419
▁hitler	-9.54491
▁adapta	-9.54496
▁geografía	-9.54507
▁rica	-9.54641
ren	-9.54837
bor	-9.54952
▁mejora	-9.54976
ato	-9.54983
▁personal	-9.55004
rón	-9.55033
01	-9.55042
▁refiere	-9.55049
▁realizó	-9.55069
▁cabeza	-9.55197
▁produjo	-9.55235
▁ministro	-9.55238
▁llegada	-9.55276
▁santo	-9.55289
▁40	-9.553
▁mancha	-9.55302
aron	-9.55303
ense	-9.55309
ard	-9.55456
ral	-9.55502
▁instituto	-9.5561
▁iii	-9.55665
sal	-9.55724
▁ejemplos	-9.55726
aje	-9.55777
26	-9.55793
▁difícil	-9.55797
▁médico	-9.55797
▁divide	-9.55804
▁cristianos	-9.55811
▁verde	-9.55829
▁habría	-9.55851
▁28	-9.55951
▁corte	-9.56041
▁realizado	-9.56125
▁ácido	-9.56174
▁aumento	-9.56187
38	-9.56235
ito	-9.56253
▁consta	-9.56271
▁demás	-9.56317
▁basada	-9.5635
▁pri	-9.56486
▁aparición	-9.56551
▁pequeños	-9.56603
▁programas	-9.5662
▁ríos	-9.56636
▁inicio	-9.56637
▁cambia	-9.56653
▁fija	-9.56676
▁comunidades	-9.56716
▁federal	-9.56741
▁edición	-9.56744
ent	-9.56771
▁aplicación	-9.56777
bio	-9.56793
▁mecánica	-9.5693
°	-9.56982
culo	-9.5701
▁estrella	-9.57025
inas	-9.57028
▁torno	-9.57053
53	-9.57098
▁mensaje	-9.57121
▁estuvo	-9.57121
algún	-9.57178
▁publica	-9.57195
▁operativo	-9.57219
▁bastante	-9.57319
▁gal	-9.57368
=4	-9.57514
▁director	-9.57634
▁cultivo	-9.57696
▁grecia	-9.57705
▁int	-9.5771
ística	-9.57752
▁conecta	-9.57764
ff	-9.57799
ura	-9.57873
▁castellano	-9.57885
▁proviene	-9.57896
▁catedral	-9.58076
▁japón	-9.58077
▁comportamiento	-9.58082
▁0,	-9.5809
▁vio	-9.58256
▁fútbol	-9.58269
▁ninguna	-9.58281
▁usado	-9.58325
ot	-9.58374
▁conocidos	-9.58463
tía	-9.58471
▁empresas	-9.58594
▁será	-9.58671
rig	-9.58768
▁pal	-9.58812
▁concentra	-9.58864
▁corre	-9.58945
bar	-9.59003
▁instituciones	-9.59042
▁carbono	-9.59137
▁artistas	-9.59142
▁ana	-9.59211
75	-9.59215
▁árabe	-9.59236
▁interpreta	-9.59245
▁aquellos	-9.59275
mero	-9.59312
▁científicos	-9.59352
▁niveles	-9.59451
▁tenían	-9.59482
▁mer	-9.59487
▁mujer	-9.59517
homo	-9.59535
16	-9.59592
▁peso	-9.59636
▁paul	-9.59685
▁fondo	-9.59699
▁1,	-9.5976
▁describe	-9.59822
▁formar	-9.59834
▁explica	-9.59857
ab	-9.59901
▁consideran	-9.59986
lá	-9.60007
▁bolívar	-9.60016
▁compuesto	-9.60017
ata	-9.60019
▁sexual	-9.6005
▁tierras	-9.60082
uc	-9.6009
anza	-9.602
▁cristiana	-9.60213
▁imágenes	-9.60213
▁contacto	-9.60214
▁tratamiento	-9.60284
▁ideas	-9.60358
68	-9.60379
▁electrones	-9.60424
▁respuesta	-9.60426
▁similares	-9.60475
dro	-9.60527
▁ab	-9.60529
▁mediterráneo	-9.60606
▁factores	-9.60624
▁declara	-9.60687
▁administración	-9.60716
▁textos	-9.60776
▁ecuador	-9.60803
▁viento	-9.60836
48	-9.60967
▁mantener	-9.61001
▁supera	-9.61011
▁corresponde	-9.61084
▁océano	-9.61199
▁22	-9.6137
▁posteriores	-9.61387
gel	-9.61425
▁escritor	-9.61502
▁normal	-9.6159
▁extensión	-9.61596
▁cierta	-9.61645
▁máquina	-9.61646
▁dura	-9.6165
24	-9.61755
▁utilizada	-9.61806
▁afecta	-9.61849
▁crítica	-9.61853
▁locales	-9.61917
▁culturales	-9.61926
▁pérdida	-9.61995
▁refleja	-9.61995
_1	-9.62008
▁escribir	-9.62008
▁27	-9.62087
▁componentes	-9.62122
▁localiza	-9.62176
▁composición	-9.62204
▁us	-9.62273
▁sala	-9.62372
▁desarrolló	-9.62395
▁órbita	-9.62395
▁pensamiento	-9.62396
▁reserva	-9.62398
▁resultados	-9.62482
▁aquel	-9.62509
tec	-9.62573
▁régimen	-9.62596
▁tendencia	-9.62596
▁completo	-9.62596
21	-9.62611
▁simple	-9.62639
▁cifra	-9.62639
ev	-9.62672
ps	-9.62826
▁bor	-9.63046
mil	-9.63072
22	-9.63103
▁ocurre	-9.63201
▁poseen	-9.63338
▁onda	-9.63368
fre	-9.63385
▁vol	-9.63389
▁21	-9.63402
▁necesita	-9.63403
▁designa	-9.63418
▁ger	-9.6349
▁creado	-9.63603
▁honor	-9.63623
cido	-9.6367
lico	-9.63721
▁corriente	-9.63731
▁aspectos	-9.63739
ona	-9.63742
ium	-9.63924
sol	-9.63937
ix	-9.63957
edi	-9.63961
mbre	-9.63964
▁populares	-9.63986
▁máximo	-9.64013
vol	-9.64049
▁india	-9.64073
▁rico	-9.64199
▁biblioteca	-9.64217
▁evidencia	-9.64217
hua	-9.6423
▁significado	-9.6433
▁hipótesis	-9.64422
▁club	-9.64426
▁notable	-9.64431
rm	-9.6446
mis	-9.64488
rí	-9.64525
▁políticos	-9.64558
▁queda	-9.64578
▁et	-9.64621
▁legal	-9.64727
▁enfermedades	-9.64765
▁habita	-9.6477
▁nacionales	-9.64772
▁creó	-9.6478
pt	-9.64811
▁situado	-9.64833
▁junta	-9.64894
lógico	-9.64932
ü	-9.64977
▁prueba	-9.64998
if	-9.65063
▁contexto	-9.65085
fra	-9.65105
▁quienes	-9.6512
rado	-9.65156
▁emb	-9.65237
▁ben	-9.65302
▁bru	-9.65313
▁movimientos	-9.65342
▁políticas	-9.65349
ji	-9.65406
▁atmósfera	-9.6545
▁futuro	-9.6545
for	-9.65454
70	-9.65521
ii	-9.65561
▁tercera	-9.65591
mó	-9.65606
▁italiano	-9.65708
51	-9.65759
▁usuario	-9.65843
inos	-9.65854
tivas	-9.65866
▁diez	-9.65945
▁europeos	-9.65946
▁mano	-9.65984
gráfico	-9.66032
▁estructuras	-9.66055
▁mercurio	-9.66073
▁recibió	-9.66073
36	-9.66083
▁piedra	-9.66084
▁oriente	-9.66089
ios	-9.66136
iéndose	-9.66146
98	-9.6616
▁militares	-9.66187
41	-9.66191
izó	-9.66269
▁comienza	-9.66281
eu	-9.66383
]].	-9.66394
▁evitar	-9.66557
▁vasco	-9.66596
86	-9.667
▁ki	-9.6671
▁[	-9.66744
="4	-9.66811
▁tiempos	-9.66917
▁fenómeno	-9.6692
▁cam	-9.66945
37	-9.67035
95	-9.67089
▁cámara	-9.67119
▁formal	-9.67229
▁barrio	-9.67305
▁23	-9.67339
▁cierto	-9.67355
▁temas	-9.67357
▁colores	-9.67508
▁destino	-9.67512
▁enseñanza	-9.6754
▁ocho	-9.67651
▁entra	-9.67696
▁ruta	-9.67736
▁marx	-9.67873
▁territorial	-9.67964
leg	-9.6798
▁determinado	-9.68156
▁podía	-9.68177
pan	-9.68178
▁internet	-9.682
ático	-9.68213
her	-9.68333
▁sch	-9.68353
85	-9.68371
▁za	-9.6848
▁tercer	-9.6855
▁universo	-9.68603
eza	-9.68755
▁medi	-9.6883
▁cruz	-9.6885
▁representan	-9.68889
▁aspecto	-9.68889
ás	-9.68958
28	-9.69121
▁regula	-9.69141
▁familias	-9.69143
1"	-9.69161
▁cosas	-9.69178
▁garcía	-9.69244
▁densidad	-9.69266
▁deporte	-9.69357
▁utilizando	-9.69414
▁digital	-9.6946
ell	-9.69465
▁domina	-9.69509
▁canal	-9.69608
ngo	-9.69662
▁global	-9.69675
▁miguel	-9.69675
▁clases	-9.69779
▁municipal	-9.69812
▁nombres	-9.69826
▁denominada	-9.69826
▁patrimonio	-9.69891
▁literaria	-9.69891
▁cuenca	-9.69892
▁2005	-9.69919
▁centros	-9.69965
arios	-9.70014
sia	-9.70024
▁transforma	-9.70047
▁múltiples	-9.70099
▁practica	-9.70107
▁organiza	-9.70152
▁llevar	-9.70177
▁amor	-9.70209
san	-9.70234
▁posibilidad	-9.7025
▁nacimiento	-9.70324
▁escrita	-9.7033
▁manuel	-9.70355
▁programación	-9.70373
▁victoria	-9.70401
up	-9.70403
shi	-9.70421
rg	-9.7044
▁cent	-9.70464
▁tribu	-9.70467
▁bloque	-9.70542
osos	-9.70708
▁favor	-9.70734
▁humanidad	-9.7076
43	-9.70784
net	-9.70962
▁elegido	-9.70983
cep	-9.71053
▁clasifica	-9.71062
edad	-9.71091
▁tur	-9.71335
▁símbolo	-9.71351
23	-9.71357
27	-9.71378
+	-9.71391
64	-9.71394
▁expansión	-9.71416
▁encontraba	-9.71416
▁vía	-9.71458
▁plata	-9.71488
▁trabaja	-9.71684
▁cree	-9.71713
▁danza	-9.71729
izados	-9.71796
tismo	-9.71901
▁salvador	-9.71905
ías	-9.71912
cé	-9.72005
▁papa	-9.72019
mat	-9.72157
▁interpretación	-9.72278
plan	-9.72285
▁responsable	-9.72298
▁apoya	-9.72328
ler	-9.72336
▁bri	-9.72351
▁alimentos	-9.72453
▁matemático	-9.7252
▁2019	-9.72542
▁potencial	-9.72545
fil	-9.72546
vas	-9.72592
▁eventos	-9.72733
▁antigüedad	-9.72742
▁(17	-9.72744
dé	-9.72746
88	-9.72756
log	-9.72825
▁pudo	-9.7291
▁altas	-9.72911
▁moderno	-9.7295
▁caracteres	-9.72965
▁defensa	-9.72965
▁hora	-9.72973
▁clave	-9.72987
▁opera	-9.73026
▁señal	-9.73093
▁adn	-9.73124
lista	-9.73135
▁autonomía	-9.73188
▁bits	-9.7323
▁disciplina	-9.73241
▁probablemente	-9.7327
pó	-9.73296
▁visión	-9.7333
57	-9.73345
áceas	-9.73402
▁miembro	-9.73409
▁reconoce	-9.73413
▁mediado	-9.73437
▁dólares	-9.7349
▁aves	-9.73585
▁60	-9.7368
uri	-9.73731
▁generales	-9.73773
▁solamente	-9.73798
▁foto	-9.73802
glo	-9.73826
▁encontrado	-9.73861
▁quedan	-9.73863
90	-9.73932
lis	-9.74005
▁desarrollar	-9.74051
▁establece	-9.74069
▁máxima	-9.74086
▁indígenas	-9.74125
▁escudo	-9.74133
▁80	-9.74187
var	-9.74202
▁constituye	-9.7424
ificación	-9.74277
cie	-9.7428
▁fra	-9.74303
▁sustancia	-9.74341
km	-9.74355
▁modelos	-9.7439
▁experimenta	-9.74399
2"	-9.74414
55	-9.74468
ual	-9.74544
▁1990	-9.74567
▁inicial	-9.74595
92	-9.74609
gio	-9.74706
▁ciertas	-9.74709
▁visual	-9.74767
▁primo	-9.74809
▁valencia	-9.74925
▁firma	-9.75005
▁2012	-9.75021
▁prepara	-9.75126
▁fines	-9.75208
▁maestro	-9.75221
▁urbana	-9.75221
▁respectivamente	-9.7526
▁propuesta	-9.75274
dice	-9.75317
▁mexicano	-9.7536
▁limita	-9.75389
▁colonia	-9.75442
▁líquido	-9.75448
▁característica	-9.75511
▁regular	-9.75561
▁izquierda	-9.75677
▁post	-9.75688
mal	-9.75693
▁equivalente	-9.7577
pec	-9.75837
▁latina	-9.75869
▁aeropuerto	-9.75906
▁cristianismo	-9.75906
▁terrestre	-9.75987
▁formato	-9.76061
▁dada	-9.76093
▁ciertos	-9.76109
ticos	-9.76186
pica	-9.76213
▁célula	-9.76222
ave	-9.76244
▁sola	-9.76248
76	-9.76317
▁supone	-9.7634
▁diversidad	-9.76366
▁correspondiente	-9.76382
jas	-9.76396
99	-9.76401
▁relativamente	-9.76465
▁realizada	-9.76509
tl	-9.76514
▁olímpicos	-9.76547
ólogos	-9.76563
▁asociado	-9.76596
mia	-9.7666
17	-9.76663
▁mapa	-9.76686
▁complejo	-9.767
esta	-9.76708
wi	-9.76781
▁volumen	-9.76829
▁podemos	-9.76829
▁escritura	-9.76829
▁invierno	-9.76829
▁ataque	-9.76851
az	-9.76864
form	-9.76988
▁agrícola	-9.77061
▁aristóteles	-9.77061
▁películas	-9.77132
▁comprende	-9.77166
fec	-9.77186
▁26	-9.77227
cin	-9.77228
▁jefe	-9.77308
4"	-9.77319
real	-9.77339
met	-9.77343
82	-9.77381
▁hijos	-9.77413
▁proteínas	-9.77424
▁permiten	-9.77459
▁cáncer	-9.77527
▁seres	-9.77531
mpa	-9.77537
▁2018	-9.77549
ph	-9.77597
49	-9.77634
▁personajes	-9.77654
▁físico	-9.77662
▁cuerpos	-9.77711
▁pocos	-9.77714
▁hubo	-9.7787
▁equi	-9.77881
▁destacar	-9.77921
▁sabe	-9.77982
▁experiencia	-9.77994
▁aporta	-9.78073
tología	-9.78102
▁fundación	-9.78169
59	-9.78185
▁actuales	-9.78249
▁1980	-9.78284
▁básica	-9.78301
47	-9.78395
▁aparecen	-9.78446
gos	-9.78491
▁reyes	-9.78601
▁+	-9.78668
▁décadas	-9.78688
▁artificial	-9.787
▁césar	-9.787
▁emperador	-9.78701
▁esos	-9.78724
66	-9.78777
▁zo	-9.78783
▁frecuente	-9.78811
tados	-9.78824
▁determinada	-9.7887
grama	-9.78872
tán	-9.78884
▁rojo	-9.78921
▁tomar	-9.7895
▁aguas	-9.7902
▁informa	-9.79084
▁pra	-9.79173
▁amplio	-9.79174
▁urbano	-9.79175
▁completamente	-9.79182
▁cristal	-9.79184
vis	-9.79273
▁hor	-9.79298
-1	-9.79306
89	-9.79376
tic	-9.79395
▁abierto	-9.79411
▁festival	-9.79411
▁2014	-9.79441
ham	-9.79469
▁reforma	-9.79482
▁doble	-9.79511
ció	-9.79566
▁luna	-9.79575
bro	-9.79601
▁resistencia	-9.79649
▁producido	-9.79649
ial	-9.79655
▁musicales	-9.79661
ador	-9.79784
▁é	-9.79809
▁tradicionales	-9.79882
bal	-9.79883
▁templo	-9.79891
▁robert	-9.79918
29	-9.79949
bel	-9.80076
▁alcanzar	-9.80126
7"	-9.8019
elo	-9.80206
▁lingüística	-9.80244
▁gira	-9.80324
▁oxígeno	-9.80367
▁distrito	-9.80367
▁oficiales	-9.80369
▁intento	-9.80379
▁asociación	-9.80471
67	-9.80472
osas	-9.80539
»)	-9.80596
▁reales	-9.80607
▁fernando	-9.80607
▁libera	-9.8068
▁teorías	-9.80685
▁continuación	-9.80716
ag	-9.80757
tia	-9.80847
▁cultiva	-9.80849
ure	-9.80908
▁acepta	-9.80914
▁inc	-9.80943
▁usando	-9.80952
lismo	-9.80968
▁buen	-9.80988
▁arco	-9.81036
▁egipto	-9.8109
▁inició	-9.8109
▁poesía	-9.81091
▁(1	-9.81133
▁31	-9.81197
▁ejecuta	-9.81224
ológico	-9.81287
34	-9.81317
▁cataluña	-9.81575
▁valladolid	-9.81575
▁enorme	-9.81583
▁hechos	-9.81637
56	-9.81654
▁rodea	-9.81656
▁tuvieron	-9.81656
▁escritos	-9.81717
▁sor	-9.8173
▁consumo	-9.81821
▁gana	-9.81842
▁ofrece	-9.8187
▁reacción	-9.81902
▁madera	-9.81912
▁niños	-9.81965
▁factor	-9.81979
▁meta	-9.82002
▁necesidad	-9.8204
▁debía	-9.82052
▁austria	-9.82062
▁abarca	-9.82077
▁aquí	-9.82083
▁pl	-9.82175
▁significativa	-9.82209
tel	-9.8221
▁instala	-9.82292
▁pese	-9.82297
▁ref	-9.82298
▁líder	-9.82307
▁salida	-9.82312
▁radiación	-9.82343
▁moléculas	-9.82372
rom	-9.82496
▁moneda	-9.82561
vu	-9.82602
▁venta	-9.82689
▁haya	-9.82714
iente	-9.82823
mio	-9.82845
izadas	-9.82878
87	-9.82927
▁trabajos	-9.8297
▁espacial	-9.83026
▁británico	-9.83043
dios	-9.83043
▁estableció	-9.83048
▁narra	-9.8305
▁azul	-9.83068
▁desarrolla	-9.83108
dero	-9.83379
08	-9.83432
uta	-9.83452
▁acaba	-9.83467
▁radi	-9.83497
▁publicación	-9.83525
▁departamento	-9.83538
▁profesor	-9.83538
▁golpe	-9.83539
▁1960	-9.8358
▁partidos	-9.83582
tz	-9.83708
42	-9.83749
▁incluido	-9.83786
grafía	-9.83793
▁fla	-9.83803
▁bases	-9.83897
▁lima	-9.83942
39	-9.83969
96	-9.83973
0"	-9.84005
▁pib	-9.84016
35	-9.84018
▁doctrina	-9.84035
▁ministerio	-9.84035
▁colón	-9.84069
divi	-9.84244
guer	-9.84296
▁atención	-9.84303
▁arma	-9.84457
▁mismos	-9.84519
vio	-9.84564
ze	-9.84649
▁corto	-9.8467
ístico	-9.84672
5"	-9.8469
▁idiomas	-9.84691
46	-9.84732
eto	-9.84752
▁inglaterra	-9.84785
▁mol	-9.84843
illas	-9.84856
▁contienen	-9.8488
categoría	-9.8495
▁culturas	-9.85005
▁permitió	-9.85036
▁otorga	-9.85053
▁1.	-9.85065
-18	-9.85085
▁producen	-9.85112
▁70	-9.85168
▁fórmula	-9.85288
taria	-9.85319
▁centra	-9.85366
83	-9.85412
81	-9.85426
72	-9.85442
▁coloca	-9.85559
▁usuarios	-9.85567
▁llamados	-9.8559
▁mejores	-9.856
▁pruebas	-9.85608
▁bacterias	-9.85619
eña	-9.85643
97	-9.8566
dis	-9.85663
dado	-9.85667
9"	-9.85669
mann	-9.85684
▁europeo	-9.85694
ñe	-9.85771
tando	-9.85785
▁geometría	-9.85795
dar	-9.85802
▁usan	-9.85821
▁cristo	-9.85837
▁conforma	-9.85846
yu	-9.85862
▁privada	-9.85934
▁determinar	-9.85955
▁agujero	-9.86047
▁compleja	-9.86048
2,	-9.86057
▁joven	-9.86106
ática	-9.8611
ski	-9.86195
▁categoría	-9.86273
▁fenómenos	-9.86288
▁empezó	-9.86302
▁hospital	-9.86302
▁encima	-9.86335
▁rápidamente	-9.864
▁caída	-9.86559
▁tropas	-9.86566
rica	-9.86632
▁habitual	-9.86649
▁límite	-9.86746
▁propios	-9.86785
ológicos	-9.86897
▁acompaña	-9.86909
▁operaciones	-9.86912
▁ampliamente	-9.86915
tio	-9.8696
03	-9.86987
▁cálculo	-9.87069
▁selección	-9.87069
▁átomos	-9.87075
▁2004	-9.87105
▁copia	-9.87136
77	-9.87137
▁metal	-9.87153
▁au	-9.87175
tales	-9.87208
▁29	-9.87208
pti	-9.87312
stre	-9.87319
▁alfonso	-9.87326
▁azúcar	-9.87326
▁convierte	-9.87333
▁comarca	-9.87372
nar	-9.87376
etas	-9.87405
▁presentes	-9.87535
▁manos	-9.87549
▁estadística	-9.87584
▁definir	-9.87589
▁temperaturas	-9.87694
▁indi	-9.87775
▁regional	-9.87849
▁errores	-9.87948
▁asamblea	-9.88101
8"	-9.88131
▁escuelas	-9.8823
3"	-9.8825
▁origina	-9.88251
▁capaz	-9.88254
jos	-9.88289
▁poblaciones	-9.88361
▁curso	-9.88364
▁letras	-9.88366
▁cliente	-9.88368
▁genética	-9.88373
rie	-9.88376
▁banco	-9.88399
▁2001	-9.88447
▁conocer	-9.8847
▁importa	-9.88532
xo	-9.8855
ponía	-9.88556
58	-9.88561
▁simplemente	-9.88572
▁índice	-9.88622
▁nuestro	-9.88622
▁derrota	-9.88647
▁2015	-9.88652
44	-9.8873
▁ramas	-9.88751
ento	-9.88814
▁pacífico	-9.88883
▁famoso	-9.88884
▁riesgo	-9.88885
▁figuras	-9.88885
31	-9.88922
▁gla	-9.88979
sin	-9.89041
▁motor	-9.89042
rina	-9.89043
45	-9.89154
▁rosa	-9.89173
▁hacía	-9.89187
▁griegos	-9.89353
▁rama	-9.89356
▁lanza	-9.89367
▁cervantes	-9.89407
▁matrimonio	-9.89407
▁hierro	-9.89407
▁conflicto	-9.89424
sil	-9.89447
▁diferencias	-9.89486
▁recibe	-9.89512
ena	-9.8962
▁ilustra	-9.8967
78	-9.89711
▁tenido	-9.89723
▁quedó	-9.89736
▁establecer	-9.89789
▁crítico	-9.89934
▁protocolo	-9.89934
▁nación	-9.89967
54	-9.8998
▁activa	-9.90046
ua	-9.90051
▁inicialmente	-9.90125
▁nervioso	-9.90196
▁formada	-9.9021
▁mito	-9.90211
▁culto	-9.90212
van	-9.9024
ólogo	-9.90273
teo	-9.9034
▁funda	-9.9035
▁reglas	-9.90383
▁transición	-9.90464
▁noche	-9.90705
gada	-9.90742
▁interno	-9.90756
lica	-9.90768
▁bol	-9.9078
bus	-9.90781
▁podían	-9.90788
▁nada	-9.90808
zu	-9.90867
zos	-9.90874
▁viene	-9.90913
04	-9.90971
▁comunica	-9.90995
▁reconocido	-9.90996
▁cuarto	-9.90998
▁ko	-9.91012
▁símbolos	-9.91076
▁únicamente	-9.91111
▁dando	-9.91143
▁propias	-9.91156
▁paisaje	-9.91264
▁nuestra	-9.91264
▁estación	-9.91266
▁mont	-9.91286
▁1970	-9.91301
▁quebec	-9.91305
▁nombra	-9.91385
▁hab	-9.91413
▁puente	-9.91537
▁norma	-9.91545
▁rango	-9.91576
▁adopta	-9.91618
▁identifica	-9.91723
▁menciona	-9.91758
▁asegura	-9.91801
▁eléctrico	-9.91801
▁relatividad	-9.91801
▁enfoque	-9.91806
▁fran	-9.91865
eño	-9.91978
ant	-9.9205
▁interacción	-9.92085
iz	-9.92106
▁torre	-9.92124
▁proto	-9.92168
▁pasar	-9.92189
▁paz	-9.92226
pp	-9.92326
▁ángulo	-9.9234
6"	-9.92387
▁cocina	-9.92389
▁cri	-9.92487
▁horas	-9.92513
▁reconocimiento	-9.92632
eb	-9.92643
▁procede	-9.92818
▁sean	-9.9284
▁membrana	-9.92883
▁decidió	-9.92884
▁puerta	-9.92884
▁toledo	-9.92884
▁descrito	-9.92885
▁/	-9.92893
▁cl	-9.929
▁derecha	-9.92907
▁gri	-9.92929
07	-9.93005
▁fiestas	-9.93048
tista	-9.93076
▁relacionados	-9.93108
09	-9.93134
▁medieval	-9.93156
▁útil	-9.93156
▁darwin	-9.93162
▁1936	-9.93192
▁armas	-9.93245
▁fruto	-9.93297
▁antiguas	-9.93306
oides	-9.93357
32	-9.93404
▁escultura	-9.93444
pol	-9.93458
▁2,	-9.93463
dón	-9.93476
ara	-9.93485
▁acciones	-9.9349
91	-9.93519
ker	-9.93538
▁necesaria	-9.93539
)|	-9.93555
73	-9.93651
gin	-9.93777
ep	-9.93782
▁árboles	-9.93844
▁gar	-9.93854
▁canarias	-9.93859
▁edificio	-9.93862
▁conceptos	-9.93867
▁matemáticas	-9.93942
▁mando	-9.93944
▁haciendo	-9.93979
cultura	-9.94025
pone	-9.94059
▁paleo	-9.94059
lum	-9.94068
69	-9.94092
prim	-9.94122
▁visto	-9.94152
▁hongos	-9.94254
▁geográfica	-9.94262
▁euro	-9.94281
▁elimina	-9.9431
▁coli	-9.94316
▁dia	-9.94359
▁conocidas	-9.94423
▁denominación	-9.94457
▁fósiles	-9.9447
eri	-9.94472
▁kilómetros	-9.94529
▁literario	-9.9453
end	-9.94542
xa	-9.94544
▁jugador	-9.94574
▁elabora	-9.94583
▁comerciales	-9.94596
ple	-9.94651
▁constituyen	-9.94737
▁jugadores	-9.94763
▁lin	-9.94768
▁iglesias	-9.94797
▁vacío	-9.94806
▁modernos	-9.94826
cula	-9.94845
▁fundamentales	-9.94873
ty	-9.94906
ula	-9.94908
ign	-9.94951
▁tro	-9.9496
▁campeonato	-9.95084
▁iv	-9.95229
▁bro	-9.953
▁seguido	-9.95349
▁hicieron	-9.95363
▁protección	-9.95363
▁altitud	-9.95363
▁situada	-9.95364
▁diseñado	-9.95365
▁impacto	-9.95388
▁2003	-9.95467
afrodita	-9.95644
▁consideraba	-9.95795
▁mantiene	-9.95802
▁menores	-9.95864
▁ideal	-9.95903
▁extiende	-9.95922
▁occidente	-9.95922
▁allá	-9.9594
▁tar	-9.95981
▁ubica	-9.96013
vel	-9.96097
▁deportes	-9.96132
▁rápido	-9.96203
▁taxonomía	-9.96203
▁adicional	-9.96205
02	-9.96218
▁2016	-9.96226
▁complejos	-9.96359
▁mel	-9.96455
▁competencia	-9.96485
▁dependiendo	-9.96485
▁cho	-9.965
ví	-9.96507
▁servidor	-9.96539
▁directo	-9.96576
▁pul	-9.96626
▁excepción	-9.96767
▁picasso	-9.96767
▁debajo	-9.96799
▁biología	-9.96836
int	-9.96938
▁religiosa	-9.97032
don	-9.97035
▁terreno	-9.97051
▁asigna	-9.97056
▁comparti	-9.97063
tadas	-9.97085
▁representar	-9.9714
▁gui	-9.97207
▁arn	-9.97252
▁animal	-9.97266
▁disputa	-9.97336
▁estatuto	-9.97338
▁polonia	-9.97349
▁dispone	-9.97358
▁judíos	-9.97502
▁romanos	-9.97568
▁aprovecha	-9.97619
▁jóvenes	-9.97619
▁registro	-9.9762
2.	-9.97628
▁formando	-9.97639
52	-9.97672
▁nació	-9.97781
▁fer	-9.97815
▁ritmo	-9.9791
ray	-9.97921
▁estable	-9.97942
▁2020	-9.97943
▁analiza	-9.97957
▁marcha	-9.98171
▁propósito	-9.98192
▁comunista	-9.98192
comp	-9.98233
gh	-9.98262
▁doce	-9.98318
cano	-9.98394
▁blanca	-9.98434
▁continental	-9.98479
▁externa	-9.9848
▁lineal	-9.98494
bol	-9.98599
▁podrían	-9.98645
▁ed	-9.98649
▁publicada	-9.98676
▁anual	-9.98686
▁hiper	-9.98736
▁einstein	-9.98767
▁volvió	-9.98767
▁rasgos	-9.98769
▁matemática	-9.98805
▁perteneciente	-9.98808
-20	-9.98855
▁espacios	-9.9887
▁hemisferio	-9.99056
▁ingeniería	-9.99056
▁promedio	-9.99056
▁sevilla	-9.9906
▁encarga	-9.99073
▁hija	-9.99078
▁relato	-9.991
▁peri	-9.99112
ip	-9.99173
▁actua	-9.99174
▁directa	-9.99186
▁placa	-9.99306
▁esencial	-9.99337
▁cerebro	-9.99346
▁alternativa	-9.9942
▁grave	-9.99458
▁totalmente	-9.99483
▁anteriormente	-9.99492
▁productor	-9.99571
▁cadena	-9.99577
▁electrónico	-9.99791
mul	-9.99793
pé	-9.99807
▁requiere	-9.99827
lítico	-9.99828
tino	-9.9988
▁escritores	-9.99888
one	-9.99899
▁dr	-9.999
▁abundante	-9.99928
▁obispo	-9.99928
▁adelante	-9.99929
▁funcionamiento	-9.99983
▁vincula	-9.99997
▁llamadas	-10.001
▁atómico	-10.0017
▁calor	-10.0041
▁wa	-10.0051
genera	-10.0052
▁grab	-10.0053
quí	-10.0058
cada	-10.006
63	-10.0061
▁específica	-10.0064
▁seguir	-10.0068
94	-10.0071
american	-10.0076
▁esfuerzo	-10.0081
▁catalán	-10.0081
▁alemana	-10.0081
▁informe	-10.0081
▁ciudadanos	-10.0082
vin	-10.0085
▁equipos	-10.009
▁gnu	-10.0092
▁–	-10.0092
▁fuego	-10.0104
▁espíritu	-10.011
▁medidas	-10.0111
▁especifica	-10.0118
▁dioses	-10.0135
79	-10.0137
▁evoluciona	-10.014
▁obtuvo	-10.014
▁participación	-10.0144
▁2.	-10.0147
▁500	-10.0154
▁gente	-10.0162
my	-10.0162
▁eso	-10.0164
▁ibérica	-10.017
▁algoritmo	-10.017
▁raíces	-10.017
▁noroeste	-10.017
▁fusión	-10.017
▁sitúa	-10.017
▁flujo	-10.0172
▁entidad	-10.0181
▁crece	-10.0188
93	-10.019
▁campaña	-10.0199
▁petróleo	-10.0199
▁identidad	-10.0199
▁solución	-10.0199
▁bandera	-10.02
▁obtiene	-10.02
▁ph	-10.0204
jar	-10.0219
▁provincial	-10.0219
▁sustancias	-10.0225
art	-10.0226
cita	-10.0227
métrica	-10.0229
▁ayuntamiento	-10.0229
▁tem	-10.0229
▁rechaza	-10.0229
▁castillo	-10.023
▁posibles	-10.0236
▁marina	-10.0244
▁mm	-10.025
▁marte	-10.025
▁renacimiento	-10.0259
▁periódico	-10.0259
▁acumula	-10.0259
▁exposición	-10.0263
▁plantea	-10.0263
▁york	-10.0263
sur	-10.0269
▁núcleos	-10.0271
▁partícula	-10.0276
ej	-10.0283
▁miles	-10.0287
▁permitir	-10.0289
áticos	-10.029
anti	-10.0292
▁cercano	-10.0296
ítica	-10.0298
▁sta	-10.0299
▁clara	-10.0305
▁americano	-10.0308
▁australia	-10.0318
▁temporal	-10.0319
▁claro	-10.0321
▁investigaciones	-10.0326
▁cau	-10.0328
06	-10.033
▁organismo	-10.0339
ap	-10.034
▁libres	-10.0346
▁abierta	-10.0349
▁portugal	-10.035
▁externo	-10.035
▁pos	-10.0357
▁muestran	-10.0361
▁aproxima	-10.0361
▁frecuentemente	-10.037
▁siguiendo	-10.0371
▁usada	-10.0374
▁universidades	-10.0377
ub	-10.038
▁traslada	-10.0381
▁2013	-10.0383
▁profesional	-10.039
▁judicial	-10.0398
▁concentración	-10.0408
▁ubicado	-10.0409
▁viaja	-10.0412
▁escena	-10.0413
▁viejo	-10.0413
▁apo	-10.0413
cara	-10.0414
▁utilizados	-10.0419
▁públicas	-10.0422
▁verdad	-10.043
▁quijote	-10.043
▁construir	-10.0441
▁cuántica	-10.0441
▁pablo	-10.0441
▁tribunal	-10.0444
▁prácticamente	-10.0451
▁diario	-10.0455
1,	-10.0462
▁socialista	-10.0468
▁latitud	-10.0472
we	-10.0473
blues	-10.0476
▁suiza	-10.0481
▁aragón	-10.0502
▁magnético	-10.0502
▁tradiciones	-10.0502
▁maíz	-10.0502
▁aprecia	-10.0502
61	-10.0504
▁dispositivos	-10.0508
lus	-10.0523
▁entidades	-10.0524
74	-10.0528
posición	-10.0529
▁90	-10.0531
▁artística	-10.0533
▁mexicana	-10.0539
pin	-10.0548
▁experimental	-10.0552
▁autoridades	-10.0553
▁tallo	-10.0553
▁piezas	-10.0554
▁inflorescencia	-10.0564
▁constitucional	-10.0564
▁rayos	-10.0564
▁breve	-10.0568
▁superiores	-10.0575
▁sirve	-10.0578
▁logra	-10.0581
forma	-10.0583
lig	-10.059
▁referirse	-10.0595
▁criterio	-10.0595
años	-10.0608
▁2002	-10.0609
▁cata	-10.061
nova	-10.0618
bos	-10.062
▁armada	-10.0621
▁perspectiva	-10.0626
▁sugiere	-10.0626
▁paciente	-10.063
nis	-10.063
▁sitio	-10.0634
dy	-10.0637
▁st	-10.0646
▁londres	-10.0657
▁moral	-10.0662
lic	-10.0663
ser	-10.0665
bios	-10.0666
▁considerar	-10.0668
▁obliga	-10.0676
ciencia	-10.068
▁lógica	-10.0686
▁órgano	-10.0687
▁estatal	-10.0688
▁químicos	-10.0688
▁discurso	-10.0688
▁columna	-10.0688
▁2017	-10.069
▁ramón	-10.0692
▁gobernador	-10.07
▁particularmente	-10.0701
▁sar	-10.0703
cina	-10.0705
▁labor	-10.0706
▁herramientas	-10.0713
▁consumi	-10.0716
imi	-10.0717
▁búsqueda	-10.0719
▁magnitud	-10.0719
gráfica	-10.0725
▁oposición	-10.0731
▁edificios	-10.0733
din	-10.0739
cán	-10.074
ilo	-10.0744
▁últimas	-10.0744
▁caribe	-10.0751
▁prensa	-10.0752
▁lanzamiento	-10.0754
▁molecular	-10.0763
ay	-10.0765
▁roja	-10.078
▁redes	-10.0783
▁cortes	-10.0789
▁pertenece	-10.0809
▁pueda	-10.0809
2)	-10.0813
▁dirigida	-10.0814
▁atlántico	-10.0814
▁ficción	-10.0814
▁estilos	-10.0816
▁comúnmente	-10.0819
▁racional	-10.0822
tus	-10.0826
ástica	-10.0827
vert	-10.0832
▁duda	-10.0841
▁andalucía	-10.0846
▁descubierto	-10.0846
▁creciente	-10.0847
▁von	-10.085
▁carne	-10.085
▁hermano	-10.0851
glu	-10.0854
script	-10.0855
ular	-10.0861
▁demanda	-10.0866
▁aun	-10.0867
▁justicia	-10.0878
▁pronuncia	-10.0878
▁príncipe	-10.0878
▁álbum	-10.0878
▁incluía	-10.0878
▁trabajar	-10.0882
62	-10.0883
▁regla	-10.0887
▁cast	-10.0896
▁200	-10.0897
▁ku	-10.0898
arte	-10.0899
arse	-10.0902
▁cap	-10.0902
liber	-10.0905
▁incluir	-10.091
▁raíz	-10.091
▁convertido	-10.091
▁enrique	-10.0914
▁agrega	-10.0914
▁dedica	-10.0922
▁unidas	-10.0927
▁nave	-10.0941
▁diámetro	-10.0942
▁franceses	-10.0942
▁explicar	-10.0942
▁aleja	-10.0943
▁originalmente	-10.0948
gran	-10.0956
▁planetas	-10.096
▁máquinas	-10.0966
onia	-10.0971
▁reemplaza	-10.0974
▁dinosaurios	-10.0974
▁galicia	-10.0974
▁infraestructura	-10.0974
▁vehículo	-10.0974
▁policía	-10.0974
▁hel	-10.0975
▁administra	-10.0979
▁acelera	-10.0988
▁toca	-10.0988
▁observar	-10.0992
bul	-10.0999
▁pronto	-10.1007
▁evangelio	-10.101
▁combinación	-10.101
";	-10.1013
▁nobel	-10.1017
▁corea	-10.102
▁recientemente	-10.102
▁igualmente	-10.1038
▁profunda	-10.1038
▁porcentaje	-10.1038
fri	-10.1052
hor	-10.1055
▁relaciona	-10.1058
tú	-10.1059
▁metro	-10.1066
▁cm	-10.1066
▁socio	-10.1067
▁espiritual	-10.1071
▁definido	-10.1072
▁límites	-10.1079
cado	-10.108
▁leche	-10.1091
▁arquitecto	-10.1103
▁círculo	-10.1103
▁inteligencia	-10.1103
▁sólido	-10.1103
▁parlamento	-10.1103
▁gestión	-10.1103
▁confirma	-10.1103
▁surgió	-10.1103
mini	-10.1104
▁cielo	-10.1108
▁copa	-10.1109
▁th	-10.1112
▁contaba	-10.1112
▁pesa	-10.1112
▁cero	-10.1116
05	-10.1128
▁usualmente	-10.1136
▁soporte	-10.1136
▁establecido	-10.1137
▁comparación	-10.1137
▁condición	-10.1138
▁cercana	-10.1144
▁pocas	-10.1165
▁procedimiento	-10.1169
▁pir	-10.1169
▁autoridad	-10.1171
▁mostrar	-10.1174
▁genes	-10.1175
▁realizan	-10.1177
▁recientes	-10.1181
▁fabrica	-10.1181
▁personaje	-10.1192
bit	-10.1197
▁permanente	-10.1202
▁ecuaciones	-10.1202
▁zamora	-10.1202
ducto	-10.1202
▁tren	-10.1203
presión	-10.1205
▁1000	-10.1208
▁prácticas	-10.1216
▁documento	-10.1218
▁artista	-10.1223
▁cometa	-10.1224
▁etimología	-10.1235
▁paralelo	-10.1238
▁dejó	-10.124
▁alimenta	-10.125
▁sil	-10.1253
sio	-10.1253
die	-10.1261
▁británica	-10.1268
▁lluvia	-10.1268
▁turístico	-10.1269
▁permitie	-10.1269
▁acusa	-10.127
▁1995	-10.1272
▁electrónica	-10.1273
▁archivos	-10.1275
ov	-10.1279
▁organizaciones	-10.1281
▁corrientes	-10.1283
▁documentos	-10.1285
quilla	-10.1292
▁mantuvo	-10.1301
▁ángel	-10.1301
▁semillas	-10.1301
▁tiende	-10.1302
▁varía	-10.1308
▁cantidades	-10.1313
▁max	-10.1314
▁mis	-10.1315
osfera	-10.1316
hy	-10.1317
chos	-10.1318
ny	-10.132
pri	-10.1326
▁aquellas	-10.1329
chu	-10.133
▁metropolitana	-10.1334
▁orígenes	-10.1334
▁propaga	-10.1335
▁colonial	-10.1336
itud	-10.1337
▁valenciana	-10.1352
▁peligro	-10.1368
▁conseguir	-10.1368
▁vicente	-10.1368
▁visible	-10.1368
▁revela	-10.137
gru	-10.1371
ní	-10.1372
▁32	-10.1374
▁tenga	-10.1375
▁iso	-10.1386
pina	-10.1387
▁oficialmente	-10.1388
▁duración	-10.1399
▁partida	-10.1401
▁involucra	-10.1401
▁proveniente	-10.1401
▁técnico	-10.1401
▁árbol	-10.1418
▁familiar	-10.1418
▁canales	-10.142
▁mejorar	-10.1423
▁ojo	-10.1429
▁salva	-10.1434
▁gregoriano	-10.1435
▁felipe	-10.1435
▁artístico	-10.1435
▁alcanzó	-10.1435
▁siguió	-10.1435
igu	-10.1437
▁elección	-10.1437
este	-10.1444
▁voto	-10.1451
ciente	-10.1451
sum	-10.1455
ecta	-10.1458
▁fundada	-10.1468
▁logró	-10.1469
▁conexión	-10.1469
▁muerto	-10.1469
▁escocia	-10.1469
▁remonta	-10.147
▁%)	-10.1471
▁captura	-10.1471
terra	-10.1483
gna	-10.1484
▁nombrado	-10.1488
▁desarrollada	-10.1491
▁básico	-10.1494
▁estudiar	-10.1496
icidad	-10.1501
▁cuestión	-10.1503
▁asturias	-10.1503
▁lectura	-10.1503
▁arriba	-10.1503
▁entender	-10.1504
cy	-10.1505
▁goberna	-10.1515
lito	-10.1517
bur	-10.1522
▁detalle	-10.1522
▁nazi	-10.1523
▁ceremonia	-10.1537
▁imagina	-10.1537
▁andorra	-10.1537
▁fotografía	-10.1538
▁nace	-10.154
ite	-10.1544
▁1950	-10.1546
▁negra	-10.1547
▁tubo	-10.1554
▁compr	-10.1557
▁comienzo	-10.1564
▁clado	-10.1567
▁simples	-10.157
▁(15	-10.1571
▁órdenes	-10.1571
▁bebida	-10.1571
▁censo	-10.1571
▁polar	-10.1581
▁bre	-10.1584
▁fácil	-10.1589
▁individuos	-10.1596
nzó	-10.1602
▁anunció	-10.1605
▁poblado	-10.1606
ey	-10.1617
ola	-10.1621
▁hipo	-10.1624
inter	-10.1639
ira	-10.1639
▁republicano	-10.164
▁secundaria	-10.164
▁vuelve	-10.164
▁ecuación	-10.164
▁explora	-10.1656
▁paga	-10.1657
▁considerable	-10.1661
▁dieron	-10.1664
oideae	-10.1671
▁electro	-10.1671
▁continúa	-10.1674
▁integrado	-10.1674
▁precisión	-10.1674
▁reconocida	-10.1674
▁soviética	-10.1674
▁argumento	-10.1674
▁colegio	-10.1675
▁mala	-10.1676
▁empleado	-10.1676
▁comienzos	-10.168
▁primaria	-10.1682
▁costo	-10.1682
▁mismas	-10.1684
▁siguen	-10.1685
▁(«	-10.1695
▁latino	-10.1696
▁lograr	-10.1702
▁distingue	-10.1709
▁guerrero	-10.1709
▁reacciones	-10.1709
▁ganó	-10.171
▁2022	-10.1711
▁capaces	-10.1715
▁alterna	-10.1722
curri	-10.1728
oide	-10.1734
▁traducción	-10.1743
▁empleo	-10.1744
▁rusia	-10.1746
▁pat	-10.1758
cito	-10.1761
▁bomba	-10.1766
▁receptor	-10.1778
▁william	-10.1778
▁quizá	-10.1778
▁presentó	-10.1778
▁equilibrio	-10.1779
▁transmisión	-10.1779
▁ejerce	-10.178
▁religiosas	-10.178
▁exclusivamente	-10.1785
▁relacionadas	-10.1797
▁activo	-10.1803
▁abandona	-10.1812
▁conferencia	-10.1813
iales	-10.1818
▁surge	-10.1818
rib	-10.1823
▁variedades	-10.1829
5%	-10.1836
cena	-10.1844
▁martín	-10.1851
▁canto	-10.1853
▁romp	-10.1854
▁metales	-10.1858
rena	-10.1868
▁proyectos	-10.187
▁letra	-10.1873
▁compra	-10.1873
▁neu	-10.1876
rit	-10.188
▁absoluta	-10.1883
▁canadiense	-10.1883
▁intercambio	-10.1883
▁razones	-10.1883
▁estambres	-10.1884
▁computadora	-10.1887
”.	-10.1889
phi	-10.1889
▁playa	-10.189
pico	-10.1893
▁entrega	-10.1893
▁caja	-10.1897
ille	-10.1904
▁dijo	-10.1909
▁bajas	-10.191
▁saber	-10.1911
▁cerveza	-10.1919
▁cordillera	-10.1919
▁virtual	-10.1919
▁demasiado	-10.1919
▁expuls	-10.1919
▁apenas	-10.1919
▁órganos	-10.192
▁hermana	-10.1921
tim	-10.1922
▁geo	-10.1934
▁ventaja	-10.1936
▁bienes	-10.1938
mán	-10.1939
▁ataca	-10.1941
▁debate	-10.1946
cón	-10.1946
▁ausencia	-10.1955
▁ahí	-10.1956
▁cuadrado	-10.1969
movi	-10.1969
▁procesador	-10.1975
▁uva	-10.1987
▁candidato	-10.199
▁herbáceas	-10.199
▁laboratorio	-10.199
▁toneladas	-10.199
▁actúa	-10.199
▁paquete	-10.199
▁verdadera	-10.1993
ificado	-10.1994
▁1999	-10.1994
ui	-10.2003
▁finalizar	-10.2004
▁poderes	-10.2008
▁sectores	-10.2012
▁prima	-10.2018
▁lateral	-10.2019
▁amenaza	-10.2026
▁funcional	-10.2026
ógrafo	-10.2026
▁leyenda	-10.2026
▁ciento	-10.203
▁creada	-10.2046
veni	-10.2048
▁dedicado	-10.205
▁lema	-10.205
▁ejecutivo	-10.2061
▁ferrocarril	-10.2061
▁testamento	-10.2061
▁pol	-10.2061
▁turing	-10.2065
▁inaugura	-10.2066
▁individuo	-10.2071
▁verdadero	-10.2071
▁electrón	-10.2074
tipo	-10.2076
▁canta	-10.2083
▁top	-10.2084
archivo	-10.2096
▁descubrió	-10.2097
▁concepción	-10.2098
▁teniendo	-10.2101
▁palma	-10.2102
▁sangre	-10.2111
▁describir	-10.213
▁yacimiento	-10.2133
▁históricos	-10.2133
▁negativo	-10.2134
▁1992	-10.2138
▁montañas	-10.2139
▁1930	-10.2141
▁implementa	-10.2142
▁error	-10.2155
món	-10.2168
▁discos	-10.2169
▁windows	-10.217
véase	-10.217
▁continuó	-10.217
▁oscila	-10.217
▁soldados	-10.217
▁esposa	-10.2171
aban	-10.2173
▁flora	-10.2174
▁comenta	-10.2178
▁estudiantes	-10.2179
▁aquella	-10.2179
▁terminal	-10.2182
▁existentes	-10.2187
gri	-10.2192
▁profesionales	-10.2194
▁normas	-10.2196
▁públicos	-10.2199
berg	-10.22
▁sociedades	-10.2206
▁típico	-10.2206
▁recibir	-10.2206
▁rioja	-10.2206
ate	-10.2223
▁venus	-10.2226
▁críticas	-10.2232
cero	-10.2232
vier	-10.2235
▁vuelta	-10.2243
▁femenino	-10.2243
▁frío	-10.2245
ik	-10.2252
▁variable	-10.2258
▁hd	-10.2261
▁eva	-10.2279
▁relieve	-10.2279
▁óptica	-10.2279
cate	-10.2282
▁artículos	-10.2282
▁esfera	-10.2282
tín	-10.2284
liza	-10.2289
▁asumi	-10.23
direct	-10.2302
gén	-10.2303
▁asociada	-10.2307
▁mucha	-10.2314
▁contemporáneo	-10.2316
▁permanece	-10.2316
▁newton	-10.2317
▁definida	-10.2318
▁disciplinas	-10.2319
▁categorías	-10.2333
▁vías	-10.2336
pia	-10.2346
▁músico	-10.2353
▁prote	-10.2353
▁colección	-10.2353
▁dulce	-10.2353
▁viola	-10.2355
▁1998	-10.2358
▁ancho	-10.2361
▁marcado	-10.2373
▁tomó	-10.2373
leo	-10.2376
▁marruecos	-10.239
▁construido	-10.239
▁combate	-10.239
vé	-10.2392
▁distinguir	-10.24
▁mecanismo	-10.2411
▁vendi	-10.2411
▁bosques	-10.2417
mental	-10.2418
▁actor	-10.2421
struct	-10.2424
lip	-10.2425
▁gastronomía	-10.2427
▁retira	-10.2431
▁fina	-10.2433
▁1920	-10.2436
▁senado	-10.2446
▁neuro	-10.2448
▁relacionado	-10.2449
▁cola	-10.245
▁reinos	-10.2454
media	-10.2458
▁alfa	-10.2459
▁incluida	-10.2464
▁africano	-10.2465
▁plataforma	-10.2465
▁laguna	-10.2471
▁debería	-10.2472
güe	-10.2475
▁rotación	-10.2476
▁cole	-10.2479
▁colabora	-10.2484
ku	-10.2491
▁(16	-10.2493
▁apareció	-10.2502
▁dividido	-10.2502
▁ejecución	-10.2502
▁electoral	-10.2502
▁estética	-10.2502
ómetro	-10.2504
ug	-10.2504
▁alberga	-10.2506
▁coste	-10.2506
▁decreto	-10.2509
▁plena	-10.2513
▁satélites	-10.2518
▁reciente	-10.2527
uela	-10.2531
▁lenguajes	-10.2533
▁bando	-10.2536
▁institución	-10.2539
▁proyección	-10.2539
▁próximo	-10.2539
▁domingo	-10.2539
▁terminó	-10.2539
▁positivo	-10.2539
▁entró	-10.254
marca	-10.2544
▁caza	-10.2545
▁convertirse	-10.2547
▁far	-10.2555
▁q	-10.2558
phy	-10.2559
▁conocimientos	-10.2563
▁terrestres	-10.2564
▁popularidad	-10.2565
▁amigo	-10.2566
bé	-10.2574
dal	-10.2576
▁descrita	-10.2578
ándolo	-10.2579
▁ubicada	-10.258
▁rod	-10.2581
▁1997	-10.2581
▁cuento	-10.2582
▁diamantes	-10.2588
▁especiales	-10.2596
cid	-10.2605
ícula	-10.2609
▁comida	-10.2614
▁negativa	-10.2615
▁declaró	-10.2616
▁investiga	-10.2623
▁volver	-10.2625
▁económicas	-10.2626
▁iba	-10.2629
▁hecha	-10.263
▁relativa	-10.2637
▁experimentos	-10.264
▁punt	-10.2645
▁establecimiento	-10.2653
▁riqueza	-10.2653
▁reducir	-10.2653
américa	-10.2658
▁creía	-10.2661
▁llegado	-10.2665
▁económicos	-10.2668
ich	-10.2674
▁instrumento	-10.2683
_2	-10.2686
▁académico	-10.2691
▁comité	-10.2691
▁flota	-10.2692
▁vital	-10.2692
▁buenos	-10.2701
uv	-10.2718
▁califica	-10.2728
▁dirige	-10.2734
▁burgos	-10.2735
burgo	-10.2748
▁minerales	-10.2756
▁mira	-10.2757
▁filósofo	-10.2762
▁restaur	-10.2765
▁montaña	-10.2765
▁democracia	-10.2768
▁galileo	-10.2768
▁alemanes	-10.2768
▁teórico	-10.2768
▁espectro	-10.2768
▁sostiene	-10.2768
▁impreso	-10.2768
▁empezar	-10.2771
bert	-10.2772
▁radical	-10.2772
▁dinámica	-10.2773
▁expand	-10.2773
▁mitología	-10.2774
▁admit	-10.2778
▁chino	-10.278
▁navegador	-10.2783
▁canciones	-10.28
▁gau	-10.28
poli	-10.2801
isa	-10.2807
▁médica	-10.2807
▁monumento	-10.2807
▁vuelo	-10.2807
▁imperial	-10.2807
▁cuadro	-10.2807
▁cuidado	-10.2811
▁ética	-10.2811
▁enlace	-10.2812
▁jean	-10.2812
ella	-10.2814
▁coma	-10.2815
kin	-10.2815
▁propuso	-10.2816
▁ple	-10.2819
tracción	-10.2822
sim	-10.2825
▁variables	-10.2829
▁históricamente	-10.2844
▁ejerci	-10.2845
▁bilbao	-10.2845
▁introdujo	-10.2845
▁periódica	-10.2845
▁nueve	-10.2845
▁dictadura	-10.2846
▁orbital	-10.2847
▁enlaces	-10.2852
table	-10.2856
anas	-10.2857
▁apolo	-10.2861
mentos	-10.2866
ama	-10.2867
▁35	-10.2876
▁alma	-10.2877
▁encontró	-10.2884
▁zaragoza	-10.2884
▁alfabeto	-10.2884
▁gallego	-10.2884
▁extensa	-10.2884
▁2021	-10.2887
cea	-10.2895
▁procesa	-10.2901
▁extranjeros	-10.291
▁ingresos	-10.2912
▁deseo	-10.292
▁enfrenta	-10.292
▁ke	-10.2921
▁disponible	-10.2922
▁átomo	-10.2922
▁sencillo	-10.2923
▁testigo	-10.2923
▁café	-10.2923
▁ambiental	-10.2925
▁provee	-10.2925
▁reina	-10.2928
▁psicología	-10.2943
▁che	-10.2947
▁computadoras	-10.2959
▁fundador	-10.2962
▁monarquía	-10.2963
▁demostrar	-10.2964
▁genético	-10.2964
nés	-10.2965
▁deportivo	-10.2966
▁señales	-10.2975
▁rock	-10.2975
▁inca	-10.2976
modern	-10.2978
▁cambiar	-10.2983
▁originario	-10.2983
fina	-10.2984
▁novelas	-10.2991
▁presta	-10.2997
▁impulso	-10.3002
▁pregunta	-10.3002
▁orgánica	-10.3002
▁impuesto	-10.3002
▁esperanto	-10.3003
▁evento	-10.3004
▁paralela	-10.3007
▁corteza	-10.301
▁moda	-10.301
▁desarrollan	-10.301
▁sección	-10.3013
▁biológica	-10.302
▁iniciativa	-10.3021
▁aumentar	-10.3023
tilla	-10.3027
▁cali	-10.3028
▁polo	-10.3035
▁cruza	-10.3041
▁característico	-10.3041
▁intérprete	-10.3041
▁nicaragua	-10.3041
▁dialecto	-10.3041
▁noticia	-10.3042
dec	-10.3043
ou	-10.3043
▁acto	-10.3045
▁asteroide	-10.3048
▁civilización	-10.3051
vista	-10.306
▁observaciones	-10.3061
▁excepto	-10.3064
▁religiosos	-10.3067
▁operación	-10.3074
▁coordina	-10.3081
▁biblia	-10.3081
▁murió	-10.3081
▁llevado	-10.3087
ísmo	-10.3091
idi	-10.3092
▁dicta	-10.3093
▁significativo	-10.3095
▁desea	-10.3096
▁tecnologías	-10.3098
▁físicos	-10.3098
▁granada	-10.3099
estado	-10.3104
▁católicos	-10.3106
ller	-10.3106
):	-10.3114
▁estaciones	-10.3116
▁archipiélago	-10.3121
▁preocupa	-10.3121
▁emigra	-10.3121
▁ensayo	-10.3122
▁soporta	-10.3122
▁observación	-10.3122
ónimo	-10.3123
▁dominante	-10.3124
▁simetría	-10.3127
▁vocal	-10.3129
▁hablantes	-10.3134
riz	-10.3135
▁representantes	-10.314
soci	-10.3141
iste	-10.3142
▁hablar	-10.3143
gle	-10.3147
▁altos	-10.3147
▁individual	-10.315
cam	-10.3154
mm	-10.3159
▁derivados	-10.316
▁difusión	-10.3161
▁dinastía	-10.3161
▁modifica	-10.3166
gal	-10.3166
cesión	-10.3173
▁recta	-10.3178
vir	-10.3185
tch	-10.3187
▁cumple	-10.3191
▁bill	-10.3193
▁ruso	-10.3195
▁regionales	-10.32
▁consiguió	-10.3201
▁desempeña	-10.3201
▁desemboca	-10.3201
▁luc	-10.3207
▁administrativa	-10.3211
doras	-10.3212
▁modernas	-10.3216
▁ganado	-10.3217
▁fácilmente	-10.322
▁masas	-10.3225
▁inst	-10.323
▁microsoft	-10.3241
▁argumenta	-10.3241
▁desplaza	-10.3245
▁fauna	-10.3247
adores	-10.3248
▁barco	-10.3271
úl	-10.3278
▁secundario	-10.3282
▁federación	-10.3282
▁observador	-10.3283
▁george	-10.3291
▁justo	-10.3295
▁tareas	-10.3297
▁bajos	-10.3298
historia	-10.3299
▁personalidad	-10.3313
▁borde	-10.3317
▁representado	-10.332
▁pérez	-10.3323
▁adecuada	-10.3323
▁ópera	-10.3323
▁milenio	-10.3323
▁variaciones	-10.3323
▁casas	-10.3323
▁sujeto	-10.3325
▁alumno	-10.3326
▁poáceas	-10.3327
▁pertenecen	-10.3329
▁cable	-10.3338
mus	-10.3339
▁fuertes	-10.3359
▁astrónomo	-10.3363
▁coincide	-10.3363
▁mínimo	-10.3363
▁débil	-10.3363
ímetro	-10.3365
▁pasando	-10.3366
▁sitios	-10.3367
▁lagos	-10.3368
▁mama	-10.3372
▁circuitos	-10.3373
▁claramente	-10.3386
▁wal	-10.3393
▁medir	-10.3395
▁hermanos	-10.3399
▁empieza	-10.3404
▁mamíferos	-10.3404
▁reproducción	-10.3404
▁recomend	-10.3404
▁dinero	-10.3405
▁privado	-10.3407
▁esquema	-10.3409
▁ligeramente	-10.3412
▁rol	-10.3419
▁religioso	-10.3419
▁unix	-10.3423
varia	-10.3433
▁humanas	-10.3434
▁sebastián	-10.3446
▁calcula	-10.3465
▁vali	-10.3466
▁fiesta	-10.3467
▁misión	-10.347
▁gre	-10.3477
▁niño	-10.348
plica	-10.3481
▁pura	-10.3481
▁conjuntos	-10.3484
▁conflictos	-10.3484
▁independientes	-10.3487
▁ingeniero	-10.3487
▁incrementa	-10.3487
▁veinte	-10.3487
ice	-10.3493
▁cura	-10.3502
▁tejido	-10.3505
tradicionalmente	-10.3512
▁aparte	-10.3517
▁come	-10.3524
▁cru	-10.3528
▁registros	-10.3528
▁introducción	-10.3528
▁rendimiento	-10.3528
▁infantil	-10.3528
▁decisión	-10.3528
▁alicante	-10.3529
▁evalua	-10.3529
▁protestante	-10.3532
pal	-10.3545
visión	-10.3559
▁componente	-10.356
▁corri	-10.3565
▁contemporánea	-10.357
▁prolonga	-10.357
dujeron	-10.357
▁residencia	-10.3571
▁vinos	-10.3573
iforme	-10.3573
▁teo	-10.3576
▁escasa	-10.3576
▁ésta	-10.3579
▁gráfica	-10.3589
▁cosm	-10.3595
▁bach	-10.3598
▁nuevamente	-10.3598
▁macro	-10.3601
▁anuales	-10.3602
-2	-10.3605
▁«"	-10.3606
▁opinión	-10.3612
▁dividir	-10.3612
▁detrás	-10.3612
▁binario	-10.3612
▁almacenamiento	-10.3614
▁formó	-10.3615
▁1994	-10.3616
gina	-10.3619
▁sha	-10.3622
▁fundó	-10.3625
▁primario	-10.364
▁variantes	-10.3642
▁petro	-10.3643
remos	-10.3644
▁intelectual	-10.3645
americano	-10.3649
▁recibido	-10.3654
▁negocio	-10.3654
▁reducido	-10.3654
▁gigante	-10.3654
▁aparato	-10.3656
▁necesidades	-10.3658
▁presentar	-10.367
ight	-10.3672
cabeza	-10.3672
▁mecanismos	-10.3673
▁tratar	-10.3677
▁satélite	-10.3677
▁monta	-10.3681
fran	-10.3681
▁cerebelo	-10.3684
▁primavera	-10.3696
▁transporta	-10.3697
▁vivos	-10.3706
▁individuales	-10.3708
cana	-10.3709
tom	-10.3712
▁parecen	-10.3719
▁rápida	-10.3722
▁construye	-10.3722
▁grados	-10.3729
▁sp	-10.373
▁dimensiones	-10.3738
▁eucariota	-10.3738
▁musulmanes	-10.3738
▁requisito	-10.3738
▁dirigido	-10.3738
▁hispano	-10.3739
▁industriales	-10.3742
▁amiga	-10.3742
▁je	-10.3745
▁comedia	-10.3746
jer	-10.3749
▁perdido	-10.3749
▁frase	-10.3753
▁eleva	-10.3756
▁pone	-10.3757
cora	-10.3768
zón	-10.3769
▁300	-10.3772
▁fernández	-10.3781
▁profundidad	-10.3781
▁sosteni	-10.3781
▁geográfico	-10.3782
▁1993	-10.3785
▁conocen	-10.3792
▁predominante	-10.3795
▁bus	-10.3806
ibilidad	-10.3808
▁asocia	-10.3816
▁totalidad	-10.3818
▁prestigio	-10.3824
▁tampoco	-10.3824
▁articula	-10.3824
▁serían	-10.3825
▁turistas	-10.3828
▁recoge	-10.3831
▁localidad	-10.3831
aca	-10.384
▁mani	-10.3842
tum	-10.3846
▁escenario	-10.3852
▁traza	-10.3857
▁algas	-10.3861
lú	-10.3865
▁abs	-10.3866
▁enemigo	-10.3867
▁integración	-10.3867
▁relevante	-10.3867
▁dibujo	-10.3867
▁interfaz	-10.3867
▁famosa	-10.3867
▁conoció	-10.3867
▁1996	-10.3872
▁pecado	-10.3876
acción	-10.3883
▁llegando	-10.3885
▁bacteria	-10.3896
trico	-10.3898
▁elevado	-10.3901
▁explicación	-10.3907
▁lópez	-10.391
▁caballo	-10.391
▁poblada	-10.391
▁helio	-10.3926
izo	-10.3932
stein	-10.3934
▁toros	-10.3941
▁circuito	-10.3942
▁cadenas	-10.3946
▁monasterio	-10.3953
▁religiones	-10.3953
▁utilizó	-10.3953
▁singular	-10.3953
▁proporción	-10.3953
▁aceite	-10.3953
▁seguro	-10.3956
mí	-10.3956
▁fría	-10.3961
▁400	-10.3962
▁amigos	-10.3967
▁enseña	-10.3967
▁contraste	-10.3971
▁imita	-10.3975
▁relacionada	-10.3975
▁inicios	-10.3977
▁dispositivo	-10.3987
ting	-10.3993
▁profundo	-10.3997
▁david	-10.3997
▁realista	-10.3997
▁consulta	-10.3997
▁multitud	-10.3997
▁pobre	-10.4001
▁pudiera	-10.4004
▁mitos	-10.4006
gol	-10.4008
iego	-10.4015
▁cuentan	-10.4016
celular	-10.4019
▁espiguillas	-10.4039
▁curva	-10.4039
▁avances	-10.404
▁manifestaciones	-10.404
▁tecnológico	-10.404
▁femenina	-10.404
▁ovario	-10.4041
▁dolor	-10.4043
▁protones	-10.4044
▁charles	-10.4045
▁placer	-10.4047
▁civiles	-10.4057
entre	-10.4062
▁caro	-10.4064
▁organizado	-10.4066
▁impar	-10.4071
▁elevada	-10.4072
▁aplicar	-10.4078
iera	-10.4079
▁controla	-10.4081
▁liberal	-10.4083
▁inmigrantes	-10.4084
▁transferencia	-10.4084
▁voluntad	-10.4084
▁budismo	-10.4084
miniatura	-10.4084
▁propuesto	-10.4086
▁(3	-10.4094
▁nó	-10.4099
▁atribuye	-10.4107
▁precisa	-10.4112
▁componen	-10.4127
▁dichos	-10.4127
visa	-10.4128
▁intensidad	-10.4128
▁garantiza	-10.4128
▁incremento	-10.4128
▁lámina	-10.4128
▁vertical	-10.4128
sky	-10.4135
▁bisiestos	-10.4143
▁dejar	-10.4147
donde	-10.415
aunque	-10.4152
▁tejidos	-10.4153
▁carl	-10.4155
▁probable	-10.4156
▁específico	-10.4169
▁síntesis	-10.4172
▁obtenido	-10.4172
▁peruano	-10.4172
▁llamó	-10.4172
▁barroco	-10.4172
▁disponibles	-10.4173
▁guarda	-10.4174
ius	-10.4175
▁conservación	-10.4175
▁maya	-10.4176
▁inversión	-10.4177
▁huesos	-10.4178
front	-10.4182
▁salvo	-10.4189
pond	-10.4201
▁compone	-10.4206
▁someti	-10.4208
▁caballero	-10.4217
▁cristóbal	-10.4217
▁cromosómico	-10.4217
▁nietzsche	-10.4217
▁resolución	-10.4217
▁distinción	-10.4217
▁richard	-10.4217
▁facultad	-10.4217
▁producida	-10.4217
▁consolida	-10.4217
▁nervios	-10.4217
▁decimal	-10.4218
▁comisión	-10.422
▁investigadores	-10.422
ejo	-10.4225
▁precio	-10.4241
▁duro	-10.4253
▁posiciones	-10.4261
▁cubierta	-10.4261
▁júpiter	-10.4261
▁mínima	-10.4261
▁responsabilidad	-10.4261
▁judía	-10.4273
▁comunicaciones	-10.4276
▁quito	-10.4276
▁frutos	-10.4283
▁mental	-10.4286
ique	-10.4304
▁llevan	-10.4306
▁evidente	-10.4306
▁expedición	-10.4306
▁subfamilia	-10.4306
▁avance	-10.4307
▁disposición	-10.4309
más	-10.4324
▁viven	-10.4327
▁codifica	-10.4333
▁desarrollaron	-10.4339
tla	-10.435
▁resolver	-10.4351
▁intervención	-10.4351
▁virgen	-10.4352
▁continuo	-10.4352
▁perl	-10.4352
▁diego	-10.4354
▁(2	-10.4361
flexi	-10.4363
▁básicos	-10.4363
▁correo	-10.437
ang	-10.4375
▁químico	-10.4375
▁neuronas	-10.4378
▁tom	-10.438
▁separación	-10.4386
capa	-10.4388
▁anillos	-10.439
▁dispar	-10.4392
▁rural	-10.4394
▁absoluto	-10.4397
▁ecosistema	-10.4397
▁gravedad	-10.4397
▁multiplica	-10.4397
▁caña	-10.4398
▁deportiva	-10.44
▁entrar	-10.4405
▁reformas	-10.4405
▁gl	-10.4413
planta	-10.4413
▁explotación	-10.4413
▁positiva	-10.4424
▁cromosomas	-10.4426
ling	-10.4426
parti	-10.4427
▁pala	-10.4429
▁creencias	-10.4436
▁teórica	-10.4442
▁virtud	-10.4442
▁impulsa	-10.4442
jpg	-10.4442
▁extremadura	-10.4443
▁ejercicio	-10.4445
▁diputados	-10.4449
▁interesa	-10.445
▁coro	-10.4463
▁recon	-10.4465
▁punta	-10.4468
▁generar	-10.4469
▁grabado	-10.4487
▁republicana	-10.4488
▁temprana	-10.4488
▁trompeta	-10.4488
▁audiencia	-10.4488
▁reducción	-10.4488
▁1982	-10.4493
▁anillo	-10.4498
▁torres	-10.4499
▁registra	-10.4503
▁actos	-10.4508
▁poner	-10.4512
▁ram	-10.4512
▁reinado	-10.4512
▁cir	-10.4513
▁creencia	-10.4513
pino	-10.4514
ast	-10.4521
ian	-10.4528
▁codic	-10.4528
▁euros	-10.4531
▁extranjera	-10.4534
▁brillante	-10.4534
▁móvil	-10.4534
▁jorge	-10.4534
▁vivir	-10.4541
▁piel	-10.4551
▁identificar	-10.4557
▁arena	-10.4559
▁fabricación	-10.4559
tiempo	-10.4563
▁comer	-10.4564
▁presidencia	-10.4569
dista	-10.4578
▁instrucciones	-10.458
▁provocó	-10.458
▁surgieron	-10.458
▁lector	-10.458
▁critica	-10.4582
▁platón	-10.4585
well	-10.4593
ómica	-10.4608
war	-10.4609
▁orienta	-10.4614
▁guion	-10.4615
▁compila	-10.4615
pora	-10.4615
▁dedicada	-10.4621
▁compositor	-10.4622
clar	-10.4625
▁cinturón	-10.4626
▁comprensión	-10.4626
▁neutrones	-10.4626
▁inglesa	-10.4626
dul	-10.4627
▁nacido	-10.4632
▁dejando	-10.4633
anth	-10.4635
▁hogar	-10.4636
▁bell	-10.4637
serv	-10.4643
▁destacados	-10.4643
old	-10.4652
ak	-10.4656
▁signos	-10.4666
▁contribuye	-10.4667
yer	-10.467
nega	-10.4671
▁enzimas	-10.4673
ric	-10.4675
▁secreta	-10.4676
▁protesta	-10.4676
▁filósofos	-10.468
▁1940	-10.468
▁fluido	-10.4684
lización	-10.4686
▁bosque	-10.4687
tuvieron	-10.469
▁exporta	-10.4694
▁precios	-10.4697
▁vive	-10.4699
▁vii	-10.4703
▁realmente	-10.4711
▁complementa	-10.4719
▁dividida	-10.4719
▁hábitat	-10.4719
▁probabilidad	-10.4719
▁medalla	-10.4719
▁ritual	-10.472
▁relativo	-10.472
▁carece	-10.4723
ológicas	-10.473
▁alimento	-10.4734
▁colaboración	-10.4742
▁celta	-10.4749
▁incon	-10.4749
▁ubicación	-10.475
▁típica	-10.475
▁canción	-10.4754
▁costera	-10.4756
▁gases	-10.476
▁pertenecientes	-10.476
▁ajedrez	-10.4766
▁castellana	-10.4766
▁estadio	-10.4767
▁cueva	-10.4769
▁trabajadores	-10.4772
▁1985	-10.4772
▁45	-10.4785
▁fri	-10.4787
▁procedentes	-10.4788
▁42	-10.4801
bá	-10.4801
▁editor	-10.4803
▁char	-10.4806
▁páginas	-10.4806
▁adaptación	-10.4812
▁convencional	-10.4813
▁torneo	-10.4813
▁adulto	-10.4815
▁cumplir	-10.4817
▁cosa	-10.4817
río	-10.4818
▁editorial	-10.4824
▁fan	-10.4831
▁mata	-10.4834
▁tre	-10.4836
▁transformación	-10.4853
▁historiadores	-10.4856
rich	-10.4858
▁estrategia	-10.4861
▁vivienda	-10.4861
▁existir	-10.4861
▁difundi	-10.4861
▁promulg	-10.4861
▁intereses	-10.4863
▁seguidores	-10.4869
▁presidencial	-10.4871
▁carreteras	-10.4875
▁fila	-10.4876
▁aceptadas	-10.4881
▁leer	-10.4883
flor	-10.4903
▁posiblemente	-10.4908
▁baloncesto	-10.4908
▁encuentro	-10.4908
▁héroe	-10.4908
▁johann	-10.4908
▁tráfico	-10.4908
▁astronomía	-10.4908
▁morfología	-10.4908
▁primitivo	-10.4908
▁alianza	-10.4909
▁terror	-10.4909
▁sucesor	-10.4909
▁doctor	-10.4909
cf	-10.4911
▁considerarse	-10.4912
▁italiana	-10.4918
▁canaria	-10.4933
▁estrecha	-10.494
king	-10.4942
▁supuso	-10.4952
cristiano	-10.4953
▁aprendizaje	-10.4956
▁pseudo	-10.4956
▁pantalla	-10.4956
▁soluciones	-10.4956
▁bronce	-10.4956
▁responde	-10.4956
▁pares	-10.4957
▁patrón	-10.4957
▁segura	-10.4958
▁barra	-10.4964
▁cumpl	-10.4966
hard	-10.497
gest	-10.4978
▁occidentales	-10.4988
▁liberación	-10.4993
▁coordenadas	-10.5004
▁expresiones	-10.5004
▁guadalajara	-10.5004
▁llanura	-10.5004
▁resonancia	-10.5004
▁tolkien	-10.5004
▁arqueológico	-10.5004
▁cuarta	-10.5004
▁tendría	-10.5005
▁ediciones	-10.5005
▁sureste	-10.5011
med	-10.5011
▁puedan	-10.5012
▁tono	-10.5012
▁iguales	-10.5016
▁exactamente	-10.5017
▁conforman	-10.5024
▁centrales	-10.5029
▁oral	-10.5029
también	-10.504
▁cantante	-10.5047
▁parámetro	-10.5053
▁linneo	-10.5053
▁regresa	-10.5053
▁quinto	-10.5053
▁masiva	-10.5053
▁cuerda	-10.5054
érica	-10.506
▁propone	-10.5061
nombre	-10.5063
▁cruce	-10.507
▁vin	-10.5074
▁voz	-10.5074
software	-10.5089
▁bélgica	-10.5101
▁controversia	-10.5101
▁proclama	-10.5101
▁situaciones	-10.5101
▁oscura	-10.5101
▁permitía	-10.5101
▁concilio	-10.5101
▁anuncia	-10.5101
▁himno	-10.5101
▁intención	-10.5101
▁fibras	-10.5102
▁poemas	-10.5102
▁cualquiera	-10.5103
terapia	-10.5103
▁dieta	-10.5111
▁ordenador	-10.5112
bula	-10.5116
▁meseta	-10.5122
▁supuesto	-10.5132
▁64	-10.5132
▁acceder	-10.5138
▁hardware	-10.515
▁titulado	-10.5152
▁hielo	-10.5154
▁secretario	-10.5158
▁díaz	-10.5174
▁mandato	-10.5177
▁videojuegos	-10.5178
▁vela	-10.518
▁rob	-10.5189
▁tropicales	-10.5195
▁compatible	-10.5199
▁orgánico	-10.5199
▁sufrió	-10.5199
▁mencionado	-10.5199
▁bel	-10.5199
▁suecia	-10.52
▁quiere	-10.52
▁productores	-10.5203
▁sucede	-10.5206
▁corresponden	-10.5219
▁tarea	-10.5234
▁costumbres	-10.5236
▁sistemática	-10.5248
▁teorema	-10.5248
▁ontario	-10.5248
▁budista	-10.525
ult	-10.5254
▁capilla	-10.5256
▁utilización	-10.5256
▁linux	-10.5258
▁gasto	-10.5262
▁metano	-10.5272
▁asuntos	-10.5274
▁habitualmente	-10.528
▁explota	-10.528
▁verso	-10.5283
▁definiciones	-10.5298
▁precursor	-10.5298
▁navarra	-10.5298
scripciones	-10.5298
▁contar	-10.5299
▁inventa	-10.53
▁1991	-10.5303
cept	-10.531
ft	-10.5317
▁mural	-10.533
▁albert	-10.533
▁definitiva	-10.5331
▁asentamiento	-10.5347
▁litoral	-10.5348
▁sexo	-10.5348
▁fruta	-10.5348
▁escribe	-10.5349
▁2023	-10.5351
iga	-10.5365
▁vapor	-10.5368
mante	-10.5373
▁cd	-10.5393
▁declaración	-10.5394
▁legislativo	-10.5397
▁corazón	-10.5397
▁rafael	-10.5397
▁juicio	-10.5397
▁reloj	-10.5398
▁abajo	-10.5399
▁inclina	-10.54
▁específicos	-10.5402
sexual	-10.5405
▁fuertemente	-10.5407
constitu	-10.5408
▁plazo	-10.5408
isla	-10.5408
▁ventana	-10.5411
▁ebro	-10.5423
▁cruzada	-10.5434
500	-10.5438
-3	-10.5441
mano	-10.5447
▁democrática	-10.5448
▁universitario	-10.5448
▁córdoba	-10.5448
▁intentó	-10.5448
▁urano	-10.5453
pra	-10.5453
▁hetero	-10.5454
bb	-10.5484
lengua	-10.5492
▁aérea	-10.5498
▁computación	-10.5498
▁parecido	-10.5498
▁mozart	-10.5498
▁alcance	-10.5498
▁convertir	-10.55
▁millón	-10.55
▁maneja	-10.5501
▁estándares	-10.5503
▁aplicada	-10.5506
▁sabor	-10.5512
▁particulares	-10.5518
▁we	-10.5524
▁viva	-10.5525
▁indígena	-10.554
▁complejidad	-10.5549
▁espectáculo	-10.5549
▁evolutiva	-10.5549
▁minutos	-10.5549
▁pastor	-10.5553
▁comprob	-10.5553
▁educativo	-10.5556
▁1937	-10.5556
▁postula	-10.5561
200	-10.5564
▁lucas	-10.5569
▁vega	-10.5576
▁controlar	-10.5582
▁existía	-10.5583
▁tim	-10.5587
eva	-10.5589
dh	-10.5589
▁observado	-10.5599
retrato	-10.5599
▁accidente	-10.56
▁manuscrito	-10.56
▁astrología	-10.56
▁1981	-10.5606
ther	-10.562
▁archivo	-10.5642
higgins	-10.5651
▁imposible	-10.5651
▁masculino	-10.5651
▁permitido	-10.5651
▁dependiente	-10.5651
▁sublevado	-10.5651
▁apertura	-10.5651
▁preserva	-10.5652
▁oxida	-10.5653
mont	-10.5653
▁milla	-10.5684
▁acontecimientos	-10.5685
▁parti	-10.569
▁cle	-10.5695
▁informática	-10.5703
▁parroquia	-10.5703
▁adecuado	-10.5703
▁treinta	-10.5703
génesis	-10.5703
▁justifica	-10.5703
▁baile	-10.5705
pusieron	-10.5716
▁condena	-10.5737
▁ip	-10.5745
▁temporada	-10.5755
▁decisiones	-10.5755
▁apple	-10.5755
▁virus	-10.5756
▁buscar	-10.5757
▁fotones	-10.5759
▁selva	-10.576
▁sonora	-10.5762
▁pintor	-10.5763
▁tercio	-10.5764
’)	-10.5766
▁gradu	-10.5766
▁beneficios	-10.577
▁caliente	-10.5775
▁comprender	-10.5783
▁gama	-10.5792
hal	-10.5798
ung	-10.5802
▁poema	-10.5806
▁circunferencia	-10.5807
▁oportunidad	-10.5807
▁juega	-10.5808
▁recuperar	-10.581
▁complica	-10.5812
▁crom	-10.5815
siglo	-10.5815
▁unesco	-10.582
gli	-10.5829
▁almacena	-10.5836
▁documenta	-10.5838
▁servidores	-10.5849
▁daño	-10.585
▁california	-10.5859
▁lingüístico	-10.5859
▁judaísmo	-10.5859
▁andaluz	-10.5859
▁romance	-10.5861
▁estabilidad	-10.5864
▁inmediatamente	-10.5866
tula	-10.587
▁conciencia	-10.5872
▁ayudar	-10.5873
ánico	-10.5874
▁instalaciones	-10.5877
▁historiador	-10.5878
▁generado	-10.5888
▁necesariamente	-10.589
orden	-10.5896
▁utilizaba	-10.591
▁"[[	-10.5912
▁manipula	-10.5912
▁convirtier	-10.5912
▁conducta	-10.5913
▁toro	-10.592
▁biografía	-10.592
human	-10.5921
▁ocupación	-10.5928
tex	-10.5933
▁acompañado	-10.5945
▁configura	-10.5946
▁castro	-10.5948
mana	-10.5956
roman	-10.5957
▁combustible	-10.5965
▁construyó	-10.5965
▁gonzález	-10.5965
▁protagonista	-10.5965
▁primitiva	-10.5965
▁cambió	-10.5965
▁recibie	-10.5965
▁dvd	-10.5965
▁sucesos	-10.5965
▁añadir	-10.5965
▁descendientes	-10.5966
▁james	-10.5966
▁mide	-10.5968
▁astur	-10.5969
▁reduce	-10.5969
▁polvo	-10.5969
▁llegan	-10.597
▁plasma	-10.5971
▁invita	-10.5973
100	-10.598
▁encargado	-10.5983
▁publicaciones	-10.5988
▁edita	-10.5992
▁alimentación	-10.5994
▁predomina	-10.6
▁clasificar	-10.6008
▁denominaciones	-10.6008
viendo	-10.6008
▁mantenimiento	-10.6018
▁reducida	-10.6018
▁concreto	-10.6019
▁rurales	-10.6025
fort	-10.6027
vida	-10.6031
line	-10.6031
idae	-10.6035
▁extremada	-10.6038
▁herencia	-10.6043
▁moleculares	-10.6051
trans	-10.6061
▁originales	-10.6069
win	-10.6069
▁aparecieron	-10.6071
▁freebsd	-10.6071
▁isótopo	-10.6071
▁zacatecas	-10.6071
▁extendido	-10.6071
▁atraves	-10.6071
▁orquesta	-10.6071
▁golfo	-10.6071
▁vivió	-10.6071
▁logro	-10.6075
▁psi	-10.6078
▁1986	-10.6079
▁página	-10.6079
▁signo	-10.6082
▁auge	-10.6094
▁limitado	-10.6097
eja	-10.61
▁reciben	-10.6104
▁recupera	-10.6104
▁elaboración	-10.6107
▁anima	-10.6112
▁diccionario	-10.6113
▁exteriores	-10.6122
tele	-10.6125
▁circunstancia	-10.6125
▁difiere	-10.6125
▁eduardo	-10.6125
▁filosófica	-10.6125
▁fusiona	-10.6125
▁bahía	-10.6125
▁integran	-10.6125
ésimo	-10.6125
▁fiscal	-10.6126
▁fundado	-10.6135
tlán	-10.6139
▁sinónimo	-10.6139
chel	-10.6146
▁ejecutar	-10.615
▁pleno	-10.6152
▁opuesto	-10.6154
▁estatus	-10.6158
▁pensar	-10.6159
iaceae	-10.6165
▁operador	-10.6165
ándola	-10.6173
0.000	-10.6174
▁aminoácido	-10.6179
▁bolivia	-10.6179
▁distribuido	-10.6179
▁progreso	-10.6179
▁tenemos	-10.6179
▁atómica	-10.6179
▁otoño	-10.6179
▁islam	-10.6184
▁derivado	-10.6184
filia	-10.6184
▁personales	-10.6187
▁mencionar	-10.6187
▁exportaciones	-10.6189
poniendo	-10.619
▁manda	-10.619
▁herramienta	-10.6191
▁circulación	-10.6192
▁polen	-10.6197
recién	-10.6203
▁hol	-10.6215
1)	-10.622
▁creando	-10.6221
▁fragment	-10.6228
▁pintores	-10.6233
ieran	-10.6233
parte	-10.6233
▁diagnóstico	-10.6233
▁disminuye	-10.6233
▁periodista	-10.6233
▁isabel	-10.6233
▁instancia	-10.6233
▁esperanza	-10.6234
▁alcalde	-10.6234
temp	-10.624
▁1975	-10.6242
plicó	-10.6252
cript	-10.6255
uno	-10.6273
▁parcial	-10.6273
posiciones	-10.6284
▁revis	-10.6286
▁térmica	-10.6288
▁perennes	-10.6288
▁arqueas	-10.6288
▁estimula	-10.6288
▁culmina	-10.6288
▁electricidad	-10.6288
▁ultra	-10.6289
▁vale	-10.629
▁manual	-10.6293
metría	-10.6294
énica	-10.6308
▁game	-10.6322
▁proporcionar	-10.6322
yendo	-10.6326
vul	-10.6337
▁levanta	-10.634
▁bizantino	-10.6343
▁cerebral	-10.6343
▁infinito	-10.6343
▁víctima	-10.6343
system	-10.6343
▁estrecho	-10.6343
▁discuti	-10.6343
onio	-10.6346
▁perder	-10.6348
▁emite	-10.6352
ensis	-10.6355
▁pared	-10.6356
▁peter	-10.6363
eae	-10.6365
▁king	-10.6376
▁concreta	-10.6385
▁motores	-10.6396
▁cop	-10.6398
▁alejandro	-10.6398
▁angiospermas	-10.6398
▁bretaña	-10.6398
▁hubiera	-10.6398
▁constituido	-10.6398
▁sustrato	-10.64
▁carbón	-10.6402
▁1939	-10.6405
▁seguía	-10.641
▁crono	-10.6416
▁extranjero	-10.6417
▁requieren	-10.6417
▁tropical	-10.643
unidad	-10.6437
▁influyente	-10.6437
▁laboral	-10.6438
...)	-10.644
▁pico	-10.6448
▁filo	-10.6454
▁brunswick	-10.6454
▁púrpura	-10.6454
▁sacerdote	-10.6454
▁síntomas	-10.6454
▁apóstol	-10.6454
▁óptico	-10.6454
▁extenso	-10.6454
▁patrones	-10.6454
▁tumor	-10.6458
▁localidades	-10.6468
▁mega	-10.6481
▁fox	-10.6484
▁world	-10.6493
▁málaga	-10.651
▁violencia	-10.651
óxido	-10.6511
▁segmento	-10.6512
▁drama	-10.6513
▁exige	-10.6523
▁reparti	-10.6528
▁mantienen	-10.6534
▁pop	-10.6544
itz	-10.6546
▁helen	-10.6549
▁representada	-10.6561
▁impresion	-10.6565
▁vertiente	-10.6566
▁desigual	-10.6566
▁supremo	-10.6566
▁proteger	-10.6568
▁esclavos	-10.6572
▁gusto	-10.6574
▁proteína	-10.6591
▁margen	-10.6607
cino	-10.6618
emb	-10.6622
▁capítulo	-10.6622
▁integrada	-10.6622
▁restringi	-10.6622
▁soberanía	-10.6622
▁triángulo	-10.6622
▁transbordador	-10.6622
▁angular	-10.6622
▁belleza	-10.6623
▁llena	-10.6625
▁1983	-10.6629
▁grasa	-10.663
▁suave	-10.6635
▁rival	-10.6635
texto	-10.6637
ándole	-10.6642
▁boca	-10.6643
▁neurona	-10.665
▁marcada	-10.6655
dillo	-10.6655
▁capi	-10.6661
▁finalidad	-10.6671
má	-10.6675
▁diálogo	-10.6679
▁guatemala	-10.6679
▁temprano	-10.6679
▁trasladó	-10.6679
▁interacciones	-10.6679
▁sintetiza	-10.6679
▁cálido	-10.6679
▁aventura	-10.6679
▁asiático	-10.6681
actual	-10.6681
▁ze	-10.6684
▁asociaciones	-10.6691
ecimiento	-10.6691
trajo	-10.6692
▁enviar	-10.6697
ken	-10.6704
▁mesa	-10.6704
▁magia	-10.6705
▁implementación	-10.6708
▁avanzado	-10.6712
▁evita	-10.6725
▁vegetales	-10.673
▁poca	-10.6735
▁resultó	-10.6736
▁hallazgo	-10.6736
▁vitamina	-10.6736
▁peruana	-10.6736
▁sudamérica	-10.6736
▁psoe	-10.6736
▁corporal	-10.6737
▁avanza	-10.6737
▁especula	-10.6739
▁simula	-10.674
▁baila	-10.674
▁variada	-10.674
▁1979	-10.6742
▁emisión	-10.6746
▁definitivamente	-10.6755
▁precisamente	-10.6758
▁facilita	-10.6768
▁específicamente	-10.6768
▁uniforme	-10.6773
audi	-10.678
▁esclav	-10.6788
▁demostró	-10.6794
▁jurídica	-10.6794
▁nitrógeno	-10.6794
▁selecciona	-10.6794
▁volúmenes	-10.6794
▁renuncia	-10.6794
▁tarjeta	-10.6794
▁vecinos	-10.6794
▁materna	-10.6794
▁cavidad	-10.6794
▁recorda	-10.6795
▁oferta	-10.6795
▁destinado	-10.6796
▁espaciales	-10.6798
▁1978	-10.68
▁vegetal	-10.68
▁delimita	-10.6801
▁dependencia	-10.6803
ográfica	-10.6812
▁recuperación	-10.6813
▁estudi	-10.6814
activo	-10.6825
▁correcta	-10.6835
▁anatomía	-10.6852
▁estricta	-10.6852
▁glumas	-10.6852
▁atrás	-10.6852
▁apunta	-10.6852
▁louis	-10.6854
▁procesamiento	-10.6856
▁gráficos	-10.6861
▁ordenadores	-10.6862
▁circular	-10.6864
▁sucesión	-10.6866
▁pesca	-10.6866
▁basal	-10.6868
ity	-10.6874
▁goza	-10.6877
▁sho	-10.6891
▁aparente	-10.6894
▁declarado	-10.6896
▁800	-10.6904
▁renta	-10.6907
▁cerámica	-10.691
▁cuarks	-10.691
▁joseph	-10.691
▁superficial	-10.691
▁teatral	-10.691
▁thomas	-10.691
▁actitud	-10.691
▁monarca	-10.691
▁arroz	-10.691
▁polaco	-10.691
▁obrero	-10.6911
▁compresión	-10.6912
▁troya	-10.6917
▁1989	-10.6917
natural	-10.6922
▁modificaciones	-10.6922
▁gobernante	-10.6925
▁realizaron	-10.6925
▁raramente	-10.6926
▁parcialmente	-10.6927
▁obligado	-10.6929
ísimo	-10.694
▁celebración	-10.6948
▁valenciano	-10.6968
▁cincuenta	-10.6968
▁cádiz	-10.6968
▁telescopio	-10.6968
▁gestiona	-10.6968
▁vaticano	-10.6968
▁berlín	-10.6968
▁minoría	-10.6968
▁ibm	-10.6968
▁fachada	-10.6968
▁variación	-10.6969
▁tendrá	-10.6969
▁recorre	-10.6969
▁mueve	-10.6971
▁1977	-10.6975
nueva	-10.6979
▁gala	-10.6984
▁platos	-10.6984
▁tesis	-10.6985
▁rara	-10.6988
▁posibilidades	-10.6989
▁deuda	-10.7009
▁básicamente	-10.7009
▁tira	-10.7014
▁morales	-10.702
128	-10.7026
▁afirmó	-10.7027
▁hierbas	-10.7027
céfalo	-10.7027
▁automóvil	-10.7027
▁dinamarca	-10.7027
▁informático	-10.7027
▁perfecta	-10.7027
▁establecida	-10.7027
▁intervalo	-10.7027
▁africana	-10.7027
▁seguida	-10.703
▁zeus	-10.7031
▁cerrado	-10.7031
ífera	-10.7031
▁identificado	-10.7033
▁ganar	-10.7034
▁nativos	-10.7037
▁zap	-10.7038
▁duero	-10.7039
fono	-10.7044
▁pago	-10.7049
▁carretera	-10.7068
▁distinta	-10.7068
▁tercero	-10.7069
▁eliminar	-10.7077
▁húmedo	-10.7086
▁juventud	-10.7086
▁rodríguez	-10.7086
▁vegetación	-10.7086
▁regreso	-10.7086
▁quechua	-10.7088
▁pareja	-10.7089
▁andes	-10.7095
ciclo	-10.7098
▁spa	-10.7098
▁cobre	-10.7108
▁sesión	-10.7117
▁molécula	-10.713
▁creador	-10.7132
▁cuestiones	-10.7146
▁precipitaciones	-10.7146
▁salamanca	-10.7146
quake	-10.7146
▁veinti	-10.7146
▁segovia	-10.7146
▁pretende	-10.7147
▁secreto	-10.7148
▁revolucionario	-10.715
▁cubre	-10.7161
▁gil	-10.7163
▁//	-10.7166
▁existían	-10.7166
▁configuración	-10.7166
▁vector	-10.7168
▁ll	-10.7175
▁nacionalidad	-10.7184
▁aporte	-10.7189
▁medición	-10.7196
manifiesto	-10.7206
▁infancia	-10.7206
▁ideología	-10.7206
▁sólo	-10.7206
▁desierto	-10.7206
pha	-10.7206
▁civilizaciones	-10.7207
▁bernard	-10.7208
▁chu	-10.7226
▁apg	-10.7229
▁600	-10.7234
▁afro	-10.7238
elli	-10.724
▁vivo	-10.7241
▁mini	-10.7246
auto	-10.7259
rugby	-10.7266
▁institucional	-10.7266
▁neptuno	-10.7266
▁vídeo	-10.7266
▁eficiente	-10.7266
▁oficina	-10.7266
▁sencilla	-10.7266
▁emisor	-10.7266
▁sensible	-10.7266
▁masivo	-10.7267
▁creen	-10.7267
▁pulgada	-10.7267
▁abandonar	-10.7267
▁robot	-10.7267
▁convento	-10.7269
▁intermedia	-10.727
▁iniciado	-10.7272
▁viena	-10.7276
▁temática	-10.7277
▁intelectuales	-10.7279
▁lejos	-10.7293
▁casco	-10.7298
activa	-10.7317
▁contrato	-10.7324
ville	-10.7325
▁campesino	-10.7326
▁filogenia	-10.7326
▁recopila	-10.7326
▁establecieron	-10.7326
▁invasión	-10.7326
▁feudal	-10.7327
▁intensa	-10.7327
▁trama	-10.7327
▁americana	-10.7328
▁agencia	-10.7329
▁previamente	-10.734
▁fundamento	-10.7341
▁varían	-10.7344
▁influye	-10.7345
▁estancia	-10.7357
▁cubano	-10.7359
▁trigo	-10.7362
▁trataba	-10.7367
sobre	-10.7368
aire	-10.7377
▁sueño	-10.7384
▁coincidi	-10.7387
▁egipcio	-10.7387
▁encontramos	-10.7387
▁horizontal	-10.7387
▁módulo	-10.7387
▁adoptó	-10.7387
▁templado	-10.7387
▁video	-10.7391
▁compositores	-10.7394
▁fermentación	-10.7397
▁pista	-10.74
▁distribuye	-10.7401
▁vigente	-10.7403
▁test	-10.7407
fundamentalmente	-10.7407
▁orientación	-10.7411
▁enviado	-10.7419
▁150	-10.7427
▁encontrarse	-10.743
▁ofrecen	-10.7437
▁conciertos	-10.7449
▁inmigración	-10.7449
▁joaquín	-10.7449
▁kafka	-10.7449
▁participó	-10.7449
▁entiende	-10.7449
▁inercia	-10.7449
▁quince	-10.7451
▁promovi	-10.7459
▁sueco	-10.746
▁karl	-10.7463
▁cinta	-10.7468
fito	-10.7488
▁lanzado	-10.7489
-17	-10.7509
▁aficionado	-10.751
▁atletismo	-10.751
▁evolutivo	-10.751
▁heráclito	-10.751
▁efectiva	-10.751
▁siguieron	-10.751
▁cuántico	-10.7511
▁oscuro	-10.7511
▁huevo	-10.7511
▁encuesta	-10.7511
▁rusa	-10.7517
▁elaborado	-10.752
▁basic	-10.752
onomía	-10.7525
▁biológico	-10.7531
▁fama	-10.7543
▁brazo	-10.7547
amor	-10.7547
▁exacta	-10.7556
▁notación	-10.7566
▁efectu	-10.7573
▁próxima	-10.7573
▁sapiens	-10.7573
▁demostrado	-10.7573
▁solicita	-10.7573
▁galaxia	-10.7573
▁suprema	-10.7573
▁capitán	-10.7573
▁noreste	-10.7574
hue	-10.7582
▁convoca	-10.7582
▁navegación	-10.759
izaciones	-10.76
electromagnética	-10.7601
▁intel	-10.7614
▁conversión	-10.762
▁chip	-10.7622
▁feria	-10.7632
▁extendió	-10.7635
▁financiero	-10.7635
▁jehová	-10.7635
▁jerusalén	-10.7635
▁semiconductor	-10.7635
▁arqueología	-10.7635
▁guardia	-10.7635
▁gótico	-10.7635
▁sentencia	-10.7636
▁propici	-10.7638
▁triple	-10.7638
▁vieja	-10.764
▁enfrentamiento	-10.764
▁1929	-10.7643
▁dificultad	-10.7647
▁detectar	-10.7655
▁presentación	-10.7657
▁motiva	-10.7659
▁perdie	-10.7676
▁tomado	-10.7678
▁blas	-10.7679
▁interesante	-10.7681
▁natal	-10.7689
rock	-10.7695
▁democrático	-10.7698
▁óvulo	-10.7698
▁mesoamérica	-10.7698
▁cartagena	-10.7698
▁literal	-10.7698
▁contempla	-10.7698
▁impresión	-10.77
▁hereda	-10.7704
▁humor	-10.7707
▁1933	-10.7708
▁#	-10.771
▁ejemplares	-10.7715
▁municipales	-10.7721
existe	-10.7722
▁diosa	-10.7729
▁arista	-10.7737
▁estelar	-10.7739
▁palo	-10.7739
▁prosa	-10.7742
▁dificultades	-10.7749
▁fisi	-10.7754
▁climático	-10.7761
▁discípulo	-10.7761
▁cuestiona	-10.7761
▁tenerife	-10.7761
▁ecología	-10.7762
▁inspirado	-10.7762
▁aquiles	-10.7763
▁pasajeros	-10.7764
▁favorable	-10.7765
▁desplazamiento	-10.7766
▁crearon	-10.7771
▁proyecta	-10.7772
▁previo	-10.7776
_3	-10.7777
▁sagan	-10.778
▁psico	-10.7786
')	-10.7791
-16	-10.7799
▁comparten	-10.7805
ambient	-10.782
bú	-10.7821
etano	-10.7824
▁minas	-10.7824
▁fund	-10.7825
▁albedrío	-10.7825
▁aprobación	-10.7825
▁compañero	-10.7825
▁ponferrada	-10.7825
▁portuguesa	-10.7825
▁portugués	-10.7825
▁práctico	-10.7825
▁construida	-10.7825
▁tragedia	-10.7825
▁astorga	-10.7825
▁inspiración	-10.7825
▁preciso	-10.7825
▁ocurrió	-10.7825
▁espín	-10.7825
▁albania	-10.7826
▁atenas	-10.7827
▁1931	-10.7832
▁1976	-10.7833
▁solía	-10.7838
▁host	-10.7857
▁identificación	-10.7868
kh	-10.787
▁realización	-10.7871
1%	-10.7874
present	-10.7885
▁convirtiéndose	-10.7889
▁cooperación	-10.7889
▁israel	-10.7889
▁nicolás	-10.7889
▁guitarra	-10.7889
▁protector	-10.7889
▁obesidad	-10.7889
▁alonso	-10.789
▁conforme	-10.7891
▁topología	-10.7891
▁transmiti	-10.7892
ificó	-10.7895
▁escaso	-10.7897
▁salto	-10.7898
▁añade	-10.7902
▁exportación	-10.7914
▁html	-10.7921
▁peces	-10.7927
▁ganador	-10.7927
▁vectorial	-10.793
▁aceptado	-10.7943
jón	-10.7944
post	-10.7945
▁xx	-10.7945
▁fábrica	-10.7954
▁gómez	-10.7954
▁irregular	-10.7954
▁presupuesto	-10.7954
▁episodio	-10.7954
▁sentimiento	-10.7954
▁utilidad	-10.7954
▁cabecera	-10.7954
▁admira	-10.7954
▁protegido	-10.7954
▁escolar	-10.7954
▁ontología	-10.7955
▁nasa	-10.7955
univers	-10.7957
▁gramática	-10.7958
computador	-10.7961
▁fósil	-10.7967
▁new	-10.7978
▁codificación	-10.798
▁limitada	-10.7982
▁detecta	-10.7994
quina	-10.7995
▁pata	-10.8015
▁controlado	-10.8017
▁ancestro	-10.8019
▁facilidad	-10.8019
▁conmemora	-10.8019
▁invención	-10.8019
▁direcciones	-10.8019
▁tumba	-10.8019
▁reproduci	-10.8019
▁poseía	-10.802
▁1932	-10.8025
ñón	-10.8029
▁distinto	-10.8031
▁simón	-10.8035
▁saint	-10.8038
▁propiamente	-10.8051
▁calcular	-10.8065
▁concluye	-10.8084
▁dígito	-10.8084
▁filosófico	-10.8084
▁horizonte	-10.8084
▁pétalos	-10.8084
▁mostró	-10.8084
▁saturno	-10.8084
▁extinción	-10.8084
hora	-10.8086
▁favoreci	-10.8087
▁tomás	-10.8088
▁bast	-10.8089
▁cómic	-10.8094
▁olímpico	-10.8098
▁diaria	-10.8131
▁verse	-10.8141
qué	-10.8147
▁ocasiona	-10.815
▁etiqueta	-10.815
▁amistad	-10.815
▁conexiones	-10.815
▁nativa	-10.815
▁exceso	-10.815
ezca	-10.8156
▁tiro	-10.8156
▁costumbre	-10.8166
▁servir	-10.8175
byte	-10.8181
▁entrevista	-10.8182
▁reunión	-10.8184
▁gene	-10.8198
▁hoja	-10.8198
8%	-10.8206
▁hablada	-10.8207
public	-10.821
▁alfred	-10.8212
▁periférico	-10.8216
▁uruguay	-10.8216
▁ocupó	-10.8216
▁consideró	-10.8216
sistió	-10.8216
▁venecia	-10.8216
▁pierde	-10.8218
▁martínez	-10.8218
sistema	-10.8219
▁envió	-10.8228
▁variante	-10.8235
▁liberales	-10.8241
▁existente	-10.8247
▁recorrido	-10.8254
▁actuación	-10.8257
▁priva	-10.8268
▁preparación	-10.8269
▁hacerlo	-10.8281
▁dispersión	-10.8283
▁meridional	-10.8283
▁trabajó	-10.8283
▁amarillo	-10.8283
▁neutral	-10.8283
▁modalidad	-10.8283
▁ajusta	-10.8284
▁acorde	-10.8286
▁documental	-10.8286
▁aborda	-10.8287
▁volcán	-10.8289
▁navega	-10.829
▁marcial	-10.8291
▁bene	-10.8292
▁1968	-10.8292
dilla	-10.8293
▁colonización	-10.8299
wer	-10.8299
▁compilador	-10.8301
▁debió	-10.8307
ífero	-10.8309
▁infante	-10.8312
▁gli	-10.8314
▁mora	-10.8316
▁conduce	-10.8317
cadena	-10.832
dict	-10.832
▁esencialmente	-10.832
▁pieza	-10.8328
▁puro	-10.8332
▁indio	-10.8346
filo	-10.8347
▁empa	-10.8348
▁marítima	-10.835
▁mercancía	-10.835
▁relevancia	-10.835
▁chiapas	-10.835
▁plural	-10.835
▁referente	-10.835
▁decide	-10.8351
▁hueco	-10.8351
▁invento	-10.8351
▁turística	-10.8352
▁dedicó	-10.8352
▁opción	-10.8355
▁oculta	-10.8357
▁1925	-10.8362
▁sustenta	-10.8363
▁experimento	-10.8373
▁rub	-10.8378
cante	-10.8387
fest	-10.839
▁jugar	-10.8399
▁construcciones	-10.8417
▁ibérico	-10.8417
▁legislativa	-10.8417
▁python	-10.8417
▁similitud	-10.8417
▁analítica	-10.8417
▁penetra	-10.8417
▁manejo	-10.842
▁aliados	-10.8421
▁1938	-10.8428
▁quinta	-10.8429
▁3000	-10.8434
▁encontraron	-10.8441
▁modificación	-10.8447
▁libra	-10.8454
▁falla	-10.8456
▁paredes	-10.848
▁circun	-10.8485
▁disminución	-10.8485
▁homenaje	-10.8485
▁musulmana	-10.8485
▁espectador	-10.8485
▁correcto	-10.8486
▁ronda	-10.8488
▁1500	-10.8488
▁postura	-10.8492
▁1988	-10.8494
▁futura	-10.8495
▁llano	-10.8495
▁modificar	-10.8498
▁narrativa	-10.85
3)	-10.8503
▁judío	-10.8513
▁salir	-10.852
▁finaliza	-10.8529
▁adoptado	-10.8533
▁agro	-10.8536
▁orto	-10.8553
▁azerbaiyán	-10.8554
▁flósculo	-10.8554
▁hábito	-10.8554
▁meridiano	-10.8554
▁vínculo	-10.8554
▁1984	-10.8554
▁ilumina	-10.8554
▁regresó	-10.8554
▁dirigió	-10.8554
▁montañosa	-10.8554
▁divisiones	-10.8554
▁silicio	-10.8554
▁conjunta	-10.8554
▁consciente	-10.8558
▁michel	-10.8559
▁emula	-10.856
▁1987	-10.8562
▁falsa	-10.8567
▁hotel	-10.857
▁protón	-10.8575
▁tramo	-10.8578
química	-10.8582
▁exponente	-10.8587
▁plana	-10.8587
hispan	-10.8594
▁extrema	-10.8596
▁august	-10.8599
▁registrado	-10.8619
▁transmitir	-10.8622
▁abundancia	-10.8623
▁campeón	-10.8623
▁celebró	-10.8623
▁numérico	-10.8623
▁restricciones	-10.8623
▁embrión	-10.8623
▁henry	-10.8623
▁fisiología	-10.8624
▁forestal	-10.8625
▁lento	-10.864
▁aceptar	-10.8641
▁originaria	-10.8655
▁sancho	-10.8658
viene	-10.8668
▁alberto	-10.8671
▁abstracto	-10.8692
▁atmosférica	-10.8692
▁introducir	-10.8692
▁japonés	-10.8692
▁manifiesta	-10.8692
▁nutrientes	-10.8692
▁soviético	-10.8692
▁triunfo	-10.8692
▁simplific	-10.8692
▁acabó	-10.8692
▁percepción	-10.8692
▁celeste	-10.8692
▁escucha	-10.8693
▁sociología	-10.8694
prendió	-10.8695
▁demografía	-10.8696
▁galería	-10.87
cionista	-10.87
▁reside	-10.87
lusión	-10.8711
▁augusto	-10.8717
▁rose	-10.8718
▁facilitar	-10.8724
▁degrada	-10.8725
▁decía	-10.873
▁ferr	-10.874
▁láser	-10.8762
▁insectos	-10.8762
▁alquimia	-10.8762
▁textil	-10.8762
▁migración	-10.8762
▁promoción	-10.8762
▁definió	-10.8762
▁espiral	-10.8763
4%	-10.8765
▁dióxido	-10.8768
▁brinda	-10.8768
▁pescado	-10.8769
▁educativa	-10.8769
▁insert	-10.8774
3%	-10.8774
▁georg	-10.8784
▁cloro	-10.8788
pensa	-10.8801
▁cuadra	-10.8804
▁aproximación	-10.8804
▁ford	-10.8807
▁aceptación	-10.8814
▁instalación	-10.8814
▁flu	-10.8821
▁resultante	-10.883
▁aprobó	-10.8833
▁computacional	-10.8833
▁incluyó	-10.8833
▁lóbulo	-10.8833
▁alcohol	-10.8833
▁gabriel	-10.8833
▁semejante	-10.8833
▁levadura	-10.8833
▁vargas	-10.8833
▁basándose	-10.8833
▁variado	-10.8839
▁1948	-10.8843
▁tomando	-10.8844
▁logrado	-10.8865
▁patente	-10.8878
▁distingui	-10.8883
▁registrada	-10.8883
book	-10.8889
▁combati	-10.8895
▁hidrocarburos	-10.8903
▁distribuida	-10.8903
▁adjetivo	-10.8903
▁matriz	-10.8904
fonía	-10.8904
▁vigor	-10.8905
▁cuál	-10.8907
▁modificado	-10.8907
▁pobreza	-10.8909
harry	-10.8928
▁bello	-10.893
▁alberta	-10.8958
7%	-10.897
copyleft	-10.8975
▁agustín	-10.8975
▁apariencia	-10.8975
▁compromiso	-10.8975
▁desaparece	-10.8975
▁extendida	-10.8975
▁teclado	-10.8975
▁consenso	-10.8975
▁atenea	-10.8976
cosa	-10.8976
▁elipse	-10.8976
▁geométrica	-10.8976
▁misiones	-10.8981
▁norteamérica	-10.8981
▁1973	-10.8982
▁fragmentos	-10.8983
▁cumbre	-10.8986
▁demuestra	-10.8988
▁foco	-10.8993
llón	-10.8994
▁aparentemente	-10.8995
ical	-10.8998
misión	-10.9002
▁hilo	-10.9009
químico	-10.901
asia	-10.903
▁procedente	-10.9032
▁giro	-10.9038
▁ascenso	-10.9047
▁recuerda	-10.9047
▁relativista	-10.9047
▁ocasión	-10.9047
▁dispersa	-10.9047
▁oficio	-10.9047
▁pierre	-10.9047
▁genoma	-10.9047
▁amazon	-10.9047
▁congrega	-10.9048
▁conocía	-10.905
▁sugiri	-10.905
▁sexto	-10.9051
▁filología	-10.9053
▁restauración	-10.9054
▁lorca	-10.9054
▁ausente	-10.9055
duciendo	-10.9057
ítico	-10.9064
▁pacto	-10.9066
▁pasaje	-10.9066
work	-10.9067
graph	-10.9078
tropical	-10.9083
▁elementales	-10.9083
ophyta	-10.9095
▁recto	-10.9103
▁verifica	-10.9105
▁japonesa	-10.9119
▁precedente	-10.9119
▁sánchez	-10.9119
▁botánico	-10.9119
▁percibi	-10.9119
▁nobleza	-10.9119
▁constituida	-10.9119
▁machado	-10.912
▁cama	-10.9123
▁ceuta	-10.9126
▁típicamente	-10.9145
▁aldea	-10.9153
▁trabajando	-10.9156
▁carbon	-10.9158
▁canon	-10.916
▁afectado	-10.916
▁diamante	-10.9171
▁variar	-10.9177
▁friedrich	-10.9192
▁simbólico	-10.9192
▁soberano	-10.9192
▁telecomunicaci	-10.9192
▁gradualmente	-10.9192
▁protegida	-10.9192
▁deposita	-10.9193
▁coronel	-10.9193
▁potente	-10.9193
▁aislado	-10.9198
▁previa	-10.9209
▁once	-10.921
▁almacenar	-10.9221
▁pilar	-10.9228
blade	-10.9264
▁abandonó	-10.9266
▁antecedente	-10.9266
▁célebre	-10.9266
▁franquista	-10.9266
▁genérico	-10.9266
▁metabolismo	-10.9266
▁músculo	-10.9266
▁intermedio	-10.9266
▁perdió	-10.9266
▁crónica	-10.9266
▁maestra	-10.9267
▁paseo	-10.9268
▁afect	-10.927
▁trayectoria	-10.9271
cient	-10.9275
▁interpretado	-10.9285
kov	-10.9286
centro	-10.929
▁1900	-10.9291
anim	-10.9299
▁avanzada	-10.93
clásico	-10.9304
▁equivale	-10.9307
▁constituyente	-10.9308
▁ruido	-10.9312
▁ordenado	-10.9312
▁edifica	-10.9336
▁académica	-10.934
▁jardín	-10.934
▁oceanía	-10.934
▁satisface	-10.934
▁retórica	-10.934
▁innovación	-10.934
▁conclusión	-10.934
▁retorno	-10.934
▁parecía	-10.934
▁minería	-10.934
▁firme	-10.9341
▁angola	-10.9341
▁transmite	-10.9341
▁composiciones	-10.9342
▁1962	-10.9347
▁mexica	-10.9354
▁franja	-10.936
ticismo	-10.9364
▁exploración	-10.9379
▁circula	-10.9383
▁organizada	-10.9383
▁legado	-10.9392
▁permaneci	-10.9395
▁frank	-10.9397
▁monumental	-10.9415
▁peninsular	-10.9415
▁explícita	-10.9415
▁alcaloides	-10.9415
▁lorenzo	-10.9415
▁diversifica	-10.9415
▁karate	-10.9415
▁suroeste	-10.9415
▁consigue	-10.9415
▁ninguno	-10.9416
▁descarga	-10.9416
cientos	-10.9421
▁gale	-10.9422
▁1972	-10.9423
▁fresco	-10.9425
punk	-10.9427
igno	-10.9428
ísima	-10.9429
▁banca	-10.9439
mund	-10.9442
▁pensado	-10.9444
▁orientada	-10.9448
9%	-10.9458
interpretaciones	-10.9474
▁raza	-10.9477
▁proporcional	-10.9489
▁adquirió	-10.949
▁descubrir	-10.949
▁dimensión	-10.949
▁fértil	-10.949
▁intercambia	-10.949
▁introducido	-10.949
▁masculina	-10.949
▁residuo	-10.949
▁rebelión	-10.949
▁tecnológica	-10.949
▁climática	-10.949
▁sustituye	-10.949
▁nieve	-10.949
▁engloba	-10.9499
▁volcánica	-10.9501
▁centenar	-10.9504
6%	-10.9509
▁relata	-10.951
ward	-10.9515
▁estrechamente	-10.9516
▁consistente	-10.9529
▁aceleración	-10.9532
▁generaciones	-10.9535
▁francis	-10.9557
▁arbustos	-10.9565
▁christi	-10.9565
▁competición	-10.9565
▁peregrina	-10.9565
▁septentrional	-10.9565
▁cráneo	-10.9565
▁taxones	-10.9565
▁imprenta	-10.9565
▁catalana	-10.9566
▁reposo	-10.9566
▁elegir	-10.9566
▁aislada	-10.957
▁lisp	-10.9578
▁correspondencia	-10.9579
▁bellas	-10.9581
▁documentación	-10.9592
▁administrativo	-10.9598
▁funcionalidad	-10.9602
provincia	-10.9609
▁coloniza	-10.9624
▁enlaza	-10.9633
uu	-10.9637
▁filogenético	-10.9642
▁instrumental	-10.9642
▁mediterránea	-10.9642
▁persistente	-10.9642
▁énfasis	-10.9642
▁conceptual	-10.9642
▁integral	-10.9642
▁introduce	-10.9642
▁atractivo	-10.9642
▁ocasionalmente	-10.9642
▁cernuda	-10.9642
▁firmó	-10.9642
▁rechazo	-10.9642
▁dibuja	-10.9642
▁podrá	-10.9643
▁patrona	-10.9647
▁secciones	-10.9652
▁gpl	-10.9661
españa	-10.9664
archae	-10.9667
▁madura	-10.9668
▁pudier	-10.9683
▁anualmente	-10.9685
▁notablemente	-10.9703
▁cerro	-10.9709
▁alejandría	-10.9719
▁arquitectónico	-10.9719
▁asesinato	-10.9719
▁desaparición	-10.9719
▁gramíneas	-10.9719
▁propietario	-10.9719
▁pálea	-10.9719
▁álgebra	-10.9719
▁defensor	-10.9719
▁humedad	-10.9719
▁reflejo	-10.9719
▁iridio	-10.9719
▁colectivo	-10.9719
▁eólica	-10.9719
▁tambor	-10.972
▁abrió	-10.972
▁presidi	-10.9721
▁piensa	-10.9721
▁llevaba	-10.9722
▁simultáneamente	-10.9726
éndose	-10.9727
▁geología	-10.9729
▁fotón	-10.9729
morfo	-10.9737
▁taller	-10.9738
▁alarga	-10.9752
museo	-10.9769
way	-10.9769
libro	-10.9784
ound	-10.9792
▁atraviesa	-10.9796
▁botánica	-10.9796
▁confederación	-10.9796
▁gratuita	-10.9796
▁surgimiento	-10.9796
▁confianza	-10.9796
▁condujo	-10.9796
▁ingresa	-10.9797
▁divina	-10.9797
▁cerrada	-10.9798
▁produciendo	-10.9801
▁1945	-10.9805
▁contenía	-10.9805
amba	-10.9815
▁magos	-10.985
▁abrevia	-10.9873
▁adquiere	-10.9874
▁cloroplasto	-10.9874
▁corrupción	-10.9874
▁ingrediente	-10.9874
▁tardío	-10.9874
▁asistencia	-10.9874
▁hacienda	-10.9874
▁exilio	-10.9874
▁pigmento	-10.9874
▁contribución	-10.9875
▁ibn	-10.9876
▁reforz	-10.9878
▁1928	-10.9885
▁defecto	-10.9887
mayoritariamente	-10.9894
▁titular	-10.99
▁duque	-10.9928
color	-10.993
▁icono	-10.994
▁astronómica	-10.9953
▁cuarenta	-10.9953
▁instrucción	-10.9953
▁jurídico	-10.9953
▁microscopio	-10.9953
▁polémica	-10.9953
▁récord	-10.9953
▁vizcaya	-10.9953
▁étnico	-10.9953
▁eficiencia	-10.9953
▁fischer	-10.9953
▁napoleón	-10.9953
▁influido	-10.9953
▁surrealista	-10.9953
▁pionero	-10.9953
▁petición	-10.9953
▁mantenía	-10.9954
▁bienestar	-10.996
▁estatua	-10.9964
▁salón	-10.9969
puesto	-10.9984
▁vieron	-10.9992
▁trono	-10.9999
▁caballería	-11.0032
▁marítimo	-11.0032
▁microorganismos	-11.0032
▁renacentista	-11.0032
▁testimonio	-11.0032
▁auxiliar	-11.0032
▁germánico	-11.0032
▁reconquista	-11.0032
▁pretendía	-11.0032
▁hebreo	-11.0033
▁pidió	-11.0033
▁latinoamérica	-11.0033
▁contener	-11.0034
▁fomenta	-11.0034
▁ecológico	-11.0035
«	-11.0035
▁condensa	-11.0035
▁recurso	-11.0037
▁recrea	-11.0044
▁perfil	-11.0047
▁naval	-11.0051
▁concretamente	-11.0056
▁consume	-11.0062
▁revisión	-11.0064
▁guía	-11.0071
▁filme	-11.0078
ciudad	-11.0084
▁minera	-11.0095
junto	-11.0096
▁dejado	-11.0107
▁select	-11.0108
▁cubierto	-11.0112
▁jerarquía	-11.0112
▁visigodo	-11.0112
▁federico	-11.0112
▁continuidad	-11.0113
▁incendio	-11.0113
▁michael	-11.0113
▁runner	-11.0113
▁adopción	-11.0113
▁aprender	-11.0113
▁inversa	-11.0113
▁barrera	-11.0113
▁defender	-11.0113
▁invadi	-11.0113
▁catalizador	-11.0114
▁neutrinos	-11.0115
▁alguno	-11.0121
▁1949	-11.0122
▁salió	-11.0128
▁cualidades	-11.0133
▁ramifica	-11.0142
▁represión	-11.0148
▁antecessor	-11.0193
▁legislación	-11.0193
▁universitaria	-11.0193
▁esqueleto	-11.0193
▁exhibi	-11.0193
▁efectivo	-11.0193
▁fracaso	-11.0193
▁ligero	-11.0194
▁demográfico	-11.0194
▁piloto	-11.0195
▁respeta	-11.0195
▁permaneció	-11.0214
▁miró	-11.022
ánica	-11.0221
▁mineral	-11.0237
▁gesto	-11.0249
▁basílica	-11.0274
▁depósitos	-11.0274
▁financiera	-11.0274
▁procariota	-11.0274
▁templadas	-11.0274
▁vocablo	-11.0274
▁fermiones	-11.0274
▁descubrie	-11.0274
▁excepciones	-11.0274
▁ganadería	-11.0274
▁dramática	-11.0274
▁misterio	-11.0275
▁intenso	-11.0275
▁ignora	-11.0275
▁filamentos	-11.0275
▁sagrado	-11.0276
▁destinada	-11.0277
▁habiendo	-11.0279
▁prehistoria	-11.0285
▁1927	-11.0285
vision	-11.0314
▁enfoca	-11.0314
▁turco	-11.0324
▁expresionista	-11.0356
▁inteligente	-11.0356
▁moscatel	-11.0356
▁vanguardia	-11.0356
▁aéreo	-11.0356
▁decadencia	-11.0356
▁promover	-11.0356
▁obtención	-11.0356
▁globo	-11.0357
▁tronco	-11.0357
▁tolera	-11.0357
▁estrena	-11.0358
▁dispuesto	-11.0359
▁chamán	-11.0361
▁duró	-11.0365
▁1958	-11.0365
▁progresivamente	-11.0367
▁portador	-11.0369
negr	-11.0379
fluor	-11.0386
▁desarrolladores	-11.0395
disciplina	-11.0413
▁beneficio	-11.0414
canta	-11.0425
▁afganistán	-11.0439
▁ebullición	-11.0439
▁falleció	-11.0439
▁oldfield	-11.0439
▁aumentó	-11.0439
▁jalisco	-11.0439
▁antepasado	-11.0439
▁gnome	-11.0439
▁cosecha	-11.0439
▁examina	-11.0439
▁chanel	-11.044
▁favorece	-11.0441
▁jacob	-11.0443
▁correctamente	-11.0463
▁limitaciones	-11.047
umbra	-11.0499
▁expone	-11.0504
▁naturalista	-11.0509
▁disolución	-11.0522
▁ecuatorial	-11.0522
▁hectáreas	-11.0522
▁metálico	-11.0522
▁ruptura	-11.0522
▁manitoba	-11.0522
▁argentino	-11.0522
▁siquiera	-11.0522
▁sustantivo	-11.0522
▁daniel	-11.0523
▁contribuciones	-11.0523
▁aceptó	-11.0523
▁cayó	-11.0523
▁posiciona	-11.0523
▁sesenta	-11.0525
▁reúne	-11.0531
▁1935	-11.0532
▁nominal	-11.0534
▁1924	-11.0535
▁1919	-11.0537
▁mateo	-11.054
▁trece	-11.0544
fichero	-11.0547
▁clasificaciones	-11.0554
▁greco	-11.058
número	-11.0582
presidente	-11.0582
murcia	-11.0582
▁condiciona	-11.0585
campo	-11.0593
▁concluyó	-11.0606
▁desaparecido	-11.0606
▁desconocido	-11.0606
▁energético	-11.0606
▁javascript	-11.0606
▁observó	-11.0606
▁privilegio	-11.0606
▁vulgar	-11.0606
▁arqueológica	-11.0606
▁hormona	-11.0607
▁reclama	-11.0607
▁paraguay	-11.0609
▁aviones	-11.0609
▁compensa	-11.0609
▁titulada	-11.061
ífica	-11.0618
▁visitantes	-11.0621
▁contaminación	-11.0621
▁aloja	-11.0624
▁ingreso	-11.063
consider	-11.0636
▁morir	-11.0648
▁regal	-11.0686
▁ribera	-11.0691
▁tensor	-11.0692
▁mutua	-11.0692
▁obligatoria	-11.0694
▁tardía	-11.0695
▁vertebrados	-11.0699
▁1964	-11.0702
▁1914	-11.071
▁roll	-11.0726
▁avión	-11.0726
▁protagoniz	-11.0777
▁beneficia	-11.0777
▁cotidiana	-11.0777
▁nomenclatura	-11.0777
▁razonamiento	-11.0777
▁reconoció	-11.0777
▁silvestre	-11.0777
▁válida	-11.0777
▁sintaxis	-11.0777
▁carnaval	-11.0777
▁taxón	-11.0777
▁ilegal	-11.0777
▁rizoma	-11.0777
▁alguien	-11.0777
▁linaje	-11.0779
▁curvatura	-11.078
▁audio	-11.0786
▁poética	-11.0787
sensu	-11.0792
▁martin	-11.0811
normal	-11.0842
▁compatibilidad	-11.0863
▁pertenecía	-11.0863
▁prostitución	-11.0863
▁teléfono	-11.0863
▁yukón	-11.0863
▁absorción	-11.0863
▁demostración	-11.0863
▁descenso	-11.0863
▁glucosa	-11.0863
▁parecida	-11.0863
▁gallega	-11.0863
▁recurre	-11.0863
▁consistía	-11.0863
▁mañana	-11.0863
▁gusano	-11.0863
▁gustav	-11.0864
▁presiones	-11.0865
▁1917	-11.0874
▁participantes	-11.0878
▁acento	-11.0879
▁normativa	-11.0883
▁penal	-11.0884
▁católico	-11.0896
▁milita	-11.0908
▁exclusiva	-11.0933
▁léxico	-11.095
▁netscape	-11.095
▁sólida	-11.095
▁álvarez	-11.095
▁ordinaria	-11.095
▁morfológica	-11.095
▁inflación	-11.095
▁vulva	-11.095
▁igualdad	-11.095
▁topónimo	-11.0951
▁surgido	-11.0951
▁javier	-11.0954
▁levantamiento	-11.0955
positor	-11.0956
▁nadie	-11.0956
▁folclore	-11.0957
▁xix	-11.0963
▁ancha	-11.097
▁tls	-11.0971
pogon	-11.101
▁west	-11.1013
▁inaugur	-11.1026
▁adquirir	-11.1037
▁autonómico	-11.1037
▁clínica	-11.1037
▁compostela	-11.1037
▁enfermería	-11.1037
▁espontánea	-11.1037
▁excelente	-11.1037
▁openbsd	-11.1037
▁ortodoxo	-11.1037
▁parlamentaria	-11.1037
▁peculiar	-11.1037
▁préstamo	-11.1037
▁séptimo	-11.1037
▁ofreció	-11.1038
▁optimiza	-11.1038
▁subgénero	-11.1038
▁autonómica	-11.1038
▁dirigir	-11.1038
▁magnética	-11.1038
▁ochenta	-11.1038
▁sombra	-11.1038
▁tuviera	-11.1038
▁siglas	-11.1038
▁supervivencia	-11.1038
▁comandos	-11.1039
▁destacó	-11.1039
▁fabricantes	-11.1045
▁descarta	-11.1047
enberg	-11.1049
▁volvier	-11.105
▁belga	-11.1064
funcion	-11.1095
eína	-11.1112
▁ayudó	-11.1126
▁fortaleza	-11.1126
▁gineceo	-11.1126
▁moluscos	-11.1126
▁referéndum	-11.1126
▁afluente	-11.1126
▁censura	-11.1126
▁estigma	-11.1126
▁extender	-11.1126
▁guinea	-11.1126
▁xml	-11.1126
▁bosones	-11.1127
▁abreviatura	-11.1128
▁planificación	-11.113
▁1905	-11.1134
orbita	-11.1135
▁1934	-11.1137
scripción	-11.1146
▁destacable	-11.1182
eléctrica	-11.1197
materia	-11.1199
▁commodore	-11.1215
▁euclides	-11.1215
▁metodología	-11.1215
▁sirvió	-11.1215
▁tránsito	-11.1215
epístola	-11.1215
▁ortodoxa	-11.1215
▁prolifera	-11.1215
▁exponencial	-11.1215
▁marroquí	-11.1215
▁coruña	-11.1215
▁prominente	-11.1215
▁ingenio	-11.1215
wood	-11.1215
nombró	-11.1216
▁autopista	-11.1216
▁gtk	-11.1216
trópico	-11.1216
▁permita	-11.1217
▁resalta	-11.1219
▁creció	-11.122
▁huella	-11.1222
▁1974	-11.1224
▁1967	-11.1226
ocitos	-11.1226
▁planea	-11.125
▁representativa	-11.1259
▁probar	-11.1273
linux	-11.1287
▁excepcional	-11.1296
formula	-11.13
▁egipcia	-11.1305
▁entretenimiento	-11.1305
▁erudito	-11.1305
▁fotosíntesis	-11.1305
▁ignacio	-11.1305
▁islámico	-11.1305
▁obstáculo	-11.1305
▁panamá	-11.1305
▁zelanda	-11.1305
▁armonía	-11.1305
▁dinámico	-11.1305
▁confundir	-11.1305
▁mahoma	-11.1305
▁lentamente	-11.1306
▁demográfica	-11.1307
▁caudal	-11.1308
▁observatorio	-11.131
andro	-11.1314
▁finito	-11.1314
▁1956	-11.1316
▁1921	-11.1318
▁geológica	-11.1326
áceo	-11.1331
▁1910	-11.1336
▁comercializa	-11.1342
▁alternativo	-11.1342
▁cesio	-11.1354
ofitas	-11.1375
▁convertiría	-11.1375
estructura	-11.1379
▁respectiva	-11.138
▁amplitud	-11.1396
▁bráctea	-11.1396
▁disfruta	-11.1396
▁filogenética	-11.1396
▁manifestación	-11.1396
▁reacciona	-11.1396
▁venezolano	-11.1396
▁estéril	-11.1396
▁traducido	-11.1396
▁colecciones	-11.1396
▁corrección	-11.1396
▁divulg	-11.1397
▁brasileño	-11.1399
▁sacrificio	-11.1402
▁avenida	-11.1403
▁1969	-11.1406
▁excita	-11.1414
▁sirvie	-11.1415
▁transcurr	-11.1438
▁clav	-11.1464
#	-11.1471
▁ligera	-11.1472
versión	-11.1486
▁conseguido	-11.1488
▁eficaz	-11.1488
▁gravitatoria	-11.1488
▁oaxaca	-11.1488
▁poblacional	-11.1488
▁1971	-11.1488
▁patrocin	-11.1488
▁escultor	-11.1488
▁monitor	-11.1488
▁producía	-11.1488
▁linear	-11.1489
▁psicológico	-11.1489
▁mantuvieron	-11.1491
▁miranda	-11.1492
▁extracción	-11.1497
field	-11.15
▁1922	-11.1501
▁caracas	-11.1501
▁tinta	-11.1506
▁dejaron	-11.1515
▁agota	-11.1523
especialmente	-11.1565
▁autónomo	-11.1581
▁badajoz	-11.1581
▁comprometi	-11.1581
▁crédito	-11.1581
▁expresionismo	-11.1581
▁mecánico	-11.1581
▁inmediato	-11.1581
▁alcalá	-11.1581
▁consigo	-11.1582
▁acta	-11.1582
▁consagra	-11.1582
▁denuncia	-11.1582
▁suerte	-11.1583
▁equivalencia	-11.1584
▁residentes	-11.1584
▁exposiciones	-11.1587
▁opuestas	-11.1588
▁1963	-11.159
▁sujeta	-11.1593
▁conductor	-11.1595
▁1912	-11.1602
▁vender	-11.1615
física	-11.1658
idioma	-11.1659
iéndole	-11.1669
▁cirugía	-11.1674
▁consiguiente	-11.1674
▁gramatical	-11.1674
▁gravitatorio	-11.1674
▁islámica	-11.1674
▁kilogramo	-11.1674
▁lígula	-11.1674
▁múnich	-11.1674
▁paradigma	-11.1674
▁preferencia	-11.1674
▁posesión	-11.1674
▁obtenida	-11.1674
▁irlanda	-11.1674
▁recepción	-11.1674
▁campus	-11.1674
▁pelota	-11.1674
▁procura	-11.1675
▁organizó	-11.1675
▁cubrir	-11.1676
▁henri	-11.1681
▁1947	-11.1686
orient	-11.1687
▁sonoro	-11.1687
▁organ	-11.1693
▁especia	-11.1694
representaciones	-11.1712
▁astronómico	-11.1768
▁descubierta	-11.1768
▁discusión	-11.1768
▁manufactura	-11.1768
▁mayúscula	-11.1768
▁nebulosa	-11.1768
▁peregrinos	-11.1768
▁virreinato	-11.1768
▁diputación	-11.1768
▁emisiones	-11.1768
▁mantenido	-11.1768
▁opiniones	-11.1768
▁escasez	-11.1769
▁taifa	-11.1769
▁recinto	-11.1769
▁bioquímica	-11.177
▁espejo	-11.1771
▁rueda	-11.1771
▁ayala	-11.1774
▁pensaba	-11.1775
▁autovía	-11.1776
cefal	-11.1786
▁ocurrir	-11.179
▁poderoso	-11.1813
igió	-11.1831
tierra	-11.1851
fried	-11.1854
ducentésimo	-11.1864
▁alzhéimer	-11.1864
▁bóveda	-11.1864
▁cariopsis	-11.1864
▁guipúzcoa	-11.1864
▁hollywood	-11.1864
▁aislamiento	-11.1864
▁diseñada	-11.1864
▁cierre	-11.1864
▁platino	-11.1867
▁jamás	-11.1867
▁popper	-11.1868
▁1954	-11.1874
▁ratific	-11.1878
▁aclara	-11.1897
▁andina	-11.1928
▁educa	-11.1936
▁aleixandre	-11.196
▁catolicismo	-11.196
▁coeficiente	-11.196
▁experimentó	-11.196
▁guillermo	-11.196
▁jardines	-11.196
▁madurez	-11.196
▁simbólica	-11.196
▁estrenó	-11.196
▁flamenco	-11.196
▁románico	-11.196
▁resistente	-11.196
▁otomano	-11.196
▁permiso	-11.196
▁karma	-11.1961
▁traslado	-11.1963
▁pluri	-11.1963
▁duplica	-11.1963
▁detección	-11.1965
▁modela	-11.1965
▁lleno	-11.1966
▁1952	-11.197
▁habido	-11.1975
▁fortalec	-11.1982
▁escapar	-11.1988
▁aboli	-11.2019
histori	-11.2022
dinámica	-11.2045
indoeuropeo	-11.2057
▁cinematográfica	-11.2057
▁competiciones	-11.2057
▁contribuyó	-11.2057
▁cápita	-11.2057
▁mágico	-11.2057
▁médula	-11.2057
▁persecución	-11.2057
▁cobertura	-11.2057
▁moscú	-11.2057
▁respectivo	-11.2057
▁infinita	-11.2057
décimo	-11.2057
▁artesanía	-11.2057
▁otorgó	-11.2057
▁constituir	-11.2057
▁marqués	-11.2057
▁navidad	-11.2057
▁acentua	-11.2057
▁mostraba	-11.2058
▁restablec	-11.2058
▁vecina	-11.2065
▁1955	-11.2069
▁1923	-11.207
▁sufrir	-11.2075
▁aguda	-11.2105
ínico	-11.2116
evolución	-11.2148
▁extraordinaria	-11.2155
▁sinapsis	-11.2155
▁sépalos	-11.2155
▁constantinopla	-11.2155
▁provisional	-11.2155
▁innovaciones	-11.2155
▁axioma	-11.2155
▁representó	-11.2155
▁absorbe	-11.2155
▁asimila	-11.2155
▁xiii	-11.2155
▁plomo	-11.2155
▁serpiente	-11.2155
inclán	-11.2155
▁clínico	-11.2155
▁instaur	-11.2156
▁causó	-11.2157
▁flauta	-11.2157
▁arroja	-11.2157
▁opciones	-11.2158
▁expuesto	-11.216
▁conjuga	-11.2161
▁1961	-11.2164
▁enfermo	-11.2171
▁comparte	-11.2192
punto	-11.2248
▁diócesis	-11.2254
▁higgs	-11.2254
▁lípidos	-11.2254
▁neerlandés	-11.2254
▁orquídeas	-11.2254
▁principado	-11.2254
▁profesión	-11.2254
▁reconstrucción	-11.2254
▁asesinado	-11.2254
▁reflexión	-11.2254
▁traducciones	-11.2254
▁autobuses	-11.2254
▁manzana	-11.2254
▁examen	-11.2254
▁detallada	-11.2254
▁reunir	-11.2254
▁cortés	-11.2254
▁sufrido	-11.2255
▁sabía	-11.2255
▁ocurrido	-11.2256
milagro	-11.2256
▁panícula	-11.2257
▁teniente	-11.2257
▁herbert	-11.226
▁1959	-11.2266
▁abrir	-11.2326
▁wei	-11.2335
heim	-11.2342
▁hueso	-11.2343
▁comporta	-11.2352
▁adquirido	-11.2354
▁cápsula	-11.2354
▁diplomática	-11.2354
▁doméstico	-11.2354
▁hidalgo	-11.2354
▁híbrido	-11.2354
▁jesucristo	-11.2354
▁opengl	-11.2354
▁cumplimiento	-11.2354
▁escocés	-11.2354
▁ingleses	-11.2354
▁puebla	-11.2354
▁emocional	-11.2354
▁inhibi	-11.2354
▁ernst	-11.2354
▁carrillo	-11.2354
▁renovable	-11.2354
▁cohete	-11.2354
▁mutaciones	-11.2354
▁ibero	-11.2355
▁inclusión	-11.2355
▁tortilla	-11.2356
▁jamón	-11.2358
▁ruiz	-11.236
▁acoge	-11.2365
▁éste	-11.2429
▁ancestral	-11.2455
▁galápagos	-11.2455
▁ganglio	-11.2455
▁sustitución	-11.2455
▁águila	-11.2455
▁refracción	-11.2455
▁romanticismo	-11.2455
▁surrealismo	-11.2455
▁arthur	-11.2455
▁mortalidad	-11.2455
▁esmeralda	-11.2455
▁traducir	-11.2455
▁colectiva	-11.2455
▁estadístico	-11.2455
▁esférica	-11.2455
▁isaac	-11.2455
▁vidrio	-11.2455
▁crucial	-11.2455
▁ecológica	-11.2456
▁dirac	-11.2456
▁entrenamiento	-11.2456
prueba	-11.2457
▁brasileña	-11.2458
▁partidarios	-11.246
▁bosón	-11.2461
▁élite	-11.2464
▁decidier	-11.2478
▁elemental	-11.2507
▁exigi	-11.251
iglesia	-11.255
▁albacete	-11.2557
▁constelaciones	-11.2557
▁gabinete	-11.2557
▁glándulas	-11.2557
▁hélice	-11.2557
▁mérito	-11.2557
▁múltiplo	-11.2557
▁tauromaquia	-11.2557
▁verticilo	-11.2557
▁wilhelm	-11.2557
▁denominó	-11.2557
▁helechos	-11.2557
▁recogida	-11.2557
▁hispania	-11.2557
▁diploide	-11.2557
▁exitosa	-11.2557
▁fonema	-11.2557
▁juvenil	-11.2557
▁binaria	-11.2557
▁cuadri	-11.2557
tendiendo	-11.2557
▁muscular	-11.2558
▁dorsal	-11.2558
▁insular	-11.2558
▁lejano	-11.2558
▁enumera	-11.2559
▁benito	-11.2561
ochloa	-11.2567
▁enterrado	-11.2568
▁alinea	-11.2571
▁patria	-11.2572
▁espada	-11.2593
▁consola	-11.2595
madrid	-11.2655
millones	-11.2655
plaza	-11.2656
▁citoplasma	-11.266
▁combustión	-11.266
▁disminuir	-11.266
▁parkinson	-11.266
▁portugueses	-11.266
▁society	-11.266
▁sucesivas	-11.266
▁sudáfrica	-11.266
▁baleares	-11.266
▁romántico	-11.266
▁aprobado	-11.266
▁bautista	-11.266
▁sensibilidad	-11.266
▁sugerido	-11.266
ívoros	-11.266
▁morelos	-11.266
▁milicia	-11.2661
▁sílaba	-11.2661
▁teresa	-11.2661
▁pluma	-11.2662
▁modula	-11.2662
▁1944	-11.2672
▁1946	-11.2672
▁1966	-11.2673
▁bautizado	-11.2684
▁asume	-11.2685
▁evangel	-11.2751
ódico	-11.2759
segundo	-11.276
▁[...]	-11.2764
▁energética	-11.2764
▁monofilético	-11.2764
▁musulmán	-11.2764
▁periodismo	-11.2764
▁pirámide	-11.2764
▁sucedió	-11.2764
▁ultravioleta	-11.2764
▁comandante	-11.2764
▁cáliz	-11.2764
▁recuerdo	-11.2764
▁orinoco	-11.2764
▁validez	-11.2764
▁aprobada	-11.2764
▁emparenta	-11.2764
▁arroyo	-11.2764
▁mostrado	-11.2765
▁ftp	-11.2765
cedieron	-11.2765
▁racimo	-11.2765
▁partitura	-11.2768
▁setenta	-11.2769
▁steve	-11.2777
cál	-11.2861
neutrino	-11.2866
▁entendimiento	-11.287
▁euskera	-11.287
▁extensiones	-11.287
▁prisionero	-11.287
▁primordial	-11.287
▁gregorio	-11.287
▁coherente	-11.287
▁sufragio	-11.287
▁proporciones	-11.287
▁barroca	-11.287
▁cuartel	-11.287
▁añadido	-11.287
▁perfecto	-11.287
▁cataloga	-11.287
▁convenciones	-11.2871
▁atribuido	-11.2871
▁sequía	-11.2873
▁llosa	-11.2873
▁somete	-11.2873
▁retoma	-11.2883
++	-11.2883
▁proyect	-11.2921
▁contamina	-11.2959
▁auténtico	-11.2976
▁constituyó	-11.2976
▁eclesiástico	-11.2976
▁idéntica	-11.2976
▁plástico	-11.2976
▁subclase	-11.2976
▁califato	-11.2976
▁concurso	-11.2976
▁philip	-11.2976
▁complemento	-11.2976
▁reptiles	-11.2976
▁criatura	-11.2976
▁tripula	-11.2976
▁reuniones	-11.2976
▁defiende	-11.2976
▁huerta	-11.2976
▁tridimensional	-11.2977
▁conlleva	-11.2977
▁senegal	-11.2979
▁serrano	-11.298
▁euler	-11.2981
▁esporas	-11.2981
perturba	-11.2983
▁vasca	-11.2995
persona	-11.3041
tiene	-11.3045
▁caracterizó	-11.3083
▁confirmó	-11.3083
▁costarricense	-11.3083
▁dividió	-11.3083
▁mesopotamia	-11.3083
▁repetida	-11.3083
▁sustituir	-11.3083
▁étnica	-11.3083
▁urbanismo	-11.3083
▁pudiendo	-11.3083
▁textura	-11.3083
▁inverso	-11.3084
▁fluvial	-11.3084
▁supuestamente	-11.3084
▁ricardo	-11.3085
siete	-11.3086
▁partiendo	-11.3086
▁diseñar	-11.3086
▁perdida	-11.3086
▁unirse	-11.3089
▁diversa	-11.3094
▁imprimi	-11.3123
▁arcoíris	-11.3192
▁aritmética	-11.3192
▁húmeda	-11.3192
▁precipitación	-11.3192
▁predicciones	-11.3192
▁shakira	-11.3192
▁taxonómica	-11.3192
▁ápice	-11.3192
▁bilateral	-11.3192
▁concedió	-11.3192
▁estricto	-11.3192
▁fenicio	-11.3192
▁laberinto	-11.3192
▁leptones	-11.3192
▁nazaret	-11.3192
▁transversal	-11.3192
▁distintivo	-11.3192
▁melodía	-11.3192
▁encontrada	-11.3192
▁solitario	-11.3192
cuerpo	-11.3192
▁morelia	-11.3192
▁encargó	-11.3193
▁ajuste	-11.3193
▁harris	-11.3193
▁edward	-11.3193
▁polaca	-11.3194
▁excede	-11.3194
▁culpa	-11.3198
▁encarna	-11.3204
▁fortific	-11.3204
▁conmuta	-11.3222
▁aluminio	-11.3302
▁ferroviaria	-11.3302
▁octavo	-11.3302
quark	-11.3302
▁determinó	-11.3302
▁excesiva	-11.3302
▁introdujeron	-11.3302
▁kelvin	-11.3302
▁numérica	-11.3302
▁indoeuropea	-11.3302
▁atlántica	-11.3302
▁encuentre	-11.3302
▁trinidad	-11.3302
▁traduce	-11.3303
▁estético	-11.3303
▁sudeste	-11.3303
incluyendo	-11.3304
institut	-11.3304
▁empresarial	-11.3305
▁obligatorio	-11.3305
▁borbón	-11.3306
bacteria	-11.3306
▁decoración	-11.3307
▁grasos	-11.3307
▁revolucion	-11.3404
dimensional	-11.3412
▁aniversario	-11.3413
▁añadió	-11.3413
▁coalición	-11.3413
▁erectus	-11.3413
▁geométrico	-11.3413
▁gravitacional	-11.3413
▁interactúa	-11.3413
▁maquinaria	-11.3413
▁márgenes	-11.3413
▁posguerra	-11.3413
▁proximidad	-11.3413
▁viajó	-11.3413
▁válido	-11.3413
▁montañoso	-11.3413
▁declive	-11.3413
▁irracional	-11.3413
▁(2009)	-11.3413
▁enfatiza	-11.3413
▁pendiente	-11.3413
▁jerez	-11.3413
▁inmensa	-11.3413
▁cardenal	-11.3413
▁vigila	-11.3414
▁revolucionaria	-11.3414
▁latinoamericano	-11.3414
español	-11.3416
▁surgir	-11.3431
▁bombardeo	-11.3525
▁burguesía	-11.3525
▁comprendido	-11.3525
▁definitivo	-11.3525
▁dominicana	-11.3525
▁gubernamentales	-11.3525
▁honduras	-11.3525
▁inversiones	-11.3525
▁jiménez	-11.3525
▁oviedo	-11.3525
▁descomposición	-11.3525
▁etcétera	-11.3525
▁colapso	-11.3526
▁repertorio	-11.3526
▁heredero	-11.3526
▁respeto	-11.3526
▁abuelo	-11.3526
▁previsto	-11.3526
▁fracción	-11.3526
▁maiden	-11.3526
▁metafísica	-11.3526
▁sagrada	-11.3526
▁cebada	-11.3526
▁tracto	-11.3527
tubular	-11.3528
▁agraria	-11.3528
direccion	-11.3528
▁situar	-11.3534
▁reivindica	-11.3565
céntrica	-11.3639
▁androceo	-11.3639
▁antropología	-11.3639
▁apéndice	-11.3639
▁catálogo	-11.3639
▁desempleo	-11.3639
▁dramaturgo	-11.3639
▁estímulo	-11.3639
▁evolucionó	-11.3639
▁olímpica	-11.3639
▁sistemático	-11.3639
▁vicepresidente	-11.3639
▁apellido	-11.3639
▁hefesto	-11.3639
▁national	-11.3639
▁inusual	-11.3639
▁instaló	-11.3639
▁inherente	-11.3639
▁inestable	-11.3639
▁prototipo	-11.3641
▁encargo	-11.3644
fuerza	-11.3644
oficial	-11.3645
▁polariza	-11.3669
▁suprimi	-11.3701
estrógeno	-11.3754
▁episcopal	-11.3754
▁estratégica	-11.3754
▁mesoamericana	-11.3754
▁terremoto	-11.3754
▁suministro	-11.3754
dharma	-11.3754
▁sicilia	-11.3754
▁cuzco	-11.3754
▁conveniente	-11.3754
▁extingu	-11.3755
▁pasión	-11.3757
▁convenio	-11.3757
▁signific	-11.3757
▁sobresale	-11.3762
vivencia	-11.3766
▁marcel	-11.3813
▁mayoritaria	-11.3841
▁algebraica	-11.387
▁añadiendo	-11.387
▁eficacia	-11.387
▁expediciones	-11.387
▁fallecimiento	-11.387
▁garantía	-11.387
▁membranosa	-11.387
▁proyecciones	-11.387
▁recomienda	-11.387
▁sublevación	-11.387
▁biblio	-11.387
▁manteniendo	-11.387
▁transparente	-11.387
▁grueso	-11.387
▁predecir	-11.387
▁visitó	-11.387
▁tortuga	-11.387
▁violín	-11.387
▁ciudadanía	-11.387
▁colonos	-11.3871
▁sintético	-11.3871
▁erosión	-11.3871
▁afuera	-11.3871
ividad	-11.3872
▁voluntarios	-11.3872
▁debilita	-11.3872
▁psicológica	-11.3872
▁obrera	-11.3872
▁macizo	-11.3873
▁minero	-11.3876
según	-11.3879
línea	-11.388
ensambl	-11.3891
▁detenido	-11.3897
consonante	-11.3905
folk	-11.391
▁music	-11.3914
species	-11.3977
▁dragón	-11.3988
▁dramático	-11.3988
▁empírica	-11.3988
▁existió	-11.3988
▁giovanni	-11.3988
▁introducida	-11.3988
▁sífilis	-11.3988
▁neutrón	-11.3988
▁creciendo	-11.3988
▁potosí	-11.3988
fanzine	-11.3988
▁divinidad	-11.3988
▁leopold	-11.3988
▁potter	-11.3988
▁respiración	-11.3988
▁tabaco	-11.3988
▁tensiones	-11.3988
▁ostenta	-11.3989
▁estreno	-11.399
“	-11.3998
▁decidir	-11.4003
ófilos	-11.4009
▁subsiste	-11.4028
▁acontecimiento	-11.403
▁cromosoma	-11.403
▁fermenta	-11.409
▁canciller	-11.4107
▁cúbico	-11.4107
▁excelencia	-11.4107
▁guayaquil	-11.4107
▁metropolitano	-11.4107
▁microprocesador	-11.4107
▁rapidez	-11.4107
▁rechazó	-11.4107
▁transcurso	-11.4107
neandertal	-11.4107
▁existido	-11.4107
▁explosión	-11.4107
▁pasteur	-11.4107
▁simboliza	-11.4107
▁perianto	-11.4107
reggae	-11.4107
▁abandono	-11.4107
▁catorce	-11.4107
▁neruda	-11.4107
▁santuario	-11.4107
▁noventa	-11.4108
▁aprobar	-11.411
▁nucleo	-11.4113
▁estabiliza	-11.4115
▁festivo	-11.4119
▁atrapa	-11.4143
▁adyacente	-11.4228
▁candidatura	-11.4228
▁disponibilidad	-11.4228
▁esplendor	-11.4228
▁folclórica	-11.4228
▁legislatura	-11.4228
▁mallorca	-11.4228
▁nicaragüense	-11.4228
▁polígono	-11.4228
▁turquía	-11.4228
▁naranja	-11.4228
▁rodrigo	-11.4228
▁desconoce	-11.4228
▁sobrevivir	-11.4228
▁túnel	-11.4228
▁oceánica	-11.4228
▁incidente	-11.4228
▁perfeccion	-11.4228
▁ártico	-11.4228
▁cementerio	-11.4228
▁sanitario	-11.4228
▁cuello	-11.4228
thumb	-11.4228
▁corregir	-11.4229
▁adulta	-11.4229
▁muere	-11.4234
principalmente	-11.424
siderablemente	-11.4265
▁videojuego	-11.4279
▁apropiado	-11.4349
▁autóctona	-11.4349
▁cláusula	-11.4349
▁errónea	-11.4349
▁exclusivo	-11.4349
▁incorporó	-11.4349
▁influyó	-11.4349
▁isidoro	-11.4349
▁predecesor	-11.4349
▁recibía	-11.4349
▁rectángulo	-11.4349
▁sospecha	-11.4349
▁virrey	-11.4349
▁bañeza	-11.4349
▁nosotros	-11.4349
▁apogeo	-11.435
▁azufre	-11.435
▁redujo	-11.435
▁contribuido	-11.435
▁publicidad	-11.435
▁sedimentos	-11.435
▁gaseoso	-11.435
▁alergia	-11.435
hispánic	-11.435
▁moderado	-11.435
▁placenta	-11.435
▁sufijo	-11.4351
▁royal	-11.4352
▁pascua	-11.4352
▁desastre	-11.4353
ódromo	-11.4355
▁alquil	-11.4397
▁cerrar	-11.4418
electromagnético	-11.4436
▁progresiva	-11.4457
mueble	-11.4461
▁biodiversidad	-11.4473
▁hernández	-11.4473
▁homónima	-11.4473
▁imprescindible	-11.4473
▁incertidumbre	-11.4473
▁jesuita	-11.4473
▁jurisdicción	-11.4473
▁calderón	-11.4473
▁inestabilidad	-11.4473
▁silencio	-11.4473
▁henares	-11.4473
▁botella	-11.4473
▁sanitaria	-11.4473
▁diciendo	-11.4473
▁cabildo	-11.4473
▁referido	-11.4473
▁wolf	-11.4473
▁leonesa	-11.4474
▁certificado	-11.4474
▁sobrepasa	-11.4481
▁reiter	-11.4485
▁dieci	-11.4487
▁asunto	-11.4533
▁bautiz	-11.4572
▁acostumbra	-11.4598
▁béisbol	-11.4598
▁fujimori	-11.4598
▁madrileña	-11.4598
▁minúscula	-11.4598
▁pedúnculo	-11.4598
▁prohibición	-11.4598
▁aparecía	-11.4598
▁estuviera	-11.4598
▁recibida	-11.4598
▁íntima	-11.4598
▁estableciendo	-11.4598
▁fantasía	-11.4598
▁transcripción	-11.4598
▁violenta	-11.4598
▁antecesor	-11.4598
▁idéntico	-11.4598
▁sufrimiento	-11.4598
▁sudamericano	-11.4598
▁prioridad	-11.4598
▁cálida	-11.4598
▁jueces	-11.4598
▁dispuestas	-11.4598
▁arcaico	-11.4599
▁deficiencia	-11.4599
▁sindicato	-11.4599
▁sensación	-11.4599
▁mixto	-11.4599
▁longitudinal	-11.4599
▁espiga	-11.4603
▁reporta	-11.4617
▁antoni	-11.4712
▁equilibr	-11.4723
▁adquisición	-11.4724
▁aparecido	-11.4724
▁balonmano	-11.4724
▁desempeño	-11.4724
▁didáctica	-11.4724
▁excluye	-11.4724
▁existiendo	-11.4724
▁limpieza	-11.4724
▁prohibido	-11.4724
▁recolección	-11.4724
▁asemeja	-11.4725
▁distribuciones	-11.4725
▁financiación	-11.4725
▁jerónimo	-11.4725
▁métrico	-11.4725
▁hadrones	-11.4725
▁panteón	-11.4725
▁adelanta	-11.4725
▁tiendas	-11.4725
▁mendoza	-11.4725
▁viviente	-11.4725
▁muerta	-11.4725
▁forzado	-11.4726
▁elegida	-11.4727
▁requería	-11.4728
▁electr	-11.4735
▁oxford	-11.4853
▁péndulo	-11.4853
▁reconstruir	-11.4853
▁toponimia	-11.4853
▁carabobo	-11.4853
▁kuiper	-11.4853
náutica	-11.4853
▁comunismo	-11.4853
▁exclusión	-11.4853
▁respecta	-11.4853
▁intestino	-11.4853
▁numeración	-11.4853
▁voltaje	-11.4853
▁schuman	-11.4853
▁jaime	-11.4853
▁generó	-11.4853
▁ascii	-11.4853
▁predicado	-11.4856
juego	-11.4873
atómico	-11.4874
blanca	-11.4874
▁titul	-11.4885
ámico	-11.4888
http	-11.4929
▁axón	-11.4982
desambiguación	-11.4983
▁cilindro	-11.4983
▁cinematográfico	-11.4983
▁cárcel	-11.4983
▁cúpula	-11.4983
▁filipinas	-11.4983
▁interferencia	-11.4983
▁ofrecía	-11.4983
▁somáticos	-11.4983
▁bruselas	-11.4983
▁prefiere	-11.4983
▁productividad	-11.4983
▁volátil	-11.4983
▁preferente	-11.4983
▁solubilidad	-11.4983
▁románica	-11.4983
▁descubre	-11.4983
textual	-11.4983
▁destruir	-11.4983
▁discreta	-11.4983
▁tormenta	-11.4983
▁brown	-11.4983
▁prisión	-11.4983
▁unamuno	-11.4984
▁merece	-11.4984
▁fracasa	-11.4984
▁apartado	-11.4984
▁perfora	-11.4986
▁concejo	-11.4988
▁priori	-11.4992
padre	-11.5011
▁inmediata	-11.5098
descendiente	-11.5111
▁alcohólica	-11.5114
▁arquitectónica	-11.5114
▁ascendencia	-11.5114
▁bilingüe	-11.5114
▁convirtiendo	-11.5114
▁desafío	-11.5114
▁descendencia	-11.5114
▁gibraltar	-11.5114
▁ludwig	-11.5114
▁retablo	-11.5114
▁veracruz	-11.5114
▁vuelto	-11.5114
▁mozilla	-11.5114
▁monetaria	-11.5114
▁producciones	-11.5114
▁oceánico	-11.5114
▁cuantifica	-11.5114
▁hembra	-11.5114
▁óscar	-11.5114
▁maduro	-11.5114
▁arcilla	-11.5115
▁calzada	-11.5115
▁merced	-11.5115
▁suspendi	-11.5116
▁constituía	-11.5117
▁asesor	-11.5118
▁ernest	-11.5122
▁cancel	-11.5123
iéndola	-11.5158
transformaciones	-11.5179
▁reunió	-11.5179
espacio	-11.519
▁sentimental	-11.5247
▁accesible	-11.5247
▁correspondía	-11.5247
▁epidemia	-11.5247
▁pleistoceno	-11.5247
▁promueve	-11.5247
▁refiriéndose	-11.5247
▁desciende	-11.5248
▁reputación	-11.5248
▁monetario	-11.5248
▁emilio	-11.5248
▁exitoso	-11.5248
▁lírica	-11.5248
▁ofrecie	-11.5248
▁batería	-11.5248
▁legión	-11.5248
▁novelista	-11.5248
▁fertiliza	-11.5248
▁ideológica	-11.5248
▁contenida	-11.5251
▁austral	-11.5253
▁repite	-11.5258
▁victor	-11.5267
nuevo	-11.5273
▁tectónica	-11.5383
▁adolescente	-11.5383
▁atapuerca	-11.5383
▁celsius	-11.5383
▁discrimina	-11.5383
▁exactitud	-11.5383
▁integridad	-11.5383
▁intrínseca	-11.5383
▁olimpo	-11.5383
▁homosexual	-11.5383
▁triunfa	-11.5383
▁fascista	-11.5383
▁olmeca	-11.5383
▁cartografía	-11.5383
▁emitir	-11.5383
▁scott	-11.5383
▁leonés	-11.5383
▁embarca	-11.5383
▁flagelo	-11.5383
▁planteó	-11.5383
fosfato	-11.5383
▁escaños	-11.5383
▁bulbo	-11.5383
▁secuela	-11.5384
divorci	-11.5387
▁remoto	-11.5389
▁cátedra	-11.552
▁discurre	-11.552
▁epopeya	-11.552
▁excavaciones	-11.552
▁lorentz	-11.552
▁manifestó	-11.552
▁posibilit	-11.552
▁wolfgang	-11.552
▁hobbit	-11.552
▁juzgado	-11.552
▁objetiva	-11.552
▁wilder	-11.552
▁navarro	-11.552
▁claude	-11.552
▁flecha	-11.552
▁renovación	-11.552
▁decisiva	-11.552
▁circundante	-11.552
▁gamma	-11.552
▁mestiza	-11.552
▁vergara	-11.552
▁circunscripción	-11.552
▁hispánica	-11.552
▁detallado	-11.552
▁campana	-11.552
▁dónde	-11.552
▁boole	-11.552
obteniendo	-11.552
▁liderado	-11.552
▁innovador	-11.5521
▁francesc	-11.5525
núcleo	-11.5549
opsida	-11.5594
0,1	-11.5612
▁abstracta	-11.5658
▁alzheimer	-11.5658
▁antipartícula	-11.5658
▁aristotélica	-11.5658
▁cognitiva	-11.5658
▁consiguieron	-11.5658
▁guzmán	-11.5658
▁izquierdo	-11.5658
▁leonardo	-11.5658
▁líquida	-11.5658
▁proclamó	-11.5658
▁prostituta	-11.5658
▁recompensa	-11.5658
▁súpero	-11.5658
▁táctica	-11.5658
▁ucrania	-11.5658
▁washington	-11.5658
▁hindú	-11.5659
▁transparencia	-11.5659
▁octava	-11.5659
▁violento	-11.5659
▁ávila	-11.5659
▁jamaica	-11.5659
▁volcanes	-11.5659
▁productivo	-11.5659
▁historieta	-11.5659
▁viernes	-11.5659
▁huelga	-11.5659
▁tablero	-11.5659
▁hiciera	-11.5659
▁impedir	-11.5659
diccionario	-11.569
▁recorri	-11.572
▁análoga	-11.5799
▁bartolomé	-11.5799
▁cretácico	-11.5799
▁economista	-11.5799
▁húngaro	-11.5799
▁inspiró	-11.5799
▁luminosidad	-11.5799
▁medicamentos	-11.5799
▁movilidad	-11.5799
▁tépalos	-11.5799
▁group	-11.5799
▁platillos	-11.5799
▁susceptible	-11.5799
▁corporación	-11.5799
▁bélico	-11.5799
▁elefante	-11.5799
▁descartes	-11.5799
▁inmortal	-11.5799
▁inmaterial	-11.58
▁mayoritario	-11.58
▁frijol	-11.58
▁prevenir	-11.58
bióticos	-11.58
▁profeta	-11.58
▁marginal	-11.58
▁vestido	-11.5801
▁atribuida	-11.5802
▁fluye	-11.5842
impresionismo	-11.586
|[[	-11.5942
bodhisattva	-11.5942
▁aborígenes	-11.5942
▁agricultores	-11.5942
▁carlomagno	-11.5942
▁christoph	-11.5942
▁digestivo	-11.5942
▁incrementó	-11.5942
▁noruega	-11.5942
▁sanguíneo	-11.5942
▁solicitud	-11.5942
▁termodinámica	-11.5942
▁bogotá	-11.5942
▁fotógrafo	-11.5942
▁recogido	-11.5942
▁plinio	-11.5942
▁inventó	-11.5942
▁samuel	-11.5942
▁fonética	-11.5942
▁fortuna	-11.5942
▁ortega	-11.5942
▁prólogo	-11.5943
▁cineasta	-11.5943
▁impresa	-11.5944
económico	-11.5977
población	-11.5978
puerto	-11.5978
▁dólar	-11.6036
manuel	-11.6048
▁diputado	-11.6064
▁bíblico	-11.6087
▁déficit	-11.6087
▁ecuatoriano	-11.6087
▁heinrich	-11.6087
▁homínido	-11.6087
▁japoneses	-11.6087
▁lodículas	-11.6087
▁percusión	-11.6087
▁predicción	-11.6087
▁renunció	-11.6087
▁resurrección	-11.6087
▁sucesivamente	-11.6087
▁venezolana	-11.6087
▁vestigio	-11.6087
▁cadáver	-11.6087
▁espectacular	-11.6087
▁incidencia	-11.6087
▁inorgánica	-11.6087
▁rígida	-11.6087
▁sostener	-11.6087
▁sostenía	-11.6087
▁suministra	-11.6087
▁azteca	-11.6087
▁certeza	-11.6087
▁semántica	-11.6087
▁terciario	-11.6087
▁criticó	-11.6087
▁embalse	-11.6087
▁asistir	-11.6087
▁asunción	-11.6087
▁sucedido	-11.6088
▁retorna	-11.6089
▁patriarca	-11.6089
▁artesanal	-11.609
▁distante	-11.6091
factor	-11.6116
▁trayecto	-11.6224
▁gutiérrez	-11.6234
▁lovecraft	-11.6234
demócrata	-11.6234
monocotiledóneas	-11.6234
▁análogo	-11.6234
▁constantino	-11.6234
▁fármaco	-11.6234
▁heráldico	-11.6234
▁intrínseco	-11.6234
▁mercantil	-11.6234
▁paulatinamente	-11.6234
▁pompeyo	-11.6234
▁rigurosa	-11.6234
▁unisexuales	-11.6234
▁vocabulario	-11.6234
▁historiografía	-11.6234
▁invasiones	-11.6234
aldehído	-11.6234
▁arreglo	-11.6234
▁federaciones	-11.6234
▁mesoamericano	-11.6234
▁trastornos	-11.6234
utopía	-11.6234
▁zinc	-11.6234
▁prusia	-11.6234
▁gótica	-11.6234
▁arqueólogo	-11.6235
scendió	-11.6235
▁lombard	-11.6235
▁virgin	-11.6235
▁divisor	-11.6235
▁oponente	-11.6235
▁acopla	-11.6241
argent	-11.6256
ubicó	-11.6261
histórico	-11.6274
clásica	-11.6274
gobierno	-11.6274
▁alexander	-11.6383
▁elíptica	-11.6383
▁embajador	-11.6383
▁estípulas	-11.6383
▁galardonado	-11.6383
▁huésped	-11.6383
▁incompatible	-11.6383
▁produzca	-11.6383
▁progresivo	-11.6383
▁reemplazo	-11.6383
▁saskatchewan	-11.6383
▁stephen	-11.6383
▁sucesivos	-11.6383
▁vietnam	-11.6383
▁distribuir	-11.6383
▁gravitación	-11.6383
▁hedonismo	-11.6383
▁jacques	-11.6383
▁anuncio	-11.6383
▁campamento	-11.6383
▁refugio	-11.6383
ándalus	-11.6383
▁bereber	-11.6383
▁palestina	-11.6384
▁apoyó	-11.6384
▁acuáticas	-11.6384
▁cinética	-11.6384
▁contribuir	-11.6384
ilíada	-11.6384
▁mixta	-11.6384
▁nevada	-11.6385
▁evoca	-11.6387
▁niega	-11.6388
▁intervencion	-11.6392
muestran	-11.6396
cerebelo	-11.6425
análisis	-11.6425
siguiendo	-11.6426
elemento	-11.6428
edicto	-11.6464
▁vertebra	-11.6522
▁alérgica	-11.6535
▁autóctono	-11.6535
▁cáceres	-11.6535
▁envejecimiento	-11.6535
▁escribieron	-11.6535
▁extraordinario	-11.6535
▁güímar	-11.6535
▁impulsó	-11.6535
▁independentista	-11.6535
▁kandinski	-11.6535
▁madrileño	-11.6535
▁pamplona	-11.6535
▁panorama	-11.6535
▁ptolomeo	-11.6535
▁residual	-11.6535
▁rítmica	-11.6535
▁solicitó	-11.6535
▁terminología	-11.6535
▁voleibol	-11.6535
▁chocolate	-11.6535
▁colaboró	-11.6535
▁diagnostic	-11.6535
▁escocesa	-11.6535
▁requerido	-11.6535
▁reorganiza	-11.6535
▁manifestar	-11.6535
▁arranque	-11.6535
▁olvidar	-11.6535
▁sombrero	-11.6535
▁aleatorio	-11.6535
▁warner	-11.6535
▁nacieron	-11.6535
cloruro	-11.6535
▁chamanes	-11.6535
▁reveló	-11.6535
voyager	-11.6535
▁castigo	-11.6535
▁chincha	-11.6535
▁claridad	-11.6535
▁emitido	-11.6535
▁rebelde	-11.6535
▁retraso	-11.6535
▁reparto	-11.6535
▁carecía	-11.6536
▁barranco	-11.6536
▁trunc	-11.6537
▁orbitador	-11.6537
imétrico	-11.6539
african	-11.6602
▁prometi	-11.666
▁amplió	-11.6689
▁atmosférico	-11.6689
▁bicicleta	-11.6689
▁conclusiones	-11.6689
▁corporation	-11.6689
▁ecuatoriana	-11.6689
▁equinoccio	-11.6689
▁estipula	-11.6689
▁ethernet	-11.6689
▁ferroviario	-11.6689
▁gratuito	-11.6689
▁lingüista	-11.6689
▁mancomunidad	-11.6689
▁mérida	-11.6689
▁negociaciones	-11.6689
▁ofensiva	-11.6689
▁perpendicular	-11.6689
▁rudolf	-11.6689
▁science	-11.6689
▁semejanza	-11.6689
▁subconjunto	-11.6689
▁viceversa	-11.6689
▁coloquial	-11.6689
▁invisible	-11.6689
▁micorriza	-11.6689
▁ánimo	-11.6689
lanceolada	-11.6689
▁distintiva	-11.6689
▁hubiese	-11.6689
▁hungría	-11.6689
▁cadmio	-11.6689
▁disperso	-11.6689
▁guayana	-11.6689
▁portátil	-11.6689
▁fracciones	-11.6689
▁concejal	-11.6689
▁eminente	-11.6689
▁exhibe	-11.6689
▁promesa	-11.6689
▁soluble	-11.669
▁percibe	-11.669
▁provenía	-11.669
plancton	-11.6691
cediendo	-11.6691
world	-11.6735
tivismo	-11.6749
continen	-11.677
talló	-11.679
▁astronauta	-11.6845
▁auténtica	-11.6845
▁báltico	-11.6845
▁gutenberg	-11.6845
▁inevitable	-11.6845
▁macedonia	-11.6845
▁registró	-11.6845
▁respondió	-11.6845
▁subcontinente	-11.6845
▁teotihuacán	-11.6845
▁veterinaria	-11.6845
▁escándalo	-11.6845
▁germánica	-11.6845
▁kepler	-11.6845
▁cantabria	-11.6845
▁ginebra	-11.6845
▁influir	-11.6845
▁monopolio	-11.6845
▁tertulia	-11.6845
▁transformó	-11.6845
▁obedece	-11.6845
▁ejecutiva	-11.6845
▁tácito	-11.6845
▁acrónimo	-11.6845
▁migraciones	-11.6845
determinismo	-11.6845
▁fonético	-11.6845
▁decisivo	-11.6845
▁desprende	-11.6845
▁gluones	-11.6845
▁tranvía	-11.6845
▁criollo	-11.6845
▁ensamblador	-11.6845
▁modernismo	-11.6845
▁rally	-11.6845
▁extinto	-11.6845
▁reconocie	-11.6845
▁mosaico	-11.6845
▁sabina	-11.6846
▁traductor	-11.6846
▁criminal	-11.6846
▁emprende	-11.6846
▁automatiza	-11.6846
▁humanista	-11.6846
▁policial	-11.6849
oráculo	-11.6851
▁despleg	-11.6854
emitió	-11.6867
técnica	-11.6894
tecnología	-11.6894
▁perteneci	-11.7001
cataliza	-11.7003
▁arzobispo	-11.7004
▁catálisis	-11.7004
▁cosmopolita	-11.7004
▁describía	-11.7004
▁dieciséis	-11.7004
▁eclipse	-11.7004
▁excentricidad	-11.7004
▁gonzalo	-11.7004
▁guadalupe	-11.7004
▁indispensable	-11.7004
▁prohibida	-11.7004
▁recipiente	-11.7004
▁ribosomas	-11.7004
▁térmico	-11.7004
▁válvula	-11.7004
▁vértice	-11.7004
▁alegoría	-11.7004
▁aniquila	-11.7004
▁concluir	-11.7004
▁conversaciones	-11.7004
▁endémica	-11.7004
▁escribía	-11.7004
▁exiliado	-11.7004
▁fenotipo	-11.7004
▁instantánea	-11.7004
▁gruesa	-11.7004
▁islote	-11.7004
▁estallido	-11.7004
▁drogas	-11.7004
▁prefijo	-11.7004
▁discreto	-11.7004
▁dirigía	-11.7004
▁moderada	-11.7004
▁vacuna	-11.7004
▁cometido	-11.7005
▁fractal	-11.7005
▁espiguilla	-11.7009
▁múltiple	-11.701
▁racial	-11.7014
osaurios	-11.7021
región	-11.7056
continu	-11.7057
▁aleksand	-11.7165
▁apropiada	-11.7165
▁apweb	-11.7165
▁aristocracia	-11.7165
▁claustro	-11.7165
▁contradicción	-11.7165
▁eclesiástica	-11.7165
▁félix	-11.7165
▁insuficiente	-11.7165
▁janeiro	-11.7165
▁jerárquica	-11.7165
▁preliminar	-11.7165
▁purkinje	-11.7165
▁refugiados	-11.7165
▁subterráneo	-11.7165
▁constelación	-11.7165
▁fallecido	-11.7165
esporangio	-11.7165
aragonés	-11.7165
▁acogida	-11.7165
▁bambú	-11.7165
▁deterioro	-11.7165
▁entierro	-11.7165
▁international	-11.7165
▁ordinario	-11.7165
▁habsburgo	-11.7165
<	-13.0946
