<unk>	0
<s>	0
</s>	0
▁de	-3.24087
,	-3.29482
s	-3.32166
'	-3.54713
.	-3.653
▁la	-3.75413
▁	-3.94551
▁le	-4.01369
▁l	-4.06477
▁et	-4.1207
▁les	-4.36448
▁en	-4.40891
▁à	-4.41926
▁d	-4.44693
▁des	-4.53253
▁du	-4.65645
-	-4.8184
e	-4.93403
▁est	-4.98309
▁par	-5.09243
▁dans	-5.11128
▁un	-5.18092
▁(	-5.23521
▁une	-5.27851
’	-5.33979
▁au	-5.35028
▁"	-5.42685
▁pour	-5.43965
▁qui	-5.44406
r	-5.49005
"	-5.50605
▁que	-5.55588
▁il	-5.59698
▁a	-5.64252
▁plus	-5.68809
▁##	-5.72988
▁sur	-5.75864
▁sont	-5.81963
nt	-5.86458
▁se	-5.87255
▁:	-5.90963
▁ou	-5.9551
▁avec	-5.96151
es	-5.97168
▁son	-6.00553
▁s	-6.01266
)	-6.01581
▁«	-6.04859
▁ce	-6.12921
a	-6.13246
un	-6.17212
▁comme	-6.20713
▁sa	-6.23034
est	-6.27181
▁qu	-6.28609
ment	-6.40405
une	-6.41832
▁aux	-6.43048
),	-6.47568
▁pas	-6.48544
é	-6.48825
▁c	-6.49144
▁n	-6.49243
t	-6.49272
il	-6.51815
d	-6.5353
▁ne	-6.54176
cette	-6.54943
).	-6.56536
▁mais	-6.57366
▁»	-6.58142
l	-6.61034
c	-6.6122
en	-6.66849
o	-6.70199
▁entre	-6.70757
▁deux	-6.71061
▁ses	-6.71871
er	-6.71966
le	-6.75668
▁ont	-6.76622
ant	-6.77174
▁été	-6.79324
▁pays	-6.79356
n	-6.81738
",	-6.83116
▁%	-6.84085
y	-6.84949
▁,	-6.86295
▁ainsi	-6.8896
▁fait	-6.89112
▁elle	-6.89268
="	-6.89492
|	-6.89885
i	-6.92063
on	-6.92141
▁ces	-6.92591
▁leur	-6.9435
▁même	-6.96861
▁aussi	-6.97638
▁on	-6.99438
in	-7.01815
▁sous	-7.02387
m	-7.02733
▁dont	-7.06955
▁.	-7.097
▁;	-7.15864
▁lui	-7.16826
▁après	-7.17992
▁également	-7.18575
▁peut	-7.19576
▁être	-7.20263
la	-7.21268
▁depuis	-7.21386
ra	-7.22182
al	-7.22454
ation	-7.23707
▁alors	-7.23958
it	-7.244
▁france	-7.24462
ent	-7.2501
de	-7.25632
ci	-7.26206
▁très	-7.26781
▁y	-7.27918
p	-7.30754
▁années	-7.32238
▁plusieurs	-7.33578
▁premier	-7.34155
or	-7.35863
▁re	-7.36462
ée	-7.37062
▁où	-7.37958
▁fin	-7.3838
▁partie	-7.39042
à	-7.3924
▁ville	-7.40448
▁si	-7.40863
ou	-7.41121
▁selon	-7.41539
f	-7.42813
b	-7.45641
g	-7.46513
▁bien	-7.46937
ne	-7.46956
▁notamment	-7.47761
▁tout	-7.48399
▁première	-7.49179
re	-7.49527
▁nom	-7.50288
▁nord	-7.50658
▁était	-7.51053
▁monde	-7.51495
te	-7.53521
/	-7.55269
▁sud	-7.55353
▁français	-7.55737
▁trois	-7.56125
doc	-7.56759
ait	-7.56911
▁dé	-7.57012
▁».	-7.57173
au	-7.57238
▁lors	-7.57986
▁politique	-7.58594
ur	-7.5871
▁18	-7.58789
▁contre	-7.59592
h	-7.60209
an	-7.60392
>	-7.62205
et	-7.6221
u	-7.64786
".	-7.65455
▁guerre	-7.6549
▁grande	-7.65979
▁vers	-7.66061
▁jusqu	-7.66264
▁in	-7.66698
▁puis	-7.67088
▁encore	-7.67222
▁non	-7.67454
▁nombre	-7.67755
▁sans	-7.68056
ar	-7.68997
ie	-7.69204
▁département	-7.69381
k	-7.69984
is	-7.70387
▁autres	-7.70395
autres	-7.70571
▁»,	-7.71551
▁moins	-7.72739
ch	-7.73481
▁ré	-7.73587
▁grand	-7.73815
▁cas	-7.74864
▁car	-7.75059
▁soit	-7.75074
▁région	-7.76039
▁avant	-7.76788
▁états	-7.77208
▁population	-7.78048
v	-7.79346
les	-7.79451
▁peu	-7.80033
▁fut	-7.80116
▁certains	-7.80765
▁exemple	-7.81102
▁leurs	-7.81313
état	-7.81331
▁tous	-7.8166
x	-7.82805
▁place	-7.84249
▁système	-7.84747
▁celle	-7.85657
▁fois	-7.86466
▁donc	-7.86567
▁souvent	-7.87065
▁forme	-7.871
▁celui	-7.87254
▁partir	-7.87559
▁temps	-7.8819
▁vie	-7.89101
z	-7.89248
us	-7.89654
▁ans	-7.90496
▁début	-7.91173
▁nombreux	-7.91704
▁langue	-7.9189
age	-7.92291
lo	-7.93151
és	-7.93623
▁("	-7.93701
▁co	-7.93958
▁cependant	-7.94033
fr	-7.94105
elle	-7.94221
▁saint	-7.95024
me	-7.95922
▁période	-7.97939
na	-7.98335
ta	-7.98662
ique	-7.9896
▁mort	-7.99498
▁ils	-7.99611
ma	-8.00005
▁gouvernement	-8.00603
eau	-8.01349
▁cours	-8.01734
aux	-8.02237
ro	-8.02297
▁nouvelle	-8.0245
▁développement	-8.02805
que	-8.03198
▁p	-8.03695
ion	-8.04054
▁pouvoir	-8.04323
▁suite	-8.046
▁compte	-8.04846
unis	-8.05076
aient	-8.05132
▁faire	-8.0569
ées	-8.06063
té	-8.06112
▁f	-8.06652
▁con	-8.08187
to	-8.08417
isme	-8.08603
▁quelques	-8.09517
▁nouveau	-8.09777
art	-8.0992
aire	-8.09928
▁part	-8.09992
org	-8.10321
▁général	-8.10985
▁dès	-8.11464
▁b	-8.11529
at	-8.11638
▁film	-8.1335
=	-8.13617
▁chaque	-8.13958
ré	-8.14009
▁g	-8.14155
▁paris	-8.14215
di	-8.14542
▁jean	-8.1464
▁parti	-8.14849
▁pro	-8.1519
ine	-8.15757
ac	-8.15767
▁avoir	-8.15835
▁pendant	-8.16387
▁lieu	-8.16414
▁avait	-8.16646
man	-8.16922
▁m	-8.17348
ul	-8.17598
▁ma	-8.17599
▁reste	-8.17638
▁quatre	-8.17811
▁président	-8.17878
▁permet	-8.17889
▁k	-8.17928
▁étant	-8.18327
ti	-8.19612
▁effet	-8.19858
▁é	-8.20028
ex	-8.20115
▁durant	-8.20125
ir	-8.2077
▁r	-8.20963
▁groupe	-8.21127
▁tour	-8.21316
th	-8.21589
▁française	-8.21637
▁société	-8.21705
li	-8.21774
ité	-8.21924
ce	-8.22019
▁id	-8.2208
ouest	-8.23043
▁peuvent	-8.23236
curi	-8.23358
▁(19	-8.23566
ga	-8.23907
origine	-8.24033
▁étaient	-8.24101
lé	-8.24111
ter	-8.24504
da	-8.24939
▁parmi	-8.25918
▁territoire	-8.26036
?	-8.26088
▁point	-8.26351
▁centre	-8.26439
w	-8.2653
histoire	-8.26616
if	-8.26659
être	-8.27099
tion	-8.27116
um	-8.27148
ri	-8.27222
▁roi	-8.27855
▁national	-8.28028
▁nombreuses	-8.28118
iste	-8.28149
ut	-8.28163
▁al	-8.28207
2	-8.29252
▁rapport	-8.29272
▁pré	-8.29741
▁prix	-8.29753
vi	-8.30143
wiki	-8.3021
ad	-8.30222
▁république	-8.30518
am	-8.30533
▁près	-8.30663
▁devient	-8.30679
://	-8.31141
▁autre	-8.31152
▁jeux	-8.31249
https	-8.31269
wikipedia	-8.31402
categorie	-8.31402
▁url	-8.31406
▁<	-8.31507
▁title	-8.31507
▁</	-8.31559
im	-8.31694
▁an	-8.31884
el	-8.32365
▁culture	-8.33174
▁t	-8.33238
▁royaume	-8.33297
▁ayant	-8.3368
ge	-8.34407
▁rôle	-8.34495
ba	-8.3483
▁3	-8.35401
hui	-8.35531
▁ni	-8.35696
ton	-8.35885
che	-8.3627
no	-8.3646
▁conseil	-8.3651
▁toute	-8.36638
▁terme	-8.37222
▁toujours	-8.37434
ia	-8.37675
mé	-8.37802
▁production	-8.37963
▁trouve	-8.38517
ca	-8.38974
▁environ	-8.39155
▁niveau	-8.39243
▁j	-8.39355
;	-8.39589
▁doit	-8.40044
co	-8.4026
▁chez	-8.40375
▁parfois	-8.41224
qui	-8.41255
go	-8.41434
▁nationale	-8.41657
▁afin	-8.41705
▁base	-8.41722
eur	-8.41759
▁moyen	-8.4186
▁économique	-8.41889
▁mondiale	-8.42023
do	-8.42388
dé	-8.42609
▁musique	-8.42692
▁mouvement	-8.42925
▁certaines	-8.43041
ry	-8.43183
▁cela	-8.43293
▁terre	-8.43325
▁grâce	-8.44089
▁particulier	-8.44149
ing	-8.4426
du	-8.44338
▁cet	-8.44391
4	-8.4479
ance	-8.45147
isation	-8.45266
ard	-8.4544
▁japon	-8.45625
▁tard	-8.45641
▁ceux	-8.45854
▁toutes	-8.45879
mi	-8.46092
ale	-8.46186
ement	-8.46897
son	-8.47434
")	-8.47821
▁seconde	-8.4845
▁pierre	-8.48576
▁17	-8.48623
▁plan	-8.48651
▁jeu	-8.48744
7	-8.48877
mo	-8.48923
▁aujourd	-8.48967
époque	-8.49292
▁existe	-8.49702
▁va	-8.4982
▁dernier	-8.49868
▁jour	-8.50206
▁long	-8.50234
▁langues	-8.5047
▁fonction	-8.50534
▁bo	-8.5077
▁1	-8.50801
op	-8.51724
▁sens	-8.51771
▁tant	-8.52692
ni	-8.52896
va	-8.5296
autre	-8.53061
▁plupart	-8.5315
▁dieu	-8.53213
▁2	-8.53337
▁pi	-8.53489
▁h	-8.53537
▁elles	-8.53649
▁ta	-8.53871
▁surtout	-8.54371
par	-8.54593
èrent	-8.54803
▁création	-8.55076
▁beaucoup	-8.55384
▁manière	-8.55404
agit	-8.55885
ol	-8.55975
▁travail	-8.56193
ère	-8.56616
tes	-8.56849
▁ar	-8.56991
▁premiers	-8.57002
▁mer	-8.57146
▁projet	-8.57243
▁mot	-8.57357
▁roman	-8.57432
empire	-8.57802
able	-8.58351
be	-8.58811
tte	-8.58926
▁année	-8.59259
ensemble	-8.59267
ot	-8.59439
▁grands	-8.59692
ct	-8.59929
▁droit	-8.60015
▁présente	-8.6027
▁5	-8.60305
▁public	-8.60427
▁seul	-8.60748
▁cinq	-8.6076
▁font	-8.60986
né	-8.61067
▁raison	-8.61107
ic	-8.61519
bo	-8.61821
1	-8.62138
▁généralement	-8.62757
▁recherche	-8.63088
ille	-8.63231
▁mois	-8.6327
ure	-8.63395
▁ensuite	-8.63402
▁titre	-8.63695
ka	-8.63714
po	-8.64397
os	-8.64441
▁po	-8.6469
▁produit	-8.64863
▁15	-8.6491
]]	-8.65073
▁loi	-8.65095
ph	-8.65213
▁mise	-8.65226
▁personnes	-8.65244
▁famille	-8.65259
eux	-8.65272
▁tandis	-8.66322
▁différents	-8.66542
▁moyenne	-8.66545
▁différentes	-8.66761
▁série	-8.66916
année	-8.67008
▁grandes	-8.67065
homme	-8.67182
▁mal	-8.67301
▁10	-8.67628
▁écrit	-8.67851
▁pratique	-8.67932
▁connu	-8.68032
▁face	-8.68076
▁eux	-8.68148
tu	-8.68172
j	-8.68188
europe	-8.68328
ont	-8.68342
université	-8.68765
même	-8.68778
▁toutefois	-8.68798
▁autour	-8.69418
▁cinéma	-8.69714
ha	-8.70065
▁ex	-8.7007
▁16	-8.70207
▁port	-8.70288
5	-8.70288
▁cor	-8.70345
île	-8.7039
▁membres	-8.70503
▁réseau	-8.70756
▁ba	-8.71098
▁importante	-8.71199
▁succès	-8.71492
▁important	-8.71515
▁ra	-8.71868
▁ha	-8.71891
▁régions	-8.71974
▁laquelle	-8.72041
▁villes	-8.7218
union	-8.72294
▁tête	-8.7247
▁prend	-8.72478
ien	-8.72485
pe	-8.72505
▁gauche	-8.72569
▁fa	-8.72698
▁deuxième	-8.73093
▁époque	-8.73188
ix	-8.73442
▁histoire	-8.73567
▁enfin	-8.73902
▁sein	-8.74215
▁déjà	-8.74262
▁seule	-8.74375
▁w	-8.74438
▁européenne	-8.74444
▁mont	-8.74557
▁politiques	-8.74617
▁principalement	-8.74924
gu	-8.74956
▁tels	-8.7509
▁ligne	-8.7514
ils	-8.75484
id	-8.75489
▁or	-8.76244
istes	-8.76262
▁travers	-8.76556
ienne	-8.76731
▁inter	-8.7681
▁utilisé	-8.76878
_	-8.7726
▁mis	-8.77302
iques	-8.7747
as	-8.77483
▁fer	-8.77637
▁met	-8.77691
mar	-8.77834
lu	-8.77869
val	-8.7788
▁4	-8.77946
▁sera	-8.77991
▁malgré	-8.78105
▁ch	-8.78433
▁liste	-8.78441
▁cause	-8.78455
▁dit	-8.78624
ais	-8.78677
ence	-8.78782
▁jours	-8.79073
▁ailleurs	-8.79131
▁genre	-8.79131
ag	-8.79206
mer	-8.79343
ue	-8.79384
▁élections	-8.79456
▁eu	-8.79533
tant	-8.79903
▁façon	-8.79956
▁cadre	-8.79981
dire	-8.79983
ner	-8.80123
tin	-8.80228
▁seulement	-8.80244
ier	-8.80248
▁type	-8.80302
▁commune	-8.8036
▁dis	-8.80384
organisation	-8.80694
ign	-8.80714
▁militaire	-8.80801
▁chef	-8.80985
▁[[	-8.81141
abord	-8.81196
▁majorité	-8.81583
▁capitale	-8.81863
▁per	-8.82053
après	-8.82061
▁ka	-8.82259
▁droite	-8.82318
ron	-8.82345
▁cour	-8.82368
▁international	-8.82475
mon	-8.82607
▁fils	-8.8268
sur	-8.82833
▁second	-8.82937
▁commun	-8.82992
▁haute	-8.83426
▁position	-8.83464
▁taux	-8.83581
▁me	-8.83759
8	-8.83842
▁femmes	-8.83965
▁données	-8.8401
▁mo	-8.84143
tique	-8.8448
ck	-8.84516
armée	-8.84519
gé	-8.85044
▁mé	-8.85049
▁pu	-8.85314
▁programme	-8.85323
▁corps	-8.85425
▁pa	-8.85433
▁style	-8.85456
▁régime	-8.85482
ois	-8.85721
▁hommes	-8.85764
-19	-8.85934
aires	-8.86059
iens	-8.86113
ve	-8.86344
▁2010	-8.86547
aï	-8.8655
gi	-8.86575
▁no	-8.86587
▁communes	-8.86632
▁mar	-8.86787
▁possède	-8.86889
▁nouvelles	-8.86991
▁bas	-8.87027
ig	-8.87095
▁vi	-8.87104
pi	-8.87113
▁donne	-8.8738
▁domaine	-8.87469
ux	-8.87501
▁siècle	-8.8761
▁val	-8.87736
▁lorsque	-8.87856
▁devant	-8.8794
▁marque	-8.88166
▁bi	-8.88262
hi	-8.88615
▁climat	-8.88638
▁marché	-8.89032
▁vue	-8.89078
ver	-8.89406
▁europe	-8.89511
▁ministre	-8.89818
▁situation	-8.90047
▁françois	-8.90232
nd	-8.90384
bi	-8.90388
bas	-8.90427
▁langage	-8.90434
nes	-8.90478
▁créé	-8.90494
min	-8.90621
▁construction	-8.90799
ordre	-8.90888
▁américain	-8.91062
▁sol	-8.9118
qu	-8.91279
pa	-8.91298
ons	-8.91333
▁service	-8.91445
▁version	-8.91533
▁bar	-8.91646
:	-8.92142
▁but	-8.92148
▁haut	-8.92248
▁()	-8.92533
3	-8.92651
▁formula	-8.92655
▁internationale	-8.92662
▁quant	-8.92846
▁nature	-8.92887
▁possible	-8.92949
▁date	-8.92973
action	-8.93005
▁celles	-8.93097
▁festival	-8.93174
entre	-8.9319
▁bataille	-8.93196
ty	-8.93232
▁dernière	-8.93235
▁demande	-8.93236
▁contrôle	-8.93304
▁new	-8.9331
▁milieu	-8.93449
iv	-8.93651
con	-8.93703
▁mesure	-8.93952
▁groupes	-8.94043
ive	-8.9406
▁v	-8.94064
▁ro	-8.94103
particulièrement	-8.94221
▁ad	-8.94287
▁porte	-8.94361
▁état	-8.94401
éri	-8.9444
io	-8.94589
▁produits	-8.94637
ab	-8.94719
▁7	-8.94789
▁furent	-8.94874
▁japonais	-8.95172
▁so	-8.95248
▁présence	-8.95252
▁millions	-8.95323
vo	-8.95346
ient	-8.95547
▁1990	-8.9555
▁livre	-8.95918
▁premières	-8.9594
▁ensemble	-8.96011
▁na	-8.96013
▁propre	-8.96027
▁commence	-8.96081
▁religion	-8.96193
▁troisième	-8.96561
▁forte	-8.9667
sse	-8.96712
bu	-8.96992
▁petit	-8.97292
▁to	-8.97327
use	-8.97445
▁modèle	-8.9776
▁»)	-8.98106
▁littérature	-8.98151
ancien	-8.98262
▁moment	-8.98357
▁jo	-8.98379
▁théorie	-8.98612
▁scène	-8.9866
fi	-8.98702
▁principaux	-8.98776
école	-8.99063
▁formation	-8.99124
▁outre	-8.99351
▁dix	-8.99407
▁côté	-8.99457
▁zone	-8.99469
▁6	-8.99514
ll	-8.99609
▁films	-8.99756
eurs	-8.9977
▁vol	-8.99837
▁plutôt	-9.00014
▁etc	-9.00203
▁valeur	-9.00237
ang	-9.00323
tre	-9.00408
▁trans	-9.00455
▁question	-9.00566
▁œuvre	-9.00891
▁âge	-9.00973
00	-9.00973
économie	-9.01035
▁populaire	-9.01077
▁serait	-9.01117
▁voit	-9.01121
oc	-9.01489
the	-9.01534
œuvre	-9.0168
▁historique	-9.01686
▁fi	-9.01982
lle	-9.02076
▁cha	-9.02109
▁20	-9.02182
▁lequel	-9.02225
▁charles	-9.02243
objet	-9.02432
▁publié	-9.02483
▁père	-9.02484
▁constitution	-9.02582
▁2000	-9.02688
▁travaux	-9.02749
▁six	-9.02843
lin	-9.02847
ette	-9.02858
▁représente	-9.03024
wa	-9.03048
▁radio	-9.03467
▁code	-9.03632
rait	-9.03714
▁jamais	-9.03719
église	-9.04072
▁révolution	-9.04161
ja	-9.04257
▁12	-9.04288
▁8	-9.04295
▁man	-9.04296
▁né	-9.04395
car	-9.0455
▁éléments	-9.04737
▁crise	-9.04816
▁philosophie	-9.05124
om	-9.05151
▁bou	-9.05162
ché	-9.05322
uni	-9.05548
9	-9.05598
▁critique	-9.0563
▁ju	-9.05759
▁maison	-9.05773
ly	-9.05922
▁o	-9.06057
▁secteur	-9.06094
▁fort	-9.06177
▁générale	-9.06193
▁su	-9.06293
tra	-9.06317
▁anti	-9.0635
▁sé	-9.06545
▁libre	-9.06577
▁1980	-9.06778
▁tri	-9.06915
▁moitié	-9.06998
ill	-9.07025
cl	-9.0705
ko	-9.07139
od	-9.07236
▁sociale	-9.07455
▁tel	-9.07646
urs	-9.07666
▁divers	-9.07836
▁cuisine	-9.07893
▁services	-9.07936
▁communauté	-9.07938
▁appelé	-9.08023
▁aurait	-9.08133
ai	-9.08281
▁bon	-9.08321
▁mai	-9.08364
▁donné	-9.084
▁moderne	-9.08409
▁proche	-9.0858
mp	-9.08666
▁(«	-9.08787
elles	-9.08796
don	-9.09288
▁faible	-9.09343
▁mondial	-9.09385
▁pe	-9.09392
▁site	-9.09715
▁faut	-9.0982
▁rencontre	-9.09826
▁science	-9.09863
▁considéré	-9.09909
▁techniques	-9.10159
▁1970	-9.10511
▁2007	-9.10632
▁the	-9.10649
▁nouveaux	-9.10734
ables	-9.10739
è	-9.1079
ise	-9.10884
afrique	-9.10915
ke	-9.10997
cul	-9.11012
nom	-9.1108
industrie	-9.11148
teur	-9.11191
▁commerce	-9.1121
▁droits	-9.11247
▁néanmoins	-9.1132
▁siège	-9.1146
ssant	-9.11526
▁référence	-9.11554
▁am	-9.11646
▁quand	-9.11703
▁x	-9.11777
élection	-9.11777
▁matière	-9.1192
ales	-9.11927
per	-9.12051
▁transport	-9.12109
▁2008	-9.12377
â	-9.12417
▁femme	-9.12598
▁textes	-9.12683
▁physique	-9.12703
br	-9.12776
▁coup	-9.12831
▁rapidement	-9.12833
▁retour	-9.12835
▁comp	-9.13157
▁trop	-9.13226
▁naissance	-9.13229
voir	-9.13252
▁campagne	-9.13331
▁défense	-9.13397
▁social	-9.13474
ront	-9.13549
em	-9.13553
▁qualité	-9.13576
▁anglais	-9.13698
▁présidentielle	-9.13706
▁principales	-9.13743
ite	-9.14061
▁hi	-9.14157
vis	-9.14202
"),	-9.1421
▁centrale	-9.1435
▁jacques	-9.14402
▁nommé	-9.14429
euse	-9.14441
▁jeune	-9.14442
▁total	-9.1449
▁tu	-9.14555
des	-9.14623
ki	-9.14623
▁pen	-9.14919
▁relations	-9.15002
▁forces	-9.1502
▁croissance	-9.1511
ification	-9.1512
▁sujet	-9.15189
▁louis	-9.15192
sa	-9.1529
▁sept	-9.15478
rie	-9.15535
agriculture	-9.15715
▁traité	-9.15766
gue	-9.158
▁caractéristique	-9.15966
jo	-9.15975
ns	-9.16039
10	-9.16259
ologie	-9.16263
▁ri	-9.16473
▁ancien	-9.16495
▁bois	-9.16533
▁finalement	-9.1655
▁suivant	-9.16589
ger	-9.16736
▁notion	-9.16747
com	-9.16811
▁combat	-9.16846
▁communication	-9.16911
▁2012	-9.16947
pro	-9.16993
▁cap	-9.16994
lt	-9.17211
▁mots	-9.17274
▁entreprises	-9.17376
▁je	-9.17548
▁texte	-9.17716
été	-9.17736
▁règne	-9.17801
iers	-9.17894
▁théâtre	-9.17926
▁mode	-9.17942
▁surface	-9.18049
égypte	-9.18131
auteur	-9.18378
ville	-9.18381
chi	-9.18448
▁zones	-9.18485
▁go	-9.18558
ler	-9.18581
out	-9.18614
▁structure	-9.18624
▁habitants	-9.18685
▁paul	-9.18686
▁mi	-9.19008
tif	-9.19019
aide	-9.19025
▁classe	-9.19134
&	-9.1915
(	-9.19154
he	-9.19229
▁chine	-9.19386
▁force	-9.19447
▁systèmes	-9.19687
▁di	-9.19688
▁château	-9.19911
ho	-9.19976
ub	-9.20082
▁pl	-9.20203
lon	-9.20263
▁14	-9.20399
▁ci	-9.20423
▁élu	-9.20455
▁situé	-9.20518
pl	-9.20541
▁2011	-9.20703
▁york	-9.20718
ble	-9.20763
▁enfants	-9.20803
ét	-9.20841
za	-9.20901
▁courant	-9.2114
était	-9.21193
▁annonce	-9.21371
▁san	-9.21396
▁source	-9.2141
▁publique	-9.21516
utilisation	-9.21517
▁études	-9.21687
▁taille	-9.21712
▁assez	-9.21721
▁faisant	-9.21735
▁voix	-9.21862
ru	-9.21968
ib	-9.21984
6	-9.22001
▁santé	-9.22026
▁côte	-9.22042
iser	-9.22075
▁char	-9.22116
▁vote	-9.22326
▁culte	-9.22329
ins	-9.22353
ateur	-9.22712
▁personne	-9.22739
▁2006	-9.22763
▁voir	-9.22987
▁espèces	-9.23007
▁passe	-9.23039
influence	-9.23065
▁principal	-9.23075
ed	-9.23489
▁membre	-9.23492
▁i	-9.23519
▁har	-9.23901
▁statut	-9.23937
isé	-9.23938
▁connaît	-9.2401
▁atteint	-9.24044
▁rome	-9.24139
▁technique	-9.24257
▁direction	-9.24477
▁bord	-9.2451
ade	-9.24588
▁1960	-9.246
rent	-9.24678
ante	-9.24698
▁devenu	-9.24771
▁candidat	-9.24801
▁blanc	-9.24986
exploitation	-9.25019
environnement	-9.25098
air	-9.25133
▁britannique	-9.25143
▁permettant	-9.25182
").	-9.25252
orient	-9.25377
▁présent	-9.25504
▁longue	-9.25561
▁calcul	-9.25809
▁peuple	-9.25903
▁peine	-9.2612
bre	-9.26165
▁officielle	-9.26221
ah	-9.26263
ens	-9.26293
▁ga	-9.26308
20	-9.2635
▁gaz	-9.26365
▁large	-9.26414
▁sciences	-9.26493
▁tourisme	-9.26833
ip	-9.26896
▁semble	-9.27005
▁difficile	-9.27016
▁largement	-9.27047
▁13	-9.27058
▁dollars	-9.27144
▁formes	-9.27386
▁principe	-9.27423
▁2009	-9.27567
étend	-9.27601
allemagne	-9.27705
▁puissance	-9.27714
▁cité	-9.27759
▁mars	-9.27773
pt	-9.27805
▁mémoire	-9.27981
res	-9.28086
▁tra	-9.28098
▁sites	-9.2827
▁concept	-9.28325
▁lorsqu	-9.28574
▁retrouve	-9.28576
▁activités	-9.28602
▁presque	-9.28662
nant	-9.28668
entreprise	-9.28824
▁constitue	-9.28909
près	-9.2895
▁vidéo	-9.29077
▁of	-9.29079
▁essentiellement	-9.29111
▁romaine	-9.29124
environ	-9.29252
▁occidentale	-9.29271
▁œuvres	-9.29308
▁11	-9.29391
ule	-9.295
bert	-9.29596
▁publie	-9.29634
▁sortie	-9.29656
▁anciens	-9.29739
▁suisse	-9.29789
ès	-9.29845
▁2018	-9.2992
▁avaient	-9.29924
ju	-9.30004
▁empire	-9.30199
empereur	-9.30249
▁st	-9.30258
col	-9.30328
▁2014	-9.30345
▁scientifique	-9.30519
▁mère	-9.30685
si	-9.30714
▁front	-9.308
étude	-9.30879
image	-9.30905
espace	-9.311
▁vivant	-9.3117
pos	-9.31236
▁nous	-9.31324
▁lutte	-9.31381
cy	-9.31412
▁grec	-9.31424
▁musée	-9.31506
activité	-9.31688
argent	-9.31719
▁tradition	-9.31745
▁îles	-9.31748
arc	-9.31783
▁classique	-9.31801
▁supérieur	-9.31806
▁simple	-9.3189
▁latin	-9.31899
port	-9.31933
▁masse	-9.32019
▁socialiste	-9.32044
▁auteurs	-9.32124
▁(18	-9.32158
▁av	-9.32241
cé	-9.32274
▁élevé	-9.32283
▁désormais	-9.32321
▁2017	-9.32331
existence	-9.32465
éro	-9.32524
information	-9.3254
enseignement	-9.32548
ya	-9.32639
▁notre	-9.32645
fa	-9.32835
idée	-9.32862
ailleurs	-9.32955
▁apparaît	-9.32973
▁mettre	-9.33062
▁petite	-9.33065
and	-9.33111
▁john	-9.3319
ay	-9.33247
á	-9.3332
cal	-9.3333
âge	-9.33334
▁jeunes	-9.33575
mont	-9.33589
▁permettent	-9.3363
▁terres	-9.33669
▁pé	-9.33776
ten	-9.33813
▁rouge	-9.3382
▁voire	-9.33862
▁liberté	-9.33912
ô	-9.33984
▁%)	-9.3399
lement	-9.34132
▁ressources	-9.34171
▁sécurité	-9.34202
kh	-9.34231
ran	-9.34406
ana	-9.34409
isant	-9.34522
our	-9.34578
▁pensée	-9.34648
▁passage	-9.34667
▁américaine	-9.34737
▁choix	-9.34794
▁9	-9.34871
▁mor	-9.34986
▁comprend	-9.35024
▁vu	-9.35049
▁gi	-9.35068
ssent	-9.35106
enne	-9.35165
ide	-9.35173
12	-9.35198
▁russie	-9.35526
▁ca	-9.35635
▁presse	-9.3566
▁capacité	-9.35674
rou	-9.35753
▁fond	-9.35909
▁continent	-9.35913
ak	-9.35918
▁voie	-9.35923
▁prendre	-9.35932
▁aucun	-9.3594
éra	-9.35978
▁japonaise	-9.36141
onne	-9.36292
énergie	-9.36298
indépendance	-9.36298
▁nations	-9.36451
ste	-9.3657
▁décide	-9.36578
▁acc	-9.36625
tal	-9.36653
esprit	-9.36718
▁vit	-9.36722
ong	-9.36728
▁robert	-9.36732
▁définition	-9.36765
▁linguistique	-9.36856
▁protection	-9.36867
▁considère	-9.37017
▁cl	-9.37032
▁lois	-9.37101
▁central	-9.37228
▁mon	-9.37228
▁pris	-9.37309
nu	-9.37334
▁2005	-9.37685
▁caractère	-9.37695
▁im	-9.37774
gt	-9.37775
▁certain	-9.37802
vé	-9.3783
éli	-9.3784
▁romain	-9.37856
▁obtient	-9.37926
tive	-9.37944
▁propose	-9.3798
▁réalisé	-9.38048
ven	-9.38076
up	-9.38113
▁he	-9.38115
rom	-9.38129
▁sort	-9.38147
ok	-9.38178
▁composé	-9.38382
▁coupe	-9.38385
ques	-9.38409
▁utilise	-9.3841
▁sorte	-9.38421
pri	-9.38443
tri	-9.38456
hé	-9.38623
50	-9.38715
thé	-9.38817
▁br	-9.38859
▁champ	-9.38992
▁min	-9.39032
écriture	-9.39085
▁conditions	-9.39116
▁charge	-9.3921
mat	-9.39432
isée	-9.39553
▁op	-9.3963
▁utilisée	-9.39651
vin	-9.39701
▁2002	-9.39771
▁dispose	-9.39783
ano	-9.39828
▁diverses	-9.39991
▁informatique	-9.40104
▁michel	-9.40199
gar	-9.40262
▁ho	-9.40265
▁main	-9.40308
14	-9.40311
alité	-9.40322
▁types	-9.40501
▁fortement	-9.40511
▁prise	-9.40563
▁influence	-9.40583
ène	-9.40676
pé	-9.40839
▁religieux	-9.40846
der	-9.40864
▁située	-9.40953
▁mou	-9.41021
cha	-9.41065
▁pourrait	-9.41177
oise	-9.4123
▁directement	-9.41251
▁profit	-9.41386
form	-9.41394
fl	-9.41478
▁longtemps	-9.41479
▁réalité	-9.41518
ji	-9.41523
tar	-9.41617
▁réalisateur	-9.41617
▁européen	-9.41708
▁militaires	-9.41713
▁pan	-9.41746
▁ja	-9.41905
▁palais	-9.42115
▁comité	-9.42128
▁cent	-9.42161
▁correspond	-9.42192
▁quartier	-9.42238
▁art	-9.42358
▁belgique	-9.4242
duc	-9.42449
▁basse	-9.42471
▁pharaon	-9.42493
▁2016	-9.42589
▁voyage	-9.42689
ez	-9.42833
▁phase	-9.42898
usage	-9.42928
can	-9.42974
▁unique	-9.4304
▁be	-9.43076
0	-9.43219
nel	-9.4322
uff	-9.43295
▁célèbre	-9.43345
tro	-9.43352
emploi	-9.43503
▁processus	-9.43536
▁contexte	-9.43548
▁suivi	-9.43614
nelle	-9.43629
▁ancienne	-9.43783
▁nintendo	-9.43858
▁derniers	-9.43928
▁continue	-9.43996
met	-9.44096
▁cro	-9.44154
▁traditionnelle	-9.44375
▁passé	-9.44441
▁victoire	-9.44503
▁2019	-9.44514
▁gu	-9.44593
▁""	-9.44656
▁déclare	-9.44666
har	-9.44723
▁fleuve	-9.44828
▁tendance	-9.44841
ium	-9.44898
▁septembre	-9.4499
gh	-9.45098
▁bonne	-9.45161
▁méthode	-9.45184
▁bassin	-9.45327
amp	-9.45385
land	-9.45475
▁2013	-9.45492
▁décision	-9.45643
dis	-9.4574
▁vingt	-9.45777
▁lumière	-9.4581
▁communiste	-9.45916
▁juin	-9.46006
▁savoir	-9.46045
▁compétition	-9.46136
assemblée	-9.4623
▁fr	-9.46299
ist	-9.46381
▁fondée	-9.46406
évolution	-9.46502
▁décembre	-9.46631
cu	-9.46668
▁ver	-9.46692
15	-9.46719
▁province	-9.46889
▁principale	-9.4693
▁césar	-9.46964
▁2004	-9.46975
▁suivante	-9.46994
ê	-9.47041
▁patrimoine	-9.47128
lan	-9.47151
▁dés	-9.47277
▁can	-9.47329
▁créée	-9.47334
13	-9.47337
▁bri	-9.47374
end	-9.4741
▁déc	-9.47448
▁telles	-9.47457
ions	-9.47462
▁soutien	-9.47478
▁écoles	-9.47498
▁signe	-9.47594
teurs	-9.47608
naire	-9.47624
tel	-9.47709
▁brésil	-9.47743
▁os	-9.4775
▁sport	-9.47862
ière	-9.47935
▁montre	-9.48058
int	-9.48084
▁rend	-9.48135
▁pib	-9.48196
▁grecque	-9.48245
ser	-9.48302
▁vis	-9.48372
▁strasbourg	-9.48467
hu	-9.4854
▁traitement	-9.48558
ts	-9.48586
év	-9.48699
▁bu	-9.48716
▁dessin	-9.48911
▁pat	-9.48936
▁savoie	-9.4899
▁ti	-9.49077
▁fonde	-9.49102
▁doivent	-9.49144
▁hu	-9.4917
11	-9.49275
cho	-9.4937
▁donner	-9.49437
▁janvier	-9.49485
▁vo	-9.49652
▁départements	-9.49908
▁décrit	-9.49982
▁gestion	-9.49992
▁coût	-9.50009
▁cou	-9.50021
▁locale	-9.50313
▁double	-9.50341
vers	-9.50402
▁problème	-9.50566
italie	-9.50657
▁poste	-9.5071
ères	-9.50764
intérieur	-9.50842
▁standard	-9.50854
...	-9.50883
▁figure	-9.50965
▁constitué	-9.50999
écrivain	-9.51014
▁grèce	-9.51027
▁humaine	-9.51034
entrée	-9.51043
▁sources	-9.5115
tr	-9.51179
ris	-9.51343
▁allemand	-9.51377
tt	-9.51484
mes	-9.51515
▁justice	-9.51547
▁el	-9.51555
han	-9.51583
▁lettres	-9.51618
▁représentation	-9.51646
ama	-9.51687
▁super	-9.51687
▁aucune	-9.51709
▁note	-9.5171
▁ki	-9.51725
▁utilisés	-9.51737
▁déesse	-9.51749
sh	-9.51779
▁mitterrand	-9.51895
▁réforme	-9.5204
▁compagnie	-9.5207
▁concernant	-9.5207
▁véritable	-9.52078
▁certaine	-9.52081
née	-9.52301
france	-9.52392
▁développe	-9.52445
▁dernières	-9.52531
▁conception	-9.52681
▁respect	-9.52804
,5	-9.5297
aud	-9.52974
all	-9.52992
▁confi	-9.5308
▁com	-9.53095
fer	-9.53141
let	-9.53283
▁permis	-9.53461
]	-9.53463
▁relation	-9.53474
▁russe	-9.53481
▁/	-9.53573
▁tombe	-9.5359
▁problèmes	-9.53597
▁progressivement	-9.53684
17	-9.5373
ap	-9.53775
ages	-9.53775
▁inc	-9.53806
▁support	-9.53832
onde	-9.53966
▁cal	-9.53973
▁considérée	-9.54045
▁appelée	-9.54108
▁marseille	-9.54115
▁points	-9.54245
igne	-9.5429
▁propos	-9.54332
▁1999	-9.54369
▁rapide	-9.5438
▁durable	-9.54394
ber	-9.54417
16	-9.54463
▁télé	-9.54533
▁civile	-9.54538
cher	-9.54618
▁signifie	-9.54627
▁mouvements	-9.54629
▁fo	-9.54691
lie	-9.54743
▁ge	-9.54767
▁territoires	-9.54812
non	-9.54823
▁men	-9.54873
avoir	-9.54906
▁imp	-9.54917
▁fonctions	-9.54922
ric	-9.55057
▁dieux	-9.55057
▁compris	-9.55098
▁devenir	-9.5511
émi	-9.55173
▁reçoit	-9.55264
▁télévision	-9.55264
▁économie	-9.55302
▁termes	-9.55445
tho	-9.55497
ire	-9.55541
▁fil	-9.55565
▁chambre	-9.55628
ancienne	-9.55717
nce	-9.55905
nc	-9.56041
amb	-9.56108
men	-9.5613
▁comporte	-9.56188
▁her	-9.562
▁chant	-9.56337
▁autant	-9.56348
▁développé	-9.5636
▁garde	-9.564
▁vallée	-9.56451
▁homme	-9.56562
liste	-9.56581
▁rue	-9.5668
▁massif	-9.56724
▁objets	-9.56808
-20	-9.56822
▁georges	-9.56837
▁gra	-9.56845
▁troupes	-9.56847
équipe	-9.56882
administration	-9.57009
▁royale	-9.57015
graph	-9.57069
▁numérique	-9.57084
antiquité	-9.57084
...)	-9.5711
▁bio	-9.57148
▁actuelle	-9.572
inter	-9.57217
▁représenté	-9.57221
▁désigne	-9.57279
▁sou	-9.57346
▁tir	-9.57422
▁telle	-9.5759
▁génération	-9.57638
▁regroupe	-9.57843
▁appel	-9.57859
▁rou	-9.57903
▁huit	-9.57992
▁pla	-9.58179
▁discours	-9.58193
▁soleil	-9.58195
▁sub	-9.58229
▁mieux	-9.58243
ny	-9.58263
▁post	-9.58296
▁division	-9.58367
académie	-9.58378
ral	-9.58403
gon	-9.58412
tiques	-9.58415
▁cœur	-9.58459
▁chemin	-9.58516
▁civilisation	-9.58573
▁mur	-9.58578
▁économiques	-9.58585
▁critiques	-9.5865
▁logiciel	-9.58687
sta	-9.58721
▁lecture	-9.58755
▁majeure	-9.58797
shi	-9.58838
amérique	-9.58898
▁souverain	-9.58938
▁juillet	-9.58938
▁partis	-9.58985
▁découverte	-9.59074
▁distingue	-9.59084
▁grenoble	-9.59125
ros	-9.59126
▁phénomène	-9.59131
▁connue	-9.59155
▁paix	-9.59159
▁usage	-9.59196
ât	-9.59229
▁via	-9.5923
▁durée	-9.59388
▁naturel	-9.59412
▁évolution	-9.59418
▁temple	-9.59524
▁créer	-9.59628
expression	-9.59659
▁col	-9.59691
gan	-9.59697
▁and	-9.59763
ici	-9.59824
▁olympiques	-9.59825
cour	-9.5985
▁quelque	-9.59924
lic	-9.59962
▁relativement	-9.59985
▁meilleur	-9.60083
▁sch	-9.60119
▁lieux	-9.60133
élève	-9.60197
arrivée	-9.60241
▁vient	-9.60314
q	-9.60317
ob	-9.60333
▁bibliothèque	-9.60446
▁brut	-9.60527
issent	-9.6057
▁sommet	-9.60604
espagne	-9.60628
▁consommation	-9.60644
▁2001	-9.60651
▁quasi	-9.60709
isse	-9.60754
▁clé	-9.60782
xi	-9.60816
▁congrès	-9.60827
▁géographique	-9.60827
uv	-9.60848
▁doute	-9.60884
▁30	-9.60965
▁cycle	-9.61061
▁parlement	-9.61098
▁importantes	-9.61235
▁bande	-9.61265
ori	-9.61396
nne	-9.61401
éducation	-9.61407
▁estime	-9.6148
▁domaines	-9.61743
▁populations	-9.61773
▁corée	-9.61785
▁cu	-9.61802
▁loin	-9.61863
▁ve	-9.61882
▁supérieure	-9.619
▁fille	-9.61968
▁novembre	-9.61977
▁z	-9.61983
▁ko	-9.62003
19	-9.62015
▁résultats	-9.62163
▁ban	-9.6219
▁départ	-9.62195
eff	-9.62209
▁personnage	-9.62288
▁américains	-9.62306
▁reçu	-9.62365
▁vitesse	-9.62375
▁octobre	-9.62485
habit	-9.62539
▁offre	-9.62554
▁convention	-9.62557
▁allemande	-9.62561
▁planète	-9.62577
architecture	-9.62587
ane	-9.62614
▁là	-9.62614
ié	-9.62646
tur	-9.62719
▁seth	-9.62846
▁parle	-9.63006
▁chacun	-9.63014
▁égyptienne	-9.63015
▁saison	-9.6307
océan	-9.63146
▁officiellement	-9.63192
▁micro	-9.63204
eu	-9.63214
▁mari	-9.63244
▁scrutin	-9.63336
▁superficie	-9.63336
25	-9.63347
▁conflit	-9.63501
▁mag	-9.63593
▁antique	-9.63635
▁pont	-9.63681
▁frontière	-9.63714
▁géographie	-9.63729
▁pourtant	-9.63767
yo	-9.63794
▁chute	-9.638
▁rang	-9.639
indice	-9.64021
ateurs	-9.64044
ches	-9.64091
▁maître	-9.64105
asie	-9.64114
▁bruxelles	-9.64121
ain	-9.64123
▁nouvel	-9.64155
▁vaste	-9.64172
ley	-9.64289
▁littéraire	-9.64318
je	-9.64381
▁dynastie	-9.64459
▁catholique	-9.64522
ttes	-9.64523
▁revue	-9.64531
gen	-9.64555
▁carrière	-9.64589
▁sociétés	-9.64636
lot	-9.64646
hiver	-9.6465
▁anciennes	-9.64843
▁européens	-9.64865
delà	-9.64877
▁partage	-9.64926
unité	-9.64966
extrême	-9.6499
institut	-9.65045
berg	-9.6511
▁1950	-9.65316
iné	-9.65408
▁objet	-9.65411
▁lycée	-9.65511
▁loire	-9.65583
▁personnel	-9.65797
▁journal	-9.65849
▁explique	-9.65907
▁red	-9.65965
▁solaire	-9.66116
▁petits	-9.66155
▁rendre	-9.66188
▁caractères	-9.66214
▁représentent	-9.66245
ng	-9.66354
▁cré	-9.66357
og	-9.66433
▁pou	-9.66456
▁accord	-9.66486
▁mexique	-9.66514
ino	-9.666
cor	-9.66624
qué	-9.66674
▁humains	-9.66774
▁meurt	-9.66815
association	-9.66826
▁propres	-9.6684
▁hors	-9.66901
▁format	-9.66904
▁parc	-9.66949
▁lignes	-9.66971
▁contrairement	-9.66974
▁personnages	-9.66998
▁représentant	-9.67014
pré	-9.67204
ative	-9.67207
lant	-9.67209
▁choisi	-9.67224
inde	-9.67295
▁marqué	-9.67297
her	-9.67467
▁photo	-9.67532
▁marquée	-9.67571
ole	-9.67585
cré	-9.67656
bon	-9.67656
▁distribution	-9.67733
▁utilisant	-9.67734
▁règles	-9.67741
dessus	-9.67741
ius	-9.67766
▁puisque	-9.67794
▁)	-9.67856
mor	-9.67903
▁conduit	-9.67934
▁industrielle	-9.68023
▁roche	-9.681
▁électrique	-9.68119
ures	-9.68124
▁rousseau	-9.68142
occasion	-9.68285
▁mandat	-9.68303
hôtel	-9.68348
▁nucléaire	-9.68348
▁commission	-9.6835
ète	-9.68404
▁banque	-9.68466
ouverture	-9.68471
▁culturel	-9.68514
naissance	-9.68609
▁changement	-9.68622
ita	-9.68688
fu	-9.68691
ze	-9.68716
éré	-9.68739
▁finale	-9.68875
▁entier	-9.68884
ari	-9.68923
vel	-9.68923
24	-9.68957
▁possibilité	-9.68966
▁court	-9.68994
▁quantité	-9.69025
▁breton	-9.69069
▁marine	-9.69073
▁ren	-9.69105
▁publication	-9.6918
▁remporte	-9.69185
▁vision	-9.69235
▁symbole	-9.69344
▁lesquels	-9.69381
▁2022	-9.69391
▁signal	-9.69393
▁nécessaire	-9.69399
▁tiers	-9.69473
▁dimension	-9.69526
▁40	-9.69605
▁meilleure	-9.69618
▁ru	-9.6972
▁2015	-9.69738
▁conférence	-9.69755
▁activité	-9.69769
▁bé	-9.69778
▁étude	-9.69785
▁cancer	-9.69805
ines	-9.69808
ç	-9.69848
▁nos	-9.69885
▁seront	-9.69886
▁bl	-9.69898
▁logique	-9.69902
euros	-9.69981
odice	-9.70009
▁all	-9.70059
ud	-9.70109
▁comment	-9.70275
▁web	-9.70291
ente	-9.70396
▁accueille	-9.70426
▁appelle	-9.70546
rê	-9.7063
▁logiciels	-9.70662
▁sociales	-9.70664
▁internet	-9.70736
▁régional	-9.7078
ret	-9.70792
cr	-9.70816
chant	-9.70842
85	-9.70899
tré	-9.70967
30	-9.71029
intérêt	-9.71041
aéroport	-9.71057
▁active	-9.71105
su	-9.71186
ces	-9.71217
titu	-9.71253
ban	-9.71295
▁médias	-9.71326
▁peuples	-9.7137
lier	-9.71382
▁totale	-9.71489
▁ii	-9.71495
▁bal	-9.71554
qua	-9.71573
▁philippe	-9.71589
▁arts	-9.7159
▁probablement	-9.71749
otan	-9.71753
▁chinois	-9.71775
ball	-9.71868
uel	-9.71905
▁camp	-9.71906
▁fou	-9.71952
én	-9.71967
▁seine	-9.71993
▁mu	-9.72037
▁électronique	-9.72081
▁limite	-9.72094
▁artistique	-9.72121
▁&	-9.72159
droit	-9.72167
dre	-9.72188
▁avril	-9.7219
▁apple	-9.72254
▁noms	-9.72262
rat	-9.72263
▁50	-9.72314
▁sc	-9.72317
▁demeure	-9.72386
▁soient	-9.72404
comp	-9.72423
▁royal	-9.72426
▁animaux	-9.72435
▁allemands	-9.72484
ate	-9.72516
avi	-9.72569
uc	-9.72763
exposition	-9.72766
▁importants	-9.72895
▁kh	-9.72899
▁chargé	-9.72901
avec	-9.72923
▁marie	-9.72926
▁maire	-9.72961
▁provinces	-9.73071
▁commercial	-9.73086
▁().	-9.73119
ian	-9.73127
av	-9.73151
marin	-9.73199
▁riche	-9.73267
▁nuit	-9.73369
▁magazine	-9.73406
rain	-9.73483
▁terrain	-9.73629
▁interne	-9.73638
▁perdu	-9.73652
21	-9.73653
▁fondé	-9.73732
▁orientale	-9.73748
▁joue	-9.73833
▁ab	-9.73895
▁gar	-9.73989
▁message	-9.74029
▁vé	-9.74038
comme	-9.74041
▁lance	-9.74042
▁actuellement	-9.74043
▁lettre	-9.74132
tor	-9.74133
▁futur	-9.74159
▁jou	-9.74173
ides	-9.7424
tou	-9.74294
importance	-9.74328
▁artistes	-9.74354
▁passer	-9.74489
▁matériel	-9.74533
st	-9.74544
▁siècles	-9.74654
▁résistance	-9.74712
▁régulièrement	-9.74803
dia	-9.7494
▁disque	-9.74979
▁étrangers	-9.74995
▁ram	-9.75048
▁humain	-9.75049
▁analyse	-9.75063
▁extrême	-9.75066
▁vin	-9.75087
▁van	-9.75087
cre	-9.75111
dont	-9.75168
nou	-9.75253
▁désigner	-9.75373
40	-9.7543
▁fondation	-9.75481
▁culturelle	-9.75486
▁rhétorique	-9.75507
▁for	-9.75548
▁google	-9.75592
▁institutions	-9.75633
▁concerne	-9.75752
▁multi	-9.75827
▁couronne	-9.75836
ica	-9.75859
▁chi	-9.75868
▁trouver	-9.75946
▁perd	-9.75959
▁réuni	-9.76038
ico	-9.76042
analyse	-9.76124
▁péri	-9.76169
▁cherche	-9.76323
▁juge	-9.76329
iz	-9.7633
accès	-9.7635
▁lune	-9.76409
▁déclin	-9.76436
▁prince	-9.7647
tru	-9.76471
▁résultat	-9.76489
▁température	-9.76491
▁reconnu	-9.76495
ara	-9.76505
▁néo	-9.76512
tan	-9.76549
kin	-9.7661
▁fu	-9.7669
▁traduit	-9.76704
'«	-9.76706
▁agricole	-9.76721
▁consiste	-9.76922
ami	-9.76966
ies	-9.76998
▁réaction	-9.7703
mu	-9.77096
▁faveur	-9.77151
ey	-9.77191
▁direct	-9.77222
ik	-9.77225
▁bureau	-9.77354
illa	-9.7738
▁do	-9.77388
logique	-9.77403
▁parler	-9.77446
▁juste	-9.77447
cent	-9.77461
▁indique	-9.77501
ov	-9.77525
▁nu	-9.77558
occupation	-9.776
▁football	-9.77601
▁complexe	-9.77654
▁pièces	-9.77738
▁composée	-9.77745
ach	-9.77762
▁risque	-9.77892
▁[	-9.779
▁fit	-9.77958
▁précise	-9.77977
80	-9.78064
▁peinture	-9.7808
▁seuls	-9.7824
▁sociaux	-9.7828
▁moyens	-9.78281
bou	-9.78301
iran	-9.7836
rac	-9.78405
langue	-9.78432
▁pose	-9.7845
▁ordre	-9.78484
▁revanche	-9.78507
▁épouse	-9.78529
▁joueurs	-9.78553
▁belge	-9.78561
18	-9.78567
▁baisse	-9.78632
▁grecs	-9.78748
ières	-9.7879
archi	-9.78838
▁cultures	-9.78895
ster	-9.78964
▁remonte	-9.78979
▁ami	-9.79076
▁devenue	-9.79107
▁locaux	-9.79193
▁trouvent	-9.79214
ef	-9.79247
▁soviétique	-9.79255
▁crée	-9.79268
▁couleur	-9.79306
▁formé	-9.79389
▁police	-9.79425
▁historiques	-9.7958
anne	-9.79589
▁livres	-9.79597
isés	-9.79649
▁formule	-9.79652
▁approche	-9.79707
▁locales	-9.7975
▁développer	-9.79931
▁arrive	-9.79949
mul	-9.79971
agglomération	-9.80044
ange	-9.80107
▁entraîne	-9.80112
nier	-9.80176
accord	-9.80275
▁introduit	-9.80344
▁1998	-9.80348
▁constituent	-9.80358
▁mission	-9.80415
▁rendu	-9.80527
vent	-9.80572
▁chaîne	-9.80579
amour	-9.80639
existe	-9.80675
gre	-9.80727
article	-9.80756
▁te	-9.80806
▁uniquement	-9.80825
65	-9.8084
▁permettre	-9.80871
▁longueur	-9.80964
▁pression	-9.81043
▁1995	-9.81046
▁25	-9.81049
▁proches	-9.81178
▁législatives	-9.81218
▁construit	-9.81223
anglais	-9.81235
▁tr	-9.81444
▁volonté	-9.8151
absence	-9.81518
▁vont	-9.81559
▁fondateur	-9.81631
▁californie	-9.81672
où	-9.81728
▁distance	-9.81745
lia	-9.81748
pp	-9.81776
oï	-9.8181
▁mariage	-9.81827
ieux	-9.81836
▁conçu	-9.8198
▁noir	-9.82071
mettent	-9.82112
▁forêt	-9.82199
27	-9.82219
▁méthodes	-9.82407
tic	-9.82419
▁francs	-9.82447
décès	-9.82675
▁monnaie	-9.82689
▁religieuse	-9.8269
▁chiffre	-9.82719
▁réalise	-9.82777
60	-9.82802
▁ph	-9.82833
ice	-9.82852
▁publics	-9.82869
ann	-9.8289
▁professeur	-9.82904
▁console	-9.82941
▁chasse	-9.82954
▁couleurs	-9.8305
▁tient	-9.83109
▁défini	-9.83123
▁signé	-9.83172
étranger	-9.8318
▁renaissance	-9.8324
▁contraire	-9.83241
26	-9.83293
posant	-9.83307
▁franc	-9.834
▁fédération	-9.83403
▁numéro	-9.83404
▁connaissance	-9.83468
den	-9.83502
erie	-9.83545
▁parce	-9.83588
▁établi	-9.83628
▁2021	-9.83656
▁mesures	-9.83721
▁parties	-9.83777
off	-9.83813
nais	-9.8388
pierre	-9.83894
▁variété	-9.83899
▁veut	-9.83916
bé	-9.84005
ast	-9.84027
ff	-9.84049
ave	-9.84058
lauréat	-9.84124
▁bleu	-9.84233
ose	-9.84235
ép	-9.84365
33	-9.84409
95	-9.84553
▁bloc	-9.84589
▁derrière	-9.84605
▁2003	-9.84618
apparition	-9.84629
▁liée	-9.8472
▁cam	-9.84739
▁élus	-9.84766
abilité	-9.84771
▁contenu	-9.84856
▁tar	-9.84932
▁ir	-9.85011
rée	-9.85109
aille	-9.85188
▁frère	-9.85213
tour	-9.85237
▁situe	-9.85298
▁perte	-9.85339
saint	-9.85445
oux	-9.85551
▁traduction	-9.85577
▁interdit	-9.85596
▁passant	-9.85612
univers	-9.85614
▁pratiques	-9.85622
▁noyau	-9.85637
▁forment	-9.85642
▁manque	-9.85657
hon	-9.85664
▁gri	-9.85717
▁débat	-9.85726
ographie	-9.85755
▁armes	-9.85831
▁candidature	-9.85899
▁informations	-9.85938
▁ceci	-9.85994
▁table	-9.86035
▁freud	-9.86067
▁contact	-9.86068
▁philosophique	-9.86069
▁diffusion	-9.86073
sible	-9.86213
▁»).	-9.86229
▁conc	-9.86394
▁bat	-9.86399
▁salle	-9.8641
nis	-9.86481
viennent	-9.865
oppose	-9.8654
▁conquête	-9.86559
▁nobel	-9.86574
▁wa	-9.86582
pon	-9.86621
▁transports	-9.86639
nat	-9.86673
los	-9.86685
▁rive	-9.86761
▁suit	-9.86772
▁démocratique	-9.86806
▁maurice	-9.86806
illon	-9.86811
fait	-9.86827
▁neuf	-9.8683
venu	-9.86916
▁afrique	-9.86929
dou	-9.86983
▁ob	-9.87028
▁continu	-9.87036
honneur	-9.87054
auto	-9.87056
▁composition	-9.87059
▁idées	-9.87072
23	-9.87118
▁affirme	-9.87187
▁refuse	-9.87206
▁hé	-9.87224
▁quatrième	-9.87302
▁ed	-9.87332
▁carte	-9.87356
▁rien	-9.87366
▁ag	-9.87416
homo	-9.8743
▁violence	-9.87561
ulaire	-9.87691
assi	-9.87726
dit	-9.87747
35	-9.87825
▁réalisation	-9.87837
▁ter	-9.87893
pan	-9.87939
fond	-9.8794
▁gaule	-9.87976
▁universitaire	-9.8799
▁gr	-9.88073
▁urbaine	-9.88121
▁directeur	-9.88159
▁unies	-9.88178
▁influencé	-9.883
▁1997	-9.88303
▁mille	-9.88321
cra	-9.88458
▁britanniques	-9.88465
▁naturelles	-9.88532
▁ministère	-9.88552
▁issus	-9.88557
▁francisco	-9.88561
établissement	-9.88567
forme	-9.88605
22	-9.88614
▁sports	-9.88633
fiction	-9.88665
▁solution	-9.88804
▁branche	-9.88804
▁élément	-9.88912
▁?	-9.88915
▁romains	-9.88932
ren	-9.88954
▁poly	-9.88979
ell	-9.89051
▁février	-9.89056
net	-9.89091
▁écrits	-9.89133
▁romans	-9.89139
▁vendu	-9.89173
ition	-9.89204
▁viande	-9.8931
▁capital	-9.89324
55	-9.89331
estonie	-9.89335
▁album	-9.89513
▁stade	-9.89514
▁machine	-9.89563
ku	-9.89592
▁rural	-9.89609
ug	-9.89708
▁bro	-9.89716
▁ber	-9.89789
▁milliers	-9.89818
▁désert	-9.89852
▁découvert	-9.89869
▁tend	-9.89881
▁restent	-9.89884
▁élevée	-9.89884
atrice	-9.89903
aise	-9.89904
▁horus	-9.89927
ça	-9.89929
tage	-9.90077
▁graphique	-9.90078
▁canton	-9.90084
▁=	-9.90117
▁somme	-9.90117
▁valeurs	-9.90143
att	-9.90148
tz	-9.90177
tie	-9.9018
hor	-9.9019
▁mac	-9.90245
heure	-9.90267
▁comportement	-9.90306
▁démocratie	-9.90328
bourg	-9.90343
▁petites	-9.90343
▁poète	-9.9035
▁gare	-9.90362
▁scientifiques	-9.90395
99	-9.904
▁jules	-9.90438
▁organisation	-9.90505
ther	-9.90547
▁londres	-9.90585
▁1930	-9.90589
▁décor	-9.90603
▁obtenu	-9.90636
28	-9.90719
bri	-9.90792
bel	-9.90801
98	-9.90826
▁david	-9.90844
▁autorités	-9.90844
▁condition	-9.90887
▁collection	-9.9089
▁affaires	-9.90992
euses	-9.91023
omb	-9.91067
,6	-9.91075
ges	-9.91197
86	-9.91202
▁religions	-9.91234
ker	-9.91241
yn	-9.91309
▁han	-9.91325
▁chaud	-9.91353
▁poisson	-9.91358
ow	-9.91415
ani	-9.91495
enfant	-9.91518
)|	-9.91671
▁correspondant	-9.91674
▁voisin	-9.91696
▁remplacé	-9.91748
▁ouvert	-9.91768
édition	-9.91816
▁août	-9.91821
▁secrétaire	-9.91877
▁participe	-9.91897
line	-9.91967
ina	-9.91974
▁naturelle	-9.91984
pu	-9.91989
▁us	-9.92066
▁sp	-9.92114
roi	-9.92123
▁1992	-9.92141
▁citer	-9.92208
▁pape	-9.92227
56	-9.92324
▁mini	-9.92346
isent	-9.92369
▁naturels	-9.92391
by	-9.92415
▁martin	-9.92451
dr	-9.92453
opposition	-9.92597
▁microsoft	-9.9266
▁beau	-9.92733
▁différence	-9.92776
iennes	-9.9282
iel	-9.92832
39	-9.92869
▁territoriale	-9.92902
▁frontières	-9.92967
▁inf	-9.92987
issement	-9.92989
▁écrite	-9.9302
▁sert	-9.93038
zi	-9.93088
▁densité	-9.9319
ira	-9.93204
mm	-9.93209
lit	-9.93309
nie	-9.93331
ima	-9.93403
ord	-9.93532
▁majoritaire	-9.93548
▁candidats	-9.93644
▁carbone	-9.93715
▁collège	-9.93715
tsu	-9.93795
van	-9.93862
lis	-9.93876
▁maritime	-9.93969
▁mécanique	-9.93979
▁dû	-9.94018
,3	-9.94059
▁sacré	-9.9418
ida	-9.94188
pin	-9.94234
dor	-9.94316
▁recherches	-9.94341
▁modernes	-9.94369
▁origines	-9.94401
▁agricoles	-9.94491
cou	-9.94493
▁républicain	-9.94512
▁scénario	-9.94512
▁provoque	-9.94512
arabie	-9.94512
ky	-9.94539
▁entièrement	-9.94616
struct	-9.94642
▁communautés	-9.94673
▁ouvrage	-9.94707
autorité	-9.9474
▁dite	-9.94754
espèce	-9.94771
▁déclaration	-9.94793
gin	-9.94909
engage	-9.94952
rd	-9.94953
▁philosophe	-9.94984
▁connus	-9.95056
rin	-9.9516
gramme	-9.95161
ordinateur	-9.95285
utilis	-9.95312
▁dérivé	-9.95317
▁présidence	-9.95318
▁poursuit	-9.95335
▁henri	-9.95348
oy	-9.9542
▁programmes	-9.95472
▁(20	-9.95517
▁classé	-9.9553
impression	-9.95586
▁1994	-9.95588
▁los	-9.9559
▁abrite	-9.95597
▁xx	-9.95612
92	-9.958
▁cathédrale	-9.95856
marie	-9.95879
nés	-9.95955
▁développée	-9.95986
▁déroule	-9.95997
▁mythologie	-9.96127
irlande	-9.96129
▁touristique	-9.9614
▁pied	-9.96174
agne	-9.9633
▁basé	-9.96373
▁bus	-9.96537
▁rares	-9.96573
▁lien	-9.96594
app	-9.9664
%	-9.96671
élevage	-9.96676
habitants	-9.96677
▁contraint	-9.96678
▁visite	-9.96729
▁change	-9.96744
93	-9.96749
▁coll	-9.96881
▁capable	-9.96918
islam	-9.96983
▁présenté	-9.97001
▁projets	-9.97028
▁jeunesse	-9.97054
fin	-9.97054
▁réseaux	-9.97087
▁parlementaire	-9.97168
▁effets	-9.97209
▁trente	-9.97231
▁mil	-9.97239
53	-9.97258
▁familles	-9.97311
aut	-9.97343
▁route	-9.97387
bil	-9.97393
arn	-9.97426
atmosphère	-9.97493
▁effectué	-9.97493
▁1,	-9.97519
▁régionales	-9.97526
vert	-9.97664
artiste	-9.97674
▁utiliser	-9.97689
▁grave	-9.97745
▁domination	-9.97769
▁concert	-9.97774
▁menace	-9.97779
▁consacré	-9.97783
ura	-9.97787
47	-9.97788
▁tableau	-9.97788
▁village	-9.97808
so	-9.97961
▁divinités	-9.98001
▁ben	-9.98021
▁inscrit	-9.98022
dy	-9.98038
évêque	-9.98045
▁respectivement	-9.98045
▁wittgenstein	-9.98045
▁voies	-9.98046
▁volume	-9.98047
personnalité	-9.98066
▁auto	-9.98129
▁rhône	-9.98162
▁courants	-9.98252
▁gaulois	-9.98322
▁angeles	-9.98323
dame	-9.98328
mal	-9.98335
az	-9.98345
▁eaux	-9.98393
▁urbain	-9.98503
ō	-9.98577
▁proximité	-9.986
▁âgé	-9.986
▁réalisée	-9.98649
▁européennes	-9.98653
bl	-9.98666
66	-9.98775
▁tur	-9.98784
eaux	-9.98796
▁reprises	-9.98797
avant	-9.98828
▁pétrole	-9.98878
▁statue	-9.9888
42	-9.98906
▁80	-9.98916
▁propriété	-9.98947
mus	-9.98989
▁actions	-9.99007
▁équipe	-9.99039
▁2020	-9.99101
vol	-9.99125
▁pouvant	-9.99158
▁olympique	-9.9924
▁bra	-9.9939
▁utilisent	-9.99403
ime	-9.99429
▁disparu	-9.99439
tisme	-9.99469
exemple	-9.99488
▁action	-9.99553
▁portugais	-9.99605
▁réel	-9.99616
années	-9.9968
char	-9.99697
70	-9.99732
arrêt	-9.99764
▁repose	-9.99812
table	-9.9996
▁cérémonie	-10
46	-10.0003
atoire	-10.0004
▁heures	-10.0009
▁pièce	-10.0011
▁lit	-10.0012
wi	-10.0013
88	-10.0023
58	-10.0025
▁feu	-10.0026
▁évoque	-10.0028
rt	-10.0029
▁recensement	-10.003
▁app	-10.0032
▁relief	-10.0032
▁conte	-10.004
▁utilisées	-10.0041
▁nomme	-10.0041
▁inspiré	-10.0043
pour	-10.0048
▁précédent	-10.0049
humanité	-10.0057
▁rois	-10.006
▁rep	-10.006
▁foi	-10.0064
zo	-10.0066
▁thé	-10.0067
mann	-10.0068
î	-10.0081
▁modèles	-10.0084
▁dépasse	-10.0085
èvre	-10.0086
_1	-10.0089
▁classes	-10.0092
▁chrétienne	-10.0093
▁fête	-10.0099
▁armées	-10.01
argentine	-10.0112
▁gre	-10.0115
▁constituée	-10.0118
▁côtés	-10.0124
▁image	-10.0126
▁local	-10.0128
▁congo	-10.013
▁menée	-10.0131
▁terrestre	-10.0132
▁vice	-10.0134
▁favorable	-10.0142
▁rythme	-10.0142
▁autonome	-10.0142
▁1993	-10.0142
▁réaliser	-10.016
▁charlemagne	-10.0171
▁trouvé	-10.0172
alisme	-10.0179
lique	-10.0179
stra	-10.0183
ith	-10.0184
▁dehors	-10.0187
▁tours	-10.0193
▁mono	-10.0199
▁internationales	-10.0199
▁1988	-10.02
▁conscience	-10.0201
nisme	-10.0201
▁publiée	-10.0202
exécution	-10.0206
oire	-10.0206
alliance	-10.021
script	-10.0211
▁particulière	-10.0213
▁présents	-10.0215
▁récit	-10.022
▁conserve	-10.022
ev	-10.0223
▁amérique	-10.0235
▁climatique	-10.0235
▁collaboration	-10.024
▁artificielle	-10.0243
roy	-10.0246
▁françaises	-10.0247
▁limites	-10.0247
▁reprend	-10.0251
▁dirigé	-10.0255
▁lesquelles	-10.0257
▁wi	-10.0257
▁occupe	-10.0262
▁test	-10.0269
▁mus	-10.0281
76	-10.0281
▁appelés	-10.0282
51	-10.0286
▁péninsule	-10.0286
▁christianisme	-10.0288
▁nil	-10.0289
▁journaliste	-10.0289
cer	-10.0299
▁aspects	-10.03
▁officiel	-10.03
▁noire	-10.0306
▁quitte	-10.0308
▁conséquence	-10.0308
▁annuelle	-10.0309
▁administrative	-10.0309
▁séparé	-10.0315
ans	-10.0316
▁revient	-10.0318
▁sta	-10.033
▁luc	-10.0331
▁davantage	-10.0335
mod	-10.0337
▁william	-10.0344
▁poids	-10.0345
vie	-10.0347
▁alain	-10.0349
▁lu	-10.0349
dic	-10.0362
lus	-10.0368
trice	-10.0371
▁isis	-10.0372
bit	-10.0376
▁désir	-10.038
▁relative	-10.0389
38	-10.039
là	-10.0399
▁stratégie	-10.0403
▁médecine	-10.0403
atique	-10.0407
din	-10.0411
▁gou	-10.0414
▁60	-10.0414
▁comte	-10.0417
▁unités	-10.0419
▁dépend	-10.0426
▁chanson	-10.043
▁discipline	-10.043
▁demi	-10.0431
▁club	-10.0432
ries	-10.0433
ifier	-10.0434
▁quantique	-10.0437
▁diversité	-10.0439
▁joueur	-10.044
|*|	-10.0441
ick	-10.0444
▁administration	-10.0447
loire	-10.0449
97	-10.0453
▁ligue	-10.0454
▁sorti	-10.0457
▁caen	-10.046
▁thème	-10.0461
auvergne	-10.0462
▁budget	-10.0462
▁document	-10.0468
▁cités	-10.0469
▁raisons	-10.0471
▁quartiers	-10.0478
▁inde	-10.048
▁u	-10.0481
▁issu	-10.0483
▁auteur	-10.0485
▁besoin	-10.0491
▁pouvait	-10.0491
▁ouverte	-10.0492
▁principes	-10.0492
▁règle	-10.0495
▁resté	-10.0508
▁0,	-10.0511
▁niveaux	-10.0512
▁multiples	-10.0514
▁montagne	-10.0517
▁répond	-10.0518
kar	-10.0525
68	-10.0527
37	-10.0527
▁revenus	-10.0528
deux	-10.0529
fort	-10.0531
▁accepte	-10.0533
▁dia	-10.0537
▁vent	-10.0541
fo	-10.0545
▁condamné	-10.0551
▁saoudite	-10.0551
▁seigneur	-10.0551
we	-10.0554
▁actuel	-10.0556
▁station	-10.0569
▁train	-10.0569
▁circonscription	-10.0581
alphabet	-10.0581
▁sensible	-10.0581
▁pologne	-10.0581
▁article	-10.0581
▁1920	-10.0582
▁définit	-10.0583
▁noter	-10.0586
▁fonctionnement	-10.0597
application	-10.0599
▁environnement	-10.0611
▁images	-10.0611
▁sang	-10.0615
avait	-10.0616
▁ford	-10.0631
43	-10.0632
▁contient	-10.0641
▁simplement	-10.0646
ï	-10.0646
▁chrétiens	-10.0652
▁spécifique	-10.066
▁marche	-10.0663
culture	-10.0664
▁pôle	-10.0667
▁produire	-10.0671
▁théorique	-10.0671
▁hauteur	-10.0675
▁perse	-10.0677
▁fé	-10.0682
▁quart	-10.0684
▁tom	-10.0689
▁tente	-10.069
▁ère	-10.07
▁prennent	-10.0701
▁1991	-10.0701
▁construite	-10.0702
▁client	-10.0704
▁néerlandais	-10.0708
▁gros	-10.0716
▁couple	-10.0724
ada	-10.0724
oph	-10.0727
▁|	-10.0729
▁osiris	-10.0729
▁1981	-10.0732
▁21	-10.0734
▁million	-10.074
▁richesse	-10.0743
ace	-10.0744
▁mathématiques	-10.0752
▁évolue	-10.076
▁judiciaire	-10.0762
▁programmation	-10.0762
archipel	-10.0762
▁participation	-10.0762
argument	-10.0762
▁former	-10.0763
▁fonctionne	-10.0767
▁lyon	-10.0767
gène	-10.0771
celle	-10.0772
▁contrat	-10.0779
ight	-10.0788
ep	-10.079
▁seraient	-10.0792
▁démographique	-10.0792
▁questions	-10.0792
▁sélection	-10.0793
▁devait	-10.0796
asse	-10.0796
mettant	-10.0797
▁technologie	-10.0808
▁proposé	-10.0811
▁sainte	-10.0812
▁visible	-10.0825
ern	-10.0825
▁fourni	-10.0826
▁suffrages	-10.0834
▁alliés	-10.0839
▁pr	-10.0841
▁portant	-10.0842
era	-10.0843
hy	-10.0845
▁populaires	-10.0848
▁liens	-10.0852
▁événements	-10.0856
87	-10.086
▁intégré	-10.0861
▁24	-10.0863
▁vend	-10.0865
ît	-10.0882
▁commande	-10.0885
▁révolutionnaire	-10.0886
▁2015,	-10.0895
press	-10.0895
81	-10.0896
▁caractérise	-10.0904
▁latine	-10.0904
▁italie	-10.0905
rg	-10.0911
aine	-10.0912
▁pacifique	-10.0915
▁1945	-10.0915
▁canada	-10.0916
▁métaux	-10.0916
▁forêts	-10.0917
▁th	-10.0927
▁conserva	-10.093
iff	-10.0934
dés	-10.0937
ture	-10.0938
▁successeur	-10.0946
▁1940	-10.0947
▁disposition	-10.0948
▁réussi	-10.0952
▁ait	-10.0954
52	-10.0955
▁ouvrages	-10.096
▁pur	-10.0971
▁satellites	-10.0975
sol	-10.0977
▁légende	-10.0977
▁pétain	-10.0978
▁dire	-10.0979
▁compose	-10.0982
▁ger	-10.0983
▁lac	-10.0984
49	-10.0992
▁laisse	-10.0995
▁existent	-10.0996
aff	-10.0998
mètre	-10.1004
▁maintenant	-10.1008
▁défaite	-10.1008
▁alimentaire	-10.1009
▁1996	-10.1009
▁1989	-10.1009
67	-10.101
mond	-10.1014
arménie	-10.1018
▁précis	-10.1019
▁régionale	-10.1024
▁sièges	-10.1025
*	-10.1028
72	-10.1029
phe	-10.1029
▁suivantes	-10.103
bar	-10.1031
▁ton	-10.1035
▁classification	-10.104
▁déclaré	-10.104
▁1986	-10.104
▁obtenir	-10.1049
▁essai	-10.1051
rec	-10.1054
▁vague	-10.1056
▁espagnole	-10.1067
exception	-10.1068
▁protocole	-10.1071
niste	-10.1077
84	-10.1081
logie	-10.1085
ken	-10.1085
▁disponibles	-10.1086
64	-10.1086
▁secondaires	-10.1087
▁ciel	-10.1094
▁phrase	-10.1102
▁degré	-10.1106
illi	-10.1106
▁classement	-10.1112
▁comté	-10.1114
▁députés	-10.1117
▁augmentation	-10.1132
▁destinée	-10.1134
▁juridique	-10.1134
▁gl	-10.1135
▁fixe	-10.1136
isa	-10.1138
▁servi	-10.1147
élément	-10.1148
affaire	-10.1148
▁cinquième	-10.1153
▁églises	-10.1157
ayant	-10.1164
angleterre	-10.1165
▁ferroviaire	-10.1166
▁mélange	-10.1166
▁comptait	-10.1166
▁jardin	-10.1166
▁corse	-10.1168
▁moteur	-10.1173
▁disc	-10.118
parti	-10.1181
zu	-10.1181
pen	-10.1188
pul	-10.1191
▁bill	-10.1191
▁hor	-10.1196
gén	-10.1202
▁structures	-10.121
▁albert	-10.1213
ini	-10.1213
▁organisations	-10.122
étant	-10.1226
▁allemagne	-10.1227
my	-10.1228
61	-10.1229
▁funéraire	-10.1229
▁nicolas	-10.1229
▁touche	-10.1231
cons	-10.1231
alger	-10.1232
pha	-10.1238
▁rê	-10.1243
▁mat	-10.1244
▁majeur	-10.1249
▁origine	-10.125
▁refus	-10.1251
▁liés	-10.1253
▁responsable	-10.1257
▁pouvoirs	-10.1266
▁2020,	-10.127
ham	-10.1274
▁juifs	-10.1278
▁privée	-10.1278
▁joué	-10.1286
jeu	-10.1288
ède	-10.129
▁fréquence	-10.1293
▁relève	-10.1293
▁titres	-10.1293
▁hiver	-10.1301
▁devint	-10.1302
▁bel	-10.1306
▁vente	-10.1308
appel	-10.131
ray	-10.1318
48	-10.1323
▁apparaissent	-10.1325
▁symbolique	-10.1325
▁indépendante	-10.1325
▁besoins	-10.1326
▁score	-10.1327
osiris	-10.1327
▁apporte	-10.1329
▁rené	-10.1336
▁opposition	-10.1336
indi	-10.1339
ras	-10.1345
▁dessinée	-10.1349
▁trafic	-10.1358
36	-10.1359
expérience	-10.136
▁fleur	-10.136
venir	-10.1363
▁hautes	-10.1366
▁épi	-10.1368
ements	-10.137
▁tenu	-10.1374
78	-10.1384
▁visant	-10.1385
▁minorité	-10.139
▁rejoint	-10.139
isis	-10.139
▁1974	-10.139
▁secteurs	-10.1395
▁andré	-10.1396
mine	-10.1397
▁établissements	-10.1399
▁contemporaine	-10.1413
▁sols	-10.1413
▁bout	-10.142
▁récemment	-10.1422
▁spectacle	-10.1422
▁suprême	-10.1422
▁preuve	-10.1422
▁opposé	-10.1422
▁rituel	-10.1423
▁transformation	-10.1423
gl	-10.143
▁king	-10.143
▁dynamique	-10.1436
▁commencé	-10.1437
▁lancé	-10.1439
90	-10.1446
oli	-10.1446
▁placé	-10.1447
historien	-10.1449
▁réflexion	-10.1455
▁auparavant	-10.1455
▁gratuit	-10.1455
▁secret	-10.1455
écrit	-10.1465
83	-10.1468
▁milieux	-10.1469
▁personnelle	-10.1478
▁propriétés	-10.148
▁mit	-10.148
▁centaines	-10.1484
▁présenter	-10.1486
▁tôt	-10.1488
bour	-10.1489
▁associé	-10.1491
▁espace	-10.1493
▁mythe	-10.1493
▁conflits	-10.1493
venant	-10.1493
objectif	-10.1494
▁représentée	-10.1496
nique	-10.1498
▁ferme	-10.1499
45	-10.1503
▁parallèle	-10.1504
père	-10.1507
▁préfecture	-10.1508
▁jouer	-10.151
▁difficultés	-10.1512
▁chili	-10.1512
intéresse	-10.1513
ologue	-10.1516
▁douze	-10.1521
▁chiffres	-10.1521
américain	-10.1521
▁cartes	-10.1522
▁regard	-10.1523
▁floride	-10.1524
mêmes	-10.1525
occident	-10.1526
▁constitutionnel	-10.1539
▁phénomènes	-10.1552
▁révèle	-10.1553
▁documents	-10.1555
▁plein	-10.1556
▁logo	-10.1557
tifs	-10.1558
effet	-10.1568
gué	-10.157
▁empereur	-10.1573
▁morts	-10.1575
cc	-10.1576
▁pc	-10.1579
▁utilisation	-10.1581
▁pic	-10.1582
▁portugal	-10.1586
▁licence	-10.1586
▁section	-10.1587
89	-10.1592
▁norme	-10.1594
▁étape	-10.1597
▁citoyens	-10.1598
onu	-10.1603
garonne	-10.1617
▁construire	-10.1619
▁efficace	-10.1619
▁nîmes	-10.1619
▁puissant	-10.162
▁em	-10.1622
▁personnalités	-10.1626
▁lecteur	-10.1626
▁fusion	-10.1627
▁liaison	-10.1629
▁vir	-10.1633
guerre	-10.1634
écart	-10.1635
▁divinité	-10.1637
▁abouti	-10.1638
▁libération	-10.1641
▁pêche	-10.1645
shin	-10.1649
▁financier	-10.1653
▁travaille	-10.1654
▁cr	-10.1657
allemand	-10.1661
44	-10.1662
41	-10.1675
▁puisse	-10.1678
▁humaines	-10.1681
utiliser	-10.1681
29	-10.1682
mère	-10.1688
urss	-10.1689
▁fe	-10.1692
▁).	-10.1696
▁rivière	-10.1698
▁george	-10.1698
pre	-10.1707
▁tor	-10.1709
âme	-10.1714
▁22	-10.1715
cus	-10.1716
▁opérations	-10.172
▁décret	-10.1721
▁puisqu	-10.1732
▁proportion	-10.1744
69	-10.1746
accueil	-10.1754
▁biologique	-10.1754
tée	-10.1762
ivité	-10.1763
79	-10.177
mou	-10.1771
▁publiques	-10.1773
▁allant	-10.1777
▁impériale	-10.1785
▁organise	-10.1785
▁germanique	-10.1787
▁manifeste	-10.1787
autriche	-10.1787
▁1972	-10.1787
▁réduit	-10.1793
habitat	-10.1793
▁augmente	-10.1797
▁procédé	-10.1802
▁appartena	-10.1807
▁aff	-10.1807
▁récente	-10.1811
▁souhaite	-10.1812
▁annoncé	-10.182
▁engagé	-10.1821
▁bras	-10.183
▁départemental	-10.1831
▁égyptiens	-10.1832
pol	-10.1834
▁riz	-10.1835
inverse	-10.1836
▁complète	-10.1838
▁versions	-10.184
74	-10.1841
▁vieux	-10.1843
▁semi	-10.1848
▁architecture	-10.1849
▁montré	-10.185
▁traditions	-10.1851
▁cé	-10.1854
▁religieuses	-10.1854
▁métropole	-10.1854
▁monarchie	-10.1854
▁génétique	-10.1855
▁termine	-10.1855
▁outils	-10.1858
position	-10.1862
one	-10.1868
▁considérable	-10.187
uk	-10.187
▁monuments	-10.1877
▁radical	-10.1879
▁dirige	-10.1884
▁cru	-10.1886
▁complément	-10.1888
▁concurrence	-10.1888
▁photographie	-10.1889
▁directe	-10.1889
▁thèmes	-10.189
èse	-10.1892
75	-10.1898
▁connaître	-10.1903
▁réunion	-10.1908
anni	-10.1909
ski	-10.1911
▁école	-10.1913
grand	-10.1919
▁réponse	-10.1922
▁catégories	-10.1925
insee	-10.1926
▁gard	-10.1934
▁chose	-10.1949
▁ici	-10.195
▁député	-10.1951
puis	-10.1951
introduction	-10.1957
▁dinosaures	-10.1957
▁parvient	-10.1957
▁sénat	-10.1958
resse	-10.1959
▁joseph	-10.1961
ennemi	-10.1963
phy	-10.1966
▁parole	-10.1967
▁%.	-10.1968
cap	-10.1969
chu	-10.197
▁fonds	-10.1972
▁lié	-10.1973
▁atteindre	-10.1974
assa	-10.1974
▁chacune	-10.1979
96	-10.1981
▁sy	-10.1982
appareil	-10.1984
▁montrent	-10.1985
▁secondaire	-10.1991
▁équipes	-10.1995
nière	-10.1997
▁souhait	-10.1999
▁%).	-10.2003
▁rassemble	-10.2018
▁remarquable	-10.2026
▁initialement	-10.2035
anti	-10.2037
▁producteur	-10.2038
isées	-10.2038
▁iso	-10.2039
▁axe	-10.204
▁fréquent	-10.2043
▁ordinateurs	-10.2044
▁bâtiments	-10.2048
▁flo	-10.2057
▁prison	-10.2059
ost	-10.2059
▁protégé	-10.206
▁chirac	-10.2061
▁trait	-10.2062
phi	-10.2065
igné	-10.2071
alpes	-10.2074
▁match	-10.2079
▁énergie	-10.2088
▁disparition	-10.2095
▁kurosawa	-10.2095
▁reconnaissance	-10.2096
office	-10.2096
las	-10.2097
pas	-10.21
▁subi	-10.2108
▁particules	-10.2116
▁euro	-10.2117
organisme	-10.2124
dans	-10.2127
▁hitchcock	-10.2131
▁biographie	-10.2132
▁bases	-10.2133
acte	-10.2133
▁éditions	-10.2135
▁chefs	-10.2139
▁chimie	-10.214
ps	-10.2143
▁plat	-10.2146
▁comm	-10.2147
gna	-10.2154
instruction	-10.2158
▁montagnes	-10.2164
apprentissage	-10.2165
▁enregistré	-10.2165
▁thèse	-10.2165
▁étudiants	-10.2166
▁chercheurs	-10.2167
oir	-10.2171
▁débit	-10.2171
▁définitivement	-10.2172
▁précédente	-10.2176
▁viol	-10.2177
bat	-10.2178
▁comprendre	-10.2179
▁marc	-10.218
▁attribué	-10.2181
▁trou	-10.2184
▁air	-10.2193
▁claude	-10.2194
91	-10.2195
▁maladie	-10.2195
ller	-10.2196
▁réduire	-10.22
▁pluie	-10.22
▁transition	-10.2205
▁contribue	-10.2207
▁gal	-10.2209
lieu	-10.2212
▁morale	-10.2214
▁reprise	-10.2218
ième	-10.2218
▁boy	-10.222
▁routes	-10.2237
▁plateau	-10.2238
▁basée	-10.2244
altitude	-10.2256
▁couche	-10.2257
▁james	-10.2258
▁musicale	-10.226
▁course	-10.2263
▁adopté	-10.2267
ei	-10.2267
▁reconnue	-10.227
▁bouddhisme	-10.227
▁polonais	-10.227
▁1985	-10.2271
▁hausse	-10.2271
▁héros	-10.2272
▁int	-10.2276
ado	-10.2279
▁divisé	-10.2291
▁indépendance	-10.2299
▁hongrois	-10.2299
▁crois	-10.2303
▁concentration	-10.2306
▁fabrication	-10.2306
▁progrès	-10.2306
▁sénégal	-10.2306
▁détruit	-10.2306
▁attribue	-10.2306
▁description	-10.2306
▁1975	-10.2306
▁gaulle	-10.2307
▁application	-10.2311
▁game	-10.2317
▁acteurs	-10.2319
▁fn	-10.2319
▁plantes	-10.2319
▁qualifie	-10.232
▁zo	-10.2322
▁pri	-10.2323
▁méditerranée	-10.2326
attaque	-10.2328
▁technologies	-10.233
èle	-10.2333
▁macarthur	-10.2341
espéranto	-10.2341
▁windows	-10.2342
▁applications	-10.2351
rich	-10.2354
▁italienne	-10.2354
kan	-10.2355
▁four	-10.2356
▁ap	-10.236
gie	-10.236
▁enseignement	-10.2361
▁ét	-10.2374
▁deviennent	-10.2375
▁suivants	-10.2375
▁totalement	-10.2376
▁potentiel	-10.2376
▁cercle	-10.2377
opinion	-10.2378
▁nationaux	-10.238
▁arrondissement	-10.2383
▁max	-10.239
▁représentations	-10.2393
▁soi	-10.2404
▁distinction	-10.2413
▁espaces	-10.2426
▁ps	-10.2432
tis	-10.2435
nage	-10.2436
▁champion	-10.2436
échange	-10.2438
▁importance	-10.244
affaires	-10.2441
▁décennies	-10.2444
▁at	-10.2447
▁moindre	-10.245
▁papier	-10.2452
|*	-10.2452
▁édition	-10.2459
▁notable	-10.2462
marne	-10.2468
new	-10.247
▁universelle	-10.2473
essentiel	-10.2474
▁varie	-10.2485
▁plats	-10.2486
▁répartition	-10.2487
horus	-10.2488
▁portée	-10.2488
▁humide	-10.249
▁progress	-10.2496
▁composés	-10.2498
opéra	-10.2498
ites	-10.25
indre	-10.2503
▁objectif	-10.2515
▁ke	-10.2515
▁1982	-10.2521
▁1979	-10.2522
▁abandonné	-10.2522
quant	-10.2527
▁19	-10.253
▁milliards	-10.2532
tta	-10.2538
▁ouvre	-10.2538
▁assure	-10.255
raient	-10.2555
▁fédéral	-10.2557
équilibre	-10.2558
▁substance	-10.2558
rier	-10.2559
▁cannes	-10.2562
▁mène	-10.2565
bal	-10.2567
...).	-10.2568
▁100	-10.2571
▁bretagne	-10.2579
▁majoritairement	-10.258
▁nation	-10.2582
▁',	-10.2582
▁fidèle	-10.2594
▁concours	-10.2594
aménagement	-10.2594
▁fruits	-10.2598
▁professionnels	-10.2603
▁record	-10.2604
mas	-10.2606
▁nationales	-10.2608
▁équivalent	-10.2609
▁plaine	-10.2611
▁accès	-10.2618
▁réussit	-10.2624
hen	-10.2625
▁unité	-10.263
▁bosnie	-10.2631
▁championnat	-10.2631
▁transmission	-10.2632
▁décidé	-10.2638
▁extension	-10.2638
antes	-10.2647
▁indien	-10.265
-18	-10.2653
informatique	-10.2659
▁villages	-10.2664
ame	-10.2667
▁poésie	-10.2667
▁molière	-10.2668
luc	-10.2669
log	-10.267
▁concentre	-10.2671
▁porté	-10.2674
lig	-10.2679
▁côtes	-10.2686
▁pyrénées	-10.269
▁soumis	-10.2693
▁bâtiment	-10.2694
af	-10.2699
▁féminin	-10.2701
institution	-10.2704
▁ouvrière	-10.2704
▁révolte	-10.2704
▁modification	-10.2704
▁considérés	-10.2706
▁bernard	-10.2706
▁orbite	-10.2709
▁tim	-10.2712
▁armée	-10.2713
▁manifestations	-10.2714
ish	-10.2716
lay	-10.2725
▁eut	-10.2735
atlantique	-10.2736
▁tournée	-10.274
▁adaptation	-10.274
▁domine	-10.2746
▁studio	-10.2757
▁chapelle	-10.2759
▁gen	-10.2763
▁liées	-10.2764
▁enfant	-10.2765
▁fla	-10.2767
▁cher	-10.2773
▁circuit	-10.2779
idéologie	-10.2779
▁écologique	-10.2779
▁1968	-10.2779
▁racine	-10.2779
▁interprétation	-10.2779
▁espèce	-10.2783
▁dédié	-10.2785
▁guinée	-10.2789
▁étrangères	-10.2789
▁0	-10.279
▁limité	-10.2793
embl	-10.2794
inspire	-10.2796
▁arabe	-10.2802
axe	-10.2805
▁travailler	-10.2809
▁lancement	-10.281
ves	-10.2812
mit	-10.2815
▁danemark	-10.2816
▁associée	-10.2817
▁arrêté	-10.2822
▁célèbres	-10.2823
▁riches	-10.2824
not	-10.283
seine	-10.2834
▁entend	-10.2841
tribu	-10.2841
▁vise	-10.2842
fou	-10.2843
▁tire	-10.2844
▁conservé	-10.2848
▁io	-10.2849
▁littoral	-10.2853
▁souligne	-10.2854
▁amis	-10.2862
▁pre	-10.2865
uit	-10.2866
▁aérienne	-10.2868
bus	-10.287
▁far	-10.287
▁disponible	-10.2873
ria	-10.2876
01	-10.2879
▁viv	-10.288
▁spatiale	-10.288
▁rock	-10.2881
▁représenter	-10.2882
alisation	-10.2884
▁apport	-10.2885
▁couvert	-10.2889
▁centres	-10.289
▁étudié	-10.2891
▁belle	-10.2894
▁musulmans	-10.2895
▁vite	-10.2895
▁atlantique	-10.2897
lette	-10.2899
accompagne	-10.2903
œ	-10.2908
▁représentants	-10.2911
▁steve	-10.2913
tier	-10.2916
▁gén	-10.2916
)"	-10.2917
▁prises	-10.2917
▁bob	-10.2923
▁désigné	-10.2925
adresse	-10.2926
▁fréquemment	-10.2929
▁remporté	-10.2929
▁signature	-10.2929
▁faisait	-10.2929
▁tourne	-10.2931
▁parents	-10.2938
▁pure	-10.2943
ibilité	-10.2946
▁théories	-10.2953
▁exemples	-10.2953
▁primaire	-10.2954
▁acquis	-10.2959
▁courte	-10.296
imi	-10.2962
▁universités	-10.2963
individu	-10.2965
▁pense	-10.2965
▁luxembourg	-10.2966
exercice	-10.2967
▁concurrent	-10.2967
▁constituant	-10.2967
▁laboratoire	-10.2967
▁responsabilité	-10.2967
alcool	-10.2967
▁conséquences	-10.2976
ppe	-10.2977
▁intitulé	-10.2981
▁impact	-10.2986
gr	-10.2986
▁exp	-10.299
▁connues	-10.2992
▁attaque	-10.2998
icité	-10.2999
interprétation	-10.3004
▁nécessite	-10.3005
▁retrouvé	-10.3005
▁coopération	-10.3008
31	-10.3011
▁municipal	-10.3012
▁asie	-10.3013
▁lorraine	-10.3014
ades	-10.3027
▁dure	-10.3028
égalité	-10.3029
▁processeur	-10.303
▁arm	-10.3034
▁concepts	-10.3035
▁jan	-10.3039
▁détail	-10.3041
▁intérieur	-10.3042
▁mécanisme	-10.3043
▁séjour	-10.3043
▁henry	-10.3043
notamment	-10.3043
▁occupé	-10.3044
▁tournage	-10.3046
▁organisé	-10.3049
ft	-10.3051
▁recettes	-10.3053
▁sexe	-10.3058
▁égyptien	-10.3059
▁blanche	-10.3066
▁limitée	-10.3066
▁étrangère	-10.307
ingénieur	-10.3074
▁donnée	-10.3074
▁fondamentale	-10.3076
anc	-10.3076
▁obligatoire	-10.3081
▁printemps	-10.3081
▁procès	-10.3081
▁1983	-10.3082
▁linéaire	-10.3082
horizon	-10.3082
▁constante	-10.3084
étaient	-10.3092
▁adopte	-10.3096
▁ordinateur	-10.3104
▁alliance	-10.3106
▁manga	-10.3106
ué	-10.3113
▁températures	-10.3118
▁internationaux	-10.312
▁kilomètres	-10.312
▁sœur	-10.312
94	-10.312
▁mayenne	-10.312
▁renaud	-10.3121
orge	-10.3123
▁précision	-10.3125
▁échanges	-10.3127
▁déco	-10.3127
▁découvre	-10.3129
▁entrée	-10.3131
32	-10.3142
▁27	-10.3142
rio	-10.3145
▁flore	-10.3149
▁financière	-10.315
▁référendum	-10.3158
▁démographie	-10.3158
▁psychologie	-10.3159
▁baie	-10.316
▁laissé	-10.3162
73	-10.3175
▁duc	-10.3177
▁présentent	-10.3182
▁carré	-10.3183
▁vert	-10.3193
▁byzantin	-10.3197
▁consacre	-10.3197
adversaire	-10.3197
▁sûr	-10.3198
▁bourg	-10.3198
atome	-10.3198
▁serveur	-10.3207
nk	-10.3207
▁occasion	-10.3208
▁récits	-10.321
▁chimique	-10.3215
▁champs	-10.3215
▁salles	-10.3218
denis	-10.3219
▁dirigeants	-10.322
euro	-10.3221
dique	-10.3221
▁frères	-10.3223
▁accueilli	-10.3227
▁canal	-10.3227
0,	-10.3228
▁froide	-10.3229
▁catholiques	-10.3235
▁limousin	-10.3236
▁1973	-10.3236
▁figur	-10.3245
▁musical	-10.3247
▁codes	-10.3249
▁couvre	-10.3249
▁divisée	-10.3252
ajout	-10.3264
lou	-10.3265
▁médaille	-10.3271
▁habitant	-10.3271
▁bronze	-10.3275
▁tribunal	-10.3275
▁augmenté	-10.3275
nor	-10.3275
▁travailleurs	-10.3276
▁exerce	-10.3277
film	-10.328
mort	-10.3282
▁vivre	-10.3284
▁nombres	-10.3302
ige	-10.3302
▁île	-10.3305
▁estonien	-10.3307
▁yeux	-10.3313
▁restauration	-10.3314
▁hommage	-10.3315
docteur	-10.3317
gy	-10.3322
▁gnu	-10.3322
▁entreprise	-10.3324
offre	-10.3326
quet	-10.3329
ich	-10.3331
▁mary	-10.334
▁vrai	-10.3341
▁quotidien	-10.3343
actuelle	-10.335
▁espagnols	-10.3352
▁similaire	-10.3352
▁trône	-10.3353
▁scolaire	-10.3354
▁basket	-10.3355
▁articles	-10.3362
▁distinguer	-10.3362
▁page	-10.3363
▁changements	-10.3364
ax	-10.3369
ram	-10.3371
▁catégorie	-10.3371
trait	-10.3371
yer	-10.3373
▁cesse	-10.3376
voient	-10.3376
▁ministres	-10.3386
▁fri	-10.3387
▁naît	-10.3389
▁café	-10.3391
▁doctrine	-10.3393
▁tokyo	-10.3393
▁pauvreté	-10.3394
▁militants	-10.3396
▁écran	-10.3398
▁échange	-10.3399
▁association	-10.3399
▁adapté	-10.3401
▁historiens	-10.3401
▁rayon	-10.3409
fec	-10.3414
▁différences	-10.3415
▁envers	-10.3418
▁divin	-10.3421
▁colonisation	-10.3433
▁volontaire	-10.3433
▁existant	-10.3433
rage	-10.3433
▁color	-10.3435
▁massive	-10.3436
▁donnent	-10.3438
▁défi	-10.3439
album	-10.3441
just	-10.3444
▁réformes	-10.3447
▁quel	-10.3449
▁sauf	-10.3449
lio	-10.3449
▁défend	-10.3452
▁inférieur	-10.3456
▁apparu	-10.3457
angle	-10.3465
▁chômage	-10.3473
▁promotion	-10.3473
▁finlande	-10.3473
▁succession	-10.3473
▁vérité	-10.3473
▁journée	-10.3478
▁gouverneur	-10.3478
ling	-10.3479
issue	-10.3482
hn	-10.3483
▁sujets	-10.3487
▁gui	-10.3488
rid	-10.3489
flu	-10.3489
▁reg	-10.349
rer	-10.3492
▁définir	-10.3492
œil	-10.3495
gel	-10.3498
▁peuplée	-10.3502
▁rêve	-10.3502
▁régulière	-10.3503
▁expérience	-10.3505
▁soul	-10.3506
▁hauts	-10.3507
▁26	-10.351
▁classiques	-10.351
▁comparaison	-10.3513
▁consommé	-10.3513
▁giscard	-10.3513
▁véhicule	-10.3513
▁richard	-10.3513
▁attesté	-10.3513
▁1984	-10.3513
▁christ	-10.3515
▁envoyé	-10.3515
opération	-10.3522
▁comédie	-10.3524
ignon	-10.3524
▁rarement	-10.3528
sti	-10.3531
▁servir	-10.3535
▁semaines	-10.3536
uz	-10.3537
▁iii	-10.3539
algérie	-10.3548
▁lib	-10.3548
utilisateur	-10.3552
▁modifié	-10.3553
▁céleste	-10.3553
▁1978	-10.3553
▁ethnique	-10.3553
installe	-10.356
▁confirme	-10.3562
▁individus	-10.3563
président	-10.3563
▁créateur	-10.3565
▁espagnol	-10.3573
▁aide	-10.3573
▁écrire	-10.3574
égard	-10.3583
indonésie	-10.3584
invasion	-10.3586
▁précipitations	-10.3593
▁italien	-10.3594
▁traditionnel	-10.3594
▁ouest	-10.3594
▁bre	-10.3595
▁pérou	-10.3596
▁golfe	-10.3596
▁maisons	-10.3599
▁ham	-10.3599
▁émissions	-10.3599
dom	-10.3603
▁gens	-10.3611
▁mains	-10.3611
▁alpes	-10.3614
▁universel	-10.3616
▁assis	-10.3619
▁ya	-10.3619
top	-10.3621
hō	-10.3623
▁vive	-10.3624
atant	-10.3624
ération	-10.3631
▁cinéaste	-10.3633
▁pollution	-10.3633
▁asiatique	-10.3634
▁vide	-10.3637
européen	-10.3645
▁lunaire	-10.3648
▁viennent	-10.3652
hom	-10.3653
officier	-10.3654
▁28	-10.3659
▁retrait	-10.3662
ump	-10.3669
jean	-10.3669
observation	-10.3672
▁accessible	-10.3674
▁genève	-10.3674
die	-10.3677
temp	-10.3682
hal	-10.3686
▁affiche	-10.3686
▁définie	-10.3687
▁mol	-10.3691
▁faite	-10.3692
▁échec	-10.3695
▁heidegger	-10.3695
▁bénéficie	-10.3699
▁éviter	-10.37
installation	-10.3709
rien	-10.3712
▁district	-10.3715
▁généraux	-10.3715
▁récompense	-10.3715
▁angleterre	-10.3716
▁qatar	-10.3716
érer	-10.372
▁gagne	-10.3723
▁figures	-10.3728
▁cad	-10.3731
-1	-10.3732
▁vienne	-10.3737
▁parlé	-10.3741
▁apparition	-10.3752
▁emb	-10.3753
▁réduction	-10.3756
▁utile	-10.3756
▁libres	-10.3756
▁réputé	-10.3756
aki	-10.3758
▁découvertes	-10.3759
▁rat	-10.3761
▁90	-10.3765
▁pcf	-10.3767
igu	-10.3767
éditeur	-10.3769
▁monument	-10.377
identité	-10.377
▁observe	-10.377
emb	-10.3771
▁périodes	-10.3776
dan	-10.3778
épi	-10.3779
▁cd	-10.3784
empêche	-10.3795
▁1962	-10.3797
▁1946	-10.3798
▁crue	-10.3801
▁possèdent	-10.3803
agir	-10.3812
étique	-10.3813
▁traite	-10.382
▁relie	-10.3822
▁indépendant	-10.3827
hou	-10.3832
escalade	-10.3838
▁protéger	-10.3838
▁touché	-10.3839
▁préparation	-10.3839
▁1977	-10.3839
▁victor	-10.3839
▁jusque	-10.384
lam	-10.3853
échelle	-10.3855
▁semaine	-10.3856
▁nationaliste	-10.3859
02	-10.386
▁mau	-10.3863
édi	-10.3867
▁voisins	-10.3868
▁hongrie	-10.387
ème	-10.3872
iale	-10.3876
usine	-10.3877
▁hou	-10.3879
▁sanctuaire	-10.388
▁serpent	-10.388
▁intermédiaire	-10.3881
▁métier	-10.3882
▁foyer	-10.3883
▁verbe	-10.3885
▁symboles	-10.3887
cel	-10.3887
▁pra	-10.3888
▁erreur	-10.3895
▁auraient	-10.3896
bretagne	-10.3897
▁suivie	-10.3902
▁médi	-10.3902
▁(1	-10.3905
▁hall	-10.3909
▁bénéfici	-10.3913
▁anglaise	-10.392
ouvrir	-10.3921
▁sauvage	-10.3922
cas	-10.3923
cité	-10.3925
▁blues	-10.3925
▁privé	-10.3929
▁2,	-10.393
▁prétend	-10.3932
▁allié	-10.3946
▁barre	-10.3957
louis	-10.3963
▁administratif	-10.3963
▁bourgogne	-10.3964
▁stations	-10.3964
actrice	-10.397
▁sexuelle	-10.3972
▁américaines	-10.3974
▁élection	-10.3976
▁chaînes	-10.3981
intelligence	-10.3982
▁(200	-10.3986
ogne	-10.3996
gues	-10.3999
▁rare	-10.4003
nov	-10.4005
▁diplomatique	-10.4005
ives	-10.4007
▁souris	-10.4007
mori	-10.4008
▁caféine	-10.4009
▁professionnelle	-10.4012
▁facilement	-10.4016
▁reine	-10.402
▁nommée	-10.4033
▁complexes	-10.4038
▁prévu	-10.4042
▁my	-10.4042
agence	-10.4047
▁défunt	-10.4048
▁suivent	-10.4048
▁précisément	-10.4048
▁quinze	-10.4048
▁rapproche	-10.4049
▁robot	-10.405
▁dirigée	-10.4051
chev	-10.4053
▁shi	-10.4057
▁retourne	-10.4061
▁soutenu	-10.4065
entretien	-10.4071
▁médecin	-10.4073
gal	-10.4075
▁daté	-10.4075
▁électorale	-10.4087
▁gamme	-10.409
▁lynch	-10.409
anthropologie	-10.4091
▁régionaux	-10.4094
▁franchi	-10.4095
▁70	-10.4099
▁déplacement	-10.4102
▁phil	-10.4109
▁bur	-10.4112
▁entière	-10.4119
▁che	-10.4131
inématographique	-10.4133
▁maximum	-10.4133
abbaye	-10.4133
▁sentiment	-10.4133
▁autorisé	-10.4133
▁prenant	-10.4134
▁raconte	-10.4134
stein	-10.4135
▁russes	-10.4136
▁chansons	-10.4136
▁divise	-10.4137
ivoire	-10.4138
avion	-10.4142
▁ski	-10.4146
▁réserves	-10.4147
▁sportive	-10.4147
py	-10.4149
▁métal	-10.4152
▁rép	-10.4152
▁industriel	-10.4154
écu	-10.4154
▁scènes	-10.4158
▁solide	-10.4162
arrière	-10.4163
▁23	-10.4165
▁recueil	-10.4166
▁conclu	-10.4166
▁maintenir	-10.4175
▁objectifs	-10.4177
▁patient	-10.4179
communications	-10.4184
▁originale	-10.4186
▁normale	-10.4187
▁disques	-10.4189
expansion	-10.4198
▁paysans	-10.4199
▁franco	-10.4201
▁plaque	-10.4203
gg	-10.4215
rite	-10.4216
▁stratégique	-10.4218
▁mobile	-10.4218
invention	-10.4218
▁atomique	-10.4219
▁tué	-10.4219
▁auquel	-10.4219
▁glace	-10.4219
▁épreuves	-10.4224
▁froid	-10.4226
▁modes	-10.4227
▁culturelles	-10.4233
▁touristes	-10.4233
▁(17	-10.4239
▁fêtes	-10.4239
ial	-10.4245
▁puissances	-10.4258
▁vigueur	-10.4261
▁électeurs	-10.4263
émergence	-10.4264
▁conservation	-10.4265
win	-10.4272
▁venus	-10.4274
immigration	-10.4279
élite	-10.4282
ple	-10.4284
▁hypothèse	-10.4291
emp	-10.4292
▁facteurs	-10.4295
esse	-10.4302
▁sortir	-10.4303
commun	-10.4304
▁calendrier	-10.4305
▁pilote	-10.4305
▁goût	-10.4306
▁revenu	-10.4307
án	-10.4307
▁tro	-10.4308
▁coloniale	-10.4308
▁rejet	-10.431
▁univers	-10.4315
▁démocrate	-10.4319
▁hy	-10.4327
▁dictionnaire	-10.4336
▁soutient	-10.4344
▁sega	-10.4345
autoroute	-10.4348
▁1969	-10.4349
▁1944	-10.4349
▁départementale	-10.4356
iège	-10.4363
▁mythes	-10.4386
bin	-10.439
▁grammaire	-10.4392
▁lendemain	-10.4392
▁succède	-10.4392
▁dénonce	-10.4392
▁résolution	-10.4393
▁royaumes	-10.4393
▁matériaux	-10.4393
▁occidentaux	-10.4394
▁méta	-10.4401
▁peintre	-10.4405
▁prêt	-10.4407
▁donnant	-10.4408
▁converti	-10.4414
▁soldats	-10.4418
court	-10.4421
plan	-10.4422
acier	-10.4425
mie	-10.4429
▁dépendant	-10.4431
▁traverse	-10.4433
▁1971	-10.4436
▁littéraires	-10.4436
▁destruction	-10.4436
▁1976	-10.4436
▁pomme	-10.4436
▁contenant	-10.4437
▁partisans	-10.4437
▁nécessaires	-10.4441
▁bible	-10.4441
▁utilisateurs	-10.4443
▁qualifié	-10.4444
▁chimiques	-10.4445
rité	-10.4454
▁tenue	-10.4465
▁spécialisée	-10.4469
exploit	-10.4471
▁considéra	-10.4476
▁nourri	-10.448
▁possession	-10.448
▁suivre	-10.448
animation	-10.448
▁jobs	-10.4481
▁frais	-10.4481
▁suède	-10.4481
▁plans	-10.4482
intégration	-10.4482
▁we	-10.4485
▁danois	-10.449
▁mans	-10.4493
▁mass	-10.4497
▁récent	-10.45
▁léon	-10.4505
▁risques	-10.4512
aliment	-10.4516
▁traditionnels	-10.4516
architecte	-10.4517
▁temples	-10.4519
▁aller	-10.4521
▁cuivre	-10.4524
▁identique	-10.4524
▁ventes	-10.4526
▁sel	-10.4527
▁faune	-10.4527
▁écrivains	-10.453
▁repas	-10.453
alimentation	-10.4531
ssement	-10.4533
▁écriture	-10.4535
▁guerres	-10.4535
appuie	-10.4535
▁associations	-10.4539
affect	-10.454
▁provena	-10.4546
obtenir	-10.4555
émission	-10.456
▁logements	-10.4564
investissement	-10.4565
▁machines	-10.4568
amélioration	-10.4568
▁perspective	-10.4568
▁recours	-10.4569
éni	-10.4575
▁participant	-10.4576
▁rapports	-10.458
arctique	-10.458
▁verne	-10.4582
▁optique	-10.4584
plus	-10.4591
▁présentation	-10.4592
▁fiction	-10.4595
▁débuts	-10.4597
▁maintien	-10.4605
arbre	-10.4605
crit	-10.4606
▁fondamental	-10.4607
▁différent	-10.4607
▁reptiles	-10.4613
▁flux	-10.4613
▁sociologie	-10.4613
▁1966	-10.4614
▁lupin	-10.4614
▁tentative	-10.4615
▁feuille	-10.4616
▁municipalité	-10.4616
▁amateur	-10.4618
autant	-10.462
gro	-10.4621
▁berlin	-10.4621
▁médiévale	-10.4624
tat	-10.4625
▁fossiles	-10.463
▁arabes	-10.4641
▁parlée	-10.4647
▁accompagné	-10.4648
▁spécifiques	-10.4649
dio	-10.465
▁campagnes	-10.4653
▁indo	-10.4656
▁vivent	-10.4656
impulsion	-10.4658
▁interprété	-10.4658
▁relat	-10.4662
élé	-10.4664
importe	-10.4665
acteur	-10.4666
ût	-10.467
uri	-10.4681
vern	-10.4681
▁partout	-10.4684
approche	-10.4689
▁commencent	-10.4697
tec	-10.4702
▁façade	-10.4703
▁technologique	-10.4703
échappe	-10.4703
▁devrait	-10.4704
▁1965	-10.4704
▁bordeaux	-10.4705
▁élémentaire	-10.4706
instar	-10.4707
▁doté	-10.4707
▁signes	-10.4718
orientation	-10.4727
▁individuelle	-10.4731
▁spécial	-10.4734
aude	-10.4734
▁normes	-10.4737
cf	-10.4745
▁rose	-10.4747
▁fromage	-10.4748
▁atteign	-10.4748
major	-10.4751
▁actes	-10.4754
▁décennie	-10.4755
▁idée	-10.476
oct	-10.4764
▁tardive	-10.4767
ek	-10.477
2"	-10.4771
▁traces	-10.4777
tout	-10.4781
▁recens	-10.479
▁inférieure	-10.4792
▁stable	-10.4794
▁pourquoi	-10.4794
inspiration	-10.4798
▁intérieure	-10.4798
▁000	-10.4801
euil	-10.4801
▁pointe	-10.4802
▁tournant	-10.4803
abo	-10.4805
▁fréquente	-10.4807
▁estimé	-10.4814
▁commandement	-10.4818
▁verts	-10.4818
▁bâti	-10.4823
▁fini	-10.4825
▁avantage	-10.4827
▁anubis	-10.4827
ouvrage	-10.4831
▁portent	-10.4832
▁émerge	-10.4837
aquitaine	-10.4839
▁signification	-10.4839
▁thomas	-10.4839
▁oiseaux	-10.4839
▁masculin	-10.4841
▁espagne	-10.4841
▁traditionnelles	-10.4842
▁accident	-10.4843
▁originel	-10.4844
04	-10.4845
▁poèmes	-10.4846
▁deviendra	-10.4852
interaction	-10.4857
lar	-10.4872
▁guy	-10.4873
lés	-10.4873
tom	-10.4874
vari	-10.4879
électricité	-10.4885
attention	-10.4885
▁mammifères	-10.4886
▁daniel	-10.489
▁noble	-10.489
▁autorité	-10.4893
▁réelle	-10.4896
▁pot	-10.4898
▁étymologie	-10.4901
▁théo	-10.4902
études	-10.4905
06	-10.4907
▁filles	-10.4918
étoile	-10.4924
▁conséquent	-10.4931
▁pouvaient	-10.4931
▁sculpture	-10.4931
▁rédigé	-10.4931
▁menacé	-10.4932
tain	-10.4939
éco	-10.4942
▁colonies	-10.4943
▁croyances	-10.4943
▁cellules	-10.4944
▁juive	-10.4944
▁bouche	-10.4954
▁studios	-10.4958
▁contemporain	-10.4959
▁environnemental	-10.4961
▁établie	-10.4969
essor	-10.4969
écran	-10.4972
▁quoi	-10.4975
▁durkheim	-10.4977
▁suédois	-10.4977
▁signifiant	-10.4981
apple	-10.4995
▁chinoise	-10.5006
▁résidences	-10.5014
gra	-10.5014
▁chanteur	-10.5015
▁communistes	-10.5015
▁lire	-10.5019
modern	-10.502
▁commerciaux	-10.5024
▁perçu	-10.5024
▁composante	-10.5026
▁sondage	-10.5026
▁sucre	-10.5027
▁atomes	-10.5032
▁victimes	-10.5035
▁divine	-10.504
▁choses	-10.5043
▁profonde	-10.5049
▁prêtres	-10.5049
▁dizaines	-10.505
▁propriétaires	-10.505
▁exclu	-10.5061
▁participer	-10.5063
index	-10.5067
sky	-10.5069
hollywood	-10.5071
▁concerné	-10.5071
▁soutenir	-10.5072
▁manuel	-10.5074
alsace	-10.5074
jou	-10.5075
▁salaire	-10.5075
lat	-10.5081
▁31	-10.5082
▁issue	-10.5087
▁élèves	-10.5088
▁retraite	-10.5093
▁varié	-10.5095
▁jam	-10.5096
▁mené	-10.5109
maur	-10.511
▁connaissances	-10.5112
▁permanent	-10.5113
▁équipé	-10.5118
▁confirmé	-10.5118
▁financement	-10.5118
▁bru	-10.5121
▁motif	-10.5126
old	-10.5128
▁cri	-10.5129
▁culturels	-10.5135
gol	-10.5137
▁rites	-10.5139
▁pol	-10.5141
▁montée	-10.5143
▁échelle	-10.5147
sac	-10.5147
▁patron	-10.5148
▁vaut	-10.5149
▁collect	-10.5149
▁var	-10.5151
équation	-10.5152
▁privées	-10.5154
▁repris	-10.5156
▁sha	-10.516
▁liquide	-10.5165
▁vainqueur	-10.5165
▁destination	-10.5165
▁q	-10.5172
▁marcel	-10.5174
▁biais	-10.5174
▁jury	-10.5175
occupant	-10.5183
▁parisien	-10.5195
▁venir	-10.5209
▁médicament	-10.5212
▁islamique	-10.5213
horloge	-10.5213
▁implanté	-10.5217
alors	-10.5218
installer	-10.5218
▁organismes	-10.5222
▁légèrement	-10.5222
▁finit	-10.5223
▁employé	-10.5227
▁remise	-10.5227
étienne	-10.5229
▁voyelle	-10.5229
allier	-10.5236
▁civil	-10.5237
▁restant	-10.5241
▁transmis	-10.5243
▁simples	-10.5253
tha	-10.5253
▁dos	-10.5255
▁piste	-10.5257
jacques	-10.526
▁coalition	-10.526
▁sépare	-10.5261
rate	-10.5262
▁infrastructures	-10.5264
▁arrivé	-10.5264
▁exclusivement	-10.5265
▁identifié	-10.5266
▁brive	-10.5268
▁maternelle	-10.5269
▁organisée	-10.5276
▁mario	-10.5277
armes	-10.5277
▁traits	-10.5283
fé	-10.5285
erne	-10.5289
uses	-10.5293
roll	-10.5294
mini	-10.5296
▁ana	-10.53
07	-10.53
▁méthane	-10.5308
▁clovis	-10.5308
attitude	-10.5308
lim	-10.5311
▁serre	-10.5315
▁statistiques	-10.5317
▁laisser	-10.5325
elli	-10.5341
▁critères	-10.5346
▁situés	-10.5346
llé	-10.535
▁controverse	-10.5356
▁prononcé	-10.5356
▁synthèse	-10.5356
▁démarche	-10.5356
ault	-10.5361
hel	-10.5362
▁contemporains	-10.5389
ncé	-10.5393
var	-10.5398
▁lourd	-10.5399
explique	-10.54
apollo	-10.5403
▁fragment	-10.5404
ii	-10.5405
▁procédure	-10.5408
▁cop	-10.5412
▁commerciale	-10.5413
▁géré	-10.5414
▁aspect	-10.5418
▁éco	-10.5421
▁intérêt	-10.5423
▁pain	-10.5425
ator	-10.5426
▁guillaume	-10.543
▁danger	-10.5431
▁courante	-10.5431
asi	-10.5433
▁ouvriers	-10.5433
▁africaine	-10.5434
▁réserve	-10.5437
▁penser	-10.544
▁meilleurs	-10.5441
▁destiné	-10.5442
▁chrétien	-10.5442
▁étudie	-10.5443
▁norvège	-10.5453
▁profondément	-10.5453
afghanistan	-10.5454
augmentation	-10.5456
sson	-10.5464
08	-10.5466
▁posé	-10.5466
▁cat	-10.5472
▁géorgie	-10.5475
▁bits	-10.5475
▁automobile	-10.5476
▁ku	-10.5478
actuel	-10.548
▁historiquement	-10.5481
▁chien	-10.5481
▁assemblée	-10.5482
▁za	-10.5491
▁proposition	-10.5492
▁hal	-10.5496
▁animale	-10.5496
▁pauvres	-10.55
▁vichy	-10.5501
ij	-10.5503
▁remplace	-10.5503
▁isolé	-10.5509
▁don	-10.5513
▁différente	-10.5514
pou	-10.5515
▁fournit	-10.5517
cri	-10.5523
del	-10.5524
▁développés	-10.5525
▁complètement	-10.5525
▁langages	-10.5529
▁recul	-10.5531
▁compter	-10.5534
▁colonie	-10.5538
▁manifestation	-10.5538
algorithme	-10.5544
ouvre	-10.5546
abréviation	-10.555
▁appartient	-10.555
▁critiqué	-10.555
▁significative	-10.555
▁dialogue	-10.555
▁tâche	-10.555
▁provient	-10.555
▁minutes	-10.5551
cht	-10.5554
pat	-10.5555
▁média	-10.556
▁blé	-10.556
▁annuel	-10.5562
pit	-10.5563
text	-10.557
▁envahi	-10.557
▁retrouver	-10.5577
ève	-10.5578
▁associés	-10.5593
▁balle	-10.5594
▁nécessité	-10.56
▁prononce	-10.56
▁pâte	-10.56
▁1987	-10.56
rap	-10.56
▁1947	-10.56
▁partenaire	-10.5601
▁christian	-10.5601
▁gor	-10.5602
membre	-10.5606
[[	-10.5606
▁peuplé	-10.5613
ung	-10.5618
rus	-10.5621
▁récepteur	-10.5624
▁stock	-10.5629
▁originaire	-10.564
▁monte	-10.5642
▁situées	-10.5644
▁cho	-10.5645
▁roosevelt	-10.5649
▁reggae	-10.5649
▁sncf	-10.5649
▁complet	-10.5652
▁décès	-10.5655
apa	-10.5657
»	-10.5657
▁intellectuel	-10.5658
▁dominante	-10.5667
▁entités	-10.567
ophone	-10.5674
hard	-10.5676
▁mètres	-10.5682
▁raf	-10.5684
▁cheval	-10.5688
▁circ	-10.5692
dō	-10.5695
métrique	-10.5699
▁dénomination	-10.5699
▁pluton	-10.5699
▁1939	-10.57
▁témoignage	-10.5701
▁net	-10.5702
▁rhin	-10.5704
dar	-10.5708
▁future	-10.5709
▁sony	-10.5718
▁longues	-10.5723
▁contra	-10.5726
sous	-10.573
▁développent	-10.573
sud	-10.5731
▁maîtrise	-10.5736
09	-10.5739
▁prim	-10.5742
▁variable	-10.5743
03	-10.5743
▁exécutif	-10.5749
▁beckett	-10.5749
▁1941	-10.575
▁1958	-10.575
ks	-10.5753
▁médailles	-10.5754
▁roger	-10.5755
▁west	-10.5755
▁affecté	-10.5757
▁extérieur	-10.5765
û	-10.5772
▁vallées	-10.5772
sept	-10.5776
▁label	-10.5777
▁mises	-10.5781
▁instrument	-10.5782
▁modeste	-10.5785
étroit	-10.5786
▁fortes	-10.5792
▁proto	-10.5796
▁église	-10.5797
amplificateur	-10.5799
▁[...]	-10.5799
▁impossible	-10.5799
▁macintosh	-10.5799
▁millénaire	-10.5799
▁rupture	-10.5799
▁rempli	-10.5799
estaing	-10.58
▁mc	-10.58
achève	-10.58
▁démontre	-10.5801
▁sait	-10.5801
▁paysage	-10.5802
▁clubs	-10.5804
▁enquête	-10.5806
▁déterminer	-10.5807
▁protestante	-10.5809
intervention	-10.5809
▁tourné	-10.581
▁guide	-10.5811
igny	-10.5812
africain	-10.5817
islande	-10.582
▁crédit	-10.5823
▁parallèlement	-10.5825
thy	-10.5826
▁exécuté	-10.5828
▁indépendants	-10.583
appui	-10.5835
▁déclara	-10.5849
▁war	-10.5849
▁négatif	-10.585
▁défaut	-10.585
accéder	-10.585
▁noblesse	-10.5851
▁syrie	-10.5852
▁tenant	-10.5854
▁physiques	-10.5857
▁lacs	-10.5859
aspect	-10.5861
▁producteurs	-10.5866
▁processeurs	-10.5866
▁influences	-10.5866
▁répartis	-10.587
onique	-10.5875
▁final	-10.5876
dj	-10.5876
▁von	-10.5882
▁proportionnelle	-10.5887
slav	-10.5892
▁fan	-10.5899
▁née	-10.5899
héraclès	-10.59
▁inauguré	-10.59
▁élaboré	-10.59
▁rayonnement	-10.59
▁accusé	-10.5901
▁quelle	-10.5906
▁découvrir	-10.5908
▁étroite	-10.5914
▁formelle	-10.5926
▁dom	-10.593
▁tribu	-10.5937
▁world	-10.594
▁orienté	-10.5941
unesco	-10.5941
▁pousse	-10.5941
aventure	-10.5945
tti	-10.5945
mir	-10.5947
▁goscinny	-10.5951
enseignant	-10.5952
▁organique	-10.5952
▁suggère	-10.5952
▁routier	-10.5953
▁lot	-10.5954
▁variantes	-10.5956
num	-10.5956
▁exportations	-10.5956
▁vécu	-10.5957
▁quotidienne	-10.5965
risme	-10.5969
▁subit	-10.5975
▁typique	-10.5976
▁pleine	-10.5979
▁vieille	-10.598
▁investi	-10.5988
▁liaisons	-10.5989
▁personnalité	-10.5989
▁municipales	-10.5989
▁fra	-10.599
ava	-10.5992
▁paraît	-10.5997
▁chronique	-10.6001
▁registre	-10.6003
▁éloigné	-10.6003
▁popularité	-10.6003
▁compilateur	-10.6003
▁troubles	-10.6003
▁bourse	-10.6003
▁surnommé	-10.6005
▁fuji	-10.6005
▁satellite	-10.6006
▁parcours	-10.6009
▁équipements	-10.601
▁resta	-10.601
▁notation	-10.601
▁lignée	-10.6013
▁causa	-10.6013
▁clairement	-10.6019
▁charente	-10.6024
applique	-10.6028
▁canon	-10.6029
▁profite	-10.6033
mac	-10.6034
anie	-10.6044
vre	-10.6045
▁assurer	-10.605
▁consacrée	-10.6052
vier	-10.6053
oxygène	-10.6054
▁combinaison	-10.6054
▁comprenant	-10.6054
▁1967	-10.6055
▁chaleur	-10.6058
▁disciplines	-10.6059
▁croissant	-10.6062
▁exploité	-10.6065
king	-10.6066
▁not	-10.6069
▁métropolitaine	-10.607
▁apporté	-10.6072
▁union	-10.6075
▁débats	-10.6083
▁transit	-10.6087
zz	-10.6089
graphie	-10.6093
▁emploie	-10.6095
▁descend	-10.6095
▁tensions	-10.6105
▁porter	-10.6106
▁corruption	-10.6106
▁michael	-10.6106
▁thaïlande	-10.6106
interdiction	-10.6106
▁pratiqué	-10.6106
▁projection	-10.6106
▁transformé	-10.6106
▁archéologiques	-10.6107
▁féminine	-10.611
écologie	-10.6116
hip	-10.6118
hypothèse	-10.6123
assurer	-10.6123
▁//	-10.6124
▁sonore	-10.6129
▁chance	-10.6131
▁impérial	-10.6133
▁nationalité	-10.6135
▁neige	-10.6136
▁salon	-10.6141
aison	-10.6142
▁conseillers	-10.6147
évo	-10.6151
▁charte	-10.6153
▁fabrique	-10.6158
▁toulouse	-10.6158
▁résulte	-10.6158
▁plume	-10.6159
automne	-10.6159
▁classée	-10.6169
▁philosophes	-10.6172
▁palme	-10.6196
ua	-10.6198
▁rio	-10.6198
▁libérale	-10.6203
▁antoine	-10.6206
aile	-10.6207
▁cantons	-10.6208
▁considérer	-10.6211
▁orthodoxe	-10.6211
▁réputation	-10.6211
▁alternative	-10.6211
▁valéry	-10.6211
▁prolonge	-10.6211
▁shelley	-10.6211
▁1956	-10.6211
▁débute	-10.6211
▁ottoman	-10.6212
▁implique	-10.6212
▁pratiquant	-10.6214
▁semblent	-10.6216
lien	-10.6219
▁appareils	-10.6221
▁résidence	-10.6223
étudiant	-10.6229
▁antiques	-10.6232
▁listes	-10.6232
▁emplois	-10.6233
▁inclus	-10.6238
▁manche	-10.6239
▁commerciales	-10.6245
05	-10.6254
▁extérieure	-10.6257
▁strict	-10.6261
adhésion	-10.6263
▁légumes	-10.6263
▁exprimés	-10.6264
attentat	-10.6264
▁musées	-10.6267
▁system	-10.6267
▁progression	-10.6268
▁actuels	-10.6268
▁impose	-10.627
▁nettement	-10.6273
▁répondre	-10.6274
chée	-10.6274
▁difficulté	-10.6277
impact	-10.6284
ature	-10.6284
dessous	-10.6285
isère	-10.6286
▁35	-10.6293
américaine	-10.6294
aîné	-10.6295
▁issues	-10.6301
▁locuteurs	-10.6301
▁collectivités	-10.6311
▁écrivain	-10.6313
▁transfert	-10.6316
▁inventé	-10.6316
▁animé	-10.6317
▁spécialité	-10.632
▁jack	-10.6322
▁veille	-10.6322
▁dialectes	-10.6331
rand	-10.6331
tron	-10.6336
▁troupe	-10.6336
▁installé	-10.6344
▁fmi	-10.6345
▁séries	-10.6359
▁voiture	-10.636
tell	-10.636
épreuve	-10.6362
absolu	-10.6368
évaluation	-10.6369
▁dispositif	-10.6369
▁brûl	-10.6369
▁occidental	-10.637
▁inclua	-10.6372
▁théologie	-10.6372
▁rappelle	-10.6372
▁josé	-10.6372
▁musulmane	-10.6373
▁expression	-10.6377
▁intel	-10.6378
▁conserver	-10.6384
’"	-10.6386
▁fermé	-10.6387
▁apparaître	-10.6391
▁médicale	-10.6392
▁assiste	-10.6394
▁compréhension	-10.6402
▁diffuse	-10.6408
▁choisit	-10.6409
▁mir	-10.6416
lib	-10.6416
australie	-10.6417
▁copie	-10.6418
astronomie	-10.642
efficacité	-10.6423
▁biodiversité	-10.6423
▁diplôme	-10.6423
▁découpage	-10.6423
orléans	-10.6423
▁tenir	-10.6423
▁grève	-10.6423
▁ze	-10.6427
▁croix	-10.6428
▁correspondance	-10.643
▁urbaines	-10.6434
▁muni	-10.6435
▁familiale	-10.6436
▁assimilé	-10.6441
▁sortant	-10.6445
▁pages	-10.6446
lf	-10.6447
▁missions	-10.6447
▁rassemblement	-10.6449
▁privés	-10.6451
cop	-10.6454
yō	-10.6455
chet	-10.6458
▁effectue	-10.647
▁portable	-10.6473
œuf	-10.6473
▁automatique	-10.6477
▁contribué	-10.6477
▁schéma	-10.6478
▁concile	-10.6478
▁colons	-10.6482
▁puissante	-10.6486
▁pourraient	-10.649
adoption	-10.6499
anime	-10.6501
way	-10.6503
▁avance	-10.6508
▁64	-10.651
▁rétabli	-10.6513
▁intérêts	-10.6513
▁star	-10.6523
hôpital	-10.6531
▁bulgarie	-10.6531
▁perpétu	-10.6531
▁regroupé	-10.6531
▁rédaction	-10.6531
▁fédérale	-10.6531
▁galerie	-10.6532
▁1963	-10.6532
▁exact	-10.6533
▁attendre	-10.6535
▁participent	-10.6536
▁intègre	-10.6538
aucun	-10.654
alchimie	-10.6543
▁pin	-10.6549
▁(15	-10.655
▁soir	-10.6551
écrire	-10.6551
temps	-10.6552
▁dizaine	-10.6554
▁moteurs	-10.6559
▁remarque	-10.6561
▁identité	-10.6566
coup	-10.6569
▁ajoute	-10.657
▁corde	-10.657
▁iv	-10.6578
▁industries	-10.6579
▁reconnaît	-10.6579
well	-10.6582
ring	-10.6583
ancêtre	-10.6584
▁polémique	-10.6585
▁québec	-10.6585
▁séquence	-10.6585
▁maréchal	-10.6585
▁trésor	-10.6585
apparence	-10.6585
▁géométrie	-10.6585
incendie	-10.6585
▁attire	-10.6586
▁comète	-10.6587
▁exécut	-10.6593
▁lourde	-10.6593
▁entouré	-10.6596
▁industriels	-10.6605
▁dépenses	-10.6606
▁beaux	-10.6612
▁employés	-10.6612
échec	-10.6612
▁aires	-10.6613
▁régul	-10.6617
▁animal	-10.6622
▁faibles	-10.6631
▁tissu	-10.6636
zélande	-10.664
▁magnétique	-10.664
explication	-10.664
▁banlieue	-10.664
▁renommée	-10.664
▁madrid	-10.664
▁frank	-10.664
uter	-10.6641
▁séparation	-10.6641
▁enregistre	-10.6642
▁méditerranéen	-10.6643
▁collective	-10.6644
▁cible	-10.6645
▁immédiatement	-10.6647
▁mention	-10.6648
▁chargée	-10.6665
▁documentaire	-10.6667
paul	-10.6669
▁dj	-10.667
▁records	-10.668
▁néerlandaise	-10.6681
▁maine	-10.6686
▁accords	-10.669
▁faute	-10.6693
anthrop	-10.6693
▁monétaire	-10.6695
▁végétal	-10.6695
▁archives	-10.6695
▁journaux	-10.6695
▁1948	-10.6695
▁absolue	-10.6696
▁drapeau	-10.6697
▁rh	-10.6698
âtre	-10.6698
▁isra	-10.6699
▁voté	-10.6701
▁décrire	-10.6704
▁réparti	-10.6705
▁compétences	-10.671
▁expliquer	-10.6713
▁pal	-10.6714
▁médecins	-10.6717
anda	-10.6722
▁appelées	-10.6727
▁remplacer	-10.6729
innovation	-10.6743
actif	-10.6745
▁porc	-10.6745
suffisamment	-10.675
▁cinquante	-10.675
▁circulation	-10.675
▁variations	-10.6751
▁causé	-10.6751
▁sportifs	-10.6757
▁majeurs	-10.6757
essonne	-10.6759
▁télévisée	-10.6764
équipement	-10.6764
▁régi	-10.6765
ifie	-10.6765
organiser	-10.6767
▁lancer	-10.6781
▁volcan	-10.6787
nord	-10.6787
aya	-10.6788
▁seuil	-10.679
▁intégrée	-10.6792
▁sto	-10.6793
▁réduite	-10.6795
▁75	-10.6799
améliore	-10.6804
▁cimetière	-10.6805
▁global	-10.6809
▁city	-10.6813
▁inuit	-10.6813
dict	-10.682
kai	-10.6821
▁anne	-10.6832
▁mauvais	-10.6833
▁report	-10.6834
▁attaques	-10.6836
rhône	-10.6838
▁suffrage	-10.684
▁étendue	-10.6841
▁meurtre	-10.6843
livre	-10.6849
▁paysages	-10.6851
▁moi	-10.6851
connect	-10.6858
▁répression	-10.6861
▁couramment	-10.6861
▁distribué	-10.6861
▁nourriture	-10.6862
▁talent	-10.6862
▁soudan	-10.6863
▁45	-10.6869
▁actifs	-10.6869
vic	-10.6871
orne	-10.6873
▁esthétique	-10.6873
▁émis	-10.6883
▁primaires	-10.6885
▁possibles	-10.6891
▁venant	-10.6891
▁linux	-10.6898
▁passée	-10.6906
huit	-10.6909
▁constate	-10.6912
▁syn	-10.6913
pac	-10.6914
▁bandes	-10.6914
acide	-10.6916
▁occupée	-10.6916
▁contribution	-10.6917
▁policier	-10.6917
▁domestique	-10.6918
▁1959	-10.6918
▁préfère	-10.6919
▁servent	-10.6925
▁accordé	-10.6925
▁rester	-10.6925
important	-10.6927
▁poussée	-10.6929
▁fur	-10.6937
▁résident	-10.6938
▁souci	-10.6943
▁may	-10.6943
▁paru	-10.6944
▁accent	-10.6951
amsterdam	-10.6952
▁proprement	-10.6955
▁rues	-10.6964
imposer	-10.6967
▁italiens	-10.697
emplacement	-10.697
jonc	-10.6971
▁mystère	-10.6974
obligation	-10.6974
▁barrage	-10.6976
▁géant	-10.6979
▁coréen	-10.698
▁variables	-10.698
▁leader	-10.6981
abri	-10.6984
▁tribus	-10.6985
ati	-10.6987
▁mexicaine	-10.6991
▁industrie	-10.6991
▁cultes	-10.6991
▁destinés	-10.6993
▁ordres	-10.6995
▁vertu	-10.6998
sec	-10.6998
▁limiter	-10.7
groupe	-10.7003
▁partagé	-10.7003
▁mentionne	-10.7011
▁mexicain	-10.7013
▁croyance	-10.7016
tori	-10.702
▁verte	-10.7025
yama	-10.7028
▁manuscrit	-10.7031
▁napoléon	-10.7031
▁renouvelable	-10.7031
▁spectateur	-10.7031
▁substitu	-10.7031
▁souveraineté	-10.7031
1)	-10.7031
énoncé	-10.7031
▁détenu	-10.7031
▁1955	-10.7032
▁déposé	-10.7032
▁colonne	-10.7034
▁expressions	-10.7034
▁efforts	-10.7036
▁navires	-10.7038
▁partiellement	-10.704
trois	-10.704
▁cache	-10.7045
uté	-10.7046
▁démo	-10.7046
▁marquant	-10.7047
▁tiré	-10.7051
▁établit	-10.7053
cat	-10.7053
▁terrestres	-10.7057
▁illustre	-10.7057
▁bol	-10.706
▁hel	-10.7062
▁mentionné	-10.7063
initiative	-10.7068
▁fournir	-10.707
▁victime	-10.7075
▁figurent	-10.7079
▁parcs	-10.7086
▁navigation	-10.7088
▁prononciation	-10.7088
▁rejoindre	-10.7088
▁réception	-10.7088
▁externe	-10.7088
▁1964	-10.7089
édit	-10.709
▁pépin	-10.709
▁visiteurs	-10.7091
▁finnois	-10.7094
▁libéral	-10.7095
▁responsables	-10.7095
▁accepté	-10.7096
▁appliquée	-10.7101
▁professionnel	-10.7103
▁traités	-10.7103
abandon	-10.7105
bb	-10.7106
▁transforme	-10.7114
considérablement	-10.7121
▁baptisé	-10.7121
▁gall	-10.7128
«	-10.713
▁honor	-10.7134
▁exprime	-10.7135
▁contrôlé	-10.7135
▁systématique	-10.7138
▁organisa	-10.7143
mbi	-10.7144
▁compatible	-10.7145
▁discussion	-10.7145
▁greenpeace	-10.7145
▁cabinet	-10.7145
▁inclut	-10.7145
▁suscite	-10.7145
▁1949	-10.7146
▁assassiné	-10.7147
▁inconnu	-10.7148
▁battu	-10.715
dore	-10.7158
via	-10.716
ombre	-10.7163
▁ménage	-10.7165
saxon	-10.7166
▁rub	-10.7169
▁étage	-10.7171
▁saisi	-10.7181
▁sénateur	-10.7184
espagnol	-10.7185
divinité	-10.7185
arme	-10.7189
▁mad	-10.7193
aristote	-10.7203
papyrus	-10.7203
▁particularité	-10.7203
▁positif	-10.7203
▁provisoire	-10.7203
▁révélé	-10.7203
▁évolué	-10.7203
▁restaurant	-10.7203
attache	-10.7203
▁sanction	-10.7203
▁consonne	-10.7204
key	-10.7206
naise	-10.7208
▁métro	-10.7209
mais	-10.7212
▁radicale	-10.722
for	-10.7222
▁égypte	-10.7223
▁(3	-10.7225
▁skinheads	-10.7226
rag	-10.7226
▁aura	-10.723
▁mauvaise	-10.7233
▁plate	-10.7233
irak	-10.7237
anvers	-10.7239
ket	-10.724
ust	-10.7257
▁guatemala	-10.7261
▁légion	-10.7261
▁clergé	-10.7261
▁téléphone	-10.7262
▁formant	-10.7262
▁retard	-10.7262
associe	-10.7262
imitation	-10.7267
▁maroc	-10.727
▁sphère	-10.7272
▁instruments	-10.7272
oïde	-10.7275
terre	-10.7277
▁renforce	-10.7278
▁ska	-10.7281
▁tournoi	-10.7282
▁descendants	-10.7282
▁compositeur	-10.7283
▁amsterdam	-10.7284
rum	-10.7284
▁mines	-10.7287
▁onze	-10.7288
▁violent	-10.7292
▁malade	-10.7297
▁vous	-10.7297
avenir	-10.7301
▁géo	-10.7304
▁jugement	-10.7305
accept	-10.7305
▁autochtone	-10.732
▁vocabulaire	-10.732
▁(2	-10.7326
▁jaune	-10.7326
▁hugo	-10.7328
vu	-10.7339
istique	-10.7339
▁intellectuelle	-10.7341
▁individu	-10.7346
apport	-10.7346
hydro	-10.7351
▁règlement	-10.7353
▁rivières	-10.7358
enregistrement	-10.736
▁installés	-10.7361
▁adoptée	-10.7363
aujourd	-10.7364
▁claire	-10.7365
7"	-10.7366
fasci	-10.7367
▁gau	-10.7369
▁montant	-10.7376
▁consomma	-10.7376
▁bouddhiste	-10.7379
▁navigateur	-10.7379
▁susceptible	-10.7379
avocat	-10.7379
▁expériences	-10.7385
▁couches	-10.7385
▁constituer	-10.7388
▁noirs	-10.7388
▁musiciens	-10.7391
▁grosse	-10.7391
▁rob	-10.7391
▁gran	-10.7392
▁esc	-10.7395
immigrés	-10.7422
▁protestants	-10.7428
▁garant	-10.7436
▁chapitre	-10.7438
▁connaissent	-10.7438
▁polanski	-10.7438
▁autrefois	-10.7438
▁psychanalyse	-10.7438
▁migration	-10.7438
éloigne	-10.7438
▁renonce	-10.7438
▁métallique	-10.7438
▁achevé	-10.744
▁irlandais	-10.744
▁collectif	-10.7441
▁essor	-10.7446
▁aérien	-10.7449
▁idéal	-10.7453
▁événement	-10.7453
▁performances	-10.7456
▁paléo	-10.7458
▁symbolis	-10.7459
▁actif	-10.746
▁publicité	-10.7461
▁altitude	-10.7462
▁jugé	-10.747
▁commis	-10.7473
ôm	-10.7473
ographe	-10.7478
▁module	-10.7479
▁normal	-10.7479
▁clair	-10.7479
▁indigènes	-10.7483
▁intention	-10.7485
gla	-10.749
identifi	-10.7491
▁consoles	-10.7494
hindou	-10.7495
▁culminant	-10.7497
▁phonétique	-10.7497
▁raymond	-10.7497
▁drogue	-10.7498
▁tension	-10.7499
▁ancêtres	-10.7505
moto	-10.7505
soit	-10.7506
▁voter	-10.7514
irent	-10.7515
▁totalité	-10.7517
alis	-10.7524
fic	-10.7527
extérieur	-10.7546
extension	-10.7546
hyper	-10.7546
▁reconnaiss	-10.7555
▁diffusé	-10.7556
extrémité	-10.7557
▁bénéfice	-10.7557
▁énergétique	-10.7557
▁phénicienne	-10.7558
▁similaires	-10.7559
▁devaient	-10.756
▁artaud	-10.756
comté	-10.7561
empare	-10.7564
▁aliments	-10.7566
▁régulier	-10.7573
▁occitan	-10.7575
active	-10.7585
▁29	-10.7588
▁francophones	-10.7589
▁soviétiques	-10.7589
▁étudiant	-10.7593
▁continentale	-10.7594
▁gouvernementale	-10.7594
▁pluriel	-10.7602
▁32	-10.7604
▁envoie	-10.7607
▁confusion	-10.7617
▁playstation	-10.7617
▁dominique	-10.7617
▁créteil	-10.7617
▁brevet	-10.7617
▁normandie	-10.7618
▁1951	-10.7618
▁stabilité	-10.762
impose	-10.762
▁dérive	-10.7622
implantation	-10.7622
▁bilan	-10.7623
▁relatif	-10.7625
▁nam	-10.7631
▁administratives	-10.7631
▁essentiel	-10.7638
exprimer	-10.7645
▁wal	-10.7657
tine	-10.7658
issa	-10.7661
▁quitter	-10.7664
▁puce	-10.7668
▁original	-10.767
édifice	-10.7671
▁africains	-10.7673
▁composants	-10.7677
▁arrivée	-10.7677
wer	-10.7678
▁philip	-10.7678
▁affluent	-10.7678
▁cadmium	-10.7678
▁supprimé	-10.7678
▁constructeur	-10.7678
▁flèche	-10.7678
▁faucon	-10.7678
▁sixième	-10.768
▁défendre	-10.7687
▁portrait	-10.7688
▁crimes	-10.7689
burg	-10.769
▁financières	-10.7691
▁opération	-10.7692
▁villa	-10.7696
atelier	-10.7699
▁saturne	-10.77
▁act	-10.771
▁vendre	-10.7711
ash	-10.7713
▁réunit	-10.772
▁clan	-10.7722
ân	-10.7722
▁tha	-10.7722
▁probable	-10.7722
▁déplace	-10.7726
appellation	-10.7731
▁tre	-10.7732
▁agro	-10.7734
▁tentatives	-10.7737
élaboration	-10.7739
▁déclenche	-10.7739
▁évidence	-10.7739
▁céréales	-10.7739
▁évoqué	-10.7739
▁grotte	-10.7739
▁sarthe	-10.774
▁conduite	-10.774
emporte	-10.774
4)	-10.774
▁exception	-10.7743
▁retrouvent	-10.7743
▁séville	-10.7745
▁construits	-10.7751
▁officiels	-10.7754
▁venue	-10.7754
▁profondeur	-10.7755
▁mangas	-10.7756
▁versant	-10.7756
▁dominé	-10.7762
jet	-10.7763
row	-10.7771
▁dense	-10.7775
▁rpr	-10.7776
▁verre	-10.7782
▁forcé	-10.7787
erve	-10.7791
observ	-10.7792
▁carolingien	-10.7793
péri	-10.7794
nation	-10.7798
▁éducation	-10.7798
▁serv	-10.7799
outre	-10.7799
▁cameroun	-10.78
▁condamnation	-10.78
▁résoudre	-10.78
▁préfet	-10.78
▁jacob	-10.78
éponyme	-10.7801
itude	-10.7801
▁filiale	-10.7801
▁contesté	-10.7803
▁douce	-10.7804
▁rattache	-10.7804
arsène	-10.7809
▁maladies	-10.7809
▁organisées	-10.7812
humour	-10.7813
▁serment	-10.7814
▁francis	-10.7814
▁africain	-10.7816
▁facteur	-10.7818
▁châteaux	-10.782
▁wall	-10.7822
wood	-10.7825
aque	-10.7825
▁conseiller	-10.7826
▁réservé	-10.7838
▁syndicats	-10.7838
▁suppose	-10.7839
▁psycho	-10.784
▁noté	-10.7841
clé	-10.7841
▁plaines	-10.7848
▁choisir	-10.7851
▁édit	-10.7851
dam	-10.7851
3"	-10.7851
▁caractérisé	-10.7852
▁gallo	-10.7856
▁répandue	-10.7861
▁chambéry	-10.7862
▁connexion	-10.7862
▁python	-10.7862
▁recevoir	-10.7862
▁sahara	-10.7862
▁océanique	-10.7863
▁ballon	-10.7866
▁permanente	-10.7868
▁hum	-10.7884
▁volcanique	-10.7889
▁rendent	-10.7889
▁(16	-10.7898
▁présentée	-10.7909
▁adaptée	-10.7911
arrondissement	-10.7914
▁auguste	-10.7917
zy	-10.7922
▁dégradation	-10.7924
▁sémantique	-10.7924
dot	-10.7935
mba	-10.7936
occupe	-10.794
jan	-10.7942
▁1900	-10.7943
▁mathématique	-10.7944
▁ég	-10.7945
nois	-10.795
▁bay	-10.7951
▁supposé	-10.7952
bois	-10.796
▁kanjis	-10.7962
aube	-10.7972
▁ultérieur	-10.7987
▁jamaïcain	-10.7987
▁privilégié	-10.7987
▁vestiges	-10.7987
▁prévoit	-10.7987
▁psychologique	-10.7987
▁chat	-10.7988
chimiste	-10.799
▁télécom	-10.7995
▁étoiles	-10.7996
▁plateaux	-10.7998
▁tenta	-10.7999
polit	-10.8007
établir	-10.8007
▁accorde	-10.8012
▁civils	-10.8017
▁favorise	-10.8022
▁salariés	-10.803
installent	-10.8031
chang	-10.8031
▁matin	-10.8033
pal	-10.8038
▁parisienne	-10.8046
intermédiaire	-10.8047
▁jupiter	-10.805
▁kubrick	-10.805
▁nephtys	-10.805
▁invité	-10.805
▁modéré	-10.805
▁préparé	-10.805
▁demandé	-10.8051
▁continuent	-10.8054
▁bruit	-10.8063
issi	-10.8066
▁geste	-10.8066
▁antérieure	-10.8067
▁spécialistes	-10.8067
▁modifier	-10.8067
▁expédition	-10.8069
voyant	-10.8072
▁alfred	-10.8076
▁expansion	-10.8079
clin	-10.808
▁indienne	-10.8082
nay	-10.8082
▁washington	-10.8084
gui	-10.8111
▁dépôt	-10.8113
▁syntaxe	-10.8113
▁triomphe	-10.8113
bien	-10.8113
▁rédige	-10.8113
éma	-10.8115
▁chevalier	-10.8116
▁charbon	-10.8116
yves	-10.8117
▁apprécié	-10.8119
▁68	-10.8123
main	-10.8124
hébreu	-10.8128
▁extra	-10.813
▁propositions	-10.8132
électron	-10.8137
▁répandu	-10.8137
▁dirigeant	-10.8146
▁sombre	-10.8149
hib	-10.8152
bro	-10.8154
▁bern	-10.8155
▁initiale	-10.8157
▁dites	-10.8159
▁intervention	-10.8164
musulman	-10.8165
ctor	-10.8167
▁présentant	-10.8168
▁proposée	-10.8168
▁auxquel	-10.8172
▁(')	-10.8174
nin	-10.8176
imaginaire	-10.8177
▁produisent	-10.8177
▁câble	-10.8177
▁finlandais	-10.8177
▁semblable	-10.8177
▁subsiste	-10.8177
▁tropical	-10.8177
▁clinique	-10.8177
françois	-10.8177
▁géologique	-10.8177
▁libéré	-10.8178
▁caméra	-10.8179
▁fichiers	-10.8179
chan	-10.8181
▁trace	-10.8181
chin	-10.8187
▁originaires	-10.8189
▁magique	-10.8193
omi	-10.8194
▁spatial	-10.8195
▁organisés	-10.8196
▁initiative	-10.8199
▁occident	-10.8199
▁propriétaire	-10.8204
▁spéciale	-10.8206
grad	-10.8217
▁peint	-10.822
conte	-10.8228
▁montrer	-10.8228
▁disposent	-10.8231
▁supplémentaires	-10.8237
▁architectural	-10.8241
▁catastrophe	-10.8241
▁législatif	-10.8241
▁paléolithique	-10.8241
▁vecteur	-10.8241
existait	-10.8241
émotion	-10.8241
▁habituellement	-10.8241
▁marchands	-10.8241
▁1942	-10.8241
hétéro	-10.8242
▁molécules	-10.8242
▁1914	-10.8242
adaptation	-10.8242
assassinat	-10.8242
▁entraîné	-10.8243
▁esclaves	-10.8245
istan	-10.8245
romancier	-10.8247
accent	-10.8249
▁biologie	-10.825
▁500	-10.8257
▁midi	-10.8258
4"	-10.8258
▁globalement	-10.8258
andré	-10.8258
▁formée	-10.8263
▁sauve	-10.827
ander	-10.8272
▁francophone	-10.8272
importantes	-10.8275
▁grain	-10.8281
▁augmenter	-10.8284
▁mel	-10.8285
▁installée	-10.829
▁repos	-10.8291
instant	-10.8293
▁occupent	-10.8305
exploration	-10.8305
▁dénommé	-10.8305
▁faculté	-10.8305
▁perception	-10.8305
athènes	-10.8305
▁canadien	-10.8306
▁duquel	-10.8307
▁anglo	-10.8308
maritime	-10.8308
▁36	-10.831
▁prévue	-10.8317
▁passion	-10.8322
érien	-10.8323
▁proposent	-10.8324
▁voy	-10.833
▁correspondent	-10.8335
onyme	-10.8339
glo	-10.8339
▁saut	-10.834
▁paire	-10.8341
▁égale	-10.8345
éclat	-10.8353
blanc	-10.8365
far	-10.8367
guer	-10.8368
▁promouvoir	-10.837
attraction	-10.837
▁fonctionnalités	-10.837
▁1936	-10.8371
hercule	-10.8371
produit	-10.8374
▁enseigne	-10.8378
▁aventures	-10.8379
essence	-10.8381
quin	-10.8384
▁concernent	-10.8389
aviation	-10.8393
▁nazis	-10.8394
trans	-10.8401
▁épisodes	-10.8402
▁visage	-10.8402
▁témoigne	-10.8407
▁flori	-10.8413
appeler	-10.8431
▁reconstruction	-10.8435
▁téléphonique	-10.8435
▁suicide	-10.8435
hydrogène	-10.8436
▁produisa	-10.8436
▁comparable	-10.8436
▁frappe	-10.8436
▁électoral	-10.844
inscrit	-10.8443
▁éditeurs	-10.8448
▁autrement	-10.8451
▁rus	-10.8458
▁sèche	-10.8461
▁étendu	-10.8463
▁mètre	-10.8465
▁acte	-10.8465
inspir	-10.8466
page	-10.8474
▁estimée	-10.8476
▁couverture	-10.8491
▁avancé	-10.8493
▁épisode	-10.8493
oua	-10.8494
▁gagner	-10.8496
▁engagement	-10.8499
hebdomadaire	-10.8501
▁turquie	-10.8501
▁réclame	-10.8501
amitié	-10.8502
▁faux	-10.8502
▁moselle	-10.8502
▁hugues	-10.8503
black	-10.8503
▁pyramides	-10.8505
▁visuel	-10.8507
▁appellation	-10.851
pays	-10.8512
▁laurent	-10.8513
▁pratiquement	-10.8515
▁dessert	-10.8517
ford	-10.852
emprunt	-10.8525
▁changer	-10.8527
▁languedoc	-10.8533
▁oriental	-10.8533
▁vigne	-10.8536
dragon	-10.854
ciel	-10.854
▁mange	-10.8543
▁facile	-10.8551
1"	-10.8552
▁duché	-10.8555
▁méridionale	-10.8556
philosoph	-10.8565
▁spécialisés	-10.8566
▁confession	-10.8567
▁1954	-10.8567
▁dictature	-10.8567
▁signaux	-10.8568
▁commandant	-10.8568
azote	-10.8569
▁priorité	-10.8569
▁conversion	-10.8569
▁conquis	-10.857
autonomie	-10.8575
▁canaux	-10.858
uma	-10.8583
▁dotée	-10.8584
▁fixé	-10.8584
ney	-10.8587
udi	-10.8604
▁admis	-10.8606
▁lancée	-10.8606
mission	-10.8606
▁200	-10.8609
▁bruno	-10.861
▁citoyen	-10.8611
▁aboli	-10.8624
time	-10.8628
alter	-10.8631
▁sable	-10.8634
▁microprocesseur	-10.8634
▁garçon	-10.8634
▁minimum	-10.8634
▁négociations	-10.8634
▁quarante	-10.8634
▁rotation	-10.8634
▁mixte	-10.8634
▁phéniciens	-10.8636
▁instance	-10.8636
occup	-10.8641
▁macro	-10.8644
▁marais	-10.8646
calais	-10.8653
avaient	-10.8663
romaine	-10.8666
gno	-10.8675
mag	-10.8678
type	-10.8678
▁performance	-10.8681
▁milliard	-10.8681
▁turc	-10.8682
mise	-10.8684
▁consult	-10.8688
▁profession	-10.8699
▁scope	-10.8701
▁souterrain	-10.8701
▁complexité	-10.8701
▁provoqué	-10.8701
▁thermique	-10.8701
▁censure	-10.8701
▁saoudien	-10.8701
psych	-10.8702
▁1919	-10.8703
▁creuse	-10.8706
instrument	-10.8712
▁éclate	-10.8721
tag	-10.8726
▁alexandre	-10.8741
essai	-10.8746
▁cellule	-10.8751
▁exige	-10.8751
bru	-10.8753
▁confronté	-10.8769
offensive	-10.8769
▁constantinople	-10.8769
▁emblématique	-10.8769
▁kyoto	-10.8769
▁spectr	-10.8769
▁inégalités	-10.8769
▁maïs	-10.877
▁souvenir	-10.877
▁tortue	-10.8771
▁observé	-10.8776
▁génie	-10.8781
▁peter	-10.8786
oh	-10.8792
9"	-10.8795
cinq	-10.8798
▁faciliter	-10.8801
sui	-10.8804
▁jouent	-10.8814
▁enfance	-10.8822
▁cio	-10.8823
▁mener	-10.8829
▁prospérité	-10.8837
▁rencontré	-10.8837
▁guerrier	-10.8837
▁participé	-10.8837
édouard	-10.8837
espoir	-10.8837
▁annexe	-10.8837
▁démission	-10.8837
▁diamètre	-10.8838
▁1924	-10.8838
alistes	-10.8839
heim	-10.8843
intégrer	-10.8845
▁arbres	-10.8848
harmonie	-10.885
▁séance	-10.885
▁abandonne	-10.8854
hésit	-10.8869
▁marge	-10.8873
▁électro	-10.8888
héra	-10.8903
opérateur	-10.8903
▁socio	-10.8904
ifiant	-10.8905
▁monastère	-10.8905
archéologie	-10.8905
échantillon	-10.8905
▁réélu	-10.8905
▁ressort	-10.8905
▁gabriel	-10.8905
▁importé	-10.8906
▁fonctionnaires	-10.8906
▁1929	-10.8906
▁1938	-10.8906
▁léger	-10.8907
▁sushi	-10.891
▁tourner	-10.891
▁guéri	-10.8912
observateur	-10.8916
▁émet	-10.8917
agissait	-10.8918
germain	-10.8924
nçant	-10.8924
▁prête	-10.8925
▁éthique	-10.8926
▁remplacement	-10.8933
▁vraiment	-10.8934
aria	-10.8939
▁liban	-10.8964
▁interface	-10.8965
▁poème	-10.8966
▁crime	-10.897
▁sho	-10.8972
illy	-10.8973
▁commença	-10.8973
phone	-10.8974
▁partenariat	-10.8974
▁dépression	-10.8974
▁aldrin	-10.8974
▁exercé	-10.8974
▁vocation	-10.8974
▁poursuivi	-10.8974
▁moscou	-10.8974
▁décerné	-10.8974
▁sévère	-10.8974
▁dublin	-10.8975
ampleur	-10.8975
▁mineure	-10.8975
▁celtique	-10.8976
▁karl	-10.8976
omo	-10.8977
fenêtre	-10.8977
attribution	-10.8978
▁acteur	-10.898
▁amené	-10.8981
▁persan	-10.8981
octet	-10.8982
international	-10.8992
▁solde	-10.8993
▁gré	-10.8998
vienne	-10.8999
▁tarn	-10.9006
appelle	-10.9024
▁envisage	-10.9025
▁nécessairement	-10.903
▁nasa	-10.9035
▁fruit	-10.9037
adn	-10.9037
herzégovine	-10.9044
▁catholicisme	-10.9044
▁positive	-10.9044
▁temporaire	-10.9044
▁déchets	-10.9044
▁1932	-10.9044
▁améliorer	-10.9046
hindouisme	-10.9047
▁tonnes	-10.9049
▁carl	-10.905
▁flotte	-10.9051
▁diffère	-10.9051
▁détaillé	-10.9052
▁algorithmes	-10.9053
▁1870	-10.9056
acquisition	-10.9058
anubis	-10.9062
▁outil	-10.9062
▁exceptionnelle	-10.9062
opolis	-10.9074
▁scénariste	-10.9081
▁fixée	-10.9097
▁tyr	-10.91
▁brésilien	-10.9105
▁cac	-10.9106
▁encourage	-10.9106
▁militant	-10.9108
▁indirect	-10.9114
▁regroupant	-10.9114
▁sarcophage	-10.9114
▁scandale	-10.9114
▁secrète	-10.9114
explosion	-10.9114
avènement	-10.9114
▁testament	-10.9114
▁changé	-10.9115
▁consist	-10.9118
▁provence	-10.9126
hop	-10.9128
identifier	-10.913
▁profond	-10.9135
internet	-10.9136
▁pratiquée	-10.9137
super	-10.914
▁héritage	-10.9145
▁aboutit	-10.9146
▁vélo	-10.915
lène	-10.9151
éné	-10.9162
▁mart	-10.9165
▁pénal	-10.9166
avantage	-10.9171
▁mand	-10.9176
);	-10.9177
ophile	-10.9182
▁minière	-10.9182
▁adultes	-10.9184
▁diminution	-10.9184
▁néolithique	-10.9184
▁renforcé	-10.9184
▁théorème	-10.9184
▁terminé	-10.9184
▁firme	-10.9184
▁prochain	-10.9185
▁ibm	-10.9185
▁laissant	-10.9187
igue	-10.919
▁pacte	-10.9192
▁rival	-10.9192
▁caché	-10.9192
▁santa	-10.9194
▁compens	-10.9194
▁investissements	-10.9195
▁observations	-10.9196
▁accueillir	-10.9202
▁servant	-10.9212
▁qualifiée	-10.9213
kha	-10.9218
▁créant	-10.9226
▁pente	-10.9226
▁armstrong	-10.9226
affrontement	-10.9228
▁nuage	-10.9228
kov	-10.9229
▁delta	-10.923
▁globale	-10.9234
▁essentielle	-10.9235
▁peau	-10.924
▁prit	-10.924
▁fermi	-10.9241
appréci	-10.9248
▁marchand	-10.9254
▁comprise	-10.9255
#	-10.9255
▁comprennent	-10.9255
▁cultivé	-10.9255
▁dreamcast	-10.9255
▁fabricant	-10.9255
▁norvégien	-10.9255
▁préféré	-10.9255
▁attaché	-10.9255
annexion	-10.9255
▁1943	-10.9256
▁1937	-10.9256
▁1933	-10.9256
▁néandertaliens	-10.9256
▁contraste	-10.926
envoyer	-10.926
▁cham	-10.9261
▁exprimé	-10.9262
▁por	-10.9266
espérance	-10.9273
▁fichier	-10.9275
baptiste	-10.9277
/2	-10.9278
▁apparue	-10.9283
▁intelligence	-10.9295
▁proposer	-10.9298
▁interprète	-10.93
▁dominant	-10.93
▁concentré	-10.9303
▁renforcer	-10.9306
▁favoriser	-10.9315
impôt	-10.932
▁magistrat	-10.9326
adjectif	-10.9326
▁bahreïn	-10.9326
▁commerçant	-10.9326
▁edward	-10.9326
▁gérard	-10.9326
thèque	-10.9326
▁complété	-10.9326
▁ceinture	-10.9327
rō	-10.9328
▁permit	-10.933
▁réfugiés	-10.933
▁effectifs	-10.9332
▁alpin	-10.9336
▁électrons	-10.9336
bio	-10.9345
▁métrage	-10.9348
▁java	-10.9348
▁placée	-10.9348
▁fera	-10.935
humain	-10.9351
hl	-10.9352
dja	-10.9352
▁radi	-10.9353
▁travailla	-10.9358
▁tv	-10.9358
▁inspirée	-10.9361
▁thi	-10.9373
▁august	-10.9373
▁exposé	-10.9374
exemplaires	-10.9376
pot	-10.939
ôn	-10.939
franc	-10.939
leur	-10.9393
effort	-10.9393
ménag	-10.9396
▁capteur	-10.9396
▁phénicie	-10.9396
alternance	-10.9398
▁diversifié	-10.9398
▁domicile	-10.9398
▁négative	-10.9398
▁trouvait	-10.9398
▁massacre	-10.9398
▁indiqué	-10.9398
▁1918	-10.94
▁reconnaître	-10.9406
▁continuité	-10.9406
▁revenir	-10.9413
▁centré	-10.942
▁délai	-10.9426
▁cab	-10.9435
▁herm	-10.9439
roman	-10.9443
▁oscar	-10.945
adapter	-10.9451
▁chercha	-10.9457
▁héritier	-10.9457
▁matérielle	-10.9458
▁autonomie	-10.9462
huile	-10.9464
▁perturb	-10.9471
▁limitrophe	-10.9471
▁propagande	-10.9471
intensité	-10.9471
▁proclame	-10.9471
▁jospin	-10.9471
▁blason	-10.9471
▁1952	-10.9472
▁vaisseau	-10.9473
▁gréco	-10.9474
alliage	-10.9476
akh	-10.9476
saône	-10.9478
▁collectivité	-10.9479
▁centaine	-10.948
▁gps	-10.9482
▁évit	-10.9483
renne	-10.9483
▁soins	-10.9484
abbé	-10.9496
▁établir	-10.9497
▁partagent	-10.9504
appelé	-10.9504
▁apprend	-10.951
▁extrait	-10.9519
▁mig	-10.952
jō	-10.952
▁emmanuel	-10.9524
▁mah	-10.9531
▁remis	-10.9532
▁mésopotamie	-10.9544
▁soixante	-10.9544
imprimante	-10.9544
▁configuration	-10.9544
▁précurseur	-10.9544
▁illustré	-10.9544
▁initié	-10.9544
▁gagné	-10.9544
▁sexisme	-10.9544
▁justifie	-10.9546
▁poétique	-10.9547
▁accompagnée	-10.9547
▁gastronomie	-10.9548
▁gérer	-10.9549
▁dépit	-10.9554
▁dessous	-10.9556
▁expérimentale	-10.9556
▁usines	-10.9558
▁sacrée	-10.956
▁island	-10.9566
pyrénées	-10.9573
▁ajouter	-10.9574
albi	-10.9578
gate	-10.9579
▁préhistoire	-10.9581
▁dépens	-10.959
ben	-10.9593
▁montage	-10.9595
ocde	-10.9595
▁ec	-10.9598
▁simon	-10.9599
oyer	-10.96
ota	-10.9606
mina	-10.9609
▁limoges	-10.9617
▁reflète	-10.9617
▁renouveau	-10.9617
▁rugby	-10.9617
▁mutation	-10.9617
▁kenya	-10.9617
▁écologiste	-10.9618
▁météorite	-10.9618
▁1961	-10.9618
▁plastique	-10.9619
▁voici	-10.962
ogène	-10.9621
▁immense	-10.9625
▁bref	-10.9632
▁soumise	-10.9646
ingue	-10.9646
kel	-10.9654
▁diffusée	-10.9654
▁allé	-10.9655
▁metz	-10.9656
▁habité	-10.9659
▁survie	-10.9665
fact	-10.967
▁brou	-10.9683
▁bourgeois	-10.9687
▁correction	-10.9691
▁fontainebleau	-10.9691
▁témoin	-10.9691
▁croatie	-10.9691
▁communément	-10.9692
▁fouilles	-10.9692
▁criminel	-10.9692
animal	-10.9693
▁revendique	-10.9694
▁payer	-10.9694
bains	-10.9695
▁orale	-10.9696
▁stockage	-10.9698
▁binaire	-10.9699
▁littéralement	-10.97
▁équations	-10.9702
▁reprendre	-10.9706
viendra	-10.9708
▁infini	-10.9709
ibert	-10.9712
unique	-10.9715
▁vache	-10.9718
work	-10.9719
▁réellement	-10.9721
▁portugaise	-10.9721
tō	-10.973
▁modul	-10.973
▁créent	-10.9738
▁commercialisé	-10.9739
▁rime	-10.9739
achat	-10.9741
▁surnom	-10.9749
▁revi	-10.9754
▁croissante	-10.9756
▁prêtre	-10.9761
▁bientôt	-10.9766
▁hiérarchie	-10.9766
▁égyptologique	-10.9766
▁intervient	-10.9766
▁fasciste	-10.9766
▁("")	-10.9767
▁émile	-10.9767
▁1926	-10.9767
▁wilde	-10.9768
▁dénombr	-10.9768
zen	-10.9768
blé	-10.9768
▁franche	-10.977
▁dépendance	-10.9771
▁sacrifice	-10.9774
asso	-10.9778
aku	-10.9791
▁basic	-10.9799
▁remplacée	-10.9803
▁administr	-10.9804
▁passent	-10.9811
▁transformer	-10.9811
iso	-10.9813
ashi	-10.9814
▁parlent	-10.9817
andre	-10.9817
▁pill	-10.9821
▁antérieur	-10.9821
▁mani	-10.9829
▁mesurer	-10.9834
_2	-10.984
hab	-10.984
▁capitaine	-10.9841
▁confédération	-10.9841
▁mauritanie	-10.9841
▁postérieur	-10.9841
▁grimpeur	-10.9841
▁tertiaire	-10.9841
accroît	-10.9841
▁maintenu	-10.9841
▁marchandises	-10.9841
▁synonyme	-10.9842
▁silence	-10.9842
▁1953	-10.9842
▁jazz	-10.9843
▁provenance	-10.9843
▁fausse	-10.9843
▁confiance	-10.985
▁traiter	-10.9852
▁avions	-10.9858
▁éclair	-10.9859
▁égal	-10.9859
cène	-10.9866
▁nul	-10.9867
département	-10.9877
▁punk	-10.9878
blanche	-10.9878
système	-10.9878
▁étudier	-10.9878
▁fortune	-10.9882
▁opérationnel	-10.9883
rhin	-10.9886
▁diminue	-10.9888
▁violente	-10.9894
▁rejeté	-10.9905
▁platon	-10.9906
▁lutter	-10.9909
ajoutent	-10.9915
▁débarque	-10.9917
▁envisagé	-10.9917
▁minoritaire	-10.9917
▁moléculaire	-10.9917
▁primordial	-10.9917
▁biblique	-10.9917
▁clermont	-10.9917
▁recouvre	-10.9917
▁chamanisme	-10.9917
écrivent	-10.9918
indicateur	-10.9918
▁desservi	-10.992
cast	-10.9922
▁syndical	-10.9922
▁favorisé	-10.9925
▁forum	-10.9927
asser	-10.9929
contre	-10.9933
▁mortalité	-10.9934
000	-10.9944
nazi	-10.9948
▁gain	-10.995
science	-10.9956
▁nantes	-10.996
étendre	-10.9965
centre	-10.9965
▁intégral	-10.997
▁vain	-10.9971
aurait	-10.9974
▁chercher	-10.9975
dieu	-10.9977
▁enceinte	-10.998
▁soutenue	-10.9983
normand	-10.9984
exportation	-10.9987
▁conduire	-10.9993
▁fabriqué	-10.9993
▁fascisme	-10.9993
▁homosexuel	-10.9993
▁morphème	-10.9993
▁possédant	-10.9993
▁spécificité	-10.9993
▁gaulliste	-10.9993
▁hostile	-10.9993
▁calcaire	-10.9993
▁relais	-10.9994
▁métaphysique	-10.9994
▁détient	-10.9994
▁assuré	-10.9994
▁païen	-10.9994
▁hérité	-10.9994
▁agents	-10.9995
▁édifices	-11.0002
▁pascal	-11.0003
▁censé	-11.0006
▁option	-11.0007
abolition	-11.0015
▁orange	-11.0024
appartenance	-11.0025
▁ajouté	-11.0028
animaux	-11.0033
▁spécifiquement	-11.0036
▁adopt	-11.0037
▁intitulée	-11.0042
zer	-11.0056
▁corne	-11.0057
igo	-11.007
▁contiennent	-11.007
▁côtière	-11.007
▁représentait	-11.007
▁restreint	-11.007
▁suppression	-11.007
▁végétation	-11.007
▁textile	-11.007
éthiopie	-11.007
▁stimul	-11.007
▁lombard	-11.007
▁consomme	-11.007
▁provoqua	-11.007
▁johann	-11.0071
▁morceaux	-11.0073
▁triple	-11.0074
▁bateaux	-11.0075
▁dépose	-11.0075
▁rod	-11.0076
rousse	-11.0082
▁directive	-11.0085
▁honori	-11.0089
▁parlant	-11.0089
▁ouvrier	-11.0101
▁attend	-11.0107
▁accompagn	-11.0115
▁traversée	-11.0119
▁naturellement	-11.0123
▁respecter	-11.0133
akhenaton	-11.0148
immeuble	-11.0148
urbanisation	-11.0148
▁clandestin	-11.0148
▁démonstration	-11.0148
▁ordinaire	-11.0148
▁quatorze	-11.0148
▁burkina	-11.0148
thérapie	-11.0148
▁patrick	-11.0148
instabilité	-11.0148
▁prisonniers	-11.0148
▁protéine	-11.0148
▁procure	-11.0148
▁nomination	-11.0148
▁voulu	-11.0148
▁intégrant	-11.0149
▁lionel	-11.0149
▁zéro	-11.0152
▁bell	-11.0158
▁indiquent	-11.0169
ella	-11.0176
▁favori	-11.0186
▁parvenu	-11.0189
héritage	-11.0191
éviter	-11.0191
chaîne	-11.0192
punk	-11.0198
gri	-11.0199
▁basque	-11.0204
appliquer	-11.0207
▁légère	-11.0209
wan	-11.0216
▁observée	-11.022
▁disparaît	-11.022
empreinte	-11.0226
esclavage	-11.0226
▁vectoriel	-11.0226
▁wisigoth	-11.0226
▁narmer	-11.0226
▁bactéries	-11.0226
▁conclusion	-11.0227
▁bénin	-11.0227
obscur	-11.0228
▁refusé	-11.0229
▁transféré	-11.023
▁gravé	-11.0231
▁juan	-11.0231
▁maât	-11.0238
▁instructions	-11.0241
▁gold	-11.0243
azar	-11.0246
▁perry	-11.0246
▁diane	-11.0251
▁free	-11.0252
quatre	-11.0276
▁symbolise	-11.0276
avance	-11.028
▁juif	-11.0281
▁décrite	-11.0291
addition	-11.0301
▁promu	-11.0301
extinction	-11.0305
▁déterminant	-11.0305
▁impliqué	-11.0305
▁santiago	-11.0305
▁magasin	-11.0305
▁arriva	-11.0305
▁tranche	-11.0305
▁permettait	-11.0305
▁roland	-11.0311
▁devise	-11.0319
▁html	-11.0321
nerie	-11.0335
▁examen	-11.0341
haus	-11.0343
▁tirage	-11.0345
glob	-11.0346
équivalent	-11.0352
omique	-11.0353
nam	-11.0354
▁ruine	-11.0357
crypt	-11.0357
atari	-11.0362
zan	-11.0382
▁appartiennent	-11.0384
▁fluvial	-11.0384
▁indispensable	-11.0384
▁météorologique	-11.0384
▁pakistan	-11.0384
▁barbares	-11.0384
▁dordogne	-11.0384
▁dramatique	-11.0384
▁délégué	-11.0384
▁désignation	-11.0384
▁culinaire	-11.0384
▁jésus	-11.0384
▁gothique	-11.0384
▁préalable	-11.0384
évalué	-11.0384
▁surréaliste	-11.0384
▁sapiens	-11.0384
▁vertical	-11.0384
inflation	-11.0385
▁intéressant	-11.0385
▁latitude	-11.0386
▁1910	-11.0386
▁tenté	-11.0387
▁edgar	-11.0387
▁athlètes	-11.0387
▁reims	-11.0388
▁estimations	-11.039
chon	-11.039
physicien	-11.039
▁sound	-11.0392
▁moulin	-11.0394
▁contour	-11.0394
▁moral	-11.0395
▁mairie	-11.0399
▁fiscal	-11.0401
▁open	-11.0401
▁légal	-11.0404
ovi	-11.0404
▁préparer	-11.0414
▁kou	-11.042
inger	-11.0422
▁avancées	-11.0424
▁réside	-11.0435
▁définitive	-11.0455
▁oblige	-11.0457
voy	-11.0463
▁grammatical	-11.0464
▁générique	-11.0464
▁résistant	-11.0464
▁coutume	-11.0464
accroissement	-11.0464
▁déficit	-11.0464
urgence	-11.0464
▁intense	-11.0464
▁géologie	-11.0465
▁cerveau	-11.0465
▁1935	-11.0465
▁taureau	-11.0466
▁serbe	-11.0466
▁simultanément	-11.047
conf	-11.0471
▁rejette	-11.0477
▁soupe	-11.0487
▁rapprochement	-11.0497
▁sépara	-11.0498
▁caractérisée	-11.05
écri	-11.0503
▁monter	-11.0507
▁formalis	-11.0507
▁abus	-11.0507
▁pharaonique	-11.0507
▁attribuée	-11.0508
épisode	-11.0514
▁entité	-11.0517
armement	-11.0517
▁modem	-11.0521
▁modifie	-11.0522
▁wo	-11.0532
▁démon	-11.054
▁dominicain	-11.0545
▁1934	-11.0545
▁mythique	-11.0545
▁conformé	-11.0545
▁mercure	-11.0545
équateur	-11.0545
offrande	-11.0545
▁financé	-11.0545
▁plateforme	-11.0545
▁expose	-11.0547
▁exactement	-11.0548
▁amène	-11.0551
attente	-11.0551
vous	-11.0556
▁éventuellement	-11.0556
▁conce	-11.0557
▁renvoie	-11.0563
▁neuro	-11.0568
genèse	-11.057
▁bière	-11.0574
▁répand	-11.0577
oxy	-11.0582
fils	-11.0584
organe	-11.0605
▁réalisa	-11.0607
▁fusionne	-11.0607
expliquer	-11.0608
▁édité	-11.0617
▁strat	-11.0619
natural	-11.0626
▁recouvert	-11.0626
▁reçoive	-11.0626
▁transcription	-11.0626
▁venezuela	-11.0626
▁tempéré	-11.0626
▁arthur	-11.0626
▁fournisseur	-11.0626
▁quête	-11.0627
▁collines	-11.0628
▁vaincu	-11.0631
▁bac	-11.0634
▁conservée	-11.0638
▁chal	-11.0639
▁légitime	-11.0642
ichi	-11.0644
▁renseignement	-11.0646
▁choc	-11.0663
astro	-11.0668
▁stone	-11.0669
▁descendant	-11.0673
▁tenter	-11.0674
▁brun	-11.0677
logiste	-11.0679
[	-11.068
événement	-11.068
général	-11.0681
▁toit	-11.0691
pic	-11.0699
zin	-11.0699
▁chair	-11.0699
▁néandertal	-11.0706
▁assurée	-11.0707
▁nécropole	-11.0708
▁propulsion	-11.0708
▁mondiaux	-11.0708
▁pénétr	-11.0708
▁unifié	-11.0708
▁consolid	-11.0708
▁flamand	-11.0708
accusation	-11.0708
▁1917	-11.071
▁lointain	-11.071
champ	-11.0711
arras	-11.0714
trop	-11.0716
▁indonésien	-11.0726
nalité	-11.0726
orgue	-11.0736
angers	-11.0737
▁jugée	-11.0757
▁constat	-11.0759
▁dominée	-11.0761
▁gravi	-11.0764
▁chiffrement	-11.0766
astre	-11.0775
▁bénéficient	-11.078
patr	-11.0781
▁apogée	-11.0783
▁tentent	-11.0786
prop	-11.0787
▁masculine	-11.0787
berger	-11.079
▁diocèse	-11.0791
▁idéologique	-11.0791
▁poursuivre	-11.0791
▁vêtement	-11.0791
▁treize	-11.0791
▁capitaux	-11.0791
▁obligé	-11.0791
asthme	-11.0791
▁privat	-11.0793
▁chauff	-11.0797
étale	-11.0798
▁taxe	-11.08
èche	-11.0802
▁reliant	-11.0802
▁cumul	-11.0803
▁employée	-11.0809
▁pau	-11.0814
ossé	-11.0816
▁jette	-11.0822
▁géorgien	-11.0837
éthique	-11.0849
député	-11.0849
annonce	-11.085
affiche	-11.085
▁reli	-11.085
▁pop	-11.0851
▁compétence	-11.0851
▁dialecte	-11.0851
▁colombie	-11.0853
▁iranien	-11.0856
▁pair	-11.0857
▁contribuent	-11.0858
▁varient	-11.0859
infrastructure	-11.0867
▁imposé	-11.0869
▁réfugi	-11.087
▁hockey	-11.0874
▁ingrédients	-11.0874
▁principauté	-11.0874
▁suffixe	-11.0874
urbanisme	-11.0874
▁handicap	-11.0874
▁mendès	-11.0874
royauté	-11.0874
▁inhumé	-11.0874
▁parfaitement	-11.0874
▁reproche	-11.0874
▁souffre	-11.0874
▁repousse	-11.0874
▁corpus	-11.0874
▁dispers	-11.0874
▁renverse	-11.0875
▁popper	-11.0875
▁vingtaine	-11.0876
▁sauce	-11.0877
▁chasseurs	-11.0879
▁express	-11.0879
▁donna	-11.0881
▁préoccupation	-11.0883
ordonnée	-11.0883
▁effectuer	-11.0885
▁médiatique	-11.0886
▁conforme	-11.0886
▁mark	-11.0891
▁argentin	-11.0901
▁permettra	-11.0902
▁lait	-11.0907
olive	-11.0911
anjou	-11.0916
▁bretonne	-11.0921
▁cite	-11.0923
fusée	-11.0926
▁group	-11.0935
▁présidentiel	-11.0943
▁grandeur	-11.0945
▁rattachée	-11.0946
▁mathématicien	-11.0958
▁récompensé	-11.0958
▁sociologue	-11.0958
▁surveillance	-11.0958
▁fameux	-11.0958
▁tiennent	-11.0958
▁cristal	-11.0958
▁prospère	-11.0958
poli	-11.0958
width	-11.0959
▁1922	-11.0959
▁debian	-11.0961
▁chlor	-11.0961
▁plomb	-11.0961
▁bombe	-11.0963
▁fontaine	-11.0963
▁indiqua	-11.0964
▁auxquelles	-11.0964
▁développeurs	-11.0964
▁bombardement	-11.0965
effondrement	-11.0968
azur	-11.097
▁fum	-11.097
▁interactions	-11.0971
▁méga	-11.0998
▁tort	-11.1015
▁rendant	-11.1016
▁statistique	-11.1026
▁adam	-11.1028
amende	-11.1028
uke	-11.1032
oku	-11.1033
object	-11.104
▁habituel	-11.1042
▁approuvé	-11.1043
▁revendication	-11.1043
▁réchauffement	-11.1043
▁évident	-11.1043
▁dimanche	-11.1043
ukraine	-11.1043
astronome	-11.1043
appuya	-11.1043
▁dispute	-11.1043
▁blessé	-11.1043
histo	-11.1043
▁initial	-11.1044
▁paroisse	-11.1044
▁remettre	-11.1044
▁1925	-11.1044
▁forteresse	-11.1046
▁2023	-11.1047
▁manipulation	-11.1049
▁gloire	-11.1053
commune	-11.1067
▁compara	-11.1067
scence	-11.1071
▁perdre	-11.1071
▁filière	-11.1072
▁spirituelle	-11.1098
oxyde	-11.1102
coréen	-11.1112
arabe	-11.1113
cycle	-11.1113
pid	-11.1127
gm	-11.1128
▁1957	-11.1128
▁grenoblois	-11.1128
▁philippines	-11.1128
▁prédécesseur	-11.1128
▁primitive	-11.1128
▁cyber	-11.1128
▁récolte	-11.1129
▁neutre	-11.1129
▁sicile	-11.1129
▁seize	-11.1129
▁rationnel	-11.1134
▁inédit	-11.1136
▁voula	-11.1137
baud	-11.1141
▁élites	-11.1142
ardenne	-11.1142
▁allait	-11.1151
▁ferré	-11.1161
ozone	-11.1171
ello	-11.1172
qa	-11.1178
▁chilien	-11.1179
▁illégal	-11.118
▁trame	-11.1191
continent	-11.1195
région	-11.1196
immun	-11.1208
▁récurrent	-11.1214
▁édifié	-11.1214
ascension	-11.1214
aéronautique	-11.1214
▁francophonie	-11.1214
▁pionnier	-11.1214
▁goncourt	-11.1214
assurance	-11.1214
villiers	-11.1214
économiste	-11.1215
▁1927	-11.1216
▁sportif	-11.1217
▁sigle	-11.1218
céphal	-11.1218
▁vocal	-11.1222
▁tracé	-11.1223
▁remet	-11.1223
▁forcément	-11.1238
▁présidé	-11.1239
autorisation	-11.1239
erreur	-11.1243
▁recueilli	-11.1255
▁band	-11.1258
▁appliqué	-11.1281
michel	-11.1285
▁center	-11.1288
▁vraie	-11.1294
▁variante	-11.1294
aïkido	-11.1301
illustration	-11.1301
▁bangladesh	-11.1301
▁photographique	-11.1301
▁pétrolier	-11.1301
▁vouloir	-11.1301
▁multitude	-11.1301
▁gironde	-11.1301
▁enseigné	-11.1301
▁offert	-11.1301
▁royaux	-11.1302
head	-11.1302
▁fluide	-11.1302
offrir	-11.1305
▁reproduction	-11.1306
▁prouve	-11.1306
train	-11.1307
illard	-11.1307
▁effectivement	-11.1312
quadr	-11.1314
boul	-11.132
▁gardien	-11.1322
▁facto	-11.1325
▁démissionne	-11.1365
▁bénéficier	-11.1365
▁émigr	-11.137
▁obtenue	-11.1372
provence	-11.1373
sphère	-11.1375
▁hol	-11.1377
▁entreprend	-11.1379
human	-11.1384
instauration	-11.1389
▁facilité	-11.1389
▁multiplication	-11.1389
▁mythologique	-11.1389
▁périodique	-11.1389
▁réfléchi	-11.1389
▁révision	-11.1389
▁thématique	-11.1389
▁nancy	-11.1389
▁dépassent	-11.1389
▁hollande	-11.139
affirmation	-11.139
exprime	-11.1392
▁météo	-11.1393
▁strictement	-11.1393
▁nazie	-11.1393
▁absent	-11.1393
▁optim	-11.1394
▁disparaître	-11.1396
▁bateau	-11.1398
▁rattaché	-11.1402
opposent	-11.1403
▁situent	-11.1405
▁traversé	-11.1408
▁costa	-11.1415
andro	-11.1417
▁diminuer	-11.1423
▁bad	-11.1435
how	-11.1438
▁travaillent	-11.1466
▁gère	-11.1471
▁associa	-11.1475
▁molécule	-11.1476
▁variation	-11.1477
▁archaïque	-11.1478
▁bhoutan	-11.1478
▁copernic	-11.1478
▁dissolution	-11.1478
▁musicaux	-11.1478
▁détriment	-11.1478
▁combiné	-11.1478
métrie	-11.1478
▁géométrique	-11.1478
▁virtuel	-11.1478
▁démontré	-11.1478
▁entretient	-11.1479
▁aménagé	-11.1479
▁champagne	-11.148
field	-11.1481
_3	-11.1482
exode	-11.1483
▁bœuf	-11.1483
▁jura	-11.1483
▁faso	-11.1488
▁serge	-11.1489
▁désignée	-11.149
blue	-11.1491
▁arrivent	-11.1499
endra	-11.1501
▁lampe	-11.1509
▁entame	-11.1519
▁affecte	-11.1526
ming	-11.1536
entraîn	-11.1538
enquête	-11.1555
▁chantier	-11.1562
▁périphériques	-11.1567
▁scandinave	-11.1567
▁vraisemblable	-11.1567
adolescent	-11.1567
▁probabilité	-11.1567
orthographe	-11.1567
asimov	-11.1567
phonème	-11.1567
▁confondu	-11.1567
▁suffit	-11.1567
anthropologue	-11.1567
▁1905	-11.1567
▁composant	-11.1568
▁power	-11.157
assyrie	-11.157
▁godin	-11.157
▁aidé	-11.1572
▁disposant	-11.1573
viva	-11.1576
▁audio	-11.1577
▁race	-11.158
écha	-11.1582
point	-11.1582
▁campus	-11.1583
▁puy	-11.1584
plat	-11.1592
▁institute	-11.1592
▁comparée	-11.1594
▁spirituel	-11.1598
martin	-11.1603
alexandrie	-11.1606
▁spécialisé	-11.1606
▁légale	-11.1609
▁partagée	-11.1611
▁individuel	-11.1634
national	-11.1641
ambassade	-11.1645
joseph	-11.1646
orbite	-11.1648
inscription	-11.165
▁shogun	-11.1654
▁recev	-11.1657
▁acquiert	-11.1657
▁baudelaire	-11.1657
▁bulgare	-11.1657
▁collègue	-11.1657
▁juridiction	-11.1657
▁sympath	-11.1657
épidémie	-11.1657
▁maximale	-11.1657
▁meiji	-11.1657
▁comportant	-11.1657
roussillon	-11.1657
▁basilique	-11.1657
arbitre	-11.1658
▁montrant	-11.1658
▁syllabe	-11.1658
▁fécondité	-11.1658
▁insiste	-11.1661
▁picardie	-11.1661
ocratique	-11.1661
▁sensibilité	-11.1662
▁imposée	-11.1663
▁supplémentaire	-11.1663
immigrants	-11.1663
▁localisé	-11.1668
▁xix	-11.1671
▁bureaux	-11.1674
arcade	-11.1685
henri	-11.1686
▁exposée	-11.1687
▁maintient	-11.1688
shima	-11.1691
▁réservée	-11.1693
hypo	-11.1709
latif	-11.1713
▁nette	-11.1714
space	-11.1715
▁retirer	-11.1724
▁fiscale	-11.173
▁tube	-11.1736
totalité	-11.1739
savoie	-11.1739
épouse	-11.1739
neuf	-11.1739
▁manipul	-11.1741
▁colonial	-11.1743
▁horm	-11.1745
expérimentation	-11.1748
▁compagnon	-11.1748
▁développa	-11.1748
▁recommandation	-11.1748
▁restriction	-11.1748
▁sexualité	-11.1748
▁verhoeven	-11.1748
▁obtienne	-11.1748
▁structuré	-11.1748
▁tantôt	-11.1748
▁compilation	-11.1748
▁chronologie	-11.1748
▁aider	-11.1748
▁rebelle	-11.1749
▁fermeture	-11.1749
▁1928	-11.1749
▁septième	-11.1751
▁rivalité	-11.1751
faire	-11.1754
▁rica	-11.1755
▁fortran	-11.1756
▁empêcher	-11.1756
rouge	-11.1762
apparente	-11.1765
écoute	-11.1767
▁logement	-11.1768
▁natura	-11.1773
▁session	-11.178
encontre	-11.178
▁tombeau	-11.1798
kō	-11.1802
▁ajoutée	-11.1802
avancée	-11.1805
▁gide	-11.1813
▁sida	-11.1815
▁pap	-11.1815
▁abondante	-11.1824
expert	-11.1838
▁célébré	-11.184
▁céramique	-11.184
▁privilège	-11.184
▁échoue	-11.184
▁conscient	-11.184
▁olivier	-11.184
▁péruvien	-11.184
▁frappé	-11.184
▁érigé	-11.184
maçon	-11.1841
▁résume	-11.1841
▁tombé	-11.1842
▁intéressé	-11.1843
▁précédé	-11.1844
▁considération	-11.1845
▁emprunté	-11.1846
▁pilier	-11.1849
▁grass	-11.1851
▁institutionnel	-11.1851
play	-11.1859
▁prénom	-11.186
entraînement	-11.1867
▁enrichi	-11.1872
nuclé	-11.1876
▁abd	-11.1877
employ	-11.1886
implant	-11.1914
▁exploite	-11.1915
▁retenue	-11.192
cker	-11.1921
▁composent	-11.1925
tate	-11.1926
nouvelle	-11.1927
christ	-11.1928
▁pseudo	-11.1932
▁sécheresse	-11.1932
▁différencie	-11.1932
▁judaïsme	-11.1932
▁problématique	-11.1932
▁protecteur	-11.1932
▁préférence	-11.1932
▁pétrolière	-11.1932
équipage	-11.1932
▁abstrait	-11.1932
imprimer	-11.1932
▁retiré	-11.1932
emblème	-11.1933
▁1923	-11.1934
▁1921	-11.1934
▁mérite	-11.1936
▁passagers	-11.1941
▁baltes	-11.1942
▁porteur	-11.1943
▁déroulent	-11.1944
▁papon	-11.1948
▁rétro	-11.1959
différ	-11.1962
▁sinon	-11.1967
iaque	-11.2015
▁catal	-11.2018
▁affaibli	-11.2021
hitchcock	-11.2022
exerce	-11.2024
algèbre	-11.2026
insurrection	-11.2026
mérovingien	-11.2026
▁consensus	-11.2026
▁controversé	-11.2026
▁généalogie	-11.2026
▁imprimé	-11.2026
▁revêt	-11.2026
▁incluent	-11.2026
▁énorme	-11.2026
épopée	-11.2026
▁bengali	-11.2026
andorre	-11.2026
▁induit	-11.2026
next	-11.2027
▁dégage	-11.2027
▁compromis	-11.2029
taxon	-11.2031
avenue	-11.2035
town	-11.204
▁ressource	-11.2046
▁tableaux	-11.2052
haute	-11.2054
entend	-11.2054
atteste	-11.2064
▁loup	-11.2068
critique	-11.2072
▁relié	-11.2077
▁médical	-11.2083
▁espér	-11.2096
▁reliée	-11.2104
▁succéd	-11.2105
éventuel	-11.2119
pproximativement	-11.212
▁coïncide	-11.212
▁diminué	-11.212
▁délégation	-11.212
▁déploie	-11.212
▁impliquant	-11.212
▁mosquée	-11.212
▁perfection	-11.212
▁reconstitue	-11.212
▁reprennent	-11.212
▁terroriste	-11.212
▁bertrand	-11.212
▁polygone	-11.212
▁bancaire	-11.212
▁hollandais	-11.212
▁enjeux	-11.212
▁combine	-11.2121
▁brunei	-11.2121
▁légitimité	-11.2121
▁invoqu	-11.2121
▁circulaire	-11.2121
hymne	-11.2121
▁occasionnelle	-11.2122
▁julien	-11.2122
illusion	-11.2123
interroge	-11.2124
▁voyageurs	-11.2128
▁opérateurs	-11.2129
▁nulle	-11.2132
▁profil	-11.2136
▁multiple	-11.2146
▁islandais	-11.2148
▁proton	-11.2152
▁big	-11.2176
▁orné	-11.2182
upp	-11.2186
zel	-11.2206
effectif	-11.2208
game	-11.221
▁véritablement	-11.2211
côte	-11.2215
▁domestication	-11.2215
▁législation	-11.2215
▁législature	-11.2215
▁pavillon	-11.2215
▁préserver	-11.2215
▁quelconque	-11.2215
élabore	-11.2215
auvergnat	-11.2215
▁relevé	-11.2215
croix	-11.2215
▁féodal	-11.2215
existant	-11.2216
intrigue	-11.2216
▁déporté	-11.2216
▁ralenti	-11.2216
▁dossier	-11.2216
▁enterré	-11.2218
prenait	-11.2234
▁grade	-11.224
▁faiblesse	-11.2247
▁défendu	-11.2251
▁remarquer	-11.2257
dôme	-11.2263
lès	-11.2274
bach	-11.2279
▁sélectionné	-11.2284
▁thu	-11.2291
▁singe	-11.2296
▁nubie	-11.2301
scope	-11.2308
▁pompidou	-11.2311
▁proclamé	-11.2311
▁thèbes	-11.2311
▁communautaire	-11.2311
▁jérusalem	-11.2311
▁marseillais	-11.2311
▁supprime	-11.2311
▁tribunaux	-11.2311
écrivant	-11.2311
▁plaisir	-11.2311
▁street	-11.2312
▁publicitaire	-11.2312
▁versailles	-11.2312
▁mesuré	-11.2312
▁voile	-11.2313
▁staline	-11.2313
augmenter	-11.2313
▁1911	-11.2313
▁souple	-11.2314
▁quitté	-11.2314
▁anonyme	-11.2315
▁revend	-11.2316
▁heurt	-11.2316
▁artisans	-11.2318
▁voulait	-11.2319
▁consultation	-11.2322
artisan	-11.2335
éric	-11.2336
anisme	-11.2339
topique	-11.2347
▁cousin	-11.2354
assou	-11.2356
gestion	-11.2357
▁engendre	-11.2387
▁300	-11.239
▁souten	-11.24
born	-11.2402
▁compact	-11.2407
aluminium	-11.2408
hectares	-11.2408
uruguay	-11.2408
▁baccalauréat	-11.2408
▁fantastique	-11.2408
▁fondamentaux	-11.2408
▁solidarité	-11.2408
▁spontané	-11.2408
▁tramway	-11.2408
▁cuisson	-11.2408
▁viêt	-11.2408
▁paramètres	-11.2408
orchestre	-11.2408
▁clavier	-11.2408
▁pixel	-11.2408
▁convient	-11.2409
▁surprise	-11.2409
▁brillant	-11.2409
▁synchronis	-11.2409
▁libertaire	-11.2409
▁ultra	-11.2409
▁luxembourgeois	-11.2409
▁théologique	-11.241
alice	-11.2411
▁clef	-11.2413
▁princesse	-11.2415
▁confort	-11.2419
▁parenté	-11.242
▁guère	-11.2421
neuve	-11.2432
▁spécialement	-11.2439
▁courbe	-11.2449
▁marx	-11.2449
▁témoignent	-11.2451
▁vih	-11.2455
▁pasteur	-11.2467
gram	-11.2472
engagement	-11.2473
station	-11.2476
inventeur	-11.249
aristocratie	-11.2506
▁astronomique	-11.2506
▁chicago	-11.2506
▁cohérent	-11.2506
▁commémor	-11.2506
▁dépourvu	-11.2506
▁groenland	-11.2506
▁notoriété	-11.2506
▁prolongé	-11.2506
▁significatif	-11.2506
▁trajectoire	-11.2506
▁dépassé	-11.2507
▁faisaient	-11.2507
▁lieutenant	-11.2507
▁tgv	-11.2507
▁flamme	-11.2507
▁tennis	-11.2507
▁college	-11.2507
▁référ	-11.2507
▁boucle	-11.2508
usse	-11.2508
▁gilles	-11.2509
▁népal	-11.2509
▁minitel	-11.2509
division	-11.2512
apparaît	-11.2513
▁fraction	-11.2515
▁invasions	-11.2523
envoi	-11.2531
▁spéci	-11.2536
ethnie	-11.2543
▁kanji	-11.2545
▁mich	-11.2547
▁particule	-11.2548
textes	-11.2553
▁réparties	-11.2557
▁doré	-11.2569
▁rallie	-11.2572
▁coton	-11.2574
genre	-11.2584
bord	-11.2587
place	-11.259
eurent	-11.2593
▁progressive	-11.2594
color	-11.2598
▁atmosphérique	-11.2605
▁aussitôt	-11.2605
▁ibérique	-11.2605
▁migratoire	-11.2605
▁nocturne	-11.2605
▁prestige	-11.2605
▁successifs	-11.2605
▁désignant	-11.2606
▁crâne	-11.2606
▁temporel	-11.2606
▁portuaire	-11.2606
▁gustav	-11.2606
▁brassens	-11.2606
▁scott	-11.2606
▁navale	-11.2606
nik	-11.2606
▁explicitement	-11.2607
▁1913	-11.2608
▁protestantisme	-11.2608
affirmer	-11.261
physique	-11.2614
▁fifa	-11.2614
▁percy	-11.2616
étiquette	-11.2618
estimation	-11.2627
▁luxe	-11.2646
également	-11.2676
▁partielle	-11.2679
▁médiéval	-11.268
▁sexuel	-11.2686
occuper	-11.2703
▁pire	-11.2705
kalevala	-11.2705
▁manufactur	-11.2705
▁boulevard	-11.2705
▁protestation	-11.2705
▁précédemment	-11.2705
▁pseudonyme	-11.2705
▁sarkozy	-11.2705
▁spectaculaire	-11.2705
▁panthéon	-11.2706
▁titulaire	-11.2706
▁cartouche	-11.2706
▁condamne	-11.2706
▁ghana	-11.2706
▁annexé	-11.2706
incident	-11.2706
▁1931	-11.2706
▁fournissent	-11.2708
▁capture	-11.271
▁réduis	-11.271
antoine	-11.2716
▁romantique	-11.272
▁installations	-11.2722
▁multiplient	-11.2728
▁gènes	-11.2729
▁fred	-11.2731
▁pluri	-11.2737
▁estonienne	-11.274
▁méditerranéenne	-11.2743
italien	-11.2746
▁variées	-11.2766
osité	-11.2768
▁électromagnéti	-11.279
trap	-11.2798
▁municipaux	-11.2807
abondance	-11.2807
▁finistère	-11.2807
▁toponyme	-11.2807
▁modélis	-11.2807
▁nécessita	-11.2807
▁doigt	-11.2807
▁sanitaire	-11.2807
▁relance	-11.2807
buffy	-11.2807
▁sociologique	-11.2807
▁agriculteurs	-11.2809
▁autorise	-11.2809
▁unitaire	-11.2812
▁filtre	-11.2814
élect	-11.2815
▁englobe	-11.2816
▁masque	-11.2816
▁déroulant	-11.2821
▁fuite	-11.2821
▁laïc	-11.2822
▁1890	-11.2822
▁déroul	-11.2831
udf	-11.2836
charles	-11.2836
▁cessé	-11.2853
ajouter	-11.2859
organise	-11.2882
▁tribut	-11.2897
life	-11.2907
▁négocia	-11.2908
▁circonstances	-11.2909
▁mussolini	-11.2909
▁préservation	-11.2909
▁cosmique	-11.2909
▁fragile	-11.2909
▁ressemble	-11.2909
▁subvention	-11.2909
▁thierry	-11.2909
▁incapable	-11.2909
▁recherché	-11.2909
▁attiré	-11.2909
▁cheveux	-11.2909
▁commandé	-11.2909
▁slogan	-11.2909
échelon	-11.2909
▁diamant	-11.2909
identification	-11.2909
▁gambie	-11.2909
▁contestation	-11.2909
▁vierge	-11.291
▁préféra	-11.2912
▁normalisation	-11.2912
▁attributs	-11.2912
▁montagneux	-11.2913
▁inondations	-11.2914
▁apparenté	-11.2914
bactéri	-11.2914
▁cantal	-11.2915
▁impôts	-11.2918
▁retenu	-11.2922
interface	-11.2922
▁connait	-11.2923
▁1896	-11.2924
▁comparer	-11.2935
▁colomb	-11.2937
politique	-11.2952
tenait	-11.2961
petit	-11.2962
▁will	-11.2963
▁détermine	-11.2996
▁bombard	-11.3003
▁alphabétique	-11.3012
▁phosphore	-11.3012
▁taïwan	-11.3012
▁titulature	-11.3012
▁procède	-11.3012
compatibilité	-11.3012
▁terminal	-11.3012
extraction	-11.3012
▁toxique	-11.3012
▁archées	-11.3012
▁marginal	-11.3012
▁jordan	-11.3012
érosion	-11.3013
insecte	-11.3013
▁yoshi	-11.3013
▁gravité	-11.3016
▁marié	-11.3017
▁évènements	-11.3018
▁bourgeoisie	-11.3018
▁jung	-11.3024
fol	-11.3027
▁montagneuse	-11.303
▁levant	-11.3039
▁php	-11.3042
lock	-11.3058
▁affronte	-11.3062
▁assisté	-11.3064
▁natif	-11.3071
▁comédien	-11.3085
▁recueille	-11.3089
▁coupable	-11.3099
▁puni	-11.31
habitude	-11.3109
appropri	-11.311
doub	-11.3112
▁appuyé	-11.3116
▁autoritaire	-11.3116
▁caraïbes	-11.3116
▁encouragé	-11.3116
▁macédoine	-11.3116
▁protège	-11.3116
▁rébellion	-11.3116
▁spécification	-11.3116
▁successivement	-11.3116
▁savoyard	-11.3116
▁colonel	-11.3116
▁hitler	-11.3116
▁sanskrit	-11.3116
▁symétrie	-11.3116
▁conjointement	-11.3117
▁huitième	-11.3118
▁réfère	-11.3118
▁segment	-11.3118
ouganda	-11.3119
▁imposant	-11.312
▁soulèvement	-11.3127
acheter	-11.3128
enceinte	-11.3134
▁constant	-11.3136
claude	-11.3137
gang	-11.3138
▁iranienne	-11.314
▁carlos	-11.3143
▁agglomérations	-11.3147
▁dessinateur	-11.3161
▁cède	-11.3167
▁suis	-11.3169
▁skinhead	-11.318
▁lanceur	-11.3189
▁gouverne	-11.319
▁préside	-11.3193
▁constantin	-11.3194
arrêter	-11.3195
barb	-11.3197
iphone	-11.3203
▁assimil	-11.3203
▁bab	-11.3217
▁déplacé	-11.3221
▁montpellier	-11.3221
▁préfixe	-11.3221
▁randonnée	-11.3221
▁reprenant	-11.3221
▁successives	-11.3221
▁traduire	-11.3221
▁éducatif	-11.3221
anarchisme	-11.3221
▁soupçon	-11.3221
actualité	-11.3221
▁surréalisme	-11.3221
▁existé	-11.3221
▁tutelle	-11.3221
▁converg	-11.3222
▁gaston	-11.3222
▁ibn	-11.3223
éteint	-11.3223
▁généré	-11.3223
orange	-11.3224
▁livré	-11.3225
▁globe	-11.3225
▁paradis	-11.3225
▁penseurs	-11.3225
▁désaccord	-11.3226
▁chassé	-11.3226
▁revers	-11.3227
▁parution	-11.3227
▁astéroïdes	-11.3228
ishi	-11.3232
électronique	-11.3248
▁retire	-11.3253
vingt	-11.3256
▁aborde	-11.3257
version	-11.3258
▁conclut	-11.3259
▁offici	-11.3262
▁largeur	-11.3266
exprim	-11.3303
▁physi	-11.3318
▁révéla	-11.3325
▁forge	-11.3327
astronaute	-11.3327
tractatus	-11.3327
éléphant	-11.3327
▁détruire	-11.3327
▁friedrich	-11.3327
▁posthume	-11.3327
▁évangélique	-11.3327
▁construis	-11.3327
▁refuge	-11.3327
▁vapeur	-11.3328
▁museum	-11.3328
▁germanophone	-11.3328
▁hasard	-11.3329
▁plonge	-11.333
hiro	-11.3336
▁beauté	-11.3341
systématiquement	-11.3342
▁visité	-11.3348
▁rennes	-11.3349
▁métis	-11.3349
logiciel	-11.335
intention	-11.335
▁1860	-11.3351
août	-11.3351
journal	-11.3351
▁proportionnel	-11.336
▁catalan	-11.3368
▁pleinement	-11.3369
▁vaud	-11.3374
▁150	-11.3377
▁travaillé	-11.3388
onnait	-11.3392
▁prépare	-11.3397
abandonner	-11.3411
assassin	-11.343
hostilité	-11.3435
▁singulier	-11.3435
approfondi	-11.3435
assemblage	-11.3435
ordonnance	-11.3435
évaluer	-11.3435
▁fortifié	-11.3435
▁suffisante	-11.3435
▁toponymie	-11.3435
▁cousteau	-11.3435
▁publia	-11.3435
▁christophe	-11.3435
▁photographe	-11.3435
▁propice	-11.3435
▁mystique	-11.3435
▁mensuel	-11.3436
▁trompe	-11.3436
▁négligeable	-11.3439
▁cloche	-11.3441
▁certificat	-11.3444
▁organes	-11.3444
iciens	-11.3446
exclusion	-11.3447
▁paraître	-11.3447
▁algérien	-11.3448
▁violation	-11.3457
enfance	-11.346
▁kong	-11.3468
▁typiquement	-11.347
▁consul	-11.3478
écosse	-11.3502
▁comique	-11.3527
noir	-11.3532
▁matériau	-11.354
▁résolu	-11.3541
hospital	-11.3543
herméneutique	-11.3544
inconscient	-11.3544
unanimité	-11.3544
émoticône	-11.3544
▁académique	-11.3544
▁alternatif	-11.3544
▁carrefour	-11.3544
▁discrimination	-11.3544
▁représentaient	-11.3544
▁stephen	-11.3544
▁tempête	-11.3544
▁handball	-11.3544
épithète	-11.3544
▁fernand	-11.3544
▁adressé	-11.3544
▁fameuse	-11.3544
▁pourcentage	-11.3544
▁remplaça	-11.3545
▁analogique	-11.3545
▁prud	-11.3546
horreur	-11.3547
▁spéciaux	-11.3547
▁momie	-11.3548
établit	-11.3548
▁anneaux	-11.3551
adopter	-11.3551
▁quoique	-11.3552
ambassadeur	-11.3558
▁architectes	-11.3561
▁raid	-11.3566
▁chaos	-11.3567
▁matrice	-11.3567
▁1880	-11.3568
riot	-11.3588
▁spécialiste	-11.3633
acquérir	-11.3654
▁constamment	-11.3654
▁suspension	-11.3654
▁crêpe	-11.3654
▁dépassant	-11.3654
▁mexico	-11.3654
▁betty	-11.3654
▁modernisation	-11.3654
▁culmine	-11.3654
▁brahman	-11.3654
▁déménage	-11.3655
▁ivoirien	-11.3655
▁accède	-11.3657
▁mongol	-11.3657
élevait	-11.3658
audience	-11.366
▁famine	-11.366
▁fief	-11.366
american	-11.3667
tendue	-11.3686
▁natal	-11.3694
▁faille	-11.3696
▁prose	-11.3698
conduct	-11.3702
▁quadri	-11.3717
▁pala	-11.3717
astéroïde	-11.3758
▁soirée	-11.3761
apollinaire	-11.3765
▁barcelone	-11.3765
▁consécutive	-11.3765
▁corrèze	-11.3765
▁dagobert	-11.3765
▁hiéroglyphes	-11.3765
▁indépendamment	-11.3765
▁interview	-11.3765
▁mozilla	-11.3765
▁quinzaine	-11.3765
▁révéler	-11.3765
▁sculpteur	-11.3765
affichage	-11.3765
▁collabore	-11.3765
▁mégret	-11.3765
▁primitif	-11.3765
▁monarque	-11.3765
abydos	-11.3765
▁derrida	-11.3765
▁expliqua	-11.3765
assistance	-11.3765
▁plainte	-11.3765
▁boîte	-11.3765
▁entraînant	-11.3765
▁anglophone	-11.3765
▁javascript	-11.3765
▁1908	-11.3766
andalousie	-11.3766
▁libérer	-11.3766
▁sibérie	-11.3766
▁1901	-11.3766
▁convaincre	-11.3768
▁découle	-11.3769
▁confère	-11.3769
▁intervenir	-11.377
▁dvd	-11.3771
oreille	-11.3773
▁63	-11.3777
▁croisade	-11.3781
▁succédé	-11.3783
▁libye	-11.3784
▁décoration	-11.3796
lettre	-11.3806
▁http	-11.3823
élique	-11.3828
indique	-11.3836
finale	-11.3851
▁grossi	-11.3854
mund	-11.386
▁400	-11.3861
▁sacrifi	-11.3867
esclave	-11.387
homonymie	-11.3877
infanterie	-11.3877
▁cambodge	-11.3877
▁divertissement	-11.3877
▁ecclésiastique	-11.3877
▁récupérer	-11.3877
▁spiritualité	-11.3877
▁tolérance	-11.3877
▁vacances	-11.3877
▁génitif	-11.3877
▁rempart	-11.3877
iconographie	-11.3877
mavariable	-11.3877
▁concession	-11.3877
▁contenir	-11.3877
▁recrute	-11.3877
▁tunnel	-11.3877
▁pedro	-11.3877
▁award	-11.3877
▁cryptographie	-11.3877
palestinien	-11.3877
érudit	-11.3877
▁cambridge	-11.3877
▁détourne	-11.3877
▁couronné	-11.3877
▁pension	-11.388
▁bascule	-11.388
▁1912	-11.388
▁combattre	-11.3888
▁agrandi	-11.3891
établissent	-11.3892
▁toile	-11.3895
▁garantie	-11.3897
▁invente	-11.3901
▁martial	-11.3902
▁documentation	-11.3905
▁borne	-11.3906
▁morse	-11.3906
▁instaure	-11.3909
▁contribua	-11.3911
ovide	-11.3923
kami	-11.3924
chemin	-11.3925
affirme	-11.3927
▁brésilienne	-11.3927
▁procéd	-11.3933
brand	-11.3961
▁élargi	-11.3961
▁exceptionnel	-11.3963
▁éventuelle	-11.3975
▁navire	-11.3976
▁catherine	-11.3991
▁prépondéran	-11.3991
▁reconstruit	-11.3991
▁disputé	-11.3991
▁douglas	-11.3991
▁lumineuse	-11.3991
▁trentaine	-11.3991
▁disciple	-11.3991
▁subdivisions	-11.3991
▁télécharge	-11.3991
▁hellénistique	-11.3991
▁prône	-11.3991
▁baroque	-11.3991
▁suscité	-11.3991
▁performant	-11.3991
▁verdun	-11.3991
▁emacs	-11.3991
inventaire	-11.3991
▁berceau	-11.3992
▁teneur	-11.3992
▁milice	-11.3994
▁picard	-11.3995
▁payé	-11.3995
▁lettonie	-11.3995
▁inscriptions	-11.3999
▁carolingienne	-11.4005
▁firent	-11.4008
▁bouton	-11.4014
▁1895	-11.4015
chimique	-11.4026
▁fbi	-11.4031
langage	-11.4034
▁tunisie	-11.4035
imagerie	-11.4044
▁hill	-11.405
▁libanais	-11.4052
▁décida	-11.4091
accentue	-11.41
▁préservé	-11.4106
▁subdivisé	-11.4106
▁abrégé	-11.4106
▁analytique	-11.4106
▁chœur	-11.4106
▁contradiction	-11.4106
▁conçoit	-11.4106
▁engendré	-11.4106
▁libéraux	-11.4106
▁migrants	-11.4106
▁morphologie	-11.4106
▁mutuelle	-11.4106
▁nagasaki	-11.4106
▁palmarès	-11.4106
▁préparatoire	-11.4106
▁éliminé	-11.4106
incarnation	-11.4106
▁époux	-11.4106
synthétique	-11.4106
▁sultan	-11.4106
infection	-11.4106
▁ultime	-11.4106
▁boursier	-11.4106
traducteur	-11.4106
▁affirmant	-11.4106
▁bohr	-11.4106
▁centriste	-11.4106
observatoire	-11.4106
kayak	-11.4107
▁brève	-11.4108
▁afro	-11.4108
▁révélation	-11.4108
▁natalité	-11.4109
▁libéralisme	-11.4112
▁barrière	-11.4115
▁baltique	-11.4117
▁australien	-11.4119
▁colère	-11.4121
▁dépendent	-11.4134
gauche	-11.4147
libération	-11.4147
voyage	-11.4158
▁palm	-11.4169
▁conteste	-11.4174
▁perdure	-11.418
étrange	-11.4181
▁cuba	-11.4186
ommage	-11.4188
alberta	-11.4189
▁prière	-11.4198
▁pyramide	-11.4216
▁budgétaire	-11.4222
▁conduisent	-11.4222
▁couvrant	-11.4222
▁jamaïque	-11.4222
▁posséder	-11.4222
▁privilégie	-11.4222
▁psychanalytique	-11.4222
▁renouvellement	-11.4222
▁roumanie	-11.4222
▁terrible	-11.4222
▁végétaux	-11.4222
▁évidemment	-11.4222
▁monopole	-11.4222
bulletin	-11.4222
▁souffle	-11.4222
▁positionnement	-11.4222
▁samuel	-11.4222
▁doublé	-11.4222
amstrad	-11.4222
▁méridien	-11.4222
▁croyant	-11.4222
animisme	-11.4222
▁bayrou	-11.4224
▁thot	-11.4231
▁réveil	-11.4232
▁shiva	-11.4234
avère	-11.4234
▁drame	-11.4235
▁abrita	-11.4238
▁naître	-11.4239
▁réalisme	-11.424
▁reich	-11.4242
▁1830	-11.425
him	-11.4251
angola	-11.4253
▁séisme	-11.4256
abili	-11.4263
interprète	-11.4265
préfecture	-11.4265
octobre	-11.4266
social	-11.4269
oscar	-11.4272
linux	-11.4281
▁panier	-11.4284
▁gab	-11.4294
▁cuir	-11.4323
▁barbe	-11.4333
taka	-11.4333
▁morceau	-11.4336
ndustrialisation	-11.4338
▁archéologique	-11.4338
▁augmenta	-11.4339
récipiendaire	-11.434
▁ferdinand	-11.434
▁frédéric	-11.434
▁narration	-11.434
▁plutarque	-11.434
▁prestigieuse	-11.434
▁prestigieux	-11.434
▁recommandé	-11.434
▁représentative	-11.434
▁répétition	-11.434
▁sépulture	-11.434
▁rénovation	-11.434
▁prédominan	-11.434
▁démarque	-11.434
▁planétaire	-11.434
▁flandre	-11.434
▁influent	-11.434
▁qualification	-11.434
▁communiquer	-11.434
▁venise	-11.434
▁chronologique	-11.434
▁1906	-11.434
▁1904	-11.4341
▁certes	-11.4342
▁pèlerinage	-11.4343
▁dangereux	-11.4344
▁savants	-11.4345
▁croire	-11.4347
▁garantir	-11.435
▁alpha	-11.4351
▁lentement	-11.4354
▁connecté	-11.4355
▁dangereuse	-11.4357
▁milan	-11.436
▁coréenne	-11.4375
économique	-11.4386
parole	-11.4399
▁cave	-11.4402
oubli	-11.4426
électro	-11.443
▁rassemblé	-11.4439
▁explicit	-11.4457
▁pauvre	-11.4458
▁diplômé	-11.4459
occurrence	-11.4459
évêché	-11.4459
▁divorce	-11.4459
▁déforestation	-11.4459
▁fantasy	-11.4459
▁lumineux	-11.4459
▁lymphocyte	-11.4459
▁memphis	-11.4459
▁neutralité	-11.4459
▁remarqué	-11.4459
▁motivation	-11.4459
▁clotaire	-11.4459
▁forestière	-11.4459
▁technic	-11.4459
▁dispens	-11.4459
▁fertile	-11.4459
▁codage	-11.4459
▁civique	-11.4459
▁découpé	-11.4459
▁déclinaison	-11.446
▁celtes	-11.446
▁septentrionale	-11.4461
ardèche	-11.4462
▁sharon	-11.4463
▁courrier	-11.4464
▁herbert	-11.4465
▁ariane	-11.4466
▁titan	-11.4467
▁russell	-11.4467
▁experts	-11.4468
▁localisation	-11.4468
▁maîtresse	-11.4469
▁veule	-11.4469
▁virus	-11.4477
▁contente	-11.4483
émigration	-11.4485
▁couteau	-11.4488
marseille	-11.4508
corps	-11.4512
▁artificiel	-11.4519
▁situa	-11.4521
▁tang	-11.4534
▁vénéré	-11.4539
attirer	-11.4552
2000	-11.4558
évènement	-11.4572
appartement	-11.4572
▁marqua	-11.4573
▁accepta	-11.4573
arithmétique	-11.4579
astérix	-11.4579
égyptologue	-11.4579
éphémère	-11.4579
▁conservatoire	-11.4579
▁détermination	-11.4579
▁manhattan	-11.4579
▁scission	-11.4579
▁transmettre	-11.4579
▁wilhelm	-11.4579
▁concrète	-11.4579
▁merveille	-11.4579
agression	-11.4579
▁rigueur	-11.4579
▁dévoile	-11.4579
▁précieux	-11.4579
project	-11.4579
intérim	-11.4579
▁chartres	-11.458
▁moore	-11.458
strauss	-11.458
▁guyane	-11.4581
▁faudra	-11.4581
colonia	-11.4584
▁rendez	-11.4585
▁dollar	-11.4587
▁localité	-11.4591
▁tabac	-11.4614
▁otto	-11.4633
▁valide	-11.4634
apprendre	-11.4636
▁constaté	-11.464
child	-11.4643
▁emprunte	-11.4648
osaurus	-11.4649
▁perfor	-11.4651
environnementaux	-11.4683
dramaturge	-11.4701
▁diaspora	-11.4701
▁distingué	-11.4701
▁hébraïque	-11.4701
▁marketing	-11.4701
▁répertoire	-11.4701
▁soumettre	-11.4701
▁vignoble	-11.4701
▁pompée	-11.4701
▁radicaux	-11.4701
▁écosystèmes	-11.4701
▁trouvant	-11.4701
▁homogène	-11.4701
▁haïti	-11.4701
▁raisonnement	-11.4701
▁formulé	-11.4701
▁hospitalier	-11.4701
▁maxwell	-11.4702
▁préhistorique	-11.4703
▁dommages	-11.4705
▁nuance	-11.4713
▁1894	-11.4717
▁1848	-11.4721
▁jones	-11.4722
▁fréquentation	-11.4726
▁suspendu	-11.4738
éveil	-11.4763
▁minéral	-11.4799
intégr	-11.4802
▁renommé	-11.4824
▁bibliographie	-11.4824
▁bouleverse	-11.4824
▁glaciaire	-11.4824
▁légendaire	-11.4824
▁pandémie	-11.4824
▁protagoniste	-11.4824
▁costume	-11.4824
▁prévention	-11.4824
oxford	-11.4824
▁barrès	-11.4825
arrestation	-11.4825
▁poussière	-11.4825
▁grandissant	-11.4825
▁paquets	-11.4825
▁serbie	-11.4825
▁chevaux	-11.4825
chaussée	-11.4825
▁devraient	-11.4825
▁réformé	-11.4826
▁conservatrice	-11.4826
▁1915	-11.4827
artisanat	-11.4828
▁savante	-11.483
▁lisp	-11.4831
▁1789	-11.4832
▁1790	-11.4832
▁frein	-11.4833
▁intime	-11.4838
▁comptant	-11.4841
▁querelle	-11.4851
romain	-11.4857
▁beat	-11.4858
arrive	-11.4885
▁réaliste	-11.4898
optimisation	-11.4906
▁err	-11.4907
fried	-11.4917
▁souche	-11.4929
▁martel	-11.4938
▁protestant	-11.4941
▁attendu	-11.4943
▁paradoxal	-11.4949
abstention	-11.4949
armistice	-11.4949
▁amélioré	-11.4949
▁coefficient	-11.4949
▁linguistes	-11.4949
▁thaïlandais	-11.4949
▁téléphonie	-11.4949
amplitude	-11.4949
impératrice	-11.4949
▁féministe	-11.4949
▁précède	-11.4949
▁bilingue	-11.495
▁school	-11.495
interpréter	-11.495
▁disposé	-11.495
▁citation	-11.495
▁priori	-11.4951
▁exigences	-11.4953
ensuit	-11.4953
▁définissent	-11.4954
▁évoqua	-11.4955
▁approprié	-11.4957
abonné	-11.4962
▁surmonté	-11.4965
▁ingénieurs	-11.4972
▁cadet	-11.5001
production	-11.5004
▁polaire	-11.5005
catégorie	-11.5011
connu	-11.5011
auguste	-11.5012
▁poussé	-11.505
▁repli	-11.5059
▁immédiate	-11.5059
taxi	-11.5061
homosexualité	-11.5076
inconvénient	-11.5076
pâtisserie	-11.5076
▁benoît	-11.5076
▁combustion	-11.5076
▁originaux	-11.5076
▁propagation	-11.5076
▁sédimentaire	-11.5076
▁électoraux	-11.5076
▁stanley	-11.5076
▁déportation	-11.5076
éliminer	-11.5076
▁décalage	-11.5076
▁profane	-11.5076
▁résumé	-11.5076
▁ordonne	-11.5076
▁routière	-11.5076
▁précieuse	-11.5076
▁pdf	-11.5076
▁trophée	-11.5076
▁entretenu	-11.5077
▁commissaire	-11.5077
▁instable	-11.5077
▁portail	-11.5077
▁cpc	-11.5077
▁visual	-11.5078
osaka	-11.5078
▁potentiellement	-11.5079
▁phare	-11.508
▁appartements	-11.5083
▁agences	-11.5097
program	-11.5097
▁critère	-11.5103
▁exemplaire	-11.5115
▁fusil	-11.5123
▁rapproché	-11.5129
attend	-11.5137
atteindre	-11.5141
philippe	-11.5141
▁progressiste	-11.5146
▁calme	-11.5185
ascendance	-11.5204
essayiste	-11.5204
hydrazine	-11.5204
implémentation	-11.5204
▁diagnostic	-11.5204
▁extraordinaire	-11.5204
▁paradigme	-11.5204
▁résultant	-11.5204
▁subsaharienne	-11.5204
▁varsovie	-11.5204
▁vladimir	-11.5204
▁berbère	-11.5204
▁programmé	-11.5204
▁batterie	-11.5204
▁veuve	-11.5204
▁affiché	-11.5204
implication	-11.5204
▁conducteur	-11.5205
▁complice	-11.5205
▁incarné	-11.5205
▁dissout	-11.5205
▁sierra	-11.5205
▁insulaire	-11.5205
▁inversement	-11.5205
▁adhère	-11.5206
▁chamane	-11.5207
isotope	-11.5207
▁céder	-11.5208
▁beach	-11.5209
égide	-11.521
▁collaborateurs	-11.5211
▁dioxy	-11.5212
▁désordre	-11.5218
▁messagerie	-11.5221
▁letton	-11.5223
▁hesse	-11.5224
▁incite	-11.5227
▁indigène	-11.5236
▁législative	-11.5236
entoure	-11.5247
automobile	-11.5272
premier	-11.5272
chapelle	-11.5273
tête	-11.5278
conseil	-11.5283
▁glisse	-11.5285
▁indépendantiste	-11.5288
▁comparé	-11.5296
chrétien	-11.5296
gall	-11.5299
▁multiplie	-11.5306
▁germano	-11.5334
▁babylonie	-11.5334
▁conquérant	-11.5334
▁sculpté	-11.5334
obstacle	-11.5334
élimination	-11.5334
▁analysé	-11.5334
▁conduisant	-11.5334
▁disparaissent	-11.5334
▁hydrographie	-11.5334
▁protectorat	-11.5334
▁ptolémée	-11.5334
intercommunalité	-11.5334
▁blender	-11.5334
▁meeting	-11.5334
▁scribe	-11.5334
▁stéréo	-11.5334
▁matérialis	-11.5334
▁perturbations	-11.5335
▁prestation	-11.5335
▁cardinal	-11.5335
▁équatoriale	-11.5335
▁mpf	-11.5336
▁crème	-11.5336
▁ernest	-11.5337
▁liévin	-11.5338
▁importations	-11.534
▁doubs	-11.5343
▁balance	-11.5348
▁rendement	-11.5378
examen	-11.5406
illustre	-11.5406
tendant	-11.5421
éclairage	-11.5436
▁alimente	-11.5445
morphi	-11.5464
archevêque	-11.5466
embouchure	-11.5466
▁accessoire	-11.5466
▁analogue	-11.5466
▁doctorat	-11.5466
▁stéréotypes	-11.5466
▁vatican	-11.5466
▁assurant	-11.5466
▁précoce	-11.5466
▁multinationale	-11.5466
▁canidé	-11.5466
▁covid	-11.5466
▁antilles	-11.5467
▁symétrique	-11.5467
▁slaves	-11.5467
▁consulat	-11.5469
▁triangle	-11.547
▁puits	-11.547
arrange	-11.547
▁miami	-11.5472
▁propage	-11.5472
▁mik	-11.5473
▁persécution	-11.5473
▁innovations	-11.5482
▁marxiste	-11.5487
adapte	-11.5508
cœur	-11.5541
militaire	-11.5543
▁effective	-11.5582
introduir	-11.5588
▁épais	-11.5598
▁lisbonne	-11.5599
hydrocarbure	-11.5599
▁affirmé	-11.5599
▁certitude	-11.5599
▁chiffré	-11.5599
▁implicite	-11.5599
▁postérité	-11.5599
▁samouraïs	-11.5599
▁syntaxique	-11.5599
▁interrogé	-11.5599
▁saussure	-11.5599
▁antonio	-11.5599
▁fanzine	-11.5599
▁poitou	-11.5599
▁modernité	-11.5599
▁cratère	-11.5599
▁amoureux	-11.5599
▁paiement	-11.5599
▁soufre	-11.5599
▁ravage	-11.5599
▁uniforme	-11.5599
▁zinc	-11.56
anarchie	-11.5601
▁datation	-11.5602
▁ressenti	-11.5602
▁appris	-11.5603
▁poudre	-11.5604
▁couvent	-11.5604
mandant	-11.5608
▁torture	-11.5611
▁sentir	-11.5613
▁tapis	-11.5615
▁baptis	-11.5616
▁cédé	-11.5619
ferrand	-11.562
▁convaincu	-11.5624
hérésie	-11.5649
▁800	-11.5667
alfred	-11.5678
dynamique	-11.5678
▁golf	-11.5727
▁transfér	-11.5729
popular	-11.5734
disciplinaire	-11.5734
▁dépouille	-11.5734
▁portefeuille	-11.5734
abstraction	-11.5734
explorateur	-11.5734
électorat	-11.5734
▁amérindienne	-11.5734
▁cicéron	-11.5734
▁communiqué	-11.5734
▁correctement	-11.5734
▁honduras	-11.5734
▁ministériel	-11.5734
▁mœurs	-11.5734
▁possédait	-11.5734
▁rejoignent	-11.5734
▁relevant	-11.5734
▁symptôme	-11.5734
▁typologie	-11.5734
▁lituanie	-11.5734
▁ponctue	-11.5734
▁collision	-11.5734
▁allusion	-11.5734
▁vedette	-11.5734
▁métaphore	-11.5734
▁mépris	-11.5735
▁humaniste	-11.5735
▁mersenne	-11.5735
▁créature	-11.5736
▁salut	-11.5736
▁confér	-11.5741
▁grille	-11.5752
▁passionné	-11.5769
▁neveu	-11.5775
éloge	-11.5782
inosaur	-11.5787
▁soldat	-11.5788
ministre	-11.5792
▁fasse	-11.5793
▁syndicat	-11.5796
sauf	-11.5829
▁télévisé	-11.5836
collaborateur	-11.5864
argile	-11.5864
synchro	-11.5867
angoulême	-11.5871
approbation	-11.5871
excédent	-11.5871
éruption	-11.5871
▁botswana	-11.5871
▁exhaustive	-11.5871
▁fertilité	-11.5871
▁gigantesque	-11.5871
▁kennedy	-11.5871
▁métallurgie	-11.5871
▁satisfaire	-11.5871
▁satisfait	-11.5871
▁chypre	-11.5871
▁1871	-11.5871
▁bétail	-11.5871
▁logistique	-11.5871
▁ethernet	-11.5871
▁guitare	-11.5871
▁renversé	-11.5871
▁géographe	-11.5871
▁géopolitique	-11.5871
▁oublier	-11.5872
▁dégradé	-11.5872
▁subsista	-11.5872
▁livonie	-11.5872
▁décimal	-11.5872
▁générer	-11.5872
▁contrée	-11.5872
▁saké	-11.5873
érable	-11.5874
▁disney	-11.5875
▁shogunat	-11.5876
▁battre	-11.5878
▁walter	-11.5881
aragon	-11.5909
▁haye	-11.5914
hébergement	-11.5931
▁loge	-11.5942
enseigne	-11.5943
technique	-11.5957
compositeur	-11.5958
▁explore	-11.5988
▁précéd	-11.5996
▁chrono	-11.6009
athlétisme	-11.601
▁armoiries	-11.601
▁autrichienne	-11.601
▁chiropratique	-11.601
▁confrontation	-11.601
▁empirique	-11.601
▁grégorien	-11.601
▁instauré	-11.601
▁janeiro	-11.601
▁jésuite	-11.601
▁simplifie	-11.601
inscrire	-11.601
▁catalogue	-11.601
▁confondre	-11.601
audiovisuel	-11.601
élévation	-11.601
▁marchais	-11.601
▁camarade	-11.601
▁neustrie	-11.601
▁promesse	-11.601
▁gouverné	-11.601
▁brown	-11.601
▁génère	-11.601
▁missionnaires	-11.601
▁félins	-11.601
▁tumeur	-11.601
▁psychique	-11.6011
▁1907	-11.6011
classic	-11.6012
▁1916	-11.6013
▁alchimique	-11.6013
▁rachat	-11.6017
▁habitudes	-11.6019
entourage	-11.6021
▁harris	-11.6021
intéress	-11.6037
2005	-11.6038
opep	-11.6042
▁thermo	-11.6045
isolement	-11.6087
personne	-11.6129
effondre	-11.6134
inondation	-11.6144
▁québécois	-11.6151
imagination	-11.6151
▁absorbé	-11.6151
▁brièvement	-11.6151
▁caucase	-11.6151
▁condorcet	-11.6151
▁emprisonné	-11.6151
▁garnison	-11.6151
▁gouvernance	-11.6151
▁hôpitaux	-11.6151
▁modalités	-11.6151
▁périphérie	-11.6151
▁requête	-11.6151
▁rwanda	-11.6151
▁tallinn	-11.6151
envergure	-11.6151
▁sauvegarde	-11.6151
▁arendt	-11.6151
archéologue	-11.6151
▁company	-11.6151
▁square	-11.6151
▁mâle	-11.6151
▁contrepartie	-11.6151
▁ptah	-11.6151
▁aquatique	-11.6151
▁scalaire	-11.6151
▁rumeur	-11.6152
▁utilisable	-11.6153
▁réplique	-11.6153
intégrité	-11.6154
▁stèle	-11.6155
▁proteste	-11.6156
▁dixième	-11.6156
▁palette	-11.616
imposa	-11.6162
électeur	-11.6163
intégralité	-11.6199
porteuse	-11.6206
vignette	-11.6232
▁guill	-11.6239
▁arabo	-11.6243
alexandre	-11.6245
étymologie	-11.6245
démocrate	-11.6245
étape	-11.6246
avril	-11.6247
souvent	-11.6247
▁conjoint	-11.6292
installa	-11.6292
▁cérébral	-11.6294
▁industrialisé	-11.6294
ambiguïté	-11.6294
▁attaqué	-11.6294
▁baptême	-11.6294
▁boîtier	-11.6294
▁clôture	-11.6294
▁criminalité	-11.6294
▁dégâts	-11.6294
▁fidélité	-11.6294
▁fraîche	-11.6294
▁grégoire	-11.6294
▁hydroélectrique	-11.6294
▁réglementation	-11.6294
▁terminologie	-11.6294
humidité	-11.6294
▁inutile	-11.6294
intersection	-11.6294
▁comptoir	-11.6294
▁gagnant	-11.6294
▁laguiller	-11.6294
▁palestine	-11.6294
▁réclama	-11.6294
hérault	-11.6294
▁offrant	-11.6294
▁vassaux	-11.6294
monsieur	-11.6294
▁forestier	-11.6294
▁naissant	-11.6294
hotep	-11.6294
▁bioéthique	-11.6295
▁quimper	-11.6295
▁trajet	-11.6296
▁osirien	-11.6296
▁résida	-11.6297
▁épices	-11.6297
▁secours	-11.6302
efface	-11.6302
estuaire	-11.6303
utilité	-11.6309
échir	-11.6316
▁vénér	-11.6344
fichier	-11.6392
micro	-11.6394
yorkais	-11.6411
▁caill	-11.6422
▁afghan	-11.6435
adhérents	-11.6439
avortement	-11.6439
immobilier	-11.6439
▁asymétrique	-11.6439
▁champollion	-11.6439
▁codifié	-11.6439
▁célébrité	-11.6439
▁interrompu	-11.6439
▁morphologique	-11.6439
▁télescope	-11.6439
▁danube	-11.6439
▁faillite	-11.6439
▁permanence	-11.6439
▁poursuivent	-11.6439
▁tambour	-11.6439
affranchi	-11.6439
▁homologue	-11.6439
▁remporta	-11.6439
▁squelette	-11.6439
▁carthage	-11.6439
▁théoricien	-11.6439
▁adepte	-11.6439
▁brabant	-11.6439
▁donald	-11.6439
▁agraire	-11.6439
▁restauré	-11.6439
▁bueno	-11.644
▁1902	-11.644
▁marquis	-11.644
▁belfort	-11.6441
▁malaisie	-11.6445
▁avéré	-11.6447
inclusion	-11.6515
▁abordé	-11.6538
métrage	-11.6542
expédition	-11.6542
occitan	-11.6542
étudier	-11.6542
classique	-11.6542
quartier	-11.6542
source	-11.6546
▁familial	-11.6548
▁salvador	-11.6586
héraldique	-11.6586
▁commonwealth	-11.6586
▁coordination	-11.6586
▁exportateur	-11.6586
▁foncier	-11.6586
▁madeleine	-11.6586
▁nigeria	-11.6586
▁parenthèses	-11.6586
▁pellicule	-11.6586
▁recommande	-11.6586
▁repoussé	-11.6586
▁tokugawa	-11.6586
▁couloir	-11.6586
▁texas	-11.6586
▁restaurer	-11.6586
▁remontant	-11.6586
attaquant	-11.6586
▁annonça	-11.6586
▁caricatur	-11.6586
▁nippon	-11.6586
▁racisme	-11.6586
▁raoul	-11.6586
▁confirma	-11.6586
▁popularisé	-11.6586
▁détache	-11.6587
ajustement	-11.6588
▁vincent	-11.659
appliqua	-11.659
oasis	-11.6591
épaisseur	-11.6592
▁descente	-11.6596
▁prétexte	-11.6597
▁kurt	-11.6598
▁retrouva	-11.6606
élever	-11.661
▁alimenté	-11.6616
▁mentale	-11.6623
brahm	-11.6644
▁fossile	-11.6677
gouvernement	-11.6693
ythm	-11.6696
chimie	-11.6711
importation	-11.6728
encyclopédie	-11.6735
▁algébrique	-11.6735
▁bouddha	-11.6735
▁détection	-11.6735
▁généalogique	-11.6735
▁habsbourg	-11.6735
▁insuffisant	-11.6735
▁négocie	-11.6735
▁représentatif	-11.6735
▁suzuki	-11.6735
héliopolis	-11.6735
▁étrusque	-11.6735
▁donjon	-11.6735
▁mayennais	-11.6735
packard	-11.6735
▁annulé	-11.6735
▁flottant	-11.6735
▁zurich	-11.6735
▁glaciers	-11.6735
▁prévision	-11.6735
▁bâton	-11.6735
▁essaye	-11.6735
▁vosges	-11.6735
▁animiste	-11.6735
▁détaché	-11.6735
▁clause	-11.6736
▁régénér	-11.6736
▁chauve	-11.6736
▁1909	-11.6736
▁sartre	-11.6737
▁estimant	-11.6738
▁castres	-11.6738
▁single	-11.674
▁convoi	-11.6743
rôle	-11.6748
allonge	-11.6763
valoir	-11.6777
▁crypto	-11.6789
capitale	-11.6848
articule	-11.6854
▁apparemment	-11.6887
▁babylone	-11.6887
▁citoyenneté	-11.6887
▁confucianisme	-11.6887
▁eucaryotes	-11.6887
▁fédéré	-11.6887
▁héréditaire	-11.6887
▁investisseurs	-11.6887
▁minuscule	-11.6887
▁multiplié	-11.6887
▁rectangulaire	-11.6887
▁reproduire	-11.6887
▁sardaigne	-11.6887
▁similitude	-11.6887
▁simplifié	-11.6887
▁terrorisme	-11.6887
▁tragédie	-11.6887
▁transparence	-11.6887
▁boulogne	-11.6887
▁distributeur	-11.6887
▁imaginé	-11.6887
▁mélodie	-11.6887
▁xbox	-11.6887
▁cultiva	-11.6887
▁péguy	-11.6887
▁rivaux	-11.6887
▁gravure	-11.6887
▁cartographie	-11.6887
▁rocard	-11.6887
▁balkans	-11.6887
▁génome	-11.6887
▁voûte	-11.6887
▁soutiennent	-11.6887
▁ignore	-11.6887
écoulement	-11.6887
jpg	-11.6887
▁watch	-11.6887
vilaine	-11.6887
escalier	-11.6887
▁citons	-11.6888
▁persiste	-11.6889
▁poterie	-11.6889
enclave	-11.6889
▁hérite	-11.6889
▁compilé	-11.6893
cloud	-11.6894
▁consent	-11.69
▁obéi	-11.6921
aussi	-11.6926
▁métropolitain	-11.6993
historique	-11.7001
public	-11.7004
guinée	-11.701
assimilation	-11.7014
▁soulève	-11.7025
▁sylla	-11.7039
▁combustible	-11.704
▁célébration	-11.704
▁embarqué	-11.704
▁galaxie	-11.704
▁guerrière	-11.704
▁huxley	-11.704
▁powerbook	-11.704
▁quarantaine	-11.704
▁revendiqué	-11.704
▁stallman	-11.704
▁tremblement	-11.704
hémisphère	-11.704
▁compléter	-11.704
▁délimité	-11.704
▁hybride	-11.704
▁paradoxe	-11.704
▁urbanisé	-11.704
▁poitiers	-11.704
▁félix	-11.704
▁boursière	-11.704
▁cardiaque	-11.704
▁galilée	-11.704
▁tragique	-11.7041
▁ruraux	-11.7041
▁tactique	-11.7041
▁sagesse	-11.7041
▁prototype	-11.7041
▁prusse	-11.7041
▁ajoutant	-11.7041
▁sanguin	-11.7041
▁motivé	-11.7042
▁désastre	-11.7042
▁qualifi	-11.7059
wald	-11.7096
▁facilite	-11.7121
▁diffus	-11.7162
▁exclusive	-11.718
princip	-11.7195
electronic	-11.7197
▁antisémite	-11.7197
▁cognitive	-11.7197
▁hiéroglyphique	-11.7197
▁immatériel	-11.7197
▁incertain	-11.7197
▁léopold	-11.7197
▁marguerite	-11.7197
▁provincial	-11.7197
▁supplant	-11.7197
▁suspect	-11.7197
▁trimestre	-11.7197
▁invisible	-11.7197
▁mobilier	-11.7197
▁pénètre	-11.7197
▁émergé	-11.7197
excellence	-11.7197
▁rappelant	-11.7197
▁fallait	-11.7197
▁cinquanta	-11.7197
aurillac	-11.7197
▁arménienne	-11.7197
▁hélios	-11.7197
▁jauge	-11.7197
acronyme	-11.7197
indochine	-11.7197
hiroshima	-11.7197
▁vénus	-11.7197
▁cultive	-11.7197
▁exclusif	-11.7197
aptitude	-11.7197
▁dignité	-11.7197
▁fresque	-11.7197
▁percée	-11.7197
▁martyr	-11.7198
▁paraissent	-11.7198
▁biosphère	-11.7198
semblait	-11.7199
▁transforma	-11.7201
élargissement	-11.7206
agissant	-11.7268
administrateur	-11.7286
formula	-11.7316
▁compare	-11.732
technologie	-11.7323
html	-11.7323
femme	-11.7323
esthétique	-11.7323
africa	-11.7338
idéal	-11.7352
amphétamine	-11.7355
décentralisation	-11.7355
héroïne	-11.7355
itinéraire	-11.7355
▁bruxellois	-11.7355
▁cohérence	-11.7355
▁expliqué	-11.7355
▁mélangé	-11.7355
▁supériorité	-11.7355
▁vampire	-11.7355
hippocrate	-11.7355
▁infantile	-11.7355
▁médiocre	-11.7355
▁vietnamien	-11.7355
▁conversation	-11.7355
▁détention	-11.7355
▁encadré	-11.7355
émancip	-11.7355
▁gilbert	-11.7355
▁institué	-11.7355
▁aléatoire	-11.7355
▁beurre	-11.7355
▁décédé	-11.7355
▁bête	-11.7355
▁gêne	-11.7356
▁polytechnique	-11.7356
▁retrace	-11.7356
orlando	-11.7356
inclure	-11.7357
▁mnr	-11.7357
intervalle	-11.7362
▁demeura	-11.7365
▁vassal	-11.7382
automatis	-11.7407
ougrien	-11.7419
ould	-11.7435
▁musicien	-11.7484
▁maternel	-11.7484
accélération	-11.7517
ascendant	-11.7517
autobiographique	-11.7517
héritière	-11.7517
▁chirurgie	-11.7517
▁ludwig	-11.7517
▁mallarmé	-11.7517
▁morbihan	-11.7517
▁pharmacie	-11.7517
▁pontifica	-11.7517
▁propulsive	-11.7517
▁renouvelé	-11.7517
▁rigoureuse	-11.7517
▁sceptre	-11.7517
▁technology	-11.7517
▁terminaux	-11.7517
obtention	-11.7517
▁iwata	-11.7517
▁mouvance	-11.7517
▁mêlé	-11.7517
▁transistor	-11.7517
initiation	-11.7517
▁blessure	-11.7517
▁terroir	-11.7517
engouement	-11.7517
▁bloque	-11.7517
▁thrace	-11.7517
▁terrasse	-11.7517
▁achète	-11.7517
▁délicat	-11.7517
▁douleur	-11.7517
▁bolivie	-11.7517
▁socle	-11.7518
▁1903	-11.7518
▁discuté	-11.7519
▁glorieu	-11.752
▁acheté	-11.7521
▁savane	-11.7522
▁modifia	-11.7522
▁gentil	-11.7525
▁lexique	-11.753
▁nominal	-11.7534
château	-11.7655
accusatif	-11.7681
antisémitisme	-11.7681
▁affilié	-11.7681
▁brooklyn	-11.7681
▁chevènement	-11.7681
▁comptabilis	-11.7681
▁conviction	-11.7681
▁cordillère	-11.7681
▁crocodile	-11.7681
▁domestiqué	-11.7681
▁gamecube	-11.7681
▁manifestants	-11.7681
▁nomenclature	-11.7681
▁promenade	-11.7681
▁protectrice	-11.7681
▁réciproque	-11.7681
▁sécession	-11.7681
▁thérapeutique	-11.7681
▁lothaire	-11.7681
▁orbitale	-11.7681
▁plantations	-11.7681
▁rédacteur	-11.7681
aveyron	-11.7681
▁botanique	-11.7681
▁mobilisé	-11.7681
élysée	-11.7681
▁falaise	-11.7681
▁miracle	-11.7681
▁ronald	-11.7681
▁descartes	-11.7681
▁fortifications	-11.7681
▁déduit	-11.7681
▁dogme	-11.7682
▁supervise	-11.7683
▁leçon	-11.7685
hellénis	-11.7685
▁attribua	-11.7688
adolf	-11.769
▁norman	-11.7702
▁écarté	-11.7708
united	-11.7728
▁employa	-11.7763
intègre	-11.7823
▁fécond	-11.7845
▁andalou	-11.7846
irrigation	-11.7847
▁authentique	-11.7847
▁balladur	-11.7847
▁copenhague	-11.7847
▁cosmogonie	-11.7847
▁dissident	-11.7847
▁hispanique	-11.7847
▁humoristique	-11.7847
▁incontournable	-11.7847
▁monothéisme	-11.7847
▁mystérieuse	-11.7847
▁néfaste	-11.7847
▁pâques	-11.7847
▁scolarité	-11.7847
▁vestimentaire	-11.7847
▁épiscopal	-11.7847
▁mayotte	-11.7847
▁violemment	-11.7847
▁polluant	-11.7847
▁surnaturel	-11.7847
empêcha	-11.7847
▁pulsion	-11.7847
▁andrew	-11.7847
▁meuble	-11.7847
▁desquelles	-11.7848
▁neptune	-11.7848
▁quasar	-11.7848
▁distingua	-11.7848
▁exporté	-11.7848
▁estivale	-11.7849
▁nautique	-11.7849
ampoule	-11.7849
albanais	-11.785
▁ramené	-11.7853
▁junte	-11.7855
▁curie	-11.7879
climat	-11.7882
urbain	-11.7895
▁participa	-11.7986
première	-11.7996
original	-11.7997
peuple	-11.7997
athlète	-11.801
innombrables	-11.8017
massachusetts	-11.8017
▁baguettes	-11.8017
▁birmanie	-11.8017
▁bourguignon	-11.8017
▁dynamisme	-11.8017
▁pédagogique	-11.8017
▁reconstitué	-11.8017
▁society	-11.8017
▁thompson	-11.8017
▁vulnérable	-11.8017
accélérer	-11.8017
exupéry	-11.8017
▁instinct	-11.8017
▁obtenant	-11.8017
▁sollicité	-11.8017
▁1857	-11.8017
▁chêne	-11.8017
▁guérilla	-11.8017
▁topographie	-11.8017
▁détenteur	-11.8017
▁ambigu	-11.8017
▁débouche	-11.8017
emprise	-11.8017
▁décoratif	-11.8017
▁écrivi	-11.8017
▁innovant	-11.8017
▁lyrique	-11.8017
▁general	-11.8017
gaillarde	-11.8017
▁graphisme	-11.8017
hudson	-11.8017
▁baleine	-11.8018
agrément	-11.8018
▁prouvé	-11.8018
▁week	-11.8018
▁naturaliste	-11.8019
interdisant	-11.8019
hérétique	-11.8019
ancrage	-11.802
▁manteau	-11.8023
▁argil	-11.8032
explorer	-11.8044
plaçant	-11.8069
hormone	-11.8105
▁héberge	-11.8134
égyptien	-11.8171
littéralement	-11.8171
immense	-11.8171
infini	-11.8174
affirma	-11.8187
atterrissage	-11.8189
enthousiasme	-11.8189
perçoit	-11.8189
▁bienveillant	-11.8189
▁bijoux	-11.8189
▁cambrioleur	-11.8189
▁childéric	-11.8189
▁compliqué	-11.8189
▁génocide	-11.8189
▁identitaire	-11.8189
▁navigable	-11.8189
▁nietzsche	-11.8189
▁palindrome	-11.8189
▁ponctuation	-11.8189
▁productivité	-11.8189
▁souffrance	-11.8189
▁suggéré	-11.8189
▁uninominal	-11.8189
▁disposait	-11.8189
▁discrète	-11.8189
▁cavalier	-11.8189
▁gibier	-11.8189
▁pendule	-11.8189
▁mobilise	-11.8189
▁desquels	-11.8189
▁aisément	-11.819
▁favorisant	-11.819
▁1863	-11.8191
étalon	-11.8198
strike	-11.8207
phore	-11.8209
▁sentier	-11.8217
▁signifi	-11.8273
accident	-11.835
jusqu	-11.8358
▁minute	-11.8362
impossibilité	-11.8365
incertitude	-11.8365
inscrivent	-11.8365
▁bourbonnais	-11.8365
▁disponibilité	-11.8365
▁excessive	-11.8365
▁hewlett	-11.8365
▁jérôme	-11.8365
▁maghreb	-11.8365
▁nicholson	-11.8365
▁nunavut	-11.8365
▁papauté	-11.8365
▁pharmaceutique	-11.8365
▁reconstitution	-11.8365
▁rocksteady	-11.8365
▁sassanide	-11.8365
▁software	-11.8365
▁accéléré	-11.8365
▁confection	-11.8365
▁innocent	-11.8365
▁éternelle	-11.8365
▁advance	-11.8365
▁boycott	-11.8365
▁cadavre	-11.8365
▁ouvrant	-11.8365
expulsion	-11.8365
▁exerça	-11.8365
▁bâle	-11.8365
existaient	-11.8365
▁médiatisé	-11.8365
édification	-11.8365
▁démarre	-11.8365
▁poupée	-11.8366
▁dégrade	-11.8368
alaska	-11.8369
counter	-11.8372
▁parfum	-11.8384
engrais	-11.8386
affixe	-11.8386
aigle	-11.842
revue	-11.8446
austrasie	-11.8457
▁découvr	-11.8479
igible	-11.8518
attribut	-11.8528
system	-11.8532
service	-11.8532
mémoire	-11.8532
principalement	-11.8532
bokken	-11.8543
historiographie	-11.8543
phénoménologie	-11.8543
pprovisionnement	-11.8543
▁chocolat	-11.8543
▁contradictoire	-11.8543
▁cyclable	-11.8543
▁cyclades	-11.8543
▁effectua	-11.8543
▁foncière	-11.8543
▁inaugure	-11.8543
▁mobilité	-11.8543
▁phonologique	-11.8543
▁préfigur	-11.8543
▁pénurie	-11.8543
▁redécouverte	-11.8543
▁satisfaisant	-11.8543
▁singapour	-11.8543
▁tronçon	-11.8543
écrivait	-11.8543
▁absorbe	-11.8543
▁godwin	-11.8543
▁quelquefois	-11.8543
▁réservoir	-11.8543
▁sédiments	-11.8543
appuyer	-11.8543
▁retenir	-11.8543
frankenstein	-11.8543
▁excès	-11.8543
▁prédateurs	-11.8543
▁stabilise	-11.8543
▁pianiste	-11.8543
▁cultuel	-11.8543
▁cliché	-11.8543
▁ernst	-11.8543
▁merleau	-11.8543
▁verbale	-11.8544
▁kingston	-11.8544
▁didier	-11.8544
▁circadien	-11.8544
▁fidji	-11.8544
▁corbeil	-11.8544
altération	-11.8544
▁wolf	-11.8544
▁exempt	-11.8545
paraissant	-11.8546
▁valentin	-11.8546
▁désignai	-11.8551
▁oublié	-11.8557
amorce	-11.8612
actualis	-11.8625
▁lorrain	-11.8641
irlandais	-11.8717
▁littéral	-11.8723
ccession	-11.8724
algorithmique	-11.8725
oupouaout	-11.8725
zélandais	-11.8725
▁détracteurs	-11.8725
▁malheureusement	-11.8725
▁malicorne	-11.8725
▁narrateur	-11.8725
▁narratif	-11.8725
▁nœud	-11.8725
▁panthéisme	-11.8725
▁psychanalyste	-11.8725
▁décomposition	-11.8725
▁sunnite	-11.8725
homicide	-11.8725
▁expulsé	-11.8725
▁policière	-11.8725
▁nanterre	-11.8725
cyclique	-11.8725
▁grenade	-11.8725
▁franque	-11.8725
▁transparent	-11.8725
embarque	-11.8725
▁raciale	-11.8725
▁comores	-11.8725
pathologie	-11.8725
▁crucial	-11.8726
▁militar	-11.8726
▁honsh	-11.8727
▁cyclo	-11.8732
nsément	-11.8735
▁cahier	-11.8741
▁amazon	-11.8751
▁assume	-11.8822
▁ordonné	-11.8833
▁america	-11.8887
cahiers	-11.8894
instance	-11.8905
libéral	-11.8906
obtient	-11.8906
63)	-11.8906
azerbaïdjan	-11.891
cuisinier	-11.891
ensoleillement	-11.891
orthodoxie	-11.891
pétersbourg	-11.891
▁commodore	-11.891
▁coxsone	-11.891
▁familiaux	-11.891
▁humanitaire	-11.891
▁proclamation	-11.891
▁raccourci	-11.891
▁récession	-11.891
▁shibuya	-11.891
ébauche	-11.891
▁synthétis	-11.891
entrepreneur	-11.891
▁déchiffrer	-11.891
▁décisive	-11.891
▁rhénan	-11.891
▁pablo	-11.891
▁frontalière	-11.891
▁totaux	-11.891
évocation	-11.891
▁frontalier	-11.891
▁dictateur	-11.891
▁virginie	-11.891
▁devinrent	-11.8911
▁raisin	-11.8911
hélium	-11.8911
bissau	-11.8911
▁distill	-11.8911
▁north	-11.8912
▁concernai	-11.8912
▁plasma	-11.8912
▁dressé	-11.8914
▁paternel	-11.8917
syndic	-11.8921
▁parcouru	-11.8922
sémitique	-11.893
argot	-11.8936
▁éprouv	-11.9056
trouvaient	-11.9073
pilote	-11.9098
parfois	-11.9098
▁bonaparte	-11.9099
▁aperçu	-11.9099
▁applicable	-11.9099
▁carthaginois	-11.9099
▁conquérir	-11.9099
▁defferre	-11.9099
▁imprégné	-11.9099
▁mobilisation	-11.9099
▁montagnard	-11.9099
▁mêlant	-11.9099
▁récupération	-11.9099
▁surveiller	-11.9099
▁talibans	-11.9099
▁yamauchi	-11.9099
▁substrat	-11.9099
▁digital	-11.9099
▁licencie	-11.9099
▁margaret	-11.9099
▁trotski	-11.9099
▁minerais	-11.9099
▁vérification	-11.9099
▁méditation	-11.9099
▁séminaire	-11.9099
▁xiii	-11.9099
▁soulevé	-11.9099
▁coteaux	-11.9099
▁tampon	-11.9099
afflux	-11.9099
▁mourir	-11.9099
composé	-11.9099
▁prévoyai	-11.9101
magyar	-11.9102
cassini	-11.9133
▁prépara	-11.9137
▁suppos	-11.9138
éleva	-11.9173
mettait	-11.9241
apparent	-11.9247
▁validé	-11.9247
▁convainc	-11.9249
servait	-11.9267
affrontent	-11.9271
agnosticisme	-11.9291
hégémonie	-11.9291
▁besançon	-11.9291
▁châtelet	-11.9291
▁dauphiné	-11.9291
▁hydrographique	-11.9291
▁immunitaire	-11.9291
▁isabelle	-11.9291
▁omniprésent	-11.9291
▁prérogatives	-11.9291
▁respiratoire	-11.9291
▁restructuration	-11.9291
▁rémunération	-11.9291
▁scandinavie	-11.9291
▁simplicité	-11.9291
▁syncrétisme	-11.9291
▁transcendant	-11.9291
▁yougoslave	-11.9291
▁benjamin	-11.9291
▁intensive	-11.9291
▁luthérien	-11.9291
▁prophète	-11.9291
▁prélèvement	-11.9291
▁épargné	-11.9291
▁connexe	-11.9291
▁bonheur	-11.9291
▁sponsor	-11.9291
▁vaccin	-11.9291
▁lagrange	-11.9291
▁silicon	-11.9291
▁survécu	-11.9291
▁filiation	-11.9291
▁israélien	-11.9291
▁pertinent	-11.9291
▁femelle	-11.9291
productif	-11.9292
▁monstre	-11.9292
ambiance	-11.9292
▁cacao	-11.9292
entretenir	-11.9293
netjer	-11.9293
symbole	-11.9294
relief	-11.9294
affaiblissement	-11.9301
feld	-11.9309
▁essaya	-11.9316
charentes	-11.9418
alién	-11.9432
▁procession	-11.9487
excepté	-11.9487
ingénierie	-11.9487
interrogation	-11.9487
utilitaire	-11.9487
▁churchill	-11.9487
▁compression	-11.9487
▁contamination	-11.9487
▁distorsion	-11.9487
▁entertainment	-11.9487
▁facebook	-11.9487
▁festivités	-11.9487
▁pragmatique	-11.9487
▁recruté	-11.9487
▁refroidissement	-11.9487
▁rythmique	-11.9487
▁tibétain	-11.9487
provençal	-11.9487
▁persistant	-11.9487
▁rachète	-11.9487
▁rhodes	-11.9487
▁creusé	-11.9487
▁return	-11.9487
▁écossais	-11.9487
▁critiqua	-11.9487
▁emporté	-11.9487
▁relever	-11.9487
▁solitaire	-11.9487
phobie	-11.9488
▁artisanale	-11.9488
▁conrad	-11.9488
▁rebond	-11.9489
bridge	-11.9489
▁contrasté	-11.949
▁omni	-11.949
▁raciste	-11.9492
▁thébain	-11.9492
continu	-11.9495
chronique	-11.95
investiture	-11.9513
épaule	-11.952
intestin	-11.9548
77)	-11.9576
▁saturn	-11.9619
▁immigr	-11.9641
indign	-11.9659
▁néglige	-11.968
interruption	-11.9687
éclipse	-11.9687
▁connaissait	-11.9687
▁consécutif	-11.9687
▁divergent	-11.9687
▁dividende	-11.9687
▁douzaine	-11.9687
▁défensive	-11.9687
▁minéraux	-11.9687
▁monarchique	-11.9687
▁narrative	-11.9687
▁nîmois	-11.9687
▁pesticides	-11.9687
▁secrétariat	-11.9687
helsinki	-11.9687
incapacité	-11.9687
invitation	-11.9687
▁blackwell	-11.9687
▁connotation	-11.9687
▁côtier	-11.9687
▁hitachi	-11.9687
▁neuvième	-11.9687
▁primauté	-11.9687
▁circulent	-11.9687
▁convoque	-11.9687
▁décisif	-11.9687
▁bavière	-11.9687
▁victorieuse	-11.9687
▁1882	-11.9687
▁approuve	-11.9687
▁chanoine	-11.9687
▁soissons	-11.9687
▁pictures	-11.9687
▁chamanique	-11.9687
▁wilson	-11.9687
▁centraux	-11.9687
▁déçu	-11.9688
▁soudain	-11.9688
▁cirque	-11.9688
▁employeur	-11.9688
absurde	-11.9688
▁précaire	-11.9688
▁gâteau	-11.9689
▁régent	-11.9689
▁focalis	-11.969
▁saveur	-11.9691
▁malheur	-11.9694
exécutif	-11.9698
royaume	-11.9698
français	-11.9698
▁territorial	-11.9703
▁adéquat	-11.9715
psychologi	-11.9837
▁autorisa	-11.9857
travail	-11.9881
cylindre	-11.9891
insécurité	-11.9891
pyrénéen	-11.9891
élisabeth	-11.9891
évangile	-11.9891
▁abraham	-11.9891
▁cavalerie	-11.9891
▁contrepèterie	-11.9891
▁cyclisme	-11.9891
▁cycliste	-11.9891
▁diplomatie	-11.9891
▁folklore	-11.9891
▁incorporé	-11.9891
▁intrinsèque	-11.9891
▁jersey	-11.9891
▁livraison	-11.9891
▁lézard	-11.9891
▁maserati	-11.9891
▁mathieu	-11.9891
▁mohamed	-11.9891
▁prolongation	-11.9891
▁prématuré	-11.9891
▁stockholm	-11.9891
▁substantif	-11.9891
▁synagogue	-11.9891
▁ténèbres	-11.9891
▁uderzo	-11.9891
▁moïse	-11.9891
▁psychologue	-11.9891
▁sommaire	-11.9891
▁bouclier	-11.9891
▁croûte	-11.9891
▁baissé	-11.9891
▁voltaire	-11.9891
▁curiosité	-11.9891
▁bergerac	-11.9891
▁desservent	-11.9891
▁enchaîné	-11.9892
▁préconise	-11.9892
étampes	-11.9892
▁restitue	-11.9892
▁pondér	-11.9892
▁flamb	-11.9892
aiguille	-11.9892
anarcho	-11.9892
▁saumur	-11.9894
▁techno	-11.9895
▁attira	-11.9897
écrase	-11.9902
linguistique	-11.9907
évolue	-11.9907
▁maîtris	-11.9943
▁locuteur	-11.9949
accumulation	-12.01
espionnage	-12.01
▁abondamment	-12.01
▁ashikaga	-12.01
▁bénéfique	-12.01
▁compétitivité	-12.01
▁décentralisé	-12.01
▁glaciation	-12.01
▁luminosité	-12.01
▁néologisme	-12.01
▁pluviométrie	-12.01
▁précaution	-12.01
▁ratifié	-12.01
▁ressemblance	-12.01
▁scorsese	-12.01
▁stéphane	-12.01
▁tectonique	-12.01
▁zamenhof	-12.01
▁énormément	-12.01
▁côtoie	-12.01
▁déchiffrement	-12.01
▁dépeint	-12.01
▁consultatif	-12.01
initiateur	-12.01
▁différend	-12.01
▁dissimul	-12.01
▁pétition	-12.01
▁paragraphe	-12.01
▁compétent	-12.01
▁contraignant	-12.01
▁réparation	-12.01
▁robuste	-12.01
adhérer	-12.01
axiome	-12.01
▁cosmos	-12.01
impératif	-12.01
▁présumé	-12.01
▁shell	-12.01
▁vœu	-12.0101
anatolie	-12.0102
▁déborde	-12.0103
inquiétude	-12.0104
▁contrôl	-12.0109
▁additionnel	-12.011
apogée	-12.0119
famille	-12.0119
professeur	-12.0119
oblige	-12.0119
exclu	-12.0127
▁subordonné	-12.0163
▁salarié	-12.0166
émettre	-12.0214
down	-12.0274
gravitationnelle	-12.0312
topharmaceutique	-12.0312
▁alexander	-12.0312
▁autoroutier	-12.0312
▁bouleversé	-12.0312
▁building	-12.0312
▁byzance	-12.0312
▁coopérative	-12.0312
▁croître	-12.0312
▁défavorable	-12.0312
▁empêché	-12.0312
▁fiscaux	-12.0312
▁gallimard	-12.0312
▁gendarmerie	-12.0312
▁inachevé	-12.0312
▁maintenance	-12.0312
▁médiévaux	-12.0312
▁métabolisme	-12.0312
▁paraguay	-12.0312
▁reconquête	-12.0312
▁représailles	-12.0312
▁scolarisation	-12.0312
▁tchèque	-12.0312
▁vernaculaire	-12.0312
▁agnostique	-12.0312
▁récupère	-12.0312
▁émirats	-12.0312
▁équestre	-12.0312
▁espérantophone	-12.0312
▁hanovre	-12.0312
galileo	-12.0312
▁harvard	-12.0312
▁valorisation	-12.0312
artillerie	-12.0312
▁juppé	-12.0312
▁résonance	-12.0312
▁panneaux	-12.0312
▁prioritaire	-12.0312
▁bengale	-12.0312
▁missiles	-12.0312
▁réformateur	-12.0312
▁lobby	-12.0312
▁connecteurs	-12.0312
accélère	-12.0313
▁dîner	-12.0313
▁vitraux	-12.0313
percevoir	-12.0313
▁beauvais	-12.0313
▁allongé	-12.0313
▁explose	-12.0313
▁écoulé	-12.0313
▁habile	-12.0314
▁exigé	-12.0314
katana	-12.0314
clérical	-12.0316
▁polynésie	-12.0321
▁francilien	-12.0326
encourage	-12.0336
littérature	-12.0337
électrique	-12.0337
pôle	-12.0347
▁abondant	-12.0348
exagér	-12.0357
▁olympi	-12.0392
59)	-12.0459
▁bilatéral	-12.053
anticipation	-12.053
interlocuteur	-12.053
▁anthropologique	-12.053
▁constellation	-12.053
▁corrélation	-12.053
▁cortège	-12.053
▁célébrer	-12.053
ù	-13.2633
<	-13.374
