<unk>	0
<s>	0
</s>	0
s	-3.20926
▁de	-3.26869
,	-3.32467
'	-3.57982
.	-3.68385
▁la	-3.78317
▁	-3.82797
▁le	-4.03979
▁l	-4.09004
▁et	-4.15284
▁les	-4.40474
▁en	-4.43822
▁à	-4.45216
▁d	-4.46139
▁des	-4.57854
▁du	-4.6844
e	-4.81218
-	-4.85209
▁est	-5.01415
▁par	-5.10873
▁dans	-5.14406
▁un	-5.21055
▁(	-5.2579
r	-5.28802
▁une	-5.31333
’	-5.36756
▁au	-5.37249
▁"	-5.46285
▁pour	-5.47131
▁qui	-5.47536
"	-5.49836
▁que	-5.58714
▁il	-5.62549
▁a	-5.64252
▁plus	-5.72088
▁##	-5.76265
▁sur	-5.7756
nt	-5.80901
▁sont	-5.85271
▁se	-5.88444
es	-5.88574
▁:	-5.94253
▁ou	-5.98517
▁avec	-5.99433
)	-6.01769
▁son	-6.02842
▁s	-6.0506
a	-6.06985
▁«	-6.08138
▁ce	-6.15599
un	-6.18638
▁sa	-6.21262
▁comme	-6.23958
ment	-6.2494
t	-6.27859
est	-6.28088
é	-6.283
▁qu	-6.3107
l	-6.39208
d	-6.39222
c	-6.39996
une	-6.43379
▁c	-6.45055
▁aux	-6.46583
▁n	-6.48258
il	-6.48654
),	-6.4987
▁pas	-6.50153
er	-6.50531
▁ne	-6.545
cette	-6.58127
).	-6.58984
▁mais	-6.60685
ant	-6.6103
▁»	-6.6163
n	-6.61748
en	-6.619
o	-6.63852
le	-6.64975
y	-6.70664
▁entre	-6.73959
▁deux	-6.74391
▁ses	-6.76551
i	-6.7963
▁ont	-6.79963
▁pays	-6.82541
▁été	-6.82643
",	-6.86104
in	-6.86608
▁%	-6.87455
on	-6.88769
m	-6.89037
▁fait	-6.89382
▁elle	-6.92214
▁ainsi	-6.92236
="	-6.92771
|	-6.92902
al	-6.93904
▁ces	-6.95782
▁leur	-6.97577
▁,	-6.99069
▁même	-7.00183
ation	-7.00871
▁aussi	-7.00898
▁on	-7.03133
ent	-7.05197
▁sous	-7.05821
ra	-7.07147
la	-7.08184
it	-7.08231
▁re	-7.08769
▁dont	-7.1025
p	-7.11407
or	-7.13035
de	-7.1482
f	-7.16967
▁;	-7.19266
▁lui	-7.20103
ée	-7.20597
▁après	-7.21318
▁.	-7.21407
▁également	-7.21858
ci	-7.22169
▁peut	-7.22875
g	-7.23292
▁être	-7.23627
▁depuis	-7.24691
ur	-7.26586
▁alors	-7.27244
▁france	-7.27783
▁très	-7.30057
re	-7.31334
ou	-7.31711
▁y	-7.31803
ne	-7.34506
b	-7.348
▁dé	-7.34809
▁années	-7.35664
▁plusieurs	-7.36854
▁premier	-7.36954
au	-7.37689
▁si	-7.38413
ait	-7.38858
h	-7.39526
▁partie	-7.41012
▁où	-7.41257
an	-7.41488
ch	-7.4192
▁fin	-7.41947
à	-7.42271
ar	-7.42323
u	-7.42411
▁ville	-7.43287
▁18	-7.43582
te	-7.44152
is	-7.44501
▁selon	-7.44812
▁bien	-7.50156
▁notamment	-7.51052
▁nom	-7.51119
▁tout	-7.51568
▁in	-7.51823
▁première	-7.51976
k	-7.52332
▁ré	-7.53386
v	-7.5395
▁nord	-7.53951
▁était	-7.54381
▁monde	-7.54773
/	-7.54846
ie	-7.55671
▁sud	-7.58618
▁français	-7.5889
▁trois	-7.59412
doc	-7.60093
▁».	-7.6022
ma	-7.61001
▁lors	-7.61284
▁politique	-7.61343
us	-7.62296
et	-7.62543
▁guerre	-7.62862
▁contre	-7.62954
▁nombre	-7.6421
▁vers	-7.65285
>	-7.65482
▁grande	-7.66661
lo	-7.67066
ti	-7.67493
me	-7.68155
".	-7.68328
ique	-7.6867
▁jusqu	-7.69409
▁puis	-7.7035
aux	-7.70422
▁encore	-7.70499
▁non	-7.70889
▁sans	-7.71433
▁département	-7.72141
▁car	-7.72165
▁con	-7.72771
autres	-7.73798
▁autres	-7.7437
▁»,	-7.74449
at	-7.74844
▁cas	-7.75086
és	-7.75227
▁grand	-7.75301
▁moins	-7.76019
▁co	-7.76022
z	-7.76393
li	-7.77296
▁soit	-7.78377
▁région	-7.78844
x	-7.7918
ro	-7.79366
les	-7.79431
▁avant	-7.80174
age	-7.80614
▁états	-7.80639
▁population	-7.80838
▁début	-7.80895
té	-7.81278
isme	-7.82094
▁forme	-7.83289
▁p	-7.83337
▁peu	-7.83337
▁fut	-7.8341
▁exemple	-7.83915
que	-7.84008
▁certains	-7.84141
état	-7.84356
▁tous	-7.84946
aire	-7.85761
▁leurs	-7.85916
▁é	-7.86839
ta	-7.86903
ac	-7.87177
▁place	-7.87538
▁système	-7.87612
▁celle	-7.88523
elle	-7.88948
ées	-7.89718
▁fois	-7.89806
▁donc	-7.89836
▁souvent	-7.90298
ité	-7.90413
▁celui	-7.90531
na	-7.90551
▁partir	-7.90929
▁vie	-7.91108
▁temps	-7.91354
ri	-7.9166
▁période	-7.92499
▁ma	-7.93809
▁pro	-7.93955
ir	-7.94211
ion	-7.94406
▁ans	-7.94445
tion	-7.9463
ul	-7.94719
▁langue	-7.94731
▁nombreux	-7.94983
vi	-7.95334
um	-7.95583
fr	-7.96822
▁("	-7.97089
▁cependant	-7.97309
▁f	-7.98153
▁saint	-7.98275
▁pré	-7.98736
to	-7.98893
iste	-7.99331
th	-7.99957
▁compte	-8.0048
▁k	-8.00805
eau	-8.00982
▁b	-8.0117
ine	-8.01306
aient	-8.0201
▁mort	-8.02443
man	-8.02591
im	-8.03026
di	-8.03208
ga	-8.03854
▁gouvernement	-8.03873
ex	-8.03995
▁nouvelle	-8.05267
▁cours	-8.0546
▁développement	-8.0609
ré	-8.06825
lé	-8.06886
▁g	-8.0689
▁pouvoir	-8.07111
art	-8.07271
ton	-8.07283
▁suite	-8.07896
ance	-8.08065
unis	-8.08467
▁ils	-8.08746
▁faire	-8.08902
mi	-8.09413
am	-8.09932
2	-8.10497
ce	-8.1091
ut	-8.1154
da	-8.1235
org	-8.1276
▁quelques	-8.12899
▁nouveau	-8.13052
ba	-8.13143
▁reste	-8.13358
▁al	-8.13566
if	-8.13883
▁part	-8.13912
che	-8.14046
▁général	-8.14186
▁m	-8.14449
w	-8.14719
▁dès	-8.14814
▁parti	-8.15134
▁film	-8.16194
=	-8.16615
ter	-8.16927
▁chaque	-8.17243
▁paris	-8.17832
▁jean	-8.17997
el	-8.18177
▁pa	-8.18456
qui	-8.18495
▁avoir	-8.19184
▁national	-8.19621
▁pendant	-8.19664
▁lieu	-8.19722
curi	-8.19888
▁avait	-8.19967
mé	-8.2058
eur	-8.20597
ard	-8.20693
ing	-8.21012
▁quatre	-8.21103
▁président	-8.21184
▁permet	-8.21331
no	-8.21506
▁rapport	-8.21666
▁étant	-8.21675
ca	-8.22435
▁effet	-8.22683
▁tour	-8.23206
▁durant	-8.23413
ère	-8.2364
du	-8.23687
▁r	-8.23692
ia	-8.23747
▁groupe	-8.23945
ad	-8.24252
▁société	-8.24463
▁française	-8.24611
▁id	-8.24819
▁an	-8.24839
▁royaume	-8.25022
ale	-8.25485
va	-8.2569
son	-8.25713
ouest	-8.26116
▁autre	-8.26443
▁peuvent	-8.26516
ge	-8.2659
▁(19	-8.26991
origine	-8.27052
▁étaient	-8.27416
▁va	-8.27787
▁territoire	-8.28831
ement	-8.2891
▁point	-8.28936
?	-8.29106
▁centre	-8.29126
▁parmi	-8.29417
go	-8.29541
histoire	-8.29626
▁ta	-8.29628
ct	-8.29705
être	-8.30127
tre	-8.30184
dé	-8.30688
▁roi	-8.30813
par	-8.3101
▁nombreuses	-8.3139
▁mar	-8.3157
hui	-8.31929
▁3	-8.32244
4	-8.32539
▁t	-8.32641
▁prix	-8.33037
ot	-8.3338
wiki	-8.33489
▁république	-8.33794
▁devient	-8.33959
▁près	-8.34039
mo	-8.34177
://	-8.34419
▁jeux	-8.34529
https	-8.34548
categorie	-8.34679
wikipedia	-8.3468
▁url	-8.34691
;	-8.34714
▁<	-8.34783
▁title	-8.34783
▁pi	-8.34818
▁</	-8.34836
isation	-8.34944
co	-8.35149
▁ra	-8.3567
▁per	-8.35682
▁culture	-8.36008
sse	-8.36473
▁w	-8.36786
▁ayant	-8.37036
▁fa	-8.37169
do	-8.37272
ka	-8.37317
be	-8.37328
▁rôle	-8.37703
▁plan	-8.37713
os	-8.37812
7	-8.38153
istes	-8.3883
▁ni	-8.39335
▁toute	-8.39675
▁conseil	-8.39798
▁terme	-8.40022
▁j	-8.40526
▁toujours	-8.4071
op	-8.40948
▁ba	-8.40972
▁2	-8.41215
▁production	-8.41251
né	-8.41583
▁trouve	-8.41652
ni	-8.42227
▁17	-8.42309
▁niveau	-8.42518
▁environ	-8.42535
ry	-8.42644
▁doit	-8.43339
▁h	-8.43412
▁chez	-8.43648
tes	-8.4385
ol	-8.43869
able	-8.44046
po	-8.44197
bi	-8.44226
▁parfois	-8.44443
▁moyen	-8.44645
id	-8.44649
▁nationale	-8.44673
▁base	-8.44695
▁économique	-8.44697
▁afin	-8.45025
▁mondiale	-8.45347
aires	-8.45436
▁mouvement	-8.45679
▁musique	-8.45976
▁ar	-8.46052
▁terre	-8.46238
▁certaines	-8.46487
▁cela	-8.46677
▁po	-8.46758
ill	-8.46971
ph	-8.46974
▁travers	-8.47135
▁grâce	-8.47366
▁particulier	-8.47425
ille	-8.47582
▁cet	-8.48087
▁bo	-8.48691
▁japon	-8.48899
▁tard	-8.48934
pi	-8.49072
▁ceux	-8.49157
ag	-8.49472
ic	-8.49526
▁toutes	-8.49752
")	-8.50985
èrent	-8.51606
▁seconde	-8.51793
▁pierre	-8.51919
▁jeu	-8.51962
bo	-8.52257
▁aujourd	-8.52271
époque	-8.52312
▁dernier	-8.52667
▁fer	-8.52679
▁ex	-8.52718
con	-8.52829
3	-8.52835
▁existe	-8.53023
▁jour	-8.53058
▁travail	-8.53155
▁roman	-8.53475
▁long	-8.53679
▁mont	-8.53832
▁fi	-8.53944
▁fonction	-8.54054
tte	-8.54173
▁mer	-8.54582
▁langues	-8.54609
▁1	-8.54832
▁mi	-8.54996
▁sens	-8.5515
ha	-8.55363
tique	-8.55473
tin	-8.55505
autre	-8.55701
▁mise	-8.55772
▁plupart	-8.56426
▁tant	-8.56507
▁dieu	-8.5651
▁ch	-8.57057
▁série	-8.5714
éri	-8.57204
nd	-8.57404
▁surtout	-8.57648
j	-8.57902
iques	-8.58175
▁création	-8.58371
ign	-8.5849
▁beaucoup	-8.5866
▁ha	-8.58667
▁manière	-8.58685
as	-8.58758
tu	-8.58864
1	-8.58873
iv	-8.59155
agit	-8.59232
▁pratique	-8.5941
min	-8.59624
▁elles	-8.59828
▁projet	-8.6004
ure	-8.60082
▁mo	-8.60781
empire	-8.60822
▁raison	-8.60886
▁mot	-8.61294
_	-8.61755
▁premiers	-8.61939
ensemble	-8.62287
▁année	-8.62306
pe	-8.62494
eux	-8.62506
▁or	-8.62507
▁droit	-8.62789
vo	-8.62985
▁public	-8.63203
▁man	-8.63248
▁présente	-8.63466
▁seul	-8.63589
qu	-8.63808
ue	-8.63905
▁5	-8.64022
▁15	-8.64061
▁cinq	-8.64092
ier	-8.64232
▁grands	-8.6425
▁font	-8.64285
▁no	-8.64398
ois	-8.64851
▁mal	-8.64868
pa	-8.64921
hi	-8.65406
00	-8.65808
▁recherche	-8.65882
▁généralement	-8.66059
▁mois	-8.66096
mar	-8.66157
gue	-8.66216
union	-8.66363
▁titre	-8.66494
▁su	-8.66661
▁ensuite	-8.66678
ron	-8.66691
▁ju	-8.67347
ienne	-8.67355
▁produit	-8.67692
▁famille	-8.67987
▁loi	-8.68056
ien	-8.68063
▁cor	-8.68157
ence	-8.68231
]]	-8.6835
5	-8.68424
gé	-8.68583
ig	-8.68678
▁pu	-8.68732
▁inter	-8.68737
▁personnes	-8.68788
▁port	-8.68956
année	-8.69588
▁tandis	-8.69599
▁val	-8.69618
▁dis	-8.69631
▁moyenne	-8.69832
▁différents	-8.7004
▁différentes	-8.70123
homme	-8.70205
lle	-8.70208
▁10	-8.70342
gu	-8.70405
▁cour	-8.70426
▁connu	-8.70592
▁écrit	-8.70634
ais	-8.70951
▁ad	-8.7101
abord	-8.71241
même	-8.7132
europe	-8.71349
▁face	-8.71614
mer	-8.71761
▁eux	-8.71843
▁grandes	-8.72006
université	-8.72032
▁toutefois	-8.72074
▁autour	-8.72714
val	-8.72734
ils	-8.72739
▁vi	-8.72757
ck	-8.72859
▁cinéma	-8.7299
ll	-8.73034
tant	-8.7308
ont	-8.73203
▁liste	-8.73389
île	-8.73422
▁important	-8.73923
▁16	-8.74016
▁réseau	-8.74032
▁membres	-8.7406
▁importante	-8.74096
▁4	-8.74452
ix	-8.74615
▁mé	-8.74698
▁succès	-8.74769
▁comp	-8.7524
▁laquelle	-8.75319
▁mis	-8.75342
▁cha	-8.75618
om	-8.75622
▁prend	-8.75731
▁tête	-8.75762
▁gauche	-8.75865
▁langage	-8.76098
car	-8.76243
▁na	-8.76374
▁deuxième	-8.76383
iens	-8.76495
▁régions	-8.76513
lu	-8.76551
mon	-8.7658
▁époque	-8.76792
eurs	-8.76846
nom	-8.76867
▁européenne	-8.77243
▁histoire	-8.77256
▁villes	-8.77279
▁enfin	-8.77362
▁déjà	-8.77538
▁sein	-8.7772
▁seule	-8.77733
nes	-8.77744
▁ligne	-8.77957
ins	-8.78047
ner	-8.78086
▁principalement	-8.78229
ve	-8.78282
▁sé	-8.78289
ché	-8.78305
gi	-8.78326
dire	-8.78681
▁tels	-8.78701
▁eu	-8.79379
▁politiques	-8.79442
industrie	-8.79478
▁utilisé	-8.7954
▁ka	-8.7991
ver	-8.79964
rie	-8.80025
ble	-8.80098
▁met	-8.80159
▁ro	-8.80171
▁bar	-8.80206
▁possible	-8.80304
▁scène	-8.80426
▁bas	-8.80434
ab	-8.81096
tif	-8.81107
▁malgré	-8.81382
ux	-8.81384
▁dit	-8.8148
▁sera	-8.81534
▁am	-8.81706
▁cause	-8.81732
▁to	-8.82075
ateur	-8.82238
▁genre	-8.82263
pro	-8.82359
▁ailleurs	-8.82559
8	-8.82588
chi	-8.82738
▁élections	-8.82833
▁sol	-8.82846
▁forte	-8.82958
▁jours	-8.8299
▁commune	-8.8307
▁bi	-8.83221
▁façon	-8.83233
▁cadre	-8.83272
▁type	-8.83323
ud	-8.83381
ons	-8.83402
▁seulement	-8.83556
tra	-8.83584
▁militaire	-8.83617
organisation	-8.83714
ang	-8.83751
▁chef	-8.83792
use	-8.84053
▁mesure	-8.84107
▁faible	-8.84257
aï	-8.84417
▁[[	-8.84463
▁mode	-8.84476
▁trans	-8.84837
▁majorité	-8.8486
après	-8.8509
▁capitale	-8.85184
action	-8.85421
port	-8.85584
▁international	-8.85648
entre	-8.85665
▁droite	-8.85724
▁libre	-8.85942
▁second	-8.86105
▁commun	-8.86175
▁haute	-8.8633
▁fils	-8.86356
sur	-8.86514
ordre	-8.86725
▁bou	-8.86786
▁position	-8.86824
▁taux	-8.86895
mp	-8.87235
▁me	-8.87278
ke	-8.87381
▁données	-8.87417
armée	-8.87539
▁femmes	-8.87599
rent	-8.87677
ist	-8.87854
oc	-8.87961
▁programme	-8.88123
shi	-8.88196
église	-8.88465
▁corps	-8.88561
end	-8.88703
▁style	-8.88733
▁régime	-8.88812
▁fort	-8.89237
▁hommes	-8.89283
-19	-8.89375
▁so	-8.89541
▁2010	-8.89823
▁possède	-8.90149
▁6	-8.9023
▁domaine	-8.90268
▁siècle	-8.90363
▁communes	-8.90445
▁donne	-8.9055
ger	-8.90639
wa	-8.9067
▁porte	-8.90916
▁jo	-8.91065
ty	-8.91171
▁lorsque	-8.91226
▁devant	-8.91231
▁v	-8.91253
pri	-8.91271
▁nouvelles	-8.91391
ification	-8.91398
▁marque	-8.91505
per	-8.91721
ten	-8.91789
▁climat	-8.91903
▁marché	-8.92325
▁vue	-8.92468
▁ministre	-8.92628
ive	-8.92759
▁quant	-8.92858
cl	-8.92865
teur	-8.93037
▁europe	-8.93107
▁campagne	-8.93136
▁situation	-8.93324
lin	-8.93369
▁françois	-8.93546
ite	-8.93583
ette	-8.93584
iers	-8.9363
io	-8.9369
▁créé	-8.93791
▁américain	-8.93815
▁ga	-8.93923
▁construction	-8.94076
▁service	-8.94147
▁version	-8.94174
cal	-8.94177
bu	-8.94403
bas	-8.94403
ise	-8.94627
9	-8.94867
▁haut	-8.94894
▁physique	-8.95055
ly	-8.95138
:	-8.95162
▁but	-8.9544
▁internationale	-8.95576
fi	-8.95596
▁dix	-8.9564
alité	-8.95729
▁formula	-8.95824
▁dernière	-8.96035
▁nature	-8.96141
▁()	-8.96242
▁festival	-8.96374
rait	-8.96402
▁date	-8.96423
▁bataille	-8.96473
▁demande	-8.96522
▁new	-8.967
▁milieu	-8.96726
za	-8.96832
cul	-8.96883
▁7	-8.97029
▁ca	-8.9705
ales	-8.97124
▁hi	-8.97132
â	-8.97135
fa	-8.97301
▁tri	-8.97381
particulièrement	-8.97608
elles	-8.97703
▁celles	-8.97824
▁état	-8.97972
▁contrôle	-8.9804
▁furent	-8.98157
▁groupes	-8.98322
▁japonais	-8.98383
▁situé	-8.98438
▁présence	-8.98529
▁produits	-8.98559
▁millions	-8.98754
▁livre	-8.98761
▁propre	-8.98801
▁1990	-8.98831
ko	-8.9895
▁vol	-8.98975
▁religion	-8.9899
▁commence	-8.99395
ho	-8.99417
▁ensemble	-8.9966
the	-8.99702
▁troisième	-8.99844
lement	-8.99903
euse	-8.99949
▁petit	-9.00045
▁traité	-9.00099
▁modèle	-9.00557
ét	-9.00578
è	-9.00603
ssant	-9.00769
▁radio	-9.00819
ancien	-9.0125
▁premières	-9.0134
▁théorie	-9.01407
▁tra	-9.01408
▁littérature	-9.0144
com	-9.01513
▁»)	-9.0152
ens	-9.01636
▁moment	-9.01733
uni	-9.01915
étude	-9.01939
égypte	-9.0195
ide	-9.01977
▁o	-9.02007
▁principaux	-9.02053
école	-9.02096
ables	-9.02136
▁côté	-9.02254
▁zone	-9.02275
▁19	-9.02285
▁8	-9.02313
▁formation	-9.02404
ai	-9.02645
▁outre	-9.0293
ven	-9.03004
▁valeur	-9.03046
▁plutôt	-9.0329
▁question	-9.03378
▁puissance	-9.03399
▁né	-9.03459
ologie	-9.03703
▁populaire	-9.03872
▁œuvre	-9.03947
économie	-9.04054
▁gar	-9.04106
▁films	-9.04179
▁voit	-9.04435
▁âge	-9.04435
▁serait	-9.04442
▁fr	-9.04511
bert	-9.04552
▁historique	-9.04661
œuvre	-9.04696
ru	-9.04814
▁culte	-9.0497
▁longue	-9.05009
res	-9.0501
▁coup	-9.05036
▁charles	-9.05324
ana	-9.05424
objet	-9.05454
▁lequel	-9.05505
▁publié	-9.05638
▁2000	-9.05783
▁père	-9.05887
nu	-9.05923
▁20	-9.05944
▁travaux	-9.06026
▁constitution	-9.06111
int	-9.06146
▁six	-9.06159
▁représente	-9.06196
ja	-9.06294
ient	-9.06338
ô	-9.06339
▁code	-9.06529
ub	-9.06552
▁bon	-9.06667
og	-9.06715
▁vote	-9.06766
urs	-9.06858
▁jamais	-9.06996
isé	-9.07058
▁total	-9.07076
em	-9.07306
▁etc	-9.07434
▁révolution	-9.07437
▁12	-9.07525
▁anti	-9.0756
▁crise	-9.08095
ju	-9.08212
▁philosophie	-9.08401
▁critique	-9.0846
▁di	-9.08548
▁maison	-9.086
▁simple	-9.08864
idée	-9.08873
▁pl	-9.08882
don	-9.08889
▁secteur	-9.08891
▁the	-9.09112
▁appelé	-9.09151
▁éléments	-9.09222
▁propose	-9.09418
des	-9.09466
tro	-9.09547
▁générale	-9.09659
▁br	-9.09709
▁combat	-9.09724
pos	-9.10032
▁1980	-9.1006
od	-9.10181
▁moitié	-9.10275
▁sociale	-9.10359
▁har	-9.1036
rom	-9.1046
▁communauté	-9.10735
ront	-9.10736
voir	-9.10779
▁constitue	-9.1098
▁musée	-9.10987
▁divers	-9.11058
expression	-9.11116
▁cuisine	-9.11169
▁moderne	-9.11208
▁tel	-9.1126
▁proche	-9.11416
▁aurait	-9.11483
▁donné	-9.11546
▁x	-9.11655
▁mai	-9.11765
▁services	-9.11777
▁mor	-9.11795
amp	-9.11955
▁russe	-9.11992
▁(«	-9.12061
col	-9.12156
▁mondial	-9.12569
br	-9.12591
▁site	-9.12665
▁considéré	-9.12673
▁science	-9.12701
▁bal	-9.12884
▁passe	-9.13014
▁faut	-9.13049
▁rencontre	-9.13099
én	-9.13115
ès	-9.13506
vin	-9.13557
▁rend	-9.13605
ire	-9.13619
▁pe	-9.13638
met	-9.13676
▁déc	-9.13725
▁1970	-9.13791
▁techniques	-9.13849
▁2007	-9.13909
afrique	-9.13934
▁nouveaux	-9.14015
▁siège	-9.14259
▁vis	-9.14333
▁commerce	-9.14488
▁ci	-9.14577
▁néanmoins	-9.14596
kh	-9.14781
cha	-9.14793
élection	-9.14809
ns	-9.14819
▁référence	-9.14831
▁transport	-9.14916
▁quand	-9.14992
cy	-9.15051
▁matière	-9.15194
sta	-9.15199
▁go	-9.15204
▁cap	-9.15299
▁droits	-9.15337
▁femme	-9.15419
6	-9.15463
▁2008	-9.15653
vis	-9.1567
cour	-9.15823
été	-9.15924
ki	-9.15931
up	-9.16099
▁rapidement	-9.16128
▁trop	-9.16161
▁tu	-9.16176
ya	-9.16177
▁textes	-9.16186
pé	-9.16192
▁retour	-9.1626
▁accord	-9.16329
jo	-9.16434
▁défense	-9.16592
▁social	-9.166
▁naissance	-9.16653
▁st	-9.16877
▁qualité	-9.16936
ade	-9.16978
▁présidentielle	-9.16982
▁anglais	-9.17024
"),	-9.17212
▁jeune	-9.17247
▁influence	-9.17255
▁traditionnelle	-9.17336
▁principales	-9.17386
▁lutte	-9.17505
nant	-9.17578
▁nommé	-9.17632
▁cl	-9.17646
▁large	-9.17664
▁centrale	-9.17691
▁jacques	-9.17729
▁gu	-9.1778
▁sujet	-9.17987
cho	-9.18009
▁croissance	-9.18386
nce	-9.18421
pl	-9.18498
pt	-9.18524
▁louis	-9.18546
▁relations	-9.18603
10	-9.18626
he	-9.18664
ong	-9.18667
▁forces	-9.18754
▁sept	-9.18862
▁située	-9.18981
agriculture	-9.18991
lt	-9.19035
enne	-9.19122
▁communiste	-9.19145
▁caractéristique	-9.19243
▁suivant	-9.19247
▁ru	-9.19265
▁pen	-9.19269
ah	-9.1931
lon	-9.1934
▁signe	-9.19399
der	-9.19429
naire	-9.19435
ule	-9.19509
▁ancien	-9.19582
vers	-9.19685
iser	-9.19789
▁finalement	-9.19845
▁bois	-9.19886
▁z	-9.19999
▁notion	-9.20051
emploi	-9.20052
▁pé	-9.20067
cé	-9.2015
▁communication	-9.20195
▁2012	-9.20224
assemblée	-9.20319
ak	-9.20422
▁je	-9.2048
▁texte	-9.20521
ed	-9.20664
▁entreprises	-9.20808
▁cro	-9.20917
onne	-9.2096
▁règne	-9.21077
▁théâtre	-9.21202
▁char	-9.21219
ssent	-9.21322
▁surface	-9.21326
▁mots	-9.21363
auteur	-9.21398
▁structure	-9.21421
▁paul	-9.21616
▁be	-9.21749
▁ri	-9.21782
ville	-9.21869
▁classe	-9.21876
ze	-9.21904
&	-9.22169
(	-9.22169
▁habitants	-9.22231
ateurs	-9.22255
▁force	-9.22259
▁zones	-9.22339
aide	-9.22422
▁ho	-9.22429
▁av	-9.22566
▁chine	-9.22691
ku	-9.22729
▁pr	-9.22873
air	-9.22945
▁i	-9.2301
▁château	-9.23206
▁élu	-9.23233
était	-9.2346
▁cent	-9.23506
▁14	-9.23563
▁acc	-9.2362
▁gra	-9.2362
20	-9.23624
▁ren	-9.23812
ante	-9.23913
▁courant	-9.23922
uel	-9.23927
▁2011	-9.2398
16	-9.2398
▁york	-9.23994
▁op	-9.24007
▁vo	-9.24007
ris	-9.2403
▁source	-9.24045
▁enfants	-9.24246
image	-9.24261
▁publique	-9.24313
ser	-9.24329
ok	-9.24396
utilisation	-9.24545
let	-9.24645
▁annonce	-9.24687
▁études	-9.24727
tan	-9.24728
▁systèmes	-9.24841
▁côte	-9.24872
▁assez	-9.24998
▁taille	-9.25002
▁faisant	-9.25019
▁voix	-9.25143
▁ab	-9.25153
▁mon	-9.25281
form	-9.25317
▁santé	-9.25318
▁personne	-9.25328
ob	-9.25349
gt	-9.25381
ane	-9.25594
our	-9.25751
▁her	-9.25788
12	-9.25841
▁gi	-9.25941
▁2006	-9.2604
influence	-9.26089
tal	-9.26201
▁principal	-9.26222
▁dés	-9.26305
▁do	-9.26324
▁san	-9.26353
▁membre	-9.26361
tri	-9.26417
▁espèces	-9.2644
▁voir	-9.26598
▁front	-9.26743
out	-9.26858
écrivain	-9.26863
▁technique	-9.26878
▁he	-9.26904
ap	-9.26944
ste	-9.27032
▁min	-9.27108
▁développé	-9.27156
ê	-9.27209
▁atteint	-9.27213
▁statut	-9.27213
▁connaît	-9.27274
▁temple	-9.27351
environnement	-9.27436
▁rome	-9.27456
xi	-9.27523
▁candidat	-9.27526
ange	-9.2753
▁bord	-9.27536
av	-9.27626
▁direction	-9.27647
▁britannique	-9.27842
▁1960	-9.27883
vé	-9.27986
▁présent	-9.28059
orient	-9.28067
▁montre	-9.28168
").	-9.28283
exploitation	-9.28301
▁blanc	-9.28311
▁permettant	-9.28466
tive	-9.28479
▁devenu	-9.28588
mont	-9.28619
▁vallée	-9.28677
▁peuple	-9.28722
ng	-9.28897
ip	-9.28914
ions	-9.28964
and	-9.29035
▁calcul	-9.29088
sa	-9.29246
▁vit	-9.29403
▁peine	-9.29406
mes	-9.29491
éra	-9.29526
▁officielle	-9.29548
hé	-9.29588
▁meilleur	-9.29672
▁gaz	-9.29726
bre	-9.29838
▁com	-9.29965
▁tourisme	-9.30138
▁os	-9.30184
▁principe	-9.30222
▁semble	-9.30266
▁difficile	-9.30293
▁sciences	-9.30334
▁largement	-9.30377
▁littéraire	-9.30429
▁dollars	-9.30473
ler	-9.30474
isée	-9.30589
▁fille	-9.30604
allemagne	-9.30724
▁cité	-9.30838
▁2009	-9.30845
▁13	-9.30854
▁concept	-9.31
ente	-9.31123
▁mémoire	-9.31277
▁appelée	-9.31555
att	-9.31606
▁retrouve	-9.3168
tel	-9.31693
▁lorsqu	-9.31775
née	-9.31809
entreprise	-9.31844
▁presque	-9.31938
près	-9.31955
▁mars	-9.31991
▁sites	-9.32159
▁cu	-9.32192
▁activités	-9.322
étend	-9.32219
▁11	-9.32261
environ	-9.32272
isant	-9.32291
▁vidéo	-9.32353
▁essentiellement	-9.32391
tho	-9.32469
▁of	-9.32519
▁romaine	-9.32533
▁occidentale	-9.32545
cu	-9.32628
▁cou	-9.32654
▁publie	-9.3291
▁sortie	-9.32968
ib	-9.32981
▁bio	-9.33011
▁suisse	-9.33066
teurs	-9.3314
uv	-9.33147
▁2018	-9.33197
▁œuvres	-9.33224
▁scientifique	-9.33237
▁avaient	-9.3326
empereur	-9.33268
▁vu	-9.33318
▁cré	-9.33553
▁anciens	-9.33571
berg	-9.33611
50	-9.33615
▁2014	-9.33621
▁décrit	-9.33651
▁formes	-9.33797
▁nécessaire	-9.33839
amb	-9.33929
▁empire	-9.34009
▁mère	-9.3409
espace	-9.34129
duc	-9.34168
▁grec	-9.34235
ric	-9.34269
▁rue	-9.34286
▁vivant	-9.34455
▁tradition	-9.34542
▁classique	-9.34621
éli	-9.34647
▁nous	-9.34677
activité	-9.34709
tur	-9.34756
si	-9.3485
rou	-9.34858
▁bande	-9.34917
argent	-9.34996
▁supérieur	-9.35022
ques	-9.35087
▁îles	-9.35211
▁culturel	-9.35233
anne	-9.35281
ach	-9.35291
▁socialiste	-9.35366
▁masse	-9.35443
▁élevé	-9.35463
▁antique	-9.35505
▁(18	-9.35542
▁désormais	-9.35597
▁respect	-9.35597
▁2017	-9.35607
enseignement	-9.35608
▁sou	-9.35615
▁auteurs	-9.35709
▁compris	-9.35765
graph	-9.35766
existence	-9.35787
information	-9.35798
ailleurs	-9.35822
▁petite	-9.35907
▁notre	-9.35957
▁main	-9.3596
fl	-9.3597
▁apparaît	-9.36274
▁mettre	-9.36361
âge	-9.36364
thé	-9.36374
sh	-9.36378
▁latin	-9.3644
▁john	-9.36469
á	-9.3648
émi	-9.36802
oise	-9.36858
▁mission	-9.36867
▁permettent	-9.36912
15	-9.36932
▁all	-9.36946
▁pan	-9.36963
▁dessin	-9.37128
▁liberté	-9.37187
▁voire	-9.37261
▁rouge	-9.37274
▁inc	-9.37284
▁spécifique	-9.37333
▁jeunes	-9.37426
▁%)	-9.37466
▁sécurité	-9.37479
éducation	-9.37479
tar	-9.37483
▁ressources	-9.37521
0	-9.37539
arc	-9.37608
all	-9.37687
▁mou	-9.37688
▁américaine	-9.37747
▁pensée	-9.37926
▁passage	-9.37948
▁choix	-9.38065
nc	-9.3808
italie	-9.38124
▁terres	-9.3813
ami	-9.38199
ran	-9.38227
▁comprend	-9.38288
ole	-9.38428
hon	-9.38484
▁véritable	-9.38507
ç	-9.38678
ay	-9.38791
ié	-9.38795
▁russie	-9.38802
ète	-9.38831
fer	-9.38843
mor	-9.38893
je	-9.38927
▁capacité	-9.3895
ez	-9.38962
▁presse	-9.38976
▁9	-9.38985
uff	-9.39006
▁tombe	-9.39108
▁fond	-9.39182
▁aucun	-9.39185
▁continent	-9.39224
▁prendre	-9.39233
▁nu	-9.39292
indépendance	-9.39317
énergie	-9.39317
▁voie	-9.39422
land	-9.39425
non	-9.39506
▁japonaise	-9.39524
ines	-9.39597
▁fil	-9.39641
tt	-9.39727
▁risque	-9.39853
▁décide	-9.39865
▁nations	-9.39934
esprit	-9.39995
▁robert	-9.40017
▁définition	-9.40055
▁protection	-9.40144
▁linguistique	-9.40151
nel	-9.40268
▁considère	-9.40294
▁romain	-9.40333
▁sort	-9.40371
ages	-9.40394
éro	-9.404
▁certain	-9.40426
▁central	-9.4043
▁caractère	-9.40496
nne	-9.40609
ain	-9.40656
▁imp	-9.40669
▁2005	-9.40754
▁composé	-9.40939
arrivée	-9.40964
▁obtient	-9.41048
can	-9.41111
▁ver	-9.41223
▁parc	-9.41225
▁réalisé	-9.41301
éré	-9.41379
mat	-9.41441
eff	-9.41462
▁utilise	-9.41487
▁champ	-9.41521
gh	-9.41622
ces	-9.41743
▁im	-9.41952
▁lois	-9.42082
▁sorte	-9.42085
écriture	-9.42104
▁ja	-9.42123
▁coupe	-9.42239
▁conduit	-9.42267
isse	-9.42276
tiques	-9.42304
ō	-9.42388
▁charge	-9.42514
▁ti	-9.42625
▁utilisée	-9.4264
▁pris	-9.42659
▁conditions	-9.42676
14	-9.42783
ière	-9.42823
rio	-9.42833
ène	-9.42875
nelle	-9.42924
▁col	-9.43036
▁dispose	-9.43044
▁2002	-9.4305
ano	-9.43086
ime	-9.43246
▁michel	-9.43269
dre	-9.43272
▁diverses	-9.43311
▁prise	-9.43464
▁informatique	-9.43483
gen	-9.43657
ori	-9.43675
liste	-9.43763
▁fortement	-9.43902
ice	-9.44025
▁partage	-9.44048
qua	-9.44054
▁religieux	-9.44123
har	-9.44159
▁profit	-9.44194
▁brésil	-9.44217
bel	-9.44224
vent	-9.44236
▁parle	-9.44316
bon	-9.44428
▁pourrait	-9.4451
▁directement	-9.44543
▁européen	-9.44594
▁art	-9.44646
▁types	-9.44656
lan	-9.44724
▁longtemps	-9.4475
▁réalisateur	-9.44761
ida	-9.44796
▁réalité	-9.44838
issent	-9.44872
▁pat	-9.44897
▁quartier	-9.45065
▁palais	-9.4538
▁comité	-9.45424
▁correspond	-9.45444
q	-9.45471
▁connaissance	-9.45572
▁sc	-9.45589
lot	-9.45631
▁voyage	-9.45682
▁belgique	-9.45696
▁fo	-9.45717
▁pharaon	-9.45753
▁basse	-9.45837
▁2016	-9.4587
▁militaires	-9.45873
▁ko	-9.45887
lier	-9.45917
ji	-9.45939
usage	-9.46049
▁élément	-9.46074
▁célèbre	-9.46143
▁phase	-9.46176
lic	-9.46182
▁bri	-9.46183
engage	-9.46198
▁poste	-9.46346
▁vé	-9.46591
cent	-9.46641
lie	-9.46706
▁processus	-9.46813
▁contexte	-9.46813
▁ancienne	-9.46814
▁suivi	-9.46821
▁continue	-9.4687
▁unique	-9.46881
▁sub	-9.4691
titu	-9.47017
▁fu	-9.47036
▁nintendo	-9.47134
▁cal	-9.47404
aud	-9.47492
▁machine	-9.47618
▁ban	-9.47643
▁passé	-9.47721
▁victoire	-9.4778
▁2019	-9.4779
▁déclare	-9.47943
▁méthode	-9.47985
▁""	-9.48032
▁fleuve	-9.48104
gar	-9.48114
▁tendance	-9.48124
▁septembre	-9.48267
lant	-9.4831
▁derniers	-9.48441
vel	-9.48469
▁bonne	-9.48487
rain	-9.48535
▁bassin	-9.48608
▁ordre	-9.48712
▁pou	-9.48727
▁vingt	-9.48761
▁2013	-9.48768
▁décision	-9.4892
▁lumière	-9.49087
gan	-9.49188
▁savoir	-9.49351
▁compétition	-9.49412
▁juin	-9.49418
▁propos	-9.49421
évolution	-9.49519
▁province	-9.4969
▁fondée	-9.49755
ative	-9.49762
gon	-9.49769
▁principale	-9.49825
▁décembre	-9.49907
▁conte	-9.4993
▁suivante	-9.4993
▁soviétique	-9.50073
13	-9.50074
ren	-9.50119
-20	-9.50164
ros	-9.50217
▁césar	-9.50242
▁hé	-9.50251
▁2004	-9.50251
▁débat	-9.50276
tr	-9.50295
▁patrimoine	-9.50405
cor	-9.50661
ulaire	-9.50664
ât	-9.50683
▁soutien	-9.50719
hu	-9.50752
▁noir	-9.50788
▁créée	-9.50866
▁sport	-9.5092
men	-9.50983
▁écoles	-9.51037
dis	-9.51073
▁construit	-9.51155
▁telles	-9.5117
ell	-9.51224
rac	-9.51263
11	-9.5136
▁grecque	-9.51525
▁pib	-9.5156
cher	-9.51612
▁strasbourg	-9.51744
cr	-9.51826
▁télé	-9.51862
▁traitement	-9.51896
▁can	-9.5195
▁hu	-9.51954
▁fonde	-9.51965
▁maître	-9.52082
...	-9.52166
▁confi	-9.52186
▁formé	-9.52204
▁mari	-9.52224
pp	-9.52254
▁savoie	-9.52315
ari	-9.52386
▁doivent	-9.5242
▁console	-9.52594
▁ve	-9.52679
▁janvier	-9.52761
ama	-9.52854
ium	-9.52867
▁gestion	-9.52933
▁app	-9.52976
igne	-9.52992
ino	-9.53045
▁donner	-9.53099
han	-9.53135
35	-9.53162
▁bu	-9.53204
▁coût	-9.53292
▁exp	-9.53354
▁problème	-9.53368
▁canton	-9.53495
▁double	-9.53617
inter	-9.53767
▁figure	-9.53806
▁camp	-9.53834
intérieur	-9.53861
rin	-9.53891
▁humaine	-9.53915
▁locale	-9.53923
élève	-9.54104
app	-9.5412
▁cherche	-9.54126
▁standard	-9.54131
ord	-9.542
▁constitué	-9.54207
▁allemand	-9.54224
▁grèce	-9.54304
▁joue	-9.54325
▁vin	-9.54356
▁urbaine	-9.54398
▁représentation	-9.54444
comp	-9.54535
entrée	-9.54599
▁justice	-9.54824
▁note	-9.54827
ères	-9.54838
▁réforme	-9.54844
30	-9.54849
év	-9.54879
logique	-9.54917
▁déesse	-9.55008
▁indique	-9.55031
▁super	-9.55043
▁certaine	-9.55054
▁sources	-9.55071
▁aucune	-9.55111
▁mitterrand	-9.55172
▁tente	-9.55182
▁lettres	-9.55276
▁compagnie	-9.55346
▁concernant	-9.55346
france	-9.55488
▁développe	-9.55507
ici	-9.55576
▁em	-9.5565
17	-9.5569
▁ph	-9.55904
▁conception	-9.55966
▁mag	-9.55969
▁ki	-9.56013
iff	-9.56028
,5	-9.56044
▁utilisés	-9.56046
▁départements	-9.56206
▁relation	-9.5628
fin	-9.56314
▁el	-9.56371
mul	-9.56635
▁dernières	-9.56676
▁pla	-9.56714
]	-9.56739
▁philosophe	-9.56773
qué	-9.56784
su	-9.56859
erie	-9.56901
▁progressivement	-9.56965
ov	-9.56988
▁permis	-9.57105
▁support	-9.57109
▁ge	-9.57149
▁problèmes	-9.57365
bou	-9.57373
▁considérée	-9.5738
▁marseille	-9.5743
▁mil	-9.57523
▁rapide	-9.57629
▁1999	-9.57652
▁durable	-9.57679
▁inf	-9.57686
▁signifie	-9.57928
aise	-9.57929
avoir	-9.5798
▁wa	-9.581
ber	-9.58114
los	-9.58204
▁dieux	-9.58361
dic	-9.58395
▁reçoit	-9.58541
▁télévision	-9.58541
▁civile	-9.58547
tor	-9.58575
cra	-9.58644
ey	-9.58682
uc	-9.58689
▁sch	-9.58705
pon	-9.58711
ancienne	-9.5874
▁chambre	-9.58906
bl	-9.58949
▁devenir	-9.59004
▁économie	-9.59023
80	-9.5907
▁chiffre	-9.59247
▁points	-9.59292
▁/	-9.59317
▁trait	-9.59353
personnalité	-9.5936
▁mouvements	-9.59388
▁comporte	-9.59438
ép	-9.59443
▁fonctions	-9.59486
nique	-9.59589
lig	-9.59721
ita	-9.59817
▁autant	-9.59836
▁territoires	-9.59853
équipe	-9.59883
ral	-9.5994
▁homme	-9.59973
▁massif	-9.60002
administration	-9.60028
▁men	-9.60104
▁garde	-9.60105
▁arrive	-9.6013
▁troupes	-9.60287
▁chant	-9.60307
▁termes	-9.60308
▁royale	-9.60345
so	-9.60354
▁numérique	-9.60361
antiquité	-9.60361
▁georges	-9.60374
▁représenté	-9.60441
▁désigne	-9.60461
▁30	-9.60472
...)	-9.60489
▁objets	-9.60535
▁telle	-9.60571
unité	-9.60584
▁naturel	-9.60662
▁actuelle	-9.60695
tée	-9.6083
▁appel	-9.60851
▁génération	-9.60916
▁mac	-9.61124
▁regroupe	-9.61126
axe	-9.61135
▁tir	-9.61181
ini	-9.61326
▁clé	-9.61326
▁huit	-9.61372
ara	-9.61463
▁discours	-9.6147
▁chemin	-9.61472
▁soleil	-9.61473
▁club	-9.61488
▁logiciel	-9.61531
▁mieux	-9.61548
van	-9.61584
académie	-9.61655
▁message	-9.61655
lique	-9.61667
▁division	-9.61692
▁mur	-9.61757
issement	-9.61768
▁cœur	-9.61771
euses	-9.61785
ate	-9.61806
▁civilisation	-9.61858
▁post	-9.61903
amérique	-9.61917
▁phénomène	-9.61931
yo	-9.61932
▁découverte	-9.61943
▁perdu	-9.6199
▁lecture	-9.62034
▁multi	-9.62046
ico	-9.62055
fo	-9.62094
venu	-9.62097
nais	-9.62197
▁connue	-9.62205
▁souverain	-9.62214
▁juillet	-9.62214
▁distingue	-9.62243
▁via	-9.62264
▁corée	-9.62329
▁lance	-9.62332
▁discipline	-9.62402
▁grenoble	-9.62402
▁paix	-9.62469
▁bé	-9.62549
▁crée	-9.62612
▁quelque	-9.62733
▁critiques	-9.62745
▁usage	-9.62786
60	-9.62846
▁durée	-9.62851
▁majeure	-9.62911
▁évolution	-9.62988
▁red	-9.63042
accord	-9.63045
actif	-9.63047
▁relativement	-9.63279
nou	-9.63283
▁créer	-9.63293
agglomération	-9.63343
▁olympiques	-9.63422
▁économiques	-9.63422
▁lieux	-9.63429
▁rou	-9.63506
▁for	-9.63529
onde	-9.63535
espagne	-9.63647
▁bibliothèque	-9.63722
▁vient	-9.63782
ern	-9.63881
▁sommet	-9.63896
▁actuel	-9.639
▁indépendant	-9.63907
▁consommation	-9.63924
▁2001	-9.63926
▁terrestre	-9.63948
▁quasi	-9.64012
▁brut	-9.64064
▁congrès	-9.64103
▁géographique	-9.64103
▁situe	-9.64121
▁and	-9.64151
ttes	-9.64248
▁doute	-9.64372
▁cycle	-9.64395
habit	-9.64513
▁beau	-9.64517
▁récent	-9.64557
▁ob	-9.64603
ts	-9.64623
tru	-9.64672
▁local	-9.6468
africain	-9.64713
▁parlement	-9.64742
▁sp	-9.64879
▁personnage	-9.6509
oppose	-9.65098
19	-9.65101
▁novembre	-9.65254
▁remplacé	-9.65254
▁supérieure	-9.65258
▁loin	-9.65282
25	-9.65357
fort	-9.65396
▁change	-9.65414
▁estime	-9.65463
▁départ	-9.6547
ef	-9.65508
▁nouvel	-9.65523
architecture	-9.65606
▁reçu	-9.65643
▁vitesse	-9.65654
▁tor	-9.6569
ture	-9.65698
▁là	-9.65701
dou	-9.65729
▁octobre	-9.65804
▁convention	-9.65834
▁résultats	-9.65852
▁importantes	-9.65854
▁planète	-9.65864
▁associé	-9.65892
tic	-9.65915
▁allemande	-9.65924
▁offre	-9.65956
▁domaines	-9.66031
▁employé	-9.66057
▁chacun	-9.6619
▁installé	-9.66223
alisme	-9.66274
▁égyptienne	-9.66296
▁conflit	-9.66301
tré	-9.66313
▁saison	-9.66378
▁seth	-9.66397
océan	-9.66423
▁sacré	-9.66441
bil	-9.66451
▁officiellement	-9.66515
▁micro	-9.66516
▁frontière	-9.66516
▁défini	-9.66521
▁naturelle	-9.66533
▁américains	-9.66564
fu	-9.66603
ast	-9.66612
▁partis	-9.66613
▁scrutin	-9.66613
▁superficie	-9.66613
ave	-9.66635
ches	-9.66641
nat	-9.66653
ny	-9.66731
▁privée	-9.66954
▁géographie	-9.67006
▁administrative	-9.67007
▁chute	-9.67085
▁pourtant	-9.67127
▁fou	-9.6716
tier	-9.67189
▁officiel	-9.67237
▁pont	-9.673
▁catholique	-9.67321
yn	-9.67323
indice	-9.67346
▁rang	-9.67364
▁bruxelles	-9.67398
ica	-9.67462
▁vaste	-9.6747
gre	-9.67571
asie	-9.67595
▁dynastie	-9.67595
▁revue	-9.67596
▁mu	-9.67614
▁chose	-9.67623
hiver	-9.67717
▁poly	-9.6782
▁carrière	-9.67896
extrême	-9.68009
95	-9.68053
delà	-9.68054
▁populations	-9.6816
chant	-9.6817
▁obtenu	-9.68189
ow	-9.68292
institut	-9.68299
char	-9.68305
ition	-9.68355
ina	-9.6848
▁1950	-9.68605
rée	-9.68678
▁objet	-9.6868
▁anciennes	-9.68721
24	-9.68739
▁européens	-9.68748
▁lycée	-9.68787
▁40	-9.68829
nis	-9.68844
mu	-9.68905
▁personnel	-9.68995
▁loire	-9.69028
▁journal	-9.6911
▁majeur	-9.69245
ède	-9.69252
▁solaire	-9.69491
▁rendre	-9.69526
▁représentent	-9.69553
▁liaison	-9.69591
▁moteur	-9.69611
64	-9.69645
trice	-9.69698
arme	-9.69714
cré	-9.69736
▁explique	-9.69777
▁mexique	-9.69791
▁représentant	-9.69813
association	-9.69847
inde	-9.69945
▁sociétés	-9.69955
▁kh	-9.70018
▁meurt	-9.70082
vie	-9.70115
▁caractères	-9.70126
iné	-9.70148
▁contrairement	-9.70157
èle	-9.70161
dia	-9.70167
▁format	-9.70195
▁spécial	-9.70226
▁sta	-9.70253
▁choisi	-9.70258
▁inspiré	-9.70398
▁petits	-9.70399
▁hors	-9.7041
▁jou	-9.70467
90	-9.70479
stra	-9.70496
▁humains	-9.70498
▁soul	-9.70501
▁marqué	-9.70526
lit	-9.70643
net	-9.70716
▁personnages	-9.70775
▁ram	-9.708
▁portugais	-9.70805
▁photo	-9.70813
▁marquée	-9.7091
ève	-9.70951
▁distribution	-9.71009
▁utilisant	-9.71011
▁propres	-9.71096
▁puisque	-9.71185
pré	-9.71199
▁électrique	-9.71214
occasion	-9.71304
▁règles	-9.71346
ières	-9.71351
▁producteur	-9.71419
▁responsable	-9.71419
▁rousseau	-9.71419
▁mandat	-9.71425
▁lignes	-9.71467
dessus	-9.71479
bé	-9.71499
▁changement	-9.71499
▁dite	-9.71503
▁industrielle	-9.71505
avant	-9.71528
▁roche	-9.71555
naissance	-9.71594
hôtel	-9.71624
▁nucléaire	-9.71625
▁commission	-9.71628
▁te	-9.71651
ouverture	-9.71655
ley	-9.71724
▁banque	-9.71766
nés	-9.71806
▁studio	-9.7183
▁finale	-9.71873
her	-9.71884
rê	-9.71941
▁court	-9.72056
▁symbole	-9.72169
▁possibilité	-9.72242
▁quantité	-9.72327
▁breton	-9.72342
▁gr	-9.72429
exception	-9.72449
▁remporte	-9.72462
pha	-9.7248
iz	-9.72494
▁marine	-9.72512
▁publication	-9.72513
▁vision	-9.72547
▁dimension	-9.72657
appareil	-9.72657
▁lesquels	-9.72658
▁2022	-9.72667
▁signal	-9.72676
▁bel	-9.72717
▁entier	-9.72765
▁tiers	-9.72825
▁réparti	-9.72868
▁activité	-9.72933
▁2015	-9.7303
▁conférence	-9.73054
▁fé	-9.73058
68	-9.73073
ides	-9.73079
▁cancer	-9.73084
▁seront	-9.73192
▁décor	-9.73293
▁web	-9.73308
▁sy	-9.73342
euros	-9.73401
▁bl	-9.73462
odice	-9.73468
▁commercial	-9.73497
cre	-9.7352
by	-9.7361
▁chi	-9.73685
▁accueille	-9.73703
hor	-9.73751
▁appelle	-9.73938
▁régional	-9.73993
▁logique	-9.74007
▁meilleure	-9.74033
intérêt	-9.74065
eu	-9.74077
ographie	-9.74111
▁internet	-9.74128
▁étude	-9.74168
▁franc	-9.74218
ian	-9.74225
▁comment	-9.74267
avi	-9.74302
21	-9.74319
aéroport	-9.74334
▁active	-9.74461
▁logiciels	-9.74478
ban	-9.74691
▁médias	-9.74696
85	-9.74751
▁limite	-9.74785
45	-9.74881
▁sociales	-9.74894
▁philippe	-9.74909
▁électronique	-9.7497
▁chinois	-9.74978
tz	-9.7501
▁probablement	-9.75035
▁totale	-9.75122
▁pri	-9.75176
▁rivière	-9.75181
▁avril	-9.75182
droit	-9.75206
▁ap	-9.75249
▁tribu	-9.7529
▁ii	-9.75324
▁établi	-9.7536
▁artistique	-9.75397
▁peuples	-9.75402
pan	-9.75445
rat	-9.75449
mètre	-9.75518
▁demeure	-9.7562
▁royal	-9.75642
▁arts	-9.75648
pu	-9.75673
otan	-9.75688
▁éco	-9.75688
▁soient	-9.75698
▁apple	-9.75747
▁animaux	-9.75783
▁50	-9.75816
abilité	-9.75874
▁&	-9.75874
shin	-9.75943
▁seine	-9.75946
ures	-9.7595
▁().	-9.75992
avec	-9.76008
▁dépasse	-9.76039
▁riche	-9.76063
exposition	-9.76064
▁chargé	-9.76117
▁table	-9.76206
roi	-9.76206
▁bat	-9.76277
▁allemands	-9.76362
▁maire	-9.76542
▁lettre	-9.76575
29	-9.76653
▁magazine	-9.76683
▁nuit	-9.76766
ose	-9.76831
posant	-9.76845
75	-9.7688
▁terrain	-9.76908
▁cé	-9.76934
▁interne	-9.76961
ep	-9.76963
▁provinces	-9.76968
▁fondé	-9.76992
ball	-9.76999
▁orientale	-9.77044
occident	-9.77111
▁déroule	-9.77114
▁nos	-9.77143
ira	-9.77186
▁int	-9.77326
▁processeur	-9.77334
importance	-9.77347
▁actuellement	-9.77362
▁futur	-9.77476
▁importants	-9.77507
▁artistes	-9.77657
▁humain	-9.77783
▁matériel	-9.77796
▁disque	-9.77816
pen	-9.77832
élect	-9.77946
tori	-9.77981
▁résistance	-9.77989
ik	-9.78024
isés	-9.7805
▁marie	-9.78085
▁régulièrement	-9.78095
▁lancé	-9.78117
comme	-9.78129
▁médaille	-9.78208
▁record	-9.78208
▁étrangers	-9.78288
dont	-9.7834
▁perd	-9.78369
▁passer	-9.7855
▁analyse	-9.78595
▁extrême	-9.78627
▁rhétorique	-9.78648
▁désigner	-9.78768
▁fondation	-9.78785
▁culturelle	-9.78804
▁péri	-9.78845
▁google	-9.78869
▁couche	-9.78887
▁institutions	-9.78927
▁concerne	-9.79012
▁siècles	-9.79083
altitude	-9.79092
▁couronne	-9.7912
analyse	-9.79144
we	-9.79184
▁lune	-9.7929
▁température	-9.79291
▁résultat	-9.79291
arrêt	-9.79294
bri	-9.7932
▁consiste	-9.79323
univers	-9.79359
accès	-9.7937
tour	-9.79412
▁réuni	-9.79488
40	-9.79517
▁agricole	-9.79522
▁ber	-9.7955
▁néo	-9.79626
36	-9.79629
▁trouver	-9.79714
▁reconnu	-9.79716
▁prince	-9.79743
▁déclin	-9.79759
'«	-9.79948
▁juge	-9.79958
▁maladie	-9.7998
▁traduit	-9.7998
kin	-9.80192
▁placé	-9.80228
▁réaction	-9.80344
▁faveur	-9.80428
▁direct	-9.80434
▁complexe	-9.80453
▁lac	-9.80543
▁tr	-9.80568
nier	-9.80612
▁bureau	-9.80629
▁bénéficie	-9.80632
ieux	-9.80673
▁juste	-9.80725
iran	-9.80727
occupation	-9.80876
▁football	-9.80878
▁rep	-9.80935
▁noms	-9.81017
ster	-9.81061
▁composée	-9.81145
▁primaire	-9.81247
▁[	-9.81247
▁parler	-9.81308
essentiel	-9.81318
▁attaque	-9.81351
▁peinture	-9.81353
illa	-9.81356
▁pièces	-9.81395
▁précise	-9.81423
langue	-9.8146
arrondissement	-9.81557
▁sociaux	-9.81557
▁gén	-9.81607
▁privé	-9.81627
▁van	-9.81746
▁revanche	-9.81784
▁belge	-9.81862
▁épouse	-9.8187
gène	-9.8191
▁baisse	-9.81979
dit	-9.81995
ième	-9.82047
den	-9.8207
anti	-9.82081
ius	-9.82084
▁couleur	-9.82105
tou	-9.82137
▁joueurs	-9.82206
lia	-9.82242
▁remonte	-9.82263
▁fit	-9.82268
18	-9.82313
▁locaux	-9.82471
▁devenue	-9.82513
▁trouvent	-9.82562
cou	-9.82668
▁police	-9.82705
▁cat	-9.82757
▁pose	-9.82764
▁grecs	-9.82791
▁plaine	-9.82865
▁formule	-9.82929
▁ami	-9.83016
27	-9.83025
▁gl	-9.83062
▁seuls	-9.83101
▁approche	-9.83115
mine	-9.83122
acte	-9.83158
tie	-9.83202
▁page	-9.83306
archi	-9.83314
▁document	-9.83336
▁entraîne	-9.83401
▁développer	-9.83428
▁chaîne	-9.8346
▁moyens	-9.83469
▁organisé	-9.8347
top	-9.83559
▁introduit	-9.83621
▁1998	-9.83632
ologue	-9.83703
marin	-9.83743
article	-9.83777
▁constituent	-9.8378
nie	-9.83812
▁locales	-9.83839
existe	-9.83887
▁historiques	-9.83911
▁livres	-9.83991
bourg	-9.84017
isent	-9.84039
gr	-9.8406
épisode	-9.84087
amour	-9.84092
▁compose	-9.84116
▁uniquement	-9.84143
65	-9.84188
▁permettre	-9.84212
anglais	-9.84256
oï	-9.84287
▁cultures	-9.84288
zi	-9.84305
▁rendu	-9.84308
▁longueur	-9.84318
▁pression	-9.8432
▁1995	-9.84333
▁mus	-9.84377
individu	-9.84461
ker	-9.84463
▁contemporain	-9.84509
identité	-9.84556
▁ag	-9.84577
▁législatives	-9.8458
▁dépend	-9.84703
où	-9.84751
▁volonté	-9.84787
absence	-9.84801
temp	-9.84823
▁italien	-9.84841
aille	-9.84921
▁affirme	-9.84929
▁fondateur	-9.8495
ima	-9.84952
▁californie	-9.8497
▁ter	-9.84981
▁forêt	-9.85
▁distance	-9.85022
▁vont	-9.85024
î	-9.85059
▁mariage	-9.85129
▁25	-9.85141
▁conçu	-9.85257
ies	-9.85298
omb	-9.85308
mettent	-9.85338
▁)	-9.85344
▁manga	-9.85387
▁proches	-9.8546
▁religieuse	-9.8549
▁financière	-9.85492
▁tar	-9.85524
▁gri	-9.85628
aine	-9.85689
décès	-9.85694
mm	-9.8584
▁réalise	-9.85869
▁monnaie	-9.85966
26	-9.86097
bar	-9.86142
▁similaire	-9.86203
▁professeur	-9.8621
32	-9.86211
gramme	-9.86234
▁chasse	-9.86291
pin	-9.86318
oire	-9.8632
iennes	-9.86329
ges	-9.86338
▁méthodes	-9.86378
ich	-9.8642
▁tient	-9.86431
▁signé	-9.86449
▁médecin	-9.86451
étranger	-9.86457
▁contraire	-9.86495
▁renaissance	-9.8654
▁industriel	-9.86591
polit	-9.86606
▁expérience	-9.8661
▁fédération	-9.8668
▁numéro	-9.8668
▁francs	-9.86716
igu	-9.86745
off	-9.86748
▁couleurs	-9.86821
▁vir	-9.86849
tisme	-9.86859
pierre	-9.86915
▁2021	-9.86933
ret	-9.86976
ivité	-9.8707
lf	-9.87087
ajout	-9.87175
▁variété	-9.8719
▁veut	-9.87204
▁travaille	-9.87251
▁thé	-9.8735
lauréat	-9.874
▁bloc	-9.8745
▁bleu	-9.87555
▁pic	-9.87568
atrice	-9.87589
ther	-9.87641
apparition	-9.87648
33	-9.87659
▁environnement	-9.87704
▁liée	-9.87765
oy	-9.87768
▁publics	-9.87806
▁parce	-9.87822
▁derrière	-9.87882
▁2003	-9.87897
ff	-9.87965
▁disc	-9.87987
heure	-9.88026
▁frère	-9.88046
table	-9.88119
▁contenu	-9.88143
illon	-9.88155
▁armes	-9.88239
oux	-9.8846
saint	-9.88512
▁idées	-9.88529
nisme	-9.88617
ann	-9.88672
▁tableau	-9.88829
▁traduction	-9.88854
▁attribué	-9.88854
tsu	-9.88877
▁interdit	-9.88877
▁noyau	-9.8896
▁passant	-9.88969
▁manque	-9.89006
▁élus	-9.89061
23	-9.89104
▁perte	-9.89119
▁soumis	-9.89142
▁candidature	-9.8917
érer	-9.89185
▁»).	-9.89197
auto	-9.89216
▁informations	-9.89247
▁forment	-9.89273
▁diffusion	-9.89343
▁freud	-9.89344
▁contact	-9.89345
▁philosophique	-9.89345
viennent	-9.89351
venir	-9.89398
▁ceci	-9.89416
▁salle	-9.89427
sible	-9.89444
▁mesures	-9.89536
gin	-9.89665
22	-9.89682
uit	-9.89715
▁conquête	-9.89835
▁nobel	-9.89865
aut	-9.89991
▁rive	-9.90046
▁conserva	-9.90047
▁carte	-9.90081
▁démocratique	-9.90082
▁maurice	-9.90083
opération	-9.90083
▁contribue	-9.90087
embl	-9.9013
gna	-9.90159
▁neuf	-9.90177
▁suit	-9.90213
niste	-9.90313
honneur	-9.90331
▁composition	-9.90337
dame	-9.90348
ça	-9.90392
hal	-9.90474
struct	-9.90475
dr	-9.90512
▁quatrième	-9.90578
fait	-9.90641
▁continu	-9.90642
oph	-9.90666
▁afrique	-9.90759
accent	-9.90767
▁rien	-9.90816
▁violence	-9.90843
▁(20	-9.9089
▁transports	-9.9093
▁refuse	-9.90931
homo	-9.90999
fond	-9.91014
▁ben	-9.91026
▁gen	-9.91075
▁universitaire	-9.91076
▁réalisation	-9.91134
▁ir	-9.91208
▁gaule	-9.91287
▁cam	-9.91358
▁directeur	-9.91457
▁unies	-9.91467
phe	-9.91519
▁influencé	-9.91577
▁accueilli	-9.9158
▁1997	-9.91587
▁tur	-9.91666
fiction	-9.91688
▁varie	-9.91744
établissement	-9.91774
▁ministère	-9.91828
55	-9.91832
▁francisco	-9.91838
▁mille	-9.91968
▁pratiques	-9.92042
▁solution	-9.9208
▁branche	-9.9208
▁février	-9.92332
▁han	-9.92354
▁issus	-9.9236
assi	-9.92364
iel	-9.92428
▁capital	-9.92514
▁vendu	-9.92528
estonie	-9.92571
99	-9.92572
▁conc	-9.92583
▁viande	-9.92587
▁sports	-9.92629
forme	-9.92647
▁britanniques	-9.92648
96	-9.9266
▁intitulé	-9.92839
▁stade	-9.92863
▁rural	-9.92924
roy	-9.92947
▁album	-9.92954
▁romains	-9.93018
▁découvert	-9.9302
ug	-9.93043
48	-9.93087
▁milliers	-9.93094
28	-9.931
▁désert	-9.93152
86	-9.93286
▁ed	-9.93295
▁élevée	-9.93333
expansion	-9.93349
▁apparu	-9.93352
▁graphique	-9.93358
▁somme	-9.93374
▁restent	-9.93388
▁horus	-9.93392
▁us	-9.93445
▁?	-9.93522
▁issue	-9.93526
▁parties	-9.93538
▁naturelles	-9.93557
▁démocratie	-9.93605
▁comportement	-9.93621
▁poète	-9.93642
▁intérêt	-9.93673
ît	-9.9369
▁condition	-9.9369
▁tourne	-9.93706
▁jules	-9.93775
uk	-9.93783
▁tend	-9.93821
89	-9.93827
▁conservé	-9.93861
▁londres	-9.93861
ace	-9.93863
▁1930	-9.93879
din	-9.93901
tifs	-9.93954
▁organisation	-9.94056
▁écrits	-9.94066
ura	-9.94111
▁david	-9.94121
39	-9.94139
▁collection	-9.9417
▁destiné	-9.94171
▁dia	-9.94182
▁tentative	-9.9438
▁autorités	-9.94393
,6	-9.94403
▁affaires	-9.94467
▁voisin	-9.94496
enfant	-9.94541
▁scientifiques	-9.94546
▁petites	-9.94562
bus	-9.94614
▁valeurs	-9.94626
édition	-9.94632
▁poisson	-9.94635
tage	-9.94635
▁chaud	-9.9469
▁correspondant	-9.94851
essor	-9.94911
)|	-9.94946
▁participe	-9.94987
▁citer	-9.94989
▁martin	-9.95008
▁=	-9.95009
▁ouvert	-9.95035
▁pape	-9.95045
▁bro	-9.951
▁secrétaire	-9.95153
▁août	-9.9516
98	-9.95165
dy	-9.9527
▁romans	-9.9531
▁congo	-9.9532
vert	-9.95326
▁1992	-9.95425
▁commerciale	-9.95515
wi	-9.95553
gl	-9.95565
▁différence	-9.95576
opposition	-9.95619
56	-9.95687
▁religions	-9.95762
▁microsoft	-9.95936
écu	-9.96024
acteur	-9.96048
ani	-9.96133
▁territoriale	-9.9617
▁sert	-9.96388
ado	-9.96413
▁naturels	-9.96427
▁densité	-9.96469
▁viol	-9.96537
▁écrite	-9.96549
eaux	-9.96568
script	-9.96616
tom	-9.96631
my	-9.96664
▁1,	-9.9667
▁danger	-9.96694
oir	-9.9672
intelligence	-9.96726
▁épi	-9.96796
▁majoritaire	-9.96796
arn	-9.96824
▁luc	-9.96864
▁frontières	-9.96886
▁collège	-9.9699
▁carbone	-9.96991
▁désigné	-9.97002
▁auto	-9.97034
▁rép	-9.97158
▁civil	-9.97227
▁mécanique	-9.97256
▁variable	-9.97259
▁gare	-9.97283
▁dû	-9.97295
▁maritime	-9.97349
▁fréquent	-9.97452
▁at	-9.97506
line	-9.976
▁ouvrage	-9.97653
▁80	-9.97684
autorité	-9.97758
espèce	-9.97758
ham	-9.97771
▁scénario	-9.97788
▁provoque	-9.97788
▁républicain	-9.97788
arabie	-9.97789
▁candidats	-9.97879
▁entièrement	-9.9791
▁occupe	-9.98002
▁déclaration	-9.98074
▁origines	-9.98143
ick	-9.98237
ordinateur	-9.98306
vol	-9.98312
▁agricoles	-9.98338
inverse	-9.98375
lus	-9.98402
▁lit	-9.98479
euro	-9.98521
utilis	-9.98521
▁dérivé	-9.98593
▁présidence	-9.98595
pre	-9.98596
▁poursuit	-9.98621
bit	-9.98648
▁classé	-9.9865
▁henri	-9.987
▁lié	-9.98705
▁modernes	-9.98786
▁estimé	-9.98802
impression	-9.98862
▁1994	-9.98874
▁abrite	-9.98878
ith	-9.98892
▁instrument	-9.98921
▁xx	-9.98945
agne	-9.98976
ifier	-9.99028
marie	-9.9906
▁communautés	-9.99098
▁cathédrale	-9.99132
▁bra	-9.99134
aliment	-9.99166
▁vrai	-9.99216
▁paysage	-9.99225
▁mini	-9.99237
▁urbain	-9.99261
▁doté	-9.99375
93	-9.99386
▁mythologie	-9.99403
irlande	-9.99405
▁touristique	-9.99417
▁recherches	-9.9943
▁pied	-9.99466
ky	-9.99649
%	-9.99692
habitants	-9.99699
92	-9.99751
zo	-9.99812
émission	-9.99864
▁lien	-9.99901
▁soutenu	-9.99927
élevage	-9.99948
▁contraint	-9.99963
▁qualifié	-9.99966
fichier	-9.99974
▁basé	-9.99981
▁visite	-10.0005
▁connus	-10.0009
▁route	-10.0014
ray	-10.0017
▁image	-10.0017
▁rares	-10.0019
▁capable	-10.0021
▁programmes	-10.0021
▁rapproche	-10.0024
▁repose	-10.0025
indi	-10.0027
islam	-10.0027
▁présenté	-10.0032
▁jeunesse	-10.0037
▁réseaux	-10.0037
47	-10.0039
▁trente	-10.0051
▁parlementaire	-10.0052
53	-10.0061
▁village	-10.0061
atmosphère	-10.0077
▁effectué	-10.0077
ries	-10.0082
az	-10.0084
▁développée	-10.0089
gie	-10.0093
iale	-10.0093
▁consacré	-10.0099
▁domination	-10.0105
▁concert	-10.0105
▁king	-10.0105
▁menace	-10.0106
▁proposition	-10.0109
▁grave	-10.0111
culture	-10.0113
▁bus	-10.0115
▁régionales	-10.0128
▁bout	-10.0128
évêque	-10.0132
▁wittgenstein	-10.0132
▁respectivement	-10.0132
▁volume	-10.0132
artiste	-10.014
▁inscrit	-10.0141
écart	-10.0142
▁utiliser	-10.0152
66	-10.0152
▁rhône	-10.0157
▁gaulois	-10.016
▁tension	-10.016
▁angeles	-10.016
▁divinités	-10.0168
var	-10.0174
▁propriété	-10.0175
bour	-10.0175
mann	-10.0179
▁proximité	-10.0188
▁âgé	-10.0188
▁cheval	-10.0189
▁réalisée	-10.0197
▁olympique	-10.0205
▁cru	-10.0205
▁exclu	-10.021
▁équipe	-10.0212
▁eaux	-10.0215
▁originaire	-10.0215
▁potentiel	-10.0215
▁pétrole	-10.0215
▁statue	-10.0216
▁voies	-10.0218
sol	-10.0222
▁projets	-10.0228
▁los	-10.0233
▁organisée	-10.0234
▁familles	-10.0241
▁pouvant	-10.0243
▁reprises	-10.0247
▁2020	-10.0249
exemple	-10.0251
▁courants	-10.0258
▁protestant	-10.0259
▁aide	-10.0265
▁utilisent	-10.0271
▁disparu	-10.0272
▁actions	-10.0277
asse	-10.0288
▁pièce	-10.0291
88	-10.0299
intervention	-10.03
▁réel	-10.0302
▁coll	-10.0315
51	-10.0322
▁progress	-10.0322
artisan	-10.0323
hn	-10.0328
▁cérémonie	-10.0328
▁accompagné	-10.0328
atoire	-10.0329
▁conseiller	-10.0333
▁relief	-10.0333
,3	-10.0338
▁heures	-10.0339
▁effets	-10.0341
▁nomme	-10.0344
▁évoque	-10.0356
▁recensement	-10.0358
▁européennes	-10.0362
lette	-10.0369
rage	-10.0371
dor	-10.0371
46	-10.0377
▁précédent	-10.0377
▁action	-10.0378
▁fête	-10.0379
58	-10.0384
94	-10.0385
humanité	-10.0386
pour	-10.039
▁feu	-10.0396
èvre	-10.0414
70	-10.042
▁chrétienne	-10.0422
argentine	-10.0424
▁issu	-10.0431
étudiant	-10.0432
cc	-10.0433
▁foi	-10.0437
42	-10.0446
▁estonien	-10.0454
années	-10.0455
▁constituée	-10.0457
▁menée	-10.0464
▁utilisées	-10.0467
▁armées	-10.0467
▁favorable	-10.047
▁rythme	-10.047
invasion	-10.047
▁autonome	-10.047
▁1993	-10.0471
sphère	-10.0473
dio	-10.0475
commun	-10.0476
rt	-10.0476
amsterdam	-10.0498
▁charlemagne	-10.0498
▁trouvé	-10.0499
37	-10.05
▁récit	-10.05
▁particulière	-10.0508
oxy	-10.051
▁réaliser	-10.051
alliance	-10.0512
▁vice	-10.0513
▁conserve	-10.0519
▁dehors	-10.052
rier	-10.0522
exécution	-10.0527
▁1988	-10.0528
▁conscience	-10.0529
▁classes	-10.053
_1	-10.053
▁publiée	-10.0546
▁modèles	-10.0547
▁collaboration	-10.0556
▁climatique	-10.057
▁artificielle	-10.0572
ayant	-10.0576
▁dirigé	-10.0576
38	-10.0577
▁reprend	-10.0578
▁augmente	-10.058
▁lesquelles	-10.0585
▁comédie	-10.0585
▁côtés	-10.0586
▁conséquence	-10.0588
▁wi	-10.0591
▁mono	-10.0595
▁amérique	-10.0602
mod	-10.0611
▁péninsule	-10.0614
installation	-10.0615
▁christianisme	-10.0616
mal	-10.062
▁test	-10.0621
▁fe	-10.0622
97	-10.0623
▁assis	-10.0625
▁journaliste	-10.0626
▁quitte	-10.0632
▁limites	-10.0641
▁revient	-10.0643
▁séparé	-10.0643
▁annuelle	-10.0645
▁présents	-10.0648
cer	-10.0653
ada	-10.0656
▁aspects	-10.0657
▁davantage	-10.0662
▁william	-10.0672
▁poids	-10.0672
alisation	-10.0676
▁rois	-10.0679
▁alain	-10.0679
▁internationales	-10.0681
▁désir	-10.0705
▁aff	-10.0709
▁0,	-10.0709
▁ligue	-10.071
▁chanson	-10.071
rap	-10.0713
▁relative	-10.0714
▁nil	-10.0718
▁joueur	-10.0726
▁isis	-10.0729
▁stratégie	-10.0731
ingénieur	-10.0731
mus	-10.0732
▁thème	-10.0741
▁règle	-10.0751
▁noire	-10.0751
rg	-10.0753
là	-10.0754
▁appelés	-10.0756
▁masculin	-10.076
gué	-10.076
▁comte	-10.0761
▁fonctionne	-10.0762
loire	-10.0764
|*|	-10.0768
▁diversité	-10.077
▁quantique	-10.0771
▁besoin	-10.0771
cus	-10.0771
era	-10.0778
▁unités	-10.0788
▁médecine	-10.0788
▁budget	-10.079
auvergne	-10.079
▁naît	-10.0792
▁station	-10.08
▁montagne	-10.0801
▁gre	-10.0802
▁commande	-10.0803
▁caen	-10.0804
76	-10.0805
▁gou	-10.0808
▁administration	-10.0817
▁pouvait	-10.0819
▁ouverte	-10.0834
▁contra	-10.0841
▁niveaux	-10.0841
▁répond	-10.0845
▁resté	-10.0849
▁auteur	-10.085
deux	-10.0851
impose	-10.0851
▁tours	-10.0852
▁multiples	-10.0856
▁train	-10.0857
▁médi	-10.086
▁accepte	-10.0864
chev	-10.0878
▁condamné	-10.0879
▁pratiqué	-10.0879
▁saoudite	-10.0879
▁seigneur	-10.0879
éthique	-10.088
mir	-10.0883
▁sorti	-10.0886
▁revenus	-10.0888
▁inde	-10.0892
▁article	-10.0893
▁quartiers	-10.0896
application	-10.0901
▁cités	-10.0902
étant	-10.0906
alphabet	-10.0908
▁circonscription	-10.0908
atique	-10.0908
▁sensible	-10.0909
▁pologne	-10.0909
▁1920	-10.0911
▁françaises	-10.0914
▁maintien	-10.0916
avait	-10.0922
▁principes	-10.0924
▁fonctionnement	-10.0928
puis	-10.0933
▁60	-10.0959
▁noter	-10.0965
▁pôle	-10.0968
▁contient	-10.0968
▁demi	-10.097
ï	-10.0976
▁ford	-10.0978
▁pol	-10.0984
87	-10.0987
dés	-10.0991
▁simplement	-10.0991
▁sang	-10.0993
initiative	-10.0998
▁produire	-10.0998
▁théorique	-10.0999
▁événements	-10.1006
▁chrétiens	-10.101
▁images	-10.1012
▁hauteur	-10.1012
▁quart	-10.1017
▁million	-10.102
édit	-10.1023
explique	-10.1024
▁marche	-10.1028
▁exprimé	-10.1029
▁prennent	-10.1029
▁1991	-10.103
▁vent	-10.1031
▁gros	-10.1031
▁néerlandais	-10.1032
▁client	-10.1032
▁perse	-10.1036
aff	-10.1037
▁tom	-10.1038
▁recueil	-10.104
▁fourni	-10.1052
▁raisons	-10.1057
▁évolue	-10.1059
▁1981	-10.106
tec	-10.1064
▁ét	-10.1066
▁couple	-10.1067
mettant	-10.1072
▁richesse	-10.1074
▁osiris	-10.1081
▁judiciaire	-10.1089
▁programmation	-10.1089
archipel	-10.1089
▁participation	-10.109
argument	-10.109
▁technologie	-10.1093
▁conclu	-10.1095
phy	-10.1095
▁lyon	-10.1096
▁mathématiques	-10.1104
▁démographique	-10.112
▁contrat	-10.112
▁sélection	-10.1121
▁croissant	-10.1122
▁seraient	-10.1123
▁devait	-10.1125
▁21	-10.1128
▁latine	-10.1131
ements	-10.1131
ight	-10.1132
espéranto	-10.1143
▁déco	-10.1147
43	-10.1147
▁définit	-10.1147
▁proposé	-10.1151
▁collectivité	-10.1151
angle	-10.1152
▁visible	-10.1153
mou	-10.117
▁portant	-10.118
▁intégré	-10.1183
▁vend	-10.1183
▁entité	-10.1186
▁suffrages	-10.1188
67	-10.1191
▁traite	-10.1195
▁construite	-10.1197
▁alliés	-10.1201
rand	-10.1209
dique	-10.1213
▁révolutionnaire	-10.1215
▁sainte	-10.1218
▁2015,	-10.1221
▁former	-10.1227
log	-10.1233
▁pacifique	-10.1243
améliore	-10.1243
▁canada	-10.1244
▁métaux	-10.1244
▁1945	-10.1245
celle	-10.1246
▁caractérise	-10.1249
▁24	-10.1254
▁ajoute	-10.126
▁questions	-10.1262
▁églises	-10.1273
▁successeur	-10.1274
▁1940	-10.1275
▁disposition	-10.1275
49	-10.128
pul	-10.1285
04	-10.1286
▁réussi	-10.1289
isa	-10.1289
kar	-10.129
applique	-10.1295
▁iso	-10.1304
▁légende	-10.1305
▁liens	-10.1305
▁francophone	-10.1305
▁pétain	-10.1305
▁forêts	-10.1308
84	-10.1317
▁populaires	-10.1317
cas	-10.1319
hy	-10.1323
▁précis	-10.1325
▁régionale	-10.1325
▁italie	-10.1331
▁satellites	-10.1331
▁existent	-10.1332
▁global	-10.1336
▁maintenant	-10.1336
▁défaite	-10.1336
▁alimentaire	-10.1337
▁1989	-10.1337
▁1996	-10.1337
▁ouvrages	-10.1344
▁bill	-10.1348
arménie	-10.1348
▁cad	-10.1351
▁pur	-10.1353
81	-10.1353
*	-10.1356
▁soi	-10.1363
press	-10.1365
▁proportion	-10.1366
▁classification	-10.1367
▁déclaré	-10.1367
▁1986	-10.1369
emp	-10.1369
emb	-10.137
not	-10.1378
▁vague	-10.1379
gg	-10.1384
▁essai	-10.1395
▁obtenir	-10.1395
▁protocole	-10.1399
▁espagnole	-10.1401
arrière	-10.1401
52	-10.1404
one	-10.1407
▁laisse	-10.142
architecte	-10.143
▁performance	-10.143
▁phrase	-10.143
▁degré	-10.1435
▁ciel	-10.1439
indre	-10.144
affaire	-10.1444
▁classement	-10.1447
élément	-10.1448
raient	-10.1448
pol	-10.1449
▁disponibles	-10.1453
▁suivantes	-10.1456
▁comté	-10.1459
▁secondaires	-10.1461
▁cinquième	-10.1462
▁juridique	-10.1462
bat	-10.1464
▁fixe	-10.1465
angleterre	-10.1467
isis	-10.1468
▁subi	-10.1468
▁augmentation	-10.1477
61	-10.1479
grand	-10.148
▁sièges	-10.1482
▁servi	-10.1484
▁députés	-10.1489
▁plein	-10.1492
▁ferroviaire	-10.1493
▁mélange	-10.1493
▁jardin	-10.1493
▁comptait	-10.1493
gén	-10.1494
ème	-10.1494
appellation	-10.1494
mond	-10.1501
▁corse	-10.1502
las	-10.1507
▁refus	-10.1513
agence	-10.1532
zu	-10.1546
02	-10.1554
▁funéraire	-10.1557
▁nicolas	-10.1557
▁albert	-10.1557
▁touche	-10.1558
▁dire	-10.1563
72	-10.1569
▁lu	-10.1577
▁ère	-10.1579
▁2020,	-10.1585
appel	-10.1588
▁consult	-10.1589
▁varié	-10.1599
▁vente	-10.1609
pas	-10.1609
▁organisations	-10.161
▁proto	-10.1612
▁allemagne	-10.1615
▁rê	-10.162
▁fréquence	-10.1621
▁renforce	-10.1621
▁relève	-10.1621
▁origine	-10.1624
▁juifs	-10.1625
alger	-10.1626
▁ger	-10.1626
parti	-10.1626
osiris	-10.1629
▁devint	-10.1634
▁joué	-10.165
▁apparaissent	-10.1653
▁symbolique	-10.1653
▁variante	-10.1653
▁score	-10.1655
▁destinée	-10.1655
animal	-10.1659
▁structures	-10.1661
expérience	-10.1662
▁trafic	-10.1686
▁fleur	-10.1687
▁hiver	-10.1687
▁dessinée	-10.1691
▁mit	-10.1695
▁opposition	-10.1695
▁hor	-10.1696
▁|	-10.1699
▁tenu	-10.1699
▁crime	-10.17
▁ton	-10.1703
▁besoins	-10.1705
▁dialecte	-10.1718
▁rejoint	-10.1718
▁minorité	-10.1718
▁1974	-10.1719
▁rené	-10.1728
▁établissements	-10.1729
▁apporte	-10.1729
▁visant	-10.173
▁liés	-10.1733
▁personnalités	-10.1733
▁sha	-10.1736
▁andré	-10.1737
▁récemment	-10.175
▁spectacle	-10.175
▁suprême	-10.175
▁preuve	-10.175
▁opposé	-10.175
▁rituel	-10.175
▁transformation	-10.1751
▁transforme	-10.1752
ken	-10.176
▁commencé	-10.1767
▁dynamique	-10.177
af	-10.1771
▁mythe	-10.1773
historien	-10.1775
▁réflexion	-10.1783
▁auparavant	-10.1783
▁gratuit	-10.1783
▁secret	-10.1783
écrit	-10.1785
tribu	-10.1786
▁constitutionnel	-10.1789
objectif	-10.1796
jeu	-10.1797
▁milieux	-10.1798
isées	-10.1802
américain	-10.1807
text	-10.1807
▁effectue	-10.1815
▁tôt	-10.1815
06	-10.1817
▁personnelle	-10.1828
▁parallèle	-10.1829
▁espace	-10.183
▁chili	-10.1831
▁centaines	-10.1833
▁représentée	-10.1834
▁titres	-10.1839
▁préfecture	-10.1843
▁u	-10.1843
▁douze	-10.1848
▁regard	-10.1851
▁floride	-10.1852
intéresse	-10.1856
▁opérations	-10.186
▁propriétés	-10.1863
▁flo	-10.1865
▁secteurs	-10.1866
rich	-10.1868
▁difficultés	-10.1869
▁présenter	-10.187
effet	-10.1873
▁norme	-10.1874
institution	-10.1878
▁révèle	-10.1881
▁hautes	-10.1884
▁logo	-10.1886
83	-10.1887
▁contemporaine	-10.1887
78	-10.1892
▁méta	-10.1894
▁conflits	-10.1901
69	-10.1911
▁portugal	-10.1914
▁licence	-10.1914
▁diffusé	-10.1915
▁section	-10.1915
▁indépendante	-10.1915
▁cartes	-10.1917
position	-10.1918
ller	-10.192
ua	-10.1923
abo	-10.1928
44	-10.1929
guerre	-10.193
▁étape	-10.1931
▁divinité	-10.1932
▁violent	-10.1934
▁jouer	-10.1943
▁puissant	-10.1944
▁compétence	-10.1947
▁construire	-10.1947
▁efficace	-10.1947
▁nîmes	-10.1947
▁pêche	-10.1947
▁citoyens	-10.1949
ération	-10.1956
▁lecteur	-10.1957
œ	-10.1958
▁empereur	-10.1962
▁quoi	-10.1962
▁abouti	-10.1962
allemand	-10.1963
▁phénomènes	-10.1964
oli	-10.1975
▁utilisation	-10.1975
▁libération	-10.1976
garonne	-10.1978
▁george	-10.1979
▁financier	-10.198
onu	-10.1983
utiliser	-10.1987
▁guy	-10.1988
41	-10.1991
▁fusion	-10.1994
▁pouvoirs	-10.1995
▁pc	-10.2017
père	-10.2025
opéra	-10.2026
mère	-10.2041
illi	-10.2045
▁sols	-10.2045
▁%.	-10.2048
▁décret	-10.2049
âme	-10.2053
▁puisqu	-10.2055
▁ferme	-10.2058
▁organise	-10.2059
▁documents	-10.206
mêmes	-10.2065
rec	-10.2077
gro	-10.208
accueil	-10.2082
▁biologique	-10.2082
phi	-10.2084
▁chiffres	-10.2084
74	-10.2099
▁humaines	-10.2106
▁22	-10.2114
▁marchand	-10.2114
▁manifeste	-10.2114
▁germanique	-10.2114
▁réduit	-10.2114
autriche	-10.2115
▁1972	-10.2116
▁pre	-10.2118
▁favorise	-10.2119
▁allant	-10.212
▁sportif	-10.212
onique	-10.2121
▁impériale	-10.2121
▁appartena	-10.213
▁procédé	-10.2131
rite	-10.2139
▁annoncé	-10.2148
▁symbolis	-10.2148
▁engagé	-10.2148
▁puisse	-10.2149
▁complète	-10.2163
▁considérable	-10.2163
▁fra	-10.2163
▁riz	-10.2164
imi	-10.217
▁vieux	-10.2174
ii	-10.2179
▁métropole	-10.2182
▁monarchie	-10.2182
▁génétique	-10.2182
▁termine	-10.2183
▁départemental	-10.2186
cons	-10.2187
▁radical	-10.2187
▁montré	-10.2189
▁plat	-10.219
▁égyptiens	-10.2202
▁descendant	-10.2203
07	-10.2203
▁outils	-10.2209
▁dirige	-10.2213
▁concurrence	-10.2216
▁complément	-10.2216
▁variation	-10.2216
▁photographie	-10.2216
▁fixé	-10.2218
▁souhaite	-10.2219
▁semi	-10.2221
▁architecture	-10.2222
▁directe	-10.2223
ans	-10.2224
▁publiques	-10.2227
▁connaître	-10.2234
bal	-10.224
▁député	-10.2241
79	-10.2242
▁réunion	-10.2242
▁bras	-10.2243
▁monuments	-10.2244
▁souhait	-10.2247
▁réponse	-10.225
▁religieuses	-10.225
ost	-10.2254
insee	-10.2256
▁thèmes	-10.2273
▁secondaire	-10.2274
▁parole	-10.2278
ennemi	-10.2282
introduction	-10.2284
▁dinosaures	-10.2284
▁parvient	-10.2285
▁école	-10.2288
èse	-10.2291
▁sénat	-10.2294
▁catégories	-10.2294
▁traditions	-10.2294
▁étudiants	-10.2295
▁joseph	-10.2298
▁%).	-10.2299
ps	-10.2301
▁atteindre	-10.2308
▁chacune	-10.2325
▁rassemble	-10.2334
▁montrent	-10.2336
▁morts	-10.2337
chet	-10.234
ites	-10.234
▁versions	-10.2343
▁remarquable	-10.2353
resse	-10.2356
habitat	-10.2357
▁méditerranée	-10.2358
▁ici	-10.2359
▁jugé	-10.2363
▁initialement	-10.2365
assa	-10.2365
▁tim	-10.2366
icité	-10.238
alpes	-10.238
▁équipes	-10.2384
urss	-10.2386
▁typique	-10.2388
▁protégé	-10.2388
autonomie	-10.2388
▁remarque	-10.2388
▁chirac	-10.2389
▁prison	-10.2389
▁fonds	-10.2402
▁match	-10.2406
▁ordinateurs	-10.2415
anni	-10.2419
▁bâtiments	-10.2421
▁morale	-10.2421
▁ait	-10.2422
▁disparition	-10.2423
▁kurosawa	-10.2423
▁chimie	-10.2423
▁paraît	-10.2423
▁fla	-10.2423
▁partagé	-10.2423
office	-10.2424
▁reconnaissance	-10.2424
▁trou	-10.2427
ski	-10.2448
organisme	-10.2449
dans	-10.2457
▁particules	-10.246
▁biographie	-10.246
kan	-10.2461
▁hitchcock	-10.2468
phone	-10.2469
▁acteurs	-10.2469
nov	-10.2473
▁euro	-10.2475
▁énergie	-10.2476
instruction	-10.2484
91	-10.2488
apprentissage	-10.2492
▁enregistré	-10.2492
▁thèse	-10.2492
▁chercheurs	-10.2495
▁définitivement	-10.2501
▁débit	-10.2502
▁reprise	-10.2506
▁précédente	-10.2507
▁comprendre	-10.2509
▁éditions	-10.251
antes	-10.251
▁boy	-10.2518
événement	-10.2519
logie	-10.2525
▁réduire	-10.2527
▁pluie	-10.2527
▁dominé	-10.2529
cap	-10.2529
▁claude	-10.2531
▁caractérisé	-10.2534
▁transition	-10.2534
gy	-10.2534
orge	-10.2542
▁composant	-10.2544
▁montagnes	-10.2548
lieu	-10.2557
▁fondamentale	-10.2564
▁plateau	-10.2566
vous	-10.2578
▁game	-10.2587
▁james	-10.2589
▁adopté	-10.259
▁musicale	-10.2593
asi	-10.2593
▁bouddhisme	-10.2598
▁hongrois	-10.2598
▁hausse	-10.2598
▁polonais	-10.2598
▁1985	-10.26
▁héros	-10.26
▁basée	-10.2602
▁reconnue	-10.2604
▁air	-10.2607
▁divisé	-10.2612
▁application	-10.262
▁routes	-10.2627
attaque	-10.263
▁concentration	-10.2633
▁fabrication	-10.2633
▁progrès	-10.2633
▁sénégal	-10.2633
▁détruit	-10.2634
▁attribue	-10.2634
▁description	-10.2634
ish	-10.2634
▁gaulle	-10.2635
▁1975	-10.2635
▁plantes	-10.2651
dessous	-10.2661
▁qualifie	-10.2662
pou	-10.2662
lay	-10.2664
▁chefs	-10.2666
▁course	-10.2666
▁macarthur	-10.2669
▁windows	-10.2669
inspire	-10.2669
▁viv	-10.2687
▁gard	-10.2688
▁indépendance	-10.2688
▁deviennent	-10.269
▁italienne	-10.2692
▁fn	-10.2697
▁cercle	-10.2705
opinion	-10.2706
▁nationaux	-10.2709
▁totalement	-10.271
▁technologies	-10.2714
▁applications	-10.2727
évo	-10.2729
échange	-10.274
▁distinction	-10.2741
▁forcé	-10.2743
▁enseignement	-10.2744
▁four	-10.2744
▁pot	-10.2757
▁champion	-10.2766
▁mat	-10.2769
▁crois	-10.2772
▁édition	-10.2772
▁archéologique	-10.2777
▁papier	-10.2777
new	-10.2778
▁moindre	-10.2779
|*	-10.278
▁max	-10.2783
▁bases	-10.2785
horus	-10.2788
▁notable	-10.279
éni	-10.2793
affaires	-10.2796
éco	-10.2796
▁nation	-10.28
▁zo	-10.28
ves	-10.2804
▁universelle	-10.2806
▁espaces	-10.2808
▁décennies	-10.2809
09	-10.281
▁importance	-10.281
métrique	-10.2812
▁pleine	-10.2815
▁humide	-10.2817
▁répartition	-10.2819
▁géo	-10.2819
▁représentations	-10.2819
▁objectif	-10.2822
nage	-10.283
▁portée	-10.2835
▁avancé	-10.2841
igné	-10.2846
▁hall	-10.2846
▁suivants	-10.2847
▁1982	-10.2849
▁abandonné	-10.2849
▁1979	-10.285
▁bénéfici	-10.2852
nière	-10.2856
▁observé	-10.2856
▁assure	-10.2868
▁emb	-10.2874
▁gal	-10.2876
▁fédéral	-10.2878
...).	-10.2878
équilibre	-10.2885
▁substance	-10.2885
▁milliards	-10.2886
▁plats	-10.2887
quant	-10.2891
▁cannes	-10.2891
▁ouvre	-10.2892
▁mène	-10.2893
▁comm	-10.2896
▁majoritairement	-10.2912
▁méditerranéen	-10.2917
▁(200	-10.2917
chu	-10.2919
▁fidèle	-10.2922
aménagement	-10.2922
▁concours	-10.2922
▁bretagne	-10.2929
épi	-10.2936
▁réussit	-10.2941
▁composés	-10.2941
▁équivalent	-10.2949
▁fruits	-10.2951
▁réservé	-10.2958
▁bosnie	-10.2959
▁championnat	-10.2959
▁100	-10.2959
▁transmission	-10.2959
▁professionnels	-10.2961
▁différent	-10.2962
informatique	-10.2962
▁bâtiment	-10.2976
▁indien	-10.2977
▁extension	-10.2981
vari	-10.2984
▁lib	-10.2989
▁accès	-10.2989
▁décidé	-10.2991
-18	-10.2995
▁poésie	-10.2995
▁molière	-10.2996
gra	-10.2998
▁concentre	-10.2998
ué	-10.301
ige	-10.3017
▁féminin	-10.3024
▁porté	-10.3024
▁pyrénées	-10.303
▁).	-10.303
▁ouvrière	-10.3032
héritage	-10.3032
▁révolte	-10.3032
▁modification	-10.3032
▁bernard	-10.3034
atlantique	-10.3038
▁ke	-10.3044
▁orbite	-10.3047
▁villages	-10.3056
▁guinée	-10.3071
▁tire	-10.3072
31	-10.3073
ût	-10.3073
▁tournée	-10.3074
▁domine	-10.3076
▁manifestations	-10.3078
▁eut	-10.3078
ras	-10.308
▁adaptation	-10.3083
▁enfant	-10.3083
▁belle	-10.3091
ades	-10.3091
▁arabe	-10.3093
▁chapelle	-10.3094
▁armée	-10.3099
▁soir	-10.3102
▁espèce	-10.3106
▁molécule	-10.3106
idéologie	-10.3107
▁circuit	-10.3107
▁racine	-10.3107
▁écologique	-10.3107
▁1968	-10.3108
fec	-10.3109
slav	-10.311
▁dédié	-10.3115
marne	-10.3115
▁limité	-10.3116
▁apport	-10.312
totalité	-10.3123
▁spécialisé	-10.3124
dict	-10.3127
▁interprétation	-10.3132
▁cher	-10.3134
▁entend	-10.3138
▁danemark	-10.3144
▁skinhead	-10.3144
seine	-10.3147
▁unité	-10.3149
▁lancement	-10.315
▁côtes	-10.3152
▁arrêté	-10.3153
▁disponible	-10.3153
▁bru	-10.3155
▁étrangères	-10.3163
jou	-10.3169
▁liées	-10.3178
▁supplémentaire	-10.3181
▁littoral	-10.3181
▁souligne	-10.3183
▁travailler	-10.3185
▁dure	-10.3187
▁considérés	-10.3188
▁rock	-10.3189
gol	-10.319
▁aérienne	-10.3196
étaient	-10.3204
▁my	-10.3206
▁spatiale	-10.3212
vre	-10.3213
ibilité	-10.3214
▁couvert	-10.3217
▁étudié	-10.3219
▁(1	-10.3224
▁musulmans	-10.3224
▁riches	-10.3234
▁représenter	-10.3241
▁steve	-10.325
▁atlantique	-10.3251
▁fréquemment	-10.3256
▁remporté	-10.3256
▁signature	-10.3256
▁faisait	-10.3256
adresse	-10.3258
▁célèbres	-10.3264
03	-10.3269
▁bob	-10.3282
▁parents	-10.3285
▁acquis	-10.3286
étique	-10.3286
▁libéral	-10.3288
▁amis	-10.3291
▁vite	-10.3293
tta	-10.3293
▁luxembourg	-10.3294
exercice	-10.3294
▁concurrent	-10.3294
▁constituant	-10.3294
▁laboratoire	-10.3294
▁lorraine	-10.3294
▁responsabilité	-10.3294
alcool	-10.3294
▁navire	-10.3294
▁découvre	-10.3295
01	-10.3295
▁marc	-10.3296
euil	-10.3297
▁nationales	-10.3298
▁universités	-10.33
interprétation	-10.3306
hen	-10.3312
▁pense	-10.3312
▁courte	-10.3315
▁représentants	-10.3328
▁nécessite	-10.3332
▁retrouvé	-10.3332
▁municipal	-10.3335
▁coopération	-10.3339
▁égyptien	-10.3343
notamment	-10.3345
▁impact	-10.3346
▁étrangère	-10.335
accompagne	-10.3355
égalité	-10.3362
hou	-10.3363
ature	-10.3364
▁occupé	-10.3365
▁conséquences	-10.3366
▁prises	-10.337
▁détail	-10.337
▁mécanisme	-10.337
▁séjour	-10.337
▁kanji	-10.337
▁henry	-10.337
intention	-10.3372
▁tournage	-10.3373
▁pure	-10.3381
▁recettes	-10.3385
▁donnée	-10.3388
▁sexe	-10.3388
terre	-10.3391
▁0	-10.3391
▁adopte	-10.3395
▁asie	-10.3396
▁associée	-10.3397
▁limitée	-10.3399
▁blanche	-10.3407
▁obligatoire	-10.3409
▁printemps	-10.3409
▁procès	-10.3409
horizon	-10.3409
▁linéaire	-10.3409
▁1983	-10.341
▁io	-10.3413
édi	-10.3418
▁intérieur	-10.3419
▁ordinateur	-10.342
ncé	-10.3432
▁connues	-10.3433
▁arm	-10.3443
électron	-10.3444
▁jan	-10.3447
▁internationaux	-10.3447
▁kilomètres	-10.3447
▁sœur	-10.3447
▁mayenne	-10.3448
▁renaud	-10.345
▁pra	-10.3452
fou	-10.3453
▁précision	-10.3453
▁reg	-10.3454
punk	-10.3454
▁théories	-10.3461
▁alliance	-10.3468
▁référendum	-10.3486
▁démographie	-10.3486
▁psychologie	-10.3486
▁flore	-10.3492
▁laissé	-10.3492
▁constante	-10.3496
die	-10.3496
▁concepts	-10.3497
▁échanges	-10.3502
▁',	-10.3505
▁baie	-10.3506
73	-10.3511
▁entrée	-10.3514
▁présentent	-10.3525
▁byzantin	-10.3525
▁consacre	-10.3525
adversaire	-10.3525
▁sûr	-10.3525
▁températures	-10.3528
atome	-10.353
voient	-10.353
▁carré	-10.3537
▁serveur	-10.3539
ives	-10.3549
▁habitant	-10.3552
▁figur	-10.3556
▁froide	-10.356
▁limousin	-10.3563
innovation	-10.3564
provence	-10.3564
▁1973	-10.3565
▁chimique	-10.3565
▁musical	-10.3569
▁vise	-10.3577
▁dirigeants	-10.3577
▁couvre	-10.3578
film	-10.3582
▁canal	-10.3582
▁gui	-10.3584
▁occasion	-10.3584
▁divisée	-10.3588
denis	-10.3588
▁far	-10.3594
▁centres	-10.3598
luc	-10.36
▁récits	-10.3602
▁témoigne	-10.3603
▁bronze	-10.3603
▁augmenté	-10.3603
▁tribunal	-10.3603
▁travailleurs	-10.3605
▁27	-10.3609
▁vert	-10.3611
▁vivre	-10.3615
▁bourg	-10.3615
▁exerce	-10.3616
▁salles	-10.3622
▁frères	-10.3629
offre	-10.364
▁restauration	-10.3642
▁yeux	-10.3642
▁hommage	-10.3643
gel	-10.3643
docteur	-10.3649
▁gnu	-10.3654
▁individus	-10.3656
▁catholiques	-10.3657
▁catégorie	-10.3659
▁champs	-10.3663
actuelle	-10.3668
▁quotidien	-10.367
ft	-10.3674
▁entreprise	-10.3675
▁trône	-10.3681
▁scolaire	-10.3681
▁basket	-10.3682
▁exige	-10.3691
win	-10.3693
lam	-10.3703
▁échange	-10.3706
▁color	-10.3707
scope	-10.3709
▁île	-10.3713
▁distinguer	-10.3715
▁cri	-10.3716
▁café	-10.3719
▁doctrine	-10.3721
▁tokyo	-10.3721
▁assuré	-10.3721
type	-10.3721
▁sauf	-10.3721
▁pauvreté	-10.3722
▁mary	-10.3723
▁adapté	-10.3724
▁rayon	-10.3726
▁espagnols	-10.3727
▁association	-10.3728
▁historiens	-10.3731
▁divin	-10.3742
album	-10.3743
▁écran	-10.3748
▁militants	-10.3751
▁articles	-10.3754
uz	-10.3755
▁codes	-10.3757
▁colonisation	-10.376
▁volontaire	-10.376
▁environnemental	-10.3762
▁massive	-10.3763
▁existant	-10.3771
▁défi	-10.3773
▁donnent	-10.3774
▁défend	-10.3774
▁inférieur	-10.3777
issue	-10.3785
▁changements	-10.3785
quet	-10.3796
▁carolingien	-10.38
▁chômage	-10.38
▁promotion	-10.38
▁vérité	-10.38
▁finlande	-10.38
▁succession	-10.3801
mort	-10.3802
▁gouverneur	-10.3806
▁journée	-10.3807
bin	-10.3809
▁circ	-10.3811
▁différences	-10.3815
œil	-10.3826
▁régulière	-10.3827
établir	-10.3832
▁rêve	-10.3833
▁peuplée	-10.3834
ignon	-10.3837
▁comparaison	-10.384
▁consommé	-10.384
▁giscard	-10.384
▁véhicule	-10.384
▁envoyé	-10.384
▁richard	-10.384
▁golfe	-10.384
▁attesté	-10.3841
▁exposé	-10.3841
▁1984	-10.3842
hom	-10.3849
▁envers	-10.3852
▁christ	-10.3853
▁rarement	-10.3859
▁espagnol	-10.3861
▁cesse	-10.3863
président	-10.3865
▁relie	-10.387
rid	-10.387
▁définir	-10.3871
installe	-10.3871
▁iii	-10.3874
algérie	-10.3874
▁traditionnel	-10.3875
dom	-10.3876
utilisateur	-10.388
▁modifié	-10.388
▁céleste	-10.388
▁ethnique	-10.3881
égard	-10.3881
▁1978	-10.3882
▁réformes	-10.3885
ppe	-10.3888
▁provena	-10.3888
▁exemples	-10.3891
▁confirme	-10.3893
▁créateur	-10.3905
▁semaines	-10.391
indonésie	-10.391
▁servir	-10.391
0,	-10.3911
-1	-10.3915
nk	-10.3918
▁écrire	-10.3921
▁précipitations	-10.3921
▁ministres	-10.3921
▁pérou	-10.3924
flu	-10.3929
▁émissions	-10.3934
▁universel	-10.3937
ling	-10.3938
européen	-10.3947
trait	-10.3957
▁cinéaste	-10.3961
▁pollution	-10.3961
▁asiatique	-10.3961
▁26	-10.397
▁alpes	-10.3972
▁classiques	-10.3974
▁sujets	-10.3976
▁lunaire	-10.3981
▁coréen	-10.3983
▁retrait	-10.3986
▁vide	-10.3987
just	-10.3995
observation	-10.3999
▁heidegger	-10.4002
▁accessible	-10.4002
▁diminue	-10.4002
▁indigène	-10.4002
▁genève	-10.4003
▁vive	-10.4019
▁viennent	-10.4025
▁affiche	-10.4026
▁gagne	-10.4038
▁échec	-10.4041
▁hauts	-10.4042
▁district	-10.4043
▁généraux	-10.4043
▁récompense	-10.4043
▁éviter	-10.4043
▁qatar	-10.4044
▁monument	-10.405
▁ham	-10.4056
jean	-10.4059
psych	-10.4061
atant	-10.4069
sous	-10.407
▁angleterre	-10.4077
éditeur	-10.4081
▁parlé	-10.4081
▁vienne	-10.4083
▁28	-10.4083
compositeur	-10.4084
▁réduction	-10.4084
▁utile	-10.4084
▁réputé	-10.4084
officier	-10.4085
jet	-10.4088
contre	-10.4088
▁pcf	-10.4093
▁observe	-10.4101
▁maisons	-10.4112
lio	-10.4114
empêche	-10.412
▁apparition	-10.4123
▁1962	-10.4125
interface	-10.4125
▁1946	-10.4127
▁ouest	-10.4133
▁semaine	-10.4136
▁possèdent	-10.4138
hō	-10.4141
uté	-10.4146
▁définie	-10.4148
▁mains	-10.4149
échelle	-10.4157
▁1977	-10.4166
▁hongrie	-10.4166
▁protéger	-10.4166
escalade	-10.4166
▁préparation	-10.4166
▁touché	-10.4167
▁victor	-10.4167
▁figures	-10.4172
agir	-10.4178
▁arrivé	-10.4189
▁étudie	-10.4191
▁gens	-10.4195
▁découvertes	-10.4197
▁quel	-10.4198
bretagne	-10.4199
page	-10.4204
▁sanctuaire	-10.4208
▁serpent	-10.4208
▁crue	-10.4208
▁fuji	-10.421
▁foyer	-10.421
▁métier	-10.4211
▁verbe	-10.4216
aki	-10.4222
thy	-10.4225
▁intermédiaire	-10.4226
ump	-10.4228
▁erreur	-10.4228
▁allié	-10.4229
▁auraient	-10.4231
louis	-10.4243
▁suivie	-10.4247
ouvrir	-10.4249
▁sauvage	-10.4249
▁blues	-10.4254
rien	-10.4261
▁ajouté	-10.4269
▁voisins	-10.4272
▁90	-10.4273
usine	-10.4275
▁anglaise	-10.4275
enfance	-10.4278
mori	-10.428
▁ya	-10.4281
▁cd	-10.4289
▁administratif	-10.4291
▁bourgogne	-10.4291
actrice	-10.4302
chée	-10.4302
▁sexuelle	-10.4303
entretien	-10.4305
▁barre	-10.4308
▁rare	-10.431
▁symboles	-10.4311
ax	-10.4311
▁prim	-10.4316
aîné	-10.432
▁jusque	-10.4326
▁bre	-10.433
▁diplomatique	-10.4333
▁locuteur	-10.4333
▁pyramide	-10.4333
impôt	-10.4333
▁souris	-10.4337
▁caféine	-10.4337
▁originale	-10.4338
▁professionnelle	-10.4339
▁retourne	-10.4341
05	-10.4344
▁facilement	-10.4345
▁élection	-10.4346
▁stations	-10.436
▁prévu	-10.4365
ram	-10.437
▁raf	-10.4371
▁contrôl	-10.4372
py	-10.4374
▁défunt	-10.4375
▁précisément	-10.4375
▁suivent	-10.4375
▁quinze	-10.4376
▁fri	-10.4378
▁robot	-10.4379
ogne	-10.4381
▁dirigée	-10.4388
▁ps	-10.4389
▁chaînes	-10.4395
▁nommée	-10.4396
▁mau	-10.4396
▁reine	-10.4405
▁syndicat	-10.4418
▁gamme	-10.4418
▁électorale	-10.4418
▁lynch	-10.4418
anthropologie	-10.4419
▁franchi	-10.4426
▁déplacement	-10.4431
▁régionaux	-10.4439
▁daté	-10.4443
▁entière	-10.4445
▁américaines	-10.4455
▁complexes	-10.4455
inématographique	-10.446
▁maximum	-10.446
occitan	-10.446
▁sentiment	-10.446
abbaye	-10.446
▁phil	-10.4461
▁autorisé	-10.4461
▁prenant	-10.4462
▁raconte	-10.4462
ivoire	-10.4465
▁divise	-10.4467
tell	-10.447
▁sportive	-10.4474
▁légal	-10.4476
mit	-10.4477
▁bur	-10.4478
stein	-10.4479
▁70	-10.4481
well	-10.4489
▁solide	-10.4492
▁ski	-10.4495
emprunt	-10.4497
▁maintenir	-10.4503
▁patient	-10.4506
aison	-10.4508
communications	-10.4509
avion	-10.4514
▁réserves	-10.4516
▁métal	-10.452
▁paysans	-10.4526
▁plaque	-10.4531
▁prétend	-10.4531
▁normale	-10.4532
▁chansons	-10.4533
elli	-10.4534
▁stratégique	-10.4546
▁rattaché	-10.4546
▁atomique	-10.4546
▁mobile	-10.4546
alfred	-10.4546
invention	-10.4546
▁auquel	-10.4547
▁glace	-10.4547
▁intel	-10.4548
▁froid	-10.455
▁épreuves	-10.4553
▁objectifs	-10.4562
cel	-10.4563
cop	-10.4565
▁liban	-10.4566
▁touristes	-10.4568
▁écrivains	-10.4574
▁mol	-10.4578
▁démo	-10.4581
▁spéciale	-10.4585
▁vigueur	-10.4589
▁musicien	-10.4589
▁électeurs	-10.4589
▁bourgeois	-10.4589
▁pilote	-10.459
émergence	-10.4592
vern	-10.4594
▁conservation	-10.4595
▁revenu	-10.4595
▁(17	-10.4606
immigration	-10.4609
▁venus	-10.461
▁disques	-10.4611
▁tué	-10.4611
▁rejet	-10.4622
élite	-10.4626
▁calendrier	-10.4632
▁dictionnaire	-10.4632
▁imposé	-10.4633
▁goût	-10.4634
ophone	-10.4636
▁coloniale	-10.4638
▁fêtes	-10.464
▁hypothèse	-10.464
▁mass	-10.4642
▁démocrate	-10.4655
▁culturelles	-10.4655
▁facteurs	-10.4656
▁sortir	-10.4662
dan	-10.4667
paul	-10.4667
án	-10.467
autoroute	-10.4676
▁1944	-10.4677
▁1969	-10.4677
▁franco	-10.468
▁soutient	-10.4681
iège	-10.4691
▁départementale	-10.4707
▁sega	-10.4709
▁prêt	-10.4713
▁grammaire	-10.4719
▁lendemain	-10.4719
▁succède	-10.4719
▁logements	-10.4719
▁dénonce	-10.472
▁occidentaux	-10.472
▁résolution	-10.4721
▁matériaux	-10.4721
▁univers	-10.4722
▁converti	-10.4724
▁peintre	-10.4734
▁passion	-10.4736
▁donnant	-10.4742
▁23	-10.4757
▁soldats	-10.4761
▁1971	-10.4763
ssement	-10.4764
▁destruction	-10.4764
▁pomme	-10.4764
▁1976	-10.4765
▁partisans	-10.4765
▁contenant	-10.4766
plan	-10.4768
▁bible	-10.4771
▁utilisateurs	-10.4773
▁dépendant	-10.4773
▁mythes	-10.4778
court	-10.4782
▁gall	-10.4785
fé	-10.4786
exploit	-10.4788
▁hou	-10.4799
▁tenue	-10.48
▁considéra	-10.4802
▁repas	-10.4807
▁nourri	-10.4807
▁possession	-10.4807
▁suivre	-10.4807
enceinte	-10.4808
animation	-10.4808
▁jobs	-10.4809
▁suède	-10.4811
intégration	-10.4816
▁danois	-10.4818
ifie	-10.4822
acier	-10.4823
▁hy	-10.4824
▁actes	-10.4826
▁descend	-10.4826
▁chimiques	-10.4827
autant	-10.4831
cité	-10.4833
▁léon	-10.4836
enseigne	-10.4837
▁frais	-10.4837
dj	-10.4842
▁rat	-10.4846
expédition	-10.4848
connect	-10.4849
▁fondamental	-10.485
interprète	-10.4852
▁cuivre	-10.4852
▁identique	-10.4852
▁fini	-10.4854
obtenir	-10.4857
affect	-10.4863
alimentation	-10.4866
▁aller	-10.4876
investissement	-10.489
▁traditionnels	-10.4896
amélioration	-10.4896
▁perspective	-10.4896
▁recours	-10.4897
▁faune	-10.4899
▁participant	-10.4904
plus	-10.4905
arctique	-10.491
▁q	-10.4914
issi	-10.4917
▁optique	-10.4918
▁associations	-10.4922
▁ventes	-10.4924
▁présentation	-10.4926
appuie	-10.4927
▁verne	-10.4927
hel	-10.4928
grad	-10.493
▁écriture	-10.4934
▁reptiles	-10.4941
irlandais	-10.4941
▁sociologie	-10.4941
▁flux	-10.4941
gui	-10.4942
▁lupin	-10.4942
▁1966	-10.4943
▁feuille	-10.4944
▁municipalité	-10.4945
▁berlin	-10.4949
crit	-10.495
▁médiévale	-10.4955
▁fiction	-10.4968
▁fossiles	-10.4972
old	-10.4975
▁parlée	-10.4984
impulsion	-10.4985
▁interprété	-10.4985
▁relat	-10.4987
▁vivent	-10.499
approche	-10.499
importe	-10.4995
lib	-10.5001
▁indo	-10.501
▁partout	-10.5011
▁000	-10.5015
▁arabes	-10.5026
▁façade	-10.5031
▁technologique	-10.5031
échappe	-10.5031
▁devrait	-10.5031
▁commencent	-10.5032
▁bordeaux	-10.5032
▁1965	-10.5033
▁décennie	-10.5035
instar	-10.5037
▁individuelle	-10.5047
orientation	-10.5062
▁wal	-10.5064
tat	-10.507
anie	-10.5074
▁fromage	-10.5076
▁atteign	-10.5076
major	-10.508
occupe	-10.5085
▁spécialisée	-10.5087
ung	-10.5089
▁voula	-10.5089
2"	-10.5091
▁tardive	-10.5094
▁inférieure	-10.5102
▁tro	-10.5106
original	-10.5116
▁recens	-10.5118
inspiration	-10.5121
▁pourquoi	-10.5121
▁attire	-10.5122
▁normes	-10.5131
▁tournant	-10.5132
ouvrage	-10.5133
▁intérieure	-10.5135
tout	-10.514
▁traces	-10.514
▁stable	-10.5141
▁bâti	-10.5148
▁commandement	-10.5151
élé	-10.5152
employ	-10.516
▁rose	-10.5162
▁émerge	-10.5164
aquitaine	-10.5167
▁signification	-10.5167
▁thomas	-10.5167
alexandre	-10.5167
▁oiseaux	-10.5167
▁anubis	-10.5172
▁gravi	-10.5173
▁prépare	-10.5174
▁deviendra	-10.5175
▁accident	-10.5177
ash	-10.5183
aude	-10.5187
▁avantage	-10.5187
interaction	-10.5191
▁portent	-10.5191
▁verts	-10.52
▁poèmes	-10.5206
cri	-10.5207
électricité	-10.5213
▁mammifères	-10.5213
attention	-10.5213
▁autorité	-10.5215
▁daniel	-10.5218
▁pointe	-10.5226
▁intellectuel	-10.5228
mbi	-10.5228
▁espagne	-10.5231
▁tha	-10.5231
▁étymologie	-10.5237
étoile	-10.525
▁conséquent	-10.5259
▁convainc	-10.5259
▁sculpture	-10.5259
▁pouvaient	-10.5259
▁rédigé	-10.5259
▁menacé	-10.526
▁réelle	-10.5261
arbre	-10.5267
▁originel	-10.5269
système	-10.5274
écran	-10.5274
▁juive	-10.5278
▁bouche	-10.5301
▁cellules	-10.5304
▁durkheim	-10.5305
▁suédois	-10.5305
organe	-10.5306
▁signifiant	-10.5309
▁croyances	-10.531
apple	-10.5314
▁colonies	-10.5316
▁chanteur	-10.5347
▁chinoise	-10.5349
▁commerciaux	-10.5352
▁perçu	-10.5352
▁sondage	-10.5354
▁sucre	-10.5356
▁atomes	-10.5362
▁iranien	-10.5363
▁fréquente	-10.5364
▁établie	-10.5375
▁divine	-10.5377
▁profonde	-10.5377
allier	-10.5382
▁résidences	-10.5384
▁théo	-10.5385
index	-10.5389
hollywood	-10.5398
▁concerné	-10.5399
▁soutenir	-10.54
▁déroul	-10.5401
▁victimes	-10.5401
alsace	-10.5403
▁salaire	-10.5406
▁manuel	-10.5406
roll	-10.5409
sky	-10.5409
▁propriétaires	-10.5413
▁patron	-10.5415
▁dizaines	-10.5419
▁participer	-10.5421
▁élèves	-10.5422
▁retraite	-10.5427
▁prêtres	-10.5429
▁permanent	-10.5435
▁jam	-10.5436
▁équipé	-10.5445
▁confirmé	-10.5445
▁financement	-10.5445
▁31	-10.5446
modern	-10.5449
▁mené	-10.5453
équation	-10.5458
▁animale	-10.5459
▁repris	-10.5473
▁rites	-10.5474
▁cham	-10.5474
▁motif	-10.5475
▁collect	-10.5476
▁vaut	-10.5491
▁liquide	-10.5492
▁vainqueur	-10.5492
▁destination	-10.5493
▁montée	-10.5502
▁biais	-10.5503
▁échelle	-10.5504
▁marcel	-10.5505
▁jury	-10.5507
▁africaine	-10.5511
occupant	-10.5512
▁serv	-10.5518
▁parisien	-10.552
▁constat	-10.5524
alors	-10.5525
▁médicament	-10.554
▁voyelle	-10.554
▁islamique	-10.554
horloge	-10.5541
▁implanté	-10.5546
intégr	-10.5549
orne	-10.555
▁légèrement	-10.5552
▁organismes	-10.5552
jacques	-10.5562
▁remise	-10.5562
installer	-10.5562
▁restant	-10.5571
▁transmis	-10.5576
étienne	-10.5584
▁exclusivement	-10.5588
▁coalition	-10.5588
▁fan	-10.5589
erne	-10.5589
▁sépare	-10.559
ple	-10.5591
▁infrastructures	-10.5592
▁lire	-10.5594
▁identifié	-10.5595
augmenter	-10.5595
▁finit	-10.5596
▁maternelle	-10.5597
▁brive	-10.5598
▁méthane	-10.5635
▁clovis	-10.5635
oct	-10.5636
attitude	-10.5636
▁serre	-10.5647
▁statistiques	-10.5672
▁venir	-10.5675
08	-10.5679
▁laisser	-10.568
▁controverse	-10.5683
▁prononcé	-10.5683
▁synthèse	-10.5683
▁démarche	-10.5683
métrage	-10.5684
▁critères	-10.5691
▁composante	-10.5712
▁réserve	-10.5717
▁investi	-10.572
apollo	-10.5722
▁aspect	-10.5722
▁lourd	-10.5724
▁chrétien	-10.5731
▁guillaume	-10.5732
▁fragment	-10.5732
▁procédure	-10.5735
vu	-10.5736
▁mario	-10.5743
▁géré	-10.5746
▁mètres	-10.5751
augmentation	-10.5758
ault	-10.5775
▁géorgie	-10.5778
▁piste	-10.578
▁norvège	-10.578
afghanistan	-10.578
▁profondément	-10.578
▁minutes	-10.578
▁penser	-10.5781
▁retenu	-10.5781
▁courante	-10.5788
▁ouvriers	-10.5791
▁rh	-10.5792
key	-10.5794
uter	-10.5809
▁bits	-10.5809
▁remplace	-10.5811
▁automobile	-10.5813
ander	-10.5815
ôm	-10.5815
achat	-10.5817
▁colonie	-10.5818
▁manifestation	-10.5818
èche	-10.5821
▁historiquement	-10.5822
lien	-10.5822
▁différente	-10.5825
moto	-10.5826
▁vichy	-10.5829
▁retire	-10.583
▁envahi	-10.5831
▁isolé	-10.5836
▁pauvres	-10.5847
▁chien	-10.5856
▁complètement	-10.5857
bb	-10.5858
astre	-10.5866
algorithme	-10.5869
▁posé	-10.5874
▁annuel	-10.5875
▁recul	-10.5875
abréviation	-10.5878
▁appartient	-10.5878
▁critiqué	-10.5878
▁dialogue	-10.5878
▁maîtrise	-10.5878
▁significative	-10.5878
▁tâche	-10.5878
▁provient	-10.5878
▁syn	-10.589
▁pain	-10.5891
actuel	-10.5897
▁blé	-10.5897
ouvre	-10.5897
tain	-10.5898
vic	-10.5899
kai	-10.59
membre	-10.5908
[[	-10.5908
▁gau	-10.5919
maur	-10.5921
▁stock	-10.5923
ambassade	-10.5927
▁nécessité	-10.5927
▁récepteur	-10.5927
▁prononce	-10.5927
▁pâte	-10.5929
▁partenaire	-10.5929
▁1987	-10.5929
▁christian	-10.593
▁1947	-10.593
examen	-10.593
▁peuplé	-10.5936
entraîn	-10.5943
»	-10.5959
▁retrouver	-10.5961
▁fournit	-10.5971
▁roosevelt	-10.5977
▁reggae	-10.5977
▁sncf	-10.5977
black	-10.5978
▁complet	-10.5983
trans	-10.5983
pat	-10.5986
▁née	-10.5993
▁dominante	-10.6
û	-10.6005
itude	-10.6017
▁dénomination	-10.6027
▁pluton	-10.6027
oxygène	-10.6028
▁témoignage	-10.6028
zy	-10.6028
▁1939	-10.6029
▁décès	-10.6039
▁future	-10.6041
▁rhin	-10.6055
▁développent	-10.6063
▁west	-10.6076
▁beckett	-10.6077
▁diffuse	-10.6077
▁1941	-10.6078
▁1958	-10.6079
▁exécutif	-10.6083
▁roger	-10.6086
▁affecté	-10.6086
▁modeste	-10.6088
llé	-10.6094
sept	-10.6102
appui	-10.611
▁extérieur	-10.6111
étroit	-10.6113
ator	-10.6113
▁impérial	-10.6116
▁[...]	-10.6127
▁impossible	-10.6127
▁macintosh	-10.6127
amplificateur	-10.6127
▁millénaire	-10.6127
▁rupture	-10.6127
▁rempli	-10.6127
▁démontre	-10.6127
inscription	-10.6127
estaing	-10.6128
achève	-10.613
▁spéci	-10.613
jan	-10.6133
▁gor	-10.6134
▁bol	-10.6136
▁crédit	-10.6136
▁tourné	-10.6141
▁déterminer	-10.6142
▁guide	-10.6147
▁enquête	-10.6148
islande	-10.6149
▁parallèlement	-10.6157
aspect	-10.6163
igny	-10.6174
▁déclara	-10.6175
chang	-10.6176
▁noblesse	-10.6177
▁négatif	-10.6177
▁défaut	-10.6177
accéder	-10.6178
▁exécuté	-10.618
gram	-10.618
▁tenant	-10.6183
rate	-10.6198
▁rob	-10.6203
▁proportionnelle	-10.6221
▁final	-10.6224
▁syrie	-10.6228
héraclès	-10.6228
▁inauguré	-10.6228
▁world	-10.6228
▁élaboré	-10.6228
▁rayonnement	-10.6228
▁accusé	-10.6229
▁découvrir	-10.6229
▁mc	-10.6231
▁étroite	-10.6244
naise	-10.6252
▁balle	-10.6261
ij	-10.6261
▁cop	-10.6268
dō	-10.6269
unesco	-10.6271
aventure	-10.6272
zz	-10.6273
▁orienté	-10.6276
▁succéd	-10.6279
▁goscinny	-10.6279
enseignant	-10.6279
▁organique	-10.6279
▁chronique	-10.6279
▁suggère	-10.6279
▁routier	-10.6281
▁charente	-10.6284
▁exportations	-10.6285
▁satellite	-10.6287
▁vécu	-10.6288
aya	-10.6292
▁quotidienne	-10.6293
auguste	-10.6302
▁vieille	-10.6313
king	-10.6316
▁municipales	-10.6321
▁quelle	-10.6324
▁subit	-10.6324
tti	-10.633
▁éloigné	-10.633
▁registre	-10.633
▁popularité	-10.633
▁surnommé	-10.633
▁troubles	-10.6331
▁compilateur	-10.6331
▁bourse	-10.6331
▁palme	-10.6332
▁pousse	-10.6333
▁notation	-10.634
▁équipements	-10.634
▁lignée	-10.6341
▁parcours	-10.6341
imposer	-10.6345
▁von	-10.6346
▁clairement	-10.635
▁porc	-10.6351
▁war	-10.6358
▁resta	-10.6376
▁combinaison	-10.6382
▁comprenant	-10.6382
immense	-10.6382
▁chaleur	-10.6382
▁1967	-10.6384
▁consacrée	-10.6392
▁exploité	-10.6395
▁métropolitaine	-10.64
▁canon	-10.6417
▁assurer	-10.6417
▁constant	-10.6421
hypothèse	-10.6425
assurer	-10.6425
▁corruption	-10.6434
▁michael	-10.6434
▁thaïlande	-10.6434
interdiction	-10.6434
▁projection	-10.6434
▁transformé	-10.6434
crypt	-10.6435
hard	-10.6436
▁apporté	-10.6436
expert	-10.6442
▁féminine	-10.6445
▁causa	-10.6445
▁sait	-10.6446
▁dom	-10.6447
▁emploie	-10.645
écologie	-10.645
▁//	-10.6451
littéralement	-10.6459
▁sonore	-10.6462
▁chance	-10.6474
▁neige	-10.6475
hip	-10.6477
▁salon	-10.6477
▁nationalité	-10.6479
▁charte	-10.6485
▁résulte	-10.6486
▁toulouse	-10.6486
▁fabrique	-10.6486
▁plume	-10.6487
automne	-10.6487
▁transit	-10.6496
▁résidence	-10.6503
mini	-10.6507
▁protestante	-10.6508
▁profite	-10.6517
▁classée	-10.6527
aile	-10.6536
▁considérer	-10.6538
▁orthodoxe	-10.6538
▁pratiquant	-10.6538
▁shelley	-10.6538
▁alternative	-10.6538
▁réputation	-10.6538
▁valéry	-10.6538
▁prolonge	-10.6538
▁ottoman	-10.654
▁implique	-10.6541
▁1956	-10.6541
▁antoine	-10.6547
▁semblent	-10.655
▁difficulté	-10.6557
▁porter	-10.6562
▁inclus	-10.6568
andre	-10.6571
impact	-10.6586
▁extérieure	-10.6587
▁strict	-10.6588
▁manche	-10.659
▁effective	-10.6591
▁légumes	-10.6591
adhésion	-10.6591
html	-10.6591
▁nettement	-10.6591
attentat	-10.6592
▁extra	-10.6594
▁progression	-10.6598
▁system	-10.6602
▁répondre	-10.6604
▁brésilien	-10.6612
▁troupe	-10.6617
américaine	-10.662
▁favori	-10.6626
lim	-10.6627
hyper	-10.6634
▁familiale	-10.6644
▁transfert	-10.6644
▁inventé	-10.6644
▁animé	-10.6646
▁comparé	-10.6648
▁média	-10.6649
▁jack	-10.665
▁veille	-10.6652
▁spécialité	-10.6655
▁libérale	-10.6662
hib	-10.6668
▁occidental	-10.6678
▁voiture	-10.6682
épreuve	-10.6688
▁fmi	-10.6691
absolu	-10.6695
évaluation	-10.6697
▁dispositif	-10.6697
▁brûl	-10.6697
▁rappelle	-10.67
▁théologie	-10.67
▁inclua	-10.67
▁musulmane	-10.6701
▁josé	-10.6701
isère	-10.6721
▁médicale	-10.6723
▁apparaître	-10.6723
▁fermé	-10.6725
▁compréhension	-10.6734
▁copie	-10.6738
australie	-10.6743
▁choisit	-10.6746
astronomie	-10.6747
efficacité	-10.675
▁biodiversité	-10.675
▁diplôme	-10.675
▁découpage	-10.675
orléans	-10.675
▁tenir	-10.6751
▁grève	-10.6752
▁muni	-10.6758
▁correspondance	-10.6761
clé	-10.6762
▁assiste	-10.6765
▁conserver	-10.6766
pit	-10.6766
▁croix	-10.6772
▁rétabli	-10.6773
▁sortant	-10.6776
▁assimilé	-10.678
▁rassemblement	-10.6781
graphie	-10.6787
œuf	-10.6801
▁automatique	-10.6804
▁contribué	-10.6804
exprimer	-10.6804
▁schéma	-10.6805
▁portable	-10.6805
▁concile	-10.6805
▁colons	-10.6812
▁puissante	-10.6823
▁pourraient	-10.6826
adoption	-10.6826
▁dizaine	-10.6835
aucun	-10.6853
écrire	-10.6857
kha	-10.6858
alchimie	-10.6858
astéroïde	-10.6858
hôpital	-10.6858
▁1963	-10.6858
▁attendre	-10.6858
▁bulgarie	-10.6858
▁perpétu	-10.6858
▁regroupé	-10.6858
▁rédaction	-10.6858
▁avance	-10.6859
▁galerie	-10.6859
héra	-10.6862
▁participent	-10.6867
▁fédérale	-10.687
▁intègre	-10.6874
▁august	-10.6891
ossé	-10.6892
▁corde	-10.6898
▁reconnaît	-10.6905
ancêtre	-10.6906
▁exécut	-10.6908
▁maréchal	-10.6913
▁polémique	-10.6913
▁québec	-10.6913
▁renommée	-10.6913
▁séquence	-10.6913
▁shogun	-10.6913
▁trésor	-10.6913
apparence	-10.6913
▁géométrie	-10.6913
incendie	-10.6913
échec	-10.6915
▁comète	-10.6916
▁venant	-10.6918
▁lourde	-10.6924
▁entouré	-10.6925
vier	-10.6926
▁expliquer	-10.6927
▁(15	-10.6928
▁dépenses	-10.6936
sui	-10.6941
anime	-10.6942
▁régul	-10.6943
▁star	-10.6944
▁beaux	-10.6953
way	-10.6957
▁enregistre	-10.6965
▁tissu	-10.6966
zélande	-10.6967
▁madrid	-10.6967
▁magnétique	-10.6967
▁banlieue	-10.6967
explication	-10.6967
▁frank	-10.6968
▁séparation	-10.697
▁collective	-10.6972
▁immédiatement	-10.6976
▁cible	-10.6976
anda	-10.6983
▁mention	-10.699
▁chargée	-10.701
▁exact	-10.701
▁documentaire	-10.7014
▁néerlandaise	-10.7017
anthrop	-10.702
▁monétaire	-10.7022
▁végétal	-10.7022
▁archives	-10.7022
▁journaux	-10.7022
▁absolue	-10.7024
▁1948	-10.7025
▁drapeau	-10.7027
▁isra	-10.7029
▁décrire	-10.703
ket	-10.7033
âtre	-10.7036
1)	-10.7037
différ	-10.7045
yō	-10.7057
▁faute	-10.7058
▁not	-10.7058
▁précéd	-10.7069
▁profession	-10.7076
▁remplacer	-10.7076
suffisamment	-10.7077
▁cinquante	-10.7077
▁circulation	-10.7077
▁expérimental	-10.7077
▁révéla	-10.7078
▁causé	-10.708
nord	-10.7087
▁voté	-10.7088
▁thi	-10.709
essonne	-10.7091
▁télévisée	-10.7093
▁maine	-10.7097
coup	-10.7107
écri	-10.711
▁volcan	-10.7111
équipement	-10.7114
alter	-10.7115
▁régi	-10.712
▁suffrage	-10.7121
▁seuil	-10.7127
▁intégrée	-10.7131
▁réduite	-10.7133
évènement	-10.7133
▁cimetière	-10.7133
▁linux	-10.7134
rhône	-10.714
▁city	-10.7141
▁inuit	-10.7146
▁mauvais	-10.7155
livre	-10.7155
▁lancer	-10.717
istique	-10.717
yama	-10.7173
▁étendue	-10.7175
▁meurtre	-10.7176
▁répression	-10.7189
▁couramment	-10.7189
▁distribué	-10.7189
▁ressort	-10.7189
▁nourriture	-10.719
▁talent	-10.7191
▁soudan	-10.7191
▁émet	-10.7192
▁report	-10.7193
organiser	-10.7202
▁esthétique	-10.7209
▁1959	-10.7245
▁contribution	-10.7245
▁policier	-10.7245
▁domestique	-10.7245
▁émis	-10.7245
▁préfère	-10.7248
▁occupée	-10.7255
▁servent	-10.7256
acide	-10.7259
▁poussée	-10.726
▁résident	-10.7267
▁passée	-10.727
▁hel	-10.7275
▁souci	-10.728
cinq	-10.7285
▁établit	-10.7294
▁croyance	-10.7296
emplacement	-10.7298
▁proprement	-10.7299
▁mystère	-10.7302
obligation	-10.7302
▁multiplie	-10.7302
groupe	-10.7303
▁barrage	-10.7305
▁géant	-10.7309
▁leader	-10.7311
huit	-10.7313
jonc	-10.7318
▁mentionne	-10.7325
▁mexicaine	-10.7326
▁mexicain	-10.7334
▁vertu	-10.7339
▁victime	-10.7355
▁limiter	-10.7356
trois	-10.7358
▁manuscrit	-10.7358
▁napoléon	-10.7358
▁spectateur	-10.7358
▁renouvelable	-10.7358
▁souveraineté	-10.7358
▁substitu	-10.7358
▁partiellement	-10.7359
énoncé	-10.7359
▁détenu	-10.7359
▁déposé	-10.736
▁1955	-10.7361
▁colonne	-10.7362
▁marquant	-10.7362
▁efforts	-10.7365
▁verte	-10.7372
▁professionnel	-10.7388
▁mentionné	-10.7394
▁illustre	-10.7395
abolition	-10.7409
abandon	-10.7413
▁figurent	-10.7415
▁navigation	-10.7415
▁prononciation	-10.7415
▁rejoindre	-10.7415
▁réception	-10.7415
▁externe	-10.7416
addition	-10.7416
▁finnois	-10.7417
▁pépin	-10.7418
▁visiteurs	-10.7419
▁1964	-10.7419
▁accepté	-10.7425
hydro	-10.7426
▁systématique	-10.743
▁appliquée	-10.7432
▁fournir	-10.7433
▁tiré	-10.7435
«	-10.7443
▁cache	-10.745
▁baptisé	-10.7457
▁organisa	-10.747
▁compatible	-10.7473
▁discussion	-10.7473
▁greenpeace	-10.7473
▁cabinet	-10.7473
▁inconnu	-10.7473
▁suscite	-10.7473
▁inclut	-10.7473
▁assassiné	-10.7474
▁1949	-10.7475
▁honor	-10.7476
▁battu	-10.7479
mission	-10.7485
espagnol	-10.7487
divinité	-10.7487
saxon	-10.7492
▁fur	-10.7494
▁ménage	-10.7495
▁étage	-10.7506
considérablement	-10.7507
▁sénateur	-10.7516
▁hum	-10.7526
attache	-10.753
aristote	-10.7531
armstrong	-10.7531
papyrus	-10.7531
▁particularité	-10.7531
▁positif	-10.7531
▁provisoire	-10.7531
▁évolué	-10.7531
▁restaurant	-10.7531
▁révélé	-10.7531
thèque	-10.7531
▁sanction	-10.7531
▁consonne	-10.7532
▁saisi	-10.7532
abri	-10.7536
oïde	-10.754
▁métro	-10.7541
gno	-10.755
▁mauvaise	-10.7566
dore	-10.7569
▁vélo	-10.7574
▁may	-10.7578
irak	-10.7582
▁radicale	-10.7583
▁guatemala	-10.7589
▁légion	-10.7589
▁clergé	-10.7589
associe	-10.7589
▁tournoi	-10.7589
▁retard	-10.759
▁téléphone	-10.759
▁formant	-10.759
imitation	-10.7594
conte	-10.7603
▁maroc	-10.7606
▁plate	-10.7608
ombre	-10.7608
▁malade	-10.7624
▁onze	-10.7633
▁jugement	-10.764
▁autochtone	-10.7647
▁pluriel	-10.7647
▁vocabulaire	-10.7647
▁jaune	-10.7655
▁hugo	-10.7656
anvers	-10.7659
accept	-10.766
aujourd	-10.7666
▁constate	-10.767
▁mines	-10.7673
▁grosse	-10.7683
▁règlement	-10.7686
▁intellectuelle	-10.7687
apport	-10.7698
enregistrement	-10.7699
▁consomma	-10.7703
▁adoptée	-10.7703
▁bouddhiste	-10.7706
▁navigateur	-10.7706
▁susceptible	-10.7706
avocat	-10.7706
▁idéal	-10.7711
soit	-10.7715
▁claire	-10.7719
avenir	-10.7727
aria	-10.7748
immigrés	-10.7752
▁montant	-10.7756
▁chapitre	-10.7765
▁polanski	-10.7765
▁connaissent	-10.7765
▁migration	-10.7765
▁psychanalyse	-10.7765
▁autrefois	-10.7765
éloigne	-10.7766
▁renonce	-10.7766
▁métallique	-10.7766
▁achevé	-10.7769
▁collectif	-10.7769
▁aérien	-10.7774
ommage	-10.7781
▁normal	-10.7782
▁publicité	-10.7797
▁commis	-10.7801
fasci	-10.7803
▁clair	-10.7807
▁paléo	-10.7807
▁module	-10.7812
identifi	-10.7814
hindou	-10.7822
▁culminant	-10.7825
▁phonétique	-10.7825
▁raymond	-10.7825
▁drogue	-10.7825
habitude	-10.7825
▁ancêtres	-10.7834
▁guéri	-10.7837
extension	-10.7848
extérieur	-10.7848
▁villa	-10.7855
nçant	-10.7871
comté	-10.7872
▁reconnaiss	-10.7882
extrémité	-10.7885
▁bénéfice	-10.7885
▁suppose	-10.7885
▁énergétique	-10.7885
▁phénicienne	-10.7886
mais	-10.7888
▁artaud	-10.7888
▁devaient	-10.7889
voyant	-10.7889
empare	-10.7897
active	-10.7899
▁régulier	-10.7903
▁aliments	-10.7904
affirme	-10.791
▁donna	-10.7923
▁envoie	-10.7923
ographe	-10.7925
▁continentale	-10.7925
tron	-10.793
▁accordé	-10.7938
issa	-10.7943
▁gouvernementale	-10.7944
▁confusion	-10.7945
▁playstation	-10.7945
▁dominique	-10.7945
▁créteil	-10.7945
▁brevet	-10.7945
▁normandie	-10.7945
observ	-10.7948
▁1951	-10.7948
▁stabilité	-10.7948
▁relatif	-10.7949
implantation	-10.7951
▁bilan	-10.7952
▁dérive	-10.7953
▁agro	-10.7965
étudier	-10.7969
▁nam	-10.7978
édifice	-10.7997
▁philip	-10.8005
▁affluent	-10.8006
▁cadmium	-10.8006
▁supprimé	-10.8006
▁constructeur	-10.8006
▁flèche	-10.8006
▁saturne	-10.8006
▁faucon	-10.8006
▁sixième	-10.8009
▁défendre	-10.8017
▁puce	-10.8017
▁portrait	-10.8017
mise	-10.8018
▁psycho	-10.8023
▁quitter	-10.8026
atelier	-10.8034
▁vendre	-10.8035
▁probable	-10.8047
▁déplace	-10.8051
▁réunit	-10.8057
▁clan	-10.8061
▁rub	-10.8064
▁déclenche	-10.8067
élaboration	-10.8067
▁évidence	-10.8067
▁céréales	-10.8067
▁évoqué	-10.8067
▁grotte	-10.8067
▁sarthe	-10.8067
▁séville	-10.8074
emporte	-10.8076
▁retrouvent	-10.8078
burg	-10.8085
▁profondeur	-10.8086
how	-10.8087
▁venue	-10.809
▁facteur	-10.8102
nay	-10.8103
▁rpr	-10.8109
erve	-10.8116
▁dense	-10.8119
▁verre	-10.8122
▁cameroun	-10.8128
▁condamnation	-10.8128
▁résoudre	-10.8128
▁supposé	-10.8128
▁préfet	-10.8128
▁jacob	-10.8128
wood	-10.8128
éponyme	-10.8129
▁filiale	-10.813
▁rattache	-10.8132
▁douce	-10.8133
arsène	-10.8138
humour	-10.8141
▁châteaux	-10.8148
▁serment	-10.8148
ân	-10.8158
▁francis	-10.8163
ôn	-10.8168
▁chambéry	-10.819
▁connexion	-10.819
▁python	-10.819
▁recevoir	-10.819
appartement	-10.819
▁sahara	-10.819
▁océanique	-10.8191
▁répandue	-10.8194
▁ballon	-10.8196
poli	-10.8203
▁permanente	-10.8204
occup	-10.8206
▁volcanique	-10.822
chimique	-10.8222
▁mathématique	-10.8223
▁rendent	-10.8238
▁choisir	-10.824
▁adaptée	-10.8246
▁dégradation	-10.8252
▁sémantique	-10.8252
▁présentée	-10.8261
▁1900	-10.8263
▁bay	-10.8269
▁wall	-10.827
scence	-10.8282
▁gran	-10.8284
région	-10.8286
▁noté	-10.8287
outre	-10.8289
oyer	-10.8306
▁gallo	-10.8313
▁jamaïcain	-10.8314
▁privilégié	-10.8314
▁ultérieur	-10.8314
▁vestiges	-10.8314
▁prévoit	-10.8314
▁psychologique	-10.8315
chimiste	-10.8319
▁météo	-10.8319
row	-10.8326
▁étoiles	-10.8326
▁plateaux	-10.8328
bois	-10.8333
▁télécom	-10.8337
fic	-10.8338
intermédiaire	-10.8349
installent	-10.8362
▁parisienne	-10.8376
▁jupiter	-10.8377
▁kubrick	-10.8377
▁nephtys	-10.8377
▁modéré	-10.8377
▁invité	-10.8377
▁matin	-10.8378
ctor	-10.8378
▁préparé	-10.8379
▁demandé	-10.8379
aube	-10.8379
▁tenta	-10.8383
wer	-10.8384
▁continuent	-10.8392
▁geste	-10.8396
▁bruit	-10.8398
▁antérieure	-10.8403
▁modifier	-10.8404
yves	-10.8409
alistes	-10.841
▁indienne	-10.8411
▁dirigeant	-10.8424
▁natura	-10.8434
▁dépôt	-10.844
▁triomphe	-10.844
▁syntaxe	-10.844
▁rédige	-10.8441
▁charbon	-10.8445
bains	-10.8446
▁apprécié	-10.8448
▁esc	-10.8452
hébreu	-10.846
▁répandu	-10.8463
▁mel	-10.8468
▁sombre	-10.8476
françois	-10.8479
▁bern	-10.8482
▁(')	-10.8482
▁propriétaire	-10.8485
▁initiale	-10.8486
musulman	-10.849
▁trace	-10.849
▁auxquel	-10.85
imaginaire	-10.8504
▁produisent	-10.8504
▁câble	-10.8504
▁finlandais	-10.8504
▁semblable	-10.8504
normand	-10.8504
▁subsiste	-10.8505
▁tropical	-10.8505
▁clinique	-10.8505
▁présentant	-10.8505
▁géologique	-10.8505
▁libéré	-10.8506
▁caméra	-10.8507
▁spatial	-10.8516
▁proposée	-10.8526
▁magique	-10.854
adaptation	-10.8544
importantes	-10.8545
▁peint	-10.8548
andré	-10.8565
▁disposent	-10.8566
▁abondant	-10.8568
▁architectural	-10.8568
▁catastrophe	-10.8568
▁législatif	-10.8568
▁paléolithique	-10.8568
▁vecteur	-10.8568
émotion	-10.8569
▁habituellement	-10.8569
hétéro	-10.857
assassinat	-10.8571
▁1942	-10.8571
▁entraîné	-10.8572
▁esclaves	-10.8573
▁1914	-10.8573
gla	-10.8574
▁globalement	-10.8574
romancier	-10.8576
▁biologie	-10.8579
▁500	-10.8589
▁chat	-10.8591
▁midi	-10.8604
▁sauve	-10.8606
maritime	-10.861
▁paire	-10.8621
exploration	-10.8633
▁perception	-10.8633
▁faculté	-10.8633
▁dénommé	-10.8633
athènes	-10.8633
▁anglo	-10.8633
▁canadien	-10.8634
▁duquel	-10.8636
instant	-10.864
▁occupent	-10.8642
▁prévue	-10.8654
▁correspondent	-10.8669
▁égale	-10.8671
éclat	-10.8676
produit	-10.8676
blanc	-10.8681
▁fonctionnalités	-10.8698
▁promouvoir	-10.8698
attraction	-10.8698
hercule	-10.8699
rouge	-10.87
▁1936	-10.8701
tendue	-10.8702
▁aventures	-10.8709
essence	-10.8712
▁concernent	-10.8722
▁nazis	-10.8726
aviation	-10.8731
inscrit	-10.8746
▁visage	-10.8747
▁flori	-10.8752
hop	-10.8757
▁électoral	-10.8763
▁reconstruction	-10.8763
▁téléphonique	-10.8763
▁suicide	-10.8763
hydrogène	-10.8764
▁produisa	-10.8764
▁comparable	-10.8764
▁frappe	-10.8765
ciel	-10.8765
▁vénér	-10.8765
born	-10.877
onyme	-10.877
▁éditeurs	-10.8777
ogène	-10.8784
▁étendu	-10.8787
▁grain	-10.8798
▁sèche	-10.8807
pays	-10.8817
▁couverture	-10.882
appeler	-10.8826
hebdomadaire	-10.8829
▁turquie	-10.8829
▁réclame	-10.8829
▁hugues	-10.8829
amitié	-10.883
▁moselle	-10.883
ocratique	-10.8833
dragon	-10.8843
▁gagner	-10.8845
▁allé	-10.8846
▁dessert	-10.8849
▁bruno	-10.8854
▁oriental	-10.8855
▁languedoc	-10.8858
▁faux	-10.8869
▁facile	-10.8876
romaine	-10.8881
▁méridionale	-10.8886
philosoph	-10.8887
▁citoyen	-10.8892
astro	-10.8893
▁vigne	-10.8893
collaborateur	-10.8895
▁1954	-10.8895
▁confession	-10.8895
▁conversion	-10.8895
▁dictature	-10.8895
▁priorité	-10.8895
▁signaux	-10.8895
▁commandant	-10.8896
azote	-10.8897
▁conquis	-10.8901
▁canaux	-10.8914
▁aboli	-10.8915
▁200	-10.8934
▁milliard	-10.8961
▁microprocesseur	-10.8962
▁minimum	-10.8962
▁garçon	-10.8962
▁quarante	-10.8962
▁négociations	-10.8962
▁rotation	-10.8962
▁mixte	-10.8962
▁admis	-10.8963
▁phéniciens	-10.8963
clin	-10.8968
avaient	-10.8972
▁marais	-10.8985
calais	-10.899
ford	-10.8998
instrument	-10.9014
historique	-10.9014
▁complexité	-10.9029
▁provoqué	-10.9029
▁souterrain	-10.9029
▁thermique	-10.9029
▁censure	-10.9029
▁saoudien	-10.9029
▁creuse	-10.903
▁cellule	-10.9031
▁1919	-10.9033
dot	-10.9036
logiste	-10.9044
▁éclate	-10.9054
▁turc	-10.906
iaque	-10.9073
essai	-10.9077
offensive	-10.9096
▁confronté	-10.9096
▁constantinople	-10.9096
▁emblématique	-10.9096
▁kyoto	-10.9096
▁spectr	-10.9096
▁inégalités	-10.9097
▁tortue	-10.9097
▁maïs	-10.9098
▁souvenir	-10.9099
▁peter	-10.9115
▁génie	-10.9118
érien	-10.912
▁abandonne	-10.9121
▁faciliter	-10.9133
▁guerrier	-10.9164
▁prospérité	-10.9164
▁rencontré	-10.9164
▁participé	-10.9164
▁annexe	-10.9165
édouard	-10.9165
espoir	-10.9165
▁diamètre	-10.9166
▁1924	-10.9169
▁mener	-10.9169
▁arbres	-10.9178
harmonie	-10.9178
▁cio	-10.9183
ophile	-10.9188
intégrer	-10.9191
▁séance	-10.9192
▁promu	-10.9213
heim	-10.9215
opérateur	-10.923
ifiant	-10.923
▁socio	-10.9232
agissait	-10.9233
▁monastère	-10.9233
archéologie	-10.9233
échantillon	-10.9233
▁gabriel	-10.9233
▁réélu	-10.9233
▁importé	-10.9233
▁fonctionnaires	-10.9233
▁1938	-10.9236
▁léger	-10.9236
bro	-10.9236
▁1929	-10.9237
germain	-10.9238
observateur	-10.9247
▁sushi	-10.9247
▁poème	-10.9248
▁horm	-10.9257
▁remplacement	-10.9265
▁envisage	-10.928
▁vraiment	-10.9282
▁marge	-10.9289
international	-10.9294
vienne	-10.9294
▁mange	-10.9294
bru	-10.9297
▁partenariat	-10.9302
▁dépression	-10.9302
▁aldrin	-10.9302
▁exercé	-10.9302
▁vocation	-10.9302
▁poursuivi	-10.9302
▁sévère	-10.9302
ampleur	-10.9302
▁moscou	-10.9302
▁décerné	-10.9302
▁dublin	-10.9303
▁mineure	-10.9303
▁celtique	-10.9304
▁karl	-10.9305
fenêtre	-10.9305
attribution	-10.9305
▁prête	-10.9308
▁pénal	-10.9308
octet	-10.931
▁amené	-10.9311
▁persan	-10.9317
▁fruit	-10.932
appelle	-10.9335
▁solde	-10.934
▁commença	-10.9342
▁outil	-10.9357
anubis	-10.9365
herzégovine	-10.9371
▁catholicisme	-10.9371
▁positive	-10.9371
▁temporaire	-10.9371
importation	-10.9372
▁déchets	-10.9372
▁1932	-10.9375
chan	-10.9376
hindouisme	-10.9376
▁tonnes	-10.9377
▁flotte	-10.9379
▁détaillé	-10.9379
▁diffère	-10.9383
▁algorithmes	-10.9384
▁gré	-10.9385
▁intégral	-10.9386
▁1870	-10.9386
acquisition	-10.9387
▁militant	-10.9388
▁tarn	-10.9396
▁nécessairement	-10.9397
opolis	-10.9398
▁exceptionnelle	-10.9399
kov	-10.941
▁méga	-10.9411
gri	-10.9416
▁nasa	-10.9432
▁tyr	-10.9435
internet	-10.9438
▁regroupant	-10.9441
▁sarcophage	-10.9441
▁indirect	-10.9441
▁scandale	-10.9441
▁secrète	-10.9441
avènement	-10.9441
explosion	-10.9441
▁testament	-10.9441
▁changé	-10.9444
hésit	-10.9446
super	-10.9447
▁profond	-10.9461
identifier	-10.9461
adn	-10.9466
avantage	-10.948
▁aboutit	-10.9481
▁essentielle	-10.9496
▁diminution	-10.9512
▁néolithique	-10.9512
▁renforcé	-10.9512
▁théorème	-10.9512
▁adultes	-10.9512
▁terminé	-10.9512
▁firme	-10.9512
▁ibm	-10.9513
▁minière	-10.9514
▁laissant	-10.9515
▁rival	-10.9519
▁pacte	-10.9525
▁investissements	-10.9526
▁observations	-10.9527
▁compens	-10.9531
affrontement	-10.9544
▁servant	-10.9548
plat	-10.9558
▁radi	-10.9563
▁delta	-10.9563
▁caché	-10.9569
appréci	-10.9575
▁créant	-10.9582
#	-10.9583
▁comprennent	-10.9583
▁cultivé	-10.9583
▁dreamcast	-10.9583
▁fabricant	-10.9583
▁norvégien	-10.9583
▁préféré	-10.9583
annexion	-10.9583
▁attaché	-10.9583
▁néandertaliens	-10.9584
▁nuage	-10.9584
envoyer	-10.9584
▁1943	-10.9585
▁1937	-10.9586
▁1933	-10.9586
▁contraste	-10.9591
▁santa	-10.9591
baptiste	-10.9592
▁pente	-10.9595
espérance	-10.9606
▁accompagn	-10.961
▁concentré	-10.9611
▁dominant	-10.962
oubli	-10.9637
▁physi	-10.964
humain	-10.9653
adjectif	-10.9654
▁bahreïn	-10.9654
▁commerçant	-10.9654
▁edward	-10.9654
▁gérard	-10.9654
▁magistrat	-10.9654
▁ceinture	-10.9654
▁complété	-10.9654
▁power	-10.9657
▁permit	-10.9658
▁réfugiés	-10.9658
▁effectifs	-10.9661
▁centré	-10.9662
▁alpin	-10.9667
▁électrons	-10.967
▁peau	-10.9677
▁java	-10.9677
▁prit	-10.9678
exemplaires	-10.9706
effort	-10.972
▁phénicie	-10.9724
ingue	-10.9725
éveil	-10.9725
▁domicile	-10.9726
alternance	-10.9726
▁diversifié	-10.9726
▁négative	-10.9726
▁trouvait	-10.9726
▁massacre	-10.9726
▁indiqué	-10.9726
▁1918	-10.973
▁capteur	-10.973
▁reconnaître	-10.9735
▁continuité	-10.9737
ménag	-10.975
▁revenir	-10.9751
▁délai	-10.9762
▁centaine	-10.9762
dja	-10.9767
franc	-10.978
▁chercha	-10.9782
adapter	-10.9785
▁matérielle	-10.979
▁perturb	-10.9798
▁limitrophe	-10.9798
▁propagande	-10.9798
intensité	-10.9799
▁proclame	-10.9799
▁jospin	-10.9799
▁blason	-10.9799
▁1952	-10.9801
▁gréco	-10.9802
▁vaisseau	-10.9803
alliage	-10.9807
saône	-10.9808
▁gps	-10.9812
▁évit	-10.9817
▁soins	-10.9818
▁apprend	-10.9823
lène	-10.9823
abbé	-10.9837
▁tv	-10.9842
appelé	-10.9851
▁remis	-10.9855
▁extrait	-10.9858
▁mésopotamie	-10.9871
▁soixante	-10.9871
imprimante	-10.9871
▁configuration	-10.9871
▁illustré	-10.9871
▁précurseur	-10.9871
▁initié	-10.9872
▁gagné	-10.9872
▁sexisme	-10.9872
▁justifie	-10.9874
pyrénées	-10.9875
▁poétique	-10.9876
▁gastronomie	-10.9876
▁gérer	-10.9882
▁dépit	-10.9884
▁island	-10.9888
▁usines	-10.989
roman	-10.9913
▁dépens	-10.9915
jō	-10.9917
▁préhistoire	-10.9922
▁brou	-10.9931
▁simon	-10.9935
ocde	-10.994
▁montage	-10.9942
▁reflète	-10.9945
▁limoges	-10.9945
▁renouveau	-10.9945
▁rugby	-10.9945
▁kenya	-10.9945
▁mutation	-10.9945
▁météorite	-10.9946
▁écologiste	-10.9946
▁plastique	-10.9947
▁1961	-10.9948
▁voici	-10.9949
▁pill	-10.9958
▁opérationnel	-10.9958
▁bref	-10.9965
viendra	-10.9978
▁metz	-10.999
▁prêtre	-10.999
▁travailla	-10.9994
▁habité	-10.9996
▁offici	-11.0004
▁correction	-11.0019
▁fontainebleau	-11.0019
▁témoin	-11.0019
▁croatie	-11.0019
▁communément	-11.0019
▁fouilles	-11.0019
▁payer	-11.002
▁criminel	-11.002
▁revendique	-11.0023
▁stockage	-11.0026
▁binaire	-11.003
▁équations	-11.0033
▁reprendre	-11.0037
work	-11.0043
▁orale	-11.0052
▁réellement	-11.0054
▁administr	-11.0054
▁modul	-11.0057
▁commercialisé	-11.0063
▁vache	-11.0076
▁("")	-11.0093
▁égyptologique	-11.0094
▁bientôt	-11.0094
▁hiérarchie	-11.0094
▁intervient	-11.0094
▁fasciste	-11.0094
▁émile	-11.0095
▁wilde	-11.0096
▁dénombr	-11.0096
▁1926	-11.0098
▁franche	-11.0098
▁sacrifice	-11.0102
▁dépendance	-11.0104
▁rime	-11.0111
natural	-11.0135
▁antérieur	-11.0138
▁égal	-11.014
▁capitaine	-11.0169
▁confédération	-11.0169
▁mauritanie	-11.0169
▁grimpeur	-11.0169
▁postérieur	-11.0169
accroît	-11.0169
▁tertiaire	-11.0169
▁maintenu	-11.0169
▁marchandises	-11.0169
▁synonyme	-11.0169
▁silence	-11.017
▁fausse	-11.017
▁jazz	-11.017
▁provenance	-11.0171
▁1953	-11.0172
département	-11.0179
blanche	-11.018
▁confiance	-11.0183
▁avions	-11.0191
rhin	-11.0192
▁éclair	-11.0194
conf	-11.0198
étendre	-11.0198
▁adopt	-11.0236
▁clermont	-11.0245
▁débarque	-11.0245
▁minoritaire	-11.0245
▁moléculaire	-11.0245
▁primordial	-11.0245
▁envisagé	-11.0245
▁biblique	-11.0245
▁chamanisme	-11.0245
▁recouvre	-11.0245
▁syndical	-11.0245
▁platon	-11.0245
écrivent	-11.0246
indicateur	-11.0246
▁desservi	-11.0249
▁forum	-11.0259
▁favorisé	-11.026
▁rejeté	-11.0267
cène	-11.027
▁mortalité	-11.0271
science	-11.0272
▁nantes	-11.0292
dieu	-11.0296
nazi	-11.0307
exportation	-11.0312
aurait	-11.0316
▁fabriqué	-11.0321
▁homosexuel	-11.0321
▁morphème	-11.0321
▁possédant	-11.0321
▁spécificité	-11.0321
▁conduire	-11.0321
▁fascisme	-11.0321
▁gaulliste	-11.0321
▁hostile	-11.0321
▁hérité	-11.0321
▁calcaire	-11.0321
▁métaphysique	-11.0321
▁détient	-11.0321
▁relais	-11.0321
▁païen	-11.0322
▁agents	-11.0323
▁édifices	-11.0332
animaux	-11.0335
▁censé	-11.0337
angers	-11.0338
▁option	-11.0343
hab	-11.0344
appartenance	-11.0362
▁cab	-11.0365
▁ouvrier	-11.0381
▁corne	-11.0385
▁honori	-11.0396
▁contiennent	-11.0398
▁côtière	-11.0398
▁représentait	-11.0398
▁restreint	-11.0398
▁suppression	-11.0398
▁végétation	-11.0398
▁textile	-11.0398
éthiopie	-11.0398
▁stimul	-11.0398
▁lombard	-11.0398
▁provoqua	-11.0398
▁johann	-11.0398
▁consomme	-11.0398
▁morceaux	-11.0401
ajoutent	-11.0401
▁triple	-11.0401
▁bateaux	-11.0404
▁dépose	-11.0407
▁directive	-11.0412
glob	-11.0448
akhenaton	-11.0475
immeuble	-11.0475
urbanisation	-11.0475
▁clandestin	-11.0475
▁démonstration	-11.0475
▁quatorze	-11.0475
▁burkina	-11.0475
▁ordinaire	-11.0475
▁patrick	-11.0475
instabilité	-11.0475
thérapie	-11.0475
▁prisonniers	-11.0475
▁protéine	-11.0476
▁procure	-11.0476
▁nomination	-11.0476
▁voulu	-11.0476
▁lionel	-11.0477
▁intégrant	-11.0478
▁zéro	-11.0481
chaîne	-11.0493
éviter	-11.0493
▁édité	-11.05
▁légère	-11.0534
▁basque	-11.0544
▁disparaît	-11.0546
empreinte	-11.0554
esclavage	-11.0554
▁vectoriel	-11.0554
▁wisigoth	-11.0554
▁bénin	-11.0554
▁narmer	-11.0554
▁bactéries	-11.0554
▁conclusion	-11.0555
obscur	-11.0556
▁gravé	-11.0562
▁maât	-11.0571
▁transféré	-11.0572
▁instructions	-11.0573
▁gold	-11.0575
▁juif	-11.0575
▁optim	-11.0576
quatre	-11.0586
▁diane	-11.0588
▁perry	-11.0588
avance	-11.0591
▁refusé	-11.0591
▁free	-11.0596
extinction	-11.0632
▁déterminant	-11.0632
▁impliqué	-11.0632
▁santiago	-11.0632
▁magasin	-11.0632
▁arriva	-11.0632
▁permettait	-11.0633
▁tranche	-11.0633
▁roland	-11.0641
▁devise	-11.0653
équivalent	-11.0654
▁tirage	-11.0676
tendant	-11.0709
rousse	-11.0709
▁appartiennent	-11.0712
▁indispensable	-11.0712
▁météorologique	-11.0712
▁pakistan	-11.0712
▁désignation	-11.0712
▁fluvial	-11.0712
▁barbares	-11.0712
▁dordogne	-11.0712
▁dramatique	-11.0712
▁délégué	-11.0712
▁gothique	-11.0712
▁culinaire	-11.0712
▁jésus	-11.0712
▁préalable	-11.0712
évalué	-11.0712
▁surréaliste	-11.0712
▁sapiens	-11.0712
▁vertical	-11.0712
▁intéressant	-11.0712
inflation	-11.0713
▁latitude	-11.0714
▁edgar	-11.0714
▁tenté	-11.0716
▁athlètes	-11.0716
▁estimations	-11.0719
▁reims	-11.0719
▁1910	-11.072
physicien	-11.072
▁moulin	-11.0723
▁sound	-11.0725
▁contour	-11.0728
atari	-11.0729
▁mairie	-11.0729
▁ruine	-11.0739
▁réside	-11.0762
▁définitive	-11.0781
patr	-11.0791
▁grammatical	-11.0792
▁générique	-11.0792
▁résistant	-11.0792
▁coutume	-11.0792
accroissement	-11.0792
▁déficit	-11.0792
urgence	-11.0792
▁intense	-11.0792
▁géologie	-11.0793
▁cerveau	-11.0793
▁serbe	-11.0795
▁taureau	-11.0795
▁1935	-11.0797
▁simultanément	-11.0798
▁rejette	-11.0806
▁sépara	-11.0835
▁modifie	-11.0838
▁fusionne	-11.084
▁soupe	-11.0843
▁pharaonique	-11.0843
▁formalis	-11.0853
▁réalisa	-11.0871
▁dominicain	-11.0872
▁1934	-11.0872
▁mythique	-11.0872
▁conformé	-11.0872
▁mercure	-11.0872
▁financé	-11.0872
offrande	-11.0872
équateur	-11.0872
▁plateforme	-11.0873
▁exactement	-11.0876
▁expose	-11.0877
▁amène	-11.0881
attente	-11.0884
▁éventuellement	-11.0886
genèse	-11.0904
▁bière	-11.0916
▁permettra	-11.0916
▁express	-11.0924
azar	-11.093
▁renvoie	-11.0939
▁reçoive	-11.0954
▁recouvert	-11.0954
▁transcription	-11.0954
▁venezuela	-11.0954
▁tempéré	-11.0954
▁vaincu	-11.0954
▁arthur	-11.0954
▁fournisseur	-11.0954
▁quête	-11.0954
▁collines	-11.0957
▁stone	-11.0969
▁choc	-11.0975
▁renseignement	-11.0975
[	-11.0982
général	-11.0983
▁répand	-11.1006
▁strat	-11.1015
▁néandertal	-11.1034
▁nécropole	-11.1036
▁propulsion	-11.1036
▁mondiaux	-11.1036
▁pénétr	-11.1036
▁unifié	-11.1036
▁consolid	-11.1036
▁flamand	-11.1036
accusation	-11.1036
▁lointain	-11.1038
▁1917	-11.1041
▁indonésien	-11.1057
▁diocèse	-11.1118
▁idéologique	-11.1118
▁poursuivre	-11.1118
▁treize	-11.1118
▁vêtement	-11.1118
▁capitaux	-11.1118
▁obligé	-11.1118
asthme	-11.1118
▁reliant	-11.1119
▁cumul	-11.1124
▁privat	-11.1125
arras	-11.1127
▁chauff	-11.1127
▁taxe	-11.1135
député	-11.1151
annonce	-11.1152
affiche	-11.1152
▁jette	-11.1153
▁colombie	-11.1161
ordonnée	-11.1162
infrastructure	-11.1193
▁réfugi	-11.1197
▁handicap	-11.1202
▁hockey	-11.1202
▁ingrédients	-11.1202
▁principauté	-11.1202
▁suffixe	-11.1202
▁mendès	-11.1202
royauté	-11.1202
urbanisme	-11.1202
▁inhumé	-11.1202
▁parfaitement	-11.1202
▁popper	-11.1202
▁souffre	-11.1202
▁reproche	-11.1202
▁repousse	-11.1202
▁corpus	-11.1202
▁dispers	-11.1202
▁renverse	-11.1203
▁vingtaine	-11.1204
▁sauce	-11.1206
▁géorgien	-11.1206
▁chasseurs	-11.1207
étale	-11.1211
▁médiatique	-11.1214
▁préoccupation	-11.1214
▁conforme	-11.1219
olive	-11.1237
play	-11.1241
▁bretonne	-11.1252
anjou	-11.1256
▁group	-11.1261
▁conce	-11.1262
human	-11.127
▁présidentiel	-11.1271
▁argentin	-11.1279
▁mathématicien	-11.1286
▁récompensé	-11.1286
▁sociologue	-11.1286
▁surveillance	-11.1286
▁fameux	-11.1286
▁tiennent	-11.1286
▁cristal	-11.1286
▁prospère	-11.1286
width	-11.1287
▁1922	-11.129
▁plomb	-11.129
▁bombe	-11.129
▁debian	-11.129
▁chlor	-11.1291
▁auxquelles	-11.1292
▁fontaine	-11.1292
▁développeurs	-11.1293
▁indiqua	-11.1293
▁bombardement	-11.1293
argile	-11.1297
effondrement	-11.1297
▁interactions	-11.1302
▁statistique	-11.1306
fusée	-11.1313
azur	-11.136
▁initial	-11.1366
object	-11.1368
▁habituel	-11.1369
▁approuvé	-11.137
▁revendication	-11.137
▁réchauffement	-11.137
▁évident	-11.137
▁dimanche	-11.137
ukraine	-11.137
▁remettre	-11.137
astronome	-11.137
appuya	-11.137
▁dispute	-11.1371
▁blessé	-11.1371
andro	-11.1371
▁paroisse	-11.1372
▁forteresse	-11.1374
▁2023	-11.1374
▁1925	-11.1376
▁manipulation	-11.1379
▁gloire	-11.1382
amende	-11.1402
▁filière	-11.1405
arabe	-11.1406
▁perdre	-11.1412
coréen	-11.1415
cycle	-11.1418
▁compara	-11.1421
▁spirituelle	-11.1428
▁grenoblois	-11.1456
▁philippines	-11.1456
▁prédécesseur	-11.1456
▁1957	-11.1456
▁primitive	-11.1456
▁cyber	-11.1456
baud	-11.1456
▁récolte	-11.1456
▁neutre	-11.1456
▁sicile	-11.1456
▁seize	-11.1457
▁rationnel	-11.1463
▁inédit	-11.1473
▁élites	-11.1474
ardenne	-11.1477
continent	-11.1498
immun	-11.1514
▁illégal	-11.1519
ozone	-11.1531
▁enrichi	-11.1534
ascension	-11.1542
aéronautique	-11.1542
▁francophonie	-11.1542
▁récurrent	-11.1542
▁édifié	-11.1542
▁pionnier	-11.1542
▁goncourt	-11.1542
assurance	-11.1542
villiers	-11.1542
économiste	-11.1543
▁chilien	-11.1544
autorisation	-11.1544
▁démissionne	-11.1546
▁sigle	-11.1546
▁1927	-11.1547
céphal	-11.1547
▁tracé	-11.1555
▁vocal	-11.1557
▁présidé	-11.1585
quadr	-11.1587
michel	-11.1588
▁recueilli	-11.1596
erreur	-11.1598
▁appliqué	-11.1604
aïkido	-11.1629
illustration	-11.1629
▁bangladesh	-11.1629
▁photographique	-11.1629
▁pétrolier	-11.1629
▁vouloir	-11.1629
▁multitude	-11.1629
▁gironde	-11.1629
▁enseigné	-11.1629
▁offert	-11.1629
▁royaux	-11.1629
▁fluide	-11.163
offrir	-11.163
▁gardien	-11.1635
▁reproduction	-11.1635
▁prouve	-11.1637
head	-11.1645
national	-11.1653
▁facto	-11.1661
▁chair	-11.1662
▁émigr	-11.1687
▁entreprend	-11.1691
instauration	-11.1717
▁facilité	-11.1717
▁hollande	-11.1717
▁multiplication	-11.1717
▁mythologique	-11.1717
▁périodique	-11.1717
▁réfléchi	-11.1717
▁thématique	-11.1717
▁révision	-11.1717
▁nancy	-11.1717
affirmation	-11.1718
▁strictement	-11.1721
▁nazie	-11.1721
▁disparaître	-11.1725
▁absent	-11.1727
▁bateau	-11.1727
▁associa	-11.1802
▁archaïque	-11.1805
▁bhoutan	-11.1805
▁copernic	-11.1805
▁dissolution	-11.1805
▁musicaux	-11.1805
▁détriment	-11.1805
▁démontré	-11.1805
▁combiné	-11.1805
métrie	-11.1806
▁géométrique	-11.1806
▁virtuel	-11.1806
▁entretient	-11.1807
▁aménagé	-11.1807
▁champagne	-11.1808
▁thu	-11.1808
field	-11.181
▁bœuf	-11.1811
exode	-11.1811
▁serge	-11.182
▁faso	-11.1825
blue	-11.1837
enquête	-11.1857
▁affecte	-11.1864
▁lampe	-11.187
▁entame	-11.1894
adolescent	-11.1894
alexandrie	-11.1894
▁périphériques	-11.1894
▁scandinave	-11.1894
▁vraisemblable	-11.1894
▁probabilité	-11.1894
orthographe	-11.1895
asimov	-11.1895
phonème	-11.1895
▁confondu	-11.1895
▁suffit	-11.1895
anthropologue	-11.1895
▁1905	-11.1897
assyrie	-11.1898
▁godin	-11.1899
▁chantier	-11.1902
▁disposant	-11.1902
▁spirituel	-11.1923
histo	-11.1937
▁institute	-11.1938
joseph	-11.1948
orbite	-11.1951
▁individuel	-11.1953
▁aidé	-11.1966
henri	-11.1983
▁recev	-11.1984
▁acquiert	-11.1985
▁baudelaire	-11.1985
▁bulgare	-11.1985
▁collègue	-11.1985
▁juridiction	-11.1985
▁sympath	-11.1985
épidémie	-11.1985
▁maximale	-11.1985
▁picardie	-11.1985
▁meiji	-11.1985
▁comportant	-11.1985
roussillon	-11.1985
▁basilique	-11.1985
arbitre	-11.1985
▁montrant	-11.1986
▁syllabe	-11.1986
▁fécondité	-11.1987
▁sensibilité	-11.1989
space	-11.199
▁insiste	-11.1991
immigrants	-11.1992
▁xix	-11.1999
▁bureaux	-11.2002
avancée	-11.2003
hypo	-11.2008
arcade	-11.2012
▁tube	-11.2027
savoie	-11.2041
épouse	-11.2042
neuf	-11.2042
▁colonial	-11.2066
▁manipul	-11.2066
▁localisé	-11.2072
▁développa	-11.2075
expérimentation	-11.2075
▁compagnon	-11.2075
▁recommandation	-11.2075
▁restriction	-11.2075
▁sexualité	-11.2075
▁verhoeven	-11.2075
▁obtienne	-11.2076
▁structuré	-11.2076
▁tantôt	-11.2076
▁compilation	-11.2076
▁chronologie	-11.2076
▁rebelle	-11.2077
▁fermeture	-11.2077
▁septième	-11.208
▁1928	-11.208
▁rivalité	-11.208
▁fortran	-11.2085
▁empêcher	-11.2085
▁session	-11.2115
▁singe	-11.2151
▁célébré	-11.2167
▁céramique	-11.2167
▁privilège	-11.2167
▁olivier	-11.2167
▁échoue	-11.2167
▁conscient	-11.2167
▁péruvien	-11.2167
▁frappé	-11.2168
▁érigé	-11.2168
▁résume	-11.2169
▁tombé	-11.217
▁intéressé	-11.2171
▁considération	-11.2175
▁emprunté	-11.2179
▁institutionnel	-11.2181
▁pilier	-11.2183
maçon	-11.2186
entraînement	-11.222
nuclé	-11.2221
nouvelle	-11.2229
christ	-11.223
implant	-11.2258
▁exploite	-11.2259
▁différencie	-11.226
▁pseudo	-11.226
▁judaïsme	-11.226
▁problématique	-11.226
▁protecteur	-11.226
▁préférence	-11.226
▁pétrolière	-11.226
▁sécheresse	-11.226
équipage	-11.226
▁abstrait	-11.226
▁retiré	-11.226
emblème	-11.2261
▁1923	-11.2264
▁mérite	-11.2265
▁1921	-11.2265
▁passagers	-11.2273
haute	-11.2292
hitchcock	-11.2324
▁ressource	-11.2326
exerce	-11.2326
kō	-11.2332
▁espér	-11.2345
▁affaibli	-11.2349
algèbre	-11.2353
insurrection	-11.2353
mérovingien	-11.2353
▁consensus	-11.2353
▁généalogie	-11.2353
▁revêt	-11.2353
▁controversé	-11.2353
▁incluent	-11.2353
▁énorme	-11.2353
▁imprimé	-11.2353
▁bengali	-11.2353
épopée	-11.2353
andorre	-11.2354
▁induit	-11.2354
▁dégage	-11.2355
▁compromis	-11.2359
taxon	-11.2361
town	-11.2375
critique	-11.2382
avenue	-11.2383
next	-11.239
▁loup	-11.2396
atteste	-11.2403
▁rica	-11.2403
▁médical	-11.2406
assou	-11.2421
▁multiple	-11.2427
écoute	-11.2438
éventuel	-11.2447
▁coïncide	-11.2448
pproximativement	-11.2448
▁diminué	-11.2448
▁délégation	-11.2448
▁déploie	-11.2448
▁hollandais	-11.2448
▁impliquant	-11.2448
▁légitimité	-11.2448
▁perfection	-11.2448
▁reconstitue	-11.2448
▁reprennent	-11.2448
▁terroriste	-11.2448
▁mosquée	-11.2448
▁bertrand	-11.2448
▁polygone	-11.2448
▁brunei	-11.2448
▁bancaire	-11.2448
▁enjeux	-11.2448
▁profil	-11.2448
▁combine	-11.2448
hymne	-11.2449
▁invoqu	-11.2449
▁circulaire	-11.2449
▁occasionnelle	-11.245
illusion	-11.2451
▁julien	-11.2451
interroge	-11.2453
▁voyageurs	-11.2456
▁opérateurs	-11.246
▁souten	-11.2463
▁islandais	-11.2481
▁agrandi	-11.2501
croix	-11.2517
côte	-11.2517
existant	-11.2517
▁nubie	-11.2533
effectif	-11.2534
▁élargi	-11.2537
▁domestication	-11.2543
▁législation	-11.2543
▁législature	-11.2543
▁quelconque	-11.2543
élabore	-11.2543
▁pavillon	-11.2543
▁préserver	-11.2543
auvergnat	-11.2543
▁relevé	-11.2543
intrigue	-11.2543
▁dossier	-11.2543
▁féodal	-11.2543
▁déporté	-11.2545
▁ralenti	-11.2545
▁enterré	-11.2546
▁défendu	-11.2589
dôme	-11.2595
▁sélectionné	-11.2618
▁engendre	-11.2638
▁jérusalem	-11.2639
▁marseillais	-11.2639
▁pompidou	-11.2639
▁thèbes	-11.2639
▁communautaire	-11.2639
▁proclamé	-11.2639
▁supprime	-11.2639
▁plaisir	-11.2639
écrivant	-11.2639
▁tribunaux	-11.2639
▁publicitaire	-11.2639
▁street	-11.2639
▁versailles	-11.264
▁mesuré	-11.264
▁souple	-11.2641
▁staline	-11.2642
▁voile	-11.2642
▁anonyme	-11.2643
▁quitté	-11.2643
▁1911	-11.2646
▁heurt	-11.2646
▁revend	-11.2649
également	-11.268
▁cousin	-11.2708
aluminium	-11.2736
hectares	-11.2736
uruguay	-11.2736
▁baccalauréat	-11.2736
▁fantastique	-11.2736
▁fondamentaux	-11.2736
▁libertaire	-11.2736
▁solidarité	-11.2736
▁spontané	-11.2736
▁tramway	-11.2736
▁cuisson	-11.2736
▁viêt	-11.2736
▁paramètres	-11.2736
▁pixel	-11.2736
▁clavier	-11.2736
orchestre	-11.2736
▁convient	-11.2736
▁surprise	-11.2736
▁brillant	-11.2736
▁synchronis	-11.2736
▁luxembourgeois	-11.2737
▁ultra	-11.2737
▁théologique	-11.2738
▁clef	-11.2744
▁princesse	-11.2747
▁parenté	-11.2752
neuve	-11.2765
inventeur	-11.2801
division	-11.2814
apparaît	-11.2815
▁compact	-11.2819
▁particule	-11.2829
aristocratie	-11.2834
▁astronomique	-11.2834
▁chicago	-11.2834
▁cohérent	-11.2834
▁dépourvu	-11.2834
▁groenland	-11.2834
▁notoriété	-11.2834
▁significatif	-11.2834
▁trajectoire	-11.2834
▁commémor	-11.2834
▁prolongé	-11.2834
▁dépassé	-11.2834
▁lieutenant	-11.2834
▁faisaient	-11.2834
▁flamme	-11.2834
▁tgv	-11.2834
▁college	-11.2834
▁tennis	-11.2834
▁népal	-11.2834
▁boucle	-11.2836
▁référ	-11.2837
▁gilles	-11.2837
▁minitel	-11.2838
▁rallie	-11.2858
ethnie	-11.2875
place	-11.2892
envoi	-11.2903
physique	-11.2916
▁progressive	-11.292
▁atmosphérique	-11.2933
▁aussitôt	-11.2933
▁crâne	-11.2933
▁ibérique	-11.2933
▁migratoire	-11.2933
▁nocturne	-11.2933
▁successifs	-11.2933
▁prestige	-11.2933
▁désignant	-11.2933
▁temporel	-11.2933
▁portuaire	-11.2933
▁brassens	-11.2933
▁gustav	-11.2933
▁scott	-11.2934
▁navale	-11.2934
▁explicitement	-11.2935
▁1913	-11.294
étiquette	-11.2946
estimation	-11.2967
▁luxe	-11.2981
nik	-11.2992
▁médiéval	-11.3002
▁sexuel	-11.3005
antoine	-11.3018
kalevala	-11.3033
▁boulevard	-11.3033
▁condamne	-11.3033
▁manufactur	-11.3033
▁protestation	-11.3033
▁précédemment	-11.3033
▁pseudonyme	-11.3033
▁sarkozy	-11.3033
▁spectaculaire	-11.3033
▁panthéon	-11.3033
▁cartouche	-11.3033
▁titulaire	-11.3033
▁annexé	-11.3033
▁ghana	-11.3033
incident	-11.3035
▁1931	-11.3036
▁fournissent	-11.3037
▁capture	-11.304
▁réduis	-11.304
▁laïc	-11.3117
▁électromagnéti	-11.3117
▁nécessita	-11.3134
▁agriculteurs	-11.3134
▁municipaux	-11.3134
abondance	-11.3134
▁modélis	-11.3134
▁finistère	-11.3134
▁toponyme	-11.3134
▁doigt	-11.3134
▁sanitaire	-11.3134
▁relance	-11.3135
buffy	-11.3135
▁sociologique	-11.3135
▁autorise	-11.3138
▁unitaire	-11.3143
▁englobe	-11.3144
▁fuite	-11.3154
organise	-11.3177
▁négocia	-11.3236
▁apparenté	-11.3236
▁circonstances	-11.3236
▁mussolini	-11.3236
▁préservation	-11.3236
▁contestation	-11.3236
▁ressemble	-11.3236
▁subvention	-11.3236
▁thierry	-11.3236
▁instaure	-11.3236
▁fragile	-11.3236
▁cosmique	-11.3236
▁incapable	-11.3236
▁recherché	-11.3236
▁attiré	-11.3236
▁cheveux	-11.3236
▁commandé	-11.3236
▁slogan	-11.3236
échelon	-11.3237
identification	-11.3237
▁diamant	-11.3237
▁préféra	-11.3237
▁gambie	-11.3237
▁vierge	-11.3238
bactéri	-11.3238
▁normalisation	-11.324
▁attributs	-11.3241
▁montagneux	-11.3241
▁inondations	-11.3243
▁cantal	-11.3245
▁colomb	-11.3289
life	-11.3293
petit	-11.3296
▁détermine	-11.3309
▁bombard	-11.333
▁alphabétique	-11.3339
▁phosphore	-11.3339
▁taïwan	-11.3339
▁titulature	-11.3339
▁procède	-11.3339
compatibilité	-11.3339
▁terminal	-11.3339
insecte	-11.3339
extraction	-11.3339
▁toxique	-11.3339
▁archées	-11.334
▁jordan	-11.334
▁marginal	-11.334
érosion	-11.3341
▁yoshi	-11.3341
▁montagneuse	-11.3345
▁affronte	-11.3432
appropri	-11.3436
claude	-11.344
▁appuyé	-11.3443
▁autoritaire	-11.3443
▁caraïbes	-11.3443
▁macédoine	-11.3443
▁protège	-11.3443
▁rébellion	-11.3443
▁savoyard	-11.3443
▁spécification	-11.3443
▁successivement	-11.3443
▁encouragé	-11.3443
▁hitler	-11.3443
▁colonel	-11.3444
▁sanskrit	-11.3444
▁symétrie	-11.3444
▁conjointement	-11.3445
▁huitième	-11.3447
▁segment	-11.3447
▁réfère	-11.3447
ouganda	-11.3447
▁imposant	-11.3448
acheter	-11.3465
▁assimil	-11.3487
▁gouverne	-11.3514
▁préside	-11.3519
▁montpellier	-11.3549
▁successives	-11.3549
▁traduire	-11.3549
▁éducatif	-11.3549
actualité	-11.3549
anarchisme	-11.3549
▁déplacé	-11.3549
▁préfixe	-11.3549
▁randonnée	-11.3549
▁soupçon	-11.3549
▁reprenant	-11.3549
▁surréalisme	-11.3549
▁existé	-11.3549
▁tutelle	-11.3549
▁converg	-11.355
▁gaston	-11.355
▁ibn	-11.3551
éteint	-11.3552
▁paradis	-11.3553
▁généré	-11.3553
▁penseurs	-11.3553
▁globe	-11.3553
▁livré	-11.3555
▁chassé	-11.3558
logiciel	-11.3652
journal	-11.3653
août	-11.3653
▁évangélique	-11.3655
astronaute	-11.3655
tractatus	-11.3655
▁détruire	-11.3655
▁friedrich	-11.3655
▁posthume	-11.3655
éléphant	-11.3655
▁refuge	-11.3655
▁construis	-11.3655
▁vapeur	-11.3655
▁museum	-11.3655
▁germanophone	-11.3655
▁hasard	-11.3657
▁plonge	-11.3659
▁proportionnel	-11.3677
systématiquement	-11.3735
assassin	-11.3756
assemblage	-11.3763
hostilité	-11.3763
ordonnance	-11.3763
évaluer	-11.3763
▁fortifié	-11.3763
▁singulier	-11.3763
▁suffisante	-11.3763
▁toponymie	-11.3763
▁cousteau	-11.3763
american	-11.3763
approfondi	-11.3763
▁publia	-11.3763
▁propice	-11.3763
▁christophe	-11.3763
▁photographe	-11.3763
▁mystique	-11.3763
▁mensuel	-11.3763
▁trompe	-11.3765
▁négligeable	-11.3766
▁cloche	-11.3769
▁certificat	-11.3773
▁algérien	-11.3779
exclusion	-11.3784
abandonner	-11.3836
▁matériau	-11.3867
▁résolu	-11.3868
hospital	-11.3871
herméneutique	-11.3871
inconscient	-11.3871
unanimité	-11.3871
émoticône	-11.3871
▁académique	-11.3871
▁alternatif	-11.3871
▁carrefour	-11.3871
▁discrimination	-11.3871
▁représentaient	-11.3871
▁stephen	-11.3871
▁tempête	-11.3871
▁handball	-11.3871
épithète	-11.3871
▁fernand	-11.3871
▁adressé	-11.3871
▁pourcentage	-11.3872
▁fameuse	-11.3872
▁analogique	-11.3872
▁momie	-11.3873
▁remplaça	-11.3873
horreur	-11.3876
acquérir	-11.3981
▁constamment	-11.3981
▁suspension	-11.3981
▁dépassant	-11.3981
▁mexico	-11.3981
▁crêpe	-11.3981
▁betty	-11.3981
▁modernisation	-11.3981
▁culmine	-11.3981
▁brahman	-11.3982
▁ivoirien	-11.3983
▁déménage	-11.3983
▁mongol	-11.3986
audience	-11.3988
▁quadri	-11.4069
abili	-11.4091
apollinaire	-11.4092
▁barcelone	-11.4092
▁consécutive	-11.4092
▁corrèze	-11.4092
▁dagobert	-11.4092
▁hiéroglyphes	-11.4092
▁indépendamment	-11.4092
▁interview	-11.4092
▁mozilla	-11.4092
▁quinzaine	-11.4092
▁révéler	-11.4092
▁sculpteur	-11.4092
▁collabore	-11.4092
affichage	-11.4092
▁mégret	-11.4092
▁primitif	-11.4092
▁monarque	-11.4092
abydos	-11.4092
▁derrida	-11.4092
▁expliqua	-11.4093
assistance	-11.4093
▁boîte	-11.4093
▁plainte	-11.4093
▁anglophone	-11.4093
▁javascript	-11.4093
▁sibérie	-11.4093
andalousie	-11.4093
▁libérer	-11.4094
▁1908	-11.4095
▁1901	-11.4096
▁découle	-11.4098
▁confère	-11.4099
oreille	-11.4104
conduct	-11.4108
▁croisade	-11.4108
▁libye	-11.4115
adopter	-11.4141
▁http	-11.4151
▁sacrifi	-11.4193
esclave	-11.4196
homonymie	-11.4205
infanterie	-11.4205
▁cambodge	-11.4205
▁cambridge	-11.4205
▁divertissement	-11.4205
▁ecclésiastique	-11.4205
▁récupérer	-11.4205
▁spiritualité	-11.4205
▁tolérance	-11.4205
▁vacances	-11.4205
▁génitif	-11.4205
iconographie	-11.4205
▁cryptographie	-11.4205
▁concession	-11.4205
▁rempart	-11.4205
mavariable	-11.4205
▁recrute	-11.4205
▁tunnel	-11.4205
palestinien	-11.4205
▁pedro	-11.4205
▁contenir	-11.4205
▁award	-11.4205
▁détourne	-11.4205
érudit	-11.4205
▁couronné	-11.4205
▁martial	-11.4207
▁pension	-11.4208
▁bascule	-11.4208
▁toile	-11.4228
▁contribua	-11.4244
▁invente	-11.4251
établissent	-11.4254
▁procéd	-11.4257
▁exceptionnel	-11.4274
▁éventuelle	-11.43
▁catherine	-11.4318
▁prépondéran	-11.4318
▁reconstruit	-11.4318
▁douglas	-11.4318
▁lumineuse	-11.4318
▁trentaine	-11.4318
▁disputé	-11.4318
▁subdivisions	-11.4318
▁télécharge	-11.4318
▁disciple	-11.4318
▁hellénistique	-11.4318
▁performant	-11.4318
▁baroque	-11.4318
▁prône	-11.4319
▁suscité	-11.4319
▁verdun	-11.4319
▁emacs	-11.4319
inventaire	-11.432
▁berceau	-11.432
▁teneur	-11.4321
▁grossi	-11.4323
▁payé	-11.4327
langage	-11.4337
▁tunisie	-11.4358
▁analytique	-11.4433
▁contradiction	-11.4433
▁conçoit	-11.4433
▁engendré	-11.4433
▁libéraux	-11.4433
▁migrants	-11.4433
▁morphologie	-11.4433
▁nagasaki	-11.4433
▁palmarès	-11.4433
▁préparatoire	-11.4433
▁subdivisé	-11.4433
▁ultime	-11.4433
▁abrégé	-11.4433
▁chœur	-11.4433
▁mutuelle	-11.4433
▁préservé	-11.4433
▁éliminé	-11.4433
incarnation	-11.4433
▁époux	-11.4433
synthétique	-11.4433
infection	-11.4433
▁sultan	-11.4433
▁boursier	-11.4433
traducteur	-11.4433
▁affirmant	-11.4434
▁bohr	-11.4434
observatoire	-11.4434
kayak	-11.4434
▁centriste	-11.4435
▁afro	-11.4436
gauche	-11.4449
▁australien	-11.4449
libération	-11.4449
alberta	-11.4469
étrange	-11.45
▁posséder	-11.455
▁budgétaire	-11.455
▁couvrant	-11.455
▁jamaïque	-11.455
▁privilégie	-11.455
▁psychanalytique	-11.455
▁terrible	-11.455
▁végétaux	-11.455
▁évidemment	-11.455
▁conduisent	-11.455
▁renouvellement	-11.455
▁roumanie	-11.455
▁doublé	-11.455
▁monopole	-11.455
▁souffle	-11.455
bulletin	-11.455
▁positionnement	-11.455
▁méridien	-11.455
▁samuel	-11.455
▁croyant	-11.455
amstrad	-11.455
animisme	-11.455
▁bayrou	-11.4551
▁drame	-11.4564
préfecture	-11.4567
octobre	-11.4568
▁abrita	-11.4569
social	-11.4574
angola	-11.4576
▁morceau	-11.4663
ndustrialisation	-11.4665
▁augmenta	-11.4667
récipiendaire	-11.4667
▁ferdinand	-11.4667
▁frédéric	-11.4667
▁plutarque	-11.4667
▁prestigieuse	-11.4667
▁prestigieux	-11.4667
▁recommandé	-11.4667
▁représentative	-11.4667
▁répétition	-11.4667
▁sépulture	-11.4667
▁narration	-11.4667
▁prédominan	-11.4667
▁rénovation	-11.4667
▁démarque	-11.4667
▁planétaire	-11.4667
▁influent	-11.4667
▁flandre	-11.4667
▁qualification	-11.4667
▁communiquer	-11.4668
▁venise	-11.4668
▁chronologique	-11.4668
▁certes	-11.4671
économique	-11.4688
▁connecté	-11.469
▁pauvre	-11.4737
▁explicit	-11.4784
▁technic	-11.4786
occurrence	-11.4786
évêché	-11.4786
▁diplômé	-11.4786
▁divorce	-11.4786
▁déforestation	-11.4786
▁fantasy	-11.4786
▁lumineux	-11.4786
▁lymphocyte	-11.4786
▁memphis	-11.4786
▁neutralité	-11.4786
▁remarqué	-11.4786
▁motivation	-11.4786
▁clotaire	-11.4786
▁forestière	-11.4786
▁dispens	-11.4787
▁fertile	-11.4787
▁codage	-11.4787
▁civique	-11.4787
▁découpé	-11.4787
▁déclinaison	-11.4788
▁celtes	-11.4788
▁septentrionale	-11.4789
▁ariane	-11.4796
▁rassemblé	-11.4802
marseille	-11.481
émigration	-11.4829
▁couteau	-11.4831
▁contente	-11.4831
▁artificiel	-11.484
▁accepta	-11.4851
▁situa	-11.4865
▁dollar	-11.4867
arithmétique	-11.4907
astérix	-11.4907
égyptologue	-11.4907
éphémère	-11.4907
▁détermination	-11.4907
▁manhattan	-11.4907
▁wilhelm	-11.4907
▁conservatoire	-11.4907
▁merveille	-11.4907
▁scission	-11.4907
▁concrète	-11.4907
agression	-11.4907
▁rigueur	-11.4907
▁précieux	-11.4907
▁dévoile	-11.4907
project	-11.4907
intérim	-11.4907
▁chartres	-11.4908
▁moore	-11.4908
strauss	-11.4908
▁faudra	-11.491
colonia	-11.4917
osaurus	-11.4987
apprendre	-11.4988
dramaturge	-11.5029
▁diaspora	-11.5029
▁distingué	-11.5029
▁hébraïque	-11.5029
▁marketing	-11.5029
▁répertoire	-11.5029
▁soumettre	-11.5029
▁vignoble	-11.5029
▁pompée	-11.5029
▁radicaux	-11.5029
▁trouvant	-11.5029
▁homogène	-11.5029
▁haïti	-11.5029
▁raisonnement	-11.5029
▁formulé	-11.5029
▁hospitalier	-11.5029
▁maxwell	-11.503
child	-11.5056
▁minéral	-11.5079
▁otto	-11.5144
▁bibliographie	-11.5152
▁glaciaire	-11.5152
▁légendaire	-11.5152
▁pandémie	-11.5152
▁protagoniste	-11.5152
▁bouleverse	-11.5152
▁costume	-11.5152
oxford	-11.5152
▁prévention	-11.5152
arrestation	-11.5152
▁barrès	-11.5152
▁poussière	-11.5152
▁grandissant	-11.5152
▁serbie	-11.5152
chaussée	-11.5152
▁paquets	-11.5152
▁chevaux	-11.5153
▁devraient	-11.5153
▁réformé	-11.5155
▁savante	-11.516
▁frein	-11.5165
arrive	-11.5189
fried	-11.5232
▁réaliste	-11.5238
optimisation	-11.5242
▁amélioré	-11.5277
▁coefficient	-11.5277
▁linguistes	-11.5277
▁thaïlandais	-11.5277
▁téléphonie	-11.5277
abstention	-11.5277
armistice	-11.5277
impératrice	-11.5277
▁paradoxal	-11.5277
amplitude	-11.5277
▁bilingue	-11.5277
▁précède	-11.5277
interpréter	-11.5277
▁school	-11.5277
▁disposé	-11.5278
▁citation	-11.5279
▁évoqua	-11.5285
▁approprié	-11.5286
abonné	-11.5295
▁surmonté	-11.5295
production	-11.5305
catégorie	-11.5313
▁poussé	-11.537
▁critère	-11.5383
▁immédiate	-11.5384
attirer	-11.5403
homosexualité	-11.5404
▁benoît	-11.5404
▁combustion	-11.5404
▁originaux	-11.5404
▁propagation	-11.5404
▁électoraux	-11.5404
inconvénient	-11.5404
pâtisserie	-11.5404
▁sédimentaire	-11.5404
▁stanley	-11.5404
éliminer	-11.5404
▁déportation	-11.5404
▁décalage	-11.5404
▁profane	-11.5404
▁routière	-11.5404
▁résumé	-11.5404
▁ordonne	-11.5404
▁précieuse	-11.5404
▁trophée	-11.5404
▁pdf	-11.5404
▁portail	-11.5405
▁commissaire	-11.5405
▁entretenu	-11.5405
▁instable	-11.5405
▁cpc	-11.5406
osaka	-11.5406
▁visual	-11.5407
▁exemplaire	-11.5438
atteindre	-11.5443
philippe	-11.5443
▁législative	-11.5517
ascendance	-11.5532
essayiste	-11.5532
hydrazine	-11.5532
implémentation	-11.5532
▁diagnostic	-11.5532
▁extraordinaire	-11.5532
▁paradigme	-11.5532
▁programmé	-11.5532
▁résultant	-11.5532
▁subsaharienne	-11.5532
▁varsovie	-11.5532
▁vladimir	-11.5532
▁berbère	-11.5532
▁batterie	-11.5532
▁veuve	-11.5532
▁affiché	-11.5532
implication	-11.5532
▁conducteur	-11.5532
égide	-11.5533
▁incarné	-11.5533
▁complice	-11.5533
▁dissout	-11.5533
▁sierra	-11.5533
▁adhère	-11.5534
isotope	-11.5537
automobile	-11.5574
chapelle	-11.5575
premier	-11.5575
inosaur	-11.5576
tête	-11.5582
conseil	-11.559
chrétien	-11.561
▁germano	-11.5662
▁babylonie	-11.5662
▁analysé	-11.5662
▁conduisant	-11.5662
▁conquérant	-11.5662
▁disparaissent	-11.5662
▁hydrographie	-11.5662
▁protectorat	-11.5662
▁ptolémée	-11.5662
▁sculpté	-11.5662
obstacle	-11.5662
élimination	-11.5662
▁blender	-11.5662
▁meeting	-11.5662
intercommunalité	-11.5662
▁scribe	-11.5662
▁stéréo	-11.5662
▁matérialis	-11.5662
▁cardinal	-11.5662
▁perturbations	-11.5662
entoure	-11.5664
illustre	-11.5708
éclairage	-11.5749
archevêque	-11.5793
embouchure	-11.5793
▁accessoire	-11.5793
▁analogue	-11.5793
▁doctorat	-11.5793
▁stéréotypes	-11.5793
▁vatican	-11.5793
▁assurant	-11.5793
▁multinationale	-11.5793
▁précoce	-11.5793
▁canidé	-11.5794
▁covid	-11.5794
▁antilles	-11.5795
arrange	-11.5801
adapte	-11.5827
cœur	-11.5844
militaire	-11.5848
introduir	-11.5914
▁lisbonne	-11.5927
hydrocarbure	-11.5927
▁affirmé	-11.5927
▁certitude	-11.5927
▁implicite	-11.5927
▁samouraïs	-11.5927
▁saussure	-11.5927
▁syntaxique	-11.5927
▁fanzine	-11.5927
▁interrogé	-11.5927
▁postérité	-11.5927
▁chiffré	-11.5927
▁antonio	-11.5927
▁poitou	-11.5927
▁cratère	-11.5927
▁amoureux	-11.5927
▁modernité	-11.5927
▁soufre	-11.5927
▁zinc	-11.5927
▁ravage	-11.5927
▁uniforme	-11.5927
▁paiement	-11.5927
synchro	-11.5927
anarchie	-11.5929
▁épais	-11.5929
▁ressenti	-11.5932
mandant	-11.5936
▁baptis	-11.5951
▁obéi	-11.5969
hérésie	-11.598
dynamique	-11.598
▁transfér	-11.6033
popular	-11.6061
▁ministériel	-11.6062
abstraction	-11.6062
disciplinaire	-11.6062
▁amérindienne	-11.6062
▁cicéron	-11.6062
▁communiqué	-11.6062
▁correctement	-11.6062
▁honduras	-11.6062
▁mœurs	-11.6062
▁portefeuille	-11.6062
▁possédait	-11.6062
▁rejoignent	-11.6062
▁relevant	-11.6062
▁symptôme	-11.6062
▁typologie	-11.6062
explorateur	-11.6062
▁dépouille	-11.6062
électorat	-11.6062
▁lituanie	-11.6062
▁collision	-11.6062
▁ponctue	-11.6062
hébergement	-11.6062
▁allusion	-11.6062
▁vedette	-11.6062
▁mersenne	-11.6063
▁humaniste	-11.6063
▁mépris	-11.6063
▁soldat	-11.6069
▁confér	-11.6074
ministre	-11.6092
▁neveu	-11.6111
éloge	-11.6138
▁télévisé	-11.616
▁explore	-11.6167
angoulême	-11.6199
approbation	-11.6199
excédent	-11.6199
éruption	-11.6199
▁botswana	-11.6199
▁exhaustive	-11.6199
▁fertilité	-11.6199
▁gigantesque	-11.6199
▁kennedy	-11.6199
▁métallurgie	-11.6199
▁satisfaire	-11.6199
▁satisfait	-11.6199
▁1871	-11.6199
▁chypre	-11.6199
▁bétail	-11.6199
▁ethernet	-11.6199
▁logistique	-11.6199
▁guitare	-11.6199
▁renversé	-11.6199
▁géographe	-11.6199
▁dégradé	-11.62
▁oublier	-11.62
▁livonie	-11.62
▁subsista	-11.62
▁décimal	-11.62
▁contrée	-11.6201
intéress	-11.6294
▁chrono	-11.6337
athlétisme	-11.6338
audiovisuel	-11.6338
▁armoiries	-11.6338
▁autrichienne	-11.6338
▁catalogue	-11.6338
▁chiropratique	-11.6338
▁confrontation	-11.6338
▁empirique	-11.6338
▁grégorien	-11.6338
▁instauré	-11.6338
▁janeiro	-11.6338
▁jésuite	-11.6338
▁simplifie	-11.6338
inscrire	-11.6338
élévation	-11.6338
▁confondre	-11.6338
▁neustrie	-11.6338
▁marchais	-11.6338
▁camarade	-11.6338
▁gouverné	-11.6338
▁brown	-11.6338
▁promesse	-11.6338
▁félins	-11.6338
▁tumeur	-11.6338
▁psychique	-11.6339
classic	-11.634
entourage	-11.6349
▁thermo	-11.6381
effondre	-11.6459
inondation	-11.647
imagination	-11.6479
▁absorbé	-11.6479
▁caucase	-11.6479
▁condorcet	-11.6479
▁emprisonné	-11.6479
▁gouvernance	-11.6479
▁hôpitaux	-11.6479
▁périphérie	-11.6479
▁québécois	-11.6479
▁requête	-11.6479
▁rwanda	-11.6479
▁tallinn	-11.6479
envergure	-11.6479
▁brièvement	-11.6479
▁modalités	-11.6479
▁sauvegarde	-11.6479
archéologue	-11.6479
▁arendt	-11.6479
▁company	-11.6479
▁mâle	-11.6479
▁contrepartie	-11.6479
▁square	-11.6479
▁ptah	-11.6479
▁aquatique	-11.6479
▁rumeur	-11.6479
▁scalaire	-11.648
▁utilisable	-11.648
▁proteste	-11.6485
vignette	-11.6499
étymologie	-11.6547
démocrate	-11.6547
étape	-11.6548
▁conjoint	-11.6619
installa	-11.6619
plaçant	-11.662
ambiguïté	-11.6621
intersection	-11.6621
▁attaqué	-11.6621
▁baptême	-11.6621
▁boîtier	-11.6621
▁clôture	-11.6621
▁criminalité	-11.6621
▁cérébral	-11.6621
▁dégâts	-11.6621
▁fidélité	-11.6621
▁fraîche	-11.6621
▁grégoire	-11.6621
▁hydroélectrique	-11.6621
▁industrialisé	-11.6621
▁palestine	-11.6621
▁réglementation	-11.6621
▁terminologie	-11.6621
humidité	-11.6621
▁inutile	-11.6621
▁comptoir	-11.6621
▁laguiller	-11.6621
▁offrant	-11.6621
▁réclama	-11.6621
hérault	-11.6621
monsieur	-11.6622
▁vassaux	-11.6622
▁forestier	-11.6622
▁naissant	-11.6622
hotep	-11.6623
▁osirien	-11.6626
utilité	-11.6641
micro	-11.6697
estuaire	-11.6698
yorkais	-11.674
▁afghan	-11.6766
avortement	-11.6766
immobilier	-11.6766
▁champollion	-11.6766
▁codifié	-11.6766
▁célébrité	-11.6766
▁interrompu	-11.6766
▁morphologique	-11.6766
▁télescope	-11.6766
adhérents	-11.6766
▁poursuivent	-11.6766
▁asymétrique	-11.6766
▁danube	-11.6766
▁permanence	-11.6766
▁tambour	-11.6766
▁théoricien	-11.6766
affranchi	-11.6766
▁faillite	-11.6766
▁homologue	-11.6766
▁remporta	-11.6766
▁carthage	-11.6766
▁squelette	-11.6766
▁donald	-11.6766
▁adepte	-11.6766
▁brabant	-11.6766
▁agraire	-11.6767
▁bueno	-11.6767
▁restauré	-11.6767
agissant	-11.6768
▁malaisie	-11.6773
inclusion	-11.6835
classique	-11.6844
quartier	-11.6844
imposa	-11.6892
élever	-11.6909
▁commonwealth	-11.6913
▁coordination	-11.6913
▁madeleine	-11.6913
▁nigeria	-11.6913
▁parenthèses	-11.6913
▁pellicule	-11.6913
▁recommande	-11.6913
▁repoussé	-11.6913
▁salvador	-11.6913
▁tokugawa	-11.6913
héraldique	-11.6913
▁foncier	-11.6913
▁exportateur	-11.6913
▁couloir	-11.6913
▁texas	-11.6913
▁restaurer	-11.6913
▁remontant	-11.6914
attaquant	-11.6914
▁annonça	-11.6914
▁prétexte	-11.6914
▁caricatur	-11.6914
▁nippon	-11.6914
▁popularisé	-11.6914
▁confirma	-11.6914
▁raoul	-11.6914
▁détache	-11.6915
ajustement	-11.6915
épaisseur	-11.692
appliqua	-11.6922
▁qualifi	-11.6953
▁fossile	-11.6957
gouvernement	-11.6996
brahm	-11.6998
▁retrouva	-11.701
encyclopédie	-11.7063
▁algébrique	-11.7063
▁bouddha	-11.7063
▁généalogique	-11.7063
▁habsbourg	-11.7063
▁insuffisant	-11.7063
▁représentatif	-11.7063
▁suzuki	-11.7063
▁étrusque	-11.7063
▁donjon	-11.7063
▁détection	-11.7063
▁négocie	-11.7063
héliopolis	-11.7063
▁mayennais	-11.7063
▁annulé	-11.7063
▁zurich	-11.7063
▁flottant	-11.7063
▁essaye	-11.7063
▁bâton	-11.7063
▁glaciers	-11.7063
▁prévision	-11.7063
packard	-11.7063
▁vosges	-11.7063
▁détaché	-11.7063
▁animiste	-11.7063
▁clause	-11.7063
▁régénér	-11.7064
▁chauve	-11.7064
▁convoi	-11.7081
allonge	-11.7104
capitale	-11.7149
articule	-11.7174
▁apparemment	-11.7214
▁babylone	-11.7214
▁confucianisme	-11.7214
▁eucaryotes	-11.7214
▁rectangulaire	-11.7214
▁reproduire	-11.7214
▁sardaigne	-11.7214
▁similitude	-11.7214
▁terrorisme	-11.7214
▁tragédie	-11.7214
▁citoyenneté	-11.7214
▁héréditaire	-11.7214
▁imaginé	-11.7214
▁investisseurs	-11.7214
▁minuscule	-11.7214
▁multiplié	-11.7214
▁mélodie	-11.7214
▁simplifié	-11.7214
▁transparence	-11.7214
▁xbox	-11.7214
▁distributeur	-11.7214
▁amazon	-11.7214
▁boulogne	-11.7214
▁cultiva	-11.7214
▁péguy	-11.7214
▁fédéré	-11.7214
▁gravure	-11.7214
▁rivaux	-11.7214
▁cartographie	-11.7214
▁génome	-11.7214
▁balkans	-11.7214
▁voûte	-11.7214
▁soutiennent	-11.7214
jpg	-11.7215
▁ignore	-11.7215
vilaine	-11.7215
▁cahier	-11.7215
▁watch	-11.7215
écoulement	-11.7215
escalier	-11.7216
enclave	-11.7217
public	-11.7306
▁métropolitain	-11.7314
▁sylla	-11.7367
▁combustible	-11.7368
▁célébration	-11.7368
▁embarqué	-11.7368
▁galaxie	-11.7368
▁guerrière	-11.7368
▁powerbook	-11.7368
▁quarantaine	-11.7368
▁revendiqué	-11.7368
▁tremblement	-11.7368
▁hybride	-11.7368
▁paradoxe	-11.7368
▁urbanisé	-11.7368
▁compléter	-11.7368
▁délimité	-11.7368
▁huxley	-11.7368
▁stallman	-11.7368
hémisphère	-11.7368
▁poitiers	-11.7368
▁boursière	-11.7368
▁cardiaque	-11.7368
▁félix	-11.7368
▁galilée	-11.7368
▁tragique	-11.7368
▁tactique	-11.7369
▁sanguin	-11.7369
▁motivé	-11.737
assimilation	-11.7374
▁facilite	-11.7439
princip	-11.7522
electronic	-11.7524
▁antisémite	-11.7524
▁cognitive	-11.7524
▁hiéroglyphique	-11.7524
▁immatériel	-11.7524
▁léopold	-11.7524
▁marguerite	-11.7524
▁pénètre	-11.7524
▁supplant	-11.7524
▁suspect	-11.7524
▁trimestre	-11.7524
▁mobilier	-11.7524
▁provincial	-11.7524
▁cinquanta	-11.7524
▁incertain	-11.7524
▁invisible	-11.7524
▁rappelant	-11.7524
▁émergé	-11.7524
excellence	-11.7524
▁fallait	-11.7524
<	-13.2953
ù	-13.2953
