<unk>	0
<s>	0
</s>	0
.	-3.3277
,	-3.39926
a	-3.70858
▁i	-3.8118
▁je	-3.8539
▁u	-3.88
e	-4.31478
i	-4.38316
o	-4.49364
u	-4.51848
▁na	-4.58417
▁se	-4.62688
▁	-4.67767
▁su	-4.83111
m	-4.86706
"	-5.05573
▁s	-5.08501
▁od	-5.13291
▁za	-5.22095
▁(	-5.26499
s	-5.28712
▁a	-5.29798
▁"	-5.33716
om	-5.38529
▁da	-5.5122
="	-5.52572
ma	-5.55606
ti	-5.64415
▁po	-5.65302
d	-5.66015
la	-5.69065
▁godine	-5.70054
h	-5.70692
li	-5.72743
ih	-5.73009
na	-5.76
▁do	-5.78264
-	-5.78453
▁iz	-5.80382
#	-5.8489
ne	-5.86155
▁#	-5.86652
▁te	-5.8864
ni	-5.92353
g	-5.94241
▁o	-5.96573
▁koji	-5.98953
)	-5.99129
▁kao	-6.00067
je	-6.01861
ju	-6.05743
im	-6.10591
:	-6.12052
doc	-6.14105
▁ne	-6.14706
>	-6.14805
og	-6.15029
j	-6.23918
ja	-6.33973
ka	-6.35408
lo	-6.35659
nja	-6.36245
n	-6.36448
nje	-6.43106
▁to	-6.45511
▁bio	-6.457
t	-6.46104
no	-6.46206
le	-6.47138
),	-6.48001
/	-6.48053
k	-6.50887
▁što	-6.51611
▁ili	-6.55672
c	-6.57253
ci	-6.58799
oj	-6.58933
nu	-6.59453
).	-6.6057
ima	-6.60904
▁nakon	-6.6501
▁koja	-6.67963
▁koje	-6.68482
hr	-6.7011
ra	-6.70911
▁bi	-6.73772
▁pa	-6.75511
▁sa	-6.77753
▁pod	-6.78479
da	-6.78516
?	-6.78578
r	-6.7882
org	-6.79036
;	-6.79078
curi	-6.82901
wiki	-6.83115
ta	-6.83308
://	-6.83571
▁url	-6.83891
▁cate	-6.83895
l	-6.83898
https	-6.8394
▁<	-6.83974
wikipedia	-6.83991
▁title	-6.84107
▁</	-6.84271
gorie	-6.84273
▁id	-6.86057
▁pri	-6.86745
z	-6.87266
▁nije	-6.89086
p	-6.8918
▁oko	-6.92185
▁ga	-6.92327
▁–	-6.93189
▁prema	-6.94405
ca	-6.94768
ova	-6.95035
v	-6.9688
te	-6.96965
re	-6.99197
▁ali	-7.01449
▁kr	-7.02197
▁pro	-7.0294
▁sve	-7.03401
▁-	-7.03939
ga	-7.04501
",	-7.05284
š	-7.0536
▁bila	-7.08561
va	-7.09452
▁pre	-7.12517
▁zbog	-7.13536
▁mu	-7.14119
▁samo	-7.1571
▁uz	-7.16215
▁grad	-7.16928
▁više	-7.17075
nom	-7.17769
▁ima	-7.18652
b	-7.2091
▁kako	-7.23059
ku	-7.23555
ije	-7.2379
ski	-7.23983
ke	-7.25672
sti	-7.26136
st	-7.26453
pa	-7.26733
ska	-7.26964
▁m	-7.27743
ko	-7.28373
▁godina	-7.30114
nih	-7.30891
y	-7.3147
za	-7.31527
de	-7.32168
nju	-7.3271
vi	-7.33106
mo	-7.33281
▁bilo	-7.33477
ske	-7.33743
▁vrijeme	-7.34403
ba	-7.35048
▁još	-7.35953
nim	-7.36014
an	-7.36372
▁će	-7.38285
▁de	-7.39205
sa	-7.39567
▁tako	-7.39698
▁kod	-7.39836
ce	-7.40793
ri	-7.41832
▁dio	-7.42048
sta	-7.42266
▁prvi	-7.42499
▁između	-7.42753
▁re	-7.43222
ve	-7.43876
▁no	-7.44104
▁može	-7.44516
".	-7.44519
▁nalazi	-7.45714
▁dok	-7.45997
ž	-7.46006
ov	-7.46106
nog	-7.4637
▁kada	-7.47105
br	-7.47137
▁prije	-7.47817
ovi	-7.48029
to	-7.4956
če	-7.4967
▁hrvatske	-7.50176
▁stoljeća	-7.50314
ove	-7.50498
ći	-7.50762
po	-7.51166
ija	-7.5125
f	-7.52679
▁gdje	-7.53138
▁tijekom	-7.56344
di	-7.57017
zi	-7.5758
▁broj	-7.5785
lu	-7.58259
▁rata	-7.5847
▁danas	-7.58727
▁bili	-7.59431
▁već	-7.60694
▁tri	-7.61458
▁ni	-7.62535
io	-7.64133
iji	-7.64501
iti	-7.64972
▁jer	-7.65384
▁pr	-7.65476
či	-7.65896
lje	-7.66188
▁jedan	-7.66468
č	-7.67223
▁također	-7.67659
▁ta	-7.67758
▁svoje	-7.68757
že	-7.69144
▁li	-7.70255
ru	-7.70654
▁dana	-7.70908
tu	-7.71726
▁z	-7.72159
skog	-7.73036
=1	-7.74527
sku	-7.74564
▁naj	-7.74667
▁("	-7.75759
▁kon	-7.75844
▁dva	-7.75896
ki	-7.76563
&	-7.76592
▁km	-7.76599
▁nekoliko	-7.77358
be	-7.77625
▁grada	-7.77791
bi	-7.77919
sko	-7.78417
in	-7.78757
▁17	-7.79163
▁među	-7.80459
em	-7.80937
cu	-7.81035
se	-7.81233
▁on	-7.8156
▁g	-7.81918
mi	-7.82114
si	-7.82135
▁rat	-7.8252
▁kasnije	-7.83002
▁toga	-7.83026
lja	-7.83142
")	-7.84481
bu	-7.85113
▁tu	-7.85181
cije	-7.85281
do	-7.85773
▁k	-7.85971
ča	-7.86375
▁sv	-7.86937
▁15	-7.87199
ro	-7.87242
▁ka	-7.87595
▁1	-7.88926
▁ko	-7.89009
▁stanovnika	-7.8908
▁njegov	-7.89831
skom	-7.89982
nica	-7.90193
▁2	-7.90405
▁hrvatskoj	-7.91339
njem	-7.9155
▁biti	-7.92313
▁ime	-7.92456
su	-7.92638
2	-7.92756
▁dr	-7.93143
▁ba	-7.93896
▁st	-7.94116
▁iako	-7.94159
jući	-7.94451
▁vrlo	-7.95046
ost	-7.95127
ak	-7.95569
▁tada	-7.95614
▁bez	-7.95849
▁protiv	-7.96206
će	-7.96367
▁taj	-7.97126
'	-7.97338
▁mora	-7.97447
ili	-7.97513
ica	-7.97571
du	-7.98365
▁području	-7.98389
ge	-7.98403
▁nisu	-7.98579
cija	-7.98615
▁di	-7.99188
še	-7.99929
kom	-7.99951
ila	-8.00005
▁d	-8.00063
lt	-8.00476
nik	-8.00478
en	-8.01059
▁pred	-8.01167
ća	-8.01653
▁raz	-8.01986
ša	-8.02469
▁nego	-8.0388
3	-8.03886
▁zemlje	-8.0404
▁la	-8.04173
▁h	-8.04681
al	-8.04766
▁18	-8.04791
▁3	-8.05817
osti	-8.0587
ji	-8.0611
▁ma	-8.06149
▁sam	-8.06622
ter	-8.0699
▁hrvatski	-8.07308
vo	-8.0736
▁ra	-8.07834
▁povijest	-8.08119
▁kroz	-8.08351
▁16	-8.08815
▁koju	-8.08977
ši	-8.09147
▁kad	-8.09884
▁radi	-8.10084
▁doba	-8.10087
▁ru	-8.10119
nici	-8.10682
▁os	-8.10794
▁put	-8.11233
▁rad	-8.11347
ici	-8.1187
▁drugi	-8.12125
x	-8.12506
skih	-8.12596
▁stanovništva	-8.12736
ice	-8.12923
▁bu	-8.13114
cima	-8.13659
▁me	-8.13777
▁mogu	-8.13974
iju	-8.14067
▁dvije	-8.1557
▁c	-8.15687
▁ku	-8.16103
▁4	-8.16334
▁naselja	-8.16993
▁puta	-8.17073
vanje	-8.1713
▁često	-8.17409
▁preko	-8.17448
go	-8.17813
▁njegova	-8.1847
▁al	-8.18536
▁način	-8.1871
▁ja	-8.18908
▁nad	-8.19396
nice	-8.19637
▁jezik	-8.19759
▁tom	-8.19895
▁lo	-8.19959
▁područje	-8.2024
grad	-8.2026
▁le	-8.20277
▁op	-8.20517
▁ljudi	-8.2056
▁kojima	-8.2117
▁države	-8.21534
skim	-8.22595
▁10	-8.23164
tra	-8.23172
lj	-8.23301
▁mar	-8.23329
▁5	-8.23537
▁vlasti	-8.24087
ina	-8.24493
▁područja	-8.24759
gt	-8.24779
▁ha	-8.25203
ze	-8.25211
us	-8.25229
stvo	-8.25416
▁bo	-8.25424
▁ju	-8.25455
▁svoj	-8.2547
▁crkve	-8.26277
▁ako	-8.26558
pi	-8.26778
ur	-8.26791
iz	-8.27381
▁poslije	-8.27485
▁općina	-8.27548
▁kojem	-8.2766
skoj	-8.27834
▁pi	-8.27839
▁život	-8.28158
w	-8.28266
=2	-8.2841
▁vi	-8.28428
▁jedna	-8.28527
ži	-8.28741
▁pra	-8.28839
nji	-8.29145
▁ih	-8.29271
▁glavni	-8.29392
žu	-8.29397
ić	-8.29557
od	-8.30431
▁kojoj	-8.30824
▁osim	-8.3126
noj	-8.3151
▁djela	-8.31561
▁car	-8.31769
ža	-8.31782
ran	-8.32035
▁dan	-8.32192
▁sin	-8.32584
ine	-8.32624
▁država	-8.32921
▁druge	-8.33036
šta	-8.33186
bo	-8.33483
▁mi	-8.33605
or	-8.33799
pe	-8.33881
▁svojim	-8.3435
1	-8.34529
nije	-8.34688
▁mjesto	-8.34693
▁naziva	-8.34717
▁naziv	-8.34861
▁novi	-8.3511
▁tek	-8.3556
▁općine	-8.35624
vr	-8.35756
▁veliki	-8.35771
ovima	-8.36
▁in	-8.361
▁6	-8.36327
▁odnosno	-8.36343
▁imao	-8.36775
▁kraj	-8.36849
rije	-8.37173
▁pomoć	-8.37381
▁ob	-8.37515
kla	-8.37584
nost	-8.37905
▁stoljeću	-8.38621
šte	-8.38627
▁pet	-8.38638
▁postao	-8.38639
▁vremena	-8.38669
▁vlast	-8.3881
nski	-8.38885
▁sustav	-8.39603
▁strane	-8.39627
▁smatra	-8.39729
stva	-8.39817
▁sad	-8.39838
is	-8.39927
▁pu	-8.39999
ck	-8.40102
vanja	-8.403
ar	-8.40506
đen	-8.40528
▁stanovništvo	-8.4062
dan	-8.40854
▁imaju	-8.41006
on	-8.41356
nosti	-8.41548
▁vode	-8.41828
đe	-8.41953
ć	-8.42319
tar	-8.42477
▁niz	-8.42564
▁svoju	-8.42659
ika	-8.42749
ch	-8.42794
6	-8.43118
▁p	-8.43528
▁uglavnom	-8.436
mor	-8.43875
sto	-8.43993
gi	-8.44217
0	-8.44324
▁svi	-8.44384
▁pe	-8.44489
▁dolazi	-8.44796
▁1.	-8.45159
▁tome	-8.45415
▁djelo	-8.456
▁njihov	-8.45652
▁postoji	-8.45678
ću	-8.45708
os	-8.46146
▁republike	-8.46294
▁19.	-8.46493
nika	-8.46608
▁7	-8.46652
▁per	-8.46771
slav	-8.46906
▁član	-8.47245
vod	-8.47413
ac	-8.47656
▁hrvatska	-8.48139
▁svjetskog	-8.48152
er	-8.48465
izam	-8.48712
▁života	-8.48787
kr	-8.48962
▁ti	-8.4919
▁jezika	-8.49503
▁f	-8.49602
oga	-8.49619
▁čak	-8.49783
▁vlada	-8.49801
4	-8.49945
▁crkva	-8.50393
▁bile	-8.50512
▁primjer	-8.50661
▁ar	-8.50723
▁svih	-8.50789
pro	-8.51222
▁njih	-8.51616
▁predsjednik	-8.51665
ven	-8.51744
▁neki	-8.51761
▁zagrebu	-8.52233
▁„	-8.53152
▁mir	-8.53421
=	-8.53465
▁zemlji	-8.53539
lju	-8.53687
tor	-8.54514
▁mjesta	-8.54549
▁mnogo	-8.54665
fi	-8.54888
▁gr	-8.55217
▁međutim	-8.55236
▁kralj	-8.55266
▁postaje	-8.55406
▁velika	-8.55576
kov	-8.56018
▁snage	-8.56092
vali	-8.56116
▁ona	-8.56307
izma	-8.56438
van	-8.5647
jev	-8.56662
ciju	-8.56667
▁obitelji	-8.56724
000	-8.56737
▁velike	-8.56834
▁rijeke	-8.57304
▁ipak	-8.57669
▁govori	-8.57737
▁b	-8.57922
▁(19	-8.58028
▁8	-8.58087
▁kojih	-8.58126
▁ban	-8.58406
vši	-8.5851
▁gotovo	-8.58559
▁000	-8.58791
ver	-8.58798
▁lu	-8.58825
▁koristi	-8.58881
▁tijela	-8.58888
đa	-8.593
▁četiri	-8.59302
▁š	-8.59405
man	-8.59532
▁v	-8.5959
▁prostor	-8.59601
▁or	-8.59773
tro	-8.59958
▁fa	-8.60013
ljiv	-8.60014
▁dobro	-8.60358
▁gu	-8.60443
▁prva	-8.60456
▁ovaj	-8.60527
nt	-8.60543
▁njegove	-8.60597
▁zna	-8.60604
▁sastav	-8.61349
met	-8.61466
ll	-8.61503
▁čini	-8.61616
▁ivan	-8.61616
▁ro	-8.61712
stan	-8.61861
▁pravo	-8.62233
▁če	-8.6228
é	-8.62352
12	-8.62654
ng	-8.62776
men	-8.62795
▁jedno	-8.63043
▁smrti	-8.63195
▁poput	-8.63216
▁najveći	-8.6335
▁njezin	-8.63376
▁povijesti	-8.63409
▁20	-8.63475
log	-8.63805
▁dijelu	-8.6398
▁imala	-8.64261
zna	-8.64324
vu	-8.64425
zu	-8.64462
▁mo	-8.64501
el	-8.6457
▁9	-8.64575
▁t	-8.64703
▁du	-8.64771
▁tra	-8.65029
▁škola	-8.65045
▁bih	-8.65462
vati	-8.65556
▁gradu	-8.65635
▁manje	-8.65635
▁20.	-8.65645
▁posebno	-8.66046
▁drugih	-8.66368
▁%	-8.66387
boj	-8.66399
▁većina	-8.66421
fa	-8.6651
▁tro	-8.66912
▁početkom	-8.6714
▁zajedno	-8.67215
▁neke	-8.67274
▁12	-8.67454
stra	-8.67548
5	-8.6779
▁he	-8.67932
ton	-8.67975
tri	-8.67995
▁kraja	-8.68039
▁vr	-8.68084
lom	-8.68658
op	-8.68719
čki	-8.68783
▁narod	-8.688
pu	-8.69086
ču	-8.6922
▁naroda	-8.6932
lije	-8.69473
ciji	-8.69601
▁kojeg	-8.69637
▁bar	-8.7015
▁val	-8.70185
ks	-8.7043
▁nalaze	-8.70444
▁oni	-8.70586
▁13	-8.70628
▁postoje	-8.70685
▁travnja	-8.70735
▁hrvatskog	-8.7084
▁uvijek	-8.71406
čić	-8.71408
▁tur	-8.72009
▁naselje	-8.72059
čen	-8.721
▁kamen	-8.72215
▁treba	-8.72252
at	-8.72291
▁svijetu	-8.72551
th	-8.72559
mir	-8.72812
▁va	-8.72836
djel	-8.72959
▁ci	-8.72968
▁igra	-8.73072
▁2.	-8.73104
▁dobio	-8.73122
▁w	-8.73354
fe	-8.73366
▁zatim	-8.73401
nj	-8.73541
nci	-8.73566
2.	-8.73606
niji	-8.7364
▁milijuna	-8.73801
nija	-8.73852
▁poznat	-8.7402
▁otok	-8.74047
▁znači	-8.74189
co	-8.74282
▁mjestu	-8.74395
▁si	-8.74734
▁razvoj	-8.74916
it	-8.75338
▁utjecaj	-8.7551
▁hrvata	-8.75532
▁drugim	-8.75543
▁nema	-8.75607
“	-8.75709
son	-8.75712
”	-8.75786
▁tj	-8.75805
▁roman	-8.7612
vije	-8.76363
▁film	-8.7637
ijom	-8.76386
▁kom	-8.76468
▁zakon	-8.76518
▁1991.	-8.76559
▁ras	-8.76587
ović	-8.76662
▁nove	-8.76975
▁tih	-8.77235
▁oblik	-8.77429
▁svibnja	-8.7748
▁veći	-8.77722
▁ki	-8.78
▁malo	-8.78103
▁rujna	-8.78124
ković	-8.78326
lji	-8.78377
▁ca	-8.7877
dr	-8.79053
jem	-8.79238
▁listopada	-8.79421
▁tog	-8.79438
tom	-8.79548
▁tim	-8.79604
▁be	-8.80003
"),	-8.80358
uje	-8.80718
▁kor	-8.80818
▁njega	-8.81145
▁klub	-8.81242
mer	-8.81776
14	-8.81781
▁mnogi	-8.8184
▁tr	-8.81847
▁radio	-8.81924
▁najviše	-8.82079
ob	-8.82103
inu	-8.82113
vao	-8.8227
▁bol	-8.82332
▁ponovno	-8.82343
▁vodi	-8.82421
ik	-8.82472
▁jednom	-8.82746
nd	-8.82923
▁ratu	-8.82943
▁kolovoza	-8.83194
▁srpnja	-8.83194
▁ot	-8.83308
ovo	-8.8339
▁lipnja	-8.83463
«	-8.83484
▁riječ	-8.83529
nske	-8.83547
7	-8.83646
▁isti	-8.83712
▁par	-8.83793
9	-8.84048
▁kralja	-8.84125
stvu	-8.84157
▁određen	-8.84595
▁rod	-8.84686
pri	-8.84856
▁potom	-8.8486
3.	-8.84912
▁središte	-8.85024
tan	-8.85219
▁dalje	-8.85274
▁er	-8.856
▁kup	-8.85671
▁svijeta	-8.85694
ol	-8.85742
▁pojedin	-8.8581
▁14	-8.85963
▁predstavlja	-8.86038
raz	-8.86084
▁otoka	-8.86095
stav	-8.86141
var	-8.86229
▁njen	-8.8644
15	-8.8652
▁pripada	-8.8657
▁rođen	-8.86612
es	-8.86907
▁kar	-8.86956
gen	-8.87316
pre	-8.87522
▁prvo	-8.87639
▁time	-8.87717
▁fi	-8.87779
▁unutar	-8.87834
▁proces	-8.88097
▁napad	-8.88217
▁svim	-8.88399
voj	-8.8857
▁rezultat	-8.88695
tal	-8.8877
gor	-8.88824
▁anti	-8.89292
▁hrvatskom	-8.89322
den	-8.89495
▁'	-8.89631
▁iznosi	-8.89828
▁svog	-8.8983
▁hi	-8.89876
▁ho	-8.90039
▁zagreb	-8.90039
čka	-8.90093
▁posjed	-8.90287
|	-8.90359
16	-8.90365
▁plan	-8.90378
▁prava	-8.90398
▁co	-8.90497
▁bogat	-8.90725
▁isto	-8.90734
▁razdoblju	-8.90869
▁nova	-8.91108
cijom	-8.91162
▁siječnja	-8.91195
▁ri	-8.91195
▁mil	-8.91257
▁bosne	-8.91326
▁spominje	-8.9144
▁počinje	-8.91443
čke	-8.91559
▁18.	-8.91598
čan	-8.91688
ing	-8.91712
▁pla	-8.91734
por	-8.91755
20	-8.92054
▁drugog	-8.92099
ški	-8.92252
▁sto	-8.92677
▁snaga	-8.92865
par	-8.92988
▁god	-8.93127
▁ova	-8.93145
▁prosinca	-8.93424
fer	-8.93511
gla	-8.9352
▁obično	-8.93687
▁čine	-8.93869
▁hrvati	-8.93871
▁svom	-8.93914
▁osoba	-8.93939
23	-8.94017
il	-8.94033
▁program	-8.94207
pra	-8.94264
▁ljudsk	-8.94306
šić	-8.94339
tur	-8.94347
▁čega	-8.94646
đi	-8.94801
ira	-8.94861
ška	-8.94914
▁popisu	-8.95283
rad	-8.95373
▁11	-8.95465
zija	-8.95663
▁prve	-8.95772
▁ove	-8.95846
tvor	-8.95934
red	-8.96254
čkog	-8.96287
▁(18	-8.96373
▁škole	-8.96392
▁brod	-8.96803
▁položaj	-8.96993
▁fo	-8.97245
▁ožujka	-8.97342
▁živi	-8.97353
ilo	-8.97446
▁njegovo	-8.9747
▁dobiva	-8.97473
god	-8.97721
▁ovo	-8.9786
▁19	-8.97985
▁sunca	-8.98092
1"	-8.98103
▁gor	-8.9811
ns	-8.98274
▁polja	-8.98402
3"	-8.98438
").	-8.9868
ev	-8.98832
ište	-8.98853
▁riječi	-8.98861
▁tijelo	-8.98919
form	-8.98944
▁prvog	-8.98945
▁ča	-8.99001
13	-8.99155
ber	-8.99188
8	-8.99214
▁kos	-8.9931
▁jeziku	-8.99312
bor	-8.99416
▁jo	-8.9945
icu	-8.99478
▁»	-8.99516
▁promet	-8.99575
vala	-8.99589
jan	-8.997
▁hrvatskih	-8.99757
▁n	-8.99777
▁fe	-8.99818
▁novo	-8.99847
▁nešto	-8.99964
▁iste	-9.00045
▁gra	-9.00241
▁krajem	-9.0026
▁jednog	-9.00361
stup	-9.00431
2"	-9.00459
▁njemu	-9.00463
▁vojske	-9.00558
sh	-9.00599
ovu	-9.00684
▁sastoji	-9.00699
nos	-9.00703
kt	-9.00756
▁3.	-9.00834
▁dom	-9.00972
▁pot	-9.00974
▁vjerojatno	-9.00997
▁potpuno	-9.01092
50	-9.01105
▁že	-9.0115
▁l	-9.01238
▁njima	-9.01245
10	-9.01262
▁kraju	-9.01373
▁bog	-9.01374
17	-9.01499
bar	-9.01533
▁skup	-9.01588
▁imena	-9.01874
▁rijeka	-9.01968
▁glazbe	-9.02048
7"	-9.02192
▁16.	-9.02207
aca	-9.02358
ron	-9.02821
jer	-9.02894
▁sustava	-9.02961
▁mnoge	-9.03157
▁carstva	-9.03202
isti	-9.03342
▁dvor	-9.03469
24	-9.03512
▁zemlja	-9.03528
rod	-9.03546
▁sud	-9.03651
▁popis	-9.03692
▁luka	-9.0376
▁projekt	-9.03895
▁druga	-9.03997
▁zato	-9.04019
▁šest	-9.0409
▁napada	-9.04102
▁ono	-9.04148
▁europi	-9.04276
▁hrvatsku	-9.04276
9"	-9.04278
▁gospodarstvo	-9.0437
▁godini	-9.04372
▁povezan	-9.04386
ita	-9.04496
▁izvor	-9.04508
▁stan	-9.04531
pis	-9.04545
rija	-9.04558
0.	-9.04563
▁cilj	-9.04589
▁cr	-9.04651
▁sila	-9.04668
▁održava	-9.04802
kri	-9.0494
▁dijelom	-9.0501
nskog	-9.05058
nska	-9.05211
»	-9.05407
▁=	-9.06093
▁tzv	-9.06237
ent	-9.06463
▁republika	-9.06533
▁an	-9.0655
▁0	-9.06558
per	-9.06662
▁strani	-9.06742
nov	-9.06883
▁ste	-9.06905
▁prijatelj	-9.0698
▁stari	-9.07007
pr	-9.07117
▁svojoj	-9.07127
▁vrsta	-9.07146
▁j	-9.07229
▁15.	-9.07323
▁postala	-9.07442
▁slav	-9.0752
ry	-9.07893
ona	-9.08301
6"	-9.08319
▁smrt	-9.08371
čni	-9.08461
▁30	-9.08607
let	-9.08706
san	-9.08717
▁savez	-9.08764
▁general	-9.08797
vjer	-9.08829
▁kultura	-9.08836
1.	-9.08902
▁model	-9.08998
▁one	-9.09015
▁zemljopis	-9.09082
▁svaki	-9.09114
▁nosi	-9.09416
▁jugoslavije	-9.09615
▁vo	-9.0967
▁obliku	-9.0989
dar	-9.09955
▁vrh	-9.09998
tak	-9.10004
19	-9.10064
đu	-9.10148
▁upravo	-9.10163
eg	-9.10164
▁nikad	-9.10214
▁svojih	-9.10286
▁joj	-9.10413
▁isp	-9.10439
▁imali	-9.10443
pla	-9.10758
der	-9.10797
▁razvija	-9.10819
▁svijet	-9.10883
et	-9.10969
▁100	-9.11032
4"	-9.11184
▁para	-9.11226
▁x	-9.11253
▁vid	-9.11305
(	-9.11389
▁ndh	-9.11406
▁pokret	-9.11532
39	-9.11543
wa	-9.11572
▁govor	-9.11598
▁jedini	-9.11613
zor	-9.11657
▁des	-9.11726
25	-9.11731
▁mijenja	-9.11804
▁širok	-9.11978
stru	-9.12573
▁ovog	-9.12574
▁ulogu	-9.12643
čko	-9.12756
▁17.	-9.12898
▁veljače	-9.12909
iziran	-9.12973
▁smješten	-9.12993
▁napisao	-9.13018
evi	-9.13032
40	-9.1314
kar	-9.13178
ir	-9.1326
▁mogao	-9.13421
pan	-9.13641
▁nekim	-9.13673
▁bra	-9.13716
ama	-9.13913
ut	-9.13925
▁ostali	-9.14032
▁dijela	-9.14037
▁međunarodn	-9.14098
čku	-9.1415
▁svjetski	-9.14157
bil	-9.14159
▁2001.	-9.14283
▁preda	-9.14404
60	-9.14563
▁red	-9.14608
▁ovom	-9.14695
sk	-9.14711
11	-9.14764
▁more	-9.1483
lat	-9.14932
gar	-9.1504
▁the	-9.15307
nac	-9.15388
▁velikog	-9.15469
▁ve	-9.15831
▁izvan	-9.15935
18	-9.16077
8"	-9.16173
▁autor	-9.1618
5"	-9.16189
ist	-9.16322
▁njemačke	-9.1642
▁jedinica	-9.16438
▁njegovu	-9.16441
up	-9.16669
▁top	-9.16718
▁knjiga	-9.16735
telj	-9.16764
▁vojska	-9.16785
nima	-9.168
irao	-9.16822
▁ze	-9.16853
mar	-9.16868
▁4.	-9.16881
▁filozof	-9.17027
lin	-9.1705
▁početku	-9.17054
▁kulture	-9.17266
lić	-9.17282
▁službeno	-9.17327
che	-9.17336
ste	-9.17447
▁poznati	-9.17617
▁sada	-9.17656
zo	-9.17674
▁izabran	-9.17803
▁r	-9.179
volj	-9.18173
▁ujedinjen	-9.18223
▁počeo	-9.18274
▁znanosti	-9.18401
nicu	-9.18591
eva	-9.18691
▁bijel	-9.18794
▁lov	-9.18927
ant	-9.18942
▁osobito	-9.18944
▁društva	-9.18974
0.000	-9.19035
▁obuhvaća	-9.1919
▁razdoblje	-9.19407
jom	-9.1942
▁današnje	-9.19475
▁dugo	-9.19592
▁kojim	-9.19614
90	-9.19648
ške	-9.1966
▁br	-9.19753
šće	-9.19852
▁površine	-9.19949
▁bel	-9.19974
nta	-9.20063
▁jugu	-9.20133
▁vlade	-9.20226
▁posljednji	-9.20277
ten	-9.20277
ot	-9.2031
land	-9.20346
▁and	-9.20412
▁duh	-9.20427
rom	-9.2053
▁čiji	-9.20662
▁planeta	-9.2078
nova	-9.20876
▁kut	-9.21055
▁nazvan	-9.21076
▁predsjednika	-9.21115
▁deset	-9.21325
▁europe	-9.21383
▁park	-9.21595
▁sjeveru	-9.21739
▁tekst	-9.21757
iran	-9.21787
▁mag	-9.21947
▁moguće	-9.2212
)"	-9.2232
▁her	-9.22357
▁pada	-9.22377
▁kla	-9.22389
▁1992.	-9.22486
▁organizira	-9.22575
ičar	-9.22618
▁ubrzo	-9.2271
▁energije	-9.22728
▁teško	-9.22854
▁sva	-9.22894
▁fran	-9.22913
5.	-9.22928
▁hu	-9.23092
▁uspjeh	-9.23158
▁kolo	-9.23338
▁srbi	-9.23449
šća	-9.23514
▁et	-9.23621
▁rob	-9.23863
▁man	-9.24024
dom	-9.24156
▁temperatura	-9.24175
lan	-9.24255
▁iznad	-9.24342
▁glas	-9.24383
▁13.	-9.24505
▁razdoblja	-9.24516
▁stra	-9.24547
▁14.	-9.24575
▁vrste	-9.24651
6.	-9.24679
▁studij	-9.24684
uz	-9.24729
▁2011.	-9.24752
▁hrvatsko	-9.24764
lar	-9.24828
ini	-9.24868
▁hercegovine	-9.24973
▁samostan	-9.25106
ren	-9.2512
rski	-9.25131
klo	-9.25144
pt	-9.25146
▁of	-9.25245
iv	-9.25271
ster	-9.25353
▁&	-9.2536
▁new	-9.25404
njima	-9.2541
8.	-9.25494
kav	-9.25497
▁krug	-9.25548
0"	-9.25571
▁društvo	-9.25662
ana	-9.25818
▁vojne	-9.25859
ment	-9.2588
▁album	-9.25899
▁slika	-9.26021
▁jedne	-9.26114
▁sastavu	-9.26127
▁zračn	-9.26136
▁rada	-9.26178
▁kuća	-9.26228
▁split	-9.26326
▁obzir	-9.26461
▁stoga	-9.266
▁njegovi	-9.26685
kon	-9.26725
sel	-9.26796
av	-9.268
▁naslov	-9.26863
▁pad	-9.26963
▁najčešće	-9.26997
▁polu	-9.27003
tre	-9.2713
▁muzej	-9.27189
▁materijal	-9.27422
nce	-9.27556
▁prosječn	-9.27568
▁nu	-9.27612
▁izraz	-9.27644
tr	-9.27736
26	-9.27897
▁djeluje	-9.2791
▁stil	-9.27917
čar	-9.27996
▁pak	-9.28
nk	-9.28104
▁školu	-9.28113
pol	-9.28113
▁«	-9.28132
80	-9.28141
rat	-9.28164
▁bosni	-9.28252
▁zemalja	-9.28349
▁njemački	-9.28416
▁1945.	-9.28468
▁200	-9.28553
▁josip	-9.28579
▁lik	-9.28591
▁1941.	-9.28706
pos	-9.28708
▁pun	-9.28734
iranje	-9.2875
sp	-9.28877
lice	-9.2897
izira	-9.29146
▁vjersk	-9.29153
što	-9.29159
▁imenom	-9.29387
▁bavi	-9.29446
▁brat	-9.29476
šu	-9.29637
▁kulturno	-9.29661
eve	-9.29691
vin	-9.29715
▁sjedište	-9.29749
▁kop	-9.29823
har	-9.29934
vni	-9.29939
▁list	-9.30069
vanju	-9.30078
▁bor	-9.30095
▁bri	-9.3012
▁živ	-9.30175
▁srba	-9.3021
4.	-9.3025
▁jest	-9.30273
▁srpske	-9.30383
ser	-9.30392
glas	-9.30395
▁gi	-9.30401
▁50	-9.30428
▁otac	-9.30453
▁pjesnik	-9.30505
ional	-9.30516
bran	-9.30566
vno	-9.30605
▁odnosi	-9.30663
ler	-9.30695
▁stranke	-9.30778
▁sile	-9.30814
▁či	-9.30821
ike	-9.30903
70	-9.30938
▁mit	-9.30983
▁status	-9.3099
29	-9.3102
▁biskup	-9.31088
ljen	-9.31107
stava	-9.31128
▁ostalih	-9.31138
▁razvijen	-9.31243
▁metara	-9.31306
▁sla	-9.31306
35	-9.31362
▁umjetnosti	-9.31444
▁plemena	-9.31498
▁kojom	-9.31527
kin	-9.31653
▁bal	-9.31677
▁jako	-9.31715
▁čovjek	-9.31828
9.	-9.31831
ljub	-9.31858
▁polje	-9.31946
▁dub	-9.32023
▁vol	-9.32066
▁francuske	-9.32213
građ	-9.32348
▁el	-9.32361
▁čitav	-9.3239
▁satelit	-9.3239
▁jednu	-9.32449
▁2005.	-9.32502
▁velik	-9.32553
▁duž	-9.32565
▁predmet	-9.32701
°	-9.3273
▁godinu	-9.32731
ld	-9.32808
ijski	-9.32828
vica	-9.32894
37	-9.3299
un	-9.33109
sad	-9.33113
▁ši	-9.33134
47	-9.33161
▁uključujući	-9.33339
▁en	-9.33349
ner	-9.33387
▁vidi	-9.33397
▁različit	-9.33545
▁crkvi	-9.3358
]]	-9.3358
00	-9.33597
▁županije	-9.33619
á	-9.33626
▁odmah	-9.33665
dio	-9.33729
▁pokreta	-9.33755
▁pored	-9.33994
▁objavljen	-9.34252
oko	-9.34256
▁°	-9.3426
ps	-9.34269
28	-9.34404
▁promjene	-9.34452
▁grob	-9.34472
▁životopis	-9.34579
▁jezera	-9.34766
▁vojnika	-9.34908
▁7.	-9.34922
▁kilometara	-9.35046
32	-9.35051
▁cijel	-9.3512
▁5.	-9.35159
kret	-9.35176
▁stvara	-9.35222
38	-9.35393
▁širi	-9.35456
dor	-9.35457
▁osam	-9.35467
šao	-9.35473
išta	-9.35592
▁otoku	-9.35714
so	-9.35821
▁viš	-9.35823
▁pop	-9.35845
▁žena	-9.3603
▁drugom	-9.36031
▁književnosti	-9.36086
▁veliku	-9.36089
_	-9.36102
27	-9.36117
▁pisan	-9.36136
ića	-9.36148
▁6.	-9.36231
▁francuski	-9.3625
▁treći	-9.36276
vla	-9.36374
99	-9.36393
▁novog	-9.36433
pad	-9.36459
zer	-9.3646
▁oba	-9.36555
ovac	-9.36637
▁događaj	-9.36671
▁niti	-9.3676
▁brzo	-9.36866
▁profesor	-9.36873
▁vukovar	-9.36875
▁motor	-9.36943
▁mjesec	-9.36972
▁stup	-9.37002
▁budući	-9.37013
21	-9.37089
ista	-9.37092
▁svjetsk	-9.37127
▁velikim	-9.37157
▁har	-9.3722
▁mjeseca	-9.37272
▁čemu	-9.37279
▁eu	-9.37295
min	-9.37443
▁mis	-9.37463
▁ukupno	-9.37468
▁manji	-9.37629
▁sveti	-9.37652
▁razliku	-9.37653
▁fra	-9.37793
▁borbe	-9.37974
lija	-9.37995
čkom	-9.38026
▁istoku	-9.38031
▁san	-9.38036
▁[[	-9.38041
▁zvijezda	-9.38046
▁prostoru	-9.38091
▁ugovor	-9.38118
▁različitih	-9.38121
34	-9.38166
▁promjena	-9.38302
▁2004.	-9.38346
▁ču	-9.38556
▁tisuća	-9.38563
▁proglašen	-9.38563
▁djece	-9.38564
▁gradi	-9.38679
▁klasičn	-9.3869
vez	-9.38764
▁vla	-9.38768
▁sjever	-9.3886
aciju	-9.38927
▁grupe	-9.38959
▁sina	-9.3896
šću	-9.38976
tica	-9.39013
▁velikih	-9.39053
▁nepo	-9.39071
▁“	-9.39102
▁skupina	-9.39139
▁blizini	-9.39221
▁tvrd	-9.39258
les	-9.39262
▁topli	-9.39267
nić	-9.39267
▁metal	-9.39314
▁početka	-9.39489
▁došlo	-9.39491
tion	-9.39515
▁većinom	-9.39543
▁stroj	-9.39571
▁(1	-9.39708
▁11.	-9.39801
36	-9.39806
ras	-9.39811
lozi	-9.39928
▁službeni	-9.39942
▁sela	-9.40066
▁sukob	-9.40138
▁broja	-9.40142
▁svjetlosti	-9.40202
▁ge	-9.40215
vac	-9.40239
stu	-9.4028
vis	-9.40327
lici	-9.40362
lik	-9.40387
▁sp	-9.40403
lov	-9.40443
pres	-9.40447
▁zapadu	-9.40459
gr	-9.40498
▁suvremen	-9.40523
▁knez	-9.40565
bje	-9.40906
22	-9.40951
▁jak	-9.40966
▁john	-9.40971
▁unatoč	-9.41087
▁sljedeće	-9.41087
ph	-9.41102
▁problem	-9.41116
▁umro	-9.41162
▁del	-9.41238
▁mali	-9.41277
▁ustav	-9.41518
▁granice	-9.41544
rd	-9.41626
▁zraka	-9.41744
▁prilikom	-9.41763
▁najveće	-9.41768
star	-9.41807
res	-9.41839
rje	-9.41998
▁sedam	-9.42013
ret	-9.42176
icom	-9.42181
▁ber	-9.42201
veli	-9.42216
tić	-9.42362
▁stjepan	-9.42439
▁ured	-9.42756
▁vrijednosti	-9.42777
▁označava	-9.42851
▁mjeseci	-9.42987
▁masa	-9.43055
▁carstvo	-9.43079
▁teritorij	-9.43083
▁prvom	-9.43152
▁samostaln	-9.43169
31	-9.43238
▁pjesme	-9.43262
7.	-9.43266
▁ver	-9.43357
▁trgovačk	-9.43366
▁ži	-9.4337
▁znatno	-9.4337
▁koriste	-9.43485
▁održan	-9.4354
▁zid	-9.43582
▁dokument	-9.4367
▁ispod	-9.43725
▁npr	-9.43779
▁bit	-9.43798
din	-9.43834
put	-9.43853
▁2006.	-9.43858
▁bur	-9.43971
▁pokušaj	-9.44028
▁zrakoplov	-9.44217
▁vod	-9.44273
▁9.	-9.4436
▁sil	-9.44374
▁najveća	-9.44375
▁sat	-9.44467
▁1990.	-9.44508
lika	-9.44518
▁10.	-9.4452
bl	-9.44673
▁van	-9.44743
▁žene	-9.44823
▁sati	-9.44845
▁mal	-9.44916
▁posljednje	-9.44928
▁svetog	-9.45152
▁ana	-9.45168
ćen	-9.45207
▁sloj	-9.45316
the	-9.45321
▁gen	-9.4533
▁drugo	-9.45452
▁zapravo	-9.45475
godišnj	-9.45495
▁granica	-9.45495
▁spomenik	-9.45501
98	-9.45507
čin	-9.45598
▁40	-9.45653
▁zajednica	-9.45769
▁dug	-9.45771
▁inter	-9.45783
▁brojne	-9.45784
▁obitelj	-9.45802
▁obali	-9.45881
67	-9.459
ger	-9.45976
▁sklad	-9.45991
41	-9.46065
▁rast	-9.4622
ljev	-9.46261
▁ostao	-9.4637
▁prizna	-9.4641
▁sr	-9.46419
▁dijeli	-9.46484
ile	-9.46568
žan	-9.46579
▁elektro	-9.46602
▁kore	-9.46643
▁pravi	-9.46767
▁politički	-9.46783
▁misli	-9.46793
han	-9.46802
kle	-9.46877
▁traži	-9.46971
▁srednjovjekovn	-9.46987
dije	-9.46993
▁mase	-9.4704
igra	-9.47059
ida	-9.47097
95	-9.47104
▁izbor	-9.47156
▁hidro	-9.47159
▁odnosu	-9.47165
mp	-9.47172
gre	-9.47196
vit	-9.47209
▁svega	-9.47404
▁ke	-9.47423
▁rim	-9.47425
▁gleda	-9.47499
▁1995.	-9.47618
▁mat	-9.47626
▁pojas	-9.47637
▁županiji	-9.4765
▁york	-9.47761
bije	-9.47996
iš	-9.48015
а	-9.48044
▁grupa	-9.48051
▁istraživanja	-9.48056
▁vezan	-9.48141
▁obje	-9.48164
bol	-9.48177
▁studenog	-9.48192
▁ovdje	-9.48193
▁udar	-9.48301
rac	-9.48338
▁go	-9.48438
92	-9.48446
▁dovel	-9.48446
ö	-9.48482
▁12.	-9.48541
▁obrazovanje	-9.48557
▁poznata	-9.48568
▁ša	-9.48573
▁neka	-9.48839
ndi	-9.48895
86	-9.48912
nović	-9.49022
▁formula	-9.49058
elektr	-9.49195
▁opis	-9.49312
▁pan	-9.49321
▁ben	-9.49411
nama	-9.49454
▁otpor	-9.49483
▁osnovan	-9.49491
era	-9.49575
30	-9.4969
vlja	-9.49776
živ	-9.49936
▁drugoj	-9.49995
71	-9.50077
▁itd	-9.50104
▁8.	-9.50111
▁puno	-9.50133
89	-9.50211
▁180	-9.50212
▁veće	-9.50229
▁jedinstven	-9.50235
65	-9.50306
="22	-9.50335
▁područjima	-9.50383
▁časopis	-9.50383
jo	-9.50413
▁šport	-9.5043
bit	-9.50501
kova	-9.50521
cem	-9.50537
▁period	-9.50582
▁završio	-9.5059
dru	-9.50591
▁žu	-9.50621
▁podataka	-9.50707
kor	-9.50712
pisa	-9.50729
76	-9.50758
▁dobila	-9.50831
▁centar	-9.50837
▁bolesti	-9.50866
▁bl	-9.5091
▁zemlju	-9.50975
cent	-9.50975
▁ostale	-9.50981
▁vladavine	-9.5099
slobod	-9.51017
45	-9.51055
▁zapovjednik	-9.51059
▁čita	-9.51072
▁sunčev	-9.51125
rana	-9.51132
ul	-9.51153
▁mnogim	-9.51228
▁voda	-9.51236
▁zrak	-9.5124
▁simbol	-9.51255
▁ž	-9.51366
▁objavio	-9.51435
62	-9.51523
87	-9.51524
▁svake	-9.51684
▁vraća	-9.51722
▁skupine	-9.51766
66	-9.51826
▁relativno	-9.51865
kul	-9.51894
▁kraljevsk	-9.51895
stri	-9.51915
mat	-9.51926
veo	-9.52029
štu	-9.5203
uju	-9.52152
▁demokratsk	-9.52186
▁željezničk	-9.52277
▁žive	-9.52293
▁moć	-9.52293
="18	-9.52335
q	-9.52365
vid	-9.52394
▁oblika	-9.52401
ključ	-9.52448
ü	-9.52471
▁otvoren	-9.5252
▁državi	-9.52622
gon	-9.5264
▁slab	-9.52686
▁odgovor	-9.52699
▁gradova	-9.52757
▁možda	-9.52773
▁dobi	-9.52785
mb	-9.52832
▁astronom	-9.52839
▁većinu	-9.52875
▁teži	-9.52918
tka	-9.52991
rati	-9.52992
▁papa	-9.53042
▁slično	-9.53053
▁srpski	-9.53061
▁1993.	-9.53076
▁prem	-9.5309
72	-9.53193
▁slikar	-9.53199
▁austro	-9.53201
93	-9.53269
▁srbije	-9.5341
▁let	-9.53424
▁smjer	-9.53583
▁otkriven	-9.53684
▁pol	-9.53702
▁bla	-9.53753
о	-9.53834
="21	-9.53842
▁čime	-9.5385
vor	-9.53948
jed	-9.53979
63	-9.54045
que	-9.54073
▁njegovim	-9.54108
▁plin	-9.54181
vne	-9.54262
▁učitelj	-9.5431
74	-9.54372
lon	-9.54438
59	-9.54446
▁uspio	-9.54487
▁zločin	-9.54632
▁kal	-9.54636
▁upravlja	-9.54724
▁pres	-9.54765
▁rimskog	-9.54792
▁pret	-9.54906
ris	-9.54912
jski	-9.54962
88	-9.55123
ško	-9.55141
▁čije	-9.5522
dina	-9.55335
▁sir	-9.55373
68	-9.55379
▁župa	-9.5544
kop	-9.55456
▁oružan	-9.55532
jeva	-9.55604
▁čist	-9.55722
jet	-9.55785
▁pl	-9.55796
▁mala	-9.5599
▁sovjetsk	-9.5599
▁sadrži	-9.56001
▁prikaz	-9.5602
▁članovi	-9.56121
▁kojemu	-9.56204
▁jednak	-9.5621
kan	-9.56212
ff	-9.56265
64	-9.56289
▁zajednice	-9.56312
tz	-9.56354
91	-9.56354
vna	-9.56363
▁čuva	-9.56406
78	-9.56432
▁piše	-9.56438
rov	-9.56445
▁staro	-9.5645
▁prirodni	-9.56456
▁proizvodi	-9.56465
▁kratko	-9.56482
▁prsten	-9.56554
▁sabor	-9.566
▁parlament	-9.56618
▁udaljenosti	-9.56756
nio	-9.56758
▁tvari	-9.56774
▁bre	-9.5681
▁polju	-9.56898
▁kuće	-9.56923
▁posebn	-9.56947
pin	-9.57003
▁izgrađen	-9.57008
tko	-9.571
▁brzina	-9.57117
▁prvu	-9.57226
▁osniva	-9.5724
▁prvih	-9.57242
▁sporazum	-9.57331
▁vrati	-9.57367
▁južni	-9.57433
▁eks	-9.57514
▁članova	-9.57551
itet	-9.57675
▁jna	-9.57712
nda	-9.5773
▁uvjet	-9.57731
vić	-9.57736
▁ukupn	-9.57742
tt	-9.57786
▁most	-9.57803
▁tamo	-9.5781
kal	-9.57873
▁ante	-9.57883
▁površina	-9.5789
73	-9.57891
▁slučaj	-9.57896
rske	-9.57903
▁2000.	-9.57923
pušten	-9.57948
gled	-9.5802
▁hercegovini	-9.58049
jak	-9.5809
▁poznato	-9.58101
▁njihove	-9.58202
▁vidljiv	-9.58235
▁sebe	-9.58316
pravi	-9.58322
▁ravni	-9.58343
val	-9.58368
▁osobe	-9.58372
▁glavna	-9.58372
▁nov	-9.58387
▁maj	-9.58455
▁lan	-9.58491
51	-9.58589
▁jedino	-9.58616
vanjem	-9.58685
▁rub	-9.58709
▁stanje	-9.58724
▁gospodarski	-9.5876
▁posljedica	-9.58849
for	-9.58884
▁onda	-9.58945
▁bori	-9.59042
▁državni	-9.59162
kao	-9.59235
85	-9.59245
kli	-9.59302
▁25	-9.59319
ya	-9.59324
▁ratova	-9.59325
▁čij	-9.5954
▁planina	-9.59593
▁tip	-9.59638
▁2007.	-9.59722
com	-9.59757
▁značaj	-9.5977
▁promatra	-9.59771
83	-9.59829
▁godišnje	-9.59838
▁izborima	-9.59857
▁vojno	-9.59956
]	-9.59966
▁razum	-9.59972
▁ponekad	-9.59981
▁proučava	-9.60064
▁tor	-9.60132
81	-9.60147
▁mor	-9.60201
▁zatvor	-9.60213
tika	-9.60228
94	-9.60299
dal	-9.60319
▁osnovana	-9.60336
84	-9.60351
njom	-9.60355
ok	-9.60381
vlada	-9.60393
▁daje	-9.60412
▁opet	-9.60467
prije	-9.60484
▁ak	-9.60581
kup	-9.60586
79	-9.60606
▁obale	-9.6069
▁franc	-9.60695
▁+	-9.60718
▁političke	-9.60796
▁književni	-9.60822
mina	-9.60823
▁bira	-9.60912
rap	-9.60949
▁umjesto	-9.6096
▁ujedno	-9.61009
▁brojni	-9.61074
burg	-9.6108
▁ep	-9.61095
▁ivana	-9.61109
▁šuma	-9.6111
don	-9.61111
dre	-9.61142
graf	-9.61192
▁knjige	-9.61288
ram	-9.61299
rk	-9.61348
ec	-9.61386
▁nebesk	-9.61425
▁slučaju	-9.61434
▁standard	-9.61457
rač	-9.61462
▁neprijatelj	-9.61465
rt	-9.61488
sen	-9.61571
▁dvo	-9.61606
▁mogli	-9.61642
cr	-9.61701
▁ponovo	-9.61772
▁nastaje	-9.61806
▁prolazi	-9.61846
▁vin	-9.61884
▁post	-9.619
zije	-9.61911
lica	-9.6197
▁prijelaz	-9.61983
▁še	-9.62063
đ	-9.62108
lek	-9.62149
▁hrvatskoga	-9.62226
75	-9.62262
▁disk	-9.62278
▁teritorija	-9.62324
▁star	-9.62342
▁djelovanje	-9.62364
iranja	-9.62421
▁zove	-9.625
▁ok	-9.62514
▁visoko	-9.62524
▁različite	-9.62546
rsk	-9.62579
▁europske	-9.62614
▁selo	-9.62672
gan	-9.62734
▁udaljen	-9.62783
▁srednje	-9.62798
▁slijedi	-9.62816
▁pristup	-9.62842
!	-9.62893
ion	-9.62904
noga	-9.62911
▁naveden	-9.62946
▁zahtjev	-9.62948
▁znak	-9.63051
pet	-9.63075
▁klima	-9.63159
nut	-9.63162
▁80	-9.63167
vima	-9.6321
pot	-9.63232
46	-9.63289
▁male	-9.63364
▁pis	-9.63391
▁toliko	-9.63464
set	-9.63466
54	-9.6348
dija	-9.63524
jača	-9.63531
▁mjeri	-9.63628
vaju	-9.63639
▁2003.	-9.63699
▁doda	-9.637
nata	-9.6373
▁kl	-9.6397
mon	-9.6408
52	-9.64089
▁njoj	-9.6413
▁nastala	-9.64159
▁američki	-9.64181
▁zemljama	-9.64194
niju	-9.64246
▁mr	-9.64294
▁ograničen	-9.64296
▁velikom	-9.64347
▁grb	-9.64364
▁iii	-9.64419
ješ	-9.64423
▁zahvaljujući	-9.64466
▁vijeće	-9.64467
▁pjeva	-9.64469
▁protu	-9.64491
ljan	-9.64504
bin	-9.64547
nka	-9.64652
jskog	-9.64678
▁pisac	-9.64683
inom	-9.64684
▁div	-9.64695
▁veza	-9.64695
▁socijaln	-9.64701
▁logor	-9.64769
▁gospodar	-9.64814
▁vuk	-9.64815
%	-9.64823
▁sjeverne	-9.64831
▁teorija	-9.64984
nsko	-9.65013
▁daleko	-9.65061
▁ranije	-9.65118
njak	-9.65138
▁petra	-9.65225
▁ostvari	-9.6523
▁došao	-9.65237
ban	-9.65244
nat	-9.65369
▁osigura	-9.65388
▁dija	-9.65395
▁dakle	-9.65471
▁1918.	-9.65491
▁zgrada	-9.65496
ora	-9.65599
▁con	-9.65633
▁ce	-9.65636
▁pruža	-9.65665
▁fre	-9.65692
▁ostala	-9.6585
▁nekih	-9.65858
▁reg	-9.65862
▁cijeli	-9.65873
▁interes	-9.65891
▁donji	-9.65936
▁ubijen	-9.65947
vale	-9.65985
53	-9.66009
▁sačuvan	-9.66021
▁računa	-9.66097
▁smo	-9.66102
77	-9.6611
▁govore	-9.66114
▁susjedn	-9.66163
▁temperature	-9.6618
▁stru	-9.66237
▁osmansk	-9.66245
škog	-9.66258
▁zauzima	-9.66322
▁ulaz	-9.6633
▁bud	-9.66394
vat	-9.66436
42	-9.66447
48	-9.6649
▁kriv	-9.66523
и	-9.66526
▁njemačka	-9.66526
▁sadržaj	-9.66526
▁nastupa	-9.66582
▁kraljev	-9.66597
šla	-9.66693
▁60	-9.66708
▁(200	-9.66829
▁ch	-9.66889
▁gubi	-9.66943
▁500	-9.66999
▁čelu	-9.67029
mena	-9.67045
▁masovn	-9.67049
▁franjo	-9.67067
pit	-9.67074
kad	-9.67134
▁objekt	-9.67172
lima	-9.67264
▁talijanski	-9.67406
▁konačno	-9.67446
▁str	-9.67462
tek	-9.67491
▁mol	-9.67503
▁voj	-9.67526
▁mon	-9.67541
▁prati	-9.67544
▁pošto	-9.6756
▁kan	-9.67575
–	-9.67706
▁industrijsk	-9.67714
▁osnovna	-9.67748
▁početak	-9.67754
ično	-9.67783
valo	-9.6785
ley	-9.67857
izacije	-9.67879
slu	-9.67896
▁poljoprivredn	-9.67923
▁glagol	-9.6797
ty	-9.6807
mun	-9.68089
▁petar	-9.68094
▁vijeća	-9.68101
▁tlak	-9.68174
▁premijer	-9.68278
▁nacionalni	-9.68292
▁primi	-9.68331
58	-9.68437
▁1943.	-9.68453
▁njemačkoj	-9.68504
▁stav	-9.68516
▁putem	-9.68529
▁počela	-9.68645
▁toj	-9.68731
▁kap	-9.68832
▁veoma	-9.6884
▁2008.	-9.68913
56	-9.68925
bili	-9.68938
82	-9.68999
▁mađar	-9.69029
▁vladar	-9.69055
▁21.	-9.69148
▁postavljen	-9.69156
šti	-9.69166
▁životu	-9.69199
oz	-9.69209
mis	-9.69269
▁kali	-9.69358
drž	-9.69378
nskom	-9.69428
▁gibanja	-9.69492
▁ostalim	-9.69493
▁min	-9.69538
▁novih	-9.6957
▁pojava	-9.69577
▁trans	-9.69623
▁japan	-9.69623
ori	-9.69712
▁hrvatskim	-9.69712
▁obrane	-9.69713
iza	-9.69795
▁dijelovi	-9.6983
▁gol	-9.69843
▁pitanje	-9.69868
▁stalno	-9.69876
nuti	-9.69932
▁čovjeka	-9.70063
govor	-9.70065
▁svojom	-9.7008
dž	-9.7022
▁snima	-9.70253
▁martin	-9.70304
49	-9.70408
▁njegovog	-9.70509
rić	-9.70572
▁zvijezde	-9.70602
57	-9.70687
▁organ	-9.70865
iraju	-9.70963
▁rijeci	-9.70965
logija	-9.71003
▁dovoljno	-9.71025
);	-9.71042
▁(2	-9.71097
▁opće	-9.71098
▁plo	-9.71135
▁grčki	-9.71165
▁sunce	-9.71165
▁temelji	-9.71209
▁kara	-9.71213
▁svoga	-9.71222
▁prolaz	-9.71351
▁1944.	-9.71506
▁vojsku	-9.71553
▁šire	-9.71618
▁saveza	-9.71675
▁automobil	-9.71687
▁osvaja	-9.71759
▁spomen	-9.71766
▁zaljev	-9.71784
vija	-9.71785
▁luk	-9.71818
sin	-9.71819
▁jezičn	-9.71852
čkoj	-9.71874
▁olimpijsk	-9.71924
▁jugoslavensk	-9.71947
telja	-9.7195
▁sl	-9.72008
jen	-9.72165
oni	-9.72166
čani	-9.7228
ljena	-9.72333
▁navodi	-9.72358
▁jan	-9.72411
pred	-9.7243
ovog	-9.72464
▁stol	-9.72545
▁postav	-9.72558
5%	-9.72592
▁zagreba	-9.72601
▁osvojio	-9.72629
▁prostora	-9.72642
▁sjeverni	-9.72745
▁slaven	-9.72747
kategorija	-9.72974
▁pje	-9.73103
▁čvrst	-9.7316
▁150	-9.73196
▁planet	-9.73279
▁spor	-9.73318
▁smislu	-9.73345
▁fizičk	-9.73348
▁kas	-9.73353
osta	-9.73387
▁mogla	-9.73397
▁poli	-9.73505
▁vrata	-9.73509
▁engleski	-9.73531
▁francuskoj	-9.73531
metri	-9.73572
▁pisao	-9.73576
▁poraz	-9.73622
ovom	-9.73625
▁ljubav	-9.73642
ljiva	-9.73669
▁šum	-9.73674
▁varaždin	-9.73717
▁priča	-9.7374
▁nazivom	-9.7375
▁veliko	-9.73756
bila	-9.73801
▁vis	-9.73821
ići	-9.73844
▁zvan	-9.7394
▁sav	-9.73944
▁gore	-9.73947
▁prima	-9.7399
loški	-9.74008
tski	-9.74064
▁25.	-9.74068
▁element	-9.74092
▁italiji	-9.74093
▁nikola	-9.74117
▁filip	-9.7412
ktor	-9.74187
▁posve	-9.74197
▁kotar	-9.74262
▁započeo	-9.74278
▁morsk	-9.74303
▁ustašk	-9.7431
▁nor	-9.74312
▁motiv	-9.74324
bija	-9.74334
nes	-9.74436
top	-9.74452
▁industrija	-9.74453
е	-9.74465
▁apsolut	-9.74465
▁vratio	-9.74469
▁zatvoren	-9.74622
olu	-9.74654
▁wi	-9.74706
nskih	-9.74767
▁stranka	-9.74816
▁naime	-9.7502
α	-9.7503
▁stoljeće	-9.7503
р	-9.75031
0%	-9.75046
▁strana	-9.75062
▁zapadni	-9.75075
▁najvećih	-9.75098
eng	-9.75108
▁jedinice	-9.75154
▁egipat	-9.75219
ksa	-9.75287
▁istočno	-9.75315
▁djelu	-9.7533
▁tre	-9.75401
▁donosi	-9.75434
▁zbor	-9.7551
▁pokušava	-9.75541
▁antičk	-9.75559
▁najbolji	-9.7556
▁studenoga	-9.756
▁prvoj	-9.75611
▁nastavlja	-9.75667
čev	-9.75723
▁tvrdi	-9.75763
▁korišten	-9.7577
▁fu	-9.75775
▁nekog	-9.75817
▁y	-9.7585
▁kemijsk	-9.75917
▁prirode	-9.75982
ly	-9.75999
▁drven	-9.76019
nzi	-9.76023
▁ovisi	-9.7615
▁mogućnost	-9.76166
▁razvoja	-9.76241
▁kojega	-9.76323
gri	-9.76329
ovim	-9.76342
ore	-9.76352
▁ovih	-9.76429
▁željezn	-9.7644
▁odnos	-9.76446
▁uništen	-9.76564
fu	-9.7657
irani	-9.76581
stavljen	-9.76613
▁2002.	-9.76648
▁visok	-9.76677
ava	-9.76702
▁služi	-9.76707
▁reljef	-9.76746
▁organizacija	-9.76749
▁kaže	-9.76876
▁mod	-9.76883
chi	-9.76892
▁elemenata	-9.76937
▁vojni	-9.76938
▁složen	-9.7694
▁uprava	-9.76941
▁četvrt	-9.76948
▁mnogih	-9.77026
▁uzor	-9.77096
▁sjedi	-9.77146
▁odlazi	-9.77148
ičke	-9.77154
▁slova	-9.77234
▁sol	-9.77301
▁najviši	-9.77323
▁stanovnici	-9.77323
ovih	-9.7739
▁cara	-9.77414
▁sjeverno	-9.77438
▁boja	-9.77501
▁traje	-9.77514
▁kome	-9.7757
▁ocean	-9.77587
len	-9.77604
▁moru	-9.7766
▁smatraju	-9.77673
▁vijetnam	-9.7771
200	-9.77741
▁sredinom	-9.77748
rstvo	-9.77806
▁utjecajem	-9.77854
▁povjesničar	-9.77891
▁rimsko	-9.77891
▁super	-9.78033
nicima	-9.78134
▁odgovara	-9.78136
▁dž	-9.78163
ziv	-9.78174
▁opera	-9.78221
▁brak	-9.78256
▁običaj	-9.78294
▁politika	-9.78304
sar	-9.78323
▁kanal	-9.7833
▁krista	-9.78399
▁mars	-9.78429
▁kole	-9.78492
naca	-9.78554
▁herceg	-9.786
▁glavnog	-9.78683
▁novu	-9.78738
▁rekao	-9.78781
▁ovim	-9.78812
▁vjero	-9.78886
▁istočne	-9.78891
▁antun	-9.78891
▁grana	-9.79006
▁vrijednost	-9.79017
▁ples	-9.79033
▁luke	-9.79172
bal	-9.79226
▁lako	-9.79238
▁ostaje	-9.79287
▁brzine	-9.79294
▁majka	-9.79312
▁spa	-9.79342
▁[	-9.79413
lac	-9.79415
▁formira	-9.79447
▁dogodi	-9.79553
▁podijeljen	-9.79588
▁gradovima	-9.79609
▁spas	-9.79621
▁italije	-9.79681
ral	-9.79682
▁struja	-9.7969
▁gornje	-9.79722
nar	-9.79795
▁turci	-9.798
▁povijesno	-9.79867
▁dao	-9.80038
▁potrebno	-9.80065
▁odvija	-9.80121
▁aktivnosti	-9.80182
▁sssr	-9.80264
▁pripadnici	-9.80464
▁obavlja	-9.80476
ička	-9.80515
vrat	-9.806
▁stanju	-9.80609
▁osobn	-9.80611
vede	-9.80659
▁nuklearn	-9.80663
▁problema	-9.80669
krat	-9.8067
▁sport	-9.80676
▁učini	-9.80727
npr	-9.80763
▁dosta	-9.80807
▁provodi	-9.80881
▁nastup	-9.80968
▁izdan	-9.80968
▁perzijsk	-9.80986
▁nastao	-9.80988
▁zvuk	-9.81045
▁geo	-9.81055
tov	-9.81068
▁spaja	-9.8107
slov	-9.81091
pod	-9.81176
▁stare	-9.81201
novi	-9.81218
sno	-9.81275
▁kraljevine	-9.81299
▁međunarodni	-9.81305
▁možemo	-9.81434
▁gradovi	-9.81469
▁isključivo	-9.81474
▁broju	-9.81527
▁24	-9.81547
▁ideja	-9.81565
▁čestica	-9.81578
▁čin	-9.81623
tora	-9.81632
▁atomsk	-9.81655
▁uređen	-9.81678
▁gre	-9.81755
rtv	-9.81767
▁srpsko	-9.81854
▁sveučilišta	-9.81869
▁giba	-9.81915
▁gornji	-9.81933
▁milan	-9.81934
▁bivše	-9.81937
▁jupiter	-9.82017
▁smanji	-9.82084
▁pala	-9.82157
▁pola	-9.82212
kama	-9.82284
▁južno	-9.82313
▁dis	-9.82373
▁slobodno	-9.82382
skoga	-9.82392
▁potječe	-9.82416
▁imati	-9.82426
▁boga	-9.82438
▁22.	-9.82459
aktiv	-9.82459
▁zakona	-9.82462
▁dalmacije	-9.82477
▁ostatak	-9.82478
▁velikoj	-9.82514
▁smjeru	-9.8252
uze	-9.82617
="10	-9.82631
▁pismo	-9.82647
med	-9.8265
▁nazivaju	-9.827
▁prijevod	-9.82704
zem	-9.82751
lit	-9.82774
▁med	-9.82808
ndo	-9.82841
des	-9.82843
čkih	-9.82845
izmu	-9.82853
σ	-9.82882
biti	-9.82891
nsku	-9.82941
▁novom	-9.82947
▁najpoznatiji	-9.82962
▁epi	-9.82976
44	-9.83003
▁stvari	-9.83029
ä	-9.8309
▁promijeni	-9.8309
▁pariz	-9.83161
▁struje	-9.83196
▁potpun	-9.83244
▁četvrti	-9.83283
▁pojavljuje	-9.83295
ljenje	-9.83322
ziju	-9.83377
ologije	-9.83461
▁oslobođen	-9.83525
ft	-9.83535
▁regija	-9.83608
▁kat	-9.83616
▁23.	-9.83676
▁crkvu	-9.83706
▁vođa	-9.83746
▁javlja	-9.83803
▁očuvan	-9.83851
str	-9.83896
tječe	-9.83916
▁boji	-9.83919
▁službe	-9.83937
▁svaka	-9.84021
▁ek	-9.84071
▁francuska	-9.8412
▁medij	-9.84136
▁mikro	-9.84185
▁državama	-9.84305
▁dijelova	-9.84326
sch	-9.84377
▁nagradu	-9.84384
hrvatski	-9.84403
▁sljedeći	-9.84409
jske	-9.84439
▁boje	-9.84455
▁magnetsk	-9.84474
▁teleskop	-9.84533
▁pale	-9.84556
▁takvo	-9.84578
▁sjaj	-9.84584
▁filmsk	-9.84632
tno	-9.8467
▁plat	-9.84734
▁1994.	-9.84742
prem	-9.84807
▁borbi	-9.84816
▁završava	-9.84949
tin	-9.85021
▁važno	-9.85024
▁stvar	-9.85038
▁poveća	-9.85051
▁skr	-9.85054
55	-9.85058
▁instrument	-9.85059
▁točno	-9.8506
▁uspostav	-9.85072
▁jednim	-9.85074
▁rib	-9.8512
▁mjesn	-9.85163
▁robert	-9.85174
nde	-9.85184
šev	-9.85194
▁oca	-9.85201
▁spomenici	-9.85208
▁moguć	-9.85214
▁putu	-9.85261
ički	-9.85277
rica	-9.85341
▁1998.	-9.85368
▁stvoren	-9.85378
▁izvoz	-9.85383
gran	-9.8549
▁1999.	-9.85578
▁različitim	-9.85585
▁središta	-9.8559
▁rimski	-9.85643
fin	-9.85648
▁svjetskom	-9.85719
▁jur	-9.85751
lno	-9.8577
í	-9.85786
▁kluba	-9.8583
vom	-9.85851
▁bitka	-9.8586
con	-9.8599
▁prelazi	-9.86
▁dijelovima	-9.86053
▁pojam	-9.8609
▁jasno	-9.86107
▁vrt	-9.86119
▁javn	-9.86152
wi	-9.8619
▁središtu	-9.86212
▁pojave	-9.86216
▁jednako	-9.86279
nijih	-9.86295
▁primjerice	-9.86327
▁točka	-9.86409
▁teorije	-9.86435
▁podjela	-9.86465
▁ostaci	-9.86468
and	-9.86524
▁barok	-9.86524
▁razlog	-9.86623
▁visine	-9.86665
škom	-9.86684
tori	-9.86686
sil	-9.86707
▁sustavu	-9.86756
▁smještena	-9.86881
▁županija	-9.86899
tih	-9.86929
▁dnevn	-9.86971
▁razloga	-9.86994
bina	-9.87007
▁vremenom	-9.87057
pust	-9.87161
▁jug	-9.87163
▁von	-9.8719
lna	-9.87198
▁otkrio	-9.8727
▁međusobno	-9.87291
čkim	-9.87341
▁kalendaru	-9.8739
▁južne	-9.87484
rez	-9.87526
▁devet	-9.87561
đuje	-9.87578
▁moći	-9.87604
her	-9.87668
▁školsk	-9.87741
▁izvori	-9.87758
cha	-9.8777
▁količina	-9.87912
▁rumunj	-9.87915
▁glazba	-9.87917
▁islam	-9.87938
jima	-9.87954
▁uzrok	-9.88019
▁70	-9.88083
▁stvaranje	-9.8809
rij	-9.88091
istički	-9.88106
▁zabilježen	-9.88127
▁1942.	-9.88128
▁blizu	-9.88128
isto	-9.88172
sud	-9.88183
vine	-9.88272
▁iv	-9.88286
▁baš	-9.88345
▁raznih	-9.88352
=23	-9.88383
▁slike	-9.88398
▁sukoba	-9.88443
▁najbolje	-9.88476
vesti	-9.88506
▁današnji	-9.88617
▁jednoj	-9.88658
vara	-9.88696
▁2010.	-9.88777
▁koliko	-9.88778
▁filma	-9.88778
▁energija	-9.88806
▁vil	-9.88884
ljeni	-9.88897
▁rasp	-9.8891
▁osnovao	-9.88922
▁općini	-9.88967
▁predstavnik	-9.8897
▁pjesma	-9.88997
▁nacionalno	-9.89067
▁djelovanja	-9.89088
▁teren	-9.89139
▁30.	-9.89196
ruš	-9.89236
▁marin	-9.89239
▁skoro	-9.89247
ard	-9.89273
▁29.	-9.89286
▁bana	-9.89347
nuo	-9.8935
▁jezero	-9.89391
▁književnik	-9.89393
▁otvara	-9.89475
▁događa	-9.89564
▁izvora	-9.89588
▁28.	-9.89646
▁2009.	-9.89709
inski	-9.89724
dob	-9.89738
▁sch	-9.89746
▁ab	-9.89774
=12	-9.89877
▁turske	-9.89913
▁london	-9.90004
▁neće	-9.90027
▁godinama	-9.90047
▁čast	-9.90048
▁podignut	-9.90085
▁kata	-9.90102
jsko	-9.9012
▁es	-9.90121
eri	-9.90122
raž	-9.9027
▁računala	-9.90299
▁fakultet	-9.90319
▁auto	-9.90354
▁temelju	-9.90384
naj	-9.9042
rok	-9.90455
▁doprinos	-9.90524
▁počeli	-9.90535
▁glasova	-9.90576
▁grčke	-9.90576
▁hitler	-9.90604
▁strah	-9.90714
ivan	-9.90739
▁kisik	-9.9076
▁tren	-9.90771
▁liv	-9.90773
▁župe	-9.90811
▁književnost	-9.90862
▁sastoj	-9.9087
▁marije	-9.90879
▁lib	-9.90882
▁općenito	-9.90966
▁osnovne	-9.90966
▁utvrđen	-9.90967
▁bude	-9.90988
stat	-9.91033
▁gal	-9.91035
▁dokaza	-9.91051
▁rez	-9.9113
čaj	-9.91174
▁obu	-9.91182
▁skladatelj	-9.91192
▁organizacije	-9.91195
▁posvećen	-9.91203
▁hum	-9.91246
▁rano	-9.91337
▁plina	-9.91352
▁proizvodnja	-9.91357
▁ovisno	-9.91392
▁ustroj	-9.91403
▁obala	-9.91407
ny	-9.91408
▁električni	-9.91412
▁uzima	-9.91412
jeti	-9.91485
iku	-9.91536
▁križ	-9.91547
▁fer	-9.91562
▁potpunosti	-9.91621
▁upotrebljava	-9.91633
▁atoma	-9.9166
▁sklopu	-9.91736
▁vodstvom	-9.91751
▁ruski	-9.91789
▁uobičajen	-9.91856
▁(3	-9.91905
▁vodik	-9.91912
car	-9.92
▁jadran	-9.92024
▁sportsk	-9.92054
▁mes	-9.92056
▁pretpostavlja	-9.9208
grč	-9.92092
mil	-9.9213
▁pogled	-9.92136
▁umjetni	-9.9215
▁redatelj	-9.92193
▁uspješno	-9.92199
▁300	-9.92221
ben	-9.92241
pp	-9.92242
gin	-9.92249
▁raznim	-9.92311
▁kine	-9.9233
▁22	-9.9233
▁izlazi	-9.92341
▁takav	-9.92398
▁važni	-9.92427
▁značajno	-9.92454
▁sjevernoj	-9.92465
▁nadbiskup	-9.92529
▁kur	-9.9258
▁škot	-9.92593
▁dolaze	-9.9264
▁istom	-9.92674
▁ple	-9.92704
▁th	-9.9273
rio	-9.92749
▁glavne	-9.92759
▁pozitiv	-9.92762
sse	-9.92796
▁mogućnosti	-9.92808
=6	-9.92829
šku	-9.92873
▁polovici	-9.92925
▁razvoju	-9.92932
▁nagrade	-9.93058
▁položaja	-9.9306
sv	-9.93122
▁veća	-9.93127
▁trag	-9.9317
▁hor	-9.9317
▁vremenu	-9.93206
▁potrebe	-9.93206
ovoj	-9.93292
▁zapadno	-9.93303
▁proizvodnju	-9.93333
▁leg	-9.93391
▁27.	-9.93397
▁pripadaju	-9.93431
▁američke	-9.93433
ovića	-9.93452
▁nje	-9.93482
▁90	-9.93497
▁organiziran	-9.93509
▁oblasti	-9.93513
▁cha	-9.93526
▁postavlja	-9.93603
▁političar	-9.9366
04	-9.93764
▁zapadne	-9.93855
▁1997.	-9.93897
fon	-9.93932
stol	-9.93939
zon	-9.9394
▁prof	-9.93968
▁svojstva	-9.94008
▁samom	-9.94037
▁rimu	-9.94093
▁revolucije	-9.94116
▁izmje	-9.94136
▁ispred	-9.94162
▁srednjem	-9.94193
▁savezn	-9.94198
▁kongres	-9.94346
▁pohod	-9.94359
▁dubrovnik	-9.94394
05	-9.94402
▁vrb	-9.94478
lni	-9.94509
▁postojala	-9.94575
obraz	-9.94576
tera	-9.94581
▁turnir	-9.94596
▁nijemci	-9.94598
▁meteor	-9.94626
▁dokaz	-9.9465
rna	-9.94666
▁državu	-9.94804
▁ferdinand	-9.94804
▁zaposlen	-9.94805
▁1996.	-9.94812
▁obvez	-9.9485
uš	-9.94862
▁rusiji	-9.94874
▁parizu	-9.94887
irati	-9.94905
zda	-9.94916
kva	-9.94957
▁ministar	-9.94993
▁vladimir	-9.95047
povijest	-9.95054
▁obrt	-9.95091
bom	-9.95162
▁(17	-9.95223
tura	-9.95248
▁koncert	-9.95267
▁jedina	-9.95317
lijeva	-9.9534
▁izum	-9.95341
ijske	-9.95353
▁plav	-9.95358
▁24.	-9.954
▁cesta	-9.95402
▁aleksandr	-9.95415
▁nekadašnj	-9.95571
▁istočni	-9.95609
▁kući	-9.95624
▁razne	-9.95639
▁promjer	-9.95662
▁otprilike	-9.95729
▁odnose	-9.9577
▁isus	-9.95819
gra	-9.95843
▁stariji	-9.95877
vel	-9.95916
▁šir	-9.95945
▁financijsk	-9.95961
gli	-9.9598
▁odred	-9.95983
▁židovsk	-9.95986
isa	-9.96033
▁svjet	-9.96039
▁pučk	-9.96082
96	-9.96097
kaza	-9.96117
▁porast	-9.96154
▁progon	-9.96184
▁mjere	-9.96211
▁sultan	-9.9623
▁unije	-9.96274
▁pal	-9.96292
▁pronađen	-9.96294
▁pokazuje	-9.96428
arh	-9.96452
▁spoj	-9.9646
▁samog	-9.9649
ovec	-9.96499
▁početn	-9.96594
ari	-9.96626
fr	-9.96657
nca	-9.96712
▁šu	-9.96774
jević	-9.96865
astro	-9.96893
▁štit	-9.96895
▁prijestupn	-9.96923
▁osnova	-9.96927
▁vlastiti	-9.96933
▁narodne	-9.96979
vina	-9.96984
▁okoln	-9.97094
▁napusti	-9.97104
▁gregorijanskom	-9.97132
▁istovremeno	-9.97132
▁politike	-9.97133
▁postupno	-9.97141
▁nogomet	-9.97161
▁moderni	-9.97163
▁ništa	-9.97189
▁veze	-9.97301
▁reda	-9.97322
▁američkih	-9.97358
▁leden	-9.97367
▁opisuje	-9.97398
nički	-9.974
▁sveto	-9.97411
▁egz	-9.97424
▁drži	-9.97439
▁stanja	-9.97446
ide	-9.97449
▁teritorijaln	-9.97459
▁prvim	-9.9746
▁njihovo	-9.97495
▁bolje	-9.97504
▁južnoj	-9.97508
▁mm	-9.97511
jedi	-9.9755
=10	-9.97561
▁okružen	-9.97605
▁uopće	-9.97608
▁britanski	-9.97616
vci	-9.97619
zar	-9.97625
▁jesen	-9.97722
bur	-9.97741
▁satelita	-9.97742
jedni	-9.97763
▁ploča	-9.97764
misli	-9.97799
lina	-9.97821
▁koz	-9.97831
▁institut	-9.97842
▁tla	-9.97843
▁djeluju	-9.97909
▁regije	-9.97949
izacija	-9.97989
▁manja	-9.98069
▁oružje	-9.98079
▁men	-9.98096
zan	-9.98101
▁osnivač	-9.9811
▁fotograf	-9.98129
▁hvo	-9.98145
ure	-9.982
▁isprav	-9.9827
ističke	-9.9828
▁znamenitosti	-9.98333
nke	-9.98374
metar	-9.98507
▁jugoistočn	-9.98556
bac	-9.98617
pat	-9.98661
tni	-9.98663
▁kvar	-9.98687
zvan	-9.9871
▁njegovom	-9.98732
duk	-9.98775
▁drugu	-9.98795
▁nasljednik	-9.98853
▁raspada	-9.98908
▁razred	-9.98908
ićev	-9.99013
▁nezavisn	-9.99038
▁prošlosti	-9.99096
▁gori	-9.9911
▁političkih	-9.99114
▁vijeku	-9.99233
▁moglo	-9.99283
▁igre	-9.9931
▁26.	-9.99346
▁mostar	-9.9938
▁sebi	-9.99439
▁ideal	-9.99445
▁športsk	-9.99458
▁posjet	-9.99485
▁bara	-9.99489
ena	-9.99492
▁utemeljen	-9.99519
vice	-9.99559
▁priče	-9.99575
vre	-9.99577
▁dogovor	-9.99655
▁započela	-9.99739
▁led	-9.99751
▁dijalekt	-9.99759
▁djelatnosti	-9.99784
▁tema	-9.99806
tici	-9.9988
▁najstariji	-9.99911
▁imenovan	-9.99921
▁proizvodnje	-9.9996
▁gost	-10.0007
pala	-10.0015
▁soli	-10.0016
čenja	-10.0019
▁berlin	-10.002
▁han	-10.0022
▁sveučilište	-10.0024
▁školi	-10.0025
▁luci	-10.0041
▁ugljen	-10.0043
▁kraljevstva	-10.0052
▁izlaz	-10.0055
sije	-10.0058
1.)	-10.0058
▁pogon	-10.0061
▁izgrađena	-10.0063
▁osjećaj	-10.0063
vol	-10.0067
▁art	-10.008
bel	-10.0082
▁uspješn	-10.0085
▁dodatn	-10.0085
▁spis	-10.0092
▁japansk	-10.0095
▁kompleks	-10.0097
▁prihvaća	-10.0097
▁graniči	-10.0098
▁nacional	-10.0099
line	-10.011
▁uspored	-10.0118
▁wa	-10.0119
▁obnovljen	-10.0122
▁mira	-10.0125
▁ulazi	-10.0146
▁austral	-10.0147
▁civiln	-10.0147
▁radu	-10.0149
▁latinsk	-10.0156
▁rom	-10.0156
▁predstav	-10.0162
▁linija	-10.0165
▁raste	-10.0168
▁šibenik	-10.0171
▁400	-10.0173
▁nastaju	-10.0175
▁vodio	-10.0176
▁termin	-10.0178
▁august	-10.0179
int	-10.0185
▁dvora	-10.0191
▁povećava	-10.0196
▁preostal	-10.0198
▁porez	-10.0201
▁visina	-10.0201
▁današnjeg	-10.0209
▁zeus	-10.0212
▁bitke	-10.0216
▁franje	-10.0218
▁značenje	-10.0221
▁oksid	-10.0225
▁gar	-10.0226
▁turizam	-10.0228
▁nastavio	-10.023
alizira	-10.0231
▁zelen	-10.0237
▁fin	-10.0237
we	-10.0243
▁pjesama	-10.0245
▁meta	-10.0246
▁postaju	-10.0248
▁vojnih	-10.0248
▁strada	-10.0252
▁izveden	-10.0254
▁bran	-10.0257
▁leži	-10.0266
dži	-10.0267
▁križa	-10.0268
▁postrojbe	-10.027
ν	-10.027
▁1939.	-10.027
07	-10.0282
peri	-10.0285
▁karakter	-10.0285
engl	-10.03
▁ratni	-10.0302
irali	-10.0303
▁brojnim	-10.0305
▁rus	-10.0307
▁pripadnika	-10.0309
500	-10.0311
▁alban	-10.0319
▁kamp	-10.032
▁mater	-10.032
▁izravno	-10.0327
▁pitanja	-10.0331
▁mirovn	-10.0331
▁srednji	-10.0345
▁kori	-10.0349
cijski	-10.0353
▁temelj	-10.036
▁ostalo	-10.0362
port	-10.0365
▁izgradi	-10.0365
▁iskoristi	-10.037
▁struktura	-10.037
▁festival	-10.037
▁središnje	-10.0375
▁rasta	-10.0378
2,	-10.0382
▁dar	-10.0382
▁ad	-10.0382
▁onih	-10.0387
▁glazbeni	-10.0388
rne	-10.0389
▁državne	-10.0396
▁površini	-10.0396
▁moraju	-10.0406
▁makedon	-10.0416
▁poboljša	-10.0421
▁započinje	-10.0421
▁razvio	-10.0421
jedno	-10.0423
▁većim	-10.0433
▁jednostavn	-10.0435
vlje	-10.0443
▁točke	-10.0444
▁posla	-10.0446
▁okuplja	-10.0446
▁industrije	-10.0446
▁princip	-10.0448
▁nadmorsk	-10.0448
▁turaka	-10.0448
▁odbija	-10.0452
alne	-10.0455
▁tv	-10.0456
ošću	-10.047
▁oslobađa	-10.0472
▁stjepana	-10.0472
jska	-10.0474
čuva	-10.0481
▁srpskog	-10.0482
sija	-10.0484
▁socijalističk	-10.0491
▁brani	-10.0491
▁bitci	-10.0496
del	-10.0497
▁uključuje	-10.0497
▁tomislav	-10.0497
▁uskoro	-10.0498
▁lav	-10.0499
▁lijep	-10.0508
08	-10.0509
▁građani	-10.0509
▁sistem	-10.0513
▁tiska	-10.0514
zom	-10.052
▁ozbiljn	-10.0523
▁1989.	-10.0523
▁rimljani	-10.0523
▁zadnji	-10.0524
3.)	-10.0528
▁kinesk	-10.0534
taj	-10.0536
▁slobodni	-10.0538
▁we	-10.0547
▁ljetn	-10.0552
▁razlika	-10.0555
jena	-10.0556
▁knin	-10.0572
▁dinastije	-10.0574
▁svemir	-10.058
▁neposredno	-10.0584
▁istog	-10.0584
mini	-10.0585
▁bosanski	-10.0594
ovci	-10.0595
▁ski	-10.0595
▁crno	-10.0596
▁grof	-10.0596
▁redovn	-10.0597
pun	-10.061
▁for	-10.0612
5.)	-10.0613
▁kir	-10.0615
▁đak	-10.062
▁republici	-10.0625
▁približno	-10.0628
▁lit	-10.0632
▁stručn	-10.0644
prema	-10.0644
▁izrazito	-10.0647
eta	-10.0653
rani	-10.0654
▁napušta	-10.0662
▁stara	-10.0662
▁muslimani	-10.0667
▁dvadeset	-10.0673
▁tvrtka	-10.0677
vnih	-10.0677
▁pokrajina	-10.068
bir	-10.0682
▁izgled	-10.0683
sve	-10.0684
▁urban	-10.069
slijed	-10.0692
ros	-10.0696
▁kva	-10.0702
nskoj	-10.0703
▁religija	-10.0703
▁snažno	-10.0703
▁koš	-10.0707
ham	-10.0718
▁beograd	-10.0726
▁gora	-10.0727
09	-10.0733
+	-10.0741
▁1000	-10.0745
▁real	-10.0748
▁hajduk	-10.0755
▁knežev	-10.0755
qui	-10.0756
liti	-10.0757
mit	-10.0759
▁usp	-10.0762
▁beču	-10.0765
kula	-10.0773
▁skladu	-10.0775
▁starog	-10.0778
▁sjeverozapadn	-10.0781
▁znanstveno	-10.0781
▁odlučio	-10.0782
▁djelima	-10.0782
▁operacija	-10.0782
▁oz	-10.0786
▁oštr	-10.0786
tru	-10.0788
▁slavonsk	-10.0788
berg	-10.0789
▁filmu	-10.0791
▁hram	-10.0796
▁izgleda	-10.0798
▁obramben	-10.0807
▁sveučilištu	-10.0807
▁kritičar	-10.0808
▁otkriva	-10.0808
lnih	-10.0809
▁foto	-10.0815
rast	-10.0819
▁josipa	-10.0826
▁državno	-10.0831
meta	-10.0837
▁poznate	-10.0847
▁cl	-10.0852
▁hos	-10.0857
gro	-10.086
▁zaštićen	-10.086
▁beč	-10.0861
▁zahtijeva	-10.0861
▁obr	-10.0865
bož	-10.0868
▁(199	-10.0868
▁planine	-10.087
ljivost	-10.0871
kta	-10.0872
jedna	-10.0878
▁filozofije	-10.0879
▁atmosfere	-10.0887
▁rijetko	-10.0887
▁elementi	-10.0888
nča	-10.0893
20.	-10.0896
▁značajan	-10.0898
▁raj	-10.0899
ow	-10.0903
▁posto	-10.0908
▁trenutku	-10.0913
▁novinar	-10.0924
▁smije	-10.0925
▁negativn	-10.0926
ces	-10.0926
nga	-10.0934
01	-10.0935
▁vidjeti	-10.0941
▁utjecaja	-10.0945
▁pravila	-10.095
čava	-10.0953
▁umjetnost	-10.0953
pen	-10.0956
amp	-10.096
▁institucij	-10.0966
▁vješt	-10.0967
▁var	-10.0968
▁kaštel	-10.0968
eni	-10.0969
hercegovačk	-10.0977
▁kapetan	-10.0993
▁trg	-10.0996
▁mah	-10.0997
▁njemačkom	-10.0998
▁nepoznat	-10.1007
niku	-10.101
irala	-10.1013
bert	-10.1013
▁neko	-10.1013
▁izrael	-10.1017
▁novim	-10.1019
н	-10.1019
▁građevina	-10.102
▁nogometn	-10.1026
▁svjetske	-10.1027
rskog	-10.1031
▁obalu	-10.1032
▁smatrao	-10.1042
▁izbora	-10.1046
▁oltar	-10.1047
▁poslova	-10.1049
uta	-10.1049
▁ovu	-10.1051
▁znanost	-10.1052
▁strip	-10.1052
▁bak	-10.1067
▁(15	-10.1073
iste	-10.1074
▁vojnici	-10.1076
▁kraljevstvo	-10.1078
▁igrama	-10.1078
▁iran	-10.1084
rg	-10.1091
▁dobili	-10.11
▁električne	-10.1101
▁mjestima	-10.1101
▁ostvaren	-10.1101
▁demo	-10.1102
plo	-10.1102
▁konstantin	-10.1102
▁ključn	-10.1105
▁krater	-10.1107
zapad	-10.1111
▁razini	-10.1113
▁dobri	-10.1116
polj	-10.1117
▁teror	-10.1127
▁ondje	-10.1129
▁okrug	-10.113
▁operacije	-10.1133
▁značajni	-10.1133
▁članica	-10.1135
▁čestice	-10.1135
▁bizant	-10.1141
▁količine	-10.1155
▁postojanje	-10.1155
▁franjevačk	-10.1155
▁prijedlog	-10.1155
▁zapadnoj	-10.1156
▁konačn	-10.116
▁javno	-10.1162
▁kupa	-10.1162
▁sastavljen	-10.1163
▁kam	-10.1164
dy	-10.1165
▁35	-10.1166
▁vremensk	-10.1166
▁nagrada	-10.1173
▁tekući	-10.1183
▁vezi	-10.1186
ične	-10.1186
▁srednjeg	-10.1198
racije	-10.1203
▁svakog	-10.1203
▁razlike	-10.121
rid	-10.122
▁kasno	-10.1226
ruski	-10.1228
tet	-10.1229
▁pleme	-10.1231
▁21	-10.1232
▁lat	-10.1232
nike	-10.1234
▁kontinent	-10.1238
▁želje	-10.124
koji	-10.1242
▁razlikuje	-10.1242
▁protivnik	-10.1243
▁vrhu	-10.1243
tel	-10.1252
▁selu	-10.1256
▁pomoći	-10.1258
icama	-10.1258
stojan	-10.1258
ljeno	-10.1259
▁sudjelovao	-10.1265
▁dovodi	-10.1269
lova	-10.127
▁brz	-10.128
▁istočnoj	-10.1284
nor	-10.1287
▁dijelove	-10.1292
▁diljem	-10.1292
lum	-10.1293
▁najprije	-10.13
▁kron	-10.1304
poz	-10.1306
4.)	-10.131
▁sabora	-10.1311
nicom	-10.1312
▁rh	-10.1313
▁prošlo	-10.1318
▁vojna	-10.1318
▁veličine	-10.132
▁jezgre	-10.132
▁proglasio	-10.1323
nicama	-10.1325
▁novac	-10.1328
▁bos	-10.1329
čel	-10.133
▁smanjen	-10.133
▁kraljevi	-10.1332
▁bosansko	-10.1332
▁gradska	-10.1346
ρ	-10.1347
▁politiku	-10.1348
▁mark	-10.1348
zma	-10.1349
▁hotel	-10.1351
▁zakoni	-10.1365
▁europskih	-10.1367
▁obeća	-10.1376
▁zrakoplova	-10.1378
▁važan	-10.1379
▁likovn	-10.1385
▁stvaranja	-10.1386
▁građen	-10.1391
▁najmanje	-10.1392
nijom	-10.1396
lovi	-10.1397
▁postali	-10.14
štima	-10.1401
▁kćer	-10.1404
▁prag	-10.1405
▁1920.	-10.1405
▁koristiti	-10.1406
▁prijevoz	-10.1409
▁ram	-10.1413
▁šta	-10.1429
čević	-10.1449
encije	-10.1451
kata	-10.1455
čne	-10.1458
▁student	-10.1459
▁americi	-10.1459
▁dijete	-10.146
▁der	-10.1462
▁nacionalne	-10.1464
miješa	-10.1464
▁160	-10.1465
▁postavio	-10.1468
▁izvodi	-10.1468
▁iznos	-10.1478
ljenja	-10.148
▁njezina	-10.1482
▁mač	-10.1485
▁specifičn	-10.1487
▁središnj	-10.1491
jest	-10.1491
▁marija	-10.1493
▁ugled	-10.1499
jevo	-10.15
▁prometn	-10.1505
jci	-10.1508
mann	-10.1509
java	-10.1513
▁fakultetu	-10.1513
▁slabo	-10.1515
▁živio	-10.1525
▁radom	-10.1525
▁zagor	-10.1527
tehn	-10.1537
8.)	-10.1538
▁putova	-10.1538
▁sjevernom	-10.1538
tku	-10.1542
▁gravitacijsk	-10.1544
▁najznačajniji	-10.1544
▁utvrda	-10.1544
▁neza	-10.1544
▁mladi	-10.1545
▁dolara	-10.1549
▁treće	-10.155
▁ostavi	-10.1558
idi	-10.1565
▁izvrši	-10.1572
▁nikakv	-10.1572
▁članak	-10.1572
tvr	-10.1577
▁slavi	-10.1579
▁rani	-10.158
ijska	-10.1588
▁objekti	-10.159
▁23	-10.1591
▁rock	-10.1591
sred	-10.1592
▁želi	-10.1593
▁prvenstvo	-10.16
▁donijel	-10.1607
▁šah	-10.1609
▁jednostavno	-10.1614
kić	-10.1617
▁hrvat	-10.1619
▁kontinentaln	-10.1619
▁26	-10.1621
11.	-10.1622
▁vel	-10.1623
▁bivši	-10.1624
▁manastir	-10.1629
▁privremen	-10.1629
▁bdp	-10.1629
▁dominira	-10.163
ó	-10.1635
trag	-10.1638
▁arm	-10.1639
▁priprema	-10.1641
war	-10.1643
rskih	-10.1644
▁rok	-10.1646
▁temeljn	-10.1647
▁proveo	-10.1648
pir	-10.1649
ovca	-10.1655
▁oružja	-10.1657
▁metoda	-10.1658
▁takva	-10.1664
▁ap	-10.1669
▁trajal	-10.167
▁udruga	-10.1676
net	-10.168
▁gibanje	-10.1681
čna	-10.1681
▁datira	-10.1681
▁kružn	-10.1684
▁1971.	-10.1686
▁2012.	-10.1686
▁odvojen	-10.1687
▁pokrajine	-10.1689
▁gospodarstva	-10.169
▁rimske	-10.1699
▁kopnen	-10.17
▁ideje	-10.1705
enz	-10.1706
ura	-10.1706
▁materijala	-10.1711
▁sveta	-10.1712
▁istoimen	-10.1715
▁uništi	-10.1716
▁životinja	-10.1716
▁avion	-10.1719
▁brazil	-10.1722
▁srbiji	-10.1723
rp	-10.1725
▁kult	-10.1729
▁građansk	-10.1736
▁trener	-10.1737
▁kandidat	-10.1744
▁kasnij	-10.1744
▁prirodi	-10.1744
gel	-10.1759
▁uvjetima	-10.1766
racija	-10.1766
▁wal	-10.1769
▁nekom	-10.1771
▁sama	-10.1772
▁katoličke	-10.1772
▁svakodnevn	-10.1774
razdvoj	-10.1774
▁crta	-10.1782
vnog	-10.1786
▁pokraj	-10.1787
▁bro	-10.1788
▁neovisnost	-10.1795
▁crne	-10.1796
▁iznimno	-10.1799
čno	-10.18
▁1980.	-10.1802
▁george	-10.1802
▁opasnost	-10.1804
▁uključi	-10.1804
▁vjere	-10.1805
pek	-10.1807
▁cer	-10.1822
▁glumi	-10.1822
▁qu	-10.1827
▁knjizi	-10.183
▁zgrade	-10.1831
▁počinju	-10.1832
riju	-10.1841
▁prikaziva	-10.1845
gram	-10.1846
▁reći	-10.1853
ništvo	-10.1858
▁1948.	-10.186
▁1940.	-10.186
▁zajednički	-10.186
▁pojavil	-10.186
▁domaći	-10.1863
▁noći	-10.1866
▁staln	-10.1866
▁suprug	-10.1871
▁generala	-10.1871
vidi	-10.1876
▁bitno	-10.1879
6.)	-10.1889
▁jugoslaviji	-10.1889
▁bjelovar	-10.1889
ivši	-10.1889
▁obranu	-10.189
▁odnosa	-10.1891
▁žar	-10.1894
nec	-10.1902
radi	-10.1906
bos	-10.1906
▁svjetlost	-10.1914
▁desetljeća	-10.1918
▁djecu	-10.1918
▁vanjske	-10.1919
▁ljeto	-10.192
▁vlašću	-10.192
▁njemačkog	-10.1921
▁sezone	-10.1921
▁frank	-10.1922
▁opć	-10.1923
▁korištenje	-10.1924
pon	-10.1927
▁mak	-10.1928
▁odjel	-10.194
▁malih	-10.1941
▁prikazan	-10.1946
▁šume	-10.1948
▁elektromagnetsk	-10.1948
▁28	-10.1948
vil	-10.1948
▁brončan	-10.195
lf	-10.195
čiti	-10.1965
rot	-10.1967
▁podrijetla	-10.1977
▁zračenja	-10.1977
▁neutron	-10.1977
šenje	-10.1981
▁sjedinjeni	-10.1981
▁jugo	-10.1987
▁istraživanje	-10.1988
gnu	-10.1991
dža	-10.1997
grafija	-10.1998
▁obiteljsk	-10.1999
▁stati	-10.2002
▁linije	-10.2009
▁rusije	-10.2011
▁pas	-10.2011
▁postati	-10.2011
▁ed	-10.2013
ičan	-10.2019
polit	-10.2022
▁dunav	-10.2024
▁hal	-10.2028
▁gustoć	-10.2033
▁procesa	-10.2036
▁podrijetlo	-10.2036
▁posebice	-10.2036
▁živjeli	-10.2037
▁napon	-10.2039
▁boravi	-10.2042
▁svakom	-10.2052
▁31.	-10.2055
▁jezikom	-10.2061
▁ruke	-10.2065
▁podržava	-10.2065
▁naoružan	-10.2066
▁završen	-10.2066
▁cijelom	-10.2067
ografi	-10.2068
▁oči	-10.2071
▁james	-10.2071
kraj	-10.2073
▁traže	-10.2077
▁(16	-10.2077
▁dužnost	-10.2078
2.)	-10.2085
čnim	-10.2088
▁kip	-10.209
▁otvor	-10.2093
▁definira	-10.2094
rina	-10.2095
▁ljude	-10.2095
▁prihvaćen	-10.2096
▁rujnu	-10.2096
▁rijeku	-10.2096
▁prote	-10.2097
▁potreba	-10.2098
▁bes	-10.2101
▁prethodni	-10.2104
▁vrši	-10.2106
▁jar	-10.2108
▁suprotno	-10.211
2)	-10.2111
▁građana	-10.2112
▁blago	-10.2114
▁27	-10.2116
▁uloga	-10.2121
▁vran	-10.2125
с	-10.2125
▁činjenica	-10.2126
▁načelnik	-10.2126
ium	-10.2126
▁trenutno	-10.213
▁gradom	-10.2132
▁okoliš	-10.2134
▁nadzor	-10.2135
▁starije	-10.2137
▁stran	-10.2138
▁osijek	-10.214
▁prihvat	-10.2144
▁kola	-10.2146
▁otoci	-10.2147
▁prijenos	-10.2149
▁trgovi	-10.215
▁površinu	-10.2156
▁izražava	-10.2156
▁izložen	-10.2156
▁narodno	-10.2156
▁takve	-10.2156
▁energiju	-10.2158
▁kapela	-10.2159
▁galerij	-10.2161
▁ovi	-10.2163
▁tipičn	-10.2166
▁otvorena	-10.2171
▁far	-10.2175
rek	-10.2176
▁slični	-10.2179
gori	-10.2181
▁rit	-10.2186
▁stratešk	-10.2186
▁uprave	-10.2187
▁djelomično	-10.2189
▁leon	-10.2193
ovcu	-10.2196
▁pokus	-10.2199
▁isusov	-10.2203
7.)	-10.2205
▁32	-10.2206
▁moli	-10.2209
97.	-10.2211
▁lokalno	-10.2211
▁seksualn	-10.2216
▁orbita	-10.2223
▁državnog	-10.2224
šnja	-10.2225
▁vijeka	-10.2227
▁cijelog	-10.2232
▁studija	-10.2235
šk	-10.2243
▁glazbu	-10.2247
▁rep	-10.2253
▁armije	-10.2255
▁istraživač	-10.2258
▁pretvara	-10.226
▁mac	-10.2262
stein	-10.2265
▁ros	-10.2267
▁gospodarsko	-10.2272
▁crna	-10.2279
▁broda	-10.228
ovina	-10.2283
telji	-10.2283
▁biva	-10.2284
ola	-10.2285
▁gosp	-10.2285
▁met	-10.2297
▁iskaz	-10.2301
▁tradicionalno	-10.2302
▁jača	-10.2303
▁visoke	-10.2304
▁najvažniji	-10.2305
▁profesionaln	-10.2307
▁shvaća	-10.2307
▁trideset	-10.2307
▁inženjer	-10.2308
▁ekonomski	-10.2308
▁islamsk	-10.2308
▁služe	-10.231
▁ps	-10.2312
ugarske	-10.2312
ct	-10.2315
▁rabi	-10.2316
▁programa	-10.2317
▁mont	-10.2324
▁plemić	-10.2328
▁djelatnost	-10.2337
tivni	-10.2339
knjiž	-10.2344
▁mandat	-10.2347
▁doma	-10.2347
▁pobijedio	-10.2349
▁paul	-10.2354
▁lak	-10.2357
nad	-10.2358
▁župnik	-10.2366
▁emitira	-10.2369
▁portret	-10.237
▁masl	-10.2377
▁vezu	-10.2379
▁kalendar	-10.2382
▁čest	-10.2389
▁33	-10.2393
▁događaja	-10.2398
▁važna	-10.24
▁stekao	-10.2403
▁nju	-10.2406
▁brojem	-10.2414
▁bizantsk	-10.2417
▁mono	-10.2418
▁sovjetski	-10.242
▁valja	-10.2421
cijama	-10.2421
nder	-10.2422
slaven	-10.2424
▁mer	-10.2425
▁oblikovan	-10.2426
▁romana	-10.2429
▁natjecanja	-10.243
▁snagu	-10.2431
▁usmjeren	-10.2431
▁est	-10.2432
▁gustoća	-10.2436
▁prirodnih	-10.2437
▁osnovi	-10.2438
▁karlo	-10.2443
▁prostir	-10.2445
komun	-10.2446
▁musliman	-10.2448
▁stranu	-10.2449
sor	-10.2461
▁kontrolu	-10.2461
▁zapovijed	-10.2461
▁1953.	-10.2461
▁lokalitet	-10.2462
▁narodnog	-10.2463
▁započel	-10.2464
▁nafte	-10.2465
▁bliž	-10.2471
▁podijeljena	-10.2475
▁poslovn	-10.2476
▁grčkoj	-10.2481
lijev	-10.2481
▁xvi	-10.2484
▁vojnu	-10.2487
▁politička	-10.2492
ight	-10.2493
▁istra	-10.2495
spe	-10.2503
▁napisan	-10.2504
ker	-10.2509
▁igrač	-10.2509
▁nezavisnost	-10.2524
▁zdravstven	-10.2524
▁matematičk	-10.2524
▁william	-10.2524
▁polovice	-10.2525
▁zemljine	-10.2525
▁vodeć	-10.2534
▁osobno	-10.2535
gnut	-10.2538
▁unutrašnjosti	-10.2538
▁bolest	-10.2539
▁golem	-10.2541
2%	-10.2546
▁razlikuju	-10.2549
▁odbor	-10.2552
▁najbliž	-10.2555
▁uveden	-10.2555
▁došli	-10.2557
▁brodova	-10.2559
dol	-10.256
▁savjet	-10.256
▁monarhije	-10.2561
▁tal	-10.2569
▁komunisti	-10.2569
▁osjet	-10.2577
▁bazi	-10.2578
▁susret	-10.2585
▁gradonačelnik	-10.2586
▁kazališn	-10.2586
▁splitu	-10.2595
▁ugljikov	-10.2603
▁brdo	-10.2604
▁glavno	-10.2606
vet	-10.2611
▁sklop	-10.2612
▁desetak	-10.2612
▁naročito	-10.2618
▁prvenstveno	-10.2618
▁srpska	-10.2618
▁preuzima	-10.2618
▁slavonije	-10.2618
gal	-10.2618
▁sami	-10.2619
▁niko	-10.2622
▁ves	-10.2627
▁navodno	-10.263
▁cu	-10.2634
▁nogometni	-10.2638
▁karl	-10.2639
▁korijen	-10.264
▁tipa	-10.2642
▁hod	-10.2644
▁tru	-10.2647
▁saturn	-10.2647
▁utvrdi	-10.265
▁naše	-10.265
▁afričk	-10.265
▁obzira	-10.2653
▁vu	-10.2653
▁izvorno	-10.2655
▁režim	-10.2657
trop	-10.2661
▁trebao	-10.2661
▁odgoj	-10.2665
▁komet	-10.2666
▁župn	-10.2666
▁pridruži	-10.2671
nošću	-10.2672
▁tok	-10.2676
▁istodobno	-10.2681
▁otvoreno	-10.2684
▁ele	-10.269
▁inače	-10.2699
▁proizvoda	-10.2704
▁sigurno	-10.2704
▁oku	-10.2708
▁osnovni	-10.2711
▁proširen	-10.2713
▁staze	-10.2714
▁opći	-10.2715
▁hlad	-10.2724
▁gro	-10.2727
▁urednik	-10.273
▁jadransk	-10.2736
▁ravno	-10.274
štvu	-10.2741
▁zlo	-10.2741
▁koristio	-10.2746
▁primorsk	-10.275
▁moderno	-10.275
▁nalazio	-10.2754
▁zaključi	-10.2755
fra	-10.2756
▁njihovi	-10.2758
▁crveno	-10.2759
pel	-10.2771
▁serija	-10.2771
▁zarobljeni	-10.2776
▁jeruzalem	-10.2776
▁pogotovo	-10.2776
▁1970.	-10.2776
▁2013.	-10.2777
▁opus	-10.2777
▁2014.	-10.2777
▁portugal	-10.2777
▁srpskih	-10.2782
▁svoja	-10.2784
▁ratne	-10.2786
▁javni	-10.279
▁esej	-10.2791
▁izvorima	-10.2791
▁praviln	-10.2794
▁lip	-10.2795
irana	-10.2801
▁uređaj	-10.2808
▁umjeren	-10.2808
▁pokopan	-10.2809
▁gl	-10.2811
▁ukinut	-10.2811
▁povjeren	-10.2813
ljuje	-10.2813
▁zr	-10.2817
stupio	-10.282
ture	-10.2821
ncija	-10.2823
rn	-10.2826
9.)	-10.2831
▁sredine	-10.2832
▁jezici	-10.2838
▁karakterističn	-10.2841
▁1946.	-10.2841
▁brzinom	-10.2841
▁arapski	-10.2844
mjesec	-10.2845
obra	-10.2846
▁potres	-10.2847
▁pisma	-10.2851
▁chi	-10.2852
▁port	-10.2855
▁vii	-10.2855
▁titan	-10.2858
tis	-10.2859
▁zrinski	-10.2862
▁45	-10.2864
▁zapis	-10.2867
oba	-10.287
▁sagrađena	-10.287
▁napravljen	-10.2873
▁pavelić	-10.2873
zin	-10.288
▁sektor	-10.2886
lis	-10.2891
▁ang	-10.2897
▁situacija	-10.2905
▁veličini	-10.2905
▁podršku	-10.2905
▁svečano	-10.2905
▁tko	-10.2906
▁dijele	-10.2906
▁prihod	-10.2906
▁uspostavljen	-10.2912
▁600	-10.2913
▁poslao	-10.2915
loga	-10.2917
broj	-10.2917
▁com	-10.2924
▁okolici	-10.2931
voz	-10.2931
▁ističe	-10.2931
▁sastava	-10.2935
▁norma	-10.2935
pljen	-10.2937
bio	-10.2938
▁shvati	-10.2939
▁kreće	-10.2939
▁odluka	-10.2941
▁pokriva	-10.2941
▁nastali	-10.2945
▁filmova	-10.295
▁hvar	-10.2955
▁manjih	-10.2955
rik	-10.2962
▁naseljen	-10.2963
▁dobiti	-10.2966
▁asteroid	-10.297
▁pokazuju	-10.297
▁zaštitu	-10.297
▁neptun	-10.297
rit	-10.2972
evo	-10.2972
▁cor	-10.2972
▁dolaska	-10.2972
▁granicu	-10.2975
▁južnom	-10.2977
▁oblak	-10.2981
izaciju	-10.2982
▁susjed	-10.2988
šan	-10.2991
▁potvrd	-10.2998
▁svira	-10.3001
▁gradove	-10.3002
▁kulturni	-10.3003
▁sjeveroistočn	-10.3003
▁četvero	-10.3003
▁dvostruk	-10.3003
▁fizikaln	-10.3003
▁svojem	-10.3004
▁mate	-10.3011
▁sof	-10.3015
▁postaja	-10.3018
▁vele	-10.3019
čica	-10.3019
▁zavod	-10.3019
▁završi	-10.3021
zak	-10.3022
▁zapadnom	-10.3023
čina	-10.3026
▁radova	-10.3032
▁1919.	-10.3036
▁izotop	-10.3036
▁lipnju	-10.3043
":	-10.3044
▁dobar	-10.3044
▁plaća	-10.3049
čak	-10.3056
▁postalo	-10.3057
▁javnosti	-10.3068
▁cjelokupn	-10.3069
▁svibnju	-10.3069
▁prosjek	-10.3069
▁prikazuje	-10.3072
gija	-10.3073
▁obnovi	-10.3073
▁histori	-10.3075
▁izbori	-10.3075
▁željeza	-10.3079
▁gradski	-10.3087
psi	-10.309
▁habsburšk	-10.3102
▁potporu	-10.3102
▁majstor	-10.3102
▁teoriju	-10.3102
▁prenosi	-10.3103
▁proto	-10.3105
▁spada	-10.3105
▁nemaju	-10.3106
ier	-10.3108
▁termo	-10.3114
pola	-10.3114
▁ljubi	-10.3114
▁kate	-10.3115
▁tona	-10.3118
svoj	-10.312
▁anton	-10.312
▁zdrav	-10.3126
šći	-10.3126
▁nastavi	-10.3134
▁siječnju	-10.3135
▁jugozapadn	-10.3135
▁preuzeo	-10.3135
▁gla	-10.3137
▁promatrač	-10.3143
▁glasa	-10.3143
▁otpora	-10.3149
▁većih	-10.3153
▁pobijedi	-10.3156
▁položaju	-10.3157
▁temelje	-10.3159
▁konja	-10.316
▁cijelo	-10.3161
ngu	-10.3162
▁napoleon	-10.3163
▁mini	-10.3166
▁sarajevu	-10.3168
▁staljin	-10.3168
▁mnogobrojn	-10.3168
▁kontakt	-10.3168
▁zajedničko	-10.317
▁upozna	-10.3171
▁okviru	-10.3171
▁domaće	-10.3173
▁pokušao	-10.3174
▁pape	-10.3174
▁zadar	-10.3178
▁gri	-10.3179
▁hv	-10.3182
▁trebalo	-10.3187
vana	-10.3188
▁milijun	-10.3191
▁omogućil	-10.32
▁kapacitet	-10.3201
▁pobjede	-10.3201
▁1947.	-10.3201
▁ljudima	-10.3203
▁velikosrpsk	-10.3206
▁luj	-10.3206
▁beogradu	-10.3207
▁stanica	-10.3209
▁ekvator	-10.3209
▁polovic	-10.3215
hor	-10.3215
jskoj	-10.3217
▁zastava	-10.322
▁seljačk	-10.3221
▁suvremeni	-10.3225
▁zimsk	-10.3229
▁bilje	-10.3231
ičkih	-10.3232
▁domovinskog	-10.3235
▁pojavljuju	-10.3235
▁živjelo	-10.3235
▁1960.	-10.3235
▁drama	-10.3236
▁krenul	-10.3236
3%	-10.3236
▁utjecal	-10.3236
▁prepozna	-10.3236
▁minuta	-10.3236
▁partizansk	-10.3239
▁tajnik	-10.3239
nož	-10.3239
▁bečk	-10.3252
▁krajine	-10.3254
ijih	-10.3255
▁vladara	-10.3255
▁večer	-10.3259
▁katolici	-10.3268
▁planetoid	-10.3269
▁odluke	-10.3269
tske	-10.3271
skr	-10.3276
▁majke	-10.3284
▁164	-10.3296
▁obrani	-10.3313
▁nacionalnog	-10.3317
▁tadašnji	-10.3317
▁doseg	-10.3318
▁brata	-10.3322
▁odisej	-10.3322
mul	-10.3323
▁unutrašnj	-10.3329
▁srbija	-10.333
▁uključuju	-10.333
▁snagama	-10.3332
▁istre	-10.3334
▁žrtava	-10.3336
▁žrtve	-10.3336
▁moderne	-10.3337
štvo	-10.3338
danas	-10.3339
▁predstavljaju	-10.334
▁albert	-10.334
▁kapital	-10.3342
▁vladi	-10.335
alni	-10.3354
▁novca	-10.3359
▁radovi	-10.3362
▁postojeć	-10.3367
▁sovjetskog	-10.3371
▁mlade	-10.3372
▁bibli	-10.3374
▁mladih	-10.3375
▁osi	-10.3376
▁vrhovn	-10.3377
▁zapisa	-10.3377
crnogor	-10.3377
▁podaci	-10.3378
▁osnoval	-10.3387
▁bosnu	-10.3388
▁novije	-10.3388
▁ciljem	-10.3389
▁svijest	-10.339
▁petri	-10.3401
▁29	-10.3402
▁ciklus	-10.3404
▁povezuje	-10.3404
▁amerike	-10.3404
▁vojvodi	-10.3404
▁izvanredn	-10.3404
▁ukida	-10.3408
";	-10.342
▁doktor	-10.3428
▁ulica	-10.343
▁njihovim	-10.3431
kako	-10.3432
latin	-10.3434
▁poslan	-10.3437
▁doživljava	-10.3438
▁obilježava	-10.3438
▁tvrtke	-10.3438
▁praktičn	-10.3438
▁izgubio	-10.3438
▁hrane	-10.3439
1%	-10.3439
juće	-10.3442
▁vlastite	-10.3447
▁naseljena	-10.3448
▁36	-10.3448
▁kristal	-10.3453
više	-10.3458
tus	-10.3462
▁cen	-10.3462
▁poče	-10.3464
▁donio	-10.3469
▁američkog	-10.3472
▁zabranjen	-10.3472
▁inačica	-10.3473
ificira	-10.3477
▁euro	-10.3479
▁junak	-10.3486
▁potez	-10.3494
▁tlaka	-10.3496
▁njemačkih	-10.3499
▁slom	-10.3505
▁francuskom	-10.3506
▁1967.	-10.3506
▁natpis	-10.3509
▁vanjski	-10.3511
▁provincija	-10.3511
▁bru	-10.3511
cka	-10.3512
▁indijsk	-10.352
▁zapad	-10.352
▁plinovi	-10.3524
▁zadru	-10.3526
▁pravni	-10.353
к	-10.354
30.	-10.3549
▁udara	-10.3552
▁hipo	-10.3553
▁povijesni	-10.356
▁gradsko	-10.356
▁udaljenost	-10.3561
▁molekula	-10.3562
▁krvi	-10.3569
▁osvajanja	-10.3573
▁henrik	-10.3575
▁utvrde	-10.3576
▁(193	-10.3577
▁dramsk	-10.3578
▁korist	-10.3578
▁fil	-10.3588
▁rak	-10.3589
▁eko	-10.3592
▁muslimana	-10.3592
▁dužnosti	-10.3609
▁aktivno	-10.3609
▁federacije	-10.361
▁tuđman	-10.361
▁zračenje	-10.361
▁veličina	-10.361
▁krajevima	-10.361
▁omjer	-10.3614
▁odbio	-10.3614
irane	-10.3615
▁odlučil	-10.3619
▁razvil	-10.3627
▁vođe	-10.3629
▁ribar	-10.3635
▁igara	-10.3637
▁svećenik	-10.3644
▁listopadu	-10.3645
▁obilježja	-10.3645
▁pretežno	-10.3645
▁kolovozu	-10.3645
▁srpnju	-10.3645
▁civila	-10.3645
▁gornja	-10.3646
▁krać	-10.3647
▁razmišlja	-10.3648
ična	-10.365
▁juli	-10.365
▁pojedinačn	-10.365
▁znatn	-10.3654
rum	-10.3656
▁bod	-10.3656
▁znanstveni	-10.3658
▁izradi	-10.3658
▁kipar	-10.3658
▁doći	-10.366
rus	-10.366
▁židova	-10.3665
čana	-10.3666
▁umjetnički	-10.3669
▁književno	-10.3678
▁gimnaziju	-10.368
▁travnju	-10.368
▁1968.	-10.368
▁časnik	-10.3681
▁1961.	-10.3681
istok	-10.3681
▁stijena	-10.3681
▁proveden	-10.3682
▁opere	-10.3684
▁osnivanje	-10.3687
▁poziv	-10.3687
▁uživa	-10.3689
▁općinsko	-10.3689
▁sjevernog	-10.369
sco	-10.3694
▁sporazuma	-10.3698
▁pokuša	-10.3704
▁spomenuti	-10.371
▁tadašnje	-10.3711
▁petrov	-10.3713
▁alkohol	-10.3715
▁ćiril	-10.3715
▁1975.	-10.3715
▁1929.	-10.3715
▁kardinal	-10.3715
▁formu	-10.3716
▁ceste	-10.3718
▁svako	-10.3718
▁vitez	-10.3719
▁uoči	-10.3722
▁proglasil	-10.3723
▁komor	-10.3726
▁šahovsk	-10.3726
▁spremn	-10.3728
▁cetin	-10.373
crven	-10.3731
▁gradske	-10.3736
▁nk	-10.3736
ls	-10.3738
▁lokalne	-10.374
▁najvećim	-10.3744
▁zona	-10.3746
▁katolički	-10.375
▁osuđen	-10.3751
▁jezgra	-10.3751
▁biskupa	-10.3754
▁osvoji	-10.3755
▁planinski	-10.3756
▁posao	-10.3759
rebren	-10.376
▁rado	-10.3761
8%	-10.3763
▁karakterizira	-10.3764
▁tabli	-10.3773
▁graf	-10.3777
▁170	-10.3778
▁okvir	-10.3783
▁atmosferi	-10.3786
▁omogućava	-10.3786
▁ustanak	-10.3786
▁prvaka	-10.3791
stroj	-10.3799
▁fri	-10.3802
▁njim	-10.3802
▁astronomsk	-10.3803
▁zadnje	-10.3805
▁ovoj	-10.3814
▁grčko	-10.3815
▁dalmaciji	-10.3821
▁predsjedničk	-10.3821
▁postupak	-10.3821
▁1988.	-10.3821
▁1848.	-10.3821
čer	-10.3824
▁estonsk	-10.3824
▁sagrađen	-10.3824
▁političko	-10.3825
▁ubrzan	-10.3825
▁zastupnika	-10.3825
▁naći	-10.3826
ijim	-10.3828
▁nacionalna	-10.3832
vrijedn	-10.3832
tke	-10.3832
sav	-10.3833
▁centra	-10.384
▁vozila	-10.3842
▁gradić	-10.3844
▁stadion	-10.3857
▁uspjeli	-10.3857
▁sfrj	-10.3857
▁poveziva	-10.3857
▁ljeta	-10.3858
▁arhiv	-10.3861
▁određene	-10.3863
▁takozvan	-10.3866
▁formiran	-10.387
▁rodio	-10.3875
▁spomenut	-10.3878
▁sljedećih	-10.3878
▁komad	-10.388
▁dalmatin	-10.3881
▁arhitekt	-10.3889
▁pusti	-10.389
▁obaln	-10.3891
▁djeca	-10.3893
▁zlatni	-10.3894
▁uključen	-10.3894
▁poluotok	-10.3898
▁prirodno	-10.3898
▁dvaju	-10.3905
▁stavlja	-10.3909
▁latin	-10.3913
▁lijek	-10.3923
▁proizvod	-10.3927
▁vjeru	-10.3927
▁austrija	-10.3928
▁1938.	-10.3928
▁1956.	-10.3928
▁detalj	-10.3928
▁tvornica	-10.3929
4%	-10.3929
▁moraln	-10.3933
kupi	-10.3934
▁stanovnik	-10.3934
▁bat	-10.3935
▁stigl	-10.3937
▁rusi	-10.3941
▁arh	-10.3952
▁dubok	-10.3952
▁javljaju	-10.3954
▁očito	-10.3958
▁spozna	-10.396
radio	-10.3961
▁upravno	-10.3962
ο	-10.3964
▁teret	-10.3964
▁austrije	-10.3964
▁ožujku	-10.3964
▁temperaturi	-10.3964
▁sudjeluje	-10.3964
▁uspijeva	-10.3964
▁prisiljen	-10.3964
▁rekord	-10.3965
▁privatni	-10.3966
šin	-10.3968
▁mur	-10.3969
ištu	-10.3973
▁vir	-10.3974
▁kolonija	-10.3979
▁pregled	-10.3982
9%	-10.3985
▁brit	-10.3989
▁arheološk	-10.399
ženje	-10.399
▁tar	-10.3993
▁londonu	-10.3999
▁određuje	-10.4
▁pobjeda	-10.4
▁objekata	-10.4001
▁potkraj	-10.4002
▁david	-10.4008
ruši	-10.4011
hrvatsko	-10.4017
▁brda	-10.4018
▁drago	-10.402
šle	-10.4021
ljani	-10.4021
▁dvorac	-10.4024
▁kanala	-10.4025
▁ratnih	-10.4029
▁građanskog	-10.4034
194	-10.4035
▁strukture	-10.4036
▁završn	-10.4037
▁brijeg	-10.4038
▁psiho	-10.4041
▁samostana	-10.4054
▁pen	-10.4057
cor	-10.4069
▁glavnim	-10.407
▁identitet	-10.4073
▁prosvjed	-10.4073
▁dovršen	-10.4073
▁stajal	-10.4074
▁iduć	-10.4075
▁središnji	-10.408
▁mjern	-10.408
▁niže	-10.408
ničko	-10.4081
▁mineral	-10.4083
▁odrasl	-10.4089
▁120	-10.409
▁peter	-10.4091
tacija	-10.4094
tona	-10.4095
▁maksim	-10.4097
▁senat	-10.41
▁latinski	-10.4108
▁otišao	-10.411
čnu	-10.411
▁poljsko	-10.411
fri	-10.411
▁marka	-10.4114
tez	-10.4114
▁vladu	-10.412
▁italija	-10.4123
▁glasi	-10.4123
▁ger	-10.4124
gur	-10.4124
▁granici	-10.4125
▁gradskog	-10.4126
▁rima	-10.4126
▁elektrona	-10.4127
čića	-10.413
▁opat	-10.4132
čast	-10.4135
▁(4	-10.4135
▁muž	-10.4136
7%	-10.4138
godišnji	-10.4138
▁kontrolira	-10.4146
▁kubrick	-10.4146
▁1921.	-10.4146
▁pomak	-10.4146
▁istok	-10.4147
▁napravio	-10.4149
▁sumpor	-10.4149
▁redovito	-10.4155
▁širenje	-10.4157
▁orijent	-10.4163
▁nalazila	-10.4171
▁državna	-10.4183
▁prosincu	-10.4183
▁spominju	-10.4183
▁afrike	-10.4183
▁čvor	-10.4183
▁1979.	-10.4183
▁1950.	-10.4183
▁zvjezdan	-10.4183
▁medicinsk	-10.4183
▁2016.	-10.4183
▁hdz	-10.4183
▁lijevo	-10.4184
▁učinak	-10.4185
ple	-10.4185
▁raditi	-10.4188
▁zrin	-10.4202
▁klubovi	-10.4206
▁izbija	-10.4207
):	-10.421
▁pisani	-10.4214
▁carev	-10.4214
▁hit	-10.4215
▁talijanske	-10.422
▁srednja	-10.4221
▁indijanci	-10.4221
▁dioksid	-10.4221
usa	-10.4222
▁kotor	-10.4223
▁povratak	-10.4223
▁većine	-10.4227
▁herakl	-10.4228
▁rade	-10.4228
▁atom	-10.4228
▁parišk	-10.4229
▁njihovu	-10.4231
▁elektron	-10.4236
▁krv	-10.424
▁osvojili	-10.4253
▁španjolske	-10.4257
▁partner	-10.4257
▁obližnj	-10.4257
▁efekt	-10.4257
▁pobunjeni	-10.4257
▁kora	-10.4258
▁visini	-10.426
▁dizajn	-10.4264
▁ističu	-10.4266
▁stilu	-10.4273
▁riječima	-10.4277
šnje	-10.429
▁kćeri	-10.4293
▁bombardira	-10.4294
▁uhićen	-10.4294
▁izražen	-10.4294
▁bivš	-10.4294
▁izgradnja	-10.4294
▁pokazao	-10.4294
▁parlamentarn	-10.4296
▁blažen	-10.4298
▁održavaju	-10.4298
▁bosna	-10.4302
▁azije	-10.4305
▁periodu	-10.4305
rođen	-10.4306
▁nastalo	-10.4307
mak	-10.4308
slika	-10.431
▁planira	-10.4321
ket	-10.4324
čnost	-10.4325
▁kulturne	-10.4331
▁oštećen	-10.4331
ovski	-10.4336
▁građanski	-10.434
▁izuzetno	-10.4342
▁hol	-10.4343
▁web	-10.4344
ius	-10.4353
▁likovi	-10.4354
▁svemirsk	-10.4355
▁lige	-10.4358
sten	-10.4358
▁vulkan	-10.436
▁gene	-10.4361
▁pristupa	-10.4366
vela	-10.4368
▁krešimir	-10.4369
▁studenom	-10.4369
▁vrijedi	-10.4369
▁cezar	-10.437
▁/	-10.4374
▁nekad	-10.4375
gdje	-10.4377
▁računaln	-10.4383
▁osjeća	-10.4384
štva	-10.4385
▁starih	-10.4389
▁metala	-10.439
▁počelo	-10.4391
▁prevladava	-10.4392
▁nalazimo	-10.4399
▁nemoguć	-10.4406
▁smanjuje	-10.4406
▁prvenstva	-10.4406
▁vinograd	-10.4406
▁dvanaest	-10.4406
▁mlađe	-10.4406
▁proizvodnji	-10.4411
▁nada	-10.4417
▁bavio	-10.442
▁duga	-10.4421
▁obred	-10.4423
▁narodna	-10.4437
nijeti	-10.4441
▁proljeće	-10.4444
▁nobelov	-10.4445
▁pruga	-10.4446
▁imale	-10.4448
▁domaćin	-10.4451
▁edi	-10.4454
▁katar	-10.4455
dugo	-10.4456
▁većini	-10.4457
▁zanimljiv	-10.446
▁ovoga	-10.4463
%),	-10.4468
pul	-10.4468
▁redu	-10.4475
▁ljubavi	-10.4476
▁karlov	-10.4478
▁dobra	-10.4479
▁ostavio	-10.448
▁povijesne	-10.4482
▁francuskog	-10.4482
plet	-10.4482
▁izaziva	-10.4482
▁istočnom	-10.4483
▁opaža	-10.4484
▁snimljen	-10.4485
hot	-10.4486
▁žanr	-10.4488
▁ruskog	-10.4496
▁udio	-10.4496
▁gospodarske	-10.4496
▁dodir	-10.4499
▁priznat	-10.4503
▁prednost	-10.451
▁zasje	-10.4514
ljene	-10.4514
▁biljn	-10.4519
▁washington	-10.452
▁rukopis	-10.452
▁1952.	-10.452
▁1974.	-10.452
▁omogući	-10.4521
▁fr	-10.4522
▁peći	-10.4524
▁zlato	-10.4526
sion	-10.4533
▁prob	-10.4535
▁stvorio	-10.4538
stre	-10.4544
▁monarh	-10.4546
▁forma	-10.4546
▁đur	-10.4548
▁nasuprot	-10.4558
▁kulturu	-10.4558
▁izračun	-10.4558
▁1914.	-10.4558
▁provincije	-10.4559
▁blisko	-10.4559
gubi	-10.4561
rob	-10.4561
▁narodni	-10.4564
država	-10.4566
▁saveznici	-10.4567
▁krist	-10.457
▁geološk	-10.4584
▁makar	-10.4585
▁mik	-10.4588
▁propis	-10.4593
▁godišnji	-10.4594
bon	-10.4596
▁poremećaj	-10.4596
▁mnoštvo	-10.4596
▁osnovnu	-10.4596
▁mreža	-10.4596
▁dječj	-10.4596
▁odbora	-10.4598
▁zlata	-10.46
▁faktor	-10.46
▁cm	-10.4602
▁zone	-10.4605
▁bed	-10.4617
rab	-10.4617
▁kit	-10.4622
kovac	-10.4622
kv	-10.4626
▁loše	-10.4626
▁autora	-10.4626
▁rusija	-10.463
▁grci	-10.4632
▁trebala	-10.4634
▁društvu	-10.4635
▁osvojen	-10.4635
▁otkril	-10.4636
▁svećenika	-10.4637
▁bilježi	-10.4638
▁učenika	-10.464
▁marko	-10.4643
▁jezicima	-10.4646
▁crn	-10.4649
▁župan	-10.4651
▁ovakv	-10.4655
▁malim	-10.4665
▁ranjen	-10.4666
▁jam	-10.4667
▁zakonodav	-10.4673
▁mehaničk	-10.4673
▁dotadašnj	-10.4674
▁zaustavi	-10.4674
▁stožer	-10.4674
▁dušik	-10.4675
▁sličan	-10.4675
▁col	-10.4678
▁vruć	-10.4681
▁bjel	-10.4683
▁plovi	-10.4687
▁drevn	-10.4691
▁znanstvenici	-10.4693
▁veću	-10.4695
ugarska	-10.4697
▁oceana	-10.47
▁njom	-10.4705
▁uspon	-10.4708
▁posljedice	-10.4712
▁španjolski	-10.4712
▁liječnik	-10.4712
▁određivanj	-10.4712
▁cestovn	-10.4712
▁izgradnju	-10.4712
▁dvij	-10.4716
▁htio	-10.4717
▁znanja	-10.4718
▁got	-10.472
▁etnički	-10.472
▁vlak	-10.4721
▁otocima	-10.4726
▁faza	-10.4732
▁stavi	-10.4736
▁igrača	-10.4737
▁međunarodna	-10.474
▁potencijal	-10.4747
▁vijek	-10.4749
▁glava	-10.475
▁otkrića	-10.4751
▁službu	-10.4751
▁africi	-10.4751
▁zasebn	-10.4751
▁1917.	-10.4751
▁važnost	-10.4756
▁ponudi	-10.4758
▁einstein	-10.476
wer	-10.4761
▁drugoga	-10.4768
▁španjolsko	-10.4771
▁mand	-10.4772
▁branitelj	-10.4779
▁pisci	-10.4786
▁novoj	-10.4787
▁populacije	-10.479
▁rijetki	-10.479
▁1981.	-10.479
▁1963.	-10.479
▁predstavnici	-10.4793
▁drugačij	-10.4793
▁ruske	-10.4793
▁hiper	-10.4802
▁kemijski	-10.4804
▁umire	-10.481
▁moj	-10.4819
▁nasljedn	-10.482
▁rab	-10.4822
▁metan	-10.4828
▁akademije	-10.4829
▁austrijsko	-10.4829
▁tjelesn	-10.4829
▁1973.	-10.4829
▁reakcija	-10.483
▁kvantn	-10.483
▁formalno	-10.483
▁apolon	-10.483
▁plod	-10.483
▁baštine	-10.4832
▁poraza	-10.4833
▁malen	-10.4837
▁sadržava	-10.4843
▁hrvatima	-10.4843
▁sredi	-10.4847
▁centraln	-10.4854
ky	-10.4857
▁tlo	-10.486
▁studirao	-10.4861
▁may	-10.4861
▁duboko	-10.4862
▁trgovine	-10.4866
▁onaj	-10.4867
▁glumac	-10.4869
▁1987.	-10.4869
▁1969.	-10.487
▁platon	-10.4873
▁juraj	-10.4873
▁prvak	-10.4877
▁glavnom	-10.4886
▁papir	-10.4891
▁stabiln	-10.4894
▁baj	-10.4895
▁osnovano	-10.4908
▁jefferson	-10.4908
▁industriji	-10.4908
▁1932.	-10.4908
▁1977.	-10.4908
▁krenuo	-10.4909
▁uvelike	-10.4909
-1	-10.4915
▁stvaraju	-10.4923
▁nacističk	-10.4925
▁bok	-10.4928
▁bon	-10.4928
▁razine	-10.4941
▁37	-10.4944
▁klimatsk	-10.4947
▁knjigu	-10.4948
▁dugotrajn	-10.4948
▁blagdan	-10.4948
▁vjetra	-10.4948
▁staza	-10.4953
ovići	-10.4962
▁goriva	-10.4963
▁potroš	-10.4967
▁redovi	-10.4977
▁kg	-10.4979
▁gran	-10.4979
▁napor	-10.4983
...)	-10.4983
▁došla	-10.4983
bog	-10.4987
▁nedaleko	-10.4988
▁1936.	-10.4988
▁tiskan	-10.4988
▁osnovno	-10.4989
▁većeg	-10.499
▁društveni	-10.4995
▁%)	-10.4995
▁starom	-10.4996
▁dodatno	-10.4998
inter	-10.4999
lip	-10.5001
▁mađarske	-10.5002
ništva	-10.5005
ičnih	-10.5006
▁raš	-10.5008
▁židovi	-10.5011
▁ideolog	-10.5011
rstva	-10.5012
▁smatrali	-10.5013
▁brodovi	-10.5019
▁1955.	-10.5028
▁1928.	-10.5028
▁zadržal	-10.5028
▁mitologiji	-10.5028
▁hss	-10.5031
▁siromašn	-10.5034
▁xx	-10.504
yja	-10.5047
▁gli	-10.5051
▁vodom	-10.5052
ble	-10.5053
cer	-10.5054
dok	-10.5055
▁unutarnji	-10.5055
bot	-10.5055
fran	-10.5063
▁međuvremenu	-10.5068
▁njemačku	-10.5068
▁dječak	-10.5068
▁1972.	-10.5068
▁metode	-10.5068
tska	-10.5069
▁1930.	-10.507
▁klasi	-10.507
▁mili	-10.5072
190	-10.5074
▁smještaj	-10.5075
▁stranica	-10.5075
▁vratiti	-10.5077
▁sukobi	-10.508
▁146	-10.5081
▁nitko	-10.5082
▁čeka	-10.5083
▁kraljevina	-10.5084
▁sunčeva	-10.5089
umjetn	-10.5089
▁napustio	-10.5093
tle	-10.5094
▁američka	-10.5108
▁pobjedu	-10.5108
▁2021.	-10.5109
▁slučajeva	-10.5111
▁bas	-10.5115
▁pravopis	-10.5119
▁vjern	-10.5121
▁lee	-10.5123
▁narodi	-10.5123
▁graničn	-10.5125
▁popularnost	-10.5127
▁kuću	-10.513
▁ven	-10.5138
ističko	-10.5142
▁tlu	-10.5145
▁svjedoče	-10.5149
▁pjesmu	-10.5149
▁veljači	-10.5149
▁upravu	-10.5149
▁vlasnik	-10.5149
mitologija	-10.515
▁naglo	-10.5151
61.	-10.5152
kut	-10.5155
▁poziva	-10.5156
▁ponašanje	-10.516
▁administrativn	-10.5161
hel	-10.5161
▁dvojic	-10.5162
▁virus	-10.5163
▁proton	-10.5167
▁društveno	-10.5167
▁raspoređenih	-10.5169
96.	-10.5169
▁povremeno	-10.517
▁gospić	-10.5172
▁graditelj	-10.5175
▁planu	-10.5176
▁istarsk	-10.5179
▁režima	-10.5181
▁momčadi	-10.5183
▁manjim	-10.5185
▁(10	-10.5186
▁teritoriju	-10.5189
▁postrojbi	-10.5189
▁doživjel	-10.5189
▁2015.	-10.519
▁komunističke	-10.5191
novo	-10.5195
ling	-10.5195
pija	-10.5197
way	-10.5202
▁pita	-10.5207
drag	-10.5208
▁istaknuti	-10.5209
ukrajinsk	-10.5213
▁geografsk	-10.5214
▁psiholog	-10.5216
dubrav	-10.5226
199	-10.5229
▁državljan	-10.523
▁svrhu	-10.523
▁prirodne	-10.523
▁1900.	-10.523
▁pluton	-10.523
▁korpus	-10.5231
▁mišljenje	-10.5231
mus	-10.5231
▁sasta	-10.5231
▁odluku	-10.5231
▁prvotn	-10.5235
▁nadalje	-10.524
▁prethodno	-10.524
▁regiji	-10.5242
▁800	-10.5242
196	-10.5253
rene	-10.5255
▁brač	-10.5256
▁zagrebački	-10.526
▁radničk	-10.5262
▁medi	-10.5263
▁izravn	-10.5266
▁najvažnije	-10.5271
▁sredozemn	-10.5271
▁1949.	-10.5271
▁zavjet	-10.5271
▁originaln	-10.5272
▁brig	-10.5273
▁nose	-10.5275
ština	-10.5278
▁ljeti	-10.528
▁pjevač	-10.5282
▁reformi	-10.529
▁stopa	-10.5295
▁stupanj	-10.5296
▁dalj	-10.5298
čita	-10.5306
▁prozor	-10.5309
znak	-10.531
▁isprva	-10.5312
▁ovlasti	-10.5312
▁1986.	-10.5312
▁1962.	-10.5313
▁naselju	-10.5314
▁udružen	-10.5314
▁vareš	-10.5317
▁crkveni	-10.5317
▁visoki	-10.5319
▁ugarsko	-10.5325
▁planeti	-10.5326
▁borbu	-10.5326
▁našao	-10.5327
▁vodu	-10.5331
▁hel	-10.5334
trp	-10.5337
▁zanimljivo	-10.5337
▁rezultira	-10.5339
tes	-10.5346
▁zemljopisne	-10.535
в	-10.5353
▁funkcije	-10.5354
▁proizvođač	-10.5354
▁1910.	-10.5354
▁2017.	-10.5354
▁nazvao	-10.5354
▁podzemn	-10.5358
▁obavi	-10.5374
▁valova	-10.5378
▁milijardi	-10.5378
▁radić	-10.5381
▁daljnje	-10.5381
mišlja	-10.5384
▁lokal	-10.5385
▁baza	-10.5386
ring	-10.5386
▁žal	-10.5387
▁prešl	-10.5389
▁plodn	-10.539
istička	-10.5391
▁koordinat	-10.5395
▁1933.	-10.5395
▁tradiciju	-10.5395
▁oženio	-10.5395
▁opskrb	-10.5395
▁1931.	-10.5395
▁pjesničk	-10.5395
▁1912.	-10.5395
▁srebrn	-10.5396
▁zastupljen	-10.5396
▁okomit	-10.5396
mes	-10.5397
▁vrhovni	-10.5398
▁nekada	-10.5402
hil	-10.5402
▁oblici	-10.5404
▁uzgoj	-10.5405
▁odbaci	-10.5405
izmom	-10.5405
▁jugoslavenske	-10.541
▁istraži	-10.5415
trija	-10.5418
čnog	-10.542
▁radnika	-10.5421
▁zamijen	-10.5428
▁pobjednik	-10.5437
▁kontrolom	-10.5437
▁sljedeća	-10.5437
▁britanske	-10.5437
▁zagrijava	-10.5437
▁mlađi	-10.5437
▁1924.	-10.5437
▁zadatak	-10.5437
▁lenjin	-10.5438
▁ustanova	-10.5439
▁jack	-10.5439
▁tijek	-10.5442
▁vjeruje	-10.5447
služi	-10.5457
▁značajna	-10.546
▁pronađeni	-10.5461
▁puš	-10.5463
ologiju	-10.5466
▁korak	-10.5472
hit	-10.5476
▁engleske	-10.5479
▁homoseksualn	-10.5479
▁objavljuje	-10.5479
▁namijenjen	-10.5479
▁žestok	-10.5479
▁autobus	-10.5479
▁pojačan	-10.548
▁istri	-10.5481
▁vrhunac	-10.5481
▁podatci	-10.5482
▁viktor	-10.5485
▁noć	-10.5487
▁revolucionarn	-10.5488
▁sliku	-10.5488
▁vojskom	-10.5488
▁posjetio	-10.5489
▁posred	-10.549
▁ter	-10.549
▁zauzel	-10.5494
▁zovu	-10.5501
▁mnoga	-10.5502
6%	-10.5503
got	-10.5504
▁vladao	-10.5508
▁stvoril	-10.5508
ther	-10.5514
▁česti	-10.5516
olitik	-10.5517
▁katolička	-10.5521
▁svjedoči	-10.5521
▁vojsci	-10.5521
▁snažni	-10.5522
▁stotina	-10.5522
hal	-10.5523
dis	-10.5523
roman	-10.5527
▁mobil	-10.5533
bus	-10.5534
▁diplomatsk	-10.5535
▁najmanj	-10.5536
dub	-10.5539
▁polarn	-10.5547
▁ustavn	-10.5549
by	-10.5553
zagreb	-10.5554
zvon	-10.5555
▁bića	-10.5555
▁crveni	-10.5558
69.	-10.5561
▁osvojila	-10.5561
▁kazalište	-10.5563
▁lincoln	-10.5563
▁amonijak	-10.5563
▁urugvaj	-10.5563
▁koncept	-10.5563
▁proračun	-10.5563
▁kritike	-10.5563
▁bolesnik	-10.5563
▁tehnike	-10.5563
▁elementarn	-10.5565
▁europu	-10.5565
▁sobom	-10.5566
pas	-10.5566
▁konzul	-10.5566
▁teme	-10.5568
▁mađarskoj	-10.5569
▁dinar	-10.557
▁katoličko	-10.5571
tički	-10.5573
▁tvore	-10.5575
▁ubija	-10.5577
▁draž	-10.5577
▁(197	-10.5578
▁sjeverna	-10.5579
▁širine	-10.5581
▁pare	-10.5582
▁neovisnosti	-10.5582
▁ubio	-10.5582
202	-10.5584
▁kraljica	-10.5593
▁dubrovniku	-10.5596
▁sazna	-10.5603
▁engleskoj	-10.5605
▁signal	-10.5605
▁francusku	-10.5605
▁banovine	-10.5605
▁reforme	-10.5606
▁poslove	-10.5606
▁komercijaln	-10.5609
▁slobode	-10.5609
▁odvaja	-10.5609
win	-10.5612
▁zemaljsk	-10.5626
▁nikole	-10.5626
▁ispit	-10.5637
▁turski	-10.5639
▁prodor	-10.564
već	-10.564
cht	-10.5644
▁doček	-10.5645
▁izdanja	-10.5647
▁aleksandar	-10.5648
▁obilježen	-10.5648
▁poduzeća	-10.5648
▁fizike	-10.5648
▁subjekt	-10.5648
▁vatikan	-10.5649
▁slijede	-10.565
▁radikaln	-10.565
▁razvila	-10.5651
▁vojnog	-10.5653
▁držal	-10.5656
hy	-10.5658
▁arheološki	-10.566
▁novčan	-10.5666
▁okupira	-10.5667
▁vijest	-10.5673
▁augustin	-10.5677
▁uveo	-10.5681
▁barem	-10.5682
▁saboru	-10.569
▁sasvim	-10.5691
▁izdavač	-10.5694
▁baltičk	-10.5701
▁ploče	-10.5704
▁fla	-10.5704
poznat	-10.5708
▁očev	-10.5709
▁pritom	-10.5714
▁preporu	-10.5718
▁vas	-10.5724
▁zadarsk	-10.5725
▁poduzet	-10.5726
▁poluotoka	-10.5728
▁jednaka	-10.573
▁funkcija	-10.5733
▁tradicija	-10.5733
▁rukomet	-10.5734
▁postojanja	-10.5734
▁1964.	-10.5734
▁osnovu	-10.5734
▁republiku	-10.5734
▁kosti	-10.5734
▁podatke	-10.5734
▁privatno	-10.5736
▁priču	-10.5739
▁neutraln	-10.5741
▁perioda	-10.5742
▁križarsk	-10.5743
▁dužine	-10.5743
▁dobre	-10.5745
▁teže	-10.5746
▁dunava	-10.5758
▁48	-10.5758
ijskog	-10.5759
▁biskupije	-10.576
▁županijsk	-10.5772
▁predviđa	-10.5777
▁frankopan	-10.5777
▁prilično	-10.5777
▁1966.	-10.5777
▁revolucija	-10.5777
▁skupština	-10.5778
▁povjesničari	-10.578
▁razina	-10.5781
▁helen	-10.5782
▁opisao	-10.5786
▁nalazišta	-10.5788
▁umjetnika	-10.5789
▁psihološk	-10.5789
▁olimpijskim	-10.5794
vuče	-10.5799
▁služil	-10.58
▁njime	-10.5811
▁roditelj	-10.5812
▁letjelica	-10.582
▁poseban	-10.582
▁ishod	-10.582
narod	-10.5821
▁radioaktivn	-10.5821
▁front	-10.5821
▁internet	-10.5825
▁(14	-10.5827
art	-10.5828
▁snijeg	-10.5828
▁podacima	-10.5832
▁savezničk	-10.5833
▁uspostavlja	-10.5833
▁zemljopisni	-10.5834
▁iliri	-10.584
▁ukupnog	-10.5847
get	-10.5852
arska	-10.5854
▁probleme	-10.5855
tok	-10.5859
fil	-10.5862
▁aristotel	-10.5863
▁usprkos	-10.5863
▁1965.	-10.5864
▁suradnik	-10.5865
▁puškin	-10.5866
▁nastavak	-10.5867
▁proteže	-10.587
ranih	-10.5883
▁željezo	-10.5884
ljak	-10.5885
▁takvih	-10.5885
organiz	-10.5886
▁svemira	-10.5887
▁250	-10.5888
popular	-10.589
▁lis	-10.5896
▁pir	-10.5897
▁doseljen	-10.5906
▁atentat	-10.5907
▁knjižnica	-10.5907
▁1982.	-10.5907
▁nepri	-10.5907
▁1976.	-10.5907
▁brigade	-10.5907
▁1925.	-10.5907
▁reich	-10.591
▁anarh	-10.591
▁gradskih	-10.591
▁tadašnj	-10.5913
▁vatre	-10.5914
▁otopi	-10.5915
▁podijeli	-10.5917
▁arapsko	-10.5921
▁slovo	-10.5923
▁političkim	-10.5924
▁karta	-10.5935
▁mađarski	-10.5936
▁političkog	-10.5941
▁beli	-10.5948
▁izgubljen	-10.5951
▁jugoslavija	-10.5951
▁prisutnost	-10.5951
▁otkriće	-10.5951
▁zbirka	-10.5951
▁pravcu	-10.5951
▁ponavlja	-10.5951
▁precizn	-10.5951
▁označi	-10.5951
▁sadrže	-10.5951
▁morali	-10.5953
▁stop	-10.5955
▁kisel	-10.5955
▁povrat	-10.5957
▁ford	-10.5957
▁mornar	-10.5957
▁grupi	-10.5967
▁sigurnosti	-10.5968
bat	-10.5974
▁moz	-10.5974
▁jasen	-10.5976
žić	-10.5977
▁supruga	-10.5977
▁crni	-10.5984
▁mandata	-10.5989
▁referendum	-10.5995
▁tržištu	-10.5995
▁1990-	-10.5995
▁aluminij	-10.5995
▁1905.	-10.5995
▁ogromn	-10.5995
▁kršćani	-10.5995
▁carigrad	-10.5995
▁vlastelin	-10.5995
▁donesen	-10.5996
▁riješi	-10.5996
▁aziji	-10.5996
▁turska	-10.5997
▁sezoni	-10.5999
▁princ	-10.6
▁povećanje	-10.6001
▁djelovao	-10.6008
▁klubova	-10.601
▁prostorima	-10.6015
▁dolina	-10.6019
▁hladno	-10.6026
▁unutarnje	-10.6026
ljenih	-10.603
▁nebo	-10.6034
▁poznatih	-10.6035
▁pojavio	-10.6039
▁otočić	-10.604
talijan	-10.6044
▁140	-10.6045
▁pohađa	-10.6061
▁pouzdan	-10.6069
▁umjetničko	-10.607
▁najboljih	-10.6072
▁prirodnog	-10.6079
▁povijesnih	-10.6082
▁engleskog	-10.6084
▁kršćanstvo	-10.6084
▁patrijarh	-10.6084
▁okupacije	-10.6084
▁poveznice	-10.6084
▁karijera	-10.6084
▁1922.	-10.6084
▁južna	-10.6084
▁crtež	-10.6084
▁arhitekture	-10.6084
▁uzrokovan	-10.6087
▁palača	-10.6093
▁direktor	-10.6095
▁obrazovanja	-10.6098
▁2000	-10.6098
▁vojnim	-10.61
▁zapada	-10.6104
▁ugljik	-10.6105
▁visoka	-10.6105
▁naredn	-10.6105
▁važnosti	-10.6109
▁glad	-10.6111
▁radnja	-10.6114
▁cijelu	-10.6117
▁župna	-10.6118
▁služio	-10.6119
▁bogu	-10.6125
▁sredstvo	-10.6128
▁ubraja	-10.6129
▁indijanaca	-10.6129
▁izgradnje	-10.6129
▁matičn	-10.6134
▁ovis	-10.6135
▁federaln	-10.6137
▁partizani	-10.6137
!"	-10.6143
▁uvoz	-10.6145
▁jakov	-10.6148
▁znanstvenik	-10.615
▁koristili	-10.6155
▁spadaju	-10.616
▁kras	-10.6162
▁stoji	-10.6167
▁42	-10.6171
▁sarajevo	-10.6173
▁započet	-10.6173
▁1908.	-10.6173
▁reagira	-10.6173
▁teoriji	-10.6173
▁brzinu	-10.6176
▁gubitak	-10.6177
▁ljudskog	-10.6178
▁uvjeren	-10.6181
ljetn	-10.6181
qua	-10.6183
reb	-10.6187
gua	-10.6188
▁godišnja	-10.6188
▁trgova	-10.6192
▁kolonijaln	-10.6206
▁save	-10.6208
▁"(	-10.6213
▁makedonsk	-10.6213
alnog	-10.6217
▁akademiji	-10.6218
▁austrijski	-10.6218
▁engleskom	-10.6218
▁1984.	-10.6218
▁poražen	-10.6218
▁zvonik	-10.6219
▁leonard	-10.6219
▁božje	-10.6219
▁četničk	-10.6225
100	-10.6227
▁turizma	-10.6231
143	-10.6235
▁zadržava	-10.6237
▁saveznika	-10.6239
▁učenici	-10.624
franc	-10.6243
bilje	-10.6244
▁osobine	-10.6246
▁osobi	-10.6247
▁krut	-10.6248
▁trgu	-10.6254
▁raspad	-10.6257
▁okruga	-10.626
▁imenova	-10.626
▁drin	-10.6261
cher	-10.6263
▁mjesečev	-10.6263
▁slavoniji	-10.6263
▁srednjoj	-10.6264
▁građevine	-10.6264
▁german	-10.6264
▁izjavio	-10.6267
luči	-10.627
▁gospod	-10.6271
▁trogir	-10.6273
▁opisan	-10.6274
simfoni	-10.6276
beg	-10.6276
▁ex	-10.6278
lović	-10.6279
▁singl	-10.628
col	-10.6284
▁izdanje	-10.6288
stanje	-10.6289
▁žele	-10.6298
▁volje	-10.6301
▁vodič	-10.6302
▁bjelorusi	-10.6309
▁društvene	-10.6309
▁muškaraca	-10.6309
▁omogućuje	-10.6309
▁karijeru	-10.6309
▁porijeklo	-10.6309
▁1958.	-10.6309
▁kršćanski	-10.6309
tacije	-10.631
▁ligi	-10.6313
%)	-10.6314
▁vlastitu	-10.6314
▁duhovno	-10.6315
▁akcije	-10.6321
remen	-10.6328
▁bora	-10.6337
▁utje	-10.634
▁odsje	-10.6341
▁manjina	-10.6341
▁najvjerojatnije	-10.6354
▁potječu	-10.6355
▁mreže	-10.6355
▁čakavsk	-10.6356
▁raspored	-10.6356
šak	-10.6357
▁padalina	-10.6357
pisan	-10.6358
▁vlažn	-10.6361
čje	-10.6364
▁kometa	-10.6373
▁central	-10.6375
197	-10.6378
▁zauzet	-10.6378
▁benedikt	-10.6384
▁mjerenja	-10.6388
▁mc	-10.639
▁sestre	-10.639
jica	-10.6394
▁final	-10.6394
▁ustava	-10.6396
▁zvonimir	-10.64
▁objašnjava	-10.64
▁renesansn	-10.64
▁obnavlja	-10.64
▁protestantsk	-10.64
▁zaborav	-10.6401
▁generacije	-10.6401
▁travnik	-10.6401
▁neba	-10.6405
socijal	-10.6412
▁krajeva	-10.6413
▁zidina	-10.6413
▁čelik	-10.6414
▁autonomn	-10.642
▁uloge	-10.6427
▁povezanost	-10.6432
▁gorja	-10.6441
▁bukov	-10.6442
▁34	-10.6445
▁dominantn	-10.6446
▁inozemstvu	-10.6446
▁televizijsk	-10.6446
▁završetka	-10.6446
▁uspjela	-10.6447
▁1934.	-10.6447
▁ribolov	-10.6447
▁merkur	-10.6447
▁1861.	-10.645
▁broz	-10.6453
▁jači	-10.6457
▁krila	-10.6459
▁jupiterov	-10.6459
▁maur	-10.6464
▁vječn	-10.6468
▁školovanje	-10.6468
▁božić	-10.6479
kriv	-10.6481
▁zatvara	-10.6483
▁700	-10.6486
▁fazi	-10.6488
▁ruž	-10.6492
▁želio	-10.6492
▁financira	-10.6493
▁narječja	-10.6493
▁izdvaja	-10.6493
▁pedeset	-10.6493
▁tisuće	-10.6493
▁britanija	-10.6493
▁1951.	-10.6493
▁1935.	-10.6493
▁2019.	-10.6493
▁1923.	-10.6493
pret	-10.6497
▁baca	-10.65
▁glavi	-10.6504
well	-10.6506
▁filozofiju	-10.6507
▁sjedištem	-10.651
tul	-10.6512
▁scenarij	-10.6512
▁naseljeno	-10.6526
modern	-10.6533
▁grafičk	-10.6535
▁75	-10.6537
▁goebbels	-10.6539
▁charles	-10.6539
▁resurs	-10.6539
▁političku	-10.6539
▁1937.	-10.6539
▁1954.	-10.6539
▁uništava	-10.654
▁transport	-10.6541
▁pliva	-10.6545
▁bet	-10.6546
▁nacionalnih	-10.6547
▁okolnosti	-10.6547
▁treća	-10.6548
▁cel	-10.6553
▁polazi	-10.6559
▁kula	-10.6564
▁negdje	-10.6566
▁putnika	-10.6568
▁književnog	-10.657
▁(198	-10.6571
▁operacijsk	-10.6572
▁zadra	-10.6578
▁dobivaju	-10.6579
▁energ	-10.6584
▁austriji	-10.6586
▁inicijativ	-10.6586
▁kći	-10.6587
▁kritizira	-10.6587
jenjiv	-10.6587
▁drave	-10.6589
▁spojevi	-10.659
▁zagrebačke	-10.659
▁multi	-10.6593
▁požar	-10.6597
▁cijena	-10.66
▁jelen	-10.6601
▁trgovina	-10.6611
▁kapeli	-10.6612
nđel	-10.6617
▁europski	-10.6617
▁borba	-10.6619
▁stalni	-10.6623
▁poginulo	-10.6633
▁učinkovit	-10.6633
▁najstarije	-10.6633
▁sudjelovanj	-10.6633
▁pakistan	-10.6633
▁prezime	-10.6635
▁visokim	-10.6635
podravsk	-10.6636
▁specijaln	-10.664
▁rt	-10.664
▁groblju	-10.6641
▁rođenja	-10.6648
▁potpisiva	-10.665
▁današnjih	-10.6658
▁aktivni	-10.6659
▁ozon	-10.6663
▁župi	-10.6664
moć	-10.6669
▁banj	-10.667
▁obrat	-10.6672
▁regis	-10.668
▁najpoznatije	-10.668
▁istoka	-10.6681
▁uzrokuje	-10.6684
▁ravnatelj	-10.6684
▁bave	-10.6685
▁standardn	-10.6689
▁industrijski	-10.6689
▁stvarnosti	-10.6692
lijep	-10.6693
▁približava	-10.6697
ré	-10.6698
▁smjesti	-10.6708
▁južnog	-10.6708
▁odgovarajuć	-10.6718
▁vanjskih	-10.6726
rice	-10.6726
▁liječenje	-10.6727
▁naslijedio	-10.6728
▁preporod	-10.6728
mjesečn	-10.6728
▁britanci	-10.6728
▁zaštiti	-10.6728
▁pljačk	-10.6728
sveti	-10.6729
cy	-10.673
▁slobodu	-10.6731
▁bogart	-10.6732
▁nastale	-10.6732
škoj	-10.6732
▁izraelsk	-10.6735
▁najniž	-10.6735
▁dobiven	-10.6737
▁prekida	-10.6739
▁grčka	-10.6739
▁goran	-10.674
pored	-10.6744
▁odredb	-10.6747
ističkih	-10.6749
▁približ	-10.6753
▁ispitiva	-10.6756
▁64	-10.6757
▁ker	-10.6758
▁65	-10.6772
▁osvajanje	-10.6774
▁enciklopedi	-10.6775
▁habsburg	-10.6775
▁vlasništvu	-10.6775
▁globaln	-10.6775
▁stamben	-10.6775
▁feudaln	-10.6775
▁viz	-10.6775
▁1978.	-10.6775
▁pripojen	-10.6775
▁neobičn	-10.6776
▁ostatci	-10.6776
▁gust	-10.6782
=4	-10.6786
▁otp	-10.6788
▁ostalog	-10.6795
▁tragovi	-10.6795
▁promjera	-10.6797
▁učinio	-10.6801
▁savršen	-10.6803
▁potpisan	-10.681
▁guverner	-10.6823
▁izazval	-10.6823
▁kreću	-10.6824
▁slične	-10.6825
▁verzija	-10.6828
▁špil	-10.6828
mont	-10.6839
▁oboje	-10.684
▁stanice	-10.6842
▁objavil	-10.6843
▁izdao	-10.6846
▁optičk	-10.6847
▁dotad	-10.6849
▁klase	-10.6851
rič	-10.6856
▁bloka	-10.6859
▁portugalsk	-10.6869
▁110	-10.687
▁iskorištava	-10.6871
▁genocid	-10.6871
▁postrojba	-10.6871
▁thomas	-10.6871
▁duljina	-10.6871
▁dolazak	-10.6871
▁1913.	-10.6871
▁2018.	-10.6871
▁diplomirao	-10.6872
▁obnaša	-10.6872
▁posvetio	-10.6872
▁metković	-10.6874
▁učenik	-10.6876
▁hrast	-10.6881
▁posebne	-10.6881
▁kretanja	-10.6888
▁stvaranju	-10.6897
▁kijev	-10.6897
▁vidio	-10.6905
▁tradicionalni	-10.6908
lly	-10.6911
hum	-10.6912
▁uvjeti	-10.6916
▁datum	-10.6916
ferenc	-10.6916
▁postigao	-10.6919
▁najveću	-10.692
▁(5	-10.6921
▁rog	-10.6921
▁nositelj	-10.6924
▁horvat	-10.6928
vec	-10.6932
▁kud	-10.6934
▁kreta	-10.6943
▁proučavanje	-10.6943
▁tokom	-10.6944
štine	-10.6944
▁istaknut	-10.6944
300	-10.6946
▁proizvode	-10.6953
▁sredini	-10.6954
▁klo	-10.6956
▁slavenski	-10.6958
▁znanje	-10.6959
▁stepinac	-10.6968
▁milošević	-10.6968
▁poginuli	-10.6968
▁tradicije	-10.6968
▁zaštite	-10.6968
▁izvršen	-10.6968
▁životinjsk	-10.6969
▁uzgaja	-10.6969
▁počasn	-10.6969
▁tehnika	-10.6969
▁naravno	-10.697
▁prihvatio	-10.6978
▁propast	-10.698
▁olimp	-10.6984
▁otrov	-10.6985
▁jelačić	-10.6987
▁milijard	-10.6988
▁šef	-10.6992
▁spojen	-10.6993
▁novine	-10.6994
▁činili	-10.6995
vce	-10.7
▁zakonom	-10.7004
duž	-10.7006
▁rimskih	-10.7006
▁mladić	-10.7007
▁pogledu	-10.7013
▁povećan	-10.7013
▁katolika	-10.7016
▁službi	-10.7017
▁sudjelovali	-10.7017
▁trenutačn	-10.7017
▁jugoistoku	-10.7017
▁moskovsk	-10.7017
▁sredstva	-10.7017
▁krize	-10.702
▁grane	-10.7028
▁167	-10.7029
▁mjerenje	-10.7029
prosvjet	-10.7035
pjes	-10.7035
▁koristeći	-10.7036
život	-10.7049
▁marx	-10.7052
▁ruku	-10.7064
▁disciplina	-10.7066
▁joseph	-10.7066
▁pokrenuo	-10.7066
▁sveučilišn	-10.7066
▁europska	-10.7066
▁zauzeli	-10.7066
▁poljske	-10.7068
▁akcija	-10.707
▁košarkašk	-10.7073
▁opada	-10.7073
real	-10.7075
▁video	-10.7084
▁klime	-10.7093
▁zaštitnik	-10.7093
▁son	-10.7095
▁plinova	-10.7097
▁putničk	-10.7097
▁četnici	-10.7099
▁toku	-10.7102
▁miha	-10.7102
▁srednjo	-10.7114
▁1500	-10.7114
▁rezervat	-10.7115
▁prijestolje	-10.7115
▁poglavar	-10.7115
▁kulturi	-10.7115
▁završila	-10.7117
▁politici	-10.7117
plan	-10.7119
▁račun	-10.7123
▁had	-10.7127
▁38	-10.713
▁tvar	-10.7137
▁partije	-10.7139
rena	-10.7139
▁filozofija	-10.7142
▁mladost	-10.7144
▁europskim	-10.7146
najveć	-10.7146
▁kolu	-10.7159
▁mladen	-10.7162
▁utakmice	-10.7164
▁pravoslavne	-10.7164
▁oscara	-10.7165
▁odlukom	-10.7165
▁državnih	-10.7167
▁civili	-10.717
▁island	-10.717
▁andrija	-10.717
▁fort	-10.7171
▁puč	-10.7171
▁razgovor	-10.7174
štokavsk	-10.7175
▁posjeduje	-10.7176
▁trupa	-10.7179
▁carstvu	-10.718
▁polumjer	-10.7181
▁tamošnj	-10.7196
▁zapisi	-10.7197
▁varira	-10.7198
▁razara	-10.7209
▁znamenit	-10.7211
▁danska	-10.7214
▁povlače	-10.7214
▁posljednja	-10.7214
▁pravoslavni	-10.7216
▁predvodi	-10.7216
▁šar	-10.7229
▁spoln	-10.7229
▁loš	-10.7229
▁policijsk	-10.723
▁europa	-10.7233
▁46	-10.7238
hat	-10.724
ugarski	-10.7241
▁putovanja	-10.7245
▁vodstvo	-10.7247
▁osvajač	-10.7249
▁izgovor	-10.7249
▁vit	-10.7252
▁(13	-10.7253
ngen	-10.7253
▁standardni	-10.7261
▁javi	-10.7264
▁angažira	-10.7264
▁ronald	-10.7264
▁slučajevima	-10.7264
▁1985.	-10.7264
▁računalo	-10.7265
▁niži	-10.7265
▁životinje	-10.7267
hrvatska	-10.7269
▁rukama	-10.7273
▁armija	-10.7275
▁strogo	-10.7276
▁ya	-10.7279
▁sokol	-10.729
▁komunistički	-10.7291
▁trajn	-10.7291
▁mostaru	-10.7291
▁vremenski	-10.7294
▁neposredn	-10.7294
▁doline	-10.7294
▁učenje	-10.7308
▁religije	-10.7314
▁fizičar	-10.7314
▁1980-	-10.7314
▁napredak	-10.7315
▁kršćansko	-10.7315
▁tehnički	-10.7315
▁balkansk	-10.7316
▁2020.	-10.7318
▁potok	-10.7319
▁(0	-10.7324
▁55	-10.7324
vir	-10.7325
▁obzor	-10.7327
▁bogatstvo	-10.7331
▁tropsk	-10.7331
▁bogovi	-10.7332
▁you	-10.7333
▁dovesti	-10.7337
▁imenu	-10.7339
▁(201	-10.7342
▁polovin	-10.7346
▁stvarno	-10.7349
▁vrtnje	-10.7354
▁američkim	-10.7357
▁dogodilo	-10.7359
▁hrv	-10.736
hidr	-10.7361
▁bugarsko	-10.7364
▁funkciju	-10.7365
▁najvažnija	-10.7365
▁sekundarn	-10.7365
▁orkestar	-10.7365
▁rješenje	-10.7365
▁ženski	-10.7367
▁nastanka	-10.7367
▁pobune	-10.7367
▁francis	-10.7368
▁trajno	-10.7373
▁homer	-10.7375
▁topline	-10.7376
▁najstarijih	-10.7384
▁dvoje	-10.7389
▁planiran	-10.739
▁ideju	-10.7398
▁trud	-10.7407
600	-10.741
▁potpis	-10.7412
provincij	-10.7413
▁funkcionira	-10.7416
▁procjenjuje	-10.7416
▁rječnik	-10.7416
▁doživio	-10.7416
▁1959.	-10.7416
▁volumen	-10.7416
▁upravitelj	-10.7416
▁momčad	-10.7424
▁zauzimaju	-10.7425
▁bihać	-10.7429
▁plemićk	-10.7434
▁igrači	-10.7437
▁sposobnosti	-10.7442
▁usd	-10.7444
▁svete	-10.7445
▁magnet	-10.7448
▁strm	-10.7449
▁kvadrat	-10.7458
udbin	-10.7459
ville	-10.7461
▁likova	-10.7462
▁dopušten	-10.7463
▁spušta	-10.7464
▁najpoznatija	-10.7467
▁1960-	-10.7467
▁postignut	-10.7467
▁rizik	-10.7468
▁zub	-10.7468
▁dolaskom	-10.7469
▁sluša	-10.7471
▁cal	-10.7471
▁mel	-10.7472
▁poslu	-10.7483
▁maksimaln	-10.7486
laganje	-10.7486
▁miješan	-10.7497
▁mladosti	-10.75
ićem	-10.7504
▁srca	-10.7505
▁kretanje	-10.7514
▁elemente	-10.7514
▁dugogodišnj	-10.7514
▁atmosfera	-10.7518
▁karakteristike	-10.7518
▁zapošljava	-10.7518
▁britanije	-10.7518
▁sekundi	-10.7518
▁udruge	-10.7518
▁suradnju	-10.7518
fel	-10.752
▁vjera	-10.752
▁crvene	-10.752
▁raspon	-10.752
▁glazbeno	-10.7525
▁zahval	-10.7531
▁ponašanja	-10.7532
▁intelektual	-10.7544
zakon	-10.7555
gue	-10.7555
▁dokazi	-10.7565
▁osjetljiv	-10.7565
▁električna	-10.757
▁osmanlije	-10.757
▁reakcije	-10.757
▁suradnji	-10.757
▁pokazala	-10.757
▁povlačenje	-10.7572
▁ujedini	-10.7573
▁odrediti	-10.7582
▁srijem	-10.7583
▁dnk	-10.7589
▁ekonomi	-10.759
▁brže	-10.7593
ologiji	-10.7595
▁spoznaje	-10.7608
▁dopušta	-10.7618
▁konfederacije	-10.7621
vježba	-10.7621
▁naglašava	-10.7621
▁objavljivan	-10.7621
▁praktički	-10.7621
▁doseljava	-10.7621
zemljo	-10.7622
▁brojevi	-10.7622
▁postojao	-10.7622
▁italiju	-10.7622
▁proširil	-10.7622
▁raznolik	-10.7624
▁bugarska	-10.7624
▁vektor	-10.7625
tjecao	-10.7626
▁ostati	-10.7627
ložio	-10.7629
▁sprema	-10.763
▁moment	-10.7631
▁glave	-10.7632
▁crnog	-10.7633
380	-10.764
▁parti	-10.7641
▁malog	-10.7642
▁jakost	-10.7647
▁jezikoslov	-10.7648
sfera	-10.7654
▁diploma	-10.7656
▁pavao	-10.7656
▁administrativno	-10.7658
▁podijeliti	-10.7663
149	-10.7664
lovac	-10.7664
▁autonom	-10.7668
▁31	-10.7672
▁atmosferu	-10.7673
▁dinastija	-10.7673
▁nedostatk	-10.7673
▁tranzistor	-10.7673
▁utakmica	-10.7673
▁crkava	-10.7674
▁izbjegli	-10.7674
▁kulturnih	-10.7674
▁155	-10.7676
▁zvučni	-10.7676
▁naslovom	-10.7677
▁44	-10.7679
▁lakše	-10.768
▁liga	-10.769
▁apostol	-10.7693
div	-10.7694
rich	-10.7696
▁osijeku	-10.7708
195	-10.7712
▁tank	-10.7712
▁izuzet	-10.7718
▁međusobn	-10.7721
▁kvalitetn	-10.7726
▁ekonomske	-10.7726
▁(6	-10.7726
▁karijere	-10.7726
▁slična	-10.7727
▁buduće	-10.7728
▁suncu	-10.7729
▁vjernika	-10.7729
▁prividn	-10.7732
▁protestanti	-10.7733
▁skupini	-10.7734
▁kel	-10.7741
▁slavn	-10.7751
▁sunčevog	-10.7751
▁amerika	-10.7754
▁veles	-10.7762
400	-10.7768
posljedn	-10.7778
▁kazališta	-10.7778
▁matematičar	-10.7778
▁muškarci	-10.7778
▁1970-	-10.7778
▁kepler	-10.7778
▁izgovara	-10.7778
▁poginuo	-10.7779
▁porijekla	-10.7779
▁rimokatoličk	-10.7779
▁pukovnij	-10.7779
▁hercegovina	-10.7779
▁iskustva	-10.778
▁tragedij	-10.778
▁skloni	-10.778
▁klavir	-10.7781
▁nužno	-10.7781
▁pobuna	-10.7781
▁prijav	-10.7783
▁zime	-10.7786
▁odakle	-10.7786
▁skupinu	-10.7789
▁središnjem	-10.7791
▁zahvat	-10.7795
▁upoznao	-10.7797
▁kakav	-10.7797
reći	-10.7806
▁can	-10.781
▁unutrašnjost	-10.7817
ijskom	-10.7821
192	-10.7822
▁državnom	-10.7825
▁stoljećima	-10.7831
▁izvještaj	-10.7831
▁tržište	-10.7831
▁generator	-10.7831
▁vjetar	-10.7831
▁kriterij	-10.7831
▁držao	-10.7832
▁louis	-10.7832
▁baze	-10.7833
▁ugarske	-10.7834
križevačk	-10.7834
▁arhitektonsk	-10.7834
▁osnivanja	-10.7835
▁cijevi	-10.7838
▁monte	-10.784
▁harmoni	-10.7843
▁sloboda	-10.7845
vođenja	-10.7852
▁jedni	-10.7859
▁relativnosti	-10.786
▁mot	-10.786
čice	-10.7861
▁puk	-10.7865
pustio	-10.7867
▁budućnosti	-10.7868
▁židov	-10.7876
▁tradicional	-10.7878
▁trećeg	-10.7882
▁valovi	-10.7883
▁znanstvene	-10.7885
▁potvrđen	-10.7885
▁bošnjaci	-10.7885
▁dodijeljen	-10.7885
▁primjena	-10.7885
▁kratki	-10.7885
▁izrađen	-10.7885
▁izoliran	-10.7885
▁demografsk	-10.7885
▁pronaći	-10.7885
▁kakvo	-10.7889
▁dolini	-10.7891
▁xiv	-10.7891
▁srodn	-10.7891
▁značajne	-10.7899
▁mediteransk	-10.79
▁braća	-10.7902
▁folklor	-10.7903
▁jasn	-10.7903
grafije	-10.7906
▁drže	-10.7916
▁osmanskog	-10.7926
zz	-10.7926
▁predstavljen	-10.7931
▁cir	-10.7932
▁njihovog	-10.7938
▁tehnologija	-10.7938
▁očekivan	-10.7938
▁1957.	-10.7938
▁kinetičk	-10.7939
▁pismu	-10.7941
▁pisati	-10.7942
dine	-10.7944
▁helij	-10.7946
▁današnja	-10.7947
fizika	-10.7949
[	-10.7953
▁bob	-10.7956
▁napulj	-10.7958
▁unutarnj	-10.7966
▁nazoč	-10.797
rijan	-10.7975
▁grant	-10.7981
zvijezd	-10.7988
▁onoga	-10.7992
▁münchen	-10.7992
▁važnu	-10.7992
▁vraćen	-10.7992
▁statut	-10.7992
οσ	-10.7993
▁pruge	-10.7993
▁kamer	-10.8001
▁borov	-10.8002
▁roditelji	-10.8003
▁prostran	-10.8004
▁uputi	-10.801
rme	-10.801
▁nauk	-10.8018
pravno	-10.8019
kralj	-10.8019
▁teške	-10.8024
▁svaku	-10.8033
▁vojnik	-10.8035
206	-10.8045
▁zviježđ	-10.8046
▁održao	-10.8046
▁duljine	-10.8046
▁glazbi	-10.8046
▁stranice	-10.8046
▁drame	-10.8047
▁prijašnj	-10.8047
▁ustanovi	-10.8047
▁područn	-10.8047
▁rudar	-10.8048
▁lap	-10.805
▁oklop	-10.805
▁mljet	-10.805
turn	-10.8055
▁individualn	-10.8056
▁west	-10.8061
▁skok	-10.8062
▁radnje	-10.8068
▁španjolskoj	-10.8073
▁akt	-10.8074
▁titra	-10.8078
ped	-10.8088
▁147	-10.8088
▁aktivnost	-10.809
▁sjeverozapadu	-10.81
▁religijsk	-10.81
▁izbjegava	-10.81
▁opremljen	-10.81
▁stigao	-10.81
▁1878.	-10.8101
▁ahilej	-10.8101
▁postiže	-10.8101
▁ukras	-10.8104
▁trupe	-10.8105
vrsta	-10.8105
▁podjele	-10.8106
▁izdaje	-10.8106
▁kriza	-10.8107
▁svjetlosn	-10.8111
također	-10.8117
▁drvo	-10.812
▁svakako	-10.812
▁nemir	-10.8121
▁tvori	-10.8124
▁izrazit	-10.8126
roz	-10.8135
▁seosk	-10.8138
▁izvorni	-10.8148
▁šok	-10.8149
▁bakar	-10.8153
▁mijenjaju	-10.8153
mjera	-10.8153
▁količinu	-10.8155
▁osmanlija	-10.8155
▁predvođen	-10.8155
▁upotrijeb	-10.8155
▁akademsk	-10.8155
▁pokrenut	-10.8155
▁telefon	-10.8155
▁važne	-10.8155
▁točnije	-10.8155
▁johann	-10.8156
nježn	-10.8161
▁buk	-10.8165
▁krajeve	-10.8167
▁izmjeničn	-10.817
▁pohađao	-10.8183
▁radija	-10.8189
▁popularno	-10.8195
▁razvojem	-10.8196
▁mjera	-10.82
▁afganistan	-10.821
▁pomrčina	-10.821
▁izgubila	-10.821
▁organizaciji	-10.821
▁snažan	-10.8211
otok	-10.8212
▁1911.	-10.8213
▁zapadnog	-10.8214
▁filozofskom	-10.8229
▁relativn	-10.8237
▁umjetnik	-10.8238
▁srbima	-10.8242
▁43	-10.8244
▁legenda	-10.8255
▁kuk	-10.8264
▁strukturu	-10.8265
▁komunista	-10.8265
▁richard	-10.8265
▁babilon	-10.8265
▁europskog	-10.8266
▁zanimanje	-10.8267
▁dinamo	-10.8268
▁zagrebačkom	-10.8268
▁upravljanje	-10.8271
▁slobodan	-10.8275
▁nacrt	-10.8281
▁braće	-10.8284
▁fond	-10.8292
▁skuplja	-10.8292
šević	-10.8316
▁služba	-10.8321
▁1950-	-10.8321
▁tvornice	-10.8321
▁fenomen	-10.8321
▁miroslav	-10.8321
▁vođen	-10.8321
▁oslanja	-10.8322
▁vokaln	-10.8322
▁prilike	-10.8322
▁noćn	-10.8323
▁najvažnijih	-10.8325
▁potencijaln	-10.8327
▁magnetskog	-10.8327
▁pogodn	-10.8328
▁filozofski	-10.8329
▁obrazovan	-10.8329
▁atlant	-10.8334
▁masu	-10.8335
▁end	-10.8336
▁palače	-10.8338
▁rezultiral	-10.834
tte	-10.8345
▁atomi	-10.8356
▁prešao	-10.8357
0°	-10.8362
▁neovisno	-10.8363
srb	-10.8365
▁ivanić	-10.837
▁stranaka	-10.8375
▁laboratorij	-10.8376
zmu	-10.8377
▁mišljenja	-10.8377
▁potpisal	-10.8377
▁srednju	-10.8377
▁svjesn	-10.8378
▁pruži	-10.8378
▁mogle	-10.8378
▁definiran	-10.838
▁himna	-10.838
▁papinsk	-10.8383
▁postane	-10.8387
▁dužina	-10.8391
▁pravac	-10.8395
▁tiče	-10.8396
▁škr	-10.8401
▁faze	-10.8403
▁brojeva	-10.8409
▁zimi	-10.8419
▁proširio	-10.8427
▁etimologija	-10.8433
▁informacija	-10.8433
▁michael	-10.8433
▁plemstvo	-10.8433
▁1983.	-10.8433
▁razmatra	-10.8433
▁manifestacija	-10.8433
▁šibensk	-10.8433
▁iseljava	-10.8433
▁zemljom	-10.8433
▁vinkovci	-10.8434
▁skupštine	-10.8434
ističkog	-10.8434
▁virgin	-10.8435
▁razbi	-10.8435
▁povukl	-10.8435
▁ministra	-10.8436
▁dugi	-10.8436
▁preuzet	-10.8437
▁polako	-10.8457
▁matija	-10.8457
▁band	-10.8458
▁adam	-10.8461
▁korisnik	-10.8463
▁praćen	-10.8466
pić	-10.8475
▁dioklecijan	-10.8489
pneumo	-10.849
▁sudjeluju	-10.849
▁potpredsjednik	-10.849
▁krajnje	-10.8493
▁splitsko	-10.8495
▁političkom	-10.8498
šnji	-10.8499
▁dominik	-10.85
▁grčkog	-10.8504
▁klan	-10.8505
▁bakra	-10.8515
▁njenog	-10.8519
▁alfa	-10.8519
▁bab	-10.8521
▁orijentiran	-10.8521
▁visokog	-10.8522
bilj	-10.8529
▁dobivanje	-10.8539
▁pavla	-10.8542
▁poljoprivreda	-10.8546
▁sprječava	-10.8546
▁mehmed	-10.8546
▁postojati	-10.8546
▁teorijsk	-10.8548
▁figura	-10.8548
▁glavu	-10.8549
▁ustanka	-10.855
▁lab	-10.8554
▁zamijenjen	-10.8556
▁povijesnim	-10.8559
▁prognan	-10.8559
▁arsen	-10.856
▁prazni	-10.856
▁hsp	-10.8564
▁značajn	-10.857
ranjen	-10.8571
▁pustinja	-10.8576
..."	-10.8584
▁specijal	-10.8594
▁ljubo	-10.8595
▁slaveni	-10.8596
▁širenja	-10.86
orum	-10.8601
▁argument	-10.8603
▁dimenzija	-10.8603
▁ponajviše	-10.8603
▁proglašava	-10.8603
▁vojskovođ	-10.8603
▁rasprostranjen	-10.8603
▁karakteristika	-10.8603
▁svrhe	-10.8603
▁bošnjaka	-10.8603
▁građevinsk	-10.8603
▁srušen	-10.8604
▁takt	-10.8605
▁katkad	-10.8606
▁trst	-10.8608
▁poticaj	-10.8609
▁otišl	-10.8611
▁građa	-10.8613
▁hon	-10.8613
▁policije	-10.8619
▁popularni	-10.8619
▁povratka	-10.8626
▁pravu	-10.8629
▁ljubavn	-10.8635
▁kopna	-10.8637
▁predaje	-10.8642
▁đurđ	-10.8646
auto	-10.8648
▁gotičk	-10.8653
▁...	-10.866
▁sačinjava	-10.8661
▁zadržao	-10.8661
▁umrla	-10.8661
▁pozvao	-10.8661
▁prvobitn	-10.8662
▁općinska	-10.8663
▁sezona	-10.8672
▁rang	-10.8672
▁plati	-10.8683
▁francuzi	-10.8691
▁osigurava	-10.8696
▁bijeli	-10.8707
▁tadašnjeg	-10.8711
▁zapovjedništvom	-10.8712
▁budim	-10.8716
brat	-10.8718
▁kombinira	-10.8718
▁varijant	-10.8719
▁1904.	-10.8719
▁šećer	-10.8719
▁nastavila	-10.872
▁sigurnost	-10.8722
▁značenja	-10.8723
demokrat	-10.8725
▁izbaci	-10.8725
▁češće	-10.8726
▁lokalnim	-10.8736
▁zemljišta	-10.8743
▁saturnov	-10.8744
▁beg	-10.8749
vrstan	-10.8751
▁znanstvenih	-10.8773
yer	-10.8775
▁najljepš	-10.8777
▁nedostatak	-10.8777
▁henry	-10.8777
▁raširen	-10.8777
▁1927.	-10.8777
▁zajednici	-10.8777
▁130	-10.8777
▁iskustvo	-10.8778
▁razmjer	-10.8778
▁proširi	-10.8782
▁ministarstva	-10.8782
lex	-10.8784
▁razmjen	-10.8787
▁matice	-10.879
ađiva	-10.8792
▁načela	-10.8792
▁dvorana	-10.8794
▁forum	-10.8798
▁prevladavaju	-10.8799
▁proglas	-10.8801
▁direktno	-10.8802
▁krov	-10.8813
blaž	-10.8818
▁prekid	-10.8825
▁podatak	-10.8826
▁nastavili	-10.8834
▁stočarstvo	-10.8835
▁najstarija	-10.8835
▁nadležn	-10.8835
▁bosanske	-10.8835
▁povlači	-10.8835
▁elektronsk	-10.8836
▁uskrs	-10.8838
▁tjedna	-10.8839
▁učio	-10.8841
▁sankt	-10.8841
kovci	-10.8842
▁filmovi	-10.8842
▁pismen	-10.8844
▁odabir	-10.8844
▁vozi	-10.8847
▁izašl	-10.885
▁odlučn	-10.8852
▁human	-10.8853
▁pravilu	-10.8856
samo	-10.8859
▁gospodarska	-10.886
▁općinu	-10.8864
▁imenuje	-10.8865
▁rimska	-10.8865
▁talijani	-10.8868
▁uzeo	-10.8876
▁indijansk	-10.888
▁vuč	-10.8888
▁shs	-10.8893
▁živjeti	-10.8894
▁nezaposlenost	-10.8894
▁geometrijsk	-10.8894
▁djevice	-10.8894
▁predviđen	-10.8894
▁autohton	-10.8894
▁preminuo	-10.8894
▁1895.	-10.8894
▁centru	-10.8895
▁velebit	-10.8895
▁sjevernu	-10.8896
▁nijemaca	-10.8897
▁luther	-10.8897
▁prevoditelj	-10.8898
▁plemenit	-10.8899
▁kućn	-10.89
enberg	-10.8901
▁primljen	-10.8902
▁newton	-10.8905
▁blat	-10.8917
ting	-10.8918
▁bliski	-10.892
▁bolji	-10.8921
▁lokalnih	-10.8933
▁krvav	-10.8934
ugarskoj	-10.8934
smrt	-10.8937
▁neuspješn	-10.8953
▁akademija	-10.8953
▁gravitacije	-10.8953
▁naposljetku	-10.8953
▁softver	-10.8953
▁moskvi	-10.8953
▁narječje	-10.8953
▁prekriven	-10.8953
▁preselio	-10.8953
▁nominiran	-10.8953
▁1903.	-10.8953
▁uvodi	-10.8954
▁jezgri	-10.8954
▁naredio	-10.8954
▁filmovima	-10.8955
▁izgara	-10.896
▁centri	-10.8961
▁ispunjen	-10.8961
▁mario	-10.8965
▁međunarodnog	-10.8965
skup	-10.8971
član	-10.8972
▁jače	-10.8984
▁ženu	-10.8986
▁naseljenosti	-10.8988
▁podigl	-10.8989
▁najpoznatijih	-10.899
▁potomci	-10.8993
▁opern	-10.8994
▁otkup	-10.8998
▁zastupnik	-10.9006
▁egipta	-10.9013
▁meridijan	-10.9013
▁molekule	-10.9013
▁šezdeset	-10.9013
▁umirovljen	-10.9013
▁naseljima	-10.9013
▁najviša	-10.9013
▁postojalo	-10.9013
▁britaniji	-10.9013
▁prirodna	-10.9013
▁meteorološk	-10.9014
▁newtonov	-10.9018
bez	-10.9019
▁frodo	-10.9019
▁kant	-10.9022
▁kolonije	-10.9026
▁previše	-10.9027
▁groblje	-10.9035
▁balet	-10.9037
▁priznanje	-10.9039
pravo	-10.9042
▁talijanskog	-10.9053
▁sudac	-10.906
etike	-10.906
▁max	-10.907
▁žrtva	-10.9072
među	-10.9073
▁dalí	-10.9073
▁domobran	-10.9073
ск	-10.9073
lyn	-10.9073
▁uporaba	-10.9074
▁geograf	-10.9074
▁zastave	-10.9079
▁oblaci	-10.9081
trof	-10.9082
▁zastupa	-10.9082
epizod	-10.9087
▁službena	-10.9104
▁148	-10.9107
▁pokolj	-10.9109
800	-10.911
strijel	-10.9112
▁atlantsk	-10.9118
▁svjetlo	-10.9119
▁istočnog	-10.9122
▁kraljem	-10.9127
▁ubrzanje	-10.9128
▁grab	-10.9129
▁propovijed	-10.9133
▁tehnologije	-10.9133
▁europskoj	-10.9133
▁grupu	-10.9133
▁donošenj	-10.9135
slovensk	-10.9136
dnevni	-10.9136
▁preveden	-10.9136
▁bugarske	-10.9137
▁autoritet	-10.9137
ller	-10.9137
▁povratku	-10.9143
▁izbjeglica	-10.9151
novac	-10.9155
▁djed	-10.9161
kasnije	-10.9163
▁intel	-10.9174
▁organsk	-10.9178
▁održavanje	-10.9181
▁gotov	-10.9183
▁borbama	-10.9185
stranačk	-10.9187
▁nudi	-10.9193
▁površinsk	-10.9193
▁potrebna	-10.9193
▁neretve	-10.9193
▁pokriven	-10.9193
▁pozornost	-10.9194
▁grand	-10.9194
▁prisustv	-10.9196
3)	-10.9207
▁bijeg	-10.9215
▁omiš	-10.9219
▁daljnji	-10.9221
▁terorističk	-10.9221
▁branko	-10.9234
prodaj	-10.9251
▁oblicima	-10.9253
▁leopold	-10.9254
▁kršćanske	-10.9254
▁glavnu	-10.9254
▁prikuplja	-10.9254
▁1906.	-10.9254
▁napokon	-10.9255
▁dobitnik	-10.9255
▁nastanak	-10.9255
▁rudnik	-10.9257
▁format	-10.926
▁ranog	-10.9264
▁she	-10.9265
▁čuven	-10.9269
sigurno	-10.9272
bosne	-10.9286
▁umjetno	-10.9287
▁talijanskom	-10.9295
▁anto	-10.9296
▁sastojal	-10.9301
▁pokušali	-10.9311
▁katedrala	-10.9316
▁sjeveroistoku	-10.9316
▁prvenstvu	-10.9316
▁titulu	-10.9316
▁iscrp	-10.9316
▁tenkova	-10.9316
▁generacija	-10.9316
▁privlačn	-10.9316
▁franjevci	-10.9317
▁145	-10.9317
▁povodom	-10.9318
▁rotacije	-10.9319
▁suveren	-10.9322
▁city	-10.9322
▁srce	-10.9331
▁indije	-10.9331
▁proizvodn	-10.9339
▁najboljeg	-10.9339
▁ratovi	-10.9352
án	-10.9352
▁bosanskog	-10.9355
▁programsk	-10.9358
▁našeg	-10.9366
▁električnog	-10.9372
▁zapadna	-10.9374
gun	-10.9377
▁dubrovačko	-10.9377
▁religiozn	-10.9377
▁čimbenik	-10.9377
▁jugozapadu	-10.9377
▁mlečani	-10.9377
▁oborina	-10.9377
▁građe	-10.9378
▁arhitektura	-10.9378
▁božansk	-10.9379
▁zlatno	-10.938
▁druži	-10.938
▁nedavno	-10.9388
▁navode	-10.9389
▁studira	-10.939
▁bitn	-10.9393
peterburg	-10.9402
ivač	-10.9403
▁ilirsko	-10.9406
▁takvim	-10.9418
▁svemu	-10.9421
▁samostalnost	-10.9421
ford	-10.9425
tičan	-10.9431
▁kilometra	-10.9439
▁neuspjeh	-10.9439
▁optužb	-10.9439
▁rudolf	-10.9439
▁spriječil	-10.9439
▁pokaziva	-10.9439
▁sandžak	-10.944
▁aktualn	-10.944
▁svećenici	-10.944
▁daruvar	-10.944
▁kaptol	-10.9441
▁oznaka	-10.9442
▁namjerava	-10.9442
▁osnovnih	-10.9442
field	-10.9445
133	-10.9446
▁seljaka	-10.9447
▁metra	-10.9449
▁susre	-10.9452
▁određenim	-10.9462
▁školovan	-10.9472
▁suprotn	-10.9474
▁maria	-10.9486
▁zbiva	-10.9487
zemlja	-10.9493
33"	-10.9497
▁samobor	-10.95
▁neprekidn	-10.9502
▁poglavito	-10.9502
▁pravoslavna	-10.9502
▁označen	-10.9502
▁ukrajina	-10.9502
▁nastoji	-10.9502
▁zauzeo	-10.9504
▁krajolik	-10.9504
▁problemima	-10.9507
▁heroj	-10.9508
▁postigl	-10.951
▁pitanju	-10.9512
klasifikacij	-10.9514
smjer	-10.9514
▁turskih	-10.9525
▁želja	-10.9531
▁zvao	-10.9542
▁karte	-10.9546
▁viđen	-10.9548
▁čet	-10.9548
▁društvenih	-10.9554
▁papu	-10.9558
pravda	-10.956
▁mješovit	-10.9565
▁pokrenul	-10.9565
▁utemeljitelj	-10.9565
▁švicarsko	-10.9565
▁rasprava	-10.9565
▁gaulle	-10.9565
▁zamjenik	-10.9565
▁ubojstva	-10.9565
▁stijene	-10.9565
▁alžir	-10.9567
▁poezije	-10.9567
▁stanova	-10.9567
▁prodaje	-10.9568
▁utrka	-10.9569
▁prisili	-10.9571
▁melodi	-10.9577
▁chris	-10.9578
▁djelovati	-10.9587
▁mađarska	-10.959
▁etno	-10.9591
▁smjes	-10.9597
▁misija	-10.96
▁šalje	-10.9606
▁breg	-10.9613
▁ligu	-10.9614
5.000	-10.9615
▁nebeskog	-10.9615
bić	-10.962
▁odlučuje	-10.9628
▁ostvaruje	-10.9628
▁prisutni	-10.9628
▁sakraln	-10.9628
▁dvd	-10.9629
▁statističk	-10.9629
▁kritika	-10.963
▁pridjev	-10.963
▁ustaše	-10.9631
ličan	-10.9632
▁vještina	-10.9636
bet	-10.9637
▁zbivanja	-10.9646
kovec	-10.9646
▁raniji	-10.9648
▁britansko	-10.9649
▁uvjetovan	-10.965
▁slovenski	-10.9655
▁okupiran	-10.9665
▁koncentrira	-10.9692
▁prehramben	-10.9692
▁preimenovan	-10.9692
▁opsežn	-10.9692
▁potvrđuje	-10.9692
▁istanbul	-10.9692
▁obrazovn	-10.9692
▁vojvoda	-10.9692
▁1907.	-10.9692
▁otpada	-10.9692
▁pridonijel	-10.9694
▁muški	-10.9696
▁vladavina	-10.9698
▁otočn	-10.9699
▁neprijateljsk	-10.9699
post	-10.9712
▁začet	-10.9713
▁3000	-10.9716
▁panonsk	-10.9717
▁posebnim	-10.9721
▁tito	-10.9728
▁900	-10.9737
▁grub	-10.9738
▁znan	-10.9749
▁kontinuiran	-10.9756
▁površinom	-10.9756
▁registriran	-10.9756
▁plemstva	-10.9756
▁karadžić	-10.9756
▁pokazalo	-10.9756
▁tijelu	-10.9756
▁opseg	-10.9757
▁pitanjima	-10.9757
▁amerikanci	-10.9759
▁predložio	-10.976
▁naravi	-10.9761
▁monarhija	-10.9766
▁konstan	-10.9768
▁dobilo	-10.9769
▁kovač	-10.9769
▁mađarskom	-10.9769
▁ploči	-10.9771
▁nastanjen	-10.9778
▁realn	-10.9782
▁stvoriti	-10.9786
▁napredn	-10.9788
▁ponaša	-10.9792
▁dugačk	-10.9801
cionalni	-10.9807
▁ostavlja	-10.9811
▁jugoslaviju	-10.982
▁koprivnica	-10.982
▁vjetrovi	-10.982
▁pobjedom	-10.982
▁boravka	-10.982
▁činjenice	-10.982
▁nepravilni	-10.9821
▁1926.	-10.9821
▁ljudevit	-10.9822
▁darova	-10.9823
▁omiljen	-10.9823
▁priključi	-10.9824
▁crvena	-10.9825
▁gustav	-10.9832
▁fir	-10.9834
▁narodima	-10.9837
▁makedonije	-10.9839
▁mučeni	-10.9845
▁indija	-10.9848
ativno	-10.9849
▁bošnjački	-10.9851
dipl	-10.9864
148	-10.9876
▁skrb	-10.9876
▁osobina	-10.9877
▁vapnen	-10.9882
▁državnu	-10.9885
▁mletačke	-10.9885
▁najznačajnije	-10.9885
▁vlasništvo	-10.9885
▁španjolska	-10.9885
▁kancelar	-10.9885
▁tehnološk	-10.9885
▁rimljana	-10.9885
▁naselili	-10.9886
▁iskrca	-10.9886
▁1898.	-10.9886
▁1860.	-10.9886
▁livanjsk	-10.9886
▁ustanove	-10.9887
▁talent	-10.9889
▁bogova	-10.9892
▁navrata	-10.9894
▁vrstu	-10.9894
▁kazne	-10.99
plin	-10.99
zdr	-10.9912
▁meč	-10.9915
▁sposobnost	-10.9921
partizan	-10.9922
▁čitatelj	-10.9932
▁bazen	-10.9942
zvuč	-10.9946
▁kasnijim	-10.9946
▁will	-10.995
▁američkom	-10.9951
▁dalmaciju	-10.9951
▁distribucij	-10.9951
▁istraživanjima	-10.9951
▁muhamed	-10.9951
▁simptomi	-10.9951
▁moskve	-10.9951
▁promjenu	-10.9951
▁ugrožen	-10.9951
▁izgradnji	-10.9951
▁upućen	-10.9951
▁prekinut	-10.9951
▁trgovci	-10.9952
▁javnog	-10.9952
▁1896.	-10.9956
▁odlaska	-10.9959
▁seriji	-10.9959
▁operativn	-10.9968
▁hladni	-10.9976
▁144	-10.9978
ljivanje	-10.9979
▁razmak	-10.998
▁njemačko	-10.9981
▁rodila	-10.9984
▁izborn	-10.9985
▁važniji	-10.9985
▁ratovima	-10.9986
char	-10.9989
▁prstenova	-10.9992
▁125	-10.9998
▁etničkih	-11.0007
▁neprestano	-11.0016
▁promijenjen	-11.0016
▁slovenaca	-11.0016
▁tradiciji	-11.0016
▁olakša	-11.0017
▁naglašen	-11.0017
▁zajednicu	-11.0017
▁tvrtko	-11.0017
▁fluid	-11.0017
▁prevodi	-11.0017
▁raspravlja	-11.0018
▁staklen	-11.0018
▁višestruk	-11.0019
▁zrcal	-11.0021
134	-11.0022
▁uzrokoval	-11.0024
▁klor	-11.0028
▁glazbenik	-11.0031
▁pišu	-11.0032
▁ken	-11.0036
▁radove	-11.0049
▁libijsk	-11.005
▁razinu	-11.005
▁jadranskog	-11.0051
▁viol	-11.0053
▁odgovornost	-11.0054
▁mlin	-11.0055
▁nabav	-11.0057
▁energetsk	-11.0062
▁smanjenje	-11.0066
▁paris	-11.008
▁odličn	-11.0082
▁egiptu	-11.0083
▁kategorije	-11.0083
▁etničke	-11.0083
▁ladislav	-11.0083
▁jordan	-11.0083
▁indeks	-11.0083
▁praksi	-11.0083
▁1862.	-11.0083
▁posjetitelj	-11.0083
▁klimu	-11.0084
vjenčan	-11.0084
▁oluja	-11.0085
▁blok	-11.0088
ografski	-11.0088
▁ikakv	-11.0092
izacijom	-11.0104
▁poklon	-11.0105
▁ivanov	-11.0111
▁počele	-11.0116
▁raspoređen	-11.0116
▁mladog	-11.0117
201	-11.0125
▁takvi	-11.014
▁dalmatinski	-11.0146
▁predsjedništva	-11.0149
▁upućuje	-11.0149
▁zbirke	-11.0149
▁povukao	-11.0149
▁sredstava	-11.0149
▁svojevrsn	-11.0149
▁petnaest	-11.015
▁ostavku	-11.015
▁1909.	-11.015
▁pogorša	-11.015
▁zasnovan	-11.015
▁1880.	-11.015
▁zarobljen	-11.0151
▁pripremi	-11.0152
▁utječu	-11.0152
▁istočna	-11.0153
▁pregovori	-11.0154
▁vozač	-11.0161
▁nekoj	-11.0167
▁mlado	-11.0175
▁ekološk	-11.0179
▁slabije	-11.0188
▁jurja	-11.0207
▁miš	-11.0208
zvjezd	-11.0216
▁atmosfersk	-11.0216
▁proizveden	-11.0216
▁cjelovit	-11.0216
▁populacija	-11.0216
▁znanstvena	-11.0216
▁smrću	-11.0217
▁vodoravn	-11.0217
▁alfred	-11.0217
▁misionar	-11.0217
▁postojale	-11.0217
▁organizama	-11.0217
▁ličnosti	-11.0217
▁starčević	-11.0218
▁tamni	-11.0219
▁primijeti	-11.0219
▁naftn	-11.0219
▁sadašnje	-11.0219
▁lošinj	-11.0228
▁uzduž	-11.0228
▁usporedbi	-11.0228
▁znakovi	-11.0233
▁konjic	-11.024
▁zemljinoj	-11.0246
▁srijemsk	-11.0248
▁volio	-11.0253
▁glamoč	-11.0257
▁svakoj	-11.0262
▁ostaju	-11.0276
▁dnevnik	-11.0278
▁dirigent	-11.0284
▁intenzivno	-11.0284
▁kennedy	-11.0284
▁sveukupno	-11.0284
▁mletačko	-11.0284
▁procjena	-11.0284
▁prigodom	-11.0284
▁obnove	-11.0285
▁opreme	-11.0285
▁preselil	-11.0286
▁golf	-11.0286
▁lokalni	-11.0286
▁izradu	-11.0288
▁pritisak	-11.0293
▁zdravlje	-11.0294
▁klis	-11.0298
▁ličk	-11.03
▁obrana	-11.0306
▁načelo	-11.0309
▁135	-11.031
▁molekularn	-11.0311
▁ekonomije	-11.0316
inger	-11.0316
▁rješavanj	-11.0316
▁hindu	-11.032
▁štap	-11.032
sjever	-11.0329
▁124	-11.0332
▁muslimanski	-11.0341
▁mišić	-11.0343
▁perun	-11.0344
njemački	-11.0345
▁departman	-11.0352
▁domovinskom	-11.0352
▁meksiko	-11.0352
▁ustanovljen	-11.0352
▁razvitak	-11.0352
▁primjene	-11.0352
▁okrenut	-11.0352
▁aspekt	-11.0352
▁južnu	-11.0352
▁zastupničk	-11.0353
▁putopis	-11.0354
▁titanij	-11.0356
▁najduž	-11.036
▁turističko	-11.0378
▁zapovjedn	-11.0382
▁putovanje	-11.0382
▁win	-11.039
▁genetsk	-11.0393
metal	-11.0401
▁elektroničk	-11.0402
magnet	-11.0403
▁izložbe	-11.0421
▁stvaralaštvo	-11.0421
▁hercegovinu	-11.0421
▁sarajevsk	-11.0421
▁kulturna	-11.0421
▁najbolja	-11.0421
▁veneciji	-11.0421
▁preuzeli	-11.0421
▁križevci	-11.0421
▁1871.	-11.0421
▁biljaka	-11.0422
▁propada	-11.0422
163	-11.0423
▁jedanaest	-11.0426
▁primjeraka	-11.0427
▁prisiln	-11.0428
prezent	-11.043
▁jeftin	-11.0435
▁draga	-11.0438
▁znatan	-11.0438
▁pilot	-11.0438
▁kruni	-11.0443
▁1,5	-11.0445
▁duša	-11.0446
169	-11.0449
svijet	-11.0455
▁ukrajinski	-11.0462
▁lagan	-11.0468
▁protjera	-11.0469
▁brazilsk	-11.0475
▁čeln	-11.048
▁kukuruz	-11.049
▁samouprave	-11.049
▁situacije	-11.049
▁razdvaja	-11.049
▁promatranja	-11.0494
▁prozva	-11.0495
▁etničko	-11.0495
godine	-11.0496
▁kruži	-11.0497
▁preseljen	-11.0498
▁eugen	-11.0499
▁misao	-11.0511
▁pripadnik	-11.0522
▁objasniti	-11.0522
središnjoj	-11.0524
▁tradicionalne	-11.0526
▁društvenog	-11.0527
▁prodir	-11.0529
▁kraljević	-11.0544
▁ostr	-11.055
europsko	-11.0555
▁identificira	-11.0559
▁kontinuitet	-11.0559
▁raznovrsn	-11.0559
▁studenata	-11.0559
▁optužen	-11.0559
▁primjenu	-11.0559
▁privlači	-11.0559
▁ukrajine	-11.0559
▁nastojal	-11.056
▁1893.	-11.056
▁europskom	-11.056
▁slobodne	-11.056
▁greben	-11.0562
▁potpisao	-11.0563
▁stručnjak	-11.0563
▁slovačka	-11.0564
▁podrža	-11.0566
▁nijedn	-11.0571
▁priznanja	-11.0573
▁biblijsk	-11.0584
▁nabijen	-11.0584
▁varoš	-11.0587
▁starosti	-11.0605
▁latinskog	-11.0606
▁seljaci	-11.0621
▁civilizacije	-11.0629
▁definicija	-11.0629
▁gimnazije	-11.0629
▁izložbi	-11.0629
▁poljoprivrede	-11.0629
▁pomrčine	-11.0629
▁refleks	-11.0629
▁povijesna	-11.0629
▁proljeća	-11.0629
▁meksičk	-11.0629
▁afrika	-11.0629
▁ideološk	-11.063
mehaniz	-11.063
▁ulazak	-11.0647
zbio	-11.0649
▁južnoslavensk	-11.0658
▁značajke	-11.066
▁daljnj	-11.0669
▁uzeti	-11.0674
▁uključival	-11.0677
▁postal	-11.0695
▁concorde	-11.0699
▁kršćanstva	-11.0699
▁natjecatelj	-11.0699
▁podsjeća	-11.0699
▁pokreće	-11.0699
▁primjenjuje	-11.0699
▁roosevelt	-11.0699
▁rasprave	-11.0699
▁trenutak	-11.0699
▁estonije	-11.0699
▁zanemari	-11.0699
▁pješačk	-11.07
▁lokacija	-11.07
▁ovako	-11.0702
▁zagrebačkoj	-11.0702
▁ustaša	-11.0702
▁poljska	-11.0702
▁sudionik	-11.0702
▁zagrebačkog	-11.0705
▁električno	-11.0705
▁svjetovn	-11.0706
▁svrgnu	-11.0707
▁brez	-11.0708
▁zbroj	-11.071
tant	-11.0711
▁gregor	-11.0716
▁osudi	-11.072
▁poljski	-11.0725
▁teolog	-11.0732
▁željeznica	-11.0738
▁debel	-11.074
▁eksperiment	-11.0751
▁kino	-11.0754
▁oslobođenja	-11.0762
zelen	-11.0763
▁austrijske	-11.077
▁najuspješniji	-11.077
▁skupštini	-11.077
▁prisutan	-11.077
▁najpopularniji	-11.077
▁prepoznatljiv	-11.0771
▁1915.	-11.0771
▁popularna	-11.0771
▁fašističk	-11.0771
▁gubitke	-11.0772
▁unesco	-11.0772
▁aparat	-11.0774
▁vulkansk	-11.0787
▁predavanja	-11.0788
▁općinom	-11.079
▁sabirn	-11.0793
▁objašnjenje	-11.0799
▁bruxelles	-11.0842
▁natjecanje	-11.0842
▁raspoložen	-11.0842
▁slovenije	-11.0842
▁zamišljen	-11.0842
▁jednadžba	-11.0842
▁značenju	-11.0842
▁povezuju	-11.0842
▁blagoslov	-11.0843
▁uporabi	-11.0843
▁trajao	-11.0844
▁jednoliko	-11.0847
▁otapa	-11.0849
▁vjernici	-11.0856
šnjak	-11.0856
▁eksperimentaln	-11.0861
▁bojni	-11.0866
ische	-11.087
▁povišen	-11.0872
▁bomba	-11.0875
175	-11.0881
▁marković	-11.0883
▁iseljen	-11.0886
punjen	-11.0893
antrop	-11.0895
▁liberaln	-11.0899
primjer	-11.0901
▁brodsk	-11.0912
▁commodore	-11.0914
▁temperaturu	-11.0914
▁tolkien	-11.0914
▁strukturi	-11.0914
▁zbirku	-11.0914
▁skraćen	-11.0914
▁prenesen	-11.0914
▁zasniva	-11.0914
▁pravilima	-11.0917
▁spojeva	-11.0918
▁klin	-11.0921
▁andrije	-11.093
▁zanimljivosti	-11.0933
rotacij	-11.0934
▁glumica	-11.0939
▁ekonomija	-11.0939
▁germansk	-11.0948
▁rađa	-11.0953
▁zoni	-11.096
700	-11.0975
▁friedrich	-11.0986
▁informacije	-11.0986
▁izgradnjom	-11.0986
▁odražava	-11.0986
▁zapažen	-11.0986
▁pravca	-11.0986
▁regionalni	-11.0986
▁1885.	-11.0987
▁napraviti	-11.0988
▁iskop	-11.0993
▁sibir	-11.0996
▁češki	-11.1003
▁kruže	-11.1004
▁arapi	-11.1006
▁hadž	-11.1016
▁udarac	-11.1018
▁pastir	-11.1021
▁članstvo	-11.1022
kršten	-11.1026
▁marijan	-11.1033
valent	-11.1035
▁temeljen	-11.1039
▁britanskog	-11.1041
▁katedrale	-11.1059
▁pogubljen	-11.1059
▁tvrtki	-11.1059
▁pubertet	-11.1059
▁pješčan	-11.1059
▁talijanska	-11.1059
▁utvrdu	-11.1059
▁1865.	-11.106
▁snimio	-11.1061
▁tumači	-11.1061
▁djelovala	-11.1078
▁pojma	-11.1078
▁konstantn	-11.1082
▁očit	-11.1086
▁teološk	-11.1093
168	-11.1093
▁drvar	-11.1105
▁tunis	-11.1117
▁(187	-11.1119
▁vesel	-11.1125
njski	-11.1126
▁vladajuć	-11.113
▁podrazumijeva	-11.1133
▁univerzaln	-11.1133
▁upotreba	-11.1133
▁epidemij	-11.1133
▁kvaternik	-11.1133
▁odlučuju	-11.1133
▁analiza	-11.1133
▁brigada	-11.1133
▁tvrđave	-11.1133
▁postići	-11.1137
▁zastavu	-11.1139
▁žensko	-11.1143
▁češke	-11.1145
▁svetište	-11.1146
▁rešet	-11.1147
▁zemljopisno	-11.1149
fun	-11.1155
▁pomorski	-11.1155
▁bogdan	-11.1169
▁navodn	-11.1171
▁kraljice	-11.1173
ound	-11.1178
▁eura	-11.1182
▁formaln	-11.1187
▁razmjerno	-11.1188
▁uspostavil	-11.1199
▁pripal	-11.1204
▁gimnazija	-11.1207
▁književne	-11.1207
▁upotrebi	-11.1207
▁voyager	-11.1207
▁džamija	-11.1207
▁glumca	-11.1207
▁invazije	-11.1207
▁ukazuje	-11.1207
▁madonna	-11.1207
▁procvat	-11.1207
▁1916.	-11.1207
▁odobren	-11.1208
▁rođak	-11.1208
▁inačice	-11.1208
▁tvrđava	-11.1208
▁pronašl	-11.1209
▁odlikuj	-11.1212
230	-11.1213
▁duhovni	-11.1213
▁ravnopravn	-11.1213
▁mornarica	-11.1214
▁kruh	-11.1229
▁budućnost	-11.123
ističku	-11.1232
▁prelaze	-11.1234
▁kišn	-11.1238
▁sigurnosn	-11.1239
▁trgovinu	-11.124
▁biskupija	-11.1242
▁simbolizira	-11.1248
▁nacionalnu	-11.1249
donekle	-11.1257
▁djelatnik	-11.1259
gospodar	-11.1264
▁pjevačk	-11.128
▁dodjeljuje	-11.1281
▁evolucije	-11.1281
▁izložba	-11.1281
▁matematike	-11.1281
▁ludovik	-11.1281
▁schleswig	-11.1281
▁stephen	-11.1281
▁sarajeva	-11.1281
▁unaprijed	-11.1281
▁mrežu	-11.1282
▁galileo	-11.1282
španj	-11.1283
▁slovačke	-11.1287
▁doselil	-11.1287
▁elvis	-11.1287
▁prapovijesn	-11.1293
izaciji	-11.1298
▁izvode	-11.13
▁bakren	-11.13
▁odredio	-11.1302
▁kovačić	-11.1304
205	-11.1307
sigur	-11.1308
▁silicij	-11.131
▁zapadnu	-11.1312
▁luž	-11.1313
▁partija	-11.1314
▁općinski	-11.1314
▁vrše	-11.132
▁duše	-11.1325
opera	-11.1329
ón	-11.134
▁ispis	-11.1341
▁stvori	-11.1344
▁frekvencija	-11.1357
▁international	-11.1357
▁koprivnice	-11.1357
▁četrdeset	-11.1357
▁producent	-11.1357
▁tisuću	-11.1357
▁hiparh	-11.1357
▁najbrojnij	-11.1357
▁upravna	-11.1357
▁ukazuju	-11.1357
▁mrežn	-11.1357
▁izviđa	-11.1357
▁uspjesi	-11.1357
▁1886.	-11.1357
▁1850.	-11.1357
▁pretvoril	-11.1358
▁svrstava	-11.1359
▁ugrađen	-11.1361
▁pomaže	-11.1361
▁katarina	-11.1364
198	-11.1366
▁ravna	-11.1366
wood	-11.1383
▁turskoj	-11.1385
public	-11.1394
▁rup	-11.1396
▁objasni	-11.1397
▁turskom	-11.1398
▁prikazuju	-11.1411
▁hugo	-11.1415
▁košarka	-11.1421
protiv	-11.1423
▁hill	-11.1426
▁kristov	-11.1426
tisak	-11.1429
▁slavensko	-11.1431
▁nažalost	-11.1432
▁interpretacij	-11.1432
▁pomogao	-11.1432
▁zagovara	-11.1432
▁1902.	-11.1432
▁zaključak	-11.1432
▁osnove	-11.1433
▁stotine	-11.1433
▁priliku	-11.1435
▁cijene	-11.1441
bošnjačk	-11.1442
▁otvoril	-11.1445
▁kritičk	-11.1445
▁ptica	-11.1447
▁liberal	-11.1449
▁brdu	-11.1461
▁prometej	-11.1482
▁uvođenje	-11.1482
ifikacije	-11.1483
školsk	-11.1497
▁republikansk	-11.1501
▁barun	-11.1505
▁djetinjstvo	-11.1509
▁obljetnic	-11.1509
▁arthur	-11.1509
▁xix	-11.1509
▁konstruira	-11.1509
▁grijeh	-11.1509
▁orbite	-11.151
▁sedmo	-11.1512
▁donose	-11.1514
▁cres	-11.1519
▁slikarstvo	-11.1526
▁udovic	-11.1527
▁sirov	-11.1527
▁odgovorio	-11.1539
▁ispun	-11.1542
zur	-11.1561
▁turistički	-11.1577
▁vrhunsk	-11.1578
▁srbijansk	-11.158
▁alternativ	-11.1586
▁beskonačn	-11.1586
▁engleska	-11.1586
▁jezgru	-11.1586
▁kontrole	-11.1586
▁nixon	-11.1586
▁pluća	-11.1586
▁1901.	-11.1586
▁privlače	-11.1586
▁junior	-11.1588
▁grgur	-11.159
▁kiseline	-11.159
▁nadmoć	-11.1592
▁trokut	-11.1592
▁jazz	-11.1592
▁kiselina	-11.1592
▁1897.	-11.1593
▁zaštitn	-11.1596
▁divlji	-11.1598
▁obični	-11.1602
▁stranku	-11.1603
spomen	-11.1603
▁vojničk	-11.161
▁stabilnost	-11.1613
▁kliničk	-11.1619
▁cijelosti	-11.1623
▁forme	-11.1625
▁tekstovi	-11.163
▁apostolsk	-11.1634
▁gorivo	-11.1636
▁mačke	-11.164
▁voditelj	-11.1655
▁galaktika	-11.1663
▁paralelno	-11.1663
▁publika	-11.1663
▁poduzeće	-11.1663
▁pogrešn	-11.1663
▁tržišta	-11.1663
▁nastojao	-11.1663
▁izvođač	-11.1663
▁raspodjel	-11.1663
▁venecije	-11.1663
▁1890.	-11.1664
▁šubić	-11.1664
▁organizaciju	-11.1665
▁venecija	-11.1665
zemlje	-11.1667
▁bartol	-11.1667
▁poslijeratn	-11.1667
▁ruraln	-11.1667
▁bugarski	-11.1668
▁fidži	-11.167
▁dogovoren	-11.1675
▁brun	-11.1675
▁okončan	-11.1675
▁željeznice	-11.1676
▁predavao	-11.1676
▁prihvatiti	-11.1677
▁bot	-11.168
▁azijsk	-11.169
▁ponovn	-11.1691
▁ateni	-11.1692
„	-11.1728
▁potomak	-11.1728
▁beogradsk	-11.1737
▁poreč	-11.1738
▁društava	-11.1741
▁inspirira	-11.1741
▁kapitulacij	-11.1741
▁mehanike	-11.1741
▁opljačka	-11.1741
▁perzijanci	-11.1741
▁reprezentacije	-11.1741
▁zadovoljava	-11.1741
▁bošković	-11.1741
▁fiziku	-11.1741
▁porodice	-11.1741
▁industriju	-11.1741
▁politikom	-11.1741
▁povući	-11.1741
▁božji	-11.1741
▁maxwell	-11.1741
▁imperij	-11.1742
▁sudbinu	-11.1742
▁fosiln	-11.1742
▁raspolaga	-11.1743
▁nadimak	-11.1743
▁izazov	-11.1744
▁hokej	-11.1748
▁slojeva	-11.1748
▁prihvatili	-11.1751
▁rastuć	-11.1753
▁zabavn	-11.1758
▁sklonost	-11.176
oksid	-11.1775
▁saveznik	-11.1789
▁ef	-11.1789
▁hitlerov	-11.1794
▁ljut	-11.1801
▁titov	-11.1808
druga	-11.1809
srpsko	-11.1815
▁natjecanjima	-11.182
▁prilagođen	-11.182
▁fragment	-11.182
▁cjelina	-11.182
▁komunizma	-11.182
▁regulira	-11.182
▁englez	-11.182
▁komentar	-11.182
▁bernard	-11.182
▁biljke	-11.182
▁medalju	-11.182
▁najjači	-11.182
▁zaštita	-11.1821
▁galilej	-11.1822
▁toranj	-11.1824
▁zamijenio	-11.1831
▁atena	-11.1841
▁protjeran	-11.1844
▁kriminal	-11.1854
▁planinsko	-11.1856
▁132	-11.1872
▁skriva	-11.1873
▁portal	-11.1876
▁proizlazi	-11.1899
▁zainteresira	-11.1899
▁pripisuje	-11.1899
▁spriječiti	-11.1899
▁arhimed	-11.1899
▁izvršava	-11.1899
▁optuži	-11.1899
▁legendi	-11.1899
▁russell	-11.1899
▁naraštaj	-11.1899
▁ogulin	-11.1899
▁izbačen	-11.19
▁trajanja	-11.19
▁stupnjeva	-11.19
▁konzervativn	-11.19
▁1873.	-11.19
▁1889.	-11.19
▁1892.	-11.19
▁1899.	-11.19
▁primijeni	-11.19
▁utrke	-11.19
▁suradnje	-11.1901
▁apple	-11.1901
▁postotak	-11.1903
▁bloom	-11.1904
▁težak	-11.1904
▁ernest	-11.1905
▁mihailović	-11.1906
▁snazi	-11.1907
▁korisni	-11.1907
▁stakla	-11.1907
▁sportaš	-11.1914
stvar	-11.1917
▁sljed	-11.1917
▁londonsk	-11.1933
▁pogib	-11.1935
▁bošnjačko	-11.1935
▁muslimansko	-11.1939
▁zmaj	-11.1952
▁elektrolit	-11.1953
▁jovan	-11.1959
▁javnost	-11.1968
▁topničk	-11.1969
▁trenutn	-11.197
▁električnu	-11.1979
▁englesku	-11.1979
▁federacija	-11.1979
▁htjeli	-11.1979
▁odvjetnik	-11.1979
▁pretpostavi	-11.1979
▁ponajprije	-11.1979
▁obuhvat	-11.198
▁1894.	-11.198
▁ubojstvo	-11.198
▁moderna	-11.1983
▁čudo	-11.1985
▁tibet	-11.1986
▁1200	-11.1988
▁komitet	-11.1988
▁kružnice	-11.1988
▁dvadesetak	-11.1991
▁majčin	-11.1995
▁proljetn	-11.1996
▁kalcij	-11.2003
▁dijalog	-11.2008
▁oklopn	-11.2058
▁drukčij	-11.206
▁dubrovački	-11.206
▁gimnaziji	-11.206
▁socijaldemokrat	-11.206
▁agresije	-11.206
▁promovira	-11.206
▁libanon	-11.206
▁fluor	-11.206
▁kakve	-11.206
njić	-11.206
▁1849.	-11.206
▁osovine	-11.206
▁1875.	-11.206
▁1881.	-11.2061
▁chaplin	-11.2061
ов	-11.2061
▁izrađuj	-11.2065
▁mornarice	-11.2066
▁sparta	-11.2068
▁flori	-11.207
▁priroda	-11.2072
▁sdp	-11.2076
▁krugovima	-11.2077
▁policija	-11.2079
▁krune	-11.2082
bogat	-11.2085
▁direkt	-11.2085
▁vlado	-11.2111
170	-11.2121
110	-11.2125
▁procesor	-11.2138
▁dubrovačke	-11.2141
▁pedagog	-11.2141
▁reprezentacija	-11.2141
▁uzastopn	-11.2141
▁crkvom	-11.2141
▁omladin	-11.2141
▁hamburg	-11.2141
▁rjeđe	-11.2141
▁zavičaj	-11.2141
▁izgubili	-11.2141
▁latvijsk	-11.2141
▁nekolicin	-11.2142
▁amatersk	-11.2142
▁1879.	-11.2142
▁čovjekov	-11.2142
▁pojavu	-11.2142
▁uporabu	-11.2142
▁zgradu	-11.2142
▁zaposje	-11.2144
▁vjerovao	-11.2148
▁strijela	-11.2155
▁upisao	-11.2155
▁pokrajinsk	-11.2174
▁značajniji	-11.2175
američki	-11.2211
▁odgovorn	-11.2213
▁savjetnik	-11.2222
▁današnjoj	-11.2223
▁kvalitete	-11.2223
▁premješten	-11.2223
▁vjekoslav	-11.2223
▁trpimir	-11.2223
▁cvjet	-11.2223
▁zvornik	-11.2223
▁jedinstvo	-11.2224
▁drveta	-11.2224
▁starogrčk	-11.2224
▁pompej	-11.2224
▁hranu	-11.2225
▁zrinjski	-11.2225
▁tekstiln	-11.2227
▁pobuni	-11.2227
▁pokrajini	-11.2227
▁arheolog	-11.2233
vodeći	-11.2234
▁napoleonov	-11.2235
▁senator	-11.2236
▁konstanta	-11.2241
▁govornika	-11.2242
▁srbe	-11.2251
113	-11.2276
dunav	-11.2285
▁kaznen	-11.2288
▁intenzitet	-11.2306
▁koncepcij	-11.2306
▁microsoft	-11.2306
▁norveška	-11.2306
▁pejzaž	-11.2306
▁skulptura	-11.2306
▁oduševljen	-11.2306
▁ukrašen	-11.2306
▁obračun	-11.2306
▁moskva	-11.2306
▁ukrajini	-11.2306
▁boljševi	-11.2306
▁drugdje	-11.2306
▁fizici	-11.2306
▁klupsk	-11.2306
▁mongoli	-11.2306
▁izdužen	-11.2306
▁medalja	-11.2306
▁masivn	-11.2306
▁štetu	-11.2307
▁okupljen	-11.2307
▁nosač	-11.2311
▁1869.	-11.2312
▁uklanja	-11.2312
▁dovoljn	-11.2314
▁potvrdio	-11.2321
▁109	-11.2326
▁publicist	-11.2326
▁spektra	-11.2336
▁testira	-11.2358
▁potonj	-11.2376
▁akademiju	-11.2389
▁dozvoljen	-11.2389
▁mongolsk	-11.2389
▁najznačajnija	-11.2389
▁nizozemska	-11.2389
▁upotrebu	-11.2389
▁europsku	-11.2389
▁zaustavlja	-11.2389
▁mletački	-11.2389
▁madrid	-11.2389
▁stručnjaci	-11.239
▁izvrsn	-11.239
▁prestaje	-11.239
▁točaka	-11.2391
▁najnovij	-11.2395
▁naseljavaju	-11.2407
▁2,5	-11.2408
▁našli	-11.2411
▁hnk	-11.2416
▁oduzet	-11.2422
▁koprivničko	-11.2427
buduć	-11.2439
uporab	-11.2442
▁štokavsko	-11.2457
▁10%	-11.2463
▁državom	-11.2473
▁uspješan	-11.2473
▁situaciju	-11.2473
▁kompanija	-11.2473
▁sukladno	-11.2473
▁privredn	-11.2473
▁popularan	-11.2473
▁zamjenu	-11.2473
▁pozdrav	-11.2473
▁opsade	-11.2474
▁obrnuto	-11.2474
▁angeles	-11.2474
▁obrađiva	-11.2474
▁kapele	-11.2475
▁doktorirao	-11.2476
▁autonomiju	-11.2478
▁konkretn	-11.2479
▁francuz	-11.248
▁dužini	-11.2483
▁zdravlja	-11.2484
▁zidine	-11.249
▁maček	-11.2493
holstein	-11.2497
▁neuro	-11.2507
▁prodaju	-11.2511
▁einsteinov	-11.2539
▁plemensk	-11.255
▁dragan	-11.2551
▁uranij	-11.2552
▁zlatar	-11.2555
▁desetljećima	-11.2558
▁dimenzije	-11.2558
▁discipline	-11.2558
▁integracij	-11.2558
▁leibniz	-11.2558
▁opterećen	-11.2558
▁prethodi	-11.2558
▁otočje	-11.2558
▁bosanska	-11.2558
▁priključen	-11.2558
▁indiji	-11.256
▁normalno	-11.2562
▁vazal	-11.2563
▁ministarstvo	-11.2568
▁armensk	-11.257
▁austrougarsk	-11.2573
▁dušan	-11.2582
▁odbijen	-11.2601
▁50%	-11.2621
▁manifest	-11.2643
▁frekvencije	-11.2643
▁ljepote	-11.2643
▁renesanse	-11.2643
▁strossmayer	-11.2643
▁spominja	-11.2643
▁medvjed	-11.2643
▁održati	-11.2643
▁varijabl	-11.2643
▁vojvode	-11.2644
▁ostatka	-11.2644
kajkavsko	-11.2644
▁vodovod	-11.2644
▁ferrari	-11.2644
▁darwin	-11.2645
▁očituje	-11.2646
▁vanjska	-11.2646
▁presjek	-11.2652
▁zapovjedništvo	-11.2653
▁primarno	-11.2653
stajao	-11.2653
▁podizanj	-11.2654
▁pijanist	-11.2657
▁filolog	-11.2657
▁bron	-11.2659
▁karlovačk	-11.2659
▁opisuju	-11.266
▁sitni	-11.2663
▁hall	-11.2668
▁smeđ	-11.2668
▁stihovi	-11.2677
▁inercij	-11.2682
▁rješava	-11.2689
▁emil	-11.2696
▁cjelinu	-11.273
▁descartes	-11.273
▁nadgrobn	-11.273
▁pobjegao	-11.273
▁švedska	-11.273
▁inzistira	-11.273
▁kabinet	-11.273
▁sakuplja	-11.273
▁okupator	-11.273
▁obožava	-11.273
▁preuzela	-11.273
▁stalež	-11.273
▁1866.	-11.273
▁pogreb	-11.2732
▁venera	-11.2733
▁partizana	-11.2733
▁četnika	-11.2733
▁trojansk	-11.2737
▁scene	-11.2738
▁vjerovanja	-11.274
▁vrtić	-11.2745
▁golub	-11.2745
pravlja	-11.2753
▁dubina	-11.2764
▁sociolog	-11.2783
srpski	-11.2803
▁slovensko	-11.2806
▁hrani	-11.281
▁babić	-11.2814
▁otkaz	-11.2816
▁eksploatacij	-11.2817
▁perspektiv	-11.2817
▁bugojno	-11.2817
▁kombinacija	-11.2817
▁koncentracija	-11.2817
▁mišljenju	-11.2817
▁ograničava	-11.2817
▁postrojenja	-11.2817
▁nedovoljn	-11.2817
▁zadržati	-11.2817
▁vinodol	-11.2817
▁analize	-11.2817
▁izdvoji	-11.2817
▁pretvoren	-11.2817
▁prašine	-11.2817
▁pažnju	-11.2817
▁boeing	-11.2817
▁obradiv	-11.2817
▁stotinu	-11.2817
▁udaljava	-11.2817
▁titula	-11.2818
▁usluga	-11.2818
▁minimaln	-11.2818
▁uporabe	-11.2818
▁usvojen	-11.2818
▁nasilja	-11.2819
▁sokrat	-11.282
▁uzroci	-11.2821
▁kakvi	-11.2822
internacional	-11.2827
neretvansk	-11.2839
▁zvučn	-11.2855
▁sklon	-11.2858
▁jezikoslovac	-11.286
5°	-11.2868
▁učvrsti	-11.2904
▁kotromanić	-11.2904
▁nizozemske	-11.2904
▁preživjeli	-11.2904
▁pripovjedač	-11.2904
▁sloveniji	-11.2904
▁sredstvima	-11.2904
▁stanovništvu	-11.2904
▁tržišn	-11.2904
▁invaziju	-11.2904
▁suprotstavlja	-11.2904
▁izražaja	-11.2904
▁croatia	-11.2904
▁pobjeći	-11.2904
▁linux	-11.2904
▁usluge	-11.2905
▁potrebni	-11.2905
▁1891.	-11.2905
▁ispunjava	-11.2906
▁sadašnji	-11.2906
▁stefan	-11.2906
▁borilačk	-11.2907
▁camus	-11.2908
▁umjetničke	-11.291
▁ful	-11.291
▁daniel	-11.2911
▁kraljevstvu	-11.2911
▁1830.	-11.2913
▁doseljenici	-11.2914
▁antigon	-11.2916
▁karlovac	-11.292
ugarskog	-11.2929
▁pridružil	-11.2932
croat	-11.2964
177	-11.2972
▁pomorsko	-11.2972
▁lovreč	-11.2973
▁diktator	-11.2993
▁doživljaj	-11.2993
▁funkcionaln	-11.2993
▁pučanstva	-11.2993
▁molitve	-11.2993
▁procijenjen	-11.2993
▁entitet	-11.2993
▁britanska	-11.2993
▁promjenjiv	-11.2993
▁republikom	-11.2993
▁glumci	-11.2993
▁pripreme	-11.2993
▁1863.	-11.2993
▁automatsk	-11.2993
▁potaknut	-11.2994
▁1870.	-11.2994
▁mozart	-11.2994
▁aktivan	-11.2994
▁teških	-11.2994
▁pomagal	-11.2995
▁tenkovi	-11.2996
▁epizoda	-11.2997
▁djelatn	-11.3002
▁protest	-11.301
▁vukčić	-11.3027
torij	-11.3028
▁cezij	-11.3043
▁prisutna	-11.3082
▁nedovršen	-11.3082
▁autocesta	-11.3082
▁koalicija	-11.3082
▁knjižnice	-11.3082
▁utemeljio	-11.3082
▁intervju	-11.3082
▁postojali	-11.3082
▁trinaest	-11.3082
▁domovine	-11.3082
▁zadužen	-11.3083
▁kanjon	-11.3083
▁1867.	-11.3083
▁besmrtn	-11.3083
▁veteran	-11.3083
▁prevlast	-11.3083
▁uzročn	-11.3084
▁sisak	-11.3084
▁trajanje	-11.3084
▁riješen	-11.3084
▁istočnu	-11.3086
▁verzije	-11.3087
▁pokojn	-11.3088
▁potiče	-11.3088
▁sirovina	-11.3088
▁nekoć	-11.309
▁provel	-11.309
▁pronaša	-11.3101
▁nećak	-11.3101
▁vrijedno	-11.312
▁dvojn	-11.3127
▁pobožn	-11.3133
174	-11.3167
▁raznolikost	-11.3169
nooslobodilačk	-11.3172
▁aerodrom	-11.3172
▁dragutin	-11.3172
▁obilježje	-11.3172
▁rekreacij	-11.3172
▁vatrogasn	-11.3172
▁veličanstven	-11.3172
▁izvjesn	-11.3172
▁organizator	-11.3172
▁pobjeđuje	-11.3172
▁postepeno	-11.3172
▁kolodvor	-11.3172
▁svjedok	-11.3172
▁trenutka	-11.3172
▁premješta	-11.3172
▁uvršten	-11.3172
▁ogranak	-11.3172
▁srpsku	-11.3172
▁scott	-11.3172
▁poslovima	-11.3172
▁1857.	-11.3173
▁živjela	-11.3173
▁scenarist	-11.3174
▁vlastitog	-11.3174
▁revolucionar	-11.3175
▁doslovno	-11.3176
▁cestu	-11.3177
▁objektivn	-11.3178
▁pristao	-11.3178
▁crnogorski	-11.3179
▁hektor	-11.3181
▁sjemen	-11.3181
▁odabran	-11.3184
▁turista	-11.3185
▁požešk	-11.3187
podigao	-11.3187
▁integriran	-11.3191
▁sferi	-11.3199
▁zarobi	-11.3206
▁povećanj	-11.3215
fašist	-11.3228
fantastičn	-11.3263
▁austrijska	-11.3263
▁ceremonij	-11.3263
▁dalmacija	-11.3263
▁digitaln	-11.3263
▁transformator	-11.3263
▁završetku	-11.3263
▁potrebne	-11.3263
▁primijenjen	-11.3263
▁ameriku	-11.3263
▁razumijevanje	-11.3263
▁tradicijsk	-11.3263
▁podređen	-11.3263
▁vizualn	-11.3264
▁luteran	-11.3264
▁odigrao	-11.3267
▁norman	-11.3268
▁odatle	-11.3268
▁serijal	-11.3268
▁teksas	-11.3269
▁gospodarstvu	-11.3271
▁izmijenjen	-11.3272
▁nadzir	-11.3282
▁kršk	-11.3283
▁klorid	-11.3291
▁pavlov	-11.3292
▁bijes	-11.3293
split	-11.3299
▁plaćen	-11.3301
▁izmjeren	-11.3301
▁intelektualn	-11.3309
▁baziran	-11.3312
▁plinsk	-11.3315
▁petrović	-11.3316
▁ugledn	-11.3322
▁stub	-11.3338
federal	-11.3347
▁agresivn	-11.3355
▁cjelini	-11.3355
▁izvedbi	-11.3355
▁najutjecajnij	-11.3355
▁preživljava	-11.3355
▁debljin	-11.3355
▁bogoslov	-11.3355
▁raspršen	-11.3355
▁zasluge	-11.3355
▁zlatne	-11.3355
▁podrške	-11.3355
▁rezonanc	-11.3355
▁potražnj	-11.3355
▁teoretsk	-11.3355
▁infekcije	-11.3355
▁pozicije	-11.3355
▁servis	-11.3356
▁pionir	-11.3356
▁oznake	-11.3356
▁nagrađen	-11.3357
▁zgradi	-11.3357
▁latvija	-11.3357
▁pravoslavno	-11.3359
▁visinom	-11.3359
▁mahler	-11.3359
▁kritičn	-11.336
▁susreće	-11.336
▁počinil	-11.3361
▁regent	-11.3365
▁cijeni	-11.3371
temelj	-11.3377
▁keltsk	-11.3378
▁bočn	-11.34
▁dioniz	-11.3401
▁odigran	-11.3403
▁tunel	-11.343
▁scena	-11.3432
▁okupacijsk	-11.3447
▁wilhelm	-11.3447
▁apsorbira	-11.3447
▁instrumenata	-11.3447
▁jednadžbe	-11.3447
▁keramike	-11.3447
▁predsjeda	-11.3447
▁skupštinu	-11.3447
▁veličinu	-11.3447
▁španjolci	-11.3447
▁izazvao	-11.3447
▁pretjeran	-11.3448
▁episkop	-11.3448
▁norveško	-11.3448
▁karijeri	-11.3448
▁mramor	-11.3448
▁1882.	-11.3448
▁1874.	-11.3448
▁suverenitet	-11.3448
▁romantičn	-11.3449
rodnih	-11.345
▁režira	-11.3452
▁stanovit	-11.3453
▁suradnici	-11.3453
ndustrijalizacij	-11.3455
▁dodatak	-11.3455
▁andrić	-11.3457
▁solin	-11.3466
▁izlaže	-11.3467
kraljev	-11.3486
▁dizajner	-11.3508
▁oblast	-11.3508
▁angažman	-11.3541
▁demokracije	-11.3541
▁nezadovoljstvo	-11.3541
▁osmanlijsk	-11.3541
▁shakespeare	-11.3541
▁meksika	-11.3541
▁isključen	-11.3541
▁rasvjet	-11.3541
▁smisao	-11.3541
▁medicine	-11.3541
▁mihovil	-11.3541
▁adolf	-11.3541
▁naučio	-11.3541
▁pregovore	-11.3541
▁obitava	-11.3542
на	-11.3543
▁paravojn	-11.3544
▁drvn	-11.3544
▁umjetnička	-11.3546
▁uzvišen	-11.3554
▁sankcij	-11.3555
▁plašt	-11.356
▁imotsk	-11.3565
▁futur	-11.3568
stajanje	-11.3571
pleme	-11.3586
▁dragi	-11.3588
▁folklorn	-11.3603
ranjiv	-11.3616
▁127	-11.3633
▁eksploziv	-11.3635
▁hitchcock	-11.3635
▁prakticira	-11.3635
▁vijećnik	-11.3635
▁djevojke	-11.3635
▁funkciji	-11.3635
▁galaktike	-11.3635
▁literaturi	-11.3635
▁napomenuti	-11.3635
▁predsjednic	-11.3635
▁publike	-11.3635
▁virovitica	-11.3635
▁besplatn	-11.3635
▁stvaralaštva	-11.3635
▁neovisna	-11.3635
▁1930-	-11.3635
▁literarn	-11.3635
▁nerijetko	-11.3635
▁cjeline	-11.3635
▁ulaganja	-11.3635
▁bjelorusk	-11.3635
▁sagradio	-11.3636
▁poziciju	-11.3636
▁vidjeli	-11.3637
predsjednik	-11.3637
▁prestala	-11.3637
▁amiga	-11.3637
▁talijana	-11.364
▁posade	-11.364
▁štetn	-11.3641
najbolju	-11.3644
▁tomaš	-11.3658
razum	-11.3699
stojeći	-11.3714
▁dokumenata	-11.373
▁kazalištu	-11.373
▁komunikacije	-11.373
▁najistaknutiji	-11.373
▁pedagošk	-11.373
▁pripovijet	-11.373
▁surađivao	-11.373
▁švedske	-11.373
▁giovanni	-11.373
▁zajedničke	-11.373
▁svojstven	-11.373
▁pojavom	-11.3731
▁sartre	-11.3731
▁1868.	-11.3731
▁skijašk	-11.3731
▁show	-11.3731
▁facto	-11.3732
▁jablan	-11.3732
▁bismo	-11.3734
▁kubansk	-11.3734
▁pamuk	-11.3735
▁stražnj	-11.3739
▁usavršava	-11.3744
▁pokrov	-11.3744
▁freud	-11.3755
▁odlaze	-11.3781
▁spava	-11.3783
▁iznimn	-11.379
▁uzrokuju	-11.3796
▁nedić	-11.3798
▁provode	-11.3801
▁izmijen	-11.3819
▁autoceste	-11.3827
▁emisija	-11.3827
▁procjene	-11.3827
▁kolektivn	-11.3827
▁vakuum	-11.3827
▁pseudonim	-11.3827
▁pravedn	-11.3827
▁takvu	-11.3827
▁1883.	-11.3827
▁gardijsk	-11.3827
▁pritiskom	-11.3828
▁vlasnici	-11.3828
▁specijaliziran	-11.3829
▁istraživanju	-11.3829
▁slovačkoj	-11.383
▁komunističkog	-11.3831
▁brzini	-11.3832
▁rovinj	-11.3833
▁izašao	-11.3834
▁antologi	-11.3834
▁svjež	-11.3837
fol	-11.3841
geografija	-11.3844
▁berilij	-11.3852
▁povremen	-11.3874
▁polagan	-11.3881
▁emp	-11.3881
▁interval	-11.3883
▁zaleđe	-11.3884
▁prozn	-11.3892
▁ondašnj	-11.3893
▁položi	-11.3909
▁socio	-11.391
▁antifašističk	-11.3924
▁hollywood	-11.3924
▁moskvu	-11.3924
▁poljoprivredom	-11.3924
▁protektorat	-11.3924
▁revoluciju	-11.3924
▁civilizacija	-11.3924
▁svojstvima	-11.3924
▁transformacij	-11.3924
▁wagner	-11.3924
▁sljedbenik	-11.3924
▁estonija	-11.3924
▁krapinsk	-11.3924
▁napetosti	-11.3924
▁mehanizam	-11.3924
▁kafka	-11.3924
▁vakuf	-11.3924
▁psihičk	-11.3924
▁uvjerljiv	-11.3924
▁kratke	-11.3925
▁komunistička	-11.3928
uključujući	-11.3929
▁vladislav	-11.393
▁presudn	-11.393
▁načelu	-11.393
▁animiran	-11.3933
živjeti	-11.3933
▁lučk	-11.3936
▁blokira	-11.3995
▁cassini	-11.4022
▁monumentaln	-11.4022
▁poljoprivredi	-11.4022
▁pretežito	-11.4022
▁rekonstrukcij	-11.4022
▁herodot	-11.4022
▁oduvijek	-11.4022
▁distrikt	-11.4022
/2003	-11.4022
▁uspjelo	-11.4022
▁sukošan	-11.4022
▁pukotin	-11.4022
▁obnovu	-11.4022
▁porodica	-11.4022
▁pečat	-11.4023
▁kanadi	-11.4023
▁nepovoljn	-11.4023
▁vestern	-11.4024
▁protokol	-11.4024
▁hermes	-11.4024
▁pomažu	-11.4025
▁češkoj	-11.4026
▁plemenima	-11.4026
▁107	-11.4028
▁sezonu	-11.4028
▁trgovinsk	-11.4032
▁stiže	-11.4035
▁detaljn	-11.4036
▁kvadratn	-11.4039
lazeći	-11.4066
ifikacija	-11.4102
▁ekstremn	-11.411
▁internetsk	-11.4117
▁venecijansk	-11.4119
▁djetinjstva	-11.4121
▁muškarce	-11.4121
▁posejdon	-11.4121
▁razgovara	-11.4121
▁koalicije	-11.4121
▁karbonat	-11.4121
▁dinamičk	-11.4121
▁kopernik	-11.4121
▁izabral	-11.4121
▁uslijedila	-11.4121
▁identičn	-11.4121
▁nakratko	-11.4121
▁tehničko	-11.4121
▁rijekom	-11.4122
▁marulić	-11.4122
▁1813.	-11.4122
▁zadaća	-11.4123
▁teškim	-11.4124
▁komedija	-11.4124
▁dokumentarn	-11.4125
▁razveden	-11.4125
▁poljima	-11.4129
▁astrolog	-11.4145
▁gušenj	-11.4171
▁pjevačic	-11.4202
▁ekliptik	-11.4221
huygens	-11.4221
▁gorbačov	-11.4221
▁južnoafričk	-11.4221
▁okrunjen	-11.4221
▁razlikovati	-11.4221
▁shizofreni	-11.4221
▁sulejman	-11.4221
▁adaptacij	-11.4221
▁ekonomska	-11.4221
▁pierre	-11.4221
▁razvitka	-11.4221
▁pretvorio	-11.4221
▁podudara	-11.4221
▁terapija	-11.4221
▁sadržan	-11.4221
▁vijeću	-11.4221
▁pokazali	-11.4221
▁1864.	-11.4222
▁zastupnici	-11.4222
▁prirodu	-11.4222
▁pobunu	-11.4222
▁nazvali	-11.4223
▁boginja	-11.4223
▁toponim	-11.4225
čovjek	-11.4229
▁stazi	-11.4233
manjoj	-11.4234
▁legendarn	-11.424
▁prigradsk	-11.4241
▁dostupni	-11.4244
▁lažn	-11.4255
▁objašnjen	-11.428
▁šal	-11.4291
▁nizinsk	-11.4306
▁europljani	-11.4322
▁evolucijsk	-11.4322
▁močvarn	-11.4322
▁norveške	-11.4322
▁plitvičk	-11.4322
▁psihijatr	-11.4322
▁taekwondo	-11.4322
▁šesnaest	-11.4322
▁abraham	-11.4322
▁maksimilijan	-11.4322
▁razočaran	-11.4322
▁clinton	-11.4322
▁hanibal	-11.4322
▁srebra	-11.4322
▁naglasak	-11.4322
▁isparava	-11.4322
▁uslijedio	-11.4322
▁mliječn	-11.4322
▁medalje	-11.4323
▁oduzima	-11.4323
▁pregovora	-11.4323
▁spašava	-11.4324
▁glasovir	-11.4324
▁časnici	-11.4324
▁obilježil	-11.4325
▁mentaln	-11.4326
▁tretira	-11.4327
▁smith	-11.4327
▁muzičk	-11.4333
▁poštansk	-11.4333
▁oprost	-11.4335
analitičk	-11.4346
▁poslal	-11.4359
▁objavi	-11.4372
▁141	-11.439
▁magistra	-11.4393
▁neretva	-11.4398
house	-11.4412
▁alexander	-11.4424
▁izvedba	-11.4424
▁koncentracijsk	-11.4424
▁prouzroč	-11.4424
▁najčešći	-11.4424
▁nizozemski	-11.4424
▁odlučeno	-11.4424
▁philip	-11.4424
▁zauvijek	-11.4424
▁letjelice	-11.4424
▁nepotpun	-11.4424
▁četvornih	-11.4424
▁snažne	-11.4424
▁svjestan	-11.4424
▁sinkron	-11.4424
▁usporava	-11.4424
▁potpore	-11.4424
▁organizmi	-11.4424
▁legende	-11.4424
▁flota	-11.4425
▁zaražen	-11.4425
▁čarobn	-11.4426
▁raketa	-11.4426
▁mihail	-11.4427
▁bazilika	-11.4428
▁turistička	-11.4428
▁nakit	-11.4431
▁sekcija	-11.4436
▁zonu	-11.4437
▁sigurni	-11.4438
▁marcel	-11.4439
▁zaljubi	-11.4463
▁matoš	-11.4472
▁scensk	-11.4484
▁orkestra	-11.4495
▁obiln	-11.4496
▁provođenj	-11.4504
▁izjavi	-11.4526
▁meštrović	-11.4527
▁porfirogenet	-11.4527
▁ptolemej	-11.4527
▁sudjelovala	-11.4527
▁održala	-11.4527
▁depresije	-11.4527
▁margaret	-11.4527
▁kršćana	-11.4527
▁arhitekturi	-11.4527
▁samoglasnik	-11.4527
▁inozemn	-11.4527
▁sjednici	-11.4527
▁regionalno	-11.4527
▁1877.	-11.4528
▁2022.	-11.4528
▁1876.	-11.4528
▁malobrojn	-11.4528
▁tragičn	-11.4528
▁prošli	-11.4529
▁poprima	-11.453
▁segment	-11.453
▁dolomit	-11.4532
▁sugerira	-11.4532
▁prelask	-11.4536
ološka	-11.4557
▁nasilno	-11.4559
slavenskih	-11.4586
▁metropoli	-11.4631
▁istaknuo	-11.4631
▁izvedbe	-11.4631
▁pripovijeda	-11.4631
▁samoubojstvo	-11.4631
▁žrtvova	-11.4631
▁dosadašnj	-11.4631
▁hektara	-11.4631
▁obroncima	-11.4631
▁pretrpjel	-11.4631
▁prijestolnica	-11.4631
▁fridrik	-11.4631
▁edward	-11.4631
▁glumačk	-11.4631
▁monetarn	-11.4631
▁figure	-11.4631
▁podnožju	-11.4631
▁projekata	-11.4631
▁edvard	-11.4631
▁luburić	-11.4631
▁zalagao	-11.4631
▁atletsk	-11.4631
▁gerilsk	-11.4631
▁1884.	-11.4632
▁1846.	-11.4632
pseudo	-11.4632
▁rječic	-11.4632
▁kotlin	-11.4632
▁mudrost	-11.4633
▁dizajnira	-11.4647
▁opravdan	-11.4651
▁zadobi	-11.4663
▁božićn	-11.467
▁sklopljen	-11.469
▁istinsk	-11.4725
▁kombinaciji	-11.4736
▁mussolini	-11.4736
▁okupacijom	-11.4736
▁sakrament	-11.4736
▁visoravni	-11.4736
▁iznenađen	-11.4736
▁koordinira	-11.4736
▁mještani	-11.4736
▁ekonomsku	-11.4736
▁naknadno	-11.4736
▁agresor	-11.4736
▁zaštitom	-11.4736
▁zaključuje	-11.4736
▁privatne	-11.4736
▁krleža	-11.4737
▁sekunde	-11.4737
▁mlađa	-11.4737
▁ophod	-11.4737
▁pokazati	-11.4737
▁nomadsk	-11.4737
▁krstitelj	-11.4737
▁natrijev	-11.4738
▁raketn	-11.474
▁kazni	-11.474
▁dolasku	-11.4741
▁rečeno	-11.4743
▁plijen	-11.4744
▁oslabi	-11.4744
▁istinit	-11.4754
▁prilaz	-11.479
▁memorija	-11.4792
▁posvećuj	-11.4795
dalmatinsko	-11.4803
politički	-11.4812
gnan	-11.4816
▁berlinsk	-11.4818
▁mineraln	-11.482
hrvatske	-11.484
▁repertoar	-11.4843
▁spielberg	-11.4843
▁virovitičk	-11.4843
▁američku	-11.4843
▁domorodačk	-11.4843
▁književna	-11.4843
▁najmlađi	-11.4843
▁omogućuju	-11.4843
▁teoretičar	-11.4843
▁tisućljeća	-11.4843
▁španjolsku	-11.4843
▁prekrasn	-11.4843
▁gornjoj	-11.4843
▁činjenicu	-11.4843
▁kompanije	-11.4843
▁željko	-11.4843
▁pokrovitelj	-11.4843
▁domovinu	-11.4843
▁upravne	-11.4843
▁arapske	-11.4843
▁terezije	-11.4843
▁padobran	-11.4843
▁popularne	-11.4843
▁pothvat	-11.4844
▁sastanak	-11.4844
▁liburni	-11.4845
zvuk	-11.4846
▁douglas	-11.4846
▁maraton	-11.4847
▁konzol	-11.4849
▁zlostavlja	-11.4852
▁smjel	-11.4861
▁natural	-11.4863
▁slunj	-11.4868
▁serijsk	-11.4875
prethodn	-11.4898
▁povoljni	-11.4947
▁eisenhower	-11.495
▁obavještajn	-11.495
▁vjeroispovijest	-11.495
▁html	-11.495
▁konferenciji	-11.495
▁potvrđuju	-11.495
▁zürich	-11.495
▁tjesnac	-11.495
▁raskošn	-11.495
▁svrha	-11.495
▁uslužn	-11.495
▁pokazatelj	-11.495
▁snagom	-11.4951
▁restoran	-11.4951
▁jedinstva	-11.4951
▁magnezij	-11.4951
▁podložn	-11.4951
▁1844.	-11.4951
▁odlazak	-11.4951
▁sergej	-11.4951
▁sediment	-11.4951
▁1888.	-11.4951
▁1872.	-11.4951
▁venere	-11.4951
▁1887.	-11.4951
▁obujam	-11.4951
▁djeci	-11.4951
▁obrade	-11.4952
▁izučava	-11.4953
▁grude	-11.4954
▁ritual	-11.4955
▁bojna	-11.4958
▁primarni	-11.4963
▁katastrofaln	-11.4969
▁crijev	-11.4977
▁tribun	-11.4984
▁raskol	-11.5002
▁romaničk	-11.5017
▁akumulacij	-11.5059
▁deklinacij	-11.5059
▁izetbegović	-11.5059
▁novoosnovan	-11.5059
▁omogućen	-11.5059
▁austriju	-11.5059
▁primjenjiva	-11.5059
▁sposobni	-11.5059
▁tamburaš	-11.5059
▁izazvati	-11.5059
▁tvrtku	-11.5059
▁stotinjak	-11.5059
▁vrhuncu	-11.5059
▁fosfor	-11.5059
▁predložen	-11.5059
▁tramvaj	-11.5059
prosvjetitelj	-11.5059
▁uguši	-11.5059
▁lopte	-11.506
▁palestinsk	-11.506
▁1847.	-11.506
▁žminj	-11.506
▁minute	-11.5061
▁suradnja	-11.5061
▁izvire	-11.5062
▁plitk	-11.5063
astronomija	-11.5068
▁dominikansk	-11.5068
▁atensk	-11.507
stavljajući	-11.5074
ologijom	-11.5075
▁prolask	-11.5077
glazb	-11.5094
▁cijep	-11.5131
▁lingvist	-11.5136
▁stilsk	-11.5137
puštanja	-11.514
▁snimil	-11.5143
▁diplomira	-11.5167
▁apstraktn	-11.5169
▁arhiđakon	-11.5169
▁eventualn	-11.5169
▁simptoma	-11.5169
▁temperaturn	-11.5169
▁windows	-11.5169
▁napredovanje	-11.5169
▁globus	-11.5169
▁istražuje	-11.5169
▁ropstva	-11.5169
▁manifestacije	-11.5169
▁ptsp	-11.5169
▁mazarin	-11.5169
▁pjesmi	-11.5169
▁menelaj	-11.517
moslavačk	-11.517
▁prenose	-11.5171
▁kanadsk	-11.5171
▁prevelik	-11.5172
ručio	-11.5182
▁padež	-11.5186
▁ručn	-11.5188
▁nacionalističk	-11.522
▁spektraln	-11.5239
▁0,5	-11.525
▁ekvivalent	-11.528
▁nekropol	-11.528
▁elastičn	-11.528
▁klasificira	-11.528
▁snažna	-11.528
▁gledišta	-11.528
▁obrađuje	-11.528
▁osloboditi	-11.528
▁alegorij	-11.528
▁sklapanj	-11.528
▁spontan	-11.528
senjsk	-11.528
▁puhačk	-11.528
▁etičk	-11.528
▁podružn	-11.528
▁podučava	-11.5281
▁cijenjen	-11.5281
▁infekcija	-11.5281
▁clark	-11.5281
▁karmel	-11.5282
▁otklon	-11.5282
▁poeziju	-11.5283
▁prebaci	-11.5283
▁neslužben	-11.5283
▁ponude	-11.5283
▁prekomorsk	-11.5285
▁višnjan	-11.529
edra	-11.5294
filozof	-11.53
čestica	-11.5301
▁doveden	-11.5302
▁realističk	-11.531
▁ribarsk	-11.5337
▁isključi	-11.5388
dimenzionaln	-11.5392
▁bleiburg	-11.5392
▁demonstracij	-11.5392
▁djevojka	-11.5392
▁garnizon	-11.5392
▁izdvojen	-11.5392
▁bakterije	-11.5392
▁hebrejsk	-11.5392
▁emocionaln	-11.5392
▁prilagodi	-11.5392
rječju	-11.5392
▁remek	-11.5392
▁drastičn	-11.5392
▁domovini	-11.5393
▁anatolij	-11.5393
▁tomašević	-11.5393
▁uporište	-11.5393
▁položen	-11.5393
▁promicanj	-11.5393
▁nastojanja	-11.5393
▁tvrđavu	-11.5393
▁plastičn	-11.5393
▁zapaža	-11.5393
▁sekretar	-11.5394
▁procijeni	-11.5394
▁hrvoje	-11.5396
▁mitološk	-11.5399
▁plasira	-11.5404
▁selekcij	-11.5408
▁biskupsk	-11.5418
▁kanonsk	-11.5418
energij	-11.5466
▁uranov	-11.5489
▁zahtijeval	-11.5501
▁diktature	-11.5506
▁ekspedicije	-11.5506
▁ludwig	-11.5506
▁situaciji	-11.5506
▁strategija	-11.5506
▁sudjelovalo	-11.5506
▁upotrebe	-11.5506
▁nesposobn	-11.5506
▁mehanika	-11.5506
▁promjeni	-11.5506
▁kemičar	-11.5506
▁afriku	-11.5506
american	-11.5506
deutsch	-11.5506
▁glazbom	-11.5506
▁cestom	-11.5506
▁hnl	-11.5507
▁bijaše	-11.5507
▁kugle	-11.5507
▁kozmičk	-11.5507
▁redukcij	-11.5507
▁kreativn	-11.5508
▁preminul	-11.5508
▁pravokutn	-11.5508
▁protekl	-11.5508
▁porazil	-11.5536
▁starohrvatsk	-11.5565
▁talijansko	-11.5599
▁hubble	-11.5621
▁dürer	-11.5621
▁ekscentricitet	-11.5621
▁elizabeta	-11.5621
▁količini	-11.5621
▁literatura	-11.5621
▁međimurje	-11.5621
▁neuspjel	-11.5621
▁objavljivao	-11.5621
▁preduvjet	-11.5621
▁reprezentativn	-11.5621
▁kuiperov	-11.5621
▁istospoln	-11.5621
▁izabrao	-11.5621
▁1920-	-11.5621
čovječ	-11.5621
▁impuls	-11.5621
▁komisije	-11.5621
▁usvaja	-11.5621
▁pristaša	-11.5621
▁slavonija	-11.5621
▁srednjoškolsk	-11.5621
▁baštinu	-11.5621
▁monroe	-11.5621
▁pročelje	-11.5621
▁terezija	-11.5621
▁navijača	-11.5622
▁umrli	-11.5622
▁1859.	-11.5622
▁odbačen	-11.5622
▁sanader	-11.5622
▁tuberkuloze	-11.5622
▁rakete	-11.5622
▁belgijsk	-11.5622
▁zavnoh	-11.5623
▁1815.	-11.5623
▁suglasnik	-11.5624
▁kript	-11.5625
▁školj	-11.5627
▁glasovit	-11.5628
▁indian	-11.563
▁protivničk	-11.5643
▁dosež	-11.5668
▁čudn	-11.5676
▁humanističk	-11.569
▁potrošač	-11.5695
▁vladin	-11.5716
▁slikarsk	-11.5721
matičn	-11.5723
▁pretpostavka	-11.5737
▁daytonskog	-11.5737
▁eliptičn	-11.5737
▁katoličanstvo	-11.5737
▁ljestvice	-11.5737
▁nizozemskoj	-11.5737
▁poljoprivredu	-11.5737
▁ukrajinci	-11.5737
▁unprofor	-11.5737
▁četrnaest	-11.5737
▁čimbenici	-11.5737
▁eduard	-11.5737
▁keramičk	-11.5737
▁ropstvo	-11.5737
▁čišćenje	-11.5737
▁lewis	-11.5737
▁dostupan	-11.5738
▁primorja	-11.5738
▁upisuje	-11.5738
▁bergman	-11.5738
▁pacijent	-11.5738
▁studio	-11.5738
▁imovine	-11.5738
▁valentin	-11.5739
prijatelj	-11.574
▁faraon	-11.5742
▁iskren	-11.5743
▁vitešk	-11.5744
▁redovničk	-11.5747
▁strašn	-11.5756
▁okupil	-11.576
▁pristali	-11.5786
▁pridoni	-11.5789
▁mediteran	-11.582
▁smješta	-11.5835
▁preuzimanj	-11.5855
▁katoličku	-11.5855
▁kvaliteta	-11.5855
▁mješavina	-11.5855
▁primjenjuju	-11.5855
▁uskoplje	-11.5855
▁tumačenje	-11.5855
▁utakmici	-11.5855
▁zbraja	-11.5855
▁promjenom	-11.5855
▁trijumf	-11.5855
▁incident	-11.5855
▁zaslužn	-11.5855
▁liječenja	-11.5855
▁podražaj	-11.5855
▁kakvu	-11.5855
▁pogođen	-11.5855
▁ganimed	-11.5855
▁agrarn	-11.5855
▁pogodak	-11.5855
▁jajce	-11.5856
▁1858.	-11.5856
▁lopta	-11.5856
▁kakanj	-11.5856
▁obrada	-11.5858
▁mustaf	-11.5859
sideričk	-11.5863
▁opkol	-11.5867
▁stadij	-11.588
▁izuzev	-11.5883
▁kolegij	-11.589
▁plimn	-11.5894
spirit	-11.5896
▁pitk	-11.5898
▁lorentz	-11.5974
▁definitivno	-11.5974
▁komponente	-11.5974
▁natjecanju	-11.5974
▁očekuje	-11.5974
▁phelps	-11.5974
▁referentn	-11.5974
▁reflektira	-11.5974
▁reformator	-11.5974
▁emisije	-11.5974
▁indoeuropsk	-11.5974
▁izjasnil	-11.5974
▁stravinski	-11.5974
▁kasparov	-11.5974
▁divizije	-11.5974
▁otkriti	-11.5974
▁korčula	-11.5974
▁saudijsk	-11.5974
▁orijentacije	-11.5974
▁obrađen	-11.5974
▁italijom	-11.5974
▁kaznu	-11.5974
▁potisnut	-11.5975
▁neznatn	-11.5975
▁1840.	-11.5975
▁predavač	-11.5976
▁lončar	-11.5976
▁projekci	-11.5976
▁kanade	-11.5976
▁pozicija	-11.5979
▁zaleđu	-11.5979
▁medijsk	-11.5981
▁liječi	-11.5985
▁prijeratn	-11.5986
▁ekstrem	-11.5987
▁grozni	-11.5989
međunarodn	-11.6002
znajemo	-11.6006
▁iračk	-11.6093
▁ekspedicija	-11.6094
▁mletačka	-11.6094
▁ultraljubičast	-11.6094
▁uspoređiva	-11.6094
▁debussy	-11.6094
▁dodijelio	-11.6094
▁nadvojvod	-11.6094
▁oživljava	-11.6094
▁pridružuj	-11.6094
▁dužnosnik	-11.6094
▁podjednako	-11.6094
▁ugljičn	-11.6094
▁memorije	-11.6094
▁oslobodio	-11.6094
▁slavoniju	-11.6094
▁komisija	-11.6094
▁strijeljan	-11.6095
▁rbih	-11.6095
▁usmjerava	-11.6095
▁memoar	-11.6095
▁dramatičn	-11.6096
▁queen	-11.6096
▁srednjoeuropsk	-11.6099
▁sretn	-11.6101
▁prepusti	-11.6107
▁kreira	-11.6117
▁basic	-11.6152
▁nevjerojatn	-11.6176
▁meteorolog	-11.6187
▁apsorpcij	-11.6216
▁brodogradilišt	-11.6216
▁katedrali	-11.6216
▁kromosom	-11.6216
▁oktavijan	-11.6216
▁reformacije	-11.6216
▁rendgensk	-11.6216
▁sisavaca	-11.6216
▁džamije	-11.6216
▁sudjelovati	-11.6216
▁popriličn	-11.6216
▁tradicijom	-11.6216
▁upućuju	-11.6216
▁utjelovljen	-11.6216
▁nestabilno	-11.6216
▁zajednička	-11.6216
▁nominacija	-11.6216
▁okrutn	-11.6216
▁vojarne	-11.6216
▁uspjele	-11.6216
▁balkanu	-11.6217
▁izumitelj	-11.6217
▁ilegaln	-11.6217
▁ekipa	-11.6217
▁produžen	-11.6217
▁stroncij	-11.6217
▁kpj	-11.6217
▁pjesnici	-11.6218
▁mount	-11.6219
▁pascal	-11.6219
▁učinjen	-11.622
▁pustinjsk	-11.6222
▁pogodil	-11.6225
▁posavsk	-11.6227
▁kotač	-11.6227
▁gaelsk	-11.6238
▁protivljenj	-11.6267
miholj	-11.6295
otvoren	-11.6295
▁rudarsk	-11.6301
▁ekvatorsk	-11.631
zagrebačk	-11.6325
▁kategoriji	-11.634
▁konstrukcije	-11.634
▁leipzig	-11.634
▁ljestvica	-11.634
▁ludbreg	-11.634
▁podrijetlu	-11.634
▁posljedicu	-11.634
▁predsjedništvo	-11.634
▁religiju	-11.634
▁skulpture	-11.634
▁utvrđivanj	-11.634
▁švedskoj	-11.634
▁airbus	-11.634
▁bakterija	-11.634
▁poglavlje	-11.634
▁razlikoval	-11.634
▁nevidljiv	-11.634
▁prikladn	-11.634
▁potrebu	-11.634
▁otpoče	-11.634
▁predlaže	-11.634
▁1854.	-11.6341
▁kontrast	-11.6341
▁katolik	-11.6342
▁srebro	-11.6343
▁prekriva	-11.6343
▁najraniji	-11.6344
▁zenit	-11.6346
▁maršal	-11.6348
produktivn	-11.6364
▁naranč	-11.6371
▁brdsk	-11.6372
bosanski	-11.6374
▁pobijen	-11.6393
▁pogansk	-11.6416
▁kristaln	-11.6424
▁komičn	-11.6455
republik	-11.6459
▁gundulić	-11.6465
▁heinrich	-11.6465
▁humboldt	-11.6465
▁konkurent	-11.6465
▁otočja	-11.6465
▁republičk	-11.6465
▁univerzitet	-11.6465
▁zabilježio	-11.6465
▁stepinca	-11.6465
▁humanitarn	-11.6465
▁doprinijel	-11.6465
▁varteks	-11.6465
▁rezervi	-11.6465
▁izvršno	-11.6465
▁izrađiva	-11.6465
▁divizija	-11.6465
đorđ	-11.6465
▁podrška	-11.6465
▁subotica	-11.6465
▁efikasn	-11.6465
▁admiral	-11.6465
▁bježi	-11.6465
▁postojanju	-11.6465
▁abdul	-11.6465
▁orahov	-11.6465
▁porušen	-11.6465
▁1856.	-11.6466
▁potrazi	-11.6466
▁neovisni	-11.6466
▁reducira	-11.6466
▁patricij	-11.6468
povijesni	-11.6474
▁slatk	-11.654
▁taktičk	-11.6562
tuberkuloz	-11.659
estanak	-11.6591
▁autentičn	-11.6591
▁konstrukcija	-11.6591
▁kontroverzn	-11.6591
▁kulminira	-11.6591
▁mozambik	-11.6591
▁nezadovoljn	-11.6591
▁ptolomej	-11.6591
▁namještaj	-11.6591
▁opredjeljen	-11.6591
▁proporcionaln	-11.6591
▁devetnaest	-11.6591
▁najbogatiji	-11.6591
▁spektar	-11.6591
▁inačici	-11.6591
▁financija	-11.6591
▁obilazi	-11.6591
▁objave	-11.6592
▁današnju	-11.6592
▁loptu	-11.6592
▁obraća	-11.6592
▁navijači	-11.6592
▁kavkaz	-11.6592
▁primorje	-11.6592
▁kolekcij	-11.6594
▁njeguj	-11.6597
▁razoren	-11.6598
▁prevođen	-11.6605
današnji	-11.6627
▁albansk	-11.6677
▁dalmat	-11.669
tvrđav	-11.6715
▁beethoven	-11.672
▁djeteta	-11.672
▁heteroseksualn	-11.672
▁povlastice	-11.672
▁razdobljima	-11.672
▁ograniči	-11.672
▁preuređen	-11.672
▁pronalazi	-11.672
▁kilogram	-11.672
▁nepravilno	-11.672
▁ostatkom	-11.672
▁byron	-11.672
▁troškovi	-11.672
▁boravak	-11.672
▁stewart	-11.672
▁nadahnut	-11.672
▁teorijom	-11.672
▁prodavao	-11.672
▁ostatke	-11.672
▁elektrana	-11.672
▁arhitekturu	-11.672
▁činovnik	-11.672
▁uzrokovati	-11.672
▁metodu	-11.672
▁božica	-11.672
▁maltešk	-11.672
▁zaljubljen	-11.672
▁perihel	-11.672
▁pojmovi	-11.672
▁obavezn	-11.6721
▁trofej	-11.6721
▁kartograf	-11.6722
simetričn	-11.6723
▁mržnj	-11.6723
▁citira	-11.6745
▁alpsk	-11.6747
▁leksikograf	-11.6759
vođenju	-11.6765
zagonet	-11.6787
▁sažet	-11.6815
▁obilježi	-11.6846
▁kompromis	-11.6849
▁božanstvo	-11.6849
▁budimpešti	-11.6849
▁dvjema	-11.6849
▁emigrira	-11.6849
▁hemingway	-11.6849
▁izbjegao	-11.6849
▁kompozicija	-11.6849
▁magnitude	-11.6849
▁prekršaj	-11.6849
▁taylor	-11.6849
▁utočište	-11.6849
▁ruševina	-11.6849
▁atribut	-11.6849
▁redoslijed	-11.6849
▁uzajamn	-11.6849
▁poduzima	-11.685
▁vikend	-11.685
▁nesretn	-11.685
▁sastanku	-11.685
▁predjelima	-11.685
▁uklonjen	-11.685
▁potrebi	-11.685
▁spiraln	-11.685
▁komunaln	-11.6851
▁baskijsk	-11.6853
▁sisačk	-11.6858
▁prenošen	-11.6859
▁opasno	-11.6861
▁odlučiva	-11.6866
▁vjerojatn	-11.6867
▁suzbij	-11.6873
▁opasni	-11.6879
kontinent	-11.6888
▁geolog	-11.6924
▁0,1	-11.6963
industri	-11.698
▁azerbajdžan	-11.6981
stolonasljednik	-11.6981
▁dovršio	-11.6981
▁elektricitet	-11.6981
▁gaddafi	-11.6981
▁inklinacij	-11.6981
▁koprivnici	-11.6981
▁ljestvici	-11.6981
▁meksiku	-11.6981
▁prilagođava	-11.6981
▁ugljikovodika	-11.6981
▁ibrahim	-11.6981
▁zbirci	-11.6981
▁osamnaest	-11.6981
▁orgulja	-11.6981
▁jednostavan	-11.6981
▁sprečava	-11.6981
▁zlatnu	-11.6981
▁iznenadn	-11.6981
▁potaknul	-11.6981
▁metodom	-11.6981
▁namjerno	-11.6981
▁izbjeći	-11.6981
▁pripoji	-11.6981
▁reputacij	-11.6982
▁skriven	-11.6982
▁gračac	-11.6982
▁goveda	-11.6984
proroč	-11.6985
▁doživotn	-11.6997
▁benediktinsk	-11.7029
▁izvođenje	-11.7061
▁priprav	-11.7072
▁kninsk	-11.7101
▁ansambl	-11.7114
commonwealth	-11.7114
▁asistent	-11.7114
▁djevojčica	-11.7114
▁eksplozije	-11.7114
▁madonnin	-11.7114
▁pretpostavke	-11.7114
▁slovenija	-11.7114
▁sposoban	-11.7114
▁vjetrova	-11.7114
▁zamjenjuje	-11.7114
▁grenland	-11.7114
▁investicija	-11.7114
pleistocen	-11.7114
▁slovenci	-11.7114
▁kafkin	-11.7114
▁oporavi	-11.7114
▁dmitrij	-11.7114
▁tkiva	-11.7114
▁paradoks	-11.7114
▁grubišno	-11.7114
▁knjižnici	-11.7114
▁galilei	-11.7115
▁ostavštin	-11.7115
▁doduše	-11.7115
▁zasićen	-11.7115
▁bježe	-11.7115
▁umrlo	-11.7115
▁kompletn	-11.7115
▁obradu	-11.7115
▁posmrtni	-11.7118
▁utemeljil	-11.7122
▁seleuk	-11.7123
▁prestank	-11.7129
▁povučen	-11.7131
▁poslužil	-11.7133
="144	-11.7144
službe	-11.7153
hawk	-11.7154
▁magistraln	-11.7155
energetsk	-11.7157
▁partijsk	-11.7164
poluvodič	-11.718
▁metodi	-11.7221
▁helikopter	-11.7249
▁neočekivan	-11.7249
▁onemogući	-11.7249
▁žigmund	-11.7249
prirodoslovn	-11.7249
relativističk	-11.7249
▁demokracija	-11.7249
▁družbe	-11.7249
▁južnjačk	-11.7249
▁kondenzator	-11.7249
▁međudjelovanje	-11.7249
▁oslabljen	-11.7249
▁protagonist	-11.7249
▁romanopisac	-11.7249
▁švicarska	-11.7249
▁božanstva	-11.7249
▁narudžb	-11.7249
▁stjenovit	-11.7249
▁štrajk	-11.7249
▁pregovara	-11.7249
▁1833.	-11.725
▁činjenici	-11.725
▁trojstva	-11.725
▁igralište	-11.725
▁paragvaj	-11.725
▁priredio	-11.725
▁flotu	-11.725
▁skandal	-11.725
▁mikroskop	-11.725
▁upozori	-11.725
▁klement	-11.725
▁najavio	-11.725
▁sprovod	-11.725
▁priobaln	-11.725
▁padinama	-11.725
▁početci	-11.725
▁poznavanje	-11.7251
▁najslavnij	-11.7251
▁simfonijsk	-11.7252
▁ispostav	-11.7255
▁stvaralačk	-11.7257
▁tektonsk	-11.7257
anhalt	-11.7259
▁krajišk	-11.7283
▁tematsk	-11.7294
▁nakladn	-11.7298
historijsk	-11.7361
▁glatk	-11.7377
▁courbet	-11.7386
javljivati	-11.7386
▁administracija	-11.7386
▁cherokee	-11.7386
▁federaciji	-11.7386
▁federativn	-11.7386
▁iskorišten	-11.7386
▁konfederacija	-11.7386
▁mississippi	-11.7386
▁negativan	-11.7386
▁dijalekata	-11.7386
▁šuplji	-11.7386
▁pobjegli	-11.7386
▁sedamnaest	-11.7386
▁kažnjava	-11.7386
▁sponzor	-11.7386
▁piščev	-11.7386
▁tijelima	-11.7386
▁1843.	-11.7386
▁tlocrt	-11.7386
▁blizak	-11.7387
▁naslijeđe	-11.7387
▁rijetka	-11.7387
▁nominaln	-11.7387
▁duhovne	-11.7387
▁izričaj	-11.7387
▁povoljan	-11.7387
▁pomogla	-11.7387
▁atlas	-11.7387
▁boksit	-11.7388
▁odlikovan	-11.7389
▁ciklon	-11.739
▁novinsk	-11.7401
="135	-11.7405
▁primitivn	-11.742
▁zaštitnic	-11.7431
▁sirijsk	-11.7457
▁kroničn	-11.7486
▁produkt	-11.7502
▁mostarsk	-11.7505
▁nedavn	-11.7518
▁konzervat	-11.7524
▁dijagnoza	-11.7525
▁disciplini	-11.7525
▁izložbu	-11.7525
▁kombinacije	-11.7525
▁komunikacijsk	-11.7525
▁čovječanstva	-11.7525
▁izražajn	-11.7525
▁pojavljivanj	-11.7525
▁varijacije	-11.7525
▁bramante	-11.7525
▁pastoraln	-11.7525
▁zabrinut	-11.7525
▁vinkovaca	-11.7525
▁osporava	-11.7525
▁romantizma	-11.7525
▁atenjani	-11.7525
▁intervenira	-11.7526
▁pristaše	-11.7526
▁planinska	-11.7526
▁debitira	-11.7526
datoteka	-11.7526
▁duševn	-11.7527
▁brutaln	-11.7527
▁mihajlo	-11.7531
▁obruč	-11.7531
▁realizacij	-11.7533
▁odobrava	-11.7538
="145	-11.7561
pouzdan	-11.7577
▁leksik	-11.7623
siromaš	-11.7661
▁stockholm	-11.7666
▁country	-11.7666
▁emigrant	-11.7666
▁izvršnu	-11.7666
▁konstituira	-11.7666
▁najjednostavnij	-11.7666
▁svjedočanstv	-11.7666
▁stabilizira	-11.7666
▁system	-11.7666
▁učvršć	-11.7666
▁švedski	-11.7666
▁oxford	-11.7666
▁pučanstvo	-11.7666
▁ruševine	-11.7666
▁gladijator	-11.7666
▁zajedničku	-11.7666
▁zaslužan	-11.7666
▁elektrane	-11.7666
▁verziji	-11.7666
▁tretman	-11.7666
▁tumačenja	-11.7666
▁lokaciji	-11.7666
▁pavlinsk	-11.7666
▁linearn	-11.7666
▁krstionic	-11.7666
▁dugoročn	-11.7666
▁srpanj	-11.7667
vjesnik	-11.7667
▁zagovornik	-11.7667
▁kolumbo	-11.7668
▁nastanjuj	-11.7668
▁gospođ	-11.767
▁plantaž	-11.767
josip	-11.7717
sovjetsk	-11.7717
supstanci	-11.7769
▁socijalist	-11.7778
staničn	-11.779
▁arhipelag	-11.7809
▁neophodn	-11.7809
▁pobjedničk	-11.7809
▁reflektor	-11.7809
▁rekonstruira	-11.7809
▁dickens	-11.7809
▁dostignuća	-11.7809
▁komponenta	-11.7809
▁komunikacija	-11.7809
▁krumpir	-11.7809
▁namjesnik	-11.7809
▁neodređen	-11.7809
▁ofenziva	-11.7809
▁okružuje	-11.7809
▁okružuju	-11.7809
▁poteškoća	-11.7809
▁stjecanja	-11.7809
▁televizije	-11.7809
▁temperaturom	-11.7809
▁upozorava	-11.7809
▁wolfgang	-11.7809
▁zahvaćen	-11.7809
▁predodžb	-11.7809
▁ravnoteža	-11.7809
▁simpson	-11.7809
▁zahvaća	-11.7809
▁snažnu	-11.7809
▁trećoj	-11.7809
▁međuzvjezdan	-11.7809
▁slikovit	-11.7809
▁djecom	-11.7809
▁pizarro	-11.7809
▁oratorij	-11.7809
▁privatizacij	-11.7809
▁zakrivljen	-11.7809
▁ispriča	-11.7809
▁europom	-11.7809
▁očigledn	-11.781
▁rečenica	-11.781
▁anonimn	-11.7811
▁redakcij	-11.7812
▁pustoš	-11.7819
baranjsko	-11.7822
▁staroslavensk	-11.7826
▁kilometar	-11.7852
jugoslavensk	-11.7862
▁polazn	-11.7911
▁glagoljsk	-11.7922
▁bicikl	-11.7922
▁djelomičn	-11.7943
▁dozvoljava	-11.7954
▁matematiku	-11.7954
▁odcjepljenje	-11.7954
▁singapur	-11.7954
▁skandinavsk	-11.7954
▁vegetacija	-11.7954
▁amandman	-11.7954
▁fokusira	-11.7954
▁hlađenje	-11.7954
▁raspolaže	-11.7954
▁razmnožava	-11.7954
▁kulturnu	-11.7954
▁protunapad	-11.7954
▁ravnoteže	-11.7954
▁ignorira	-11.7954
▁plućn	-11.7954
▁naseobin	-11.7954
▁odobrio	-11.7954
▁proslavio	-11.7954
▁varijacija	-11.7954
▁najmoćnij	-11.7954
▁električki	-11.7954
▁zlatna	-11.7954
▁aksiom	-11.7954
▁sukobljava	-11.7956
▁emirat	-11.7962
▁krupn	-11.7984
svjetsk	-11.8006
uglavnom	-11.8009
▁poticanj	-11.8039
evolucija	-11.81
▁integral	-11.8101
▁university	-11.8101
▁atraktivn	-11.8101
▁cambridge	-11.8101
▁dubrovačka	-11.8101
▁evanđelja	-11.8101
▁fjodor	-11.8101
▁kršćanska	-11.8101
▁liturgijsk	-11.8101
▁ljekovit	-11.8101
▁mauzolej	-11.8101
▁najzastupljenij	-11.8101
▁televiziji	-11.8101
▁vjenčao	-11.8101
▁izmišljen	-11.8101
▁konferencije	-11.8101
▁organizacijsk	-11.8101
▁siječanj	-11.8101
▁tehnologiju	-11.8101
▁omotač	-11.8101
▁strastven	-11.8101
▁pojmova	-11.8101
▁prestižn	-11.8101
▁prebačen	-11.8101
▁pomagao	-11.8101
▁učestali	-11.8101
▁schön	-11.8101
▁pravde	-11.8101
▁privukl	-11.8103
skript	-11.8103
▁prodaval	-11.8117
town	-11.8122
▁mornaričk	-11.8214
▁legaln	-11.8218
▁argentinsk	-11.825
casablanc	-11.825
▁akumulator	-11.825
▁hrizip	-11.825
▁infrastrukture	-11.825
▁izvedbu	-11.825
▁kajkavski	-11.825
▁kompozicije	-11.825
▁raskoljnikov	-11.825
▁telekomunikacij	-11.825
▁utakmicu	-11.825
▁velemajstor	-11.825
▁veleposlanik	-11.825
▁čehoslovačke	-11.825
▁čudovište	-11.825
▁školovao	-11.825
▁aplikacija	-11.825
▁investicije	-11.825
▁klarinet	-11.825
▁primjenom	-11.825
▁luksuzn	-11.825
▁okupacija	-11.825
▁reorganizacij	-11.825
▁tehničke	-11.825
▁gramatika	-11.825
▁krbavsk	-11.825
▁joyce	-11.825
▁rafael	-11.825
▁odbacuje	-11.825
▁orgulje	-11.825
▁magdalen	-11.825
▁najsjevernij	-11.825
▁medicinu	-11.825
▁destinacij	-11.825
▁siguran	-11.825
▁christian	-11.825
▁magazin	-11.8251
▁tallinn	-11.8251
▁sinodičk	-11.8251
▁ubrzava	-11.8251
▁egejsk	-11.8251
▁kredit	-11.8251
▁vitamin	-11.8253
vidjevši	-11.8255
ljudsk	-11.8259
▁predratn	-11.826
▁zabranil	-11.8262
▁genetičk	-11.8268
▁baranjsk	-11.8268
<	-13.1599
