<unk>	0
<s>	0
</s>	0
,	-3.2508
▁di	-3.5286
.	-3.60626
▁e	-3.93976
'	-4.03877
▁la	-4.1619
▁il	-4.19862
▁	-4.39418
▁in	-4.45058
▁a	-4.48372
▁del	-4.68707
▁che	-4.74036
▁un	-4.86025
▁l	-4.89625
▁"	-4.93426
▁della	-4.95373
▁per	-4.96538
▁è	-4.99693
▁i	-5.05992
▁nel	-5.09175
▁con	-5.11496
"	-5.15539
▁le	-5.17681
▁si	-5.21407
▁una	-5.2456
▁da	-5.25189
▁(	-5.29902
re	-5.4945
▁al	-5.52621
e	-5.58752
#	-5.58879
o	-5.61064
▁#	-5.61251
▁dell	-5.62162
s	-5.65822
a	-5.68423
▁dei	-5.69825
:	-5.72578
▁più	-5.81439
▁come	-5.83949
to	-5.85063
▁non	-5.85631
▁sono	-5.87598
ta	-5.88743
▁delle	-5.88811
▁alla	-5.90775
no	-5.92989
)	-5.9715
le	-5.98685
-	-6.01534
i	-6.0296
c	-6.03143
▁dal	-6.0435
ti	-6.04998
▁anche	-6.0568
▁o	-6.06209
▁gli	-6.14487
▁tra	-6.16527
▁fu	-6.18873
te	-6.22165
="	-6.22508
;	-6.23074
▁ma	-6.23704
▁nella	-6.24354
▁d	-6.30782
▁all	-6.32648
▁ad	-6.37224
",	-6.37772
▁lo	-6.39946
▁ha	-6.45163
va	-6.46817
▁cui	-6.50725
),	-6.52771
doc	-6.54468
▁dalla	-6.55782
ndo	-6.56446
>	-6.56499
▁era	-6.571
▁parte	-6.59955
▁due	-6.63018
▁anni	-6.6372
▁nell	-6.67473
ro	-6.68411
).	-6.69243
▁sua	-6.69582
degli	-6.71089
▁se	-6.72886
▁ed	-6.74551
l	-6.74998
/	-6.75597
ri	-6.75897
li	-6.76917
▁su	-6.77657
na	-6.78228
▁questo	-6.81433
▁suo	-6.81494
▁prima	-6.81557
la	-6.8243
si	-6.82741
▁stato	-6.83018
▁dopo	-6.83728
▁essere	-6.83866
n	-6.84912
ni	-6.85568
ne	-6.89391
▁dall	-6.90089
▁città	-6.91493
|	-6.93667
it	-6.95561
r	-7.01788
▁loro	-7.02895
▁sul	-7.02948
▁ai	-7.04612
▁formula	-7.04918
▁de	-7.05316
".	-7.06264
▁nei	-7.07977
co	-7.08284
ò	-7.11323
▁alle	-7.11423
lo	-7.1241
di	-7.1426
in	-7.14583
▁secolo	-7.14766
rono	-7.1503
d	-7.17465
ca	-7.17638
▁solo	-7.1798
?	-7.18866
org	-7.19017
vi	-7.19738
▁categorie	-7.20794
▁uno	-7.21078
▁id	-7.21369
▁mentre	-7.22204
zione	-7.22743
▁sia	-7.23539
▁altri	-7.23771
nte	-7.24024
t	-7.2411
wikipedia	-7.24257
wiki	-7.24285
▁url	-7.24942
://	-7.25312
https	-7.25507
▁title	-7.25694
▁<	-7.25712
▁</	-7.25926
urid	-7.26942
se	-7.27622
▁venne	-7.28337
▁ri	-7.29483
▁stati	-7.29718
gli	-7.30893
▁vi	-7.31192
▁sulla	-7.31924
▁questa	-7.3245
ci	-7.33019
che	-7.33044
▁secondo	-7.33393
m	-7.33638
ma	-7.33987
▁s	-7.34426
▁re	-7.35413
▁viene	-7.36163
▁può	-7.36288
▁molto	-7.3704
de	-7.37051
▁primo	-7.37534
▁hanno	-7.39961
▁poi	-7.41604
▁quando	-7.43042
mente	-7.43136
ra	-7.43182
▁durante	-7.43475
▁fino	-7.43747
▁dai	-7.44083
▁quella	-7.44803
▁quale	-7.45015
▁guerra	-7.4555
▁tre	-7.46646
▁sistema	-7.47514
vano	-7.50025
▁erano	-7.50763
▁("	-7.50775
▁alcuni	-7.51076
▁fra	-7.5113
▁furono	-7.51239
sa	-7.51818
▁provincia	-7.51825
▁dove	-7.52944
p	-7.53502
rsi	-7.53929
ve	-7.54414
▁sotto	-7.55204
▁quindi	-7.55414
▁stesso	-7.55808
nti	-7.55905
mo	-7.56937
▁nome	-7.57711
▁negli	-7.58213
▁ne	-7.58416
▁grande	-7.58716
▁dello	-7.59624
▁altre	-7.60968
▁san	-7.61052
me	-7.61114
da	-7.61158
▁fine	-7.61529
▁circa	-7.61567
mi	-7.61774
▁tutti	-7.61939
zioni	-7.61986
▁quello	-7.62242
sta	-7.62488
il	-7.62509
▁esempio	-7.62998
▁tempo	-7.63726
▁aveva	-7.64646
▁seguito	-7.65764
y	-7.65931
so	-7.67205
▁quali	-7.67317
▁ogni	-7.67401
▁così	-7.68094
g	-7.68358
▁suoi	-7.68567
▁stata	-7.68766
▁questi	-7.6931
▁periodo	-7.69774
▁fa	-7.6989
▁inoltre	-7.70174
▁oltre	-7.70983
▁numero	-7.70997
▁territorio	-7.71064
ce	-7.71614
▁c	-7.73124
▁ancora	-7.73303
▁sempre	-7.73546
▁1	-7.7385
▁quanto	-7.7385
▁invece	-7.73969
ga	-7.74199
do	-7.74584
▁ci	-7.76177
▁volta	-7.762
u	-7.76804
sti	-7.78665
▁via	-7.78958
▁modo	-7.79095
▁seconda	-7.79187
▁storia	-7.802
▁tale	-7.80205
▁possono	-7.80462
▁comune	-7.808
▁verso	-7.81031
▁tuttavia	-7.82443
tta	-7.82681
b	-7.82854
▁forma	-7.83045
mento	-7.84277
▁nord	-7.84571
▁centro	-7.84788
▁vita	-7.84848
▁già	-7.85085
▁serie	-7.86972
▁particolare	-7.87169
▁stelle	-7.88045
▁molti	-7.89212
▁«	-7.8932
▁contro	-7.89366
▁causa	-7.8965
")	-7.89828
▁2	-7.89943
sse	-7.90437
▁sud	-7.90962
▁sull	-7.92368
vo	-7.9241
f	-7.92499
▁alcune	-7.92501
2	-7.92694
▁sue	-7.93013
italia	-7.93748
▁infatti	-7.9447
▁pro	-7.9505
v	-7.95115
anno	-7.96656
▁generale	-7.97078
▁fatto	-7.97521
▁3	-7.99049
▁caso	-7.99305
x	-7.99582
▁-	-7.99652
ato	-7.9989
▁senza	-8.00457
▁primi	-8.00757
▁queste	-8.01756
▁base	-8.01761
k	-8.01802
go	-8.01905
▁mondo	-8.02152
▁spesso	-8.03262
▁proprio	-8.0336
▁m	-8.04056
▁film	-8.04142
’	-8.04436
▁regno	-8.05402
ria	-8.05601
▁15	-8.05837
tti	-8.06016
▁agli	-8.06021
ge	-8.06587
▁punto	-8.06793
▁tutto	-8.0716
▁pre	-8.07414
tà	-8.07721
▁trova	-8.0814
▁co	-8.08917
▁nuovo	-8.09047
▁4	-8.09903
h	-8.10308
▁lungo	-8.10557
▁governo	-8.10621
tte	-8.10668
gi	-8.10871
▁16	-8.1092
▁roma	-8.10935
er	-8.11037
▁17	-8.11431
▁massa	-8.12184
tto	-8.12574
▁5	-8.13919
pa	-8.14299
▁gran	-8.14448
▁gruppo	-8.14805
▁rispetto	-8.14834
▁sarebbe	-8.15234
▁diversi	-8.15311
▁nuova	-8.1591
▁tutte	-8.15996
▁termine	-8.1606
▁chiesa	-8.16109
▁mi	-8.16236
pe	-8.16817
▁campo	-8.17188
▁grazie	-8.17878
▁nazionale	-8.17922
tra	-8.18661
▁10	-8.1898
interno	-8.19785
▁grandi	-8.20346
▁germania	-8.20377
▁tipo	-8.20924
▁meno	-8.20959
al	-8.21
▁però	-8.21322
▁comuni	-8.21539
▁li	-8.21631
▁italia	-8.21808
▁giorni	-8.21996
▁popolazione	-8.22225
▁terra	-8.22508
▁allo	-8.22594
per	-8.23829
▁quasi	-8.23959
▁corso	-8.24485
▁attraverso	-8.2489
fi	-8.24899
▁mondiale	-8.25342
▁soprattutto	-8.25613
▁vengono	-8.25687
bile	-8.25687
▁società	-8.25851
rio	-8.25927
▁quelle	-8.26052
bi	-8.26232
▁sede	-8.2631
con	-8.26464
▁presso	-8.26679
tori	-8.27041
▁lingua	-8.27266
▁ben	-8.27335
▁insieme	-8.2748
▁diverse	-8.27644
are	-8.27771
pi	-8.28156
▁ciò	-8.28409
▁stella	-8.28797
zza	-8.28844
▁italiano	-8.29284
▁quattro	-8.29469
▁maggior	-8.3028
▁po	-8.30738
1	-8.30849
▁perché	-8.31275
▁anno	-8.31381
▁possibile	-8.31455
ba	-8.31538
▁12	-8.31683
tore	-8.31782
▁sa	-8.32173
▁oggi	-8.32189
▁partire	-8.32283
▁avrebbe	-8.32476
du	-8.32812
azione	-8.33376
▁morte	-8.33568
▁principale	-8.33691
▁col	-8.3375
▁presenza	-8.34097
▁maggiore	-8.34497
▁italiana	-8.34787
▁14	-8.34927
▁sviluppo	-8.35069
"),	-8.35215
▁francese	-8.35464
»	-8.35519
▁giorno	-8.35577
ck	-8.35621
▁principali	-8.3569
▁volte	-8.35961
▁stessa	-8.36564
▁ii	-8.36748
▁mai	-8.37111
▁ca	-8.37201
ata	-8.37274
▁poco	-8.37588
▁lavoro	-8.37606
▁produzione	-8.37695
▁repubblica	-8.37752
▁0	-8.37803
▁uniti	-8.37861
3	-8.38175
anni	-8.38648
▁politica	-8.38683
th	-8.38991
menti	-8.39773
▁vennero	-8.40011
▁settembre	-8.41143
▁(19	-8.41241
man	-8.41439
ch	-8.41534
▁luglio	-8.41758
▁francia	-8.42162
▁fosse	-8.42386
▁media	-8.42629
▁gennaio	-8.42988
smo	-8.43009
▁opere	-8.43027
▁luce	-8.43103
▁successo	-8.43451
▁corpo	-8.43557
chi	-8.43771
un	-8.44101
▁6	-8.4413
▁paese	-8.44368
nza	-8.44455
▁zona	-8.4505
z	-8.4535
▁importanti	-8.45454
▁dicembre	-8.45628
▁maggio	-8.45732
▁aver	-8.46052
▁livello	-8.46719
▁valore	-8.46753
▁quelli	-8.46939
bili	-8.47092
rà	-8.47125
▁p	-8.47126
us	-8.47416
▁internazionale	-8.47478
▁metà	-8.47668
▁paesi	-8.47823
on	-8.47855
▁dati	-8.48184
en	-8.48346
▁altro	-8.48443
▁importante	-8.48466
▁giugno	-8.48475
▁presenti	-8.4876
▁legge	-8.488
▁regione	-8.48826
▁grado	-8.49018
▁elementi	-8.49052
unione	-8.4925
▁ruolo	-8.49333
▁18	-8.49434
▁13	-8.49544
lu	-8.4963
ndosi	-8.50136
7	-8.50318
▁posto	-8.50375
▁funzione	-8.5042
▁marzo	-8.506
▁val	-8.50745
▁ebbe	-8.50771
ati	-8.51294
rie	-8.51396
oni	-8.5162
▁opera	-8.51679
▁pa	-8.51707
è	-8.51826
▁–	-8.51849
▁struttura	-8.51984
▁bo	-8.52003
▁momento	-8.52113
▁quest	-8.52175
▁b	-8.5223
▁famiglia	-8.52534
▁presente	-8.52613
▁novembre	-8.52621
▁molte	-8.52729
▁specie	-8.52883
bo	-8.53145
um	-8.53185
ad	-8.53366
▁va	-8.53422
▁sui	-8.54627
▁genere	-8.54828
▁casa	-8.54886
▁ba	-8.55531
▁nonostante	-8.55533
lle	-8.55592
lla	-8.55806
▁7	-8.55958
▁linea	-8.5637
▁capo	-8.56403
po	-8.56578
▁g	-8.56583
▁vari	-8.57331
es	-8.57585
fa	-8.57908
6	-8.58178
▁lui	-8.5831
ali	-8.58624
▁divenne	-8.58845
llo	-8.58952
▁allora	-8.59015
▁k	-8.59078
▁state	-8.59191
▁mo	-8.59351
ng	-8.59523
ale	-8.59735
altra	-8.6002
▁fiume	-8.60093
ultimo	-8.6014
▁abitanti	-8.60148
▁presidente	-8.60161
tu	-8.60206
▁far	-8.60249
▁caratteristiche	-8.6029
uso	-8.60659
area	-8.60726
▁attività	-8.60742
▁monte	-8.61538
▁propria	-8.61807
ano	-8.62167
▁bandiera	-8.62175
▁tedesco	-8.62208
▁comunque	-8.62374
▁processo	-8.6245
▁n	-8.62543
▁dato	-8.62642
lli	-8.62644
an	-8.62713
▁sistemi	-8.62918
▁data	-8.62942
▁teoria	-8.63146
▁milioni	-8.63207
one	-8.63395
▁pe	-8.63663
inizio	-8.63698
oro	-8.64022
▁mar	-8.64044
▁numerosi	-8.64376
tura	-8.64462
▁ce	-8.64622
▁posizione	-8.65164
▁porta	-8.65443
4	-8.65504
st	-8.65642
▁successivamente	-8.6569
epoca	-8.65832
5	-8.65882
▁tramite	-8.66137
▁studio	-8.66155
▁origine	-8.66199
▁militare	-8.66205
ssa	-8.66471
era	-8.66485
▁pubblico	-8.66842
▁9	-8.66879
sco	-8.66883
▁20	-8.67309
▁codice	-8.67477
▁studi	-8.67595
▁centrale	-8.67633
▁forze	-8.67716
▁poiché	-8.67731
▁persone	-8.67772
▁fece	-8.67929
▁temperatura	-8.67952
▁proprietà	-8.6831
ste	-8.68428
▁tratta	-8.68471
▁fi	-8.68543
gna	-8.68581
▁febbraio	-8.68603
be	-8.6878
▁sole	-8.69009
▁chi	-8.69096
▁comunità	-8.69451
▁me	-8.6955
▁ottobre	-8.69556
▁diritto	-8.69886
▁storico	-8.70046
▁ricerca	-8.70262
opera	-8.70275
▁pi	-8.70322
tica	-8.70727
j	-8.70746
8	-8.70985
fo	-8.71114
▁avevano	-8.7122
fe	-8.71374
w	-8.71694
").	-8.72083
▁progetto	-8.72459
ss	-8.72531
stra	-8.73133
▁sta	-8.73242
▁avere	-8.73427
sto	-8.73462
▁so	-8.73503
▁luogo	-8.73639
▁ro	-8.74248
▁misura	-8.74342
impero	-8.74403
▁forza	-8.74592
▁vista	-8.74667
▁prime	-8.74959
▁tutta	-8.75185
▁fisica	-8.75226
cu	-8.75287
▁quel	-8.75403
».	-8.75428
▁versione	-8.75871
▁of	-8.76097
▁spazio	-8.76213
▁v	-8.76238
▁to	-8.76269
or	-8.76353
▁giochi	-8.76424
▁nota	-8.76478
▁velocità	-8.76515
▁mare	-8.76532
▁strada	-8.76816
▁presenta	-8.76839
▁programma	-8.76948
▁infine	-8.77036
▁car	-8.77188
▁fronte	-8.77212
acqua	-8.7755
▁distribuzione	-8.77559
▁piano	-8.7778
isola	-8.77799
▁km	-8.77902
ur	-8.78002
tico	-8.78112
▁partito	-8.78262
ssi	-8.7829
▁oggetti	-8.78587
zio	-8.78873
ry	-8.78961
▁est	-8.79053
▁pari	-8.79307
▁rete	-8.79338
▁varie	-8.79353
ate	-8.79492
▁agosto	-8.796
▁titolo	-8.79704
ere	-8.79755
▁cinque	-8.79765
▁cioè	-8.79827
▁formazione	-8.80052
▁cultura	-8.80107
▁essa	-8.80311
▁ovvero	-8.80413
▁bi	-8.80479
▁gruppi	-8.8061
▁aprile	-8.80754
▁deve	-8.80786
▁pur	-8.8105
▁parigi	-8.81051
▁controllo	-8.81448
▁forte	-8.81457
▁papa	-8.81483
▁cosiddett	-8.81611
gno	-8.81728
▁potere	-8.8173
▁tedeschi	-8.82174
ana	-8.82192
▁t	-8.8245
▁europea	-8.82574
su	-8.8279
▁tali	-8.82867
is	-8.83065
▁superficie	-8.83189
ver	-8.83797
▁te	-8.83968
nta	-8.8419
gu	-8.84792
▁numerose	-8.84955
▁the	-8.85134
ru	-8.85453
▁realtà	-8.85495
▁x	-8.85542
▁romano	-8.85584
tion	-8.85639
rlo	-8.85671
ia	-8.85705
▁parti	-8.85851
io	-8.86017
▁totale	-8.86256
▁battaglia	-8.86285
▁ve	-8.86292
nia	-8.86346
▁fase	-8.86384
ultima	-8.86401
▁italiani	-8.86649
▁nazionali	-8.86945
▁r	-8.86946
▁quantità	-8.87128
▁pochi	-8.8725
▁musica	-8.87309
▁be	-8.87353
);	-8.87436
▁casi	-8.87611
ter	-8.87742
▁inter	-8.88116
ing	-8.8815
ggio	-8.88402
=""	-8.88418
▁cor	-8.88572
▁costruzione	-8.88577
▁distanza	-8.88677
bu	-8.88762
tri	-8.89116
▁egli	-8.89775
pro	-8.89842
▁standard	-8.90202
sca	-8.90235
▁ar	-8.90413
(	-8.90571
▁maria	-8.90623
▁membri	-8.90656
cca	-8.90729
▁11	-8.90775
▁natura	-8.9105
▁prodotto	-8.91061
ono	-8.91076
altro	-8.91222
ar	-8.91362
▁noto	-8.91461
▁valle	-8.9156
▁sopra	-8.91613
▁dimensioni	-8.91765
▁carlo	-8.91782
▁sebbene	-8.91911
▁classe	-8.91921
università	-8.92144
ì	-8.92202
nd	-8.92247
▁nuove	-8.92266
▁costellazione	-8.92356
▁deriva	-8.92371
▁superiore	-8.9247
▁romana	-8.92614
▁ru	-8.92811
ll	-8.92957
▁ultimi	-8.9298
&	-8.93068
▁qui	-8.93107
▁piazza	-8.93213
▁mesi	-8.93234
▁and	-8.93821
▁truppe	-8.94217
▁milano	-8.94339
▁mezzo	-8.94453
▁8	-8.94667
▁ovest	-8.94728
▁tri	-8.9477
▁squadra	-8.95055
▁essi	-8.95116
▁na	-8.95178
ture	-8.95373
sso	-8.95547
▁esso	-8.95708
lt	-8.95781
▁riferimento	-8.95999
▁gioco	-8.96353
▁xx	-8.96396
▁anti	-8.9656
▁prodotti	-8.96566
sh	-8.96661
▁giovanni	-8.96686
rne	-8.97316
▁figlio	-8.97416
ani	-8.97424
▁santa	-8.97458
▁usato	-8.97461
▁rappresenta	-8.97906
▁alta	-8.97925
▁fin	-8.98017
-19	-8.98148
est	-8.98328
▁inglese	-8.98736
▁settore	-8.98997
europa	-8.99032
▁qualche	-8.99213
▁utilizzato	-8.99227
▁metri	-8.99448
▁h	-8.99493
▁radio	-8.99551
▁diritti	-8.99651
ha	-8.99714
▁gas	-8.99745
▁software	-8.99804
▁essendo	-8.9986
tivo	-9.00011
▁nuovi	-9.0008
imperatore	-9.00175
▁tanto	-9.0037
▁unità	-9.00562
▁senso	-9.00843
▁do	-9.00928
▁principalmente	-9.01012
son	-9.01132
▁detto	-9.01183
nze	-9.01269
▁napoli	-9.01417
ut	-9.01528
▁modello	-9.01639
▁porto	-9.01735
▁territori	-9.02065
eri	-9.02068
▁zone	-9.02127
esercito	-9.02183
gio	-9.02186
▁tedesca	-9.02246
▁punti	-9.02494
ka	-9.02513
▁condizioni	-9.02528
▁occidentale	-9.02635
▁energia	-9.0272
▁pubblica	-9.02913
▁forme	-9.03272
▁capitale	-9.03303
the	-9.03427
tici	-9.03467
▁seguenti	-9.03568
é	-9.03627
9	-9.0364
▁iii	-9.03703
età	-9.0375
▁30	-9.03875
▁consiglio	-9.03947
▁=	-9.03958
▁chiamato	-9.04029
ster	-9.0416
ordine	-9.04232
zzazione	-9.04233
▁dunque	-9.04343
▁maggiori	-9.04372
▁mu	-9.04468
▁sport	-9.04489
▁go	-9.04623
▁sei	-9.04687
▁moderna	-9.04866
energia	-9.05065
▁campi	-9.05093
▁com	-9.05128
▁ufficiale	-9.05226
▁differenza	-9.0538
▁scuola	-9.0544
▁computer	-9.05478
ico	-9.05517
den	-9.05757
▁nucleo	-9.05781
▁latino	-9.05819
▁considerato	-9.06071
▁riguarda	-9.06226
▁basa	-9.06417
▁risulta	-9.06499
▁padre	-9.06546
▁premio	-9.06606
▁ra	-9.06714
▁comunale	-9.06897
▁variabili	-9.07001
▁fuori	-9.07078
▁locale	-9.07137
▁finale	-9.07273
via	-9.07344
▁meridionale	-9.07436
▁f	-9.07441
▁simile	-9.07448
▁probabilmente	-9.07487
▁situazione	-9.07605
▁subito	-9.07613
▁u	-9.07681
▁pianeta	-9.07886
et	-9.0791
▁scopo	-9.07979
que	-9.08024
ff	-9.08068
aria	-9.08099
▁intorno	-9.08242
▁europa	-9.08265
▁uso	-9.08529
▁linee	-9.08562
▁divisione	-9.08563
ner	-9.08586
gia	-9.08621
▁sicilia	-9.08657
▁movimento	-9.08797
der	-9.09087
▁sovietica	-9.09157
▁inizialmente	-9.09162
▁fare	-9.0917
anti	-9.09179
▁24	-9.09183
▁francesco	-9.09327
▁libera	-9.09351
ment	-9.09421
za	-9.09468
arte	-9.09573
▁nascita	-9.09639
▁25	-9.09685
el	-9.09695
▁valori	-9.09799
▁colore	-9.09997
ton	-9.10005
▁possibilità	-9.10017
amp	-9.10258
▁effetti	-9.10385
▁carica	-9.10486
▁piuttosto	-9.10488
nu	-9.1086
▁lago	-9.10974
▁&	-9.11111
zi	-9.11182
▁palazzo	-9.11283
▁orientale	-9.11328
▁servizio	-9.1151
▁fo	-9.11594
▁trovano	-9.11624
▁calcio	-9.11647
pre	-9.11803
▁nazioni	-9.11912
▁uomini	-9.12017
▁dallo	-9.12127
▁or	-9.12196
▁eventi	-9.12293
▁ta	-9.12305
▁aree	-9.12382
▁teatro	-9.12431
▁numeri	-9.12437
▁stile	-9.12473
spe	-9.12483
▁attorno	-9.12582
▁oppure	-9.12876
▁generalmente	-9.12965
▁bianco	-9.13174
▁ora	-9.13306
gt	-9.13534
▁termini	-9.13711
▁locali	-9.13825
nde	-9.13846
▁precedente	-9.14035
▁clima	-9.142
▁tempi	-9.14224
▁regioni	-9.14249
▁lingue	-9.14327
▁corte	-9.14402
▁for	-9.1466
as	-9.14696
▁bu	-9.14765
▁ormai	-9.14787
gni	-9.14982
▁ga	-9.15055
▁mano	-9.15188
▁ottenere	-9.1523
▁tradizione	-9.15231
uomo	-9.15487
cco	-9.15521
sci	-9.15525
▁pace	-9.1562
▁definizione	-9.15664
▁ni	-9.15739
▁rosso	-9.15784
▁almeno	-9.15915
ke	-9.1603
▁successivo	-9.16142
ora	-9.16239
▁avuto	-9.16261
ed	-9.16318
▁rock	-9.16358
tiva	-9.16396
▁terzo	-9.1652
▁iniziò	-9.16553
nt	-9.16703
▁militari	-9.16707
▁naturale	-9.1671
▁simbolo	-9.16996
glia	-9.17028
▁mercato	-9.17038
▁no	-9.17085
▁giro	-9.17105
ns	-9.17275
▁capoluogo	-9.17428
land	-9.17472
▁ho	-9.17613
ente	-9.17615
▁confine	-9.17822
tiche	-9.1794
▁cielo	-9.17952
▁monete	-9.17953
▁trattato	-9.17991
▁passato	-9.18011
▁nonché	-9.18099
▁alto	-9.18135
▁(18	-9.18392
▁pratica	-9.18654
tro	-9.18669
▁breve	-9.18912
▁hitler	-9.19007
]]	-9.19412
come	-9.19522
stica	-9.19599
▁completamente	-9.197
▁costa	-9.19786
sce	-9.1994
▁relazione	-9.20075
▁stagione	-9.20212
▁chiamata	-9.20238
▁madre	-9.20483
▁permette	-9.20535
ero	-9.20648
▁probabilità	-9.20885
▁problemi	-9.21018
▁rapporto	-9.21021
▁guida	-9.21051
▁sociale	-9.21058
onda	-9.21077
▁piccola	-9.21112
▁xix	-9.21167
▁vittoria	-9.2129
zzo	-9.21435
▁moto	-9.21564
attività	-9.21653
dio	-9.21726
▁risultato	-9.21892
▁continua	-9.21893
▁figura	-9.21966
▁w	-9.22008
▁elemento	-9.22059
▁siano	-9.22137
▁castello	-9.2234
▁francesi	-9.22506
▁composti	-9.22518
▁dovuto	-9.22657
▁oggetto	-9.22972
▁settentrionale	-9.23114
▁direttamente	-9.23283
▁churchill	-9.23368
▁simboli	-9.23488
nda	-9.23519
▁esse	-9.23613
▁vicino	-9.23787
▁secoli	-9.23966
ica	-9.23988
▁centri	-9.24144
_1	-9.242
▁esiste	-9.24252
glio	-9.24457
▁materia	-9.24457
▁rossa	-9.24633
▁problema	-9.24638
attuale	-9.2477
dia	-9.24793
▁qualità	-9.24894
▁piccolo	-9.24978
▁strumenti	-9.25165
▁entrambi	-9.25212
▁“	-9.25247
▁funzioni	-9.25307
10	-9.25347
▁22	-9.25388
▁lavori	-9.25499
▁lettera	-9.25508
nce	-9.25558
▁popolo	-9.25574
▁ore	-9.25644
▁ebrei	-9.25648
▁direzione	-9.25679
ty	-9.25817
▁ka	-9.25827
ide	-9.25858
▁particelle	-9.25875
▁riuscì	-9.25886
ex	-9.26019
▁particolarmente	-9.26024
▁23	-9.26106
▁civili	-9.26159
▁località	-9.26193
▁strade	-9.26547
▁materiale	-9.26698
qui	-9.26846
ante	-9.27053
▁villa	-9.271
▁berlino	-9.27164
▁stampa	-9.27457
stre	-9.2748
▁comp	-9.27487
nto	-9.27643
▁tipi	-9.27679
▁sub	-9.27693
unica	-9.27736
ina	-9.27762
▁giovane	-9.27774
▁detta	-9.27778
zze	-9.27898
▁21	-9.27905
▁ferro	-9.28011
▁internazionali	-9.28044
▁piccoli	-9.28052
0	-9.28161
▁seguente	-9.28214
ho	-9.28246
▁reale	-9.28384
▁esistono	-9.28465
▁poter	-9.28544
ndi	-9.28554
▁significa	-9.28584
ssero	-9.28629
▁sant	-9.28661
▁conseguenza	-9.28759
alto	-9.28814
▁costituzione	-9.28815
tt	-9.28887
▁carattere	-9.28903
▁isole	-9.28934
▁sal	-9.29078
▁fenomeno	-9.29197
▁successivi	-9.29228
ber	-9.29281
▁politico	-9.29506
▁province	-9.29577
▁semplice	-9.29727
fer	-9.29792
▁super	-9.29868
ggia	-9.3005
▁qualsiasi	-9.30083
▁notevole	-9.30086
▁stemma	-9.30087
▁romani	-9.30453
▁massimo	-9.30528
▁passa	-9.30624
▁libero	-9.30682
▁libro	-9.30723
ppo	-9.30755
▁portò	-9.30842
ul	-9.30881
nne	-9.309
▁metodo	-9.30951
▁popolare	-9.31095
sia	-9.31124
▁composto	-9.31428
▁premi	-9.3159
mar	-9.31668
▁j	-9.31698
ven	-9.31715
▁unito	-9.31837
▁formato	-9.31882
▁colori	-9.31934
america	-9.32028
am	-9.32058
▁scoperta	-9.3218
▁lunga	-9.32263
▁vero	-9.32294
▁bar	-9.32389
▁antica	-9.32415
▁new	-9.32479
▁capacità	-9.32487
▁calendario	-9.32788
▁autori	-9.3288
▁posta	-9.33088
▁cittadini	-9.33092
▁[[	-9.33095
▁lega	-9.33097
▁ecc	-9.33112
20	-9.33241
▁poli	-9.33325
▁comprende	-9.33328
▁stazione	-9.33392
▁concetto	-9.334
unità	-9.33415
▁variabile	-9.33425
mb	-9.33489
art	-9.33493
▁complesso	-9.33552
▁mostra	-9.3371
nato	-9.33809
▁minore	-9.33828
▁campionato	-9.33859
▁strutture	-9.33859
autore	-9.33954
▁31	-9.34099
▁fe	-9.34115
▁informazioni	-9.34338
▁bassa	-9.34385
una	-9.34397
▁chimica	-9.34455
▁sardegna	-9.34477
▁basso	-9.3463
▁scala	-9.34762
▁origini	-9.34787
austria	-9.34948
▁greco	-9.34978
▁pubblicato	-9.3518
rre	-9.35298
▁tecniche	-9.35309
▁raggi	-9.3538
ghe	-9.35409
▁statunitense	-9.35451
▁lunghezza	-9.35574
▁propri	-9.35574
▁cu	-9.35584
▁costante	-9.35593
mp	-9.3563
non	-9.35707
idea	-9.35727
gra	-9.35761
ph	-9.35779
▁giuseppe	-9.35914
▁sé	-9.35977
▁economica	-9.35979
sche	-9.36038
▁ordine	-9.36116
▁tal	-9.36166
▁testo	-9.36212
▁industriale	-9.36274
stico	-9.36304
tò	-9.36362
▁mon	-9.36558
▁piccole	-9.36562
▁certo	-9.36671
▁resto	-9.3681
▁prese	-9.36874
▁testa	-9.36889
▁conquista	-9.36922
▁crisi	-9.36935
ccio	-9.37034
▁naturali	-9.37113
=	-9.37147
tive	-9.37188
▁sarà	-9.37211
asse	-9.37243
▁leggi	-9.37246
zo	-9.37263
▁lu	-9.373
▁venti	-9.37318
▁rimase	-9.3734
▁decise	-9.37342
▁linguaggio	-9.37359
▁veniva	-9.37519
”	-9.37613
▁auto	-9.37767
▁visibile	-9.37785
▁28	-9.37876
▁nobel	-9.3795
▁servizi	-9.38062
▁usa	-9.38072
ine	-9.38118
fu	-9.38158
au	-9.38166
▁visto	-9.38246
▁venezia	-9.38278
nico	-9.38302
▁parla	-9.38354
▁file	-9.38463
▁otto	-9.38521
▁ex	-9.38644
▁né	-9.38664
▁ospita	-9.38702
nio	-9.38728
▁parole	-9.38913
▁fondamentale	-9.38935
economia	-9.38969
ire	-9.38975
▁torre	-9.39015
▁radiazione	-9.39079
▁nomi	-9.39089
▁27	-9.39222
poli	-9.39239
▁chiese	-9.3925
▁principio	-9.39336
▁vittorio	-9.394
▁costituito	-9.39448
▁risultati	-9.39452
▁disco	-9.3948
ismo	-9.3953
▁religione	-9.39562
▁solare	-9.39583
▁an	-9.39638
▁ponte	-9.39643
▁maniera	-9.39737
▁raggiungere	-9.39788
▁assieme	-9.39888
hi	-9.39891
▁2000	-9.39912
▁necessario	-9.40009
▁sembra	-9.40156
▁magnitudine	-9.40241
▁19	-9.40345
▁rende	-9.40357
▁religiose	-9.4038
%	-9.40541
▁he	-9.406
▁creazione	-9.4061
sio	-9.4062
▁du	-9.40686
▁animali	-9.40779
▁indica	-9.40797
'8	-9.40893
▁fre	-9.40912
▁svizzera	-9.40917
▁100	-9.4094
▁diretto	-9.40954
organizzazione	-9.41003
]	-9.41023
▁rivoluzione	-9.41023
_	-9.41038
▁pertanto	-9.41042
▁personaggi	-9.41214
▁nato	-9.41458
▁sca	-9.41627
▁sinistra	-9.41708
▁unico	-9.41722
▁26	-9.41722
▁medio	-9.41852
▁mese	-9.41907
▁decreto	-9.4192
lia	-9.4202
▁libertà	-9.42037
▁blu	-9.42115
▁sco	-9.42143
à	-9.42274
▁diventa	-9.4237
▁rapporti	-9.42372
▁ossia	-9.42394
▁sin	-9.42493
ita	-9.42505
▁portato	-9.42561
▁euro	-9.42607
industria	-9.42814
▁sette	-9.42837
▁regionale	-9.42877
▁civile	-9.42877
▁noti	-9.42884
▁comando	-9.42885
qua	-9.42993
▁inferiore	-9.43045
zzi	-9.4316
gui	-9.43165
▁acqua	-9.43175
▁massima	-9.4337
▁terza	-9.43389
▁ciclo	-9.43435
▁scritto	-9.43475
▁provinciale	-9.43723
▁difesa	-9.43782
unico	-9.43816
▁politiche	-9.43904
stiche	-9.43921
▁dominio	-9.43948
▁john	-9.43961
ambito	-9.44024
▁diffusione	-9.44069
▁contiene	-9.4407
▁memoria	-9.44126
▁nero	-9.44471
ori	-9.44832
ura	-9.44852
▁ministro	-9.44919
▁proprie	-9.44951
rd	-9.45138
▁2006	-9.45281
▁culturale	-9.45398
▁alleati	-9.45489
▁attualmente	-9.45611
▁fossero	-9.45625
rna	-9.45649
50	-9.4568
▁letteratura	-9.45703
▁poteva	-9.46039
▁sci	-9.46056
gre	-9.46096
▁sicurezza	-9.4613
cchi	-9.46165
at	-9.46208
▁antonio	-9.46277
▁von	-9.46286
▁stessi	-9.46318
▁lotta	-9.46356
zia	-9.46714
ppena	-9.46753
▁inizia	-9.46811
▁precedenti	-9.47188
ario	-9.4729
olo	-9.47358
▁app	-9.47385
▁geografia	-9.47436
ranno	-9.47496
▁nu	-9.47517
▁regole	-9.47533
▁differenti	-9.47709
▁moglie	-9.47709
▁tu	-9.47723
▁ufficiali	-9.47729
▁luminosità	-9.4789
▁potrebbe	-9.47938
trice	-9.47945
ici	-9.48218
▁simili	-9.48245
▁carriera	-9.4825
he	-9.48281
gh	-9.48285
▁cro	-9.48342
▁interno	-9.48568
colo	-9.48618
";	-9.48631
▁campagna	-9.49043
▁marina	-9.49098
▁facendo	-9.49142
uri	-9.49216
▁figli	-9.49305
rla	-9.49345
▁utilizzata	-9.49381
wa	-9.49423
▁mediante	-9.49524
▁importanza	-9.49615
▁scelta	-9.49673
▁rispettivamente	-9.49736
▁web	-9.49753
▁iv	-9.49767
▁man	-9.50068
▁classifica	-9.50125
spa	-9.50136
°	-9.50151
▁basi	-9.50192
▁personaggio	-9.5027
▁forse	-9.50322
im	-9.50331
▁+	-9.50403
nali	-9.50413
▁sp	-9.50638
▁critica	-9.50657
zzato	-9.50743
▁pietro	-9.50765
▁fanno	-9.50791
▁ti	-9.50809
▁windows	-9.50855
iano	-9.50888
ā	-9.50918
▁band	-9.50958
▁pu	-9.50997
nica	-9.51082
ggi	-9.51099
▁prova	-9.51237
cia	-9.51292
▁destra	-9.51359
ue	-9.51504
_4	-9.51575
▁trasporto	-9.51677
xi	-9.51814
▁parola	-9.51865
▁descrizione	-9.51871
▁componenti	-9.51873
▁stabile	-9.52055
▁occupa	-9.522
stri	-9.52251
00	-9.52318
▁ver	-9.52329
▁dieci	-9.5233
▁museo	-9.52353
ghi	-9.52378
ki	-9.52779
.000	-9.52925
▁favore	-9.52964
ino	-9.53
▁prende	-9.53119
▁acque	-9.53141
▁terrestre	-9.53167
▁gra	-9.53186
▁matematica	-9.53219
comp	-9.53273
▁antico	-9.53364
▁29	-9.53498
▁parlamento	-9.5358
▁maggioranza	-9.53729
▁pan	-9.53764
▁moneta	-9.53784
▁cristianesimo	-9.53909
▁regime	-9.53922
▁pianeti	-9.53986
▁ritorno	-9.54004
ite	-9.5414
ja	-9.54365
▁meccanica	-9.54435
▁scrisse	-9.54479
▁cal	-9.54612
▁supporto	-9.54665
▁bal	-9.54735
ari	-9.54753
gne	-9.54786
stici	-9.54823
▁2009	-9.54871
▁fusione	-9.55015
▁antichi	-9.55035
car	-9.55228
▁età	-9.5532
▁croce	-9.55379
▁europeo	-9.55504
▁conflitto	-9.55617
▁soltanto	-9.55617
▁resistenza	-9.55631
rebbe	-9.5569
▁passaggio	-9.55886
vol	-9.55896
▁semi	-9.5608
▁ufficialmente	-9.56195
▁operazioni	-9.56334
▁confronti	-9.56386
▁2007	-9.56409
▁cosa	-9.56468
▁metalli	-9.56477
▁creare	-9.5655
▁economico	-9.5658
▁bene	-9.56583
▁riforma	-9.56619
▁luoghi	-9.56772
▁atomi	-9.57012
▁cinema	-9.5716
▁metodi	-9.57162
▁2010	-9.5722
▁diede	-9.5725
▁frazione	-9.57341
▁solitamente	-9.5745
intera	-9.57456
rra	-9.57493
▁post	-9.57651
▁conte	-9.57741
▁immagini	-9.57745
▁collega	-9.57805
▁case	-9.57813
40	-9.57829
ö	-9.5784
▁provenienti	-9.57851
30	-9.57852
tz	-9.57904
ito	-9.57954
▁risale	-9.58012
▁soli	-9.58042
ssimo	-9.58101
▁commerciale	-9.58142
▁programmi	-9.58179
dal	-9.58202
q	-9.58263
▁mura	-9.58277
▁commerciali	-9.58289
▁storici	-9.58337
▁personale	-9.5845
▁venivano	-9.58463
▁jo	-9.58489
tre	-9.58509
▁trasporti	-9.5853
▁estende	-9.58533
▁giovani	-9.58584
▁xvi	-9.5875
▁applicazioni	-9.58761
▁evitare	-9.58823
▁avviene	-9.58926
▁lettere	-9.58937
▁fonda	-9.59043
rato	-9.59134
▁fonti	-9.59236
▁persona	-9.59267
enti	-9.59285
val	-9.59287
▁occasione	-9.59302
▁luigi	-9.59521
▁sociali	-9.59629
ir	-9.5963
▁soldati	-9.59721
▁musicale	-9.59846
▁internet	-9.60078
▁utilizza	-9.60096
▁imp	-9.60151
▁interesse	-9.60159
▁interna	-9.60211
▁°	-9.60286
▁temperature	-9.60321
mer	-9.60362
):	-9.60412
▁club	-9.60522
▁federico	-9.60524
▁tentativo	-9.60527
▁elettroni	-9.6055
bra	-9.60583
▁50	-9.60632
uta	-9.60665
▁statistica	-9.60739
▁bianca	-9.60901
▁comunicazione	-9.60949
▁pressi	-9.60957
▁esempi	-9.60958
▁influenza	-9.61062
▁londra	-9.61125
▁chiave	-9.61126
▁densità	-9.61127
▁pressione	-9.61154
▁avesse	-9.61181
▁nacque	-9.61206
▁statunitensi	-9.61207
▁piante	-9.61612
▁commercio	-9.61635
▁considerata	-9.61714
ttu	-9.61785
▁gu	-9.61786
ly	-9.61879
▁testi	-9.61906
antica	-9.61926
80	-9.61938
▁giapponese	-9.62004
▁scena	-9.62021
▁sola	-9.62035
▁confini	-9.62144
▁afferma	-9.6216
▁durata	-9.62183
▁xviii	-9.62361
pri	-9.62364
▁fondata	-9.62427
▁tecnica	-9.62444
▁parco	-9.62446
▁strumento	-9.62551
▁stra	-9.62553
▁romanzo	-9.62678
▁trans	-9.62691
▁nomina	-9.62723
gen	-9.62839
▁statale	-9.62848
cal	-9.62869
ze	-9.63145
▁significato	-9.63158
▁difficoltà	-9.63168
esistenza	-9.63365
▁dialetto	-9.63382
ac	-9.63438
▁ricorda	-9.63453
iti	-9.63606
▁creato	-9.63696
▁processi	-9.63772
▁scuole	-9.63789
▁turismo	-9.63795
com	-9.63814
▁acc	-9.6397
mon	-9.6401
▁entro	-9.64128
▁mal	-9.64245
▁protagonista	-9.64254
▁crescita	-9.64414
▁disciplina	-9.64414
▁imperiale	-9.64418
▁materiali	-9.64419
mma	-9.64439
▁verifica	-9.64441
▁conosciuto	-9.64623
relativamente	-9.6465
mina	-9.64709
▁caratteristica	-9.64843
ovest	-9.64851
stru	-9.64935
ser	-9.64981
▁isotopi	-9.65043
▁utilizzati	-9.65079
schi	-9.65127
argento	-9.65134
▁abbia	-9.65283
▁somma	-9.65294
ko	-9.65315
▁originale	-9.65356
▁morì	-9.65481
25	-9.65536
▁presto	-9.65548
▁tour	-9.65559
▁popolazioni	-9.65696
▁modelli	-9.65711
▁reazione	-9.65732
▁fondazione	-9.65876
▁tardi	-9.6594
▁dovette	-9.65953
▁corona	-9.66002
▁modifica	-9.6607
rò	-9.66101
▁giappone	-9.66133
immagine	-9.66134
▁percorso	-9.66203
▁inizio	-9.66212
▁tratto	-9.66221
ssima	-9.66254
▁anch	-9.66267
▁facilmente	-9.66313
▁troppo	-9.66321
▁definito	-9.66328
iana	-9.66342
▁gi	-9.66352
origine	-9.66357
'11	-9.66416
▁para	-9.66456
▁mono	-9.66544
▁fondo	-9.66557
pu	-9.66705
▁donne	-9.66738
▁britannico	-9.6674
▁nuovamente	-9.66794
▁costituita	-9.66798
-20	-9.66822
▁classi	-9.66919
mini	-9.67029
▁scienze	-9.67079
▁varia	-9.67091
▁ja	-9.67107
armata	-9.67373
▁conoscenza	-9.67395
▁artisti	-9.67464
▁notte	-9.67485
▁sali	-9.67568
tamente	-9.67653
▁2001	-9.67695
▁macchina	-9.67704
11	-9.67715
ista	-9.6774
scri	-9.67766
▁gestione	-9.67814
▁limite	-9.67818
▁spagna	-9.67831
tone	-9.67894
up	-9.67919
▁caccia	-9.67968
▁caduta	-9.68033
▁italiane	-9.68039
▁spin	-9.68085
▁contrario	-9.6813
▁regola	-9.68268
for	-9.68288
▁camera	-9.68305
alta	-9.68367
wi	-9.68381
▁canale	-9.68396
▁verde	-9.68403
▁gradi	-9.68418
19	-9.68471
insieme	-9.68481
▁2011	-9.68485
▁torino	-9.68501
▁definitivamente	-9.68501
▁resta	-9.68643
▁sor	-9.68658
nese	-9.68663
▁tradizionale	-9.68684
▁operativo	-9.68724
tur	-9.68772
▁par	-9.68797
▁classificazione	-9.68858
▁corrisponde	-9.68976
▁contenuto	-9.69001
ese	-9.69067
▁scienza	-9.69084
▁fenomeni	-9.69121
▁arti	-9.69274
▁pisa	-9.69317
▁sequenza	-9.6956
▁vicina	-9.69569
▁vale	-9.69596
▁feste	-9.69603
▁fortemente	-9.69703
▁dialetti	-9.69792
▁prevede	-9.69801
vole	-9.69805
▁possiede	-9.70001
▁2012	-9.70019
▁varietà	-9.70115
bri	-9.70124
▁foto	-9.7015
san	-9.70195
▁relazioni	-9.70223
▁conta	-9.7039
▁buona	-9.70443
▁futuro	-9.70446
universo	-9.70454
feri	-9.70492
▁licenza	-9.70666
▁galassia	-9.70889
▁caratteri	-9.70918
▁van	-9.71011
utilizzo	-9.71037
▁sino	-9.71122
▁franco	-9.71195
▁atti	-9.71246
▁entra	-9.71261
▁femminile	-9.71336
▁organismi	-9.71339
▁2014	-9.7135
▁motivo	-9.71391
oli	-9.71416
▁particolari	-9.71662
iamo	-9.71679
sp	-9.71704
▁peso	-9.71709
elemento	-9.71718
▁entrambe	-9.71785
▁classica	-9.71792
amo	-9.71882
▁ottenne	-9.71885
▁meglio	-9.72039
▁2004	-9.72053
▁pio	-9.721
▁perciò	-9.72201
▁svolge	-9.72278
▁realizzazione	-9.72285
▁chiama	-9.72325
enza	-9.72388
▁mancano	-9.72445
35	-9.72453
▁poche	-9.72508
▁compagnia	-9.7255
▁economia	-9.72608
grafia	-9.72626
▁york	-9.7269
▁talvolta	-9.72691
▁quartiere	-9.72757
▁forti	-9.72863
▁difficile	-9.72916
fica	-9.73058
fra	-9.73165
cci	-9.7317
▁trovare	-9.7321
▁minori	-9.73238
▁punta	-9.73329
▁olimpici	-9.73372
▁fisico	-9.73372
▁composta	-9.73375
uti	-9.73458
▁usata	-9.73548
▁|	-9.73559
▁masse	-9.73566
▁z	-9.73601
86	-9.73639
▁principi	-9.73643
▁vol	-9.7366
70	-9.73679
▁mer	-9.73733
▁mediterraneo	-9.73831
▁fini	-9.73832
▁attacchi	-9.74061
▁bologna	-9.7416
▁visita	-9.74275
ottocento	-9.74291
mbi	-9.7433
▁vera	-9.74436
shi	-9.74534
▁devono	-9.74568
▁tor	-9.74618
▁comitato	-9.74627
▁gara	-9.74668
▁epoca	-9.74732
intero	-9.74793
▁rimane	-9.74948
▁passo	-9.74958
▁tele	-9.74963
▁situato	-9.74986
▁gregoriano	-9.74986
▁quell	-9.75038
▁cambio	-9.75058
bilità	-9.75111
+	-9.75193
▁attiva	-9.75194
▁carbonio	-9.75316
▁paul	-9.7534
▁minuti	-9.75455
▁crea	-9.75594
▁france	-9.75617
▁presentano	-9.75695
▁vo	-9.75719
▁corrente	-9.75752
lmente	-9.75823
chia	-9.75824
▁figlia	-9.75852
▁dura	-9.75893
▁toscana	-9.75918
▁periodi	-9.75928
▁alcun	-9.75957
▁ber	-9.75999
▁xvii	-9.76043
▁volo	-9.7609
▁paolo	-9.76182
▁comportamento	-9.7619
nel	-9.76231
▁semplicemente	-9.76248
scono	-9.76268
ü	-9.76285
▁dare	-9.76304
ler	-9.76427
▁campione	-9.76429
amente	-9.76485
▁armi	-9.76799
estremamente	-9.76817
▁duca	-9.76833
▁storica	-9.77044
zzata	-9.77077
▁cura	-9.77078
▁2005	-9.7712
ris	-9.77128
▁stabili	-9.7716
arco	-9.77203
▁usati	-9.77217
▁pubblicazione	-9.77248
▁russia	-9.77259
rli	-9.77296
▁celebre	-9.77335
▁protezione	-9.77336
▁spa	-9.77348
▁fondamentali	-9.77351
▁questione	-9.77501
▁riguardo	-9.77573
▁tiberio	-9.77573
▁aumenta	-9.7759
▁pure	-9.77662
12	-9.77792
▁buon	-9.77805
▁rosa	-9.7781
▁settanta	-9.77812
▁costituisce	-9.77814
▁disegno	-9.77817
▁fatti	-9.77899
▁cittadina	-9.7803
▁disposizione	-9.78054
▁ste	-9.78062
ndolo	-9.7807
▁carta	-9.78092
▁server	-9.7815
▁britannica	-9.78291
▁aspetti	-9.78293
tina	-9.78318
ya	-9.78353
▁lista	-9.7845
▁definita	-9.78494
▁terre	-9.7851
▁ottenuto	-9.78531
▁membro	-9.78541
▁doveva	-9.78541
ità	-9.7864
▁bisestili	-9.78772
▁emanuele	-9.78772
iche	-9.78779
▁sviluppato	-9.78833
▁viaggio	-9.78843
euro	-9.78992
▁abbastanza	-9.79014
▁chilometri	-9.79014
▁nazista	-9.79015
_5	-9.79105
":	-9.79112
lità	-9.79166
▁micro	-9.79219
▁possibili	-9.79225
60	-9.7923
▁progetti	-9.79256
▁squadre	-9.79256
▁2008	-9.79266
▁legato	-9.79321
▁rivolta	-9.79403
operazione	-9.79407
▁isola	-9.79408
▁nucleare	-9.79499
▁1943	-9.79505
estate	-9.79521
▁metallo	-9.79539
essi	-9.79562
▁bretagna	-9.79742
▁umano	-9.79747
▁2003	-9.79835
▁vede	-9.79848
ccia	-9.79897
ppi	-9.79906
▁politici	-9.80005
▁ge	-9.8001
azioni	-9.80194
▁documenti	-9.80231
▁passò	-9.80255
▁indicare	-9.80348
▁sol	-9.80368
rico	-9.80457
▁corsa	-9.80466
▁vescovo	-9.80476
▁ottanta	-9.80476
etti	-9.80495
▁sessanta	-9.80506
▁polo	-9.80547
▁avendo	-9.80765
▁bassi	-9.80835
ag	-9.80857
▁volume	-9.80868
▁pietra	-9.80903
ol	-9.80917
rati	-9.80936
▁galassie	-9.80968
bre	-9.80985
▁storie	-9.80987
▁bra	-9.81081
▁necessità	-9.81214
▁gregorio	-9.81216
▁composizione	-9.81218
▁1945	-9.81224
▁autore	-9.81328
▁sufficiente	-9.8139
▁genova	-9.81465
▁nasce	-9.81532
▁40	-9.81544
▁fonte	-9.81651
▁congresso	-9.8171
▁2013	-9.81727
▁prevalentemente	-9.81761
giu	-9.81838
▁reali	-9.81853
lina	-9.81895
▁britannici	-9.81959
▁medioevo	-9.81959
evoluzione	-9.81965
▁2015	-9.81975
▁donna	-9.82069
mu	-9.82087
sch	-9.82099
_2	-9.82116
▁avvenne	-9.82208
▁cittadino	-9.82208
▁molecole	-9.82208
▁utilizzare	-9.82217
▁usare	-9.82358
▁corre	-9.82394
nzia	-9.82405
▁reti	-9.82433
cola	-9.82455
▁borgo	-9.82502
▁tedesche	-9.82548
▁firma	-9.82653
▁navi	-9.82691
introduzione	-9.82709
▁dollari	-9.82709
▁elettrica	-9.8271
▁vie	-9.82751
▁stadio	-9.82762
▁vecchio	-9.82788
▁edifici	-9.82843
▁neutroni	-9.82875
▁comporta	-9.82904
▁monti	-9.82922
▁pal	-9.82939
▁fascia	-9.8294
▁messa	-9.82948
▁tutela	-9.82961
▁mani	-9.82965
▁cesare	-9.82969
▁av	-9.83023
▁famiglie	-9.83212
▁versioni	-9.8322
▁polonia	-9.83227
▁categoria	-9.83241
▁ju	-9.83314
▁appare	-9.83359
ssimi	-9.83411
ger	-9.83417
ten	-9.83451
▁minerali	-9.83465
▁aperto	-9.83466
▁certa	-9.83514
▁università	-9.83521
ssime	-9.83568
▁000	-9.83602
▁tro	-9.8362
▁banca	-9.83624
ker	-9.83639
▁[	-9.83684
▁gua	-9.83685
▁y	-9.83839
▁riprese	-9.8385
ché	-9.8391
▁piani	-9.8394
▁tende	-9.84082
dis	-9.84108
▁dimostra	-9.84141
▁sito	-9.84167
▁rivela	-9.84228
▁diretta	-9.8426
tor	-9.84435
▁segue	-9.84436
▁napoleone	-9.84481
ai	-9.84519
analisi	-9.84525
articolo	-9.84528
flu	-9.84533
▁ab	-9.84537
▁filo	-9.84562
▁consiste	-9.84645
▁nove	-9.84647
▁coppia	-9.84659
▁pubblici	-9.84692
▁cellule	-9.84737
▁situata	-9.84737
▁canzone	-9.84737
▁enrico	-9.84739
▁stima	-9.84744
24	-9.84747
▁marco	-9.84964
line	-9.84968
▁formare	-9.84991
▁celeste	-9.84993
▁sconfitta	-9.84993
▁catena	-9.84998
▁immediatamente	-9.85003
▁terreno	-9.85021
▁successiva	-9.85046
▁alpi	-9.85063
arrivo	-9.85067
▁air	-9.85069
▁arriva	-9.85082
we	-9.85122
▁mor	-9.85136
nder	-9.85163
▁antiche	-9.85181
▁generi	-9.85183
rri	-9.8521
▁ebbero	-9.85215
▁scoperto	-9.8525
les	-9.85252
cce	-9.85271
▁fratello	-9.85273
▁comincia	-9.85321
▁zero	-9.85341
▁luna	-9.85351
▁potenza	-9.85372
▁th	-9.85392
ù	-9.85416
▁mantenere	-9.85508
▁richiesta	-9.85508
▁compreso	-9.85508
▁1999	-9.85514
▁potesse	-9.85533
▁possa	-9.85579
pp	-9.85687
▁sorge	-9.8572
▁brescia	-9.85809
▁elezioni	-9.85812
17	-9.8587
▁soluzione	-9.85897
90	-9.85929
▁legame	-9.86019
▁europei	-9.86026
inter	-9.8618
▁decenni	-9.86197
▁costo	-9.86259
amento	-9.86313
▁giove	-9.86329
lice	-9.86409
▁dedicato	-9.8642
endo	-9.86446
▁wi	-9.86488
idi	-9.86551
by	-9.86677
▁cha	-9.86698
▁stellare	-9.86699
▁bio	-9.8678
ando	-9.87065
▁appartenenti	-9.87077
▁successive	-9.87107
istituto	-9.87137
ula	-9.87149
▁fattori	-9.87207
emisfero	-9.87331
▁posti	-9.87332
▁entrò	-9.87338
▁regista	-9.87351
roni	-9.87385
▁2002	-9.87435
▁ki	-9.87492
)"	-9.87504
rt	-9.87535
▁et	-9.87599
▁collaborazione	-9.87644
▁geo	-9.87651
op	-9.87702
▁miliardi	-9.87858
▁decisione	-9.87863
▁centrali	-9.87868
▁dipende	-9.87969
▁bro	-9.87983
▁note	-9.87992
85	-9.88067
▁fede	-9.8809
▁esclusivamente	-9.88133
▁integra	-9.88142
▁osservazioni	-9.88161
13	-9.88182
▁sala	-9.88191
▁valuta	-9.88202
ski	-9.88275
76	-9.88325
▁norma	-9.88367
▁stava	-9.88373
▁quantistica	-9.88396
▁video	-9.88421
–	-9.88479
ambiente	-9.88502
▁edizione	-9.88557
osi	-9.88602
▁generali	-9.8862
▁scritta	-9.88681
nna	-9.88706
▁costruito	-9.88735
▁augusto	-9.88854
▁rivista	-9.88921
▁legati	-9.88955
▁fer	-9.88982
▁umani	-9.89021
▁indipendente	-9.89164
▁moderni	-9.89188
▁nazione	-9.89217
▁fiori	-9.89221
spo	-9.89245
▁giorgio	-9.89249
▁assicura	-9.8925
▁ko	-9.89343
ent	-9.89366
gg	-9.89442
▁firenze	-9.89456
▁coppa	-9.89496
▁ambito	-9.89532
giorni	-9.89562
▁azioni	-9.89579
▁scrivere	-9.89722
▁vide	-9.89728
▁ricorrenze	-9.89732
oceano	-9.89734
▁nebulosa	-9.89784
▁patto	-9.89838
ller	-9.89921
▁commissione	-9.89984
▁1944	-9.89999
▁2016	-9.90011
▁utilizzando	-9.90019
▁corsi	-9.90019
uto	-9.90031
cor	-9.90069
meri	-9.9007
atmosfera	-9.90102
▁pubblicata	-9.90115
bb	-9.90279
1,	-9.90286
accademia	-9.90295
▁za	-9.90327
men	-9.90354
cle	-9.90368
▁santo	-9.90413
▁spiega	-9.90416
fici	-9.90429
▁meta	-9.90438
▁giocatori	-9.90587
14	-9.9063
ffi	-9.90741
87	-9.90755
▁stesse	-9.90851
▁greca	-9.90863
▁cominci	-9.90888
coli	-9.90989
▁colloca	-9.90996
▁individua	-9.91005
▁novecento	-9.9108
▁ammassi	-9.9108
▁scientifica	-9.91081
edizione	-9.91106
▁xiv	-9.91107
indipendenza	-9.91204
▁raggio	-9.91239
▁corpi	-9.91328
arono	-9.91341
▁occidentali	-9.91353
▁metropolitana	-9.91354
▁pensiero	-9.91355
▁rotazione	-9.91383
▁sera	-9.91395
▁giustizia	-9.91429
▁palla	-9.91546
▁comunemente	-9.91567
▁cattolica	-9.91627
invasione	-9.91669
▁armata	-9.917
amministrazione	-9.91762
▁vanno	-9.91797
▁limita	-9.91803
nci	-9.9182
▁compar	-9.91828
▁passare	-9.91839
razione	-9.91882
▁federale	-9.91905
▁gamma	-9.91916
▁grecia	-9.91933
▁que	-9.91944
15	-9.91961
▁xv	-9.92039
▁celebra	-9.92056
stro	-9.92123
▁bolzano	-9.92177
▁aerei	-9.92187
▁calcolo	-9.92189
▁resti	-9.92216
▁bre	-9.92248
▁conserva	-9.92347
ran	-9.92352
tus	-9.92383
▁principe	-9.92436
▁decadimento	-9.92453
▁produrre	-9.92485
▁gare	-9.92498
▁differenzia	-9.9253
▁veneto	-9.92561
▁cose	-9.92568
zzare	-9.9263
ngo	-9.92679
▁denominazione	-9.9273
▁infrastrutture	-9.9273
▁permesso	-9.92732
▁davanti	-9.9274
▁contatto	-9.92778
uni	-9.92883
▁portata	-9.92893
rum	-9.92969
▁relativa	-9.92972
▁addirittura	-9.93008
▁chimico	-9.93016
ione	-9.9304
▁diverso	-9.93131
gono	-9.93135
▁appunto	-9.93171
tera	-9.93191
bar	-9.93235
▁famoso	-9.93287
▁dovuta	-9.9329
▁proposta	-9.93297
▁biografia	-9.93349
▁migliore	-9.93414
93	-9.93421
▁op	-9.93532
▁conto	-9.9361
▁hu	-9.93713
▁scritti	-9.93788
▁risposta	-9.93846
zie	-9.93859
▁contesto	-9.93877
▁spaziale	-9.93899
▁arte	-9.94071
▁risorse	-9.94127
▁documento	-9.94128
etta	-9.94141
▁oro	-9.94211
▁leone	-9.94212
2,	-9.94292
▁vento	-9.9432
▁torna	-9.94326
sk	-9.94339
▁tema	-9.94343
96	-9.94358
antico	-9.94384
▁gravi	-9.94627
▁eletto	-9.94688
▁scientifico	-9.94692
▁modalità	-9.94695
▁1,	-9.94798
▁migliori	-9.94802
▁descrive	-9.94849
▁nana	-9.9485
▁stranieri	-9.94975
cus	-9.95023
▁fran	-9.95098
▁cre	-9.95109
ab	-9.95149
ley	-9.95179
▁passi	-9.95224
▁proteine	-9.95259
▁primavera	-9.95261
lio	-9.95297
ts	-9.95302
▁segno	-9.95352
▁pianta	-9.95368
▁accordo	-9.95413
▁gioca	-9.95415
▁applica	-9.9548
▁am	-9.95554
▁recenti	-9.95577
▁motivi	-9.95587
▁pol	-9.95667
▁ch	-9.95716
▁termina	-9.95724
▁robert	-9.95755
▁claudio	-9.95829
▁riserva	-9.95838
▁1990	-9.9584
▁raggiunge	-9.95863
45	-9.95923
attacco	-9.96025
▁raggiunto	-9.96116
▁ricevette	-9.96139
▁completa	-9.96194
▁libri	-9.96217
ny	-9.96353
▁legata	-9.96367
66	-9.96394
▁specialmente	-9.96403
▁jean	-9.96472
▁sezione	-9.96503
▁solito	-9.96545
logo	-9.96584
▁fasi	-9.96597
▁teorie	-9.96692
▁diffuso	-9.96693
▁polizia	-9.96708
▁concentra	-9.96762
▁sale	-9.9679
▁giocatore	-9.96819
▁xiii	-9.96831
oso	-9.96857
▁amministrazione	-9.96874
die	-9.96879
▁gnu	-9.96895
▁quark	-9.96896
▁caratterizzato	-9.96906
▁messaggio	-9.9694
▁governa	-9.96943
▁privata	-9.96946
ane	-9.9696
16	-9.97022
▁legno	-9.97062
▁des	-9.97091
ava	-9.97239
▁superiori	-9.97239
▁svedese	-9.9727
▁tappa	-9.97284
▁festival	-9.97345
▁cattura	-9.97347
▁portare	-9.97351
ioni	-9.97392
39	-9.97491
▁elettronica	-9.97501
▁milita	-9.97542
▁manga	-9.97549
▁doppia	-9.97552
▁potenze	-9.97561
▁salute	-9.97571
▁dimensione	-9.97587
ppa	-9.97587
94	-9.97606
lin	-9.97609
▁manca	-9.97618
▁xii	-9.97774
▁atto	-9.97803
▁diversa	-9.97803
22	-9.97823
▁normale	-9.9784
▁monumenti	-9.97852
▁raggiunse	-9.97852
▁nuclei	-9.97853
▁compresa	-9.97853
▁miglior	-9.97879
nici	-9.97896
▁im	-9.97942
anche	-9.97977
smi	-9.9799
▁fiumi	-9.98015
▁porti	-9.98075
▁conosciuta	-9.98145
▁brillante	-9.98154
▁nulla	-9.9818
ore	-9.98186
▁mezzi	-9.9821
▁esercita	-9.98215
▁pronuncia	-9.98283
gro	-9.98302
mul	-9.98307
▁conferma	-9.98341
gene	-9.98434
▁singolo	-9.98439
▁migliaia	-9.98443
iva	-9.98568
▁inizi	-9.98597
▁nominato	-9.986
mbo	-9.98672
▁ferrovia	-9.98679
mor	-9.98701
▁diffuse	-9.98732
▁novanta	-9.98739
▁determina	-9.98757
ida	-9.98787
▁cat	-9.98795
▁africa	-9.98835
auto	-9.98841
ute	-9.98964
▁campionati	-9.99027
▁riconoscimento	-9.99027
▁guerre	-9.99028
▁1941	-9.99033
▁ferrara	-9.99042
▁missione	-9.99043
assi	-9.99055
▁fatta	-9.9913
ku	-9.99255
▁grandezza	-9.99306
mone	-9.99309
▁umana	-9.99324
▁canada	-9.9934
▁vinse	-9.99348
▁ter	-9.99397
▁pla	-9.99447
ō	-9.99587
▁vigore	-9.99623
▁ritrova	-9.99625
esa	-9.99643
▁iniziale	-9.99646
▁rapidamente	-9.9965
▁cristalli	-9.99651
▁effetto	-9.99752
interesse	-9.99839
▁1940	-9.99932
nzo	-9.99936
▁cer	-9.99981
▁studiosi	-10.0006
▁uomo	-10.0012
▁organi	-10.0014
influenza	-10.0017
▁ipotesi	-10.002
▁como	-10.0021
▁istituzioni	-10.0022
▁potut	-10.0031
essa	-10.0033
archi	-10.0039
esi	-10.0039
97	-10.004
32	-10.0047
orbita	-10.0048
▁frattempo	-10.0052
▁volontà	-10.0052
uno	-10.0056
▁attacco	-10.0061
▁don	-10.0063
▁cavallo	-10.0069
84	-10.0074
▁ebraica	-10.0082
▁lancia	-10.0099
▁unite	-10.0103
▁1970	-10.0113
▁trenta	-10.0116
▁mira	-10.0116
▁trasforma	-10.012
▁sardo	-10.0121
▁iniziarono	-10.0126
▁potevano	-10.0128
▁rappresentato	-10.0131
▁ambiente	-10.0132
18	-10.0132
▁maggiormente	-10.0145
▁vino	-10.0156
▁direttore	-10.0156
imp	-10.0164
associazione	-10.0169
▁orbita	-10.0172
nga	-10.0172
▁medaglia	-10.0172
▁aziende	-10.0172
▁moderno	-10.0172
roma	-10.0178
▁complessi	-10.018
▁costruire	-10.0185
43	-10.0191
▁senato	-10.0194
ard	-10.0194
▁capi	-10.0203
▁urbano	-10.0203
▁livelli	-10.0203
á	-10.0206
▁prove	-10.0214
54	-10.0219
▁rico	-10.0231
ace	-10.0249
▁realizzato	-10.0262
▁esperimenti	-10.0264
▁racconta	-10.0264
▁speciale	-10.0264
geni	-10.0267
▁monta	-10.0271
mica	-10.0281
almente	-10.0282
▁pri	-10.0282
udi	-10.0286
rica	-10.0294
▁arrivò	-10.0294
▁figure	-10.0294
▁giallo	-10.0296
atto	-10.0297
lino	-10.0314
▁perse	-10.032
film	-10.0323
espressione	-10.0324
▁stretto	-10.0325
▁gar	-10.0326
nzio	-10.033
ung	-10.033
▁piedi	-10.0332
▁fissa	-10.0335
▁consente	-10.0343
cio	-10.0345
▁autorità	-10.0348
▁colle	-10.0351
torio	-10.0356
▁pubblicò	-10.0356
▁specifica	-10.036
▁(17	-10.0367
tano	-10.0371
▁medicina	-10.0379
os	-10.0382
▁movimenti	-10.0387
idrogeno	-10.0387
▁utenti	-10.0387
▁costituiscono	-10.0387
▁2017	-10.0389
29	-10.0389
▁attuale	-10.0398
▁cap	-10.0399
niche	-10.0402
jo	-10.0404
▁tipico	-10.0405
▁culturali	-10.0407
▁pesanti	-10.042
▁faceva	-10.0421
▁considera	-10.0423
▁medievale	-10.0428
38	-10.0429
▁tuttora	-10.0429
▁cinquanta	-10.043
▁diventare	-10.0432
▁avvenuta	-10.0434
▁danni	-10.0434
▁rat	-10.0435
trici	-10.0438
▁sì	-10.0439
▁analisi	-10.0445
▁frequenza	-10.0449
▁spettro	-10.0449
aeroporto	-10.045
▁posizioni	-10.0451
▁greci	-10.0453
▁california	-10.0456
▁cina	-10.0457
37	-10.0472
▁recente	-10.0475
▁beni	-10.0475
▁multi	-10.0479
▁ramo	-10.048
▁raccolta	-10.048
▁universale	-10.048
▁marte	-10.0482
ottobre	-10.0482
26	-10.0483
▁settori	-10.0483
-18	-10.0483
▁lattea	-10.0484
▁min	-10.0487
▁ragione	-10.0488
▁album	-10.0488
▁sch	-10.0493
isce	-10.0495
▁lei	-10.0496
▁cambia	-10.0507
nzi	-10.0507
▁sovietici	-10.0512
▁prendere	-10.0512
▁fuoco	-10.0513
ipotesi	-10.0513
▁flotta	-10.0514
vari	-10.0518
▁nata	-10.0522
▁america	-10.0534
▁caratterizzata	-10.0534
▁tratti	-10.0541
▁evento	-10.0543
uro	-10.0544
▁1939	-10.0544
▁edizioni	-10.0545
▁sorta	-10.0552
sen	-10.0555
oggi	-10.0556
▁formano	-10.0569
logia	-10.057
▁condizione	-10.0576
▁quartieri	-10.0581
▁socialista	-10.0583
▁soggetto	-10.0587
isti	-10.0592
▁vedere	-10.0598
▁considerati	-10.0599
33	-10.06
▁occhio	-10.0605
▁continuò	-10.0606
▁2019	-10.061
▁avanti	-10.061
▁partenza	-10.0611
▁tasso	-10.0612
▁soggetti	-10.0615
▁telescopio	-10.0622
ffer	-10.0625
▁presa	-10.0633
▁semplici	-10.0635
▁bambini	-10.0638
boli	-10.0639
▁idee	-10.0645
▁segna	-10.0645
2.	-10.0651
▁sovrano	-10.0658
▁tecnologia	-10.066
▁rendere	-10.0664
▁tradizionali	-10.067
▁1942	-10.0671
[	-10.0673
mpa	-10.0676
▁adige	-10.0677
▁fan	-10.0681
▁elevata	-10.0682
▁dedicata	-10.0686
▁pensa	-10.0692
▁speciali	-10.0701
-1	-10.0704
▁vienna	-10.0705
▁voce	-10.0709
▁relativi	-10.073
▁romanzi	-10.0737
▁nube	-10.0737
▁attraversa	-10.0737
▁collegamento	-10.074
48	-10.0743
▁alcuna	-10.0749
▁fisiche	-10.0751
▁bordo	-10.0755
▁tracce	-10.076
▁riporta	-10.0764
▁utilizzate	-10.0766
▁indipendenti	-10.0766
▁recita	-10.0767
▁chiamati	-10.0767
▁dec	-10.0772
▁lombardia	-10.0773
astro	-10.0773
nes	-10.0774
rle	-10.078
▁scrittore	-10.078
▁tur	-10.0782
▁lascia	-10.0787
▁atleti	-10.0791
▁chiaro	-10.0793
▁eccezione	-10.0799
▁quota	-10.0799
▁newton	-10.08
▁matrimonio	-10.0804
▁quarto	-10.0809
▁giapponesi	-10.0815
ndone	-10.0816
▁ss	-10.0825
▁trovava	-10.0826
▁penisola	-10.0832
▁ponti	-10.0833
fal	-10.0841
_6	-10.0856
temporaneamente	-10.0862
▁morti	-10.0863
▁diffusa	-10.0863
▁2018	-10.0865
▁1848	-10.0866
gente	-10.0869
▁partecipazione	-10.087
▁cinese	-10.087
▁preso	-10.087
▁reazioni	-10.0873
▁patrimonio	-10.0874
▁giu	-10.088
▁accompagna	-10.0886
vrebbero	-10.0888
ron	-10.0895
▁successione	-10.0898
nger	-10.0902
▁cerca	-10.0904
clu	-10.0911
▁hi	-10.0919
▁programmazione	-10.0923
▁alte	-10.0925
istituzione	-10.0928
▁europee	-10.0928
▁misure	-10.0929
▁ger	-10.0931
▁imperatore	-10.0937
▁solamente	-10.0939
▁david	-10.0939
▁ampio	-10.0939
▁nostra	-10.094
▁asse	-10.0941
▁dando	-10.0946
bbi	-10.0947
▁produce	-10.0951
grafi	-10.0957
▁resa	-10.0957
▁reca	-10.096
▁evoluzione	-10.096
▁ministero	-10.0961
▁ottiene	-10.0961
▁discorso	-10.0962
▁bit	-10.0963
▁1980	-10.0963
▁imprese	-10.0965
▁ducato	-10.0969
_3	-10.098
nata	-10.098
-2	-10.099
▁pesca	-10.0993
89	-10.0994
▁microsoft	-10.0994
▁secondi	-10.0994
▁culto	-10.0994
▁1927	-10.0995
del	-10.1001
irlanda	-10.1003
42	-10.1011
▁modi	-10.1014
▁geni	-10.1015
dra	-10.1019
av	-10.1019
dy	-10.102
▁william	-10.102
▁visibili	-10.1024
▁disputa	-10.1024
▁notevolmente	-10.1027
▁introdotto	-10.1027
▁costi	-10.1031
▁regina	-10.1035
lon	-10.1037
berg	-10.1052
▁previsto	-10.106
▁perugia	-10.106
africa	-10.1062
▁bacino	-10.1062
▁messico	-10.1066
app	-10.107
▁armate	-10.1072
▁scrittura	-10.1077
36	-10.1078
▁osserva	-10.1079
▁castel	-10.1079
▁particella	-10.1085
▁andò	-10.1087
▁porte	-10.1092
▁gri	-10.1094
▁incontro	-10.1094
▁traffico	-10.1094
▁basata	-10.1107
▁fascista	-10.1107
▁pra	-10.1112
forma	-10.1114
lari	-10.1115
▁latina	-10.1124
▁oriente	-10.1124
▁savoia	-10.1127
▁corrispondenza	-10.113
▁popoli	-10.1133
bio	-10.1136
▁alessandro	-10.114
▁scambio	-10.1145
port	-10.1147
▁madonna	-10.116
▁ulteriormente	-10.116
▁transizione	-10.116
▁trasporta	-10.1161
▁tavola	-10.1162
▁cl	-10.1163
▁area	-10.1164
▁leggenda	-10.1166
▁confina	-10.1167
ini	-10.1169
▁variazioni	-10.1171
provincia	-10.1171
rino	-10.1172
▁musicali	-10.1185
▁test	-10.1192
▁idrogeno	-10.1194
▁supporta	-10.1194
▁lavora	-10.1195
▁indicato	-10.1197
▁dopoguerra	-10.1199
▁pen	-10.1201
inglese	-10.1205
ji	-10.121
▁strati	-10.121
21	-10.1211
▁noi	-10.1212
gue	-10.1215
▁svezia	-10.1227
▁colonia	-10.1229
▁coste	-10.123
▁george	-10.1238
▁vecchia	-10.1254
▁quanti	-10.1256
▁prevedeva	-10.1258
▁gigante	-10.1261
▁invernali	-10.1261
▁visione	-10.1262
▁perdita	-10.1265
importanza	-10.1273
▁personalità	-10.1281
▁rese	-10.1285
cr	-10.1288
▁200	-10.1289
▁giacomo	-10.1295
▁uguale	-10.1295
▁minaccia	-10.1295
▁unica	-10.1296
▁1998	-10.1296
fino	-10.1298
sol	-10.1305
▁fri	-10.1311
▁pare	-10.1314
▁world	-10.1315
99	-10.1318
▁tabella	-10.133
▁2020	-10.1334
▁bor	-10.1342
tter	-10.1347
▁definire	-10.1352
▁ulteriori	-10.1363
▁normalmente	-10.1364
▁dietro	-10.1367
▁maschile	-10.1377
telli	-10.1377
sul	-10.138
assai	-10.1382
ucci	-10.1383
rone	-10.1383
▁linguaggi	-10.1386
par	-10.1392
don	-10.1394
col	-10.1396
▁record	-10.1397
fre	-10.1399
rina	-10.14
▁contemporanea	-10.1405
▁nudo	-10.1406
▁maestro	-10.141
▁tempio	-10.1429
▁ultime	-10.1432
▁componente	-10.1435
▁bru	-10.1436
▁diviso	-10.1437
▁stili	-10.1441
3)	-10.1441
hu	-10.1445
obiettivo	-10.1446
▁dichiara	-10.1447
▁fecero	-10.1451
▁carri	-10.1453
74	-10.1459
▁sha	-10.1465
▁conferenza	-10.1466
▁colonna	-10.1466
▁residenti	-10.1467
lica	-10.147
▁ferroviaria	-10.147
▁vicini	-10.1472
▁genera	-10.1475
pie	-10.1477
▁comandante	-10.1478
▁sto	-10.148
▁mosca	-10.1484
etto	-10.1487
▁bri	-10.1489
▁ricca	-10.1493
ft	-10.1495
net	-10.1497
▁ispira	-10.1497
▁1938	-10.1502
sc	-10.1506
▁tipicamente	-10.1507
▁titoli	-10.1512
▁pop	-10.1533
▁vantaggio	-10.1534
▁impero	-10.1534
▁canzoni	-10.1536
▁accanto	-10.1536
▁mette	-10.1537
parti	-10.1541
▁laurea	-10.1544
▁sorgente	-10.1546
▁discipline	-10.1549
28	-10.1551
edificio	-10.1551
09	-10.1554
mia	-10.1555
quest	-10.1555
erà	-10.1558
▁vii	-10.156
▁60	-10.1566
▁ligure	-10.1571
▁russo	-10.1575
▁perdite	-10.1577
▁ferma	-10.1579
▁servi	-10.1581
occupazione	-10.1582
▁accordi	-10.1584
▁mise	-10.1586
▁bandiere	-10.1593
▁vasta	-10.1599
▁comunista	-10.1605
▁profondo	-10.1606
▁pianura	-10.1606
▁rileva	-10.1608
▁sostituito	-10.161
▁[...]	-10.1615
▁espansione	-10.1618
▁giganti	-10.1623
▁leader	-10.1624
▁legate	-10.164
ella	-10.1641
▁vuoto	-10.1641
assemblea	-10.1641
▁catania	-10.1641
▁modifiche	-10.1641
zionale	-10.1644
▁divide	-10.1658
▁ricon	-10.1659
▁assegnato	-10.1662
osa	-10.1664
▁detti	-10.1669
▁tenta	-10.1672
▁cerimonia	-10.1676
▁cimitero	-10.1676
▁rilievo	-10.1676
▁industriali	-10.1677
▁interamente	-10.1678
▁quei	-10.1679
▁batteri	-10.1681
ak	-10.1682
▁atomico	-10.1692
▁fermi	-10.1692
▁adatta	-10.1707
▁disponibili	-10.1708
▁studenti	-10.1711
▁facile	-10.1711
▁bronzo	-10.1712
▁1991	-10.1712
ud	-10.1712
▁1994	-10.1712
▁divisa	-10.1715
▁tiro	-10.1716
95	-10.1732
▁centinaia	-10.1747
▁straniere	-10.1747
▁denaro	-10.1747
▁giulio	-10.1747
▁successi	-10.1749
▁benché	-10.175
▁identifica	-10.1754
▁compito	-10.1757
▁onore	-10.177
2)	-10.1771
▁americano	-10.1778
mici	-10.1781
▁men	-10.1782
▁amministrativa	-10.1783
▁dà	-10.1786
gnano	-10.1791
pl	-10.1792
je	-10.1795
▁decennio	-10.1798
0.000	-10.1802
dere	-10.1806
▁gal	-10.1808
▁affida	-10.1809
mann	-10.1817
▁trasmissione	-10.1818
▁regionali	-10.1819
cina	-10.1825
rk	-10.183
▁muta	-10.1839
▁partecipa	-10.184
▁martin	-10.184
▁controlla	-10.1841
0,	-10.1841
▁chiara	-10.185
▁neo	-10.1851
▁debole	-10.1851
▁frazioni	-10.1853
▁frequenta	-10.1854
▁teorema	-10.1854
▁blocco	-10.1854
▁32	-10.1855
id	-10.1872
accordo	-10.1872
effetto	-10.1874
▁rap	-10.1876
omonimo	-10.189
▁minoranze	-10.189
▁tricolore	-10.189
▁dichiarò	-10.189
▁montagna	-10.1892
▁organizzazioni	-10.1894
▁pescara	-10.1896
▁festa	-10.1906
amore	-10.1908
esperienza	-10.191
▁at	-10.191
▁inglesi	-10.1926
▁trovò	-10.1926
▁minimo	-10.1926
▁profondità	-10.1927
▁risoluzione	-10.1927
92	-10.1931
lati	-10.1936
53	-10.1937
▁golfo	-10.1937
▁doppio	-10.1938
gar	-10.1942
68	-10.1944
umanità	-10.1947
ren	-10.1949
▁ur	-10.1957
▁fondato	-10.1962
▁civiltà	-10.1962
▁pubbliche	-10.1962
▁costretto	-10.1962
▁contenuti	-10.1962
▁storiche	-10.1962
▁charles	-10.1962
▁1992	-10.1963
▁rocce	-10.1965
▁definitiva	-10.1968
▁dna	-10.197
▁messo	-10.1971
▁colpo	-10.1975
▁pat	-10.198
min	-10.1989
dro	-10.199
vedi	-10.199
▁fuga	-10.1991
▁domina	-10.1993
▁danno	-10.1993
▁settimana	-10.1993
▁cantone	-10.1993
▁trono	-10.1998
▁riconosciuto	-10.1998
▁yankovic	-10.1998
▁chitarra	-10.1998
27	-10.2002
elli	-10.2005
ther	-10.2006
▁quarta	-10.2011
▁richiede	-10.2012
82	-10.2015
3,	-10.2016
▁molecolare	-10.203
▁notevoli	-10.2035
metri	-10.2037
▁mancanza	-10.2038
▁originariamente	-10.2038
mme	-10.2042
▁classico	-10.2049
▁valli	-10.2051
pen	-10.2056
▁taglia	-10.207
ps	-10.2071
34	-10.2071
▁1933	-10.2073
▁coltiva	-10.2073
▁torri	-10.2074
pra	-10.2076
▁fratelli	-10.2078
▁amici	-10.2079
mato	-10.2081
▁costruita	-10.2082
▁ordina	-10.2088
▁supera	-10.2093
▁banda	-10.2103
▁tito	-10.2105
▁differenze	-10.2108
▁1997	-10.2109
▁aumento	-10.2109
▁poté	-10.211
▁manifesta	-10.2112
▁circolazione	-10.2112
aquila	-10.2114
▁scene	-10.2117
cl	-10.2124
▁rappresentano	-10.2125
▁ricerche	-10.2145
▁livorno	-10.2145
ju	-10.2148
▁sedi	-10.2152
▁filosofia	-10.2161
▁vinto	-10.2164
69	-10.2167
▁poss	-10.2182
▁mussolini	-10.2182
▁riduzione	-10.2182
▁geometria	-10.2183
▁galli	-10.2202
ure	-10.2205
▁cam	-10.2207
▁maglia	-10.2212
estero	-10.2214
▁sar	-10.2218
▁responsabile	-10.2219
▁guardia	-10.2219
▁ferrovie	-10.222
▁sovietico	-10.222
▁1989	-10.222
▁1995	-10.2222
▁popolari	-10.2225
▁ram	-10.2227
em	-10.2229
▁attesta	-10.2238
="11	-10.224
ibile	-10.2255
▁fianco	-10.2257
▁kernel	-10.2257
▁tentativi	-10.2257
▁tappe	-10.2257
imento	-10.2257
▁chimici	-10.2259
▁articoli	-10.2261
▁suolo	-10.2263
▁rive	-10.2266
▁usando	-10.2274
dina	-10.2277
▁assume	-10.2283
▁accesso	-10.2287
bro	-10.2291
▁cuore	-10.2296
▁anime	-10.2296
▁reso	-10.2307
▁raffigura	-10.2309
▁stan	-10.2311
▁pone	-10.2312
▁grave	-10.2314
oggetto	-10.2314
23	-10.2323
nni	-10.2324
▁ultima	-10.2329
let	-10.233
▁assunse	-10.2332
▁ricevuto	-10.2332
▁assoluto	-10.2332
▁interni	-10.2335
▁crescente	-10.2337
▁stalin	-10.2341
▁intende	-10.2348
▁cento	-10.2349
▁parametri	-10.2351
81	-10.2353
▁americani	-10.2355
▁collabora	-10.2357
agricoltura	-10.2359
vola	-10.2364
▁1968	-10.237
▁ngc	-10.2371
ola	-10.2377
▁trasformazione	-10.2379
mpo	-10.2387
▁/	-10.2391
▁diventato	-10.2396
▁nessuna	-10.2402
▁macchine	-10.2407
▁diametro	-10.2408
▁2022	-10.241
▁svolta	-10.2411
▁corrispondente	-10.2429
dd	-10.2435
▁impianti	-10.2445
▁onde	-10.2446
▁notizia	-10.2447
▁richiama	-10.2449
31	-10.245
▁nane	-10.245
voli	-10.2455
▁set	-10.2457
▁passando	-10.2457
scia	-10.2462
▁continente	-10.2465
▁arrivare	-10.2468
▁strato	-10.2468
▁adottato	-10.2469
07	-10.247
album	-10.2474
▁partita	-10.248
▁biblioteca	-10.2484
▁denominato	-10.2484
▁luminosa	-10.2484
▁interessa	-10.2488
▁coloro	-10.2488
rs	-10.25
▁ricco	-10.2505
▁dice	-10.2509
▁interne	-10.2518
▁disponibile	-10.2522
▁critiche	-10.2522
▁filippo	-10.2523
▁cambiamenti	-10.2525
▁settimane	-10.2526
▁ferdinando	-10.2527
▁assoluta	-10.2528
▁saint	-10.2528
55	-10.2552
▁je	-10.2555
▁iniziato	-10.2558
angelo	-10.2558
apertura	-10.256
▁sacro	-10.2561
▁gira	-10.257
ense	-10.2586
▁prepara	-10.2593
_7	-10.2595
alfabeto	-10.2599
▁wells	-10.2599
▁rip	-10.2613
▁medici	-10.2616
▁alti	-10.2618
▁combina	-10.2626
▁cile	-10.2632
lato	-10.2635
▁cavour	-10.2639
▁limiti	-10.2639
▁colpi	-10.264
▁franchi	-10.2641
78	-10.2641
▁collegamenti	-10.2642
83	-10.2654
01	-10.266
▁nobili	-10.2661
mba	-10.2671
▁beta	-10.2673
▁crede	-10.2675
▁decade	-10.2676
▁proposito	-10.2677
▁statuto	-10.2677
▁precedenza	-10.2677
▁portarono	-10.2677
▁mantova	-10.268
nella	-10.268
▁rischio	-10.2681
▁aspetto	-10.2682
▁austriaco	-10.2684
▁dette	-10.269
▁portando	-10.2691
▁include	-10.2694
▁el	-10.2702
▁poteri	-10.2707
▁anima	-10.2708
▁impe	-10.271
▁sostegno	-10.2716
▁spagnolo	-10.2716
▁vittime	-10.2716
▁deciso	-10.2716
▁1993	-10.2717
▁subì	-10.2719
▁australia	-10.272
05	-10.2722
75	-10.2722
▁territoriale	-10.2723
aggio	-10.2726
ling	-10.2732
79	-10.274
gan	-10.2747
▁ricordare	-10.2754
▁qualunque	-10.2755
▁specifico	-10.2755
dor	-10.2758
▁formata	-10.276
▁norme	-10.2762
▁gre	-10.2762
▁prezzo	-10.2764
▁cra	-10.2768
cho	-10.2775
▁necessaria	-10.2776
messi	-10.2779
▁riceve	-10.278
▁amico	-10.2781
azienda	-10.2788
▁documenta	-10.2789
▁realizzare	-10.2793
▁ritiene	-10.2794
▁singoli	-10.2794
aspetto	-10.2795
64	-10.28
▁tenne	-10.2802
ardi	-10.2802
grande	-10.2805
uli	-10.2805
cha	-10.2806
pla	-10.2807
▁ghiaccio	-10.2811
vino	-10.2815
91	-10.2816
▁moda	-10.2823
▁ama	-10.2826
▁traccia	-10.2827
atti	-10.283
▁cristiani	-10.2834
▁texas	-10.2834
▁concluse	-10.2834
▁cur	-10.2835
▁1976	-10.2835
▁schi	-10.2836
▁strettamente	-10.2837
ers	-10.2837
49	-10.284
messe	-10.2842
utente	-10.2842
▁vent	-10.2846
sor	-10.2847
▁brevi	-10.2858
41	-10.286
▁temi	-10.2865
▁appartengono	-10.2874
▁economiche	-10.2874
▁pittore	-10.2874
▁fumetti	-10.2874
▁evidente	-10.2874
rvi	-10.2874
▁trentino	-10.2874
▁pas	-10.2879
bor	-10.2881
▁cas	-10.2885
▁costantino	-10.2891
▁uffici	-10.2897
▁paga	-10.2903
▁gio	-10.2907
47	-10.291
ttivo	-10.2911
▁urbana	-10.2914
▁possesso	-10.2914
▁vincitore	-10.2914
▁offre	-10.2914
▁linux	-10.2916
▁governatore	-10.2917
▁formati	-10.2918
▁iso	-10.2929
▁attuali	-10.2939
▁disse	-10.2941
▁caratterizza	-10.2945
▁contributo	-10.2953
▁accetta	-10.2961
▁nessun	-10.2962
▁ancona	-10.2968
gin	-10.2969
46	-10.297
▁propose	-10.2989
▁aperta	-10.299
▁diocesi	-10.2994
▁vicine	-10.2994
▁volumi	-10.2994
▁1984	-10.2995
▁2021	-10.2996
▁1930	-10.2997
71	-10.2999
▁piena	-10.2999
abile	-10.3007
▁gela	-10.3008
▁sfrutta	-10.301
▁segnala	-10.3017
▁500	-10.3017
▁carte	-10.3018
▁cappella	-10.3034
▁foglie	-10.3034
▁determinato	-10.3035
mine	-10.3037
▁potenziale	-10.3042
▁generazione	-10.3042
▁osservare	-10.3043
più	-10.3043
▁propaganda	-10.3044
mm	-10.3045
▁sc	-10.3055
lega	-10.3056
agosto	-10.3056
abili	-10.3059
logica	-10.3061
▁studia	-10.3062
▁rin	-10.3063
▁assi	-10.3063
▁tesi	-10.3064
sur	-10.3066
▁scrive	-10.3067
cità	-10.3069
camente	-10.3069
▁scienziati	-10.3074
omonima	-10.3074
▁richard	-10.3074
▁famosa	-10.3074
▁leggermente	-10.3074
▁scelto	-10.3074
▁lasciò	-10.3075
▁litio	-10.3076
▁ticino	-10.3077
▁trattati	-10.3081
annessione	-10.3082
▁americana	-10.3086
▁lunghi	-10.3086
67	-10.3088
avvento	-10.3089
▁praticamente	-10.3093
otti	-10.3101
architettura	-10.3113
▁rispettiv	-10.3114
▁evidenzia	-10.3115
▁monaco	-10.3115
▁benedetto	-10.3116
ray	-10.3118
▁robot	-10.3119
▁ragioni	-10.3121
▁artistico	-10.3133
▁pieno	-10.3139
mont	-10.3152
▁nessuno	-10.3153
▁spi	-10.3154
allora	-10.3156
▁dodici	-10.3156
mol	-10.3157
▁segretario	-10.3158
▁episodi	-10.316
▁prussia	-10.3161
nus	-10.3166
eu	-10.3169
▁apprezza	-10.3169
zzò	-10.317
arma	-10.3174
▁incontra	-10.3176
▁proto	-10.3176
▁(2	-10.3179
ndola	-10.3184
ep	-10.3189
▁long	-10.319
esimo	-10.319
nati	-10.3192
▁ordini	-10.3193
▁garibaldi	-10.3197
▁tornò	-10.3197
▁tradizioni	-10.3197
▁utile	-10.3198
lini	-10.3206
▁elabora	-10.3208
cino	-10.3214
▁condanna	-10.3217
cy	-10.3225
▁matematico	-10.3238
▁medaglie	-10.3238
▁nucleari	-10.3238
▁distanze	-10.3238
▁fornisce	-10.3239
▁1996	-10.3239
▁appartenente	-10.324
▁riferisce	-10.324
04	-10.3244
▁costellazioni	-10.3245
▁mel	-10.3247
▁pia	-10.3253
▁tipica	-10.3254
▁bisogno	-10.3254
acco	-10.326
▁esterno	-10.3263
▁art	-10.3264
cate	-10.3265
▁scia	-10.3266
▁inghilterra	-10.327
▁statali	-10.327
▁muro	-10.3271
▁regolare	-10.3275
▁colonne	-10.3278
▁olimpico	-10.3279
▁ambienti	-10.3279
▁definisce	-10.328
▁sintesi	-10.3281
ting	-10.3286
▁tipici	-10.3286
▁esercito	-10.3286
ordina	-10.3289
vente	-10.329
▁ove	-10.3295
▁(3	-10.3302
▁liberazione	-10.3304
▁trovato	-10.3317
▁st	-10.332
▁dipartimento	-10.3321
▁concesso	-10.3321
▁james	-10.3321
▁1929	-10.3322
▁1960	-10.3323
▁schema	-10.3324
▁ioni	-10.3324
▁vesti	-10.3324
▁canto	-10.3325
▁sangue	-10.3327
▁vuole	-10.3332
▁precedentemente	-10.334
liber	-10.3344
▁nave	-10.3344
▁notare	-10.3352
▁virus	-10.3354
▁fanteria	-10.3362
▁dotato	-10.3363
equazione	-10.3363
▁poeta	-10.3363
▁formalmente	-10.337
sal	-10.3371
nk	-10.3371
▁provoca	-10.3374
▁riprende	-10.3381
▁star	-10.3382
▁mario	-10.3385
▁variazione	-10.3391
mila	-10.3392
▁suono	-10.3392
▁os	-10.3394
▁separa	-10.3394
▁chiamate	-10.3399
▁medie	-10.3404
▁contrasto	-10.3404
▁minima	-10.3405
▁1946	-10.3405
ingresso	-10.3406
alleanza	-10.3406
italiano	-10.3407
▁forni	-10.3414
▁batte	-10.3422
▁laboratorio	-10.3423
all	-10.3428
mis	-10.343
▁seppur	-10.3431
ologico	-10.3442
evento	-10.3447
▁1918	-10.3447
▁riconosce	-10.3448
▁bur	-10.3453
enne	-10.3453
formi	-10.3456
▁morto	-10.3457
▁cristiana	-10.3459
▁off	-10.3468
vert	-10.3468
▁piemonte	-10.3471
▁manda	-10.3472
▁flusso	-10.3475
▁fornire	-10.3476
▁calore	-10.3477
▁ulteriore	-10.3482
▁danimarca	-10.3488
▁potente	-10.3489
▁associazioni	-10.3491
▁abitato	-10.3495
▁regio	-10.3495
▁vasto	-10.35
▁elevato	-10.3506
▁spirito	-10.3508
sha	-10.3509
▁ciascuna	-10.3513
▁elimina	-10.3516
▁partiti	-10.3518
▁orientali	-10.3523
esso	-10.3524
▁ricava	-10.3527
logici	-10.3527
98	-10.3529
▁1972	-10.3532
▁lancio	-10.3539
▁belgio	-10.3539
storia	-10.354
▁mobili	-10.354
▁risolvere	-10.3543
▁narra	-10.3543
▁laghi	-10.3551
▁linguistica	-10.3553
letto	-10.3553
▁ultimo	-10.3566
▁realizza	-10.357
▁tenuto	-10.3571
elio	-10.3573
▁campagne	-10.3573
architetto	-10.3573
▁riesce	-10.3574
▁aggiorna	-10.3574
▁blocca	-10.3574
▁operativi	-10.3574
▁conseguente	-10.3575
occasione	-10.3578
▁presta	-10.3581
spi	-10.3584
▁organizzato	-10.3585
▁pic	-10.3597
▁wa	-10.3599
▁au	-10.3601
venti	-10.3604
ble	-10.3616
▁compresi	-10.3616
▁contratto	-10.3616
56	-10.3617
▁1973	-10.3617
▁frutto	-10.3619
▁relatività	-10.362
▁conosce	-10.3628
ux	-10.3644
ich	-10.3645
▁dovrebbe	-10.3647
▁merito	-10.3659
▁architetture	-10.3659
▁australe	-10.3659
▁monastero	-10.3659
opinione	-10.3659
▁1926	-10.366
▁attivo	-10.3663
▁radici	-10.3664
▁lasciando	-10.3665
73	-10.3665
▁distruzione	-10.3676
▁tar	-10.3678
bus	-10.3682
▁entrare	-10.3694
aprile	-10.3695
scio	-10.3696
▁muove	-10.3697
▁tru	-10.3698
▁inferiori	-10.3703
▁esteso	-10.3704
▁esponenti	-10.3704
aff	-10.3705
▁cardinale	-10.3708
▁poste	-10.3709
▁2,	-10.3714
ug	-10.3726
gramma	-10.3728
bel	-10.373
ara	-10.3739
▁accor	-10.3743
57	-10.3745
▁individui	-10.3745
▁banconote	-10.3745
▁cabala	-10.3745
▁mondiali	-10.3746
▁comprese	-10.3748
▁nati	-10.3748
▁pie	-10.3756
▁distingue	-10.3758
▁mille	-10.3759
br	-10.3763
▁ze	-10.3769
pan	-10.3773
▁organizzazione	-10.3775
▁psicologia	-10.3782
▁astronomi	-10.3782
foni	-10.3788
▁frequenti	-10.3789
▁ragazzi	-10.3789
▁economici	-10.3789
▁appoggia	-10.379
vità	-10.379
vis	-10.3794
mmer	-10.3798
▁sovra	-10.3798
scu	-10.3808
sola	-10.381
▁90	-10.3815
▁80	-10.3817
tr	-10.3818
▁der	-10.3819
▁vergine	-10.3833
lus	-10.3833
▁gravitazionale	-10.3835
▁1860	-10.3837
importante	-10.384
▁occhi	-10.3841
▁correnti	-10.3842
▁lavorazione	-10.3843
▁lavoratori	-10.3843
06	-10.3849
▁ten	-10.3857
▁faccia	-10.3857
▁fl	-10.3867
▁marito	-10.3867
▁attacca	-10.3872
▁browser	-10.3876
▁fantascienza	-10.3876
▁uccelli	-10.3876
▁luminose	-10.3876
▁ruota	-10.3877
▁contrasta	-10.3881
▁liberi	-10.3882
▁progetta	-10.3885
vere	-10.3889
▁sposta	-10.3892
rn	-10.3892
▁150	-10.3893
▁organizza	-10.3895
▁male	-10.3897
cata	-10.3899
▁rappresentata	-10.3901
lis	-10.3903
▁elio	-10.3909
▁coda	-10.391
▁osservazione	-10.3911
dos	-10.3912
▁prestigio	-10.3916
cchia	-10.3919
▁fortuna	-10.3921
▁intitolato	-10.3921
▁sostanze	-10.3921
▁torneo	-10.3921
▁1923	-10.3921
agenzia	-10.3922
▁1948	-10.3922
▁divisioni	-10.3923
▁logica	-10.3926
▁legami	-10.3935
▁esistenti	-10.3937
▁sviluppa	-10.3937
▁aereo	-10.3939
ring	-10.3943
▁coincide	-10.395
▁vanta	-10.3952
▁letto	-10.3961
my	-10.3962
▁eseguire	-10.3965
▁tecnico	-10.3965
▁vocali	-10.3965
▁lontano	-10.3965
▁concetti	-10.3965
▁1971	-10.3966
▁1987	-10.3966
▁bianche	-10.3967
due	-10.397
inverno	-10.3974
accesso	-10.3974
side	-10.3975
▁usate	-10.3977
▁rifiuta	-10.398
rci	-10.3987
▁falli	-10.3989
▁mm	-10.399
▁sviluppata	-10.3993
▁aventi	-10.3998
giche	-10.4004
▁differente	-10.4006
▁scontri	-10.4009
▁famosi	-10.4009
▁sostanza	-10.401
▁musei	-10.401
▁indossa	-10.401
▁cucina	-10.401
▁riuscirono	-10.401
▁terrestri	-10.4011
▁seguire	-10.4011
▁1920	-10.4012
▁permettono	-10.4015
inghilterra	-10.4019
▁saranno	-10.402
▁storicamente	-10.402
▁morale	-10.4023
rata	-10.4039
▁rappresentare	-10.4043
ré	-10.4046
rm	-10.4049
▁dottrina	-10.4054
▁meccanismo	-10.4054
▁scoperte	-10.4054
▁convenzione	-10.4054
▁costantinopoli	-10.4055
▁gpl	-10.4056
▁ricorre	-10.4063
▁manifestazione	-10.4064
▁austriaci	-10.4065
▁utilizzano	-10.4068
▁considerare	-10.4069
bol	-10.4069
▁gian	-10.4072
cent	-10.4073
nei	-10.4074
▁provenient	-10.4075
▁rosse	-10.4081
stanti	-10.4082
▁acquisi	-10.4085
▁gene	-10.4087
ois	-10.4094
rebbero	-10.4094
▁copenaghen	-10.4099
▁pontificio	-10.4099
▁commedia	-10.41
▁largo	-10.4101
▁verrà	-10.4104
▁manifestazioni	-10.4105
▁medico	-10.4108
▁consegna	-10.4109
▁formale	-10.4113
▁emilia	-10.4118
▁canta	-10.4119
▁cm	-10.4121
▁giornali	-10.4121
mbro	-10.4123
▁villaggio	-10.4124
▁voti	-10.4131
ello	-10.4133
▁dichiarato	-10.4136
_8	-10.4136
▁protagonisti	-10.4144
▁sviluppò	-10.4144
▁umberto	-10.4144
▁relative	-10.4144
▁divenuto	-10.4144
▁spezia	-10.4144
▁spettacolo	-10.4144
▁dirige	-10.4144
▁1986	-10.4145
▁genitori	-10.4147
▁designa	-10.4149
▁(1	-10.4152
▁stellari	-10.4153
lly	-10.4155
fond	-10.4156
▁(20	-10.4158
▁determinare	-10.4161
▁spicca	-10.4164
▁idea	-10.4167
▁sposa	-10.4167
▁anzi	-10.4169
▁classici	-10.4169
▁louis	-10.4172
▁national	-10.4174
mus	-10.4175
▁resi	-10.4182
rus	-10.4186
tradizionalmente	-10.4189
▁passeggeri	-10.4189
▁obiettivi	-10.4189
▁pacifico	-10.4189
▁scozia	-10.4191
▁psi	-10.4192
circa	-10.4194
pol	-10.4196
visi	-10.4198
▁predi	-10.4205
▁mettere	-10.4215
rich	-10.4221
▁clo	-10.4222
1)	-10.4225
messa	-10.4228
▁abita	-10.423
▁larga	-10.4231
▁appartiene	-10.4234
▁istituita	-10.4234
▁referendum	-10.4234
▁dinastia	-10.4234
▁anglo	-10.4235
▁interessi	-10.4237
▁1950	-10.4237
▁pericolo	-10.4238
▁pezzi	-10.4239
▁cambiamento	-10.424
▁doppie	-10.4241
▁lavorare	-10.4246
▁concentrazione	-10.4246
ade	-10.4251
▁varianti	-10.4253
▁continentale	-10.4259
zu	-10.426
ion	-10.4261
▁adegua	-10.4266
kh	-10.4268
ville	-10.4268
▁lasciato	-10.4276
▁pc	-10.4278
▁conosciuti	-10.428
▁precisione	-10.4281
▁moderne	-10.4281
▁1924	-10.4282
▁grosso	-10.4282
rale	-10.4288
zzati	-10.4288
▁messaggi	-10.429
▁volontari	-10.4294
pul	-10.4299
000	-10.4305
ossido	-10.4305
res	-10.4308
pr	-10.4308
▁ciascuno	-10.4309
▁realizzata	-10.4311
▁seguendo	-10.4313
44	-10.4317
quo	-10.4322
▁equazioni	-10.4326
▁prigionieri	-10.4326
▁vicende	-10.4327
▁1978	-10.4327
▁magnetico	-10.4329
▁fondi	-10.433
▁salva	-10.4331
▁estensione	-10.4341
▁consolid	-10.4344
▁mari	-10.4347
ub	-10.4348
▁accade	-10.4355
toni	-10.4356
▁motori	-10.4362
press	-10.4365
▁segni	-10.437
and	-10.4371
▁rimasto	-10.4372
▁riscontra	-10.4372
▁vittorie	-10.4372
▁1982	-10.4373
▁1936	-10.4373
▁regia	-10.4377
▁giornalista	-10.4377
▁rocca	-10.438
▁fabbrica	-10.4381
▁austria	-10.4382
antichità	-10.4385
02	-10.4386
intervento	-10.4387
▁giulia	-10.4388
altezza	-10.4389
vin	-10.4391
▁legale	-10.4404
▁allontana	-10.4415
grammi	-10.4418
▁facoltà	-10.4418
▁gonfalone	-10.4418
▁trasferimento	-10.4418
▁riteneva	-10.4418
▁montagne	-10.4419
▁impar	-10.4422
uscita	-10.4423
▁sigla	-10.4423
▁«"	-10.4429
▁var	-10.4443
▁qua	-10.4445
65	-10.4453
▁bisogna	-10.4454
▁amplia	-10.4459
▁grafica	-10.4462
istruzione	-10.4463
▁bon	-10.4464
▁zo	-10.4465
▁parzialmente	-10.4465
▁tennis	-10.4466
▁attua	-10.448
▁seguì	-10.4482
onale	-10.4486
essere	-10.4488
▁utilizzo	-10.4491
▁intra	-10.4497
▁vini	-10.4499
▁nasa	-10.4504
▁rom	-10.4504
▁scorre	-10.4505
cini	-10.4507
por	-10.4508
▁privati	-10.4509
▁assunto	-10.4512
▁teresa	-10.4513
▁reno	-10.4517
▁gravità	-10.4518
ttico	-10.4518
▁sarda	-10.452
goni	-10.4521
▁navale	-10.4523
▁applicazione	-10.4526
▁dovevano	-10.4526
gel	-10.4529
▁retro	-10.4535
▁we	-10.4535
rese	-10.4538
▁color	-10.4544
▁errori	-10.4545
▁effettuare	-10.4545
▁300	-10.4545
tui	-10.4547
asia	-10.4547
▁gallia	-10.4555
▁jan	-10.4556
▁spagnola	-10.4559
▁palermo	-10.4559
▁ministri	-10.4559
▁nazisti	-10.4559
▁digitale	-10.4559
▁pellicola	-10.4559
▁milione	-10.4559
▁sostenere	-10.4559
▁spedizione	-10.456
lf	-10.4569
▁cattedrale	-10.4572
▁molecola	-10.4572
win	-10.4573
evi	-10.4577
▁medi	-10.4578
59	-10.4588
▁usano	-10.4592
▁giunse	-10.4593
▁asia	-10.4604
▁canali	-10.4604
▁artificiale	-10.4606
▁dapprima	-10.4606
▁sostanzialmente	-10.4606
▁permise	-10.4606
▁signore	-10.4608
▁italo	-10.4611
▁ix	-10.4612
▁extra	-10.4615
▁avversari	-10.4616
zzate	-10.4616
▁alfa	-10.4619
▁voci	-10.462
attrice	-10.4626
arsi	-10.4627
▁voleva	-10.4627
▁rientra	-10.4633
▁sce	-10.4633
letti	-10.4635
▁spo	-10.4637
▁adotta	-10.4638
▁rame	-10.4641
▁rai	-10.4642
▁geografica	-10.4647
▁affianca	-10.4653
▁percentuale	-10.4653
▁specifiche	-10.4653
▁ripresa	-10.4653
▁conobbe	-10.4653
▁1949	-10.4654
▁posiziona	-10.466
▁can	-10.466
▁regolamento	-10.4662
▁deboli	-10.4666
▁considerando	-10.4668
▁andare	-10.4668
▁rilascia	-10.4672
▁lì	-10.4672
zen	-10.4673
▁tenere	-10.468
▁aumentare	-10.468
08	-10.4681
▁progressi	-10.4682
grafiche	-10.4688
▁segnale	-10.469
▁veri	-10.4697
▁400	-10.47
▁affaccia	-10.4701
▁costituzionale	-10.4701
▁relativo	-10.4701
▁funzionalità	-10.4702
▁scontro	-10.4703
▁por	-10.4708
▁affronta	-10.4708
▁periodica	-10.471
▁dimostrato	-10.4711
▁tè	-10.4712
▁(15	-10.472
esempio	-10.472
▁macchia	-10.4723
forme	-10.4724
▁colonie	-10.4728
▁coordina	-10.4728
▁stazioni	-10.4731
▁mandato	-10.4734
bell	-10.4738
▁unione	-10.4738
▁assegna	-10.474
▁fru	-10.4744
▁abbandona	-10.4748
▁chiusura	-10.4749
▁ottenendo	-10.4749
odierna	-10.4749
▁sorella	-10.4749
▁1983	-10.475
▁alfred	-10.475
▁dettagli	-10.4751
▁nostro	-10.4751
▁1919	-10.4751
▁funzionamento	-10.4752
▁calcola	-10.4753
use	-10.4761
▁esteri	-10.4762
umi	-10.4768
osservazione	-10.4769
▁istruzione	-10.478
▁potrebbero	-10.4782
▁pista	-10.4783
ang	-10.479
rici	-10.4791
lan	-10.4793
▁sam	-10.4796
▁occorre	-10.4797
▁specifici	-10.4797
▁1947	-10.4798
▁fredda	-10.4798
▁architettura	-10.4799
▁aperti	-10.4799
▁anelli	-10.4801
▁fama	-10.4804
▁archi	-10.481
nis	-10.4812
▁esprime	-10.4813
ham	-10.4814
elle	-10.4815
▁attenzione	-10.4819
cioè	-10.4821
▁pale	-10.4822
done	-10.4823
▁planetari	-10.4832
_10	-10.4835
▁copia	-10.4836
▁pala	-10.4836
curi	-10.4839
sua	-10.4839
mmo	-10.484
▁raggruppa	-10.4841
▁distinti	-10.4844
▁codifica	-10.4845
▁fili	-10.4846
▁1974	-10.4846
▁precipitazioni	-10.4847
duca	-10.4852
▁russa	-10.4853
▁sfera	-10.4857
elezione	-10.4858
▁ricordano	-10.4859
03	-10.486
▁cade	-10.4863
▁torrente	-10.4866
esterno	-10.4869
▁successore	-10.4871
▁curva	-10.4873
sina	-10.4879
otto	-10.488
▁definiti	-10.4884
des	-10.4887
dove	-10.4888
▁competizione	-10.4893
▁denominata	-10.4893
aldo	-10.4894
▁quadro	-10.4894
▁sportivo	-10.4894
▁professionisti	-10.4895
▁1985	-10.4895
▁1934	-10.4895
▁pertini	-10.49
▁avvenuto	-10.49
▁rendendo	-10.4901
usa	-10.4902
autostrada	-10.4904
▁informa	-10.4909
▁studiare	-10.491
▁luci	-10.4911
▁contengono	-10.4913
entrata	-10.4918
▁marca	-10.4918
▁implica	-10.4919
ev	-10.4921
dente	-10.4922
▁lineare	-10.4931
interazione	-10.4938
assedio	-10.4939
▁avanza	-10.494
▁impossibile	-10.4942
▁tribù	-10.4942
▁vietnam	-10.4942
ammasso	-10.4942
▁1981	-10.4943
▁esterna	-10.4944
▁decine	-10.4944
cato	-10.4944
▁contea	-10.4945
▁accusa	-10.495
▁considerazione	-10.4954
▁xi	-10.496
autorità	-10.4965
▁rappresentanti	-10.4966
▁trattamento	-10.4966
▁regolari	-10.4969
detto	-10.4969
▁70	-10.4989
▁(16	-10.499
▁iniziali	-10.499
▁dibattito	-10.4991
▁finlandia	-10.4991
▁mammiferi	-10.4991
▁monarchia	-10.4991
▁promozione	-10.4991
▁etnie	-10.4991
▁completo	-10.4992
▁essenzialmente	-10.4992
▁propone	-10.4994
rdo	-10.4994
zer	-10.4994
▁orienta	-10.4994
▁brano	-10.4997
▁germanico	-10.4998
iso	-10.5001
▁creata	-10.5005
pio	-10.5005
▁diventando	-10.501
▁armati	-10.5012
▁elettro	-10.5012
▁basilica	-10.5014
▁variante	-10.5015
▁coppi	-10.5016
▁parlare	-10.5017
▁48	-10.5021
rini	-10.5025
tum	-10.5025
▁operai	-10.5025
grafo	-10.5028
mani	-10.5029
▁ke	-10.503
ene	-10.5042
▁prodotta	-10.5043
▁reg	-10.5043
▁cast	-10.5043
▁fallimento	-10.5045
▁tocca	-10.5047
▁emissione	-10.5049
▁austriaca	-10.5049
▁diretti	-10.5051
72	-10.5052
▁cru	-10.5055
▁colline	-10.5057
spin	-10.5058
▁banche	-10.506
città	-10.5066
prima	-10.5066
▁caro	-10.5074
▁moti	-10.5079
▁autonoma	-10.5084
▁interpreta	-10.5089
▁dona	-10.5089
▁industrie	-10.509
▁racconti	-10.509
▁rommel	-10.509
▁domanda	-10.509
▁distretto	-10.509
▁suddivisione	-10.5091
▁pin	-10.5093
pia	-10.5093
4,	-10.5097
▁conservazione	-10.5103
▁ossigeno	-10.5104
pos	-10.5104
▁alberto	-10.5106
▁rinnova	-10.5106
tempo	-10.5108
▁cristo	-10.5112
▁vescovi	-10.5115
tru	-10.5117
▁obiettivo	-10.512
ms	-10.5121
nate	-10.5128
▁biologia	-10.5129
▁necessari	-10.513
▁impiega	-10.514
▁joseph	-10.514
▁guadagna	-10.514
▁stagioni	-10.514
▁insediamenti	-10.5142
▁concezione	-10.5146
▁separazione	-10.5148
▁comprendeva	-10.5157
▁albert	-10.5158
▁merci	-10.5161
▁carro	-10.5162
▁occupata	-10.5165
▁scu	-10.5169
▁michele	-10.5171
▁spazi	-10.5184
▁precisa	-10.5184
▁diffusi	-10.5188
▁affinché	-10.519
▁ricostruzione	-10.519
▁aggiunti	-10.519
▁satelliti	-10.519
▁fisici	-10.519
▁austro	-10.5191
▁1969	-10.5191
▁benefici	-10.5191
▁1922	-10.5191
▁espressione	-10.5192
▁radice	-10.5194
▁combinazione	-10.5199
▁siena	-10.5201
▁patria	-10.5204
▁cane	-10.5205
▁gode	-10.5206
temp	-10.5212
▁metallico	-10.5212
num	-10.5214
"»	-10.5216
attenzione	-10.5217
esposizione	-10.5217
aiuto	-10.5218
▁telefono	-10.5218
▁client	-10.522
▁elettrone	-10.5221
▁abbiamo	-10.5223
▁presentato	-10.5224
▁condotta	-10.5225
▁goti	-10.5228
▁assumere	-10.5234
▁contributi	-10.524
▁traduzione	-10.524
▁residente	-10.524
▁personali	-10.524
▁riproduzione	-10.5241
▁conoscenze	-10.5241
▁1914	-10.5242
▁giunta	-10.5242
▁popolarità	-10.5244
▁televisione	-10.5247
▁quinta	-10.5247
▁persino	-10.5248
▁flo	-10.525
▁reparti	-10.525
▁vivo	-10.5254
▁cessa	-10.5261
ntina	-10.5264
anna	-10.5265
dosso	-10.5268
▁interi	-10.527
58	-10.5274
arca	-10.5275
=1	-10.5281
▁comunisti	-10.5283
▁marche	-10.5287
▁calde	-10.5288
▁intero	-10.5289
▁competizioni	-10.5291
▁virtù	-10.5291
▁introdotta	-10.5291
▁simmetria	-10.5291
rgli	-10.5291
▁cita	-10.5292
▁1979	-10.5292
▁1935	-10.5292
ap	-10.5293
▁luca	-10.5293
▁gla	-10.5294
▁originali	-10.5296
progressivamente	-10.5299
ise	-10.5299
▁recentemente	-10.53
▁retta	-10.5307
▁bel	-10.5311
▁aria	-10.5318
1.	-10.532
▁vive	-10.5322
assenza	-10.5324
▁artistica	-10.5335
▁sviluppare	-10.5337
▁domenica	-10.5341
▁religiosa	-10.5341
▁discussione	-10.5341
stato	-10.5341
▁testimonianze	-10.5342
▁produttore	-10.5343
▁confederazione	-10.5344
▁matrice	-10.5347
▁gia	-10.5347
ves	-10.5349
▁ipotizza	-10.5351
▁leggere	-10.5352
▁campioni	-10.5356
nz	-10.5356
nello	-10.5361
▁reich	-10.5372
rappresentazione	-10.5374
▁cause	-10.5381
▁articolo	-10.5389
▁vivere	-10.5391
▁commemora	-10.5392
▁religioso	-10.5392
▁celesti	-10.5392
equatore	-10.5393
▁lettura	-10.5393
▁esterni	-10.5393
▁finalmente	-10.5394
▁1988	-10.5395
▁sportiva	-10.5395
▁altra	-10.5396
▁quinto	-10.5397
▁temporale	-10.5398
▁demo	-10.54
tosi	-10.5414
▁tornare	-10.5416
▁her	-10.5416
▁spiegare	-10.5418
informazione	-10.5422
elettrone	-10.5423
▁conoscere	-10.5441
▁tim	-10.5442
▁schiera	-10.5444
▁residenza	-10.5444
▁settecento	-10.5444
▁sicilie	-10.5444
▁statua	-10.5444
▁1962	-10.5444
▁1966	-10.5445
▁1967	-10.5445
esplosione	-10.5447
▁ampiamente	-10.5449
▁navigazione	-10.545
▁partecipare	-10.5451
▁epi	-10.5451
▁q	-10.5453
▁dichiarazione	-10.5454
▁singola	-10.5455
har	-10.5457
▁creati	-10.5459
▁caldo	-10.5469
▁privato	-10.5469
▁descrivere	-10.547
▁devast	-10.5477
▁considerate	-10.5477
senti	-10.5487
▁free	-10.5488
▁serve	-10.5489
▁puro	-10.5491
▁gauguin	-10.5495
▁includono	-10.5495
▁bambino	-10.5495
▁1977	-10.5495
▁contenente	-10.5495
▁smith	-10.5495
▁confronto	-10.5495
▁oscura	-10.5496
▁incorpora	-10.5496
▁scoprì	-10.5497
▁1925	-10.5498
asso	-10.5499
▁estesa	-10.5499
▁boschi	-10.55
▁mus	-10.5501
▁permettere	-10.5502
len	-10.5508
▁informatica	-10.5509
▁pubblicati	-10.5511
▁creando	-10.5521
dr	-10.5522
▁cala	-10.5522
▁36	-10.5523
▁royal	-10.5524
interpretazione	-10.5528
▁dov	-10.5529
▁serra	-10.5529
▁moro	-10.5532
rti	-10.5532
▁santi	-10.5538
▁siti	-10.5543
▁distinzione	-10.5547
▁governi	-10.5547
▁scacchi	-10.5548
▁ancor	-10.5548
▁aerea	-10.5549
▁partite	-10.5552
▁industria	-10.5552
▁cifra	-10.5553
51	-10.556
gor	-10.556
ant	-10.556
▁supernova	-10.5562
▁piacenza	-10.5566
▁danese	-10.5571
▁eventuali	-10.5571
▁usi	-10.5573
▁abba	-10.5576
duce	-10.5577
▁adottata	-10.5578
▁verona	-10.5586
ardo	-10.5587
▁andava	-10.5587
▁delimita	-10.5591
▁affrontare	-10.5592
scende	-10.5592
▁conti	-10.5598
▁richieste	-10.5599
▁risalgono	-10.5599
▁rifiutò	-10.5599
▁trasferì	-10.5599
▁conseguenze	-10.5599
▁tenuta	-10.56
infanzia	-10.56
▁fotografia	-10.5601
bat	-10.5612
▁lenin	-10.5613
monte	-10.5615
asi	-10.5618
▁diventò	-10.562
▁nubi	-10.5623
▁mc	-10.5626
dine	-10.5628
▁fornito	-10.5635
orientale	-10.5636
para	-10.564
▁insegna	-10.5645
▁determinata	-10.5648
▁andrea	-10.5649
▁comandi	-10.5651
▁1928	-10.5653
▁raramente	-10.5653
▁favori	-10.5658
▁provinciali	-10.566
porta	-10.5662
▁viventi	-10.5665
▁popola	-10.5667
▁enorme	-10.567
und	-10.5679
ix	-10.568
atori	-10.5682
▁35	-10.5683
▁basti	-10.5684
cen	-10.5685
espansione	-10.5685
▁(200	-10.569
▁autorizza	-10.5692
iani	-10.5694
viii	-10.5694
4%	-10.5698
▁risalire	-10.5701
insegnamento	-10.5701
▁cia	-10.5702
▁fiducia	-10.5704
▁introdusse	-10.5704
▁positivo	-10.5704
▁malattia	-10.5704
▁conclusione	-10.5704
▁capace	-10.5705
▁1937	-10.5705
▁effettivamente	-10.5707
▁finché	-10.5707
▁pci	-10.5707
1%	-10.571
▁decide	-10.5718
▁einstein	-10.572
52	-10.5727
▁brani	-10.5728
5%	-10.5728
▁guidato	-10.5732
▁circonda	-10.5738
▁rimasero	-10.5745
▁dispositivi	-10.5757
▁presidenza	-10.5757
▁sostiene	-10.5757
▁celebri	-10.5757
▁violenza	-10.5757
▁palazzi	-10.5758
▁1964	-10.5758
vini	-10.5758
▁1954	-10.5758
▁proposto	-10.5759
▁33	-10.5761
▁disponibilità	-10.5762
▁rif	-10.5764
▁arabi	-10.5765
adozione	-10.5766
▁nera	-10.5766
▁viola	-10.5769
doni	-10.5769
▁crosta	-10.5773
nova	-10.5773
▁descritto	-10.5774
▁sperimentale	-10.5775
▁bande	-10.5779
▁interpretazione	-10.5785
▁ob	-10.5792
ufficio	-10.5792
▁onda	-10.5794
▁divennero	-10.5795
▁installa	-10.5801
▁cd	-10.5805
log	-10.5807
▁nor	-10.5808
▁combattimento	-10.581
▁istituito	-10.581
▁varsavia	-10.581
▁inserito	-10.581
▁ucciso	-10.581
▁solleva	-10.581
▁garanti	-10.581
ic	-10.5812
▁messi	-10.5814
▁quadrati	-10.5814
▁cadde	-10.5815
offerta	-10.5815
▁urbani	-10.5817
▁ridotto	-10.5817
▁lasciare	-10.5825
▁organizzati	-10.5829
8%	-10.5831
▁ritira	-10.5835
▁45	-10.5843
late	-10.5847
▁genetica	-10.5847
▁open	-10.5852
este	-10.5852
="15	-10.5855
▁togliatti	-10.5864
▁soluzioni	-10.5864
▁ebraico	-10.5864
▁pagine	-10.5866
▁tendenza	-10.5868
▁comunicazioni	-10.5868
ascesa	-10.5871
abbazia	-10.5872
▁scopi	-10.5872
▁tardo	-10.5872
▁sorgenti	-10.5875
▁chiuso	-10.5876
▁marcia	-10.5879
mare	-10.5881
▁morta	-10.5883
▁lib	-10.5883
▁compagnie	-10.5887
▁irlandese	-10.5887
▁giudica	-10.5889
▁originario	-10.5889
▁viaggi	-10.589
lett	-10.589
▁trento	-10.5892
estensione	-10.5901
▁bol	-10.5906
▁mala	-10.5906
▁seguono	-10.5907
▁solari	-10.5912
▁tonnellate	-10.5917
▁1963	-10.5917
▁istruzioni	-10.5917
▁vendita	-10.5918
indagine	-10.5919
▁metal	-10.592
approvazione	-10.5921
▁esistenza	-10.5926
▁stabilità	-10.5929
▁pensare	-10.5933
▁derivata	-10.5956
▁mos	-10.5958
▁questioni	-10.5959
▁system	-10.5965
▁telefoni	-10.5968
▁distinguere	-10.5968
▁implementa	-10.597
▁conflitti	-10.5971
▁religiosi	-10.5971
▁vettore	-10.5972
▁nuoto	-10.5972
▁origina	-10.5972
▁tentò	-10.5973
▁1917	-10.5973
▁codici	-10.5973
▁ruoli	-10.5975
▁idro	-10.5984
meno	-10.5985
▁ph	-10.599
▁compila	-10.5992
▁liberali	-10.5993
▁coordinate	-10.5994
▁alternativa	-10.5995
▁rami	-10.5996
né	-10.5997
▁esser	-10.6002
▁citato	-10.6003
▁aggiunge	-10.6009
ossigeno	-10.6011
metro	-10.6018
▁parlato	-10.602
▁generato	-10.602
tezza	-10.6022
versi	-10.6024
_9	-10.6024
▁cattolici	-10.6026
▁matematici	-10.6026
▁michael	-10.6026
▁pontefice	-10.6026
elettromagnetica	-10.6026
▁elettrico	-10.6026
▁minerale	-10.6026
▁fossili	-10.6026
▁padova	-10.6026
▁declino	-10.6027
▁totalmente	-10.6027
▁1952	-10.6027
▁novara	-10.6031
ben	-10.6031
cker	-10.6036
ov	-10.6038
▁enti	-10.6051
▁frase	-10.6055
▁riva	-10.6057
tana	-10.6058
▁riferi	-10.6058
▁mit	-10.6064
▁segreta	-10.6065
autunno	-10.6065
▁stabilire	-10.6065
dato	-10.6067
▁comunica	-10.6067
▁conversione	-10.6068
▁natale	-10.607
ala	-10.6072
data	-10.6073
▁insedia	-10.6075
ncia	-10.608
▁casuale	-10.608
▁istituti	-10.608
▁partecipò	-10.608
▁complessa	-10.608
▁situazioni	-10.608
▁1975	-10.6082
▁notizie	-10.6082
▁negozi	-10.6083
7%	-10.6085
van	-10.6094
▁superare	-10.6096
▁rice	-10.6102
▁formazioni	-10.6105
mal	-10.611
▁abbandonato	-10.6113
▁funziona	-10.6114
▁apparente	-10.6115
▁comprendere	-10.6117
celli	-10.612
cip	-10.6124
attore	-10.6129
▁design	-10.6129
lico	-10.6134
▁racconto	-10.6135
▁parlamentare	-10.6135
▁urbino	-10.6135
▁proposte	-10.6135
▁sposò	-10.6135
▁freddo	-10.6137
▁normali	-10.614
ui	-10.6141
▁necessariamente	-10.6144
▁ideali	-10.6146
▁dedica	-10.6149
▁fondatore	-10.615
▁fattore	-10.6156
▁piana	-10.6159
▁ku	-10.6161
▁dispone	-10.6161
ena	-10.6163
▁unix	-10.6165
▁sesto	-10.6165
gr	-10.6166
▁impiegato	-10.6167
▁sho	-10.6168
▁risalent	-10.6172
set	-10.618
lone	-10.6181
▁lombardo	-10.6191
▁prossimità	-10.6191
▁suddivisa	-10.6191
▁sindaco	-10.6191
▁piombo	-10.6192
▁piace	-10.6192
▁alpino	-10.6194
▁corde	-10.6194
▁nemico	-10.6195
▁verità	-10.6196
▁calvi	-10.6199
mata	-10.6203
▁abbiano	-10.6205
="16	-10.6207
▁carico	-10.621
▁tecnologie	-10.6211
bert	-10.6216
unificazione	-10.6216
▁avvicina	-10.6227
="12	-10.6233
▁romane	-10.6238
▁preferi	-10.6239
▁aeroporti	-10.6246
▁cinematografica	-10.6246
▁quotidiano	-10.6246
▁archeologici	-10.6246
▁chimiche	-10.6246
▁stefano	-10.6246
▁prevista	-10.6246
▁sfondo	-10.6246
▁mantello	-10.6247
▁1956	-10.6247
▁ovviamente	-10.6248
▁red	-10.625
▁jack	-10.6251
▁stabilì	-10.6257
▁ripara	-10.6258
▁giunge	-10.6261
pic	-10.6264
▁accelera	-10.6277
bbe	-10.6277
linea	-10.6279
ose	-10.6285
dica	-10.6289
▁fiore	-10.63
▁peraltro	-10.63
▁scarsa	-10.6302
▁possiedono	-10.6302
▁cercò	-10.6302
▁riviste	-10.6302
▁seguita	-10.6302
▁sostenuto	-10.6302
▁polacco	-10.6303
▁cen	-10.6304
▁camp	-10.6306
▁college	-10.6308
altare	-10.6309
enciclopedia	-10.6309
té	-10.631
▁oscar	-10.6311
pin	-10.6314
▁attivi	-10.6321
▁august	-10.6323
▁associata	-10.6324
▁associato	-10.6325
▁stabilito	-10.6326
gine	-10.6331
sport	-10.6331
rg	-10.6331
geo	-10.6332
▁ideale	-10.6334
▁interpretato	-10.6334
▁azzurro	-10.6339
ieri	-10.6339
▁arc	-10.634
▁oceani	-10.6342
yn	-10.6343
int	-10.6348
▁animale	-10.6353
="14	-10.6356
▁entità	-10.6357
ges	-10.6358
▁cellula	-10.6358
▁affermò	-10.6358
▁dimostrò	-10.6358
▁continuo	-10.6358
▁mantenne	-10.6358
▁probabile	-10.6358
▁lentamente	-10.6359
▁arturo	-10.6359
▁lugano	-10.6359
▁intanto	-10.636
▁limitato	-10.636
▁voli	-10.636
▁registrato	-10.6362
▁urano	-10.6362
▁consorzio	-10.6366
▁spirale	-10.6366
▁cresce	-10.637
01"	-10.637
nelli	-10.6373
▁on	-10.6374
estremo	-10.6375
▁momenti	-10.6376
▁zi	-10.6377
▁parma	-10.6379
▁individuare	-10.6386
ip	-10.639
▁occupato	-10.6393
▁facciata	-10.6394
dotto	-10.6394
ens	-10.6398
mio	-10.6399
astronomia	-10.6402
▁riga	-10.6403
▁certi	-10.641
▁disegna	-10.641
▁alessandria	-10.6415
▁bensì	-10.6415
▁gauss	-10.6416
▁tanti	-10.6419
illa	-10.6423
rite	-10.6424
▁territoriali	-10.6425
▁costituire	-10.6426
▁guglielmo	-10.6427
▁cli	-10.6428
gil	-10.6436
▁consenso	-10.6436
tesi	-10.6437
▁là	-10.6443
media	-10.6446
om	-10.6447
classi	-10.6463
incontro	-10.6465
tes	-10.6468
▁giornata	-10.6472
▁1961	-10.6472
▁schermo	-10.6472
▁protetto	-10.6472
▁svolto	-10.6472
▁scientifici	-10.6472
▁polveri	-10.6472
▁collasso	-10.6473
▁basati	-10.6474
▁conduce	-10.6482
gato	-10.6485
▁sf	-10.6485
▁soddisfa	-10.6488
▁braccio	-10.6491
▁riguardanti	-10.6497
▁cara	-10.6506
natura	-10.651
cultura	-10.6514
occidente	-10.6519
antonio	-10.6523
▁(4	-10.6526
▁pesante	-10.6526
▁professore	-10.6527
▁scomparsa	-10.6529
▁tribunale	-10.6529
▁grammatica	-10.6529
▁camere	-10.6532
▁molise	-10.6535
▁porzione	-10.6538
▁colli	-10.6538
▁percorre	-10.6539
▁dimostrazione	-10.6545
ciano	-10.6547
▁collina	-10.655
▁esperienza	-10.6554
fl	-10.6556
="18	-10.6558
▁verdi	-10.6558
▁spaziali	-10.6559
▁ammasso	-10.656
▁proclama	-10.656
▁trattava	-10.6571
sy	-10.6574
tipi	-10.6577
mes	-10.6578
▁versa	-10.658
▁leggera	-10.658
emissione	-10.658
sfera	-10.6583
▁fila	-10.6586
▁esattamente	-10.6586
▁distribuito	-10.6587
▁contadini	-10.6587
▁brillanti	-10.6588
▁edificio	-10.6591
esecuzione	-10.6593
▁pesce	-10.6594
▁occidente	-10.6596
▁salvo	-10.66
▁risultano	-10.6602
▁spese	-10.6602
▁chiari	-10.6604
▁johann	-10.6605
▁neve	-10.6607
gie	-10.6611
▁duomo	-10.6611
▁amministra	-10.6611
▁autonomia	-10.6621
▁cantoni	-10.6623
▁sonda	-10.6628
▁bob	-10.6629
▁allende	-10.6629
▁colla	-10.6629
▁priva	-10.663
▁eredita	-10.6632
▁effettua	-10.6636
▁argento	-10.6638
▁ispirato	-10.6641
gal	-10.6642
tata	-10.6643
▁apparve	-10.6644
▁suddiviso	-10.6644
▁tessuti	-10.6644
▁thomas	-10.6644
▁ordin	-10.6653
▁rilevante	-10.6656
▁ran	-10.6661
tal	-10.6666
ska	-10.6677
▁cibo	-10.6681
_12	-10.6683
▁intervento	-10.6684
urban	-10.6686
▁cellulare	-10.6686
▁ciascun	-10.6689
▁arrivo	-10.6692
▁avvia	-10.6695
tologia	-10.6697
▁lunghe	-10.6699
▁britanniche	-10.6702
▁occasioni	-10.6702
▁riconosciuta	-10.6702
▁teatrale	-10.6702
▁toponimo	-10.6702
▁satellite	-10.6702
▁pittori	-10.6703
▁anziché	-10.6703
▁riferimenti	-10.6705
▁calo	-10.6705
▁interazioni	-10.6706
▁possano	-10.6707
intervista	-10.6707
▁spostamento	-10.6707
▁pieve	-10.6709
▁errore	-10.671
▁mito	-10.6711
▁globale	-10.6711
sky	-10.6713
▁divise	-10.6713
="13	-10.6715
ig	-10.6718
ombra	-10.672
ning	-10.6722
▁attori	-10.6734
▁terme	-10.6738
▁uscita	-10.6741
▁utili	-10.6743
▁ospitato	-10.6747
▁monumento	-10.6761
▁espressa	-10.6761
▁pagina	-10.6761
abruzzo	-10.6761
▁amministrative	-10.6761
▁superficiale	-10.6762
▁protocollo	-10.6763
ach	-10.6767
▁riforme	-10.6769
gliano	-10.677
▁monetaria	-10.677
▁preparazione	-10.6771
▁limitata	-10.6772
hen	-10.6772
▁criteri	-10.6774
▁chiana	-10.6774
▁aiuta	-10.6779
▁scor	-10.6787
▁episodio	-10.6789
genti	-10.6793
vor	-10.6796
▁leghe	-10.6801
▁mostrano	-10.6803
bru	-10.6812
▁pil	-10.6813
▁rapida	-10.6814
▁democrazia	-10.6819
▁rimangono	-10.6819
▁tessuto	-10.6819
▁condivide	-10.6819
▁scoppio	-10.6819
▁segreto	-10.682
▁calabria	-10.682
▁costanti	-10.682
="17	-10.6821
ido	-10.6822
▁raffi	-10.6822
▁1900	-10.6823
▁anna	-10.6823
▁1859	-10.6823
ira	-10.6825
▁precisamente	-10.6826
cur	-10.6828
▁signori	-10.6828
▁socio	-10.6829
icamente	-10.6834
▁abitati	-10.6844
▁combattere	-10.6848
erba	-10.685
▁diventata	-10.6858
▁vincere	-10.6859
▁registra	-10.686
nn	-10.6861
toria	-10.6862
gione	-10.6863
▁basse	-10.6865
chio	-10.6866
decenni	-10.6873
▁nutr	-10.6875
altitudine	-10.6879
▁gesù	-10.6879
▁scientifiche	-10.6879
▁chicago	-10.6879
▁uniforme	-10.6879
▁1965	-10.688
▁federazione	-10.688
▁ciclismo	-10.6881
▁stacca	-10.689
cis	-10.6891
iv	-10.6893
fila	-10.6894
▁garantire	-10.6894
▁insiemi	-10.6899
▁meso	-10.6901
bur	-10.6913
urss	-10.6917
▁rappresentati	-10.6927
▁riportato	-10.6931
nari	-10.6933
▁defini	-10.6935
▁conosciute	-10.6938
▁meridionali	-10.6938
▁principato	-10.6938
adesione	-10.6939
▁dinamica	-10.6939
▁ascoli	-10.694
▁ricchezza	-10.6941
▁binari	-10.6941
▁copie	-10.6944
▁vetro	-10.6945
▁cariche	-10.6947
▁apple	-10.6958
american	-10.6959
▁1000	-10.6963
▁sirio	-10.6964
fin	-10.6964
▁(14	-10.6965
avanzata	-10.6965
▁domini	-10.6965
nca	-10.6966
artista	-10.6967
▁nicola	-10.6975
▁nerone	-10.6983
▁pubblicate	-10.6983
egitto	-10.6994
applicazione	-10.6994
formula	-10.6995
ian	-10.6998
▁agricola	-10.6998
▁presentò	-10.6998
▁batman	-10.6998
▁vapore	-10.6998
▁reperti	-10.6998
▁pietre	-10.6999
▁testimonianza	-10.7
▁cent	-10.7
▁ritenuto	-10.7001
uranio	-10.7002
▁turing	-10.7002
100	-10.7006
▁chiaramente	-10.7008
▁articola	-10.7009
▁massiccio	-10.701
super	-10.7014
scritto	-10.7016
▁carl	-10.7017
▁roberto	-10.7017
▁cambiare	-10.7018
▁concerto	-10.7019
▁classificati	-10.7019
▁fascismo	-10.7026
accelerazione	-10.7032
▁oscilla	-10.7032
gl	-10.7033
▁vice	-10.7042
wh	-10.7043
ban	-10.7047
▁destinata	-10.7056
centi	-10.7056
▁cancelliere	-10.7058
▁elementare	-10.7058
▁straniera	-10.7058
▁essenziale	-10.7058
▁desidera	-10.7058
▁illustra	-10.7059
▁rapido	-10.7059
▁bombardamenti	-10.706
▁favorevole	-10.706
▁bonifica	-10.7063
ssione	-10.7064
▁spalle	-10.7064
invenzione	-10.7065
▁macro	-10.7075
▁realizzati	-10.7075
▁hollywood	-10.7075
▁voto	-10.7077
▁lorenzo	-10.7078
organi	-10.7082
▁tranne	-10.7084
mail	-10.7087
▁bla	-10.7089
▁bus	-10.7089
liche	-10.7093
▁dimostrare	-10.7095
▁alterna	-10.7095
rmoni	-10.71
▁peggior	-10.7106
dire	-10.7108
legge	-10.711
script	-10.7111
gon	-10.7115
metria	-10.7118
▁meccanismi	-10.7119
▁neutrini	-10.7119
▁liquido	-10.7119
▁tecnici	-10.7119
▁uguali	-10.7119
▁compare	-10.7119
▁negativa	-10.712
▁ritiro	-10.712
▁1951	-10.712
▁1959	-10.712
▁sapere	-10.712
ologia	-10.7122
▁concesse	-10.7123
▁alberi	-10.7124
▁controllare	-10.7128
9%	-10.7128
▁spinge	-10.713
▁fonde	-10.7132
mette	-10.7136
▁formando	-10.7139
▁vince	-10.7141
terno	-10.7146
▁quaranta	-10.7149
▁assenza	-10.7151
▁arma	-10.7151
▁circolare	-10.7151
▁game	-10.7159
▁vincitori	-10.716
▁permettendo	-10.7162
▁decima	-10.7164
cella	-10.7166
gy	-10.7166
esse	-10.7171
▁calcolare	-10.7171
▁marine	-10.7174
▁privilegi	-10.7175
▁ricche	-10.7178
▁norvegia	-10.718
▁santuario	-10.718
astronomo	-10.718
▁danneggia	-10.718
▁disegni	-10.7181
ney	-10.7182
her	-10.7185
="19	-10.7186
▁2023	-10.7187
neo	-10.7188
▁inaugurato	-10.7191
front	-10.7192
▁messina	-10.7193
▁space	-10.7195
▁pose	-10.7196
▁lanciato	-10.7203
▁tipiche	-10.7208
▁affari	-10.7215
▁cassa	-10.7216
ndoli	-10.7218
▁corti	-10.7218
▁svolgono	-10.7241
▁zolfo	-10.7241
▁polacchi	-10.7241
▁produzioni	-10.7241
▁sicuramente	-10.7241
▁espresse	-10.7241
▁dolce	-10.7241
▁dotata	-10.7243
▁interventi	-10.7243
▁acidi	-10.7245
▁india	-10.7248
▁ridurre	-10.7248
▁selezione	-10.7251
▁bari	-10.7254
▁pesaro	-10.7257
old	-10.7258
scher	-10.726
▁definite	-10.7262
▁rispetta	-10.7262
tani	-10.7262
▁naviga	-10.7263
▁karl	-10.7263
▁mobile	-10.7264
▁mitologia	-10.7264
▁statistiche	-10.7266
▁attira	-10.7267
▁conservato	-10.7267
▁influenze	-10.7267
▁approccio	-10.7268
▁private	-10.7268
▁carne	-10.727
kin	-10.7272
▁inviato	-10.7272
▁riso	-10.7275
▁quadri	-10.7279
lismo	-10.7282
mettono	-10.7288
▁protesta	-10.7294
impresa	-10.7302
▁censimento	-10.7303
▁contribuì	-10.7303
▁semplifica	-10.7303
▁savona	-10.7303
▁intitolata	-10.7303
▁minoranza	-10.7303
▁espressioni	-10.7304
▁distante	-10.7308
eccezione	-10.7311
▁coltivazione	-10.7315
usi	-10.7317
▁bosco	-10.7319
▁marino	-10.7323
far	-10.7323
ken	-10.7324
▁conclude	-10.7324
porto	-10.7325
ky	-10.7328
▁terreni	-10.733
▁sperimentali	-10.7332
▁tensione	-10.7333
misero	-10.7335
mori	-10.7335
integrazione	-10.7338
sser	-10.7349
▁maschi	-10.7351
▁finali	-10.7351
▁osservata	-10.7355
62	-10.7363
lizzazione	-10.7364
anima	-10.7365
▁svizzero	-10.7365
▁riflette	-10.7365
▁sovietiche	-10.7365
guar	-10.7366
abbandono	-10.7367
▁tiene	-10.7367
▁durò	-10.7368
▁perso	-10.7372
▁privo	-10.7373
▁magno	-10.7375
dipendentemente	-10.7375
▁blues	-10.7377
▁firmato	-10.7377
▁neri	-10.7381
▁portati	-10.7386
▁esseri	-10.7387
▁immagina	-10.7389
▁connessione	-10.739
▁emerge	-10.7393
king	-10.7394
▁conservatori	-10.7395
▁alimenta	-10.74
▁psicologi	-10.7404
zzano	-10.7408
pt	-10.7409
▁xxi	-10.741
fran	-10.7416
▁continue	-10.7428
▁rimasta	-10.7428
▁rare	-10.7428
offensiva	-10.7429
▁venisse	-10.7429
▁consuma	-10.743
▁tevere	-10.743
▁nova	-10.7432
▁roccia	-10.7432
durre	-10.7441
▁rica	-10.7442
▁corto	-10.7442
▁brucia	-10.7444
▁osservato	-10.7451
nomi	-10.7453
mari	-10.7454
▁martino	-10.7454
▁opposto	-10.7458
▁volto	-10.7458
can	-10.746
▁lecco	-10.7461
▁pura	-10.7464
▁invia	-10.7468
▁cicli	-10.747
▁equivalente	-10.7471
orso	-10.7473
ccu	-10.7474
▁scrittori	-10.7475
▁stup	-10.7479
sauri	-10.748
▁pena	-10.7481
forte	-10.7488
detta	-10.7489
▁bianchi	-10.749
▁esigenze	-10.749
▁heisenberg	-10.749
▁massicce	-10.749
▁feudo	-10.749
▁riserve	-10.749
▁brasile	-10.749
▁demografica	-10.7491
▁videogiochi	-10.7491
▁espresso	-10.7491
▁fol	-10.7491
▁guarda	-10.7491
▁1958	-10.7491
nome	-10.7492
▁1932	-10.7492
occidentale	-10.7493
▁inviò	-10.7494
▁ridotta	-10.7496
▁significativo	-10.7496
▁vicinanza	-10.7497
▁gaber	-10.7497
▁team	-10.7498
▁incidente	-10.75
▁modena	-10.7501
▁germani	-10.7502
tenenti	-10.7503
alba	-10.7504
▁cancella	-10.7515
▁fatte	-10.7523
▁primaria	-10.7524
pot	-10.7529
▁cima	-10.7529
corre	-10.7532
▁bruno	-10.7541
▁pesci	-10.7548
▁scar	-10.7548
cano	-10.7552
▁televisiva	-10.7554
▁concilio	-10.7554
▁missioni	-10.7554
▁foresta	-10.7554
ficazione	-10.7556
mbri	-10.7558
arresto	-10.7558
▁turistico	-10.756
▁ampia	-10.7562
▁adriatico	-10.7564
ball	-10.7565
▁34	-10.7568
▁cercare	-10.7569
▁more	-10.7574
hr	-10.7575
ferì	-10.7581
form	-10.7583
amante	-10.7588
▁indipendenza	-10.7588
tello	-10.7597
▁eletti	-10.7597
▁she	-10.76
▁migliora	-10.7604
▁aiuto	-10.7606
rmi	-10.7613
▁democratica	-10.7617
acronimo	-10.7617
▁corazzata	-10.7617
▁concerti	-10.7617
▁umane	-10.7617
▁elevate	-10.7617
▁vincenzo	-10.7618
▁convento	-10.7618
▁catene	-10.7619
▁1955	-10.7619
▁impatto	-10.7624
▁center	-10.7625
▁vecchi	-10.7632
▁nobile	-10.7634
▁creò	-10.7637
▁nazionalità	-10.7638
ons	-10.7639
▁taglio	-10.7642
uch	-10.7645
▁estate	-10.7646
▁corea	-10.7647
▁imperiali	-10.7649
▁gallo	-10.765
▁progettato	-10.7659
tel	-10.7661
▁soff	-10.7663
gini	-10.7667
▁genti	-10.767
▁ritorna	-10.7671
erano	-10.768
grafici	-10.7681
▁giornale	-10.7681
▁seicento	-10.7681
▁orbite	-10.7682
▁negativo	-10.7683
▁boreale	-10.7683
▁responsabilità	-10.7684
▁bombardamento	-10.7684
▁collezioni	-10.7686
▁liberale	-10.7686
▁partendo	-10.769
▁ken	-10.769
▁partecipanti	-10.7691
mber	-10.7691
▁progettazione	-10.7692
▁sovrani	-10.7694
cht	-10.7695
▁estera	-10.7701
aumento	-10.7702
▁raf	-10.7704
▁catalog	-10.7714
▁esistente	-10.7714
▁scritte	-10.7721
oriente	-10.7721
▁lazio	-10.7722
stati	-10.7734
▁frequente	-10.774
▁veloce	-10.774
▁mina	-10.7741
▁impegna	-10.7746
▁latitudine	-10.7746
▁society	-10.7746
▁olimpiade	-10.7746
▁carcere	-10.7746
▁milanese	-10.7746
▁cinesi	-10.7746
▁aggira	-10.7747
▁1921	-10.7748
▁alex	-10.7748
▁belle	-10.7749
opposizione	-10.7752
▁lord	-10.7753
stella	-10.7753
▁piemontese	-10.7757
▁intensi	-10.7758
▁solido	-10.7761
▁costruiti	-10.7762
▁mont	-10.7766
mico	-10.7771
anza	-10.7773
▁fedeli	-10.7774
▁impiegati	-10.7777
tella	-10.7781
▁impre	-10.7785
▁migliorare	-10.7793
▁colpito	-10.78
10"	-10.7808
▁applicata	-10.7809
▁algoritmi	-10.7811
▁qualcosa	-10.7811
▁sostituzione	-10.7811
▁lombarda	-10.7811
▁scelse	-10.7811
▁critico	-10.7811
▁contenere	-10.7811
▁strategia	-10.7811
▁sportive	-10.7811
▁decisioni	-10.7812
▁ultra	-10.7815
▁equilibrio	-10.7816
▁wal	-10.7817
▁volle	-10.7821
ys	-10.7828
▁acquista	-10.7832
stu	-10.7837
▁approvato	-10.7838
asburgo	-10.7842
▁vivono	-10.7846
▁giornalisti	-10.7849
▁console	-10.7859
▁gen	-10.7862
▁ricevere	-10.7868
▁riconoscere	-10.7874
▁nipote	-10.7876
▁capitolo	-10.7876
▁venendo	-10.7876
▁angolare	-10.7877
▁lunghezze	-10.7877
▁configurazione	-10.788
▁condotto	-10.7881
ospedale	-10.7883
costellazione	-10.7884
▁punteggio	-10.7889
▁latini	-10.7897
secondo	-10.7898
▁capitano	-10.7901
▁condiziona	-10.7904
▁influenzato	-10.7905
grafica	-10.791
low	-10.7911
09"	-10.7915
sson	-10.7918
▁arrivando	-10.7919
kan	-10.792
▁indicata	-10.7921
▁giuliano	-10.7922
▁identità	-10.7922
eni	-10.7923
▁canton	-10.7924
▁primato	-10.7936
▁spetta	-10.7938
▁aggiunto	-10.7942
▁canadese	-10.7942
▁stipula	-10.7942
▁seguirono	-10.7942
▁ognuno	-10.7942
▁permanente	-10.7942
▁divinità	-10.7942
▁musicisti	-10.7942
▁pilota	-10.7942
▁distretti	-10.7943
▁dvd	-10.7943
ppure	-10.7943
ah	-10.7944
▁transito	-10.7947
ungheria	-10.795
▁prestazioni	-10.795
▁giudizio	-10.7952
more	-10.7961
▁silicio	-10.7964
occhi	-10.7965
▁sur	-10.7966
▁raccoglie	-10.7967
▁atene	-10.7969
off	-10.7969
▁battista	-10.797
▁vend	-10.7972
▁castelli	-10.7974
▁proprietari	-10.7974
▁solida	-10.7975
▁ricchi	-10.7977
cchio	-10.7987
acido	-10.7993
▁matera	-10.7993
▁funzionari	-10.7996
▁gro	-10.8001
▁drappo	-10.8008
▁incluso	-10.8008
▁1957	-10.801
05"	-10.801
▁producono	-10.8011
▁ya	-10.8012
▁naturalmente	-10.8012
▁sostenne	-10.8014
rsa	-10.8015
▁joan	-10.8018
▁cantante	-10.8019
▁dominante	-10.8021
attiva	-10.8025
▁attive	-10.8027
▁moli	-10.8027
▁distribuzioni	-10.8031
▁terzi	-10.8036
sel	-10.8037
▁portano	-10.8038
▁viii	-10.8041
▁versi	-10.8042
▁fotoni	-10.8043
▁aspetta	-10.8048
verso	-10.8052
▁annuncia	-10.8055
▁aggiunta	-10.8055
▁elenco	-10.8058
▁presero	-10.8061
▁vega	-10.8072
file	-10.8073
shōnen	-10.8075
▁mercurio	-10.8075
▁domenico	-10.8075
▁poesia	-10.8075
▁sportivi	-10.8075
▁1931	-10.8076
▁1953	-10.8077
▁cittadinanza	-10.8081
avversario	-10.8085
▁tv	-10.8085
ulteriore	-10.8085
▁simon	-10.8087
▁accumula	-10.8088
▁dominazione	-10.8088
ampia	-10.809
▁annunci	-10.8092
abitato	-10.8096
oltre	-10.8099
vu	-10.81
▁44	-10.81
▁antoni	-10.8103
▁michel	-10.8104
▁russi	-10.8107
▁termo	-10.8109
▁alba	-10.8111
▁finire	-10.8112
▁atte	-10.8113
▁caratterizzati	-10.8115
▁37	-10.8127
▁enna	-10.8132
▁testimonia	-10.8134
▁scende	-10.8139
▁emana	-10.814
efficienza	-10.8142
▁sforzi	-10.8142
▁medesimo	-10.8142
▁attribuito	-10.8143
▁voluto	-10.8144
arro	-10.8147
▁strategica	-10.8148
▁roll	-10.8152
▁suggeri	-10.8156
▁orbitali	-10.8161
▁fortezza	-10.8162
_11	-10.8164
ram	-10.8167
serv	-10.8176
▁sottolinea	-10.8176
▁patri	-10.8177
▁qualifica	-10.8179
▁lira	-10.8183
amico	-10.8184
▁coloni	-10.8188
▁motore	-10.8188
▁rimanere	-10.8194
▁immagine	-10.8199
esperanto	-10.821
▁femminili	-10.821
▁accettò	-10.821
▁hardware	-10.821
▁licenze	-10.821
▁intellettuali	-10.821
▁troviamo	-10.821
▁materie	-10.821
▁disposizioni	-10.821
▁enormi	-10.8211
▁triangolo	-10.8211
▁pet	-10.8211
▁argomenti	-10.8211
tis	-10.8213
▁francisco	-10.8213
▁guidata	-10.8215
▁corretta	-10.8215
▁mode	-10.8218
▁sostituita	-10.8218
▁viaggia	-10.8219
▁azienda	-10.822
▁folk	-10.8222
▁vitale	-10.8226
sano	-10.8228
terra	-10.8228
guerra	-10.8231
▁gem	-10.8233
▁impone	-10.8234
▁pubblicazioni	-10.8239
▁prosegue	-10.8241
▁porre	-10.8241
▁gestire	-10.8242
▁gente	-10.8244
▁menziona	-10.8249
▁bas	-10.8249
▁rota	-10.825
▁alimentare	-10.8254
▁organizzata	-10.8254
▁impedire	-10.8257
▁65	-10.8258
▁necessarie	-10.8261
▁entrata	-10.8263
▁inclusi	-10.8264
intento	-10.8265
▁gor	-10.8267
▁venire	-10.8272
▁top	-10.8274
▁belli	-10.8274
▁nomenclatura	-10.8278
▁viceversa	-10.8278
▁galleria	-10.8278
▁mantenendo	-10.8278
▁pittura	-10.8278
▁portaerei	-10.8278
▁proteina	-10.8278
▁galattico	-10.8278
▁specula	-10.8278
indeterminazione	-10.8279
▁delibera	-10.8279
▁felice	-10.828
▁lituania	-10.8283
▁us	-10.8284
▁derivato	-10.8284
▁nichel	-10.8285
▁arco	-10.8287
▁big	-10.8288
▁prof	-10.8288
dan	-10.8288
▁miti	-10.829
▁dipendenti	-10.8291
mettere	-10.8298
20"	-10.8299
▁commissario	-10.8303
▁protoni	-10.8304
▁pun	-10.8305
esercizio	-10.8306
nco	-10.8306
▁segnali	-10.8314
eli	-10.8316
▁letteraria	-10.8321
ming	-10.8325
kov	-10.8326
affermazione	-10.8336
▁cristiano	-10.8346
▁football	-10.8346
▁molteplici	-10.8346
▁professionale	-10.8346
▁singole	-10.8348
▁bin	-10.8348
▁disastro	-10.8349
▁vecchie	-10.835
▁gialla	-10.835
gano	-10.835
stituì	-10.8351
▁capitali	-10.8352
fisica	-10.8356
▁venga	-10.8356
▁condusse	-10.8357
capito	-10.8358
iniziativa	-10.836
04"	-10.836
▁certamente	-10.8364
ossi	-10.8365
▁bis	-10.8365
sar	-10.8366
▁imposta	-10.8367
-3	-10.8385
istica	-10.8388
coni	-10.8394
ford	-10.8394
stein	-10.8396
▁rover	-10.8397
▁amiga	-10.8402
▁god	-10.8402
relli	-10.8404
02"	-10.841
▁profonda	-10.841
▁agenti	-10.8412
bis	-10.8413
ventuale	-10.8415
▁esemplari	-10.8415
▁radioattivo	-10.8415
▁risiede	-10.8415
▁1861	-10.8415
▁henry	-10.8415
▁fondò	-10.8415
▁radiazioni	-10.8416
▁pratiche	-10.8417
▁grazia	-10.8418
▁costiera	-10.8419
▁descritta	-10.8421
▁profondamente	-10.8421
▁tomba	-10.8422
▁cooperazione	-10.8424
▁gui	-10.8426
emivita	-10.843
70"	-10.8432
aglia	-10.8434
▁cloro	-10.8438
▁procede	-10.844
chino	-10.8443
▁atomo	-10.8444
gger	-10.8449
▁facilita	-10.8451
▁max	-10.8454
▁ghi	-10.8455
▁equi	-10.8457
fatti	-10.8458
ami	-10.8463
▁separati	-10.8464
tismo	-10.8464
bal	-10.8468
▁scambi	-10.847
▁attraversata	-10.8475
▁modificare	-10.848
▁fasci	-10.848
▁studente	-10.848
▁occupazione	-10.8481
▁coppie	-10.8483
▁rinascimento	-10.8485
▁risorgimento	-10.8485
▁spettrale	-10.8485
▁eccezioni	-10.8485
▁diagramma	-10.8486
▁rigel	-10.8495
▁gelli	-10.8503
▁avver	-10.8503
▁ricercatori	-10.8507
▁finito	-10.8507
▁editori	-10.8514
put	-10.8523
med	-10.8523
▁associa	-10.8527
▁indicano	-10.8528
hy	-10.8533
denti	-10.8533
▁180	-10.8533
▁rossi	-10.8537
wn	-10.8539
att	-10.854
▁vieta	-10.8543
estremità	-10.8544
▁invita	-10.8545
▁frank	-10.8551
▁veloci	-10.8551
▁los	-10.8554
▁seleziona	-10.8555
▁angeles	-10.8555
▁democratico	-10.8555
▁friedrich	-10.8555
▁sconfitto	-10.8555
▁sterminio	-10.8555
indirizzo	-10.8555
▁cinquecento	-10.8555
▁cagliari	-10.8555
▁esperti	-10.8555
▁proiezione	-10.8556
▁allunga	-10.8556
▁yu	-10.8557
▁consigli	-10.8569
appoggio	-10.8571
▁corrispondenti	-10.8571
▁giovanile	-10.8573
▁sezioni	-10.858
▁rafforza	-10.858
▁loggia	-10.8586
▁letterario	-10.8587
▁baia	-10.8587
acca	-10.8588
▁manifest	-10.8593
▁cercando	-10.8593
60"	-10.8594
sei	-10.8595
fort	-10.8596
esca	-10.8596
▁berna	-10.8597
▁lavorato	-10.86
kel	-10.8606
03"	-10.861
ius	-10.8611
▁luc	-10.8611
▁sintetizza	-10.8613
▁attraversato	-10.8617
▁divisi	-10.8618
▁acido	-10.8618
▁familiari	-10.8625
▁malgrado	-10.8625
▁procedura	-10.8625
▁ravenna	-10.8625
▁produttori	-10.8627
▁vallo	-10.8628
▁francesca	-10.863
▁nostri	-10.863
ère	-10.863
40"	-10.863
▁complessità	-10.8632
▁versante	-10.8634
▁nemici	-10.8635
elementi	-10.8653
▁perdere	-10.8658
▁effettuato	-10.8661
▁adatto	-10.8668
limit	-10.8669
ghetti	-10.8671
▁casale	-10.8672
▁gold	-10.8673
▁vibra	-10.8675
unesco	-10.8675
▁parlata	-10.8676
▁scambia	-10.8676
▁dubbio	-10.8676
▁planetario	-10.868
▁64	-10.868
▁partecipato	-10.8681
▁sorte	-10.869
▁comma	-10.8694
cula	-10.8696
▁lussemburgo	-10.8696
▁nebulose	-10.8696
▁costruzioni	-10.8696
▁magnesio	-10.8696
artigianato	-10.8696
▁comunali	-10.8696
▁critici	-10.8696
▁jugoslavia	-10.8696
▁quadrato	-10.8696
▁giudice	-10.8696
▁sott	-10.8697
▁esterne	-10.8697
▁decisamente	-10.8699
▁avrà	-10.8702
▁varianza	-10.8705
▁desiderio	-10.8706
rat	-10.8708
▁presentata	-10.8709
▁altrimenti	-10.871
▁modificato	-10.8711
▁uv	-10.8711
▁alimentari	-10.8716
▁grosseto	-10.8716
▁cava	-10.8717
▁atlantico	-10.8718
▁peter	-10.872
ua	-10.8723
▁blo	-10.8727
▁sorti	-10.8731
▁42	-10.8732
pati	-10.8732
08"	-10.8733
▁har	-10.8736
vision	-10.8736
▁rivoluzionari	-10.8739
▁accettato	-10.8747
3.	-10.8748
▁giungere	-10.8748
▁annunciato	-10.8749
testa	-10.875
burg	-10.8751
▁decisero	-10.8752
▁girone	-10.8754
▁tetra	-10.8755
07"	-10.8756
▁originaria	-10.8756
hard	-10.8758
norm	-10.876
pongono	-10.8761
▁emivita	-10.8761
eso	-10.8762
_14	-10.8762
▁invernale	-10.8767
▁necessita	-10.8767
▁stallman	-10.8767
▁spagnoli	-10.8767
▁olimpiadi	-10.8767
▁composte	-10.8767
▁destinato	-10.8767
▁sentenza	-10.8767
▁fumetto	-10.8767
▁1915	-10.8769
▁gol	-10.8771
▁dedicò	-10.8773
allevamento	-10.8774
▁sodio	-10.8776
▁molt	-10.878
ude	-10.8782
▁costituiti	-10.8784
dini	-10.8786
incarico	-10.8786
elenco	-10.8787
▁radi	-10.8789
▁commerci	-10.8796
berto	-10.88
▁hill	-10.8814
▁basate	-10.8819
12"	-10.8821
▁esplora	-10.8823
25"	-10.8825
bilmente	-10.8833
▁derivate	-10.8836
arcipelago	-10.8839
▁elementari	-10.8839
▁raggiungono	-10.8839
▁cremona	-10.8839
▁divenuta	-10.8839
▁arthur	-10.8839
▁convince	-10.884
▁convinto	-10.884
▁euclide	-10.884
▁dovute	-10.884
▁compongono	-10.884
▁1908	-10.8841
▁pasqua	-10.8841
▁pianoforte	-10.8841
▁sovranità	-10.8843
▁iniziative	-10.8843
▁descritti	-10.8844
▁rilevanza	-10.8844
▁distinte	-10.8844
▁indirizza	-10.8847
▁largamente	-10.8849
rompe	-10.885
▁unita	-10.8851
▁archivi	-10.8854
occhio	-10.8862
rf	-10.887
▁ibm	-10.8871
▁complica	-10.8871
▁sperimenta	-10.8871
▁collegato	-10.8873
▁(10	-10.8875
▁impiego	-10.8876
▁canoni	-10.888
▁continuarono	-10.8881
dice	-10.8883
premi	-10.8887
assetto	-10.8888
dico	-10.8902
ey	-10.8906
▁organizzare	-10.8908
▁circostante	-10.8912
▁filosofo	-10.8912
▁prospettiva	-10.8912
▁coalizione	-10.8912
▁incontri	-10.8912
▁gustav	-10.8912
▁sfida	-10.8913
▁termica	-10.8913
26"	-10.8913
▁sabbia	-10.8914
▁perfettamente	-10.8915
▁confronta	-10.8916
▁sfruttamento	-10.8919
▁piatti	-10.8921
▁cavalli	-10.8923
17"	-10.8928
▁conservati	-10.8929
ttò	-10.8935
36"	-10.8942
nik	-10.8943
▁approva	-10.8945
▁perfezion	-10.8945
▁realizzate	-10.8946
▁telescopi	-10.8948
▁diviene	-10.8949
▁variano	-10.895
end	-10.8951
▁tendono	-10.8954
liste	-10.8956
appello	-10.8958
ins	-10.8958
▁sm	-10.8959
▁altera	-10.8962
▁nilo	-10.8962
▁stavano	-10.8963
acciaio	-10.8963
▁condannato	-10.8964
vers	-10.8968
▁lotte	-10.897
ago	-10.8971
▁emigra	-10.8973
▁orbitale	-10.8975
▁ras	-10.8977
▁rito	-10.8977
▁penetra	-10.8978
50"	-10.8979
aggiunta	-10.898
▁spirituale	-10.8985
▁vespasiano	-10.8985
▁chopin	-10.8985
▁teatri	-10.8985
▁indagini	-10.8985
▁anticipa	-10.8985
▁potenti	-10.8985
▁superato	-10.8985
▁spettacoli	-10.8985
▁frontiera	-10.8986
▁competenza	-10.8986
41"	-10.8986
cana	-10.8989
▁amministrazioni	-10.8991
▁ferroviario	-10.8991
▁jazz	-10.8993
▁leonardo	-10.8994
▁associazione	-10.8999
rda	-10.9001
▁collo	-10.9003
ammi	-10.9004
▁farsi	-10.9007
▁stanza	-10.9007
▁park	-10.9009
▁sasso	-10.9013
▁foce	-10.9015
▁source	-10.9015
4)	-10.9017
▁tener	-10.9017
▁compiere	-10.9019
vita	-10.9021
aragona	-10.9021
nghi	-10.9021
▁etero	-10.9023
▁accoglie	-10.9025
▁determinate	-10.9034
▁guido	-10.9038
asta	-10.9038
▁fiat	-10.9042
volta	-10.9043
polo	-10.9055
▁eseguito	-10.9056
appennino	-10.9058
▁cetacei	-10.9058
▁costrinse	-10.9058
▁crawford	-10.9058
▁dolomiti	-10.9058
▁sessuale	-10.9058
▁profilo	-10.9058
▁dotati	-10.9059
▁vicenda	-10.9059
▁database	-10.9059
▁rispose	-10.9059
▁trama	-10.906
▁giunto	-10.906
▁ritorn	-10.9063
▁capita	-10.9063
▁finanziaria	-10.9065
han	-10.9065
out	-10.9066
ek	-10.9068
▁cifre	-10.9068
30"	-10.9068
▁rossini	-10.9072
▁getta	-10.9077
tsu	-10.9079
▁pelle	-10.9081
angolo	-10.9082
azoto	-10.9084
▁altezza	-10.9097
31"	-10.9097
▁sviluppati	-10.9098
▁organo	-10.9101
▁rappresentante	-10.9107
▁mio	-10.9107
stabile	-10.911
▁esisteva	-10.9114
▁corse	-10.9115
▁aero	-10.9125
uscì	-10.9126
▁ingresso	-10.9129
▁incentrat	-10.913
▁cittadine	-10.9132
▁difficili	-10.9132
▁gradualmente	-10.9132
▁scozzese	-10.9132
▁rifiuto	-10.9132
▁prodotte	-10.9132
▁scoperti	-10.9132
▁trapani	-10.9133
▁clemente	-10.9133
▁friuli	-10.9133
▁polvere	-10.9133
▁orione	-10.9136
▁(5	-10.9136
▁identificare	-10.9143
new	-10.9152
▁presentava	-10.9154
▁spinta	-10.9157
intensità	-10.9157
vincitori	-10.9157
australia	-10.9157
mero	-10.916
▁ricordato	-10.916
▁coi	-10.9162
▁efficiente	-10.9162
gone	-10.9166
ik	-10.9171
▁osservati	-10.9175
▁rivolte	-10.9182
▁affermato	-10.9185
▁servita	-10.9191
▁affidato	-10.9192
▁rappresentate	-10.9194
comuni	-10.9196
▁abbandonare	-10.9196
▁causato	-10.9196
▁attore	-10.9198
gas	-10.92
▁teorica	-10.9201
21"	-10.9206
▁genovese	-10.9207
▁intellettuale	-10.9207
▁giuridica	-10.9207
▁intenso	-10.9207
▁approssimativa	-10.9208
▁realizzò	-10.9208
▁pantani	-10.9208
▁significative	-10.9211
▁proib	-10.9214
▁spera	-10.9214
▁pagamento	-10.9214
▁estese	-10.9214
▁88	-10.9214
▁bomba	-10.9216
▁show	-10.9217
▁promuovere	-10.9229
ingegneria	-10.9233
43"	-10.9235
posto	-10.9236
rb	-10.9242
06"	-10.9243
▁fotone	-10.9245
editore	-10.9249
▁emette	-10.925
▁cominciarono	-10.925
▁insediamento	-10.9252
▁binario	-10.9254
bla	-10.9263
▁comportamenti	-10.9267
▁inverno	-10.9269
▁propriamente	-10.9269
fbi	-10.9272
▁ampie	-10.9277
▁bella	-10.928
▁continuare	-10.9281
▁coinvolto	-10.9282
▁contemporanei	-10.9282
▁ginevra	-10.9282
▁riuscendo	-10.9282
▁washington	-10.9282
▁corazzate	-10.9282
▁modulo	-10.9282
▁fiscale	-10.9282
▁antropica	-10.9282
▁university	-10.9282
▁branca	-10.9283
▁distacca	-10.9283
▁1905	-10.9284
▁1901	-10.9284
▁dipinti	-10.9285
▁insegnamenti	-10.9285
▁status	-10.9287
▁vertici	-10.9287
entroterra	-10.9287
▁miglioramento	-10.9288
▁vantaggi	-10.9289
▁pressioni	-10.929
▁indice	-10.9291
▁millennio	-10.9293
▁radicale	-10.9298
stone	-10.9298
uda	-10.9301
▁contempo	-10.9301
▁poeti	-10.9301
▁testamento	-10.9302
bandiere	-10.931
identità	-10.931
▁confermato	-10.9312
▁metro	-10.9313
▁collegata	-10.9313
risti	-10.9313
▁dedicati	-10.9314
milio	-10.9318
▁attesa	-10.9319
zona	-10.9321
▁ospitare	-10.9322
▁ossidazione	-10.9324
▁formulazione	-10.9326
64"	-10.9327
cario	-10.9327
▁barbari	-10.9332
animazione	-10.9333
oratorio	-10.9333
ted	-10.9338
▁46	-10.9338
▁lire	-10.9342
pone	-10.9346
▁stretta	-10.9353
▁cristallo	-10.9358
artiglieria	-10.9358
elecomunicazioni	-10.9358
▁rallenta	-10.9358
▁parallelo	-10.9358
▁malattie	-10.9358
▁dilettanti	-10.9358
▁occupò	-10.9359
▁liceo	-10.936
▁inverni	-10.936
▁chiusa	-10.9361
▁coinvolge	-10.9362
▁vicinanze	-10.9362
▁universitari	-10.9363
▁nano	-10.9364
▁annuale	-10.9365
▁vedeva	-10.9368
▁rilevanti	-10.9369
▁parchi	-10.9371
▁interessante	-10.9372
▁dipendente	-10.9373
▁barba	-10.9376
abilità	-10.9377
▁turistica	-10.9377
▁abbondante	-10.9381
▁fauna	-10.9381
▁classiche	-10.9381
▁collezione	-10.9385
▁95	-10.9387
well	-10.9387
vesti	-10.9395
▁regi	-10.9396
vengono	-10.9396
▁live	-10.9398
▁sviluppatori	-10.9399
▁zu	-10.94
▁arabo	-10.9408
▁circola	-10.9409
▁magia	-10.9409
▁affidata	-10.9417
tar	-10.9421
▁nativi	-10.9423
psi	-10.9424
▁undici	-10.9428
yo	-10.9429
attentato	-10.9429
▁trip	-10.9431
dati	-10.9432
▁ugo	-10.9432
80"	-10.9432
▁ville	-10.9433
▁compositore	-10.9434
▁contribuito	-10.9434
▁gerusalemme	-10.9434
▁morfologia	-10.9434
▁cancro	-10.9434
▁mercati	-10.9434
▁accettare	-10.9436
▁amministrativo	-10.9436
▁foreste	-10.9436
▁baseball	-10.9438
▁aeree	-10.9438
▁ferroviarie	-10.944
▁pierre	-10.944
▁valida	-10.944
▁velocemente	-10.9441
▁apparentemente	-10.9443
32"	-10.9443
▁corretto	-10.9443
▁tab	-10.9454
▁appars	-10.9459
▁significativa	-10.9462
13"	-10.9471
▁socialisti	-10.9473
▁stone	-10.9475
sd	-10.9476
▁mac	-10.948
33"	-10.9483
▁granduca	-10.9487
nell	-10.9489
▁contava	-10.9491
▁interessato	-10.9492
▁condurre	-10.9508
▁definì	-10.9511
▁esperienze	-10.9511
▁pallacanestro	-10.9511
▁sceneggiatura	-10.9511
▁teatrali	-10.9511
▁tolkien	-10.9511
▁parziale	-10.9511
▁rivelò	-10.9511
▁autonomo	-10.9511
▁sfocia	-10.9511
▁dimissioni	-10.9512
apice	-10.9513
▁difese	-10.9514
▁biella	-10.9515
reali	-10.9515
▁nega	-10.9516
”.	-10.9516
▁foro	-10.9518
▁prendendo	-10.9519
▁salto	-10.9521
▁estremi	-10.9524
▁greche	-10.9525
▁capire	-10.9531
▁avvis	-10.9532
▁circondario	-10.9533
▁cari	-10.9534
▁staff	-10.9539
▁finanziario	-10.9539
▁psico	-10.9541
gare	-10.9547
▁tela	-10.9549
▁ul	-10.9549
▁kg	-10.9549
▁prolunga	-10.955
▁considerava	-10.9551
▁croci	-10.9559
alle	-10.9563
▁stro	-10.9569
▁tira	-10.9574
▁incoraggia	-10.9579
▁tornato	-10.9581
▁comprensione	-10.9589
▁irregolari	-10.9589
▁replica	-10.9589
▁cronometro	-10.9589
▁guccini	-10.9589
▁miscela	-10.9589
▁complesse	-10.9589
▁vertice	-10.9589
▁imperatori	-10.9589
▁compiuto	-10.9589
avventura	-10.9589
▁chiuse	-10.9592
▁libere	-10.9592
▁1911	-10.9593
tropo	-10.9595
▁scudo	-10.9595
▁caus	-10.96
coltura	-10.9601
▁judo	-10.9602
ult	-10.9604
rin	-10.9607
▁logo	-10.9608
▁tutt	-10.9609
▁brune	-10.9609
▁moltiplica	-10.9609
way	-10.961
enberg	-10.961
▁decorat	-10.961
▁grandezze	-10.9616
cap	-10.9616
▁circo	-10.9619
200	-10.9623
organismo	-10.9623
▁danza	-10.9633
▁picco	-10.9638
▁iniziata	-10.9641
izzazione	-10.9642
▁basic	-10.9646
bina	-10.9652
90"	-10.9658
▁fle	-10.9659
▁sacra	-10.9663
▁associati	-10.9663
▁ricade	-10.9664
▁compone	-10.9666
▁depressione	-10.9667
▁diminuzione	-10.9667
▁piattaforma	-10.9667
▁raccolte	-10.9667
▁raccolti	-10.9667
▁richiesto	-10.9667
▁risonanza	-10.9667
▁crimini	-10.9667
▁visconti	-10.9667
▁prototipo	-10.9667
▁mantenuto	-10.9667
▁emerse	-10.9667
▁parametro	-10.9668
▁montana	-10.9669
▁puglia	-10.9671
▁iper	-10.9673
▁ripartizione	-10.9673
▁verbo	-10.9675
▁1910	-10.9675
uk	-10.9679
▁marmo	-10.968
wo	-10.9682
carica	-10.9682
▁consentono	-10.9684
▁parteciparono	-10.9684
▁marchio	-10.9684
versione	-10.9686
▁consistente	-10.9689
▁selva	-10.9689
▁collegio	-10.9691
sistema	-10.9694
▁deputati	-10.9696
▁parità	-10.9696
▁atomica	-10.9699
episodio	-10.97
▁39	-10.9702
▁netta	-10.971
▁ionizza	-10.971
red	-10.9712
▁diventano	-10.9713
berlin	-10.9715
▁certe	-10.9717
97"	-10.972
▁wo	-10.9722
▁inviare	-10.9723
rendono	-10.9724
alla	-10.9727
▁punk	-10.9728
▁svolse	-10.9733
▁mostrato	-10.9734
cee	-10.9735
▁obbliga	-10.9743
;/	-10.9743
▁incass	-10.9744
obbligo	-10.9746
▁chiunque	-10.9746
▁circuito	-10.9746
▁combattimenti	-10.9746
▁sforzo	-10.9746
▁ospedali	-10.9746
▁positivi	-10.9746
▁nemmeno	-10.9746
▁divenendo	-10.9746
▁parodia	-10.9746
▁larghezza	-10.9746
▁scheda	-10.9746
▁provocò	-10.9747
vent	-10.9751
-15	-10.9751
▁progressivo	-10.9752
▁frequentemente	-10.9753
▁costituite	-10.9761
▁fiera	-10.9763
▁apertura	-10.9763
▁fossa	-10.9764
▁rose	-10.9765
54"	-10.9771
▁bilancia	-10.9772
▁cop	-10.9775
▁convoca	-10.9778
▁digitali	-10.9779
▁aggiungere	-10.979
ary	-10.979
▁cometa	-10.9792
28"	-10.9792
▁villaggi	-10.9792
▁derivano	-10.9794
zan	-10.9796
▁regni	-10.9798
▁osservabili	-10.98
▁parrocchia	-10.98
hip	-10.9801
sten	-10.9801
▁68	-10.9803
cura	-10.9804
▁vere	-10.9805
75"	-10.9806
over	-10.9807
▁senatori	-10.9808
▁47	-10.9808
▁preoccupa	-10.9819
▁giustifica	-10.9819
▁dramma	-10.982
▁operatori	-10.9821
▁suddivisi	-10.9821
▁wood	-10.9821
▁frequenze	-10.9825
▁giurisdizione	-10.9825
▁panorama	-10.9825
▁riconobbe	-10.9825
▁simboleggia	-10.9825
▁ottenuta	-10.9825
▁scelte	-10.9825
▁preciso	-10.9825
▁street	-10.9825
▁blocchi	-10.9826
▁abiti	-10.9831
▁rinomat	-10.9835
▁scarica	-10.9835
86"	-10.9837
▁wilhelm	-10.9837
otten	-10.9839
anello	-10.984
▁occupare	-10.9842
▁scegliere	-10.9844
andamento	-10.9847
91"	-10.9847
▁annulla	-10.9848
grad	-10.9852
pari	-10.9852
▁difendere	-10.986
15"	-10.986
metalli	-10.9861
▁astronomica	-10.9861
▁rivale	-10.9863
romagna	-10.9865
48"	-10.9865
▁rifugi	-10.9866
▁proprietario	-10.987
▁tag	-10.9872
ok	-10.9874
▁cosmo	-10.988
▁incrementa	-10.9883
▁massimi	-10.9887
▁down	-10.989
adda	-10.9892
parte	-10.9905
▁basket	-10.9905
▁groenlandia	-10.9905
▁riconosciuti	-10.9905
▁siracusa	-10.9905
▁ristretta	-10.9905
▁energie	-10.9905
▁elevati	-10.9905
▁bartali	-10.9906
▁maschera	-10.9906
▁linguistiche	-10.9907
▁continuità	-10.9907
▁facilità	-10.9907
▁()	-10.991
▁roger	-10.9911
senza	-10.9913
▁registrazione	-10.9915
prendono	-10.9921
rì	-10.9922
▁nar	-10.9925
installazione	-10.9928
ding	-10.9931
▁dischi	-10.9932
▁mev	-10.9942
▁mark	-10.9944
▁orto	-10.9944
af	-10.9945
sub	-10.9947
23"	-10.9948
bibli	-10.995
▁catalogo	-10.9951
▁shi	-10.9953
cher	-10.9953
55"	-10.9954
wer	-10.9965
archivio	-10.9966
▁bell	-10.9968
▁800	-10.9971
▁act	-10.9971
agi	-10.9977
▁incremento	-10.9979
98"	-10.9979
▁opposizione	-10.9979
tino	-10.998
▁spam	-10.9981
▁conquistò	-10.9986
▁criminali	-10.9986
▁mantenimento	-10.9986
▁copertura	-10.9986
▁proietta	-10.9986
▁toscano	-10.9986
▁sottile	-10.9986
29"	-10.9987
▁audio	-10.9989
ingegnere	-10.9993
▁abitazioni	-10.9994
get	-10.9996
▁1870	-10.9996
▁pezzo	-10.9996
▁numerica	-10.9997
89"	-10.9998
mano	-10.9999
▁char	-11
93"	-11.0007
dt	-11.0009
66"	-11.0009
sette	-11.0013
sità	-11.0015
▁granducato	-11.0016
▁costantemente	-11.0016
▁olandese	-11.0018
▁tifo	-11.0018
orsa	-11.0019
kra	-11.0021
▁comprendente	-11.0023
insediamento	-11.0024
▁marchi	-11.0027
dare	-11.0029
58"	-11.0029
▁commi	-11.003
▁uscire	-11.0033
42"	-11.0034
▁presentare	-11.0042
88"	-11.0043
▁causando	-11.0045
trico	-11.0046
▁gaio	-11.0051
▁mariano	-11.0052
▁rari	-11.0053
▁iniziativa	-11.0056
11"	-11.0056
row	-11.006
sum	-11.0063
▁contrari	-11.0064
▁create	-11.0066
▁ambientale	-11.0067
▁ambientali	-11.0067
▁appaiono	-11.0067
▁cattolico	-11.0067
▁firewall	-11.0067
▁zelanda	-11.0067
▁maxwell	-11.0067
▁lontana	-11.0067
▁stimola	-11.0067
▁dolci	-11.0067
▁sfruttare	-11.0068
aceae	-11.0073
▁bohr	-11.0074
hl	-11.0075
▁cosenza	-11.0076
▁pienamente	-11.0079
▁trasformazioni	-11.008
assegnazione	-11.008
▁comparsa	-11.0083
▁cio	-11.0084
cel	-11.0085
▁proporzionale	-11.0085
62"	-11.0088
posizione	-11.0089
");	-11.0093
aviazione	-11.0095
aia	-11.0095
▁gianni	-11.0096
nite	-11.01
▁wikipedia	-11.0101
95"	-11.0102
dol	-11.0105
▁tasse	-11.0108
▁caratterizzate	-11.0108
▁rotta	-11.0109
star	-11.0112
▁dom	-11.0113
▁informazione	-11.0114
istico	-11.0116
▁importa	-11.0116
ell	-11.0117
▁separate	-11.0122
dge	-11.0124
▁aiutare	-11.0124
▁fame	-11.0129
▁unici	-11.0141
▁agricole	-11.0149
▁hepburn	-11.0149
▁mostrò	-11.0149
▁olimpica	-11.0149
▁wilson	-11.0149
▁binocolo	-11.0149
▁aprì	-11.0149
▁altresì	-11.0149
▁consumo	-11.0149
▁wright	-11.0149
▁procura	-11.015
▁dipinto	-11.015
▁sosteneva	-11.0151
▁mattina	-11.0151
▁tematiche	-11.0152
▁2008,	-11.0154
▁visse	-11.0157
▁nuoro	-11.0158
▁ossida	-11.0162
▁prezzi	-11.0164
▁cavo	-11.0164
▁efficace	-11.0167
▁azione	-11.0168
▁celti	-11.017
facente	-11.017
▁valutazione	-11.0171
▁variare	-11.0173
▁parrocchiale	-11.0175
▁consentire	-11.0175
▁calda	-11.0176
▁gestito	-11.0177
▁ponendo	-11.0181
▁somme	-11.0181
▁indiano	-11.0187
esima	-11.0188
impiego	-11.019
▁instaura	-11.019
▁filosofi	-11.0191
▁rivoluzionario	-11.0192
▁etimologia	-11.0193
18"	-11.0194
▁rabbi	-11.0207
▁crescere	-11.0209
▁massiccia	-11.0214
▁play	-11.0216
▁stradale	-11.0221
▁passata	-11.0222
▁sensi	-11.0228
▁foundation	-11.0231
▁liechtenstein	-11.0231
▁tolomeo	-11.0231
▁veicoli	-11.0231
▁dollaro	-11.0232
▁incluse	-11.0232
▁pallavolo	-11.0232
▁comprendono	-11.0234
▁analogamente	-11.0235
▁viva	-11.0235
▁pagare	-11.0236
▁zeus	-11.0237
▁personalmente	-11.0238
45"	-11.0241
ple	-11.0246
▁inquadra	-11.0249
▁tirreno	-11.0256
▁liri	-11.0256
▁variabilità	-11.0258
▁55	-11.0259
▁grano	-11.0261
▁dedicate	-11.0261
▁quar	-11.0264
34"	-11.0264
-10	-11.0264
▁music	-11.0265
▁celle	-11.0266
az	-11.0268
▁determinati	-11.0268
▁valor	-11.0268
72"	-11.0271
della	-11.0275
▁abilità	-11.0276
▁laboratori	-11.0278
alter	-11.0278
▁esce	-11.0281
▁citata	-11.0285
16"	-11.0294
▁pass	-11.0299
▁lucio	-11.03
_16	-11.0305
▁trasformata	-11.0308
▁html	-11.0312
▁attribu	-11.0312
▁columbia	-11.0315
▁globulari	-11.0315
▁pacchetti	-11.0315
▁campania	-11.0315
▁ognuna	-11.0315
▁cinetica	-11.0315
▁discreta	-11.0315
▁convenzioni	-11.0315
▁enzimi	-11.0315
▁circostanti	-11.0315
▁scherma	-11.0315
▁commenta	-11.0316
▁consacr	-11.0316
▁nuota	-11.0316
▁destino	-11.0316
▁restauro	-11.0316
▁speranza	-11.0317
▁tenendo	-11.0318
bot	-11.0318
▁caratteristico	-11.0318
▁protocolli	-11.0321
▁specialità	-11.0323
▁58	-11.0324
85"	-11.0325
▁studiato	-11.0326
▁valentino	-11.0331
▁lodi	-11.0335
68"	-11.0336
78"	-11.034
79"	-11.0341
▁parecchi	-11.0342
sud	-11.0343
▁contare	-11.0347
▁combatte	-11.0353
▁impose	-11.0354
▁calcolato	-11.0357
24"	-11.0363
apple	-11.0371
▁tratte	-11.0373
tabile	-11.0374
▁sostituire	-11.0374
▁dottor	-11.0379
▁son	-11.038
▁bagna	-11.0385
ficò	-11.0389
▁plan	-11.039
▁ottimi	-11.0397
▁alleate	-11.0397
▁aleatoria	-11.0399
▁avvenimenti	-11.0399
▁houston	-11.0399
▁professione	-11.0399
▁riconquista	-11.0399
▁sostenitori	-11.0399
▁ottenuti	-11.0399
▁battuta	-11.0399
▁moduli	-11.0399
▁vaticano	-11.0399
▁supernove	-11.0399
▁famose	-11.0399
▁adottò	-11.0399
▁protette	-11.0399
▁distrutto	-11.0399
british	-11.0399
▁giaciment	-11.04
▁alternative	-11.04
▁riposo	-11.04
▁tavolo	-11.04
▁concessione	-11.04
clau	-11.04
▁linguistico	-11.0401
▁presenze	-11.0405
▁morali	-11.0406
▁alleanza	-11.0407
strada	-11.0408
▁piede	-11.0411
▁1850	-11.0412
▁bocca	-11.0416
▁generalizza	-11.0417
▁angelo	-11.0417
▁restano	-11.0418
▁pian	-11.0418
▁parlate	-11.0419
uria	-11.0422
▁turchia	-11.0425
49"	-11.0428
ammiraglio	-11.043
lum	-11.0435
▁elettronico	-11.0436
57"	-11.0436
numer	-11.0437
▁originari	-11.0439
▁sesta	-11.044
she	-11.0441
▁accompagnato	-11.0442
▁rinuncia	-11.0442
cum	-11.0443
isotopo	-11.0444
enorme	-11.0444
▁gesto	-11.0445
▁gesti	-11.0447
time	-11.0449
▁romania	-11.0452
▁pareti	-11.046
gnu	-11.0464
mil	-11.0465
▁assiste	-11.0466
ces	-11.0469
▁mary	-11.0473
▁pier	-11.0474
ciò	-11.0475
uf	-11.0478
96"	-11.0481
▁caligola	-11.0484
▁pallanuoto	-11.0484
▁culture	-11.0484
▁reddito	-11.0484
▁inserita	-11.0484
▁vittima	-11.0484
▁concerne	-11.0484
▁distrutta	-11.0484
▁fontana	-11.0484
▁henri	-11.0484
lé	-11.0484
▁produsse	-11.0484
▁peda	-11.0485
▁ottomano	-11.0485
▁favorevoli	-11.0485
▁coscienza	-11.0485
27"	-11.0486
▁estati	-11.0486
▁definitivo	-11.0492
▁passione	-11.0493
▁scal	-11.0493
▁mosse	-11.0494
riamente	-11.0497
-17	-11.0497
▁pavia	-11.0498
▁borghesia	-11.05
solo	-11.0502
arme	-11.0504
▁compiti	-11.0505
▁emessa	-11.0506
▁apparire	-11.0507
esiste	-11.0508
▁hor	-11.051
▁kb	-11.0514
argi	-11.0516
acquisto	-11.0517
▁seria	-11.0517
▁videro	-11.0524
ulo	-11.0526
india	-11.053
santa	-11.0539
live	-11.0541
stan	-11.0542
▁annovera	-11.0544
abate	-11.0544
certa	-11.0545
indice	-11.0547
▁calci	-11.055
▁indicati	-11.0552
▁esilio	-11.0552
▁anello	-11.0555
iscrizione	-11.0556
▁riportata	-11.0557
▁scalo	-11.0561
▁festeggia	-11.0562
ntini	-11.0567
▁bilancio	-11.0569
▁corrispondono	-11.0569
▁rugby	-11.0569
▁sviluppi	-11.0569
▁reggimento	-11.0569
▁revisione	-11.0569
▁coniuga	-11.0569
arsenico	-11.0569
▁descrisse	-11.0569
▁benedetti	-11.057
▁polimeri	-11.057
inflazione	-11.057
estinzione	-11.0571
▁é	-11.0572
▁clero	-11.0573
▁1849	-11.0573
▁salvatore	-11.0574
▁1871	-11.0577
51"	-11.0579
▁riparti	-11.0579
cerchi	-11.058
▁tom	-11.0582
▁generare	-11.0582
▁banco	-11.0583
▁rango	-11.0584
▁operazione	-11.0585
▁siciliano	-11.0588
▁rivelato	-11.06
▁suoni	-11.0605
69"	-11.0607
▁pata	-11.0608
▁penale	-11.0609
▁sfruttando	-11.061
92"	-11.061
▁citati	-11.061
▁formali	-11.0616
▁arricchi	-11.0616
▁evita	-11.0617
▁cy	-11.0619
▁oppose	-11.0619
▁fascio	-11.0624
dotta	-11.0625
▁attrice	-11.0625
▁esordi	-11.0626
▁scale	-11.0627
▁mappa	-11.0629
▁sy	-11.063
metrica	-11.063
▁inclin	-11.0633
▁sviluppate	-11.0636
▁dettaglio	-11.0641
47"	-11.0642
▁miglia	-11.0646
án	-11.0647
▁ideato	-11.0651
▁responsabili	-11.0652
opportunità	-11.0655
▁giardino	-11.0655
▁goebbels	-11.0655
▁monumentale	-11.0655
▁plurale	-11.0655
▁potassio	-11.0655
▁trasferito	-11.0655
▁rottura	-11.0655
▁censura	-11.0655
▁memorie	-11.0655
▁traguardo	-11.0655
dungeon	-11.0655
▁vocale	-11.0655
▁evidenti	-11.0655
▁statue	-11.0656
▁condensa	-11.0656
▁pauli	-11.0656
▁tornei	-11.0656
▁router	-11.0657
▁superfici	-11.0658
▁colonnello	-11.0659
▁riunione	-11.066
▁tavole	-11.0661
fiche	-11.0661
▁1896	-11.0662
▁up	-11.0664
▁raro	-11.0666
▁dover	-11.0666
▁frutti	-11.0666
▁petro	-11.0667
passa	-11.0667
▁generazioni	-11.0667
▁accredita	-11.0672
▁fermo	-11.0672
▁collegati	-11.0673
▁barb	-11.0675
▁proteggere	-11.0682
67"	-11.0684
▁77	-11.0689
▁davis	-11.0689
▁tasti	-11.0692
71"	-11.0699
52"	-11.0703
▁by	-11.0703
▁istat	-11.0705
▁esecuzione	-11.0708
▁avanzata	-11.0711
▁sper	-11.0713
▁uccisi	-11.0714
▁esprimere	-11.0715
▁denti	-11.0715
82"	-11.0717
▁collinare	-11.0717
▁misurare	-11.0726
▁(12	-11.0734
▁individuale	-11.0734
37"	-11.0736
▁hans	-11.0737
▁fedele	-11.0738
▁rad	-11.0739
▁polare	-11.0741
▁assol	-11.0742
intelligenza	-11.0742
▁amminoacidi	-11.0742
▁incontrò	-11.0742
▁medesima	-11.0742
▁nasconde	-11.0742
▁scienziato	-11.0742
▁distinguono	-11.0742
▁prefetto	-11.0742
▁performance	-11.0742
▁teorico	-11.0742
▁ridotte	-11.0742
▁institute	-11.0742
▁grafico	-11.0743
▁rimanendo	-11.0744
▁andré	-11.0745
▁clan	-11.0746
77"	-11.0748
▁pacifica	-11.0749
81"	-11.0749
▁tipologia	-11.075
ntiene	-11.0752
▁nastro	-11.0752
▁grigio	-11.0754
▁mobilità	-11.0756
▁funge	-11.0756
▁compagni	-11.0758
▁contatti	-11.0758
44"	-11.0759
▁culmina	-11.0762
▁jacques	-11.0766
elettr	-11.0767
▁corsica	-11.0767
▁cad	-11.0768
▁dimentica	-11.0768
▁modella	-11.0768
▁artistiche	-11.0772
▁sensibili	-11.0773
▁correlat	-11.0775
▁600	-11.0775
lot	-11.0777
22"	-11.0779
back	-11.0781
▁isotopo	-11.0783
▁risponde	-11.0789
ctor	-11.0789
▁hall	-11.0791
▁ritratto	-11.0791
educazione	-11.0793
▁passati	-11.0795
39"	-11.0796
▁amicizia	-11.08
▁organismo	-11.08
▁permetteva	-11.0801
▁cattedra	-11.0805
crea	-11.0808
38"	-11.0811
▁sardi	-11.0814
fili	-11.0814
ruppe	-11.0815
face	-11.0819
onore	-11.0822
arno	-11.0827
gs	-11.0829
orizzonte	-11.083
▁artificiali	-11.083
▁bressanone	-11.083
▁familiare	-11.083
▁longobardi	-11.083
▁lufthansa	-11.083
▁ragazza	-11.083
▁ruggero	-11.083
▁partì	-11.083
armistizio	-11.083
▁chitarre	-11.083
▁simpson	-11.083
▁emacs	-11.083
▁invisibile	-11.083
▁previsti	-11.083
▁miniere	-11.083
▁situati	-11.083
▁monitor	-11.083
▁petrolio	-11.083
▁taranto	-11.083
▁polacca	-11.0831
▁composizioni	-11.0831
▁dovuti	-11.0831
▁ambiti	-11.0831
▁balcani	-11.0831
▁collegate	-11.0831
seguiti	-11.0832
▁legali	-11.0832
▁spettatori	-11.0833
▁mia	-11.0834
▁immigrati	-11.0835
▁atteso	-11.0837
kon	-11.0838
piano	-11.0839
pì	-11.084
▁divina	-11.0841
complessivamente	-11.0841
bos	-11.0841
▁vara	-11.0841
rov	-11.0842
▁mettendo	-11.0846
pur	-11.0848
▁diversamente	-11.0848
▁subisce	-11.0849
53"	-11.085
▁spiegazione	-11.0853
gate	-11.0857
35"	-11.0861
edero	-11.0862
▁destro	-11.0865
▁carbone	-11.0866
▁derivati	-11.0866
uss	-11.087
▁effettuata	-11.0873
▁intel	-11.0873
▁ritirata	-11.0876
▁recupera	-11.0877
▁canne	-11.0882
impianto	-11.0883
albero	-11.0883
emilia	-11.0883
▁raccogliere	-11.0885
▁giusti	-11.0885
▁istituto	-11.0895
▁ms	-11.0906
▁illumina	-11.0908
▁segnato	-11.0908
mir	-11.091
▁"(	-11.0912
▁radioattivi	-11.0915
▁vettori	-11.0917
▁incursioni	-11.0918
▁napoletano	-11.0918
▁nobiltà	-11.0918
▁roosevelt	-11.0918
▁tipologie	-11.0918
▁pellicole	-11.0918
▁cabalisti	-11.0918
▁rimasti	-11.0919
▁municipio	-11.0919
▁ubicat	-11.0919
▁monaci	-11.0919
▁costumi	-11.0919
▁striscia	-11.0919
▁opposta	-11.0919
▁league	-11.0919
tutto	-11.0919
▁calcare	-11.092
▁calcoli	-11.0921
▁sensibilità	-11.0922
▁cambiò	-11.0924
▁ettari	-11.0925
dici	-11.0928
chan	-11.0928
▁crollo	-11.0928
▁dirigenti	-11.0929
▁chiede	-11.0932
▁specchio	-11.0936
▁sap	-11.0943
▁bou	-11.0944
▁agricoltura	-11.0944
▁elettronici	-11.0948
▁cana	-11.0957
▁organizzate	-11.096
ggiare	-11.096
▁organici	-11.096
sole	-11.0965
▁braccia	-11.0966
▁affermando	-11.0971
▁alghe	-11.0975
▁autonomi	-11.0975
veneto	-11.0975
bach	-11.0979
00"	-11.0982
▁riportati	-11.0984
94"	-11.0986
▁appartenenza	-11.0986
tipo	-11.0988
lz	-11.0989
▁impulso	-11.0989
_13	-11.0994
▁inventa	-11.0995
ottica	-11.0997
test	-11.0998
▁caltagirone	-11.1008
▁denuncia	-11.1008
▁galileo	-11.1008
▁legislativo	-11.1008
▁possedimenti	-11.1008
▁riconoscimenti	-11.1008
▁campanile	-11.1008
▁regolarmente	-11.1008
▁terroristi	-11.1008
▁sintassi	-11.1008
▁supergiganti	-11.1008
vangeli	-11.1008
▁affreschi	-11.1008
▁sicuro	-11.1009
▁1912	-11.1011
▁biologico	-11.1011
▁bellezza	-11.1011
_17	-11.1012
viol	-11.1015
▁belga	-11.1016
▁acqui	-11.1016
▁praga	-11.102
▁patti	-11.102
▁medica	-11.1024
nard	-11.1024
99"	-11.1026
63"	-11.1026
colla	-11.1033
▁kr	-11.1034
▁sesso	-11.1035
▁osservabile	-11.1036
▁argo	-11.1038
▁sessuali	-11.1038
▁americane	-11.1038
▁tradotto	-11.1042
▁tubo	-11.1042
▁duro	-11.1043
govern	-11.1043
▁trent	-11.1047
▁amore	-11.1048
pola	-11.1054
▁esecutivo	-11.1055
aereo	-11.1056
84"	-11.1058
comun	-11.1059
▁98	-11.1062
apparato	-11.1063
esperimento	-11.1064
gruppo	-11.1065
imponente	-11.1068
▁futura	-11.1069
▁160	-11.1069
▁neuro	-11.1071
▁(11	-11.1072
▁quindici	-11.1074
▁compie	-11.1076
▁aggiungendo	-11.1076
▁vela	-11.1083
▁75	-11.1089
centro	-11.1091
▁confermata	-11.1093
abete	-11.1095
▁offensiva	-11.1096
▁astronomia	-11.1096
▁borghese	-11.1098
▁crittografia	-11.1098
▁dintorni	-11.1098
▁giardini	-11.1098
▁ingloba	-11.1098
▁introdotte	-11.1098
▁progresso	-11.1098
▁riconosciute	-11.1098
▁svizzeri	-11.1098
▁viterbo	-11.1098
▁rilievi	-11.1098
▁doors	-11.1098
infrarosso	-11.1098
▁schiavi	-11.1098
▁consentito	-11.1098
▁riempi	-11.1098
▁distribuita	-11.1099
▁registri	-11.1099
▁attribuita	-11.1099
▁significativi	-11.1099
▁discesa	-11.1099
▁candidatura	-11.1099
▁43	-11.1099
▁raggiunta	-11.11
▁conteneva	-11.11
▁ingegneria	-11.11
▁1916	-11.11
▁segnò	-11.1102
▁incrocia	-11.1103
rolo	-11.1107
▁sudafrica	-11.1108
rosa	-11.1111
▁operativa	-11.1112
▁impegnati	-11.1114
missi	-11.1117
▁costruite	-11.1117
▁altrettanto	-11.1122
▁marx	-11.1125
=12	-11.1127
▁battaglie	-11.113
▁terni	-11.113
▁esperimento	-11.1132
eroe	-11.1136
cito	-11.1136
65"	-11.1137
▁120	-11.1138
▁albero	-11.1139
▁contesta	-11.1149
▁38	-11.1151
▁pig	-11.1152
seguì	-11.1152
roso	-11.1153
zy	-11.1155
intervallo	-11.1155
elevata	-11.1156
73"	-11.1159
dette	-11.116
invio	-11.1166
▁bara	-11.1167
▁chip	-11.1173
poi	-11.1173
head	-11.1178
key	-11.1179
▁topo	-11.1179
nau	-11.1182
▁allen	-11.1183
▁verificare	-11.1185
3%	-11.1186
▁tibet	-11.1188
▁olbia	-11.1189
▁bizantino	-11.1189
▁depositi	-11.1189
▁scioglimento	-11.1189
▁sorpresa	-11.1189
▁televisive	-11.1189
▁televisivo	-11.1189
▁vissuto	-11.1189
▁gagarin	-11.1189
▁archeologico	-11.1189
▁medievali	-11.1189
▁destinati	-11.1189
▁supremo	-11.1189
▁nettuno	-11.1189
▁memorizza	-11.1189
▁dentro	-11.1189
▁analogo	-11.1189
▁competenze	-11.119
▁tronto	-11.1192
▁black	-11.1192
▁lavor	-11.1193
▁gambe	-11.1194
▁dominato	-11.1195
▁assistenza	-11.1196
▁circolo	-11.1198
▁interessanti	-11.1201
▁mail	-11.1203
▁trionfo	-11.1204
▁crema	-11.1204
▁righe	-11.1206
▁ratifica	-11.1208
▁ordinamento	-11.1208
rom	-11.1209
geri	-11.121
▁anniversario	-11.1213
▁riguardano	-11.1214
egò	-11.1224
▁impianto	-11.1226
zzazioni	-11.1226
sana	-11.1227
▁rio	-11.1229
▁dog	-11.1231
text	-11.1233
▁soci	-11.1233
grandi	-11.1234
▁christ	-11.1235
bandiera	-11.1248
▁vasti	-11.1252
▁ispirazione	-11.1257
▁sembrava	-11.1257
▁international	-11.1258
▁esclusi	-11.1259
▁punte	-11.126
▁rou	-11.1263
acquisizione	-11.1264
sburg	-11.1265
▁rischi	-11.1275
rp	-11.1278
▁completato	-11.128
immigrazione	-11.128
▁latitudini	-11.128
▁pacchetto	-11.128
▁ripristina	-11.128
▁ritenuta	-11.128
▁schiaccia	-11.128
▁settentrionali	-11.128
▁keynes	-11.128
▁parentesi	-11.128
▁proteste	-11.1281
▁apporta	-11.1281
▁mazzini	-11.1281
▁villon	-11.1281
▁fortificazioni	-11.1281
▁avvenire	-11.1281
▁giudici	-11.1281
▁malware	-11.1281
▁attrezz	-11.1281
▁forn	-11.1283
▁straordinaria	-11.1283
▁egitto	-11.1288
▁trovavano	-11.1289
▁interpretazioni	-11.129
▁aggrega	-11.1291
▁secondaria	-11.1291
▁invase	-11.1292
▁rappresentava	-11.1293
▁comete	-11.1294
▁papi	-11.1304
falco	-11.1305
▁patrizi	-11.1305
▁kar	-11.1306
▁stimato	-11.1307
▁gestita	-11.1311
▁(6	-11.1311
ossola	-11.1312
56"	-11.1312
46"	-11.1314
▁complessiva	-11.1317
▁insetti	-11.1319
▁protone	-11.1319
▁ottica	-11.132
▁eredi	-11.1321
▁sistematica	-11.1322
▁stime	-11.1323
▁favorito	-11.133
▁veda	-11.1333
▁conquistare	-11.1334
▁assegnata	-11.1334
▁polinomi	-11.1337
▁radicali	-11.1337
▁ingegneri	-11.134
74"	-11.134
_15	-11.1342
▁leggeri	-11.1351
▁misurazione	-11.1358
▁adottare	-11.1361
▁includere	-11.1365
▁dovesse	-11.1367
▁identificato	-11.1367
▁minor	-11.1371
economic	-11.1371
fatto	-11.1371
ucraina	-11.1373
▁dispositivo	-11.1373
▁eiffel	-11.1373
▁legislazione	-11.1373
▁riuscito	-11.1373
▁svariati	-11.1373
▁amedeo	-11.1373
▁rivolge	-11.1373
▁sequenze	-11.1373
▁terremoto	-11.1373
▁ripreso	-11.1373
▁padana	-11.1373
▁pinochet	-11.1373
▁padri	-11.1374
▁mentale	-11.1374
▁platino	-11.1374
▁esposto	-11.1374
▁peculiarità	-11.1375
▁chiusi	-11.1376
▁novità	-11.1376
▁equipaggi	-11.1376
sula	-11.1378
▁riduce	-11.138
▁conquistato	-11.1382
corrono	-11.1387
enna	-11.1387
▁you	-11.1388
▁dirigente	-11.1389
▁progressiva	-11.1389
▁provvisorio	-11.139
("	-11.1391
▁isolato	-11.1394
▁sonora	-11.1396
14"	-11.1397
▁classificato	-11.1397
▁arrivarono	-11.1402
▁spie	-11.1402
▁atomici	-11.1406
▁statistico	-11.1413
▁casse	-11.1415
work	-11.1416
▁assegnati	-11.1419
▁circondata	-11.1422
▁ghiacci	-11.1426
▁appia	-11.1428
▁procedere	-11.1428
▁cavalieri	-11.143
▁cus	-11.1432
aggi	-11.1434
▁catal	-11.1439
villa	-11.144
muta	-11.1444
islam	-11.1449
▁ospedale	-11.1457
▁costrui	-11.1463
▁norvegese	-11.1466
▁orizzontale	-11.1466
▁procedure	-11.1466
▁richiedono	-11.1466
▁suddivide	-11.1466
▁destinazione	-11.1467
▁segreti	-11.1467
▁sbarco	-11.1467
▁preserva	-11.1467
▁geografiche	-11.1468
▁cime	-11.1468
▁ribellione	-11.1468
▁debito	-11.1469
▁ricorso	-11.1471
apporto	-11.1471
▁ascolta	-11.1471
▁edward	-11.1474
▁razionali	-11.1476
▁andando	-11.1477
▁ionizzazione	-11.1478
▁piatto	-11.1479
andro	-11.1479
▁inaugurata	-11.1483
▁cano	-11.1486
▁patrono	-11.1487
aveva	-11.1491
▁eroi	-11.1499
▁esponente	-11.1501
▁cup	-11.1503
▁iscritti	-11.1505
ampiezza	-11.1505
▁anticamente	-11.1507
lui	-11.1508
▁batti	-11.1511
volo	-11.1512
83"	-11.152
▁difende	-11.1522
interfaccia	-11.1531
▁hd	-11.1535
▁regn	-11.154
▁stor	-11.1541
▁saggio	-11.1542
▁intensa	-11.1543
▁bud	-11.1546
sing	-11.1547
▁adolf	-11.1548
cam	-11.1548
87"	-11.1552
abba	-11.1554
▁particolar	-11.1555
▁rivendica	-11.1556
»)	-11.1558
▁andromeda	-11.1561
▁circostanze	-11.1561
▁elettriche	-11.1561
▁recupero	-11.1561
▁sconfisse	-11.1561
insurrezione	-11.1561
elettromagnetico	-11.1561
▁terminò	-11.1561
▁salerno	-11.1561
▁cassino	-11.1561
▁strategico	-11.1561
▁patriarca	-11.1561
▁disposti	-11.1561
▁elettorale	-11.1562
▁araba	-11.1562
▁walter	-11.1564
abolizione	-11.1564
▁1906	-11.1565
300	-11.1565
61"	-11.1567
▁collaboratori	-11.1567
ffo	-11.1569
▁individuali	-11.1569
▁eserciti	-11.157
▁war	-11.1571
▁code	-11.1573
inno	-11.1576
sm	-11.1582
venuti	-11.1583
▁determinazione	-11.1584
59"	-11.1584
▁approfond	-11.1586
olio	-11.1588
▁lettori	-11.1589
,5%	-11.1592
▁settima	-11.1595
▁crebbe	-11.1598
▁diploma	-11.1599
py	-11.1605
▁repubblicano	-11.1609
▁botti	-11.1612
iii	-11.1616
▁osservate	-11.1618
▁trasferir	-11.1619
-16	-11.1619
trap	-11.1622
▁includeva	-11.1623
apprendimento	-11.1627
▁funzionale	-11.1631
▁coloniale	-11.1634
ciclo	-11.1638
▁aggiunse	-11.1643
▁sella	-11.1646
▁rotte	-11.1648
▁vulcani	-11.1648
tsch	-11.165
mur	-11.1652
entrarono	-11.1652
ducono	-11.1653
arcivescovo	-11.1656
▁berillio	-11.1656
▁coefficienti	-11.1656
▁python	-11.1656
▁rinascita	-11.1656
▁investimenti	-11.1656
▁compagno	-11.1656
▁modula	-11.1656
▁laplace	-11.1656
▁scoppia	-11.1656
▁schemi	-11.1657
▁qualora	-11.1657
▁bbc	-11.1657
▁tastiera	-11.1658
▁esplicitamente	-11.166
▁messier	-11.1662
▁1909	-11.1663
▁coniato	-11.1663
▁1815	-11.1663
▁concentramento	-11.1669
enzima	-11.167
▁capri	-11.1671
▁analizza	-11.1672
▁lento	-11.1672
genesi	-11.1672
dì	-11.1677
▁liguria	-11.1678
▁bersaglio	-11.1683
▁veramente	-11.1684
▁israele	-11.1686
nice	-11.1687
▁cancell	-11.1693
▁effettuati	-11.1696
▁messe	-11.1703
▁raggiungendo	-11.1703
,3%	-11.1704
▁mole	-11.1705
▁ced	-11.1711
▁pubblicare	-11.1716
▁hockey	-11.1717
▁nm	-11.1717
enziale	-11.1719
▁lineari	-11.172
gruppi	-11.1725
rive	-11.1731
▁svolgere	-11.1734
▁presi	-11.1734
▁teologi	-11.174
atlantico	-11.1741
▁attaccare	-11.1746
▁bombarda	-11.1746
76"	-11.1748
▁simula	-11.175
mate	-11.1752
▁buddhismo	-11.1752
▁manhattan	-11.1752
▁costume	-11.1752
▁leibniz	-11.1752
▁concorrenza	-11.1752
▁flussi	-11.1752
▁ammonta	-11.1752
▁svolte	-11.1752
alluminio	-11.1752
▁sergio	-11.1752
▁vessillo	-11.1753
▁venere	-11.1753
▁bosoni	-11.1753
▁recò	-11.1753
▁vendite	-11.1753
▁panzer	-11.1754
▁fabbriche	-11.1754
▁ascii	-11.1754
▁colleghi	-11.1755
▁capelli	-11.1755
▁ritengono	-11.1757
▁presidi	-11.1758
▁costituì	-11.1759
▁nettamente	-11.176
▁dipendenza	-11.176
=53	-11.1762
▁falsi	-11.1763
▁visitatori	-11.1763
▁lupo	-11.1766
quadra	-11.177
▁piero	-11.177
▁impegno	-11.1772
atomo	-11.178
▁candidato	-11.178
▁arrestato	-11.178
▁torrenti	-11.1783
▁force	-11.1788
▁nominati	-11.1789
▁dieta	-11.179
oh	-11.1792
▁confusione	-11.1792
mission	-11.1792
="53	-11.1793
▁heinr	-11.1795
▁fondatori	-11.1796
=50	-11.1797
▁cinta	-11.1798
▁turisti	-11.1806
▁atmosfera	-11.181
▁allarga	-11.1812
▁gerarchi	-11.1816
pus	-11.1817
▁accorda	-11.1818
umbria	-11.1822
▁yo	-11.1825
▁ambientat	-11.1825
americani	-11.1828
approssimazione	-11.1833
▁notazione	-11.1835
▁(13	-11.1836
annu	-11.1837
▁700	-11.184
▁mars	-11.1843
▁consulta	-11.1843
▁positiva	-11.1843
▁abbondanza	-11.1844
▁approfitta	-11.1849
▁barbarossa	-11.1849
▁coinvolti	-11.1849
▁cospicu	-11.1849
▁finlandese	-11.1849
▁giornate	-11.1849
▁membrana	-11.1849
▁meridiano	-11.1849
▁procedimento	-11.1849
▁rimaste	-11.1849
▁inclusa	-11.185
▁uova	-11.185
▁debba	-11.185
▁deneb	-11.185
▁invasioni	-11.185
costretti	-11.1851
▁totalità	-11.1852
▁bergamo	-11.1852
▁lettonia	-11.1853
▁pascal	-11.1853
▁futuri	-11.1854
▁pubblicitari	-11.1855
▁tracciato	-11.1857
▁servo	-11.1858
▁operare	-11.1859
▁ua	-11.1859
=48	-11.186
▁1866	-11.186
atomi	-11.1861
▁corda	-11.1861
▁finì	-11.1862
▁bellico	-11.1864
▁astro	-11.1866
▁intendeva	-11.1867
▁maschili	-11.1867
▁chiedere	-11.1871
▁disegnato	-11.1871
mé	-11.1872
▁manipola	-11.1872
▁spirit	-11.1874
▁indietro	-11.1875
▁modificata	-11.188
▁cambiato	-11.1884
▁salita	-11.1884
blu	-11.1886
ugu	-11.1888
▁polinomio	-11.1888
division	-11.1889
hel	-11.1895
▁esposizione	-11.1896
▁processori	-11.1902
▁alitalia	-11.1907
▁introduce	-11.1909
▁nacquero	-11.191
▁dop	-11.1912
▁registrare	-11.1917
1/2	-11.1922
air	-11.1924
▁divenire	-11.1929
los	-11.1931
▁pino	-11.194
termin	-11.1942
▁individuo	-11.1942
▁divulga	-11.1944
idae	-11.1946
eclittica	-11.1947
▁cefeidi	-11.1947
▁storiografia	-11.1947
▁vegetali	-11.1947
▁pixel	-11.1947
inquinamento	-11.1947
▁compenso	-11.1947
▁metabolismo	-11.1947
▁compagna	-11.1947
▁riviera	-11.1947
▁sinistro	-11.1948
▁angeli	-11.1948
▁estrema	-11.1948
▁esposta	-11.1948
▁compensa	-11.1949
▁prevalenza	-11.1949
▁vettoriale	-11.195
attrazione	-11.195
▁sensibile	-11.195
▁parallelamente	-11.1951
▁grossi	-11.1951
ington	-11.1951
▁scopre	-11.1954
▁metano	-11.1955
▁my	-11.1955
▁cavità	-11.1955
▁bombe	-11.1956
▁mega	-11.1957
▁intesa	-11.1957
▁inteso	-11.1958
▁superiorità	-11.1958
▁mangia	-11.1958
▁combinazioni	-11.196
▁sovrasta	-11.196
▁violazione	-11.1961
▁provocando	-11.1967
▁razza	-11.197
▁bruta	-11.197
▁tagli	-11.1971
▁formate	-11.1972
="48	-11.1976
▁effettuate	-11.1982
▁approvata	-11.1987
▁rna	-11.1987
▁concorso	-11.1989
▁arresta	-11.1995
="50	-11.1997
▁diffonde	-11.2
▁will	-11.2005
▁br	-11.2009
▁letteralmente	-11.2012
gru	-11.2013
seguito	-11.2013
▁angolo	-11.2015
▁accettata	-11.2016
▁giovi	-11.2026
▁gab	-11.2028
▁boro	-11.2035
19"	-11.204
ficato	-11.2044
document	-11.2045
▁asimov	-11.2046
▁bahá	-11.2046
▁eseguita	-11.2046
▁intraprese	-11.2046
▁network	-11.2046
▁paziente	-11.2046
▁continenti	-11.2046
▁partner	-11.2046
▁etruschi	-11.2046
compaiono	-11.2046
▁girolamo	-11.2046
▁fosforo	-11.2046
▁sepolto	-11.2046
sotto	-11.2047
▁piloti	-11.2047
▁sostengono	-11.2047
▁organizzò	-11.2047
▁online	-11.2048
▁scatena	-11.2048
▁validità	-11.2048
light	-11.2048
▁restaurazione	-11.2049
▁percorsi	-11.2049
▁proviene	-11.2049
▁grotte	-11.2051
▁muore	-11.2052
▁sottoposto	-11.2053
aeronautica	-11.2054
▁protestanti	-11.2055
▁riferirsi	-11.2056
pedi	-11.2058
▁intermedia	-11.206
▁rilevare	-11.2063
▁valse	-11.2065
▁spinse	-11.2067
▁nativo	-11.2068
▁def	-11.2069
▁integrato	-11.2069
ngen	-11.2072
izia	-11.2074
▁voler	-11.2077
▁city	-11.2077
▁paesaggio	-11.208
▁strapp	-11.2089
▁magna	-11.2095
▁rinforz	-11.2095
▁vincent	-11.2096
▁esistere	-11.2096
casa	-11.2103
fat	-11.2106
▁(8	-11.2112
▁mostrare	-11.2113
▁finora	-11.2113
▁input	-11.2114
▁azoto	-11.2116
▁derivazione	-11.2117
posta	-11.2118
▁mercanti	-11.2121
informatica	-11.2123
conosci	-11.2128
vecchia	-11.2136
▁pianific	-11.2137
▁barra	-11.214
vy	-11.2144
accento	-11.2146
presso	-11.2146
▁public	-11.2146
▁priori	-11.2146
▁zio	-11.2146
▁californio	-11.2146
▁combustibile	-11.2146
▁considerevole	-11.2146
▁juventus	-11.2146
▁magellano	-11.2146
▁mitocondri	-11.2146
▁baviera	-11.2146
▁controversie	-11.2146
▁verticale	-11.2146
▁rigido	-11.2146
▁negativi	-11.2147
▁sfuma	-11.2147
▁sostenendo	-11.2147
▁stretti	-11.2147
,2%	-11.2148
▁segnalare	-11.2148
▁borghi	-11.2149
▁port	-11.2149
▁correttamente	-11.2156
automa	-11.2157
▁primario	-11.2157
=55	-11.2159
dé	-11.2163
unt	-11.2164
▁ple	-11.2164
server	-11.2164
="52	-11.2166
▁(«	-11.2169
▁molecolari	-11.2171
▁stagno	-11.2176
▁science	-11.2176
▁rilevato	-11.2177
▁pani	-11.218
▁dovrebbero	-11.2181
estetica	-11.2182
▁130	-11.2187
▁qual	-11.2192
▁osservatori	-11.2193
▁registrata	-11.2194
▁fermat	-11.2198
primo	-11.2199
▁56	-11.2205
▁commissari	-11.221
▁retto	-11.2212
osservatorio	-11.2212
▁troia	-11.2213
sb	-11.2216
signor	-11.2216
▁ricopert	-11.2218
mark	-11.222
approccio	-11.2225
▁grosse	-11.2225
soprattutto	-11.2225
▁espressi	-11.2227
▁costitui	-11.2228
-8	-11.2228
▁costituiva	-11.2236
tende	-11.2238
interpret	-11.2239
▁finita	-11.224
fri	-11.2243
▁compete	-11.2245
aritmetica	-11.2247
▁bonaparte	-11.2247
▁kubrick	-11.2247
▁margherita	-11.2247
▁napoleonica	-11.2247
▁periferia	-11.2247
▁reciproca	-11.2247
▁sostanziale	-11.2247
▁versailles	-11.2247
▁chiamò	-11.2247
▁marittima	-11.2247
▁zurigo	-11.2247
▁rovigo	-11.2247
▁saturno	-11.2247
seguimento	-11.2247
▁offrire	-11.2247
▁comics	-11.2248
▁vandali	-11.2248
▁ripete	-11.2248
▁distribuiti	-11.2248
▁wolf	-11.2248
▁41	-11.2249
▁1907	-11.225
▁segrete	-11.225
▁soppressione	-11.225
▁trieste	-11.225
▁1913	-11.2251
▁reticolo	-11.2251
angola	-11.2251
▁feriti	-11.2252
▁stampo	-11.2252
=52	-11.2252
▁declinazione	-11.2253
=51	-11.2254
▁stadi	-11.2254
▁trasmesso	-11.2255
▁hubble	-11.2256
=54	-11.2259
▁christian	-11.226
fen	-11.2261
▁legioni	-11.2261
▁curve	-11.2263
acque	-11.2266
▁confess	-11.2267
▁comandata	-11.2268
▁farlo	-11.2268
▁williams	-11.2269
▁ossa	-11.227
▁misurata	-11.2274
▁service	-11.2276
▁montane	-11.2279
="47	-11.2281
="55	-11.2287
▁ferrari	-11.2291
▁one	-11.2296
="51	-11.23
operatore	-11.2301
▁circondato	-11.2302
▁saggi	-11.2304
="54	-11.2311
▁salta	-11.2311
insegna	-11.2325
▁spessore	-11.2326
▁award	-11.2327
autonomia	-11.2328
▁matt	-11.2328
▁girato	-11.2329
▁250	-11.2335
▁stu	-11.2343
▁raccomand	-11.2347
▁ribelli	-11.2348
▁condotti	-11.2349
▁istituzionale	-11.2349
▁magnitudini	-11.2349
▁proseguire	-11.2349
▁portogallo	-11.2349
▁prefisso	-11.2349
▁slogan	-11.2349
▁collettiva	-11.2349
▁appositamente	-11.2349
▁contenuta	-11.2349
▁numerazione	-11.2349
▁suicidio	-11.235
▁cratere	-11.235
▁annualmente	-11.235
▁allievi	-11.235
▁uccise	-11.235
▁piceno	-11.235
▁emissioni	-11.235
▁eugenio	-11.235
▁cosmici	-11.235
▁laterali	-11.235
assalto	-11.2351
▁ceneri	-11.2352
▁valido	-11.2353
=47	-11.2353
▁river	-11.2355
▁credeva	-11.2357
=49	-11.236
part	-11.2361
▁documentazione	-11.2368
▁rub	-11.2369
orientamento	-11.2372
▁99	-11.2374
▁onora	-11.2384
eliminazione	-11.239
▁castell	-11.2392
fel	-11.2392
-6	-11.2393
▁pubblicamente	-11.2404
kar	-11.2412
▁(7	-11.2412
trans	-11.2413
▁avversario	-11.2415
▁neon	-11.2427
pensa	-11.243
campi	-11.2433
="49	-11.2434
_26	-11.2434
teoria	-11.2434
▁succede	-11.2434
▁piste	-11.2437
alpi	-11.2437
heim	-11.2443
▁certifica	-11.2443
mbar	-11.2449
▁abbandonò	-11.2452
▁manutenzione	-11.2452
▁risultò	-11.2452
▁sostituendo	-11.2452
▁dipendono	-11.2453
▁previste	-11.2453
▁ristabili	-11.2453
▁dorsale	-11.2453
▁tessile	-11.2453
▁sottostante	-11.2453
▁coinvolgimento	-11.2453
▁marocco	-11.2453
▁fuggire	-11.2453
▁geometrica	-11.2453
▁chiavi	-11.2453
▁spiaggia	-11.2453
▁chieti	-11.2454
▁commuta	-11.2454
="2	-11.2455
▁polari	-11.2455
▁arrivano	-11.2456
=92	-11.2459
▁distribu	-11.246
adige	-11.2461
▁basta	-11.2468
▁trasformato	-11.2468
▁assolutamente	-11.2469
▁stabilimento	-11.247
▁dure	-11.2474
▁borsa	-11.2476
camera	-11.2479
▁quarant	-11.248
▁spunt	-11.2484
▁favorire	-11.2486
▁"«	-11.2487
rice	-11.2487
gran	-11.2488
▁sacco	-11.2492
▁teologia	-11.2492
▁cella	-11.2497
uci	-11.2498
▁bruna	-11.2501
▁zar	-11.2507
haus	-11.2509
▁esamina	-11.2513
▁51	-11.2516
▁carboni	-11.2518
fone	-11.2521
▁intensità	-11.2527
...)	-11.2531
▁card	-11.2536
▁buoni	-11.2536
sistemi	-11.2538
▁citare	-11.2539
▁spezza	-11.2539
▁master	-11.2542
▁leggero	-11.2547
▁vario	-11.2548
▁sun	-11.2548
▁eliminare	-11.2553
duttore	-11.2553
▁deposita	-11.2557
▁giuridico	-11.2557
▁irregolare	-11.2557
▁napoletana	-11.2557
▁plebiscito	-11.2557
▁plutonio	-11.2557
▁soccorso	-11.2557
▁ostacola	-11.2557
contrapposizione	-11.2557
▁convinzione	-11.2557
▁mescola	-11.2557
▁sentimenti	-11.2557
▁chiesto	-11.2557
▁uscito	-11.2557
edilizia	-11.2557
▁adulti	-11.2557
▁dublino	-11.2557
▁musicista	-11.2557
▁contrazione	-11.2558
▁maestri	-11.2558
▁narrativa	-11.2559
▁planck	-11.256
▁giusto	-11.2562
▁terranova	-11.2563
▁georges	-11.2563
▁turistiche	-11.2564
impossibilità	-11.2566
ensis	-11.2567
▁ritirarsi	-11.2567
▁php	-11.2567
hotel	-11.257
▁bruce	-11.2571
▁innalza	-11.2575
wald	-11.2578
scenza	-11.2579
rium	-11.2581
▁uccidere	-11.2585
▁realmente	-11.2586
▁accedere	-11.2588
▁cash	-11.2589
▁cuba	-11.259
="92	-11.259
esordio	-11.2595
▁chiare	-11.2598
ée	-11.2601
▁49	-11.2601
▁'80	-11.2604
▁recuperare	-11.2605
▁union	-11.2606
▁commission	-11.2608
uff	-11.2609
▁aldo	-11.2617
▁albi	-11.262
▁od	-11.2625
▁cost	-11.2628
▁colpita	-11.2632
▁fida	-11.2633
valle	-11.2634
▁unifica	-11.2635
▁interazione	-11.2643
_18	-11.2645
▁signoria	-11.2654
slav	-11.2656
▁rinvenut	-11.2657
▁completata	-11.2658
▁pensato	-11.2658
nf	-11.2658
duttori	-11.2659
▁concessi	-11.2659
▁carpi	-11.2661
xx	-11.2662
aristocrazia	-11.2662
▁femmine	-11.2662
▁hitchcock	-11.2662
▁introdotti	-11.2662
▁agricolo	-11.2662
▁distruggere	-11.2662
▁repertorio	-11.2662
▁fedeltà	-11.2662
▁callisto	-11.2662
▁profonde	-11.2662
▁inserire	-11.2662
▁luminoso	-11.2662
special	-11.2662
▁druso	-11.2662
▁apollo	-11.2662
▁repressione	-11.2663
▁affili	-11.2663
▁coefficiente	-11.2663
élite	-11.2663
ebraismo	-11.2663
▁tenuti	-11.2664
▁tenente	-11.2665
▁violente	-11.2665
ggiato	-11.2666
▁sapeva	-11.2666
▁appassionati	-11.2669
avessero	-11.267
▁50%	-11.2672
dall	-11.2673
▁paura	-11.2675
▁portava	-11.2675
▁distrutti	-11.2676
▁sov	-11.2677
▁verbi	-11.2678
▁sara	-11.2684
▁possedeva	-11.2685
▁meteo	-11.2687
▁treni	-11.2688
▁adams	-11.2689
▁contee	-11.2693
▁restante	-11.2697
▁finanziari	-11.2697
▁salda	-11.27
▁occupano	-11.2709
fede	-11.271
▁rispondere	-11.2711
▁palma	-11.2713
▁motto	-11.2713
▁home	-11.2713
▁finalizzat	-11.2714
assassinio	-11.2717
▁buco	-11.2719
esplorazione	-11.2723
▁minimi	-11.2726
▁separata	-11.2726
▁chiude	-11.273
▁terapia	-11.2731
▁atteggiamento	-11.2733
▁nozione	-11.2738
▁concorda	-11.274
▁ellen	-11.2743
▁decisi	-11.2747
nazionali	-11.275
osservatore	-11.2751
impegno	-11.2751
adriatico	-11.2751
costellazioni	-11.2751
▁coloniali	-11.2752
▁invest	-11.2761
▁siciliana	-11.2762
▁aeroporto	-11.2767
▁cromosomi	-11.2768
▁aristotele	-11.2768
▁biblioteche	-11.2768
▁difensiva	-11.2768
▁governatorato	-11.2768
▁qualcuno	-11.2768
▁quotidiana	-11.2768
▁ricostruire	-11.2768
▁automatico	-11.2768
▁stesura	-11.2768
▁ritratti	-11.2768
▁smtp	-11.2768
▁nominò	-11.2768
▁svolti	-11.2768
▁concluso	-11.2768
▁contrariamente	-11.2769
▁ricordo	-11.2769
▁cessione	-11.2772
▁decisivo	-11.2772
▁fattorizzazione	-11.2773
▁squa	-11.2774
▁assedia	-11.2775
▁prato	-11.2776
▁transita	-11.2776
▁sponda	-11.2777
▁estivo	-11.2778
▁gusto	-11.2778
▁cosm	-11.2778
▁socialismo	-11.2781
▁nava	-11.2781
offrì	-11.2785
▁fisso	-11.2785
tribuiscono	-11.2787
▁alleato	-11.2787
=8	-11.2793
▁dicendo	-11.2793
▁pronto	-11.2796
ule	-11.2798
ontario	-11.28
omicidio	-11.28
▁trionfa	-11.2801
▁jim	-11.2802
▁direttiva	-11.2802
▁ghiacciai	-11.2804
▁finestre	-11.2805
▁andato	-11.281
▁iniziare	-11.2815
▁tin	-11.2815
▁facili	-11.2817
▁impegnato	-11.282
▁riferito	-11.2825
▁ottennero	-11.2828
▁delinea	-11.2832
▁cinquant	-11.2835
verse	-11.2835
▁ufficio	-11.2836
=2	-11.2843
▁terri	-11.2843
▁ignora	-11.2844
▁beat	-11.2846
sberg	-11.285
fera	-11.2851
▁irlanda	-11.2851
servi	-11.2852
▁singolare	-11.2854
▁consisteva	-11.2854
▁giri	-11.2855
▁green	-11.2856
iane	-11.286
▁colu	-11.2861
fico	-11.2863
▁mitologi	-11.2865
book	-11.287
dopo	-11.2871
▁ruba	-11.2872
▁pseudo	-11.2876
▁commodore	-11.2876
▁erroneamente	-11.2876
▁quattordici	-11.2876
▁suddivise	-11.2876
▁tassonomia	-11.2876
▁liquida	-11.2876
▁adriatica	-11.2876
▁manovra	-11.2876
▁cambridge	-11.2876
▁isaac	-11.2876
▁decreta	-11.2877
▁banchi	-11.2877
▁avvengono	-11.2877
▁schede	-11.2877
▁curling	-11.2877
▁cupola	-11.2877
▁musiche	-11.2878
▁franz	-11.2878
▁wall	-11.2879
▁voluta	-11.288
▁sacramento	-11.2881
▁general	-11.2881
▁vercelli	-11.2884
▁frutta	-11.2885
=91	-11.2886
▁1889	-11.2887
▁interroga	-11.2888
▁leopoldo	-11.2889
▁pesi	-11.289
▁utente	-11.2891
▁str	-11.2898
▁spada	-11.2899
▁diresse	-11.2903
animale	-11.2904
▁pane	-11.2904
pd	-11.2904
▁paleo	-11.2906
▁evidenza	-11.2912
talmente	-11.2912
bella	-11.2912
▁marie	-11.2915
▁chiudere	-11.2918
▁vivi	-11.2926
▁veste	-11.2927
uer	-11.2929
▁gel	-11.2936
▁rod	-11.294
▁sql	-11.2941
▁maschio	-11.2941
▁lula	-11.2942
ndel	-11.2943
▁armato	-11.2945
emp	-11.2946
▁paesaggi	-11.2947
▁59	-11.295
pop	-11.295
rosso	-11.2951
taxa	-11.2952
▁vinta	-11.2955
▁dichiarata	-11.2961
_22	-11.2962
▁vicari	-11.2965
▁patrimoni	-11.2969
▁ban	-11.2969
elaborazione	-11.2969
▁formi	-11.2977
▁cercava	-11.2979
inclinazione	-11.2982
▁solidi	-11.2983
destin	-11.2983
▁aggiungono	-11.2985
▁agricoli	-11.2985
▁alexander	-11.2985
▁costituente	-11.2985
▁pianeggiante	-11.2985
▁svolgimento	-11.2985
foederati	-11.2985
▁borbone	-11.2985
▁cavalleria	-11.2985
▁ceramica	-11.2985
▁sconfigge	-11.2985
▁tommaso	-11.2985
▁corazzati	-11.2985
▁costretta	-11.2985
▁formule	-11.2985
▁barocco	-11.2985
▁frammenti	-11.2985
▁imposte	-11.2985
▁ospite	-11.2985
▁divieto	-11.2985
▁discendenti	-11.2985
▁argomento	-11.2985
▁iodio	-11.2987
▁piazze	-11.2987
▁superficiali	-11.2987
▁zecca	-11.2988
▁unitario	-11.299
▁venera	-11.299
▁benevento	-11.2991
▁civita	-11.2992
▁privilegia	-11.2993
wan	-11.2993
▁coordinamento	-11.2997
▁1890	-11.2998
zone	-11.2999
▁regolamenta	-11.3001
▁superman	-11.3001
▁lavorava	-11.3005
regola	-11.3006
▁1895	-11.3007
▁tassa	-11.3007
▁cellulari	-11.3007
plan	-11.301
▁rivolto	-11.3013
▁coppe	-11.3014
-4	-11.3018
▁esporta	-11.3019
errore	-11.3019
▁duemila	-11.302
▁soggiorno	-11.3021
▁ricoperto	-11.3025
▁spezz	-11.3025
▁erede	-11.3027
▁assumendo	-11.3029
reich	-11.3031
reale	-11.3031
▁continuamente	-11.3032
▁liberamente	-11.3039
utilità	-11.304
▁alleata	-11.3041
gold	-11.3042
destra	-11.3059
▁matura	-11.3063
▁migra	-11.3064
="91	-11.3065
▁conquistata	-11.3067
▁indicava	-11.3069
oscar	-11.3072
erebbe	-11.3074
corsa	-11.3076
▁automobili	-11.3079
▁georg	-11.3079
▁sorgeva	-11.3085
estrazione	-11.3086
feld	-11.3089
▁algebrica	-11.3094
▁chaplin	-11.3094
▁cinematografico	-11.3094
▁feldmaresciallo	-11.3094
▁ludovico	-11.3094
▁meccanico	-11.3094
▁serpente	-11.3094
▁aggiudica	-11.3094
▁posteriori	-11.3094
▁ugualmente	-11.3094
▁bibbia	-11.3094
▁accentua	-11.3094
▁permanenza	-11.3094
▁mineralogi	-11.3095
▁innovazioni	-11.3095
▁titolare	-11.3095
costruì	-11.3095
▁ciampi	-11.3095
cinematografiche	-11.3095
▁sbarca	-11.3095
▁sacrifici	-11.3095
▁ottima	-11.3095
▁mezzogiorno	-11.3096
▁tombe	-11.3097
▁rivalità	-11.3098
▁estivi	-11.31
▁costiere	-11.31
▁fermioni	-11.3101
▁cieli	-11.3103
▁disputato	-11.3104
▁dirama	-11.3104
▁pesantemente	-11.3106
▁riorganizza	-11.3108
▁gru	-11.3108
▁1500	-11.3108
▁garda	-11.3114
▁guid	-11.3125
▁ordinari	-11.3126
▁corone	-11.313
▁merano	-11.3131
▁cedere	-11.3137
▁prive	-11.3137
▁tan	-11.314
▁redatto	-11.314
central	-11.3142
▁applicare	-11.3143
▁universitario	-11.3148
▁52	-11.3152
alimentazione	-11.3152
▁colonizza	-11.3158
0)	-11.3161
▁gale	-11.3173
▁comunicare	-11.3177
▁controllata	-11.3181
▁assorb	-11.3181
▁pesa	-11.3181
;&	-11.3185
podi	-11.3185
▁precede	-11.3188
▁hard	-11.3193
accusa	-11.3193
ovvero	-11.3193
nuova	-11.3194
▁repubblicana	-11.3197
,6%	-11.32
▁preparato	-11.3204
abbigliamento	-11.3206
▁grenoble	-11.3206
▁marketing	-11.3206
▁merckx	-11.3206
▁ottaviano	-11.3206
▁spirituali	-11.3206
avvocato	-11.3206
▁ottengono	-11.3206
▁tensioni	-11.3206
▁agenzie	-11.3206
▁license	-11.3206
▁ritenne	-11.3206
▁filtra	-11.3206
▁edoardo	-11.3206
▁type	-11.3206
▁colombo	-11.3206
▁meteoriti	-11.3206
▁farmaci	-11.3206
▁registro	-11.3206
▁violenta	-11.3206
▁riflessione	-11.3206
▁lettore	-11.3207
▁trascina	-11.3207
▁campana	-11.3209
▁sfonda	-11.3209
▁naviglio	-11.321
▁verranno	-11.321
▁bacini	-11.321
▁stabilisce	-11.321
▁1867	-11.3212
▁association	-11.3213
▁visual	-11.3213
▁stimata	-11.3217
▁freddi	-11.3222
▁riscoss	-11.3222
▁praticato	-11.3224
▁neanche	-11.3226
▁valenza	-11.3227
vina	-11.3227
▁bagno	-11.3229
▁attivamente	-11.3234
glione	-11.3236
▁rischia	-11.3238
▁rimini	-11.3242
▁generico	-11.3244
▁mezza	-11.3245
▁processore	-11.3253
▁letterarie	-11.3254
▁scavi	-11.3256
governo	-11.326
▁quarti	-11.3261
▁alloggi	-11.3262
▁preferito	-11.3263
▁valutare	-11.3266
▁scorta	-11.3268
▁cubi	-11.3277
▁adattamento	-11.3277
scritta	-11.3278
pole	-11.3279
▁soggiorn	-11.3281
eccetto	-11.3288
morfi	-11.3291
cello	-11.3292
:00	-11.3293
▁copre	-11.3294
▁interpretare	-11.3298
▁riportano	-11.3298
▁rientrare	-11.3303
▁dos	-11.3309
▁vincendo	-11.3313
equivalenza	-11.3314
▁avventure	-11.3318
▁discreto	-11.3318
▁partigiani	-11.3318
▁vegetazione	-11.3318
▁visigoti	-11.3318
▁fotografie	-11.3318
▁sospetta	-11.3318
▁teorici	-11.3318
▁clark	-11.3318
▁galilei	-11.3318
▁inseriti	-11.3318
▁finanze	-11.3318
▁potrà	-11.3318
▁teodorico	-11.3318
▁mediterranea	-11.3318
▁nazismo	-11.3318
▁hy	-11.3319
▁caduti	-11.3319
algebra	-11.3319
▁emesso	-11.3319
▁persiste	-11.3319
▁disney	-11.332
▁subire	-11.332
▁caratteristici	-11.3322
▁sforza	-11.3322
▁bir	-11.3322
▁descritte	-11.3323
arancio	-11.3323
▁equivalenti	-11.3323
▁ritrovamenti	-11.3327
▁germaniche	-11.333
▁germanica	-11.3332
▁decisiva	-11.3334
ordinamento	-11.3336
▁omaggio	-11.3337
▁gaetano	-11.3337
▁ammira	-11.3339
▁spesa	-11.3339
graf	-11.3343
entrato	-11.3351
▁nascente	-11.3352
▁apprendimento	-11.3353
▁giudiziari	-11.3353
▁stasi	-11.336
▁improvvisa	-11.3361
▁appennini	-11.337
incidente	-11.3373
▁rinunciare	-11.3373
▁giudicato	-11.3378
chetti	-11.3388
▁copyright	-11.3389
▁canti	-11.3396
▁risparmia	-11.3398
▁concede	-11.3401
pidi	-11.3401
ossia	-11.3402
▁papale	-11.3403
▁rimaneva	-11.3404
▁onori	-11.3404
gm	-11.3414
correre	-11.3415
german	-11.3416
▁espone	-11.3421
hubble	-11.3421
impatto	-11.3423
▁ione	-11.3426
▁capaci	-11.3429
immacolata	-11.3432
▁quotidiani	-11.3432
▁svedesi	-11.3432
▁restrizioni	-11.3432
▁contenute	-11.3432
▁corrado	-11.3432
▁scomunica	-11.3432
▁essenziali	-11.3432
▁casuali	-11.3432
▁conclusa	-11.3432
▁conformazione	-11.3432
▁poveri	-11.3432
▁formò	-11.3432
▁dyck	-11.3432
▁applicato	-11.3432
▁avvert	-11.3432
▁accerta	-11.3432
▁urbane	-11.3432
▁sapore	-11.3433
▁plasma	-11.3433
▁cerchio	-11.3433
▁estensioni	-11.3433
batté	-11.3433
▁percezione	-11.3433
▁ciclisti	-11.3434
▁vigili	-11.3435
▁pianificazione	-11.3435
▁suonare	-11.3436
field	-11.3436
▁fertili	-11.344
▁definizioni	-11.3441
▁navali	-11.3444
▁ampi	-11.3444
▁agire	-11.3445
▁champ	-11.3445
▁ottone	-11.3446
▁1880	-11.3449
action	-11.3449
▁approssima	-11.3449
▁prossima	-11.3451
▁'70	-11.3451
▁soggetta	-11.3452
▁morire	-11.3453
▁saccheggi	-11.3456
▁giace	-11.3457
▁trattative	-11.3459
▁convinse	-11.3461
▁king	-11.3461
▁decina	-11.3464
▁uniche	-11.3476
▁continuava	-11.3481
wy	-11.3484
▁rifugio	-11.3485
▁carbon	-11.3485
▁garantisc	-11.3487
▁sb	-11.3489
▁candida	-11.3491
▁riunir	-11.3505
▁studioso	-11.3508
corpus	-11.3509
quando	-11.3518
idro	-11.3524
erenti	-11.3525
▁strutturali	-11.3527
▁evoluti	-11.3527
▁turno	-11.3527
venezia	-11.3538
equilibrio	-11.3539
linux	-11.3539
▁terminata	-11.3543
massa	-11.3543
▁ammette	-11.3546
academy	-11.3546
▁cinematografici	-11.3546
▁compromesso	-11.3546
▁hilbert	-11.3546
▁spettri	-11.3546
▁stalingrado	-11.3546
▁costrutto	-11.3546
▁straniero	-11.3546
▁globo	-11.3546
▁coerente	-11.3547
▁imporre	-11.3547
▁annessa	-11.3547
▁differiscono	-11.3547
colle	-11.3548
▁sorelle	-11.3548
▁1903	-11.3548
▁arezzo	-11.3551
▁incidenti	-11.3551
▁certezza	-11.3551
▁pioggia	-11.3551
metraggi	-11.3552
▁nascono	-11.3553
▁flag	-11.3554
▁tredici	-11.3554
dicò	-11.3559
▁possedere	-11.3561
▁insiste	-11.3562
▁particolarità	-11.3563
dura	-11.3564
-5	-11.3564
▁indaga	-11.357
▁estiva	-11.3571
regno	-11.3578
▁peste	-11.3579
phys	-11.3584
▁dubbi	-11.3584
argent	-11.3586
▁instabilità	-11.3586
▁diventati	-11.3594
▁inviati	-11.3594
▁continui	-11.3602
▁107	-11.3602
▁bordi	-11.3603
▁imperi	-11.3604
▁giocato	-11.3611
▁valute	-11.3613
▁romagna	-11.3616
▁microscopi	-11.3626
base	-11.3632
▁decidere	-11.3637
▁pira	-11.3638
="25	-11.3641
▁presentazione	-11.3642
▁cave	-11.365
▁equivale	-11.3654
▁prevale	-11.3655
▁adam	-11.3658
▁trascorse	-11.3663
disambigua	-11.3663
intelligence	-11.3663
▁bulgaria	-11.3663
▁discussioni	-11.3663
▁femmina	-11.3663
▁frammenta	-11.3663
▁nikola	-11.3663
▁scolastico	-11.3663
▁scultore	-11.3663
▁accolto	-11.3663
▁ritenendo	-11.3663
▁ebraiche	-11.3663
▁rigida	-11.3663
▁federali	-11.3663
▁tranvia	-11.3663
▁sopravvivenza	-11.3663
▁lanciò	-11.3664
▁credito	-11.3664
▁dragons	-11.3664
▁suddivisioni	-11.3666
castel	-11.3667
▁individuato	-11.3668
▁finalità	-11.3669
unitari	-11.3669
▁servito	-11.3671
▁visibilità	-11.3674
▁drago	-11.3674
▁mg	-11.3676
▁solitari	-11.3677
="8	-11.3677
▁trattare	-11.3678
già	-11.3679
▁addetti	-11.3679
▁titanio	-11.368
▁tentato	-11.368
▁1830	-11.3681
▁considerazioni	-11.3682
ottava	-11.3682
▁facce	-11.3684
uve	-11.3686
▁estrazione	-11.3686
▁fifa	-11.369
▁mercantile	-11.3692
▁occupati	-11.3696
capo	-11.3696
▁utilizzava	-11.3697
▁tante	-11.3699
▁prov	-11.3701
▁magnetica	-11.3701
▁fasce	-11.3703
▁precipita	-11.3711
▁carter	-11.3716
▁volere	-11.3719
▁olive	-11.3721
viene	-11.373
▁toro	-11.3731
▁picchi	-11.3739
▁ossido	-11.3745
▁uri	-11.3746
▁preda	-11.3747
▁criterio	-11.3754
professori	-11.3754
posizioni	-11.3769
▁algoritmo	-11.3772
▁fissato	-11.3772
determina	-11.3774
giorno	-11.3774
intenzione	-11.3774
assistenza	-11.3774
▁avvio	-11.3775
▁precisi	-11.3779
appellativo	-11.378
▁berkeley	-11.378
▁bizantini	-11.378
▁eventualmente	-11.378
▁gallura	-11.378
▁lawrence	-11.378
▁school	-11.378
▁introdurre	-11.378
▁promosso	-11.378
▁residui	-11.378
▁multipli	-11.378
▁transizioni	-11.378
heavy	-11.3781
▁protetta	-11.3781
inserimento	-11.3781
▁angoli	-11.3781
▁concessa	-11.3781
▁gemelli	-11.3781
▁siccome	-11.3782
▁distacco	-11.3782
anatomia	-11.3782
▁forniscono	-11.3782
▁promosse	-11.3783
▁turchi	-11.3783
▁1904	-11.3783
▁innesca	-11.3784
▁riscaldamento	-11.3784
▁tramanda	-11.3784
▁cedette	-11.3786
▁redazione	-11.3786
▁aperte	-11.3786
▁1898	-11.3787
organo	-11.3787
▁benito	-11.3789
atleta	-11.379
lingua	-11.3792
▁aspira	-11.3793
▁grigioni	-11.3795
ampliamento	-11.3795
▁elettrici	-11.3796
autorizzazione	-11.3799
▁'60	-11.3799
▁giunti	-11.3799
=90	-11.3801
▁prossimo	-11.3802
jan	-11.3802
▁tarda	-11.3804
▁brigata	-11.3806
▁evitando	-11.3807
ough	-11.3809
▁privi	-11.381
indicazione	-11.3811
▁generati	-11.3811
▁ritardo	-11.3812
▁olio	-11.3812
▁trovata	-11.3814
segnò	-11.382
▁senatore	-11.3822
▁restanti	-11.3827
▁west	-11.3829
▁radica	-11.3829
▁scott	-11.3834
ristrutturazione	-11.3835
▁cigno	-11.3838
▁avviato	-11.3839
▁vescovile	-11.384
▁toni	-11.3843
▁compi	-11.3845
▁wide	-11.3846
▁128	-11.3846
celle	-11.3851
▁sviluppano	-11.3852
ziali	-11.3853
deci	-11.3854
▁secondarie	-11.3855
▁castro	-11.3863
equipaggio	-11.3868
▁esistevano	-11.3871
▁trasmettere	-11.3873
▁argentina	-11.3879
sali	-11.3879
▁attraversando	-11.3886
scente	-11.3888
▁usava	-11.3888
▁not	-11.3891
▁organica	-11.3899
▁feudale	-11.3899
ambientazione	-11.3899
▁bernoulli	-11.3899
▁costituenti	-11.3899
▁opinioni	-11.3899
▁osservò	-11.3899
▁rifornimenti	-11.3899
▁marittimo	-11.3899
▁scandalo	-11.3899
▁ercole	-11.3899
▁resistere	-11.3899
▁ostacoli	-11.3899
▁boeing	-11.39
▁trecento	-11.39
▁ripiega	-11.39
▁enuncia	-11.39
▁budget	-11.39
▁civico	-11.39
▁duecento	-11.39
▁ferrarese	-11.39
▁verificò	-11.39
▁quadrata	-11.39
▁pontificato	-11.39
grunge	-11.39
▁contrasti	-11.39
▁condotte	-11.39
▁temporali	-11.39
▁professionali	-11.39
▁dittatura	-11.3901
▁adibit	-11.3902
▁violenti	-11.3902
▁tumul	-11.3903
cadono	-11.3904
▁scarso	-11.3909
▁stri	-11.3909
▁rovescia	-11.3909
▁1887	-11.3909
▁bl	-11.391
▁seppe	-11.3911
▁arrivato	-11.3913
▁devia	-11.3913
right	-11.3917
▁visti	-11.392
▁ferra	-11.392
incirca	-11.392
▁limitazioni	-11.3921
▁respiratori	-11.3921
▁arm	-11.3921
▁terminale	-11.3923
▁genio	-11.3924
▁candidati	-11.3924
▁ungherese	-11.3926
7)	-11.3928
espulsione	-11.3929
▁cortina	-11.3929
▁terminal	-11.3935
▁ernest	-11.3939
▁mossa	-11.3941
▁intervallo	-11.3944
onald	-11.3948
▁metropoli	-11.3948
▁tetto	-11.3949
rius	-11.3954
▁10%	-11.3956
conf	-11.3961
▁siamo	-11.3971
▁effettiva	-11.3972
hon	-11.3976
▁passaggi	-11.3989
ggiò	-11.3992
▁boy	-11.3995
="6	-11.3996
▁carenz	-11.3998
▁attestato	-11.4001
uv	-11.4003
▁entrate	-11.4006
db	-11.4008
▁bang	-11.4009
▁luminosi	-11.4017
originale	-11.4017
sinistra	-11.4017
▁trascura	-11.4018
▁assunta	-11.402
▁glaciale	-11.402
▁notturno	-11.402
▁televisivi	-11.402
▁trasformò	-11.402
▁autostrade	-11.402
esigenza	-11.402
▁architettonico	-11.402
▁fiorentino	-11.402
▁litorale	-11.402
▁gassoso	-11.402
appropri	-11.402
▁prestito	-11.402
▁weimar	-11.4021
▁imposto	-11.4021
▁degenera	-11.4021
▁campobasso	-11.4022
▁accuse	-11.4022
▁signora	-11.4023
▁imbarcazioni	-11.4023
▁proseguì	-11.4025
▁colpire	-11.4026
▁1894	-11.4029
▁1814	-11.4029
▁rappresentanza	-11.4044
▁indiana	-11.4045
▁tassi	-11.4046
riescono	-11.4047
▁determinante	-11.4049
▁assente	-11.405
▁poggio	-11.4051
▁paio	-11.4051
▁separato	-11.4051
▁consiglia	-11.4054
▁israel	-11.4058
▁folla	-11.406
▁indici	-11.4066
▁cani	-11.4069
qu	-11.4078
▁victor	-11.4079
▁persero	-11.4079
▁obbligatoria	-11.4081
="90	-11.4085
▁ostilità	-11.4089
▁magneti	-11.4099
▁elenca	-11.4102
▁esclusione	-11.4104
-12	-11.4105
▁insignit	-11.4106
▁bug	-11.4114
bet	-11.4119
▁puntate	-11.4126
▁110	-11.413
▁cris	-11.4131
▁sosten	-11.4132
radio	-11.4134
▁ripeti	-11.4135
▁decisa	-11.4136
▁perfetta	-11.4136
▁riscalda	-11.4138
▁accusato	-11.4138
avanguardia	-11.4142
▁bartolomeo	-11.4142
▁centinaio	-11.4142
▁combustione	-11.4142
▁country	-11.4142
▁dinamiche	-11.4142
▁ecclesiastica	-11.4142
▁fantasy	-11.4142
▁feudatari	-11.4142
▁necropoli	-11.4142
▁occasionalmente	-11.4142
▁onorificenze	-11.4142
▁pogrom	-11.4142
▁provvedimenti	-11.4142
▁ribattezzat	-11.4142
▁seguaci	-11.4142
▁zeppelin	-11.4142
▁zucchero	-11.4142
▁congiunge	-11.4142
▁licenzia	-11.4142
▁destinate	-11.4142
▁anderson	-11.4142
▁sottoposti	-11.4142
▁carnevale	-11.4142
▁scelti	-11.4142
▁danubio	-11.4142
▁rigidi	-11.4142
▁avvale	-11.4142
▁coperto	-11.4142
▁sentimento	-11.4142
▁rurali	-11.4142
▁dotate	-11.4143
▁cognome	-11.4144
▁coraggio	-11.4147
▁gravitazionali	-11.4147
▁normativa	-11.4147
▁diffondersi	-11.4149
▁scopri	-11.415
bello	-11.4151
▁martiri	-11.4151
▁cambi	-11.4152
▁ciclista	-11.4152
▁'90	-11.4155
▁convogli	-11.4163
▁riuscire	-11.4163
▁fermare	-11.4164
▁dimora	-11.4171
▁ambientati	-11.4173
▁duramente	-11.4173
▁cloruro	-11.4177
▁farina	-11.4177
▁egizia	-11.4181
sanremo	-11.4183
▁vocazione	-11.4187
▁foglia	-11.4193
▁diverge	-11.4194
▁educazione	-11.4194
▁giocare	-11.4196
="20	-11.4196
="27	-11.4201
_24	-11.4224
.500	-11.4225
▁sposato	-11.4228
▁potenzia	-11.4228
▁personal	-11.4237
▁secondario	-11.424
▁chiamare	-11.4241
▁costringendo	-11.4241
▁attendere	-11.4243
▁temporaneamente	-11.4249
▁tau	-11.4251
▁bill	-11.4255
▁esplos	-11.4256
▁mediamente	-11.4263
▁connessi	-11.4263
attuazione	-11.4263
agostino	-11.4265
afghanistan	-11.4265
▁avogadro	-11.4265
▁costituzionali	-11.4265
▁energetico	-11.4265
▁geografico	-11.4265
▁gioventù	-11.4265
▁graduale	-11.4265
▁innocenzo	-11.4265
▁limitrofi	-11.4265
▁raggiungimento	-11.4265
▁reagisce	-11.4265
▁repubbliche	-11.4265
▁spiagge	-11.4265
▁termodinamica	-11.4265
▁alamein	-11.4265
▁terraferma	-11.4265
▁tokyo	-11.4265
▁oristano	-11.4265
▁quattrocento	-11.4265
▁barocca	-11.4265
indomani	-11.4265
hardware	-11.4266
▁ritmo	-11.4266
▁veneta	-11.4266
▁ricordiamo	-11.4266
▁logico	-11.4266
diritto	-11.4266
▁beatles	-11.4266
▁hermann	-11.4266
▁prigione	-11.4266
▁adriano	-11.4267
▁sofisti	-11.4268
▁urbanistica	-11.4268
▁mattino	-11.4268
▁geologia	-11.4269
▁sanguin	-11.4269
▁minime	-11.4269
▁processa	-11.4272
▁riducendo	-11.4272
▁1882	-11.4273
▁brest	-11.4275
membri	-11.4276
▁rieti	-11.4277
▁farne	-11.4277
▁niente	-11.4277
slov	-11.4278
▁protestante	-11.428
▁denota	-11.428
▁nordafrica	-11.428
codice	-11.4281
identificazione	-11.4286
▁leggende	-11.4286
▁credo	-11.4286
▁stabilita	-11.4287
▁menzione	-11.4291
▁20%	-11.4293
▁900	-11.4297
uz	-11.4304
▁tennero	-11.4305
▁soma	-11.4306
▁eccellenza	-11.4308
▁periodico	-11.4311
▁bello	-11.4312
libro	-11.4316
▁facto	-11.432
▁gino	-11.4331
▁elaborato	-11.4333
▁arb	-11.4339
▁umidità	-11.434
▁acquisito	-11.4344
▁editor	-11.4346
attori	-11.4347
▁fisicamente	-11.4352
▁risultava	-11.4359
detti	-11.4361
▁pensi	-11.4373
▁salvare	-11.4377
▁etichetta	-11.4379
▁cadere	-11.4383
▁72	-11.4384
scrivere	-11.4385
▁real	-11.4388
▁alfonso	-11.439
▁aumentò	-11.439
▁elisabetta	-11.439
▁eseguite	-11.439
▁maresciallo	-11.439
▁matematiche	-11.439
▁mozilla	-11.439
▁parlamentari	-11.439
▁produttivo	-11.439
▁rappresentò	-11.439
▁religioni	-11.439
▁traiettoria	-11.439
▁compatibile	-11.439
▁pulsar	-11.439
▁white	-11.439
▁comitati	-11.439
▁gassosi	-11.439
▁riservato	-11.439
▁ritirò	-11.439
▁sbarra	-11.439
infrastruttura	-11.439
▁contrappost	-11.4391
▁tattica	-11.4391
▁attentati	-11.4391
▁politicamente	-11.4391
output	-11.4391
▁manuali	-11.4391
▁dignità	-11.4391
▁specializzati	-11.4392
▁gestisce	-11.4392
anesi	-11.4392
▁robin	-11.4392
militari	-11.4392
magnetic	-11.4393
▁linguistici	-11.4393
▁anziani	-11.4395
▁spontaneamente	-11.4396
▁mir	-11.4396
▁riunisc	-11.4397
▁preparare	-11.4398
▁grotta	-11.4398
▁potendo	-11.4399
fant	-11.44
▁ritmi	-11.4402
▁impressiona	-11.4403
▁flora	-11.4408
▁piega	-11.441
▁box	-11.442
bour	-11.4424
▁giunsero	-11.4424
franco	-11.4424
▁dirette	-11.4424
▁vaste	-11.4426
▁talento	-11.4428
▁diversifica	-11.4429
▁(9	-11.4431
▁stradali	-11.4431
..."	-11.4431
_21	-11.4432
▁scoprire	-11.4432
▁discorsi	-11.4434
▁avanzate	-11.4442
_29	-11.4447
rock	-11.4447
▁compositori	-11.4447
▁esame	-11.4455
▁derivanti	-11.4455
▁bernardo	-11.4461
madonna	-11.4461
▁registrati	-11.4461
▁misurazioni	-11.4463
parò	-11.4464
this	-11.4468
▁rispettare	-11.4474
▁reggio	-11.4483
soft	-11.4485
▁tirren	-11.4486
emergenza	-11.4493
▁serre	-11.4498
▁orchestra	-11.45
facenti	-11.4508
figura	-11.4511
▁golf	-11.4512
▁estensi	-11.4514
▁affermare	-11.4516
ambasciatore	-11.4517
lettromagnetiche	-11.4517
▁auschwitz	-11.4517
▁bombardieri	-11.4517
▁nervoso	-11.4517
▁orizzontali	-11.4517
▁precessione	-11.4517
▁proporzioni	-11.4517
▁provenienza	-11.4517
▁spectrum	-11.4517
▁scioglie	-11.4517
▁adiacenti	-11.4517
▁banconota	-11.4517
▁darwin	-11.4517
▁nemiche	-11.4517
▁crateri	-11.4517
▁dipartimenti	-11.4517
▁treviso	-11.4517
▁sanitaria	-11.4517
▁condivisione	-11.4517
▁lontani	-11.4517
▁perfetto	-11.4517
▁distrutte	-11.4517
▁incaricato	-11.4517
uccello	-11.4517
▁accademico	-11.4518
▁utilizzò	-11.4518
▁intervenire	-11.4518
▁oppone	-11.4518
impronta	-11.4518
▁alarico	-11.4519
▁epoche	-11.4519
▁autobus	-11.452
_27	-11.452
gestione	-11.452
▁atletica	-11.452
facevano	-11.4521
▁margine	-11.4521
intesa	-11.4523
▁copertina	-11.4525
▁voi	-11.4525
▁potenziali	-11.4526
▁vasi	-11.4527
quanto	-11.4528
avvicinamento	-11.4532
▁fondamento	-11.4542
▁sessione	-11.4543
▁business	-11.4547
▁tirolo	-11.4547
stadt	-11.455
▁integrante	-11.4551
▁riportare	-11.4552
elba	-11.4554
zz	-11.4555
▁museum	-11.4556
▁affonda	-11.4557
▁interfaccia	-11.4557
rettamente	-11.4564
▁configura	-11.4567
▁esib	-11.4567
▁aiuti	-11.4569
▁completare	-11.4572
=6	-11.4573
▁dose	-11.4573
▁1,5	-11.4574
▁incomincia	-11.4588
▁immediato	-11.4589
▁portate	-11.459
▁occupava	-11.4598
▁posa	-11.4598
▁genero	-11.4599
▁esalta	-11.4603
▁suppone	-11.4604
▁pensava	-11.4605
innovazione	-11.4607
▁partecipano	-11.4612
processo	-11.4615
▁alza	-11.4623
▁considerano	-11.4628
campo	-11.4629
▁osservatore	-11.4632
▁führer	-11.4632
galli	-11.4633
ware	-11.4636
▁equinozi	-11.4638
▁equazione	-11.4644
mental	-11.4645
aggressione	-11.4645
▁amatoriale	-11.4645
▁carburante	-11.4645
▁condiviso	-11.4645
▁diciassette	-11.4645
▁fluviale	-11.4645
▁fogazzaro	-11.4645
▁frequentò	-11.4645
▁hippy	-11.4645
▁napoleonico	-11.4645
▁precauzioni	-11.4645
▁soppressa	-11.4645
▁trasferita	-11.4645
▁deputato	-11.4645
▁portoghese	-11.4645
▁velivoli	-11.4645
▁croazia	-11.4645
▁previsione	-11.4645
▁provvede	-11.4645
▁vincoli	-11.4645
▁laddove	-11.4645
▁tramonto	-11.4646
▁disuguaglianza	-11.4646
▁normanni	-11.4647
▁neutralità	-11.4647
html	-11.4649
▁disoccupazione	-11.4649
▁manara	-11.4649
argomento	-11.465
▁comandanti	-11.465
▁esportazioni	-11.4651
▁1875	-11.4652
▁adatti	-11.4652
▁adattamenti	-11.4653
▁1816	-11.4654
▁lievi	-11.4655
▁1897	-11.4661
▁trascrizione	-11.4663
▁keplero	-11.4663
▁austriache	-11.4664
▁gravemente	-11.4666
▁kha	-11.4667
▁concentrazioni	-11.4668
▁svilupparono	-11.4668
▁pozzo	-11.4669
▁carni	-11.467
ificare	-11.4671
▁paper	-11.4672
▁tang	-11.4674
▁funzionali	-11.468
="22	-11.4685
esatta	-11.4688
▁notato	-11.4688
▁accaduto	-11.4692
ign	-11.4692
mettersi	-11.4692
patriot	-11.4695
▁mora	-11.4701
▁170	-11.4707
▁spinto	-11.4711
▁rientrano	-11.4718
400	-11.4721
▁spiccano	-11.4722
▁trasmette	-11.4722
▁parete	-11.4723
seconda	-11.4726
▁numerico	-11.4734
ontologi	-11.4739
fusi	-11.4739
▁orale	-11.474
▁daniel	-11.4741
▁poggia	-11.4741
▁predica	-11.475
▁bay	-11.475
▁nate	-11.4751
▁sensori	-11.4759
▁confedera	-11.4769
▁stereo	-11.477
▁riservata	-11.4771
▁ricorrere	-11.4772
uguaglianza	-11.4774
▁eleonora	-11.4775
▁ministeri	-11.4775
anschluss	-11.4775
▁bicicletta	-11.4775
▁compressione	-11.4775
▁difficilmente	-11.4775
▁douglas	-11.4775
▁imprigiona	-11.4775
▁neutrino	-11.4775
▁pomeriggio	-11.4775
▁svantaggi	-11.4775
▁svetonio	-11.4775
▁videogioco	-11.4775
▁librerie	-11.4775
▁guardie	-11.4775
▁etrusca	-11.4775
▁discrimina	-11.4775
▁interpretò	-11.4775
▁enciclopedie	-11.4775
▁trasmessa	-11.4775
ungarico	-11.4775
▁settimo	-11.4775
▁racchius	-11.4775
▁restò	-11.4775
▁violento	-11.4776
▁venduto	-11.4776
argenteo	-11.4776
▁tenute	-11.4777
▁abbondanti	-11.4777
▁diplomatico	-11.4777
▁congiura	-11.4777
▁1902	-11.4777
▁ordinato	-11.4778
▁vendere	-11.4778
▁ingenti	-11.4778
▁tendenze	-11.4781
avvio	-11.4781
individuo	-11.4781
wood	-11.4782
▁colorazione	-11.4782
distribuzione	-11.4782
▁neutrone	-11.4783
▁fibre	-11.4784
iraq	-11.4785
▁1800	-11.4786
social	-11.4787
▁tull	-11.4788
▁muoversi	-11.4791
=46	-11.4792
▁vena	-11.4796
▁muraria	-11.4796
▁recarsi	-11.4797
▁curato	-11.4798
▁netto	-11.4801
▁consistenti	-11.4802
giochi	-11.4807
▁quantico	-11.4809
word	-11.4813
▁consentì	-11.4814
▁petto	-11.4817
▁collegava	-11.4819
now	-11.482
atterraggio	-11.4822
▁economicamente	-11.4825
aperto	-11.4826
▁superando	-11.483
▁direzioni	-11.4832
▁accrescimento	-11.4834
▁prosa	-11.4836
▁genesi	-11.4836
▁orario	-11.4845
▁cede	-11.4849
▁disponeva	-11.4849
efficacia	-11.4849
▁mé	-11.485
▁abbandonata	-11.4851
="120	-11.4857
war	-11.4857
▁parlano	-11.486
▁manico	-11.4862
open	-11.4863
▁175	-11.4864
▁bersagli	-11.4869
▁dub	-11.4873
▁intrinseca	-11.4875
=120	-11.4875
▁62	-11.4878
▁ricci	-11.4879
=66	-11.4881
urto	-11.4882
▁quartier	-11.4895
▁letterari	-11.4899
individuazione	-11.4899
▁asteroidi	-11.4907
▁innumerevoli	-11.4907
▁longitudine	-11.4907
▁pistoia	-11.4907
▁sommità	-11.4907
▁sufficienti	-11.4907
▁brennero	-11.4907
▁intervenne	-11.4907
▁maurizio	-11.4907
▁ortolani	-11.4907
odierno	-11.4907
▁definendo	-11.4907
▁domande	-11.4907
▁plinio	-11.4907
inchiesta	-11.4907
▁affatto	-11.4907
▁situate	-11.4907
▁selenio	-11.4907
▁panorami	-11.4907
▁quote	-11.4907
▁belluno	-11.4907
▁dispersione	-11.4908
▁dolore	-11.4908
▁collettivo	-11.4908
▁dittatore	-11.491
▁eccesso	-11.491
▁razzi	-11.491
▁giuramento	-11.491
ideologia	-11.4912
▁pratico	-11.4913
▁meucci	-11.4913
▁1899	-11.4915
cellula	-11.4915
▁assistente	-11.4918
▁nozze	-11.4919
▁complessivo	-11.4922
▁adopera	-11.4923
equilibr	-11.4924
▁tubi	-11.4927
▁svolsero	-11.4928
="30	-11.4929
="66	-11.4929
reichs	-11.4932
▁brevetto	-11.4936
▁nizza	-11.4936
▁lecce	-11.4938
▁allievo	-11.4939
▁eretta	-11.494
corpo	-11.4941
▁provocato	-11.4945
▁micca	-11.4945
▁sbocc	-11.4949
▁inventato	-11.4949
▁collegano	-11.4955
▁statistici	-11.4955
▁seguiti	-11.4957
▁influenzata	-11.4958
▁saccheggia	-11.4963
▁filone	-11.4964
▁alpina	-11.4967
▁migratori	-11.4967
arabia	-11.4968
▁marcato	-11.497
fina	-11.4973
="46	-11.4973
mond	-11.4976
▁bart	-11.4976
tenuto	-11.4977
▁classificata	-11.4977
impression	-11.498
▁criticato	-11.4983
accoglienza	-11.4984
▁riportate	-11.4989
▁cape	-11.4995
▁settimanale	-11.4998
▁protegge	-11.4999
▁incarico	-11.5005
verde	-11.5013
▁...	-11.5014
tefan	-11.5017
game	-11.5017
="23	-11.5023
fair	-11.5024
▁lucia	-11.5028
▁declina	-11.5036
▁totali	-11.5036
▁legittima	-11.504
▁cecoslovacchia	-11.504
▁chitarrista	-11.504
▁demografico	-11.504
▁firefox	-11.504
▁innanzitutto	-11.504
▁nascosto	-11.504
▁ortodossa	-11.504
▁polemiche	-11.504
▁ricostruita	-11.504
▁supplement	-11.504
▁isernia	-11.504
▁simmetrica	-11.504
▁concomitan	-11.504
▁agnelli	-11.504
▁marsala	-11.5041
▁rimanda	-11.5041
▁vincitrice	-11.5041
▁sostenuta	-11.5041
▁lessico	-11.5041
▁jacob	-11.5042
contro	-11.5042
probabil	-11.5044
▁records	-11.5044
▁timore	-11.5044
▁priorità	-11.5044
▁proveniva	-11.5044
hof	-11.5046
▁stringe	-11.5046
▁carra	-11.5046
▁sottoposta	-11.5047
algoritmo	-11.505
▁distinto	-11.505
agiscono	-11.505
▁rinnovamento	-11.5051
andrea	-11.5051
▁girare	-11.5051
_20	-11.5053
▁sostituiti	-11.5054
▁nullo	-11.5055
▁ristruttur	-11.5056
▁pubblicità	-11.5056
▁slovenia	-11.5058
▁trascorr	-11.5059
▁spor	-11.5059
oceania	-11.5061
▁corne	-11.5064
ellisse	-11.5065
▁barone	-11.5066
▁fred	-11.5067
▁teneva	-11.5068
▁indicate	-11.5069
▁aumentando	-11.5069
▁cpu	-11.507
▁ovunque	-11.5076
secuzione	-11.5077
▁1600	-11.5077
▁autunno	-11.5077
▁attraversare	-11.5077
▁umbria	-11.5078
▁assisi	-11.508
▁spica	-11.5083
uffi	-11.5083
▁formarono	-11.5084
▁misurato	-11.5086
▁gerarchia	-11.5087
▁concedere	-11.5089
▁producendo	-11.509
ncio	-11.5092
▁arruola	-11.5097
quadri	-11.5097
▁consentendo	-11.5102
▁perturba	-11.5104
zzu	-11.5111
alien	-11.5113
▁radon	-11.5116
▁perimetr	-11.5126
ificata	-11.5128
▁concludere	-11.5129
▁abbassa	-11.5131
▁approv	-11.5132
bald	-11.5134
▁accede	-11.5136
▁soddisfare	-11.5137
▁vuol	-11.5137
▁marini	-11.5138
▁funzionare	-11.514
▁conservatore	-11.5143
▁brand	-11.5163
▁analoga	-11.5169
▁devo	-11.5174
▁bismarck	-11.5175
▁contribuendo	-11.5175
▁energetici	-11.5175
▁escluso	-11.5175
▁indirizzi	-11.5175
▁luftwaffe	-11.5175
▁meccaniche	-11.5175
▁midway	-11.5175
▁predecessore	-11.5175
▁prefettura	-11.5175
▁requisiti	-11.5175
▁rigorosa	-11.5175
▁sconfitte	-11.5175
▁sepoltura	-11.5175
▁avviò	-11.5175
▁correlazione	-11.5175
▁universalmente	-11.5175
▁annesso	-11.5175
▁coprire	-11.5175
▁deserto	-11.5175
▁vedono	-11.5175
▁ginnastica	-11.5175
autentica	-11.5175
▁preziosi	-11.5175
▁falsa	-11.5176
▁estratto	-11.5176
▁albanese	-11.5176
▁tunisi	-11.5177
▁strisce	-11.5177
▁ripetutamente	-11.5177
▁cantieri	-11.5177
▁distinta	-11.5177
▁disposto	-11.5177
sepolti	-11.5178
implementazione	-11.5178
▁prealpi	-11.5179
▁udine	-11.518
="24	-11.5181
▁1865	-11.5181
▁oscillazioni	-11.5186
▁finisce	-11.5187
▁edificata	-11.5187
dello	-11.5187
studenti	-11.5188
▁dedicarsi	-11.5188
ful	-11.5189
▁list	-11.5191
child	-11.5191
▁impresa	-11.5191
▁foggia	-11.5192
▁merita	-11.5192
▁mill	-11.5195
▁investito	-11.5196
▁sosta	-11.5196
emigrazione	-11.5198
▁giura	-11.52
▁aprire	-11.5203
▁merce	-11.5205
_36	-11.5206
▁collegi	-11.5208
altopiano	-11.5214
▁lione	-11.5216
▁parere	-11.5218
▁parlanti	-11.5219
▁artista	-11.522
cinto	-11.5222
▁richiedere	-11.5223
americana	-11.523
boy	-11.523
▁rassegna	-11.5231
nazionale	-11.5232
▁caldi	-11.5234
-0	-11.5237
▁scendere	-11.5239
▁alpini	-11.524
2+	-11.5243
▁saga	-11.5251
hello	-11.5253
▁forniti	-11.5253
▁seggi	-11.5263
nghe	-11.5264
▁emblema	-11.5266
▁time	-11.5271
▁orologi	-11.5274
▁comanda	-11.5291
rald	-11.5293
lingue	-11.5293
▁assorbimento	-11.5295
▁propaga	-11.5296
▁ungheria	-11.5297
centri	-11.5301
abito	-11.5302
▁xp	-11.5311
ammoniaca	-11.5312
assunzione	-11.5312
▁brunswick	-11.5312
▁cattolicesimo	-11.5312
▁denominazioni	-11.5312
▁descrivono	-11.5312
▁flavio	-11.5312
▁helsinki	-11.5312
▁medioevale	-11.5312
▁musulmani	-11.5312
▁poliziesco	-11.5312
▁preghiera	-11.5312
▁scorpione	-11.5312
▁édith	-11.5312
fosfato	-11.5312
▁interstellare	-11.5312
▁presunta	-11.5312
▁paradiso	-11.5312
▁company	-11.5312
▁delegazione	-11.5312
▁aggiunte	-11.5312
▁iupac	-11.5312
▁parallele	-11.5312
▁trofeo	-11.5312
▁fiamma	-11.5312
▁deportati	-11.5312
▁donato	-11.5312
▁mysql	-11.5312
buddha	-11.5312
▁coperta	-11.5312
▁cannoni	-11.5312
▁sovrappost	-11.5312
▁morirono	-11.5313
▁municipalità	-11.5313
▁group	-11.5314
▁editoriale	-11.5316
▁feudi	-11.5316
▁fissione	-11.5318
▁confonde	-11.5318
▁0,1	-11.5319
▁ordinamenti	-11.5321
▁documentario	-11.5321
▁problematiche	-11.5322
▁barbara	-11.5324
führer	-11.5326
etichetta	-11.5326
cinque	-11.5326
▁egizi	-11.5327
▁piaf	-11.5328
▁attratt	-11.5335
▁1888	-11.5335
numero	-11.5335
▁isabel	-11.5335
▁lucca	-11.5339
▁rr	-11.5339
▁culmine	-11.5343
entità	-11.5344
▁piemontesi	-11.5348
▁malta	-11.5361
urea	-11.5372
▁nodo	-11.5372
▁adesso	-11.5373
lier	-11.5374
▁basilicata	-11.539
▁ipotizzato	-11.5392
immens	-11.5397
▁tempera	-11.5399
▁barca	-11.5399
▁mauro	-11.5402
▁promuove	-11.541
▁applicando	-11.5411
▁interessata	-11.5413
▁63	-11.5414
imitazione	-11.5414
hiv	-11.5415
▁concentr	-11.5416
▁ghetto	-11.5416
▁chris	-11.5416
▁appoggio	-11.5419
▁tant	-11.5421
mettendo	-11.543
▁viste	-11.5434
▁differenziale	-11.5437
▁cavi	-11.5447
▁sacri	-11.5447
▁provocare	-11.5448
▁affresc	-11.545
abbreviazione	-11.5451
intrattenimento	-11.5451
mahāyāna	-11.5451
▁abbreviato	-11.5451
▁caltanissetta	-11.5451
▁contribuirono	-11.5451
▁istituzionali	-11.5451
▁legittimo	-11.5451
▁rinascimentale	-11.5451
▁sconfitti	-11.5451
▁soprannome	-11.5451
▁spettroscopia	-11.5451
▁anteriore	-11.5451
▁avveniva	-11.5451
▁kelvin	-11.5451
▁respinge	-11.5451
▁corporation	-11.5451
▁infinita	-11.5451
▁samuel	-11.5451
▁innamora	-11.5451
etiopia	-11.5451
▁beatrice	-11.5451
▁tesoro	-11.5451
▁sensibilmente	-11.5451
reichstag	-11.5451
▁decimo	-11.5451
▁ottimo	-11.5452
▁silenzio	-11.5452
▁contrada	-11.5452
▁conservata	-11.5452
▁conclusioni	-11.5452
▁conferito	-11.5452
▁provvist	-11.5452
▁editrice	-11.5452
▁severo	-11.5452
▁interprete	-11.5453
▁urbanistico	-11.5453
▁alternativo	-11.5454
uard	-11.5454
▁rovina	-11.5454
▁altrettant	-11.5455
▁crociata	-11.5455
magistra	-11.5456
▁1881	-11.5459
▁seguiva	-11.5459
▁intenzione	-11.5459
▁1892	-11.5459
▁bau	-11.5459
invito	-11.546
_19	-11.5463
▁1797	-11.5465
system	-11.5467
▁scarse	-11.5467
▁fiorente	-11.5469
▁monetario	-11.547
hā	-11.547
▁dichiarazioni	-11.5471
▁narrazione	-11.5475
▁eretto	-11.5476
▁fissi	-11.5478
▁passava	-11.5479
aosta	-11.548
spir	-11.5485
▁scuro	-11.5488
bundes	-11.5489
▁poetica	-11.5492
▁elaborazione	-11.5495
▁boot	-11.5497
▁stabilirono	-11.5498
dimensionale	-11.5503
▁munit	-11.5503
▁lanciare	-11.5504
▁apparato	-11.5504
▁associate	-11.5507
intitola	-11.5508
▁presidenti	-11.5509
esito	-11.5509
▁efficaci	-11.5512
▁bernard	-11.5516
kö	-11.5523
▁sottolineare	-11.5536
▁soviet	-11.5539
▁testimoni	-11.5543
▁social	-11.5547
day	-11.5551
romana	-11.5554
▁cresciut	-11.5555
▁incide	-11.5555
="21	-11.5556
senta	-11.556
▁ritard	-11.5562
▁consideri	-11.5563
▁curie	-11.5565
▁consider	-11.5568
▁grand	-11.5571
elettricità	-11.5573
▁117	-11.5577
▁ionio	-11.5587
aggiornamento	-11.5591
▁sven	-11.5591
▁denominati	-11.5592
▁detenuti	-11.5592
▁diminuire	-11.5592
▁eucarioti	-11.5592
▁irlandesi	-11.5592
▁proclamò	-11.5592
▁spettrali	-11.5592
▁agrippa	-11.5592
▁ragazzo	-11.5592
▁confluenza	-11.5592
▁kuiper	-11.5592
▁prezioso	-11.5592
▁ristampa	-11.5592
▁riusciva	-11.5592
▁rilascio	-11.5592
▁controversia	-11.5592
▁gloria	-11.5592
▁1863	-11.5592
▁detiene	-11.5592
▁ernst	-11.5592
▁verticali	-11.5592
▁calciatori	-11.5592
▁falso	-11.5592
▁discendente	-11.5592
▁tabelle	-11.5592
▁pendici	-11.5592
▁potenzialmente	-11.5592
▁termico	-11.5593
▁cairo	-11.5593
▁definiscono	-11.5593
rappresentazioni	-11.5594
▁romolo	-11.5594
▁finanza	-11.5595
▁drammatica	-11.5595
▁terminato	-11.5595
▁orville	-11.5595
▁spicco	-11.5596
▁toglie	-11.5596
▁motivazioni	-11.5596
▁rurale	-11.5596
pala	-11.5597
▁vicenza	-11.5597
▁pausa	-11.5598
▁fredde	-11.5599
▁devozione	-11.56
▁1869	-11.56
▁magnetici	-11.56
▁turistici	-11.5601
▁marcello	-11.5602
▁schieramento	-11.5603
▁nodi	-11.5604
▁processione	-11.5605
▁stabilimenti	-11.5605
▁bayer	-11.5606
▁praticata	-11.5606
▁mela	-11.5606
▁regolamenti	-11.5607
▁cesio	-11.5608
▁completamento	-11.5611
▁riuscita	-11.5613
▁piave	-11.5616
▁straordinario	-11.5617
stelle	-11.5619
▁parenti	-11.5619
_25	-11.5619
▁wehrmacht	-11.5621
▁martell	-11.5624
boot	-11.5624
=33	-11.5625
▁navata	-11.563
▁periodici	-11.563
gettò	-11.5636
ndy	-11.5638
▁regge	-11.5638
▁hugo	-11.5641
▁continuato	-11.5642
mille	-11.5643
▁esito	-11.5647
polare	-11.5657
entropia	-11.5657
▁rodi	-11.566
essenza	-11.5666
▁kev	-11.5668
assorbimento	-11.5672
▁rafforzare	-11.5675
▁integrale	-11.5675
▁kurt	-11.5676
▁scarta	-11.5681
▁entrando	-11.5681
▁matrici	-11.5682
▁incontrano	-11.5684
albania	-11.5686
▁spostato	-11.5688
▁fornita	-11.5688
stituire	-11.5693
▁bolla	-11.5699
▁cure	-11.5702
▁infinito	-11.5704
▁catturati	-11.5707
ifero	-11.5708
▁rado	-11.5718
▁apparteneva	-11.5721
▁bank	-11.5723
▁contribuisc	-11.5723
▁incisi	-11.5726
%),	-11.5727
▁spontanea	-11.5729
▁ricavare	-11.573
▁concentrata	-11.5731
▁future	-11.5733
olimpia	-11.5734
▁stoccolma	-11.5735
entusiasmo	-11.5735
▁battaglione	-11.5735
▁difensivo	-11.5735
▁energetica	-11.5735
▁göring	-11.5735
▁paragonabile	-11.5735
▁positrone	-11.5735
▁povertà	-11.5735
▁ricostruito	-11.5735
▁tecnologico	-11.5735
▁contenitore	-11.5735
▁determinò	-11.5735
▁ottenute	-11.5735
▁prevenzione	-11.5735
▁recitò	-11.5735
▁risolse	-11.5735
▁rivolse	-11.5735
▁amministrativi	-11.5735
▁assembly	-11.5735
▁ridotti	-11.5735
▁guinea	-11.5735
antimonio	-11.5735
▁claude	-11.5735
▁pluri	-11.5735
▁proporre	-11.5735
▁conferiti	-11.5736
▁fausto	-11.5736
▁distribuite	-11.5736
▁prevenire	-11.5737
▁capitoli	-11.5738
▁recep	-11.5739
▁ebreo	-11.5739
▁dispari	-11.574
▁fecond	-11.574
▁etnica	-11.5741
▁incendio	-11.5743
▁major	-11.5745
▁consentiva	-11.5745
▁promessa	-11.5746
▁volti	-11.5746
castrum	-11.5748
▁volley	-11.5748
▁mera	-11.5749
▁pericoloso	-11.575
orchestra	-11.5754
▁estratti	-11.5755
incendio	-11.5755
▁marchese	-11.5755
▁falcon	-11.5761
▁61	-11.5764
▁georgia	-11.5766
micro	-11.5767
impostazione	-11.577
=34	-11.577
▁programmatori	-11.5778
▁indicazioni	-11.5778
amministratore	-11.5778
▁pelli	-11.5779
▁foca	-11.5781
▁sacca	-11.5787
▁intermedi	-11.5788
▁cardinali	-11.5791
▁esibisc	-11.5792
▁terminologia	-11.5796
nsen	-11.5796
▁scontra	-11.5801
▁nascere	-11.5813
▁penna	-11.5814
▁trasformando	-11.5816
▁giovanili	-11.5819
▁office	-11.5821
▁risultante	-11.5823
corso	-11.5823
▁interessati	-11.5824
▁risolve	-11.5839
▁penta	-11.5843
▁eredità	-11.5846
▁kor	-11.5851
affinità	-11.5857
astrologia	-11.5862
▁marcel	-11.5864
general	-11.5869
▁esclude	-11.587
▁coinvolg	-11.5872
ward	-11.5875
▁scavat	-11.5877
brook	-11.5878
sufficienza	-11.588
zionalsocialista	-11.588
▁agrigento	-11.588
▁assumono	-11.588
▁atmosfere	-11.588
▁bismuto	-11.588
▁bolognese	-11.588
▁cittadella	-11.588
▁criminale	-11.588
▁deposito	-11.588
▁ecclesiastici	-11.588
▁giurisprudenza	-11.588
▁globulare	-11.588
▁guarnigione	-11.588
▁legislatura	-11.588
▁montuose	-11.588
▁pantheon	-11.588
▁persecuzioni	-11.588
▁pordenone	-11.588
▁prevedono	-11.588
▁raccolto	-11.588
▁ritenuti	-11.588
▁sentimentale	-11.588
▁supergigante	-11.588
▁trasferiti	-11.588
▁trasmissioni	-11.588
▁vesuvio	-11.588
▁wilbur	-11.588
boltzmann	-11.588
▁higgs	-11.588
▁ragazze	-11.588
▁saraceni	-11.588
▁perseguita	-11.588
conveniente	-11.588
▁caterina	-11.588
adiacente	-11.588
▁venuto	-11.588
▁similmente	-11.588
▁spoleto	-11.588
▁caserta	-11.588
▁offerto	-11.588
▁agostino	-11.588
▁teorizza	-11.588
▁sabato	-11.588
▁impedì	-11.588
▁pianure	-11.588
▁conoscono	-11.5881
▁germano	-11.5881
▁revoca	-11.5881
▁immobili	-11.5881
▁preventiv	-11.5882
▁patrona	-11.5882
▁isomeri	-11.5882
▁istante	-11.5883
▁cercato	-11.5884
▁cartagine	-11.5886
▁chiedendo	-11.5888
▁zope	-11.5889
▁probabili	-11.5889
▁spalla	-11.5893
▁balla	-11.5896
▁stim	-11.5897
▁solenne	-11.5898
aumentare	-11.5902
computer	-11.5902
fried	-11.5902
house	-11.5905
▁140	-11.5906
▁demolit	-11.5908
▁danesi	-11.5908
esame	-11.5909
▁1820	-11.5909
▁sanità	-11.5911
-14	-11.5912
▁contesti	-11.5918
="33	-11.5918
▁javascript	-11.5919
▁vivevano	-11.5921
canta	-11.5922
▁distrusse	-11.5927
▁sedici	-11.5927
▁times	-11.5929
▁finanziarie	-11.5932
▁resero	-11.5936
coprono	-11.5936
▁orari	-11.594
▁analizzare	-11.5942
▁acquistato	-11.5944
▁espansioni	-11.5946
▁pasta	-11.5949
▁professor	-11.5951
orologio	-11.5954
hawk	-11.5962
▁escursioni	-11.5965
▁abitata	-11.5969
abitazione	-11.5975
▁rivoluzion	-11.5976
▁battuto	-11.5977
▁diversità	-11.5977
argon	-11.5982
gnificativamente	-11.5984
▁concepit	-11.599
▁partizione	-11.5991
▁identificati	-11.5991
fusione	-11.5994
▁lorenz	-11.5995
="26	-11.5995
ustin	-11.6004
▁house	-11.6008
▁apostoli	-11.6022
▁catturato	-11.6024
approvvigiona	-11.6027
▁acquafondata	-11.6027
shōjo	-11.6027
▁bizantina	-11.6027
▁herschel	-11.6027
▁indispensabile	-11.6027
▁norimberga	-11.6027
▁olandesi	-11.6027
▁pazienti	-11.6027
▁pseudonimo	-11.6027
▁riusciti	-11.6027
▁svariate	-11.6027
▁ultravioletta	-11.6027
▁contrattacco	-11.6027
▁fuzzy	-11.6027
▁lorentz	-11.6027
▁perugino	-11.6027
▁risvegli	-11.6027
▁distinse	-11.6027
▁veicolo	-11.6027
▁decorazione	-11.6027
▁rientro	-11.6027
▁sinonimo	-11.6027
▁camillo	-11.6027
▁cammino	-11.6027
▁riuniti	-11.6027
▁antoine	-11.6027
▁polmoni	-11.6027
▁sancì	-11.6027
▁seguite	-11.6027
▁prestiti	-11.6027
▁intenzioni	-11.6027
▁auspic	-11.6027
▁tempesta	-11.6027
interruzione	-11.6027
▁geopolitic	-11.6027
anidrid	-11.6027
▁conduzione	-11.6028
▁machine	-11.6028
▁specializzate	-11.6028
plancton	-11.6028
▁pallone	-11.6028
▁calcistica	-11.6028
=111	-11.6028
▁drammatici	-11.6029
▁lewis	-11.6031
corriere	-11.6031
▁preferisce	-11.6032
▁115	-11.6035
▁gomma	-11.6035
▁capite	-11.6036
▁fascisti	-11.6036
▁principessa	-11.6036
▁sviluppando	-11.6037
▁consonanti	-11.6037
▁federati	-11.6039
pensò	-11.6039
▁protetti	-11.6039
▁intraprendere	-11.604
inventore	-11.6041
▁evolve	-11.6041
mandò	-11.6046
▁insegnante	-11.6047
▁rocco	-11.6047
specie	-11.6047
▁astronomiche	-11.6049
abbondanza	-11.6051
▁sogno	-11.6054
▁incompatibili	-11.6056
▁tell	-11.6056
▁gestite	-11.6062
▁amsterdam	-11.6063
▁aggregati	-11.6065
▁capra	-11.6066
▁andata	-11.6069
▁perdendo	-11.6073
uccisione	-11.6075
▁esperto	-11.608
▁traduce	-11.6087
▁testimoniano	-11.6088
▁diffondere	-11.6088
▁arborea	-11.6093
▁incominci	-11.6099
▁controlli	-11.61
▁diceva	-11.6102
clav	-11.6106
oliva	-11.611
▁finestra	-11.6115
santi	-11.6118
▁nazionalisti	-11.6122
▁artico	-11.6123
▁rifiutato	-11.6123
▁arena	-11.6136
="65	-11.6142
▁annessi	-11.6149
0%	-11.6153
isarco	-11.6158
▁brian	-11.6169
▁monetazione	-11.6169
▁ballo	-11.6171
assembl	-11.6172
▁amatoriali	-11.6176
▁artigianali	-11.6176
▁ausiliari	-11.6176
▁curiosità	-11.6176
▁democratici	-11.6176
▁diminuisce	-11.6176
▁dottrine	-11.6176
▁floppy	-11.6176
▁fluviali	-11.6176
▁imprenditori	-11.6176
▁ludwig	-11.6176
▁periferiche	-11.6176
▁presumibilmente	-11.6176
▁provvedimento	-11.6176
▁raggiungibile	-11.6176
▁sconosciuta	-11.6176
▁scoppiò	-11.6176
▁cavaliere	-11.6176
▁collisione	-11.6176
▁cruciale	-11.6176
▁sostenitore	-11.6176
▁strategie	-11.6176
▁interrotta	-11.6176
▁placche	-11.6176
▁sparse	-11.6176
▁gravitazione	-11.6176
▁secolari	-11.6176
▁esposte	-11.6176
▁paralleli	-11.6176
▁svincol	-11.6176
▁bosone	-11.6176
annunzio	-11.6177
▁armonica	-11.6177
▁tradimento	-11.6177
▁violenze	-11.6177
▁fondovalle	-11.6177
▁antivirus	-11.6177
▁manager	-11.6177
▁riccardo	-11.6177
▁riferiscono	-11.6177
▁fuochi	-11.6178
▁biologica	-11.6178
▁automaticamente	-11.6178
▁diplomatica	-11.6179
▁preleva	-11.618
▁libia	-11.618
▁90%	-11.6181
▁collassa	-11.6181
▁1862	-11.6181
▁razionale	-11.6181
asterismo	-11.6183
▁saluta	-11.6184
▁1806	-11.6187
="111	-11.6187
▁modesta	-11.6187
▁estive	-11.6188
▁galba	-11.6191
▁scultura	-11.6194
▁bellica	-11.6196
board	-11.6197
▁volare	-11.6197
▁periodicamente	-11.6197
▁palio	-11.6199
immaginario	-11.6199
▁strage	-11.62
▁costanza	-11.62
▁rivestit	-11.62
nanzi	-11.6201
▁apprend	-11.6202
incremento	-11.6202
argentina	-11.6203
▁bracci	-11.6208
▁campane	-11.6211
▁verificarsi	-11.6214
fondamentalmente	-11.6216
▁planet	-11.6216
▁pirata	-11.6218
▁richiedeva	-11.6219
▁vivente	-11.6222
▁costituivano	-11.6224
▁kant	-11.6225
="28	-11.6233
▁introducendo	-11.6235
▁link	-11.6239
▁lavorando	-11.624
▁wei	-11.6244
▁conservare	-11.6249
▁apparizione	-11.6249
bene	-11.6249
user	-11.625
="34	-11.6251
centrica	-11.6251
▁presentarsi	-11.6269
=65	-11.6271
=25	-11.6271
5.000	-11.6282
▁apprezzato	-11.6282
▁dividono	-11.6289
▁gir	-11.6291
http	-11.6293
▁liguri	-11.6293
▁identificata	-11.6294
▁altrove	-11.63
post	-11.6304
trofi	-11.6317
▁cliente	-11.6317
▁uccide	-11.6323
▁mancata	-11.6324
▁profondi	-11.6325
vocò	-11.6325
▁lune	-11.6325
▁prigioni	-11.6325
▁atmosferica	-11.6327
▁binomiale	-11.6327
▁centesimi	-11.6327
▁corridori	-11.6327
▁favorì	-11.6327
▁feynman	-11.6327
▁guercino	-11.6327
▁monasteri	-11.6327
▁niccolò	-11.6327
▁torvalds	-11.6327
aggettivo	-11.6327
▁abbraccia	-11.6327
▁cervello	-11.6327
▁miliardo	-11.6327
▁finanziamenti	-11.6327
▁cessò	-11.6327
▁notorietà	-11.6327
▁professionista	-11.6327
▁decifra	-11.6327
▁convertito	-11.6327
▁incontrare	-11.6328
▁risolto	-11.6328
▁rovine	-11.6328
▁stampe	-11.6328
▁manuale	-11.6328
▁appariva	-11.6328
▁localmente	-11.6328
▁seduta	-11.6328
▁ottiche	-11.6328
▁moderata	-11.6329
▁capua	-11.6329
▁minuto	-11.633
▁tacito	-11.633
▁paludi	-11.633
▁jackson	-11.6331
▁pretende	-11.6333
▁genetico	-11.6333
▁curvatura	-11.6333
▁esclusivo	-11.6334
▁spostamenti	-11.6335
▁benessere	-11.6336
▁xeno	-11.6337
▁grassi	-11.634
▁pronomi	-11.634
▁colonizzazione	-11.634
▁estesi	-11.6343
▁belliche	-11.6344
▁perduta	-11.6345
▁rovere	-11.6346
▁autonomamente	-11.6346
▁sentire	-11.6348
▁ritrovamento	-11.6348
▁evolutiva	-11.6348
agri	-11.635
▁elencate	-11.6352
▁giusta	-11.6353
abitu	-11.6356
▁costrutti	-11.6356
estrema	-11.6356
liegi	-11.6359
▁print	-11.6362
▁compose	-11.6364
▁vinci	-11.6364
▁concepito	-11.6366
▁luciano	-11.6368
▁habitat	-11.6369
▁spara	-11.6373
▁giudiziario	-11.6378
▁palco	-11.638
▁personalizza	-11.6382
▁rappresentativa	-11.6382
▁cern	-11.6384
▁from	-11.6388
tengono	-11.6388
▁addestramento	-11.6388
▁citate	-11.6389
▁shell	-11.6393
▁//	-11.6394
▁universitaria	-11.6397
▁place	-11.64
▁vetta	-11.6404
digital	-11.6407
▁gay	-11.6413
▁volevano	-11.6415
▁avanzato	-11.6419
▁semina	-11.6421
▁pont	-11.6423
▁acquistare	-11.6424
▁dichiarando	-11.6424
▁restando	-11.6428
circo	-11.643
▁raffigurato	-11.6442
▁iniziando	-11.6455
▁bush	-11.6456
▁gaeta	-11.6456
▁studiati	-11.6456
▁apparecchi	-11.6459
▁bisogn	-11.6461
▁stabilizza	-11.6468
▁invoca	-11.6474
arpa	-11.6479
venzionalmente	-11.6481
▁ciononostante	-11.6481
▁circonferenza	-11.6481
▁contemporaneo	-11.6481
▁copyleft	-11.6481
▁equatoriale	-11.6481
▁himmler	-11.6481
▁meccanici	-11.6481
▁montgomery	-11.6481
▁opportuno	-11.6481
▁produttive	-11.6481
▁regressione	-11.6481
▁research	-11.6481
▁rimuove	-11.6481
▁riprodurre	-11.6481
▁velivolo	-11.6481
▁winston	-11.6481
▁wrestling	-11.6481
▁aleatorie	-11.6481
▁apposito	-11.6481
▁powerpc	-11.6481
▁previsioni	-11.6481
▁ristretto	-11.6481
▁sabaudo	-11.6481
▁smantell	-11.6481
▁concorrenti	-11.6481
▁vicepresidente	-11.6481
▁yaoi	-11.6481
▁precise	-11.6481
▁sanitario	-11.6482
testuali	-11.6482
erosione	-11.6482
▁messicana	-11.6482
▁sferra	-11.6482
▁parziali	-11.6482
▁compiuta	-11.6482
itinerari	-11.6482
▁spina	-11.6482
▁rodolfo	-11.6483
▁fotografica	-11.6483
▁fronti	-11.6483
▁arrivi	-11.6483
▁suggerisce	-11.6484
▁gallio	-11.6484
▁consigliere	-11.6485
▁cereali	-11.6485
▁miracolo	-11.6485
▁circondari	-11.6485
nzialmente	-11.6486
▁coniate	-11.6486
witz	-11.6487
alfiere	-11.6487
assioma	-11.6488
▁dimostrano	-11.6489
armonia	-11.6489
▁prosper	-11.6489
▁incarna	-11.6489
▁satana	-11.649
▁40%	-11.649
▁umanitari	-11.6491
nuclea	-11.6491
▁caos	-11.6497
▁viveva	-11.6503
▁disuso	-11.6506
▁fraziona	-11.6507
estonia	-11.6507
▁buchi	-11.651
▁reati	-11.6512
elettronica	-11.6513
principi	-11.6513
tedesco	-11.6513
seguono	-11.6513
esilio	-11.6515
chimica	-11.6517
▁accerchia	-11.6517
scienza	-11.6518
trov	-11.6519
▁sparsi	-11.652
amiga	-11.6526
▁daniele	-11.6527
▁gatto	-11.653
▁microscopio	-11.6531
▁esclusiva	-11.6532
▁regolazione	-11.6533
istat	-11.6536
▁immediata	-11.6539
▁scriveva	-11.654
hur	-11.6542
▁metallica	-11.6545
solid	-11.6547
▁adottate	-11.6547
urbe	-11.655
▁stante	-11.6552
▁rivoluzionaria	-11.6558
▁clienti	-11.6559
▁enea	-11.656
impulso	-11.6562
▁spia	-11.6567
▁accad	-11.6568
isole	-11.657
▁rimpiazz	-11.6571
▁calcolata	-11.6572
▁incendia	-11.6574
▁astronomico	-11.6576
down	-11.6577
_28	-11.6577
▁isolati	-11.658
galat	-11.6582
▁ricavato	-11.6587
▁pack	-11.6589
▁applicate	-11.659
morfo	-11.6591
▁inaugura	-11.6592
▁planetaria	-11.6593
▁selvaggi	-11.6595
scritti	-11.6596
inerzia	-11.66
▁pompe	-11.6601
▁godeva	-11.6602
▁scrivendo	-11.6607
▁rappresentavano	-11.6607
▁affermava	-11.6607
▁concentrati	-11.6611
▁attraversano	-11.6611
="31	-11.6611
▁conservate	-11.6611
▁gau	-11.6618
etna	-11.6626
▁operaia	-11.6626
▁compatibili	-11.6634
agglomerat	-11.6637
uruguay	-11.6637
▁aleksandr	-11.6637
▁ambrosiano	-11.6637
▁analoghe	-11.6637
▁analoghi	-11.6637
▁cerimonie	-11.6637
▁costituendo	-11.6637
▁decorazioni	-11.6637
▁giovinezza	-11.6637
▁greenwich	-11.6637
▁luxemburg	-11.6637
▁airlines	-11.6637
▁appositi	-11.6637
▁crimine	-11.6637
▁monopolio	-11.6637
▁vanadio	-11.6638
▁pretesto	-11.6638
▁sormontat	-11.6638
▁traduzioni	-11.6638
▁truffaut	-11.6638
▁interpreti	-11.6638
▁dissoluzione	-11.6638
▁insegne	-11.6638
▁worm	-11.6638
▁radicalmente	-11.6638
▁autostradale	-11.6638
▁cospira	-11.6639
▁fornendo	-11.6639
graphic	-11.6639
▁brown	-11.6639
▁organizzatore	-11.664
intersezione	-11.664
▁specializzata	-11.664
▁concessioni	-11.6641
▁manganese	-11.6641
▁concreta	-11.6642
▁ceca	-11.6642
▁freccia	-11.6642
▁1891	-11.6646
▁1864	-11.6646
▁reattori	-11.6646
meccanica	-11.6649
▁tortura	-11.665
▁occupate	-11.665
▁consistenza	-11.6651
archeologia	-11.6652
▁purezza	-11.6654
▁svevia	-11.6655
▁autoritari	-11.6656
host	-11.6656
▁zoo	-11.6656
▁cervo	-11.6657
▁pelo	-11.6658
▁mentali	-11.6658
▁serbia	-11.666
▁annuali	-11.666
▁imita	-11.6661
▁fabbricazione	-11.6662
▁sintetizzato	-11.6665
▁comandato	-11.667
infinito	-11.6671
atletica	-11.6671
francese	-11.6672
▁sandro	-11.6672
teatro	-11.6673
▁romanze	-11.6681
▁gestiti	-11.6682
scrizione	-11.6684
eruzione	-11.6685
▁gotico	-11.6687
▁assistere	-11.6689
bora	-11.669
▁registrate	-11.6691
▁voglia	-11.6694
▁island	-11.6695
▁xml	-11.6696
▁ddr	-11.6698
▁occuparono	-11.6705
rü	-11.6707
anziano	-11.6709
▁scarto	-11.671
▁inviata	-11.6714
▁105	-11.6717
▁zeno	-11.6724
dirac	-11.6734
▁condann	-11.6739
nny	-11.6741
senso	-11.6746
▁lombardi	-11.6762
▁generata	-11.6763
▁superano	-11.6772
bury	-11.6784
▁esplicita	-11.679
▁finanziato	-11.6792
ansa	-11.6792
▁raffredda	-11.6792
▁brigat	-11.6793
▁peculiari	-11.6793
▁studiata	-11.6794
azerbaigian	-11.6796
▁affluenti	-11.6796
▁aggrava	-11.6796
▁bolscevichi	-11.6796
▁frosinone	-11.6796
▁genovesi	-11.6796
▁laboratory	-11.6796
▁macedonia	-11.6796
▁molluschi	-11.6796
▁raddoppia	-11.6796
▁scandinavi	-11.6796
▁fallì	-11.6796
▁für	-11.6796
▁gemellaggi	-11.6796
▁morrison	-11.6796
▁ospitò	-11.6796
▁suffisso	-11.6796
▁azzurra	-11.6796
▁defunto	-11.6796
▁redditi	-11.6796
▁sterlina	-11.6796
▁reparto	-11.6796
▁genoma	-11.6796
▁sottili	-11.6796
▁virtuale	-11.6796
worth	-11.6796
▁wayne	-11.6796
▁statuti	-11.6797
▁illustri	-11.6797
▁stabiliti	-11.6797
▁subirono	-11.6797
▁dislocat	-11.6797
bahn	-11.6797
▁rigore	-11.6797
▁umili	-11.6798
▁corregge	-11.6798
▁biologici	-11.6798
▁metallicità	-11.6799
magister	-11.6799
▁laterale	-11.68
▁raffreddamento	-11.68
▁grossa	-11.6801
▁scappa	-11.6801
▁perduto	-11.6802
▁afro	-11.6803
▁viaggiatori	-11.6803
▁1878	-11.6805
antropi	-11.6805
▁1853	-11.6805
▁tiranno	-11.6806
▁1884	-11.6807
6%	-11.6809
▁risparmio	-11.681
▁1885	-11.681
▁unitamente	-11.6812
▁insegnanti	-11.6812
▁gergo	-11.6813
▁1796	-11.6813
fisiologi	-11.6815
▁fortific	-11.6817
▁decorati	-11.6821
▁1700	-11.6826
▁mediazione	-11.683
▁rimanenti	-11.6832
tecnica	-11.6833
culo	-11.6836
▁sorse	-11.6836
nuovo	-11.6841
▁soglia	-11.6842
▁gala	-11.6844
▁teste	-11.6849
▁postazioni	-11.6853
▁ammirare	-11.6854
▁verne	-11.6855
▁natali	-11.6856
▁africana	-11.6859
▁elena	-11.6866
repubblica	-11.687
▁doria	-11.687
▁telefonica	-11.6871
▁hop	-11.6877
▁sassi	-11.6881
▁impiegata	-11.6886
▁fatica	-11.6888
dimensionali	-11.6889
▁condannati	-11.6891
▁ragion	-11.6896
▁negozio	-11.6905
ppel	-11.6909
▁suggerito	-11.692
marina	-11.6921
▁ingaggi	-11.6922
vengano	-11.6932
▁lasciata	-11.6937
materia	-11.6945
▁francis	-11.6951
assassin	-11.6955
▁ricordi	-11.6957
▁matteo	-11.6957
_35	-11.6957
arcidiocesi	-11.6957
improvviso	-11.6957
▁appariscente	-11.6957
▁attaccò	-11.6957
▁continentali	-11.6957
▁cyberpunk	-11.6957
▁festività	-11.6957
▁longobardo	-11.6957
▁marshall	-11.6957
▁monumentali	-11.6957
▁presidenziale	-11.6957
▁produttiva	-11.6957
▁rudolf	-11.6957
▁spielberg	-11.6957
▁splendore	-11.6957
▁vulcano	-11.6957
▁yiddish	-11.6957
▁firmò	-11.6957
▁muovono	-11.6957
▁presunto	-11.6957
▁esplode	-11.6958
▁gramsci	-11.6958
▁josé	-11.6958
▁posteriore	-11.6958
▁fortran	-11.6958
▁carolingi	-11.6958
▁alcalini	-11.6958
▁mazara	-11.6958
▁arancione	-11.6958
▁disporre	-11.6958
▁mistero	-11.6958
▁offerte	-11.6958
▁civica	-11.6958
▁strategici	-11.6958
▁telelavoro	-11.6958
▁templi	-11.6958
▁americhe	-11.6958
▁esposti	-11.6958
▁contratti	-11.6958
▁pretese	-11.6958
▁lieve	-11.6958
▁basilea	-11.6958
▁mantengono	-11.6958
▁inutili	-11.6958
▁saputo	-11.6959
▁infinite	-11.6959
kaiser	-11.6959
▁contrade	-11.6959
▁dinamico	-11.6959
▁frontiere	-11.6959
▁stanley	-11.696
▁razziali	-11.696
▁mutua	-11.696
▁favorisc	-11.696
▁degrada	-11.6961
▁jules	-11.6962
▁margini	-11.6962
▁derivi	-11.6962
▁universali	-11.6963
▁coniata	-11.6965
▁dipendenze	-11.6965
▁placca	-11.6965
▁1857	-11.6965
▁ferito	-11.6966
▁propagazione	-11.6966
▁pratici	-11.6967
▁migrazione	-11.6968
▁1893	-11.697
▁limitate	-11.6972
▁moltiplicazione	-11.6972
▁dedit	-11.6974
▁volendo	-11.6976
piante	-11.6977
▁buio	-11.6977
ingegno	-11.6979
▁distribuir	-11.698
▁rione	-11.6981
▁mostre	-11.6981
▁astronomici	-11.6982
venire	-11.6982
union	-11.6995
maggiore	-11.6996
▁arrestati	-11.6996
società	-11.6997
▁volgare	-11.6999
▁protocol	-11.7001
▁focalizza	-11.7002
▁neutro	-11.7003
=41	-11.7009
alveo	-11.7009
▁esegue	-11.7013
spesso	-11.7016
▁penali	-11.702
animo	-11.7022
ducibili	-11.7023
tutti	-11.7028
oscuro	-11.7031
ecologia	-11.7036
avvent	-11.7039
▁obbligato	-11.7041
▁garantito	-11.7043
passer	-11.7047
▁interpretata	-11.7049
croci	-11.7049
▁intercett	-11.705
▁spazza	-11.7056
▁sostituisc	-11.7059
▁affascin	-11.7059
venute	-11.706
▁wave	-11.7062
▁spostata	-11.7063
▁1200	-11.7063
▁attaccato	-11.7065
▁caratterizzano	-11.7068
▁studiate	-11.7069
▁pericolosi	-11.7072
▁avviare	-11.7073
nubi	-11.7079
▁3000	-11.7083
▁popolosi	-11.7084
licio	-11.7086
▁appartene	-11.7086
▁ritrovati	-11.7087
_31	-11.7093
=67	-11.7094
="44	-11.7094
▁installato	-11.7112
generi	-11.7118
▁mondi	-11.712
▁tollera	-11.7121
=13	-11.7121
▁confermò	-11.7121
▁corridoio	-11.7121
▁davvero	-11.7121
▁hindenburg	-11.7121
▁nirvana	-11.7121
▁preesistenti	-11.7121
▁racchiude	-11.7121
▁taylor	-11.7121
▁vegetale	-11.7121
phylum	-11.7121
▁gluoni	-11.7121
▁pontificia	-11.7121
▁raymond	-11.7121
detective	-11.7121
▁assomiglia	-11.7121
▁oxford	-11.7121
▁pilastri	-11.7121
▁battute	-11.7121
▁disordini	-11.7121
▁gallerie	-11.7121
▁globe	-11.7121
▁piacentino	-11.7121
▁promulgat	-11.7121
imminente	-11.7121
▁fotografa	-11.7121
▁corazzato	-11.7121
▁superstiti	-11.7122
▁dietrich	-11.7122
▁staziona	-11.7122
▁disposte	-11.7122
▁scatola	-11.7122
▁zinco	-11.7122
▁cantautore	-11.7122
▁classifiche	-11.7123
agata	-11.7123
▁warner	-11.7123
▁guscio	-11.7124
▁south	-11.7125
▁puglie	-11.7125
▁gauge	-11.7125
armenia	-11.7125
▁respirazione	-11.7125
bici	-11.7126
▁prevalente	-11.7126
▁riposa	-11.7126
▁festeggiamenti	-11.7126
▁potenzialità	-11.7126
▁evolutivo	-11.7127
▁informatico	-11.7127
▁relaziona	-11.7127
▁dialogo	-11.7127
▁improvvisamente	-11.713
▁1855	-11.713
▁body	-11.7132
▁lorena	-11.7132
▁efficacemente	-11.7133
▁sorsero	-11.7134
▁neutrale	-11.7135
=44	-11.7135
▁tossico	-11.7136
="67	-11.7136
▁1851	-11.7139
▁svilupparsi	-11.7141
▁riunificazione	-11.7142
▁scorso	-11.7144
▁specialisti	-11.7145
▁confinanti	-11.7147
▁granito	-11.7152
▁comico	-11.7152
▁rivali	-11.7155
▁tentarono	-11.7159
_30	-11.7161
dividono	-11.7163
appartenenza	-11.7163
international	-11.7163
bianco	-11.7164
▁byte	-11.7166
▁pasti	-11.7169
▁volga	-11.717
▁insignito	-11.7172
fé	-11.7174
spazio	-11.7178
▁notti	-11.7178
▁onorio	-11.7178
antropologia	-11.7179
quattro	-11.7181
attraversamento	-11.7184
▁generando	-11.7188
▁impiegate	-11.7188
▁cassano	-11.7195
ghetto	-11.7199
hot	-11.7206
mecha	-11.7206
_23	-11.721
▁flori	-11.7216
▁usavano	-11.7217
▁rilasciato	-11.7222
▁rav	-11.7225
▁ritornare	-11.7234
like	-11.7238
string	-11.7239
▁spazia	-11.7241
▁proporzional	-11.725
▁dicono	-11.7251
▁conosceva	-11.7253
▁costringe	-11.7253
attivazione	-11.7256
=69	-11.7259
▁raffigurant	-11.7264
▁interpretati	-11.7265
▁gelo	-11.7265
▁cortile	-11.7269
▁calabr	-11.727
istria	-11.7287
antisemitismo	-11.7288
▁circoscrizioni	-11.7288
▁contraddistint	-11.7288
▁cosicché	-11.7288
▁domodossola	-11.7288
▁ellittica	-11.7288
▁molibdeno	-11.7288
▁portuale	-11.7288
▁rifornimento	-11.7288
▁rintraccia	-11.7288
▁sacerdoti	-11.7288
▁schrödinger	-11.7288
▁sciopero	-11.7288
▁sconosciuto	-11.7288
▁tribunali	-11.7288
accumulo	-11.7288
appendice	-11.7288
▁comportò	-11.7288
▁maturità	-11.7288
▁scozzesi	-11.7288
▁sguardo	-11.7288
▁teoremi	-11.7288
▁western	-11.7288
▁bambina	-11.7288
▁canadesi	-11.7288
▁disgrega	-11.7288
▁forlì	-11.7288
▁accomuna	-11.7288
▁fisher	-11.7288
▁barriera	-11.7288
▁pearl	-11.7288
▁diciannove	-11.7288
▁assistito	-11.7288
▁intervalli	-11.7288
caccia	-11.7288
▁irradia	-11.7288
▁frammento	-11.7288
▁manzoni	-11.7288
▁cosimo	-11.7288
▁sellers	-11.7288
usuale	-11.7289
▁silandro	-11.7289
▁delegato	-11.7289
[...]
