<unk>	0
<s>	0
</s>	0
,	-3.34189
▁di	-3.59416
.	-3.69305
▁e	-3.9739
'	-4.12898
▁	-4.21245
▁la	-4.24636
▁il	-4.29171
▁in	-4.48568
▁a	-4.49397
▁del	-4.77541
▁che	-4.83534
▁un	-4.93569
re	-4.96901
"	-4.97347
▁l	-4.9781
▁per	-5.02926
▁"	-5.03015
▁della	-5.0489
▁è	-5.09134
▁con	-5.09814
▁i	-5.09973
▁nel	-5.1786
▁le	-5.24216
▁si	-5.2615
to	-5.26985
▁da	-5.32532
▁una	-5.34113
▁(	-5.35349
o	-5.36806
s	-5.37141
ta	-5.37997
e	-5.46491
a	-5.47077
▁al	-5.54558
no	-5.55432
ti	-5.62316
le	-5.6391
#	-5.68065
▁#	-5.70914
▁dell	-5.71556
te	-5.72985
c	-5.78179
▁dei	-5.79287
i	-5.81473
:	-5.81597
▁più	-5.90864
▁come	-5.92303
▁non	-5.94926
▁sono	-5.9633
▁o	-5.9781
▁delle	-5.98662
▁alla	-6.00428
)	-6.03163
-	-6.05107
▁ma	-6.05871
va	-6.11229
="	-6.11988
▁dal	-6.13092
ri	-6.1419
▁anche	-6.15121
▁tra	-6.15242
ro	-6.19604
li	-6.19605
na	-6.22788
▁fu	-6.22838
l	-6.23925
▁gli	-6.23973
ne	-6.27153
n	-6.28071
ndo	-6.29429
;	-6.30735
▁nella	-6.33966
▁d	-6.34704
ni	-6.37675
si	-6.38281
▁lo	-6.3861
▁ad	-6.40027
▁all	-6.41614
r	-6.44195
zione	-6.47571
",	-6.49365
ca	-6.49799
▁ha	-6.50237
la	-6.50875
di	-6.51119
▁se	-6.55717
),	-6.57707
co	-6.59564
▁cui	-6.6018
se	-6.61509
doc	-6.63429
ra	-6.63701
▁dalla	-6.65417
>	-6.65921
▁parte	-6.67363
vi	-6.6741
▁era	-6.67583
lo	-6.67992
ma	-6.7006
▁su	-6.7019
nte	-6.70677
▁due	-6.71561
▁ri	-6.72607
▁anni	-6.72743
d	-6.734
ci	-6.73583
de	-6.73599
).	-6.76059
t	-6.76484
▁de	-6.78351
▁sua	-6.79184
/	-6.81319
▁nell	-6.81323
degli	-6.82232
▁ed	-6.83739
▁suo	-6.85267
▁prima	-6.85506
in	-6.9007
▁questo	-6.90874
mi	-6.91776
▁stato	-6.92507
▁dopo	-6.92516
▁re	-6.92828
da	-6.9324
▁essere	-6.93338
ò	-6.95622
ce	-6.95838
mo	-6.97465
zioni	-6.9752
che	-6.9831
nti	-6.98381
rono	-6.98825
▁s	-6.9891
me	-6.99116
m	-7.00272
p	-7.00357
▁città	-7.00921
it	-7.00926
sa	-7.01837
ve	-7.02083
mente	-7.02102
▁dall	-7.02701
|	-7.02865
do	-7.03856
ga	-7.0687
so	-7.06973
sta	-7.06974
u	-7.09291
g	-7.09335
▁vi	-7.09508
sti	-7.10095
▁sul	-7.11426
gli	-7.11888
▁formula	-7.12301
▁loro	-7.12511
▁18	-7.12754
▁ai	-7.12954
▁alle	-7.1349
y	-7.17521
▁nei	-7.17526
tta	-7.18293
".	-7.18635
tti	-7.19637
rsi	-7.19756
org	-7.22532
mento	-7.22711
▁secolo	-7.24204
▁solo	-7.27467
▁id	-7.27814
?	-7.28287
▁categorie	-7.30189
▁altri	-7.30619
▁pro	-7.30799
wikipedia	-7.31384
▁mentre	-7.31628
▁uno	-7.31734
tto	-7.32526
▁sia	-7.32788
wiki	-7.33706
urid	-7.33826
▁url	-7.34373
://	-7.34733
https	-7.3493
▁title	-7.35116
▁<	-7.3514
▁</	-7.35341
▁stati	-7.3576
vano	-7.36176
▁fa	-7.37132
▁venne	-7.37688
f	-7.37955
sse	-7.38305
▁ne	-7.39966
▁sulla	-7.4148
▁questa	-7.41902
vo	-7.42085
gi	-7.42293
▁secondo	-7.42823
tte	-7.43175
v	-7.43905
▁primo	-7.45297
▁pre	-7.45615
▁viene	-7.45675
▁può	-7.45716
ge	-7.4645
▁molto	-7.46465
b	-7.4673
▁fra	-7.47444
nza	-7.47899
▁tre	-7.48605
▁ca	-7.48897
▁co	-7.48914
ria	-7.49376
▁hanno	-7.49384
▁sotto	-7.49537
▁poi	-7.49583
▁fino	-7.51159
fi	-7.52355
▁quando	-7.52449
▁durante	-7.52904
=	-7.5349
▁sistema	-7.53549
▁ci	-7.53871
▁dai	-7.53993
▁quella	-7.54248
▁quale	-7.54449
▁guerra	-7.5498
▁provincia	-7.565
▁mi	-7.57027
▁dove	-7.57123
ssi	-7.57169
ba	-7.57973
bi	-7.58149
il	-7.58453
▁erano	-7.60446
▁alcuni	-7.60496
▁furono	-7.60735
k	-7.61218
▁("	-7.6143
▁quindi	-7.61464
po	-7.62363
pi	-7.63234
tra	-7.63237
tori	-7.63515
▁san	-7.63589
rio	-7.63846
x	-7.64152
▁1	-7.64424
▁c	-7.65206
▁stesso	-7.65236
▁li	-7.65486
tà	-7.65815
▁fine	-7.66783
pe	-7.67097
▁nome	-7.67112
▁negli	-7.67679
▁grande	-7.68176
lla	-7.68197
▁pa	-7.6884
▁ba	-7.70092
▁altre	-7.70403
▁tempo	-7.70444
▁dello	-7.70612
▁circa	-7.71038
▁tutti	-7.71357
▁quello	-7.71675
ste	-7.72023
go	-7.72239
du	-7.72349
▁esempio	-7.72447
pa	-7.73142
▁aveva	-7.7396
▁forma	-7.75042
▁seguito	-7.75256
fa	-7.7538
▁quali	-7.75413
ato	-7.76138
h	-7.76785
▁ogni	-7.76855
▁così	-7.77499
▁suoi	-7.78166
▁stata	-7.78209
▁questi	-7.7874
▁bo	-7.78797
▁sa	-7.78961
▁periodo	-7.79185
▁inoltre	-7.79607
▁seconda	-7.79965
▁oltre	-7.80228
▁numero	-7.80253
▁territorio	-7.80513
tu	-7.81363
per	-7.8149
▁ancora	-7.82711
▁sempre	-7.82956
▁quanto	-7.83238
▁invece	-7.83392
lle	-7.83443
▁po	-7.8415
al	-7.84617
▁mo	-7.85034
▁volta	-7.85709
chi	-7.86335
menti	-7.8636
▁tale	-7.87085
er	-7.87725
one	-7.88435
▁modo	-7.8859
▁via	-7.88862
▁fi	-7.89006
bile	-7.89202
▁storia	-7.89701
▁vita	-7.89784
▁possono	-7.89884
▁causa	-7.90055
▁comune	-7.90192
▁3	-7.90247
ssa	-7.90486
▁verso	-7.90527
▁2	-7.90912
▁nord	-7.91256
▁«	-7.91307
▁tuttavia	-7.91867
▁so	-7.92173
▁contro	-7.92916
▁centro	-7.94174
zza	-7.94445
▁già	-7.94473
azione	-7.94606
▁sud	-7.94782
2	-7.95627
bo	-7.95944
▁serie	-7.96465
▁particolare	-7.96593
w	-7.97392
▁stelle	-7.97446
▁molti	-7.977
us	-7.98143
▁ro	-7.98334
fe	-7.98526
tore	-7.98681
")	-7.98729
lu	-7.98864
italia	-7.98907
nta	-7.99003
▁fatto	-7.99929
▁17	-8.01419
▁ve	-8.01466
▁alcune	-8.01931
ale	-8.02485
▁sue	-8.02842
▁infatti	-8.03829
▁m	-8.03997
con	-8.04438
rie	-8.04618
en	-8.04645
anno	-8.05436
sso	-8.06285
▁generale	-8.06569
▁pi	-8.0735
▁sull	-8.07846
▁primi	-8.08345
▁spesso	-8.0864
zio	-8.08828
▁caso	-8.08938
ali	-8.09095
▁4	-8.09118
an	-8.09144
▁-	-8.09531
z	-8.09582
sto	-8.09738
▁do	-8.0987
▁senza	-8.10034
▁roma	-8.10199
▁trova	-8.10837
ano	-8.11205
▁queste	-8.11215
▁p	-8.11256
▁base	-8.1127
▁ra	-8.11295
tica	-8.11338
lli	-8.11482
▁mondo	-8.11517
▁pe	-8.11632
sce	-8.11911
um	-8.12279
3	-8.12451
▁15	-8.12513
▁mar	-8.12598
▁proprio	-8.12809
▁film	-8.13599
▁gran	-8.13776
’	-8.13858
ng	-8.13996
▁16	-8.14377
▁regno	-8.14875
un	-8.15407
▁agli	-8.16239
▁punto	-8.1625
▁tutto	-8.16479
st	-8.17518
llo	-8.17526
ver	-8.17913
▁10	-8.17998
ere	-8.18147
▁diversi	-8.18334
oni	-8.1843
▁nuovo	-8.185
▁me	-8.18502
▁lungo	-8.18529
▁val	-8.18741
▁5	-8.18946
ar	-8.19174
▁massa	-8.19326
ì	-8.19376
▁ce	-8.19493
tura	-8.19808
ata	-8.19938
▁governo	-8.19994
bili	-8.20418
th	-8.20744
ll	-8.21193
▁bi	-8.21369
be	-8.21971
▁(19	-8.22207
▁fo	-8.22238
▁va	-8.22242
on	-8.22651
sco	-8.23193
▁sta	-8.2337
▁gruppo	-8.24239
▁rispetto	-8.24256
▁car	-8.24259
ati	-8.2428
tico	-8.2436
▁sarebbe	-8.24753
▁ben	-8.24881
su	-8.25005
are	-8.25167
nia	-8.25186
nto	-8.25252
▁nuova	-8.25312
▁comuni	-8.25313
▁tutte	-8.2544
man	-8.25474
▁termine	-8.25483
▁chiesa	-8.25533
gno	-8.25552
▁terra	-8.25903
ch	-8.25907
▁avrebbe	-8.26424
▁campo	-8.26472
▁allo	-8.26739
8	-8.26929
▁grazie	-8.27302
▁nazionale	-8.27306
1	-8.27823
▁k	-8.28136
ns	-8.28171
smo	-8.28567
rà	-8.28592
ck	-8.28613
▁ta	-8.28924
interno	-8.29057
cu	-8.29638
▁col	-8.29667
cca	-8.29765
▁grandi	-8.29809
▁germania	-8.29812
7	-8.30195
»	-8.30227
▁tipo	-8.30346
▁meno	-8.30592
00	-8.30648
▁legge	-8.30672
5	-8.31085
▁però	-8.31186
▁italia	-8.31266
▁giorni	-8.31463
▁popolazione	-8.31659
▁cor	-8.32315
spe	-8.32713
glia	-8.33082
▁opera	-8.33331
▁quasi	-8.33404
▁12	-8.33415
▁te	-8.33597
6	-8.33695
▁corso	-8.33929
▁6	-8.34078
stra	-8.34274
▁attraverso	-8.34296
ur	-8.34611
▁mondiale	-8.34763
ggia	-8.34847
▁soprattutto	-8.35047
▁vengono	-8.35124
▁società	-8.35232
ff	-8.354
▁quelle	-8.35555
▁ar	-8.35985
▁presso	-8.36098
▁sede	-8.36154
gna	-8.36225
▁repubblica	-8.36237
▁inter	-8.36241
es	-8.36595
▁na	-8.3674
▁lingua	-8.36789
▁diverse	-8.36927
▁insieme	-8.37003
▁ga	-8.37201
▁deriva	-8.37308
é	-8.37336
è	-8.3762
▁ciò	-8.37841
▁stella	-8.38007
▁comp	-8.38288
▁italiano	-8.38865
era	-8.38907
▁quattro	-8.38959
ia	-8.39215
▁sca	-8.39343
or	-8.39373
ghe	-8.39497
▁maggior	-8.39933
ru	-8.40088
▁porta	-8.40445
fo	-8.40655
▁perché	-8.40749
▁successo	-8.40766
▁possibile	-8.40877
nde	-8.40922
4	-8.40955
nu	-8.4114
▁b	-8.41154
▁anno	-8.41302
unione	-8.4132
▁oggi	-8.41822
▁partire	-8.41947
ad	-8.42025
tion	-8.42126
pro	-8.42414
bu	-8.42456
▁0	-8.42483
nd	-8.4253
ter	-8.42819
ss	-8.42918
▁morte	-8.43074
▁principale	-8.43113
is	-8.43179
▁politica	-8.4347
▁mai	-8.43514
▁presenza	-8.43534
sca	-8.4361
▁media	-8.43985
▁14	-8.44077
anni	-8.44087
▁maggiore	-8.44234
eri	-8.44279
▁italiana	-8.44304
io	-8.44314
▁sviluppo	-8.44479
▁cu	-8.44522
"),	-8.44759
▁francese	-8.44857
▁giorno	-8.45011
▁principali	-8.45112
▁volte	-8.45461
nze	-8.45595
▁stessa	-8.46001
▁linea	-8.46099
pre	-8.46254
tivo	-8.46349
▁g	-8.46538
▁presenta	-8.4655
▁lavoro	-8.46986
▁produzione	-8.47093
gra	-8.47158
_	-8.47169
▁poco	-8.47182
▁uniti	-8.47345
▁chi	-8.47784
▁ii	-8.47902
ry	-8.48027
tiva	-8.48296
▁rappresenta	-8.48723
▁tri	-8.48825
▁f	-8.49234
nt	-8.49471
▁vennero	-8.4967
▁far	-8.49736
dia	-8.49771
▁misura	-8.49777
ente	-8.50154
▁ge	-8.50315
▁settembre	-8.50565
▁corpo	-8.50884
▁bu	-8.51156
▁luglio	-8.5119
▁be	-8.5137
▁casa	-8.5144
▁francia	-8.51562
▁7	-8.51774
▁fosse	-8.51795
▁to	-8.52306
▁gennaio	-8.52409
▁altro	-8.52424
▁opere	-8.52427
▁luce	-8.52518
ndosi	-8.52556
tri	-8.52683
%	-8.52999
▁paese	-8.53803
▁zona	-8.54416
sci	-8.54446
▁go	-8.54682
gia	-8.54725
▁maggio	-8.54766
▁importanti	-8.54871
ggio	-8.5501
▁dicembre	-8.5505
0	-8.5521
qui	-8.55468
▁struttura	-8.55625
cco	-8.55678
nda	-8.55711
▁u	-8.55829
▁livello	-8.56139
▁valore	-8.56157
▁aver	-8.56355
▁quelli	-8.5645
▁internazionale	-8.56853
zia	-8.57133
▁metà	-8.57138
▁13	-8.57218
▁paesi	-8.57269
▁giugno	-8.57912
▁importante	-8.57933
▁presenti	-8.58222
▁regione	-8.58275
▁processo	-8.58288
▁grado	-8.58482
▁elementi	-8.58504
▁monte	-8.58622
▁ruolo	-8.5876
ndi	-8.5902
▁bar	-8.5944
▁vari	-8.59554
za	-8.59693
▁funzione	-8.59816
▁marzo	-8.60032
tro	-8.60046
▁sui	-8.6011
▁ebbe	-8.60223
▁posto	-8.60357
10	-8.60637
▁dati	-8.6093
uti	-8.61096
▁capo	-8.61254
▁–	-8.61331
▁quest	-8.61366
ppo	-8.61525
▁momento	-8.61656
altra	-8.61678
gio	-8.61785
▁famiglia	-8.61906
▁propria	-8.62038
▁presente	-8.6204
▁novembre	-8.62043
▁molte	-8.62154
zi	-8.62335
▁specie	-8.62363
gu	-8.62381
uso	-8.62623
der	-8.64279
▁genere	-8.6438
▁app	-8.64618
opera	-8.6471
ggi	-8.64858
zzazione	-8.64939
▁nonostante	-8.64955
▁sco	-8.65455
ero	-8.6556
▁com	-8.65645
son	-8.66032
ana	-8.66294
j	-8.66615
▁x	-8.6773
▁ni	-8.67801
▁lui	-8.6781
▁lu	-8.68036
oro	-8.68118
▁sal	-8.68174
▁divenne	-8.68195
▁tratta	-8.68292
tici	-8.68387
el	-8.6853
▁ho	-8.68537
▁allora	-8.68604
ultimo	-8.68823
▁state	-8.68954
cce	-8.69284
▁studio	-8.6947
▁fiume	-8.69488
▁sole	-8.69497
▁presidente	-8.69561
▁abitanti	-8.69592
▁caratteristiche	-8.69712
ment	-8.69949
▁strada	-8.70068
area	-8.70251
▁attività	-8.70413
=1	-8.70655
_1	-8.70687
▁9	-8.70832
▁n	-8.7087
▁nota	-8.71284
▁tedesco	-8.7157
▁bandiera	-8.71616
▁comunque	-8.71796
stica	-8.71999
▁20	-8.72016
▁occupa	-8.72042
via	-8.72132
▁stabili	-8.7225
▁indica	-8.72252
▁mu	-8.72267
▁sistemi	-8.72358
at	-8.72409
▁teoria	-8.72585
▁milioni	-8.72629
dio	-8.72642
inizio	-8.72756
▁studi	-8.73452
50	-8.73808
20	-8.73835
ul	-8.73863
▁numerosi	-8.74004
ate	-8.74012
ven	-8.74361
▁ru	-8.74527
▁posizione	-8.74815
epoca	-8.75022
▁successivamente	-8.75122
pri	-8.75245
ut	-8.75337
▁data	-8.75393
ture	-8.75409
qua	-8.75537
▁tramite	-8.75561
▁origine	-8.75707
▁militare	-8.75719
ica	-8.75823
▁no	-8.75919
▁pubblico	-8.76264
ttu	-8.76499
glio	-8.76502
▁pubblica	-8.76626
▁codice	-8.76817
stri	-8.77054
▁centrale	-8.77056
▁forze	-8.77141
▁persone	-8.77151
▁poiché	-8.77159
ico	-8.77207
▁fece	-8.77343
▁temperatura	-8.77376
▁continua	-8.77532
▁proprietà	-8.77719
▁ver	-8.77765
sia	-8.77818
stre	-8.77904
▁vol	-8.77938
▁and	-8.77957
ner	-8.7801
▁febbraio	-8.78012
▁fisica	-8.78093
▁est	-8.78159
▁parti	-8.78618
▁dato	-8.78651
▁comunità	-8.78906
▁ottobre	-8.79042
▁diritto	-8.79247
ster	-8.79331
nne	-8.79413
▁storico	-8.7947
rd	-8.7953
▁imp	-8.79573
▁ricerca	-8.7966
(	-8.79707
sh	-8.79751
tt	-8.79794
▁pari	-8.79806
▁luogo	-8.80118
▁programma	-8.80389
vol	-8.80584
▁anti	-8.80929
▁avevano	-8.80988
tive	-8.81081
scono	-8.81496
▁spazio	-8.81571
").	-8.81626
▁progetto	-8.81852
▁vo	-8.82202
onda	-8.82267
».	-8.82287
stico	-8.82792
▁avere	-8.83142
▁papa	-8.83258
▁risulta	-8.83311
impero	-8.83599
tiche	-8.83671
lt	-8.8371
▁the	-8.83757
▁of	-8.83767
▁du	-8.83788
altro	-8.83826
▁forza	-8.83975
rre	-8.841
que	-8.84191
et	-8.84282
▁prime	-8.84359
▁vista	-8.8439
▁quel	-8.84528
▁piano	-8.84582
▁tutta	-8.84655
▁r	-8.8491
▁fe	-8.84925
▁collega	-8.84939
tò	-8.85207
▁versione	-8.85316
scri	-8.85378
▁for	-8.85563
▁giochi	-8.85774
ha	-8.85867
▁velocità	-8.85938
▁pur	-8.86344
▁infine	-8.86464
▁spa	-8.86525
isola	-8.86531
acqua	-8.86744
▁fronte	-8.86933
▁mare	-8.86942
gni	-8.86957
▁distribuzione	-8.87023
rlo	-8.87308
▁km	-8.8741
▁v	-8.87509
);	-8.87742
ani	-8.87788
▁gi	-8.87893
▁oggetti	-8.87948
▁partito	-8.87976
▁fin	-8.88042
▁ora	-8.8872
▁varie	-8.88908
▁agosto	-8.89076
▁titolo	-8.89142
▁cinque	-8.89266
▁cioè	-8.8929
▁sopra	-8.89452
▁cultura	-8.89458
▁xx	-8.89557
zzo	-8.89613
▁formazione	-8.89763
▁ovvero	-8.89854
▁acc	-8.89884
▁maria	-8.89946
▁gruppi	-8.90054
▁nazionali	-8.90083
▁aprile	-8.9023
▁rete	-8.90384
▁super	-8.90422
▁parigi	-8.90504
spo	-8.90561
▁deve	-8.90709
▁controllo	-8.90898
▁europea	-8.90914
▁cosiddett	-8.91005
colo	-8.91029
▁forte	-8.9115
▁potere	-8.91187
wa	-8.91517
nese	-8.9152
▁tedeschi	-8.91554
▁11	-8.91595
▁radio	-8.91783
rne	-8.91955
nio	-8.92057
▁libera	-8.92075
ura	-8.92254
gui	-8.92334
▁passa	-8.92649
▁superficie	-8.92653
▁pochi	-8.92684
▁essa	-8.92696
enti	-8.92727
▁tali	-8.9277
bilità	-8.92875
ing	-8.93042
zze	-8.93107
&	-8.93323
mp	-8.93494
▁fer	-8.93592
lio	-8.93625
▁h	-8.9375
ke	-8.93798
ho	-8.94099
ultima	-8.94292
▁giu	-8.94308
▁numerose	-8.94577
▁gra	-8.94662
cchi	-8.94675
▁realtà	-8.94914
ka	-8.95007
endo	-8.95215
▁romano	-8.95348
▁mostra	-8.95464
▁sicilia	-8.95582
▁t	-8.95675
▁battaglia	-8.95676
▁totale	-8.9568
ute	-8.95803
▁qui	-8.95851
▁italiani	-8.96196
▁parla	-8.96224
▁fase	-8.96243
fer	-8.96349
▁para	-8.96523
▁musica	-8.96541
▁quantità	-8.96569
fu	-8.97365
land	-8.97562
nato	-8.9759
den	-8.97629
▁rico	-8.97753
▁casi	-8.97801
▁sor	-8.97916
▁costruzione	-8.97999
▁sub	-8.98023
▁distanza	-8.98107
uta	-8.98226
ide	-8.98261
schi	-8.9827
ser	-8.98309
▁an	-8.98375
▁campi	-8.98389
uto	-8.98442
▁or	-8.98827
▁basa	-8.99114
fica	-8.99366
▁numeri	-8.99502
▁standard	-8.99578
▁valle	-8.99624
est	-8.9983
▁membri	-8.99985
▁ecc	-9.00074
▁auto	-9.00276
▁natura	-9.00371
▁prodotto	-9.00512
30	-9.00724
aria	-9.00998
▁dimensioni	-9.01181
nica	-9.01243
▁sebbene	-9.01283
▁classe	-9.01285
▁carlo	-9.01315
▁diventa	-9.01327
università	-9.01331
▁noto	-9.01516
▁nuove	-9.01688
=""	-9.01698
▁egli	-9.01722
▁mon	-9.01792
▁costellazione	-9.01815
the	-9.0184
▁superiore	-9.01892
stru	-9.01927
▁senso	-9.02
ber	-9.02064
▁romana	-9.02182
uri	-9.02214
80	-9.0224
ten	-9.02331
sio	-9.02357
esi	-9.02374
▁ultimi	-9.02402
▁piazza	-9.0267
stici	-9.02807
enza	-9.02978
▁tu	-9.03042
▁mesi	-9.03071
au	-9.03076
nali	-9.03206
ffi	-9.03301
▁riguarda	-9.03544
▁truppe	-9.0364
età	-9.03708
▁milano	-9.03746
▁mezzo	-9.03876
ono	-9.03912
▁gas	-9.03942
▁comprende	-9.04078
▁gioco	-9.04241
▁ovest	-9.0427
▁30	-9.04316
▁porto	-9.04329
▁squadra	-9.04502
cor	-9.04528
america	-9.0454
am	-9.04667
▁tro	-9.04689
nce	-9.04733
amp	-9.04809
▁mano	-9.04987
▁riporta	-9.05138
▁19	-9.05149
bra	-9.05344
▁variabili	-9.05353
▁riferimento	-9.05447
-19	-9.05721
feri	-9.05857
▁breve	-9.05888
▁prodotti	-9.05942
▁giovanni	-9.06067
▁cal	-9.06136
spa	-9.0618
ty	-9.062
▁nucleo	-9.0626
▁pla	-9.0631
▁conquista	-9.06581
_2	-9.06682
▁figlio	-9.06937
arte	-9.06938
olo	-9.07096
▁usato	-9.07129
ari	-9.07217
▁santa	-9.07346
ita	-9.07466
▁8	-9.07466
ir	-9.07472
nico	-9.07546
val	-9.07823
lità	-9.07824
zo	-9.07904
europa	-9.07937
atto	-9.08056
pu	-9.08068
▁ospita	-9.08193
almente	-9.08225
▁inglese	-9.08234
▁poli	-9.0824
▁conte	-9.08402
▁settore	-9.08427
▁qualche	-9.08627
▁resta	-9.08649
▁esso	-9.08697
tamente	-9.0872
▁pratica	-9.0878
▁utilizzato	-9.08886
▁cro	-9.08972
▁diritti	-9.09101
▁moto	-9.09108
▁metri	-9.09132
▁software	-9.09173
cci	-9.09218
lia	-9.09233
▁essendo	-9.09255
▁effetti	-9.09339
imperatore	-9.09348
gne	-9.0935
▁afferma	-9.09386
hi	-9.0942
▁nuovi	-9.09503
▁25	-9.09739
▁tanto	-9.0986
9	-9.09957
▁bru	-9.1027
▁classifica	-9.10352
▁clima	-9.10418
▁principalmente	-9.10443
rato	-9.10462
▁giro	-9.10463
▁unità	-9.10507
▁essi	-9.10535
zzi	-9.10551
14	-9.10657
▁bal	-9.10702
ex	-9.10804
▁napoli	-9.10852
▁colle	-9.11005
▁guida	-9.11037
▁computer	-9.11054
▁modello	-9.11072
▁detto	-9.11263
▁territori	-9.11308
esercito	-9.11371
ghi	-9.11485
▁zone	-9.11523
▁tedesca	-9.11611
▁fuori	-9.11699
sp	-9.11716
▁condizioni	-9.11956
▁ka	-9.11959
▁punti	-9.12061
▁occidentale	-9.12098
▁energia	-9.12373
ire	-9.12391
ccio	-9.12417
90	-9.12562
▁fre	-9.12591
▁capitale	-9.12703
▁pen	-9.12823
▁forme	-9.12841
▁man	-9.1292
▁alta	-9.12921
rò	-9.12983
▁seguenti	-9.13007
cola	-9.13021
mu	-9.1319
▁lettera	-9.13395
▁iii	-9.13398
▁conta	-9.13443
▁consiglio	-9.13492
ordine	-9.13504
mar	-9.13555
▁fini	-9.13571
▁maggiori	-9.13601
▁chiamato	-9.13613
▁dunque	-9.13765
ph	-9.13812
▁sport	-9.13847
▁valori	-9.13908
▁individua	-9.13941
▁rimane	-9.1401
▁osserva	-9.14022
▁permette	-9.14073
▁inizia	-9.14081
▁costa	-9.14227
▁moderna	-9.14232
energia	-9.14252
ed	-9.14451
gg	-9.14504
mini	-9.14532
▁gro	-9.14562
▁ber	-9.14605
▁esiste	-9.14645
▁ufficiale	-9.14667
▁sp	-9.14681
nna	-9.14755
▁differenza	-9.14802
▁scuola	-9.14805
40	-9.14837
▁sci	-9.14984
▁locali	-9.1502
▁latino	-9.15115
sche	-9.15165
▁sei	-9.15189
▁modifica	-9.15206
ora	-9.15561
▁considerato	-9.15755
▁bor	-9.1597
▁padre	-9.15971
▁premio	-9.16133
lmente	-9.1625
mb	-9.16258
▁comunale	-9.16319
▁locale	-9.16565
▁applica	-9.16676
ismo	-9.16691
▁finale	-9.16722
▁meridionale	-9.1679
▁otto	-9.16798
▁simile	-9.16808
▁probabilmente	-9.16909
art	-9.16998
▁situazione	-9.17028
▁subito	-9.17042
gene	-9.17177
▁pianeta	-9.17265
▁foto	-9.17293
ssero	-9.17293
ol	-9.17363
▁scopo	-9.17471
anti	-9.17484
attività	-9.17511
▁europa	-9.17605
mina	-9.17615
▁intorno	-9.17625
tera	-9.17774
▁wi	-9.17903
48	-9.17968
▁divisione	-9.17985
▁linee	-9.1799
stro	-9.18005
ssione	-9.18006
zzato	-9.18054
15	-9.18166
▁movimento	-9.18218
idi	-9.185
▁sovietica	-9.18578
▁inizialmente	-9.18594
ici	-9.187
▁francesco	-9.18713
ine	-9.18737
▁uso	-9.18819
à	-9.18888
70	-9.19032
▁attraversa	-9.19051
▁nascita	-9.19061
mma	-9.19063
▁esse	-9.19134
flu	-9.19143
ö	-9.19302
▁possibilità	-9.19447
▁=	-9.19497
35	-9.19511
▁colore	-9.19525
▁cerca	-9.19594
▁popolo	-9.19672
▁carica	-9.19806
▁piuttosto	-9.1991
▁nu	-9.19991
▁stra	-9.20002
ton	-9.20097
rica	-9.20101
▁lega	-9.20108
ina	-9.20162
tur	-9.20345
▁ju	-9.20469
▁sviluppa	-9.20505
▁palazzo	-9.20649
pp	-9.20698
▁orientale	-9.20833
▁w	-9.20978
▁&	-9.2098
▁servizio	-9.2103
▁calcio	-9.21148
▁madre	-9.21157
rra	-9.21232
12	-9.21365
▁uomini	-9.21383
▁ste	-9.21446
mbi	-9.21481
▁trovano	-9.21503
▁nazioni	-9.21515
▁corte	-9.21555
▁fare	-9.21566
▁gu	-9.21615
▁rosso	-9.21623
▁24	-9.2165
55	-9.21689
▁eventi	-9.21706
▁teatro	-9.21755
25	-9.21822
49	-9.21901
▁stile	-9.21935
▁lago	-9.21958
▁aree	-9.21986
▁attorno	-9.22004
par	-9.22054
comp	-9.22075
▁disco	-9.22292
he	-9.223
▁oppure	-9.22302
▁pu	-9.22368
▁generalmente	-9.22388
▁genera	-9.22408
rebbe	-9.22417
▁bianco	-9.22503
poli	-9.22573
▁mer	-9.23056
▁speciali	-9.23138
▁termini	-9.23142
▁determina	-9.23158
33	-9.23255
▁antica	-9.23315
▁precedente	-9.23439
66	-9.23532
▁tempi	-9.23548
gt	-9.23603
iche	-9.2361
▁lingue	-9.23635
▁regioni	-9.23691
▁dallo	-9.23732
▁tal	-9.23813
rna	-9.2383
▁ormai	-9.24143
mpa	-9.24169
up	-9.24215
▁problema	-9.24269
industria	-9.24621
▁ottenere	-9.24652
▁tradizione	-9.24657
uomo	-9.2471
ità	-9.24742
nzia	-9.24788
▁interessa	-9.24792
11	-9.2486
ccia	-9.2486
▁definizione	-9.25102
pia	-9.25111
▁almeno	-9.2518
▁prese	-9.25299
▁elettroni	-9.25403
▁successivo	-9.25572
bri	-9.25682
▁pace	-9.25694
▁avuto	-9.25696
▁rock	-9.25746
13	-9.25778
▁usa	-9.25816
47	-9.25883
▁terzo	-9.25949
▁iniziò	-9.25981
▁romani	-9.26057
▁pal	-9.26133
▁militari	-9.26234
▁metodo	-9.26266
▁naturale	-9.26267
▁simbolo	-9.2634
▁pio	-9.26387
▁mercato	-9.26459
una	-9.26578
▁decise	-9.2659
bb	-9.26629
▁capoluogo	-9.26848
col	-9.26935
ranno	-9.27127
▁confine	-9.27249
▁cielo	-9.27376
▁monete	-9.2738
▁costante	-9.2738
▁nonché	-9.27567
▁can	-9.27661
▁trattato	-9.27772
▁passato	-9.27916
”	-9.28163
ard	-9.28171
rico	-9.28285
▁(18	-9.28295
scu	-9.2835
54	-9.28396
▁hitler	-9.28428
ite	-9.28495
36	-9.28534
▁consiste	-9.28567
ori	-9.28613
xi	-9.28679
]]	-9.28834
▁raggi	-9.28837
▁he	-9.28954
gono	-9.2911
▁completamente	-9.29179
45	-9.29351
▁relazione	-9.29499
tz	-9.29576
▁stagione	-9.29641
come	-9.29726
▁atomi	-9.29779
▁chiamata	-9.2982
▁trasforma	-9.30017
▁pra	-9.30038
stiche	-9.30091
65	-9.30121
▁separa	-9.30203
▁basi	-9.30223
car	-9.3023
mer	-9.30235
▁probabilità	-9.30304
inter	-9.30327
▁problemi	-9.30439
▁sociale	-9.30441
▁rapporto	-9.30442
▁piccola	-9.30466
▁entra	-9.3052
▁xix	-9.30576
ario	-9.3063
▁vittoria	-9.30711
ris	-9.30735
16	-9.30776
▁spo	-9.30786
▁cer	-9.30989
ly	-9.31082
gre	-9.31087
▁semi	-9.31151
▁ex	-9.31165
ione	-9.31227
ya	-9.3128
60	-9.31527
▁jo	-9.31542
▁elemento	-9.31658
▁figura	-9.31689
▁castello	-9.31747
▁risultato	-9.31799
bbi	-9.31869
▁av	-9.31876
▁venti	-9.31893
▁francesi	-9.31903
▁composti	-9.31941
▁dovuto	-9.32081
▁fonda	-9.32255
▁impe	-9.32258
nci	-9.32451
▁oggetto	-9.32481
▁norma	-9.32481
▁influenza	-9.32486
▁settentrionale	-9.32491
ag	-9.32545
▁varia	-9.32736
▁churchill	-9.32768
▁sembra	-9.32907
▁simboli	-9.32912
▁villa	-9.32923
▁direttamente	-9.32971
53	-9.33022
▁giovani	-9.33093
for	-9.33126
95	-9.33141
▁autori	-9.33172
▁vicino	-9.33189
▁torre	-9.33212
▁siano	-9.33307
gen	-9.33344
▁conserva	-9.33371
ologia	-9.33419
▁centri	-9.33419
▁secoli	-9.33435
96	-9.33437
▁materia	-9.33546
mette	-9.33701
grafia	-9.33731
17	-9.33745
tui	-9.33804
ā	-9.33883
attuale	-9.33967
▁economica	-9.34026
▁pan	-9.34056
▁posta	-9.34081
▁rossa	-9.34177
▁piccolo	-9.34327
▁qualità	-9.344
▁vero	-9.34404
46	-9.34418
▁strumenti	-9.34587
▁entrambi	-9.34597
▁“	-9.34684
▁funzioni	-9.34732
51	-9.34879
▁gesti	-9.34888
▁lavori	-9.34895
as	-9.34975
ac	-9.35009
▁ebrei	-9.35017
trice	-9.35023
▁particelle	-9.35295
op	-9.35296
▁riuscì	-9.35318
▁direzione	-9.35345
ki	-9.35431
▁particolarmente	-9.35451
▁completa	-9.35494
▁civili	-9.35582
▁località	-9.35637
▁registra	-9.35713
▁new	-9.35889
34	-9.3598
39	-9.35986
▁strade	-9.36008
arco	-9.3614
▁materiale	-9.36227
▁cap	-9.36322
▁detta	-9.36388
▁berlino	-9.36591
▁tipi	-9.36593
24	-9.36674
▁22	-9.368
unità	-9.369
▁stampa	-9.36903
uni	-9.36907
ssimo	-9.37159
▁giovane	-9.37233
ja	-9.37293
41	-9.37398
cia	-9.37399
unica	-9.37429
▁john	-9.3745
▁internazionali	-9.37453
▁mal	-9.3748
▁piccoli	-9.37488
▁im	-9.37637
▁seguente	-9.37665
▁ferro	-9.37686
89	-9.3773
▁ter	-9.37753
▁significa	-9.37755
ssima	-9.37822
▁alto	-9.37834
52	-9.3787
▁par	-9.37871
▁esistono	-9.37887
▁reale	-9.37894
▁partecipa	-9.37988
▁pri	-9.38106
21	-9.38177
▁costituzione	-9.38179
▁conseguenza	-9.38187
▁isole	-9.38225
▁spin	-9.3827
▁geo	-9.38291
▁carattere	-9.38325
ante	-9.38448
mica	-9.38465
▁arriva	-9.38508
▁servi	-9.38524
▁23	-9.38585
92	-9.386
▁fenomeno	-9.38621
alto	-9.38657
▁successivi	-9.38671
▁sant	-9.38676
▁dimostra	-9.38685
dici	-9.38727
dere	-9.3879
▁poter	-9.38806
22	-9.38837
bre	-9.38864
▁21	-9.38875
▁province	-9.38913
▁prende	-9.38943
▁politico	-9.3895
▁soli	-9.39105
▁semplice	-9.39118
mor	-9.39129
37	-9.3913
▁dipende	-9.39271
38	-9.39312
▁capi	-9.39367
▁termina	-9.39421
▁cre	-9.39455
▁qualsiasi	-9.39504
▁naturali	-9.39507
▁notevole	-9.39509
▁stemma	-9.39518
▁sol	-9.39532
91	-9.39646
▁spi	-9.39663
▁rileva	-9.39803
ppi	-9.3985
mico	-9.40008
▁identifica	-9.40013
▁massimo	-9.40044
▁libro	-9.40097
▁libero	-9.40113
▁sin	-9.40134
▁case	-9.40258
▁portò	-9.40261
▁concentra	-9.40427
44	-9.4047
▁z	-9.40645
▁popolare	-9.40655
ioni	-9.40771
▁100	-9.4079
▁composto	-9.40863
▁mor	-9.40963
▁bra	-9.41
cent	-9.411
▁+	-9.41138
ko	-9.41169
▁ja	-9.41199
ppa	-9.41245
▁31	-9.41385
▁premi	-9.41414
▁unito	-9.41439
▁j	-9.4144
▁colori	-9.41486
▁scoperta	-9.41602
esistenza	-9.41613
autore	-9.41622
▁lunga	-9.41656
19	-9.41678
▁classi	-9.4172
tor	-9.418
ore	-9.41866
▁acqua	-9.41878
.000	-9.41896
▁capacità	-9.41911
asse	-9.41946
denti	-9.42093
non	-9.42101
app	-9.42107
▁calendario	-9.42209
les	-9.42232
▁dec	-9.42245
vole	-9.42272
▁organizza	-9.42435
▁formato	-9.4246
▁tele	-9.42479
▁verifica	-9.42494
amento	-9.42508
▁cittadini	-9.42514
▁[[	-9.42517
▁testa	-9.4263
64	-9.42804
▁concetto	-9.42826
▁variabile	-9.42872
▁complesso	-9.42974
▁stazione	-9.43211
▁minore	-9.43258
▁strutture	-9.43281
▁campionato	-9.43281
lin	-9.43439
argento	-9.43514
86	-9.4354
wi	-9.43634
ffer	-9.43668
▁chimica	-9.43769
▁informazioni	-9.43813
▁sardegna	-9.43899
▁ore	-9.43951
▁bassa	-9.43954
▁metalli	-9.43976
▁basso	-9.44085
idea	-9.44133
austria	-9.44135
im	-9.44164
▁origini	-9.44209
▁propri	-9.44224
▁scala	-9.44229
43	-9.44326
▁am	-9.44338
▁greco	-9.44452
rri	-9.4452
genti	-9.44556
▁ti	-9.44561
rt	-9.44582
▁monta	-9.44643
▁tecniche	-9.44677
▁integra	-9.44754
▁medio	-9.44776
▁cita	-9.4479
▁statunitense	-9.44833
▁mode	-9.44845
organizzazione	-9.44914
▁effettua	-9.44931
shi	-9.44932
udi	-9.44949
▁lunghezza	-9.44999
▁accetta	-9.45001
98	-9.45006
99	-9.45066
69	-9.45076
▁pubblicato	-9.45206
gh	-9.45248
▁giuseppe	-9.45303
87	-9.45357
iano	-9.45491
▁pare	-9.45592
▁sé	-9.45597
▁industriale	-9.45624
port	-9.45653
▁colpi	-9.45781
meri	-9.45805
▁moneta	-9.45826
▁testo	-9.45841
▁ordine	-9.45879
▁piccole	-9.46005
nni	-9.46141
▁trans	-9.46221
▁crisi	-9.46253
▁certo	-9.46507
▁resto	-9.46541
▁sette	-9.46579
▁rimase	-9.46687
03	-9.46692
▁sarà	-9.46715
▁quanti	-9.46737
▁veniva	-9.46824
▁linguaggio	-9.46845
▁tur	-9.46855
]	-9.46871
rati	-9.46933
▁arti	-9.47065
67	-9.47087
▁ten	-9.47165
zzata	-9.47168
▁critica	-9.47207
▁visibile	-9.47208
▁considera	-9.47351
▁rende	-9.47365
▁nobel	-9.47368
▁servizi	-9.47398
▁bio	-9.47557
▁leggi	-9.47571
clu	-9.47615
97	-9.47644
▁interna	-9.47658
▁venezia	-9.47733
▁ricorda	-9.47758
▁visto	-9.47886
▁artisti	-9.47916
93	-9.47923
economia	-9.48156
immagine	-9.48172
▁né	-9.48237
▁nomi	-9.48261
os	-9.48311
▁organi	-9.48325
▁fondamentale	-9.48333
▁parole	-9.4834
▁th	-9.48354
▁radiazione	-9.48511
▁28	-9.48584
▁chiese	-9.48681
mon	-9.48717
▁ponte	-9.48809
logia	-9.48816
▁vittorio	-9.48821
▁principio	-9.48829
26	-9.48915
▁file	-9.48932
rk	-9.48948
▁religione	-9.48983
▁costituito	-9.49017
por	-9.49045
▁2000	-9.49141
°	-9.49145
▁maniera	-9.49168
▁solare	-9.4925
▁risultati	-9.49252
23	-9.49275
▁assieme	-9.4931
▁fede	-9.49331
pla	-9.49424
cità	-9.49427
▁necessario	-9.49464
ue	-9.49492
fra	-9.49544
▁raggiungere	-9.49574
rdo	-9.4961
▁magnitudine	-9.49638
▁y	-9.49748
▁religiose	-9.49802
▁segna	-9.49841
+	-9.49977
nk	-9.50033
94	-9.50074
▁diretto	-9.50112
▁ciclo	-9.50143
▁creazione	-9.50155
▁lavora	-9.50182
▁animali	-9.50238
▁vale	-9.50246
▁27	-9.50266
▁svizzera	-9.50296
▁firma	-9.50301
lina	-9.50363
42	-9.504
▁rivoluzione	-9.50459
▁pertanto	-9.50472
▁personaggi	-9.50504
▁tor	-9.50548
osa	-9.50678
uro	-9.50708
tre	-9.50802
▁post	-9.50836
▁sinistra	-9.51164
▁blu	-9.51192
iti	-9.51273
▁decreto	-9.51296
32	-9.51297
ger	-9.51326
▁libertà	-9.51459
zionale	-9.51486
▁regola	-9.51508
ze	-9.51521
ud	-9.51653
▁mese	-9.51687
▁sf	-9.51764
▁sociali	-9.51767
▁rapporti	-9.51793
▁nacque	-9.51799
▁utilizza	-9.5185
▁unico	-9.51864
nzio	-9.51866
▁meta	-9.51873
▁ossia	-9.51897
'8	-9.51963
▁gara	-9.52065
sen	-9.52205
18	-9.52246
▁regionale	-9.52298
▁civile	-9.52301
▁comando	-9.52315
pul	-9.52389
▁inferiore	-9.52466
▁cambia	-9.52529
▁50	-9.52538
▁noti	-9.52622
▁26	-9.52644
▁nomina	-9.52789
▁terza	-9.52828
▁scritto	-9.52854
chia	-9.52862
▁caratterizza	-9.52874
▁massima	-9.52911
▁ufficiali	-9.5299
▁invia	-9.53009
▁difesa	-9.53157
▁valuta	-9.53199
▁astronomi	-9.53217
85	-9.53219
ambito	-9.53226
75	-9.53243
▁portato	-9.53284
▁politiche	-9.53338
▁dominio	-9.53352
▁nato	-9.53398
oli	-9.53427
▁periodi	-9.5346
▁memoria	-9.53484
▁contiene	-9.53496
▁diffusione	-9.53497
ese	-9.53637
▁mura	-9.53714
▁alpi	-9.5379
▁pat	-9.538
▁neo	-9.53802
▁conferma	-9.53829
▁simili	-9.53841
▁euro	-9.53852
▁provinciale	-9.53967
nga	-9.53972
▁rip	-9.54052
68	-9.54141
▁hu	-9.54301
▁crea	-9.54332
▁ministro	-9.54341
▁gravi	-9.54358
▁proprie	-9.54391
31	-9.54451
ito	-9.54459
▁isola	-9.54708
▁2006	-9.54712
cio	-9.54733
unico	-9.54763
▁nero	-9.54767
ngo	-9.54856
ista	-9.54893
trici	-9.5497
▁alleati	-9.55019
▁culturale	-9.5502
▁attualmente	-9.55035
san	-9.55056
▁letteratura	-9.55072
posto	-9.55227
▁fossero	-9.55291
▁poteva	-9.55345
▁pietro	-9.55394
uscita	-9.55446
tone	-9.55468
28	-9.55468
oso	-9.5547
▁sicurezza	-9.55551
com	-9.55688
▁antonio	-9.55734
rla	-9.55751
27	-9.55752
net	-9.55791
▁stessi	-9.55809
76	-9.55896
ent	-9.56146
sul	-9.56195
lica	-9.56275
▁von	-9.56327
▁lotta	-9.56549
▁precedenti	-9.56623
▁geografia	-9.56788
▁regole	-9.56957
ppena	-9.57032
▁cha	-9.57072
▁differenti	-9.57131
▁moglie	-9.57132
ché	-9.57214
▁atte	-9.57225
▁potrebbe	-9.57282
▁luminosità	-9.57314
▁sch	-9.5736
▁iv	-9.57446
ft	-9.57501
nzo	-9.57571
▁rivela	-9.57597
▁carriera	-9.57675
▁risale	-9.5776
arrivo	-9.57867
▁ordina	-9.57909
sor	-9.57933
▁gal	-9.57936
▁nasce	-9.57954
estate	-9.58085
09	-9.58113
_3	-9.58206
▁campagna	-9.58376
▁favore	-9.58545
▁facendo	-9.58565
▁marina	-9.58631
▁za	-9.58669
29	-9.58712
▁calcola	-9.58755
osi	-9.58833
ō	-9.58914
elli	-9.58916
▁figli	-9.58945
▁sce	-9.59021
▁utilizzata	-9.59051
alta	-9.59053
▁scelta	-9.59096
▁rispettivamente	-9.59098
▁mediante	-9.59126
▁importanza	-9.59178
die	-9.59194
▁interno	-9.59303
▁pia	-9.59404
we	-9.5941
á	-9.59456
▁ritrova	-9.59462
▁processi	-9.59489
ula	-9.59712
▁tar	-9.59721
▁web	-9.59764
▁personaggio	-9.59808
▁forse	-9.59931
imp	-9.59982
▁acque	-9.60104
▁windows	-9.60183
▁sali	-9.60267
▁asse	-9.60293
▁vie	-9.60315
q	-9.60429
▁fanno	-9.60441
▁affida	-9.60469
▁franco	-9.60486
▁scar	-9.60537
▁svolge	-9.60548
▁tecnica	-9.60548
▁cinema	-9.6055
▁scena	-9.60582
▁por	-9.60614
▁antico	-9.60661
tina	-9.60712
▁op	-9.60814
▁destra	-9.60814
▁sostitui	-9.60961
put	-9.6098
▁limita	-9.61008
▁trasporto	-9.61099
";	-9.61111
annu	-9.61245
▁stabile	-9.61255
▁componenti	-9.61283
▁descrizione	-9.61283
▁parola	-9.61293
▁gua	-9.61375
02	-9.61453
amente	-9.61469
▁museo	-9.61655
▁bene	-9.6171
▁prova	-9.61816
▁governa	-9.61827
▁dieci	-9.61861
rina	-9.62079
smi	-9.62123
82	-9.62124
azioni	-9.6213
▁senato	-9.62182
parti	-9.62202
56	-9.6221
▁ottenne	-9.6221
▁visita	-9.62226
84	-9.62261
mba	-9.62273
▁cas	-9.6228
▁band	-9.62288
dro	-9.62376
mpo	-9.62426
71	-9.62429
▁paul	-9.62564
▁matematica	-9.62581
▁terrestre	-9.62595
ino	-9.62623
04	-9.62667
▁caratteri	-9.62704
05	-9.62705
▁2008	-9.62797
▁attiva	-9.62833
iana	-9.62834
▁et	-9.62838
▁persona	-9.62896
antica	-9.63009
▁controlla	-9.6303
▁parlamento	-9.63096
▁compar	-9.63143
▁maggioranza	-9.63144
▁regime	-9.63154
▁fondo	-9.63156
07	-9.63178
▁cristianesimo	-9.63331
▁pianeti	-9.63332
sch	-9.63333
nici	-9.63379
▁resi	-9.63389
ker	-9.63428
▁ritorno	-9.63451
▁bro	-9.63497
▁mono	-9.63543
cle	-9.63622
cchia	-9.63634
ran	-9.63781
▁testi	-9.63871
▁meccanica	-9.63893
▁scrisse	-9.63906
▁diede	-9.63907
▁particolari	-9.63961
▁chiama	-9.64029
▁filo	-9.64044
▁supporto	-9.64086
rale	-9.6411
dotto	-9.64114
rm	-9.64117
▁2009	-9.643
▁resti	-9.64333
▁antichi	-9.64352
giu	-9.64614
▁fusione	-9.64765
vità	-9.64767
▁interpreta	-9.64799
▁croce	-9.64824
indipendenza	-9.64848
▁europeo	-9.64848
▁bre	-9.64913
="11	-9.64962
▁conflitto	-9.65039
▁soltanto	-9.65039
▁resistenza	-9.65061
euro	-9.65092
▁dichiara	-9.65161
▁supera	-9.6518
intera	-9.65193
▁multi	-9.6524
▁studia	-9.65255
▁passaggio	-9.65271
▁29	-9.65273
mul	-9.65419
fici	-9.65522
ny	-9.65547
ure	-9.6561
ü	-9.65615
▁ufficialmente	-9.65621
▁caccia	-9.65699
06	-9.65724
▁gioca	-9.65741
▁punta	-9.65807
▁confronti	-9.65808
▁2007	-9.65838
gro	-9.65932
zzare	-9.65962
▁operazioni	-9.65967
▁economico	-9.66002
▁riforma	-9.66095
▁luoghi	-9.66194
▁creare	-9.66435
rese	-9.66452
insieme	-9.6647
▁cosa	-9.66487
▁appare	-9.66556
▁vera	-9.66564
coli	-9.66583
▁metodi	-9.6659
):	-9.66644
▁2010	-9.66671
▁fattori	-9.66672
pen	-9.66775
▁gradi	-9.6679
▁solitamente	-9.66792
▁pisa	-9.66845
▁mani	-9.67024
▁generi	-9.67034
mia	-9.6709
▁dedica	-9.67101
▁immagini	-9.67167
▁provenienti	-9.67297
▁avesse	-9.67357
▁commerciale	-9.67573
▁frazione	-9.67581
▁programmi	-9.67589
▁hi	-9.67626
▁commerciali	-9.67638
ley	-9.67654
▁complessi	-9.67696
dd	-9.67753
81	-9.6776
▁storici	-9.67763
▁ko	-9.67781
▁dura	-9.67836
▁que	-9.67904
▁personale	-9.67936
▁trasporti	-9.67952
▁estende	-9.67956
▁assi	-9.68032
▁venivano	-9.68032
▁sviluppato	-9.6812
▁riserva	-9.68153
metri	-9.68264
▁applicazioni	-9.68305
▁avviene	-9.68353
▁xvi	-9.68375
▁lettere	-9.68384
▁evitare	-9.68428
logo	-9.6846
cchio	-9.68464
▁rica	-9.68484
gente	-9.68506
dal	-9.68537
iamo	-9.68609
nzi	-9.68646
occupazione	-9.68741
▁occasione	-9.68834
▁fonti	-9.68961
▁luigi	-9.69063
▁letto	-9.69063
▁soldati	-9.69142
mici	-9.692
72	-9.6925
cal	-9.69327
grafi	-9.69332
berg	-9.69344
fal	-9.69379
zie	-9.69383
▁internet	-9.69429
▁zo	-9.69451
bus	-9.6948
▁musicale	-9.69489
torio	-9.69571
nata	-9.6964
▁temperature	-9.69747
▁interesse	-9.69769
vers	-9.69871
▁club	-9.69946
▁federico	-9.69953
▁tentativo	-9.6996
line	-9.69967
isce	-9.69972
▁spiega	-9.70063
africa	-9.70093
▁statistica	-9.70118
▁°	-9.70145
nello	-9.70154
▁bianca	-9.70211
▁aumenta	-9.70262
▁esempi	-9.70279
-20	-9.70332
astro	-9.70336
mio	-9.70337
58	-9.7035
▁età	-9.70388
▁comunicazione	-9.70432
cl	-9.70511
▁bel	-9.70517
▁densità	-9.70547
istituto	-9.70547
▁londra	-9.70548
▁chiave	-9.7055
▁statunitensi	-9.70645
▁pressione	-9.70682
ssimi	-9.70729
etti	-9.7076
▁pressi	-9.70764
operazione	-9.70767
▁assegna	-9.71026
▁piante	-9.71092
▁forti	-9.71152
▁commercio	-9.71157
▁riva	-9.71162
roma	-9.71172
▁stima	-9.71321
▁giapponese	-9.71488
▁considerata	-9.71537
▁cura	-9.71541
gue	-9.71558
▁provoca	-9.71564
▁confini	-9.71574
visi	-9.71626
amo	-9.7166
cha	-9.71682
▁colonia	-9.71688
▁pensa	-9.71697
▁xviii	-9.71838
bor	-9.71838
▁durata	-9.71853
voli	-9.71877
▁sfrutta	-9.719
▁air	-9.71926
▁strumento	-9.71975
▁romanzo	-9.72008
▁parco	-9.72016
▁navi	-9.7213
-1	-9.7214
▁gia	-9.72149
▁wa	-9.72206
▁fondata	-9.72243
▁sola	-9.72349
ai	-9.72417
lega	-9.7243
▁difficoltà	-9.7259
bio	-9.72628
▁vide	-9.72651
▁dialetto	-9.72816
▁significato	-9.72895
nel	-9.72971
08	-9.72987
▁statale	-9.72999
▁cattura	-9.73025
▁ab	-9.73035
78	-9.73112
senti	-9.73147
▁sposta	-9.73175
▁scuole	-9.73212
▁turismo	-9.73225
▁torna	-9.733
▁entro	-9.73375
pie	-9.73379
▁micro	-9.73447
▁carta	-9.736
▁protagonista	-9.73627
▁corsi	-9.73629
geni	-9.73659
▁creato	-9.73724
dina	-9.73734
▁pure	-9.73749
▁disciplina	-9.73836
▁crescita	-9.73836
▁celebra	-9.73836
▁imperiale	-9.73837
▁pie	-9.73851
▁informa	-9.73897
▁america	-9.73963
▁sorge	-9.7397
▁materiali	-9.74029
▁conosciuto	-9.74045
ovest	-9.74058
▁je	-9.74111
▁van	-9.74138
▁forni	-9.74168
telli	-9.74193
▁caratteristica	-9.74273
pl	-9.74366
▁buon	-9.74376
del	-9.74388
▁abbia	-9.74419
▁isotopi	-9.74465
ù	-9.74521
dica	-9.74689
camente	-9.74698
▁utilizzati	-9.74708
▁somma	-9.74744
atmosfera	-9.74886
▁morì	-9.74926
▁narra	-9.74937
▁40	-9.74971
62	-9.74975
▁originale	-9.75053
▁tour	-9.75096
relativamente	-9.75118
▁modelli	-9.7514
▁popolazioni	-9.75147
▁presto	-9.75208
▁fan	-9.75317
▁fondazione	-9.75332
▁corona	-9.75364
▁reti	-9.75381
mann	-9.75428
▁giappone	-9.7543
▁pol	-9.75433
79	-9.75438
esso	-9.75489
▁tardi	-9.75497
▁percorso	-9.75524
▁rosa	-9.75537
origine	-9.75547
▁reazione	-9.75566
▁dovette	-9.7565
▁tende	-9.75663
74	-9.75673
▁palla	-9.75713
▁facilmente	-9.75735
▁include	-9.75741
▁troppo	-9.75772
▁anch	-9.75777
razione	-9.75792
id	-9.75807
▁vend	-9.75878
▁definito	-9.75884
rata	-9.7595
▁differenzia	-9.75952
boli	-9.7602
▁britannico	-9.76161
57	-9.76227
▁donne	-9.76242
▁ferma	-9.7631
▁nuovamente	-9.76354
▁scienze	-9.76376
▁inizio	-9.76386
▁orbita	-9.76386
▁costituita	-9.76395
nder	-9.76429
▁pubblici	-9.76557
armata	-9.76683
'11	-9.76747
ttivo	-9.76755
▁conoscenza	-9.76841
▁riceve	-9.76957
logica	-9.76984
▁macchina	-9.77022
▁notte	-9.77034
▁2001	-9.77106
▁tratto	-9.77143
cy	-9.77215
▁limite	-9.77243
▁spagna	-9.77296
▁gestione	-9.77361
ts	-9.77456
▁caduta	-9.77466
▁contrario	-9.7758
▁terre	-9.7761
pol	-9.77704
ane	-9.77706
▁ch	-9.77708
▁canale	-9.77741
men	-9.77769
▁italiane	-9.77837
▁circonda	-9.77857
venire	-9.77899
▁verde	-9.77905
▁2011	-9.77916
▁camera	-9.77925
▁definitivamente	-9.77941
▁torino	-9.77977
▁costi	-9.78032
▁tradizionale	-9.78106
▁operativo	-9.78197
▁corrisponde	-9.78272
▁contenuto	-9.78324
▁favori	-9.78328
atti	-9.78344
▁scienza	-9.78348
▁classificazione	-9.78413
▁fenomeni	-9.78543
▁buona	-9.78608
▁diversa	-9.78623
▁raggiunge	-9.78627
cina	-9.78688
anche	-9.78798
ssime	-9.78914
▁sequenza	-9.78982
▁vicina	-9.78996
▁luci	-9.79013
ndolo	-9.79109
associazione	-9.79137
▁fortemente	-9.792
▁dialetti	-9.79232
▁feste	-9.79317
▁possiede	-9.79423
▁2012	-9.79452
▁abita	-9.79517
dy	-9.79569
▁varietà	-9.7958
▁prevede	-9.79631
esperienza	-9.79644
59	-9.79646
▁relazioni	-9.79647
▁riprese	-9.79655
mbo	-9.79739
dis	-9.79836
▁futuro	-9.79872
universo	-9.79881
▁messi	-9.79966
_4	-9.79997
utilizzo	-9.80076
▁licenza	-9.80089
▁attacca	-9.80125
▁castel	-9.80165
▁stava	-9.8017
▁associa	-9.80237
▁galassia	-9.8031
lice	-9.80344
roni	-9.80363
73	-9.80442
▁origina	-9.8047
esimo	-9.80703
▁milita	-9.80728
▁femminile	-9.80757
▁superiori	-9.80758
▁organismi	-9.80768
min	-9.80771
▁domina	-9.80775
▁fru	-9.80785
▁2014	-9.80791
▁fran	-9.80793
elemento	-9.80877
aggio	-9.80883
pic	-9.80894
▁belli	-9.80915
▁atti	-9.80925
▁funziona	-9.80926
▁motivo	-9.80947
esa	-9.81103
ller	-9.81118
▁des	-9.81123
ski	-9.81202
▁entrambe	-9.81206
▁condanna	-9.81208
elle	-9.81276
▁riferi	-9.81351
▁classica	-9.81436
▁perciò	-9.81445
83	-9.81448
▁peso	-9.81456
▁2004	-9.81466
▁meglio	-9.81516
▁nove	-9.81601
▁edifici	-9.8161
▁york	-9.81657
umi	-9.8174
▁realizzazione	-9.81802
▁compagnia	-9.81993
▁mancano	-9.82015
▁talvolta	-9.8211
▁quartiere	-9.82112
bell	-9.82195
gar	-9.82213
▁poche	-9.82333
▁difficile	-9.82338
▁economia	-9.8236
▁umani	-9.82384
▁minori	-9.82578
analisi	-9.82615
[	-9.82687
▁men	-9.82716
ncia	-9.82743
▁olimpici	-9.82794
▁fisico	-9.82796
▁composta	-9.82805
▁bri	-9.82814
▁principi	-9.82999
▁mediterraneo	-9.83253
▁mira	-9.83299
▁usata	-9.83412
▁costo	-9.83416
▁rap	-9.83434
▁bologna	-9.83482
▁attacchi	-9.83484
▁gar	-9.83519
▁scor	-9.83552
▁autore	-9.83644
ottocento	-9.83714
ando	-9.83728
ub	-9.83782
▁comitato	-9.83943
▁devono	-9.83948
ler	-9.8419
dor	-9.84264
mila	-9.8431
▁accade	-9.84312
▁proto	-9.84349
▁trovare	-9.84354
▁masse	-9.84365
vere	-9.84372
▁quell	-9.84385
▁gregoriano	-9.84407
▁situato	-9.84409
▁cambio	-9.84412
▁gira	-9.84443
▁passo	-9.84558
▁lascia	-9.84585
▁1,	-9.84599
▁sar	-9.84631
mme	-9.84635
▁principe	-9.84639
▁messa	-9.84641
sol	-9.84669
lati	-9.84688
▁we	-9.84736
▁prepara	-9.84755
▁au	-9.84802
don	-9.84818
tus	-9.84825
▁carbonio	-9.8484
▁epoca	-9.84872
▁minuti	-9.84891
▁pas	-9.84902
▁reg	-9.84939
▁france	-9.84985
▁ke	-9.85098
▁tenta	-9.85102
▁sino	-9.85139
estremamente	-9.8514
01	-9.85227
▁corrente	-9.85229
▁alcun	-9.85242
▁finanziari	-9.8529
stu	-9.85312
▁toscana	-9.8534
▁figlia	-9.85383
▁attribu	-9.85422
intero	-9.85429
▁xvii	-9.85454
▁dirige	-9.85478
▁at	-9.85505
▁accompagna	-9.85575
▁colloca	-9.85578
▁comportamento	-9.85646
▁paolo	-9.8568
▁sovra	-9.85702
▁semplicemente	-9.85718
▁documenta	-9.85856
▁campione	-9.85911
▁scu	-9.85934
▁presentano	-9.85938
▁ze	-9.86008
▁armi	-9.86014
use	-9.86038
▁fri	-9.8617
fran	-9.86239
▁mus	-9.8624
dra	-9.86289
spi	-9.86312
▁paga	-9.86331
essi	-9.8639
▁perse	-9.86439
▁storica	-9.86446
▁volo	-9.8649
▁aggiunge	-9.86519
ficazione	-9.86537
▁2005	-9.86558
▁duca	-9.86654
rli	-9.86657
▁comporta	-9.86658
aff	-9.86692
▁russia	-9.86709
▁salva	-9.8671
▁abbandona	-9.86729
▁|	-9.86742
▁fondamentali	-9.86757
▁celebre	-9.86757
▁protezione	-9.86763
▁collabora	-9.86843
▁usati	-9.86976
▁pubblicazione	-9.86977
▁tiberio	-9.86995
▁riguardo	-9.86995
▁psi	-9.87017
▁banca	-9.87033
▁questione	-9.87094
messa	-9.87119
▁settanta	-9.87234
▁costituisce	-9.87251
▁disegno	-9.87252
▁server	-9.87308
▁cittadina	-9.87417
▁disposizione	-9.87482
▁fatti	-9.8759
▁camp	-9.87591
▁mette	-9.87621
bro	-9.87622
▁britannica	-9.87713
▁aspetti	-9.87717
▁rin	-9.87752
▁ottenuto	-9.87953
▁membro	-9.87974
▁impegna	-9.88006
▁definita	-9.88083
bol	-9.88097
vision	-9.88136
▁ger	-9.88159
rino	-9.88165
▁bisestili	-9.88194
▁emanuele	-9.88194
▁richiede	-9.88194
aeroporto	-9.88195
▁piani	-9.88252
etta	-9.88255
tano	-9.88266
edificio	-9.88302
ola	-9.88302
▁viaggio	-9.88401
▁abbastanza	-9.88436
▁chilometri	-9.88436
▁nazista	-9.88436
ibile	-9.88483
▁circo	-9.88484
▁lista	-9.88496
▁comincia	-9.88534
▁doveva	-9.88591
▁possibili	-9.88631
▁gol	-9.88645
▁squadre	-9.88678
▁planetari	-9.88678
▁progetti	-9.88679
▁pietra	-9.88743
▁sale	-9.88852
▁gare	-9.88918
▁nucleare	-9.88922
▁1943	-9.88939
archi	-9.88957
▁confina	-9.88975
and	-9.89017
▁metallo	-9.89033
▁video	-9.89044
▁bretagna	-9.89164
▁umano	-9.89169
▁2003	-9.89246
▁rivolta	-9.89254
vesti	-9.89264
▁idro	-9.89314
▁incontra	-9.89411
mont	-9.89434
▁politici	-9.89448
lato	-9.89452
▁corre	-9.89466
▁legato	-9.89571
▁avanza	-9.89586
vor	-9.89596
onale	-9.89603
▁manca	-9.89631
▁passò	-9.89653
▁documenti	-9.89653
▁fissa	-9.89698
ab	-9.89732
av	-9.89755
▁gio	-9.89783
▁corsa	-9.89886
▁vescovo	-9.89897
▁sessanta	-9.89898
▁ottanta	-9.89899
▁specifica	-9.89903
ace	-9.8995
sua	-9.89996
este	-9.90007
mmo	-9.901
ndone	-9.90106
▁manga	-9.90199
▁avendo	-9.90235
formi	-9.90319
▁galassie	-9.90389
niche	-9.9041
▁storie	-9.90433
▁volume	-9.90456
vin	-9.90463
▁polo	-9.90475
ther	-9.9061
pola	-9.90611
▁bassi	-9.90621
▁gregorio	-9.90636
▁necessità	-9.90636
▁composizione	-9.9065
▁sedi	-9.90654
▁1945	-9.90657
nes	-9.90681
wn	-9.90692
tempo	-9.90707
▁reali	-9.90718
▁vede	-9.90746
▁sufficiente	-9.90845
▁nata	-9.90886
▁approva	-9.90896
▁genova	-9.90906
▁pale	-9.91006
▁prevalentemente	-9.91132
▁congresso	-9.91132
evoluzione	-9.91151
▁2013	-9.91163
▁lancia	-9.91322
▁britannici	-9.91381
▁william	-9.91381
▁medioevo	-9.91381
▁indicare	-9.91386
azienda	-9.91388
▁pericolo	-9.91389
▁2015	-9.91414
my	-9.91449
▁fonte	-9.91542
▁donna	-9.91601
▁ispira	-9.91612
▁cittadino	-9.9163
▁molecole	-9.9163
▁avvenne	-9.9163
rone	-9.91841
▁tedesche	-9.9188
by	-9.91912
▁marte	-9.91962
▁stadio	-9.91981
▁borgo	-9.9204
introduzione	-9.92131
▁dollari	-9.92131
▁elettrica	-9.92133
▁utilizzare	-9.92161
▁consente	-9.92166
▁africa	-9.92196
▁faceva	-9.92207
zzati	-9.92208
▁vecchio	-9.92235
▁preferi	-9.92276
side	-9.9236
etto	-9.92373
▁tutela	-9.92385
▁000	-9.92396
▁cesare	-9.92396
▁neutroni	-9.92475
▁min	-9.92502
▁usare	-9.92504
▁categoria	-9.92634
▁famiglie	-9.92634
▁versioni	-9.92635
▁fascia	-9.92649
▁polonia	-9.92661
irlanda	-9.92668
▁aperto	-9.92681
lini	-9.92688
▁ritira	-9.92707
▁beni	-9.92817
▁flo	-9.92852
▁minerali	-9.92887
toria	-9.9297
▁ki	-9.93016
gor	-9.93083
▁monti	-9.93202
ville	-9.93317
▁disputa	-9.93395
nova	-9.93396
lari	-9.93476
ham	-9.93512
▁crede	-9.9352
▁università	-9.93527
▁certa	-9.93561
▁george	-9.93653
om	-9.93668
forma	-9.93671
letti	-9.93677
nus	-9.93682
articolo	-9.93705
▁[	-9.93755
▁medi	-9.93789
▁segue	-9.93854
▁diretta	-9.93862
rda	-9.93869
▁napoleone	-9.93903
▁raffigura	-9.93904
▁gene	-9.93957
▁cellule	-9.94159
▁canzone	-9.94159
▁riconosce	-9.94159
▁situata	-9.9416
▁enrico	-9.94166
▁adotta	-9.94246
▁coppia	-9.94276
nz	-9.94364
▁sconfitta	-9.94415
▁immediatamente	-9.94415
▁celeste	-9.94416
▁marco	-9.94418
▁catena	-9.94428
antico	-9.94438
▁successiva	-9.94485
fond	-9.945
":	-9.94517
isti	-9.94594
▁terreno	-9.94618
▁scoperto	-9.94673
▁potenza	-9.94674
intervento	-9.9469
▁fratello	-9.94713
▁antiche	-9.94774
▁eletto	-9.94778
▁passi	-9.94848
▁gre	-9.94859
▁zero	-9.94929
▁richiesta	-9.9493
▁mantenere	-9.9493
▁compreso	-9.94933
▁ebbero	-9.94936
▁brescia	-9.94937
▁1999	-9.94949
▁visibili	-9.94976
▁potesse	-9.94981
▁soluzione	-9.95189
▁possa	-9.95218
apertura	-9.95249
▁luna	-9.95291
▁elezioni	-9.95318
▁europei	-9.95448
▁legame	-9.95457
dine	-9.95479
▁dettagli	-9.95496
scio	-9.95526
▁rive	-9.9555
▁intra	-9.95551
lino	-9.95556
▁gri	-9.95614
▁decenni	-9.95621
▁pone	-9.95776
vu	-9.958
▁indipendente	-9.95808
▁giove	-9.95848
▁accor	-9.95904
▁qua	-9.95953
temporaneamente	-9.95963
late	-9.95976
ug	-9.96151
gan	-9.9629
▁rientra	-9.9633
▁dedicato	-9.96379
▁assicura	-9.96491
▁appartenenti	-9.96535
▁successive	-9.96556
gie	-9.9663
gon	-9.96658
▁galli	-9.96661
▁prove	-9.9669
emisfero	-9.96753
▁entrò	-9.96754
▁regista	-9.96763
ung	-9.96846
▁2002	-9.9687
tezza	-9.96872
ida	-9.96957
iva	-9.97008
▁produce	-9.97071
angelo	-9.971
ammasso	-9.97119
▁collaborazione	-9.97185
abile	-9.97194
▁reca	-9.97219
nati	-9.97267
▁miliardi	-9.9728
quo	-9.97283
▁centrali	-9.97292
▁decisione	-9.97307
amore	-9.97398
▁stellare	-9.97493
▁formare	-9.97496
agricoltura	-9.97544
▁esclusivamente	-9.97544
arono	-9.97655
▁scrive	-9.97661
–	-9.97665
▁realizza	-9.97721
ambiente	-9.97723
▁osservazioni	-9.97754
▁posti	-9.97794
▁scritta	-9.97813
▁quantistica	-9.97837
mone	-9.9795
▁porti	-9.9814
▁note	-9.98257
▁edizione	-9.98281
vente	-9.98334
▁rivista	-9.98345
▁intende	-9.98396
▁costruito	-9.98398
▁augusto	-9.98404
ré	-9.98418
▁cad	-9.98506
▁giorgio	-9.9861
▁moderni	-9.9861
ingresso	-9.98629
▁marche	-9.98683
▁fiori	-9.98709
giorni	-9.98748
▁lib	-9.98759
▁legati	-9.98814
▁firenze	-9.98879
▁fermi	-9.98939
▁adatta	-9.98941
▁coppa	-9.98981
dì	-9.99011
▁arte	-9.99038
▁geni	-9.99125
hu	-9.9913
▁nebulosa	-9.99146
▁semplici	-9.99146
▁ricorrenze	-9.99164
oceano	-9.99185
▁migliora	-9.99233
▁scrivere	-9.99307
▁ambito	-9.99335
▁nazione	-9.99356
▁commissione	-9.99381
▁1944	-9.99437
▁60	-9.99438
▁2016	-9.99449
uno	-9.99498
▁us	-9.99508
▁utilizzando	-9.99521
▁generali	-9.9958
rmoni	-9.99601
▁tim	-9.99616
▁stan	-9.99682
▁diploma	-9.99686
sk	-9.99763
accademia	-9.9977
)"	-9.99795
messe	-10
▁giocatori	-10.0003
temp	-10.0015
jo	-10.0021
▁vive	-10.0023
ens	-10.0029
▁ricava	-10.0034
▁greca	-10.004
▁pubblicata	-10.0044
▁patto	-10.0045
▁stesse	-10.0048
▁novecento	-10.005
▁record	-10.005
▁ammassi	-10.005
▁xiv	-10.005
▁scientifica	-10.0051
▁rice	-10.0051
sal	-10.0052
edizione	-10.0067
auto	-10.0068
▁schi	-10.0073
▁corpi	-10.0076
▁occidentali	-10.0077
▁metropolitana	-10.0078
▁rotazione	-10.0078
▁giustizia	-10.0078
▁pensiero	-10.0078
▁produrre	-10.0083
nger	-10.0084
▁protesta	-10.0084
sser	-10.009
amministrazione	-10.0095
▁relativa	-10.0102
▁cattolica	-10.0105
invasione	-10.0105
▁raggio	-10.0109
▁cominci	-10.011
essa	-10.0114
mato	-10.0123
ava	-10.0123
▁comunemente	-10.0124
▁rif	-10.0134
▁federale	-10.0134
ense	-10.0136
▁gamma	-10.0138
▁vanno	-10.0139
▁grecia	-10.0143
▁xv	-10.0153
▁bolzano	-10.016
▁aerei	-10.0162
tru	-10.0163
▁calcolo	-10.0164
▁armata	-10.0169
metro	-10.0185
▁decadimento	-10.0188
cini	-10.0189
▁veneto	-10.0206
1,	-10.0207
ble	-10.0208
▁relativi	-10.0211
▁denominazione	-10.0215
▁infrastrutture	-10.0215
▁permesso	-10.0216
▁pesca	-10.0217
▁davanti	-10.0218
logici	-10.0219
▁mari	-10.0225
▁combina	-10.0229
▁tiro	-10.0232
▁assume	-10.0234
▁contatto	-10.0235
▁addirittura	-10.0243
▁appunto	-10.0243
celli	-10.0245
▁chimico	-10.0247
▁passare	-10.0255
▁famoso	-10.0271
▁dovuta	-10.0272
▁vinse	-10.0272
▁biografia	-10.0272
▁trovava	-10.0273
▁santo	-10.0274
▁urbani	-10.0275
▁proposta	-10.0275
▁migliore	-10.0285
0,	-10.0287
▁scritti	-10.0299
▁singola	-10.0299
▁assoluta	-10.03
▁diverso	-10.0304
alleanza	-10.0309
▁risposta	-10.0327
▁spaziale	-10.0329
▁contesto	-10.0337
zzate	-10.034
▁sala	-10.034
inverno	-10.0341
▁utili	-10.0343
▁soff	-10.0352
▁risorse	-10.0355
▁documento	-10.0355
pra	-10.0358
▁maschi	-10.036
▁portata	-10.0364
▁vento	-10.0366
▁como	-10.037
▁cur	-10.0373
2,	-10.0376
▁traccia	-10.0376
ammi	-10.0378
architetto	-10.0384
mal	-10.0387
▁descrive	-10.0399
▁diretti	-10.0399
▁ricca	-10.0402
je	-10.0408
cella	-10.0411
▁scientifico	-10.0412
▁modalità	-10.0412
▁newton	-10.0417
▁test	-10.042
▁migliori	-10.0425
▁tema	-10.0432
oggi	-10.0438
▁cristalli	-10.044
▁stranieri	-10.044
▁aiuta	-10.0466
ux	-10.0466
▁proteine	-10.0468
▁primavera	-10.0469
cur	-10.0469
rum	-10.0474
ccu	-10.0482
ara	-10.0485
▁rese	-10.0492
▁attesta	-10.0495
▁pianta	-10.0499
assenza	-10.0504
▁motivi	-10.0506
▁nana	-10.0507
▁recenti	-10.0508
▁robert	-10.051
▁settimana	-10.0511
stanti	-10.0514
▁clo	-10.052
attacco	-10.0521
imento	-10.0524
▁claudio	-10.0525
▁segno	-10.0527
▁1990	-10.0528
▁atto	-10.0529
▁accordo	-10.0532
bilmente	-10.0537
ndola	-10.0545
▁porte	-10.0546
▁sto	-10.0549
▁alte	-10.0552
occidente	-10.0554
▁raggiunto	-10.0554
▁ricevette	-10.0562
ron	-10.057
▁collina	-10.0571
gine	-10.0572
▁coppi	-10.0581
▁specialmente	-10.0583
▁libri	-10.0589
▁jean	-10.0594
▁cose	-10.0595
▁gnu	-10.0598
▁segnala	-10.06
▁leone	-10.0611
▁teorie	-10.0611
▁diffuso	-10.0612
▁doppia	-10.0612
▁xiii	-10.0613
▁quark	-10.0615
▁polizia	-10.0617
▁giocatore	-10.0617
ion	-10.0628
▁pun	-10.064
▁legata	-10.064
tter	-10.064
▁messaggio	-10.0643
▁solito	-10.0656
▁privata	-10.0657
versi	-10.0658
▁fondato	-10.0658
▁amministrazione	-10.0659
gnano	-10.0667
▁festival	-10.0669
▁svedese	-10.0669
▁tappa	-10.0675
▁reso	-10.0684
cus	-10.0686
▁ricon	-10.0686
orbita	-10.0689
utente	-10.069
interesse	-10.0697
▁dimensione	-10.0698
▁esercita	-10.0698
▁caratterizzato	-10.0698
▁potenze	-10.0698
▁xii	-10.0699
▁salute	-10.0704
nei	-10.0707
▁rom	-10.0709
▁grave	-10.071
▁colla	-10.0713
ello	-10.072
rini	-10.0722
▁raggiunse	-10.0727
▁monumenti	-10.0727
▁nuclei	-10.0727
▁compresa	-10.0728
ardi	-10.0729
▁elettronica	-10.0732
▁fiumi	-10.0733
▁fasi	-10.0749
▁pronuncia	-10.0757
▁brillante	-10.0757
▁conosciuta	-10.0757
▁chiede	-10.0758
▁mezzi	-10.0764
▁nulla	-10.0768
▁normale	-10.0774
▁inizi	-10.0775
centi	-10.0775
_5	-10.0778
▁consigli	-10.0779
ossido	-10.0786
▁singolo	-10.0786
▁migliaia	-10.0787
ku	-10.0795
▁legno	-10.0798
▁ferrovia	-10.0805
▁sera	-10.081
▁diffuse	-10.0815
ini	-10.0816
▁novanta	-10.0817
ling	-10.082
scia	-10.083
▁campionati	-10.0845
▁riconoscimento	-10.0845
▁ferrara	-10.0845
▁guerre	-10.0845
▁1941	-10.0847
▁nominato	-10.0849
▁missione	-10.0858
▁(1	-10.0869
▁canada	-10.0875
▁umana	-10.0875
mm	-10.0876
▁elimina	-10.0879
0.000	-10.0881
▁elabora	-10.0883
▁grandezza	-10.0884
▁germani	-10.0886
▁miglior	-10.0887
▁portare	-10.0888
▁defini	-10.0888
zzò	-10.0889
lus	-10.0893
▁vigore	-10.0905
▁rapidamente	-10.0909
ologico	-10.0922
▁sezione	-10.0926
▁tasso	-10.0929
sur	-10.093
▁fatta	-10.0932
cata	-10.0934
▁debole	-10.0934
ucci	-10.0934
influenza	-10.0935
▁1940	-10.0937
▁effetto	-10.0937
▁iniziale	-10.0939
▁istituzioni	-10.0964
▁marca	-10.0967
▁off	-10.0974
▁studiosi	-10.0976
ich	-10.0979
▁ipotesi	-10.0985
und	-10.099
▁frattempo	-10.0994
▁volontà	-10.0994
▁cavallo	-10.0994
accordo	-10.0998
▁riso	-10.0999
▁color	-10.1007
▁uomo	-10.1009
▁potut	-10.101
▁tenne	-10.1017
▁idea	-10.102
▁ebraica	-10.1024
▁attacco	-10.1029
▁insegna	-10.1034
▁her	-10.1037
▁dovrebbe	-10.1053
▁1970	-10.1057
aiuto	-10.1059
▁unite	-10.107
▁sardo	-10.1073
▁oro	-10.1077
▁iniziarono	-10.1079
evento	-10.1081
elio	-10.1081
ney	-10.1088
▁potevano	-10.1091
▁fiore	-10.1096
▁ambiente	-10.1101
▁maggiormente	-10.1104
spin	-10.111
▁medaglia	-10.1114
▁aziende	-10.1114
▁dramma	-10.1114
▁moderno	-10.1115
▁cicli	-10.1115
▁trenta	-10.112
rci	-10.1122
storia	-10.1132
▁candida	-10.1142
assi	-10.1143
▁obbliga	-10.1145
▁livelli	-10.1145
▁urbano	-10.1145
▁direttore	-10.115
mmer	-10.1154
▁costruire	-10.1164
▁st	-10.1168
film	-10.1183
viene	-10.1184
rg	-10.1186
▁azioni	-10.119
▁incontro	-10.1194
▁esperimenti	-10.1206
▁racconta	-10.1206
▁speciale	-10.1206
▁mise	-10.1211
attrice	-10.1214
▁unita	-10.1219
▁atleti	-10.1221
bar	-10.1227
▁dare	-10.1234
▁arrivò	-10.1237
▁figure	-10.1237
▁suggeri	-10.1237
▁dona	-10.1239
▁giallo	-10.1241
ordina	-10.1242
▁impiega	-10.1242
espressione	-10.1243
▁realizzato	-10.1244
▁rappresentato	-10.1244
▁client	-10.1253
▁rivoluzionari	-10.1257
gato	-10.1259
▁stretto	-10.1268
▁scene	-10.127
lf	-10.1275
▁pala	-10.1279
5%	-10.1292
giche	-10.1292
▁piedi	-10.1293
gin	-10.1295
▁pubblicò	-10.1298
▁poss	-10.1299
idrogeno	-10.1306
old	-10.1308
attore	-10.1309
▁autorità	-10.1309
▁extra	-10.1311
clau	-10.1317
media	-10.1317
lon	-10.1318
▁medicina	-10.1324
▁esprime	-10.1329
▁movimenti	-10.1329
▁utenti	-10.133
▁costituiscono	-10.133
▁2017	-10.1333
ji	-10.1336
rich	-10.135
linea	-10.1356
▁tipico	-10.1359
▁medievale	-10.136
▁pesanti	-10.136
▁avvenuta	-10.1372
▁cinquanta	-10.1378
▁culturali	-10.1383
sola	-10.1383
▁california	-10.1391
▁frequenza	-10.1391
▁spettro	-10.1391
▁greci	-10.1397
▁(17	-10.1398
▁attuale	-10.1399
▁modi	-10.14
ottobre	-10.14
▁ur	-10.1404
▁mille	-10.1405
▁iso	-10.1408
grafica	-10.1413
▁cade	-10.1414
▁recente	-10.1414
2.	-10.1417
quadra	-10.1419
▁tuttora	-10.1422
▁raccolta	-10.1423
▁universale	-10.1423
▁giunge	-10.1423
▁negozi	-10.1424
▁settori	-10.1428
▁sì	-10.143
▁danni	-10.1431
▁lattea	-10.1432
ipotesi	-10.1432
foni	-10.1432
▁posizioni	-10.1433
▁analisi	-10.1437
▁ragione	-10.1439
ting	-10.1445
▁assiste	-10.1446
▁tito	-10.1448
▁album	-10.1451
▁sovietici	-10.1454
▁fuoco	-10.1457
▁flotta	-10.1463
▁ioni	-10.1479
nca	-10.1483
fre	-10.1485
risti	-10.1486
▁1939	-10.1488
▁avvia	-10.1491
▁edizioni	-10.1493
altezza	-10.1502
▁alimenta	-10.1505
equazione	-10.1506
▁ramo	-10.1509
▁diventare	-10.1509
▁quartieri	-10.1517
press	-10.1517
equilibr	-10.1518
▁decade	-10.1519
▁canta	-10.152
▁90	-10.152
▁condizione	-10.152
▁arma	-10.1522
▁vino	-10.1525
▁occhio	-10.153
▁socialista	-10.1533
▁prendere	-10.1533
▁caratterizzata	-10.1539
▁soggetto	-10.1546
acido	-10.1548
▁continuò	-10.1549
▁evento	-10.1549
▁2019	-10.1552
▁vent	-10.1555
▁industriali	-10.1555
▁sott	-10.1556
▁avanti	-10.1557
-18	-10.1564
▁abba	-10.1567
▁soggetti	-10.1569
▁telescopio	-10.1569
▁stili	-10.1574
stati	-10.1577
▁bambini	-10.158
▁carte	-10.1581
▁vedere	-10.1582
▁considerati	-10.1589
▁idee	-10.1594
▁sorta	-10.1601
▁predi	-10.1603
▁comanda	-10.1603
▁sha	-10.1604
▁tecnologia	-10.1606
▁molecola	-10.1607
▁tradizionali	-10.1612
offensiva	-10.1612
▁1942	-10.1614
▁cat	-10.1616
▁adige	-10.1628
▁sovrano	-10.1632
▁elevata	-10.1632
▁progressi	-10.1637
▁dice	-10.1638
▁batte	-10.165
▁presa	-10.1652
▁vienna	-10.1653
▁fasci	-10.1663
▁cina	-10.1665
hy	-10.1666
▁rendere	-10.1666
▁partenza	-10.1668
▁giornali	-10.1673
arca	-10.1674
▁fisiche	-10.1676
▁romanzi	-10.1681
▁voce	-10.1682
▁nube	-10.1683
▁preso	-10.1686
▁formano	-10.1686
▁dedicata	-10.1687
▁alcuna	-10.1703
▁collegamento	-10.1703
▁sap	-10.1705
▁indipendenti	-10.1708
▁lombardia	-10.1708
▁chiaro	-10.171
▁recita	-10.171
▁apprezza	-10.1712
▁bordo	-10.1714
▁tratti	-10.1724
burg	-10.1726
▁piemonte	-10.1727
viii	-10.1736
▁chiamati	-10.1737
ring	-10.1738
▁utilizzate	-10.1739
▁quota	-10.1741
lico	-10.1743
▁matrimonio	-10.1748
▁eccezione	-10.1755
rvi	-10.1758
letto	-10.1758
duce	-10.1763
▁giapponesi	-10.1767
▁tracce	-10.1771
▁quarto	-10.1775
evi	-10.1775
▁scrittore	-10.1776
▁muove	-10.1776
▁penisola	-10.1777
▁vice	-10.1779
mine	-10.178
abili	-10.1785
▁lei	-10.1786
▁coste	-10.1795
errore	-10.1797
▁diffusa	-10.1805
rici	-10.1806
▁aperta	-10.1807
▁ponti	-10.1808
▁2018	-10.1809
▁patrimonio	-10.1819
astronomia	-10.1824
▁cinese	-10.1825
▁reazioni	-10.1826
▁1848	-10.1827
▁retro	-10.1827
▁acquisi	-10.1837
▁telefoni	-10.1839
▁partecipazione	-10.1839
▁successione	-10.1841
▁vii	-10.1844
▁morti	-10.1853
circa	-10.1855
▁/	-10.1856
messi	-10.1857
▁ph	-10.1867
▁sito	-10.1868
tr	-10.1871
istituzione	-10.1871
▁europee	-10.1871
▁misure	-10.1871
▁ampio	-10.1872
fin	-10.1876
▁nostra	-10.1885
▁solamente	-10.1887
▁ku	-10.1897
▁programmazione	-10.1899
rn	-10.1902
▁ministero	-10.1903
▁ottiene	-10.1903
▁discorso	-10.1903
▁imprese	-10.1906
posizione	-10.1906
▁1980	-10.1907
ampia	-10.1908
lismo	-10.1911
▁david	-10.1916
▁evoluzione	-10.1934
▁microsoft	-10.1936
▁secondi	-10.1937
vola	-10.1937
▁culto	-10.1938
▁1927	-10.1939
ena	-10.194
▁ducato	-10.1942
uli	-10.1945
▁imperatore	-10.195
ttò	-10.1955
▁anzi	-10.1961
▁notevolmente	-10.1969
▁introdotto	-10.1969
▁har	-10.1971
▁regina	-10.1973
mbri	-10.1989
▁area	-10.199
▁binari	-10.1995
▁sposa	-10.2
▁scrittura	-10.2002
▁previsto	-10.2002
▁perugia	-10.2003
▁bacino	-10.2003
▁procede	-10.2003
▁particella	-10.2004
▁nobili	-10.2006
▁coordina	-10.201
▁messico	-10.2023
esposizione	-10.2026
▁traffico	-10.2036
▁armate	-10.2037
▁andò	-10.2043
▁fascista	-10.2045
▁ricorre	-10.2051
ak	-10.2051
="12	-10.2054
-2	-10.2056
bert	-10.2058
em	-10.206
informazione	-10.2062
▁resa	-10.2069
▁alessandro	-10.2069
▁savoia	-10.2069
▁rat	-10.2076
▁corrispondenza	-10.2078
▁oriente	-10.2079
▁popoli	-10.2081
provincia	-10.2089
▁scambio	-10.2091
▁cresce	-10.2098
▁ulteriormente	-10.2102
▁transizione	-10.2103
vincitori	-10.2103
▁trasporta	-10.2103
▁tavola	-10.2106
▁madonna	-10.2108
▁spicca	-10.2108
scende	-10.2113
▁gui	-10.2113
▁leggenda	-10.2116
inglese	-10.2123
▁basata	-10.2124
▁variazioni	-10.2128
way	-10.2129
▁latina	-10.2135
▁supporta	-10.2136
▁vecchia	-10.2137
▁prevedeva	-10.2138
▁dopoguerra	-10.2141
acco	-10.216
▁idrogeno	-10.2162
liber	-10.2162
▁musicali	-10.2169
▁svezia	-10.217
▁contemporanea	-10.217
▁200	-10.218
importanza	-10.2192
usa	-10.2194
▁2,	-10.2198
▁gigante	-10.2203
2)	-10.2204
▁riprende	-10.2204
▁invernali	-10.2204
▁visione	-10.2205
▁personalità	-10.221
▁perdita	-10.2216
▁strati	-10.2221
▁episodi	-10.2221
▁conosce	-10.2232
▁giacomo	-10.2237
▁uguale	-10.2237
▁minaccia	-10.2238
▁1998	-10.224
▁sensi	-10.2241
▁cra	-10.2243
▁world	-10.226
king	-10.2261
mus	-10.2265
▁austria	-10.2274
▁tabella	-10.2274
▁don	-10.2277
▁2020	-10.2279
sità	-10.2286
elettr	-10.2289
mbro	-10.229
▁assorb	-10.2296
▁unica	-10.2301
▁trattati	-10.2303
▁linguaggi	-10.2304
▁potenzia	-10.2304
▁ulteriori	-10.2305
▁rifiuta	-10.2306
▁normalmente	-10.2308
▁dietro	-10.2314
3)	-10.2328
cho	-10.2332
quest	-10.2335
▁creati	-10.2338
▁pena	-10.2338
▁giunse	-10.234
▁maestro	-10.234
stituì	-10.2341
▁bit	-10.2343
▁maschile	-10.2349
▁definire	-10.2351
▁poste	-10.2351
obiettivo	-10.2364
▁nudo	-10.2365
▁ultime	-10.2374
▁componente	-10.2374
esecuzione	-10.2374
▁diviso	-10.2383
corre	-10.2387
▁pier	-10.2387
▁noi	-10.239
▁viola	-10.2393
entrata	-10.2398
▁tempio	-10.2399
▁conferenza	-10.2409
▁colonna	-10.2409
▁residenti	-10.241
elenco	-10.241
▁disegna	-10.2414
▁ferroviaria	-10.2415
▁bell	-10.2417
▁vicini	-10.242
▁comandante	-10.2422
durre	-10.2423
▁fecero	-10.2427
▁mosca	-10.2433
▁demo	-10.2438
▁1938	-10.2446
▁laurea	-10.245
▁tipicamente	-10.2452
assai	-10.2464
▁pop	-10.2465
▁titoli	-10.2466
rle	-10.2473
▁vantaggio	-10.2476
▁dando	-10.2476
▁discipline	-10.2478
▁canzoni	-10.2478
▁accanto	-10.2478
▁universitari	-10.2478
▁acquista	-10.2484
▁annuncia	-10.2496
cip	-10.2499
▁sorgente	-10.2501
gione	-10.251
▁ligure	-10.2513
▁accusa	-10.2526
▁russo	-10.2527
▁corti	-10.2528
▁perdite	-10.2528
▁accordi	-10.2532
serv	-10.2537
▁gian	-10.254
dr	-10.2542
▁bandiere	-10.2546
▁[...]	-10.2548
▁vescovi	-10.2548
▁giganti	-10.2548
▁profondo	-10.2548
▁pianura	-10.2549
▁leader	-10.2549
interazione	-10.2565
▁espansione	-10.2576
▁comunista	-10.2577
▁modifiche	-10.2583
▁vuoto	-10.2583
assemblea	-10.2583
▁catania	-10.2583
emivita	-10.2584
identità	-10.2586
▁vasta	-10.2588
scritto	-10.2593
▁carri	-10.2601
▁legate	-10.2611
▁cerimonia	-10.2618
▁cimitero	-10.2618
▁rilievo	-10.2618
▁studenti	-10.2618
▁impero	-10.2619
▁divide	-10.2622
▁interamente	-10.2623
▁uffici	-10.2638
▁sostituito	-10.2644
▁quei	-10.2647
▁rivolt	-10.2648
▁disponibili	-10.2649
hard	-10.2649
fino	-10.2649
▁prestigio	-10.2653
▁facile	-10.2654
▁bronzo	-10.2655
▁atomico	-10.2655
▁1994	-10.2656
▁1991	-10.2656
ju	-10.2659
▁organizzato	-10.2661
▁divisa	-10.2662
▁assegnato	-10.2671
▁successi	-10.2674
▁onore	-10.2677
▁santi	-10.2677
aggiunta	-10.2682
gger	-10.2688
▁centinaia	-10.2689
▁straniere	-10.2689
▁denaro	-10.269
istica	-10.2691
▁giulio	-10.2694
▁benché	-10.2694
▁compito	-10.2696
▁cifra	-10.2701
rp	-10.2712
▁indicato	-10.2713
▁fabbrica	-10.2724
▁proclama	-10.2724
▁amministrativa	-10.2726
ttico	-10.2731
▁dà	-10.2741
▁detti	-10.2747
▁decennio	-10.2754
▁americano	-10.2755
▁trasmissione	-10.276
▁regionali	-10.2761
▁taglia	-10.2763
eu	-10.2771
▁catalog	-10.2771
▁top	-10.2771
▁chiara	-10.2791
▁comunica	-10.2791
effetto	-10.2792
▁frequenta	-10.2796
▁teorema	-10.2796
▁blocco	-10.2796
▁intermedi	-10.2812
lly	-10.2819
opposizione	-10.282
▁martin	-10.2828
▁minoranze	-10.2832
omonimo	-10.2832
▁tricolore	-10.2832
▁dichiarò	-10.2832
▁montagna	-10.2837
▁ss	-10.2847
▁pescara	-10.2849
▁organizzazioni	-10.2853
▁batteri	-10.2856
▁open	-10.2859
▁cent	-10.2861
▁decisi	-10.2863
nella	-10.2863
▁muta	-10.2865
▁risoluzione	-10.2868
▁inglesi	-10.2868
▁trovò	-10.2868
▁doppio	-10.2868
▁minimo	-10.2869
▁profondità	-10.2869
▁golfo	-10.2871
▁rinnova	-10.2875
▁proprietari	-10.2875
▁festa	-10.2877
▁frazioni	-10.2878
grafiche	-10.2884
essere	-10.2886
▁voleva	-10.2897
umanità	-10.29
▁civiltà	-10.2904
▁pubbliche	-10.2904
▁costretto	-10.2904
▁contenuti	-10.2904
▁storiche	-10.2905
▁charles	-10.2905
▁basilica	-10.2906
▁1992	-10.2907
▁q	-10.2909
▁decide	-10.291
▁definitiva	-10.2914
ers	-10.2919
▁she	-10.2922
▁rocce	-10.2923
iso	-10.2931
▁cam	-10.2933
▁messo	-10.2937
▁danno	-10.2938
arma	-10.294
▁manifesta	-10.294
▁riconosciuto	-10.2941
▁yankovic	-10.2941
▁soddisfa	-10.2941
▁chitarra	-10.2941
▁colpo	-10.2941
▁giudica	-10.2943
mental	-10.2945
▁vesti	-10.2948
▁cento	-10.295
▁cantone	-10.2953
▁bus	-10.2965
egitto	-10.2965
termin	-10.2966
ep	-10.297
porta	-10.2973
▁quarta	-10.2976
▁originariamente	-10.2978
▁ossida	-10.2978
▁notevoli	-10.2978
classi	-10.2978
▁aero	-10.298
▁mancanza	-10.2986
vert	-10.2988
▁ghi	-10.3003
▁classico	-10.301
▁coltiva	-10.3016
▁1933	-10.3017
▁molecolare	-10.302
▁fratelli	-10.3024
▁amici	-10.3026
▁trono	-10.3044
▁var	-10.3045
▁filosofi	-10.3046
▁curva	-10.3049
▁differenze	-10.3051
▁1997	-10.3053
▁poté	-10.3053
▁costruita	-10.3054
stone	-10.3054
▁circolazione	-10.3058
▁marchi	-10.3065
▁alti	-10.3066
▁torri	-10.3069
▁banda	-10.3071
tello	-10.3074
▁aumento	-10.3074
▁ricerche	-10.3087
▁rilascia	-10.3087
▁livorno	-10.3087
▁valli	-10.3089
▁turisti	-10.3092
nelli	-10.3094
▁garanti	-10.3106
aquila	-10.3107
▁mussolini	-10.3124
▁riduzione	-10.3125
autostrada	-10.3125
▁geometria	-10.3125
▁filosofia	-10.313
▁wo	-10.3132
▁cellula	-10.3137
▁gode	-10.3145
▁rub	-10.3146
▁vince	-10.3155
▁ipotizza	-10.3158
▁vinto	-10.3158
▁responsabile	-10.3162
▁sovietico	-10.3162
▁guardia	-10.3162
▁ferrovie	-10.3162
▁1989	-10.3165
▁1995	-10.3165
▁fuga	-10.3168
▁popolari	-10.3177
▁elettro	-10.3182
detto	-10.3183
▁fila	-10.3187
conosci	-10.319
▁kernel	-10.3199
▁fianco	-10.3199
▁tentativi	-10.3199
▁tappe	-10.3199
▁autonoma	-10.3199
▁articoli	-10.3201
▁chimici	-10.3203
▁periodica	-10.3208
▁rappresentano	-10.3209
ntina	-10.3222
oggetto	-10.3229
▁usando	-10.3232
▁alterna	-10.3237
▁lunghi	-10.3238
▁arresta	-10.324
▁anime	-10.3242
▁cuore	-10.3244
estero	-10.3247
▁accesso	-10.3251
dire	-10.326
▁americani	-10.3267
▁avvicina	-10.327
toni	-10.3273
▁assunse	-10.3274
▁ricevuto	-10.3274
▁pesante	-10.3274
▁assoluto	-10.3275
▁rifugi	-10.3275
alba	-10.3276
▁maglia	-10.3278
▁schiera	-10.3278
▁crescente	-10.3288
▁asia	-10.3297
▁parametri	-10.3304
▁stalin	-10.3307
▁raccoglie	-10.3312
▁geografica	-10.3313
▁1968	-10.3314
▁ngc	-10.3316
▁sosten	-10.3325
▁signori	-10.3337
▁macchine	-10.335
▁svolta	-10.335
▁diametro	-10.3351
▁nessuna	-10.3352
▁2022	-10.3354
▁trasformazione	-10.3355
▁interni	-10.3358
▁ram	-10.3362
br	-10.3365
mani	-10.3367
▁personali	-10.337
▁corrispondente	-10.3371
▁ultima	-10.3372
iniziativa	-10.3374
▁dna	-10.3377
▁suolo	-10.338
enne	-10.3382
▁continente	-10.3388
▁impianti	-10.3388
▁notizia	-10.3392
bbe	-10.3393
album	-10.3393
▁distingue	-10.3395
▁spetta	-10.3422
▁biblioteca	-10.3426
▁denominato	-10.3426
▁luminosa	-10.3426
approccio	-10.3426
▁set	-10.3435
▁70	-10.3436
▁passando	-10.3439
▁long	-10.3441
▁mel	-10.345
▁croci	-10.3458
▁diventato	-10.3463
▁adottato	-10.3463
▁coloro	-10.3464
▁disponibile	-10.3464
▁rafforza	-10.3464
▁ferdinando	-10.3464
▁raggruppa	-10.3464
▁critiche	-10.3464
▁posiziona	-10.3464
▁filippo	-10.3466
▁settimane	-10.3472
▁mobili	-10.3472
▁cambiamenti	-10.3473
▁richiama	-10.3476
▁32	-10.3479
▁saint	-10.348
▁onde	-10.3495
▁ricco	-10.35
▁nane	-10.3502
impiego	-10.3503
ospedale	-10.3503
▁sacro	-10.3503
▁strato	-10.352
▁arrivare	-10.3529
▁partita	-10.353
alfabeto	-10.3541
▁wells	-10.3542
▁interne	-10.3553
pio	-10.3559
▁ob	-10.3562
▁anima	-10.3568
▁medici	-10.3574
▁australia	-10.3579
autunno	-10.358
▁cavour	-10.358
▁rischio	-10.358
▁limiti	-10.3582
▁dispone	-10.3582
▁franchi	-10.3587
bru	-10.3593
▁conto	-10.3594
anna	-10.3596
▁collegamenti	-10.3597
▁archi	-10.3601
vino	-10.3613
bina	-10.3614
▁iniziato	-10.3618
▁proposito	-10.3619
▁oscilla	-10.3619
▁statuto	-10.3619
▁precedenza	-10.3622
duca	-10.3624
▁mantova	-10.3627
script	-10.363
▁austriaco	-10.3635
angolo	-10.3645
▁portarono	-10.3646
▁aspetto	-10.3648
▁privilegi	-10.3658
▁sostegno	-10.3658
▁spagnolo	-10.3658
▁criteri	-10.3658
▁vittime	-10.3658
▁deciso	-10.3659
▁1993	-10.3661
▁portando	-10.3662
stella	-10.3664
▁poteri	-10.3665
▁subì	-10.3669
▁territoriale	-10.367
cap	-10.368
▁qualunque	-10.3697
▁specifico	-10.3697
▁norme	-10.3706
▁(20	-10.3707
▁spazi	-10.3707
aspetto	-10.3707
anima	-10.3712
▁dette	-10.3719
▁necessaria	-10.3721
▁prezzo	-10.3723
grande	-10.3723
▁tru	-10.3731
▁ritiene	-10.3737
segnò	-10.3737
▁singoli	-10.3737
▁granduca	-10.374
▁ghiaccio	-10.3757
▁installa	-10.3766
grafo	-10.3774
▁cristiani	-10.3776
▁texas	-10.3776
▁concluse	-10.3776
▁1976	-10.3779
▁strettamente	-10.3781
▁ricordare	-10.3786
▁realizzare	-10.3799
▁beta	-10.38
insediamento	-10.3806
▁appartengono	-10.3816
▁economiche	-10.3816
▁evidente	-10.3816
▁linux	-10.3816
▁fumetti	-10.3816
▁pittore	-10.3816
▁trentino	-10.3817
▁supernova	-10.3818
adriatico	-10.3819
▁distinti	-10.3824
seguito	-10.3829
incidente	-10.383
▁radi	-10.3837
▁costantino	-10.3841
▁cile	-10.3844
▁nava	-10.3849
anesi	-10.385
▁diffonde	-10.3856
▁vincitore	-10.3856
▁propose	-10.3856
▁urbana	-10.3856
▁possesso	-10.3856
▁brevi	-10.3858
organi	-10.3861
▁moda	-10.3862
▁governatore	-10.3864
iani	-10.3864
guar	-10.3865
▁500	-10.3869
numer	-10.3871
▁amico	-10.3873
▁temi	-10.3876
▁nessun	-10.3887
▁contributo	-10.3896
▁ancona	-10.3896
ufficio	-10.3904
▁popola	-10.391
▁offre	-10.3912
esse	-10.3913
▁bur	-10.3913
▁costitui	-10.3916
▁attuali	-10.3919
har	-10.3926
sha	-10.3931
▁diocesi	-10.3936
▁vicine	-10.3936
▁1984	-10.3938
▁volumi	-10.3939
▁1930	-10.394
▁2021	-10.394
▁prevale	-10.3941
▁compie	-10.3948
agosto	-10.3951
rebbero	-10.3965
▁piena	-10.397
▁socio	-10.3971
più	-10.3974
▁parrocchia	-10.3976
▁cappella	-10.3976
▁foglie	-10.3977
▁propaganda	-10.3977
▁scacchi	-10.3986
▁finali	-10.3987
episodio	-10.3995
▁scia	-10.3999
▁formata	-10.4011
▁americana	-10.4014
▁scienziati	-10.4017
omonima	-10.4017
▁richard	-10.4017
▁leggermente	-10.4017
▁famosa	-10.4017
▁scelto	-10.4017
▁adegua	-10.4017
annessione	-10.4017
▁lasciò	-10.4017
▁potenziale	-10.4018
indice	-10.4019
▁tesi	-10.402
▁ticino	-10.402
▁litio	-10.4021
▁moti	-10.4025
▁generazione	-10.4026
▁osservato	-10.4027
architettura	-10.4032
▁prussia	-10.4032
▁falli	-10.4035
▁carbon	-10.4044
▁praticamente	-10.405
lizzazione	-10.4056
▁rispettiv	-10.4057
▁evidenzia	-10.4057
▁monaco	-10.4058
▁benedetto	-10.4058
▁jack	-10.4064
▁gela	-10.4069
▁ragioni	-10.4069
▁robot	-10.407
scher	-10.4071
«	-10.4073
allora	-10.4075
_6	-10.4082
tum	-10.4085
▁artistico	-10.4096
▁determinato	-10.4098
▁segretario	-10.4102
▁nessuno	-10.4105
▁dodici	-10.4107
▁operai	-10.4111
▁pieno	-10.4135
▁cala	-10.4136
▁ordini	-10.4138
▁garibaldi	-10.4139
▁tornò	-10.4139
▁tradizioni	-10.414
▁utile	-10.4143
▁esclusi	-10.415
▁formati	-10.416
cultura	-10.4161
vedi	-10.4167
▁osservare	-10.4171
▁matematico	-10.418
▁medaglie	-10.418
▁nucleari	-10.418
▁distanze	-10.4182
sar	-10.4182
▁1996	-10.4184
▁riferisce	-10.4186
▁fornisce	-10.4187
unificazione	-10.4187
▁appartenente	-10.4189
avanzata	-10.4195
▁costellazioni	-10.4196
▁bisogno	-10.4198
▁tipica	-10.4214
▁colonne	-10.4219
▁olimpico	-10.4221
▁ambienti	-10.4221
▁rispetta	-10.4222
▁sintesi	-10.4225
▁definisce	-10.4226
▁(3	-10.4227
▁esterno	-10.4227
▁distribu	-10.423
▁costrui	-10.423
▁inghilterra	-10.4234
▁enorme	-10.4252
▁tipici	-10.4254
interpret	-10.4254
▁rad	-10.4259
html	-10.4263
▁james	-10.4263
▁dipartimento	-10.4263
▁concesso	-10.4264
▁1929	-10.4266
▁1960	-10.4266
gramma	-10.427
▁virus	-10.4272
▁sangue	-10.4273
▁muro	-10.4275
▁vuole	-10.4276
ncio	-10.428
goni	-10.4282
han	-10.4285
▁liberazione	-10.429
▁schema	-10.429
▁precedentemente	-10.4293
▁fanteria	-10.4305
esima	-10.4307
▁regio	-10.4307
▁dotato	-10.4307
▁poeta	-10.4307
▁fili	-10.4309
▁regolare	-10.431
▁cl	-10.431
▁esercito	-10.431
▁statali	-10.4316
▁formalmente	-10.432
dosso	-10.4335
num	-10.4339
▁nave	-10.4342
▁contrasto	-10.4347
▁minima	-10.4348
▁1946	-10.435
▁manda	-10.4354
▁(2	-10.4354
▁accelera	-10.4356
vent	-10.4358
▁cristo	-10.436
▁laboratorio	-10.437
▁variazione	-10.4373
▁chiamate	-10.4376
▁august	-10.4383
avvento	-10.4388
▁cristiana	-10.4388
▁flusso	-10.4389
▁conseguente	-10.4389
▁medie	-10.4391
▁1918	-10.4391
▁aggiorna	-10.4392
▁compila	-10.4393
organismo	-10.4394
▁calore	-10.4395
▁seppur	-10.4401
enna	-10.4404
▁danimarca	-10.4431
▁elevato	-10.4431
▁potente	-10.4431
▁magneti	-10.4433
▁ulteriore	-10.4439
▁associazioni	-10.4448
▁orientali	-10.4448
▁spirito	-10.4454
▁ciascuna	-10.4461
▁avversari	-10.4462
▁rocca	-10.4463
▁vasto	-10.4464
▁linguistica	-10.4473
▁conclude	-10.4474
▁1972	-10.4476
▁tenuto	-10.4477
▁belgio	-10.4477
italiano	-10.448
impresa	-10.4481
▁canoni	-10.4482
▁macro	-10.4482
▁notare	-10.4483
▁morto	-10.4493
▁risolvere	-10.4493
occasione	-10.4496
▁trovato	-10.45
asso	-10.4505
mbar	-10.4512
▁ced	-10.4513
▁campagne	-10.4516
▁blocca	-10.4516
▁riesce	-10.4517
▁operativi	-10.4518
▁wal	-10.4529
▁cli	-10.4529
nghi	-10.4539
▁scarsa	-10.4539
▁fornire	-10.4539
azoto	-10.4541
▁abitato	-10.4542
1)	-10.4548
▁contratto	-10.4559
▁compresi	-10.4559
▁1973	-10.4561
▁merito	-10.4565
▁relatività	-10.4566
▁partiti	-10.4566
▁frutto	-10.4571
▁interi	-10.4571
▁presta	-10.4574
vari	-10.4579
▁lancio	-10.4581
aprile	-10.4586
▁canto	-10.4592
grammi	-10.4596
▁architetture	-10.4601
▁monastero	-10.4601
▁australe	-10.4601
opinione	-10.4601
▁differente	-10.4601
isotopo	-10.4603
▁1926	-10.4604
▁piace	-10.4605
▁orto	-10.4606
spir	-10.4614
▁lasciando	-10.4616
▁corretta	-10.4618
▁distruzione	-10.462
▁star	-10.4623
▁radici	-10.4625
kh	-10.4626
▁veri	-10.4629
▁mina	-10.4641
gini	-10.4642
▁mario	-10.4642
▁art	-10.4644
▁esponenti	-10.4644
▁cardinale	-10.4644
▁inferiori	-10.4644
▁difende	-10.4645
▁consegna	-10.4645
▁esteso	-10.4647
▁ultimo	-10.4648
▁laghi	-10.467
▁avver	-10.4674
get	-10.4677
cht	-10.468
▁individui	-10.4688
▁mondiali	-10.4688
▁banconote	-10.4688
▁cabala	-10.4688
▁comprese	-10.4694
▁devast	-10.4706
▁attivo	-10.4714
ray	-10.4715
▁oceani	-10.4717
▁psicologia	-10.4717
▁quadri	-10.4718
ingegneria	-10.473
▁frequenti	-10.4731
▁ragazzi	-10.4731
▁appoggia	-10.4731
▁economici	-10.4732
ciano	-10.4736
importante	-10.4759
▁coincide	-10.476
gliano	-10.4763
grafici	-10.4766
▁gravitazionale	-10.4775
hardware	-10.4775
▁entrare	-10.4777
intensità	-10.4777
▁vergine	-10.4777
▁lavoratori	-10.4788
▁correnti	-10.4792
▁faccia	-10.4795
▁progetta	-10.4797
▁occhi	-10.48
▁1860	-10.48
▁conservato	-10.4805
rus	-10.4813
▁lavorazione	-10.4815
▁migra	-10.4816
▁browser	-10.4819
▁fantascienza	-10.4819
▁luminose	-10.4819
▁uccelli	-10.4819
▁straordinari	-10.4819
▁ruota	-10.482
▁analizza	-10.4823
▁contrasta	-10.4826
artista	-10.4826
▁nicola	-10.4828
▁liberi	-10.483
▁organizzazione	-10.4839
▁ove	-10.4839
stein	-10.4851
▁war	-10.4852
▁crosta	-10.4854
▁designa	-10.4857
▁sostanze	-10.4863
▁fortuna	-10.4863
▁intitolato	-10.4863
▁torneo	-10.4863
▁1923	-10.4866
▁divisioni	-10.4866
agenzia	-10.4866
▁1948	-10.4867
venti	-10.4867
▁marito	-10.4877
▁300	-10.4888
accesso	-10.4893
mero	-10.4894
▁aereo	-10.4898
▁esistenti	-10.4898
▁legami	-10.49
▁eseguire	-10.4907
▁tecnico	-10.4907
▁lontano	-10.4908
▁vocali	-10.4908
▁concetti	-10.4909
▁1971	-10.491
▁1987	-10.491
▁bianche	-10.4913
altare	-10.4915
▁osservazione	-10.4923
tismo	-10.4926
inghilterra	-10.4938
pin	-10.4939
kov	-10.4944
▁aventi	-10.4944
wood	-10.4948
▁sostanza	-10.4951
▁scontri	-10.4951
▁famosi	-10.4952
▁musei	-10.4952
▁riuscirono	-10.4952
▁pc	-10.4953
▁indossa	-10.4954
▁terrestri	-10.4955
▁seguire	-10.4955
▁cucina	-10.4956
▁permettono	-10.4957
▁1920	-10.4958
ungheria	-10.4959
▁vanta	-10.4961
▁razzi	-10.4964
▁150	-10.4965
▁storicamente	-10.4968
▁saranno	-10.4972
▁morale	-10.4972
▁usate	-10.4978
▁pira	-10.4988
▁dottrina	-10.4996
▁meccanismo	-10.4996
▁destinata	-10.4996
▁scoperte	-10.4996
▁convenzione	-10.4997
▁costantinopoli	-10.4997
▁coda	-10.5001
▁gpl	-10.5001
enziale	-10.5011
▁provenient	-10.5012
▁manifestazione	-10.5017
▁austriaci	-10.502
▁lenin	-10.5022
▁mc	-10.5034
▁logica	-10.5037
▁copenaghen	-10.5041
▁pontificio	-10.5041
impianto	-10.5041
▁commedia	-10.5043
her	-10.5045
▁largo	-10.5046
▁mm	-10.5049
▁manifestazioni	-10.5053
avversario	-10.5054
▁utilizzano	-10.5054
▁verrà	-10.5055
bur	-10.5056
▁rappresentata	-10.5062
▁medico	-10.5065
▁emilia	-10.5072
icamente	-10.5073
▁sviluppata	-10.5073
▁villaggio	-10.5074
lingua	-10.5075
forme	-10.5079
abitu	-10.5084
▁protagonisti	-10.5086
▁sviluppò	-10.5086
▁umberto	-10.5086
▁relative	-10.5086
esperimento	-10.5086
▁louis	-10.5086
▁divenuto	-10.5086
▁spezia	-10.5086
▁spettacolo	-10.5088
▁cassa	-10.5089
▁1986	-10.5089
▁rosse	-10.5092
▁genitori	-10.5095
attiva	-10.5098
▁national	-10.5098
▁nutr	-10.5101
albero	-10.5109
reali	-10.5114
▁80	-10.5122
▁stellari	-10.5129
tradizionalmente	-10.5131
▁obiettivi	-10.5131
▁passeggeri	-10.5131
▁doppie	-10.5131
▁pacifico	-10.5131
▁sacra	-10.5132
▁classici	-10.5141
▁scozia	-10.5143
▁considerare	-10.5144
▁scende	-10.5154
▁dichiarato	-10.516
▁mettere	-10.5162
▁larga	-10.5176
▁appartiene	-10.5177
▁istituita	-10.5177
▁referendum	-10.5177
▁dinastia	-10.5177
▁anglo	-10.5178
▁interessi	-10.5182
▁1950	-10.5183
ram	-10.5185
▁sottolinea	-10.5185
▁attua	-10.5189
▁pezzi	-10.5189
▁cambiamento	-10.5196
▁permise	-10.5203
▁continentale	-10.5206
verso	-10.5208
▁cm	-10.5214
▁varianti	-10.5214
▁conosciuti	-10.5222
▁concentrazione	-10.5223
▁precisione	-10.5224
▁messaggi	-10.5225
▁impar	-10.5225
▁seguendo	-10.5225
▁1924	-10.5226
▁moderne	-10.5226
▁totali	-10.5231
▁grosso	-10.5236
▁volontari	-10.525
posta	-10.5256
▁ciascuno	-10.5259
▁allontana	-10.526
▁consolid	-10.5269
▁colli	-10.5269
▁equazioni	-10.5269
▁prigionieri	-10.5269
▁calci	-10.5269
▁1978	-10.5271
▁vicende	-10.5271
_7	-10.5276
▁lasciato	-10.5278
▁formale	-10.528
▁magnetico	-10.5283
▁viaggia	-10.5283
▁ionizza	-10.5286
▁determinare	-10.5288
▁fondi	-10.5289
▁testimonia	-10.5293
▁ritorna	-10.5298
▁realizzata	-10.5302
▁estensione	-10.5305
▁gla	-10.5313
▁riscontra	-10.5314
▁vittorie	-10.5314
▁rimasto	-10.5314
▁1982	-10.5317
▁1936	-10.5318
▁pelle	-10.5319
▁lavorare	-10.5321
▁rappresentare	-10.5322
▁giulia	-10.5323
▁amplia	-10.5325
▁giornalista	-10.5327
▁editori	-10.5328
bella	-10.534
▁tang	-10.5341
▁segni	-10.5345
▁regia	-10.5352
due	-10.5352
figura	-10.5356
front	-10.5358
▁gonfalone	-10.5361
▁trasferimento	-10.5361
▁facoltà	-10.5361
▁riteneva	-10.5361
▁uccide	-10.5362
▁alternativa	-10.5363
▁montagne	-10.5364
▁implica	-10.5365
forte	-10.5365
antichità	-10.5366
▁sigla	-10.5367
istruzione	-10.5383
▁nati	-10.5385
▁priva	-10.5385
wer	-10.5388
▁bisogna	-10.5389
alpi	-10.5392
▁commerci	-10.5399
▁voti	-10.5404
▁parzialmente	-10.5407
▁legale	-10.541
▁tennis	-10.5411
appoggio	-10.5412
▁goti	-10.5413
riamente	-10.5414
incarico	-10.5424
▁by	-10.544
▁patria	-10.544
win	-10.5445
▁assunto	-10.5454
▁errori	-10.5454
▁evoluti	-10.5454
▁consuma	-10.5455
▁teresa	-10.5457
▁gravità	-10.547
govern	-10.5475
▁scorre	-10.5477
▁privati	-10.5479
▁sarda	-10.5482
▁utilizzo	-10.5485
▁seguì	-10.5494
▁400	-10.5496
▁navale	-10.5496
▁nasa	-10.55
▁pellicola	-10.5501
▁nazisti	-10.5501
▁spagnola	-10.5501
▁palermo	-10.5501
▁ministri	-10.5501
▁digitale	-10.5501
▁milione	-10.5501
▁spedizione	-10.5503
▁sostenere	-10.5505
▁motori	-10.5513
▁dovevano	-10.5514
atlantic	-10.5515
▁cattedrale	-10.552
▁applicazione	-10.5536
▁canali	-10.5542
▁grafica	-10.5542
assembl	-10.5542
▁suddivisi	-10.5544
▁artificiale	-10.5548
▁sostanzialmente	-10.5548
▁dapprima	-10.5548
▁pet	-10.5548
▁signore	-10.5552
▁gallia	-10.556
▁italo	-10.5562
sfera	-10.5568
aragona	-10.5577
3%	-10.5579
▁canti	-10.5585
▁termo	-10.5588
▁affianca	-10.5595
▁percentuale	-10.5595
▁specifiche	-10.5595
▁ripresa	-10.5596
▁conobbe	-10.5596
▁polinomi	-10.5597
▁1949	-10.56
▁usano	-10.5601
▁rame	-10.5603
zu	-10.561
▁regolamento	-10.5616
▁voci	-10.5618
▁andare	-10.562
▁deboli	-10.5622
▁affronta	-10.5622
▁tenere	-10.5633
▁bla	-10.5638
esempio	-10.5639
zen	-10.564
▁affaccia	-10.5643
▁costituzionale	-10.5643
▁scontro	-10.5643
▁relativo	-10.5643
▁funzionalità	-10.5645
▁quar	-10.5648
ben	-10.5655
▁tè	-10.5656
▁effettuare	-10.5661
▁considerando	-10.5662
patriot	-10.5664
▁elettrone	-10.567
▁colonie	-10.5676
▁caro	-10.5683
osservazione	-10.5688
▁chiusura	-10.5691
▁recupera	-10.5691
▁ottenendo	-10.5691
▁risponde	-10.5691
odierna	-10.5691
▁sorella	-10.5691
▁rendendo	-10.5692
elettrone	-10.5693
▁1983	-10.5693
▁alfred	-10.5693
▁1919	-10.5694
▁superfici	-10.5695
▁segnale	-10.5698
▁nostro	-10.5699
gel	-10.5701
▁mandato	-10.5702
▁macchia	-10.5702
▁funzionamento	-10.5706
▁terzi	-10.571
▁aumentare	-10.5711
▁barba	-10.5714
▁vini	-10.5726
legge	-10.5728
▁esteri	-10.5728
orsa	-10.5732
▁fredda	-10.5739
▁occorre	-10.5739
▁specifici	-10.574
▁1947	-10.5743
cioè	-10.5743
▁stazioni	-10.5744
▁aperti	-10.5745
▁potrebbero	-10.5746
▁istruzione	-10.5747
▁copia	-10.5763
▁dimostrato	-10.5766
▁raf	-10.5766
▁architettura	-10.5769
▁preoccupa	-10.5774
▁attenzione	-10.5784
esterno	-10.5786
super	-10.5787
▁rinuncia	-10.5787
▁codifica	-10.5788
▁1974	-10.579
▁precipitazioni	-10.5791
▁anelli	-10.5799
asia	-10.5805
▁pista	-10.5807
▁russa	-10.5811
▁reich	-10.5821
▁dov	-10.5823
▁orienta	-10.5826
▁torrente	-10.583
né	-10.5832
▁competizione	-10.5836
▁denominata	-10.5836
▁promuove	-10.5836
▁contengono	-10.5836
▁sportivo	-10.5836
▁sintetizza	-10.5836
▁pose	-10.5836
▁quadro	-10.5837
▁professionisti	-10.5839
▁1985	-10.5839
▁1934	-10.584
▁sfera	-10.5847
▁pertini	-10.5852
▁ricordano	-10.5854
▁avvenuto	-10.5856
▁tocca	-10.5864
▁(15	-10.5867
▁cara	-10.5868
arme	-10.5872
▁retta	-10.5883
autorità	-10.5884
▁impossibile	-10.5884
▁tribù	-10.5884
▁vietnam	-10.5884
▁menziona	-10.5885
▁elenca	-10.5886
▁1981	-10.5887
▁esterna	-10.5887
▁decine	-10.5889
alter	-10.5902
▁evita	-10.5916
comuni	-10.5917
natura	-10.592
▁invita	-10.5933
▁considerazione	-10.5933
▁essenzialmente	-10.5933
▁finlandia	-10.5933
▁mammiferi	-10.5933
▁monarchia	-10.5933
▁dibattito	-10.5933
▁etnie	-10.5934
▁trattamento	-10.5934
▁propone	-10.5934
▁promozione	-10.5934
▁completo	-10.5935
magistra	-10.5942
▁fama	-10.5944
prima	-10.5947
assedio	-10.5947
▁regolari	-10.5949
▁germanico	-10.5956
▁rappresentanti	-10.5959
urban	-10.5959
ois	-10.5963
▁cen	-10.5964
▁poeti	-10.5967
▁studiare	-10.598
▁svolse	-10.5983
▁prodotta	-10.5983
▁eredita	-10.5983
▁variante	-10.5983
città	-10.5985
progressivamente	-10.5985
▁amiga	-10.5987
▁banche	-10.5988
kan	-10.5989
hen	-10.599
▁armati	-10.5991
▁fallimento	-10.5992
▁rai	-10.5993
▁diventando	-10.6003
▁cru	-10.6005
▁austriaca	-10.6005
▁emissione	-10.6012
▁brano	-10.6013
▁colline	-10.6014
▁stro	-10.6015
▁(200	-10.6016
▁contea	-10.6016
▁iniziali	-10.6021
▁creata	-10.6027
▁percorre	-10.603
▁alberto	-10.6031
▁industrie	-10.6032
▁racconti	-10.6032
▁rommel	-10.6032
▁domanda	-10.6032
▁distretto	-10.6033
▁suddivisione	-10.6036
▁biologia	-10.6044
▁necessari	-10.6049
▁definiti	-10.6062
▁rami	-10.6065
▁ossigeno	-10.6068
▁accad	-10.6079
▁coinvolg	-10.6081
▁guadagna	-10.6082
▁joseph	-10.6082
▁stagioni	-10.6082
▁(16	-10.6084
▁insediamenti	-10.6086
▁concezione	-10.6086
fisica	-10.6086
dove	-10.6086
▁conservazione	-10.6086
▁metal	-10.609
mber	-10.6091
▁obiettivo	-10.6096
▁michele	-10.6106
gru	-10.6113
lett	-10.6116
▁albert	-10.612
▁precisa	-10.6123
▁diffusi	-10.6128
▁affinché	-10.6132
▁ricostruzione	-10.6132
▁aggiunti	-10.6132
▁israel	-10.6132
▁telefono	-10.6132
▁satelliti	-10.6132
▁fisici	-10.6133
▁cast	-10.6134
▁benefici	-10.6134
▁condotta	-10.6134
▁austro	-10.6135
attenzione	-10.6135
▁1969	-10.6136
▁1922	-10.6136
▁separazione	-10.6138
▁tirren	-10.6139
▁merci	-10.6143
▁grigio	-10.6144
▁radice	-10.6144
▁luca	-10.6149
▁jan	-10.6153
▁abbiamo	-10.6154
té	-10.6155
▁combinazione	-10.616
▁rover	-10.6166
▁espressione	-10.6174
▁metallico	-10.6177
▁proib	-10.6178
▁riproduzione	-10.6182
▁contributi	-10.6182
▁televisione	-10.6182
▁residente	-10.6182
▁traduzione	-10.6183
elezione	-10.6183
▁conoscenze	-10.6185
▁1914	-10.6187
▁parlare	-10.6188
▁popolarità	-10.6189
▁siena	-10.619
▁giunta	-10.6201
▁persino	-10.6201
▁quinta	-10.6201
▁reparti	-10.6212
▁impone	-10.6217
▁comprendeva	-10.622
tropo	-10.6232
▁competizioni	-10.6233
▁eventuali	-10.6233
▁introdotta	-10.6233
▁virtù	-10.6233
▁simmetria	-10.6233
▁delimita	-10.6234
clav	-10.6234
▁1979	-10.6235
▁1935	-10.6237
▁cessa	-10.6239
▁cause	-10.6245
▁recentemente	-10.6247
▁assumere	-10.6249
erba	-10.6255
▁carro	-10.6255
▁comunisti	-10.6271
▁calde	-10.6278
▁religiosa	-10.6284
▁1961	-10.6284
▁domenica	-10.6284
▁discussione	-10.6284
▁testimonianze	-10.6286
▁produttore	-10.6288
▁volle	-10.6288
▁confederazione	-10.6289
equivalente	-10.6291
▁campioni	-10.63
▁vivo	-10.6302
▁matrice	-10.6317
ning	-10.6319
▁artistica	-10.632
▁metropoli	-10.6334
▁commemora	-10.6335
▁religioso	-10.6335
▁1988	-10.6335
▁celesti	-10.6335
equatore	-10.6336
▁lettura	-10.6336
▁occupata	-10.6336
▁esterni	-10.6337
▁sportiva	-10.6337
▁finalmente	-10.6342
educazione	-10.6346
▁temporale	-10.6348
islam	-10.6348
▁quinto	-10.6349
ky	-10.6357
▁rappresentati	-10.6358
▁articolo	-10.6379
▁settecento	-10.6386
▁sicilie	-10.6386
▁residenza	-10.6386
▁ampiamente	-10.6386
sport	-10.6386
▁statua	-10.6387
▁1962	-10.6389
▁1967	-10.639
▁1966	-10.639
seguì	-10.6393
otten	-10.6395
▁autorizza	-10.6398
▁navigazione	-10.6399
esplosione	-10.6399
▁nova	-10.6403
▁originali	-10.6411
german	-10.642
▁dichiarazione	-10.6427
▁serve	-10.6428
▁vivere	-10.6434
▁caldo	-10.6435
▁presentato	-10.6437
▁includono	-10.6437
▁scoprì	-10.6437
▁gauguin	-10.6437
▁incorpora	-10.6437
▁moltiplica	-10.6437
▁1977	-10.6437
▁bambino	-10.6437
▁contenente	-10.6438
▁smith	-10.6438
▁confronto	-10.6438
▁oscura	-10.6438
▁royal	-10.6438
▁conoscere	-10.6439
intervallo	-10.644
▁1925	-10.6442
▁privato	-10.6442
apprendimento	-10.6443
▁estesa	-10.6445
interpretazione	-10.645
▁tornare	-10.6452
archeologi	-10.6457
▁spiegare	-10.6458
sson	-10.646
▁boschi	-10.646
▁descrivere	-10.646
▁importa	-10.6464
▁informatica	-10.6469
▁equivale	-10.648
▁creando	-10.6485
▁distinzione	-10.6489
▁penetra	-10.649
▁governi	-10.649
▁paesaggi	-10.649
▁diventò	-10.649
▁bernard	-10.649
▁considerate	-10.649
▁aspetta	-10.649
▁canton	-10.6491
▁ancor	-10.6493
wh	-10.6494
▁aerea	-10.6495
▁piacenza	-10.6496
▁serra	-10.6503
▁simula	-10.6503
▁sviluppare	-10.6518
ottica	-10.6525
romagna	-10.6541
▁rifiutò	-10.6541
▁risalgono	-10.6541
▁richieste	-10.6541
▁trasferì	-10.6541
▁conseguenze	-10.6542
▁selva	-10.6544
▁andrea	-10.6544
▁fotografia	-10.6545
▁tenuta	-10.6545
infanzia	-10.6546
▁permettere	-10.6553
▁andava	-10.6554
▁puro	-10.6556
orientale	-10.6557
▁nubi	-10.6562
▁verona	-10.6563
▁affrontare	-10.6565
▁partecipare	-10.6576
impegno	-10.658
▁adottata	-10.6583
▁intero	-10.6585
tologia	-10.6586
▁pubblicati	-10.6588
▁usi	-10.6592
▁protegge	-10.6594
▁raramente	-10.6594
▁comandi	-10.6594
▁partite	-10.6595
andro	-10.6595
incremento	-10.6597
▁1928	-10.6597
espansione	-10.6604
seguiti	-10.6604
sauri	-10.6605
▁risalire	-10.6608
▁fortific	-10.6609
▁capita	-10.6613
▁decorat	-10.6617
▁ricopert	-10.6618
▁capitali	-10.6619
▁viventi	-10.6622
▁pensi	-10.6629
▁barbari	-10.6631
▁ammira	-10.6639
▁forn	-10.6644
▁conclusione	-10.6646
▁fiducia	-10.6646
▁introdusse	-10.6646
▁malattia	-10.6646
▁positivo	-10.6646
▁effettivamente	-10.6646
▁einstein	-10.6646
▁capace	-10.6648
▁1937	-10.665
▁finché	-10.6651
▁peggior	-10.6659
▁danese	-10.667
▁cane	-10.6685
="15	-10.6693
ska	-10.6693
▁dispositivi	-10.6699
▁sostiene	-10.6699
▁presidenza	-10.6699
▁violenza	-10.6699
▁celebri	-10.6699
▁palazzi	-10.6701
▁1964	-10.6703
▁1954	-10.6704
▁appartene	-10.6706
▁disponibilità	-10.6706
▁brani	-10.6709
▁rimasero	-10.6713
▁arabi	-10.6715
▁descritto	-10.6716
▁esporta	-10.6718
▁proposto	-10.672
▁riduce	-10.672
sky	-10.6729
▁determinata	-10.6732
▁sperimentale	-10.6734
assistenza	-10.6738
▁free	-10.6746
▁terri	-10.6749
▁combattimento	-10.6752
▁istituito	-10.6752
▁varsavia	-10.6752
▁inserito	-10.6752
▁ucciso	-10.6753
▁solleva	-10.6753
▁ultra	-10.6753
▁cd	-10.6755
ude	-10.6757
▁pci	-10.6758
oltre	-10.676
▁genetica	-10.676
▁implementa	-10.676
▁bande	-10.6761
▁insedia	-10.6764
offerta	-10.6767
▁quadrati	-10.6767
▁inventa	-10.6769
▁cadde	-10.6778
▁basti	-10.6781
▁interpretazione	-10.6787
▁ridotto	-10.6787
▁zu	-10.6794
▁divennero	-10.6794
▁guidato	-10.68
▁irlandese	-10.6806
▁togliatti	-10.6806
▁soluzioni	-10.6806
▁ebraico	-10.6806
hubble	-10.6806
insegnamento	-10.6809
▁chiude	-10.6809
▁viaggi	-10.681
▁moro	-10.6813
▁pagine	-10.6815
▁morta	-10.6817
▁originario	-10.6818
estensione	-10.682
▁comunicazioni	-10.682
▁tendenza	-10.682
▁chiuso	-10.6823
orso	-10.6827
▁compagnie	-10.6832
abbazia	-10.6833
adozione	-10.6833
▁sorgenti	-10.6834
cker	-10.6837
ascesa	-10.6839
▁tardo	-10.6842
▁scopi	-10.6842
▁esplos	-10.6846
▁seguono	-10.6857
▁tonnellate	-10.686
▁lasciare	-10.686
▁mercanti	-10.686
▁1963	-10.686
▁istruzioni	-10.686
▁marcia	-10.686
▁vendita	-10.6863
indagine	-10.6866
▁sam	-10.6866
▁sperimenta	-10.6867
▁trento	-10.6875
▁spezz	-10.6877
▁stabilità	-10.6909
▁solari	-10.6909
improvvisa	-10.6914
▁ambientat	-10.6914
▁conflitti	-10.6914
▁religiosi	-10.6914
interfaccia	-10.6914
▁teorica	-10.6914
▁vettore	-10.6914
▁nuoto	-10.6915
▁meso	-10.6916
▁system	-10.6917
capito	-10.6918
▁1917	-10.6918
▁questioni	-10.6918
▁tentò	-10.6918
▁ruoli	-10.692
ossigeno	-10.6929
▁nor	-10.6931
▁codici	-10.6935
▁distinguere	-10.6958
▁nera	-10.6959
▁segreta	-10.6963
▁coordinate	-10.6966
▁cattolici	-10.6968
▁matematici	-10.6968
▁michael	-10.6968
▁provvisori	-10.6968
▁appassiona	-10.6968
▁pontefice	-10.6968
elettromagnetica	-10.6968
▁elettrico	-10.6968
▁totalmente	-10.6968
▁minerale	-10.6968
▁fossili	-10.6968
▁padova	-10.697
▁declino	-10.697
▁1952	-10.6972
pongono	-10.6978
metria	-10.6981
gy	-10.6981
▁novara	-10.6982
▁pensare	-10.6988
▁fornito	-10.6992
▁conversione	-10.7011
▁efficace	-10.7023
▁partecipò	-10.7023
▁istituti	-10.7023
▁situazioni	-10.7023
▁casuale	-10.7023
▁complessa	-10.7023
▁proporzional	-10.7023
▁notizie	-10.7025
▁aggrega	-10.7026
apparato	-10.7026
▁1975	-10.7026
▁drago	-10.7027
▁unix	-10.7028
ificata	-10.7028
01"	-10.7029
▁altrettant	-10.7045
▁apparente	-10.7048
▁cari	-10.705
▁natale	-10.705
▁teologi	-10.7068
="16	-10.7077
▁parlamentare	-10.7078
▁racconto	-10.7078
▁urbino	-10.7078
▁freddo	-10.7078
▁proposte	-10.7078
▁sposò	-10.7078
▁necessariamente	-10.7091
▁tira	-10.7091
zer	-10.7092
▁citato	-10.7098
▁sho	-10.7101
▁esisteva	-10.7107
8%	-10.7115
▁suddivisa	-10.7133
▁tecnologie	-10.7133
▁lombardo	-10.7133
▁prossimità	-10.7133
▁soggiorn	-10.7133
▁sindaco	-10.7133
▁bersagli	-10.7134
▁ideali	-10.7134
▁piombo	-10.7135
▁abbandonato	-10.714
▁verità	-10.7146
▁formazioni	-10.7146
▁pin	-10.7147
▁nemico	-10.7156
▁parlato	-10.7163
▁impiegato	-10.7169
▁fondatore	-10.717
▁abbiano	-10.7179
▁superare	-10.7179
▁tempera	-10.7184
▁calvi	-10.7184
approvazione	-10.7186
▁aeroporti	-10.7188
▁ovviamente	-10.7188
▁quotidiano	-10.7188
▁stabilì	-10.7188
▁cinematografica	-10.7188
▁chimiche	-10.7188
▁stefano	-10.7188
▁archeologici	-10.7189
▁prevista	-10.7189
▁sfondo	-10.7189
▁oscar	-10.7189
▁decima	-10.719
▁carico	-10.719
▁mantello	-10.7191
▁1956	-10.7192
▁piana	-10.7199
▁alpino	-10.7207
▁spera	-10.721
▁ripara	-10.7213
▁pian	-10.7213
1%	-10.7215
▁sesto	-10.7233
▁corde	-10.7239
▁bosco	-10.7241
enciclopedia	-10.7244
individuo	-10.7244
▁possiedono	-10.7244
▁cercò	-10.7244
▁riviste	-10.7245
▁seguita	-10.7245
aldo	-10.7245
▁liberali	-10.7245
▁animale	-10.7245
▁polacco	-10.7245
▁sostenuto	-10.7246
="14	-10.7247
▁entità	-10.7249
▁festeggia	-10.725
▁emerge	-10.7252
▁sasso	-10.7266
▁college	-10.7272
▁attivi	-10.7278
4%	-10.7285
▁azzurro	-10.7288
estremo	-10.7291
ford	-10.7295
▁affermò	-10.73
▁dimostrò	-10.73
▁continuo	-10.73
▁consorzio	-10.73
▁mantenne	-10.7301
▁lugano	-10.7301
▁probabile	-10.7301
umbria	-10.7301
▁arturo	-10.7302
▁gerarchi	-10.7302
▁lentamente	-10.7302
▁spirale	-10.7303
▁articola	-10.7305
▁intanto	-10.7307
▁urano	-10.7311
▁romane	-10.7311
▁assol	-10.7313
▁ideale	-10.7314
para	-10.7316
sistema	-10.7323
villa	-10.7333
ruppe	-10.7333
▁parma	-10.7356
▁alessandria	-10.7357
▁guglielmo	-10.7357
▁incominci	-10.7357
▁bensì	-10.7357
▁consenso	-10.7357
▁associata	-10.7357
▁annovera	-10.7359
▁facciata	-10.736
form	-10.7361
▁design	-10.7364
rompe	-10.7368
▁associato	-10.7369
▁momenti	-10.7371
▁territoriali	-10.7374
▁gauss	-10.7375
impulso	-10.738
incontro	-10.738
social	-10.7388
▁frank	-10.7389
="18	-10.7389
▁sy	-10.7392
▁interpretato	-10.7394
▁limitato	-10.74
cello	-10.7401
_8	-10.7409
▁giornata	-10.7414
▁johann	-10.7414
▁schermo	-10.7414
▁svolto	-10.7414
▁protetto	-10.7414
metrica	-10.7415
▁polveri	-10.7415
▁scientifici	-10.7415
▁braccio	-10.7418
▁collasso	-10.742
▁normali	-10.7421
▁professore	-10.7444
▁certi	-10.7446
▁tanti	-10.7459
▁riguardanti	-10.7465
▁conduce	-10.7467
▁scomparsa	-10.7471
▁tribunale	-10.7471
▁grammatica	-10.7471
▁molise	-10.7471
▁priori	-10.7476
▁spaziali	-10.7476
▁camere	-10.7478
▁riflessi	-10.7482
▁inaugura	-10.7491
▁amministra	-10.7506
▁basati	-10.7507
emissione	-10.7509
▁celti	-10.7512
▁gau	-10.7515
▁nega	-10.7519
▁porzione	-10.7519
▁versa	-10.7523
▁esattamente	-10.7528
▁brillanti	-10.7528
▁contadini	-10.7529
▁distribuito	-10.753
▁dimostrazione	-10.753
▁spese	-10.7535
▁costituire	-10.755
▁duomo	-10.7552
fusione	-10.7555
▁chiari	-10.7559
▁trattava	-10.7564
▁you	-10.7566
▁pesce	-10.7571
▁char	-10.7572
▁marmo	-10.7573
▁salvo	-10.7577
▁autonomia	-10.7581
▁verdi	-10.7583
▁suddiviso	-10.7586
▁thomas	-10.7586
▁tessuti	-10.7586
▁apparve	-10.7586
▁cantoni	-10.7587
▁ricchi	-10.7606
▁ciascun	-10.7613
▁ordin	-10.7616
estrazione	-10.7616
▁allende	-10.7616
▁leggera	-10.7619
="13	-10.7628
acque	-10.7629
▁rilevante	-10.7634
▁sonda	-10.7634
▁lunghe	-10.764
▁britanniche	-10.7644
▁occasioni	-10.7644
▁riconosciuta	-10.7644
▁teatrale	-10.7644
▁toponimo	-10.7644
▁satellite	-10.7644
▁anziché	-10.7646
▁pittori	-10.7646
mettono	-10.7647
▁registrato	-10.7648
7%	-10.7649
▁interazioni	-10.7653
intervista	-10.7654
▁riferimenti	-10.7654
▁attori	-10.7658
▁spostamento	-10.7665
▁divise	-10.7667
▁globale	-10.7668
▁pieve	-10.767
destin	-10.7672
▁cibo	-10.7677
▁possano	-10.7679
▁generato	-10.7685
▁trip	-10.7689
ombra	-10.7689
="17	-10.7692
▁cellulare	-10.7695
▁protocollo	-10.7703
▁espressa	-10.7703
▁monumento	-10.7703
▁pagina	-10.7703
abruzzo	-10.7703
▁amministrative	-10.7704
▁liguri	-10.7706
▁superficiale	-10.7707
abbondanza	-10.7709
▁ispirato	-10.7719
▁riforme	-10.7719
▁terme	-10.772
▁monetaria	-10.7723
▁dottor	-10.7724
▁chiana	-10.7725
▁correlat	-10.7737
▁preparazione	-10.7741
▁costanti	-10.7748
mé	-10.7751
▁rapida	-10.7754
▁raffi	-10.7758
▁democrazia	-10.7762
▁tessuto	-10.7762
▁calabria	-10.7762
▁rimangono	-10.7762
▁condivide	-10.7762
▁scoppio	-10.7762
▁segreto	-10.7762
▁accede	-10.7772
▁precisamente	-10.7772
office	-10.7773
▁1900	-10.7775
antonio	-10.7775
▁organizzati	-10.7778
▁bob	-10.7782
▁1859	-10.7783
decenni	-10.7792
bibli	-10.7794
▁1000	-10.7796
_10	-10.781
intesa	-10.7817
altitudine	-10.7821
▁scientifiche	-10.7821
▁gesù	-10.7821
▁insiemi	-10.7821
▁introduce	-10.7821
▁chicago	-10.7821
▁uniforme	-10.7821
▁federazione	-10.7823
▁ciclismo	-10.7826
▁1965	-10.7826
▁combattere	-10.7828
ken	-10.7838
abba	-10.7846
appartenenza	-10.7849
▁stacca	-10.7855
▁vincere	-10.7871
▁limitata	-10.7875
▁esplicita	-10.788
▁meridionali	-10.788
▁principato	-10.788
▁sopravvive	-10.788
▁conosciute	-10.788
adesione	-10.7882
▁dinamica	-10.7883
▁ricchezza	-10.7884
▁ascoli	-10.7885
▁domini	-10.7885
urss	-10.7889
morfo	-10.7893
▁copie	-10.7898
▁petro	-10.7899
▁cariche	-10.7905
▁basse	-10.7906
▁garantire	-10.791
▁vetro	-10.7912
applicazione	-10.7913
formula	-10.7914
limit	-10.7925
▁estensi	-10.7937
▁riscalda	-10.794
führer	-10.794
▁agricola	-10.794
▁ritenuto	-10.794
▁presentò	-10.794
▁concerto	-10.794
▁batman	-10.794
▁massiccio	-10.794
▁vapore	-10.7941
▁procura	-10.7941
▁reperti	-10.7941
▁pietre	-10.7943
▁fascismo	-10.7945
▁testimonianza	-10.7947
▁turing	-10.7949
uranio	-10.795
▁condiziona	-10.7953
▁chiaramente	-10.7955
▁nerone	-10.7963
argomento	-10.7974
="19	-10.7975
▁roberto	-10.7979
▁ken	-10.7995
▁elementare	-10.8
▁hollywood	-10.8
▁cancelliere	-10.8
▁straniera	-10.8
▁essenziale	-10.8
▁rapido	-10.8001
▁bonifica	-10.8001
▁desidera	-10.8001
▁lorenzo	-10.8001
▁illustra	-10.8001
▁bombardamenti	-10.8003
▁favorevole	-10.8003
▁rabbi	-10.8015
▁pianific	-10.8023
invenzione	-10.8023
▁spalle	-10.8029
▁clan	-10.8033
▁meccanismi	-10.8061
▁neutrini	-10.8061
▁tecnici	-10.8061
▁liquido	-10.8061
▁uguali	-10.8061
etimologia	-10.8061
▁negativa	-10.8063
▁1959	-10.8064
▁trasferir	-10.8064
▁ritiro	-10.8065
▁1951	-10.8066
▁sapere	-10.8068
▁game	-10.8068
▁concesse	-10.8069
▁alberi	-10.807
▁spinge	-10.8093
▁realizzati	-10.8096
▁tranne	-10.81
▁quaranta	-10.8102
▁permettendo	-10.8107
▁stup	-10.8108
▁fonde	-10.811
mission	-10.8112
▁combatte	-10.8114
▁circolare	-10.8116
▁ricche	-10.812
▁norvegia	-10.8122
▁saccheggi	-10.8122
▁automobili	-10.8122
▁santuario	-10.8122
▁danneggia	-10.8122
astronomo	-10.8122
▁affari	-10.8122
▁imperiali	-10.8124
▁disegni	-10.8125
▁2023	-10.8128
▁massimi	-10.8133
ficò	-10.8138
▁pura	-10.8147
▁compare	-10.8148
▁annunci	-10.8151
amicizia	-10.8152
▁immagina	-10.8157
▁tipiche	-10.8161
intensa	-10.8162
slav	-10.8164
▁karl	-10.8168
accelerazione	-10.8169
▁inaugurato	-10.8176
▁messina	-10.8176
▁influenze	-10.8183
▁sicuramente	-10.8183
▁svolgono	-10.8183
▁zolfo	-10.8183
▁polacchi	-10.8183
▁espresse	-10.8183
▁produzioni	-10.8183
▁dolce	-10.8184
▁pesaro	-10.8184
▁cosmo	-10.8184
▁catal	-10.8187
▁dotata	-10.8187
▁interventi	-10.8187
battuto	-10.8188
chan	-10.8188
▁space	-10.8195
▁acidi	-10.8195
▁selezione	-10.82
▁naviga	-10.8204
▁psicologi	-10.8204
▁ridurre	-10.8205
▁cancella	-10.8208
▁emana	-10.8208
▁concede	-10.8208
▁statistiche	-10.8213
▁mitologia	-10.8215
▁marine	-10.823
▁private	-10.8236
▁attira	-10.8239
uch	-10.8239
▁contribuì	-10.8245
▁approfond	-10.8245
▁semplifica	-10.8245
▁minoranza	-10.8245
▁censimento	-10.8245
▁tensione	-10.8245
▁savona	-10.8245
▁intitolata	-10.8245
▁trasmette	-10.8246
▁espressioni	-10.8247
▁definite	-10.825
▁presidi	-10.8254
eccezione	-10.8255
avvio	-10.8256
▁mobile	-10.8258
▁distante	-10.826
▁lanciato	-10.8261
▁coloni	-10.8261
sql	-10.8266
▁coltivazione	-10.8271
estrema	-10.8274
▁terreni	-10.8294
▁sperimentali	-10.8304
▁miglia	-10.8307
▁svizzero	-10.8307
▁sovietiche	-10.8307
▁riflette	-10.8307
▁tiene	-10.8308
▁tibet	-10.8309
▁connessione	-10.8311
abbandono	-10.8311
▁durò	-10.8316
▁blues	-10.8323
▁abitati	-10.8328
▁umane	-10.8331
▁privo	-10.8334
▁marino	-10.8355
▁generalizza	-10.8356
▁esseri	-10.8369
algoritmo	-10.837
▁aggiunse	-10.837
▁continue	-10.837
▁rimasta	-10.837
▁opposto	-10.8372
▁allunga	-10.8373
▁venisse	-10.8374
▁trent	-10.8375
▁tevere	-10.8379
aceae	-10.8379
▁archivi	-10.8385
cula	-10.8385
▁roccia	-10.8388
▁stimato	-10.8392
▁martino	-10.841
occidentale	-10.8411
▁brucia	-10.8414
posizioni	-10.8416
▁scrittori	-10.8421
▁collezioni	-10.8421
iii	-10.8429
▁concessi	-10.8431
▁esigenze	-10.8433
▁heisenberg	-10.8433
▁videogiochi	-10.8433
▁bianchi	-10.8433
▁espresso	-10.8433
▁feudo	-10.8433
▁massicce	-10.8433
▁riserve	-10.8433
▁brasile	-10.8433
▁ridotta	-10.8433
▁demografica	-10.8433
▁visualizza	-10.8433
▁guarda	-10.8435
▁1958	-10.8436
▁1932	-10.8437
▁inviò	-10.844
▁significativo	-10.8442
rald	-10.8443
▁gaber	-10.8448
▁vicinanza	-10.8449
▁team	-10.8451
▁regge	-10.8466
tenenti	-10.848
▁onori	-10.848
▁televisiva	-10.8496
▁concilio	-10.8496
▁missioni	-10.8496
▁foresta	-10.8498
arresto	-10.851
▁modena	-10.8512
▁turistico	-10.8519
▁taglio	-10.8522
▁carboni	-10.8544
▁pesci	-10.8545
▁democratica	-10.856
cavalieri	-10.856
acronimo	-10.856
▁concerti	-10.856
▁corazzata	-10.856
▁elevate	-10.856
▁vincenzo	-10.8561
▁catene	-10.8562
▁convento	-10.8563
▁1955	-10.8565
▁center	-10.8573
ferì	-10.8588
▁nazionalità	-10.8593
intenzione	-10.8596
▁nobile	-10.8602
▁creò	-10.8603
amante	-10.861
oriente	-10.8622
hockey	-10.8624
▁costringe	-10.8624
▁giornale	-10.8624
▁seicento	-10.8624
▁boreale	-10.8624
▁scritte	-10.8624
▁orbite	-10.8625
▁negativo	-10.8626
▁responsabilità	-10.8627
▁bombardamento	-10.8628
sburg	-10.8629
▁progettato	-10.8634
▁gallo	-10.8641
▁vecchi	-10.8645
▁corea	-10.8646
▁progettazione	-10.8646
ugu	-10.865
aumento	-10.8653
▁ritard	-10.8653
▁estera	-10.8661
▁partecipanti	-10.8664
▁sovrani	-10.8665
_12	-10.8674
▁frequente	-10.8679
▁veloce	-10.8679
▁cosm	-10.8681
100	-10.8684
▁society	-10.8688
▁vulcani	-10.8688
uguaglianza	-10.8688
▁accumula	-10.8688
▁giudiziari	-10.8688
▁latitudine	-10.8688
▁olimpiade	-10.8688
▁milanese	-10.8688
▁carcere	-10.8689
▁cinesi	-10.8689
▁conservatori	-10.869
▁aggira	-10.8691
▁esistente	-10.8692
9%	-10.8693
▁1921	-10.8693
▁comportamenti	-10.8699
▁punte	-10.8707
▁piemontese	-10.8715
▁solido	-10.8727
misero	-10.8743
▁costruiti	-10.8744
genesi	-10.8752
▁algoritmi	-10.8753
▁qualcosa	-10.8753
▁sostituzione	-10.8753
esecutivo	-10.8753
▁lombarda	-10.8753
▁strategia	-10.8753
▁scelse	-10.8753
▁critico	-10.8753
▁sportive	-10.8753
▁rinvenut	-10.8753
▁ottimi	-10.8754
▁contenere	-10.8754
▁attrezz	-10.8754
▁decisioni	-10.8758
▁console	-10.8764
▁impiegati	-10.8764
▁fedeli	-10.8769
▁intensi	-10.8769
▁egizi	-10.8771
costellazione	-10.8802
▁vivono	-10.8804
▁rivendica	-10.8819
▁configurazione	-10.8819
▁nipote	-10.8819
▁capitolo	-10.8819
▁angolare	-10.8819
▁venendo	-10.8819
▁borboni	-10.882
▁lunghezze	-10.882
▁punteggio	-10.882
wy	-10.8837
ppure	-10.8845
secondo	-10.8847
etichetta	-10.8861
back	-10.8863
▁latini	-10.8868
▁capitano	-10.887
▁costituiva	-10.8877
▁belle	-10.888
▁giuliano	-10.8883
▁aggiunto	-10.8884
▁canadese	-10.8884
▁ognuno	-10.8884
▁giudizio	-10.8884
▁stipula	-10.8884
▁positiva	-10.8884
▁divinità	-10.8884
▁seguirono	-10.8884
▁battista	-10.8884
▁permanente	-10.8884
▁indirizza	-10.8885
▁silicio	-10.8885
▁musicisti	-10.8885
▁pilota	-10.8885
sentì	-10.8885
▁minimi	-10.8886
▁dvd	-10.8886
▁distretti	-10.8886
▁spinse	-10.8891
▁transito	-10.8892
▁inclusi	-10.8892
▁prestazioni	-10.8899
ming	-10.8904
coltura	-10.8905
▁arrivando	-10.8909
▁giovi	-10.892
▁meteo	-10.892
▁castelli	-10.8928
▁solida	-10.8935
cellula	-10.8937
▁giornalisti	-10.8938
▁atene	-10.8941
▁prosegue	-10.8951
esercizio	-10.8951
▁microscopi	-10.8951
▁drappo	-10.8951
▁incluso	-10.8951
argentina	-10.8952
▁1957	-10.8954
▁producono	-10.8956
▁naturalmente	-10.8957
▁distribuzioni	-10.8965
▁joan	-10.8969
arancio	-10.8975
▁cantante	-10.8977
▁sostenne	-10.8984
▁dominante	-10.8987
▁attive	-10.8988
dipendentemente	-10.8991
elaborazione	-10.8997
▁esib	-10.9003
ulteriore	-10.9003
▁vibra	-10.9009
shōnen	-10.9017
▁spontanea	-10.9017
▁mercurio	-10.9017
▁domenico	-10.9017
▁poesia	-10.9017
agostino	-10.9017
▁sportivi	-10.9018
▁1931	-10.9022
▁1953	-10.9023
▁venga	-10.9032
▁cittadinanza	-10.9033
▁colonizza	-10.904
▁tv	-10.9049
abitato	-10.9055
integrazione	-10.9056
▁dominazione	-10.9063
▁voler	-10.9065
▁michel	-10.9067
cerchi	-10.9075
▁antoni	-10.9076
▁russi	-10.9076
▁fotoni	-10.9081
efficienza	-10.9084
▁strategica	-10.9084
▁medesimo	-10.9084
▁sforzi	-10.9084
atteggiamento	-10.9085
orchestra	-10.9085
▁qualifica	-10.9086
▁attribuito	-10.9087
▁voluto	-10.9095
▁brigat	-10.911
▁fortezza	-10.9114
▁imposta	-10.9117
guerra	-10.9134
▁giusti	-10.9135
▁femminili	-10.9152
▁intellettuali	-10.9152
▁francisco	-10.9152
▁troviamo	-10.9152
esperanto	-10.9152
▁accettò	-10.9152
▁enormi	-10.9152
▁licenze	-10.9152
▁schiavi	-10.9152
▁folk	-10.9152
▁concorda	-10.9153
▁materie	-10.9153
▁disposizioni	-10.9153
▁argomenti	-10.9155
▁triangolo	-10.9155
▁orbitali	-10.9157
crea	-10.9198
▁impedire	-10.9205
galat	-10.9207
▁necessarie	-10.921
▁lituania	-10.922
▁nomenclatura	-10.922
▁viceversa	-10.922
▁galattico	-10.922
▁specula	-10.922
▁mantenendo	-10.922
▁galleria	-10.922
▁portaerei	-10.922
▁pittura	-10.922
▁proteina	-10.922
▁consulta	-10.9221
▁delibera	-10.9221
indeterminazione	-10.9222
letteralmente	-10.9224
▁felice	-10.9225
▁pubblicazioni	-10.9232
rettamente	-10.9233
▁nichel	-10.9236
▁commissario	-10.9252
▁dipendenti	-10.9263
▁letteraria	-10.9264
▁vecchie	-10.9283
abita	-10.9285
▁cristiano	-10.9288
▁football	-10.9288
▁professionale	-10.9288
▁molteplici	-10.9288
▁prolunga	-10.9288
▁singole	-10.929
▁disastro	-10.9294
▁marx	-10.9297
field	-10.9298
▁condusse	-10.9305
regola	-10.9305
▁gialla	-10.9305
▁certamente	-10.9319
▁atomo	-10.9321
▁protoni	-10.9325
▁profonda	-10.9348
▁esemplari	-10.9357
▁studente	-10.9357
ventuale	-10.9357
▁radioattivo	-10.9357
▁risiede	-10.9357
▁descritta	-10.9357
▁henry	-10.9357
▁1861	-10.9357
▁imbarca	-10.9358
▁fondò	-10.9358
intento	-10.9359
▁radiazioni	-10.9359
▁funzionari	-10.936
tsu	-10.9362
▁costiera	-10.9365
▁pratiche	-10.9365
▁profondamente	-10.9366
▁tomba	-10.937
work	-10.937
▁grazia	-10.9372
▁cooperazione	-10.9377
▁consider	-10.9395
▁facilita	-10.9396
▁lord	-10.9399
▁cloro	-10.9411
▁rinascimento	-10.9427
▁risorgimento	-10.9427
▁spettrale	-10.9427
▁diagramma	-10.9429
▁eccezioni	-10.9429
▁condotti	-10.9429
▁scambia	-10.9441
▁rigel	-10.9447
▁onora	-10.9458
assorbimento	-10.9462
▁ricercatori	-10.9469
▁gelli	-10.947
luvio	-10.9477
▁veloci	-10.9492
▁christ	-10.9494
▁angeles	-10.9497
▁democratico	-10.9497
▁friedrich	-10.9497
▁sconfitto	-10.9497
▁sterminio	-10.9497
▁proiezione	-10.9497
▁seleziona	-10.9497
▁cinquecento	-10.9497
indirizzo	-10.9497
▁esperti	-10.9497
▁cagliari	-10.9497
▁insignit	-10.9498
zzu	-10.9501
estremità	-10.9502
▁commission	-10.9508
▁corrispondenti	-10.9527
▁letterario	-10.9527
▁roll	-10.9531
kra	-10.956
elementi	-10.9565
▁familiari	-10.9567
▁procedura	-10.9567
▁malgrado	-10.9567
▁dubbio	-10.9567
▁ravenna	-10.9567
▁atlantico	-10.9568
camera	-10.9573
▁produttori	-10.9573
▁convoca	-10.9573
▁francesca	-10.9574
▁giustifica	-10.9577
▁daniel	-10.9578
▁versante	-10.9582
▁complessità	-10.9584
▁nostri	-10.9587
▁scambi	-10.959
▁nemici	-10.959
▁music	-10.9591
_9	-10.9595
esame	-10.9602
▁esplora	-10.9618
▁jugoslavia	-10.9638
▁lussemburgo	-10.9638
▁nebulose	-10.9638
▁razionali	-10.9638
▁desiderio	-10.9638
▁magnesio	-10.9638
artigianato	-10.9638
▁comunali	-10.9638
▁costruzioni	-10.9638
▁giudice	-10.9638
▁critici	-10.9638
vangeli	-10.9638
▁connessi	-10.9639
▁quadrato	-10.964
▁baia	-10.9642
▁esterne	-10.9642
▁decisamente	-10.9643
unesco	-10.9645
▁avrà	-10.9652
ammiraglio	-10.9652
ghetti	-10.9665
▁varianza	-10.9667
ciclo	-10.9667
signor	-10.9684
▁soggett	-10.9689
▁peter	-10.9694
▁yu	-10.9695
▁alimentari	-10.9701
▁dedicò	-10.9709
▁necessita	-10.9709
▁stallman	-10.9709
▁invernale	-10.9709
▁spagnoli	-10.971
▁olimpiadi	-10.971
▁destinato	-10.971
▁composte	-10.971
▁sentenza	-10.971
▁fumetto	-10.971
▁ripeti	-10.9711
▁1915	-10.9716
▁complica	-10.972
▁differisc	-10.972
▁play	-10.9721
allevamento	-10.9726
▁manifest	-10.9731
▁polari	-10.9731
▁tetra	-10.9732
▁emigra	-10.9746
editore	-10.9747
▁sodio	-10.9747
▁neutro	-10.9756
▁significativa	-10.9768
▁costituiti	-10.9771
probabil	-10.9774
berlin	-10.978
arcipelago	-10.9781
▁elementari	-10.9781
▁raggiungono	-10.9781
copyright	-10.9781
▁arthur	-10.9781
▁euclide	-10.9781
▁cremona	-10.9782
▁divenuta	-10.9782
▁descritti	-10.9782
▁convince	-10.9783
▁ibm	-10.9783
▁dovute	-10.9783
▁convinto	-10.9784
▁pianoforte	-10.9784
▁compongono	-10.9784
▁1908	-10.9785
ball	-10.9786
▁sovranità	-10.9787
▁pasqua	-10.9787
▁iniziative	-10.9791
▁largamente	-10.9796
▁distinte	-10.9798
▁rilevanza	-10.9809
▁accoglie	-10.9814
kon	-10.9841
▁hill	-10.9843
▁perfettamente	-10.9854
▁prospettiva	-10.9854
▁filosofo	-10.9854
▁circostante	-10.9854
▁sabbia	-10.9854
▁coalizione	-10.9854
▁cavalli	-10.9854
▁incontri	-10.9854
▁tendono	-10.9855
▁sfida	-10.9857
▁gustav	-10.9857
▁confronta	-10.9858
▁termica	-10.9859
▁sfruttamento	-10.988
▁telescopi	-10.988
▁piatti	-10.9896
acciaio	-10.99
▁molt	-10.991
▁leonardo	-10.9927
▁spirituale	-10.9927
▁vespasiano	-10.9927
▁chopin	-10.9927
▁source	-10.9927
▁rinforz	-10.9927
▁teatri	-10.9927
▁indagini	-10.9927
▁anticipa	-10.9927
▁potenti	-10.9928
▁spettacoli	-10.9928
▁frontiera	-10.9929
▁competenza	-10.9931
▁amministrazioni	-10.9939
▁ferroviario	-10.9939
▁jazz	-10.995
▁guido	-10.9952
_11	-10.9963
oratorio	-10.9981
appello	-10.9985
▁perfezion	-10.9985
kel	-10.9994
▁organo	-10.9996
▁raccomand	-11
appennino	-11
▁cetacei	-11
▁costrinse	-11
▁crawford	-11
▁sessuale	-11
▁dolomiti	-11
▁database	-11
▁rispose	-11.0001
▁rossini	-11.0001
▁profilo	-11.0001
▁dotati	-11.0004
▁vicenda	-11.0005
▁cifre	-11.0015
▁giunto	-11.0022
olio	-11.0046
▁park	-11.0054
▁etero	-11.0058
▁propaga	-11.0061
▁ritorn	-11.0063
uscì	-11.0064
▁efficiente	-11.0074
▁gradualmente	-11.0074
▁cittadine	-11.0074
▁difficili	-11.0074
▁scozzese	-11.0074
▁rifiuto	-11.0075
▁scoperti	-11.0075
▁prodotte	-11.0075
▁trapani	-11.0076
▁friuli	-11.0076
australia	-11.0076
▁clemente	-11.0076
▁polvere	-11.0077
▁incentrat	-11.0079
fort	-11.0085
▁orione	-11.0085
▁incendi	-11.011
house	-11.0119
▁vedeva	-11.0129
▁genovese	-11.0149
▁intellettuale	-11.0149
▁giuridica	-11.0149
▁pantani	-11.015
▁intenso	-11.015
▁realizzò	-11.015
▁approssimativa	-11.0151
▁concepit	-11.0151
infinito	-11.0151
▁polimeri	-11.0155
▁significative	-11.0157
▁show	-11.016
▁estese	-11.0165
▁equipaggi	-11.0168
asburgo	-11.0169
▁pagamento	-11.0172
▁ampie	-11.0177
▁cominciarono	-11.0179
▁instabili	-11.0185
esclusione	-11.0203
▁argo	-11.0216
▁coinvolto	-11.0224
▁contemporanei	-11.0224
▁ginevra	-11.0224
▁riuscendo	-11.0224
▁washington	-11.0224
▁millennio	-11.0224
▁corazzate	-11.0224
▁university	-11.0224
entroterra	-11.0224
▁modulo	-11.0224
▁fiscale	-11.0224
▁radicale	-11.0224
▁antropica	-11.0224
▁branca	-11.0227
bandiere	-11.0228
▁distacca	-11.0228
▁1901	-11.0228
▁1905	-11.0229
▁dipinti	-11.0234
▁status	-11.0234
▁insegnamenti	-11.0234
▁vantaggi	-11.0234
▁pressioni	-11.0235
▁vertici	-11.0241
▁miglioramento	-11.0246
▁radioattivi	-11.0255
▁testamento	-11.0263
▁attesa	-11.0266
▁precede	-11.0274
▁ugo	-11.0292
▁stretta	-11.0292
artiglieria	-11.03
dimensionale	-11.03
▁abbondante	-11.03
▁cristallo	-11.03
▁incoraggia	-11.03
▁occupò	-11.03
elecomunicazioni	-11.03
▁malattie	-11.03
▁rallenta	-11.03
▁parallelo	-11.03
▁dilettanti	-11.03
▁annuale	-11.03
▁arabo	-11.0304
personal	-11.0304
▁liceo	-11.0304
sanitari	-11.0304
▁inverni	-11.0305
▁chiusa	-11.0305
affermazione	-11.0306
▁vicinanze	-11.0307
attentato	-11.0317
osservatore	-11.0322
vengono	-11.0325
▁parchi	-11.0331
▁fauna	-11.0339
hip	-11.0341
▁appars	-11.0351
▁bomba	-11.0365
▁turistica	-11.0369
duttori	-11.037
▁compositore	-11.0376
▁contribuito	-11.0376
▁gerusalemme	-11.0376
▁morfologia	-11.0376
▁annulla	-11.0377
▁cancro	-11.0377
▁mercati	-11.0377
▁amministrativo	-11.0379
▁baseball	-11.038
▁foreste	-11.0382
▁ferroviarie	-11.0385
▁aeree	-11.0386
▁valida	-11.0386
▁velocemente	-11.0387
▁apparentemente	-11.0389
▁corretto	-11.0399
▁nativi	-11.041
second	-11.0419
▁socialisti	-11.044
▁esclude	-11.0447
▁88	-11.0448
▁estremi	-11.0451
▁circola	-11.0451
▁esperienze	-11.0453
▁pallacanestro	-11.0453
▁sceneggiatura	-11.0453
▁tolkien	-11.0453
▁definì	-11.0453
▁teatrali	-11.0453
▁parziale	-11.0453
▁rivelò	-11.0453
▁banchi	-11.0454
▁autonomo	-11.0454
▁biella	-11.0454
▁sfocia	-11.0454
▁dimissioni	-11.0454
▁misteri	-11.0455
eccezion	-11.0458
▁seppe	-11.0462
▁difese	-11.0462
▁circondario	-11.0471
▁greche	-11.0483
assetto	-11.0485
▁jim	-11.0488
inerzia	-11.0492
▁risalent	-11.0494
▁avvis	-11.0498
apice	-11.0515
▁tutt	-11.053
▁comprensione	-11.0531
▁irregolari	-11.0531
▁cronometro	-11.0531
▁guccini	-11.0531
▁compiuto	-11.0531
▁replica	-11.0531
avventura	-11.0531
▁imperatori	-11.0531
▁miscela	-11.0531
▁vertice	-11.0531
▁complesse	-11.0531
eredità	-11.0533
▁sacri	-11.0536
▁staff	-11.0537
▁1911	-11.0538
▁chiuse	-11.0539
avvicina	-11.0539
▁tener	-11.0541
▁libere	-11.0542
animazione	-11.0552
▁scudo	-11.0561
▁picco	-11.0564
▁grandezze	-11.057
▁mantenuto	-11.0609
▁piattaforma	-11.0609
▁raccolte	-11.0609
▁raccolti	-11.0609
▁richiesto	-11.0609
▁consentono	-11.0609
▁diminuzione	-11.0609
▁depressione	-11.0609
▁risonanza	-11.0609
umidità	-11.0609
▁prototipo	-11.0609
▁crimini	-11.0609
▁ripartizione	-11.0609
▁visconti	-11.0609
▁emerse	-11.0611
▁stereo	-11.0612
▁parametro	-11.0613
▁1910	-11.0623
▁puglia	-11.0624
▁confess	-11.0626
well	-11.064
▁verbo	-11.0644
versione	-11.0673
success	-11.0677
scientific	-11.0683
▁circuito	-11.0688
▁combattimenti	-11.0688
▁incrementa	-11.0688
▁larghezza	-11.0688
▁provocò	-11.0688
obbligo	-11.0688
▁bilancia	-11.0688
▁chiunque	-11.0688
▁ospedali	-11.0688
▁sforzo	-11.0688
▁positivi	-11.0688
▁ripiega	-11.0688
▁nemmeno	-11.0688
▁fronti	-11.0688
▁parodia	-11.0688
emblema	-11.0688
▁divenendo	-11.0688
▁scheda	-11.069
dividono	-11.0691
ostilità	-11.0695
▁frequentemente	-11.0699
▁progressivo	-11.0703
▁digitali	-11.0707
▁villaggi	-11.073
atletica	-11.0731
enberg	-11.0739
rendono	-11.0743
▁800	-11.0747
ducono	-11.0762
▁raffredda	-11.0767
▁frequenze	-11.0767
▁giurisdizione	-11.0767
▁simboleggia	-11.0767
▁wilhelm	-11.0767
▁panorama	-11.0767
▁riconobbe	-11.0767
▁blocchi	-11.0767
▁ottenuta	-11.0767
▁arricchi	-11.0767
▁street	-11.0767
▁scelte	-11.0767
▁cresciut	-11.0767
▁preciso	-11.0767
▁rinomat	-11.0779
metalli	-11.0781
▁abiti	-11.0784
▁scarica	-11.079
angola	-11.0794
▁osservabili	-11.0811
metaboli	-11.0813
editor	-11.0835
▁basket	-11.0847
▁groenlandia	-11.0847
▁linguistiche	-11.0847
▁riconosciuti	-11.0847
▁siracusa	-11.0847
▁ristretta	-11.0847
▁energie	-11.0847
▁elevati	-11.0847
▁trascura	-11.0848
▁bartali	-11.0848
▁maschera	-11.0849
▁facilità	-11.0851
▁continuità	-11.0851
▁roger	-11.0866
unitari	-11.0866
88"	-11.0888
▁somme	-11.0889
▁tifo	-11.0926
▁conquistò	-11.0928
▁mantenimento	-11.0928
▁criminali	-11.0928
▁olandese	-11.0928
▁copertura	-11.0928
▁proietta	-11.0928
ingegnere	-11.0928
▁toscano	-11.0928
immediato	-11.0928
▁sottile	-11.0929
▁instaura	-11.0929
soviet	-11.0932
▁audio	-11.0938
▁act	-11.0941
iscrizione	-11.0943
▁pezzo	-11.0955
▁uscire	-11.0985
prendono	-11.1008
▁ambientale	-11.1009
▁ambientali	-11.1009
▁appaiono	-11.1009
▁firewall	-11.1009
▁maxwell	-11.1009
▁cattolico	-11.1009
▁stimola	-11.1009
▁zelanda	-11.1009
▁pompe	-11.1009
▁lontana	-11.101
▁dolci	-11.101
▁ingegneri	-11.1012
▁cosenza	-11.1026
▁bohr	-11.1027
▁pienamente	-11.1027
archivio	-11.1033
▁contrari	-11.1056
▁gaio	-11.1074
aviazione	-11.1077
▁riuscir	-11.1079
▁agricole	-11.1091
▁aprì	-11.1091
▁hepburn	-11.1091
▁olimpica	-11.1091
▁mostrò	-11.1091
▁wilson	-11.1091
▁binocolo	-11.1091
▁altresì	-11.1091
▁wright	-11.1092
▁consumo	-11.1092
▁mattina	-11.1095
▁tematiche	-11.1095
▁dipinto	-11.1096
▁sosteneva	-11.1096
andamento	-11.11
▁indiano	-11.1101
▁nuoro	-11.1104
cinque	-11.1109
▁consentire	-11.1121
▁morali	-11.1135
incendio	-11.1136
facente	-11.1146
professioni	-11.1168
duttore	-11.1168
▁analogamente	-11.1174
▁foundation	-11.1174
▁liechtenstein	-11.1174
▁tolomeo	-11.1174
▁pallavolo	-11.1174
▁veicoli	-11.1174
▁dollaro	-11.1174
▁incluse	-11.1174
▁comprendono	-11.1178
▁personalmente	-11.1178
▁zeus	-11.1186
installazione	-11.1198
▁laboratori	-11.121
automa	-11.123
adattamento	-11.1247
▁columbia	-11.1257
▁globulari	-11.1257
▁ognuna	-11.1257
▁pacchetti	-11.1257
▁rimpiazz	-11.1257
▁protocolli	-11.1257
▁discreta	-11.1257
▁campania	-11.1257
▁cinetica	-11.1257
▁scherma	-11.1257
▁convenzioni	-11.1258
▁enzimi	-11.1258
▁impose	-11.1258
▁commenta	-11.1258
▁circostanti	-11.1258
▁nuota	-11.1259
▁consacr	-11.126
▁destino	-11.1261
▁restauro	-11.1263
▁caratteristico	-11.1264
▁speranza	-11.1265
▁tenendo	-11.1268
cronologi	-11.1293
impression	-11.1294
▁gem	-11.1299
▁avvenimenti	-11.1341
▁houston	-11.1341
▁linguistico	-11.1341
▁riconquista	-11.1341
▁aleatoria	-11.1341
▁professione	-11.1341
▁sostenitori	-11.1341
▁ottenuti	-11.1341
▁colloqui	-11.1341
▁battuta	-11.1341
▁vaticano	-11.1341
▁moduli	-11.1341
▁supernove	-11.1341
▁tavolo	-11.1341
▁adottò	-11.1341
▁famose	-11.1342
▁protette	-11.1342
british	-11.1342
▁distrutto	-11.1343
▁alternative	-11.1344
▁turchia	-11.1345
▁riposo	-11.1345
▁concessione	-11.1346
complessivamente	-11.1347
▁compatibili	-11.1347
▁ellen	-11.1348
▁giaciment	-11.1348
▁incass	-11.1349
pubblica	-11.1351
metraggi	-11.1352
▁presenze	-11.1355
enorme	-11.1363
▁ordinari	-11.1367
▁parecchi	-11.1388
ough	-11.1405
▁caligola	-11.1426
▁pallanuoto	-11.1426
▁circum	-11.1426
▁coscienza	-11.1426
▁reddito	-11.1426
▁culture	-11.1426
▁fontana	-11.1426
▁inserita	-11.1426
▁ottomano	-11.1426
▁vittima	-11.1426
▁concerne	-11.1426
▁distrutta	-11.1427
▁adolf	-11.1427
▁henri	-11.1428
▁produsse	-11.1428
universal	-11.1428
▁favorevoli	-11.1429
▁sanguin	-11.1434
▁compiti	-11.144
▁definitivo	-11.1442
▁apparire	-11.1464
acquisto	-11.1478
general	-11.1489
certa	-11.149
▁richiam	-11.1502
▁esordi	-11.1503
▁corrispondono	-11.1511
▁sviluppi	-11.1511
▁bilancio	-11.1511
▁rugby	-11.1511
▁arbitra	-11.1511
▁culmina	-11.1511
▁benedetti	-11.1511
▁coniuga	-11.1511
▁reggimento	-11.1511
▁revisione	-11.1511
inflazione	-11.1511
▁descrisse	-11.1512
▁oppose	-11.1512
arsenico	-11.1512
▁banco	-11.1512
▁regolamenta	-11.1512
estinzione	-11.1517
▁clero	-11.152
fisiologi	-11.1522
▁salvatore	-11.1525
▁rango	-11.1528
▁prosper	-11.1529
▁istat	-11.1545
▁tull	-11.1554
bald	-11.1578
heim	-11.1592
▁responsabili	-11.1593
▁accredita	-11.1597
dungeon	-11.1597
▁goebbels	-11.1597
▁monumentale	-11.1597
▁potassio	-11.1597
▁trasferito	-11.1597
opportunità	-11.1597
▁plurale	-11.1597
▁giardino	-11.1597
▁traguardo	-11.1597
▁censura	-11.1597
▁memorie	-11.1597
▁router	-11.1598
▁rottura	-11.1598
compositori	-11.1598
▁vocale	-11.1598
▁condensa	-11.1598
▁statue	-11.1599
▁inclin	-11.1599
▁evidenti	-11.1599
▁tornei	-11.16
▁colonnello	-11.1603
▁braccia	-11.1603
▁tavole	-11.1616
▁polare	-11.1617
▁uccisi	-11.1637
intelligenza	-11.1684
▁amminoacidi	-11.1684
▁incontrò	-11.1684
▁scienziato	-11.1684
▁jacques	-11.1684
▁medesima	-11.1684
▁nasconde	-11.1684
▁distinguono	-11.1684
▁performance	-11.1684
▁sloveni	-11.1684
▁prefetto	-11.1684
▁teorico	-11.1684
▁institute	-11.1685
▁ridotte	-11.1685
▁grafico	-11.1685
ntiene	-11.1686
▁compagni	-11.1687
▁sensibili	-11.1687
▁andré	-11.169
▁pacifica	-11.1692
▁tipologia	-11.1698
▁funge	-11.1701
agiscono	-11.1707
▁dimentica	-11.171
77"	-11.171
▁nastro	-11.1712
specie	-11.1714
▁illumina	-11.1717
63"	-11.1724
invio	-11.1734
▁cattedra	-11.1737
branch	-11.1753
▁tant	-11.1758
campi	-11.1759
▁artificiali	-11.1772
▁bressanone	-11.1772
▁familiare	-11.1772
▁immigrati	-11.1772
▁longobardi	-11.1772
▁lufthansa	-11.1772
orizzonte	-11.1772
▁ruggero	-11.1772
▁partì	-11.1772
▁ragazza	-11.1772
▁simpson	-11.1772
▁chitarre	-11.1772
armistizio	-11.1772
▁invisibile	-11.1772
▁emacs	-11.1772
▁taranto	-11.1772
▁polacca	-11.1772
▁previsti	-11.1773
▁situati	-11.1773
▁miniere	-11.1773
▁monitor	-11.1773
▁petrolio	-11.1774
▁composizioni	-11.1775
▁ambiti	-11.1775
▁dovuti	-11.1775
▁balcani	-11.1776
▁subisce	-11.1778
▁assassina	-11.1781
▁spettatori	-11.1784
▁apostoli	-11.1788
emilia	-11.1802
aereo	-11.1822
▁vettori	-11.1858
▁incursioni	-11.1861
▁municipio	-11.1861
▁napoletano	-11.1861
▁nobiltà	-11.1861
▁pellicole	-11.1861
▁roosevelt	-11.1861
accrescimento	-11.1861
▁tipologie	-11.1861
▁alfabeti	-11.1861
▁costumi	-11.1861
▁cabalisti	-11.1861
▁cambiò	-11.1861
▁striscia	-11.1861
▁specchio	-11.1861
▁finanziat	-11.1861
▁ubicat	-11.1861
▁tollera	-11.1861
▁rimasti	-11.1861
▁league	-11.1862
▁monaci	-11.1862
▁opposta	-11.1862
▁calcare	-11.1864
assegnazione	-11.1866
▁calcoli	-11.1867
▁sensibilità	-11.1869
▁ettari	-11.1885
veneto	-11.1901
▁autonomi	-11.1908
▁caltagirone	-11.195
▁legislativo	-11.195
▁possedimenti	-11.195
▁supergiganti	-11.195
▁galileo	-11.195
▁riconoscimenti	-11.195
▁denuncia	-11.195
▁campanile	-11.195
▁terroristi	-11.195
▁regolarmente	-11.195
▁affreschi	-11.1951
▁sintassi	-11.1951
▁cardinali	-11.1951
▁sicuro	-11.1953
▁acqui	-11.1954
▁bellezza	-11.1955
▁biologico	-11.1958
▁1912	-11.1958
corpus	-11.1961
abate	-11.1962
gruppo	-11.1986
argi	-11.2018
elevata	-11.203
▁ingloba	-11.204
▁introdotte	-11.204
▁riconosciute	-11.204
▁svizzeri	-11.204
infrarosso	-11.204
▁giardini	-11.204
▁borghese	-11.204
▁crittografia	-11.204
▁dintorni	-11.204
▁progresso	-11.204
▁incrocia	-11.204
▁viterbo	-11.204
▁rilievi	-11.204
▁registri	-11.204
▁riempi	-11.204
▁doors	-11.204
▁consentito	-11.2041
▁significativi	-11.2042
▁distribuita	-11.2043
▁raggiunta	-11.2044
▁patrizi	-11.2045
▁attribuita	-11.2045
▁discesa	-11.2046
▁conteneva	-11.2046
▁1916	-11.2048
▁candidatura	-11.2048
boot	-11.2049
▁prigioni	-11.2129
abete	-11.213
▁bizantino	-11.2131
▁depositi	-11.2131
▁scioglimento	-11.2131
▁televisive	-11.2131
▁televisivo	-11.2131
▁anniversario	-11.2131
▁olbia	-11.2131
▁sorpresa	-11.2131
▁trionfo	-11.2131
▁memorizza	-11.2131
▁vissuto	-11.2131
▁gagarin	-11.2131
▁medievali	-11.2131
▁destinati	-11.2131
▁supremo	-11.2131
▁nettuno	-11.2131
▁stor	-11.2131
▁archeologico	-11.2131
▁analogo	-11.2132
▁dentro	-11.2132
▁radicali	-11.2132
▁competenze	-11.2133
▁black	-11.2136
▁gambe	-11.2137
▁particolar	-11.214
▁ratifica	-11.2152
bandiera	-11.2167
head	-11.222
immigrazione	-11.2223
▁keynes	-11.2223
▁latitudini	-11.2223
▁pacchetto	-11.2223
▁settentrionali	-11.2223
▁ripristina	-11.2223
▁schiaccia	-11.2223
▁ritenuta	-11.2223
▁malware	-11.2223
▁parentesi	-11.2223
eccellenza	-11.2223
▁apporta	-11.2223
▁mazzini	-11.2223
▁villon	-11.2223
▁proteste	-11.2223
▁fortificazioni	-11.2224
▁avvenire	-11.2227
▁giudici	-11.2231
distingu	-11.2244
▁brian	-11.2249
text	-11.2252
rappresentazione	-11.2258
reichs	-11.2264
▁insetti	-11.2294
imponente	-11.2297
▁espressi	-11.2309
slov	-11.231
economic	-11.2312
ucraina	-11.2315
▁dispositivo	-11.2315
▁eiffel	-11.2315
▁legislazione	-11.2315
▁pinochet	-11.2315
▁riuscito	-11.2315
▁svariati	-11.2315
▁sequenze	-11.2315
▁amedeo	-11.2315
▁rivolge	-11.2315
▁terremoto	-11.2315
▁chiusi	-11.2316
▁ripreso	-11.2316
▁pluri	-11.2316
▁padana	-11.2316
▁platino	-11.2316
▁padri	-11.2317
appropri	-11.2318
▁peculiarità	-11.2318
▁mentale	-11.2318
▁esposto	-11.2321
▁novità	-11.2326
▁ghiacci	-11.2359
inizi	-11.237
▁minor	-11.237
▁norvegese	-11.2409
▁orizzontale	-11.2409
▁procedure	-11.2409
▁richiedono	-11.2409
▁suddivide	-11.2409
▁edward	-11.2409
▁ascolta	-11.2409
▁sbarco	-11.2409
▁destinazione	-11.2409
▁ricorso	-11.2409
▁segreti	-11.2409
▁convinse	-11.2409
▁iscritti	-11.2409
▁preserva	-11.241
▁geografiche	-11.2411
apporto	-11.2412
▁ribellione	-11.2412
▁debito	-11.2418
▁andando	-11.2425
▁giovan	-11.2442
aveva	-11.2452
ossola	-11.2454
ampiezza	-11.2472
profit	-11.2478
▁strategico	-11.2503
▁andromeda	-11.2503
▁recupero	-11.2503
▁sconfisse	-11.2503
▁circostanze	-11.2503
▁eserciti	-11.2503
▁elettriche	-11.2503
▁patriarca	-11.2503
insurrezione	-11.2503
elettromagnetico	-11.2503
▁feudale	-11.2503
▁terminò	-11.2503
▁salerno	-11.2504
apparizione	-11.2504
▁cassino	-11.2504
▁disposti	-11.2505
▁elettorale	-11.2506
diagnostic	-11.2507
▁1906	-11.2509
▁araba	-11.2509
▁walter	-11.251
abolizione	-11.2513
acquisizione	-11.2525
▁settima	-11.2532
▁attratt	-11.2541
61"	-11.2548
ington	-11.2592
arcivescovo	-11.2598
▁coefficienti	-11.2598
▁python	-11.2598
▁rinascita	-11.2598
▁berillio	-11.2598
▁tastiera	-11.2598
▁qualora	-11.2598
▁investimenti	-11.2598
▁compagno	-11.2599
▁modula	-11.2599
▁scoppia	-11.2599
▁laplace	-11.2599
▁schemi	-11.26
quartier	-11.2601
▁bbc	-11.2602
presidenti	-11.2602
▁matteo	-11.2603
▁1909	-11.2604
▁madri	-11.2609
▁coniato	-11.2613
ossia	-11.2614
enzima	-11.2633
gruppi	-11.2645
▁allarga	-11.2682
▁bombarda	-11.2684
▁buddhismo	-11.2694
▁fabbriche	-11.2694
▁manhattan	-11.2694
▁municipali	-11.2694
▁leibniz	-11.2694
▁ritengono	-11.2694
▁costume	-11.2694
arborea	-11.2694
▁concorrenza	-11.2694
▁ammonta	-11.2695
▁svolte	-11.2695
alluminio	-11.2695
▁nettamente	-11.2695
▁flussi	-11.2695
▁sergio	-11.2695
▁recò	-11.2697
▁bosoni	-11.2697
▁panzer	-11.2697
▁venere	-11.2699
▁capelli	-11.2699
▁ascii	-11.27
▁vendite	-11.27
▁colleghi	-11.2704
1/2	-11.2709
▁converge	-11.2712
▁falsi	-11.2713
▁vessillo	-11.2718
▁heinr	-11.2762
▁consegue	-11.2772
osservatorio	-11.2774
egò	-11.2783
onald	-11.2787
▁approfitta	-11.2791
▁coinvolti	-11.2791
▁cospicu	-11.2791
▁finlandese	-11.2791
▁membrana	-11.2791
▁meridiano	-11.2791
▁procedimento	-11.2791
▁barbarossa	-11.2791
▁giornate	-11.2791
▁invasioni	-11.2791
▁bergamo	-11.2792
▁indietro	-11.2792
▁public	-11.2792
▁rimaste	-11.2792
▁inclusa	-11.2792
▁uova	-11.2793
▁debba	-11.2794
▁deneb	-11.2794
▁manipola	-11.2795
costretti	-11.2795
▁spirit	-11.2795
▁futuri	-11.28
▁pascal	-11.2805
▁pubblicitari	-11.2806
▁servo	-11.2807
▁divulga	-11.2823
▁spunt	-11.283
eclittica	-11.289
▁soprannominat	-11.289
▁vegetali	-11.289
▁cefeidi	-11.289
▁storiografia	-11.289
▁pixel	-11.289
▁metabolismo	-11.289
inquinamento	-11.289
▁compenso	-11.289
▁compagna	-11.289
▁riviera	-11.289
▁sinistro	-11.289
▁compensa	-11.289
▁concorso	-11.289
▁angeli	-11.2891
▁esposta	-11.2893
▁vettoriale	-11.2893
attrazione	-11.2894
nuovo	-11.2941
▁vicari	-11.297
▁appennini	-11.2989
▁bahá	-11.2989
▁fosforo	-11.2989
▁asimov	-11.2989
▁eseguita	-11.2989
▁intraprese	-11.2989
▁philip	-11.2989
▁validità	-11.2989
▁partner	-11.2989
▁network	-11.2989
▁restaurazione	-11.2989
▁continenti	-11.2989
▁paziente	-11.2989
▁etruschi	-11.2989
▁girolamo	-11.2989
compaiono	-11.2989
▁sepolto	-11.2989
▁online	-11.2989
▁piloti	-11.299
▁sostengono	-11.2991
▁organizzò	-11.2991
,2%	-11.2991
▁wolf	-11.2993
light	-11.2993
▁scatena	-11.2994
▁percorsi	-11.2995
document	-11.2999
approssimazione	-11.3001
aeronautica	-11.3006
▁bombe	-11.3006
informatica	-11.3041
▁continui	-11.3084
▁californio	-11.3089
▁combustibile	-11.3089
▁juventus	-11.3089
▁magellano	-11.3089
▁mitocondri	-11.3089
▁considerevole	-11.3089
▁controversie	-11.3089
▁science	-11.3089
▁baviera	-11.3089
▁verticale	-11.3089
▁rigido	-11.3089
▁negativi	-11.3089
▁sfuma	-11.309
▁stretti	-11.309
▁sostenendo	-11.3092
▁computazion	-11.3094
accento	-11.3105
▁ragion	-11.3121
▁commissari	-11.3142
soprattutto	-11.3143
special	-11.3146
▁compete	-11.3188
aritmetica	-11.319
▁bonaparte	-11.319
▁kubrick	-11.319
▁margherita	-11.319
▁napoleonica	-11.319
▁sostanziale	-11.319
▁trasmesso	-11.319
▁versailles	-11.319
▁comics	-11.319
▁declinazione	-11.319
▁periferia	-11.319
▁reciproca	-11.319
▁chiamò	-11.319
▁zurigo	-11.319
▁marittima	-11.319
▁saturno	-11.319
▁rovigo	-11.319
seguimento	-11.319
▁offrire	-11.319
▁vandali	-11.3191
▁soppressione	-11.3191
child	-11.3191
▁distribuiti	-11.3192
▁legioni	-11.3192
▁ripete	-11.3192
▁segrete	-11.3194
▁1907	-11.3196
▁ignora	-11.3197
▁christian	-11.3203
antropi	-11.3227
insegna	-11.3241
autonomia	-11.3246
maggiore	-11.3248
edero	-11.3272
▁mitologi	-11.3286
▁appositamente	-11.3292
▁eugenio	-11.3292
▁intrinseca	-11.3292
▁istituzionale	-11.3292
▁magnitudini	-11.3292
▁proseguire	-11.3292
addestramento	-11.3292
▁portogallo	-11.3292
▁slogan	-11.3292
▁suicidio	-11.3292
▁prefisso	-11.3292
▁annualmente	-11.3292
▁numerazione	-11.3292
▁collettiva	-11.3292
▁contenuta	-11.3292
▁catalizza	-11.3292
immediata	-11.3292
▁allievi	-11.3292
omicidio	-11.3292
▁ribelli	-11.3292
▁cratere	-11.3292
▁uccise	-11.3292
▁piceno	-11.3293
▁emissioni	-11.3293
▁valido	-11.3293
▁cosmici	-11.3294
▁laterali	-11.3295
assalto	-11.3298
▁ceneri	-11.3299
▁insiste	-11.3299
▁riorganizza	-11.3306
▁accenn	-11.3326
▁cancell	-11.3338
▁quarant	-11.3349
teoria	-11.3359
▁certifica	-11.3394
▁abbandonò	-11.3395
▁manutenzione	-11.3395
▁sostituendo	-11.3395
▁risultò	-11.3395
▁possedeva	-11.3395
▁dipendono	-11.3395
▁spiaggia	-11.3395
▁commuta	-11.3395
▁dorsale	-11.3395
▁ristabili	-11.3395
▁previste	-11.3395
▁tessile	-11.3395
▁sottostante	-11.3395
▁marocco	-11.3396
▁coinvolgimento	-11.3396
▁geometrica	-11.3396
▁esamina	-11.3396
▁fuggire	-11.3397
assassinio	-11.3397
▁chiavi	-11.3397
▁chieti	-11.3398
▁adams	-11.3401
cilindr	-11.3415
▁innalza	-11.3416
sistemi	-11.3457
hotel	-11.3492
impossibilità	-11.3499
▁deposita	-11.3499
▁irregolare	-11.3499
▁napoletana	-11.3499
▁plebiscito	-11.3499
▁plutonio	-11.3499
▁soccorso	-11.3499
contrapposizione	-11.3499
▁dublino	-11.3499
▁giuridico	-11.3499
▁planck	-11.3499
▁ostacola	-11.3499
edilizia	-11.3499
▁convinzione	-11.3499
▁mescola	-11.3499
▁uscito	-11.3499
▁chiesto	-11.3499
▁sentimenti	-11.35
▁adulti	-11.35
▁musicista	-11.35
▁maestri	-11.3502
▁contrazione	-11.3503
orientamento	-11.3505
adige	-11.3523
aristocrazia	-11.3604
▁agricolo	-11.3604
▁coefficiente	-11.3604
▁hitchcock	-11.3604
▁introdotti	-11.3604
▁luminoso	-11.3604
▁distruggere	-11.3604
▁femmine	-11.3604
▁repertorio	-11.3604
▁repressione	-11.3604
▁violente	-11.3604
▁fedeltà	-11.3604
▁callisto	-11.3604
▁profonde	-11.3604
▁inserire	-11.3605
▁druso	-11.3605
élite	-11.3605
▁apollo	-11.3606
ebraismo	-11.3607
▁island	-11.3608
▁affili	-11.3608
offrì	-11.3609
▁sapeva	-11.3614
esordio	-11.3622
▁distrutti	-11.3632
nazionali	-11.3668
costellazioni	-11.367
▁quotidiana	-11.371
▁aristotele	-11.371
▁biblioteche	-11.371
▁cromosomi	-11.371
▁difensiva	-11.371
▁qualcuno	-11.371
▁ricostruire	-11.371
▁smtp	-11.371
▁governatorato	-11.371
▁automatico	-11.3711
▁stesura	-11.3711
▁nominò	-11.3711
▁ritratti	-11.3711
▁concluso	-11.3711
▁svolti	-11.3711
▁interroga	-11.3711
▁contrariamente	-11.3711
book	-11.3735
ontario	-11.3744
▁facili	-11.3754
▁cinquant	-11.3757
▁ghiacciai	-11.3758
▁global	-11.3776
tribuiscono	-11.3786
▁precipita	-11.3809
▁pseudo	-11.3818
▁cambridge	-11.3818
▁commodore	-11.3818
▁erroneamente	-11.3818
▁quattordici	-11.3818
▁suddivise	-11.3818
▁tassonomia	-11.3818
▁evidenza	-11.3818
▁liquida	-11.3818
▁manovra	-11.3818
▁adriatica	-11.3818
▁isaac	-11.3819
▁avvengono	-11.3819
▁curling	-11.382
▁decreta	-11.3821
▁schede	-11.3821
ificare	-11.3839
feld	-11.3859
wald	-11.3863
▁finalizzat	-11.3865
esplorazione	-11.3871
▁patrimoni	-11.388
eliminazione	-11.3913
▁sconfigge	-11.3927
foederati	-11.3927
▁aggiungono	-11.3927
▁agricoli	-11.3927
▁alexander	-11.3927
▁cavalleria	-11.3927
▁costituente	-11.3927
▁pianeggiante	-11.3927
▁svolgimento	-11.3927
▁tommaso	-11.3927
▁costretta	-11.3927
▁ceramica	-11.3927
▁borbone	-11.3927
▁corazzati	-11.3927
▁formule	-11.3927
▁frammenti	-11.3927
▁barocco	-11.3927
▁ospite	-11.3927
▁imposte	-11.3927
▁divieto	-11.3927
▁discendenti	-11.3928
▁coppe	-11.3929
▁civita	-11.393
▁iodio	-11.3932
▁venera	-11.3943
inclinazione	-11.3951
argent	-11.3964
ificio	-11.4004
▁accentua	-11.4037
▁aggiudica	-11.4037
▁algebrica	-11.4037
▁chaplin	-11.4037
▁cinematografico	-11.4037
▁feldmaresciallo	-11.4037
▁ludovico	-11.4037
▁meccanico	-11.4037
▁serpente	-11.4037
▁sfuggi	-11.4037
▁ugualmente	-11.4037
▁posteriori	-11.4037
▁sbarca	-11.4037
▁bibbia	-11.4037
▁tombe	-11.4037
▁permanenza	-11.4037
▁mineralogi	-11.4037
▁titolare	-11.4037
▁ciampi	-11.4037
▁innovazioni	-11.4037
cinematografiche	-11.4037
▁sacrifici	-11.4038
▁mezzogiorno	-11.4038
costruì	-11.4038
▁redatto	-11.4039
▁ottima	-11.4039
▁cieli	-11.4041
assassin	-11.4069
ovvero	-11.4112
accusa	-11.4112
nuova	-11.4114
fried	-11.4115
▁approssima	-11.4131
abbigliamento	-11.4148
▁marketing	-11.4148
▁ottaviano	-11.4148
▁risparmia	-11.4148
▁spirituali	-11.4148
▁violenta	-11.4148
▁grenoble	-11.4148
▁merckx	-11.4148
avvocato	-11.4148
▁edoardo	-11.4148
▁ottengono	-11.4148
▁agenzie	-11.4148
▁license	-11.4148
▁registro	-11.4148
▁tensioni	-11.4148
▁colombo	-11.4148
▁freddi	-11.4148
▁type	-11.4148
▁filtra	-11.4149
▁ritenne	-11.4149
▁meteoriti	-11.4149
▁farmaci	-11.4149
▁trascina	-11.4151
▁visual	-11.4174
entrarono	-11.4209
gestione	-11.4226
▁riscoss	-11.4238
▁avventure	-11.426
▁discreto	-11.426
▁teodorico	-11.426
▁vegetazione	-11.426
▁visigoti	-11.426
▁sforza	-11.426
▁nazismo	-11.426
▁fotografie	-11.426
▁partigiani	-11.426
▁sospetta	-11.426
▁descritte	-11.426
▁teorici	-11.426
▁potrà	-11.426
▁clark	-11.426
▁finanze	-11.426
▁galilei	-11.426
▁inseriti	-11.426
▁mediterranea	-11.4261
algebra	-11.4264
▁possedere	-11.4264
▁avvenut	-11.4285
▁capaci	-11.437
amsterdam	-11.4374
wehrmacht	-11.4374
▁quotidiani	-11.4374
▁svedesi	-11.4374
immacolata	-11.4374
▁scomunica	-11.4374
▁restrizioni	-11.4374
▁essenziali	-11.4374
▁contenute	-11.4374
▁corrado	-11.4374
▁conclusa	-11.4374
▁formò	-11.4374
▁conformazione	-11.4374
▁casuali	-11.4374
▁dyck	-11.4374
▁plasma	-11.4374
▁accerta	-11.4374
▁poveri	-11.4375
▁cerchio	-11.4375
▁urbane	-11.4375
batté	-11.4378
▁vigili	-11.4383
▁fertili	-11.4419
venezia	-11.4457
▁compromesso	-11.4489
▁spettri	-11.4489
▁cinematografici	-11.4489
▁hilbert	-11.4489
▁stalingrado	-11.4489
academy	-11.4489
▁costrutto	-11.4489
▁straniero	-11.4489
▁globo	-11.4489
▁coerente	-11.4489
▁imporre	-11.4489
▁annessa	-11.4489
▁flag	-11.45
▁rettili	-11.4547
disambigua	-11.4605
intelligence	-11.4605
▁bulgaria	-11.4605
▁discussioni	-11.4605
▁rovescia	-11.4605
▁trascorse	-11.4605
▁femmina	-11.4605
▁frammenta	-11.4605
▁nikola	-11.4605
▁scolastico	-11.4605
▁scultore	-11.4605
▁titanio	-11.4605
▁accolto	-11.4605
▁ritenendo	-11.4605
▁congiunta	-11.4605
▁ebraiche	-11.4605
▁perturba	-11.4605
▁trecento	-11.4605
▁rigida	-11.4606
▁duecento	-11.4606
▁federali	-11.4606
▁tranvia	-11.4606
▁lanciò	-11.4606
▁addetti	-11.4606
▁credito	-11.4607
▁vincent	-11.4628
▁solitari	-11.4644
▁riunir	-11.4678
central	-11.4684
determina	-11.4693
giorno	-11.4694
▁elettrici	-11.471
▁precisi	-11.472
professori	-11.4721
appellativo	-11.4723
▁berkeley	-11.4723
▁bizantini	-11.4723
▁eventualmente	-11.4723
▁lawrence	-11.4723
▁school	-11.4723
▁gallura	-11.4723
▁sollecit	-11.4723
▁introdurre	-11.4723
▁residui	-11.4723
heavy	-11.4723
▁multipli	-11.4723
▁promosso	-11.4723
▁transizioni	-11.4723
▁cedette	-11.4723
▁affonda	-11.4723
▁tramanda	-11.4724
▁gemelli	-11.4724
inserimento	-11.4724
▁protetta	-11.4724
▁angoli	-11.4725
▁siccome	-11.4725
anatomia	-11.4726
equivalenza	-11.4727
▁promosse	-11.4728
▁aspira	-11.4749
atleta	-11.4754
monetazione	-11.4773
ristrutturazione	-11.4822
ambientazione	-11.4842
espulsione	-11.4842
▁bernoulli	-11.4842
▁costituenti	-11.4842
▁osservò	-11.4842
▁professionali	-11.4842
▁respiratori	-11.4842
▁rifornimenti	-11.4842
▁budget	-11.4842
▁ferrarese	-11.4842
▁opinioni	-11.4842
▁pontificato	-11.4842
▁violenti	-11.4842
▁marittimo	-11.4842
▁scandalo	-11.4842
grunge	-11.4842
▁ostacoli	-11.4842
▁ercole	-11.4842
▁boeing	-11.4842
▁enuncia	-11.4842
▁resistere	-11.4842
▁concreti	-11.4842
▁verificò	-11.4842
▁civico	-11.4843
▁temporali	-11.4845
▁adibit	-11.4853
ontologi	-11.4882
phys	-11.4903
▁ernest	-11.4911
right	-11.4919
ampliamento	-11.4934
originale	-11.4936
sinistra	-11.4937
▁luminosi	-11.4957
▁affascin	-11.4962
▁notturno	-11.4962
▁trasformò	-11.4962
▁assunta	-11.4962
▁televisivi	-11.4962
▁glaciale	-11.4962
▁weimar	-11.4962
▁sebastian	-11.4962
▁autostrade	-11.4962
▁campobasso	-11.4962
▁architettonico	-11.4962
▁fiorentino	-11.4962
▁quattrocento	-11.4962
esigenza	-11.4962
▁gassoso	-11.4962
▁litorale	-11.4962
▁degenera	-11.4965
▁signora	-11.4968
▁decisa	-11.5077
avanguardia	-11.5084
▁bartolomeo	-11.5084
▁carnevale	-11.5084
▁centinaio	-11.5084
▁combustione	-11.5084
▁country	-11.5084
▁ecclesiastica	-11.5084
▁fantasy	-11.5084
▁feudatari	-11.5084
▁necropoli	-11.5084
▁occasionalmente	-11.5084
▁onorificenze	-11.5084
▁provvedimenti	-11.5084
▁ribattezzat	-11.5084
▁seguaci	-11.5084
▁zeppelin	-11.5084
▁zucchero	-11.5084
▁congiunge	-11.5084
▁pogrom	-11.5084
▁dinamiche	-11.5084
▁danubio	-11.5084
▁destinate	-11.5084
▁licenzia	-11.5084
▁anderson	-11.5084
▁sottoposti	-11.5084
▁scelti	-11.5085
▁attendere	-11.5085
▁avvale	-11.5085
▁rigidi	-11.5085
▁coperto	-11.5085
▁sentimento	-11.5086
▁rurali	-11.5086
▁cognome	-11.5089
autorizzazione	-11.5091
magnetic	-11.5097
alimentazione	-11.5146
sanremo	-11.5197
afghanistan	-11.5208
▁avogadro	-11.5208
▁costituzionali	-11.5208
▁energetico	-11.5208
▁gioventù	-11.5208
▁innocenzo	-11.5208
▁limitrofi	-11.5208
▁raggiungimento	-11.5208
▁repubbliche	-11.5208
▁ricordiamo	-11.5208
▁spiagge	-11.5208
▁termodinamica	-11.5208
▁geografico	-11.5208
▁reagisce	-11.5208
▁graduale	-11.5208
▁alamein	-11.5208
▁tokyo	-11.5208
▁terraferma	-11.5208
▁amplifica	-11.5208
▁oristano	-11.5208
indomani	-11.5208
▁processa	-11.5208
▁barocca	-11.5208
▁ritmo	-11.5209
▁sofisti	-11.5227
equipaggio	-11.5253
militari	-11.5311
▁sbocc	-11.5332
infrastruttura	-11.5332
▁alfonso	-11.5332
▁elisabetta	-11.5332
▁maresciallo	-11.5332
▁matematiche	-11.5332
▁parlamentari	-11.5332
▁rappresentò	-11.5332
▁religioni	-11.5332
▁traiettoria	-11.5332
▁aumentò	-11.5333
▁eseguite	-11.5333
▁produttivo	-11.5333
▁compatibile	-11.5333
▁mozilla	-11.5333
▁attentati	-11.5333
▁pulsar	-11.5333
▁contrappost	-11.5333
▁white	-11.5333
▁sbarra	-11.5333
▁manuali	-11.5333
▁comitati	-11.5333
▁gassosi	-11.5333
▁ritirò	-11.5333
output	-11.5333
▁tattica	-11.5334
▁robin	-11.5342
▁impressiona	-11.5349
▁ritmi	-11.5368
▁riunisc	-11.539
madonna	-11.5413
ambasciatore	-11.5459
lettromagnetiche	-11.5459
▁arruola	-11.5459
▁auschwitz	-11.5459
▁bombardieri	-11.5459
▁condivisione	-11.5459
▁nervoso	-11.5459
▁orizzontali	-11.5459
▁spectrum	-11.5459
▁provenienza	-11.5459
▁scioglie	-11.5459
▁proporzioni	-11.5459
▁precessione	-11.5459
▁adiacenti	-11.5459
▁darwin	-11.5459
▁banconota	-11.5459
▁crateri	-11.546
▁treviso	-11.546
▁nemiche	-11.546
▁dipartimenti	-11.546
▁costrutti	-11.546
uccello	-11.546
▁sanitaria	-11.546
▁lontani	-11.546
impronta	-11.5466
▁astrologi	-11.5481
avessero	-11.5542
▁equinozi	-11.5568
▁amatoriale	-11.5587
▁carburante	-11.5587
▁diciassette	-11.5587
▁fluviale	-11.5587
▁fogazzaro	-11.5587
▁frequentò	-11.5587
▁napoleonico	-11.5587
▁neutralità	-11.5587
▁precauzioni	-11.5587
▁provvede	-11.5587
▁soppressa	-11.5587
▁condiviso	-11.5587
▁hippy	-11.5587
▁trasferita	-11.5587
▁portoghese	-11.5587
aggressione	-11.5587
▁deputato	-11.5587
▁velivoli	-11.5587
▁ondula	-11.5587
▁croazia	-11.5587
▁previsione	-11.5587
▁vincoli	-11.5587
▁scontra	-11.5588
▁trascrizione	-11.5588
▁laddove	-11.5588
▁tramonto	-11.5589
innovazione	-11.561
massoni	-11.5614
▁trascorr	-11.5631
distribuzione	-11.5701
▁confedera	-11.5702
anschluss	-11.5717
▁abbondanti	-11.5717
▁bicicletta	-11.5717
▁difficilmente	-11.5717
▁douglas	-11.5717
▁eleonora	-11.5717
▁enciclopedie	-11.5717
▁imprigiona	-11.5717
▁ministeri	-11.5717
▁pomeriggio	-11.5717
▁svetonio	-11.5717
▁violento	-11.5717
▁neutrino	-11.5717
▁svantaggi	-11.5717
▁videogioco	-11.5717
atterraggio	-11.5717
▁guardie	-11.5717
▁librerie	-11.5717
▁compressione	-11.5717
▁etrusca	-11.5717
▁interpretò	-11.5718
▁discrimina	-11.5718
▁trasmessa	-11.5718
ungarico	-11.5718
▁racchius	-11.5718
▁restò	-11.5718
▁congiura	-11.5721
argenteo	-11.5721
attacca	-11.5734
iraq	-11.5735
emergenza	-11.5736
attuazione	-11.5763
efficacia	-11.5835
▁asteroidi	-11.5849
▁dispersione	-11.5849
▁innumerevoli	-11.5849
▁longitudine	-11.5849
▁sommità	-11.5849
▁sufficienti	-11.5849
▁brennero	-11.5849
▁definendo	-11.5849
▁pistoia	-11.5849
▁ortolani	-11.5849
▁maurizio	-11.5849
▁intervenne	-11.5849
odierno	-11.5849
▁plinio	-11.5849
▁domande	-11.5849
inchiesta	-11.5849
▁affatto	-11.5849
▁situate	-11.5849
▁panorami	-11.5849
▁ristruttur	-11.5871
arabia	-11.5906
quadri	-11.5969
▁cecoslovacchia	-11.5982
▁chitarrista	-11.5982
▁demografico	-11.5982
▁firefox	-11.5982
▁innanzitutto	-11.5982
▁legittima	-11.5982
▁polemiche	-11.5982
▁ricostruita	-11.5982
▁ortodossa	-11.5982
▁vincitrice	-11.5982
▁nascosto	-11.5982
▁supplement	-11.5982
▁simmetrica	-11.5982
▁isernia	-11.5982
▁concomitan	-11.5982
▁marsala	-11.5983
▁rimanda	-11.5983
▁agnelli	-11.5983
▁stringe	-11.5983
▁jacob	-11.5987
▁proveniva	-11.5989
▁rassegna	-11.6027
▁vuol	-11.6074
▁bismarck	-11.6117
▁contribuendo	-11.6117
▁energetici	-11.6117
▁escursioni	-11.6117
▁ginnastica	-11.6117
▁indirizzi	-11.6117
▁meccaniche	-11.6117
▁predecessore	-11.6117
▁prefettura	-11.6117
▁requisiti	-11.6117
▁rigorosa	-11.6117
▁sconfitte	-11.6117
▁escluso	-11.6117
▁midway	-11.6117
▁sepoltura	-11.6117
▁sorveglia	-11.6117
▁avviò	-11.6117
▁correlazione	-11.6117
▁universalmente	-11.6117
▁coprire	-11.6118
▁deserto	-11.6118
autentica	-11.6119
altopiano	-11.6119
▁preziosi	-11.6119
infermier	-11.612
▁infinite	-11.6121
▁tunisi	-11.6123
sepolti	-11.6127
▁perimetr	-11.6139
accoglienza	-11.6192
▁tossico	-11.6204
▁orologi	-11.6209
▁brunswick	-11.6254
▁aggiunte	-11.6254
▁cattolicesimo	-11.6254
▁comprensori	-11.6254
▁denominazioni	-11.6254
▁descrivono	-11.6254
▁flavio	-11.6254
▁helsinki	-11.6254
▁medioevale	-11.6254
▁musulmani	-11.6254
▁poliziesco	-11.6254
▁édith	-11.6254
ammoniaca	-11.6254
assunzione	-11.6254
▁culmine	-11.6254
▁mysql	-11.6254
▁preghiera	-11.6254
▁scorpione	-11.6254
▁accerchia	-11.6254
▁1888	-11.6254
▁interstellare	-11.6254
▁presunta	-11.6254
▁iupac	-11.6254
buddha	-11.6254
▁company	-11.6254
fosfato	-11.6254
▁delegazione	-11.6254
▁deportati	-11.6254
▁parallele	-11.6254
▁trofeo	-11.6254
▁paradiso	-11.6254
▁fiamma	-11.6254
▁sovrappost	-11.6257
▁apprend	-11.6288
▁isabel	-11.6319
immens	-11.6376
system	-11.6385
imperial	-11.6389
▁affresc	-11.6393
abbreviazione	-11.6393
intrattenimento	-11.6393
mahāyāna	-11.6393
▁abbreviato	-11.6393
▁caltanissetta	-11.6393
▁conclusioni	-11.6393
▁contribuirono	-11.6393
▁istituzionali	-11.6393
▁legittimo	-11.6393
▁sconfitti	-11.6393
▁soprannome	-11.6393
▁spettroscopia	-11.6393
▁avveniva	-11.6393
▁kelvin	-11.6393
▁anteriore	-11.6393
▁respinge	-11.6393
▁corporation	-11.6393
▁beatrice	-11.6393
▁provvist	-11.6393
▁samuel	-11.6393
▁infinita	-11.6393
▁innamora	-11.6394
reichstag	-11.6394
etiopia	-11.6394
▁efficaci	-11.6408
oceania	-11.644
emigrazione	-11.6467
▁preferenz	-11.6497
bundes	-11.651
implementazione	-11.6512
▁agrippa	-11.6534
▁denominati	-11.6534
▁diminuire	-11.6534
▁eucarioti	-11.6534
▁irlandesi	-11.6534
▁proclamò	-11.6534
▁spettrali	-11.6534
▁detenuti	-11.6534
▁ragazzo	-11.6534
▁riusciva	-11.6534
▁detiene	-11.6534
▁kuiper	-11.6534
▁confluenza	-11.6534
▁calciatori	-11.6534
▁controversia	-11.6534
▁rilascio	-11.6534
▁ristampa	-11.6534
▁motivazioni	-11.6534
▁gloria	-11.6534
▁prezioso	-11.6534
▁fredde	-11.6534
▁1863	-11.6534
▁ernst	-11.6534
▁bayer	-11.6535
▁verticali	-11.6535
segretari	-11.6538
intitola	-11.6543
elettricità	-11.6549
▁testimoni	-11.6576
▁munit	-11.6631
▁contribuisc	-11.6673
olimpia	-11.6676
entusiasmo	-11.6677
▁battaglione	-11.6677
▁difensivo	-11.6677
▁energetica	-11.6677
“	-12.0547
<	-12.7519
