<unk>	0
<s>	0
</s>	0
,	-3.31063
▁di	-3.57173
.	-3.66061
▁e	-3.96678
'	-4.09748
▁la	-4.21267
▁il	-4.26023
▁	-4.2778
▁in	-4.46978
▁a	-4.49163
▁del	-4.74296
▁che	-4.79941
▁un	-4.9134
▁l	-4.95053
▁"	-4.99254
▁per	-5.00832
▁della	-5.01415
"	-5.03387
▁è	-5.05747
▁i	-5.08179
▁con	-5.11741
re	-5.13273
▁nel	-5.15042
▁le	-5.22299
▁si	-5.23959
▁da	-5.2942
▁una	-5.30647
▁(	-5.33648
o	-5.41342
s	-5.47123
e	-5.50754
to	-5.51438
ta	-5.54153
▁al	-5.54501
a	-5.57849
#	-5.64268
▁#	-5.66939
▁dell	-5.68242
no	-5.68699
ti	-5.72253
le	-5.75579
▁dei	-5.76008
:	-5.77974
▁più	-5.87552
i	-5.87856
▁come	-5.89281
c	-5.9069
te	-5.90773
▁non	-5.91772
▁sono	-5.93502
▁delle	-5.95262
▁alla	-5.96643
)	-6.00794
▁o	-6.02889
-	-6.03229
▁dal	-6.09696
="	-6.09768
▁anche	-6.11917
▁ma	-6.13281
▁tra	-6.15791
va	-6.17066
▁fu	-6.20753
▁gli	-6.20796
;	-6.28089
▁nella	-6.3063
ri	-6.32103
▁d	-6.3254
ro	-6.35557
▁ad	-6.36514
ndo	-6.37185
▁all	-6.3774
na	-6.38184
▁lo	-6.3905
",	-6.44557
li	-6.44602
▁ha	-6.45839
n	-6.46486
l	-6.46791
si	-6.47579
ne	-6.49149
ni	-6.52072
),	-6.55767
▁cui	-6.56905
doc	-6.59973
▁se	-6.60221
la	-6.61
▁dalla	-6.61612
>	-6.62168
r	-6.62272
▁era	-6.63435
▁parte	-6.64278
ca	-6.64378
▁due	-6.67808
zione	-6.6809
di	-6.6891
▁anni	-6.69353
▁su	-6.71217
co	-6.72313
).	-6.73144
▁sua	-6.75619
▁nell	-6.75922
/	-6.77985
degli	-6.78359
▁ed	-6.80285
vi	-6.81194
▁ri	-6.83432
▁prima	-6.83958
ra	-6.85442
▁suo	-6.86155
d	-6.86892
se	-6.87935
▁questo	-6.88048
▁dopo	-6.88568
ci	-6.88652
▁stato	-6.89428
▁essere	-6.90173
de	-6.90315
▁de	-6.90491
t	-6.91235
nte	-6.91733
lo	-6.91906
ma	-6.96823
it	-6.9684
in	-6.96905
▁città	-6.97851
▁dall	-6.98232
|	-6.99547
ò	-6.99597
mi	-7.05272
m	-7.06114
ce	-7.07004
rono	-7.07099
▁vi	-7.07244
▁re	-7.07263
▁sul	-7.07483
▁ai	-7.08905
▁loro	-7.09624
da	-7.10507
mente	-7.10564
me	-7.11132
nti	-7.11312
▁formula	-7.11542
▁s	-7.11799
zioni	-7.11924
▁alle	-7.12782
che	-7.12851
".	-7.13447
sa	-7.14085
▁nei	-7.14346
sta	-7.14426
ve	-7.1844
org	-7.19371
mo	-7.19818
▁secolo	-7.19835
gli	-7.22207
▁solo	-7.23844
so	-7.24159
?	-7.24499
▁id	-7.24922
y	-7.2508
▁categorie	-7.26499
ga	-7.27357
wikipedia	-7.27614
▁uno	-7.28298
▁mentre	-7.28504
p	-7.28615
▁sia	-7.29595
u	-7.29687
wiki	-7.29961
g	-7.30016
▁altri	-7.3048
▁url	-7.30622
do	-7.30677
rsi	-7.30784
://	-7.30982
https	-7.31177
▁title	-7.31364
▁<	-7.31384
▁</	-7.31592
urid	-7.31705
▁18	-7.32511
▁venne	-7.327
▁stati	-7.36074
sti	-7.37057
▁sulla	-7.37932
▁questa	-7.38466
▁secondo	-7.3886
mento	-7.39484
vano	-7.39746
tto	-7.42362
▁primo	-7.42594
▁viene	-7.42756
▁può	-7.42925
▁molto	-7.43054
▁poi	-7.46094
▁hanno	-7.46411
sse	-7.47346
▁tre	-7.47951
▁fino	-7.48351
▁quando	-7.49203
▁durante	-7.49205
tta	-7.49213
▁ne	-7.49364
▁dai	-7.4958
▁quale	-7.50461
▁quella	-7.5079
▁sistema	-7.51277
▁guerra	-7.51855
▁fa	-7.52348
f	-7.52619
▁dove	-7.53428
▁sotto	-7.53508
▁fra	-7.53578
▁pro	-7.53833
vo	-7.54424
▁erano	-7.57012
▁alcuni	-7.57031
b	-7.57074
▁furono	-7.57634
▁("	-7.57683
v	-7.57726
▁provincia	-7.5799
▁quindi	-7.58347
gi	-7.59344
tte	-7.59452
▁san	-7.60062
tti	-7.60947
▁stesso	-7.61629
▁fine	-7.62671
il	-7.62818
▁nome	-7.63019
▁grande	-7.63486
▁negli	-7.64254
▁1	-7.65486
▁dello	-7.65873
ria	-7.6612
▁pre	-7.66223
▁ci	-7.66817
▁altre	-7.67237
▁co	-7.67344
▁quello	-7.67402
▁circa	-7.67428
▁tempo	-7.67623
▁tutti	-7.67745
nza	-7.68028
pi	-7.69283
▁esempio	-7.69446
rio	-7.70265
▁aveva	-7.70503
▁seguito	-7.71512
▁ca	-7.72275
▁quali	-7.72434
▁c	-7.72834
▁ogni	-7.73736
▁così	-7.74019
▁stata	-7.74803
ge	-7.74913
▁periodo	-7.75345
▁territorio	-7.75403
▁suoi	-7.75469
▁questi	-7.75789
▁seconda	-7.75941
x	-7.76
▁inoltre	-7.76272
▁mi	-7.76763
▁oltre	-7.77036
▁numero	-7.77279
ato	-7.77279
pa	-7.78047
pe	-7.7806
▁ancora	-7.78142
▁invece	-7.80051
▁sempre	-7.80081
go	-7.8026
▁quanto	-7.80343
tori	-7.80576
tra	-7.80682
fi	-7.80845
po	-7.81765
▁volta	-7.82451
al	-7.8306
▁forma	-7.8322
k	-7.83231
▁tale	-7.83466
▁li	-7.83553
▁comune	-7.84092
=	-7.84186
▁via	-7.84599
▁modo	-7.8524
▁storia	-7.85616
▁pa	-7.86358
▁vita	-7.86526
▁verso	-7.86656
du	-7.87075
▁causa	-7.87086
ba	-7.87351
▁nord	-7.87431
bi	-7.87785
▁possono	-7.87803
▁tuttavia	-7.89228
▁ba	-7.89647
tu	-7.89831
▁3	-7.89856
▁già	-7.90021
2	-7.90267
▁centro	-7.90566
tà	-7.90897
▁sa	-7.9129
▁contro	-7.91441
▁2	-7.916
ssi	-7.9254
▁po	-7.93006
▁serie	-7.93291
▁particolare	-7.93589
menti	-7.94137
▁sud	-7.94506
▁stelle	-7.94583
▁molti	-7.94626
")	-7.94795
italia	-7.94907
er	-7.95548
▁17	-7.96269
▁«	-7.96592
per	-7.97657
h	-7.98349
▁alcune	-7.98974
▁mo	-7.99242
▁sue	-7.99647
▁infatti	-8.00041
▁bo	-8.00763
azione	-8.00934
▁m	-8.01185
lla	-8.01445
bile	-8.01466
▁so	-8.0182
anno	-8.02126
▁sull	-8.02313
▁fatto	-8.02617
zza	-8.02666
▁-	-8.03371
▁4	-8.03437
ssa	-8.04062
one	-8.04763
▁primi	-8.04801
con	-8.05129
▁generale	-8.05464
▁spesso	-8.05664
▁caso	-8.063
▁trova	-8.06481
▁senza	-8.06872
ale	-8.07463
▁base	-8.07563
chi	-8.07627
▁roma	-8.07749
▁queste	-8.07903
bo	-8.08135
▁fi	-8.08374
▁proprio	-8.08505
▁mondo	-8.08522
▁15	-8.09004
▁gran	-8.0973
en	-8.10778
▁film	-8.10911
ata	-8.11717
▁regno	-8.12089
▁punto	-8.12219
▁agli	-8.12289
▁tutto	-8.12546
lle	-8.12602
▁5	-8.12909
▁ve	-8.13136
bili	-8.13913
▁16	-8.13935
ali	-8.14051
▁pe	-8.14492
lu	-8.14516
us	-8.14615
z	-8.14649
▁nuovo	-8.14779
▁chiesa	-8.14914
w	-8.15127
▁me	-8.15665
um	-8.15782
▁lungo	-8.15799
▁10	-8.15941
tore	-8.16661
an	-8.16733
fa	-8.1702
▁massa	-8.17385
▁governo	-8.17589
’	-8.1786
ste	-8.18375
▁(19	-8.18694
rie	-8.19346
3	-8.19595
▁diversi	-8.19648
ati	-8.20655
▁rispetto	-8.21415
▁termine	-8.21464
th	-8.21505
▁comuni	-8.21613
▁gruppo	-8.21907
▁nuova	-8.22005
▁sarebbe	-8.22012
▁tutte	-8.22024
zio	-8.22081
are	-8.22361
lli	-8.22433
▁campo	-8.23013
fe	-8.23463
▁grazie	-8.23508
▁nazionale	-8.23806
nta	-8.24808
sso	-8.24921
▁va	-8.25112
un	-8.25326
interno	-8.25404
▁ben	-8.2544
▁allo	-8.26
ver	-8.26091
tica	-8.26252
5	-8.26457
tura	-8.26506
ano	-8.26808
▁popolazione	-8.26888
▁grandi	-8.26927
▁italia	-8.27469
▁però	-8.2759
▁terra	-8.27593
llo	-8.27629
▁meno	-8.27725
▁tipo	-8.2783
▁germania	-8.28167
▁mar	-8.28497
ng	-8.28659
8	-8.28853
▁giorni	-8.28986
ck	-8.2964
▁quasi	-8.29916
▁mondiale	-8.29999
tico	-8.3026
▁corso	-8.30274
oni	-8.30616
▁società	-8.30711
sco	-8.31065
▁attraverso	-8.31495
▁soprattutto	-8.31514
smo	-8.31771
▁sede	-8.32153
▁presso	-8.32171
on	-8.32769
▁do	-8.32983
▁repubblica	-8.3302
▁quelle	-8.33259
▁vengono	-8.33321
▁12	-8.3339
st	-8.33417
▁diverse	-8.33655
▁lingua	-8.33668
▁insieme	-8.33768
▁p	-8.34262
▁italiano	-8.34405
▁val	-8.34511
▁oggi	-8.34747
▁stella	-8.34861
▁ciò	-8.34959
▁quattro	-8.353
man	-8.35403
ere	-8.35621
▁ro	-8.36015
▁col	-8.36034
▁ce	-8.36259
▁avrebbe	-8.36366
nia	-8.36386
▁ar	-8.36499
»	-8.36699
ar	-8.36842
be	-8.37067
1	-8.37158
▁6	-8.37385
▁possibile	-8.3744
ur	-8.3752
▁maggior	-8.37692
▁partire	-8.37969
▁legge	-8.38154
▁perché	-8.38315
▁anno	-8.38512
▁car	-8.38573
▁ra	-8.38632
7	-8.38922
▁presenza	-8.38961
rà	-8.39108
▁morte	-8.39304
▁14	-8.39508
▁principale	-8.39672
▁media	-8.39972
▁pi	-8.40313
▁politica	-8.40364
é	-8.40471
▁mai	-8.40482
▁sviluppo	-8.40863
nto	-8.41009
▁francese	-8.41224
▁presenta	-8.41328
▁italiana	-8.41343
▁k	-8.41344
"),	-8.41351
▁volte	-8.41407
▁giorno	-8.41447
▁maggiore	-8.41776
▁principali	-8.41896
sce	-8.42007
▁stessa	-8.42141
▁na	-8.42379
anni	-8.42451
nd	-8.42548
▁0	-8.42824
▁poco	-8.43026
ch	-8.43049
gna	-8.43693
▁produzione	-8.43759
ll	-8.43884
es	-8.43975
▁lavoro	-8.4418
gno	-8.44228
▁b	-8.44235
▁ii	-8.44252
▁opera	-8.44466
▁uniti	-8.45156
ru	-8.45434
▁paese	-8.45611
era	-8.45928
cu	-8.45991
su	-8.46
▁g	-8.46306
4	-8.46387
▁bi	-8.46505
▁fo	-8.47033
▁vennero	-8.47156
▁misura	-8.4735
▁corpo	-8.47398
▁luglio	-8.4797
▁settembre	-8.48083
▁altro	-8.48233
sto	-8.4829
ter	-8.48295
▁gennaio	-8.48451
or	-8.48455
▁francia	-8.48466
è	-8.48553
▁fosse	-8.48707
▁cor	-8.48756
▁opere	-8.48896
unione	-8.49005
▁successo	-8.49173
tri	-8.49361
gra	-8.49409
▁zona	-8.49732
ggio	-8.5046
ss	-8.50678
6	-8.50679
io	-8.50756
sca	-8.50886
▁far	-8.51124
▁dicembre	-8.51136
nt	-8.51141
nze	-8.51363
ad	-8.51386
▁presenti	-8.51434
nde	-8.51566
▁struttura	-8.5158
▁maggio	-8.51594
ia	-8.51836
▁importanti	-8.52099
fo	-8.52188
▁luce	-8.5237
▁metà	-8.52677
ndosi	-8.52729
▁aver	-8.52773
ry	-8.52853
▁quelli	-8.53
▁linea	-8.53209
is	-8.53225
▁13	-8.53331
▁livello	-8.53377
▁internazionale	-8.5375
tion	-8.53861
glia	-8.53925
▁giugno	-8.53973
▁importante	-8.53982
▁famiglia	-8.5414
▁valore	-8.54329
▁to	-8.54399
▁elementi	-8.54884
▁regione	-8.55239
▁inter	-8.55269
▁dati	-8.55344
▁comp	-8.55411
▁sta	-8.55477
▁casa	-8.55508
▁porta	-8.55544
▁ruolo	-8.5574
▁chi	-8.55866
▁paesi	-8.5588
▁marzo	-8.55944
▁grado	-8.55981
▁processo	-8.56024
▁presente	-8.56305
▁funzione	-8.56399
cca	-8.56401
▁ebbe	-8.56571
▁sui	-8.56773
tivo	-8.5707
▁–	-8.57415
▁vari	-8.57426
▁7	-8.57455
▁momento	-8.57915
00	-8.58046
▁posto	-8.58381
▁quest	-8.58583
▁novembre	-8.58758
▁specie	-8.58867
▁molte	-8.58936
▁te	-8.58973
▁capo	-8.59326
▁monte	-8.59498
ns	-8.59746
▁be	-8.60042
▁ga	-8.60595
▁genere	-8.61129
uso	-8.61237
▁nonostante	-8.61879
▁deriva	-8.61893
▁abitanti	-8.6225
0	-8.62397
▁9	-8.62714
zia	-8.63037
▁sca	-8.63893
▁strada	-8.64394
▁tratta	-8.64563
▁allora	-8.64674
stra	-8.64782
▁go	-8.64861
▁divenne	-8.64862
spe	-8.65012
bu	-8.65036
▁n	-8.65098
▁fiume	-8.6532
▁lui	-8.65333
ghe	-8.65358
gu	-8.65446
ultimo	-8.65456
za	-8.65653
▁state	-8.65669
j	-8.65727
altra	-8.66067
▁u	-8.66072
ente	-8.66304
eri	-8.66424
▁caratteristiche	-8.66569
▁propria	-8.6674
area	-8.66745
▁bu	-8.66777
▁attività	-8.66837
▁studio	-8.67006
▁presidente	-8.67011
▁sole	-8.67032
▁cu	-8.67438
tici	-8.67501
▁nota	-8.68042
▁comunque	-8.68129
ggia	-8.68268
nu	-8.68341
pro	-8.68733
qui	-8.68771
inizio	-8.68877
▁studi	-8.69085
▁tedesco	-8.69326
opera	-8.69384
▁sistemi	-8.69746
▁teoria	-8.69971
▁bandiera	-8.69985
ff	-8.7003
▁data	-8.70192
epoca	-8.70256
▁20	-8.70505
ana	-8.70889
▁ta	-8.70943
▁numerosi	-8.70946
▁origine	-8.71368
▁tri	-8.71374
oro	-8.71436
▁rappresenta	-8.71609
▁milioni	-8.71795
▁successivamente	-8.71903
ul	-8.72127
▁ru	-8.72127
=1	-8.72169
son	-8.72251
▁proprietà	-8.72285
▁no	-8.72295
▁militare	-8.72313
▁bar	-8.72391
▁tramite	-8.72501
▁persone	-8.72589
▁dato	-8.72701
nda	-8.7292
▁pubblico	-8.72969
▁codice	-8.73048
▁sal	-8.73129
▁centrale	-8.73151
▁posizione	-8.73172
ì	-8.73197
zzazione	-8.73535
▁f	-8.73857
▁poiché	-8.74023
▁fece	-8.74302
ture	-8.74441
▁lu	-8.74449
ate	-8.74459
▁fisica	-8.74537
▁comunità	-8.74627
pre	-8.74684
▁temperatura	-8.74799
tro	-8.7481
▁luogo	-8.74956
▁febbraio	-8.7552
▁forze	-8.75607
▁ottobre	-8.75786
▁storico	-8.75848
▁diritto	-8.75871
el	-8.76195
ut	-8.76364
▁r	-8.76478
(	-8.76584
dio	-8.76606
▁ricerca	-8.77106
ster	-8.7713
▁avevano	-8.77223
▁programma	-8.77282
ndi	-8.7744
").	-8.77659
ment	-8.778
impero	-8.78348
▁ni	-8.78362
▁spazio	-8.7851
▁progetto	-8.78803
tiva	-8.78839
▁papa	-8.79024
▁est	-8.7913
cco	-8.79398
▁vista	-8.79511
▁parti	-8.79544
▁avere	-8.7973
▁quel	-8.79997
▁prime	-8.80551
gio	-8.80759
▁mare	-8.80843
▁forza	-8.81097
▁piano	-8.81153
▁tutta	-8.81753
▁infine	-8.81773
▁x	-8.81944
▁km	-8.8207
zi	-8.82105
▁versione	-8.82353
▁v	-8.8246
▁ge	-8.82751
▁of	-8.82802
▁giochi	-8.82814
rlo	-8.82918
».	-8.82927
▁and	-8.83087
acqua	-8.83273
▁fronte	-8.83383
stica	-8.83452
▁distribuzione	-8.83517
isola	-8.83848
▁velocità	-8.83855
ven	-8.83899
▁maria	-8.83987
▁gu	-8.84025
▁anti	-8.8403
▁11	-8.84231
der	-8.84506
▁oggetti	-8.84533
rre	-8.8454
_	-8.8456
▁fe	-8.846
▁titolo	-8.84672
▁com	-8.84754
cce	-8.84851
ggi	-8.85179
que	-8.85311
ner	-8.85442
▁agosto	-8.85481
▁t	-8.85491
▁the	-8.85535
▁pur	-8.85575
▁continua	-8.85804
▁cultura	-8.85857
▁varie	-8.85928
tive	-8.86019
▁occupa	-8.86063
▁cinque	-8.86128
▁cioè	-8.86135
qua	-8.86235
▁nazionali	-8.86245
▁partito	-8.86317
▁ovvero	-8.86364
▁rete	-8.86403
▁pubblica	-8.86501
▁formazione	-8.86503
▁pari	-8.86935
▁essa	-8.86996
);	-8.87087
▁mu	-8.87128
stre	-8.87155
▁gruppi	-8.87186
ico	-8.87402
tiche	-8.87527
▁aprile	-8.87527
ero	-8.8767
▁potere	-8.87778
▁europea	-8.87789
▁forte	-8.87932
▁cosiddett	-8.88094
▁pochi	-8.88144
▁parigi	-8.88278
lt	-8.88515
ppo	-8.88625
▁controllo	-8.88682
▁deve	-8.88969
▁superficie	-8.8912
gia	-8.89332
▁ora	-8.8937
▁tali	-8.89489
tt	-8.89523
ani	-8.89526
▁sopra	-8.8989
▁milano	-8.89914
at	-8.89945
sci	-8.8995
▁ho	-8.90044
▁totale	-8.901
▁romano	-8.90123
▁qui	-8.90969
▁tedeschi	-8.91036
▁numerose	-8.91073
▁battaglia	-8.91225
ultima	-8.91268
▁nu	-8.913
rne	-8.91381
▁realtà	-8.91414
ica	-8.91865
ka	-8.91967
▁du	-8.91978
▁fase	-8.92016
▁italiani	-8.92073
▁costruzione	-8.92269
▁for	-8.92394
zzo	-8.9246
&	-8.92593
via	-8.92657
sh	-8.93133
▁sicilia	-8.93133
▁quantità	-8.93828
▁8	-8.94035
ing	-8.9405
schi	-8.94115
▁musica	-8.94196
▁distanza	-8.94595
▁casi	-8.95051
9	-8.9507
▁radio	-8.95203
▁campi	-8.9532
▁risulta	-8.95462
▁romana	-8.95581
lia	-8.9577
glio	-8.95926
▁valle	-8.95935
▁carlo	-8.96176
▁indica	-8.96314
▁gi	-8.96646
▁standard	-8.9686
▁egli	-8.96953
▁dimensioni	-8.9716
=""	-8.97232
▁or	-8.97795
▁natura	-8.97854
▁superiore	-8.97966
▁passa	-8.98024
▁ultimi	-8.98168
50	-8.98234
ha	-8.9835
▁ovest	-8.98439
▁membri	-8.98481
rd	-8.98487
altro	-8.98531
▁classe	-8.98577
università	-8.98622
▁nuove	-8.98676
20	-8.98687
▁prodotto	-8.98689
▁sebbene	-8.98777
▁costellazione	-8.98787
▁gra	-8.98944
the	-8.99105
▁mesi	-8.99151
enti	-8.99263
▁senso	-8.99395
▁piazza	-8.99642
▁noto	-8.99905
et	-8.99957
▁squadra	-9.00029
▁porto	-9.00089
▁giu	-9.00196
▁spa	-9.00267
stico	-9.00332
▁fin	-9.004
▁sco	-9.00411
onda	-9.00449
▁mezzo	-9.00451
▁santa	-9.0073
ffi	-9.00872
▁truppe	-9.00943
wa	-9.01343
nne	-9.01451
▁riguarda	-9.01485
▁conte	-9.0161
au	-9.01763
▁riferimento	-9.01794
▁gas	-9.01796
▁gioco	-9.01849
10	-9.02064
▁esso	-9.02279
nese	-9.02293
land	-9.02306
▁giovanni	-9.02319
▁h	-9.0234
▁xx	-9.02342
▁figlio	-9.02525
est	-9.02529
30	-9.02792
▁conquista	-9.02834
▁breve	-9.02977
▁effetti	-9.03044
tò	-9.03112
▁prodotti	-9.03257
-19	-9.03426
▁nucleo	-9.03471
▁usato	-9.035
aria	-9.03596
▁metri	-9.03741
scri	-9.04023
gni	-9.04115
sio	-9.04248
sia	-9.0429
ke	-9.04366
▁inglese	-9.04447
▁libera	-9.04802
imperatore	-9.05027
▁acc	-9.05178
▁qualche	-9.05202
nio	-9.05229
▁30	-9.05252
ide	-9.0527
dia	-9.05323
amp	-9.05474
fu	-9.05608
▁essi	-9.05632
uri	-9.05758
▁essendo	-9.05793
▁settore	-9.05861
europa	-9.05966
bra	-9.06036
▁clima	-9.06091
▁utilizzato	-9.0613
▁tanto	-9.06173
▁diritti	-9.06197
▁alta	-9.06443
▁collega	-9.06446
den	-9.06472
▁software	-9.06506
▁fre	-9.06566
nce	-9.06617
▁pratica	-9.06773
▁principalmente	-9.06783
▁parla	-9.06879
▁unità	-9.06894
▁nuovi	-9.06948
ton	-9.06963
▁mon	-9.06971
mp	-9.07078
▁detto	-9.07086
età	-9.07103
▁auto	-9.0745
_2	-9.07538
uti	-9.07545
am	-9.07693
gui	-9.07695
▁zone	-9.07704
▁bal	-9.0771
colo	-9.07754
▁occidentale	-9.08078
pu	-9.08157
nato	-9.08177
▁vol	-9.08267
▁comunale	-9.08283
▁ecc	-9.08286
▁territori	-9.08342
▁computer	-9.08385
▁condizioni	-9.08512
anti	-9.08665
▁ka	-9.08672
▁numeri	-9.08716
▁an	-9.08746
▁napoli	-9.08866
▁capitale	-9.09091
esercito	-9.09164
nica	-9.09205
▁forme	-9.09206
▁maggiori	-9.09259
▁consiglio	-9.09357
ho	-9.09407
▁chiamato	-9.09419
▁punti	-9.09444
▁iii	-9.09555
▁sport	-9.09636
▁modello	-9.0965
arte	-9.09851
ari	-9.09918
▁sei	-9.10065
▁seguenti	-9.10128
▁mostra	-9.10153
▁pla	-9.1019
▁25	-9.10246
nico	-9.10454
ordine	-9.10532
ttu	-9.10621
▁tedesca	-9.10664
▁ver	-9.10722
▁moderna	-9.10771
▁dunque	-9.10779
▁latino	-9.10819
▁costa	-9.11024
▁scuola	-9.11124
▁finale	-9.11394
▁valori	-9.11415
▁padre	-9.11473
▁locale	-9.11478
fer	-9.11806
▁poli	-9.11852
▁locali	-9.1204
▁app	-9.12076
▁inizia	-9.12092
▁mano	-9.12191
▁otto	-9.12199
▁ufficiale	-9.12258
ber	-9.12329
▁energia	-9.12586
▁fuori	-9.12595
endo	-9.12653
▁rico	-9.12657
zze	-9.12852
sche	-9.12933
▁linee	-9.12994
sp	-9.12997
▁considerato	-9.13102
▁esiste	-9.13173
▁probabilmente	-9.13338
▁variabili	-9.13439
▁simile	-9.13588
▁permette	-9.13618
ici	-9.13648
▁subito	-9.13703
▁premio	-9.13809
ora	-9.13992
▁meridionale	-9.14003
energia	-9.14097
▁differenza	-9.14167
▁pianeta	-9.14167
▁divisione	-9.14171
cchi	-9.14181
attività	-9.14258
▁intorno	-9.14288
▁=	-9.14606
▁calcio	-9.14645
art	-9.14737
▁situazione	-9.14883
▁francesco	-9.15015
▁scopo	-9.15056
▁para	-9.15224
▁movimento	-9.15242
▁inizialmente	-9.15495
▁resta	-9.15532
▁uso	-9.15566
▁nascita	-9.15603
▁europa	-9.15702
▁sub	-9.15773
▁carica	-9.15922
▁corte	-9.16173
▁popolo	-9.16339
▁colore	-9.16406
▁super	-9.16462
▁servizio	-9.16561
ty	-9.1665
▁fare	-9.16887
▁ti	-9.16932
▁palazzo	-9.16943
val	-9.16956
▁possibilità	-9.16956
ser	-9.16991
▁piuttosto	-9.1706
▁attorno	-9.17061
▁lega	-9.17066
enza	-9.17109
ed	-9.17116
stri	-9.17278
vol	-9.17432
▁madre	-9.17441
mma	-9.17461
▁trovano	-9.17512
ssero	-9.17596
▁diventa	-9.17601
ono	-9.17706
ir	-9.17789
poli	-9.17855
almente	-9.17913
▁villa	-9.18296
_1	-9.18321
▁aree	-9.18449
▁nazioni	-9.18486
spa	-9.1863
▁orientale	-9.18701
ute	-9.18703
▁&	-9.18708
▁tempi	-9.18716
▁eventi	-9.18877
▁sovietica	-9.18912
▁teatro	-9.18912
comp	-9.18994
▁24	-9.19092
▁lago	-9.19111
▁precedente	-9.19221
▁cro	-9.19263
▁tal	-9.19315
▁stile	-9.19698
▁uomini	-9.19788
▁generalmente	-9.19921
▁dallo	-9.20019
▁termini	-9.20048
▁sci	-9.20059
▁ormai	-9.20166
▁riporta	-9.20188
mar	-9.20211
▁moto	-9.20278
▁lettera	-9.20657
ten	-9.20713
▁oppure	-9.20718
▁lingue	-9.20798
▁bianco	-9.20926
▁problema	-9.21053
uomo	-9.21183
]]	-9.21315
bb	-9.21409
▁almeno	-9.21442
▁regioni	-9.21606
▁tradizione	-9.21695
▁definizione	-9.21718
▁romani	-9.21766
▁disco	-9.21776
11	-9.21798
▁stabili	-9.21943
▁avuto	-9.21958
america	-9.22081
▁simbolo	-9.2219
▁monete	-9.22211
ante	-9.22278
▁capoluogo	-9.22335
▁naturale	-9.22348
▁foto	-9.22422
▁pace	-9.22542
▁iniziò	-9.22764
▁rock	-9.22865
▁militari	-9.22984
▁metodo	-9.23108
▁ottenere	-9.23111
▁successivo	-9.23131
rato	-9.23131
▁usa	-9.23154
zzi	-9.23393
uto	-9.23402
gt	-9.23482
▁nonché	-9.23571
▁cielo	-9.23635
ccio	-9.2364
▁passato	-9.237
▁confine	-9.23768
▁ospita	-9.23891
gre	-9.23943
”	-9.24288
▁mercato	-9.24557
cola	-9.24623
hi	-9.24655
▁rosso	-9.24753
stici	-9.24821
▁giro	-9.24891
80	-9.25123
▁trattato	-9.25125
▁cal	-9.25167
ismo	-9.25275
▁terzo	-9.25352
▁completamente	-9.25555
▁(18	-9.25656
gene	-9.25698
▁hitler	-9.25745
zo	-9.25789
pia	-9.25881
▁guida	-9.25986
▁posta	-9.25991
▁pan	-9.26117
▁relazione	-9.26148
▁piccola	-9.26172
▁pal	-9.26226
▁sociale	-9.26287
▁castello	-9.2634
nci	-9.26521
▁chiamata	-9.26553
ph	-9.26583
ità	-9.26658
zzato	-9.26781
gne	-9.26812
▁secoli	-9.26923
▁xix	-9.26969
mb	-9.27025
▁problemi	-9.27088
▁probabilità	-9.27227
▁fer	-9.27297
attuale	-9.27345
▁vittoria	-9.27495
▁figura	-9.2762
lio	-9.27737
ario	-9.27964
ina	-9.28164
ex	-9.28166
come	-9.28208
una	-9.2823
▁classifica	-9.28281
▁rapporto	-9.28316
▁semi	-9.28344
rna	-9.28358
▁piccolo	-9.28607
▁risultato	-9.28728
65	-9.28796
stru	-9.28804
uta	-9.28867
▁oggetto	-9.2894
ine	-9.29128
▁dovuto	-9.2914
rò	-9.29163
▁sembra	-9.29238
▁par	-9.29301
▁elemento	-9.29323
▁siano	-9.29347
▁stagione	-9.2942
▁località	-9.29458
mini	-9.29492
▁settentrionale	-9.29601
▁ex	-9.29642
▁alto	-9.29684
▁churchill	-9.29691
▁lavori	-9.2971
▁vicino	-9.29722
bilità	-9.2978
▁man	-9.29907
▁francesi	-9.29922
ura	-9.29958
▁centri	-9.30026
▁“	-9.30052
▁direttamente	-9.30123
scono	-9.30143
▁vero	-9.30152
scu	-9.30178
mer	-9.30307
▁rossa	-9.30477
▁composti	-9.30528
▁antica	-9.30781
mina	-9.3082
▁economica	-9.30951
for	-9.30998
▁sant	-9.31017
▁materia	-9.31121
▁am	-9.31183
▁civili	-9.31231
ö	-9.3137
▁direzione	-9.31595
ite	-9.31718
▁funzioni	-9.31798
▁vo	-9.31986
nzi	-9.32043
▁particolarmente	-9.32091
▁completa	-9.32143
▁tu	-9.32186
ko	-9.32196
▁strumenti	-9.32221
▁ste	-9.32245
▁materiale	-9.32252
14	-9.32271
▁seguente	-9.32275
▁qualità	-9.32409
▁simboli	-9.32511
▁venti	-9.3253
cci	-9.32661
▁stampa	-9.32669
▁riuscì	-9.3267
feri	-9.32694
▁entrambi	-9.328
alto	-9.32862
▁strade	-9.3293
▁22	-9.3303
46	-9.33075
▁esistono	-9.33079
▁+	-9.33118
▁bra	-9.33345
unica	-9.33379
pp	-9.33397
▁giovane	-9.33439
16	-9.33543
▁ber	-9.33579
▁detta	-9.33617
▁berlino	-9.33662
▁esse	-9.33758
▁j	-9.33785
▁province	-9.33889
rebbe	-9.33947
▁23	-9.33979
▁applica	-9.34232
▁tipi	-9.34261
▁sp	-9.3429
▁pu	-9.34301
39	-9.34326
▁significa	-9.34512
▁ebrei	-9.3453
▁poter	-9.34569
pri	-9.34747
▁ferro	-9.34764
▁ju	-9.34804
34	-9.34942
asse	-9.34953
40	-9.34991
55	-9.34999
▁31	-9.35026
gono	-9.35078
▁john	-9.35109
▁naturali	-9.35157
nali	-9.35245
▁reale	-9.35311
grafia	-9.35348
▁particelle	-9.35403
▁internazionali	-9.35405
▁successivi	-9.35448
▁conseguenza	-9.35556
idi	-9.35564
▁carattere	-9.35697
▁fenomeno	-9.357
▁piccoli	-9.35729
▁mer	-9.35755
▁21	-9.35768
▁isole	-9.3585
▁semplice	-9.3591
▁conta	-9.35914
▁[[	-9.35924
21	-9.36016
▁politico	-9.36024
ja	-9.36059
col	-9.36072
24	-9.36131
▁entra	-9.36146
mpa	-9.36154
▁libro	-9.36246
ris	-9.36298
▁costituzione	-9.3636
▁bio	-9.36374
▁notevole	-9.36441
ly	-9.36516
38	-9.36611
.000	-9.36618
▁he	-9.36659
▁soli	-9.3673
▁complesso	-9.36734
▁concetto	-9.36739
▁stazione	-9.36753
▁sor	-9.36828
nna	-9.36837
▁portò	-9.37041
▁stra	-9.37046
ranno	-9.37055
bre	-9.37255
▁pen	-9.37319
▁origini	-9.37332
▁composto	-9.37488
▁imp	-9.37517
▁massimo	-9.37545
▁popolare	-9.37554
19	-9.37612
37	-9.37683
▁termina	-9.37705
olo	-9.37732
op	-9.37879
66	-9.37898
tamente	-9.37909
▁qualsiasi	-9.37932
▁colori	-9.37941
▁genera	-9.37949
▁comprende	-9.38044
ā	-9.38083
▁wi	-9.38085
▁premi	-9.38115
▁new	-9.38133
▁ore	-9.38293
▁formato	-9.38294
▁libero	-9.38396
▁scoperta	-9.38537
autore	-9.38541
▁jo	-9.38681
ssione	-9.38684
25	-9.38696
▁lunga	-9.38751
▁acqua	-9.38808
▁capacità	-9.38846
cor	-9.38848
tz	-9.38943
▁campionato	-9.38993
▁calendario	-9.38994
▁unito	-9.39025
unità	-9.39164
▁testa	-9.39447
stiche	-9.39531
ssimo	-9.39572
ccia	-9.39583
▁autori	-9.39622
rri	-9.39702
▁certo	-9.39762
44	-9.39781
ori	-9.3979
▁basso	-9.39879
▁giuseppe	-9.39911
idea	-9.40009
he	-9.40048
47	-9.401
22	-9.4013
54	-9.4016
austria	-9.40208
▁cittadini	-9.40219
▁variabile	-9.40259
▁industriale	-9.40315
▁minore	-9.40365
'8	-9.40383
▁verifica	-9.40473
▁stemma	-9.4054
23	-9.40562
▁pare	-9.40633
▁bassa	-9.4067
▁sardegna	-9.40838
▁scala	-9.40848
ire	-9.40954
▁informazioni	-9.41043
▁fonda	-9.41068
stro	-9.41302
▁greco	-9.41365
▁afferma	-9.41371
bri	-9.4145
▁pubblicato	-9.41523
▁raggi	-9.41534
mbi	-9.41577
▁strutture	-9.41617
cia	-9.41697
98	-9.41707
▁chimica	-9.41792
trice	-9.41859
ssima	-9.41879
69	-9.41889
35	-9.42042
▁ponte	-9.42049
non	-9.42052
as	-9.42058
▁metalli	-9.42069
▁critica	-9.42087
▁tor	-9.42109
▁sette	-9.42136
▁resto	-9.42344
▁sarà	-9.42352
lità	-9.42537
86	-9.42618
▁sé	-9.42642
▁ordine	-9.42688
▁rimase	-9.42705
▁propri	-9.42776
organizzazione	-9.42791
tur	-9.42831
▁100	-9.4292
▁costante	-9.4293
ag	-9.43013
▁veniva	-9.43017
▁decise	-9.43025
▁testo	-9.43042
▁sin	-9.4308
▁tecniche	-9.43193
▁chiese	-9.43212
▁interna	-9.43219
▁bene	-9.43233
▁prese	-9.43307
▁piccole	-9.43415
99	-9.43577
▁case	-9.43582
udi	-9.43732
▁consiste	-9.43736
▁medio	-9.43784
▁statunitense	-9.4383
▁lunghezza	-9.43839
▁servizi	-9.43875
▁moneta	-9.4388
▁geo	-9.43936
amento	-9.43985
economia	-9.44056
_3	-9.44095
▁linguaggio	-9.441
lie	-9.44118
12	-9.44255
▁crisi	-9.44313
▁28	-9.44373
▁rende	-9.44377
▁religiose	-9.44472
▁visibile	-9.44473
▁spi	-9.44478
▁venezia	-9.44503
▁can	-9.44629
▁nobel	-9.44641
▁visto	-9.44718
▁tro	-9.44758
68	-9.44775
▁rimane	-9.44787
▁leggi	-9.44861
▁costituito	-9.45027
immagine	-9.45118
▁maniera	-9.45137
▁torre	-9.45216
cio	-9.45244
]	-9.45264
▁né	-9.45314
▁nomi	-9.45361
tre	-9.45386
▁assieme	-9.45442
▁parole	-9.45446
93	-9.45446
iche	-9.45458
▁pra	-9.45613
87	-9.45633
▁fondamentale	-9.45634
pla	-9.45677
vole	-9.45696
▁religione	-9.45767
▁file	-9.45774
▁vittorio	-9.45931
▁risultati	-9.46037
95	-9.46045
▁trasforma	-9.46055
▁raggiungere	-9.46061
▁principio	-9.46088
ghi	-9.46137
▁2000	-9.46167
90	-9.46206
net	-9.46265
iano	-9.46381
▁mese	-9.46382
▁necessario	-9.46408
▁svizzera	-9.46422
▁solare	-9.46433
▁personaggi	-9.46481
▁animali	-9.46511
▁magnitudine	-9.46586
ent	-9.46732
▁nacque	-9.46758
▁diretto	-9.46791
▁w	-9.46791
▁th	-9.46844
mu	-9.46868
zzata	-9.46957
inter	-9.46967
esi	-9.47057
ista	-9.472
▁19	-9.47283
▁27	-9.47353
▁rivoluzione	-9.47406
▁26	-9.47518
▁unico	-9.47527
+	-9.47531
▁integra	-9.47538
ki	-9.47609
▁civile	-9.47745
▁sinistra	-9.47763
▁pertanto	-9.47917
▁ja	-9.47939
im	-9.48015
▁sol	-9.48179
▁blu	-9.48181
▁creazione	-9.48199
▁regola	-9.4826
▁mura	-9.4832
▁regionale	-9.48411
ue	-9.48509
▁libertà	-9.48578
▁portato	-9.48639
▁conserva	-9.48737
▁attualmente	-9.48748
▁terza	-9.48761
51	-9.48908
dono	-9.48973
▁nomina	-9.48995
chia	-9.49011
gh	-9.49038
▁noti	-9.49039
arco	-9.49076
▁rapporti	-9.49082
▁utilizza	-9.49196
xi	-9.49212
industria	-9.49225
94	-9.49298
▁inferiore	-9.49419
gen	-9.49436
▁ossia	-9.49503
▁ciclo	-9.49656
▁ufficiali	-9.49685
ambito	-9.49753
▁contiene	-9.49937
▁massima	-9.49995
ze	-9.50036
53	-9.50068
▁memoria	-9.50098
▁politiche	-9.50119
unico	-9.50217
cità	-9.50221
car	-9.50232
96	-9.50247
°	-9.50259
▁ministro	-9.50268
▁dominio	-9.50307
▁alpi	-9.50431
▁difesa	-9.50448
▁simili	-9.50449
▁scritto	-9.50588
▁tele	-9.50788
▁pietro	-9.50791
trici	-9.50824
▁diffusione	-9.50964
ol	-9.50987
rra	-9.51005
les	-9.51009
▁individua	-9.51071
▁periodi	-9.51077
89	-9.51089
▁sicurezza	-9.51124
tera	-9.51131
▁geografia	-9.51134
85	-9.51191
flu	-9.51202
rico	-9.51245
▁comando	-9.51311
75	-9.51321
▁mal	-9.51399
▁fini	-9.51534
▁culturale	-9.51555
▁provinciale	-9.51558
▁alleati	-9.51627
▁fossero	-9.51632
▁registra	-9.51651
▁poteva	-9.51654
▁varia	-9.51669
lmente	-9.5175
▁isola	-9.51769
27	-9.51795
▁antonio	-9.5182
rla	-9.51926
▁letteratura	-9.52023
ac	-9.52033
▁euro	-9.52082
45	-9.52224
15	-9.52227
up	-9.52528
▁influenza	-9.52632
tone	-9.52652
18	-9.52702
▁2006	-9.52706
▁stessi	-9.52734
par	-9.52747
92	-9.52809
▁proprie	-9.52914
▁arriva	-9.52938
▁figli	-9.5295
▁moglie	-9.53035
▁modifica	-9.53052
ché	-9.53096
ioni	-9.53265
▁giovani	-9.53302
28	-9.53333
ppena	-9.53371
▁decreto	-9.53387
▁precedenti	-9.53404
tru	-9.53468
49	-9.53642
tina	-9.53725
▁descrizione	-9.53738
▁forse	-9.53761
▁von	-9.53797
ppi	-9.53833
sen	-9.53915
▁nero	-9.5392
▁campagna	-9.53929
▁iv	-9.53993
▁luminosità	-9.54274
▁nasce	-9.54357
▁fede	-9.54601
▁potrebbe	-9.54631
▁carriera	-9.54636
▁utilizzata	-9.54681
▁scar	-9.54769
antica	-9.54811
▁av	-9.54814
▁spin	-9.54818
▁favore	-9.54971
▁processi	-9.55187
▁concentra	-9.55221
▁pio	-9.55248
▁sali	-9.5525
52	-9.55273
ito	-9.55288
▁regole	-9.55342
▁facendo	-9.55347
▁importanza	-9.55361
▁interno	-9.55371
▁spo	-9.55473
76	-9.55526
mica	-9.55526
";	-9.5557
à	-9.55601
▁tur	-9.55674
ino	-9.55867
ō	-9.55879
ione	-9.55932
▁z	-9.56166
▁fanno	-9.56201
▁differenti	-9.5624
▁scelta	-9.5624
▁radiazione	-9.56253
▁mediante	-9.56379
fra	-9.5639
▁risale	-9.56392
▁matematica	-9.56421
▁basi	-9.56492
▁et	-9.5659
▁marina	-9.56598
▁acque	-9.56627
smi	-9.56663
▁trasporto	-9.56785
▁antico	-9.56905
▁personaggio	-9.56935
▁parola	-9.56976
uni	-9.5702
▁cre	-9.57199
▁windows	-9.57237
▁componenti	-9.57351
ya	-9.57351
▁pri	-9.57352
▁rispettivamente	-9.57403
▁ordina	-9.57405
▁prende	-9.57415
ard	-9.57419
▁franco	-9.57428
▁prova	-9.57557
29	-9.57649
▁tecnica	-9.57675
▁cinema	-9.577
▁destra	-9.57744
q	-9.57851
▁band	-9.57861
▁rileva	-9.57876
▁meta	-9.57907
▁lotta	-9.58178
▁svolge	-9.58251
▁dieci	-9.58424
▁museo	-9.58438
ologia	-9.58478
▁determina	-9.5858
▁scena	-9.58647
dro	-9.58705
▁stabile	-9.58724
▁arti	-9.58756
▁persona	-9.58757
ngo	-9.58873
▁attraversa	-9.58908
▁parlamento	-9.58908
isce	-9.58922
▁passaggio	-9.59098
▁web	-9.59132
▁ottenne	-9.5918
▁2008	-9.59205
rica	-9.59297
▁identifica	-9.59302
▁governa	-9.59363
▁maggioranza	-9.59366
os	-9.59454
ud	-9.59508
▁frazione	-9.59597
nici	-9.59671
▁attiva	-9.59729
▁regime	-9.5975
▁nato	-9.59815
▁pianeti	-9.60116
▁età	-9.60158
ese	-9.60194
intera	-9.60285
rina	-9.6037
▁cristianesimo	-9.60492
▁terrestre	-9.60505
coli	-9.60685
min	-9.60728
▁testi	-9.60731
67	-9.60774
▁trans	-9.60796
logia	-9.60817
com	-9.60831
by	-9.60861
▁filo	-9.609
41	-9.60964
▁29	-9.60975
ger	-9.6103
▁luoghi	-9.6106
▁y	-9.61093
▁elettroni	-9.61121
▁gioca	-9.61158
▁antichi	-9.6122
▁supporto	-9.6125
▁europeo	-9.61251
▁chiama	-9.61299
mba	-9.61374
iti	-9.61374
cente	-9.61396
insieme	-9.61399
▁hu	-9.614
fica	-9.61404
▁meccanica	-9.61425
pul	-9.61458
sch	-9.61491
▁basa	-9.61521
oso	-9.61551
▁ritorno	-9.61558
▁soltanto	-9.61632
▁ufficialmente	-9.61637
▁scrisse	-9.6164
▁caccia	-9.61688
▁croce	-9.6176
="11	-9.61779
▁2009	-9.61843
▁bru	-9.61871
▁diede	-9.61892
▁sf	-9.61898
▁sviluppa	-9.61899
56	-9.61958
▁mani	-9.62016
▁2007	-9.6204
▁punta	-9.62053
84	-9.62112
▁resistenza	-9.62223
▁im	-9.62276
▁luigi	-9.62282
▁2010	-9.62284
▁xvi	-9.62321
nk	-9.62325
▁ab	-9.62361
zzare	-9.62389
▁confronti	-9.62399
▁za	-9.62472
):	-9.62491
▁dimostra	-9.62632
▁artisti	-9.62859
▁riforma	-9.6286
▁limita	-9.62865
▁classi	-9.62874
ü	-9.62978
▁conflitto	-9.63172
▁°	-9.63182
▁trasporti	-9.63366
▁economico	-9.63367
▁metodi	-9.63368
logo	-9.63379
▁cosa	-9.63408
▁fusione	-9.63435
▁pisa	-9.63438
▁operazioni	-9.63438
▁dichiara	-9.63444
▁provenienti	-9.63489
▁estende	-9.63565
▁lettere	-9.63587
ran	-9.63653
sul	-9.63675
we	-9.63688
nga	-9.63761
▁studia	-9.63943
▁parco	-9.63958
▁dialetto	-9.63967
▁quanti	-9.642
▁dura	-9.64239
nni	-9.64279
▁gradi	-9.64333
▁storici	-9.6435
▁solitamente	-9.64354
▁venivano	-9.64366
▁generi	-9.64396
▁fonti	-9.64409
rt	-9.64417
▁post	-9.64489
▁ko	-9.6451
▁impe	-9.64536
▁commerciale	-9.64553
san	-9.6458
ley	-9.64599
▁ter	-9.64608
▁commerciali	-9.64632
64	-9.64644
ny	-9.64684
oli	-9.64814
iana	-9.64859
berg	-9.64905
▁immagini	-9.64933
82	-9.65018
▁complessi	-9.65082
▁soldati	-9.65131
giu	-9.65138
▁evitare	-9.65169
rati	-9.65182
▁mono	-9.6526
▁creare	-9.65279
▁riserva	-9.65331
▁tentativo	-9.65345
▁programmi	-9.65353
dal	-9.65354
▁avesse	-9.65419
_4	-9.65445
▁pressi	-9.65531
▁occasione	-9.65584
▁personale	-9.65674
wi	-9.65692
▁federico	-9.65734
▁mor	-9.65752
▁ag	-9.65861
▁chiave	-9.65928
▁avviene	-9.65929
▁gara	-9.66063
euro	-9.66119
▁neo	-9.66145
▁applicazioni	-9.66235
port	-9.66249
▁statistica	-9.66473
▁buon	-9.66576
▁considerata	-9.66713
▁sociali	-9.66713
▁temperature	-9.66732
▁assegna	-9.66736
nzo	-9.66745
▁organi	-9.66823
81	-9.66854
iamo	-9.66949
▁vale	-9.66962
▁comunicazione	-9.66996
▁bianca	-9.67129
▁densità	-9.67129
istituto	-9.67129
▁norma	-9.67166
▁xviii	-9.6718
shi	-9.67244
esa	-9.67277
▁londra	-9.67332
▁appare	-9.67344
▁internet	-9.67408
▁esempi	-9.67492
▁commercio	-9.67525
▁interesse	-9.6753
▁50	-9.67577
bor	-9.67584
▁musicale	-9.6759
▁sorge	-9.67632
▁cura	-9.67699
zionale	-9.677
amente	-9.67761
97	-9.67777
▁fondata	-9.67837
▁considera	-9.67939
esistenza	-9.67981
▁giapponese	-9.68037
lica	-9.68102
annu	-9.68171
ker	-9.68242
▁ricorda	-9.68259
▁tar	-9.68266
lega	-9.68275
▁pensa	-9.68325
pie	-9.68345
▁strumento	-9.68348
▁provoca	-9.68349
operazione	-9.68361
▁cer	-9.68365
▁durata	-9.68561
%	-9.68598
▁statunitensi	-9.68644
uro	-9.68669
▁colonia	-9.6874
▁aumenta	-9.68791
33	-9.68808
▁difficoltà	-9.68962
▁club	-9.68966
▁sposta	-9.68987
▁sola	-9.69004
▁pressione	-9.69058
▁atomi	-9.69068
13	-9.69159
▁piante	-9.69166
▁stima	-9.69219
▁gia	-9.69402
43	-9.69411
ando	-9.69457
osa	-9.69482
geni	-9.69499
line	-9.6951
roma	-9.69523
▁significato	-9.69524
lin	-9.69535
▁imperiale	-9.69581
▁bro	-9.6964
die	-9.69646
ssimi	-9.69668
▁confini	-9.69794
▁dec	-9.69923
▁percorso	-9.69996
▁statale	-9.70118
ovest	-9.70297
▁protagonista	-9.70411
▁rosa	-9.70577
▁scuole	-9.7062
▁celebra	-9.7062
▁morì	-9.70648
▁romanzo	-9.70652
▁op	-9.70826
▁crescita	-9.70829
▁monta	-9.70855
alta	-9.70905
▁costituita	-9.70919
▁sch	-9.70936
▁tratto	-9.70969
▁creato	-9.70977
▁pure	-9.70989
▁fondazione	-9.70995
▁ferma	-9.7101
▁palla	-9.71029
▁sino	-9.71084
grafi	-9.7111
gro	-9.71118
72	-9.71217
▁canale	-9.71249
▁turismo	-9.7126
▁dovette	-9.71296
torio	-9.71318
▁abbia	-9.71346
▁entro	-9.71389
▁colpi	-9.71429
▁speciali	-9.71431
mon	-9.71436
▁originale	-9.7147
▁caratteristica	-9.71473
▁troppo	-9.71478
▁cattura	-9.71486
rk	-9.71542
▁conosciuto	-9.7167
ure	-9.71671
▁disciplina	-9.71675
▁popolazioni	-9.71713
▁definito	-9.71753
▁lavora	-9.71754
▁cap	-9.71792
▁presto	-9.71847
▁utilizzati	-9.71866
cle	-9.7192
▁gestione	-9.71927
▁somma	-9.71941
▁multi	-9.71962
origine	-9.71993
▁tardi	-9.72041
▁italiane	-9.72099
▁vicina	-9.72107
▁atti	-9.72178
▁hi	-9.72239
▁tour	-9.72264
atmosfera	-9.72306
▁que	-9.72315
ski	-9.72406
▁materiali	-9.72429
78	-9.72444
▁nuovamente	-9.72463
mici	-9.72469
osi	-9.7247
▁fondo	-9.72484
▁britannico	-9.72519
cha	-9.72534
79	-9.7265
▁facilmente	-9.72732
▁differenzia	-9.72734
▁2001	-9.72815
amo	-9.72854
▁tende	-9.72901
▁giappone	-9.72902
▁gal	-9.72946
▁favori	-9.72949
▁corona	-9.72988
rale	-9.73093
▁inizio	-9.73132
▁pubblici	-9.73133
▁anch	-9.73157
▁isotopi	-9.7316
▁terre	-9.73161
isti	-9.73192
logica	-9.73233
relativamente	-9.73262
▁reazione	-9.7327
essi	-9.73359
▁modelli	-9.73401
azioni	-9.73495
'11	-9.73555
argento	-9.73614
▁min	-9.73658
▁stan	-9.73704
▁valuta	-9.73725
armata	-9.73755
▁caduta	-9.7381
74	-9.73812
sor	-9.73816
▁torino	-9.73871
▁van	-9.73914
▁cha	-9.73944
genti	-9.73965
▁mode	-9.74005
etti	-9.74037
nata	-9.74057
▁spagna	-9.74066
-20	-9.74115
▁scienza	-9.74256
▁definitivamente	-9.74287
cy	-9.74325
▁notte	-9.74412
▁bri	-9.74432
mia	-9.74452
▁scienze	-9.74454
ffer	-9.74456
▁donne	-9.74505
57	-9.74507
60	-9.74649
▁limite	-9.74676
▁conoscenza	-9.74701
▁feste	-9.74734
▁operativo	-9.74742
▁ritrova	-9.74816
▁macchina	-9.74891
▁verde	-9.74905
cal	-9.75028
astro	-9.75039
▁sequenza	-9.75108
▁wa	-9.75111
gg	-9.75134
▁contrario	-9.75229
associazione	-9.75278
bia	-9.753
▁astronomi	-9.75305
▁contenuto	-9.75327
▁tradizionale	-9.75327
▁dialetti	-9.75346
32	-9.75401
▁bor	-9.75503
telli	-9.75522
▁classificazione	-9.75528
▁relazioni	-9.75548
▁2011	-9.75574
▁milita	-9.75641
▁conferma	-9.75715
▁camera	-9.75774
mpo	-9.75815
▁possiede	-9.75986
▁futuro	-9.75991
clu	-9.76002
anche	-9.76011
ndolo	-9.7605
▁visita	-9.76183
ottocento	-9.76207
▁forti	-9.76256
▁segna	-9.76263
▁asse	-9.76346
razione	-9.76384
▁licenza	-9.76429
▁capi	-9.76437
▁2012	-9.76453
visi	-9.76463
▁buona	-9.76481
70	-9.76635
utilizzo	-9.76675
atti	-9.76755
▁castel	-9.76757
▁corrisponde	-9.76869
42	-9.76869
▁riprese	-9.76872
▁attacca	-9.76901
91	-9.76947
▁fenomeni	-9.77094
▁galassia	-9.77094
universo	-9.7711
ai	-9.77258
▁rivela	-9.77269
meri	-9.7728
▁epoca	-9.77324
▁2014	-9.77343
tus	-9.77418
ft	-9.77532
▁air	-9.77549
nzio	-9.77602
▁meglio	-9.77609
▁varietà	-9.77674
▁servi	-9.77708
dy	-9.77735
▁realizzazione	-9.77846
▁gar	-9.77928
▁fortemente	-9.77969
▁entrambe	-9.7799
▁domina	-9.78041
▁poche	-9.78046
esso	-9.78079
▁prevede	-9.78079
▁particolari	-9.78097
▁organismi	-9.78224
▁cat	-9.783
▁motivo	-9.78362
▁composta	-9.78443
▁mancano	-9.78526
▁economia	-9.78575
rese	-9.78602
nder	-9.78655
▁quartiere	-9.78669
men	-9.78722
▁nove	-9.78745
▁funziona	-9.78771
26	-9.7881
▁caratteri	-9.78866
elemento	-9.78894
▁dipende	-9.7891
31	-9.78918
▁crea	-9.78994
cl	-9.79072
▁mira	-9.79097
▁talvolta	-9.79125
▁usata	-9.79156
▁classica	-9.79204
▁compagnia	-9.79219
▁difficile	-9.79349
▁minori	-9.79549
▁situato	-9.79579
▁osserva	-9.7958
▁perciò	-9.79589
▁2004	-9.79614
▁principi	-9.79615
ssime	-9.79627
▁costo	-9.79658
59	-9.7967
bar	-9.79714
▁figlia	-9.79789
-1	-9.79799
dina	-9.79835
atto	-9.79886
73	-9.79922
▁bre	-9.79933
▁femminile	-9.80036
▁york	-9.80036
▁mediterraneo	-9.80037
▁paolo	-9.80098
▁firma	-9.80102
▁messa	-9.80121
mor	-9.80125
▁cerca	-9.80283
83	-9.80316
▁vera	-9.80355
ore	-9.80391
▁quell	-9.80459
▁comitato	-9.80496
▁attacchi	-9.80497
▁masse	-9.80542
ula	-9.80802
▁autore	-9.80806
▁olimpici	-9.80959
▁senato	-9.81002
▁prepara	-9.81097
zie	-9.81105
▁gregoriano	-9.81191
▁cambio	-9.81195
▁trovare	-9.81264
▁attribu	-9.81279
senti	-9.81302
put	-9.81346
▁tenta	-9.81377
intero	-9.81416
▁devono	-9.81427
▁duca	-9.81451
▁cambia	-9.81457
▁xvii	-9.8155
17	-9.81606
▁bologna	-9.81657
▁protezione	-9.8166
▁por	-9.81756
▁france	-9.81785
ppa	-9.81807
▁lascia	-9.81861
▁micro	-9.81877
▁fisico	-9.81891
▁sale	-9.81938
▁corrente	-9.81988
▁|	-9.82173
▁principe	-9.822
▁semplicemente	-9.82255
▁peso	-9.82286
▁colloca	-9.82316
▁passò	-9.82359
ts	-9.82362
▁minuti	-9.82372
▁ch	-9.82536
▁gira	-9.82537
▁toscana	-9.82594
▁settanta	-9.82595
estremamente	-9.82626
▁2005	-9.82628
etto	-9.82693
▁cittadina	-9.82784
▁presentano	-9.82786
▁chilometri	-9.8283
▁fondamentali	-9.82851
▁paul	-9.82869
▁confina	-9.82879
▁1,	-9.82895
nes	-9.82953
dor	-9.8301
▁britannica	-9.83066
▁40	-9.83089
bus	-9.83097
▁passo	-9.83104
fici	-9.83107
boli	-9.83109
▁sedi	-9.83135
bio	-9.83139
bro	-9.83153
▁storica	-9.83233
archi	-9.83277
▁fatti	-9.83379
▁campione	-9.83385
▁definita	-9.83458
nel	-9.83469
▁alcun	-9.83508
cina	-9.83521
▁riguardo	-9.83541
▁costituisce	-9.83547
▁disegno	-9.83553
estate	-9.8358
niche	-9.83617
▁ger	-9.83628
36	-9.83634
▁paga	-9.83667
imp	-9.83701
▁aspetti	-9.83782
▁men	-9.83809
▁volo	-9.83906
▁zo	-9.83913
▁celebre	-9.84018
▁pietra	-9.8406
▁comportamento	-9.84078
▁pubblicazione	-9.84104
▁richiede	-9.84257
▁tiberio	-9.84257
▁lista	-9.84263
ola	-9.84313
elli	-9.84363
▁pol	-9.84445
▁cittadino	-9.84497
▁emanuele	-9.84497
▁squadre	-9.84497
▁documenti	-9.84498
lice	-9.84532
▁questione	-9.84542
messa	-9.84549
▁rivolta	-9.84619
▁server	-9.84647
▁russia	-9.84667
▁carta	-9.84709
▁gravi	-9.84724
▁abbastanza	-9.84737
▁nata	-9.849
ler	-9.84909
▁viaggio	-9.8491
▁comincia	-9.84927
▁bisestili	-9.84978
▁vescovo	-9.84978
metri	-9.85009
▁fattori	-9.85077
rli	-9.85091
71	-9.85116
▁usati	-9.85133
▁cesare	-9.8523
▁banca	-9.8525
▁pas	-9.85272
▁sviluppato	-9.85356
61	-9.85405
▁vede	-9.85417
▁politici	-9.85499
dra	-9.85528
▁doveva	-9.85533
ù	-9.85573
▁vie	-9.85591
otti	-9.85605
▁comporta	-9.85618
▁ottenuto	-9.85705
▁progetti	-9.85705
aeroporto	-9.85728
▁beni	-9.85771
mme	-9.85904
▁galli	-9.85919
▁sessanta	-9.85948
▁corre	-9.85967
▁membro	-9.85967
▁avendo	-9.86025
▁borgo	-9.86032
▁interpreta	-9.861
dere	-9.8611
▁carbonio	-9.86137
▁partecipa	-9.86144
▁mette	-9.86146
▁umano	-9.86195
▁gare	-9.86252
▁at	-9.86328
▁interessa	-9.86368
▁indicare	-9.86385
":	-9.86405
pen	-9.86426
▁cita	-9.8644
▁volume	-9.86622
▁ottanta	-9.86682
▁manca	-9.86686
▁supera	-9.86728
▁lancia	-9.86818
▁manga	-9.86852
▁possibili	-9.8689
▁famiglie	-9.86927
▁necessità	-9.86927
▁scor	-9.86987
▁je	-9.87036
analisi	-9.87037
▁fran	-9.87054
▁resti	-9.87073
▁fissa	-9.87127
▁galassie	-9.87173
▁gregorio	-9.87173
▁prevalentemente	-9.87173
▁bretagna	-9.87173
▁genova	-9.87187
▁edifici	-9.87223
arono	-9.87242
▁corsa	-9.87281
▁armi	-9.87317
▁flo	-9.8739
▁medioevo	-9.87421
▁disposizione	-9.87428
lino	-9.87434
▁storie	-9.87457
▁des	-9.87483
id	-9.87495
roni	-9.87506
▁metallo	-9.87514
▁vecchio	-9.87518
48	-9.87542
▁situata	-9.87669
▁composizione	-9.87677
▁faceva	-9.87727
▁reali	-9.87771
▁nazista	-9.87918
▁incontra	-9.87919
▁porti	-9.87992
▁legato	-9.88003
my	-9.88005
▁2003	-9.88011
evoluzione	-9.88031
▁donna	-9.88099
▁monti	-9.8813
▁elettrica	-9.88165
▁congresso	-9.88165
▁1945	-9.88176
▁ispira	-9.88276
▁polo	-9.8829
mette	-9.88363
▁categoria	-9.88414
▁colle	-9.88419
▁aperto	-9.88489
▁fascia	-9.88513
▁terreno	-9.88558
▁informa	-9.8863
▁marco	-9.88651
▁avvenne	-9.88664
▁pericolo	-9.88671
▁2013	-9.88684
arrivo	-9.8879
▁ki	-9.88806
▁sufficiente	-9.88869
▁britannici	-9.88915
▁dollari	-9.88915
▁antiche	-9.88949
ane	-9.8896
▁stadio	-9.88984
▁preferi	-9.89006
▁gri	-9.89017
▁napoleone	-9.89166
▁2015	-9.8919
app	-9.8924
▁fonte	-9.89318
aff	-9.89358
▁raffigura	-9.89419
▁nucleare	-9.89419
▁africa	-9.89493
▁assi	-9.89507
▁piani	-9.89585
á	-9.89666
introduzione	-9.8967
▁bassi	-9.89693
irlanda	-9.89697
gue	-9.89726
vor	-9.89759
▁neutroni	-9.89766
voli	-9.89792
▁usare	-9.8983
▁sc	-9.89834
gar	-9.89852
▁minerali	-9.89924
apertura	-9.89972
▁au	-9.90115
▁william	-9.90177
▁giorgio	-9.90177
▁disputa	-9.90179
ingresso	-9.90194
▁consente	-9.90201
dine	-9.90238
uscita	-9.90248
▁navi	-9.90251
▁utilizzare	-9.90293
▁sconfitta	-9.90432
▁tutela	-9.90433
antico	-9.90678
▁george	-9.90691
▁luna	-9.90698
▁potesse	-9.9073
▁pia	-9.90783
▁avanza	-9.90849
mbo	-9.90924
▁richiesta	-9.90943
▁tedesche	-9.90943
▁enrico	-9.90948
▁1943	-9.90953
▁gene	-9.90969
ace	-9.91023
▁certa	-9.91035
gan	-9.91071
agricoltura	-9.91199
▁fratello	-9.91232
essa	-9.91273
▁diretta	-9.91304
▁università	-9.91334
▁decenni	-9.91359
mila	-9.91375
▁novecento	-9.91456
▁canzone	-9.91456
▁versioni	-9.91466
neo	-9.91481
▁perse	-9.91491
▁[	-9.91495
▁giove	-9.9157
▁zero	-9.91627
▁forni	-9.91687
▁eletto	-9.9171
▁immediatamente	-9.91714
▁scoperto	-9.91714
▁dedicato	-9.91716
▁catena	-9.91726
▁augusto	-9.91759
vers	-9.91783
▁ebbero	-9.91862
articolo	-9.91887
africa	-9.91915
▁segue	-9.91915
▁compreso	-9.91974
lari	-9.91981
▁appartenenti	-9.91987
▁effettua	-9.92002
▁successiva	-9.92041
▁celeste	-9.92232
temporaneamente	-9.92261
▁edizione	-9.92298
ndone	-9.92307
sc	-9.92312
▁coppia	-9.9243
▁reti	-9.9245
▁fan	-9.92485
▁europei	-9.92491
▁brescia	-9.92496
▁1999	-9.92504
01	-9.92599
tui	-9.92679
▁rientra	-9.92688
▁cellule	-9.92751
▁mantenere	-9.92751
▁soluzione	-9.92752
▁entrò	-9.92752
▁potenza	-9.92753
▁spiega	-9.92831
▁prove	-9.92915
▁possa	-9.92984
▁molecole	-9.93013
▁claudio	-9.93013
0%	-9.93101
▁dettagli	-9.93148
ambiente	-9.93252
ava	-9.93312
▁successive	-9.9333
angelo	-9.93332
▁elezioni	-9.93373
▁scrive	-9.93486
emisfero	-9.93537
▁produce	-9.93537
▁us	-9.93624
_5	-9.93666
▁costruito	-9.93671
mul	-9.93692
▁reca	-9.93709
nus	-9.93726
▁stellare	-9.93748
ller	-9.93835
mmo	-9.93874
mone	-9.93886
▁indipendente	-9.93985
▁regista	-9.94072
▁fri	-9.942
▁nazione	-9.94275
–	-9.94276
del	-9.94279
▁metropolitana	-9.94329
sk	-9.94376
▁collaborazione	-9.9443
formi	-9.94522
▁narra	-9.94532
▁esclusivamente	-9.94594
▁semplici	-9.94594
▁stava	-9.94628
2,	-9.94633
▁osservazioni	-9.94685
▁specifica	-9.9476
▁assicura	-9.94787
ncia	-9.94819
▁decisione	-9.94875
rg	-9.9488
▁rive	-9.94907
lici	-9.94929
spo	-9.94939
▁note	-9.94947
▁compar	-9.94978
lati	-9.95064
▁legame	-9.95121
▁nebulosa	-9.95126
▁moderni	-9.95127
▁scritta	-9.95128
▁formare	-9.95134
▁salva	-9.95139
)"	-9.95147
▁geni	-9.95151
▁000	-9.95155
▁corsi	-9.95195
▁fiori	-9.95199
▁legati	-9.95234
▁2002	-9.95241
▁santo	-9.95322
▁coppa	-9.95447
▁sto	-9.95449
▁centrali	-9.95516
▁arte	-9.95565
ibile	-9.95592
giorni	-9.95627
ung	-9.95642
▁infrastrutture	-9.95662
▁rivista	-9.95664
▁ricorrenze	-9.95678
oceano	-9.95688
ida	-9.95693
don	-9.95696
▁giocatori	-9.9572
▁posti	-9.95859
▁cominci	-9.95887
ab	-9.9592
▁commissione	-9.95928
▁pensiero	-9.95937
▁2016	-9.95961
accademia	-9.95999
▁utilizzando	-9.96031
▁ferrovia	-9.96107
jo	-9.9617
▁miliardi	-9.962
▁scrivere	-9.96279
▁umani	-9.96284
camente	-9.96354
▁bolzano	-9.9647
▁diploma	-9.96473
▁1944	-9.96484
esimo	-9.96596
▁idro	-9.96649
▁schi	-9.96714
▁cattolica	-9.96741
▁firenze	-9.96742
▁generali	-9.96744
▁sfrutta	-9.96754
tor	-9.9676
▁quantistica	-9.96762
tter	-9.96802
▁ricava	-9.96911
▁proto	-9.96942
denti	-9.96964
1,	-9.96965
▁adatta	-9.96969
▁addirittura	-9.97013
▁test	-9.97025
cus	-9.97079
▁accetta	-9.97136
nger	-9.97148
ron	-9.97171
pra	-9.97191
spir	-9.97202
▁passare	-9.9721
indipendenza	-9.97271
▁vive	-9.97283
▁ammassi	-9.97287
▁gesti	-9.97301
▁aerei	-9.97303
▁greca	-9.97398
▁traccia	-9.97418
▁comunemente	-9.97432
▁xv	-9.97444
▁appunto	-9.97478
▁controlla	-9.97517
av	-9.97523
▁occidentali	-9.97559
▁famoso	-9.97559
▁vinse	-9.97568
09	-9.97637
sma	-9.9764
mann	-9.97692
▁adotta	-9.97695
und	-9.97706
abile	-9.97711
5%	-9.97716
▁atto	-9.97737
▁video	-9.97767
▁stesse	-9.97768
auto	-9.97792
▁denominazione	-9.97833
▁record	-9.97834
▁documento	-9.97834
▁giustizia	-9.9784
▁ambito	-9.97873
fran	-9.97912
▁relativa	-9.97977
▁pianta	-9.97993
ré	-9.98057
▁permesso	-9.98112
▁tiro	-9.98124
▁vide	-9.98128
▁calcolo	-9.98133
▁xiv	-9.98138
05	-9.98182
▁pubblicata	-9.98191
▁include	-9.98285
edizione	-9.98314
ense	-9.98355
▁scritti	-9.98385
amministrazione	-9.98385
architetto	-9.98386
▁scientifica	-9.98386
▁raggio	-9.98476
▁veneto	-9.98548
plo	-9.9856
▁monumenti	-9.98659
▁torna	-9.98676
▁davanti	-9.98678
▁produrre	-9.98686
▁pesca	-9.98692
▁pie	-9.98792
gente	-9.98795
▁dare	-9.98826
▁gio	-9.98849
▁corpi	-9.9886
▁relativi	-9.98899
▁vanno	-9.98938
▁assume	-9.98962
▁grecia	-9.99007
▁contatto	-9.99075
▁armata	-9.99124
▁stranieri	-9.99214
invasione	-9.99215
▁pat	-9.99234
▁belli	-9.99313
mes	-9.9934
▁migliore	-9.99358
cato	-9.9944
▁polonia	-9.99519
▁decora	-9.99662
▁vento	-9.99716
hu	-9.99719
amore	-9.99759
▁biografia	-9.99788
ion	-9.99853
▁tema	-9.99927
▁diretti	-9.99976
▁portata	-10.0002
▁decadimento	-10.0005
▁xiii	-10.0005
▁dovuta	-10.0006
58	-10.0006
interesse	-10.0009
inverno	-10.0009
▁gamma	-10.001
▁rotazione	-10.0011
▁diverso	-10.0013
▁trovava	-10.0013
▁motivi	-10.0014
ffa	-10.0016
▁patto	-10.0017
▁como	-10.0019
ug	-10.0022
rdo	-10.0027
▁chimico	-10.0035
▁migliori	-10.0045
▁sala	-10.0056
▁pale	-10.0057
▁gro	-10.0059
▁passi	-10.0059
▁proposta	-10.0062
▁federale	-10.0062
logici	-10.0067
▁contesto	-10.0068
▁raggiunge	-10.0078
▁ricca	-10.0082
▁recenti	-10.0097
▁attesta	-10.0098
rata	-10.0101
lan	-10.0105
▁accordo	-10.011
07	-10.0112
▁accade	-10.0112
▁sera	-10.0117
▁primavera	-10.0118
▁rese	-10.012
▁leone	-10.0124
▁caratterizzato	-10.0127
forma	-10.0129
ther	-10.0141
▁marte	-10.0142
▁risorse	-10.0146
▁risposta	-10.0146
▁scientifico	-10.0147
▁modalità	-10.0147
0,	-10.015
rdi	-10.0153
▁newton	-10.0153
▁segno	-10.0156
▁nana	-10.0164
orbita	-10.0168
umi	-10.017
▁segnala	-10.0171
▁raggiunto	-10.0175
▁diffuso	-10.0175
▁collina	-10.0181
▁privata	-10.0186
▁robert	-10.019
rino	-10.0193
▁descrive	-10.0203
cella	-10.0204
▁jean	-10.0213
▁inizi	-10.0219
side	-10.0224
vin	-10.0229
tato	-10.0233
▁1990	-10.0234
gie	-10.0246
▁maggiormente	-10.0246
▁porte	-10.0258
▁sito	-10.0263
alleanza	-10.0269
▁cose	-10.0272
▁settimana	-10.0274
rum	-10.0277
▁xii	-10.028
06	-10.0282
ucci	-10.0284
▁festival	-10.029
pic	-10.0291
▁messaggio	-10.0292
▁quark	-10.0293
0.000	-10.0295
▁colla	-10.0295
stanti	-10.0295
attacco	-10.0296
▁dice	-10.03
▁circonda	-10.0305
▁libri	-10.0314
▁amministrazione	-10.0318
▁esercita	-10.0319
▁svedese	-10.0319
▁specialmente	-10.0319
▁doppia	-10.0319
▁ricevette	-10.0323
▁mezzi	-10.0325
late	-10.0327
▁grave	-10.0328
por	-10.0329
▁raggiunse	-10.0348
▁proteine	-10.0348
▁basato	-10.0351
▁legno	-10.0355
gin	-10.0359
▁we	-10.0367
scio	-10.0374
▁dimensione	-10.0377
ling	-10.0379
▁clo	-10.0379
▁fiumi	-10.038
utente	-10.038
▁reso	-10.0382
ologico	-10.0385
peri	-10.0388
▁mus	-10.0389
lon	-10.039
▁fasi	-10.0391
▁nominato	-10.0392
▁solito	-10.0398
▁consigli	-10.04
gnano	-10.0404
▁teorie	-10.0406
▁ten	-10.0407
nari	-10.0416
rn	-10.042
▁azioni	-10.0429
▁gnu	-10.043
storia	-10.0436
▁spaziale	-10.0438
▁studiosi	-10.044
▁soff	-10.044
▁elettronica	-10.0443
▁legata	-10.0444
▁pronuncia	-10.0451
▁normale	-10.0452
62	-10.0457
▁brillante	-10.0464
▁cristalli	-10.0464
▁conosciuta	-10.0464
▁guerre	-10.0465
▁compresa	-10.0465
▁rin	-10.0465
▁canada	-10.0468
▁polizia	-10.0469
curi	-10.0477
ndola	-10.048
▁portare	-10.0488
▁campionati	-10.0494
▁novanta	-10.0495
▁sezione	-10.0498
▁rapidamente	-10.0498
▁giocatore	-10.0499
▁miglior	-10.0503
ku	-10.0515
▁ur	-10.0516
▁oro	-10.0516
▁migliaia	-10.0524
▁chiede	-10.0524
▁ticino	-10.0526
sol	-10.0531
▁missione	-10.0532
▁ipotesi	-10.0536
▁costruire	-10.0545
dis	-10.0546
▁frattempo	-10.0553
▁umana	-10.0553
▁atte	-10.0554
▁fatta	-10.0563
▁tasso	-10.0567
vu	-10.0571
▁dona	-10.0574
▁superiori	-10.0579
▁riconoscimento	-10.0583
▁ferrara	-10.0583
▁uomo	-10.0606
▁diversa	-10.0607
▁nuclei	-10.0612
▁potenze	-10.0612
▁urbano	-10.0613
▁tappa	-10.0615
spos	-10.0616
▁costi	-10.0616
▁salute	-10.0616
▁elabora	-10.0618
pol	-10.0619
▁unite	-10.0622
▁nulla	-10.0622
sal	-10.0623
ich	-10.0633
nati	-10.0635
▁insegna	-10.0638
ub	-10.0642
▁istituzioni	-10.0642
▁singolo	-10.0642
em	-10.0646
▁elimina	-10.0656
▁iniziarono	-10.0665
▁attacco	-10.0665
▁potevano	-10.0671
▁volontà	-10.0672
▁diffuse	-10.0672
▁vigore	-10.0673
▁realizzato	-10.0678
▁separa	-10.0685
oggi	-10.0689
▁iniziale	-10.0696
▁color	-10.0699
tano	-10.0701
▁medievale	-10.0702
lato	-10.0704
fond	-10.0706
▁marca	-10.0729
▁ebraica	-10.0732
▁cavallo	-10.0736
▁grandezza	-10.074
▁luci	-10.0743
▁direttore	-10.0748
▁documenta	-10.0755
2.	-10.0756
▁off	-10.0762
▁moderno	-10.0763
▁potut	-10.0764
ena	-10.0774
stu	-10.0775
▁incontro	-10.0776
▁tipico	-10.0788
▁trenta	-10.0792
▁dedicata	-10.0792
▁debole	-10.0793
▁1970	-10.0794
ting	-10.0794
▁orbita	-10.0805
influenza	-10.0807
▁marche	-10.0811
lini	-10.0813
▁attuale	-10.0818
accordo	-10.0819
▁racconta	-10.0823
▁dramma	-10.0823
▁livelli	-10.0824
▁effetto	-10.0844
▁rica	-10.0847
iva	-10.085
▁medaglia	-10.0854
▁speciale	-10.0854
attrice	-10.0858
stati	-10.0868
▁lei	-10.088
▁tenne	-10.0882
▁bambini	-10.0884
▁pesanti	-10.0884
▁lombardia	-10.0892
parti	-10.0894
altezza	-10.0894
mmer	-10.0898
▁sardo	-10.09
sur	-10.09
▁cade	-10.0904
▁demo	-10.0907
▁aziende	-10.0915
▁client	-10.0918
▁recente	-10.0922
▁tuttora	-10.0925
▁rappresentato	-10.0943
▁arrivò	-10.0946
▁figure	-10.0946
▁plu	-10.0947
ara	-10.0964
▁pubblicò	-10.0977
▁costituiscono	-10.0977
▁stretto	-10.0977
▁utenti	-10.0977
▁poss	-10.0977
▁greci	-10.0981
idrogeno	-10.0994
▁modi	-10.0995
ordina	-10.0995
▁impiega	-10.0997
use	-10.1003
ji	-10.1005
▁raccolta	-10.1007
▁movimenti	-10.1008
▁suggeri	-10.1008
▁esprime	-10.1008
▁condizione	-10.101
▁sì	-10.1011
letto	-10.1015
▁caratterizzata	-10.1016
▁piedi	-10.1022
ipotesi	-10.1025
▁mille	-10.1028
termin	-10.1033
▁1941	-10.104
▁tito	-10.1042
▁settori	-10.1043
▁atleti	-10.1043
▁tratti	-10.1044
▁dovrebbe	-10.1051
▁(17	-10.1052
espressione	-10.1057
▁piemonte	-10.106
vente	-10.1061
▁madonna	-10.1072
▁autorità	-10.1073
▁mari	-10.1074
▁culturali	-10.1075
▁evento	-10.108
▁rat	-10.1081
▁ze	-10.1082
▁arma	-10.1082
▁cinquanta	-10.1087
▁ramo	-10.1087
▁sorta	-10.1091
onale	-10.1096
03	-10.1099
▁california	-10.1101
▁esperimenti	-10.1101
▁giallo	-10.1105
▁edizioni	-10.1106
▁lattea	-10.1108
▁ragione	-10.1115
▁medicina	-10.1122
▁prendere	-10.1132
▁quartieri	-10.1132
▁don	-10.1133
arca	-10.1137
▁tracce	-10.1141
▁avvenuta	-10.1142
▁caratterizza	-10.1146
assi	-10.1146
▁elevata	-10.1149
mal	-10.115
▁assiste	-10.1161
▁continuò	-10.1164
▁fuoco	-10.1166
let	-10.1181
▁lib	-10.1181
▁canta	-10.119
▁soggetto	-10.119
sua	-10.1192
▁negozi	-10.1196
▁vino	-10.1199
▁flotta	-10.1202
rm	-10.1203
▁carte	-10.1205
▁sce	-10.1206
▁st	-10.1206
vola	-10.1207
equazione	-10.121
▁industriali	-10.1213
▁alte	-10.1214
▁analisi	-10.1214
▁album	-10.1216
▁aperta	-10.1217
metro	-10.1223
▁universale	-10.1227
▁1940	-10.1229
▁avvia	-10.1231
▁riceve	-10.1232
-18	-10.1232
▁ambiente	-10.1235
▁socialista	-10.1239
▁telescopio	-10.1246
▁diventare	-10.1249
film	-10.1249
▁america	-10.1258
gor	-10.126
zzati	-10.1261
▁cina	-10.1264
▁idee	-10.127
▁formano	-10.1272
▁area	-10.1274
mus	-10.1275
guar	-10.1276
▁alcuna	-10.1278
▁tecnologia	-10.1283
▁conto	-10.1285
uno	-10.1286
linea	-10.129
▁presa	-10.129
▁occhio	-10.129
▁singola	-10.1291
▁culto	-10.1291
▁avanti	-10.1298
cata	-10.1302
▁considerati	-10.131
ama	-10.131
▁voce	-10.1311
▁quota	-10.1323
▁recita	-10.1324
▁2017	-10.1325
▁2019	-10.1326
▁accompagna	-10.1327
▁collabora	-10.1338
▁collegamento	-10.134
▁vedere	-10.134
▁soggetti	-10.1344
nova	-10.1344
grafica	-10.1345
▁giornali	-10.135
▁sovrano	-10.1352
je	-10.1358
▁matrimonio	-10.1362
▁vienna	-10.1363
▁eccezione	-10.1363
▁bel	-10.1376
▁imperatore	-10.1377
▁ducato	-10.138
▁rendere	-10.138
▁preso	-10.1383
▁bordo	-10.1386
▁indipendenti	-10.1387
▁sovietici	-10.1387
▁1942	-10.1388
attore	-10.1394
▁nube	-10.1395
▁ponti	-10.1397
lico	-10.1406
▁partenza	-10.1409
edificio	-10.1411
rle	-10.1412
▁quarto	-10.1414
▁diffusa	-10.1419
▁cam	-10.142
08	-10.1422
▁penisola	-10.1422
▁adige	-10.1432
rs	-10.1432
▁solamente	-10.1433
▁chiaro	-10.1434
▁utilizzate	-10.1439
ammi	-10.1444
▁spettro	-10.1451
▁frequenza	-10.1451
▁ottiene	-10.1451
▁procede	-10.1452
▁ampio	-10.1452
▁reg	-10.1453
▁apprezza	-10.1453
▁muove	-10.1453
astronomia	-10.1455
▁romanzi	-10.1458
▁abita	-10.146
▁patri	-10.1461
▁morti	-10.1473
▁chiamati	-10.1474
▁giapponesi	-10.1475
▁comanda	-10.1477
cr	-10.148
▁sposa	-10.148
▁traffico	-10.1484
▁telefoni	-10.1485
ak	-10.1487
▁posizioni	-10.1488
▁ferroviaria	-10.1489
▁imprese	-10.1491
▁ricon	-10.1491
▁condanna	-10.1492
mine	-10.1493
▁coste	-10.1494
dd	-10.1495
▁scrittore	-10.1497
▁nostra	-10.1499
▁evoluzione	-10.1501
ham	-10.1501
sità	-10.1508
ottobre	-10.1509
▁dopoguerra	-10.1521
▁corti	-10.1523
▁cinese	-10.1531
▁impegna	-10.1538
▁letto	-10.1543
nate	-10.1544
▁tradizionali	-10.1549
▁1980	-10.1551
lina	-10.1554
▁leggenda	-10.1559
messi	-10.156
occupazione	-10.1562
uli	-10.1563
▁reazioni	-10.1565
bol	-10.1568
ini	-10.1571
elio	-10.1572
▁resi	-10.1573
▁david	-10.1577
▁ioni	-10.1578
ttò	-10.1578
▁discorso	-10.1582
▁successione	-10.1585
dato	-10.1589
▁1848	-10.1592
▁popoli	-10.1592
▁ricorre	-10.1594
▁programmazione	-10.1598
▁partecipazione	-10.1598
▁invia	-10.1599
▁danni	-10.1605
imento	-10.1606
informazione	-10.1607
cchia	-10.1608
circa	-10.161
▁visibili	-10.1611
▁predi	-10.1614
▁savoia	-10.1615
▁fisiche	-10.1615
▁nobili	-10.1616
▁bacino	-10.1618
▁regina	-10.1618
▁patrimonio	-10.1628
liber	-10.1631
▁origina	-10.1647
istituzione	-10.1648
▁introdotto	-10.1648
▁europee	-10.1648
▁microsoft	-10.1648
▁secondi	-10.1648
▁visione	-10.1648
ble	-10.1655
eu	-10.1656
▁gre	-10.1659
fre	-10.166
▁cl	-10.167
▁resa	-10.1678
ms	-10.168
▁bit	-10.168
▁ministero	-10.1681
▁previsto	-10.1681
▁misure	-10.1681
▁2018	-10.1684
▁spicca	-10.1685
▁oriente	-10.1685
▁retro	-10.1686
nca	-10.1688
bbia	-10.1692
nello	-10.1697
provincia	-10.1709
▁oli	-10.1713
▁teresa	-10.1716
▁giulio	-10.1717
▁fascista	-10.172
▁variazioni	-10.1733
ossido	-10.1734
hy	-10.1735
▁mise	-10.1738
▁bus	-10.1738
▁definire	-10.1747
▁alessandro	-10.1747
▁notevolmente	-10.1747
▁pubbliche	-10.1747
cchio	-10.1748
▁trasporta	-10.1748
▁basata	-10.1749
▁messico	-10.1759
▁stili	-10.1767
usa	-10.177
▁organizzato	-10.1772
▁200	-10.1775
▁creati	-10.1777
▁1927	-10.1782
▁1939	-10.1783
▁personalità	-10.1786
▁corrispondenza	-10.1788
▁sar	-10.1795
▁rif	-10.1807
inglese	-10.1811
iso	-10.1813
▁supporta	-10.1814
▁gigante	-10.1814
▁invernali	-10.1814
▁latina	-10.1815
toni	-10.1818
scia	-10.1822
▁/	-10.183
esposizione	-10.1834
quest	-10.1838
mbri	-10.1844
▁crede	-10.1848
▁scrittura	-10.1848
▁perugia	-10.1848
▁tavola	-10.185
▁perdita	-10.1857
▁(1	-10.1859
▁noi	-10.1865
▁scambio	-10.187
mato	-10.187
rini	-10.1872
mico	-10.1872
▁transizione	-10.1882
▁pianura	-10.1882
▁residenti	-10.1882
▁abbandona	-10.1886
▁vice	-10.189
▁contemporanea	-10.1897
ose	-10.19
▁prevedeva	-10.1903
▁pop	-10.1909
▁accanto	-10.1916
▁minaccia	-10.1916
▁andò	-10.1919
▁componente	-10.192
▁2020	-10.1922
detti	-10.1924
▁musicali	-10.1927
▁ss	-10.1932
ps	-10.1942
▁austria	-10.1944
▁acquista	-10.1945
importanza	-10.1948
▁linguaggi	-10.1949
▁riprende	-10.195
dire	-10.1953
▁conosce	-10.1955
▁diviso	-10.1956
▁psi	-10.196
toria	-10.1962
▁tempio	-10.197
ttico	-10.1981
▁ulteriori	-10.1984
▁ultime	-10.1984
▁giunse	-10.1984
▁particella	-10.1986
▁fecero	-10.1989
stor	-10.1999
▁costruita	-10.2001
▁strati	-10.2006
▁dando	-10.2016
▁ulteriormente	-10.2018
▁straniere	-10.2018
▁medi	-10.2021
ficazione	-10.2023
▁trattati	-10.203
▁idrogeno	-10.2034
▁2,	-10.2042
▁nudo	-10.2043
▁armate	-10.2048
▁svezia	-10.2053
▁colonna	-10.2053
▁tabella	-10.2054
▁1998	-10.2054
ville	-10.2058
▁comandante	-10.2063
▁unica	-10.2065
ens	-10.2066
uv	-10.2067
king	-10.2075
press	-10.2075
▁maschile	-10.208
▁fabbrica	-10.2087
▁rifiuta	-10.2087
▁conferenza	-10.2087
▁giacomo	-10.2087
ren	-10.2087
▁normalmente	-10.2088
▁decade	-10.2089
ju	-10.209
▁vecchia	-10.2095
▁molecola	-10.2098
▁onore	-10.2103
assai	-10.2104
▁60	-10.2109
▁vasta	-10.2114
▁cimitero	-10.2122
▁canzoni	-10.2122
▁uguale	-10.2122
▁vescovi	-10.2122
▁ligure	-10.2122
▁profondo	-10.2122
▁discipline	-10.2122
▁maestro	-10.2122
▁vantaggio	-10.2122
fin	-10.2123
▁dietro	-10.2128
fino	-10.2137
▁comunista	-10.2145
▁rilievo	-10.2156
obiettivo	-10.2158
venti	-10.2168
-2	-10.2174
▁quei	-10.2177
evi	-10.2179
2)	-10.2187
▁cerimonia	-10.2191
▁minoranze	-10.2191
▁sostituito	-10.2194
▁festa	-10.2195
vesti	-10.2198
▁carri	-10.2199
▁uffici	-10.2202
▁frazioni	-10.2204
▁mosca	-10.2211
▁espansione	-10.2212
▁indicato	-10.2212
▁affida	-10.2219
▁bandiere	-10.222
assemblea	-10.2226
▁interamente	-10.223
▁ram	-10.2236
▁accusa	-10.2237
▁russo	-10.2238
3,	-10.2247
▁world	-10.2248
tezza	-10.2251
interazione	-10.2251
▁mel	-10.226
▁cappella	-10.2261
▁vuoto	-10.2261
▁universitari	-10.2262
▁dà	-10.2262
▁bronzo	-10.2262
▁1938	-10.2263
▁sha	-10.2266
foni	-10.227
sola	-10.228
▁disponibili	-10.2293
▁giganti	-10.2296
▁facile	-10.2297
enne	-10.23
▁americano	-10.23
▁circolazione	-10.2302
▁vicini	-10.2305
▁fiore	-10.2306
br	-10.2306
▁perdite	-10.2307
cate	-10.2313
▁scene	-10.2315
elle	-10.2318
▁divide	-10.2324
tr	-10.2328
3)	-10.233
▁prestigio	-10.2332
▁minimo	-10.2332
▁leader	-10.2333
▁1994	-10.2333
▁compito	-10.2337
▁divisa	-10.2339
▁laurea	-10.2339
▁tipicamente	-10.234
dr	-10.2344
nelli	-10.2345
▁martin	-10.2347
nella	-10.2355
▁studenti	-10.2367
▁proclama	-10.2367
▁denaro	-10.2368
▁fermi	-10.2368
▁benché	-10.2373
essere	-10.2374
▁extra	-10.2379
▁impero	-10.2383
▁titoli	-10.2385
▁cra	-10.2385
opposizione	-10.2387
▁os	-10.2387
vità	-10.2387
▁successi	-10.2393
arma	-10.2398
▁amministrativa	-10.2403
▁centinaia	-10.2403
▁teorema	-10.2403
▁trovò	-10.2403
▁modifiche	-10.2403
▁1991	-10.2404
▁fratelli	-10.2412
▁legate	-10.2414
scritto	-10.2418
mm	-10.2418
cho	-10.242
▁decennio	-10.243
▁cast	-10.2432
▁chiara	-10.2433
▁batteri	-10.2434
▁gode	-10.2437
▁[...]	-10.2439
▁trasmissione	-10.2439
▁frequenta	-10.2439
▁detti	-10.2463
▁taglia	-10.2466
▁rom	-10.2472
▁assegnato	-10.2473
bina	-10.2473
▁intermedi	-10.2474
▁inglesi	-10.2474
▁regionali	-10.2475
▁montagna	-10.2478
▁riferi	-10.2486
▁messi	-10.2488
▁fuga	-10.2494
▁iso	-10.251
▁storiche	-10.2511
▁notevoli	-10.2511
▁profondità	-10.2511
logiche	-10.2515
▁definitiva	-10.2519
▁rocce	-10.252
▁cifra	-10.2521
▁vesti	-10.2521
▁pescara	-10.2523
▁accordi	-10.2528
▁sorgente	-10.2529
▁atomico	-10.2532
▁partita	-10.2534
▁alti	-10.2534
▁quarta	-10.254
▁civiltà	-10.2546
▁livorno	-10.2546
▁costretto	-10.2546
▁tricolore	-10.2546
▁dichiarò	-10.2546
▁organizzazioni	-10.2553
▁rinnova	-10.2554
▁torri	-10.2555
aquila	-10.2557
▁sostitui	-10.2561
▁disse	-10.2563
▁comunica	-10.2564
▁ama	-10.2565
▁voleva	-10.257
▁ferrovie	-10.2583
▁basilica	-10.2584
▁poté	-10.2585
▁fondato	-10.2599
umanità	-10.2606
burg	-10.2613
acco	-10.2618
rp	-10.2619
▁yankovic	-10.2619
▁soddisfa	-10.2619
▁chitarra	-10.2619
▁catania	-10.2619
▁1992	-10.2621
centi	-10.2629
alba	-10.2629
▁golfo	-10.2635
▁intra	-10.2646
▁mussolini	-10.2656
▁charles	-10.2656
mani	-10.2659
esperienza	-10.2664
▁sovra	-10.2667
▁vii	-10.2673
▁filosofi	-10.2673
▁vinto	-10.2675
▁manifesta	-10.2678
▁colpo	-10.2683
▁muta	-10.2685
▁amici	-10.2686
▁biblioteca	-10.2692
▁riconosciuto	-10.2692
omonimo	-10.2692
▁doppio	-10.2692
▁giudica	-10.2692
ring	-10.2694
egitto	-10.2702
▁cantone	-10.2706
▁signori	-10.2711
▁planetari	-10.2721
grafiche	-10.2724
▁contenuti	-10.2729
▁coltiva	-10.2729
▁geografica	-10.273
esse	-10.2731
▁decide	-10.2733
▁valli	-10.2737
bilmente	-10.2737
▁dna	-10.2748
▁messo	-10.2757
and	-10.2758
▁rice	-10.2759
▁danno	-10.2765
bbe	-10.2765
▁geometria	-10.2766
▁blocco	-10.2767
▁cuore	-10.277
ccu	-10.2777
stone	-10.2787
numer	-10.2793
▁curva	-10.2794
▁intende	-10.2794
estero	-10.2801
▁assorb	-10.2801
▁ricerche	-10.2803
▁filosofia	-10.2804
▁chimici	-10.2806
▁originariamente	-10.2807
lett	-10.2809
▁mancanza	-10.281
mbro	-10.2816
▁aumento	-10.2818
ello	-10.2821
▁asia	-10.2823
rvi	-10.2827
ers	-10.2833
▁suolo	-10.2836
offensiva	-10.284
▁fianco	-10.284
▁anime	-10.2844
▁rub	-10.2845
▁pone	-10.2849
istica	-10.2854
▁calcola	-10.2856
▁cellula	-10.2857
rici	-10.2862
▁classico	-10.2863
▁trasformazione	-10.2868
▁differenze	-10.2877
▁kernel	-10.2877
▁autonoma	-10.2877
▁1997	-10.2879
▁rappresentano	-10.2883
▁trono	-10.2886
▁ipotizza	-10.2887
effetto	-10.2889
▁popolari	-10.289
▁americani	-10.2895
gato	-10.2895
▁parametri	-10.29
▁she	-10.29
corre	-10.2912
▁raccoglie	-10.2915
▁guardia	-10.2915
▁riduzione	-10.2915
▁rifugi	-10.2915
▁diametro	-10.2916
▁articoli	-10.2916
▁dispone	-10.2916
▁schiera	-10.2919
▁crescente	-10.2921
▁accesso	-10.2922
▁periodica	-10.2926
bert	-10.2927
▁abba	-10.2931
iniziativa	-10.294
▁pala	-10.2952
▁assunse	-10.2952
▁ricevuto	-10.2952
▁assoluto	-10.2953
▁lunghi	-10.2954
anima	-10.2959
sten	-10.2963
▁ultima	-10.2973
vrebbero	-10.2976
▁usando	-10.298
▁responsabile	-10.299
▁1989	-10.2992
▁1968	-10.2992
▁ngc	-10.2993
▁svolta	-10.2995
▁banda	-10.2998
▁interni	-10.2998
▁richiama	-10.3017
▁ke	-10.3023
▁sovietico	-10.3028
▁impianti	-10.3028
▁long	-10.3028
▁passando	-10.3032
album	-10.3043
▁adottato	-10.3044
▁accor	-10.3045
ui	-10.3047
▁molecolare	-10.3054
▁coloro	-10.306
▁spetta	-10.3062
▁nessuna	-10.3064
▁proposito	-10.3066
▁risoluzione	-10.3066
▁interne	-10.3068
▁cur	-10.3068
▁notizia	-10.307
▁subì	-10.3071
▁ricco	-10.3078
▁saint	-10.308
▁maglia	-10.308
▁corrispondente	-10.3083
▁distingue	-10.3085
▁rad	-10.3085
▁bur	-10.3087
▁stalin	-10.3089
04	-10.3095
▁luminosa	-10.3104
▁raggruppa	-10.3104
▁tentativi	-10.3104
▁posiziona	-10.3104
▁filippo	-10.3105
▁1995	-10.3106
▁vince	-10.3108
lf	-10.3109
▁cambiamenti	-10.311
▁ferdinando	-10.3111
▁medici	-10.3129
▁garanti	-10.3134
▁nane	-10.3135
▁moti	-10.314
quo	-10.3142
ospedale	-10.3143
▁criteri	-10.3143
▁mantova	-10.3148
▁arresta	-10.3149
02	-10.3167
ves	-10.3171
▁cile	-10.3174
▁rafforza	-10.3181
▁vittime	-10.3181
▁limiti	-10.3182
▁1933	-10.3182
▁precedenza	-10.3183
▁franchi	-10.3186
nn	-10.3187
▁settimane	-10.3187
script	-10.3188
oggetto	-10.3189
▁diventato	-10.3189
posto	-10.319
▁spazi	-10.3193
▁set	-10.3196
gon	-10.32
dì	-10.3201
posizione	-10.3201
▁personali	-10.3203
temp	-10.3204
_6	-10.3205
pio	-10.3206
▁assoluta	-10.3212
▁90	-10.3216
▁spagnolo	-10.322
▁macchine	-10.322
▁wells	-10.322
▁sacro	-10.322
▁poteri	-10.3222
▁80	-10.3225
▁cento	-10.3227
▁campa	-10.3232
▁aspetto	-10.3239
▁32	-10.324
▁disponibile	-10.3258
autunno	-10.3258
alfabeto	-10.3258
▁1993	-10.326
▁portarono	-10.327
organi	-10.3275
▁combina	-10.3279
▁anima	-10.3287
ella	-10.3291
vedi	-10.3292
▁iniziato	-10.3297
▁denominato	-10.3297
▁critiche	-10.3297
▁continente	-10.3297
▁statuto	-10.3297
▁cavour	-10.3298
▁osservato	-10.3303
▁norme	-10.3306
▁collegamenti	-10.331
▁austriaco	-10.3311
▁ghiaccio	-10.3317
▁strato	-10.3332
segnò	-10.3335
▁privilegi	-10.3336
▁rischio	-10.3337
▁possesso	-10.3337
▁formata	-10.3339
asso	-10.3342
lismo	-10.3346
▁arrivare	-10.3348
▁dedica	-10.3356
▁popola	-10.3363
grafo	-10.3368
▁australia	-10.337
▁architetture	-10.3376
▁cristiani	-10.3376
▁dette	-10.3376
▁evidente	-10.3376
▁deciso	-10.3377
▁prezzo	-10.3395
▁prof	-10.3396
cini	-10.3403
aspetto	-10.3405
grande	-10.3408
▁canoni	-10.3413
▁qualunque	-10.3415
▁sostegno	-10.3415
▁tappe	-10.3415
▁concluse	-10.3415
▁pittore	-10.3415
all	-10.3419
▁ob	-10.3437
▁tim	-10.3437
▁portando	-10.3439
▁beta	-10.3443
▁amico	-10.3445
▁ricordare	-10.3448
▁tesi	-10.3449
zzate	-10.3453
▁appartengono	-10.3454
▁diffonde	-10.3454
▁famosa	-10.3455
▁urbana	-10.3455
▁supernova	-10.3456
▁1976	-10.3456
▁maschi	-10.3457
▁territoriale	-10.3466
▁costantino	-10.3476
▁necessaria	-10.3477
ep	-10.3481
▁temi	-10.3484
fal	-10.3485
più	-10.3494
▁specifico	-10.3494
▁texas	-10.3494
▁ritiene	-10.3494
▁dodici	-10.3494
▁singoli	-10.3494
▁lasciò	-10.3495
▁brevi	-10.3496
▁batte	-10.3497
▁strettamente	-10.3499
vino	-10.3505
="12	-10.351
angolo	-10.3513
allora	-10.3518
▁generazione	-10.3527
▁colonne	-10.3532
▁onde	-10.3534
▁volumi	-10.3536
▁1960	-10.3536
▁1930	-10.3537
wn	-10.3543
▁500	-10.3548
aggio	-10.355
▁realizzare	-10.355
avvento	-10.3553
azienda	-10.3556
▁(2	-10.3558
avanzata	-10.3562
▁operai	-10.3564
▁offre	-10.3572
▁attuali	-10.3572
▁contributo	-10.3574
omonima	-10.3574
▁fumetti	-10.3574
▁falli	-10.3575
▁trentino	-10.3575
nei	-10.3576
har	-10.3579
▁moda	-10.358
▁linux	-10.3582
▁pieno	-10.3583
▁scia	-10.3588
etta	-10.3597
▁q	-10.3598
▁rispettiv	-10.3613
▁economiche	-10.3614
mbra	-10.3617
▁2022	-10.3618
▁distinti	-10.362
dosso	-10.3621
▁vuole	-10.3627
ufficio	-10.3633
▁piena	-10.3634
agosto	-10.364
▁riso	-10.3648
▁installa	-10.3649
▁nessun	-10.3653
▁monastero	-10.3654
▁rilascia	-10.3654
▁richard	-10.3654
▁formati	-10.3654
▁ancona	-10.3655
pola	-10.366
duca	-10.3665
nghi	-10.3676
▁americana	-10.3677
ux	-10.3678
nz	-10.3678
▁gela	-10.3679
▁episodi	-10.3691
▁obbliga	-10.3694
▁vincitore	-10.3695
▁ambienti	-10.3695
▁scelto	-10.3695
▁vicine	-10.3695
▁santi	-10.3699
▁determinato	-10.37
▁unita	-10.3702
▁ghi	-10.3706
▁ragioni	-10.3706
▁propose	-10.3707
▁aero	-10.3715
▁praticamente	-10.3725
▁medaglie	-10.3736
▁diocesi	-10.3736
▁leggermente	-10.3736
▁tradizioni	-10.3736
▁bol	-10.3739
▁nessuno	-10.374
stato	-10.3743
▁robot	-10.3743
architettura	-10.3761
▁esclusi	-10.3762
▁tipica	-10.3763
▁artistico	-10.3764
enna	-10.3765
tempo	-10.3774
▁oscilla	-10.3776
▁olimpico	-10.3776
▁scienziati	-10.3776
▁benedetto	-10.3777
▁1984	-10.3778
▁riferisce	-10.3779
dotto	-10.378
annessione	-10.3789
goni	-10.379
▁india	-10.3794
▁osservare	-10.3797
▁enorme	-10.3799
▁muro	-10.3799
stella	-10.3806
▁tipici	-10.3808
mont	-10.3811
▁cala	-10.3815
▁matematico	-10.3817
▁foglie	-10.3818
▁campagne	-10.3818
▁definisce	-10.3819
▁fila	-10.3829
tello	-10.3831
▁cristo	-10.3832
▁vent	-10.3832
▁esser	-10.3837
«	-10.3846
porta	-10.3847
ziali	-10.385
vari	-10.3855
▁esterno	-10.3855
▁evidenzia	-10.3859
▁tornò	-10.3859
▁monaco	-10.3859
▁distanze	-10.386
▁torneo	-10.386
▁inghilterra	-10.386
▁poeta	-10.386
▁1996	-10.386
▁morto	-10.3863
▁dotato	-10.3864
tum	-10.3865
▁conseguente	-10.3865
▁governatore	-10.3866
▁costellazioni	-10.3871
▁nave	-10.3876
▁abitato	-10.3878
▁regolare	-10.3878
▁(3	-10.388
rus	-10.388
zzò	-10.3883
▁pin	-10.3886
can	-10.3889
sser	-10.39
american	-10.39
▁ordini	-10.3901
▁appartenente	-10.3903
▁jack	-10.3906
▁chiamate	-10.3917
▁bisogno	-10.3918
▁seppur	-10.3923
vert	-10.3929
cultura	-10.393
▁prussia	-10.3938
unificazione	-10.3939
esecuzione	-10.3941
seguito	-10.3941
▁fornisce	-10.3945
▁liberazione	-10.3947
▁esercito	-10.3948
▁associazioni	-10.3949
▁approva	-10.3951
▁virus	-10.3951
anna	-10.3951
▁formalmente	-10.3952
quadra	-10.3959
fl	-10.3961
▁medie	-10.3965
▁precedentemente	-10.3969
impresa	-10.3971
han	-10.3975
▁linguistica	-10.3983
html	-10.3983
▁utile	-10.3985
italiano	-10.3985
gr	-10.3986
▁segretario	-10.3987
▁schema	-10.3988
▁interi	-10.3988
gini	-10.399
gramma	-10.399
meno	-10.3997
▁spirito	-10.4006
▁potenziale	-10.4011
occasione	-10.4013
scher	-10.4015
ray	-10.4016
▁ove	-10.4017
▁conclude	-10.4025
▁consegna	-10.4026
▁propaganda	-10.4026
▁james	-10.4026
▁1946	-10.4027
▁compila	-10.4029
▁mario	-10.4032
▁sangue	-10.4033
▁realizza	-10.4035
organismo	-10.404
▁riva	-10.4046
▁laboratorio	-10.4047
rci	-10.4055
▁sott	-10.4055
▁notare	-10.4057
▁fru	-10.4062
▁garibaldi	-10.4067
▁dipartimento	-10.4067
▁art	-10.4068
▁1929	-10.4069
▁sintesi	-10.407
▁manda	-10.4094
spin	-10.4097
▁germani	-10.4101
▁august	-10.4103
▁cardinale	-10.4109
▁mondiali	-10.4109
▁minima	-10.411
▁1972	-10.4111
▁frutto	-10.4115
▁cicli	-10.4116
▁variazione	-10.4118
dos	-10.412
▁open	-10.4123
▁coincide	-10.4125
▁risolvere	-10.4126
▁star	-10.4129
gel	-10.4129
▁austriaci	-10.413
▁veri	-10.4132
▁riconosce	-10.4136
▁individui	-10.4151
▁flusso	-10.4152
▁elevato	-10.4152
sha	-10.4152
▁1926	-10.4153
▁1918	-10.4153
▁macro	-10.4157
▁trovato	-10.4157
3%	-10.4159
ram	-10.4162
▁rocca	-10.4168
▁avversari	-10.417
▁vasto	-10.4173
media	-10.4177
▁(20	-10.4186
▁presta	-10.4187
bur	-10.4189
▁rispetta	-10.4194
▁fanteria	-10.4194
▁potente	-10.4194
▁contratto	-10.4194
▁1973	-10.4195
▁esteso	-10.4197
▁2021	-10.4199
venire	-10.4202
▁orientali	-10.4208
▁logica	-10.4211
▁scarsa	-10.4215
lizzazione	-10.4216
▁lavorazione	-10.4219
▁ciascuna	-10.4222
▁poste	-10.4227
▁elettro	-10.4227
▁cristiana	-10.4237
opinione	-10.4237
▁contrasto	-10.4237
▁residente	-10.4237
kh	-10.4238
▁blocca	-10.4238
▁vergine	-10.4238
▁mina	-10.4238
▁litio	-10.424
▁aggiorna	-10.424
▁laghi	-10.4241
▁acqui	-10.4243
▁canto	-10.4253
▁el	-10.4262
evento	-10.4269
lly	-10.4269
▁mc	-10.4269
stein	-10.427
▁150	-10.4274
▁frequenti	-10.428
▁australe	-10.428
▁cli	-10.4282
▁1950	-10.4283
pin	-10.4284
▁magneti	-10.4288
▁avver	-10.4289
artista	-10.4293
▁ku	-10.4293
▁conservato	-10.4294
000	-10.4297
mol	-10.4299
▁lasciando	-10.4302
rmoni	-10.432
▁organizza	-10.4323
▁riesce	-10.4323
▁concetti	-10.4324
▁esponenti	-10.4326
azoto	-10.4327
▁merito	-10.4328
▁scacchi	-10.4329
bel	-10.4336
▁quadri	-10.4347
▁partiti	-10.4348
▁psicologia	-10.4349
mental	-10.4352
▁aereo	-10.4352
▁mobili	-10.4353
importante	-10.4358
▁nucleari	-10.4366
▁cabala	-10.4366
▁costantinopoli	-10.4367
▁calore	-10.4368
▁ulteriore	-10.4368
usi	-10.4374
▁devast	-10.4375
▁radici	-10.4377
▁mm	-10.4377
▁oceani	-10.4381
▁aiuta	-10.4384
▁pira	-10.4391
ude	-10.4395
esima	-10.4395
▁dirige	-10.4398
erà	-10.44
[	-10.4401
▁inferiori	-10.441
▁banconote	-10.441
▁differente	-10.441
▁fortuna	-10.441
▁appoggia	-10.441
▁tenuto	-10.4411
▁belgio	-10.4412
▁lancio	-10.4412
▁organizzazione	-10.4412
▁edifica	-10.4417
▁avvicina	-10.4423
▁1860	-10.4426
▁her	-10.4429
▁faccia	-10.443
sar	-10.4432
▁suono	-10.4433
_7	-10.4433
2%	-10.4435
tropo	-10.4437
▁ultimo	-10.4445
▁passeggeri	-10.4453
▁ragazzi	-10.4453
impianto	-10.4453
▁relative	-10.4453
▁divenuto	-10.4453
▁compresi	-10.4454
▁lontano	-10.4454
▁ruota	-10.4455
▁attivo	-10.4457
▁sigla	-10.4457
▁coda	-10.4461
▁fornire	-10.4468
▁correnti	-10.4468
reali	-10.447
gliano	-10.4479
▁top	-10.4482
▁vanta	-10.4482
▁fantascienza	-10.4497
▁gravitazionale	-10.4497
▁luminose	-10.4497
▁uccelli	-10.4497
▁sostanza	-10.4497
▁scontri	-10.4497
▁economici	-10.4498
agenzia	-10.4498
▁operativi	-10.4499
gine	-10.4499
▁1948	-10.4499
▁bianche	-10.4501
▁relatività	-10.4503
▁nicola	-10.4504
▁distruzione	-10.4516
▁marito	-10.4521
acque	-10.4527
▁esistenti	-10.4528
accesso	-10.4536
grammi	-10.4537
classi	-10.4538
▁entrare	-10.4538
▁appartiene	-10.4541
▁danimarca	-10.4541
▁tecnico	-10.4541
▁destinata	-10.4541
▁famosi	-10.4541
isotopo	-10.4542
▁occhi	-10.4543
▁candida	-10.4543
ingegneria	-10.4547
▁usate	-10.4549
geo	-10.4554
ang	-10.4557
▁gui	-10.4558
▁crosta	-10.457
aprile	-10.4571
rebbero	-10.4578
viene	-10.4579
▁sviluppata	-10.4586
gger	-10.4586
▁pun	-10.4587
▁1971	-10.4587
▁commedia	-10.4587
▁seguire	-10.4588
▁utili	-10.4589
▁comprese	-10.459
ungheria	-10.459
hard	-10.4591
▁qua	-10.4591
▁contrasta	-10.4593
albero	-10.4597
▁manifestazione	-10.4602
▁osservazione	-10.4602
▁provenient	-10.4603
done	-10.4607
wood	-10.4614
▁impar	-10.4624
▁1987	-10.4632
▁1923	-10.4632
▁analizza	-10.4633
▁1920	-10.4634
▁razzi	-10.4638
▁manifestazioni	-10.464
kov	-10.4646
▁medico	-10.4646
▁lavoratori	-10.465
▁aventi	-10.465
▁fasci	-10.4656
▁louis	-10.4661
▁villaggio	-10.4662
▁rappresentata	-10.4665
set	-10.467
▁utilizzano	-10.4674
▁percentuale	-10.4674
▁sostanze	-10.4674
▁scoperte	-10.4674
▁rimasto	-10.4675
▁riuscirono	-10.4675
▁vocali	-10.4675
rich	-10.4675
▁terrestri	-10.4677
▁gpl	-10.4677
▁genitori	-10.4682
▁verrà	-10.4684
▁cassa	-10.4685
▁morale	-10.4689
▁storicamente	-10.469
fiche	-10.469
cino	-10.4698
▁associa	-10.4699
▁meccanismo	-10.4719
▁conosciuti	-10.4719
▁doppie	-10.4719
▁musei	-10.472
▁spettacolo	-10.4721
▁indossa	-10.4721
▁divisioni	-10.4722
▁sottolinea	-10.4727
▁lenin	-10.4729
mero	-10.4732
▁saranno	-10.4735
scende	-10.4736
▁continentale	-10.4745
▁progetta	-10.4757
zen	-10.476
tradizionalmente	-10.4764
▁browser	-10.4764
▁obiettivi	-10.4764
▁pontificio	-10.4764
esperimento	-10.4764
▁intitolato	-10.4764
▁spezia	-10.4765
▁vicende	-10.4767
▁largo	-10.4769
▁liberi	-10.4774
asia	-10.4775
▁stellari	-10.4777
▁emilia	-10.4789
▁estensione	-10.4793
due	-10.4804
▁300	-10.4804
▁testimonia	-10.4807
▁voti	-10.4807
inghilterra	-10.4808
altare	-10.4809
▁goti	-10.4809
▁copenaghen	-10.481
▁eseguire	-10.481
▁anglo	-10.4811
▁cucina	-10.4813
▁regia	-10.4814
▁anzi	-10.4816
▁fondi	-10.4823
▁permise	-10.4828
▁designa	-10.4835
▁lasciato	-10.4843
▁gol	-10.4844
▁ciascuno	-10.4845
▁seguendo	-10.4849
▁classici	-10.4851
▁vota	-10.4854
▁protagonisti	-10.4855
▁referendum	-10.4855
▁dapprima	-10.4855
▁relativo	-10.4855
▁dichiarato	-10.4857
▁1924	-10.4857
vision	-10.486
▁permettono	-10.4861
▁scozia	-10.4863
more	-10.4873
▁mettere	-10.4874
alpi	-10.4874
ago	-10.4875
▁scorre	-10.4886
▁ced	-10.489
bat	-10.4893
intensità	-10.4896
▁larga	-10.4899
▁dottrina	-10.4901
▁istituita	-10.4901
▁riscontra	-10.4901
▁sviluppò	-10.4901
▁facoltà	-10.4901
▁umberto	-10.4901
▁convenzione	-10.4901
lingua	-10.4901
▁1982	-10.4902
▁messaggi	-10.4905
▁determinare	-10.4905
▁grosso	-10.4906
▁rappresentare	-10.4908
▁statali	-10.4909
▁national	-10.4911
▁cm	-10.4912
▁potenzia	-10.4915
▁rosse	-10.4915
data	-10.492
antichità	-10.4925
▁ritorna	-10.4929
▁formale	-10.4932
verso	-10.4932
▁viaggia	-10.4937
▁considerare	-10.494
▁assunto	-10.4947
▁parzialmente	-10.4947
▁sostanzialmente	-10.4947
▁pacifico	-10.4947
▁esterna	-10.4949
▁1986	-10.4949
▁moderne	-10.495
▁cambiamento	-10.4959
▁giulia	-10.496
grafici	-10.4971
istruzione	-10.4976
▁amplia	-10.4979
▁concentrazione	-10.4979
forte	-10.4984
▁mont	-10.4985
▁gian	-10.4985
▁orto	-10.4988
▁var	-10.499
▁realizzata	-10.4991
▁ministri	-10.4993
mare	-10.4993
▁1936	-10.4994
▁interessi	-10.4997
▁pezzi	-10.5003
▁segni	-10.5006
▁privati	-10.5011
▁elio	-10.5013
▁bisogna	-10.5023
▁lavorare	-10.5027
▁priva	-10.5029
▁gla	-10.5036
▁trasferimento	-10.5039
▁spagnola	-10.5039
▁scontro	-10.5039
▁etnie	-10.5039
▁evoluti	-10.5039
▁equazioni	-10.504
▁uccide	-10.504
▁precisione	-10.504
▁1978	-10.5041
▁tennis	-10.5041
▁scende	-10.5046
▁editori	-10.5048
▁utilizzo	-10.505
▁attua	-10.5051
▁motori	-10.5057
dente	-10.506
▁(200	-10.507
▁gallia	-10.5077
▁commerci	-10.508
▁affianca	-10.5085
▁dinastia	-10.5085
ben	-10.5087
intervento	-10.5087
▁montagne	-10.5088
attiva	-10.5091
▁consolid	-10.5096
incarico	-10.5098
▁migliora	-10.5098
▁magnetico	-10.5099
▁pc	-10.51
▁zi	-10.5104
ciano	-10.5104
▁volontari	-10.5106
▁calci	-10.5108
int	-10.5111
▁allontana	-10.5116
▁caro	-10.5116
▁legale	-10.5117
aldo	-10.5125
appoggio	-10.5136
▁rappresentati	-10.5156
▁seguì	-10.5156
ass	-10.5158
▁radi	-10.5161
legge	-10.5169
▁quar	-10.517
versi	-10.5171
▁idea	-10.5174
ctor	-10.5174
orsa	-10.5177
▁terzi	-10.5177
▁rame	-10.5177
win	-10.5179
▁palermo	-10.5179
▁ripresa	-10.5179
▁riteneva	-10.5179
▁spedizione	-10.5181
aglia	-10.5182
▁signore	-10.5183
figura	-10.5186
▁applicazione	-10.5187
dini	-10.5187
▁preoccupa	-10.5195
▁grafica	-10.5196
▁copia	-10.5198
▁nasa	-10.5204
▁regio	-10.5208
▁tenere	-10.521
▁voci	-10.5215
acca	-10.5219
▁istruzione	-10.5226
▁affaccia	-10.5226
▁errori	-10.5226
▁vittorie	-10.5226
▁consuma	-10.5228
▁implica	-10.5228
▁precipitazioni	-10.523
▁400	-10.5237
▁effettuare	-10.5237
conosci	-10.5237
▁cattedrale	-10.5243
▁regolamento	-10.5244
▁male	-10.5245
▁canali	-10.5247
▁andare	-10.5247
▁progressi	-10.5248
liche	-10.5249
atlantic	-10.525
▁varianti	-10.5257
▁alternativa	-10.5258
▁affronta	-10.5263
▁artificiale	-10.5274
▁sostenere	-10.5274
▁specifiche	-10.5274
▁settecento	-10.5274
▁polinomi	-10.5274
▁nazisti	-10.5274
▁milione	-10.5274
▁dovevano	-10.5274
▁navale	-10.5274
▁prigionieri	-10.5275
▁barba	-10.5276
▁insediamenti	-10.5277
▁italo	-10.5283
▁gravità	-10.5283
▁giornalista	-10.5285
▁deboli	-10.5295
▁coordina	-10.5295
▁esteri	-10.5299
ottica	-10.5301
iani	-10.5304
▁macchia	-10.5306
▁«"	-10.5308
arsi	-10.531
▁rover	-10.531
zu	-10.5317
▁pellicola	-10.5321
▁specifici	-10.5321
▁sorella	-10.5323
▁funzionalità	-10.5323
letti	-10.5323
▁alfred	-10.5323
▁1919	-10.5325
▁regolari	-10.5326
▁croci	-10.5327
esempio	-10.5327
▁mala	-10.5328
ise	-10.533
llina	-10.5331
▁vende	-10.5332
govern	-10.5333
▁sarda	-10.5333
▁tè	-10.5334
▁rapi	-10.5336
▁definiti	-10.5337
▁stazioni	-10.5337
natura	-10.5339
▁70	-10.5342
▁epi	-10.5344
kan	-10.5346
icamente	-10.5346
▁legami	-10.5356
▁dov	-10.5356
▁carro	-10.5359
▁merci	-10.5365
▁lì	-10.5368
▁denominata	-10.5369
▁menziona	-10.5369
▁digitale	-10.5369
▁conobbe	-10.537
▁codifica	-10.537
▁considerando	-10.537
▁concezione	-10.5371
▁1947	-10.5372
▁decine	-10.5372
▁archi	-10.5375
autorità	-10.5375
▁dimostrato	-10.5377
pl	-10.5377
▁radice	-10.5378
▁ix	-10.5378
▁pista	-10.5395
old	-10.5398
▁usano	-10.5404
celli	-10.5408
▁(15	-10.5409
▁fama	-10.5414
▁bari	-10.5416
▁rinuncia	-10.5417
▁occorre	-10.5417
▁concesso	-10.5418
▁aperti	-10.5422
▁alfa	-10.5423
osservazione	-10.5424
▁funzionamento	-10.543
▁accelera	-10.5432
▁torrente	-10.5447
▁ricordano	-10.5448
ois	-10.5449
▁aumentare	-10.5452
▁bla	-10.5463
▁urbani	-10.5463
▁potrebbero	-10.5464
▁calde	-10.5464
▁mandato	-10.5465
▁competizione	-10.5466
▁risponde	-10.5466
▁dibattito	-10.5466
▁recupera	-10.5466
▁contengono	-10.5466
▁elenca	-10.5467
▁professionisti	-10.5467
▁1983	-10.5467
▁1949	-10.5468
bell	-10.5468
▁1934	-10.5468
▁nostro	-10.5472
esterno	-10.5474
▁fol	-10.5476
▁partite	-10.5477
▁pertini	-10.5478
né	-10.5483
▁tocca	-10.5485
▁necessari	-10.5487
▁sfera	-10.5492
lus	-10.55
get	-10.5506
▁evita	-10.5507
mori	-10.5507
ah	-10.5509
assedio	-10.5511
▁chiusura	-10.5514
▁essenzialmente	-10.5514
▁industrie	-10.5514
▁tribù	-10.5514
odierna	-10.5514
▁reno	-10.5515
▁1974	-10.5516
▁1985	-10.5516
▁fallimento	-10.5521
urban	-10.5523
▁unione	-10.5524
▁volle	-10.5527
dove	-10.5529
▁retta	-10.5531
▁separazione	-10.5534
▁segnale	-10.5534
▁rendendo	-10.5535
prima	-10.5544
▁colonie	-10.5549
▁ph	-10.5549
▁attenzione	-10.5549
ammasso	-10.5553
▁statua	-10.5563
▁quadro	-10.5564
▁testimonianze	-10.5565
▁banche	-10.5568
gione	-10.5571
▁(16	-10.5571
▁pic	-10.5574
super	-10.5576
▁boschi	-10.558
▁avvenuto	-10.5581
▁stro	-10.5584
▁poeti	-10.5586
▁orienta	-10.559
▁der	-10.56
▁vini	-10.5601
▁trattamento	-10.5604
▁xi	-10.5605
▁sap	-10.5607
tologia	-10.5608
forme	-10.561
▁mammiferi	-10.5612
▁religiosa	-10.5612
▁vietnam	-10.5612
▁ottenendo	-10.5612
▁svolse	-10.5612
▁sintetizza	-10.5612
▁rappresentanti	-10.5612
▁suddivisione	-10.5614
▁contea	-10.5615
▁metal	-10.5622
▁parlare	-10.5623
autostrada	-10.5623
▁recentemente	-10.5625
▁anelli	-10.5627
▁architettura	-10.563
▁austriaca	-10.5631
pan	-10.5632
▁rivoluzionari	-10.5636
▁arco	-10.5639
▁35	-10.5653
▁lineare	-10.566
▁costituzionale	-10.5661
▁ricostruzione	-10.5661
▁fredda	-10.5661
▁prodotta	-10.5661
▁sportivo	-10.5661
▁1954	-10.5664
▁rai	-10.5665
▁invita	-10.5667
▁biologia	-10.5669
otten	-10.5669
▁studiare	-10.5675
▁germanico	-10.5675
mber	-10.5677
▁successore	-10.5678
▁iniziali	-10.5682
▁colline	-10.5684
▁michele	-10.5686
▁considerazione	-10.5693
▁percorre	-10.5702
▁precisa	-10.5703
▁creata	-10.5706
▁amiga	-10.5708
▁diventando	-10.5709
▁affinché	-10.5711
▁domenica	-10.5711
sson	-10.5722
▁jan	-10.5729
▁coppi	-10.5738
muta	-10.5745
▁conservazione	-10.5747
▁caldo	-10.575
▁alberto	-10.5755
▁finlandia	-10.576
▁riproduzione	-10.576
▁lombardo	-10.576
▁racconti	-10.576
▁rommel	-10.576
▁domanda	-10.576
▁promozione	-10.5761
▁1981	-10.5762
elezione	-10.5763
▁armati	-10.5763
▁1969	-10.5763
▁propone	-10.5764
▁popolarità	-10.5765
▁siena	-10.5765
string	-10.5772
▁giunta	-10.5773
▁cru	-10.578
▁espressione	-10.5783
▁variante	-10.5797
▁sam	-10.58
▁obiettivo	-10.5808
▁guadagna	-10.581
▁impossibile	-10.581
▁joseph	-10.581
▁satelliti	-10.581
▁stagioni	-10.581
▁lettura	-10.5811
▁condotta	-10.5811
▁cause	-10.5813
▁1925	-10.5814
▁quinta	-10.5825
fisica	-10.5825
▁48	-10.5825
ade	-10.5826
orso	-10.5828
▁brano	-10.5829
▁artistica	-10.583
▁cent	-10.5833
▁ossigeno	-10.5837
avversario	-10.584
▁comprendeva	-10.5849
▁impone	-10.5852
▁luca	-10.5854
▁assumere	-10.5856
▁diffusi	-10.5857
▁virtù	-10.5861
▁residenza	-10.5861
▁bambino	-10.5861
detto	-10.5861
▁traduzione	-10.5861
▁benefici	-10.5863
▁confederazione	-10.5865
▁persino	-10.5876
▁reparti	-10.5876
▁combinazione	-10.5877
aiuto	-10.5877
cioè	-10.5881
4%	-10.589
ky	-10.5892
▁36	-10.5898
▁rami	-10.5899
▁televisione	-10.5911
▁aggiunti	-10.5911
▁telefono	-10.5911
▁milanese	-10.5911
▁discussione	-10.5911
▁fisici	-10.5912
▁completo	-10.5912
▁alterna	-10.5912
▁1979	-10.5913
▁1935	-10.5914
▁1922	-10.5914
1%	-10.5915
▁finalmente	-10.5916
seguiti	-10.5916
▁patria	-10.5918
▁temporale	-10.5922
attenzione	-10.5925
▁risalire	-10.5926
▁matrice	-10.5931
▁russa	-10.5932
este	-10.5945
risti	-10.5952
▁serve	-10.5953
▁facciata	-10.5957
▁bernard	-10.596
▁commemora	-10.5962
▁competizioni	-10.5962
▁eventuali	-10.5962
arme	-10.5963
▁1961	-10.5964
▁austro	-10.5964
"»	-10.5964
▁1914	-10.5965
educazione	-10.5971
▁grigio	-10.5973
▁presentato	-10.5973
▁reich	-10.5978
ban	-10.5979
▁abbiamo	-10.598
▁articolo	-10.5982
tipi	-10.5983
cur	-10.5987
▁nati	-10.5988
tismo	-10.5995
▁vivo	-10.601
▁contributi	-10.6013
▁religioso	-10.6013
▁risalgono	-10.6013
▁contenente	-10.6013
▁paesaggi	-10.6013
▁governi	-10.6013
ges	-10.6014
equatore	-10.6014
incremento	-10.6015
▁conoscenze	-10.6016
▁simula	-10.6024
▁barbari	-10.6026
assenza	-10.6035
▁emissione	-10.6035
progressivamente	-10.6041
▁albert	-10.6046
ère	-10.6048
▁autorizza	-10.6053
▁cane	-10.6057
8%	-10.6057
▁privato	-10.6057
ardo	-10.606
▁delimita	-10.6061
impegno	-10.6062
▁monarchia	-10.6064
▁penetra	-10.6065
▁distretto	-10.6065
▁esterni	-10.6066
▁1937	-10.6067
esplosione	-10.6074
▁verona	-10.6075
▁occupata	-10.608
▁180	-10.6082
▁comunisti	-10.6083
orientale	-10.6087
▁canton	-10.6095
ardi	-10.6101
▁nova	-10.6102
▁eredita	-10.6104
▁metallico	-10.6104
_10	-10.6111
▁moro	-10.6113
▁introdotta	-10.6116
▁simmetria	-10.6116
▁trasferì	-10.6116
▁smith	-10.6116
▁confronto	-10.6116
▁oscura	-10.6117
▁1988	-10.6117
▁1962	-10.6117
vent	-10.6118
▁1967	-10.6118
▁chiude	-10.6119
▁produttore	-10.6119
▁forn	-10.612
▁permettere	-10.6121
▁disponibilità	-10.6121
▁descrivere	-10.6121
apprendimento	-10.6122
▁estesa	-10.6122
▁pena	-10.6124
▁vivere	-10.6125
▁novara	-10.6126
▁trento	-10.6127
▁spiegare	-10.6128
▁quinto	-10.6128
▁campioni	-10.613
▁considerate	-10.6133
interpretazione	-10.6135
▁informatica	-10.6136
rgli	-10.6139
▁trent	-10.6151
▁proib	-10.6151
▁conoscere	-10.6152
▁intero	-10.616
▁cessa	-10.616
▁disegna	-10.6161
▁gauguin	-10.6168
▁sostiene	-10.6168
▁distinzione	-10.6168
▁positivo	-10.6168
▁sviluppare	-10.6168
▁sicilie	-10.6168
intervallo	-10.6169
▁aspetta	-10.6169
▁sportiva	-10.617
zer	-10.617
▁scoprì	-10.617
▁1966	-10.617
▁finché	-10.6171
▁ancor	-10.6172
▁tornare	-10.6173
▁ampiamente	-10.6174
▁originario	-10.6175
▁navigazione	-10.6178
▁partecipare	-10.6187
ning	-10.6188
viii	-10.6191
entrata	-10.6195
ney	-10.6199
▁dichiarazione	-10.62
andro	-10.6204
▁45	-10.6206
▁ammira	-10.6214
infanzia	-10.622
▁inserito	-10.622
▁riduce	-10.6221
▁selva	-10.6222
pr	-10.6223
_8	-10.6224
▁interpretazione	-10.6228
vini	-10.6234
▁leggere	-10.6239
città	-10.624
▁puro	-10.6241
▁viventi	-10.6249
para	-10.6253
▁cari	-10.6265
▁pubblicati	-10.6266
▁industria	-10.627
▁includono	-10.6272
▁tenuta	-10.6274
▁rimasero	-10.6276
romagna	-10.6284
monte	-10.6284
▁creando	-10.6286
▁ricopert	-10.6287
cura	-10.6287
▁chiuso	-10.6287
7%	-10.629
▁adottata	-10.6293
▁organizzati	-10.6295
▁fili	-10.6311
ska	-10.6313
▁teologi	-10.6315
▁religiosi	-10.6325
▁richieste	-10.6325
▁moltiplica	-10.6325
▁1977	-10.6325
▁celesti	-10.6325
▁diventò	-10.6325
▁conseguenze	-10.6326
▁capace	-10.6326
▁1928	-10.6327
▁andava	-10.6329
▁aerea	-10.6329
▁proposto	-10.6332
▁comunicazioni	-10.6336
▁affrontare	-10.6337
sky	-10.6339
front	-10.6343
estensione	-10.6345
▁usi	-10.6352
="15	-10.6354
▁miti	-10.6354
adozione	-10.6356
▁cd	-10.6366
▁altra	-10.6367
▁basti	-10.6374
▁camp	-10.6375
▁matematici	-10.6378
▁presidenza	-10.6378
▁rifiutò	-10.6378
▁violenza	-10.6378
▁effettivamente	-10.6378
▁raramente	-10.6378
▁royal	-10.6378
▁nubi	-10.6379
▁andrea	-10.6381
▁fotografia	-10.6381
▁piacenza	-10.6382
sauri	-10.6385
▁cadde	-10.6388
▁quadrati	-10.6388
▁capita	-10.6392
▁viaggi	-10.6395
▁ritira	-10.6396
▁divennero	-10.6397
espansione	-10.6399
▁tardo	-10.6401
▁rap	-10.6402
▁fortific	-10.6402
insegnamento	-10.6403
▁sperimentale	-10.6408
▁superare	-10.6408
▁terri	-10.642
stituì	-10.6426
▁ambientat	-10.6431
▁conclusione	-10.6431
▁incorpora	-10.6431
▁introdusse	-10.6431
▁celebri	-10.6431
▁malattia	-10.6431
▁1963	-10.6431
▁comandi	-10.6431
▁padova	-10.6432
▁notizie	-10.6433
bru	-10.6434
▁morta	-10.6434
▁conduce	-10.6435
▁genetica	-10.6437
▁esistenza	-10.6439
elettrone	-10.6453
abbazia	-10.6454
▁lasciare	-10.6458
▁originali	-10.6473
impression	-10.6478
▁istituito	-10.6484
▁fiducia	-10.6484
▁togliatti	-10.6484
▁monumento	-10.6484
▁ucciso	-10.6484
hubble	-10.6485
▁1964	-10.6486
▁scopri	-10.6489
▁pagine	-10.6489
bbio	-10.6494
offerta	-10.6494
zzano	-10.6498
oltre	-10.6498
▁onda	-10.6499
▁ridotto	-10.6499
▁inventa	-10.6503
▁zu	-10.6515
▁termo	-10.652
cker	-10.6526
▁danese	-10.6526
▁pensare	-10.6529
▁insedia	-10.6529
letta	-10.6533
ach	-10.6538
▁cattolici	-10.6538
▁pontefice	-10.6538
▁insiemi	-10.6538
▁totalmente	-10.6538
▁freddo	-10.6538
▁mercanti	-10.6538
▁istruzioni	-10.6538
▁codici	-10.6538
assistenza	-10.6538
▁arabi	-10.6538
▁declino	-10.654
▁pci	-10.6542
▁corde	-10.6544
▁berna	-10.6556
▁aggrega	-10.656
▁capitali	-10.6564
▁solari	-10.6577
▁provinciali	-10.658
1)	-10.6584
▁citato	-10.6584
▁seguono	-10.6584
▁serra	-10.6588
▁questioni	-10.659
▁dispositivi	-10.6592
▁michael	-10.6592
▁tonnellate	-10.6592
interfaccia	-10.6592
▁minerale	-10.6592
▁vendita	-10.6592
▁ebraico	-10.6592
▁sposò	-10.6592
▁solleva	-10.6592
▁sindaco	-10.6593
▁vettore	-10.6593
▁nuoto	-10.6593
▁1917	-10.6594
▁tentò	-10.6594
indagine	-10.6596
▁festeggia	-10.6596
▁edificio	-10.6602
▁guidato	-10.6609
eso	-10.6609
▁viola	-10.6612
▁fornito	-10.6623
metria	-10.6626
villa	-10.6628
▁coi	-10.6629
fetta	-10.663
▁piana	-10.6635
▁marcia	-10.6637
ix	-10.6637
▁bon	-10.6638
▁comprendere	-10.6638
▁bande	-10.6641
▁conflitti	-10.6646
▁irlandese	-10.6646
▁prossimità	-10.6646
▁proposte	-10.6646
▁mantenne	-10.6647
▁fossili	-10.6647
▁einstein	-10.6647
▁probabile	-10.6647
apparato	-10.6648
▁ovviamente	-10.6649
▁brani	-10.6649
▁implementa	-10.6649
▁determinata	-10.6651
▁ruoli	-10.6652
▁tendenza	-10.6658
▁descritto	-10.6662
▁circo	-10.6662
▁romane	-10.6664
ascesa	-10.6669
ossigeno	-10.6672
▁aggiunge	-10.6673
▁frase	-10.6674
▁coordinate	-10.6678
▁free	-10.668
▁sperimenta	-10.668
▁bosco	-10.6683
▁parlato	-10.669
▁fondatore	-10.669
▁liberali	-10.6694
▁impre	-10.6696
num	-10.6698
▁giunge	-10.6698
▁combattimento	-10.6701
▁gonfalone	-10.6701
▁partecipò	-10.6701
▁stabilì	-10.6701
▁casuale	-10.6701
▁soluzioni	-10.6701
▁stefano	-10.6701
01"	-10.6709
▁(4	-10.6709
▁gen	-10.671
▁peggior	-10.6712
▁pose	-10.6714
▁segreta	-10.6718
▁apparente	-10.6719
▁natale	-10.672
▁sorgenti	-10.6725
abilità	-10.6731
▁marmo	-10.6738
approvazione	-10.6743
▁tira	-10.6746
▁decisi	-10.6746
▁elettrone	-10.6752
▁parlamentare	-10.6756
▁appassiona	-10.6756
▁complessa	-10.6756
▁teorica	-10.6756
▁intrapres	-10.6757
▁1975	-10.6759
▁char	-10.6761
pongono	-10.6763
▁nemico	-10.6765
regi	-10.6766
▁impiegato	-10.6772
="16	-10.6774
▁scopi	-10.678
▁derivata	-10.6781
▁compagnie	-10.6782
▁socio	-10.6782
▁formazioni	-10.6783
▁stabilire	-10.6784
▁distinguere	-10.6785
▁abbiano	-10.679
hen	-10.6807
▁genti	-10.681
▁system	-10.681
gy	-10.6811
▁suddivisa	-10.6811
▁incominci	-10.6811
▁urbino	-10.6811
▁seguita	-10.6811
▁ospitato	-10.6813
▁1956	-10.6814
▁alpino	-10.6814
▁1952	-10.6814
illa	-10.6817
▁abbandonato	-10.6821
▁verità	-10.6821
▁necessariamente	-10.6823
rompe	-10.6827
▁oscar	-10.6827
▁wh	-10.6827
▁pieve	-10.6827
▁ideali	-10.683
▁tratte	-10.6832
▁stabilità	-10.6836
▁nera	-10.6848
▁tempera	-10.6863
▁racconto	-10.6867
▁giornata	-10.6867
▁straniera	-10.6867
▁istituti	-10.6867
▁lugano	-10.6867
▁sho	-10.6868
▁palazzi	-10.6868
▁mantello	-10.6868
▁importa	-10.6869
▁entità	-10.687
▁articola	-10.687
▁nor	-10.6879
▁ripara	-10.6885
▁tecnologie	-10.689
mail	-10.6891
▁duomo	-10.6891
▁peraltro	-10.6901
▁certi	-10.6906
bit	-10.6915
▁momenti	-10.6919
individuo	-10.6923
▁dimostrò	-10.6923
▁sostenuto	-10.6923
▁gesù	-10.6923
▁situazioni	-10.6923
▁cercò	-10.6923
▁archeologici	-10.6923
▁brasile	-10.6923
▁sfondo	-10.6923
▁lentamente	-10.6924
▁arturo	-10.6924
▁decima	-10.6924
▁spirale	-10.6925
▁sasso	-10.6925
▁intanto	-10.6927
▁stabilito	-10.6928
▁33	-10.6929
enciclopedia	-10.693
nch	-10.6934
bal	-10.6936
pt	-10.6938
trico	-10.6939
sina	-10.6941
="14	-10.6945
ruppe	-10.6945
▁celti	-10.6951
comuni	-10.6951
occidente	-10.6953
sistema	-10.6954
▁elettrico	-10.6959
▁assol	-10.6965
▁parma	-10.6967
▁associato	-10.6973
▁animale	-10.6973
▁cresce	-10.6975
her	-10.6976
9%	-10.6978
▁quotidiano	-10.6979
altitudine	-10.6979
▁cinematografica	-10.6979
▁riviste	-10.6979
▁soggiorn	-10.6979
▁protetto	-10.6979
▁gerarchi	-10.698
▁annovera	-10.6981
▁braccio	-10.6983
▁accede	-10.6985
▁urano	-10.6987
▁1859	-10.6995
▁nazionalità	-10.7002
▁sesto	-10.7004
▁occidente	-10.7004
incontro	-10.7011
▁professore	-10.7012
▁you	-10.7012
▁interpretato	-10.7014
6%	-10.7015
▁emerge	-10.7015
estremo	-10.7017
▁neve	-10.7019
▁pesante	-10.7027
antonio	-10.7031
▁efficace	-10.7035
▁toponimo	-10.7035
▁continuo	-10.7035
▁santuario	-10.7035
▁chicago	-10.7035
▁gauss	-10.7036
▁console	-10.7042
▁college	-10.7045
▁individuare	-10.7053
sport	-10.7055
▁normali	-10.7058
▁cad	-10.7059
▁design	-10.7061
="18	-10.7065
▁porzione	-10.7065
▁ciascun	-10.7066
▁dimostrazione	-10.7072
▁associata	-10.7085
▁là	-10.7092
▁aeroporti	-10.7092
▁affermò	-10.7092
▁alessandria	-10.7092
▁possiedono	-10.7092
▁teatrale	-10.7092
elettromagnetica	-10.7092
▁prevista	-10.7092
▁polveri	-10.7094
▁limitato	-10.7094
sfera	-10.7096
▁collasso	-10.7097
hr	-10.7101
ministra	-10.7103
▁ordin	-10.7105
▁piace	-10.7106
arro	-10.7107
slav	-10.7112
▁mito	-10.7114
▁dottor	-10.7122
▁attivi	-10.7122
▁rilevante	-10.7122
emissione	-10.7133
▁conversione	-10.7136
▁esperienza	-10.7136
▁casale	-10.7136
▁autonomia	-10.7137
▁cantoni	-10.7144
▁consorzio	-10.7149
▁grammatica	-10.7149
▁johann	-10.7149
▁svolto	-10.7149
umbria	-10.715
▁bersagli	-10.715
▁distribuito	-10.715
▁anziché	-10.715
▁spese	-10.7154
▁territoriali	-10.7165
anello	-10.7166
▁1000	-10.7169
uch	-10.7181
▁salvo	-10.7188
▁carico	-10.7193
▁nega	-10.7194
▁spera	-10.7195
fasci	-10.7195
▁ammasso	-10.7197
▁nerone	-10.7199
abitato	-10.7204
doni	-10.7206
▁gor	-10.7207
▁guglielmo	-10.7207
▁thomas	-10.7207
▁brillanti	-10.7207
▁chimiche	-10.7207
▁bensì	-10.7207
▁consenso	-10.7207
▁scientifici	-10.7208
▁trattava	-10.7209
▁priori	-10.7211
▁camere	-10.7213
▁allende	-10.7223
▁sonda	-10.7225
▁verdi	-10.7226
▁turisti	-10.723
▁costituire	-10.7232
▁martino	-10.724
ficò	-10.7242
▁ideale	-10.7249
▁binari	-10.725
▁viva	-10.7252
▁riguardanti	-10.7252
estrazione	-10.7252
▁esisteva	-10.7255
▁tanti	-10.7259
▁formando	-10.726
▁ricchi	-10.726
acido	-10.7262
▁intervento	-10.7262
▁amministrative	-10.7265
▁rimangono	-10.7265
▁danneggi	-10.7267
▁testimonianza	-10.727
▁spaziali	-10.7272
▁molise	-10.7274
▁pianifica	-10.7278
▁argento	-10.7288
▁arrivo	-10.7294
▁chiari	-10.7294
mettere	-10.7295
decenni	-10.7301
fusione	-10.7303
▁abitati	-10.7304
▁aria	-10.7304
té	-10.7305
▁basati	-10.7306
▁calvi	-10.731
wer	-10.7311
="13	-10.7315
▁riga	-10.7318
▁lunghe	-10.7319
▁tribunale	-10.7323
▁agricola	-10.7323
▁apparve	-10.7323
▁attori	-10.7324
amico	-10.7329
▁interazioni	-10.7329
▁registrato	-10.7337
▁chiana	-10.7341
▁occupato	-10.7346
battuto	-10.735
ken	-10.7358
chan	-10.736
▁formali	-10.7364
="17	-10.7365
▁ken	-10.737
mé	-10.7372
mata	-10.7372
▁errore	-10.7372
▁raffi	-10.7372
▁britanniche	-10.7381
▁esattamente	-10.7381
▁suddiviso	-10.7381
▁satellite	-10.7381
▁espressa	-10.7381
▁pittori	-10.7382
▁ascoli	-10.7385
▁riferimenti	-10.7387
▁1900	-10.7387
▁correlat	-10.739
▁precisamente	-10.7391
▁monetaria	-10.7398
▁spostamento	-10.7399
▁costanti	-10.74
▁versa	-10.7401
▁petro	-10.7402
▁generato	-10.741
appartenenza	-10.7412
▁wo	-10.7419
▁ispirato	-10.743
▁fattore	-10.7432
▁colli	-10.7435
▁combattere	-10.7436
▁domini	-10.7438
mettono	-10.744
pot	-10.744
▁riconosciuta	-10.744
▁scomparsa	-10.744
▁tessuti	-10.744
▁scientifiche	-10.744
▁scoppio	-10.744
▁schermo	-10.744
▁uniforme	-10.7441
▁contadini	-10.7442
▁superficiale	-10.7442
▁rapida	-10.7442
▁fascismo	-10.7443
▁garantire	-10.7444
office	-10.745
▁divise	-10.7456
▁voli	-10.7459
▁globale	-10.7463
▁risultano	-10.7464
▁fle	-10.7465
▁pesce	-10.7469
abitu	-10.7473
▁esporta	-10.7476
▁anna	-10.7478
▁terreni	-10.748
▁finanziari	-10.748
▁basse	-10.7485
intesa	-10.7493
▁defini	-10.7494
▁limitata	-10.7499
▁censimento	-10.7499
▁protocollo	-10.7499
▁concerto	-10.7499
▁feudo	-10.7499
etimologia	-10.7499
argomento	-10.75
▁pietre	-10.7501
▁federazione	-10.7501
▁1959	-10.7501
▁1951	-10.7502
abbondanza	-10.7504
▁alberi	-10.7506
▁risalent	-10.7512
▁riforme	-10.7513
▁chiaramente	-10.7513
▁uscita	-10.7519
▁stacca	-10.752
detta	-10.7521
▁possano	-10.7522
▁cara	-10.7538
applicazione	-10.754
dge	-10.754
▁leggera	-10.7547
▁terme	-10.7558
▁introduce	-10.7559
▁condivide	-10.7559
▁conosciute	-10.7559
▁batman	-10.7559
▁pagina	-10.7559
▁segreto	-10.7559
▁primaria	-10.7561
▁ciclismo	-10.7562
▁interventi	-10.7562
magistra	-10.7565
invenzione	-10.7577
▁mit	-10.7578
▁unix	-10.7589
▁preparazione	-10.759
▁cellulare	-10.7592
▁circolare	-10.7606
▁mostrano	-10.7615
▁elementare	-10.7619
▁occasioni	-10.7619
▁presentò	-10.7619
▁desidera	-10.7619
▁vapore	-10.7619
abruzzo	-10.7619
▁illustra	-10.7619
▁reperti	-10.7619
▁affari	-10.7619
▁favorevole	-10.7621
▁1965	-10.7622
▁concesse	-10.7625
▁riportato	-10.7626
▁rapido	-10.7627
▁condiziona	-10.7629
intervista	-10.7631
▁massiccio	-10.7633
▁inaugurato	-10.7634
▁war	-10.7635
▁ville	-10.7636
▁cosmo	-10.7637
▁sb	-10.7637
▁lorenzo	-10.7642
▁compare	-10.7647
impulso	-10.7648
▁fonde	-10.7654
ming	-10.7662
▁esplos	-10.7667
▁episodio	-10.767
="19	-10.7679
▁democrazia	-10.7679
▁calabria	-10.7679
▁pubblicate	-10.7679
▁dolce	-10.7679
▁principato	-10.768
▁trasferir	-10.7681
▁bombardamenti	-10.7681
▁ricchezza	-10.7682
▁shi	-10.7682
▁procura	-10.7685
uranio	-10.7685
chino	-10.7692
▁pensi	-10.7693
▁copie	-10.7694
▁leghe	-10.77
▁cancella	-10.7705
▁realizzati	-10.7715
▁classificati	-10.7719
capito	-10.7727
▁vincitori	-10.7731
life	-10.7731
▁hollywood	-10.7739
▁meccanismi	-10.7739
▁meridionali	-10.7739
▁neutrini	-10.7739
▁saccheggi	-10.7739
▁svizzero	-10.7739
▁seicento	-10.7739
▁liquido	-10.7739
▁tecnici	-10.7739
▁essenziale	-10.7739
▁dimostrare	-10.774
▁dinamica	-10.7741
▁dotata	-10.7741
▁imperiali	-10.7742
abbandono	-10.7742
▁bonifica	-10.7743
▁sapere	-10.7743
▁diventata	-10.7748
▁wal	-10.7749
▁distante	-10.775
▁apple	-10.7754
▁carne	-10.7754
▁concede	-10.7755
▁(14	-10.7757
▁cariche	-10.7758
▁vetro	-10.7762
▁messina	-10.7768
▁roberto	-10.7774
▁private	-10.7783
▁coloni	-10.7783
▁lanciato	-10.7786
_12	-10.7789
▁attira	-10.7789
▁mobile	-10.7793
▁ricche	-10.7798
▁voto	-10.7799
▁esigenze	-10.78
▁sicuramente	-10.78
▁intitolata	-10.7801
▁tiene	-10.7801
▁demografica	-10.7801
▁piombo	-10.7802
▁immagina	-10.7807
▁turing	-10.7807
▁calo	-10.781
▁roccia	-10.7811
cula	-10.7814
▁xxi	-10.7815
▁regge	-10.7819
▁influenze	-10.7822
▁definite	-10.7828
erba	-10.7829
▁nobile	-10.7833
durre	-10.7835
▁permettendo	-10.7837
formula	-10.7848
▁karl	-10.7848
form	-10.7858
dh	-10.7858
▁cancelliere	-10.7862
▁contribuì	-10.7862
▁semplifica	-10.7862
▁uguali	-10.7862
▁produzioni	-10.7862
astronomo	-10.7862
▁rimasta	-10.7862
estrema	-10.7863
▁disegni	-10.7863
▁ritiro	-10.7865
aceae	-10.7871
▁selezione	-10.7875
volo	-10.7875
▁coltivazione	-10.7882
▁proprietari	-10.7884
▁statistiche	-10.7888
▁stimato	-10.7891
▁mitologia	-10.7891
accelerazione	-10.7891
▁stup	-10.7895
▁tipiche	-10.7896
lum	-10.7896
▁calcolare	-10.7896
▁alimenta	-10.79
▁miglia	-10.79
▁approccio	-10.79
▁eletti	-10.7903
▁magno	-10.7905
▁sperimentali	-10.7909
▁rabbi	-10.791
▁esistente	-10.7914
▁space	-10.7915
▁pier	-10.7915
▁assenza	-10.792
▁ritenuto	-10.7923
▁sovietiche	-10.7923
▁pesaro	-10.7924
▁zolfo	-10.7924
▁vincenzo	-10.7924
▁venisse	-10.7927
kin	-10.7927
▁massimi	-10.7928
eccezione	-10.7929
ieri	-10.793
sql	-10.7938
senza	-10.7942
▁spinge	-10.7945
▁protesta	-10.7951
▁vincere	-10.7953
▁frank	-10.7955
amicizia	-10.7958
tenenti	-10.7963
▁finali	-10.7963
fila	-10.7964
▁rinvenut	-10.7967
_9	-10.7975
▁belle	-10.7985
führer	-10.7986
▁aggiunse	-10.7986
▁norvegia	-10.7986
▁svolgono	-10.7986
adesione	-10.7987
▁tibet	-10.7987
▁cen	-10.7987
▁negativa	-10.7987
▁connessione	-10.7989
▁tranne	-10.799
▁bell	-10.7991
▁presidi	-10.7992
▁marino	-10.7992
avvio	-10.7993
prop	-10.7995
▁naviga	-10.7998
▁pil	-10.8005
▁psicologi	-10.8015
▁lecco	-10.8018
▁fatte	-10.8024
cht	-10.8024
social	-10.8024
▁game	-10.8027
▁osservata	-10.8028
▁pura	-10.8032
▁bruno	-10.8033
oratorio	-10.8035
▁marine	-10.8038
▁lombarda	-10.8048
▁tessuto	-10.8048
▁varsavia	-10.8048
acronimo	-10.8048
▁continue	-10.8048
▁espresse	-10.8048
▁ridotta	-10.8048
▁guarda	-10.8049
▁espressioni	-10.805
▁combatte	-10.8053
▁inviò	-10.8054
▁durò	-10.8055
▁controllare	-10.8056
arresto	-10.8057
▁archivi	-10.8058
urss	-10.8059
▁inviato	-10.8066
▁umane	-10.8069
▁cima	-10.807
▁on	-10.8072
intensa	-10.8078
▁cambiare	-10.8079
giano	-10.8085
▁quaranta	-10.8087
▁firmato	-10.8094
occhio	-10.8097
▁costituiva	-10.81
▁gallo	-10.8101
▁ampia	-10.8106
porto	-10.8106
▁trip	-10.8107
algoritmo	-10.8111
▁heisenberg	-10.8111
▁corazzata	-10.8111
▁riflette	-10.8111
▁riserve	-10.8111
▁sportive	-10.8111
▁concilio	-10.8111
▁scritte	-10.8111
▁convento	-10.8114
▁indipendenza	-10.8114
▁voler	-10.8116
relli	-10.8118
▁trasmette	-10.8121
misero	-10.8122
▁intensi	-10.8122
▁ridurre	-10.8122
▁vicinanza	-10.8125
▁taglio	-10.8126
▁carl	-10.8127
▁spalle	-10.8129
▁generalizza	-10.8129
▁catalog	-10.813
▁collezioni	-10.8132
▁piemontese	-10.8132
esercizio	-10.8138
▁red	-10.8142
▁sm	-10.8155
▁volto	-10.816
100	-10.8161
ferì	-10.8161
occidentale	-10.8163
solo	-10.8164
▁bianchi	-10.8174
▁espresso	-10.8174
▁1932	-10.8177
▁transito	-10.818
▁gaber	-10.8187
▁blues	-10.8191
▁brucia	-10.8203
▁creò	-10.8207
▁contempo	-10.8211
▁scrittori	-10.8211
05"	-10.8213
▁modena	-10.8223
▁atene	-10.8224
▁approvato	-10.8236
▁televisiva	-10.8238
hockey	-10.8238
▁savona	-10.8238
▁orbite	-10.8239
▁catene	-10.824
▁aggira	-10.824
▁voluto	-10.8244
▁esseri	-10.8245
▁impatto	-10.8253
▁adriatico	-10.8256
▁bob	-10.8257
mark	-10.8263
▁aiuto	-10.8263
▁parrocchiale	-10.8268
▁meteo	-10.827
terra	-10.8272
▁pesci	-10.8273
▁equivalente	-10.8288
▁vulcani	-10.8302
▁accumula	-10.8302
▁democratica	-10.8302
▁concerti	-10.8302
▁olimpiade	-10.8302
▁battista	-10.8302
▁nipote	-10.8302
▁boreale	-10.8302
▁missioni	-10.8302
▁cinesi	-10.8303
▁visualizza	-10.8303
▁polacco	-10.8303
▁opposto	-10.8303
▁foresta	-10.8303
▁1958	-10.8304
10"	-10.8304
▁responsabilità	-10.8305
▁1921	-10.8306
▁qualifica	-10.8306
▁bombardamento	-10.8306
▁portati	-10.8307
▁gaeta	-10.8307
▁significativo	-10.8311
cavalieri	-10.8311
▁giovi	-10.8312
nik	-10.8313
▁turistico	-10.8316
▁progettazione	-10.832
▁ritard	-10.8324
▁estate	-10.8324
back	-10.8324
▁carboni	-10.8328
aumento	-10.8331
▁solido	-10.8332
▁cercare	-10.8336
rì	-10.8342
▁vallo	-10.8351
wy	-10.8352
▁frequente	-10.8358
psi	-10.8359
posizioni	-10.8359
wo	-10.8363
rappresentazione	-10.8364
sburg	-10.8364
▁latitudine	-10.8367
▁sostituzione	-10.8367
▁giornale	-10.8367
▁minoranza	-10.8367
▁massicce	-10.8367
▁venendo	-10.8367
▁contenere	-10.8367
▁1955	-10.837
▁girone	-10.8375
▁conservatori	-10.8376
▁center	-10.8377
▁vecchi	-10.8379
▁cittadinanza	-10.8379
▁team	-10.838
▁privo	-10.8386
▁dominazione	-10.8402
09"	-10.8402
▁capitano	-10.8409
▁dog	-10.841
▁rare	-10.8413
way	-10.8415
▁liberale	-10.8423
cerchi	-10.8426
▁concessi	-10.843
▁strategica	-10.8432
▁qualcosa	-10.8432
▁critico	-10.8432
▁divinità	-10.8432
▁ultra	-10.8432
▁ottimi	-10.8432
▁dvd	-10.8433
▁punteggio	-10.8434
▁decisioni	-10.8435
oriente	-10.8437
▁presero	-10.8437
▁cibo	-10.8443
hel	-10.8445
▁incidente	-10.8446
▁partecipanti	-10.8453
intenzione	-10.8456
iii	-10.8457
dipendentemente	-10.8457
amante	-10.8458
▁estera	-10.8461
▁condotto	-10.8463
▁latini	-10.847
morfo	-10.8472
integrazione	-10.848
elaborazione	-10.8484
▁fedeli	-10.8489
▁veloce	-10.8489
costellazione	-10.849
▁falc	-10.8491
▁algoritmi	-10.8497
▁society	-10.8497
▁troviamo	-10.8497
▁domenico	-10.8497
esecutivo	-10.8497
▁rivendica	-10.8497
▁stipula	-10.8497
▁ognuno	-10.8497
▁elevate	-10.8497
▁capitolo	-10.8497
▁incluso	-10.8497
▁carcere	-10.8498
ombra	-10.8498
▁neri	-10.8498
▁indirizza	-10.8499
▁negativo	-10.8499
▁1957	-10.8499
▁impiegati	-10.85
▁acidi	-10.8506
▁equilibrio	-10.8509
▁prestazioni	-10.851
▁sovrani	-10.8519
▁costruiti	-10.8524
etichetta	-10.8527
▁azzurro	-10.8542
genesi	-10.8545
▁russi	-10.8547
▁antoni	-10.8547
▁rivolt	-10.8549
▁identità	-10.855
▁indicata	-10.8555
▁giudiziari	-10.8563
▁medesimo	-10.8563
▁canadese	-10.8563
▁giudizio	-10.8563
▁positiva	-10.8563
▁seguirono	-10.8563
▁visconti	-10.8563
▁permanente	-10.8563
sentì	-10.8563
▁1931	-10.8565
▁ferroviarie	-10.857
alter	-10.8578
▁annuncia	-10.8581
▁tang	-10.8583
coltura	-10.8583
▁cantante	-10.8583
▁migliorare	-10.8586
▁riconoscere	-10.8587
04"	-10.8587
▁dominante	-10.8591
secondo	-10.8598
▁punte	-10.8606
▁applicata	-10.8607
▁vivono	-10.8607
▁ricevere	-10.8608
▁solida	-10.8609
▁rota	-10.861
▁blo	-10.8621
▁sorte	-10.8621
▁vega	-10.8623
shōnen	-10.8629
▁sforzi	-10.8629
▁spontanea	-10.8629
▁scelse	-10.8629
▁musicisti	-10.8629
▁tevere	-10.863
▁angolare	-10.863
▁borboni	-10.863
▁1953	-10.8632
kra	-10.8632
▁cosm	-10.8634
▁distribuzioni	-10.8635
▁dipendenti	-10.8653
▁porre	-10.8663
vy	-10.8664
▁giusti	-10.8665
▁cus	-10.8667
▁michel	-10.8669
▁aggiunta	-10.8686
▁elenco	-10.8692
▁mercurio	-10.8696
▁microscopi	-10.8696
▁configurazione	-10.8696
▁sportivi	-10.8696
argentina	-10.8697
▁egizi	-10.8697
▁marx	-10.8701
▁naturalmente	-10.8701
▁finire	-10.8705
▁alex	-10.871
▁matera	-10.8721
▁joan	-10.8721
▁attive	-10.8728
▁big	-10.874
▁spinse	-10.8745
▁giuliano	-10.8754
▁progettato	-10.8755
ulteriore	-10.8759
▁viceversa	-10.8763
▁cinquecento	-10.8763
▁sostenne	-10.8763
atteggiamento	-10.8763
agostino	-10.8763
▁pilota	-10.8763
▁attribuito	-10.8765
▁sostituita	-10.8767
▁felice	-10.8767
▁producono	-10.8767
letteralmente	-10.8769
▁lord	-10.877
20"	-10.8773
▁ferroviario	-10.8774
▁castelli	-10.8778
▁brigat	-10.8783
▁emana	-10.8788
▁fortezza	-10.879
▁parrocchia	-10.8799
02"	-10.8807
▁moli	-10.8809
▁giornalisti	-10.8824
▁corea	-10.8825
efficienza	-10.883
▁aggiunto	-10.883
▁football	-10.883
▁intellettuali	-10.883
▁videogiochi	-10.883
esperanto	-10.883
▁galleria	-10.883
▁licenze	-10.883
▁poesia	-10.883
orchestra	-10.8831
▁materie	-10.8831
▁silicio	-10.8831
▁triangolo	-10.8833
▁disastro	-10.8835
destin	-10.8836
guerra	-10.884
▁onori	-10.8843
▁versi	-10.8844
▁indicano	-10.8854
▁lira	-10.8854
pha	-10.8855
▁letteraria	-10.8856
uovo	-10.8865
eroe	-10.8869
she	-10.887
work	-10.8882
03"	-10.8885
▁simon	-10.8887
▁necessarie	-10.8888
▁pubblicazioni	-10.8891
estremità	-10.8892
▁gente	-10.8893
▁organizzata	-10.8894
▁esemplari	-10.8898
▁invernale	-10.8898
▁argomenti	-10.8898
▁mantenendo	-10.8898
▁accettò	-10.8898
▁pittura	-10.8898
▁proteina	-10.8898
▁colpito	-10.89
indeterminazione	-10.89
▁caratterizzati	-10.8902
zzu	-10.8903
▁automobili	-10.8904
▁portano	-10.8905
▁profondamente	-10.8906
anesi	-10.8907
▁attraversato	-10.8907
ppure	-10.8907
▁inclusi	-10.8909
▁versante	-10.891
islam	-10.8913
signor	-10.8914
regola	-10.8921
▁rappresentate	-10.8922
▁orbitali	-10.8924
▁commissario	-10.8929
▁azienda	-10.8929
200	-10.8929
▁prosegue	-10.8939
▁impedire	-10.8942
▁annunci	-10.8944
▁consider	-10.895
▁roll	-10.8952
▁profonda	-10.8961
▁prevale	-10.8967
▁femminili	-10.8967
▁rinascimento	-10.8967
▁desiderio	-10.8967
▁francisco	-10.8967
▁prolunga	-10.8967
▁strategia	-10.8967
▁professionale	-10.8967
▁consulta	-10.8968
▁disposizioni	-10.8968
▁saggi	-10.8968
▁costiera	-10.8972
▁attraversata	-10.8972
▁corretta	-10.8975
intento	-10.8976
▁gialla	-10.8978
▁venire	-10.8982
▁imposta	-10.8984
▁1861	-10.8985
▁influenzato	-10.8988
▁rossi	-10.8997
▁nichel	-10.8999
sula	-10.8999
crea	-10.9003
abba	-10.9004
▁tv	-10.9006
ball	-10.9011
▁motore	-10.9014
▁accoglie	-10.902
40"	-10.9022
▁viii	-10.9025
▁guidata	-10.903
▁coppie	-10.9033
▁vecchie	-10.9034
▁nebulose	-10.9036
▁molteplici	-10.9036
▁risiede	-10.9036
▁seleziona	-10.9036
▁costruzioni	-10.9036
▁tensione	-10.9036
artigianato	-10.9036
▁comunali	-10.9036
▁portaerei	-10.9036
▁cagliari	-10.9036
▁fondò	-10.9036
▁concorda	-10.9037
▁condotti	-10.9037
▁delibera	-10.9037
▁singole	-10.9038
▁produttori	-10.9039
70"	-10.9043
▁allunga	-10.905
▁letterario	-10.9061
▁onora	-10.9061
▁venga	-10.9064
archeologi	-10.9065
▁facilita	-10.9076
▁rimanere	-10.9077
▁cercando	-10.9094
assembl	-10.9094
▁alimentare	-10.9101
▁nomenclatura	-10.9105
▁spettrale	-10.9105
▁malgrado	-10.9105
▁spagnoli	-10.9105
▁descritta	-10.9105
▁specula	-10.9105
▁esperti	-10.9105
▁minimi	-10.9106
▁eccezioni	-10.9107
▁diagramma	-10.9107
▁commission	-10.9108
▁esterne	-10.9108
elementi	-10.911
▁pratiche	-10.9111
▁francesca	-10.9112
▁hardware	-10.9112
▁nostri	-10.9117
▁planetario	-10.912
▁condusse	-10.9121
▁cooperazione	-10.9121
▁separati	-10.9124
▁rigel	-10.9125
ampia	-10.9128
▁finito	-10.9131
▁colonizza	-10.9132
▁folk	-10.9132
tella	-10.9134
assorbimento	-10.9135
▁effettuato	-10.9142
▁cloro	-10.9151
▁approfond	-10.9155
▁gold	-10.9158
▁dubbio	-10.9161
▁insediamento	-10.9165
▁derivato	-10.9167
▁scambi	-10.9168
missi	-10.9173
▁familiari	-10.9175
▁friedrich	-10.9175
▁jugoslavia	-10.9175
▁sconfitto	-10.9175
▁studente	-10.9175
▁henry	-10.9175
vangeli	-10.9175
▁quadrato	-10.9176
▁lunghezze	-10.9176
indirizzo	-10.9183
▁iniziative	-10.9184
occhi	-10.9184
field	-10.9185
▁protoni	-10.9187
allevamento	-10.9187
▁convoca	-10.9188
kel	-10.919
bello	-10.9191
▁loggia	-10.9193
berlin	-10.92
▁certamente	-10.9201
▁rari	-10.9202
▁scambia	-10.9216
▁christ	-10.9216
▁marchi	-10.9218
12"	-10.9223
60"	-10.9223
▁adatto	-10.9236
07"	-10.9239
08"	-10.9242
bella	-10.9242
▁angeles	-10.9246
▁democratico	-10.9246
▁procedura	-10.9246
▁razionali	-10.9246
▁sterminio	-10.9246
▁circostante	-10.9246
▁galattico	-10.9246
▁ravenna	-10.9246
▁enormi	-10.9246
▁1908	-10.9247
elenco	-10.9249
▁giustifica	-10.9251
camera	-10.9251
▁decisero	-10.9251
▁dedicò	-10.9252
▁arrivando	-10.9252
▁daniel	-10.9254
▁tomba	-10.9255
▁distinte	-10.9255
▁grazia	-10.9258
adda	-10.926
premi	-10.9262
▁rilevanza	-10.9263
▁entrata	-10.9265
▁nemici	-10.9265
▁esplora	-10.9271
▁funzionari	-10.9272
▁gelli	-10.9275
far	-10.9276
▁acido	-10.9277
▁canti	-10.9285
▁occupazione	-10.9286
▁originaria	-10.9288
▁partecipato	-10.929
sho	-10.9292
▁realizzate	-10.9292
▁soci	-10.9294
▁pelle	-10.9298
norm	-10.9302
▁altrimenti	-10.9309
▁clan	-10.9309
▁veloci	-10.9313
▁metropoli	-10.9316
▁risorgimento	-10.9316
ventuale	-10.9316
▁giudice	-10.9317
▁perfettamente	-10.9317
▁olimpiadi	-10.9317
▁destinato	-10.9317
▁composte	-10.9317
▁distretti	-10.9318
▁insignit	-10.9318
▁convinto	-10.9318
▁competenza	-10.932
▁1915	-10.932
nard	-10.9321
▁baia	-10.9321
▁avrà	-10.9326
▁largamente	-10.9329
▁cana	-10.9336
▁emigra	-10.9336
▁costituiti	-10.9342
▁grosseto	-10.9345
bibli	-10.9347
▁perdere	-10.9352
▁parlata	-10.9352
▁ricercatori	-10.9353
▁bud	-10.9356
vet	-10.9359
hol	-10.936
▁more	-10.9361
▁servita	-10.9369
▁soggett	-10.937
▁comma	-10.937
▁manifest	-10.9373
▁ossida	-10.9376
editore	-10.9383
▁segnali	-10.9384
▁connessi	-10.9387
▁magnesio	-10.9388
▁descritti	-10.9388
▁sentenza	-10.9388
▁ripeti	-10.9389
▁trapani	-10.9389
▁ibm	-10.939
unesco	-10.939
▁pasqua	-10.9392
▁decisamente	-10.9393
▁varianza	-10.9393
centro	-10.9395
▁gestire	-10.9397
liste	-10.9398
▁cifre	-10.94
▁lavorato	-10.9402
zona	-10.9403
▁sparti	-10.9409
▁modificare	-10.9409
▁piatti	-10.9409
▁yu	-10.9411
▁corrispondenti	-10.9414
▁alimentari	-10.9417
▁peter	-10.9423
▁liri	-10.9441
▁raf	-10.9443
sciu	-10.9445
assetto	-10.9448
26"	-10.9454
36"	-10.9459
▁play	-10.9459
arcipelago	-10.946
copyright	-10.946
▁elementari	-10.946
▁lussemburgo	-10.946
▁proiezione	-10.946
▁prospettiva	-10.946
▁raggiungono	-10.946
▁spirituale	-10.946
▁arthur	-10.946
▁necessita	-10.946
▁stallman	-10.946
▁indagini	-10.946
ford	-10.946
▁potenti	-10.946
▁fumetto	-10.946
▁sfida	-10.9462
▁tendono	-10.9462
▁inverni	-10.9464
▁sovranità	-10.9464
▁giungere	-10.9464
▁affidata	-10.9468
▁separata	-10.9468
ammiraglio	-10.9472
▁bomba	-10.9474
17"	-10.9474
▁rappresentante	-10.9475
▁modificato	-10.9476
25"	-10.9479
▁basate	-10.9491
▁accettato	-10.9493
▁hill	-10.9494
nell	-10.9502
▁finanziaria	-10.9511
▁binario	-10.9516
▁giovanile	-10.9516
uscì	-10.9522
▁ya	-10.9526
serv	-10.9529
▁euclide	-10.9532
▁cremona	-10.9532
▁critici	-10.9532
▁divenuta	-10.9533
▁clemente	-10.9533
▁spettacoli	-10.9534
▁dotati	-10.9534
▁frontiera	-10.9534
▁convince	-10.9534
▁gustav	-10.9536
▁complica	-10.954
▁complessità	-10.9546
▁guido	-10.955
▁rossini	-10.9552
ficato	-10.9554
▁cavalli	-10.956
▁organizzare	-10.956
affermazione	-10.956
▁telescopi	-10.9561
pone	-10.9561
▁sodio	-10.9563
▁tag	-10.9567
41"	-10.9574
acciaio	-10.9579
▁impiego	-10.958
▁sorti	-10.9589
▁ritorn	-10.9593
▁superato	-10.9602
▁continuarono	-10.9602
▁lituania	-10.9605
▁vespasiano	-10.9605
▁cittadine	-10.9605
▁polvere	-10.9605
▁profilo	-10.9605
▁realizzò	-10.9606
▁atlantico	-10.9606
▁radioattivo	-10.9606
▁dovute	-10.9607
▁termica	-10.9608
▁confronta	-10.961
▁perfezion	-10.9612
▁sfruttamento	-10.9622
▁sy	-10.9628
▁farsi	-10.9628
▁variano	-10.963
_11	-10.9632
▁etero	-10.9634
▁significativa	-10.9651
▁compiere	-10.9653
31"	-10.9653
kon	-10.9657
▁getta	-10.966
▁derivate	-10.9665
limit	-10.9668
▁ricordato	-10.9675
▁cetacei	-10.9679
▁costrinse	-10.9679
▁crawford	-10.9679
▁difficili	-10.9679
▁dolomiti	-10.9679
▁filosofo	-10.9679
▁leonardo	-10.9679
▁rifiuto	-10.9679
▁database	-10.9679
▁source	-10.9679
▁anticipa	-10.9679
▁rinforz	-10.9679
▁antropica	-10.9679
▁coalizione	-10.9679
▁prodotte	-10.9679
▁giuridica	-10.9679
infinito	-10.968
▁orbitale	-10.9685
▁significative	-10.9686
▁sabbia	-10.9687
australia	-10.9689
4)	-10.9696
▁pagamento	-10.9698
osservatore	-10.9704
▁foce	-10.9706
tsu	-10.9708
▁(10	-10.971
▁determinate	-10.9712
▁magia	-10.9712
▁collegata	-10.9716
43"	-10.9717
▁circola	-10.9723
errore	-10.9724
▁incentrat	-10.9725
06"	-10.9735
▁emivita	-10.9738
▁stanza	-10.974
▁tetra	-10.9746
▁vedeva	-10.9747
▁live	-10.9749
▁amministrazioni	-10.9753
▁ginevra	-10.9753
▁occupò	-10.9753
▁millennio	-10.9753
▁scozzese	-10.9753
▁raccomand	-10.9753
▁fiscale	-10.9753
▁incontri	-10.9753
▁compongono	-10.9755
▁rispose	-10.9755
▁pianoforte	-10.9755
▁vicenda	-10.9756
▁chiusa	-10.9757
fort	-10.9758
▁orione	-10.9761
vincitori	-10.9764
▁propriamente	-10.9764
milio	-10.9765
german	-10.9768
aggiunta	-10.9768
▁giunto	-10.9769
33"	-10.9773
▁stavano	-10.9774
▁nilo	-10.9778
esclusione	-10.9779
▁psico	-10.9781
▁incendi	-10.9782
▁promuovere	-10.9784
▁efficiente	-10.9785
▁collezione	-10.979
▁neutro	-10.9799
▁indice	-10.9803
house	-10.981
▁istat	-10.9812
▁equipaggi	-10.982
▁organo	-10.9825
olio	-10.9826
▁coinvolto	-10.9827
▁contemporanei	-10.9827
▁sessuale	-10.9827
▁morfologia	-10.9828
▁radicale	-10.9828
▁scoperti	-10.9828
▁teatri	-10.9828
hip	-10.9828
▁pantani	-10.9828
▁intenso	-10.9828
▁friuli	-10.9829
appello	-10.9829
aragona	-10.983
second	-10.9831
▁vieta	-10.9831
▁polimeri	-10.9832
volta	-10.9835
attentato	-10.9837
▁show	-10.9837
▁affidato	-10.9838
rettamente	-10.9839
▁jazz	-10.9846
▁condannato	-10.9846
▁greche	-10.9847
▁attesa	-10.9851
▁cominciarono	-10.9856
▁interessante	-10.9858
▁88	-10.9858
▁fauna	-10.9858
▁pavia	-10.9858
▁spinta	-10.986
▁testamento	-10.986
▁rilevanti	-10.9861
▁bella	-10.9863
▁fotoni	-10.9863
asburgo	-10.9868
▁molt	-10.9872
▁collegato	-10.9872
fico	-10.9879
▁precede	-10.9881
32"	-10.9886
▁propaga	-10.9891
▁comprensione	-10.9903
▁cristiano	-10.9903
▁gradualmente	-10.9903
▁intellettuale	-10.9903
▁corazzate	-10.9903
▁annuale	-10.9903
▁imperatori	-10.9903
▁concepit	-10.9904
▁branca	-10.9905
▁1901	-10.9905
▁identificare	-10.9909
▁insegnamenti	-10.9912
▁estese	-10.9914
bandiere	-10.9916
▁ordinari	-10.9928
▁instabili	-10.9936
personal	-10.9939
ugu	-10.994
▁park	-10.9952
▁sviluppati	-10.9954
▁corse	-10.9959
metrica	-10.996
polo	-10.9963
13"	-10.9964
▁annunciato	-10.9973
appennino	-10.9978
▁abbondante	-10.9978
▁genovese	-10.9978
▁irregolari	-10.9978
▁pallacanestro	-10.9978
▁parallelo	-10.9978
▁malattie	-10.9978
▁university	-10.9978
▁autonomo	-10.9979
▁radiazioni	-10.998
▁approssimativa	-10.998
▁arabo	-10.9981
▁distacca	-10.9981
entroterra	-10.9983
▁dipinti	-10.9986
▁apparentemente	-10.999
▁miglioramento	-10.9991
▁vertici	-10.9991
identità	-10.9993
▁collo	-10.9997
▁tener	-11.0005
▁avvis	-11.0013
atomi	-11.0014
▁rivolte	-11.0017
fbi	-11.0022
▁commi	-11.0023
▁fossa	-11.0029
▁abbandonare	-11.0033
▁proprietario	-11.0034
▁comportamenti	-11.004
▁condurre	-11.0054
dimensionale	-11.0055
elecomunicazioni	-11.0055
▁amministrativo	-11.0055
▁gerusalemme	-11.0055
▁consentono	-11.0055
umidità	-11.0055
▁rallenta	-11.0055
▁parziale	-11.0055
▁modulo	-11.0055
▁foreste	-11.0057
▁osservati	-11.0059
▁restauro	-11.0059
▁vantaggi	-11.006
▁valida	-11.0063
emivita	-11.007
▁polari	-11.0073
▁corretto	-11.0074
animazione	-11.0078
▁parchi	-11.008
▁classiche	-11.0087
vengono	-11.0089
▁tela	-11.009
▁collegio	-11.0091
▁ampie	-11.0091
▁tant	-11.0093
▁affermato	-11.0096
eredità	-11.0107
▁ossidazione	-11.0108
64"	-11.0114
▁dedicati	-11.0118
atletica	-11.0123
▁stretta	-11.0124
▁sviluppatori	-11.0128
▁contribuito	-11.0132
▁esperienze	-11.0132
▁raccolte	-11.0132
▁riuscendo	-11.0132
▁tolkien	-11.0132
obbligo	-11.0132
▁cronometro	-11.0132
▁guccini	-11.0132
▁sfocia	-11.0132
avventura	-11.0132
▁misteri	-11.0133
▁dimissioni	-11.0133
▁1905	-11.0134
▁tutt	-11.0134
▁baseball	-11.0135
▁difese	-11.0137
▁vicinanze	-11.0139
▁velocemente	-11.0141
▁pressioni	-11.0142
▁rose	-11.0144
▁confermato	-11.0151
▁salto	-11.0162
_14	-11.0165
▁gaio	-11.0166
▁coinvolge	-11.0168
▁altera	-11.017
▁costrui	-11.017
97"	-11.0176
▁marchio	-11.0177
▁socialisti	-11.0178
▁prendendo	-11.019
▁considerava	-11.0193
▁staff	-11.0194
▁sacra	-11.0204
new	-11.0207
42"	-11.0209
artiglieria	-11.0209
▁definì	-11.0209
▁incrementa	-11.0209
▁raccolti	-11.0209
▁teatrali	-11.0209
▁washington	-11.0209
▁rivelò	-11.0209
ingegnere	-11.0209
▁veicoli	-11.0209
▁scelte	-11.0209
▁cancro	-11.0209
▁consacr	-11.0211
▁liceo	-11.0212
gone	-11.0213
▁biella	-11.0214
▁chiuse	-11.0215
▁status	-11.0217
▁puglia	-11.022
▁nuoro	-11.0224
▁rinomat	-11.0225
▁borghesia	-11.0226
archivio	-11.0227
▁ellen	-11.0228
▁seppe	-11.0234
fatto	-11.0237
▁capire	-11.0252
dividono	-11.0264
apice	-11.0266
▁appars	-11.0269
▁finanziario	-11.0269
parte	-11.0275
▁conservati	-11.0285
▁chiunque	-11.0287
▁cristallo	-11.0287
▁incoraggia	-11.0287
▁sceneggiatura	-11.0287
▁sforzo	-11.0287
▁replica	-11.0287
▁risonanza	-11.0287
▁copertura	-11.0287
▁prototipo	-11.0287
▁crimini	-11.0287
▁annulla	-11.0288
▁complesse	-11.0288
▁mercati	-11.0288
▁banchi	-11.0288
▁pierre	-11.0289
▁parametro	-11.029
▁provocò	-11.029
▁confess	-11.029
▁undici	-11.0294
▁aeree	-11.0295
▁rou	-11.0295
▁estremi	-11.0296
▁accettare	-11.0297
▁frequentemente	-11.0297
▁punk	-11.0298
▁ripartizione	-11.0299
▁circondario	-11.03
episodio	-11.0307
▁costituite	-11.0311
▁dipendente	-11.0314
▁esclude	-11.0315
▁jim	-11.0319
▁turistica	-11.0323
angola	-11.0327
▁interessato	-11.0337
versione	-11.0341
ghetti	-11.0343
48"	-11.0344
▁nativi	-11.0351
▁contava	-11.036
▁suddivisi	-11.036
▁circuito	-11.0366
▁combattimenti	-11.0366
▁larghezza	-11.0366
▁mantenuto	-11.0366
▁piattaforma	-11.0366
▁richiesto	-11.0366
▁simboleggia	-11.0366
▁depressione	-11.0366
▁riconobbe	-11.0366
▁bilancia	-11.0366
▁polacchi	-11.0366
▁arricchi	-11.0366
▁campanile	-11.0366
▁elevati	-11.0366
▁dilettanti	-11.0367
fone	-11.0367
success	-11.0368
▁dipinto	-11.037
▁ricade	-11.037
well	-11.037
▁abiti	-11.0379
▁basic	-11.0381
▁capri	-11.0382
▁abitazioni	-11.0386
insediamento	-11.0386
▁verbo	-11.0388
▁compone	-11.0389
▁digitali	-11.039
=12	-11.0394
enberg	-11.0396
▁ugo	-11.0408
▁villaggi	-11.041
▁fiat	-11.0415
▁consistente	-11.0415
▁picco	-11.0418
nanzi	-11.0421
▁rivale	-11.0432
▁aggiungere	-11.0433
58"	-11.0436
▁tifo	-11.0441
▁montana	-11.0443
▁diminuzione	-11.0445
▁giurisdizione	-11.0445
▁positivi	-11.0445
▁raffredda	-11.0445
▁compiuto	-11.0445
▁ripiega	-11.0446
▁nemmeno	-11.0446
▁parodia	-11.0446
▁street	-11.0446
▁preciso	-11.0446
▁divenendo	-11.0446
▁lontana	-11.0446
▁cresciut	-11.0446
▁blocchi	-11.0447
▁continuità	-11.0448
▁osservabili	-11.0449
ostilità	-11.045
▁naviglio	-11.045
▁brune	-11.045
▁1911	-11.045
▁libere	-11.0454
rald	-11.0459
▁somme	-11.0461
91"	-11.0463
▁tornato	-11.0468
metalli	-11.0468
wh	-11.047
▁regni	-11.0471
▁carbon	-11.0471
▁scegliere	-11.0472
▁parteciparono	-11.0474
pì	-11.0477
▁radioattivi	-11.0479
▁netta	-11.0488
▁caus	-11.0488
primo	-11.0489
▁difendere	-11.0494
▁atomica	-11.0498
▁associati	-11.05
sub	-11.0503
editor	-11.0506
▁sper	-11.0513
ducono	-11.0522
passa	-11.0524
cronologi	-11.0524
▁fronti	-11.0525
▁basket	-11.0525
▁agricole	-11.0525
▁panorama	-11.0525
▁zelanda	-11.0525
▁proietta	-11.0525
▁altresì	-11.0526
▁pompe	-11.0526
▁scudo	-11.0526
▁circostanti	-11.0526
▁trascura	-11.0526
▁scheda	-11.0527
▁maschera	-11.0528
▁rendono	-11.0529
▁audio	-11.0534
della	-11.0535
▁down	-11.0537
▁roger	-11.0537
▁eccita	-11.0546
▁scarica	-11.0549
▁certe	-11.0553
▁devia	-11.0557
ding	-11.0558
88"	-11.0561
▁scalo	-11.0562
unitari	-11.0563
metaboli	-11.0563
▁costantemente	-11.0567
▁catalogo	-11.0583
prendono	-11.0587
▁inviare	-11.0593
62"	-11.0595
▁ambientali	-11.0606
▁compositore	-11.0606
▁groenlandia	-11.0606
▁liechtenstein	-11.0606
▁mantenimento	-11.0606
▁ospedali	-11.0606
▁olandese	-11.0606
▁siracusa	-11.0606
▁ristretta	-11.0606
▁inserita	-11.0606
▁aprì	-11.0606
emblema	-11.0606
▁sottile	-11.0607
▁instaura	-11.0607
▁facilità	-11.0609
▁progressivo	-11.0615
▁astronomica	-11.0616
▁1910	-11.0616
▁separate	-11.0617
cello	-11.0617
carica	-11.0618
▁gesto	-11.062
▁kg	-11.062
▁1870	-11.0639
▁grandezze	-11.064
attivo	-11.0644
▁parità	-11.0645
▁operatori	-11.065
▁granduca	-11.0654
▁comprendente	-11.0659
esiste	-11.0663
▁marcel	-11.0666
▁massiccia	-11.0672
▁sw	-11.0677
▁ambientale	-11.0687
▁firewall	-11.0687
▁cattolico	-11.0687
▁deputati	-11.0687
▁ottenuta	-11.0687
▁toscano	-11.0688
▁miscela	-11.0688
immediato	-11.0688
▁wright	-11.0688
▁emerse	-11.0689
-15	-11.069
soviet	-11.0691
▁personalmente	-11.0691
▁caratteristico	-11.0692
▁apparteneva	-11.0696
▁bohr	-11.0703
▁comparsa	-11.0712
dura	-11.0712
▁granducato	-11.0728
▁trasformazioni	-11.0728
▁lucio	-11.0736
▁citata	-11.074
aviazione	-11.0742
▁vegeta	-11.0742
▁calda	-11.0745
▁registrazione	-11.0745
▁ponendo	-11.0746
▁tab	-11.0748
corrono	-11.0758
▁caratterizzate	-11.0759
▁hepburn	-11.0769
▁linguistiche	-11.0769
▁riconquista	-11.0769
▁sostenitori	-11.0769
▁wilhelm	-11.0769
▁criminali	-11.0769
▁giardino	-11.0769
▁maxwell	-11.0769
▁tirreno	-11.0769
▁binocolo	-11.0769
▁contrari	-11.077
▁convenzioni	-11.077
▁statue	-11.077
▁comprendono	-11.0771
▁mattina	-11.0772
▁speranza	-11.0776
▁tetto	-11.0777
▁rotta	-11.078
iscrizione	-11.078
▁fascio	-11.0786
▁pienamente	-11.0786
▁proporzionale	-11.0789
andamento	-11.0791
strada	-11.0791
▁numerica	-11.0796
▁aiutare	-11.0798
cinque	-11.0798
▁senatori	-11.0801
▁gianni	-11.0818
▁pauli	-11.0823
▁1850	-11.0823
post	-11.0824
▁uscire	-11.0825
▁dedicate	-11.0826
certa	-11.0832
▁straordinari	-11.0835
▁indiano	-11.0842
▁parecchi	-11.0847
improvvisa	-11.0852
▁appaiono	-11.0852
▁riconosciuti	-11.0852
▁tolomeo	-11.0852
intelligenza	-11.0852
▁medesima	-11.0852
▁mostrò	-11.0852
▁wilson	-11.0852
▁dollaro	-11.0852
▁discreta	-11.0852
▁famose	-11.0852
▁padana	-11.0852
▁incluse	-11.0852
▁consumo	-11.0853
▁pallavolo	-11.0853
▁distrutto	-11.0853
▁destino	-11.0855
▁analogamente	-11.0856
▁zeus	-11.0862
installazione	-11.0865
▁valentino	-11.0872
adattamento	-11.0872
impiego	-11.088
santa	-11.0882
▁piede	-11.0882
▁gestito	-11.089
▁laboratori	-11.0891
▁valor	-11.0892
▁tull	-11.0897
▁fermo	-11.0897
▁valutazione	-11.09
destra	-11.0913
uk	-11.0919
▁act	-11.0922
▁frequenze	-11.0935
▁globulari	-11.0935
▁olimpica	-11.0935
▁sosteneva	-11.0935
▁revisione	-11.0935
▁protette	-11.0936
▁dolci	-11.0936
▁affreschi	-11.0936
▁bartali	-11.0936
▁stimola	-11.0936
british	-11.0936
▁alternative	-11.0938
▁nuota	-11.0938
▁crescere	-11.0938
▁tematiche	-11.094
▁nar	-11.094
▁campania	-11.094
▁tenendo	-11.0941
▁tasse	-11.0941
▁presenze	-11.0946
▁definitivo	-11.0947
▁sara	-11.0948
ngen	-11.0954
pubblica	-11.0955
▁barb	-11.0957
▁create	-11.0961
▁spam	-11.0961
▁passione	-11.0965
▁morali	-11.0965
▁variabilità	-11.0969
▁music	-11.0975
assegnazione	-11.0976
▁impose	-11.0984
incendio	-11.0988
enziale	-11.0994
▁riuscir	-11.0998
interpret	-11.101
▁rivoluzionario	-11.1012
▁avvenimenti	-11.1019
▁caligola	-11.1019
▁columbia	-11.1019
▁conquistò	-11.1019
▁foundation	-11.1019
▁houston	-11.1019
▁linguistico	-11.1019
▁pacchetti	-11.1019
▁aleatoria	-11.1019
▁professione	-11.1019
▁ottenuti	-11.1019
▁ognuna	-11.1019
▁adottò	-11.102
▁scherma	-11.102
▁monaci	-11.102
▁enzimi	-11.102
▁commenta	-11.1021
secuzione	-11.1022
▁tavolo	-11.1023
▁compatibili	-11.1024
▁giaciment	-11.1025
apple	-11.1031
▁riparti	-11.1037
▁cosenza	-11.104
▁consentire	-11.1042
▁pezzo	-11.1045
▁sostituire	-11.1058
▁bagna	-11.107
clau	-11.108
▁accompagnato	-11.1092
▁caval	-11.1095
▁sensi	-11.1101
▁coscienza	-11.1104
▁municipio	-11.1104
▁scienziato	-11.1104
▁protocolli	-11.1104
▁prefetto	-11.1104
▁reddito	-11.1104
▁battuta	-11.1104
▁moduli	-11.1104
▁concerne	-11.1105
▁regolamenta	-11.1105
estinzione	-11.1109
complessivamente	-11.1109
▁colonnello	-11.111
-17	-11.1112
▁assassina	-11.1113
▁specialità	-11.1119
▁prezzi	-11.1135
pend	-11.1144
▁bocca	-11.1147
▁videro	-11.1159
▁inclin	-11.1166
ough	-11.117
mission	-11.1175
india	-11.1175
▁cavo	-11.1179
acquisto	-11.1185
▁mappa	-11.1185
▁responsabili	-11.1186
▁totali	-11.1187
▁ingloba	-11.119
▁rugby	-11.119
▁rimpiazz	-11.119
▁cambiò	-11.119
▁culmina	-11.119
▁culture	-11.119
▁fontana	-11.119
▁memorie	-11.119
▁coniuga	-11.119
▁vertice	-11.119
▁riposo	-11.119
▁henri	-11.1191
▁significativi	-11.1191
án	-11.1191
▁colloqui	-11.1192
▁favorevoli	-11.1192
▁concessione	-11.1194
▁clero	-11.1197
▁rango	-11.1201
▁ionizza	-11.1206
▁dirigenti	-11.1208
▁apparire	-11.1216
▁1849	-11.1221
▁citati	-11.1221
▁sviluppate	-11.1224
▁superfici	-11.1231
▁fiera	-11.1236
soft	-11.1241
▁elettronico	-11.1247
duttore	-11.1271
▁sensibili	-11.1275
▁trasferito	-11.1276
▁corrispondono	-11.1276
▁longobardi	-11.1276
▁possedimenti	-11.1276
dungeon	-11.1276
▁crittografia	-11.1276
▁distinguono	-11.1276
▁nasconde	-11.1276
▁censura	-11.1276
▁kepler	-11.1276
▁traguardo	-11.1276
▁supernove	-11.1276
▁vocale	-11.1276
▁rimasti	-11.1276
▁alfabeti	-11.1276
▁evidenti	-11.1276
▁condensa	-11.1277
▁distrutta	-11.1277
▁plurale	-11.1278
inflazione	-11.1278
▁grafico	-11.1278
▁router	-11.1278
▁balcani	-11.1279
▁compiti	-11.1286
▁alleate	-11.1289
▁frutti	-11.1291
▁subisce	-11.1298
campi	-11.1302
▁contatti	-11.1313
specie	-11.1313
▁artistiche	-11.1316
veneto	-11.1317
▁arbitra	-11.1318
▁generazioni	-11.1321
▁uccisi	-11.1322
word	-11.1323
grandi	-11.1337
▁sfruttando	-11.1339
▁penale	-11.1351
▁600	-11.1359
▁amminoacidi	-11.1363
arcivescovo	-11.1363
▁bilancio	-11.1363
▁bizantino	-11.1363
▁familiare	-11.1363
▁goebbels	-11.1363
▁incursioni	-11.1363
▁napoletano	-11.1363
▁pallanuoto	-11.1363
▁potassio	-11.1363
▁sviluppi	-11.1363
▁chitarre	-11.1363
▁ridotte	-11.1363
▁ottomano	-11.1363
▁miniere	-11.1363
▁descrisse	-11.1363
▁petrolio	-11.1364
▁adolf	-11.1367
▁sanguin	-11.1367
▁1916	-11.1367
▁prosper	-11.1372
▁esordi	-11.1373
▁salvatore	-11.1373
▁tavole	-11.1375
▁ettari	-11.1377
▁polare	-11.1378
zy	-11.1381
77"	-11.1383
aereo	-11.1383
▁atteso	-11.1387
▁mobilità	-11.1391
63"	-11.1392
▁1896	-11.1396
▁peda	-11.1402
▁richiam	-11.1403
▁corsica	-11.1406
morfi	-11.1407
▁rimanendo	-11.1408
▁autonomi	-11.1413
indice	-11.1417
▁cattedra	-11.1419
▁ritirata	-11.1427
▁destro	-11.143
▁illumina	-11.1436
▁artificiali	-11.145
▁bressanone	-11.145
▁immigrati	-11.145
▁incontrò	-11.145
▁lufthansa	-11.145
▁settentrionali	-11.145
opportunità	-11.145
▁accredita	-11.145
▁denuncia	-11.145
▁jacques	-11.145
▁riconoscimenti	-11.145
▁partì	-11.1451
▁ruggero	-11.1451
▁performance	-11.1451
▁sloveni	-11.1451
▁regolarmente	-11.1451
▁reggimento	-11.1451
armistizio	-11.1451
▁simpson	-11.1451
▁emacs	-11.1451
▁invisibile	-11.1451
▁vaticano	-11.1451
ntiene	-11.1451
▁institute	-11.1451
▁vittima	-11.1451
▁cardinali	-11.1451
▁competenze	-11.1452
▁calcare	-11.1453
▁bellezza	-11.1455
▁andré	-11.1455
▁braccia	-11.1456
▁calcolato	-11.1458
▁apostoli	-11.1459
▁spettatori	-11.146
▁tipologia	-11.1463
agiscono	-11.1463
▁ideato	-11.1463
▁circolo	-11.1466
▁modella	-11.1468
abate	-11.1472
▁1871	-11.1474
▁diversamente	-11.1475
▁circondata	-11.1481
▁proteggere	-11.149
▁americane	-11.1495
▁dimentica	-11.1497
▁mega	-11.1503
general	-11.1503
▁oppose	-11.1505
▁carbone	-11.1507
▁affermando	-11.1515
▁ingegneri	-11.1527
boot	-11.1529
accrescimento	-11.1539
▁pellicole	-11.1539
▁svizzeri	-11.1539
▁galileo	-11.1539
▁trionfo	-11.1539
▁ragazza	-11.1539
▁cabalisti	-11.1539
▁taranto	-11.1539
compositori	-11.1539
▁archeologico	-11.1539
▁costumi	-11.1539
▁ubicat	-11.154
acquisizione	-11.154
▁banco	-11.154
▁league	-11.154
▁analogo	-11.154
▁produsse	-11.1541
▁tornei	-11.1541
▁dovuti	-11.1541
▁cost	-11.1541
▁tasti	-11.1544
▁incrocia	-11.1544
▁calcoli	-11.1544
▁160	-11.1546
▁compagni	-11.1549
▁eredi	-11.1577
enorme	-11.158
▁arrivarono	-11.1583
▁effettuata	-11.1583
▁compie	-11.1585
▁tradotto	-11.1586
▁120	-11.1592
croci	-11.1609
▁introdotte	-11.1628
▁legislativo	-11.1628
▁monumentale	-11.1628
▁roosevelt	-11.1628
▁supergiganti	-11.1628
▁dintorni	-11.1628
▁sorpresa	-11.1628
▁terroristi	-11.1628
▁tipologie	-11.1628
▁medievali	-11.1628
▁rottura	-11.1628
▁teorico	-11.1628
▁specchio	-11.1628
▁doors	-11.1628
▁opposta	-11.1628
▁memorizza	-11.1629
▁sintassi	-11.1629
▁situati	-11.1629
▁tollera	-11.1629
key	-11.1629
▁attrezz	-11.163
▁ambiti	-11.1631
▁sicuro	-11.1631
heim	-11.1631
▁discesa	-11.1632
▁osservabile	-11.1641
▁sardi	-11.1645
▁funge	-11.1646
▁crollo	-11.1647
uff	-11.1648
▁rivelato	-11.1656
▁medica	-11.1666
▁spiegazione	-11.1671
emilia	-11.1671
[[	-11.1671
▁elettronici	-11.1678
head	-11.1681
venuti	-11.1695
economic	-11.1715
▁organici	-11.1717
▁kb	-11.1718
infrarosso	-11.1718
▁anniversario	-11.1718
▁depositi	-11.1718
▁sconfisse	-11.1718
▁borghese	-11.1718
▁progresso	-11.1718
▁striscia	-11.1718
▁energie	-11.1718
▁parentesi	-11.1718
▁rilievi	-11.1718
▁destinati	-11.1718
▁distribuita	-11.1718
▁cinetica	-11.1719
▁olbia	-11.1719
▁previsti	-11.1719
▁schiavi	-11.1719
▁radicali	-11.1719
▁padri	-11.172
▁biologico	-11.1725
▁pacifica	-11.1725
corpus	-11.1727
distingu	-11.1733
▁costitui	-11.1738
▁nastro	-11.1741
▁inaugurata	-11.1741
▁interessanti	-11.1749
▁distribu	-11.175
▁stor	-11.1755
bandiera	-11.1762
▁crema	-11.1767
▁vara	-11.1768
▁minor	-11.1769
300	-11.177
elevata	-11.1772
▁organizzate	-11.1777
_16	-11.1786
▁progressiva	-11.18
▁patti	-11.1802
▁pian	-11.1803
invio	-11.1806
▁vettori	-11.1806
▁prigioni	-11.1808
▁cinta	-11.1808
▁strategico	-11.1809
immigrazione	-11.1809
▁nobiltà	-11.1809
▁riconosciute	-11.1809
▁televisivo	-11.1809
▁svariati	-11.1809
▁rivolge	-11.1809
▁gagarin	-11.1809
▁ripreso	-11.1809
▁finanziat	-11.181
▁monitor	-11.181
▁fortificazioni	-11.181
▁raggiunta	-11.1812
▁1906	-11.1813
▁walter	-11.1814
▁conteneva	-11.1814
▁gambe	-11.1816
▁west	-11.1819
slov	-11.182
inizi	-11.1826
▁chip	-11.1829
▁belga	-11.183
▁neuro	-11.1831
▁disegnato	-11.1834
▁costruite	-11.1841
▁turchia	-11.1843
seguì	-11.1849
abete	-11.186
▁stime	-11.1865
ossola	-11.1876
orizzonte	-11.1901
▁giardini	-11.1901
▁keynes	-11.1901
▁latitudini	-11.1901
▁napoleonica	-11.1901
▁pacchetto	-11.1901
▁ritenuta	-11.1901
▁vissuto	-11.1901
▁giornate	-11.1901
▁sequenze	-11.1901
▁registri	-11.1901
▁terremoto	-11.1901
▁nettuno	-11.1901
▁mazzini	-11.1901
▁villon	-11.1902
arsenico	-11.1902
▁dentro	-11.1902
▁avvenire	-11.1903
▁1912	-11.1906
▁chiusi	-11.1906
▁sensibilità	-11.1906
▁sudafrica	-11.1914
▁interpretazioni	-11.1931
imponente	-11.194
▁praga	-11.194
▁ghiacci	-11.1946
▁anticamente	-11.1961
▁celle	-11.1968
▁terni	-11.1973
text	-11.198
▁protone	-11.1984
▁legislazione	-11.1994
▁procedure	-11.1994
▁ripristina	-11.1994
▁riuscito	-11.1994
▁scioglimento	-11.1994
▁televisive	-11.1994
▁schiaccia	-11.1994
▁amedeo	-11.1994
▁viterbo	-11.1994
▁malware	-11.1994
▁giudici	-11.1994
▁cascina	-11.1994
▁iscritti	-11.1994
▁sergio	-11.1994
▁attribuita	-11.1994
appropri	-11.1994
▁elettorale	-11.1996
▁candidatura	-11.1999
▁novità	-11.1999
apporto	-11.2
servi	-11.2006
▁tronto	-11.2007
▁straordinaria	-11.2013
osservatorio	-11.2017
▁sovrasta	-11.2022
▁altrettanto	-11.2023
▁crebbe	-11.2026
▁impegnati	-11.2039
▁statistico	-11.2052
▁aggiungendo	-11.2055
▁particolar	-11.2071
▁patrizi	-11.2083
▁elettriche	-11.2087
▁leibniz	-11.2087
▁recupero	-11.2087
▁richiedono	-11.2087
▁eserciti	-11.2087
▁pinochet	-11.2087
▁ritengono	-11.2087
▁invasioni	-11.2087
▁feudale	-11.2087
eccellenza	-11.2087
▁investimenti	-11.2087
▁apporta	-11.2087
▁salerno	-11.2087
apparizione	-11.2088
▁platino	-11.2088
▁consentito	-11.2088
▁recò	-11.2089
▁peculiarità	-11.2089
▁77	-11.2091
▁ascolta	-11.2091
▁esposto	-11.2092
▁esplicitamente	-11.2092
egò	-11.2094
▁nettamente	-11.2097
▁ratifica	-11.2106
▁provvisorio	-11.2109
▁dirigente	-11.211
▁settima	-11.2124
▁1866	-11.2127
reichs	-11.2128
▁raggiungendo	-11.2144
▁lettori	-11.2146
_13	-11.2162
...)	-11.2168
▁candidato	-11.2172
▁individuali	-11.2175
aritmetica	-11.2181
▁andromeda	-11.2181
▁fabbriche	-11.2181
▁norvegese	-11.2181
▁suddivide	-11.2181
▁edward	-11.2181
▁riempi	-11.2182
▁suprema	-11.2182
▁ricorso	-11.2182
▁drappo	-11.2182
▁convinse	-11.2182
▁terminò	-11.2182
▁cassino	-11.2182
▁laterali	-11.2183
▁caduti	-11.2184
▁hd	-11.2185
▁totalità	-11.2186
▁black	-11.2186
▁appia	-11.2188
▁futuri	-11.2189
edero	-11.2189
▁costituì	-11.219
▁insetti	-11.2197
viol	-11.2201
_17	-11.2202
▁giovan	-11.2203
▁invase	-11.2204
▁operativa	-11.2207
▁piatto	-11.2213
aveva	-11.2217
▁israele	-11.2218
▁difende	-11.222
▁tubo	-11.2233
gruppo	-11.2234
▁razza	-11.2238
▁determinazione	-11.2244
▁fondatori	-11.2253
diagnostic	-11.2261
▁bombarda	-11.2267
▁berillio	-11.2277
▁dispositivo	-11.2277
▁orizzontale	-11.2277
▁python	-11.2277
insurrezione	-11.2277
adeguata	-11.2277
▁concorrenza	-11.2277
▁destinazione	-11.2277
▁supremo	-11.2277
▁proteste	-11.2277
▁segreti	-11.2277
▁preserva	-11.2278
▁qualora	-11.2278
▁sbarco	-11.2278
▁patriarca	-11.2278
▁chiavi	-11.2278
▁geografiche	-11.2279
▁tastiera	-11.2279
▁mentale	-11.2279
▁ribellione	-11.228
▁bbc	-11.228
▁disposti	-11.228
▁araba	-11.228
costretti	-11.2281
▁debito	-11.2282
▁1909	-11.2283
▁feriti	-11.2286
▁messier	-11.2287
▁andando	-11.2292
▁falsi	-11.2293
▁liguria	-11.2301
▁divulga	-11.231
▁matteo	-11.2316
▁veramente	-11.2317
ampiezza	-11.2332
1/2	-11.2333
▁cancell	-11.2334
comun	-11.2335
▁accorda	-11.2345
▁spirit	-11.2362
▁buddhismo	-11.2373
▁coinvolti	-11.2373
▁rinascita	-11.2373
▁costume	-11.2373
elettromagnetico	-11.2373
▁ammonta	-11.2373
▁sinistro	-11.2373
▁bosoni	-11.2375
presidenti	-11.2375
▁stereo	-11.2375
▁venere	-11.2375
▁panzer	-11.2376
▁colleghi	-11.2376
▁ascii	-11.2376
olfo	-11.238
▁collaboratori	-11.2385
▁700	-11.239
▁inteso	-11.2394
▁ritrov	-11.2397
▁spunt	-11.2399
▁patrono	-11.2405
=53	-11.2406
▁1815	-11.2409
▁lupo	-11.2426
▁mangia	-11.2432
=50	-11.2434
▁eroi	-11.2436
▁gab	-11.2446
▁espressi	-11.2464
▁approfitta	-11.247
▁circostanze	-11.247
▁eiffel	-11.247
▁finlandese	-11.247
▁procedimento	-11.247
▁bonaparte	-11.247
▁restaurazione	-11.247
inquinamento	-11.247
▁vendite	-11.247
▁etruschi	-11.247
▁compagna	-11.247
▁public	-11.247
▁sepolto	-11.247
▁svolte	-11.247
arborea	-11.247
▁rimaste	-11.247
alluminio	-11.247
▁inclusa	-11.247
▁compensa	-11.2471
▁laplace	-11.2471
▁deneb	-11.2471
▁manipola	-11.2472
▁capelli	-11.2472
▁esposta	-11.2473
▁borghi	-11.2473
▁parallelamente	-11.2475
▁esponente	-11.2478
▁madri	-11.2478
ossia	-11.2479
aeronautica	-11.248
▁pubblicitari	-11.2482
▁grossi	-11.2482
▁converge	-11.2484
▁finì	-11.2485
bach	-11.2486
▁ionizzazione	-11.2489
▁vessillo	-11.2491
=48	-11.2493
▁attratt	-11.25
▁protestante	-11.2512
▁bellico	-11.2515
▁torrenti	-11.252
▁atomici	-11.2521
tinen	-11.253
▁vicari	-11.2537
onald	-11.2549
child	-11.2561
processo	-11.2561
eclittica	-11.2568
▁cefeidi	-11.2568
▁coefficienti	-11.2568
▁manhattan	-11.2568
▁meridiano	-11.2568
▁sostengono	-11.2568
▁barbarossa	-11.2568
▁membrana	-11.2568
▁bergamo	-11.2568
▁compagno	-11.2568
▁continenti	-11.2568
▁angeli	-11.2569
▁ferrari	-11.2569
▁soppressione	-11.2569
▁schemi	-11.257
▁wolf	-11.257
▁debba	-11.257
▁composizioni	-11.257
_15	-11.257
▁sensibile	-11.2572
attrazione	-11.2572
▁ceneri	-11.2572
▁percorsi	-11.2573
▁prevalenza	-11.2575
▁pascal	-11.2577
▁coniato	-11.2579
▁superiorità	-11.258
▁cavità	-11.258
▁sottoposto	-11.2582
▁scopre	-11.2584
ington	-11.2585
▁vegetali	-11.2587
▁dipendenza	-11.2588
▁violazione	-11.259
▁accenn	-11.2601
enzima	-11.2606
▁maschili	-11.2607
▁intendeva	-11.2611
▁judo	-11.2613
▁stabilimento	-11.2615
▁alloggi	-11.2621
division	-11.2635
ciclo	-11.2644
▁grosse	-11.2647
vecchia	-11.2654
▁continui	-11.2663
facente	-11.2664
▁municipali	-11.2667
▁cospicu	-11.2667
▁philip	-11.2667
▁agricolo	-11.2667
▁asimov	-11.2667
▁storiografia	-11.2667
▁validità	-11.2667
▁metabolismo	-11.2667
▁compenso	-11.2667
compaiono	-11.2667
▁riviera	-11.2667
▁rigido	-11.2667
▁flussi	-11.2667
▁modula	-11.2667
▁casuali	-11.2667
▁stretti	-11.2668
▁uova	-11.2668
quartier	-11.2669
▁vettoriale	-11.267
▁scatena	-11.2671
▁stim	-11.2674
abolizione	-11.2674
▁muore	-11.2676
▁protestanti	-11.268
▁bombe	-11.268
▁riferirsi	-11.2686
▁visitatori	-11.2686
▁combinazioni	-11.2688
approssimazione	-11.2689
▁allarga	-11.2691
falco	-11.2693
gnu	-11.2697
▁documentazione	-11.2708
▁heinr	-11.2712
▁qual	-11.2718
gruppi	-11.2729
argent	-11.2734
▁californio	-11.2767
▁caltagirone	-11.2767
▁combustibile	-11.2767
▁sostanziale	-11.2767
▁trionfa	-11.2767
▁chiamò	-11.2767
▁chopin	-11.2767
▁marittima	-11.2767
▁zurigo	-11.2767
▁network	-11.2767
▁science	-11.2767
▁girolamo	-11.2767
▁indietro	-11.2767
seguimento	-11.2767
▁contenuta	-11.2767
▁numerazione	-11.2767
▁sottostante	-11.2767
▁concorso	-11.2768
▁ripete	-11.2768
▁sfuma	-11.2768
▁legioni	-11.2769
▁maestri	-11.2769
▁1907	-11.277
▁computazion	-11.277
▁segrete	-11.2771
document	-11.2772
haus	-11.2774
▁grotte	-11.2785
=55	-11.2794
▁250	-11.2796
▁ragion	-11.2801
▁concentramento	-11.2802
server	-11.2805
▁commissari	-11.2823
hotel	-11.283
approccio	-11.2831
soprattutto	-11.2831
sistemi	-11.2832
estetica	-11.2837
trariamente	-11.2845
▁kubrick	-11.2868
▁margherita	-11.2868
▁soprannominat	-11.2868
▁considerevole	-11.2868
▁eseguita	-11.2868
▁pixel	-11.2868
▁suicidio	-11.2868
▁appositamente	-11.2868
▁baviera	-11.2868
▁saturno	-11.2868
▁rovigo	-11.2868
▁ristabili	-11.2868
▁tessile	-11.2868
▁negativi	-11.2868
▁scoppia	-11.2868
▁comics	-11.2869
▁organizzò	-11.287
▁chieti	-11.287
▁produttivi	-11.2871
light	-11.2871
▁transita	-11.2872
▁1913	-11.2872
▁ignora	-11.2875
▁declinazione	-11.2877
▁stampo	-11.2877
accento	-11.2879
▁correttamente	-11.2883
=52	-11.289
▁curve	-11.2892
=51	-11.2898
=54	-11.2906
▁includeva	-11.2906
▁service	-11.2907
▁city	-11.2909
▁nativo	-11.2915
insegna	-11.2928
autonomia	-11.2934
maggiore	-11.2936
ificata	-11.2948
▁troia	-11.2955
ensis	-11.2956
▁compete	-11.2967
▁appennini	-11.297
▁deposita	-11.297
▁erroneamente	-11.297
▁istituzionale	-11.297
▁magellano	-11.297
▁magnitudini	-11.297
▁manutenzione	-11.297
▁soccorso	-11.297
▁sostenendo	-11.297
▁sostituendo	-11.297
▁versailles	-11.297
▁periferia	-11.297
▁partner	-11.297
▁possedeva	-11.297
▁controversie	-11.297
▁prefisso	-11.297
▁annualmente	-11.297
▁collettiva	-11.297
▁verticale	-11.297
edilizia	-11.297
▁cratere	-11.297
▁discendenti	-11.297
▁emissioni	-11.2971
▁piloti	-11.2971
▁piceno	-11.2971
▁online	-11.2971
▁polacca	-11.2971
▁trieste	-11.2974
▁insiste	-11.2975
▁narrativa	-11.2976
▁christian	-11.2984
▁colu	-11.2991
=47	-11.2994
=49	-11.3
▁borsa	-11.3013
▁innalza	-11.3015
▁quarant	-11.3023
▁cup	-11.3028
▁credeva	-11.3034
nazionali	-11.3037
teoria	-11.3044
▁home	-11.3046
▁abbandonò	-11.3073
▁mitocondri	-11.3073
▁proseguire	-11.3073
▁trasmesso	-11.3073
▁bahá	-11.3073
▁spiaggia	-11.3073
▁barocco	-11.3073
▁dipendono	-11.3073
▁uscito	-11.3073
▁valido	-11.3074
▁vandali	-11.3074
▁fuggire	-11.3074
assassinio	-11.3075
ebraismo	-11.3075
▁commuta	-11.3076
▁unifica	-11.3077
▁ricordo	-11.3077
▁reticolo	-11.3078
▁adams	-11.308
▁lettonia	-11.3081
impossibilità	-11.3083
▁voluta	-11.3085
▁drago	-11.3086
▁ritirarsi	-11.3086
cilindr	-11.3087
▁assolutamente	-11.3095
=92	-11.3101
▁beat	-11.3115
▁'80	-11.312
orientamento	-11.3124
adige	-11.3135
galat	-11.3139
▁bill	-11.3159
esordio	-11.3172
▁ribelli	-11.3176
▁difensiva	-11.3177
▁eugenio	-11.3177
▁fosforo	-11.3177
▁juventus	-11.3177
▁napoletana	-11.3177
▁reciproca	-11.3177
▁svolgimento	-11.3177
▁dublino	-11.3177
▁giuridico	-11.3177
▁portogallo	-11.3177
▁posteriori	-11.3177
▁ugualmente	-11.3177
▁plutonio	-11.3177
▁slogan	-11.3177
▁catalizza	-11.3177
▁dorsale	-11.3177
▁previste	-11.3177
▁ostacola	-11.3177
immediata	-11.3177
▁convinzione	-11.3178
▁mescola	-11.3178
▁marocco	-11.3178
addestramento	-11.3178
▁allievi	-11.3178
▁druso	-11.3178
▁contrazione	-11.318
assalto	-11.3181
▁tenente	-11.3184
▁terranova	-11.3187
▁proviene	-11.319
▁socialismo	-11.319
▁vegetazione	-11.3193
▁spezza	-11.3196
▁piste	-11.3196
▁giusto	-11.32
▁paura	-11.3207
▁1889	-11.3217
▁ghiacciai	-11.3221
▁bruce	-11.3223
▁arb	-11.3228
operatore	-11.3233
▁strapp	-11.3254
▁certifica	-11.3277
duttori	-11.3278
contrapposizione	-11.3282
▁hitchcock	-11.3282
▁irregolare	-11.3282
▁plebiscito	-11.3282
▁distruggere	-11.3282
▁qualcuno	-11.3282
▁tommaso	-11.3283
▁callisto	-11.3283
▁violente	-11.3283
▁profonde	-11.3283
▁concluso	-11.3283
▁titolare	-11.3283
▁offrire	-11.3283
▁chiesto	-11.3283
▁sentimenti	-11.3283
▁uccise	-11.3283
▁adulti	-11.3283
▁distribuiti	-11.3283
▁avvengono	-11.3284
▁tenuti	-11.3287
▁sapeva	-11.329
book	-11.3298
▁php	-11.3298
▁cessione	-11.3299
tribuiscono	-11.3315
▁stagno	-11.332
▁wall	-11.3322
▁will	-11.3334
▁israel	-11.3347
costellazioni	-11.3358
▁regn	-11.3362
▁esib	-11.3375
▁riorganizza	-11.3376
▁precipita	-11.3381
già	-11.3388
aristocrazia	-11.3389
▁biblioteche	-11.3389
▁ludovico	-11.3389
▁luminoso	-11.3389
▁pianeggiante	-11.3389
▁quotidiana	-11.3389
▁sforza	-11.3389
▁risultò	-11.3389
▁repertorio	-11.3389
▁fedeltà	-11.3389
▁paziente	-11.3389
▁nominò	-11.3389
▁smtp	-11.3389
▁manovra	-11.3389
▁ritratti	-11.3389
▁inserire	-11.3389
▁coinvolgimento	-11.3389
▁automatico	-11.3389
▁apollo	-11.339
▁decreta	-11.3391
▁zecca	-11.3396
▁fattorizzazione	-11.3396
▁consegue	-11.3396
▁sacramento	-11.3397
▁decisivo	-11.3399
▁assedia	-11.3401
▁venera	-11.3402
▁sponda	-11.3409
▁spezz	-11.341
_18	-11.3413
▁centra	-11.3414
▁gusto	-11.3417
profit	-11.3419
▁verbi	-11.3426
▁mitologi	-11.3428
▁facili	-11.3431
▁green	-11.3436
▁cinquant	-11.3437
▁global	-11.3456
adriatico	-11.3466
informatica	-11.3466
ovvero	-11.3466
esplorazione	-11.3488
scientific	-11.3493
▁accentua	-11.3496
▁cambridge	-11.3496
▁commodore	-11.3496
▁ricostruire	-11.3496
▁sconfigge	-11.3496
▁suddivise	-11.3496
▁agricoli	-11.3496
▁evidenza	-11.3496
▁meccanico	-11.3496
▁cavalleria	-11.3496
▁borbone	-11.3496
▁servono	-11.3496
▁stesura	-11.3496
avvocato	-11.3496
▁tombe	-11.3497
▁svolti	-11.3497
▁isaac	-11.3497
costruì	-11.3497
▁interroga	-11.3497
omicidio	-11.3497
élite	-11.3497
▁geometrica	-11.3498
▁distrutti	-11.3498
▁curling	-11.3498
▁repressione	-11.3498
▁musiche	-11.3501
▁cupola	-11.3502
▁coordinamento	-11.351
▁50%	-11.3511
▁definizioni	-11.3511
▁estivo	-11.3516
=91	-11.3533
▁1895	-11.3539
eliminazione	-11.3557
wald	-11.3577
taxa	-11.3588
▁pseudo	-11.3605
foederati	-11.3605
▁alexander	-11.3605
▁aristotele	-11.3605
▁cinematografico	-11.3605
▁costituente	-11.3605
▁feudatari	-11.3605
▁introdotti	-11.3605
▁quattordici	-11.3605
▁spirituali	-11.3605
▁ceramica	-11.3605
▁planck	-11.3605
▁corazzati	-11.3605
▁costretta	-11.3605
▁ospite	-11.3605
▁frammenti	-11.3605
▁adriatica	-11.3605
▁freddi	-11.3605
▁divieto	-11.3606
▁ritenne	-11.3606
▁esamina	-11.3607
▁cosmici	-11.3607
▁schede	-11.3607
▁rivalità	-11.3607
▁disney	-11.3608
▁cieli	-11.3608
▁iodio	-11.3609
▁piazze	-11.361
feld	-11.3612
▁verranno	-11.3614
▁frutta	-11.362
▁turistiche	-11.362
▁ritrovamenti	-11.3623
▁merano	-11.3626
▁evolve	-11.3627
▁superman	-11.3627
offrì	-11.3628
▁letterarie	-11.363
inclinazione	-11.3632
▁patrimoni	-11.367
ificio	-11.3677
nuova	-11.3689
▁finalizzat	-11.37
▁equivale	-11.3702
immacolata	-11.3715
▁aggiudica	-11.3715
▁aggiungono	-11.3715
▁algebrica	-11.3715
▁cromosomi	-11.3715
▁cinematografici	-11.3715
▁femmine	-11.3715
▁serpente	-11.3715
▁tassonomia	-11.3715
▁sfuggi	-11.3715
▁discreto	-11.3715
▁partigiani	-11.3715
▁tensioni	-11.3715
▁registro	-11.3715
▁ungherese	-11.3715
▁galilei	-11.3715
▁permanenza	-11.3715
▁imposte	-11.3715
▁mineralogi	-11.3715
▁ciampi	-11.3715
▁tranvia	-11.3716
▁nazismo	-11.3716
▁sbarca	-11.3716
▁mezzogiorno	-11.3716
▁coppe	-11.3717
▁possedere	-11.3718
▁superficiali	-11.3719
special	-11.3722
▁spesa	-11.3723
▁fermioni	-11.3723
▁estivi	-11.3727
▁unitario	-11.3729
▁pesantemente	-11.3731
▁visual	-11.3734
▁cedere	-11.3734
▁fertili	-11.3739
▁redatto	-11.3741
oscar	-11.3749
▁1867	-11.3752
▁vincent	-11.3755
▁1890	-11.376
ontario	-11.3761
▁collegi	-11.3771
board	-11.3778
gold	-11.3788
accusa	-11.3799
▁franz	-11.3804
entrarono	-11.3824
abbigliamento	-11.3826
▁chaplin	-11.3826
▁grenoble	-11.3826
▁marketing	-11.3826
▁ottaviano	-11.3826
▁risparmia	-11.3826
▁teodorico	-11.3826
▁violenta	-11.3826
▁merckx	-11.3826
▁agenzie	-11.3826
▁license	-11.3826
▁liquida	-11.3826
▁brianza	-11.3826
▁corrado	-11.3826
▁edoardo	-11.3827
▁type	-11.3827
cinematografiche	-11.3827
▁meteoriti	-11.3827
▁ottima	-11.3828
▁civita	-11.3828
▁1904	-11.3829
▁vercelli	-11.3829
▁riflessione	-11.3829
▁subire	-11.383
batté	-11.383
▁benevento	-11.3833
▁bibbia	-11.3833
▁bacini	-11.3837
▁drastic	-11.3839
assassin	-11.384
▁convogli	-11.3863
▁incoron	-11.3896
▁cercava	-11.3896
avvicina	-11.391
ucraina	-11.3938
infrastruttura	-11.3938
wehrmacht	-11.3938
▁avventure	-11.3938
▁feldmaresciallo	-11.3938
▁visigoti	-11.3938
▁sacrifici	-11.3938
▁teorici	-11.3939
▁descritte	-11.3939
▁formule	-11.3939
▁clark	-11.3939
▁contenute	-11.3939
▁potrà	-11.3939
▁inseriti	-11.3939
▁formò	-11.3939
▁innovazioni	-11.3939
▁poveri	-11.3939
▁accerta	-11.3939
algebra	-11.3941
▁caratteristici	-11.3943
▁equivalenti	-11.3947
▁costiere	-11.3948
▁pioggia	-11.3949
▁stabilisce	-11.3958
▁particolarità	-11.3958
incidente	-11.3985
monetazione	-11.3991
utilità	-11.3997
▁riscoss	-11.4015
▁approssima	-11.4025
giorno	-11.4028
▁dubbi	-11.4038
action	-11.4042
▁costituenti	-11.4052
▁quotidiani	-11.4052
▁svedesi	-11.4052
▁trascorse	-11.4052
appellativo	-11.4052
▁hilbert	-11.4052
▁fotografie	-11.4052
▁ottengono	-11.4052
▁restrizioni	-11.4052
▁colombo	-11.4052
▁cedette	-11.4052
▁dyck	-11.4053
▁annessa	-11.4053
▁filtra	-11.4053
▁tredici	-11.4053
▁farmaci	-11.4053
▁mediterranea	-11.4053
▁musicista	-11.4053
▁quadrata	-11.4054
▁estensioni	-11.4054
▁trascina	-11.4055
▁sapore	-11.4055
_26	-11.4055
▁dittatura	-11.4056
▁persiste	-11.4056
▁flag	-11.4057
▁emesso	-11.4057
▁percezione	-11.4058
▁certezza	-11.4059
▁arezzo	-11.4061
▁vigili	-11.4061
▁champ	-11.4061
▁visibilità	-11.4065
▁rettili	-11.407
▁indaga	-11.407
▁'60	-11.4072
▁germaniche	-11.4074
▁'70	-11.4074
ampliamento	-11.4087
▁agire	-11.4088
ificare	-11.4091
▁ernest	-11.4101
venezia	-11.4145
linux	-11.4147
impatto	-11.4147
▁espone	-11.4152
disciplin	-11.4164
▁capaci	-11.4164
▁compromesso	-11.4167
▁essenziali	-11.4167
▁scultore	-11.4167
▁spettri	-11.4167
▁rovescia	-11.4167
▁sospetta	-11.4167
▁accolto	-11.4167
▁globo	-11.4167
▁ercole	-11.4167
▁finanze	-11.4167
▁imporre	-11.4167
▁conclusa	-11.4167
▁rigida	-11.4167
▁incidenti	-11.4168
▁rigidi	-11.4168
▁cerchio	-11.4168
▁credito	-11.4169
▁sopravvivenza	-11.4171
alimentazione	-11.4172
dicò	-11.4175
▁geologia	-11.4181
▁solitari	-11.4198
▁estiva	-11.4209
fantastic	-11.4246
equilibrio	-11.4264
ottava	-11.4265
▁riunir	-11.4267
aperto	-11.4268
equivalenza	-11.4278
▁ammette	-11.428
intelligence	-11.4283
▁berkeley	-11.4283
▁eventualmente	-11.4283
▁femmina	-11.4283
▁stalingrado	-11.4283
▁straniero	-11.4283
academy	-11.4283
▁frammenta	-11.4283
▁nikola	-11.4283
▁scomunica	-11.4283
▁titanio	-11.4283
▁ebraiche	-11.4283
▁affonda	-11.4284
▁differiscono	-11.4284
▁coefficiente	-11.4285
▁dragons	-11.4285
▁tramanda	-11.4285
▁1903	-11.4286
▁innesca	-11.429
▁adibit	-11.429
▁finalità	-11.429
▁suonare	-11.4293
avessero	-11.4293
▁nascono	-11.4303
▁martiri	-11.4307
espulsione	-11.4318
ontologi	-11.4324
▁aspira	-11.4325
▁dimora	-11.4326
abita	-11.4346
determina	-11.438
▁precisi	-11.4398
phys	-11.44
▁respiratori	-11.4401
ambientazione	-11.4401
▁bizantini	-11.4401
▁trasformò	-11.4401
▁autostrade	-11.4401
▁costrutto	-11.4401
▁gemelli	-11.4401
▁introdurre	-11.4401
▁residui	-11.4401
▁multipli	-11.4401
▁ritenendo	-11.4401
▁coerente	-11.4401
▁boeing	-11.4401
▁enuncia	-11.4401
▁concreti	-11.4401
▁civico	-11.4402
▁urbane	-11.4402
▁temporali	-11.4403
▁ciclisti	-11.4404
anatomia	-11.4404
▁distacco	-11.4404
▁suddivisioni	-11.4405
▁avvenut	-11.4405
▁tumul	-11.4406
arancio	-11.4407
▁association	-11.441
▁morire	-11.4413
▁elettrici	-11.4416
atleta	-11.4424
▁turchi	-11.4427
▁10%	-11.4437
=90	-11.4483
disambigua	-11.452
▁bernoulli	-11.452
▁discussioni	-11.452
▁limitrofi	-11.452
▁osservò	-11.452
grunge	-11.452
▁ferrarese	-11.452
▁sebastian	-11.452
▁school	-11.452
▁scandalo	-11.452
▁violenti	-11.452
▁architettonico	-11.452
▁promosso	-11.452
▁trecento	-11.452
▁ostacoli	-11.452
▁transizioni	-11.452
heavy	-11.452
▁budget	-11.4521
▁federali	-11.4521
▁verificò	-11.4521
▁pontificato	-11.4521
▁protetta	-11.4521
▁prestito	-11.4521
▁lanciò	-11.4521
▁contrasti	-11.4521
▁degenera	-11.4522
▁condotte	-11.4522
▁concessa	-11.4522
▁dotate	-11.4523
▁cognome	-11.4523
▁sorelle	-11.4524
▁signora	-11.4524
▁forniscono	-11.4524
▁anziani	-11.4524
▁accuse	-11.4525
▁redazione	-11.4528
▁normativa	-11.453
▁aperte	-11.453
▁'90	-11.4541
argon	-11.457
right	-11.4607
▁picchi	-11.4613
▁passaggi	-11.4613
▁riflessi	-11.4637
▁ristruttur	-11.4638
▁bartolomeo	-11.464
▁ecclesiastica	-11.464
▁religioni	-11.464
▁svetonio	-11.464
▁opinioni	-11.4641
▁weimar	-11.4641
▁glaciale	-11.4641
▁graduale	-11.4641
▁quattrocento	-11.4641
esigenza	-11.4641
▁resistere	-11.4641
▁litorale	-11.4641
▁congiunta	-11.4641
▁avvale	-11.4641
▁incaricato	-11.4641
inserimento	-11.4641
▁logico	-11.4642
▁dignità	-11.4642
▁professionali	-11.4642
▁obbligatoria	-11.4642
▁epoche	-11.4646
▁imbarcazioni	-11.4647
▁proseguì	-11.4648
castel	-11.4658
professori	-11.4668
▁apprend	-11.4701
▁decisa	-11.4755
▁luminosi	-11.4759
▁affresc	-11.4762
avanguardia	-11.4762
▁assunta	-11.4762
▁avogadro	-11.4762
▁centinaio	-11.4762
▁combustione	-11.4762
▁country	-11.4762
▁fantasy	-11.4762
▁lawrence	-11.4762
▁onorificenze	-11.4762
▁provvedimenti	-11.4762
▁ricordiamo	-11.4762
▁rifornimenti	-11.4762
▁seguaci	-11.4762
▁spiagge	-11.4762
▁televisivi	-11.4762
▁zeppelin	-11.4762
▁zucchero	-11.4762
▁campobasso	-11.4762
▁geografico	-11.4762
▁licenzia	-11.4762
▁marittimo	-11.4762
▁pogrom	-11.4762
▁dinamiche	-11.4762
▁gallura	-11.4762
▁danubio	-11.4762
▁oristano	-11.4763
▁fiorentino	-11.4763
▁anderson	-11.4763
▁gassoso	-11.4763
▁carnevale	-11.4763
▁sottoposti	-11.4763
▁acquisito	-11.4763
indomani	-11.4763
▁sbarra	-11.4763
▁barocca	-11.4763
▁attendere	-11.4763
▁coperto	-11.4763
▁sentimento	-11.4764
▁rurali	-11.4764
▁prigione	-11.4764
▁imposto	-11.4765
ristrutturazione	-11.4765
▁white	-11.4765
▁adriano	-11.4766
▁urbanistica	-11.4766
▁promosse	-11.4767
▁coraggio	-11.477
magnetic	-11.477
▁island	-11.4792
primer	-11.48
sanremo	-11.4846
originale	-11.4872
sinistra	-11.4873
diritto	-11.4874
▁sopravvive	-11.4881
▁costringendo	-11.4886
▁innocenzo	-11.4886
▁matematiche	-11.4886
▁napoleonico	-11.4886
▁raggiungimento	-11.4886
▁aumentò	-11.4886
▁provenienza	-11.4886
▁venduto	-11.4886
▁alamein	-11.4886
▁destinate	-11.4886
▁duecento	-11.4886
▁scelti	-11.4886
▁beatles	-11.4887
▁perfetto	-11.4887
▁hermann	-11.4887
▁angoli	-11.4887
▁specializzati	-11.4888
▁processa	-11.4893
▁sofisti	-11.4893
▁minime	-11.4894
▁ritener	-11.4896
▁brest	-11.49
▁potendo	-11.49
▁denota	-11.4907
▁20%	-11.4911
▁consoli	-11.4924
cicli	-11.4924
ics	-11.493
accord	-11.4933
autorizzazione	-11.4955
▁amministrato	-11.4958
▁golf	-11.4966
attacca	-11.4966
central	-11.4967
gestione	-11.4998
hardware	-11.4999
afghanistan	-11.5011
▁alfonso	-11.5011
▁boffalora	-11.5011
▁bombardieri	-11.5011
▁elisabetta	-11.5011
▁fluviale	-11.5011
▁gioventù	-11.5011
▁necropoli	-11.5011
▁notturno	-11.5011
▁occasionalmente	-11.5011
▁repubbliche	-11.5011
▁termodinamica	-11.5011
▁traiettoria	-11.5011
▁condiviso	-11.5011
▁reagisce	-11.5011
▁compatibile	-11.5011
▁mozilla	-11.5011
▁costrutti	-11.5011
▁scolastico	-11.5011
▁terraferma	-11.5011
▁attentati	-11.5011
▁congiunge	-11.5011
▁manuali	-11.5011
▁tributa	-11.5011
▁gassosi	-11.5011
▁perturba	-11.5011
▁tattica	-11.5011
output	-11.5012
▁utilizzò	-11.5012
▁ritmo	-11.5012
▁veneta	-11.5013
▁byte	-11.5014
impronta	-11.5014
▁mattino	-11.5015
▁intervenire	-11.5017
▁riscaldamento	-11.5017
▁plasma	-11.5017
▁margine	-11.5019
massoni	-11.5019
▁gestisce	-11.5021
▁ritmi	-11.5035
madonna	-11.5087
equipaggio	-11.5096
▁concentr	-11.5111
scrivere	-11.5117
▁diversifica	-11.5127
▁estensi	-11.5133
▁diverge	-11.5137
ambasciatore	-11.5137
▁gravitazionali	-11.5137
▁maresciallo	-11.5137
▁nervoso	-11.5137
▁pomeriggio	-11.5137
▁ribattezzat	-11.5137
▁soppressa	-11.5137
▁spectrum	-11.5137
▁amplifica	-11.5138
▁deputato	-11.5138
▁tokyo	-11.5138
▁contrappost	-11.5138
▁croazia	-11.5138
▁pulsar	-11.5138
▁concomitan	-11.5138
▁plinio	-11.5138
▁banconota	-11.5138
▁etrusca	-11.5138
▁condivisione	-11.5138
▁crateri	-11.5138
▁nemiche	-11.5138
▁settimo	-11.5138
uccello	-11.5138
▁lontani	-11.5138
▁oppone	-11.5139
▁alarico	-11.5141
▁robin	-11.5143
▁proveniva	-11.5143
▁autobus	-11.5144
anidri	-11.5145
▁rieti	-11.5165
mettersi	-11.5174
▁sociologi	-11.5193
▁quant	-11.5195
integrale	-11.5209
emergenza	-11.5213
eccezion	-11.5223
▁rassegna	-11.523
attuazione	-11.5247
militari	-11.5257
anschluss	-11.5266
▁abbondanti	-11.5266
▁arruola	-11.5266
▁auschwitz	-11.5266
▁bulgaria	-11.5266
▁carburante	-11.5266
▁costituzionali	-11.5266
▁douglas	-11.5266
▁frequentò	-11.5266
▁orizzontali	-11.5266
▁parlamentari	-11.5266
▁precauzioni	-11.5266
▁produttivo	-11.5266
▁portoghese	-11.5266
▁precessione	-11.5266
▁predomina	-11.5266
▁scioglie	-11.5266
▁adiacenti	-11.5266
▁previsione	-11.5266
▁ondula	-11.5266
▁company	-11.5266
▁vincoli	-11.5266
▁darwin	-11.5266
▁scontra	-11.5266
▁trascrizione	-11.5266
▁marsala	-11.5266
▁ritirò	-11.5266
▁dipartimenti	-11.5266
▁treviso	-11.5266
▁trasmessa	-11.5266
▁panorami	-11.5266
▁siccome	-11.5268
▁1902	-11.5268
▁congiura	-11.5269
innovazione	-11.527
▁manara	-11.5274
▁riunisc	-11.5296
▁esalta	-11.5358
▁equinozi	-11.5376
▁confedera	-11.5383
distribuzione	-11.5389
quadri	-11.5389
▁riscalda	-11.5389
uguaglianza	-11.5394
uruguay	-11.5396
▁fogazzaro	-11.5396
▁ginnastica	-11.5396
▁neutralità	-11.5396
▁neutrino	-11.5396
▁rappresentò	-11.5396
▁trasferita	-11.5396
▁violento	-11.5396
▁eleonora	-11.5396
▁eseguite	-11.5396
▁videogioco	-11.5396
▁velivoli	-11.5396
aggressione	-11.5396
atterraggio	-11.5396
▁comitati	-11.5396
▁intervenne	-11.5396
▁librerie	-11.5396
▁sottoposta	-11.5396
inchiesta	-11.5396
▁enciclopedie	-11.5396
▁laddove	-11.5396
▁racchius	-11.5396
▁restò	-11.5396
▁rimanda	-11.5397
▁belluno	-11.5397
▁disuguaglianza	-11.5397
▁tramonto	-11.5397
▁distrutte	-11.5397
▁accademico	-11.5397
▁lessico	-11.5399
ppel	-11.5399
▁distinto	-11.54
▁normanni	-11.54
▁tenute	-11.54
▁dittatore	-11.5401
▁approv	-11.5402
▁disposto	-11.5405
iraq	-11.541
arabia	-11.5412
facenti	-11.5422
="120	-11.5424
indicazione	-11.5427
▁protegge	-11.5469
clav	-11.5519
avvicinamento	-11.552
▁asteroidi	-11.5527
▁bicicletta	-11.5527
▁difficilmente	-11.5527
▁energetico	-11.5527
▁escluso	-11.5527
▁hippy	-11.5527
▁imprigiona	-11.5527
▁musulmani	-11.5527
▁polemiche	-11.5527
▁sommità	-11.5527
▁nascosto	-11.5527
▁amatoriale	-11.5527
▁collettivo	-11.5527
▁proporzioni	-11.5527
▁sepoltura	-11.5527
▁supplement	-11.5527
▁guardie	-11.5527
▁maurizio	-11.5527
▁simmetrica	-11.5527
▁universalmente	-11.5527
odierno	-11.5527
▁compressione	-11.5527
▁domande	-11.5527
▁situate	-11.5527
▁discrimina	-11.5528
ungarico	-11.5528
▁migratori	-11.5528
▁affatto	-11.5528
▁devozione	-11.5528
autentica	-11.5528
▁contrada	-11.5529
▁estratto	-11.5529
argenteo	-11.553
▁timore	-11.5535
abitazione	-11.5546
ideologia	-11.5548
ogeno	-11.5563
▁tau	-11.5576
▁facto	-11.5581
aosta	-11.5586
▁garantisc	-11.5611
▁vuol	-11.5619
▁chitarrista	-11.566
▁demografico	-11.566
▁diciassette	-11.566
▁firefox	-11.566
▁innanzitutto	-11.566
▁innumerevoli	-11.566
▁medioevale	-11.566
▁ortodossa	-11.566
▁provvede	-11.566
▁svantaggi	-11.566
▁preghiera	-11.566
▁vincitrice	-11.566
▁definendo	-11.566
▁calciatori	-11.5661
▁ortolani	-11.5661
▁avviò	-11.5661
▁delegazione	-11.5661
▁interpretò	-11.5661
▁conformazione	-11.5661
▁sanitaria	-11.5661
equilibr	-11.5663
▁conferito	-11.5663
▁rovina	-11.5663
▁dolore	-11.5663
▁cantieri	-11.5665
efficacia	-11.5665
▁disoccupazione	-11.5665
▁alternativo	-11.5666
▁distinta	-11.5666
▁intrinseca	-11.5669
probabil	-11.5677
avvent	-11.5689
▁isabel	-11.57
influss	-11.5709
coprono	-11.5737
▁declina	-11.5787
cellula	-11.5792
andrea	-11.5795
olimpia	-11.5795
▁bismarck	-11.5796
▁denominazioni	-11.5796
▁escursioni	-11.5796
▁helsinki	-11.5796
▁legittima	-11.5796
▁longitudine	-11.5796
▁ministeri	-11.5796
▁predecessore	-11.5796
▁prefettura	-11.5796
▁requisiti	-11.5796
▁sconfitte	-11.5796
▁scorpione	-11.5796
▁soprannome	-11.5796
▁sostenuta	-11.5796
▁sufficienti	-11.5796
▁brennero	-11.5796
▁midway	-11.5796
▁pistoia	-11.5796
legittimi	-11.5796
▁prezioso	-11.5796
▁correlazione	-11.5796
▁indirizzi	-11.5796
▁isernia	-11.5796
▁coprire	-11.5796
▁innamora	-11.5796
▁strisce	-11.5796
▁deserto	-11.5796
▁coperta	-11.5796
altopiano	-11.5797
▁quote	-11.5797
▁patrona	-11.5797
▁preziosi	-11.5797
▁battezz	-11.5798
▁jacob	-11.5799
▁tunisi	-11.5799
▁perimetr	-11.58
▁stringe	-11.5818
▁merita	-11.5819
accoglienza	-11.5826
▁aprire	-11.5831
▁investito	-11.5832
▁orologi	-11.5835
▁1888	-11.5843
▁teneva	-11.5843
▁tossico	-11.5881
▁sbocc	-11.5883
imperial	-11.5928
▁brunswick	-11.5933
▁caltanissetta	-11.5933
▁cecoslovacchia	-11.5933
▁conclusioni	-11.5933
▁contribuendo	-11.5933
▁contribuirono	-11.5933
▁dispersione	-11.5933
▁eucarioti	-11.5933
▁flavio	-11.5933
▁legittimo	-11.5933
▁meccaniche	-11.5933
▁ricostruita	-11.5933
▁rigorosa	-11.5933
▁respinge	-11.5933
▁culmine	-11.5933
▁mysql	-11.5933
assunzione	-11.5933
▁interstellare	-11.5933
▁accerchia	-11.5933
▁beatrice	-11.5933
▁parallele	-11.5933
▁trofeo	-11.5933
▁fiamma	-11.5933
▁1863	-11.5933
buddha	-11.5933
▁annesso	-11.5933
▁finanza	-11.5933
▁cannoni	-11.5933
▁discendente	-11.5933
▁decimo	-11.5934
▁silenzio	-11.5934
▁morirono	-11.5934
▁pianure	-11.5934
▁infinite	-11.5938
identificazione	-11.5969
▁promuove	-11.6013
▁0,1	-11.6017
segretari	-11.602
automatic	-11.603
immens	-11.6031
uniform	-11.604
lingue	-11.6041
▁preferenz	-11.6051
indica	-11.6063
abbreviazione	-11.6071
lettromagnetiche	-11.6071
mahāyāna	-11.6071
▁abbreviato	-11.6071
▁borromeo	-11.6071
▁cattolicesimo	-11.6071
▁descrivono	-11.6071
▁poliziesco	-11.6071
▁proclamò	-11.6071
▁ricostruito	-11.6071
▁édith	-11.6071
ammoniaca	-11.6071
▁agrippa	-11.6071
▁anteriore	-11.6072
▁corporation	-11.6072
▁iupac	-11.6072
fosfato	-11.6072
▁rilascio	-11.6072
▁infinita	-11.6072
▁albanese	-11.6072
▁tesoro	-11.6072
▁sensibilmente	-11.6072
▁selenio	-11.6072
reichstag	-11.6072
etiopia	-11.6072
▁sabato	-11.6073
▁ottimo	-11.6073
system	-11.6073
accetta	-11.6073
▁agnelli	-11.6075
▁urbanistico	-11.6075
▁severo	-11.6075
▁romolo	-11.6075
▁immobili	-11.6076
studenti	-11.6076
sepolti	-11.6077
▁scuro	-11.6079
▁seguiva	-11.6083
castrum	-11.6089
▁consentiva	-11.6089
▁inversa	-11.6091
oceania	-11.6166
bundes	-11.6172
emigrazione	-11.6177
intitola	-11.618
▁testimoni	-11.6199
implementazione	-11.6205
intrattenimento	-11.6212
▁agrigento	-11.6212
▁denominati	-11.6212
▁energetici	-11.6212
▁irlandesi	-11.6212
▁istituzionali	-11.6212
▁sconfitti	-11.6212
▁aggiunte	-11.6212
▁detenuti	-11.6212
▁ritenuti	-11.6212
▁detiene	-11.6212
▁ragazzo	-11.6212
▁castiglion	-11.6212
▁presunta	-11.6212
▁kuiper	-11.6212
▁povertà	-11.6212
▁provvist	-11.6212
▁prevenzione	-11.6212
▁ristampa	-11.6212
▁motivazioni	-11.6212
▁paradiso	-11.6212
▁rivolse	-11.6212
▁caterina	-11.6213
▁samuel	-11.6213
▁pendici	-11.6213
▁claude	-11.6213
▁bayer	-11.6213
▁falso	-11.6213
▁distribuite	-11.6214
▁definiscono	-11.6215
▁potenzialmente	-11.6215
▁interprete	-11.6215
▁kurt	-11.6215
▁revoca	-11.6216
▁capitoli	-11.6217
▁group	-11.6217
▁contribuisc	-11.6219
▁toglie	-11.622
▁confonde	-11.6223
assioma	-11.6226
▁major	-11.6228
tefan	-11.6233
▁altrettant	-11.6244
micro	-11.6256
▁coinvolg	-11.6287
▁esibisc	-11.6319
▁munit	-11.6322
abito	-11.6332
▁efficaci	-11.635
▁stoccolma	-11.6355
entusiasmo	-11.6355
▁amministrativi	-11.6355
▁avveniva	-11.6355
▁bizantina	-11.6355
▁bolognese	-11.6355
▁contraddistint	-11.6355
▁deposito	-11.6355
▁diminuire	-11.6355
▁guarnigione	-11.6355
▁göring	-11.6355
▁provvedimento	-11.6355
▁raggiungibile	-11.6355
▁spettrali	-11.6355
▁spettroscopia	-11.6355
▁vesuvio	-11.6355
▁sorveglia	-11.6355
▁ragazze	-11.6355
▁saraceni	-11.6355
▁determinò	-11.6355
▁confluenza	-11.6355
▁controversia	-11.6355
affinità	-11.6355
▁assembly	-11.6355
▁ernst	-11.6355
▁sancì	-11.6355
▁guinea	-11.6356
▁verticali	-11.6356
▁teorizza	-11.6356
▁auspic	-11.6356
▁sovrappost	-11.6356
▁svincol	-11.6356
▁spoleto	-11.6356
▁falsa	-11.6357
▁conferiti	-11.6357
▁specializzate	-11.6357
▁impedì	-11.6358
▁editrice	-11.6358
infermier	-11.6358
▁termico	-11.6358
▁cairo	-11.6358
▁estratti	-11.6359
▁riferiscono	-11.6359
individuazione	-11.6364
astronomi	-11.6374
stituire	-11.6377
sanitari	-11.6384
entropia	-11.6409
▁rivestit	-11.6431
fair	-11.6439
▁risolve	-11.6442
astrologia	-11.647
brook	-11.6476
aggiornamento	-11.6488
▁lorenz	-11.6492
fried	-11.6497
▁agrippina	-11.65
▁atmosfere	-11.65
▁comprensori	-11.65
▁curiosità	-11.65
▁espansioni	-11.65
▁globulare	-11.65
▁legislatura	-11.65
▁norimberga	-11.65
▁paragonabile	-11.65
▁supergigante	-11.65
boltzmann	-11.65
▁cittadella	-11.65
▁persecuzioni	-11.65
▁wilbur	-11.65
▁higgs	-11.65
▁kelvin	-11.65
zionalsocialista	-11.65
▁riusciva	-11.65
▁recitò	-11.65
▁deportati	-11.65
▁veicolo	-11.65
▁antoine	-11.65
▁sormontat	-11.65
▁venuto	-11.6501
▁tabelle	-11.6501
▁caserta	-11.6501
▁proporre	-11.6501
▁cartagine	-11.6507
▁fecond	-11.6517
digital	-11.6523
invito	-11.6526
▁professor	-11.6527
orologio	-11.6535
commun	-11.6554
solid	-11.6575
impostazione	-11.6612
elettricità	-11.6629
▁serial	-11.6632
▁rivoluzion	-11.6635
mediterrane	-11.6645
shōjo	-11.6647
▁imprenditori	-11.6647
▁acquafondata	-11.6647
▁criminale	-11.6647
▁democratici	-11.6647
▁difensivo	-11.6647
▁giurisprudenza	-11.6647
▁indispensabile	-11.6647
▁montuose	-11.6647
▁pantheon	-11.6647
▁pordenone	-11.6647
▁raccolto	-11.6647
▁riusciti	-11.6647
▁sconosciuta	-11.6647
▁sentimentale	-11.6647
▁sostenitore	-11.6647
▁svariate	-11.6647
▁tecnologico	-11.6647
▁trasmissioni	-11.6647
approvvigiona	-11.6647
▁contrattacco	-11.6647
▁favorì	-11.6647
▁fuzzy	-11.6647
▁herschel	-11.6647
plancton	-11.6647
▁olandesi	-11.6647
▁prevedono	-11.6647
▁ottenute	-11.6647
▁apposito	-11.6647
▁perseguita	-11.6647
▁gloria	-11.6647
▁risolse	-11.6647
▁risvegli	-11.6647
▁camillo	-11.6647
▁sparse	-11.6647
▁similmente	-11.6648
▁pallone	-11.6648
▁tempesta	-11.6648
▁seguite	-11.6648
▁rovine	-11.6648
▁offerto	-11.6648
▁protetti	-11.6648
▁tacito	-11.6648
▁prestiti	-11.6648
▁autostradale	-11.6648
▁geopolitic	-11.6649
▁germano	-11.6649
▁fausto	-11.6649
▁tradimento	-11.6649
▁conoscono	-11.665
▁conduzione	-11.665
▁naz	-11.6651
▁intercett	-11.6652
▁universali	-11.6652
▁lewis	-11.6653
▁probabili	-11.6657
principi	-11.6658
inventore	-11.6675
mandò	-11.6683
▁appartene	-11.6684
▁distrusse	-11.6705
▁annessi	-11.6753
▁liguri	-11.6758
sufficienza	-11.6796
▁abbraccia	-11.6796
▁artigianali	-11.6796
▁assumono	-11.6796
▁centesimi	-11.6796
▁circum	-11.6796
▁dottrine	-11.6796
▁ecclesiastici	-11.6796
▁floppy	-11.6796
▁fluviali	-11.6796
▁monasteri	-11.6796
▁periferiche	-11.6796
▁presumibilmente	-11.6796
▁automaticamente	-11.6796
▁cavaliere	-11.6796
▁lorentz	-11.6796
▁radicalmente	-11.6796
▁strategie	-11.6796
▁pseudonimo	-11.6796
▁collisione	-11.6796
▁pazienti	-11.6796
▁perugino	-11.6796
▁suffisso	-11.6796
▁cessò	-11.6796
▁fondovalle	-11.6796
▁gallerie	-11.6797
▁decifra	-11.6797
▁interrotta	-11.6797
▁riuniti	-11.6797
▁ridotti	-11.6797
▁illustri	-11.6797
▁manager	-11.6797
▁traduce	-11.6797
▁localmente	-11.6797
▁intenzioni	-11.6798
▁armonica	-11.6798
interruzione	-11.6798
▁seduta	-11.6799
▁esposte	-11.6799
▁fuochi	-11.68
▁umili	-11.68
asterismo	-11.6806
▁consonanti	-11.6807
elettronica	-11.6809
meccanica	-11.6809
corriere	-11.6809
▁carenz	-11.6831
fondamentalmente	-11.6845
▁informativ	-11.6852
immaginario	-11.6917
▁bisogn	-11.6937
▁atmosferica	-11.6948
▁battaglione	-11.6948
▁binomiale	-11.6948
▁corridori	-11.6948
▁davvero	-11.6948
▁diminuisce	-11.6948
▁finanziamenti	-11.6948
▁guercino	-11.6948
▁ludwig	-11.6948
▁meccanici	-11.6948
▁montgomery	-11.6948
▁rodolfo	-11.6948
▁splendore	-11.6948
▁torvalds	-11.6948
▁trasferiti	-11.6948
▁ultravioletta	-11.6948
▁vicepresidente	-11.6948
▁violenze	-11.6948
▁antivirus	-11.6948
▁scoppiò	-11.6948
▁ausiliari	-11.6948
▁cervello	-11.6948
▁cruciale	-11.6948
▁miliardo	-11.6948
▁regressione	-11.6948
▁contenitore	-11.6948
▁professionista	-11.6948
▁smantell	-11.6948
▁sinonimo	-11.6948
▁distinse	-11.6948
▁polmoni	-11.6948
▁manuale	-11.6948
▁rientro	-11.6948
▁secolari	-11.6948
▁risolto	-11.6948
▁paralleli	-11.6949
▁basilea	-11.6949
▁bosone	-11.6949
erosione	-11.6949
▁sferra	-11.6949
itinerari	-11.695
▁machine	-11.6951
▁contrade	-11.6951
▁xeno	-11.6952
adiacente	-11.6955
▁derivi	-11.6955
▁moderata	-11.6956
▁pronomi	-11.6957
computer	-11.6963
pensò	-11.6982
▁martell	-11.7046
▁subentr	-11.7058
eruzione	-11.7058
http	-11.706
▁analoga	-11.7094
anziano	-11.7096
▁profondi	-11.7099
venzionalmente	-11.7102
▁ciononostante	-11.7102
▁circonferenza	-11.7102
▁copyleft	-11.7102
▁energetica	-11.7102
▁equatoriale	-11.7102
▁greenwich	-11.7102
▁produttive	-11.7102
▁riprodurre	-11.7102
antropologia	-11.7102
▁aleatorie	-11.7102
▁amatoriali	-11.7102
▁costituendo	-11.7102
▁giovinezza	-11.7102
▁raddoppia	-11.7102
▁notorietà	-11.7102
▁previsioni	-11.7102
▁compiuta	-11.7102
▁ristretto	-11.7102
▁messicana	-11.7102
▁convertito	-11.7102
▁cammino	-11.7102
▁placche	-11.7102
▁yaoi	-11.7102
▁stampe	-11.7102
antimonio	-11.7102
dizionario	-11.7102
▁precise	-11.7102
testuali	-11.7102
▁sanitario	-11.7103
▁appariva	-11.7103
▁traduzioni	-11.7103
▁capua	-11.7103
▁vallata	-11.7104
▁ottiche	-11.7104
▁rigore	-11.7105
▁from	-11.7106
circo	-11.711
▁condann	-11.7117
aumentare	-11.7119
amiga	-11.7121
moderna	-11.7124
▁inaugura	-11.7142
▁mentali	-11.7173
uccisione	-11.7177
▁lombardi	-11.722
armonia	-11.7237
▁esplicita	-11.725
▁imbarca	-11.725
vocò	-11.7254
azerbaigian	-11.7258
▁cerimonie	-11.7258
▁contemporaneo	-11.7258
▁monumentali	-11.7258
▁niccolò	-11.7258
▁opportuno	-11.7258
▁powerpc	-11.7258
▁research	-11.7258
▁rimuove	-11.7258
▁sabaudo	-11.7258
▁scandinavi	-11.7258
▁truffaut	-11.7258
▁aleksandr	-11.7258
▁velivolo	-11.7258
aggettivo	-11.7258
▁airlines	-11.7258
▁defunto	-11.7258
▁fallì	-11.7258
▁governatorato	-11.7258
▁appositi	-11.7258
▁monopolio	-11.7258
▁crimine	-11.7258
▁sterlina	-11.7258
▁vanadio	-11.7258
▁concorrenti	-11.7258
▁gravitazione	-11.7258
▁civica	-11.7259
▁templi	-11.7259
▁worm	-11.7259
▁insegne	-11.7259
universit	-11.726
▁fraziona	-11.7261
▁concreta	-11.7265
magister	-11.7265
▁investigat	-11.7265
▁incarna	-11.7269
▁umanitari	-11.7277
francese	-11.7278
tecnica	-11.7279
nuclea	-11.7279
august	-11.7288
bald	-11.7351
censo	-11.7374
vengano	-11.7386
▁scavat	-11.7409
▁peculiari	-11.7413
agglomerat	-11.7417
dimensionali	-11.7417
▁ambrosiano	-11.7417
▁analoghe	-11.7417
▁analoghi	-11.7417
▁bolscevichi	-11.7417
▁festività	-11.7417
▁feynman	-11.7417
▁laboratory	-11.7417
▁luxemburg	-11.7417
▁ospitò	-11.7417
▁positrone	-11.7417
▁molluschi	-11.7417
▁teoremi	-11.7417
▁morrison	-11.7417
▁pilastri	-11.7417
▁aggrava	-11.7417
▁posteriore	-11.7417
▁redditi	-11.7417
▁statuti	-11.7417
▁pretesto	-11.7417
▁mazara	-11.7417
▁wayne	-11.7417
▁offerte	-11.7417
▁sottili	-11.7417
▁americhe	-11.7418
▁subirono	-11.7418
▁interpreti	-11.7418
graphic	-11.7418
▁contratti	-11.7418
intersezione	-11.7424
seguono	-11.744
tedesco	-11.744
ingegno	-11.7457
▁fronteggiar	-11.7475
gnificativamente	-11.7494
▁affluenti	-11.7578
▁appariscente	-11.7578
▁attaccò	-11.7578
▁cyberpunk	-11.7578
▁frosinone	-11.7578
▁gemellaggi	-11.7578
▁genovesi	-11.7578
▁macedonia	-11.7578
▁presidenziale	-11.7578
▁rintraccia	-11.7578
▁spielberg	-11.7578
▁telelavoro	-11.7578
▁virtuale	-11.7578
▁yiddish	-11.7578
▁continentali	-11.7578
▁rudolf	-11.7578
▁disgrega	-11.7578
▁für	-11.7578
▁muovono	-11.7578
▁bambina	-11.7578
▁josé	-11.7578
▁carolingi	-11.7578
▁fortran	-11.7578
▁postumo	-11.7578
▁improvvisamente	-11.7578
▁reparto	-11.7578
worth	-11.7578
▁genoma	-11.7579
▁focalizza	-11.7579
splendid	-11.7579
▁pretese	-11.758
▁delegato	-11.758
▁puglie	-11.7582
alfiere	-11.7591
write	-11.7599
società	-11.7604
antropi	-11.7625
▁ingaggi	-11.7633
▁distribuir	-11.7637
oscuro	-11.7654
fisiologi	-11.7673
appendice	-11.7742
arcidiocesi	-11.7742
▁confermò	-11.7742
▁himmler	-11.7742
▁hindenburg	-11.7742
▁longobardo	-11.7742
▁marshall	-11.7742
▁nirvana	-11.7742
▁raymond	-11.7742
▁sconosciuto	-11.7742
▁sopravvisse	-11.7742
▁teodosio	-11.7742
▁vulcano	-11.7742
antimateria	-11.7742
▁fotografa	-11.7742
▁pontificia	-11.7742
▁preesistenti	-11.7742
▁azzurra	-11.7742
▁gluoni	-11.7742
▁oxford	-11.7742
▁presunto	-11.7742
▁scozzesi	-11.7742
phylum	-11.7742
▁gramsci	-11.7742
detective	-11.7742
epidemia	-11.7742
▁piacentino	-11.7742
▁diciannove	-11.7742
▁impropri	-11.7742
▁battute	-11.7742
▁dietrich	-11.7742
▁corazzato	-11.7742
▁arancione	-11.7742
▁manzoni	-11.7742
▁staziona	-11.7742
▁mistero	-11.7743
▁umido	-11.7743
▁cosimo	-11.7743
▁scatola	-11.7743
▁arrivi	-11.7745
▁lieve	-11.7745
▁corregge	-11.7745
▁relaziona	-11.7755
▁wild	-11.7764
imitazione	-11.7812
▁affascin	-11.7847
▁parallela	-11.79
▁promontorio	-11.7909
▁racchiude	-11.7909
▁schrödinger	-11.7909
▁sciopero	-11.7909
▁soppresso	-11.7909
▁strategici	-11.7909
▁taylor	-11.7909
▁winston	-11.7909
▁ellittica	-11.7909
▁manoscritti	-11.7909
▁pattinaggio	-11.7909
▁firmò	-11.7909
▁maturità	-11.7909
▁claudia	-11.7909
▁western	-11.7909
▁accadde	-11.7909
▁araldica	-11.7909
▁sguardo	-11.7909
▁canadesi	-11.7909
▁forlì	-11.7909
▁fisher	-11.7909
▁piogge	-11.7909
▁esplode	-11.7909
▁globe	-11.7909
▁gauge	-11.7909
▁pearl	-11.7909
imminente	-11.7909
▁intervalli	-11.7909
▁sussiste	-11.7909
▁sassari	-11.7909
▁alcalini	-11.7909
▁disporre	-11.7909
▁conquiste	-11.7909
▁frammento	-11.7909
▁tangenziale	-11.7909
▁sellers	-11.7909
▁dislocat	-11.791
▁scaturi	-11.7911
▁sparta	-11.7911
kaiser	-11.7911
▁mutua	-11.7917
sufficiente	-11.7939
algeria	-11.7945
▁autoritari	-11.7946
attraversamento	-11.795
estonia	-11.7954
quattro	-11.7978
▁proporzional	-11.8037
istria	-11.8077
improvviso	-11.8078
princeps	-11.8078
ultravioletto	-11.8078
▁capolavoro	-11.8078
▁centenario	-11.8078
▁circoscrizioni	-11.8078
▁coinvolte	-11.8078
▁consapevolezza	-11.8078
▁cosicché	-11.8078
▁diocleziano	-11.8078
▁domodossola	-11.8078
▁molibdeno	-11.8078
▁preceduto	-11.8078
▁produttiva	-11.8078
▁rettangolare	-11.8078
▁riconducibili	-11.8078
▁sacerdoti	-11.8078
▁sculture	-11.8078
▁technology	-11.8078
▁tribunali	-11.8078
accumulo	-11.8078
antisemitismo	-11.8078
▁barcellona	-11.8078
▁portuale	-11.8078
▁preesistente	-11.8078
▁röntgen	-11.8078
▁venafro	-11.8078
▁respirazione	-11.8078
▁sopporta	-11.8078
▁accomuna	-11.8078
▁acquistò	-11.8078
▁prerogativ	-11.8078
▁normandia	-11.8078
▁albanesi	-11.8078
▁disordini	-11.8078
▁cappelle	-11.8078
▁promulgat	-11.8078
▁erodoto	-11.8078
▁polemica	-11.8078
▁custodit	-11.8078
▁zampe	-11.8078
▁branche	-11.8078
▁carmelo	-11.8078
▁ammesso	-11.8078
▁superstiti	-11.8078
▁cintura	-11.8079
▁inerziale	-11.8079
▁sillabe	-11.8079
ausilio	-11.8079
▁degrada	-11.8079
▁riposa	-11.8079
usuale	-11.808
▁speer	-11.808
bahn	-11.8081
klm	-11.8086
scendono	-11.8093
▁sollecit	-11.81
varianza	-11.8112
trattato	-11.8113
▁dedit	-11.8122
seguendo	-11.8145
▁fondamenta	-11.8148
select	-11.8184
▁sceglie	-11.8193
posero	-11.8204
▁approcci	-11.8206
▁borghesi	-11.8212
ccessivamente	-11.8244
eccessiva	-11.8247
ascensione	-11.8251
olocausto	-11.8251
▁esponenziale	-11.8251
▁folclore	-11.8251
▁glucosio	-11.8251
▁manufatti	-11.8251
▁massoneria	-11.8251
▁municipale	-11.8251
▁registrò	-11.8251
▁rifornimento	-11.8251
▁seattle	-11.8251
▁somiglianza	-11.8251
▁tucidide	-11.8251
▁aeromobili	-11.8251
▁assomiglia	-11.8251
▁berlinguer	-11.8251
▁cauchy	-11.8251
▁incarichi	-11.8251
▁gabriele	-11.8251
▁hobby	-11.8251
▁pietroburgo	-11.8251
▁sfortuna	-11.8251
▁cantautore	-11.8251
▁garanzia	-11.8251
▁sospeso	-11.8251
▁strabone	-11.8251
▁cobalto	-11.8251
▁rifiuti	-11.8251
▁riportò	-11.8251
▁barriera	-11.8251
▁poesie	-11.8251
▁assistito	-11.8251
▁scellino	-11.8251
▁sferica	-11.8251
▁filtri	-11.8251
▁anfibi	-11.8251
▁biagio	-11.8251
▁fisiologia	-11.8251
▁ribalta	-11.8251
▁mayen	-11.8251
▁archeologica	-11.8252
▁achille	-11.8252
crittograf	-11.8257
▁sottrar	-11.8258
annuncio	-11.8272
tregua	-11.8273
court	-11.8279
inerzia	-11.8286
emanazione	-11.8348
▁appartenut	-11.8426
▁bismuto	-11.8426
▁bruxelles	-11.8426
▁complementari	-11.8426
▁contribuire	-11.8426
▁efficienti	-11.8426
▁eratostene	-11.8426
▁evoluzioni	-11.8426
▁fotosintesi	-11.8426
▁gabinetto	-11.8426
▁meteorologica	-11.8426
▁offensive	-11.8426
▁sagittario	-11.8426
▁stoccarda	-11.8426
▁tecnologica	-11.8426
▁wolfgang	-11.8426
▁comportò	-11.8426
▁dialoghi	-11.8426
▁ungheresi	-11.8426
▁acquisì	-11.8426
▁copernico	-11.8426
▁sospetti	-11.8426
▁servì	-11.8426
▁pirenei	-11.8426
▁alberghi	-11.8426
▁werner	-11.8426
▁trojan	-11.8426
▁irradia	-11.8426
▁risposte	-11.8426
▁caserma	-11.8426
▁verbano	-11.8426
▁vincolat	-11.8426
▁boston	-11.8426
▁etrusco	-11.8427
▁traffici	-11.8427
▁temendo	-11.8427
▁precoce	-11.8427
immortal	-11.8427
▁rinominat	-11.8427
▁attenua	-11.8427
▁cassio	-11.8428
▁peccato	-11.8429
▁tramonta	-11.8433
epistola	-11.8433
▁ridusse	-11.8436
▁honor	-11.8437
▁concordi	-11.8439
▁propizi	-11.8442
▁temeva	-11.8446
famiglia	-11.8466
simbolo	-11.8466
accezione	-11.8493
dirac	-11.8508
▁sembr	-11.8583
▁aeronautic	-11.8586
universal	-11.8598
▁burocrati	-11.8605
▁capolavori	-11.8605
▁crocifisso	-11.8605
▁guerriglia	-11.8605
▁idrocarburi	-11.8605
▁percentuali	-11.8605
▁piattaforme	-11.8605
▁predecessori	-11.8605
▁riproduce	-11.8605
▁sacerdote	-11.8605
▁terrorismo	-11.8605
▁ventennio	-11.8605
▁virgilio	-11.8605
▁colombia	-11.8605
▁espulso	-11.8605
▁interfacce	-11.8605
▁sinagoga	-11.8605
▁hudson	-11.8605
▁disfatta	-11.8605
▁jethro	-11.8605
▁nevicate	-11.8605
▁proporzione	-11.8605
▁scudetto	-11.8605
▁fantasia	-11.8605
▁tropico	-11.8605
▁rivaluta	-11.8605
▁debutto	-11.8605
▁metropolitane	-11.8605
▁supereroi	-11.8605
▁tattiche	-11.8605
▁acquisire	-11.8605
▁diventerà	-11.8605
▁analitica	-11.8605
gazzetta	-11.8605
arbitro	-11.8607
▁collettivi	-11.8607
ogliastra	-11.8608
duttivi	-11.8609
ascolt	-11.861
tecnologia	-11.8648
▁trasposizion	-11.8703
88)	-11.871
aggregazione	-11.8714
vulgata	-11.8723
▁allestit	-11.8775
professioni	-11.8781
▁anglosassoni	-11.8786
▁britannia	-11.8786
▁coinvolse	-11.8786
▁consecutivi	-11.8786
▁ecclesiastico	-11.8786
▁explorer	-11.8786
▁guerriero	-11.8786
▁napoleoniche	-11.8786
▁oppositori	-11.8786
▁pellegrinaggi	-11.8786
▁predappio	-11.8786
▁raffaello	-11.8786
▁suffragio	-11.8786
▁escluse	-11.8786
▁solidarietà	-11.8786
▁venduti	-11.8786
incertezza	-11.8786
▁catalano	-11.8786
▁reinhard	-11.8786
▁scolastici	-11.8786
▁stringhe	-11.8786
▁volturno	-11.8786
▁milizie	-11.8786
▁tonalità	-11.8786
▁ragusa	-11.8786
▁vogliono	-11.8786
▁convertire	-11.8786
asteroide	-11.8786
▁gorizia	-11.8786
▁magistratura	-11.8786
▁substrato	-11.8786
▁marziana	-11.8787
▁funerali	-11.8787
▁debutta	-11.8787
▁opposte	-11.8787
="107	-11.8787
▁promotore	-11.8787
▁palamas	-11.8787
▁colomba	-11.8787
▁uscite	-11.8787
▁frattura	-11.8787
▁inoltra	-11.8787
▁identico	-11.8787
▁fiscali	-11.8788
esibizione	-11.8789
▁identica	-11.8789
sperimentalmente	-11.8792
▁riutilizz	-11.8818
oggetti	-11.8824
inaugurazione	-11.883
internazionale	-11.8833
▁ermet	-11.8842
▁pessim	-11.8844
incoronazione	-11.8867
▁coloss	-11.8894
specializzazione	-11.8961
▁affidò	-11.8972
▁anthony	-11.8972
▁artigianale	-11.8972
▁crimea	-11.8972
▁denominate	-11.8972
▁esemplare	-11.8972
▁fluido	-11.8972
▁olimpiche	-11.8972
▁peculiare	-11.8972
▁pregiudizi	-11.8972
▁presidenziali	-11.8972
▁pulsazioni	-11.8972
▁riassume	-11.8972
▁supporti	-11.8972
▁sventola	-11.8972
▁tungsteno	-11.8972
▁vertebrati	-11.8972
▁montuosa	-11.8972
▁sloveno	-11.8972
▁kayak	-11.8972
avvenimento	-11.8972
▁richiese	-11.8972
horror	-11.8972
imprenditore	-11.8972
▁wargame	-11.8972
▁galattica	-11.8972
▁partigiana	-11.8972
▁balneare	-11.8972
enclave	-11.8972
▁federazioni	-11.8972
▁compiuti	-11.8972
▁palestina	-11.8972
▁apparati	-11.8972
▁cadmio	-11.8972
▁fiamme	-11.8972
▁hoffman	-11.8972
▁dylan	-11.8972
▁influenti	-11.8972
▁respinto	-11.8972
▁baglioni	-11.8972
▁controversa	-11.8972
▁botanica	-11.8972
▁accresce	-11.8972
▁restaurato	-11.8972
exclave	-11.8972
▁fluoro	-11.8972
▁andrew	-11.8972
▁oramai	-11.8972
▁riprodott	-11.8972
▁garantendo	-11.8973
▁barks	-11.8973
eclissi	-11.8974
utilizzabile	-11.8986
illuminazione	-11.9002
amministratore	-11.9051
▁provvisori	-11.9065
build	-11.9081
edificazione	-11.9116
aspett	-11.9135
▁valentin	-11.9145
▁massicci	-11.9151
▁ovvia	-11.9152
coprì	-11.9154
affidabilità	-11.9155
▁riscuote	-11.916
massachusetts	-11.916
▁anglosassone	-11.916
▁astronauti	-11.916
▁bergamasco	-11.916
▁conferenze	-11.916
▁contrassegnat	-11.916
▁cortometraggi	-11.916
▁donizetti	-11.916
▁freebsd	-11.916
▁harvard	-11.916
▁immagazzina	-11.916
▁macintosh	-11.916
▁nunavut	-11.916
▁presiede	-11.916
▁residenziale	-11.916
▁ripristino	-11.916
▁sampdoria	-11.916
“	-12.1135
<	-13.3509
