<unk>	0
<s>	0
</s>	0
、	-3.11711
の	-3.53061
。	-3.56616
▁	-3.95496
は	-4.05303
が	-4.22288
を	-4.37205
に	-4.48222
(	-4.68715
)	-4.7018
・	-4.78577
と	-4.87649
で	-4.90815
年	-4.9117
.	-4.95938
」	-5.17729
「	-5.21162
▁##	-5.43004
や	-5.56371
="	-5.63135
した	-5.66046
から	-5.72592
も	-5.72862
1	-5.73327
月	-5.76376
2	-5.80032
し	-5.81517
である	-5.82202
する	-5.87719
3	-5.99385
として	-6.01889
では	-6.05556
た	-6.18869
』	-6.24324
日	-6.27465
4	-6.29021
『	-6.29037
doc	-6.32168
"	-6.37243
には	-6.40055
c	-6.40366
された	-6.51699
る	-6.52693
など	-6.55898
という	-6.56809
また	-6.5733
大	-6.57927
5	-6.59591
な	-6.60448
この	-6.60603
/	-6.62004
ス	-6.63858
して	-6.68345
している	-6.692
その	-6.69383
駅	-6.69414
6	-6.70557
人	-6.76629
7	-6.771
:	-6.80782
て	-6.81159
8	-6.83602
10	-6.84926
ている	-6.85057
9	-6.8951
=	-6.9186
▁-	-6.93672
ja	-6.94265
年に	-6.95424
による	-6.95458
?	-6.95886
い	-6.96432
一	-6.97895
ア	-6.98446
線	-7.00019
org	-7.0019
国	-7.00918
>	-7.01003
され	-7.01265
▁id	-7.01612
▁<	-7.01614
wikipedia	-7.01625
wiki	-7.01631
://	-7.01676
https	-7.01716
urid	-7.01842
▁url	-7.01863
▁title	-7.01882
▁categories	-7.01891
▁</	-7.01996
">	-7.0208
本	-7.03325
市	-7.03331
か	-7.0413
第	-7.05918
によって	-7.06599
ト	-7.07964
り	-7.08511
中	-7.09728
であり	-7.09831
|	-7.10703
される	-7.12294
-	-7.1283
により	-7.13209
ク	-7.14809
法	-7.14854
されている	-7.18407
であった	-7.18603
となった	-7.18762
上	-7.20571
リ	-7.20672
がある	-7.22358
日本	-7.23424
ラ	-7.23473
山	-7.23803
への	-7.26856
く	-7.26996
ド	-7.27139
12	-7.27353
名	-7.278
水	-7.30347
カ	-7.30737
新	-7.31038
s	-7.31048
的な	-7.31625
性	-7.31819
、「	-7.32824
者	-7.33573
ため	-7.33623
化	-7.33726
川	-7.34065
ル	-7.34077
長	-7.3683
11	-7.36985
などの	-7.37295
田	-7.38072
地	-7.38333
へ	-7.38631
日に	-7.38777
マ	-7.40232
となる	-7.41719
的	-7.4188
同	-7.42029
内	-7.42225
)。	-7.42892
していた	-7.42922
より	-7.43856
ら	-7.43905
町	-7.45178
家	-7.45386
後	-7.45447
ナ	-7.46176
分	-7.46709
まで	-7.47047
み	-7.47069
▁(	-7.48666
子	-7.48804
コ	-7.48956
m	-7.51039
三	-7.51294
つ	-7.51374
en	-7.51888
高	-7.52457
った	-7.52699
島	-7.53185
き	-7.53442
タ	-7.53903
部	-7.5411
系	-7.54889
生	-7.5551
にも	-7.55758
ム	-7.55832
20	-7.55847
下	-7.56571
前	-7.56653
面	-7.57859
ロ	-7.58157
18	-7.58549
ズ	-7.58714
でも	-7.58913
形	-7.59402
a	-7.59565
昭和	-7.59719
15	-7.60117
しかし	-7.60236
シ	-7.60527
数	-7.60587
道	-7.61123
において	-7.61374
小	-7.61393
回	-7.6173
戦	-7.6251
ていた	-7.63739
エ	-7.64057
原	-7.64179
イ	-7.64386
だった	-7.64876
手	-7.65536
東	-7.65855
放送	-7.65968
レ	-7.66052
号	-7.66104
時	-7.66303
バ	-7.66805
車	-7.67181
オ	-7.6874
学	-7.68744
用	-7.69266
語	-7.69549
式	-7.70413
す	-7.70758
金	-7.71532
キ	-7.71662
,	-7.71818
西	-7.7184
北	-7.72141
および	-7.72508
型	-7.73042
さ	-7.73375
フ	-7.74002
元	-7.74336
行	-7.74638
ノ	-7.76226
ミ	-7.76316
ジ	-7.76896
b	-7.76897
サ	-7.7707
等	-7.77137
点	-7.77372
n	-7.77561
大学	-7.78233
南	-7.78262
16	-7.78671
d	-7.78694
における	-7.78721
出	-7.78936
物	-7.79359
王	-7.79639
約	-7.79722
平成	-7.80425
ン	-7.80726
機	-7.81022
体	-7.81138
月に	-7.81366
との	-7.8175
f	-7.82148
30	-7.82298
所	-7.82405
見	-7.825
城	-7.83153
会	-7.83625
ない	-7.84123
外	-7.84261
州	-7.84953
野	-7.85113
正	-7.85198
って	-7.8599
17	-7.86002
ダ	-7.86566
う	-7.86708
的に	-7.86942
にある	-7.8827
ニ	-7.8857
力	-7.88592
位	-7.88861
さらに	-7.89392
事	-7.89566
いた	-7.89703
お	-7.89782
こと	-7.90155
となり	-7.90199
となっている	-7.91046
チ	-7.9131
神	-7.91374
文	-7.91714
14	-7.91765
両	-7.92271
ウ	-7.92282
平	-7.92664
ブ	-7.92727
t	-7.9288
全	-7.92987
バス	-7.93101
とする	-7.93335
13	-7.93486
鉄道	-7.93672
発	-7.9398
軍	-7.94082
デ	-7.94306
g	-7.94457
東京	-7.94605
これは	-7.95172
海	-7.95663
光	-7.95734
旧	-7.96463
ており	-7.97691
目	-7.97967
メ	-7.98089
木	-7.98435
作品	-7.98742
なお	-7.9883
不	-7.99163
後に	-7.99196
リー	-7.99303
地域	-7.99849
方	-8.00386
無	-8.00415
について	-8.00731
公	-8.00759
ツ	-8.00955
重	-8.0114
二	-8.0155
書	-8.0166
があり	-8.02251
郡	-8.02882
話	-8.02929
場	-8.03233
年には	-8.03664
その後	-8.03708
モ	-8.03976
ネ	-8.04146
石	-8.04376
間	-8.0469
村	-8.04919
番組	-8.0513
代	-8.0534
社	-8.05462
p	-8.05574
ま	-8.05768
ハ	-8.0648
世界	-8.07243
ガ	-8.08455
各	-8.08674
グ	-8.0885
通	-8.08899
k	-8.08948
とは	-8.09823
問題	-8.10044
立	-8.10213
流	-8.10453
局	-8.10527
特に	-8.10616
天	-8.1103
のみ	-8.11031
度	-8.11289
h	-8.11511
区	-8.1164
義	-8.11812
論	-8.12122
ッ	-8.12354
x	-8.12485
w	-8.12736
jr	-8.1353
音	-8.13634
r	-8.14095
」「	-8.15236
ティ	-8.15339
については	-8.15632
和	-8.158
版	-8.15836
明	-8.15851
パ	-8.1613
時間	-8.16171
テ	-8.16596
ビ	-8.16599
ラー	-8.16723
派	-8.16735
できる	-8.16776
19	-8.16958
同年	-8.17008
色	-8.17541
v	-8.17885
制	-8.17968
活動	-8.18256
e	-8.18321
関係	-8.18468
作	-8.18587
イン	-8.18949
口	-8.18969
白	-8.19276
に対して	-8.19714
とも	-8.19886
宮	-8.19931
と呼ばれる	-8.20113
25	-8.20143
年の	-8.2034
アメリカ	-8.20461
もの	-8.20837
め	-8.21188
映画	-8.21297
役	-8.21717
だ	-8.21886
ある	-8.22127
』(	-8.22242
多	-8.22441
セ	-8.22744
路線	-8.22802
種	-8.22865
万	-8.2301
直	-8.23092
勝	-8.23325
」(	-8.23362
それ	-8.23559
マン	-8.23592
世	-8.23832
現	-8.24168
ゲーム	-8.24584
当時	-8.24623
日本の	-8.24742
ん	-8.25067
馬	-8.25634
別	-8.25878
説	-8.26012
台	-8.26074
権	-8.26094
プ	-8.26119
られた	-8.26206
ディ	-8.26242
寺	-8.26256
研究	-8.26438
50	-8.26495
多くの	-8.26752
車両	-8.26791
都市	-8.2696
アン	-8.27149
信	-8.27588
気	-8.28174
入	-8.28308
y	-8.2873
官	-8.28751
氏	-8.28834
ただし	-8.28882
;	-8.28923
開発	-8.29319
しており	-8.29577
での	-8.29593
曲	-8.30224
になった	-8.30376
ことから	-8.3103
風	-8.31071
心	-8.31181
を持つ	-8.31247
地方	-8.31299
政	-8.31352
21	-8.31527
テレビ	-8.31565
じ	-8.3157
ホーム	-8.31913
ボ	-8.31947
戦争	-8.32031
24	-8.3208
になる	-8.32187
他の	-8.32348
l	-8.32565
計画	-8.32658
主	-8.32701
定	-8.32802
ザ	-8.33168
中国	-8.33403
安	-8.33488
あ	-8.33629
船	-8.3385
▁また	-8.33898
人の	-8.33965
例	-8.34264
スト	-8.34317
成	-8.34339
国際	-8.34415
事業	-8.35294
期	-8.35379
もある	-8.35448
バー	-8.3553
科	-8.35857
カー	-8.3595
有	-8.36241
橋	-8.36625
頭	-8.3714
れ	-8.37171
社会	-8.37263
ック	-8.37422
ケ	-8.37724
音楽	-8.38045
ット	-8.38345
現在の	-8.38393
っている	-8.385
屋	-8.38506
すると	-8.38854
明治	-8.38974
こ	-8.39231
教	-8.39526
教育	-8.39585
0	-8.39658
着	-8.39871
からの	-8.39942
ず	-8.3995
番	-8.4048
ピ	-8.40782
門	-8.40941
されていた	-8.41218
自	-8.41322
、『	-8.41755
え	-8.42257
i	-8.42307
そして	-8.4293
初	-8.43007
アル	-8.43397
知	-8.43428
動	-8.43558
四	-8.43652
区間	-8.43663
とされる	-8.43707
23	-8.43712
次	-8.43953
編成	-8.44204
武	-8.44409
といった	-8.44512
記	-8.44613
文化	-8.44703
ヒ	-8.44706
総	-8.44814
ー	-8.44844
に対する	-8.44845
対	-8.44872
電	-8.45033
んだ	-8.4506
22	-8.45228
中央	-8.45302
学校	-8.45314
40	-8.45415
いる	-8.45445
時代	-8.45512
井	-8.45565
谷	-8.45669
歌	-8.45836
だが	-8.45911
ic	-8.45941
としては	-8.46029
合	-8.46351
実	-8.46358
または	-8.46453
ソ	-8.46491
ロー	-8.46501
構造	-8.46582
ドイツ	-8.46944
ヤ	-8.47099
100	-8.47155
j	-8.47202
美	-8.47411
運動	-8.47464
相	-8.47494
当時の	-8.47526
古	-8.47831
ベ	-8.47888
朝	-8.47916
システム	-8.47933
ター	-8.48287
表	-8.48287
場合	-8.48322
シリーズ	-8.48433
ポ	-8.48501
つの	-8.48622
県	-8.48747
年から	-8.49059
とした	-8.4906
とともに	-8.49335
なかった	-8.49564
品	-8.49888
む	-8.50172
条	-8.50208
類	-8.50274
コン	-8.5036
を行う	-8.50478
民	-8.50499
列車	-8.50549
サン	-8.50646
量	-8.51031
28	-8.51146
情報	-8.51226
ではなく	-8.51268
年度	-8.51421
&	-8.51556
院	-8.51711
先	-8.51751
ち	-8.51799
空	-8.51833
ように	-8.52094
フランス	-8.52247
賞	-8.52472
党	-8.52636
々	-8.52654
松	-8.5279
事件	-8.52825
及び	-8.53057
尾	-8.53159
兵	-8.53188
使用	-8.53413
27	-8.53668
大阪	-8.53979
わ	-8.5405
会社	-8.54955
経済	-8.55153
後の	-8.55153
26	-8.55245
o	-8.55458
室	-8.55612
ほか	-8.55632
花	-8.56056
があった	-8.56067
当	-8.56119
すること	-8.56185
試合	-8.56189
これ	-8.56358
技術	-8.56378
円	-8.56424
母	-8.56425
食	-8.56697
店	-8.56902
ほど	-8.5692
文字	-8.56985
非	-8.57025
省	-8.57141
真	-8.5758
再	-8.57857
字	-8.58074
ことを	-8.58211
状態	-8.583
隊	-8.58316
日の	-8.58434
施設	-8.58669
管理	-8.58719
以降	-8.58843
五	-8.59293
ゴ	-8.59303
機能	-8.59534
イギリス	-8.59616
においては	-8.59867
清	-8.59909
シュ	-8.60084
治	-8.6015
側	-8.60199
プロ	-8.60283
ラン	-8.60305
親	-8.60588
開	-8.61757
リン	-8.61862
久	-8.61906
身	-8.62155
主義	-8.6229
業	-8.62309
攻撃	-8.62753
29	-8.62765
に関する	-8.62805
館	-8.63053
ことが	-8.63075
記録	-8.63293
)」	-8.63319
国家	-8.63396
ワ	-8.63539
他	-8.63558
ホ	-8.63603
反	-8.63714
年間	-8.63823
▁"	-8.64043
領	-8.64139
組織	-8.64433
土	-8.64781
▁概要	-8.65109
ギ	-8.65345
江	-8.65347
女	-8.65466
星	-8.65736
女性	-8.65866
製	-8.66009
組	-8.66123
米	-8.66125
熱	-8.66215
ること	-8.66294
今	-8.66374
だけ	-8.664
艦	-8.66622
死	-8.66719
レン	-8.66804
道路	-8.66983
同じ	-8.67004
半	-8.67019
時に	-8.6712
広	-8.67153
カード	-8.67321
アー	-8.67353
運転	-8.67421
させる	-8.67578
グループ	-8.67945
地区	-8.67952
よりも	-8.68154
販売	-8.68522
られる	-8.68878
宗	-8.6902
増	-8.69045
値	-8.69364
天皇	-8.69367
銀行	-8.6941
選手	-8.69501
愛	-8.6953
職	-8.69559
のため	-8.69664
ものの	-8.70111
器	-8.70117
政治	-8.70203
質	-8.70206
のうち	-8.70288
ダー	-8.70453
31	-8.70536
座	-8.70664
沢	-8.70723
通り	-8.70847
チーム	-8.71073
っていた	-8.71139
なく	-8.71169
機関	-8.71177
交通	-8.71178
60	-8.71299
群	-8.71388
制作	-8.71411
御	-8.71489
大きな	-8.71601
全国	-8.71992
生活	-8.72016
トン	-8.72062
u	-8.7212
させた	-8.72388
一般	-8.72551
のように	-8.7262
▁なお	-8.72758
にて	-8.72969
le	-8.73089
あるいは	-8.73245
歳	-8.73846
赤	-8.74356
根	-8.7448
波	-8.74516
80	-8.74614
されており	-8.74618
よ	-8.7465
方式	-8.74736
津	-8.74874
け	-8.74902
足	-8.74917
感	-8.75311
楽	-8.75386
これらの	-8.75433
丸	-8.75722
を受け	-8.75956
を含む	-8.76183
鉄	-8.76482
上の	-8.76507
図	-8.76913
ために	-8.77217
岩	-8.77279
ば	-8.77284
黒	-8.77542
一部	-8.77596
と共に	-8.77619
異	-8.77667
伝	-8.77716
_	-8.77763
生産	-8.77881
のような	-8.77911
諸	-8.78029
シー	-8.78035
利用	-8.78126
関	-8.78198
言語	-8.7859
方法	-8.78602
調	-8.78612
っ	-8.78706
制度	-8.79002
巻	-8.79071
吉	-8.79115
一方	-8.79242
せ	-8.79285
マー	-8.79291
史	-8.79369
運用	-8.79527
八	-8.7972
連	-8.79779
政府	-8.79925
ナー	-8.80025
大会	-8.80079
リーグ	-8.80081
監督	-8.80248
都	-8.80274
達	-8.80322
葉	-8.80378
世紀	-8.80639
独立	-8.80655
タイ	-8.80724
しない	-8.80772
そのため	-8.8081
対応	-8.8097
英	-8.80993
政権	-8.81063
進	-8.81082
ものである	-8.8127
産	-8.81296
カル	-8.81587
利	-8.81655
集	-8.81864
火	-8.82025
基	-8.82115
評価	-8.82391
などが	-8.8241
へと	-8.82451
ような	-8.82745
羽	-8.82846
員	-8.8297
z	-8.8319
層	-8.83568
パー	-8.83919
状況	-8.8411
の一部	-8.84115
運行	-8.84365
それぞれ	-8.84535
線の	-8.84584
したが	-8.84819
付	-8.84823
サービス	-8.84828
'	-8.84872
企業	-8.84941
港	-8.85062
師	-8.85266
越	-8.85304
in	-8.85357
発売	-8.85396
ね	-8.85479
日から	-8.85506
部分	-8.8592
変	-8.86121
残	-8.86155
転	-8.86187
ところ	-8.86309
ぶ	-8.86819
永	-8.86821
案	-8.86865
悪	-8.86895
させ	-8.87099
族	-8.87114
決定	-8.87158
来	-8.87265
級	-8.87332
京都	-8.87336
ペ	-8.87342
病	-8.87389
年代	-8.87491
団	-8.87538
輸送	-8.876
シャ	-8.87655
言	-8.87678
藩	-8.87808
us	-8.87831
ヴィ	-8.87879
ソン	-8.87905
以上	-8.87939
表現	-8.87967
自然	-8.8808
夫	-8.88086
ながら	-8.88113
角	-8.88174
聖	-8.88355
スター	-8.8845
モデル	-8.88463
環境	-8.88723
取り	-8.88794
岡	-8.88836
人口	-8.88845
素	-8.88897
男	-8.889
加	-8.88926
などで	-8.88946
変更	-8.89001
良	-8.89127
のために	-8.89246
最	-8.89248
工事	-8.89336
現在	-8.89433
ヨーロッパ	-8.89441
を行った	-8.8949
ことで	-8.89552
ファン	-8.89589
であったが	-8.89609
関連	-8.89881
ひ	-8.89893
られ	-8.89926
されて	-8.8998
リング	-8.89989
十	-8.9007
人間	-8.90209
翌	-8.90461
在	-8.9062
様々な	-8.90625
ハイ	-8.90807
千	-8.90825
データ	-8.90855
よう	-8.90871
階	-8.9115
いて	-8.91275
建設	-8.91286
強	-8.91319
これを	-8.91471
士	-8.9148
人物	-8.91636
部隊	-8.91693
航空	-8.91731
スポーツ	-8.91885
界	-8.92018
日には	-8.92049
例えば	-8.92084
父	-8.92121
弾	-8.92182
ぎ	-8.92294
砲	-8.92383
路	-8.92426
選	-8.9248
命	-8.92582
の中で	-8.92584
自動車	-8.92629
太	-8.92724
び	-8.92725
al	-8.92731
at	-8.92957
月には	-8.92976
方面	-8.93034
開始	-8.93095
球	-8.93147
人が	-8.93233
▁『	-8.93333
経	-8.93336
分類	-8.93349
製造	-8.93498
としての	-8.93707
画	-8.9374
形式	-8.93807
乗	-8.93925
カン	-8.94
雄	-8.9402
横	-8.94046
ロシア	-8.94057
敵	-8.9414
表示	-8.9428
林	-8.94451
産業	-8.94568
re	-8.9469
調査	-8.94867
エンジン	-8.94895
大統領	-8.95016
速	-8.95064
経営	-8.95095
第一	-8.95181
できない	-8.95211
中に	-8.95453
ジャ	-8.95715
ラジオ	-8.95734
節	-8.95827
主に	-8.95869
ビル	-8.9588
京	-8.95977
低	-8.96037
春	-8.96057
ヘ	-8.96222
委員会	-8.9626
電子	-8.96332
校	-8.96381
薬	-8.96533
批判	-8.96665
中の	-8.9677
特別	-8.96859
紙	-8.97099
70	-8.97512
向	-8.97697
cm	-8.9783
席	-8.97944
ベル	-8.9797
になっている	-8.98046
が多い	-8.98133
シーズン	-8.9817
リア	-8.98381
配	-8.98407
装置	-8.98748
造	-8.98772
工業	-8.98916
de	-8.98992
藤	-8.99099
ローマ	-8.99117
ニー	-8.99181
〜	-8.99243
率	-8.99343
極	-8.99365
インド	-8.9947
ヌ	-8.99586
ゲ	-8.99601
当駅	-8.99656
英語	-8.99738
ール	-8.99757
を受けた	-8.99982
任	-9.00053
保	-9.00186
戸	-9.00466
走	-9.00483
夜	-9.00556
センター	-9.00625
宇宙	-9.0063
ファ	-9.0078
国民	-9.00844
何	-9.00897
者の	-9.00946
優勝	-9.00965
未	-9.00984
理	-9.00996
直接	-9.01403
超	-9.01444
再び	-9.0147
森	-9.01492
しか	-9.01607
特急	-9.01627
エル	-9.01629
エン	-9.01751
としている	-9.01799
場所	-9.01839
設置	-9.0195
務	-9.02024
!	-9.02025
であるが	-9.0223
最も	-9.02237
解	-9.02281
アニメ	-9.02291
出演	-9.02324
▁歴史	-9.02369
常	-9.02386
板	-9.02403
小説	-9.02409
属	-9.02526
表記	-9.02606
漫画	-9.02654
からは	-9.02663
とし	-9.02667
声	-9.02702
本線	-9.03138
条件	-9.03322
北海道	-9.03354
られている	-9.03405
タン	-9.03461
内の	-9.0348
格	-9.03601
祭	-9.03842
結果	-9.03928
程度	-9.03948
が多く	-9.03951
帯	-9.0396
ると	-9.03989
ロン	-9.04235
私	-9.04256
差	-9.04265
観	-9.04289
草	-9.04426
ではない	-9.04454
政策	-9.04514
st	-9.04634
満	-9.04888
km	-9.0504
→	-9.05053
便	-9.05106
廃止	-9.05222
豊	-9.05268
忠	-9.0562
以外の	-9.05841
比	-9.05863
河	-9.05912
▁m	-9.06084
最高	-9.06268
計	-9.06411
渡	-9.06457
源	-9.06534
契約	-9.06603
議会	-9.06623
オー	-9.06923
]]	-9.06935
さん	-9.06945
血	-9.06985
人気	-9.07012
ッド	-9.07064
こともある	-9.07141
海軍	-9.07157
のある	-9.0716
代表	-9.07211
▁この	-9.07213
意	-9.07268
帝国	-9.07334
などを	-9.07344
志	-9.07371
ネット	-9.07518
予定	-9.07524
視	-9.07536
ライ	-9.07589
90	-9.07769
前に	-9.0803
効果	-9.08232
フィ	-9.08254
必要	-9.08294
理論	-9.08376
によると	-9.08391
2000	-9.08419
is	-9.08486
客	-9.08505
初めて	-9.08543
パン	-9.08554
ra	-9.08586
サー	-9.08591
秀	-9.08728
遠	-9.08774
妻	-9.08774
なる	-9.0878
通信	-9.08849
開催	-9.08868
イタリア	-9.08906
税	-9.08994
設定	-9.08994
浜	-9.09007
er	-9.09079
たち	-9.09164
営業	-9.09261
断	-9.09478
作戦	-9.09547
系統	-9.09721
東京都	-9.09791
守	-9.09948
になり	-9.10172
周辺	-9.10173
35	-9.10193
an	-9.10218
最初の	-9.10258
▁of	-9.10291
副	-9.10333
と呼ぶ	-9.10416
庁	-9.10417
湖	-9.10452
訳	-9.10468
団体	-9.10521
ていない	-9.10526
マル	-9.10694
段	-9.10751
徳	-9.10782
によれば	-9.10827
仏	-9.10845
連続	-9.10879
モン	-9.10906
に伴い	-9.10963
込み	-9.11023
ma	-9.11048
ビー	-9.11052
ふ	-9.11073
番号	-9.11314
地球	-9.1137
打	-9.11441
テン	-9.1146
500	-9.11576
急	-9.11586
交	-9.11622
能力	-9.11717
設計	-9.1172
ジュ	-9.11738
特	-9.11755
キャラクター	-9.11885
商	-9.11919
ジェ	-9.12045
高い	-9.12057
付け	-9.12113
場合は	-9.12171
ぐ	-9.12238
六	-9.12366
条約	-9.12372
lt	-9.12398
居	-9.12429
に対し	-9.12542
堂	-9.12543
目的	-9.12668
誌	-9.12852
ブル	-9.12921
左	-9.12952
落	-9.12978
を中心に	-9.13015
青	-9.13088
取	-9.13217
個人	-9.1335
ようになった	-9.13456
以下の	-9.13457
民族	-9.13489
月から	-9.13519
ガー	-9.13529
家の	-9.13544
用の	-9.13587
統一	-9.13616
以下	-9.1372
域	-9.13723
額	-9.13728
列	-9.13863
教会	-9.13929
退	-9.13931
里	-9.13996
ta	-9.14029
七	-9.14053
上で	-9.14098
近	-9.14148
当初は	-9.14187
帝	-9.14256
味	-9.14259
開業	-9.14303
国道	-9.14331
レイ	-9.14359
協会	-9.14464
距離	-9.14518
gt	-9.14583
そう	-9.14707
勢	-9.14746
時の	-9.14818
軽	-9.14896
紀	-9.14909
時代の	-9.15012
総合	-9.15177
よく	-9.15256
保護	-9.1543
之	-9.15436
そ	-9.15462
万人	-9.15551
ことがある	-9.15577
ゼ	-9.15631
送	-9.15719
現代	-9.15765
改造	-9.15783
チャ	-9.15799
しい	-9.16002
にあった	-9.16006
核	-9.16118
全体	-9.16155
あり	-9.1617
内容	-9.16224
もあり	-9.1627
指定	-9.16301
終了	-9.16312
頼	-9.16468
200	-9.16488
体制	-9.16547
th	-9.16553
定義	-9.16554
移動	-9.16573
店舗	-9.1663
減	-9.16657
ほぼ	-9.16869
単位	-9.16885
戦闘	-9.16908
像	-9.16965
等の	-9.16983
クラブ	-9.17019
ユ	-9.17133
一部の	-9.1715
試験	-9.17284
受	-9.17385
フェ	-9.17405
初期	-9.17431
単	-9.17441
工	-9.17458
国内	-9.17503
右	-9.17607
首	-9.17793
ハン	-9.17833
45	-9.18004
デザイン	-9.18188
～	-9.18245
期間	-9.18256
発行	-9.18379
留	-9.18512
塩	-9.18554
運営	-9.18643
公開	-9.18728
使	-9.1885
宗教	-9.18892
崎	-9.18905
速度	-9.18971
夏	-9.19074
行為	-9.19138
現在は	-9.19231
修	-9.19277
形態	-9.19301
老	-9.19361
れば	-9.19416
王国	-9.19431
整備	-9.19459
望	-9.19523
かった	-9.19549
までの	-9.19633
細胞	-9.19662
蔵	-9.19686
it	-9.19725
シン	-9.1982
を経て	-9.19842
動物	-9.19872
ch	-9.20021
ライン	-9.20039
周	-9.20046
ろ	-9.20065
鳥	-9.201
系の	-9.20141
日本語	-9.20209
共	-9.20237
両編成	-9.20276
てきた	-9.20288
秋	-9.20326
歴史	-9.20454
にかけて	-9.20709
行動	-9.20775
者が	-9.20842
異なる	-9.20849
ことは	-9.20868
と同じ	-9.20897
対象	-9.20923
公園	-9.20934
管	-9.20981
ご	-9.20985
漢	-9.21008
多く	-9.21065
圏	-9.21069
製品	-9.21145
間の	-9.21166
合併	-9.21211
os	-9.21227
ーン	-9.21266
街	-9.21267
48	-9.21268
園	-9.21404
霊	-9.21596
陣	-9.2161
処理	-9.2169
標準	-9.21779
支援	-9.21864
変化	-9.21982
演奏	-9.22056
裏	-9.22063
名古屋	-9.22171
構成	-9.22185
が行われた	-9.22196
ガン	-9.22319
方向	-9.22361
以上の	-9.22371
se	-9.22512
こう	-9.22542
項	-9.22553
とされている	-9.22663
te	-9.22743
行き	-9.22796
するため	-9.22818
従	-9.22833
能	-9.22931
ニュース	-9.22954
かつて	-9.23073
電気	-9.23139
とき	-9.23276
新しい	-9.23354
市の	-9.23431
新聞	-9.23518
思想	-9.23524
倍	-9.23579
企画	-9.23756
学生	-9.2383
特徴	-9.23989
好	-9.24052
会議	-9.24054
酸	-9.24062
所属	-9.24184
服	-9.24272
▁s	-9.24306
スタ	-9.24363
空港	-9.24363
皇帝	-9.24395
レス	-9.24436
物語	-9.24485
ドル	-9.24552
科学	-9.24734
名称	-9.24751
佐	-9.24809
時期	-9.24896
割	-9.24961
を指す	-9.25008
行政	-9.25009
玉	-9.25063
を行い	-9.25159
工場	-9.2525
引	-9.25313
大正	-9.25373
エネルギー	-9.2538
革命	-9.25387
銀	-9.25391
肉	-9.25397
00	-9.25498
バル	-9.25594
採用	-9.25633
切り	-9.25679
難	-9.25698
レー	-9.25704
サイ	-9.25776
製作	-9.25808
ルー	-9.25974
自由	-9.25986
選挙	-9.26066
国の	-9.26077
していたが	-9.26088
章	-9.26101
一方で	-9.2615
制御	-9.26181
福	-9.26304
このような	-9.26365
最大	-9.26386
[[	-9.26556
このため	-9.26674
市場	-9.2678
枠	-9.26824
密	-9.26827
大型	-9.26863
洋	-9.26933
破	-9.27093
空間	-9.27099
以後	-9.27103
株式会社	-9.27151
参加	-9.27188
学者	-9.27252
el	-9.27296
デビュー	-9.2732
端	-9.27321
彼は	-9.27335
連絡	-9.27628
張	-9.27812
共同	-9.27979
輪	-9.27997
坂	-9.28112
枚	-9.28117
ど	-9.28149
これら	-9.2815
発表	-9.2818
陸軍	-9.28197
向け	-9.28251
東日本	-9.28378
▁a	-9.28406
料理	-9.28431
to	-9.28493
アイ	-9.28618
入り	-9.28622
実験	-9.28828
専用	-9.28876
普通	-9.29009
の一つ	-9.2907
ランド	-9.29282
文学	-9.29304
末	-9.29444
韓国	-9.29444
費	-9.2953
状	-9.29591
no	-9.29596
以来	-9.29693
作家	-9.29841
存在	-9.29916
売	-9.29985
内に	-9.30038
拡大	-9.30043
遊	-9.30138
規定	-9.30213
広く	-9.30246
観光	-9.30323
浦	-9.30363
ことが多い	-9.30378
化学	-9.30577
起	-9.30646
展開	-9.30742
軸	-9.30749
岸	-9.30807
報	-9.30897
たい	-9.30988
基準	-9.31069
なら	-9.31073
ニア	-9.31109
若	-9.31144
の場合	-9.31197
酒	-9.31398
38	-9.31521
トリ	-9.31572
第二	-9.3159
宿	-9.31625
業務	-9.31628
重要な	-9.31749
九州	-9.31907
内で	-9.31907
結	-9.3199
」、「	-9.32
ジョン	-9.32018
細	-9.32117
提供	-9.32155
ヴァ	-9.32199
出場	-9.32222
勢力	-9.32241
乱	-9.32263
太郎	-9.32283
などに	-9.32289
制限	-9.32326
具	-9.3233
ing	-9.32331
油	-9.32351
32	-9.32438
離	-9.3264
コー	-9.32741
応	-9.32767
個	-9.3291
廃	-9.32928
されていない	-9.3295
者は	-9.32991
なり	-9.33009
逆	-9.33022
ro	-9.33094
彼の	-9.33124
北部	-9.33207
が存在する	-9.33208
放	-9.33239
富	-9.33266
百	-9.33356
立ち	-9.33366
キー	-9.33454
植物	-9.3349
メートル	-9.33586
接続	-9.33603
反対	-9.33652
影響	-9.33751
")	-9.33778
55	-9.33988
跡	-9.33993
位置	-9.34003
軍事	-9.34042
陸	-9.34047
を参照	-9.34066
幸	-9.34118
連載	-9.3412
住民	-9.34162
年まで	-9.34201
共通	-9.34227
数は	-9.34314
』『	-9.34365
府	-9.3439
キャ	-9.3442
かつ	-9.34515
布	-9.34646
朝鮮	-9.34648
公式	-9.34677
ていたが	-9.34686
おり	-9.34761
引き	-9.34764
反応	-9.34765
令	-9.34946
協力	-9.34967
-1	-9.35015
骨	-9.3506
説明	-9.35093
配置	-9.35129
mm	-9.3515
中継	-9.35333
するために	-9.35361
事故	-9.35407
するなど	-9.35408
精	-9.35421
商品	-9.35448
交換	-9.35519
自ら	-9.35565
の大	-9.35593
amp	-9.35596
nhk	-9.35645
改	-9.35734
野球	-9.35741
を受けて	-9.35814
出し	-9.35869
相手	-9.35956
300	-9.35962
サッカー	-9.35982
the	-9.36211
メーカー	-9.36216
la	-9.36251
共和国	-9.36404
記念	-9.36418
スーパー	-9.36424
▁しかし	-9.36533
前の	-9.36661
コンピュータ	-9.36699
急行	-9.36815
陽	-9.36846
生まれ	-9.36881
追	-9.36889
したり	-9.36917
営	-9.36971
増加	-9.37054
せず	-9.37121
sa	-9.37201
深	-9.37207
or	-9.37263
軍の	-9.37289
片	-9.37291
36	-9.37319
要素	-9.37412
ックス	-9.37423
幅	-9.37632
持ち	-9.377
地下	-9.37715
示	-9.3772
指摘	-9.37734
することで	-9.37921
頃	-9.37925
大陸	-9.37933
搭載	-9.37955
助	-9.37967
興	-9.38019
竹	-9.38034
me	-9.3809
ウス	-9.38095
バン	-9.38117
撮影	-9.3816
南部	-9.3816
どう	-9.38171
参	-9.3823
市民	-9.38243
導入	-9.3825
軌道	-9.38318
on	-9.38326
出版	-9.38341
レース	-9.38373
クロ	-9.38424
ガス	-9.3851
農	-9.3855
要	-9.38574
絵	-9.38719
セル	-9.38789
こうした	-9.38864
駅間	-9.389
ソ連	-9.38986
たが	-9.38991
チェ	-9.39043
形で	-9.39121
防	-9.3919
▁日本	-9.39198
ザー	-9.39246
内閣	-9.39268
持	-9.3927
切	-9.39341
考え	-9.39348
積	-9.39411
初の	-9.39443
までは	-9.39529
基本	-9.39625
読	-9.39643
同時に	-9.39681
装	-9.39819
全て	-9.39864
大臣	-9.39901
ことができる	-9.39909
将軍	-9.39924
んで	-9.39977
雪	-9.39993
はない	-9.39999
+	-9.40069
37	-9.40221
毛	-9.40491
アメリカ合衆国	-9.40557
万円	-9.40566
トラ	-9.40752
兼	-9.40851
ロック	-9.40856
を取り	-9.40908
最後の	-9.4102
同盟	-9.41024
していない	-9.41082
料	-9.41118
それを	-9.41133
覚	-9.41171
生物	-9.41293
情	-9.41296
敗	-9.41331
日まで	-9.41331
瀬	-9.41335
勝利	-9.41336
失	-9.41411
ri	-9.41433
歩	-9.41441
においても	-9.41588
可能性	-9.41595
雨	-9.41649
はこの	-9.41848
39	-9.41881
バンド	-9.42002
発生	-9.42047
少年	-9.42052
ジョ	-9.42199
アフリカ	-9.42267
九	-9.42462
スペイン	-9.42527
金属	-9.42555
駅舎	-9.42617
受け	-9.42637
子供	-9.42703
龍	-9.42726
首相	-9.42787
実施	-9.42862
q	-9.42883
術	-9.42897
支配	-9.42915
となっていた	-9.42951
書き	-9.42964
散	-9.42972
側の	-9.42997
報道	-9.43039
の一	-9.43132
ッチ	-9.43138
印	-9.432
改革	-9.43218
のもの	-9.43246
物質	-9.43251
射	-9.43332
番線	-9.43361
ed	-9.43484
自身の	-9.43527
宝	-9.43538
読み	-9.43548
映像	-9.43575
アルバム	-9.436
完成	-9.43623
フリー	-9.43701
対立	-9.43701
郷	-9.43751
したため	-9.4377
網	-9.43996
としても	-9.44036
題	-9.44048
内部	-9.44087
艦隊	-9.44119
まれ	-9.44123
冬	-9.44135
台湾	-9.44194
過	-9.44234
精神	-9.44305
関東	-9.44327
ノー	-9.44456
雑誌	-9.44573
これが	-9.44582
高速	-9.44625
発展	-9.44645
横浜	-9.44728
地上	-9.44742
順	-9.44888
圧	-9.4489
にとって	-9.4491
だったが	-9.4492
計算	-9.44925
殺	-9.44929
房	-9.45027
はその	-9.45049
機構	-9.45065
47	-9.45183
セン	-9.45252
登録	-9.45307
ヨ	-9.454
複数の	-9.45406
33	-9.45435
電車	-9.45457
機器	-9.45515
最終	-9.45529
早	-9.4553
司	-9.4553
接	-9.45608
を見	-9.45651
壁	-9.45661
際	-9.45688
帰	-9.45757
扱い	-9.45786
仕様	-9.45815
える	-9.45819
es	-9.45831
ダイ	-9.45944
経験	-9.46152
pa	-9.46179
諸国	-9.46213
を示す	-9.4628
”	-9.46369
孫	-9.46403
貨物	-9.46455
泉	-9.46657
賀	-9.46675
いわゆる	-9.46777
の戦い	-9.46806
土地	-9.46944
券	-9.46965
ad	-9.46978
国鉄	-9.47097
雲	-9.47106
次の	-9.47121
アップ	-9.47167
上に	-9.47252
祖	-9.47318
▁f	-9.47432
編	-9.47509
短	-9.47562
トル	-9.47678
様	-9.47692
ダン	-9.47739
略	-9.47804
設備	-9.47828
樹	-9.47834
江戸	-9.47889
障害	-9.47999
男性	-9.48116
番台	-9.48203
パリ	-9.48241
et	-9.48257
友	-9.48275
憲法	-9.48289
舞台	-9.483
になると	-9.48389
初代	-9.4843
記事	-9.48534
改正	-9.48541
名は	-9.48625
茶	-9.48643
強い	-9.48701
専門	-9.48713
を持ち	-9.4887
しばしば	-9.49008
クラ	-9.49046
件	-9.4909
マイ	-9.49099
可能	-9.49104
為	-9.49148
盛	-9.49203
言葉	-9.49279
発見	-9.49302
まず	-9.49313
一般に	-9.49374
あった	-9.49417
高校	-9.4943
ar	-9.49462
写真	-9.49551
関西	-9.49568
as	-9.49682
担当	-9.49703
ゆ	-9.49724
ヴ	-9.49765
高等学校	-9.49846
装備	-9.49977
罪	-9.50008
タイトル	-9.5007
そのまま	-9.50073
報告	-9.50243
えき	-9.50353
文書	-9.50393
暦	-9.50402
分野	-9.5046
平均	-9.50515
ドラマ	-9.50516
前後	-9.50547
連邦	-9.50567
香	-9.50659
1,	-9.50748
被	-9.50792
コード	-9.50844
以降は	-9.50868
弱	-9.50905
倉	-9.50915
ニュー	-9.50921
掲載	-9.50931
神戸	-9.51105
34	-9.51111
飛行	-9.51233
がない	-9.51266
設立	-9.51346
近代	-9.51376
後は	-9.51395
を開始した	-9.51397
ブラ	-9.51402
典	-9.51589
魚	-9.51635
ハー	-9.51674
詩	-9.51735
したもの	-9.51764
いずれも	-9.51786
75	-9.5191
アジア	-9.51916
備	-9.51976
恵	-9.52041
のための	-9.52045
▁b	-9.52047
思	-9.52051
64	-9.52113
すなわち	-9.52119
ざ	-9.52126
海外	-9.52131
拠点	-9.52133
人は	-9.52191
日本では	-9.5222
彦	-9.52306
脱	-9.52322
弁	-9.52355
58	-9.5252
が行われ	-9.52678
作業	-9.52693
車体	-9.52715
議	-9.52823
仁	-9.52921
新たな	-9.53027
もしくは	-9.53039
▁the	-9.53054
代目	-9.53091
彼	-9.5312
観測	-9.5316
lo	-9.53177
建築	-9.53209
デン	-9.53219
厚	-9.53282
もう	-9.53304
億	-9.53377
集団	-9.53396
mo	-9.53421
行われた	-9.53461
成功	-9.53468
弘	-9.53501
リスト	-9.53595
統合	-9.53599
#	-9.53735
にあたる	-9.53861
領域	-9.54069
将	-9.5411
われ	-9.54157
導	-9.54224
戻	-9.54236
べ	-9.54245
長い	-9.54277
称	-9.54369
市内	-9.54386
分離	-9.54437
キリスト教	-9.54565
交流	-9.54593
メイン	-9.5461
終	-9.5466
cd	-9.54682
意識	-9.54684
意味	-9.54711
ii	-9.54736
家族	-9.5474
学部	-9.5474
っており	-9.54758
翌年	-9.54764
兄	-9.54847
綱	-9.54855
現象	-9.54947
ms	-9.54959
君	-9.54978
そこで	-9.55053
警察	-9.5508
法律	-9.55196
矢	-9.55218
規格	-9.55271
剣	-9.55298
紀元前	-9.55376
“	-9.55377
降	-9.55396
養	-9.55518
si	-9.55557
イベント	-9.55632
種類	-9.55678
もので	-9.55831
オン	-9.55838
全ての	-9.5585
飛	-9.5598
禁止	-9.56036
景	-9.56179
ボン	-9.56187
湾	-9.56187
ドア	-9.5629
認識	-9.56317
シア	-9.56325
幕	-9.56367
神社	-9.56383
時には	-9.56563
症	-9.56598
メディア	-9.56612
確認	-9.56743
池	-9.56755
阪神	-9.56785
隆	-9.56861
破壊	-9.57038
縁	-9.57086
米国	-9.57108
非常に	-9.57188
日本人	-9.57283
ウィ	-9.57372
連合	-9.57458
トンネル	-9.57514
要求	-9.57538
したこと	-9.57603
幕府	-9.5763
部門	-9.57676
分子	-9.5769
結合	-9.57757
オス	-9.57787
延	-9.57802
ルート	-9.57874
と考えられている	-9.57878
休	-9.57927
に近い	-9.57969
ことになる	-9.57974
自分	-9.57977
のこと	-9.57978
出身	-9.58006
自分の	-9.58034
na	-9.58087
銃	-9.58185
結婚	-9.58233
の間に	-9.58296
沼	-9.58318
唐	-9.58383
西日本	-9.58439
古代	-9.58489
を結ぶ	-9.58595
を行っている	-9.58625
44	-9.58628
たり	-9.58747
寄	-9.58763
掛け	-9.58764
フォ	-9.58783
倒	-9.58816
最大の	-9.58846
の影響	-9.58852
給	-9.58879
法人	-9.58892
上げ	-9.58981
だけで	-9.58994
紹介	-9.59213
実現	-9.59328
クラス	-9.59365
通常	-9.59371
記述	-9.59388
49	-9.59407
バイ	-9.59434
時代に	-9.59464
化した	-9.59483
すべて	-9.59492
pc	-9.59545
li	-9.59565
グリ	-9.59663
技	-9.59669
広島	-9.59705
支持	-9.5972
評	-9.59722
▁km	-9.59778
指	-9.5984
振	-9.59858
延長	-9.59934
方針	-9.60032
でもある	-9.60061
医療	-9.60065
建	-9.60092
収録	-9.6012
を除く	-9.60129
げ	-9.60129
住	-9.60132
1990	-9.60245
決	-9.60245
関数	-9.60322
トロ	-9.60378
co	-9.60419
性能	-9.60448
返	-9.60451
86	-9.60494
機械	-9.6054
人々	-9.60558
フル	-9.60655
これにより	-9.60694
これに	-9.60818
▁その後	-9.60826
もあった	-9.60919
適	-9.60926
カラー	-9.6093
1000	-9.61015
材	-9.61037
すれば	-9.61054
付き	-9.61246
集合	-9.61303
児	-9.61324
新幹線	-9.61389
を意味する	-9.6149
改良	-9.61586
区別	-9.61628
投	-9.6163
出した	-9.61646
可	-9.61731
喜	-9.61746
だと	-9.61844
続く	-9.61935
原因	-9.61973
ho	-9.62027
ジャー	-9.62044
辺	-9.62064
46	-9.62107
アメリカの	-9.62263
メンバー	-9.62337
窓	-9.62375
遺	-9.62389
ソフト	-9.62391
選択	-9.62416
停止	-9.62486
策	-9.62581
解釈	-9.62587
プラ	-9.62612
築	-9.62624
プログラム	-9.62628
ベン	-9.62675
既に	-9.62686
ーズ	-9.6273
メン	-9.62732
▁g	-9.62751
電話	-9.62819
下り	-9.62846
善	-9.62872
ジー	-9.62887
理由	-9.62896
スク	-9.62908
命令	-9.62939
多数	-9.62988
競技	-9.63
ステ	-9.63102
中心	-9.63106
保存	-9.63201
違い	-9.63201
折	-9.63232
聞	-9.63268
にあり	-9.63285
となって	-9.63334
ぼ	-9.63413
43	-9.63415
病院	-9.63492
中で	-9.63514
快速	-9.63568
康	-9.63595
殿	-9.63603
富士	-9.63638
回転	-9.63665
56	-9.63681
億円	-9.63815
因	-9.63827
トー	-9.63861
傷	-9.63941
クス	-9.63947
をもって	-9.64033
bs	-9.64087
原子	-9.64109
ング	-9.64129
湯	-9.6416
65	-9.64183
場合もある	-9.64205
派の	-9.64211
宇	-9.6428
皮	-9.64334
指揮	-9.64353
基地	-9.64468
でき	-9.64624
らず	-9.64714
ブランド	-9.64739
筆	-9.64754
を通じて	-9.64789
作曲	-9.64845
境	-9.64854
駅前	-9.64855
当初	-9.64935
生き	-9.65152
防衛	-9.65196
統治	-9.65217
成長	-9.65268
顔	-9.65286
別の	-9.65343
ごとに	-9.65447
完全	-9.65451
2011	-9.65487
準	-9.65511
am	-9.65546
記載	-9.65553
ワー	-9.65591
太陽	-9.65614
注	-9.65639
系列	-9.65658
mi	-9.6577
害	-9.65843
甲	-9.65846
置	-9.65886
ur	-9.65974
機体	-9.6601
崩壊	-9.66018
ピー	-9.66066
芸	-9.66173
独	-9.66192
ほとんど	-9.66193
1989	-9.66211
に位置する	-9.66303
da	-9.66337
ケース	-9.66441
主な	-9.66462
護	-9.66483
ものは	-9.66511
▁駅構造	-9.66525
欠	-9.66539
静	-9.66586
従来の	-9.66597
新たに	-9.66644
ティー	-9.66657
民間	-9.6675
ップ	-9.66771
通称	-9.66811
まる	-9.66834
タイム	-9.66859
社長	-9.66908
緑	-9.66935
vi	-9.66974
姓	-9.67052
茂	-9.6707
操作	-9.67112
除	-9.67126
牛	-9.67171
ia	-9.67171
出力	-9.67172
床	-9.67174
ディー	-9.67218
グル	-9.67223
理解	-9.67281
芸術	-9.67325
強化	-9.67342
華	-9.67359
対策	-9.67379
ント	-9.67474
主張	-9.67477
とされ	-9.675
ps	-9.67581
sp	-9.67625
ライト	-9.6771
の名称	-9.67779
建物	-9.67793
初期の	-9.67828
バック	-9.67907
ss	-9.67921
になって	-9.67927
キン	-9.67939
88	-9.67971
ation	-9.6799
マーク	-9.68003
57	-9.68016
の研究	-9.68102
1993	-9.68192
ワン	-9.68253
クリ	-9.68398
戦後	-9.68444
54	-9.68445
ユダヤ人	-9.68496
宣言	-9.6853
氏の	-9.68546
グラ	-9.68585
スタジオ	-9.6859
購入	-9.68598
イル	-9.686
などがある	-9.68609
ようになる	-9.68628
補	-9.68719
59	-9.68766
発売された	-9.68766
資料	-9.688
〉	-9.68802
可能な	-9.68813
冠	-9.68826
〈	-9.68838
子の	-9.68865
剤	-9.68911
戦車	-9.68977
郎	-9.69043
タイプ	-9.69137
絶	-9.69162
抵抗	-9.69166
供給	-9.69262
▁de	-9.69314
完全に	-9.6935
塚	-9.69383
実際に	-9.69403
則	-9.69442
議員	-9.6956
トゥ	-9.69584
67	-9.69616
規制	-9.69635
しく	-9.69663
ボール	-9.69965
に関しては	-9.69987
相互	-9.69992
哲学	-9.70046
ッツ	-9.70058
隻	-9.70087
進出	-9.70154
温	-9.70162
実行	-9.70185
元年	-9.70221
狭	-9.70374
いている	-9.704
2020	-9.70407
を用いて	-9.70431
現在では	-9.7044
臣	-9.7046
77	-9.70487
ベース	-9.70501
江戸時代	-9.70526
余	-9.70535
礼	-9.70612
脳	-9.70612
のほか	-9.70618
を受ける	-9.70628
交渉	-9.70657
1980	-9.70699
つまり	-9.70706
こともあり	-9.70721
比較的	-9.70769
施行	-9.70915
移	-9.70961
検	-9.70982
旅客	-9.71008
ジン	-9.71034
分の	-9.71046
移籍	-9.71065
派遣	-9.71096
組み	-9.71178
証	-9.71256
上り	-9.71272
仕	-9.71351
研究所	-9.71431
ッシュ	-9.71497
トップ	-9.71548
ソー	-9.71555
だけでなく	-9.71581
行われ	-9.71648
するという	-9.71654
旗	-9.71668
貞	-9.71704
駒	-9.71723
会長	-9.71772
譲	-9.71793
楽器	-9.71794
西部	-9.71813
ろう	-9.71817
柄	-9.71831
治療	-9.71848
厳	-9.71868
伊	-9.7191
2012	-9.71943
小型	-9.71968
れる	-9.72009
価格	-9.72048
ガンダム	-9.72049
と同様に	-9.72059
平日	-9.72069
智	-9.72079
没	-9.72082
であるため	-9.72159
してきた	-9.72183
抗	-9.72195
ネットワーク	-9.72201
独自の	-9.7221
卒業	-9.72258
算	-9.72314
農業	-9.72316
商業	-9.72334
とその	-9.72398
合成	-9.72402
スキー	-9.72471
されたが	-9.72496
際に	-9.72536
更に	-9.72567
更新	-9.72609
自動	-9.72678
死去	-9.72685
奥	-9.72745
容	-9.72825
同一	-9.72837
形状	-9.72865
デジタル	-9.72891
傾向	-9.72905
です	-9.72935
の歴史	-9.72962
普及	-9.72995
落ち	-9.73003
改善	-9.73033
)3	-9.73052
を務めた	-9.73091
駅から	-9.73099
一覧	-9.73172
85	-9.73294
球団	-9.73397
登	-9.73435
不足	-9.7347
il	-9.73535
価	-9.73551
ブリ	-9.73572
なくなった	-9.73689
にして	-9.73711
通過	-9.73716
間に	-9.73775
第三	-9.73816
することができる	-9.73835
400	-9.73897
気候	-9.74006
阿	-9.74013
栽培	-9.74036
un	-9.74043
温泉	-9.74052
小学校	-9.74118
多数の	-9.7412
この時	-9.74157
世の	-9.74287
維持	-9.74314
被害	-9.74352
600	-9.74427
ものが	-9.74446
劇	-9.74472
についても	-9.74524
当時は	-9.74531
▁※	-9.74549
側に	-9.74564
固定	-9.74636
ともに	-9.74653
ゾ	-9.74656
議論	-9.74668
ne	-9.74758
を有する	-9.7478
衆	-9.74848
果	-9.74866
西側	-9.74872
も多い	-9.74879
皇	-9.74907
2010	-9.74911
砂	-9.74959
ぬ	-9.75039
資金	-9.75143
案内	-9.75151
入れ	-9.75173
ことに	-9.75197
翼	-9.75218
納	-9.75287
空気	-9.75309
線路	-9.75388
の場合は	-9.7539
すべての	-9.75406
1988	-9.75427
ca	-9.75506
取引	-9.75578
エア	-9.75656
合い	-9.75674
刀	-9.75706
続	-9.75725
意見	-9.75761
あまり	-9.75783
毎年	-9.75819
南北	-9.75897
ドリ	-9.75912
背	-9.75921
ミン	-9.75952
栄	-9.7596
なった	-9.76074
アス	-9.76136
手法	-9.76137
千葉	-9.76175
とされた	-9.76244
コーナー	-9.76252
型の	-9.76257
労働	-9.76263
収	-9.76297
健	-9.76299
介	-9.76313
1997	-9.76365
秒	-9.76365
安定	-9.76389
タル	-9.7639
となっており	-9.76436
の中心	-9.76457
ph	-9.76468
ロス	-9.76576
クト	-9.76586
デー	-9.76597
0%	-9.7662
途中	-9.76646
配信	-9.76654
テーマ	-9.76733
フォー	-9.76774
セット	-9.76775
半島	-9.76814
1950	-9.76816
国立	-9.76857
支	-9.7687
める	-9.76878
慶	-9.76929
の間	-9.76935
竜	-9.76954
ノン	-9.76959
逆に	-9.77003
ラス	-9.77009
振り	-9.77015
敬	-9.77031
海岸	-9.77054
まま	-9.77065
なっている	-9.77191
を表す	-9.77219
モー	-9.77225
仏教	-9.7724
中間	-9.77269
転換	-9.77272
に基づく	-9.77273
電力	-9.77475
兄弟	-9.77497
イオン	-9.77523
拡張	-9.7753
▁利用状況	-9.77552
の存在	-9.77577
中学校	-9.77587
800	-9.77621
純	-9.77679
その他の	-9.77713
2015	-9.77728
ロンドン	-9.7784
温度	-9.77859
本社	-9.77883
大きく	-9.77926
レベル	-9.77949
乗り	-9.77955
一人	-9.78052
42	-9.78076
99	-9.7809
登場	-9.78123
▁18	-9.78138
筋	-9.78179
潮	-9.7819
分布	-9.78217
66	-9.78218
教授	-9.78284
することを	-9.78343
1985	-9.78389
消	-9.78391
牧	-9.78392
ペン	-9.78394
62	-9.78417
のちに	-9.7844
一時	-9.78443
わずか	-9.78455
それら	-9.78467
部の	-9.7851
後期	-9.78518
do	-9.78583
東海	-9.78597
63	-9.78603
2019	-9.78682
に由来する	-9.7869
信仰	-9.7878
出す	-9.78824
氷	-9.78853
政党	-9.78895
劇場	-9.78912
習	-9.78971
1987	-9.78973
平和	-9.78974
引退	-9.78987
構想	-9.78998
▁in	-9.79015
▁e	-9.79035
ということ	-9.79099
止め	-9.79119
歯	-9.79261
事務所	-9.79263
確立	-9.79317
名の	-9.79318
が必要	-9.79335
tbs	-9.79344
ビデオ	-9.794
ドン	-9.79412
複数	-9.79413
ga	-9.79421
かつては	-9.79431
本人	-9.79456
黄	-9.79464
大和	-9.79506
ファー	-9.79538
化された	-9.79549
自治体	-9.79608
同じく	-9.79707
68	-9.79718
発着	-9.79734
記号	-9.79801
と述べている	-9.79832
軍は	-9.80035
ミー	-9.80043
までに	-9.80046
ここで	-9.80056
アナウンサー	-9.80066
ニューヨーク	-9.80088
と呼ばれ	-9.80108
po	-9.80205
臨時	-9.80224
課	-9.80237
ライブ	-9.80252
適用	-9.80257
旅	-9.803
犬	-9.80331
2014	-9.80338
重要	-9.8036
ことも	-9.8037
オリンピック	-9.80392
夢	-9.80393
近鉄	-9.80508
冷	-9.80582
ボー	-9.80627
航	-9.80665
すでに	-9.8067
込んだ	-9.80692
女子	-9.80713
背景	-9.80723
ただ	-9.80731
乳	-9.80737
漢字	-9.80755
毒	-9.80788
分割	-9.80789
地帯	-9.80795
駅で	-9.80804
競馬	-9.80841
始	-9.80863
投票	-9.80866
一度	-9.80872
低下	-9.80873
キハ	-9.8088
ものであった	-9.80905
往復	-9.80909
中世	-9.80948
候補	-9.80965
諸島	-9.8104
かれ	-9.81041
することが	-9.81045
2003	-9.8105
後も	-9.81074
本部	-9.81075
伊勢	-9.81081
("	-9.81143
ケー	-9.81192
今日	-9.81203
合わせ	-9.81259
判断	-9.8131
それは	-9.81323
流れ	-9.81335
成績	-9.81343
ge	-9.81398
ても	-9.81434
なし	-9.8146
go	-9.81512
原作	-9.81515
事実	-9.81549
されること	-9.81587
か月	-9.81595
球場	-9.81629
formula	-9.81658
検査	-9.8169
活躍	-9.81707
堀	-9.81711
イングランド	-9.81717
至	-9.81769
2013	-9.81904
いくつかの	-9.81936
エリア	-9.82
柱	-9.82001
1986	-9.82014
安全	-9.8209
自動車道	-9.82111
押し	-9.82112
の開発	-9.82119
いい	-9.82134
名を	-9.82172
テル	-9.82186
奉	-9.82197
本作	-9.82252
運	-9.82286
れた	-9.8229
停車	-9.82323
ダム	-9.82328
インターネット	-9.824
ba	-9.82496
アク	-9.82578
分析	-9.8259
作用	-9.82617
キング	-9.82618
中止	-9.82619
プロジェクト	-9.82669
シングル	-9.82736
その他	-9.82755
できた	-9.82766
1970	-9.82861
準備	-9.82868
灯	-9.8292
自己	-9.82989
起こ	-9.82997
多い	-9.83013
美術	-9.83056
経緯	-9.83074
行う	-9.83078
場合には	-9.83116
植民地	-9.83127
行った	-9.83145
用語	-9.83152
自治	-9.83172
付近	-9.8322
ルール	-9.83281
誕生	-9.83292
ポイント	-9.83298
継続	-9.83311
信号	-9.83312
2018	-9.83347
スタン	-9.83397
権力	-9.83412
日より	-9.83423
チャー	-9.83437
2016	-9.83447
ジャン	-9.83523
のか	-9.83547
卵	-9.83579
が設置されている	-9.83582
なければ	-9.8364
それまで	-9.83641
の第	-9.83675
▁その他	-9.83736
ラム	-9.83763
io	-9.83769
許	-9.8378
証明	-9.838
桜	-9.83803
まり	-9.83858
オランダ	-9.83909
令和	-9.83918
指導	-9.83933
さまざまな	-9.83936
なども	-9.83947
78	-9.83952
混	-9.8396
有効	-9.83987
ce	-9.84012
表面	-9.84037
ソフトウェア	-9.84039
迫	-9.84084
塔	-9.84106
区分	-9.8414
レコード	-9.84155
復活	-9.84174
乗り入れ	-9.84208
調整	-9.84304
の名	-9.84308
近く	-9.8431
が可能	-9.84318
燃料	-9.84336
いない	-9.84511
ns	-9.84525
イメージ	-9.84546
鶴	-9.84559
専	-9.8456
コース	-9.84567
料金	-9.84576
1996	-9.84587
2006	-9.84609
検討	-9.84611
提案	-9.84637
衛星	-9.84641
ter	-9.84674
主人公	-9.84696
段階	-9.84718
名前	-9.8472
すべき	-9.84763
98	-9.84872
かなり	-9.84921
しても	-9.84989
獲得	-9.85097
限定	-9.8515
式の	-9.8521
停留所	-9.85211
41	-9.85375
晴	-9.85382
シャー	-9.85432
線と	-9.85445
53	-9.85449
問	-9.85452
▁d	-9.85471
保険	-9.85489
力を	-9.85512
カメラ	-9.85513
るようになった	-9.85577
思い	-9.85579
隠	-9.85611
かな	-9.85628
東部	-9.85668
リオ	-9.85689
鋼	-9.85726
規模	-9.85741
らない	-9.85767
月まで	-9.85845
2021	-9.85849
世は	-9.85873
向上	-9.85884
外交	-9.85888
との関係	-9.85892
立て	-9.8591
エジプト	-9.85918
貴	-9.85934
目標	-9.85981
大規模な	-9.86003
的には	-9.86022
ます	-9.86061
滅	-9.86073
と言う	-9.86096
らが	-9.86097
を用いた	-9.86113
動き	-9.86179
ドゥ	-9.86224
連盟	-9.86228
俳優	-9.8629
西武	-9.86303
就任	-9.86318
旅行	-9.86335
裁判	-9.86397
ブレーキ	-9.86409
優	-9.86478
込む	-9.86523
オリジナル	-9.86572
腹	-9.86592
製の	-9.8665
結局	-9.86666
tv	-9.86668
続いて	-9.8671
貿易	-9.86721
リス	-9.86761
ビット	-9.86818
打ち	-9.86836
ac	-9.8684
従来	-9.86844
得	-9.86896
苦	-9.86901
追加	-9.86902
は約	-9.86959
ナン	-9.86966
舞	-9.86971
食品	-9.86996
許可	-9.87008
執筆	-9.87011
ちゃん	-9.87016
1984	-9.87028
これまで	-9.87033
遅れ	-9.87033
たちは	-9.87139
残り	-9.87173
各種	-9.87237
運賃	-9.87249
トラック	-9.87275
▁第	-9.87279
仮	-9.87314
侵攻	-9.87352
声優	-9.87428
と考えられる	-9.87497
づ	-9.87528
ずつ	-9.87535
ドー	-9.87574
2001	-9.87579
盤	-9.8759
程	-9.87604
責任	-9.87657
ホー	-9.87667
座席	-9.87728
つく	-9.87761
の中	-9.87794
の名前	-9.87795
79	-9.87853
世代	-9.87894
カラ	-9.88019
首都	-9.88104
2008	-9.88173
)|	-9.88185
姿	-9.88185
1994	-9.88194
テレ	-9.88204
回復	-9.88216
照	-9.88247
眼	-9.88299
ことにより	-9.88315
するもの	-9.88326
も多く	-9.88377
2007	-9.88444
突	-9.88503
移転	-9.88518
競走	-9.88572
特定の	-9.88637
ホテル	-9.88657
せん	-9.88657
スタイル	-9.88665
ケン	-9.88717
激	-9.8872
事業者	-9.88743
51	-9.88761
禁	-9.88839
環	-9.88846
しなかった	-9.8888
孝	-9.88905
良い	-9.88933
カイ	-9.88945
古典	-9.88994
id	-9.89008
地震	-9.89183
唯一の	-9.89261
たとえば	-9.89264
の間で	-9.8928
特定	-9.89293
上昇	-9.89344
あたり	-9.89379
×	-9.89418
規則	-9.89424
膜	-9.89438
医	-9.89469
に至る	-9.89501
貴族	-9.89515
バラ	-9.89532
仲	-9.89585
場合がある	-9.89587
クレ	-9.89619
2017	-9.89636
推進	-9.89678
性質	-9.89684
1991	-9.8971
兵器	-9.89764
強く	-9.89773
1995	-9.89798
イー	-9.89916
べき	-9.89936
概念	-9.9008
主要	-9.90202
焼	-9.90208
生まれた	-9.9027
輝	-9.90282
チュ	-9.90305
所有	-9.90313
アクセス	-9.90385
面積	-9.90432
ka	-9.90456
負	-9.90464
編集	-9.90524
ホール	-9.90526
快	-9.90548
犯罪	-9.90549
限	-9.90555
るため	-9.90678
通常の	-9.90696
▁p	-9.90742
sf	-9.90783
ものを	-9.90836
側面	-9.90847
国王	-9.90937
ルド	-9.90942
炎	-9.91017
成立	-9.9103
封	-9.91075
)4	-9.91094
日本で	-9.91103
少	-9.91157
解説	-9.91169
スペース	-9.9125
目の	-9.91315
録	-9.91321
価値	-9.91358
のみで	-9.91363
うち	-9.91368
ポート	-9.91372
走行	-9.91372
されていたが	-9.91373
5%	-9.91374
2002	-9.91407
期待	-9.9142
にもかかわらず	-9.91451
寄り	-9.91486
フォン	-9.915
銅	-9.91555
楽曲	-9.91621
下げ	-9.91639
ウェイ	-9.91691
向き	-9.91729
シーン	-9.91732
その後も	-9.91746
早く	-9.9177
反乱	-9.91778
61	-9.91807
をはじめ	-9.91807
年以降	-9.91827
低い	-9.91877
乗車	-9.919
度の	-9.91937
末期	-9.91961
復	-9.91971
カップ	-9.91981
李	-9.92022
著	-9.92082
2005	-9.92114
52	-9.92126
ていく	-9.92174
戦略	-9.92271
犯	-9.92281
-2	-9.92319
巡	-9.92323
四国	-9.92369
ダイヤ	-9.92399
と同時に	-9.92421
刊行	-9.92497
するための	-9.92542
粒子	-9.9255
ip	-9.92561
占領	-9.92564
丘	-9.92569
ときに	-9.92607
であること	-9.92611
長期	-9.92633
亀	-9.92656
受賞	-9.92693
に属する	-9.92695
亜	-9.92749
減少	-9.92767
それが	-9.92797
食べ	-9.92798
に出	-9.928
聴	-9.92854
イギリスの	-9.92923
レギュラー	-9.9297
やすい	-9.92971
』、『	-9.92979
宅	-9.93009
資格	-9.93023
談	-9.93193
伝説	-9.93195
の使用	-9.93244
酸化	-9.93267
に加え	-9.93331
範囲	-9.93346
んでいる	-9.9336
fm	-9.93399
2009	-9.93406
存在する	-9.93406
東西	-9.93513
エイ	-9.93528
2023	-9.93564
動作	-9.93564
航空機	-9.93607
事態	-9.93625
ゴー	-9.93634
脚	-9.93672
性を	-9.93692
東側	-9.93715
始め	-9.93802
やがて	-9.9389
階級	-9.93916
衣	-9.93941
荒	-9.93952
高速道路	-9.93955
雑	-9.93976
念	-9.93991
ファイル	-9.94018
られていた	-9.94043
させて	-9.94075
定期	-9.94119
始めた	-9.94122
ものであり	-9.94139
地下鉄	-9.94172
込まれ	-9.94186
元素	-9.94188
飯	-9.94231
以前の	-9.94232
弟	-9.94257
com	-9.94443
ウル	-9.94486
進行	-9.945
のない	-9.94547
州の	-9.9456
ver	-9.94573
遺伝子	-9.94583
性格	-9.9461
裁判所	-9.94615
露	-9.94617
挙	-9.94625
ol	-9.94633
スタッフ	-9.94673
シェ	-9.94719
刊	-9.94731
1992	-9.94787
駅の	-9.94789
危機	-9.94791
腕	-9.94843
するが	-9.94865
代わりに	-9.94924
ヴェ	-9.94942
撤退	-9.95064
しながら	-9.95089
失敗	-9.9509
原則	-9.95123
が行われる	-9.95158
由来	-9.95216
稲	-9.95221
神話	-9.95227
一般的な	-9.95237
ート	-9.95259
戦で	-9.95275
性の	-9.95323
を使って	-9.95327
▁w	-9.95367
それぞれの	-9.95435
博物館	-9.95485
オープン	-9.95496
ショー	-9.95524
解散	-9.95528
ネー	-9.95552
試	-9.95637
ウム	-9.95644
演	-9.95658
の結果	-9.95661
フレ	-9.95733
統計	-9.9576
史上	-9.958
柳	-9.95818
au	-9.95821
展示	-9.95826
時は	-9.95827
ジョージ	-9.95842
確保	-9.95858
以降の	-9.95919
ほ	-9.95925
執	-9.95955
作られた	-9.95988
輸入	-9.9604
のまま	-9.96055
否定	-9.96056
そのもの	-9.96086
廃止された	-9.96163
ザン	-9.96163
ていった	-9.96169
かり	-9.96173
1972	-9.96178
継承	-9.96263
95	-9.96265
闘	-9.96269
たもの	-9.96271
を得る	-9.96279
変換	-9.96308
替え	-9.96352
ck	-9.96373
ロード	-9.96376
スタジアム	-9.96391
2022	-9.96391
からも	-9.96391
クル	-9.96397
守護	-9.96427
以前は	-9.9643
チュー	-9.96479
▁st	-9.96481
述	-9.96525
ゲン	-9.96526
知識	-9.96544
時間帯	-9.96545
メモリ	-9.96593
医学	-9.96641
デル	-9.96689
2004	-9.96755
の際に	-9.96758
分岐	-9.9677
使用される	-9.96775
区域	-9.96781
写	-9.96782
に就任	-9.96825
年代に	-9.969
仙台	-9.96953
含まれ	-9.96992
閉	-9.96993
博	-9.97034
固	-9.9704
とう	-9.9714
よい	-9.97155
地元	-9.97165
伯	-9.97221
1982	-9.97228
比較	-9.97249
が増え	-9.97255
欧州	-9.97308
世紀の	-9.97336
電鉄	-9.97364
はほとんど	-9.97366
ha	-9.97375
用途	-9.97397
オーストリア	-9.97426
プル	-9.97434
たため	-9.97462
集中	-9.97483
生成	-9.97497
せる	-9.97504
義務	-9.9751
注意	-9.97516
菌	-9.97518
撃	-9.9753
大阪府	-9.97554
王朝	-9.97578
▁formula	-9.97612
協定	-9.97639
作成	-9.97663
ミニ	-9.97692
フジテレビ	-9.977
だろう	-9.97716
現実	-9.97837
クー	-9.97869
so	-9.97906
毎	-9.97953
枝	-9.97962
2,	-9.97973
もっとも	-9.98047
アメリカ軍	-9.98057
育	-9.98092
ポー	-9.98141
財政	-9.98169
潜	-9.98205
br	-9.98209
自身	-9.98248
メイ	-9.98263
クター	-9.98296
承認	-9.98308
形の	-9.98342
を使用する	-9.9836
辞	-9.98377
深夜	-9.98401
かん	-9.98421
就	-9.98443
からなる	-9.98461
ビン	-9.98486
創設	-9.98513
チン	-9.98514
想	-9.98536
危険	-9.98564
管轄	-9.98575
線が	-9.98591
体系	-9.98611
同様に	-9.98634
されない	-9.98688
魔	-9.98701
奏	-9.9871
ブー	-9.98722
関係者	-9.9873
健康	-9.98778
判	-9.98791
めた	-9.98843
に入り	-9.98862
保守	-9.98872
要請	-9.98897
windows	-9.98918
復帰	-9.98934
当たり	-9.98952
700	-9.98985
虫	-9.99017
種の	-9.99041
パス	-9.99045
死亡	-9.9911
墓	-9.99136
合計	-9.99145
の中に	-9.99153
シティ	-9.99181
pe	-9.99205
娘	-9.99229
後述	-9.99303
ーション	-9.99311
名が	-9.99342
ラル	-9.99345
を得	-9.99348
使われる	-9.99354
に関して	-9.99501
わない	-9.9952
ドラ	-9.99571
新宿	-9.99594
仕事	-9.99641
粉	-9.99789
次第に	-9.99855
東北	-9.99886
日本軍	-9.99889
河川	-9.99892
89	-9.99903
不明	-9.99921
扉	-9.99956
流行	-10.0001
駅まで	-10.0005
太平洋	-10.0006
発言	-10.0006
願	-10.001
前述の	-10.0013
ヶ	-10.0017
▁駅周辺	-10.0024
トリー	-10.0027
参照	-10.003
公演	-10.0032
認定	-10.0033
与	-10.0034
ユニット	-10.0039
街道	-10.0039
1983	-10.0043
はなく	-10.0052
抜	-10.0054
の関係	-10.0058
ニック	-10.0058
▁2010	-10.0062
ブルー	-10.0062
担	-10.0067
していった	-10.007
サイト	-10.0081
加盟	-10.0086
宣	-10.0086
主体	-10.009
1975	-10.0092
北側	-10.0094
並	-10.0095
家庭	-10.0095
man	-10.0096
薄	-10.0101
左右	-10.0101
外国	-10.0105
1978	-10.0113
チャンネル	-10.0113
主催	-10.0124
ユー	-10.0125
1945	-10.0126
暗	-10.0126
臨	-10.0127
!』	-10.0128
に伴う	-10.0131
強制	-10.0132
詳細は	-10.0133
新潟	-10.0135
を用いる	-10.0141
地に	-10.0142
尊	-10.0148
ゴール	-10.015
最初に	-10.0156
襲	-10.0161
su	-10.0164
プリ	-10.0166
爆	-10.0169
ものと	-10.0171
機の	-10.0173
うえ	-10.0176
する場合	-10.0182
これらは	-10.0182
共に	-10.0182
訓練	-10.0184
小さな	-10.0186
営業所	-10.0186
講	-10.0186
負担	-10.0192
カール	-10.0192
使用されている	-10.0193
が高い	-10.0195
立場	-10.0196
戦隊	-10.0197
を引き	-10.0199
幼	-10.0203
フランスの	-10.0212
免許	-10.0215
論文	-10.0216
広告	-10.022
整	-10.0222
歴代	-10.0229
処分	-10.023
採	-10.0234
主要な	-10.024
ドイツの	-10.0243
▁2000	-10.0244
資本	-10.0248
知事	-10.025
住宅	-10.025
使われている	-10.0257
底	-10.026
dvd	-10.026
であれば	-10.0263
絶対	-10.0263
利用者	-10.0264
杉	-10.0265
高等	-10.0266
再生	-10.0269
ni	-10.027
エー	-10.0271
我	-10.0275
ポリ	-10.0282
他に	-10.0282
徐々に	-10.0284
田中	-10.0285
リュ	-10.0288
フラ	-10.0289
略称	-10.029
180	-10.0293
も存在する	-10.03
とも呼ばれる	-10.03
1979	-10.03
形成	-10.0304
に変更	-10.0307
つけ	-10.0309
スタート	-10.031
山口	-10.031
タウン	-10.0314
を得た	-10.0315
ウン	-10.0315
の後	-10.0315
di	-10.0319
混乱	-10.0325
改札口	-10.0332
第二次世界大戦	-10.0335
と同	-10.034
ヒット	-10.0347
数字	-10.0347
両者	-10.0354
去	-10.0356
補助	-10.0356
単に	-10.0359
浮	-10.0359
人類	-10.0365
ぞ	-10.0366
居住	-10.0366
ti	-10.0366
博士	-10.0368
穴	-10.037
していく	-10.0373
1960	-10.0377
政治的	-10.0379
の作品	-10.0382
刑	-10.0382
実際には	-10.0383
知られている	-10.0384
双	-10.0384
87	-10.0385
庫	-10.039
箇所	-10.0392
の各	-10.0399
将棋	-10.0405
解決	-10.0408
プロ野球	-10.0411
例外	-10.0411
しょう	-10.0412
を超える	-10.0413
囲	-10.0413
行われる	-10.0417
成分	-10.0417
常に	-10.0422
の子	-10.0425
完	-10.0429
年齢	-10.0435
翻訳	-10.0436
1999	-10.0439
時点で	-10.0439
出身の	-10.0445
裁	-10.0447
1968	-10.0449
向けの	-10.0458
輸出	-10.0465
利益	-10.0465
材料	-10.0466
アナ	-10.0466
このとき	-10.0473
がいる	-10.0475
1973	-10.0477
ヴァン	-10.0479
鳴	-10.0481
影	-10.0482
通勤	-10.0486
この頃	-10.0487
特殊	-10.0487
使用された	-10.049
ネル	-10.0493
地名	-10.0494
優先	-10.05
消費	-10.0501
リリース	-10.0502
現地	-10.0512
まだ	-10.0513
▁一方	-10.0514
最初	-10.0517
労働者	-10.0518
取得	-10.0519
例として	-10.0519
呼称	-10.0529
シル	-10.0529
ヘル	-10.0536
エピソード	-10.0537
耐	-10.0543
社会主義	-10.055
ko	-10.0551
プレイ	-10.0551
継	-10.0551
に入	-10.0554
オル	-10.0564
fa	-10.0566
遺跡	-10.057
邦	-10.0572
自体	-10.0573
巨人	-10.0577
全く	-10.0578
偏	-10.0585
麻	-10.0588
こそ	-10.0589
日中	-10.0589
期の	-10.059
描	-10.0592
下の	-10.0595
150	-10.0595
試み	-10.0607
解放	-10.0609
元々	-10.0613
空母	-10.0619
のち	-10.062
ru	-10.0623
列車が	-10.0625
少ない	-10.0625
回り	-10.0628
弟子	-10.0633
を除き	-10.0635
金融	-10.0636
レッ	-10.0638
追い	-10.064
塁	-10.0642
なか	-10.0647
メル	-10.0647
1969	-10.065
測定	-10.0652
教え	-10.0656
トイレ	-10.0665
収入	-10.0665
▁k	-10.0669
ほう	-10.0671
文献	-10.0677
大学の	-10.0679
生命	-10.0685
沖縄	-10.0686
札幌	-10.0687
贈	-10.0687
功	-10.0688
ie	-10.0689
信長	-10.069
に入る	-10.0695
開通	-10.0698
▁2022	-10.07
律	-10.07
使用する	-10.0701
得点	-10.0703
率いる	-10.0708
相当	-10.0712
▁t	-10.0718
fc	-10.0719
)"	-10.0719
神経	-10.0721
需要	-10.0723
分裂	-10.0726
ブラジル	-10.0731
人を	-10.0732
の対象	-10.0733
不可能	-10.0736
依頼	-10.0736
を発表	-10.0737
勇	-10.0739
措置	-10.0742
憲	-10.0743
そのような	-10.0743
wa	-10.0743
鹿	-10.0744
民主党	-10.0744
数が	-10.0748
植	-10.0757
ポーランド	-10.0761
投手	-10.0762
長く	-10.0767
範	-10.077
それに	-10.077
南側	-10.0771
長官	-10.0776
▁re	-10.0776
にまで	-10.0779
ベルト	-10.0782
つか	-10.0783
益	-10.079
偽	-10.0794
の問題	-10.0794
およそ	-10.0795
連結	-10.0799
コスト	-10.0802
最終的に	-10.0807
極めて	-10.0807
サイズ	-10.0808
年代後半	-10.081
注目	-10.0813
陰	-10.0813
次元	-10.0814
コル	-10.0823
ストーリー	-10.0825
公共	-10.0826
見解	-10.0828
!」	-10.0828
69	-10.083
暴	-10.0831
することは	-10.0831
を求める	-10.0832
bc	-10.0835
ピアノ	-10.0835
オーストラリア	-10.0836
即	-10.084
効率	-10.0841
漁	-10.0849
残る	-10.0851
包	-10.0853
西洋	-10.0854
にわたって	-10.0854
防止	-10.0863
ばかり	-10.087
札	-10.0872
ワールド	-10.0877
バージョン	-10.0877
事情	-10.0878
巣	-10.0879
一番	-10.088
1981	-10.088
カナダ	-10.0884
に相当する	-10.089
キュ	-10.0892
されるようになった	-10.0893
、2010	-10.0895
旨	-10.0895
ウェ	-10.0896
ようになり	-10.0897
コール	-10.0899
原理	-10.0902
パーク	-10.0902
ることができる	-10.0908
季	-10.0909
少女	-10.091
かい	-10.0912
吉田	-10.0915
彼ら	-10.0915
湿	-10.092
姿勢	-10.0927
職員	-10.0928
逮捕	-10.0928
の手	-10.0935
ブルク	-10.0935
アリ	-10.0942
um	-10.0942
誘	-10.0943
1971	-10.0948
発足	-10.095
ボル	-10.0951
bo	-10.0951
呉	-10.0955
改修	-10.0958
ほどの	-10.0962
プレ	-10.0963
ステージ	-10.0965
参戦	-10.0967
戦闘機	-10.0969
医師	-10.0972
賢	-10.0974
微	-10.0978
オブ	-10.0981
天文	-10.0983
勝ち	-10.1001
このように	-10.1012
週	-10.1016
パラ	-10.1017
リウス	-10.1018
▁&	-10.1019
ve	-10.1021
が出	-10.1023
ション	-10.1026
沈	-10.1026
会員	-10.1027
部に	-10.1031
東急	-10.1037
寄せ	-10.1039
姫	-10.1039
ョ	-10.104
すぐに	-10.1047
次郎	-10.1048
を使う	-10.1049
持つ	-10.1053
硬	-10.1059
患者	-10.1061
水素	-10.1068
天皇の	-10.1074
保有	-10.1075
指導者	-10.1076
(『	-10.1085
76	-10.1086
ul	-10.1089
ないため	-10.109
似	-10.1092
ci	-10.1092
-3	-10.1095
ロゴ	-10.1095
ir	-10.11
ゴン	-10.1101
畑	-10.1101
さい	-10.1102
大幅に	-10.1103
96	-10.1106
ポルトガル	-10.1107
予備	-10.1107
玄	-10.1113
モード	-10.1114
のひとつ	-10.1114
含	-10.1115
ツアー	-10.1116
雷	-10.1117
ke	-10.1119
也	-10.1124
衝突	-10.1127
岡山	-10.1128
自らの	-10.1131
歌手	-10.1132
週間	-10.1137
鈴木	-10.1139
将来	-10.114
現在も	-10.1142
1974	-10.1143
羅	-10.1144
息	-10.1146
指示	-10.1149
濃	-10.115
きた	-10.1151
以前	-10.1152
の娘	-10.1158
分け	-10.116
滑	-10.1166
全体の	-10.1169
費用	-10.1169
投入	-10.1172
放送された	-10.1173
使われ	-10.1173
ケル	-10.1179
が行われている	-10.1179
創	-10.118
の意味	-10.118
についての	-10.1182
ィ	-10.1188
練	-10.1196
正式に	-10.1196
著作	-10.1197
部屋	-10.1198
嫌	-10.1199
寒	-10.1201
儀	-10.1202
複	-10.1204
沿線	-10.1207
到着	-10.1208
...	-10.1211
譲渡	-10.1212
藤原	-10.1214
頃から	-10.1214
推	-10.1215
ハウス	-10.1216
古い	-10.1217
モンゴル	-10.1218
句	-10.1227
類似	-10.1229
放送局	-10.1229
事例	-10.1232
インターチェンジ	-10.1233
に登場する	-10.1233
年より	-10.1237
組合	-10.1241
斉	-10.1244
ッカー	-10.1251
済	-10.1251
回路	-10.1256
1964	-10.1259
であっても	-10.1267
乗車券	-10.1273
丁目	-10.1274
1998	-10.1277
年にかけて	-10.1281
▁v	-10.1282
に入って	-10.1286
俊	-10.1295
沖	-10.1298
資源	-10.1299
中部	-10.1299
作り	-10.13
デス	-10.1303
祝	-10.1305
を与え	-10.131
エス	-10.131
マス	-10.1313
過去	-10.1314
俗	-10.1316
討	-10.1321
ガル	-10.1321
1976	-10.1321
人工	-10.1322
疑	-10.1322
ap	-10.1322
hi	-10.133
制定	-10.1331
置き換え	-10.1335
っていない	-10.1336
°	-10.1338
改札	-10.1339
上位	-10.1344
後半	-10.1344
えた	-10.1345
投資	-10.1347
レッド	-10.1349
干	-10.1351
be	-10.1352
実際の	-10.1354
家臣	-10.1356
無線	-10.1356
が異なる	-10.1357
んでいた	-10.1357
痛	-10.1357
の高い	-10.1359
主力	-10.136
印刷	-10.136
セイ	-10.1368
業界	-10.1369
図書館	-10.1375
ヒト	-10.1375
存	-10.1378
ことになった	-10.1379
押	-10.1379
財	-10.1382
があるが	-10.1382
希望	-10.1386
ッグ	-10.139
即位	-10.1392
ex	-10.1393
長崎	-10.1403
福岡	-10.1403
国境	-10.1404
▁2020	-10.1404
秀吉	-10.1407
盗	-10.1411
ベー	-10.1421
画面	-10.1423
ムー	-10.143
買	-10.1432
政府は	-10.1444
音声	-10.1446
貫	-10.1451
社の	-10.1452
間で	-10.1453
ぶり	-10.1455
友人	-10.1456
権利	-10.1462
わず	-10.1468
箱	-10.1471
提出	-10.1472
移住	-10.1472
誤	-10.1474
再建	-10.1479
なければならない	-10.148
▁2007	-10.148
上野	-10.1481
直通	-10.1483
戦艦	-10.1484
サル	-10.1484
という言葉	-10.1485
個体	-10.1487
見られる	-10.1488
全員	-10.1489
ブーム	-10.149
架	-10.1491
号線	-10.1491
歳で	-10.1495
流通	-10.1496
方程式	-10.1498
外部	-10.1498
外国人	-10.1499
液	-10.1499
した後	-10.15
競馬場	-10.1507
マリ	-10.1507
人民	-10.1511
こともあった	-10.1521
伴	-10.1521
出現	-10.1525
終了した	-10.1525
身体	-10.1531
当て	-10.1538
周年	-10.1543
kg	-10.1551
廃車	-10.1553
事務	-10.1554
進化	-10.1556
続き	-10.1558
の多くは	-10.1559
閉鎖	-10.1562
電化	-10.1563
▁大	-10.1569
リック	-10.1569
ポン	-10.1575
豆	-10.1579
自身が	-10.1579
ウィリアム	-10.1585
通行	-10.1589
いう	-10.1599
質量	-10.1599
攻め	-10.1606
▁新	-10.1611
執行	-10.1611
一族	-10.1612
根拠	-10.1615
ガラス	-10.1616
敷	-10.1618
無料	-10.1619
寿	-10.162
ドーム	-10.162
セー	-10.1624
及	-10.1627
領土	-10.1628
有力	-10.1629
文明	-10.1629
収容	-10.1631
などと	-10.1633
▁r	-10.1636
したのは	-10.1638
鎮	-10.1639
全線	-10.1639
1977	-10.164
梅	-10.1641
要因	-10.1644
ウォー	-10.1644
手段	-10.1645
させること	-10.1646
故	-10.1646
予想	-10.1647
然	-10.1654
したという	-10.1655
アイルランド	-10.1655
深い	-10.1658
程度の	-10.1658
im	-10.1664
線は	-10.167
を発表した	-10.167
ファイ	-10.167
状の	-10.1674
一般的に	-10.1679
宋	-10.1679
主演	-10.1681
あと	-10.1683
重量	-10.1684
サイド	-10.169
込んで	-10.1693
この時期	-10.1694
加工	-10.1703
性が	-10.1709
他にも	-10.171
武装	-10.171
機会	-10.1713
人間の	-10.1714
争	-10.1716
シス	-10.1716
の元	-10.1716
人である	-10.1716
南海	-10.1717
終了後	-10.1719
に応じて	-10.1723
をもつ	-10.1725
新設	-10.1725
テスト	-10.1726
ki	-10.1726
の方が	-10.173
二人	-10.1733
一郎	-10.1734
かかる	-10.1744
ベトナム	-10.175
数の	-10.175
したがって	-10.1751
を作る	-10.1752
トルコ	-10.1754
フラン	-10.1755
密度	-10.1759
予算	-10.1759
オフ	-10.1763
per	-10.1763
加入	-10.1765
有名	-10.1766
由	-10.1771
かけ	-10.1776
のに対し	-10.1778
と呼ばれた	-10.1781
した場合	-10.1782
戦い	-10.1784
尚	-10.1786
発音	-10.179
デュ	-10.1792
率は	-10.1796
韓	-10.1801
を担当	-10.1801
須	-10.1806
命名	-10.1807
1967	-10.1809
ード	-10.1809
権を	-10.1814
武器	-10.1816
同時	-10.1821
▁()	-10.1825
縦	-10.1826
芝	-10.1827
でない	-10.1833
神奈川県	-10.1834
気象	-10.1835
司令官	-10.1837
ならば	-10.1838
有名な	-10.1841
テー	-10.1846
サブ	-10.1847
修正	-10.1852
徳川	-10.1855
歴史的	-10.1855
那	-10.1856
の下	-10.1858
塗装	-10.1861
上記の	-10.1862
たこと	-10.1865
悪化	-10.1865
発達	-10.1866
感染	-10.1866
冊	-10.1875
任務	-10.1876
が見られる	-10.1878
▁2008	-10.1878
刻	-10.188
らなかった	-10.1882
クロス	-10.1883
いていた	-10.1883
一つの	-10.1885
ページ	-10.1888
せい	-10.189
化し	-10.189
▁2006	-10.1894
夜間	-10.1894
方言	-10.1896
の違い	-10.1897
などは	-10.1898
刺	-10.1905
三菱	-10.1909
項目	-10.1914
アラ	-10.1915
bi	-10.1915
山田	-10.192
市街地	-10.1927
大手	-10.1931
地域の	-10.1934
嘉	-10.1935
手紙	-10.1946
恩	-10.195
同様の	-10.1954
づけ	-10.196
寛	-10.1962
一定の	-10.1965
少し	-10.1965
ig	-10.1965
杯	-10.1971
様式	-10.1973
地点	-10.1974
北朝鮮	-10.1976
縮	-10.1977
モーター	-10.1978
、2007	-10.1983
奈良	-10.1983
積極的に	-10.1986
するようになった	-10.1986
アンド	-10.1986
解体	-10.1987
描写	-10.1987
ころ	-10.1993
ピン	-10.1993
、2006	-10.1995
録音	-10.1996
選出	-10.1998
やり	-10.1999
▁2009	-10.2001
op	-10.2003
ワイ	-10.2004
の一人	-10.2006
小さい	-10.2007
こちら	-10.2008
争い	-10.2012
時点	-10.2013
されたもの	-10.2027
1966	-10.2029
フェル	-10.2032
奪	-10.2034
000	-10.2036
イス	-10.204
みられる	-10.204
代替	-10.2044
財産	-10.2045
駅番号は	-10.2048
使い	-10.2056
の特徴	-10.2056
京成	-10.2057
といわれる	-10.2057
テロ	-10.2057
覆	-10.2059
を設け	-10.2059
弦	-10.206
抜け	-10.2061
▁日本の	-10.2062
沿岸	-10.2062
ケイ	-10.2064
ウィン	-10.2065
台車	-10.2067
昌	-10.2069
活用	-10.2073
田駅	-10.2074
と同じく	-10.2074
浅	-10.2075
演出	-10.2081
陵	-10.2084
画像	-10.2085
一切	-10.2086
焼き	-10.2093
ギリシャ	-10.2097
の建設	-10.2098
投げ	-10.21
車の	-10.2102
認め	-10.2111
特性	-10.2111
海上	-10.2118
普通列車	-10.2121
大きい	-10.2125
gp	-10.2128
ティング	-10.2128
上下	-10.2132
本の	-10.2132
意図	-10.2137
▁2011	-10.2139
を行っていた	-10.214
に基づいて	-10.2143
桁	-10.2143
栗	-10.2143
が大きく	-10.2147
になっていた	-10.2147
名誉	-10.2156
ブレ	-10.2158
弥	-10.2158
会場	-10.2159
一致	-10.216
人に	-10.2161
虎	-10.2173
初め	-10.2174
ゲル	-10.2175
千葉県	-10.2175
を除いて	-10.2177
大名	-10.2181
イラク	-10.2187
1965	-10.2192
)10	-10.2193
もともと	-10.2195
されなかった	-10.2195
舎	-10.2198
エレベーター	-10.2198
ショ	-10.2199
工学	-10.22
、2000	-10.2205
ミサイル	-10.2211
師団	-10.2215
ターミナル	-10.222
糖	-10.2226
ナル	-10.2227
化する	-10.2231
町の	-10.2232
車内	-10.2233
ギャ	-10.2235
とり	-10.2236
の位置	-10.2236
川の	-10.224
鬼	-10.2242
ホル	-10.2244
マッ	-10.2245
泰	-10.2245
ヶ月	-10.2247
gi	-10.2249
ルイ	-10.225
ot	-10.2254
▁日本では	-10.2255
獣	-10.2255
送り	-10.2257
に入った	-10.2259
交代	-10.2274
息子	-10.2275
色の	-10.228
労	-10.2281
なもの	-10.2284
単独	-10.2286
、2008	-10.2287
ゼン	-10.2289
行われている	-10.229
であったため	-10.229
路線バス	-10.2292
によっては	-10.2292
役割	-10.23
当該	-10.2304
設立された	-10.2306
引き続き	-10.2306
月末	-10.2307
業者	-10.2308
彼らは	-10.2309
すこと	-10.2309
てしまう	-10.2312
生徒	-10.2316
大阪市	-10.2317
がなく	-10.2324
交差点	-10.2326
数学	-10.2331
しん	-10.2335
しゃ	-10.2335
少数	-10.2338
誘導	-10.2343
カス	-10.2345
プロレス	-10.2347
差別	-10.2347
できなかった	-10.2349
備え	-10.2353
方の	-10.2354
列車は	-10.2358
固有	-10.236
なん	-10.2361
記憶	-10.2361
鎌倉	-10.2365
美術館	-10.237
上げた	-10.2372
学園	-10.2375
高架	-10.2377
▁and	-10.2377
装甲	-10.2382
丹	-10.2387
山本	-10.2387
紅	-10.2389
随	-10.2391
飛び	-10.2392
過去の	-10.2403
カリ	-10.241
all	-10.2411
売り	-10.2417
繁殖	-10.2418
父親	-10.2422
られて	-10.2423
先に	-10.2425
追放	-10.2429
著書	-10.2432
長男	-10.2436
後継	-10.244
困難	-10.244
月号	-10.2441
110	-10.2443
é	-10.2449
奇	-10.245
もない	-10.245
タンパク質	-10.2452
を得て	-10.2455
弓	-10.2455
周波数	-10.2456
延伸	-10.2459
爆発	-10.2461
[	-10.2465
できず	-10.2465
▁jr	-10.2467
鷹	-10.2469
解消	-10.2471
ほとんどの	-10.2471
煙	-10.2475
過ぎ	-10.2476
続けた	-10.2479
側は	-10.2481
スペシャル	-10.2481
者に	-10.2484
ブロック	-10.2487
惑星	-10.2487
rt	-10.2488
埼玉県	-10.2488
しているが	-10.249
又は	-10.249
票	-10.2491
仙	-10.2491
のことである	-10.2491
1930	-10.2492
かわ	-10.2493
同社	-10.2495
その結果	-10.25
必要がある	-10.2501
知られる	-10.2506
浪	-10.2507
ベスト	-10.2507
中国の	-10.2508
標	-10.251
洗	-10.2512
現在でも	-10.2514
僧	-10.2523
fr	-10.2527
伸び	-10.2527
の乱	-10.2528
武田	-10.2532
▁2005	-10.2535
ナイ	-10.2536
は大	-10.2537
石油	-10.2539
推定	-10.2542
▁2021	-10.2557
ーター	-10.2558
反発	-10.256
らの	-10.256
つき	-10.2561
ヴァー	-10.2561
休止	-10.2565
来た	-10.2567
統	-10.2568
受信	-10.2569
チョ	-10.2571
を持っている	-10.2573
、2009	-10.2575
は日本	-10.2579
物を	-10.2582
の際	-10.2584
位の	-10.2584
古くから	-10.2587
の地位	-10.259
]	-10.2593
吸収	-10.2593
三郎	-10.2598
の利用	-10.2598
ber	-10.2602
*	-10.2603
ょ	-10.2603
を中心とした	-10.261
書かれた	-10.261
欧米	-10.2613
双方	-10.2615
he	-10.2618
飾	-10.2619
兵士	-10.262
▁co	-10.2623
鏡	-10.2625
子会社	-10.263
が設置され	-10.2638
ng	-10.2639
一つ	-10.2639
現代の	-10.264
ベルリン	-10.265
ース	-10.2653
世界の	-10.2654
出発	-10.2655
締結	-10.2661
ける	-10.2661
ジャンル	-10.2668
たちの	-10.2672
リンク	-10.268
歳の	-10.2683
net	-10.2686
立つ	-10.2687
わった	-10.2687
ものがある	-10.2687
▁2004	-10.2688
ds	-10.2689
97	-10.2693
相対	-10.2694
事実上	-10.27
妙	-10.27
山脈	-10.2708
サポート	-10.271
観客	-10.2714
リュー	-10.2714
熟	-10.2716
ディスク	-10.2717
を持った	-10.2718
進む	-10.2722
周囲	-10.2727
シート	-10.2728
届	-10.2728
パソコン	-10.273
▁h	-10.273
症状	-10.273
tion	-10.273
面で	-10.273
るなど	-10.2733
しま	-10.2737
川崎	-10.2739
コンサート	-10.274
合流	-10.274
如	-10.2741
フィー	-10.2742
伝統	-10.2747
作品の	-10.2753
状態で	-10.2753
ut	-10.2755
言い	-10.2756
高く	-10.2758
の世界	-10.2759
圧力	-10.2759
たちが	-10.2759
機種	-10.2759
1962	-10.276
長野	-10.2761
様子	-10.2762
ポール	-10.2765
協	-10.2769
警	-10.277
基本的に	-10.2771
ネス	-10.2777
存在した	-10.2782
sc	-10.2783
ディア	-10.2785
電気鉄道	-10.2788
イスラエル	-10.2795
兵庫県	-10.2796
起用	-10.2798
雅	-10.2805
▁2019	-10.2806
合意	-10.2807
阪急	-10.2809
伝承	-10.281
激しい	-10.281
年度の	-10.2812
享	-10.2812
暗殺	-10.2813
棒	-10.2815
ものもある	-10.2817
態	-10.282
政府の	-10.2822
ジャパン	-10.2823
に分類される	-10.2823
こうして	-10.2824
開業した	-10.2828
高度	-10.283
と言われる	-10.2834
画家	-10.2839
連携	-10.2839
甘	-10.2841
分解	-10.2844
だい	-10.2848
74	-10.2851
書籍	-10.2852
殺害	-10.2852
に変更された	-10.2853
マシン	-10.2856
迎え	-10.2863
児童	-10.2865
で最も	-10.2867
誰	-10.2878
選手権	-10.2879
ニング	-10.2883
用いられる	-10.2883
各国	-10.2887
桂	-10.2888
に大きな	-10.2889
ミュージック	-10.2891
荘	-10.2891
垣	-10.2891
年代以降	-10.2897
吸	-10.2897
英国	-10.2899
▁2015	-10.2899
離脱	-10.29
絵画	-10.2905
現場	-10.2908
朝の	-10.2908
屋根	-10.2908
手に	-10.2908
まった	-10.2909
株式	-10.291
訴え	-10.291
のみならず	-10.2913
合わせて	-10.2914
開設	-10.2918
空軍	-10.2918
駅間の	-10.2918
人と	-10.2919
決勝	-10.2921
穂	-10.2921
に取り	-10.2922
近年	-10.2923
発明	-10.2927
銀河	-10.2935
新規	-10.2936
半分	-10.294
線を	-10.2941
キロ	-10.2948
活	-10.2951
加えて	-10.2956
うる	-10.2958
くなる	-10.2961
消滅	-10.2965
、2005	-10.2971
を下	-10.2973
いく	-10.2975
見える	-10.2975
1963	-10.2977
委員	-10.2981
感じ	-10.2983
マリア	-10.2984
発射	-10.2984
)12	-10.2988
印象	-10.2989
演じ	-10.2989
ry	-10.2992
処	-10.2994
酸素	-10.2999
開発された	-10.3005
すぐ	-10.3008
者を	-10.3012
終わり	-10.3012
援助	-10.3013
で行われた	-10.302
肩	-10.3022
可能性がある	-10.3022
を果たした	-10.3027
ないし	-10.3028
帳	-10.3035
ハード	-10.3038
現役	-10.3039
を通して	-10.3043
年頃	-10.3045
に合わせて	-10.3046
構築	-10.3046
自社	-10.3048
ダル	-10.3048
ment	-10.3048
ヘッド	-10.305
ハム	-10.3059
を利用して	-10.3068
の変化	-10.307
献	-10.3072
巻き	-10.3076
文庫	-10.3078
を作り	-10.3078
われた	-10.3079
本塁打	-10.3082
ロール	-10.3083
リエ	-10.3084
下で	-10.3085
ステーション	-10.3087
一定	-10.3087
種類の	-10.3087
書いた	-10.309
プレイヤー	-10.3093
する事	-10.31
プラン	-10.31
基礎	-10.3104
奴隷	-10.3106
在籍	-10.3108
学習	-10.3109
は非常に	-10.311
意思	-10.3112
髪	-10.3113
揚	-10.3114
番組の	-10.3114
category	-10.3116
練習	-10.3117
整理	-10.3118
ってきた	-10.3118
拒否	-10.3137
5000	-10.3138
▁2012	-10.3138
歴	-10.3139
120	-10.3139
下に	-10.314
仲間	-10.3141
ギリシア	-10.3148
基盤	-10.3149
丁	-10.3151
過程	-10.3154
法の	-10.3154
多摩	-10.3157
されてきた	-10.3158
スル	-10.3161
バイパス	-10.3162
ならない	-10.3166
と語っている	-10.3167
サラ	-10.3167
を与える	-10.3168
グロ	-10.317
1940	-10.3172
経由	-10.3175
トレ	-10.3175
が発生し	-10.3176
を獲得	-10.3178
送信	-10.3179
の時代	-10.3182
tt	-10.3182
オール	-10.3184
提携	-10.3185
軍を	-10.3186
フランス語	-10.3186
鹿児島	-10.3192
に際して	-10.3195
▁2016	-10.3197
らい	-10.3198
メール	-10.3199
品種	-10.3203
買収	-10.3204
月より	-10.3206
84	-10.3215
と同様	-10.3216
近い	-10.3217
撤去	-10.3218
リウム	-10.3218
年現在	-10.3225
ts	-10.3226
▁to	-10.3228
ミル	-10.3231
漫画家	-10.3232
ate	-10.3239
モル	-10.3241
ペル	-10.3244
誠	-10.3246
時代には	-10.3247
関心	-10.3247
排	-10.325
存続	-10.325
プレー	-10.3253
しばらく	-10.3253
などでは	-10.3258
tra	-10.3263
年代から	-10.3266
量の	-10.3269
用いられている	-10.3271
動力	-10.3272
建設された	-10.3277
個の	-10.3278
der	-10.328
ではなかった	-10.328
脇	-10.3281
つつ	-10.3283
スポンサー	-10.3284
やすく	-10.3287
グリーン	-10.3288
脚本	-10.3289
置き	-10.3293
言う	-10.3293
代表的な	-10.3294
神宮	-10.3295
確定	-10.3296
上記	-10.3296
株	-10.3302
本来	-10.3303
主導	-10.3305
mb	-10.3305
共産党	-10.3307
払	-10.3309
と思われる	-10.3312
捨て	-10.3314
▁x	-10.3316
は主に	-10.3322
豪	-10.3324
ごく	-10.3324
することになった	-10.3326
鑑	-10.3327
てしまった	-10.3328
差し	-10.3329
研究者	-10.333
の一つである	-10.3331
時代から	-10.3336
があったが	-10.334
愛知県	-10.3342
ロケット	-10.3343
午後	-10.3345
ビジネス	-10.3346
du	-10.3353
岐	-10.3358
話題	-10.3358
ニン	-10.3358
ブラック	-10.3359
部族	-10.3359
買い	-10.3361
軍が	-10.3364
に比べて	-10.3366
解析	-10.3367
教師	-10.3369
短い	-10.3375
本拠地	-10.3381
1961	-10.3388
濃度	-10.3388
複合	-10.3395
中村	-10.3399
戦前	-10.34
モノ	-10.3402
リズム	-10.3402
付けた	-10.3407
パル	-10.3409
ごろ	-10.3413
復興	-10.3414
さない	-10.3414
をする	-10.3418
芸能	-10.3424
意味で	-10.3425
に当たる	-10.3427
、2011	-10.3427
さえ	-10.3427
損	-10.3429
種別	-10.343
藩主	-10.3432
を始め	-10.3433
申請	-10.3434
入力	-10.3439
ノル	-10.3439
まち	-10.3442
テレビ朝日	-10.3442
ナポレオン	-10.3448
回の	-10.3448
72	-10.345
貢献	-10.345
予	-10.3453
妹	-10.3458
が多数	-10.3458
が高く	-10.3459
ための	-10.3461
親王	-10.3464
ワイン	-10.3465
過去に	-10.3466
怪	-10.3468
松本	-10.3468
ないこと	-10.3471
気動車	-10.3474
コーチ	-10.3474
秦	-10.3479
94	-10.348
の戦いで	-10.3485
載	-10.3487
物理学	-10.3492
権限	-10.3494
巨	-10.3497
場面	-10.3497
を利用する	-10.3498
中心部	-10.3499
起源	-10.3501
大気	-10.3501
自宅	-10.3508
が進められ	-10.351
ているが	-10.3512
時台	-10.3513
籍	-10.3518
呼	-10.3519
年末	-10.352
アウト	-10.352
与えられた	-10.3524
規	-10.3524
直線	-10.353
滝	-10.3536
町駅	-10.3539
しかしながら	-10.3544
ローカル	-10.3544
でもあった	-10.3545
限り	-10.3546
戦線	-10.3547
短縮	-10.3548
発表された	-10.3548
ai	-10.3548
との間に	-10.3548
ベクトル	-10.3554
肥	-10.3556
地の	-10.3561
緊急	-10.3562
者として	-10.3562
に位置し	-10.3562
入学	-10.3565
朝廷	-10.3565
使う	-10.3565
体の	-10.3566
昭	-10.3567
カトリック	-10.3574
夕	-10.3577
学科	-10.3581
井上	-10.3585
削減	-10.359
アム	-10.3591
地形	-10.3595
イラン	-10.3596
1944	-10.3597
▁2018	-10.3597
政治家	-10.3598
-4	-10.36
の中には	-10.3601
、2012	-10.3604
生息	-10.3605
の前	-10.3606
どの	-10.3608
攻	-10.3609
中には	-10.3611
始まり	-10.3613
島の	-10.3615
をはじめとする	-10.3617
かつての	-10.3617
救	-10.3619
に就任した	-10.3619
通じ	-10.3621
▁2003	-10.3622
糸	-10.3625
▁l	-10.3626
定数	-10.3626
まれた	-10.3629
を集め	-10.363
火山	-10.3632
フィールド	-10.3633
吹	-10.3635
駆動	-10.3635
違	-10.3638
彼女	-10.3643
チェン	-10.3645
貨	-10.3648
行列	-10.3648
に基づき	-10.365
審	-10.3651
年代の	-10.3651
パターン	-10.3653
を認め	-10.3656
、1990	-10.3656
女優	-10.3657
ff	-10.3657
を務める	-10.3658
堅	-10.3661
pi	-10.3661
に含まれる	-10.3661
待	-10.3662
なかったため	-10.3667
を使った	-10.3669
今後	-10.3671
のではないか	-10.3673
od	-10.3673
秋田	-10.3675
離れた	-10.3677
束	-10.3677
寝	-10.3678
スカ	-10.3678
という意味	-10.3678
の新	-10.3683
昇	-10.3688
捕	-10.3688
邸	-10.3689
)、『	-10.3689
によるもの	-10.3691
世紀に	-10.3692
止	-10.3692
言及	-10.3695
到達	-10.3697
効	-10.3697
160	-10.37
ell	-10.3705
それらの	-10.3705
レット	-10.3706
君主	-10.3709
中華人民共和国	-10.3711
蒸気	-10.3721
溶	-10.3721
01	-10.3722
出て	-10.3723
3000	-10.3727
年代には	-10.373
海峡	-10.3731
公表	-10.3733
方が	-10.3734
葬	-10.3736
▁1990	-10.3737
が挙げられる	-10.3739
ラテン語	-10.374
天体	-10.3741
ユーザー	-10.3741
名で	-10.3743
難しい	-10.3743
ard	-10.3744
最低	-10.3749
接触	-10.375
青年	-10.3751
に対応	-10.3759
プロデューサー	-10.3762
機が	-10.3764
攻略	-10.3766
▁2013	-10.3767
応用	-10.3769
取材	-10.3771
ロボット	-10.3773
を占める	-10.3773
紛争	-10.3773
ターン	-10.3773
sm	-10.3779
ついた	-10.3781
広い	-10.3783
ごと	-10.3785
病気	-10.3787
考え方	-10.3793
前年	-10.3799
阪	-10.3799
結成	-10.38
晩年	-10.38
量は	-10.3801
日間	-10.3802
配列	-10.3806
たま	-10.3807
といい	-10.3807
澤	-10.3807
必ず	-10.3809
ディング	-10.3809
rna	-10.3812
京王	-10.3815
みな	-10.3817
▁n	-10.3819
を務め	-10.3819
可能である	-10.382
プロイセン	-10.3823
用いられた	-10.3826
課程	-10.3828
フロ	-10.3841
オペラ	-10.3842
勤務	-10.3844
降伏	-10.3845
以前に	-10.3847
競争	-10.3849
タレント	-10.3854
が開始された	-10.3854
は全て	-10.3859
民主	-10.3862
容量	-10.3864
などから	-10.3866
部品	-10.3866
の放送	-10.3867
付ける	-10.3876
物の	-10.3876
セント	-10.3876
ゲスト	-10.388
デイ	-10.3881
学問	-10.3882
唯一	-10.3882
孔	-10.3882
実装	-10.3883
続け	-10.3883
郵便	-10.3884
を起こし	-10.3884
が存在し	-10.389
必ずしも	-10.3894
建造	-10.3895
対戦	-10.3895
好き	-10.3896
いずれ	-10.3896
日本テレビ	-10.3896
秘	-10.3898
たる	-10.3899
のみが	-10.39
訴訟	-10.39
したものである	-10.3906
対抗	-10.3907
pl	-10.3909
fo	-10.3909
生涯	-10.3915
市町村	-10.3916
替	-10.3919
簡	-10.392
と考え	-10.392
芳	-10.3922
昼	-10.3923
武蔵	-10.3923
平野	-10.3925
、2004	-10.3927
知られ	-10.3931
なので	-10.3931
を進め	-10.3931
通路	-10.3932
コス	-10.3932
ながらも	-10.3934
きっかけ	-10.3937
監	-10.3938
打撃	-10.3939
を図る	-10.3939
▁地理	-10.3942
周辺の	-10.3946
耳	-10.3948
dna	-10.3948
テープ	-10.3951
災害	-10.3956
けん	-10.3957
本土	-10.3958
▁2017	-10.3958
を結成	-10.396
ヒル	-10.3961
の中でも	-10.3961
用いられ	-10.3966
切れ	-10.3969
ストラ	-10.3971
いたが	-10.3971
子が	-10.3973
狂	-10.3974
愛称	-10.3976
劉	-10.3976
抱	-10.3978
1948	-10.3982
線の駅である	-10.3985
挑戦	-10.3988
の三	-10.3992
カバー	-10.3992
明らかに	-10.3994
停車駅	-10.3994
ッター	-10.3999
北陸	-10.3999
放映	-10.4005
メキシコ	-10.4011
▁主な	-10.4014
シリア	-10.4014
しようと	-10.4015
自衛隊	-10.4015
経路	-10.4017
と言われている	-10.4017
作品を	-10.4018
1920	-10.4018
流れる	-10.402
に加えて	-10.4021
罰	-10.4021
の一種	-10.4022
mp	-10.4022
ここ	-10.4023
三木	-10.4025
指名	-10.4026
の運行	-10.4028
陳	-10.403
駐	-10.4035
フォード	-10.4036
泊	-10.404
その後の	-10.4042
)7	-10.4043
スは	-10.4044
かどうか	-10.4045
百貨店	-10.4045
足利	-10.4047
大学院	-10.4049
開催された	-10.4049
チャン	-10.4052
職業	-10.4053
郊外	-10.4054
を示した	-10.4056
電源	-10.4057
富山	-10.4058
笠	-10.4063
銭	-10.407
促進	-10.4071
ていなかった	-10.4071
イスラム	-10.4072
抑え	-10.4074
張り	-10.4074
遠征	-10.4075
らは	-10.4078
なくなり	-10.4081
かない	-10.4082
オリ	-10.4082
このほか	-10.4084
必要な	-10.4085
敗北	-10.4094
が担当	-10.4098
大規模	-10.4098
都道府県	-10.4101
インディアン	-10.4106
ec	-10.4106
再度	-10.4108
cs	-10.4108
清水	-10.4112
桑	-10.4112
に出演	-10.4113
資	-10.4114
ものとして	-10.4118
に対しては	-10.4118
以外	-10.4121
をつけ	-10.4121
違反	-10.4121
若い	-10.4126
詰め	-10.4127
使われた	-10.4127
近郊	-10.4127
▁2014	-10.4129
nt	-10.413
スイス	-10.4131
寺院	-10.4133
ベイ	-10.4134
数値	-10.4138
ッカ	-10.4142
佐藤	-10.4144
消防	-10.4144
用に	-10.4144
目に	-10.4144
隣	-10.4145
が多かった	-10.415
裕	-10.4153
トラン	-10.4156
皆	-10.4157
フー	-10.4159
低く	-10.4162
▁ma	-10.4164
深く	-10.4169
電圧	-10.4174
東口	-10.4175
全域	-10.4176
叙	-10.4176
出入口	-10.4176
司会	-10.4179
▁=	-10.4184
メント	-10.4186
紫	-10.4187
実績	-10.4188
時計	-10.4189
週刊	-10.419
灰	-10.4196
1958	-10.42
家は	-10.42
pu	-10.42
ヴェル	-10.4202
人口は	-10.4205
あらゆる	-10.421
磁気	-10.4212
岳	-10.4218
キャンパス	-10.4218
西口	-10.4222
刑事	-10.4224
このうち	-10.4226
)11	-10.4226
を使用した	-10.4229
委託	-10.4233
で初めて	-10.4233
見られ	-10.4234
を持っていた	-10.4235
cc	-10.4238
どこ	-10.424
出された	-10.4242
いだ	-10.4242
起点	-10.4243
車両の	-10.4244
やま	-10.4245
ブロ	-10.4247
最多	-10.4248
軌	-10.4248
ナイト	-10.4249
フィルム	-10.4249
完成した	-10.425
作曲家	-10.4251
子は	-10.4254
定め	-10.4256
活動を	-10.4257
されず	-10.4257
助け	-10.426
爆弾	-10.4262
蒲	-10.4263
開局	-10.4264
観察	-10.4265
の種類	-10.4267
通算	-10.4275
見る	-10.4276
るように	-10.4277
市長	-10.4278
ld	-10.4279
るが	-10.4282
戦死	-10.4284
急速に	-10.4285
カロ	-10.4286
わけではない	-10.4289
金沢	-10.429
排除	-10.4291
であろう	-10.4291
レール	-10.4293
同様	-10.4293
その後は	-10.4296
簡易	-10.4299
185	-10.43
譜	-10.43
教皇	-10.4301
標高	-10.4304
1949	-10.4307
この場合	-10.4307
異常	-10.431
プライ	-10.431
とおり	-10.431
▁0	-10.4313
を開始	-10.4314
ッサ	-10.4315
独立した	-10.4323
を目指す	-10.4324
中期	-10.4324
巡洋艦	-10.4325
専用の	-10.4325
池田	-10.4326
地位	-10.4327
先行	-10.4328
すら	-10.4328
アド	-10.433
猛	-10.4332
経過	-10.4333
議席	-10.4336
経済学	-10.4338
ポスト	-10.434
東映	-10.4344
周期	-10.4346
運輸	-10.4356
審査	-10.4358
はず	-10.4359
ウォ	-10.4361
合格	-10.4361
求	-10.4365
年からは	-10.4365
再開	-10.4367
国際空港	-10.4367
気温	-10.4371
違う	-10.4372
ためである	-10.4373
施	-10.4374
決め	-10.4374
コミック	-10.4377
隣接する	-10.4379
語の	-10.438
資産	-10.4381
川駅	-10.4381
吾	-10.4382
codice	-10.4382
ヌー	-10.4382
踏切	-10.4384
社員	-10.4384
発電	-10.4389
歩兵	-10.4391
福祉	-10.4394
ウイルス	-10.4398
移民	-10.4398
テイ	-10.4401
逃げ	-10.4403
発表した	-10.4405
勤	-10.4406
mac	-10.4408
詞	-10.4411
フォーク	-10.4417
施工	-10.4418
▁for	-10.4419
衰退	-10.4421
の概念	-10.4424
渋谷	-10.4426
人で	-10.4426
出して	-10.4426
してしまう	-10.4427
one	-10.4428
の路線	-10.4429
ワード	-10.443
ドイツ語	-10.443
高橋	-10.443
父の	-10.4431
日本国内	-10.4431
レオ	-10.4438
コメント	-10.4438
朱	-10.444
付けられた	-10.4444
国会	-10.4444
レル	-10.4448
日付	-10.4448
縮小	-10.4449
終結	-10.4449
を獲得した	-10.4451
天正	-10.4451
頃に	-10.4451
パイロット	-10.4452
込	-10.4453
勃発	-10.4453
判決	-10.4454
するまで	-10.4455
に属し	-10.4456
授与	-10.4456
込め	-10.4458
福島	-10.446
スカイ	-10.4461
概	-10.4464
を採用した	-10.4466
売却	-10.4468
共有	-10.4469
入れた	-10.447
)9	-10.4472
するか	-10.4472
を行うこと	-10.4473
▁バス路線	-10.4476
抜き	-10.4476
と結婚	-10.4476
を開催	-10.4477
司法	-10.4478
たか	-10.4481
はじめ	-10.4481
頂	-10.4482
際には	-10.4482
滅亡	-10.4487
1959	-10.4488
奈	-10.4493
艇	-10.4494
の不	-10.4495
小さく	-10.4499
はすべて	-10.4502
男子	-10.4504
ウルトラマン	-10.4505
ワシントン	-10.4506
ることで	-10.4508
車線	-10.4512
に向けて	-10.4513
繋	-10.4514
支店	-10.4514
北口	-10.4518
成果	-10.4519
細川	-10.452
接近	-10.4521
▁17	-10.4524
ガイ	-10.4525
ことができた	-10.4526
われる	-10.4527
暴力	-10.4528
パート	-10.453
ドロ	-10.4531
そこに	-10.4536
メー	-10.4536
火災	-10.4542
帰還	-10.4544
上杉	-10.4546
姉妹	-10.455
1947	-10.455
▁10	-10.455
笑	-10.4556
小林	-10.456
辛	-10.4561
化合物	-10.4561
供	-10.4569
か所	-10.457
、2015	-10.4572
展	-10.458
パワー	-10.458
それまでの	-10.4582
を感じ	-10.4584
の導入	-10.4584
和田	-10.4589
相撲	-10.459
伝えられ	-10.4591
とは異なり	-10.4592
論理	-10.4594
加藤	-10.4595
ヴォ	-10.4596
タリ	-10.4597
世が	-10.4597
しさ	-10.4599
山城	-10.4609
軍隊	-10.4611
、2013	-10.4618
魔法	-10.4621
を描いた	-10.4622
コア	-10.4626
シャン	-10.4627
1946	-10.4628
集落	-10.463
振動	-10.463
恐れ	-10.4636
えない	-10.4637
駆逐艦	-10.4637
いち	-10.4643
情報を	-10.4647
ギター	-10.4649
ビア	-10.4655
視聴率	-10.4656
ヘンリー	-10.4659
ill	-10.4659
胸	-10.466
跡地	-10.466
と呼び	-10.4665
ではあるが	-10.4669
1955	-10.467
議長	-10.4675
家康	-10.4676
するよう	-10.4676
のことを	-10.4676
るために	-10.4677
を置く	-10.468
当選	-10.4685
衛	-10.4685
袋	-10.4687
訓	-10.4687
本体	-10.4692
、2019	-10.4693
階段	-10.4695
史料	-10.4696
負け	-10.47
カット	-10.4703
ずに	-10.4704
アラブ	-10.4706
の中では	-10.4707
古墳	-10.4708
乾燥	-10.4708
ンス	-10.4709
棟	-10.4711
壊	-10.4716
の活動	-10.4718
不満	-10.4719
ボード	-10.472
系電車	-10.4726
であるという	-10.4727
一体	-10.4728
したものの	-10.4728
顕	-10.4731
iv	-10.4734
城を	-10.4735
上げる	-10.4737
幹	-10.4739
原則として	-10.4741
卓	-10.4743
の原因	-10.4745
酵素	-10.4748
だから	-10.4749
駅名	-10.4749
鎖	-10.4749
男女	-10.475
天然	-10.4755
正教会	-10.4758
ことになり	-10.476
試作	-10.4762
部は	-10.4762
グレ	-10.4763
興行	-10.4764
幹部	-10.4767
限界	-10.4771
ブラン	-10.4775
ることになった	-10.4777
恒	-10.4778
機動	-10.4778
マルチ	-10.4779
証拠	-10.478
国連	-10.4782
洲	-10.4782
通貨	-10.4783
切り替え	-10.4785
翌日	-10.4785
碑	-10.4788
毎日	-10.4791
の整備	-10.4795
記者	-10.4797
驚	-10.4803
鼻	-10.4804
局の	-10.4804
始まった	-10.4805
軍に	-10.4806
量産	-10.4806
一連の	-10.481
一旦	-10.4813
増大	-10.4816
ランキング	-10.4817
わか	-10.482
間は	-10.4821
が始まった	-10.4823
リニューアル	-10.4824
敏	-10.4824
ことができ	-10.4824
承	-10.4824
fl	-10.4826
えて	-10.4828
第一次世界大戦	-10.4828
、2016	-10.4828
が大きい	-10.483
クハ	-10.4832
とは異なる	-10.4833
に帰	-10.4834
ンズ	-10.4835
を取る	-10.4837
勅	-10.4843
を利用した	-10.4851
ミュ	-10.4851
自転車	-10.4852
診断	-10.4852
詳細	-10.4853
反映	-10.4853
ゲー	-10.4855
の死	-10.4856
振興	-10.4858
発見された	-10.4858
ティブ	-10.4859
オーバー	-10.4862
イヤー	-10.4864
ひとつ	-10.4864
、2014	-10.4868
fe	-10.4869
1954	-10.4872
創刊	-10.4873
、2020	-10.4876
帰国	-10.4877
熊本	-10.4879
も同様	-10.488
ハンガリー	-10.488
アッ	-10.4882
ズム	-10.4885
ヒトラー	-10.4888
va	-10.4888
アレ	-10.489
影響力	-10.4892
催	-10.4892
途	-10.4892
電流	-10.4895
療法	-10.4897
二重	-10.4898
少なくとも	-10.4898
大量	-10.4899
ときは	-10.4901
かれた	-10.4905
えば	-10.4906
を実施	-10.4908
訴	-10.4909
良く	-10.491
区の	-10.4912
族の	-10.4915
力が	-10.4918
高松	-10.4919
を含め	-10.492
当初の	-10.4921
殻	-10.4921
呼び	-10.4923
の国	-10.4924
号機	-10.4925
ll	-10.4926
フランク	-10.493
ワイド	-10.4936
人種	-10.4938
残った	-10.494
緒	-10.4941
素材	-10.495
ツィ	-10.4956
先の	-10.4957
電池	-10.4963
非難	-10.4964
が少ない	-10.4966
食事	-10.4968
登場人物	-10.497
貧	-10.4974
閣	-10.4974
庭	-10.4979
戦力	-10.498
興味	-10.4981
▁現在	-10.4981
共演	-10.4982
尺	-10.4982
瑞	-10.4986
▁1980	-10.499
rom	-10.4991
るという	-10.4992
が中心	-10.4994
リスク	-10.4996
ラク	-10.4996
の死後	-10.4997
マク	-10.5006
mon	-10.5009
貸	-10.501
京阪	-10.5014
躍	-10.5014
期に	-10.5017
近年では	-10.5018
厳しい	-10.5021
ロマン	-10.5022
81	-10.5023
姉	-10.5027
権威	-10.5029
証言	-10.503
の大きさ	-10.5032
東洋	-10.5035
アナログ	-10.5035
ミリ	-10.5038
征	-10.5041
スタンド	-10.5042
大衆	-10.5043
織田	-10.5048
収集	-10.5049
かず	-10.505
未満	-10.5053
同士	-10.5058
慶長	-10.5058
未来	-10.5062
ly	-10.5063
申	-10.5066
伝え	-10.5069
むしろ	-10.5073
したことで	-10.5074
ができる	-10.5079
を見せ	-10.508
点で	-10.5081
本名	-10.5081
ていて	-10.5082
会社の	-10.5082
伊藤	-10.5083
象	-10.5084
示す	-10.5087
当主	-10.509
白い	-10.5091
徹底	-10.5098
▁mo	-10.5098
液体	-10.5101
なくなる	-10.5104
化され	-10.5104
号車	-10.5105
比率	-10.5108
定める	-10.5108
を打ち	-10.5108
、2003	-10.5109
語源	-10.5111
らせ	-10.5114
小田急	-10.5114
育成	-10.5114
前面	-10.5116
乗り換え	-10.5116
を構成する	-10.5117
高さ	-10.512
プス	-10.5121
ネタ	-10.5122
八幡	-10.5123
欲	-10.5123
の定義	-10.5123
苦し	-10.5124
決議	-10.5124
場で	-10.5125
1952	-10.5126
最後	-10.5129
兆	-10.513
母親	-10.5131
からである	-10.5132
としていた	-10.5133
頭部	-10.5134
定着	-10.5137
1956	-10.5139
プリン	-10.5139
立地	-10.514
1941	-10.5141
チャンピオン	-10.5143
1953	-10.5143
の下で	-10.5144
磁	-10.5145
わる	-10.5146
降り	-10.5148
ルス	-10.5149
登山	-10.5151
以外に	-10.5151
原料	-10.5153
が盛ん	-10.5155
無い	-10.5155
庄	-10.5156
コロ	-10.5156
考案	-10.5157
海洋	-10.5161
lu	-10.5163
を設立	-10.5163
働	-10.5163
魏	-10.5163
日本における	-10.5166
辞任	-10.5166
彩	-10.5169
インター	-10.5171
合う	-10.5173
と呼ばれている	-10.5184
高級	-10.5186
ent	-10.5186
フライ	-10.5188
包囲	-10.5189
1943	-10.519
社会的	-10.5193
クション	-10.5193
任命	-10.5195
昔	-10.5197
▁me	-10.5199
した際に	-10.52
を見て	-10.52
伝統的な	-10.52
時から	-10.5201
結晶	-10.5202
日記	-10.5202
広場	-10.5208
体験	-10.521
ようになっている	-10.5213
ヴァル	-10.5214
抗議	-10.5215
キャスター	-10.5218
本来の	-10.5219
新潟県	-10.5221
淡	-10.5222
あい	-10.5225
の神	-10.5225
道具	-10.5226
キロメートル	-10.5228
▁かつては	-10.5228
課題	-10.5232
峰	-10.5234
空襲	-10.5234
車は	-10.5235
機動戦士ガンダム	-10.5235
名鉄	-10.524
数多く	-10.5243
ゾン	-10.5244
建国	-10.5245
)6	-10.5247
以下に	-10.5249
昇格	-10.5249
つけた	-10.525
創作	-10.5251
幾	-10.5251
大将	-10.5253
av	-10.5253
方向に	-10.5253
書く	-10.5254
循環	-10.5256
ワールドカップ	-10.5257
の発展	-10.5259
摩	-10.526
は以下の通り	-10.5262
直後に	-10.5263
操縦	-10.5265
東武	-10.5266
▁当駅	-10.5267
選定	-10.527
迷	-10.527
倭	-10.5273
ee	-10.5274
筒	-10.5274
都市圏	-10.5276
裂	-10.5277
するのは	-10.528
約束	-10.5283
土曜	-10.5283
まとめ	-10.5286
されると	-10.5286
傘下	-10.5287
宣伝	-10.5288
眠	-10.5294
版の	-10.5295
入場	-10.5296
戒	-10.5298
、1980	-10.5304
を含めた	-10.5305
メガ	-10.5306
盛り	-10.5307
栄養	-10.5309
峠	-10.5311
梁	-10.5313
の再	-10.5313
かす	-10.5313
時代は	-10.5315
二つの	-10.5315
線内	-10.5316
長野県	-10.5318
ct	-10.5319
電波	-10.5319
bu	-10.532
著作権	-10.5322
アプリケーション	-10.5324
懐	-10.5328
おお	-10.5328
のみである	-10.5331
支え	-10.5332
継ぎ	-10.5332
秘密	-10.5333
son	-10.5334
ストン	-10.5336
に次ぐ	-10.5336
静岡	-10.5337
正規	-10.5344
ウクライナ	-10.5345
禅	-10.5345
答え	-10.5346
南口	-10.535
の内容	-10.5351
番のりば	-10.5354
祖父	-10.5357
age	-10.536
にくい	-10.536
死去した	-10.5361
それでも	-10.5361
処刑	-10.5362
マイクロ	-10.5363
の数	-10.5363
誕生した	-10.5367
配備	-10.537
優れた	-10.537
疾患	-10.537
斎	-10.5373
磨	-10.5375
スピ	-10.5376
符号	-10.5378
に向かって	-10.538
レート	-10.5385
bl	-10.5385
▁ただし	-10.5388
現行	-10.5394
軍人	-10.5395
正面	-10.5397
進学	-10.5398
されているが	-10.54
わけ	-10.54
悪い	-10.5405
めて	-10.5405
そのうち	-10.5407
怒	-10.5408
▁生涯	-10.5409
年生	-10.5411
晋	-10.5412
芽	-10.5413
予測	-10.5413
現れる	-10.5415
であることを	-10.5419
論争	-10.5422
ここに	-10.5423
ミス	-10.5424
者である	-10.5427
黄色	-10.5427
伸	-10.543
om	-10.5431
関与	-10.5434
の音楽	-10.5434
直後	-10.544
の立場	-10.5441
ine	-10.5444
明らか	-10.5445
込まれた	-10.5445
構内	-10.5447
{	-10.545
客車	-10.5452
桃	-10.5456
無視	-10.5457
に入ると	-10.5457
近畿	-10.546
エリ	-10.546
出来	-10.5463
参謀	-10.5464
感情	-10.5464
を設置し	-10.5465
洞	-10.5469
▁i	-10.547
銘	-10.5472
卿	-10.5473
地方の	-10.5475
が発生した	-10.5475
スウェーデン	-10.5477
定理	-10.5481
fi	-10.5481
れない	-10.5481
をとる	-10.5484
の設置	-10.5486
却	-10.5487
緩和	-10.5488
曹	-10.549
相続	-10.5491
連れ	-10.5493
換	-10.5498
せた	-10.5498
、2018	-10.5498
見た	-10.55
こととなった	-10.5501
ゼロ	-10.5502
保持	-10.5502
壇	-10.5503
に至るまで	-10.5504
もあって	-10.5504
征服	-10.5508
世紀末	-10.5508
旧暦	-10.5509
▁mm	-10.5511
語で	-10.5512
に至った	-10.5512
易	-10.5513
すぎ	-10.5517
沿い	-10.552
以外にも	-10.552
聖書	-10.5521
の生産	-10.5522
を変え	-10.5524
フィリピン	-10.5529
国防	-10.5529
目的で	-10.5529
わり	-10.5532
松山	-10.5532
坊	-10.5533
全日本	-10.5536
おう	-10.5536
ーク	-10.5537
隔	-10.5538
溝	-10.5542
の息子	-10.5543
行く	-10.5544
ことや	-10.5544
年以上	-10.5546
魂	-10.5546
始発	-10.5547
亡命	-10.5549
▁2002	-10.5553
拝	-10.5553
索	-10.5555
堺	-10.5555
死刑	-10.556
以外で	-10.556
乗客	-10.5561
平面	-10.5564
経済的	-10.5566
が用いられる	-10.5572
時刻	-10.5576
ランプ	-10.5576
収め	-10.5577
_1	-10.5583
に分かれ	-10.5583
―	-10.5585
ことはなかった	-10.5586
▁se	-10.559
賞を受賞	-10.559
感覚	-10.559
リオン	-10.5591
上がり	-10.5593
威	-10.5594
きょう	-10.5595
ッキー	-10.5595
も参照	-10.5596
登場する	-10.5597
序	-10.5601
崇	-10.5607
独占	-10.5612
に追い	-10.5612
場合に	-10.5612
なって	-10.5614
ケーブル	-10.5614
分散	-10.5614
告	-10.5615
の大半	-10.5617
駅である	-10.562
、2022	-10.5622
、2017	-10.5623
であって	-10.5625
身分	-10.5626
カッ	-10.5629
暫定	-10.5629
理想	-10.5631
アカデミー	-10.5633
牌	-10.5633
トス	-10.5641
飲	-10.5642
割り	-10.5643
大宮	-10.5645
▁2001	-10.5647
推移	-10.5647
王の	-10.5649
再編	-10.565
ライセンス	-10.5651
併設	-10.5651
態度	-10.5658
合同	-10.5662
認知	-10.5666
陸上	-10.5667
十二	-10.5667
静岡県	-10.5667
1957	-10.5668
が発生する	-10.5668
停車する	-10.5669
エレ	-10.5669
出た	-10.567
eu	-10.5674
炭素	-10.5676
国籍	-10.5677
出資	-10.5678
皇后	-10.5678
監視	-10.5678
インチ	-10.568
実施された	-10.5681
団地	-10.5682
受験	-10.5682
シュー	-10.5683
駅発着	-10.5684
▁人物	-10.5685
彼が	-10.5686
テレビドラマ	-10.5686
ダウン	-10.5687
イラスト	-10.5689
疑問	-10.5691
認められ	-10.5691
招	-10.5692
夫人	-10.5694
ておらず	-10.5697
とする説	-10.5698
前者	-10.5701
カム	-10.5703
を中心とする	-10.5708
パイ	-10.5708
圧縮	-10.5709
劣	-10.5711
スクール	-10.5712
の意	-10.5713
用意	-10.5715
協議	-10.5715
察	-10.5721
通常は	-10.5723
自体は	-10.5726
発展した	-10.5726
cl	-10.5728
守備	-10.5728
の声	-10.5729
▁j	-10.5732
ライナー	-10.5734
が強く	-10.5734
ポル	-10.5736
といえる	-10.5739
細菌	-10.574
既	-10.5743
が置かれ	-10.5744
レーション	-10.5745
に存在する	-10.5745
いくつか	-10.5746
折り返し	-10.5748
学院	-10.575
予選	-10.5754
世紀後半	-10.5754
紋	-10.5756
ちなみに	-10.5756
上陸	-10.576
握	-10.576
長らく	-10.5761
にいた	-10.5765
スペ	-10.5767
con	-10.5768
結び	-10.577
いつ	-10.5772
ud	-10.5773
見え	-10.5775
iii	-10.5775
脱出	-10.5777
拠	-10.578
童	-10.5782
長さ	-10.5782
作者	-10.5784
ナス	-10.5785
かく	-10.5785
側が	-10.5787
香港	-10.5787
スイッチ	-10.5787
フィン	-10.5787
東方	-10.579
ソロ	-10.5792
ジェット	-10.5793
ニュ	-10.5794
した上で	-10.5794
曲線	-10.5797
鮮	-10.5797
shi	-10.5803
自殺	-10.5811
徒	-10.5813
じょう	-10.5814
に伴って	-10.5815
1942	-10.5816
を採用し	-10.5819
103	-10.5821
出典	-10.5823
べく	-10.5826
ジェン	-10.5828
署	-10.5828
の上	-10.583
が主流	-10.5832
特許	-10.5834
削	-10.5834
機関車	-10.5835
プロセス	-10.5836
の列車	-10.5838
、1970	-10.5841
泳	-10.5841
;/	-10.5842
致	-10.5842
ビッグ	-10.5846
河内	-10.5854
出来る	-10.5857
映	-10.5862
手を	-10.5863
ヨー	-10.5866
の流れ	-10.5866
総裁	-10.5868
特攻	-10.5869
インタビュー	-10.5873
融	-10.5877
されたため	-10.5877
中学	-10.588
ft	-10.588
ホン	-10.588
柏	-10.5881
の影響で	-10.5882
段階で	-10.5885
クライ	-10.5885
逃れ	-10.589
敷設	-10.589
トーク	-10.5891
会津	-10.5891
影響を与えた	-10.5893
的なもの	-10.5894
訪問	-10.5894
丈	-10.5895
伊豆	-10.5896
内戦	-10.5897
水道	-10.5899
捜査	-10.5899
ぜ	-10.5899
nk	-10.59
新人	-10.59
▁本	-10.59
逃	-10.5901
混合	-10.5903
傾	-10.5903
置かれ	-10.5906
する必要がある	-10.5907
が設置された	-10.591
つつある	-10.5911
ab	-10.5911
暗号	-10.5912
物理	-10.5912
近隣	-10.5917
博多	-10.5918
tr	-10.5918
マルクス	-10.592
のもと	-10.592
we	-10.5921
繁	-10.5921
宮崎	-10.5923
趣味	-10.5926
卒業後	-10.5926
sh	-10.5926
の一環として	-10.5927
を理由に	-10.5927
ハル	-10.5927
成田	-10.5931
女王	-10.5931
描かれている	-10.5936
を立て	-10.5938
と異なり	-10.5941
を迎えた	-10.5941
ae	-10.5944
はなかった	-10.5946
屋敷	-10.5947
ヘン	-10.595
建て	-10.5952
上部	-10.5952
よし	-10.5953
各社	-10.5956
学術	-10.5956
3%	-10.5957
ところが	-10.5958
の自由	-10.5959
分野で	-10.596
並ぶ	-10.596
を探	-10.5961
che	-10.5961
乗降	-10.5963
元の	-10.5965
変動	-10.5968
動員	-10.597
第一次	-10.5972
以外は	-10.5974
車両は	-10.5978
前提	-10.5978
機を	-10.5979
るべき	-10.5981
鉄道の	-10.5981
呂	-10.5982
放射	-10.5983
した際	-10.5984
gra	-10.5989
国内の	-10.5993
彼らの	-10.5993
タス	-10.5994
駅周辺	-10.5995
することとなった	-10.5996
向けに	-10.5998
司馬	-10.6001
1951	-10.6002
るもの	-10.6002
菊	-10.6002
功績	-10.6003
端末	-10.6004
int	-10.6004
スコ	-10.6006
ました	-10.6007
und	-10.6009
後述の	-10.6011
しき	-10.6012
虚	-10.6016
襲撃	-10.6017
武士	-10.6018
-0	-10.602
扱	-10.6021
働き	-10.6024
ズの	-10.6024
松平	-10.6026
以下のような	-10.6026
がそれぞれ	-10.6027
北方	-10.6032
遺産	-10.6032
が特徴	-10.6036
事を	-10.6037
水準	-10.6037
終点	-10.6039
日本に	-10.604
山駅	-10.6041
と表記	-10.6045
連合軍	-10.6045
調べ	-10.6046
単行本	-10.6048
ツー	-10.6049
者たち	-10.6054
尻	-10.6057
ビュー	-10.6062
還	-10.6063
を持た	-10.6065
使用されていた	-10.6065
日本海	-10.6065
宇都宮	-10.6066
浩	-10.6066
日常	-10.6068
を占め	-10.6068
署名	-10.6069
の大部分	-10.607
移行	-10.6071
部分は	-10.6075
北条	-10.6076
森林	-10.6077
の他	-10.6079
と述べた	-10.6079
サハ	-10.6079
いった	-10.6081
氏は	-10.6081
dd	-10.6082
)5	-10.6084
有機	-10.6085
日付で	-10.6088
亡	-10.6091
複雑な	-10.6093
モハ	-10.6094
故障	-10.6094
メス	-10.6095
出来事	-10.6096
ネオ	-10.6096
配慮	-10.6099
アクション	-10.6101
sl	-10.6102
発生した	-10.6106
ジョー	-10.6106
文章	-10.6108
に乗り	-10.6109
高原	-10.6109
はほぼ	-10.6111
クロー	-10.6111
するように	-10.6118
時間が	-10.6124
付近に	-10.6124
落語	-10.6128
列車の	-10.6129
メッセージ	-10.613
を抱え	-10.6133
tri	-10.6133
ここでは	-10.6135
農民	-10.6139
中山	-10.6142
作品は	-10.6143
1%	-10.6144
グラン	-10.6145
商人	-10.6146
and	-10.6147
デモ	-10.6147
)8	-10.6152
依存	-10.6153
腸	-10.6154
探	-10.6154
順に	-10.6156
両国	-10.6157
の間の	-10.616
art	-10.616
併	-10.616
を繰り返し	-10.6164
市街	-10.6168
家に	-10.617
そこ	-10.6172
相談	-10.6175
潤	-10.6176
hd	-10.6177
中華民国	-10.6177
の末	-10.6177
私は	-10.6182
ことが多く	-10.6183
牽引	-10.6187
売上	-10.6188
完全な	-10.619
立った	-10.619
▁来歴	-10.619
既存の	-10.6192
免	-10.6193
の長さ	-10.6195
放出	-10.6197
付属	-10.6197
ウィーン	-10.6198
近江	-10.6198
市に	-10.6198
気圧	-10.62
そこから	-10.62
発車	-10.6201
設定されている	-10.6203
フレーム	-10.6204
次のように	-10.6205
ティン	-10.6206
ボス	-10.6209
野村	-10.621
ることとなった	-10.621
所得	-10.6212
死者	-10.6213
にあたって	-10.6214
が強い	-10.6218
調理	-10.622
が最も	-10.6222
を持たない	-10.6222
に終わった	-10.6222
ウルトラ	-10.6223
僕	-10.6223
–	-10.6223
都心	-10.6223
を出した	-10.6225
その際	-10.6225
揚げ	-10.6226
▁同年	-10.6227
ネイ	-10.6228
演劇	-10.6229
国土	-10.6237
2%	-10.6238
を出す	-10.6239
の代表	-10.6242
マスター	-10.6243
度目の	-10.6244
側から	-10.6245
同期	-10.6251
西暦	-10.6252
ユニ	-10.6252
休日	-10.6254
依	-10.6254
合戦	-10.6255
市立	-10.6256
模様	-10.6256
部長	-10.6259
活躍した	-10.6259
語り	-10.626
下記の	-10.6263
は当初	-10.6265
自動券売機	-10.6265
創立	-10.6265
おか	-10.6266
キャン	-10.6269
スコットランド	-10.627
判明	-10.627
サイクル	-10.6271
長年	-10.6273
脈	-10.6274
想定	-10.6275
互いに	-10.6276
人生	-10.6278
ソング	-10.6279
教員	-10.6283
非常	-10.6283
会談	-10.6286
第二次	-10.6287
各地で	-10.6287
ヌス	-10.6287
!!	-10.6289
なっていった	-10.6289
250	-10.6289
を加えた	-10.629
活発	-10.6293
レンズ	-10.6298
株主	-10.6299
待ち	-10.63
借り	-10.63
モリ	-10.63
婚	-10.6303
自身は	-10.6305
橋駅	-10.6305
北米	-10.6307
動画	-10.6307
交易	-10.6308
正式な	-10.6309
の高さ	-10.6309
人員	-10.631
クイズ	-10.6311
突き	-10.6312
をしていた	-10.6314
として知られる	-10.6314
激しく	-10.6315
埋め	-10.6316
総会	-10.6316
ドライバー	-10.6316
学会	-10.6318
スパ	-10.6318
転用	-10.6318
推薦	-10.632
函館	-10.6321
▁pa	-10.6324
山形	-10.633
直通運転	-10.6335
ボイ	-10.6337
貯	-10.6338
之助	-10.6338
製造された	-10.634
午前	-10.6345
若干	-10.6345
ant	-10.6346
編入	-10.6347
ベルク	-10.635
ものだった	-10.635
任意の	-10.6351
読者	-10.6352
航路	-10.6352
プラス	-10.6354
哲	-10.6355
終戦	-10.6358
の上に	-10.636
の普及	-10.636
jo	-10.636
小田原	-10.6361
利用できる	-10.6362
入れる	-10.6362
を代表する	-10.6362
一帯	-10.6364
逸	-10.6364
育て	-10.6366
の増加	-10.6368
先端	-10.6369
所在地	-10.6369
摂取	-10.6373
sd	-10.6376
北京	-10.6377
革	-10.638
年時点で	-10.6382
トム	-10.6384
ity	-10.6386
の動き	-10.6387
長距離	-10.6387
巨大な	-10.6389
コンビ	-10.6391
広域	-10.6394
」・「	-10.6397
高速バス	-10.6399
全面	-10.6399
懸念	-10.6401
のお	-10.6401
監督の	-10.6407
アルコール	-10.6409
に必要な	-10.6409
委員長	-10.641
解除	-10.641
てん	-10.641
線で	-10.641
事が	-10.6411
悩	-10.6413
忍	-10.6415
独裁	-10.6415
プレート	-10.6416
頻繁に	-10.6418
テレビアニメ	-10.6422
キリスト	-10.6423
順次	-10.6424
最後に	-10.6424
軒	-10.6424
と同様の	-10.6425
損害	-10.6425
▁2023	-10.6425
民衆	-10.6426
rp	-10.6426
物体	-10.6428
入口	-10.643
という説	-10.6436
ムス	-10.6437
北条氏	-10.6437
衝撃	-10.6438
代の	-10.644
リーダー	-10.6443
であることから	-10.6444
岐阜	-10.6444
完了	-10.6446
篠	-10.6448
山陽	-10.6451
本数	-10.6451
太田	-10.6452
プロダクション	-10.6452
フロント	-10.6453
cpu	-10.6455
都合	-10.6456
いき	-10.6456
再現	-10.6457
方に	-10.6458
考慮	-10.646
おく	-10.6461
ラウ	-10.6462
々と	-10.6464
をしている	-10.6464
の多い	-10.6467
▁近年の	-10.6467
二次	-10.6467
たら	-10.6468
トロン	-10.6469
要望	-10.647
法第	-10.6471
を示し	-10.6473
明確に	-10.6473
比例	-10.6474
ナチス	-10.6476
ゲート	-10.6477
などにより	-10.6478
れて	-10.648
代わり	-10.6482
終わる	-10.6483
レーダー	-10.6486
特殊な	-10.6486
生物学	-10.6487
てい	-10.6487
ことはできない	-10.6487
熊	-10.6489
を与えた	-10.6492
回収	-10.6492
省略	-10.6492
手術	-10.6493
がほとんど	-10.6493
払い	-10.6493
▁出典	-10.6496
ナンバー	-10.6496
研	-10.6499
オープニング	-10.65
の全	-10.65
短編	-10.65
駅間で	-10.6501
ロイ	-10.6501
ケット	-10.6502
後方	-10.6502
になっており	-10.6503
操	-10.6504
の総	-10.6507
と述べ	-10.6507
1937	-10.6507
書かれ	-10.6508
測	-10.6508
かれる	-10.6508
が少なく	-10.6511
に用いられる	-10.6511
近年は	-10.6512
が決定	-10.6513
なかったが	-10.6513
競	-10.6514
平安時代	-10.6515
ウェル	-10.6516
選ばれた	-10.6516
となったが	-10.6517
所在	-10.6518
の記録	-10.6521
リアン	-10.6524
掛	-10.6526
駆	-10.6526
県内	-10.6529
抑制	-10.653
マイル	-10.6531
次々と	-10.6531
千代	-10.6534
を挙げ	-10.6536
共産主義	-10.6538
独特の	-10.6538
ダイヤ改正	-10.6541
を形成する	-10.6541
雇用	-10.6542
内では	-10.6543
養子	-10.6546
レーター	-10.6546
ボディ	-10.6547
アーティスト	-10.6548
ジャック	-10.6551
皇子	-10.6552
齢	-10.6553
駅舎は	-10.6553
900	-10.6555
実況	-10.6556
タクシー	-10.6557
は通常	-10.6561
打者	-10.6563
を持って	-10.6564
不可	-10.6567
勘	-10.6567
1,000	-10.6569
ヤン	-10.6571
何らかの	-10.6572
nd	-10.6574
の支配	-10.6576
水戸	-10.6578
確実	-10.6583
あら	-10.6583
戦士	-10.6584
達成	-10.6586
改め	-10.6588
染	-10.6589
led	-10.659
疎	-10.6591
トゥー	-10.6591
重力	-10.6595
のみの	-10.6597
司令部	-10.6597
ロッ	-10.6597
賛	-10.6598
大量の	-10.66
乾	-10.6601
次に	-10.6602
日曜	-10.6604
設	-10.6604
もなく	-10.6605
取る	-10.6608
の仕事	-10.6609
嶋	-10.661
サイン	-10.6613
官僚	-10.6613
との間で	-10.6613
同日	-10.6613
中でも	-10.6613
連合国	-10.6615
保証	-10.6623
に参加	-10.6625
示唆	-10.6629
出演した	-10.6633
ないように	-10.6636
サム	-10.6637
荷	-10.6639
にわたり	-10.664
入手	-10.6642
掃	-10.6644
携帯電話	-10.6644
接続する	-10.6645
該当	-10.6651
文化財	-10.6653
汚	-10.6653
鋭	-10.6654
▁ca	-10.6656
渡辺	-10.6657
だったため	-10.6657
ことも多い	-10.6657
グループの	-10.6661
les	-10.6662
駅は	-10.6664
野菜	-10.6667
離婚	-10.6669
の運用	-10.667
されたこと	-10.6676
に従って	-10.668
ag	-10.6682
滞在	-10.6684
近世	-10.6684
容易に	-10.6687
キュー	-10.6689
の基礎	-10.669
アイドル	-10.6691
年後の	-10.6691
母音	-10.6692
サウンド	-10.6692
道を	-10.6694
前半	-10.6695
両親	-10.6695
数を	-10.6696
、2021	-10.6698
大坂	-10.6698
rs	-10.6707
利用可能	-10.6707
判定	-10.6707
大橋	-10.6709
産物	-10.671
夕方	-10.671
境界	-10.6713
を用い	-10.6713
当日	-10.6714
wi	-10.6714
されるが	-10.6714
提唱	-10.6715
癌	-10.6717
、2002	-10.672
を求め	-10.6724
山地	-10.6727
戦国時代	-10.6727
tor	-10.6729
たのは	-10.6729
伝える	-10.673
確率	-10.673
基本的な	-10.673
警備	-10.6733
も含め	-10.6734
の状態	-10.6736
ミング	-10.6738
くる	-10.6741
コミュニティ	-10.6741
158	-10.6743
の番組	-10.6744
する形で	-10.675
東日本旅客鉄道	-10.6751
参考	-10.6755
主権	-10.6756
▁con	-10.6756
法令	-10.6757
と言って	-10.6757
部分が	-10.6758
フィル	-10.676
勲	-10.676
取り入れ	-10.6762
▁紀元前	-10.6763
内容は	-10.6763
4%	-10.6764
横断	-10.6767
jct	-10.6768
不安	-10.6769
社名	-10.6772
炭	-10.6775
存在し	-10.6775
結論	-10.6778
を始めた	-10.6779
年ぶりに	-10.6779
んじ	-10.678
籠	-10.678
の実	-10.6783
季節	-10.6783
sta	-10.6783
かける	-10.6787
中将	-10.6787
単式ホーム	-10.679
パーソナリティ	-10.679
煮	-10.679
を達成	-10.6791
緩	-10.6791
開放	-10.6794
ya	-10.6795
本店	-10.6799
セレ	-10.68
伏	-10.6803
有利	-10.6805
再開発	-10.6807
全長	-10.6809
防御	-10.6813
国内で	-10.6816
を開始し	-10.6817
全米	-10.6818
開き	-10.6818
描き	-10.682
ことである	-10.682
工作	-10.6822
130	-10.6824
とも呼ばれ	-10.6826
と考えられ	-10.6827
pp	-10.6827
運航	-10.683
シリーズの	-10.6831
が登場する	-10.6832
腰	-10.6834
ようやく	-10.6834
用として	-10.6835
の父	-10.6836
しなければならない	-10.6836
書店	-10.6837
ヤー	-10.6838
外側	-10.6838
メジャー	-10.6839
グレード	-10.6844
移植	-10.6847
債務	-10.685
pri	-10.685
運行されている	-10.6852
第四	-10.6854
舟	-10.6854
mc	-10.6855
cr	-10.6855
公開された	-10.6856
認可	-10.6859
摂	-10.6863
ある程度	-10.6864
電磁	-10.6865
南西	-10.6866
軍団	-10.6867
に比べ	-10.6871
ホワイト	-10.6874
応援	-10.6874
7%	-10.6876
扇	-10.6879
にとっては	-10.6882
ちょう	-10.6883
警戒	-10.6884
の高	-10.6891
を失った	-10.6894
行っている	-10.6895
現存	-10.6895
スパイ	-10.6896
留学	-10.6896
請	-10.6896
ごう	-10.6897
併用	-10.69
を出し	-10.69
飛行機	-10.6901
少なく	-10.6905
ゅ	-10.6906
見て	-10.6908
mar	-10.6908
の言葉	-10.691
▁さらに	-10.6914
に次いで	-10.6916
太平洋戦争	-10.6918
必	-10.6918
ヨーロッパの	-10.6919
6%	-10.6919
人たち	-10.6922
絡	-10.6922
8%	-10.6923
いなかった	-10.6924
ian	-10.6925
を担当した	-10.6925
ピア	-10.6926
ヴィン	-10.693
それ以外の	-10.6931
られない	-10.6933
恋	-10.6937
で構成され	-10.6938
永禄	-10.6939
まって	-10.694
後継者	-10.6949
なっていた	-10.6949
創造	-10.695
▁1970	-10.6951
量が	-10.6952
乗務員	-10.6953
茎	-10.6953
挙げられ	-10.6956
とは別に	-10.6957
存在しない	-10.6958
麦	-10.6958
京都府	-10.6959
ダンス	-10.696
スティ	-10.6962
を元に	-10.6965
限られ	-10.6969
年までに	-10.6974
したい	-10.6974
が可能である	-10.6976
満洲	-10.698
次男	-10.6981
シェア	-10.6983
エドワード	-10.6983
があるため	-10.6984
総督	-10.6984
駅と	-10.6986
作詞	-10.6989
聞き	-10.6991
融合	-10.6991
ことができない	-10.6991
各地の	-10.6993
cu	-10.6993
容易	-10.6994
派生	-10.6996
まさ	-10.6996
ze	-10.6998
変数	-10.6998
登場した	-10.7002
していること	-10.701
存在している	-10.7013
1939	-10.7013
を機に	-10.7018
渡り	-10.7021
目を	-10.7023
ボーイ	-10.7023
の外	-10.7024
ビール	-10.7027
かね	-10.7029
ワーク	-10.703
輔	-10.7033
橋本	-10.7036
知り	-10.7038
rc	-10.704
家が	-10.7043
葛	-10.7043
これに対して	-10.7046
邪	-10.7048
ユーロ	-10.7049
奉行	-10.7056
トランス	-10.7058
酷	-10.7059
琉球	-10.7059
体育	-10.706
地中海	-10.706
発掘	-10.7061
食用	-10.7062
島津	-10.7065
晩	-10.7065
▁16	-10.7069
と称し	-10.7069
ませ	-10.7072
を重ね	-10.7073
徹	-10.7073
実用	-10.7074
装着	-10.7076
を避け	-10.7078
ep	-10.7079
実際	-10.7083
後任	-10.7084
統制	-10.7084
行事	-10.7087
▁20	-10.7087
モール	-10.7087
山の	-10.7095
出撃	-10.7096
開幕	-10.7097
稀	-10.7099
介入	-10.71
を記録した	-10.7101
観光客	-10.7104
マツ	-10.7106
を守る	-10.7108
見られた	-10.711
複雑	-10.7111
ドイツ軍	-10.7111
準急	-10.7113
を続け	-10.7114
公認	-10.7115
のメンバー	-10.7115
爆撃	-10.7117
ace	-10.7118
使用され	-10.7119
番目の	-10.7127
自民党	-10.7129
寮	-10.7129
チョウ	-10.7131
ちゃ	-10.7133
祐	-10.7134
前期	-10.7138
選ばれ	-10.7139
ファミリー	-10.714
ボックス	-10.714
東海道	-10.7141
捉え	-10.7143
誓	-10.7144
宛	-10.7145
の範囲	-10.7146
最上	-10.7148
はこれを	-10.7148
蓄	-10.7149
にあたり	-10.7151
同時期に	-10.7151
順位	-10.7152
闘争	-10.7157
by	-10.7157
チームの	-10.7158
サーバ	-10.7158
加速	-10.7159
fifa	-10.716
世紀初頭	-10.7161
航海	-10.7164
始める	-10.7166
mu	-10.7168
ドライブ	-10.7168
ことによって	-10.7169
業績	-10.7171
ロバート	-10.7173
在位	-10.7178
の一覧	-10.718
は存在しない	-10.718
1936	-10.7181
▁di	-10.7184
並行	-10.7185
制約	-10.7186
窓口	-10.7189
青森	-10.7189
請求	-10.7191
支社	-10.7194
国民の	-10.7195
悲	-10.7195
▁la	-10.7196
ついに	-10.7196
変わり	-10.7197
をかけ	-10.7198
歌詞	-10.7198
を掲げ	-10.72
市内の	-10.72
斬	-10.7201
勾配	-10.7201
消滅した	-10.7201
単純	-10.7202
演説	-10.7202
やす	-10.7207
提示	-10.7208
ユダヤ	-10.7209
の姿	-10.721
ッセ	-10.721
▁のりば	-10.721
負傷	-10.7212
col	-10.7215
自体が	-10.722
ぷ	-10.7221
の基本	-10.7225
アマチュア	-10.7226
という名称	-10.7227
ていたため	-10.7227
開拓	-10.7228
ダブル	-10.7229
編纂	-10.7231
全車	-10.7237
五郎	-10.7237
塗	-10.7238
タンク	-10.7239
シップ	-10.724
婦	-10.7241
その一方で	-10.7246
繰り	-10.7247
主流	-10.7248
与えられる	-10.7248
送った	-10.7249
に出場	-10.7249
英雄	-10.7251
しつつ	-10.7254
バート	-10.7254
後世	-10.7256
治安	-10.7261
併合	-10.7264
同意	-10.7265
後者	-10.7266
擬	-10.7267
探偵	-10.7267
ef	-10.7269
▁be	-10.7273
挿入	-10.7275
無かった	-10.7278
ライフ	-10.7282
間を	-10.7282
機能を	-10.7287
表明	-10.7287
曜日	-10.7287
有限	-10.729
マラ	-10.7292
強力な	-10.7293
稼	-10.7293
上は	-10.7295
ica	-10.7296
けい	-10.7297
行われていた	-10.7298
、2001	-10.7301
民主主義	-10.7302
いろ	-10.7303
月現在	-10.7303
船舶	-10.7303
ペルシア	-10.7304
託	-10.7305
に向かう	-10.7306
駐車場	-10.7309
の前身	-10.731
下部	-10.7312
の記述	-10.7317
学的	-10.7319
ソビエト連邦	-10.732
遺伝	-10.7322
になること	-10.7324
軟	-10.7324
に引き	-10.7326
述べている	-10.7326
美濃	-10.7328
られており	-10.7331
イタリアの	-10.7331
稿	-10.7333
当然	-10.7334
出走	-10.7337
ともいう	-10.7338
が生じ	-10.7339
これによって	-10.7342
若者	-10.7344
結ばれ	-10.7345
針	-10.7346
はあまり	-10.7349
もいる	-10.7352
ソル	-10.7355
ギー	-10.7356
ったり	-10.7357
ペー	-10.736
広がり	-10.7361
護衛	-10.7364
の役割	-10.7365
変わる	-10.7366
マニ	-10.7366
皇太子	-10.7366
私立	-10.7367
を迎え	-10.7369
形を	-10.7369
といわれている	-10.7374
万石	-10.7374
赤字	-10.7374
ロイド	-10.7376
無限	-10.7377
個別	-10.738
してから	-10.738
騎	-10.738
白人	-10.7381
もし	-10.7384
事実上の	-10.7385
誇	-10.7386
フリードリヒ	-10.7386
突然	-10.7387
ibm	-10.7388
組み合わせ	-10.7389
引用	-10.7389
授	-10.7391
浅草	-10.7399
-5	-10.74
涼	-10.7402
劇団	-10.7402
フォル	-10.7403
気体	-10.7404
黙	-10.7407
流域	-10.7408
シェル	-10.7409
の主	-10.7409
回数	-10.741
信濃	-10.7413
グラス	-10.7415
my	-10.7415
代理	-10.7419
侵入	-10.7419
ペイ	-10.7425
▁交通	-10.7426
car	-10.7429
等で	-10.743
停	-10.743
修理	-10.7435
状に	-10.7436
そんな	-10.7439
万ドル	-10.744
一家	-10.7441
兵衛	-10.7441
生じる	-10.7442
避	-10.7443
石川	-10.7446
ッタ	-10.7447
箱根	-10.7447
本格的な	-10.7448
せずに	-10.7448
習慣	-10.745
成立した	-10.745
冬季	-10.7451
どちら	-10.7451
技法	-10.7451
日光	-10.7456
神の	-10.7458
会の	-10.7462
▁東	-10.7462
キル	-10.7463
信頼	-10.7464
の下に	-10.7466
の二	-10.7467
米軍	-10.7469
バス停	-10.7469
new	-10.747
出演者	-10.747
だけの	-10.7471
希	-10.7474
ライオン	-10.7477
勧め	-10.7477
協議会	-10.7477
cp	-10.7478
当局	-10.7479
独自	-10.7486
侍	-10.7486
黒人	-10.7486
たという	-10.7487
ob	-10.7491
突入	-10.7492
続ける	-10.7493
対称	-10.7493
三井	-10.7497
黄金	-10.7497
を経由して	-10.7498
ソース	-10.75
明治時代	-10.7501
アニメーション	-10.7502
顕著	-10.7502
織	-10.7503
もあるが	-10.7504
▁[[	-10.7505
同月	-10.7505
に入学	-10.7505
コレクション	-10.7507
汁	-10.7507
を使用している	-10.751
1933	-10.7513
行使	-10.7513
立法	-10.7517
上海	-10.7518
▁o	-10.7519
イド	-10.7519
を起こす	-10.752
af	-10.7521
pr	-10.7522
郭	-10.7523
羊	-10.7528
とみなされ	-10.7528
gu	-10.7529
仮名	-10.753
悟	-10.7532
キシ	-10.7532
ガリ	-10.7532
やはり	-10.7538
連隊	-10.7538
綿	-10.7539
丁目にある	-10.754
っと	-10.754
冷房	-10.7544
まい	-10.7547
とはいえ	-10.7548
カーブ	-10.755
が無い	-10.755
定められた	-10.7552
後には	-10.7552
間隔	-10.7552
日目	-10.7554
是	-10.7554
澄	-10.7555
宮廷	-10.7555
否	-10.7557
山岳	-10.756
▁\	-10.756
充	-10.7561
漁業	-10.7565
蓮	-10.7568
検出	-10.7568
当初から	-10.757
篇	-10.757
説得	-10.7571
不動産	-10.7572
を形成し	-10.7572
アメリカ合衆国の	-10.7573
繊維	-10.7575
クラシック	-10.7576
しているため	-10.7578
地域で	-10.7579
怪獣	-10.7579
ビタミン	-10.7581
和歌山	-10.7583
宏	-10.7586
戦術	-10.7587
査	-10.7588
の運転	-10.7591
潜水艦	-10.7592
宮殿	-10.7593
死後	-10.7594
▁三	-10.7597
貨物列車	-10.7599
場合が多い	-10.76
時点では	-10.7602
絶滅	-10.7604
事項	-10.7604
外観	-10.7604
搭乗	-10.7606
だという	-10.7607
イエス	-10.7609
在来線	-10.7611
と言える	-10.7613
寝台	-10.7614
兵力	-10.7614
要件	-10.7616
使用していた	-10.7616
数十	-10.7618
が非常に	-10.7619
採用された	-10.7621
アブ	-10.7622
烈	-10.7623
課税	-10.7623
変形	-10.7628
日曜日	-10.7629
ていること	-10.7632
射撃	-10.7633
放送されていた	-10.7633
十字	-10.7635
金額	-10.7639
に対応する	-10.764
▁12	-10.764
現れた	-10.7642
最寄り	-10.7643
途中で	-10.7645
と言われ	-10.7646
最新	-10.7649
啓	-10.765
テレビ番組	-10.765
存在していた	-10.7652
はまだ	-10.7653
扱う	-10.7655
ガソリン	-10.7656
一時期	-10.7656
早朝	-10.7658
設けられ	-10.7658
中央部	-10.7659
キャラ	-10.766
曜	-10.7661
の構造	-10.7662
参入	-10.7663
駅構内	-10.7663
の変更	-10.7663
後ろ	-10.7663
が始まり	-10.7664
借	-10.7664
直後の	-10.7666
α	-10.7666
アドレス	-10.7668
発生する	-10.7669
馬場	-10.7669
挙げ	-10.767
単語	-10.7671
謀	-10.7674
ソニー	-10.7674
述べる	-10.7677
モア	-10.7678
菜	-10.7678
を含めて	-10.7678
▁各	-10.7679
惑	-10.7679
駿	-10.768
主義者	-10.7682
続けている	-10.7682
乙	-10.7682
経由で	-10.7684
獄	-10.7685
を率いて	-10.7686
的である	-10.7688
何か	-10.7688
産地	-10.7689
を目的として	-10.7691
首都圏	-10.7691
ジェイ	-10.7691
カトリック教会	-10.7695
ヴェー	-10.7696
の駅である	-10.7698
ほとんどが	-10.7698
は全く	-10.7699
アミ	-10.77
自身も	-10.7703
の他に	-10.7705
臨時列車	-10.7705
の販売	-10.7707
成人	-10.7714
パーセント	-10.7716
不要	-10.7718
に移転	-10.7719
の製造	-10.773
戦では	-10.773
テーブル	-10.773
士官	-10.7731
市域	-10.7731
装飾	-10.7733
ドール	-10.7737
他社	-10.7738
命中	-10.7738
-8	-10.7741
率が	-10.7742
筑	-10.7746
の主要	-10.7751
住宅地	-10.7752
伝達	-10.7752
ブック	-10.7755
敗戦	-10.7756
地区の	-10.7757
屈	-10.7757
現状	-10.7758
は基本的に	-10.776
ホームは	-10.7765
種子	-10.7769
三国	-10.7771
過ごし	-10.7772
アメリカン	-10.7773
あくまで	-10.7774
アント	-10.778
飼育	-10.778
と同一	-10.7782
手がけ	-10.7785
的で	-10.7785
商業施設	-10.7785
1934	-10.7786
保安	-10.7788
アルゼンチン	-10.779
苗	-10.779
の差	-10.7791
数多くの	-10.7791
しようとした	-10.7795
塾	-10.7795
コマ	-10.7799
▁明治	-10.78
避難	-10.7801
炉	-10.7801
以前から	-10.7803
落とし	-10.7804
ゆう	-10.7806
に復帰	-10.7806
釜	-10.7807
竣工	-10.7807
社が	-10.7807
ラブ	-10.7809
日野	-10.7811
ers	-10.7813
を最後に	-10.7816
させるため	-10.7816
ーナ	-10.7817
dr	-10.7817
刺激	-10.7818
土佐	-10.7821
私鉄	-10.7821
隣の	-10.7822
セブン	-10.7823
詩人	-10.7823
暮らし	-10.7825
最終的には	-10.7827
していなかった	-10.7828
とある	-10.7828
プロセッサ	-10.7828
ハッ	-10.783
新聞社	-10.7831
司教	-10.7831
使われていた	-10.7831
メタ	-10.7832
アカ	-10.7833
くり	-10.7834
まったく	-10.7834
でなく	-10.7836
に至って	-10.7838
相互作用	-10.7846
海水	-10.7846
年間の	-10.7847
中断	-10.7847
進歩	-10.7851
記述する	-10.7852
結果として	-10.7855
が存在した	-10.7855
福岡県	-10.7856
努力	-10.7857
強度	-10.7858
ボタン	-10.786
祀	-10.786
肝	-10.786
履	-10.7866
の法則	-10.7866
賜	-10.7867
見方	-10.7867
横浜市	-10.7867
トヨタ	-10.7869
の向上	-10.7871
1935	-10.7871
弁護士	-10.7872
ディーゼル	-10.7877
もまた	-10.7877
位相	-10.788
が必要である	-10.788
考	-10.7881
チベット	-10.7883
識	-10.7883
岡田	-10.7884
の設定	-10.7884
若手	-10.7885
ノス	-10.7886
ster	-10.7888
法的	-10.7889
戦後の	-10.7892
評論家	-10.7896
人権	-10.7897
中核	-10.7898
-9	-10.7909
品質	-10.7916
概ね	-10.7918
群馬県	-10.792
瀬戸	-10.7921
イスラーム	-10.7921
を求めた	-10.7922
▁na	-10.7924
ことはない	-10.7924
披露	-10.7925
パッケージ	-10.7927
全般	-10.7939
する際に	-10.7939
することになる	-10.7942
そうした	-10.7943
ネーム	-10.7944
実在	-10.7944
地域では	-10.7944
は大きく	-10.7944
渡し	-10.7948
ならびに	-10.7949
てしまい	-10.795
が設けられ	-10.7952
前から	-10.7953
バッ	-10.7954
タイプの	-10.796
大量に	-10.796
を受けている	-10.7961
以下のように	-10.7961
正式	-10.7963
ショック	-10.7964
心理学	-10.7964
支線	-10.7965
スー	-10.7965
行なわれ	-10.7967
似ている	-10.7968
世に	-10.7972
夏の	-10.7973
に指定され	-10.7974
北西	-10.7976
淀	-10.7977
商店街	-10.7977
出店	-10.7979
猫	-10.7982
名詞	-10.7985
▁ア	-10.7985
の両方	-10.7988
年以降は	-10.7988
に沿って	-10.7988
土曜日	-10.7989
ものではない	-10.7989
巨大	-10.7989
耕	-10.7992
-10	-10.7993
がん	-10.7994
積み	-10.7995
養成	-10.7995
遡	-10.7998
○○	-10.7998
移管	-10.7999
年までは	-10.8001
京都市	-10.8002
利用される	-10.8005
第二次世界大戦後	-10.8006
競合	-10.8007
浄	-10.8007
コンセプト	-10.8009
アウ	-10.8012
梅田	-10.8014
小倉	-10.8015
はそれぞれ	-10.8018
陶	-10.8021
支配下	-10.8021
最古の	-10.8029
認	-10.8032
コム	-10.8033
ツァ	-10.8034
浸	-10.8037
不正	-10.8041
損傷	-10.8041
乃	-10.8043
両が	-10.8044
吹き	-10.8046
つけられ	-10.8046
鳥類	-10.8047
重複	-10.8048
主題	-10.8048
風の	-10.8049
東海道本線	-10.805
鉄道路線	-10.8051
取扱	-10.8052
日本書紀	-10.8054
の登場	-10.8055
キャリア	-10.8055
飛行場	-10.8056
、1960	-10.806
加熱	-10.806
gl	-10.8062
コピー	-10.8063
縄	-10.8065
貨幣	-10.8065
▁ch	-10.8069
鉱	-10.8069
フリ	-10.8071
係数	-10.8073
了	-10.8078
添	-10.8078
まん	-10.8079
変化する	-10.808
猿	-10.8081
に見られる	-10.8081
の設計	-10.8085
市と	-10.8085
これも	-10.8085
瓦	-10.8087
表す	-10.8087
予防	-10.8089
pro	-10.8093
勢力を	-10.8096
微分	-10.8096
直流	-10.8098
コウ	-10.8099
を大きく	-10.81
討ち	-10.8102
挟	-10.8103
儀式	-10.8107
氏が	-10.8109
来る	-10.8111
熱帯	-10.8114
を取って	-10.8114
用いる	-10.8115
人数	-10.8115
特急列車	-10.8117
ノール	-10.8117
しやすい	-10.8119
新型	-10.812
大戦	-10.8121
が生まれた	-10.8122
を起こした	-10.8123
を展開し	-10.8125
ディン	-10.8127
スピード	-10.8127
1938	-10.8128
体重	-10.8131
gr	-10.8133
チー	-10.8134
下関	-10.8136
を発売	-10.8137
しかった	-10.8138
ディオ	-10.8138
大西洋	-10.8146
時期に	-10.8147
天文学	-10.8147
ペット	-10.8148
沖縄県	-10.8148
明け	-10.8149
高崎	-10.815
を搭載した	-10.8151
情勢	-10.8152
諏訪	-10.8155
昇進	-10.8157
内蔵	-10.8162
エフ	-10.8163
無人駅	-10.8165
逆転	-10.8165
矛盾	-10.8166
名古屋市	-10.8169
モス	-10.817
ようと	-10.817
源氏	-10.8172
ならず	-10.8174
と呼ばれていた	-10.8174
交差	-10.8175
アメリカ人	-10.8175
汚染	-10.8183
出席	-10.8187
線を有する地上駅	-10.8188
優れ	-10.8188
マグ	-10.8189
公式サイト	-10.819
冒険	-10.8194
▁以下の	-10.8194
マガジン	-10.8194
内側	-10.8194
が開始され	-10.8198
力学	-10.8199
テキスト	-10.82
着用	-10.8201
ざる	-10.8206
を使用し	-10.8207
。2007	-10.8207
大使	-10.8209
進んで	-10.8209
がその	-10.821
▁("	-10.821
場所に	-10.8213
シオ	-10.8214
自主	-10.8215
選挙で	-10.8216
コント	-10.8219
に改称	-10.8219
の境界	-10.822
ロウ	-10.822
を扱う	-10.8225
書記	-10.8229
のデザイン	-10.8229
dc	-10.8229
地図	-10.823
へ向かう	-10.823
で行われる	-10.8231
中島	-10.8233
ビーム	-10.8234
のみを	-10.8235
企業の	-10.8235
世界遺産	-10.8236
らしい	-10.8236
はっきり	-10.8239
剛	-10.8239
前線	-10.8239
出雲	-10.8242
ova	-10.8242
燃焼	-10.8245
の開催	-10.8247
募集	-10.8247
up	-10.8248
が発表された	-10.8249
臭	-10.8251
ランク	-10.8251
▁西	-10.8252
食べる	-10.8252
が進み	-10.8253
出口	-10.8256
その中で	-10.8256
▁+	-10.8257
日をもって	-10.8257
さま	-10.8257
捕虜	-10.8262
の前に	-10.8262
の強い	-10.8266
入院	-10.8269
選挙区	-10.8273
越後	-10.8275
妃	-10.8275
蘭	-10.8277
責	-10.8278
に合わせ	-10.8278
の割合	-10.8279
グラム	-10.8279
することも	-10.8279
取られ	-10.828
垂	-10.828
インディ	-10.8281
向かい	-10.8282
交わ	-10.8284
ヒュー	-10.8284
も見られる	-10.8285
183	-10.8286
の表記	-10.8291
ライバル	-10.8292
9%	-10.8293
自分が	-10.8293
▁江戸時代	-10.8296
得られる	-10.8297
の総称	-10.8306
彫刻	-10.8307
蛇	-10.8308
得る	-10.8308
されることもある	-10.8312
具体的な	-10.8312
隅	-10.8313
していたため	-10.8314
)、「	-10.8317
蘇	-10.8318
▁1999	-10.8318
ロータリー	-10.8319
であることが	-10.8319
シンボル	-10.8321
に参加した	-10.8323
hu	-10.8324
続いた	-10.8324
流入	-10.8326
況	-10.8328
}	-10.8329
回答	-10.8329
170	-10.833
生存	-10.833
蓋	-10.8331
沿革	-10.8331
混雑	-10.8332
池袋	-10.8337
国家の	-10.8338
台頭	-10.8338
直径	-10.8338
を指し	-10.8339
しかない	-10.834
理由は	-10.834
に指定されている	-10.8342
淵	-10.8348
著名な	-10.8348
ジャズ	-10.8349
過程で	-10.8349
ゴル	-10.835
ツェ	-10.8353
刃	-10.8353
こともできる	-10.8353
正しい	-10.8357
しようとする	-10.8359
ハワイ	-10.836
朝日放送	-10.8361
セラ	-10.8361
定員	-10.8363
三重県	-10.8363
1932	-10.8364
不良	-10.8365
▁これらの	-10.8366
なぜ	-10.8367
遣	-10.8368
弟の	-10.837
ステップ	-10.8373
は以下の	-10.8373
貫通	-10.8374
モスクワ	-10.8376
1931	-10.8376
宝塚	-10.8379
改めて	-10.8379
クーデター	-10.8382
1929	-10.8382
を示している	-10.8383
web	-10.8384
らと	-10.8384
ポンド	-10.8384
157	-10.8385
入った	-10.8385
が実施され	-10.8385
を採用している	-10.8386
南極	-10.8386
させている	-10.8387
毎週	-10.8388
を満たす	-10.8388
果実	-10.8388
受け入れ	-10.8391
侯	-10.8392
ファッション	-10.8394
グラフィック	-10.8394
侵略	-10.8394
が追加され	-10.8394
変遷	-10.8394
磯	-10.8399
魚雷	-10.8401
ホームズ	-10.8404
鍋	-10.8405
を有し	-10.8405
年ごろ	-10.841
規模の	-10.8413
離れ	-10.8416
三好	-10.842
金融機関	-10.842
求められる	-10.842
を見る	-10.8422
開催される	-10.8422
相模	-10.8423
もあったが	-10.8426
定めた	-10.8426
音源	-10.8429
ide	-10.8433
辰	-10.8434
ニウム	-10.8436
と呼称	-10.8437
ビス	-10.8439
期には	-10.844
顧問	-10.844
丘陵	-10.8441
対決	-10.8441
に入れ	-10.8443
南方	-10.8444
レーベル	-10.8446
早期	-10.8447
番目に	-10.8447
埋	-10.8448
オート	-10.8449
欄	-10.8452
原駅	-10.8452
八王子	-10.8453
と言い	-10.8454
陥落	-10.8457
断念	-10.846
指揮官	-10.846
模型	-10.8462
コントロール	-10.8463
鹿島	-10.8463
が生じる	-10.8464
に仕え	-10.8465
と考える	-10.8467
ニャ	-10.8468
マスコミ	-10.8469
を呼び	-10.847
民放	-10.8471
債権	-10.8473
入団	-10.8473
整数	-10.8476
砕	-10.848
que	-10.849
を描く	-10.8498
國	-10.8498
騎兵	-10.85
衛生	-10.8501
債	-10.8503
一般の	-10.8503
▁脚注	-10.8504
ラリー	-10.8504
上流	-10.8506
量子	-10.8507
のちの	-10.8511
チップ	-10.8512
沙	-10.8515
シナ	-10.8516
鎮圧	-10.8517
家督	-10.8519
。2010	-10.8522
わせ	-10.8524
拓	-10.8524
風景	-10.8525
水平	-10.8527
次のような	-10.8527
ドラゴン	-10.8528
地元の	-10.8529
改装	-10.8531
ヴィー	-10.8534
代表作	-10.8536
放送開始	-10.8537
戦場	-10.8537
渋滞	-10.8539
アイヌ	-10.8539
喪失	-10.8539
ブレー	-10.8539
我々	-10.8543
乗車人員	-10.8545
姫路	-10.8548
新田	-10.8549
-7	-10.8549
配布	-10.855
菓子	-10.8554
卒	-10.8555
▁北	-10.8556
一時的に	-10.8556
先頭	-10.8557
と称する	-10.8559
中国語	-10.856
1900	-10.8561
月刊	-10.8564
萩	-10.8568
トラブル	-10.8568
保管	-10.8568
人形	-10.8572
西方	-10.8572
秩序	-10.8573
オフィス	-10.8574
ホールディングス	-10.8574
る事	-10.8577
は無い	-10.8577
を考える	-10.8577
これに対し	-10.8578
ヴィルヘルム	-10.8579
セミ	-10.8581
宮城県	-10.8583
広島県	-10.8586
東京メトロ	-10.8587
のタイトル	-10.8588
ヤマ	-10.859
プロテスタント	-10.8591
呼吸	-10.8592
jis	-10.8593
並べ	-10.8593
るようになり	-10.8595
粘	-10.8595
というもの	-10.8596
少将	-10.86
貝	-10.8603
慣	-10.8604
残っている	-10.8604
ばね	-10.8605
作中	-10.8605
住友	-10.8606
さず	-10.8609
ヴァイ	-10.8609
求め	-10.861
構	-10.8612
の一部を	-10.8612
air	-10.8613
の子孫	-10.8617
郵便局	-10.8625
リチャード	-10.8626
に含まれ	-10.8628
島式ホーム	-10.8629
本格	-10.8631
アート	-10.8633
。2008	-10.8633
とされていた	-10.8635
に成功した	-10.8636
が起き	-10.8636
建立	-10.8637
開け	-10.8637
▁経歴	-10.8638
水上	-10.8641
付加	-10.8642
拳	-10.8643
天下	-10.8644
が起こる	-10.8644
報告書	-10.8644
継ぐ	-10.8647
震	-10.8647
ロシアの	-10.8649
▁1998	-10.865
自動改札機	-10.865
",	-10.8652
を重視し	-10.8656
凝	-10.8656
em	-10.8656
この他	-10.866
部分を	-10.8661
隣接	-10.8665
現れ	-10.8665
8000	-10.8668
入社	-10.867
マックス	-10.8675
次車	-10.8675
ファル	-10.8676
越え	-10.8676
筆頭	-10.8677
信者	-10.8679
5,000	-10.868
支払	-10.868
増え	-10.8682
と考えた	-10.8684
逸話	-10.8684
end	-10.8685
励	-10.8686
子ども	-10.8686
供用	-10.8687
バーグ	-10.8687
隈	-10.8691
閏	-10.8692
グランプリ	-10.8692
の発生	-10.8692
理学	-10.8696
1928	-10.8697
尿	-10.8698
但し	-10.8698
後年	-10.8702
リード	-10.8703
ーラ	-10.8704
数え	-10.8704
ティック	-10.8705
朝鮮半島	-10.8706
近衛	-10.8706
の影響を受け	-10.8709
鍵	-10.8709
直前に	-10.871
ニコ	-10.8711
以来の	-10.8712
tu	-10.8715
泥	-10.8715
朝日	-10.8723
同士の	-10.8723
車種	-10.8723
を挙げる	-10.8724
の中から	-10.8725
葬儀	-10.8725
来日	-10.8726
したところ	-10.8726
上がる	-10.8727
を唱え	-10.8729
ess	-10.8733
が始まる	-10.8733
進展	-10.8735
授業	-10.8735
食料	-10.8737
ノーベル	-10.8738
と比べて	-10.874
難波	-10.8742
ea	-10.8745
述べた	-10.8746
符	-10.8751
チャールズ	-10.8751
決まった	-10.8752
訪	-10.8753
ってしまった	-10.8753
藩の	-10.8754
land	-10.8755
の規定	-10.8755
南部の	-10.8758
各地	-10.876
に移行	-10.8763
されておらず	-10.8764
崩御	-10.8764
mer	-10.8768
を主	-10.8768
apple	-10.8769
上映	-10.8773
腐	-10.8774
res	-10.8775
、1999	-10.8775
国外	-10.8776
木村	-10.8777
vo	-10.8779
質問	-10.878
してしまった	-10.8781
教徒	-10.8786
ひろ	-10.8786
やって	-10.8786
タイヤ	-10.8789
の起源	-10.8792
導入された	-10.8793
寺の	-10.8793
本質	-10.8794
をいう	-10.8794
ゴールデン	-10.8795
ast	-10.8796
忌	-10.8799
推測	-10.8799
甲斐	-10.8799
chi	-10.8806
認められる	-10.8809
割引	-10.881
胡	-10.8811
返還	-10.8812
候	-10.8817
単独で	-10.8823
を務めていた	-10.8827
人々が	-10.8827
幕末	-10.8828
高温	-10.8828
ることになる	-10.883
期間中	-10.883
if	-10.8831
十分な	-10.8832
mg	-10.8834
動詞	-10.8835
ann	-10.8838
呈	-10.8838
餌	-10.8841
市販	-10.8843
低迷	-10.8845
war	-10.8846
ls	-10.8849
ティス	-10.885
脂肪	-10.8851
附	-10.8852
含む	-10.8852
ord	-10.8853
嵐	-10.8853
室内	-10.8855
高田	-10.8856
ティア	-10.886
しかも	-10.8862
かもしれない	-10.8865
を行って	-10.8868
が一般的	-10.8868
付近の	-10.887
順序	-10.8872
班	-10.8877
じゅう	-10.8878
生放送	-10.8879
atm	-10.8882
霧	-10.8883
終え	-10.8884
エンド	-10.8885
南東	-10.8885
ゴム	-10.8886
政府が	-10.8887
戦う	-10.8887
作風	-10.8887
バルト	-10.8888
yo	-10.8888
得意	-10.8892
消費者	-10.8893
本作品	-10.8894
所属の	-10.8895
ニュータウン	-10.8897
台風	-10.8905
中東	-10.8906
最近	-10.8907
を担う	-10.8908
ロマ	-10.891
正確に	-10.8911
のイメージ	-10.8914
の調査	-10.8914
タワー	-10.8914
根本	-10.8915
公国	-10.8917
分かれ	-10.8917
視聴者	-10.8919
回避	-10.8922
オスマン帝国	-10.8925
タール	-10.8928
別名	-10.8931
港湾	-10.8931
優位	-10.8931
附属	-10.8933
がなされ	-10.8934
着陸	-10.8935
多用	-10.8936
sch	-10.8937
基本的には	-10.8937
収穫	-10.8938
申し	-10.8938
錦	-10.8938
1922	-10.8939
何度も	-10.8939
補給	-10.894
二十	-10.894
が成立した	-10.8941
槍	-10.8944
琴	-10.8944
強調	-10.8946
ju	-10.8947
現存する	-10.8948
十分	-10.8948
併せて	-10.8949
つける	-10.895
放棄	-10.895
port	-10.8958
騒動	-10.8958
ナイター	-10.896
趙	-10.8968
ニス	-10.8969
赤い	-10.897
。2006	-10.897
ようである	-10.8971
uc	-10.8973
障害者	-10.8975
南朝	-10.8985
三河	-10.8987
不安定	-10.8987
運転台	-10.8987
が流れ	-10.8989
てから	-10.8989
世界的に	-10.8992
▁al	-10.8992
じゃ	-10.8992
くなり	-10.8992
遺体	-10.8993
ジオン	-10.8997
を再開	-10.8997
海底	-10.9002
tur	-10.9003
出版された	-10.9003
任期	-10.9006
を図った	-10.9007
化石	-10.9009
学位	-10.901
占め	-10.901
自由に	-10.9011
樹立	-10.9011
仮説	-10.9012
フェン	-10.9014
固め	-10.9015
本格的に	-10.9016
に達する	-10.9017
日本でも	-10.9017
キャスト	-10.9018
北東	-10.9018
▁pro	-10.9019
原子力	-10.9019
出生	-10.9019
周り	-10.902
を目指し	-10.9022
とは別	-10.9023
アフガニスタン	-10.9023
実践	-10.9024
湘南	-10.9024
条例	-10.9024
ヴォル	-10.9026
毛利	-10.9026
冒頭	-10.9026
絞	-10.9029
開かれた	-10.9035
会計	-10.9037
仕組み	-10.9037
相次いで	-10.9037
を受け入れ	-10.9038
走り	-10.9042
国際連合	-10.9045
を見た	-10.9047
懸	-10.9047
バランス	-10.9051
-6	-10.9051
▁%	-10.9054
と言った	-10.9058
並び	-10.9062
尾張	-10.9064
答	-10.9066
1925	-10.9069
死亡した	-10.9071
伏見	-10.9072
バブル	-10.9076
mt	-10.9077
日米	-10.9082
ひと	-10.9084
この作品	-10.9085
ウィル	-10.9085
1919	-10.9087
採用されている	-10.9088
がよく	-10.9088
テレビ東京	-10.9089
調達	-10.9091
鳳	-10.9091
講演	-10.9092
suica	-10.9098
手続き	-10.9098
ショップ	-10.9098
ものが多い	-10.91
戦時	-10.9102
を維持し	-10.9103
ローマ帝国	-10.9104
中華	-10.9105
照明	-10.9105
働く	-10.9107
哲学者	-10.9107
44"	-10.911
にわたる	-10.911
マッチ	-10.9111
社会党	-10.9111
を発表し	-10.9112
旋	-10.9112
心理	-10.9116
実質	-10.9117
携	-10.9118
することもある	-10.9118
年春	-10.9121
描かれた	-10.9122
は少ない	-10.9125
1923	-10.9126
乗せ	-10.9126
出土	-10.9126
越し	-10.9128
ばれ	-10.913
浴	-10.913
を搭載し	-10.913
触	-10.9131
豊臣	-10.9132
レストラン	-10.9132
大井	-10.9134
勝負	-10.9134
噂	-10.9134
偵察	-10.9134
賞を受賞した	-10.9135
狭い	-10.9136
発電所	-10.9138
佐賀	-10.914
オーケストラ	-10.914
を浴び	-10.914
くらい	-10.9141
パネル	-10.9141
弱い	-10.9141
同社の	-10.9142
シャル	-10.9142
エンディング	-10.9143
を果たす	-10.9145
を介して	-10.9146
保健	-10.9147
に大きく	-10.9147
横須賀	-10.9147
設定された	-10.9151
っち	-10.9151
を果たし	-10.9154
を備えた	-10.9154
各地に	-10.9158
東南アジア	-10.9159
更	-10.916
異なり	-10.916
援	-10.916
ているため	-10.916
三角	-10.9162
透	-10.9162
マッカーサー	-10.9165
遊び	-10.9166
看板	-10.9166
アール	-10.9172
あげ	-10.9173
ラップ	-10.9174
うこと	-10.9174
他方	-10.9174
飼	-10.9176
インドネシア	-10.9178
慈	-10.9178
world	-10.9178
であったこと	-10.9179
撃破	-10.918
オンライン	-10.9182
東宝	-10.9182
決して	-10.9184
を備え	-10.9184
科目	-10.9184
を通る	-10.9186
こく	-10.9187
換え	-10.9189
月にかけて	-10.919
鴨	-10.919
だけが	-10.9192
制定された	-10.9196
タッチ	-10.9197
ポップ	-10.9198
64"	-10.9198
劇中	-10.9199
積分	-10.92
詰	-10.9203
椎	-10.9203
1927	-10.9204
クール	-10.9204
っぽ	-10.9204
▁古代	-10.9204
の多くが	-10.9205
バード	-10.9206
フィリップ	-10.921
ストップ	-10.9211
発足した	-10.9216
従って	-10.9217
州内	-10.9221
消え	-10.9223
演技	-10.9227
従業員	-10.9228
が認められ	-10.9228
140	-10.9229
、1998	-10.923
ブリッジ	-10.923
視点	-10.9231
と比較して	-10.9233
ハードウェア	-10.9234
43"	-10.9236
を卒業	-10.9238
わら	-10.9238
周年記念	-10.9238
組成	-10.9238
上演	-10.9239
合金	-10.924
エッ	-10.924
放送時間	-10.9241
退任	-10.9242
に敗れ	-10.9242
▁11	-10.9242
庁舎	-10.9243
があること	-10.9243
コマンド	-10.9246
icoca	-10.9247
中野	-10.9247
保障	-10.9247
する方法	-10.925
岐阜県	-10.9252
を残した	-10.9253
日平均乗降人員	-10.9253
を離れ	-10.9253
損失	-10.9254
有名である	-10.9255
公立	-10.9258
忘れ	-10.9258
されることがある	-10.926
才能	-10.926
ウッド	-10.9262
胞	-10.9265
不能	-10.9265
に使われる	-10.9266
反射	-10.9267
頃には	-10.927
回送	-10.9271
役割を果たし	-10.9273
を担当する	-10.9275
を記録し	-10.9275
両方	-10.9277
実質的に	-10.9277
クイーン	-10.9278
会話	-10.928
46"	-10.9281
法則	-10.9281
を要する	-10.9284
を遂げ	-10.9284
ようとした	-10.9285
県道	-10.9286
を多く	-10.9289
創業	-10.929
クタ	-10.9292
皇族	-10.9293
トール	-10.9293
48"	-10.9294
出版社	-10.9295
▁一方で	-10.9296
。2005	-10.93
村上	-10.93
を提供する	-10.9303
確か	-10.9304
コンコース	-10.9309
銚子	-10.9311
早い	-10.9312
虐殺	-10.9312
為に	-10.9312
の首都	-10.9314
精度	-10.9314
退職	-10.9314
破り	-10.9316
が可能な	-10.9318
87"	-10.9318
読む	-10.9319
棋	-10.9321
見せ	-10.9321
を挙げた	-10.9322
位置づけ	-10.9323
参加した	-10.9331
余り	-10.9332
岡山県	-10.9332
52"	-10.9335
平行	-10.9338
獲	-10.934
の称号	-10.934
据え	-10.9342
cy	-10.9343
ist	-10.9343
昼間	-10.9347
以後は	-10.9348
出来ない	-10.9348
メロディ	-10.9348
掲げ	-10.9349
で知られる	-10.9349
変更された	-10.9351
99"	-10.9353
を知る	-10.9354
sy	-10.9355
開戦	-10.9356
に関わる	-10.9356
を基に	-10.9357
はいずれも	-10.9359
が起こり	-10.9361
こととなる	-10.9361
dt	-10.9361
折り	-10.9361
開いた	-10.9365
おらず	-10.9366
老朽化	-10.9367
が使われる	-10.9367
mbs	-10.9368
寸	-10.937
踏	-10.9371
かせ	-10.9371
取締役	-10.9374
撃墜	-10.9374
長編	-10.9374
充実	-10.9376
6000	-10.9377
あわせて	-10.9379
ナウ	-10.9379
増強	-10.9379
足利義	-10.938
を結んで	-10.938
対処	-10.9383
模	-10.9384
茨城県	-10.9385
砂漠	-10.9386
作った	-10.9389
係	-10.9391
の観点から	-10.9392
47"	-10.9392
隊員	-10.9395
ピーク	-10.9395
武力	-10.9397
投稿	-10.9399
▁注釈	-10.94
星座	-10.94
ion	-10.94
徒歩	-10.9402
克	-10.9404
を使い	-10.9404
寧	-10.9404
97"	-10.9405
pd	-10.9406
大字	-10.9407
96"	-10.9409
を提供し	-10.941
ゲイ	-10.941
前駅	-10.941
の拡大	-10.9411
軍と	-10.9411
をもとに	-10.9414
車庫	-10.9415
王子	-10.9415
に及ぶ	-10.9416
単なる	-10.9418
変身	-10.9418
93"	-10.9419
▁1960	-10.942
排気	-10.9421
正統	-10.9423
そもそも	-10.9424
利用されている	-10.9424
の構成	-10.9424
1.5	-10.9426
89"	-10.9428
49"	-10.943
41"	-10.9432
どれ	-10.9435
メタル	-10.9436
1500	-10.9441
クリー	-10.9441
大佐	-10.9444
▁現在の	-10.9444
結果的に	-10.9445
ーヌ	-10.9448
中日	-10.9451
証券	-10.9452
定期券	-10.9452
立候補	-10.9452
削除	-10.9457
高速鉄道	-10.9459
34"	-10.946
で開催された	-10.9461
駅間は	-10.9464
共同体	-10.9465
理由として	-10.9465
する際	-10.9469
瓶	-10.9469
海戦	-10.947
作られ	-10.9471
36"	-10.9477
ジュー	-10.9479
幽	-10.9481
吐	-10.9481
北九州	-10.9483
ウォル	-10.9484
できるように	-10.9484
予定だった	-10.9486
河原	-10.9486
閉じ	-10.9488
缶	-10.9488
▁1997	-10.949
引き上げ	-10.9491
座標	-10.9493
菅	-10.9494
この地	-10.9495
あなた	-10.9495
オレンジ	-10.9495
ネン	-10.9495
流用	-10.9496
盆地	-10.9497
86"	-10.9497
90"	-10.9498
98"	-10.9498
37"	-10.9503
野田	-10.9504
kb	-10.9506
採択	-10.9507
この時点で	-10.9509
御所	-10.9509
▁1995	-10.9511
45"	-10.9512
チェーン	-10.9512
占	-10.9512
荷物	-10.9513
実力	-10.9513
出身者	-10.9513
雌	-10.9514
着工	-10.9517
56"	-10.9518
んです	-10.9518
嫁	-10.952
ローン	-10.952
められ	-10.9523
影響を受けた	-10.9525
。2009	-10.9526
なくても	-10.9528
の伝統	-10.953
緑色	-10.953
血液	-10.9531
ロープ	-10.9532
集め	-10.9534
▁ba	-10.9537
総長	-10.9542
73"	-10.9543
オオ	-10.9544
大変	-10.9544
講和	-10.9547
世紀には	-10.9547
外れ	-10.9549
par	-10.9549
審判	-10.9549
hz	-10.9549
作物	-10.9551
ベッ	-10.9551
ボウ	-10.9552
大きさ	-10.9552
倫理	-10.9552
ue	-10.9553
らす	-10.9556
賞金	-10.9556
するとともに	-10.9558
慰	-10.9559
57"	-10.9559
2,000	-10.956
続編	-10.9565
貢	-10.9565
阻止	-10.9565
記す	-10.9569
にあって	-10.9571
説明する	-10.9571
売り上げ	-10.9572
冷却	-10.9572
79"	-10.9573
方面から	-10.9574
29"	-10.9575
出荷	-10.9575
ton	-10.9576
引き継がれ	-10.9578
百済	-10.958
朝日新聞	-10.958
の成立	-10.9582
をきっかけに	-10.9582
32"	-10.9583
の呼称	-10.9584
55"	-10.9586
を装備し	-10.9587
引っ	-10.9587
ライター	-10.959
に代わって	-10.959
部分に	-10.9591
大人	-10.9591
system	-10.9591
日平均乗車人員は	-10.9592
珍しい	-10.9592
でもあり	-10.9593
26"	-10.9593
告げ	-10.9593
83"	-10.9594
上述の	-10.9596
▁ro	-10.9596
芸人	-10.9597
04"	-10.96
祭り	-10.96
明石	-10.9603
63"	-10.9603
テレビ放送	-10.9604
けた	-10.9604
川越	-10.9604
75"	-10.9605
用地	-10.9605
ヤング	-10.9608
67"	-10.9608
公衆	-10.9609
1910	-10.9609
と主張した	-10.9609
神殿	-10.961
たちに	-10.9611
の指導	-10.9612
バリ	-10.9613
専門学校	-10.9613
春日	-10.9614
エド	-10.9614
62"	-10.9616
の際には	-10.9617
国勢調査	-10.9617
亭	-10.9617
地上波	-10.9618
版では	-10.962
09"	-10.9622
が一般的である	-10.9622
簿	-10.9624
直営	-10.9624
91"	-10.9625
24"	-10.9627
寿命	-10.9628
することによって	-10.9628
71"	-10.9628
72"	-10.9632
1918	-10.9633
失われ	-10.9634
記した	-10.9635
往	-10.9635
に戻った	-10.9635
敷地	-10.9636
ヲ	-10.9636
95"	-10.9637
粒	-10.9638
06"	-10.9638
に渡って	-10.964
33"	-10.9641
加賀	-10.9643
統括	-10.9643
上がった	-10.9644
17"	-10.9644
66"	-10.9644
も含めて	-10.9645
並み	-10.9646
各国の	-10.9647
大分	-10.965
返し	-10.9651
差異	-10.9651
唱	-10.9652
認められた	-10.9652
肺	-10.9656
燕	-10.9656
充当	-10.9656
が導入され	-10.9656
鶏	-10.9657
53"	-10.9657
覧	-10.9659
39"	-10.9659
倒れ	-10.9661
前田	-10.9661
先頭車	-10.9663
増加した	-10.9663
キャンペーン	-10.9663
に達した	-10.9663
ウェア	-10.9664
物資	-10.9667
が続いた	-10.9668
道徳	-10.9669
昆虫	-10.967
年目	-10.9674
の時点で	-10.9676
人々の	-10.9676
81"	-10.9677
信用	-10.9677
臓	-10.968
54"	-10.968
大賞	-10.9681
把握	-10.9682
14"	-10.9683
pt	-10.9683
繁栄	-10.9683
影響を与え	-10.9683
控え	-10.9684
近くに	-10.9684
策定	-10.9685
傾向にある	-10.9687
小松	-10.9687
閉店	-10.9688
直前	-10.9691
ntt	-10.9692
市役所	-10.9696
味方	-10.9696
07"	-10.9697
abc	-10.9697
地上駅	-10.9698
各駅	-10.9698
65"	-10.97
厳密に	-10.9701
マンション	-10.9702
42"	-10.9702
特撮	-10.9703
近くの	-10.9703
名人	-10.9705
▁1996	-10.9709
gen	-10.971
特別な	-10.971
領主	-10.9712
姿を	-10.9713
朗	-10.9713
召	-10.9713
159	-10.9717
ベルギー	-10.9717
サロ	-10.9717
28"	-10.9718
福島県	-10.9719
窒素	-10.9722
零	-10.9723
88"	-10.9724
イェ	-10.9726
ディス	-10.9729
ないもの	-10.973
取った	-10.9731
脱退	-10.9733
▁ex	-10.9736
日のダイヤ改正で	-10.9737
沿いに	-10.9737
実用化	-10.9737
デンマーク	-10.9738
特集	-10.9738
が含まれる	-10.9739
82"	-10.9739
が低い	-10.974
干渉	-10.9741
墨	-10.9742
野生	-10.9742
釣り	-10.9745
ran	-10.9747
本系列	-10.9748
十三	-10.975
キューバ	-10.975
の弟	-10.975
太子	-10.975
に達し	-10.9751
ロケ	-10.9751
石炭	-10.9752
慎	-10.9753
原稿	-10.9754
されていなかった	-10.9758
68"	-10.9758
垂直	-10.976
地理	-10.976
61"	-10.9761
呪	-10.9762
柴	-10.9765
ev	-10.9767
pre	-10.9767
の性質	-10.9768
講義	-10.9769
多様な	-10.977
夫婦	-10.977
市駅	-10.977
野駅	-10.9771
jp	-10.9773
黒い	-10.9776
38"	-10.9778
福井	-10.978
92"	-10.9781
国土交通省	-10.9781
白色	-10.9782
win	-10.9783
05	-10.9784
を伴う	-10.9788
通学	-10.9789
69"	-10.979
くん	-10.979
を書き	-10.9792
キャンプ	-10.9792
遅	-10.9793
誤り	-10.9794
輌	-10.9795
壊滅	-10.9795
76"	-10.9795
に戻る	-10.9795
94"	-10.9801
皮膚	-10.9801
以上に	-10.9805
08"	-10.9805
27"	-10.9805
幻	-10.9807
31"	-10.9808
バイト	-10.9809
05"	-10.9809
78"	-10.981
鉱山	-10.9811
弾圧	-10.9814
一般的には	-10.9815
名の由来	-10.9817
ang	-10.982
59"	-10.9821
オプション	-10.9821
バンク	-10.9822
マリー	-10.9822
文法	-10.9824
理念	-10.9824
35"	-10.9826
バーン	-10.9826
涙	-10.9828
加えられ	-10.983
ルイス	-10.983
鎌倉時代	-10.9831
19"	-10.9832
を継続	-10.9833
この際	-10.9833
書かれている	-10.9837
▁so	-10.9838
観音	-10.9838
著しく	-10.9838
84"	-10.9839
30"	-10.9839
77"	-10.9839
含め	-10.984
ical	-10.984
lan	-10.9841
有料	-10.9842
スポット	-10.9842
テス	-10.9843
代々	-10.9844
流出	-10.9845
を追加	-10.9846
この地域	-10.9847
vs	-10.9848
飯田	-10.9848
集積	-10.9848
違法	-10.9849
検証	-10.985
85"	-10.985
商標	-10.9853
dy	-10.9855
化して	-10.9855
三条	-10.9856
利点	-10.9858
呼ぶ	-10.986
伊達	-10.9862
74"	-10.9863
kw	-10.9869
怒り	-10.9869
シリ	-10.9871
重視	-10.9873
13"	-10.9873
将校	-10.9874
−	-10.9874
エスカレーター	-10.9874
稼働	-10.9875
無人	-10.9875
神道	-10.9875
半径	-10.9876
続いている	-10.9877
心臓	-10.9877
徳島	-10.9878
締め	-10.9878
厳しく	-10.988
形成された	-10.988
浸透	-10.9881
要塞	-10.9882
豊田	-10.9883
災	-10.9884
意義	-10.9885
飲み	-10.9888
51"	-10.989
再放送	-10.989
賛成	-10.9891
の愛称	-10.9891
運河	-10.9893
年の第	-10.9894
復元	-10.9894
チェコ	-10.9895
nu	-10.9896
河口	-10.9897
平等	-10.9898
中立	-10.9898
似た	-10.9899
磐	-10.99
本編	-10.99
ジェームズ	-10.9901
そのほか	-10.9902
フジ	-10.9904
公式戦	-10.9905
日本国内で	-10.9905
町村	-10.9905
ラグビー	-10.9908
だけではなく	-10.991
の意向	-10.9913
鉱物	-10.9914
年代前半	-10.9916
敗れた	-10.9917
あき	-10.992
広大な	-10.9923
月場所	-10.9925
16"	-10.9926
延び	-10.9926
が初めて	-10.9927
適切な	-10.9927
21"	-10.9931
上皇	-10.9935
西日本旅客鉄道	-10.9935
エース	-10.9935
務め	-10.9938
教団	-10.9941
蒸気機関車	-10.9942
仁親王	-10.9943
特例	-10.9944
ヤマト	-10.9947
メダル	-10.9948
22"	-10.9949
吉野	-10.9951
盛岡	-10.9954
崩	-10.9955
津駅	-10.9955
待避	-10.9955
取り上げられ	-10.9958
;&	-10.996
を迎える	-10.996
とりわけ	-10.9962
フェイ	-10.9963
day	-10.9966
も含む	-10.9966
総称	-10.9967
烏	-10.9968
午	-10.9969
cal	-10.9969
フィンランド	-10.9969
恋愛	-10.997
変わって	-10.9971
傾斜	-10.9973
コミュニケーション	-10.9975
詳しく	-10.9976
の最終	-10.9976
都市計画	-10.9978
打ち上げ	-10.9979
語っている	-10.9979
勧	-10.9979
理事	-10.998
無理	-10.998
讃	-10.9981
下記	-10.9982
飲料	-10.9983
108	-10.9984
115	-10.9986
オブジェクト	-10.9988
年頃に	-10.999
起こった	-10.9991
25"	-10.9996
収益	-10.9997
の権利	-10.9998
在住	-11.0001
謙	-11.0002
58"	-11.0002
無く	-11.0003
▁1992	-11.0003
狩	-11.0004
した結果	-11.0006
ショウ	-11.0006
を決めた	-11.0009
各駅停車	-11.001
首位	-11.001
例である	-11.0014
を意味し	-11.0015
ロング	-11.0016
23"	-11.0017
でありながら	-11.0017
02"	-11.0017
が困難	-11.0018
▁ha	-11.0018
恒星	-11.0018
敵対	-11.002
柔道	-11.0021
したとき	-11.0022
胆	-11.0022
そば	-11.0023
爵	-11.0024
繰り返し	-11.0027
ていたこと	-11.0028
her	-11.0028
修行	-11.0029
咲	-11.0029
08	-11.0035
溶液	-11.0036
同国	-11.0037
。2004	-11.0039
しょ	-11.004
逃亡	-11.0043
cor	-11.0043
グランド	-11.0045
iso	-11.0048
80"	-11.0048
先発	-11.0051
しておらず	-11.0052
1924	-11.0052
40"	-11.0054
延期	-11.0055
神々	-11.0055
登場している	-11.0057
していたこと	-11.0058
トライ	-11.0059
サークル	-11.0059
過剰	-11.0063
が現れ	-11.0063
近代化	-11.0063
終盤	-11.0064
和平	-11.0064
諸侯	-11.0065
左翼	-11.0067
▁he	-11.0069
の象徴	-11.0069
伝わる	-11.007
蒸	-11.0071
ーノ	-11.0073
中川	-11.0074
クレジット	-11.0075
総選挙	-11.0077
勲章	-11.0078
田町	-11.0078
スピン	-11.0079
1926	-11.0081
長岡	-11.0082
est	-11.0083
線の駅	-11.0083
排出	-11.0083
ッティ	-11.0086
衝	-11.0088
見直し	-11.0088
法案	-11.0088
に変更され	-11.0088
きん	-11.0089
が発見され	-11.009
ミュージシャン	-11.009
を表し	-11.0091
呼ばれ	-11.0093
01"	-11.0094
降板	-11.0095
70"	-11.0096
互換	-11.0099
パック	-11.0101
管内	-11.0102
衆議院	-11.011
拘束	-11.0111
終了し	-11.0111
03"	-11.0111
ギュ	-11.0112
を目的とした	-11.0112
己	-11.0115
進め	-11.0116
名目	-11.0116
得られ	-11.0117
明確な	-11.0117
に分け	-11.0117
窮	-11.0117
11"	-11.0118
人材	-11.0119
彼女の	-11.0123
高山	-11.0123
支払い	-11.013
正確な	-11.0131
意志	-11.0133
ram	-11.0134
年頃から	-11.0137
ウルス	-11.0137
おおむね	-11.0138
宿泊	-11.014
20"	-11.0141
走る	-11.0143
堤	-11.0144
切る	-11.015
数々の	-11.0151
脅威	-11.0152
王座	-11.0152
田村	-11.0153
叡	-11.0153
個々の	-11.0155
することにより	-11.0155
確	-11.0157
ではないが	-11.0158
盛んに	-11.016
inter	-11.0161
ベリー	-11.0162
わけではなく	-11.0162
この時代	-11.0162
ラッシュ	-11.0162
冷戦	-11.0166
ヴィル	-11.0166
ッパ	-11.0168
巧	-11.0172
ではないか	-11.0173
紙幣	-11.0173
国旗	-11.0177
が起こった	-11.0178
ピュ	-11.0188
ツール	-11.0189
フト	-11.0189
カレー	-11.019
起き	-11.0193
ません	-11.0193
度々	-11.0195
ゴルフ	-11.0196
18"	-11.0198
仕事を	-11.0198
シナリオ	-11.0201
言われ	-11.0201
our	-11.0202
学名	-11.0204
洪水	-11.0204
がなされた	-11.0204
▁li	-11.0205
合唱	-11.0205
食い	-11.0206
グー	-11.0209
発症	-11.0209
又	-11.0216
言えば	-11.0216
ヒン	-11.0218
ノート	-11.0218
単一	-11.022
くら	-11.022
頃まで	-11.0225
鉛	-11.0227
が登場し	-11.023
例もある	-11.0231
ゾーン	-11.0231
取り扱い	-11.0234
メリット	-11.0235
何も	-11.0237
60"	-11.0239
スプ	-11.0244
が出る	-11.0245
名義	-11.0246
おそらく	-11.0248
をもたらす	-11.0248
ファンタジー	-11.0248
様に	-11.0249
行い	-11.025
和歌	-11.025
野党	-11.0251
南米	-11.0251
神戸市	-11.0252
減少し	-11.0253
スターリン	-11.0254
赤色	-11.0254
ルーマニア	-11.0256
環状線	-11.0258
大友	-11.026
出る	-11.0262
アナウンス	-11.0262
与え	-11.0264
を広げ	-11.0267
人事	-11.0268
諭	-11.0269
辻	-11.0269
輸	-11.027
12"	-11.0271
庶民	-11.0271
メカ	-11.0272
に限定	-11.0273
ツォ	-11.0274
互換性	-11.0274
と考えていた	-11.0275
桐	-11.0276
藻	-11.0276
恐怖	-11.0276
を残し	-11.0279
を置いて	-11.028
暖	-11.0282
殺し	-11.0283
を送り	-11.0283
コーヒー	-11.0284
期限	-11.0286
に任命され	-11.0286
と見なされ	-11.0287
触れ	-11.0289
グラフ	-11.0291
ウリ	-11.0292
フェリー	-11.0292
をそのまま	-11.0293
ak	-11.0294
を使用して	-11.0295
プレス	-11.0296
赴	-11.0296
のもとで	-11.0298
機動部隊	-11.03
鈴	-11.03
を見せた	-11.0301
有人	-11.0301
甲板	-11.0301
環状	-11.0302
されることが多い	-11.0302
と改称	-11.0302
したもので	-11.0304
管区	-11.0308
視聴	-11.0308
最小	-11.0309
殺人	-11.031
麺	-11.0311
ほん	-11.0312
淳	-11.0318
勧告	-11.0318
回線	-11.0319
交戦	-11.0323
最後まで	-11.0324
僅か	-11.0325
性的	-11.0325
前身	-11.0326
演算	-11.0327
識別	-11.033
ソウル	-11.0331
遇	-11.0331
することが可能	-11.0331
王位	-11.0331
廃止され	-11.0331
美しい	-11.0332
はないが	-11.0333
ない場合	-11.0334
国民党	-11.0334
酒造	-11.0338
▁戦後	-11.0338
強さ	-11.0339
尊氏	-11.034
までの間	-11.0341
クレー	-11.0343
などによって	-11.0343
棚	-11.0346
単純な	-11.0348
神奈川	-11.0351
十分に	-11.0352
の意見	-11.0352
破産	-11.0354
科学的	-11.0355
のほかに	-11.0355
販	-11.0357
年秋	-11.0358
国産	-11.036
独自に	-11.0362
tal	-11.0362
寄与	-11.0362
増設	-11.0363
残存	-11.0364
歩道	-11.0366
タカ	-11.0366
割合	-11.0367
と思う	-11.0367
夫妻	-11.037
というのは	-11.0371
合った	-11.0373
騎士	-11.0374
推奨	-11.0374
が行われていた	-11.0375
並行して	-11.0377
ウェールズ	-11.0379
act	-11.038
ストア	-11.038
高句麗	-11.0381
遼	-11.0381
除去	-11.0381
縛	-11.0381
直結	-11.0382
解任	-11.0383
val	-11.0386
の組み合わせ	-11.0386
車両センター	-11.0387
伯爵	-11.0388
埋葬	-11.0388
書簡	-11.0389
ance	-11.039
起きた	-11.0391
故郷	-11.0397
必須	-11.0403
褐色	-11.0403
上級	-11.0404
は比較的	-11.0405
_2	-11.0408
角度	-11.0408
突撃	-11.0408
半導体	-11.0409
概要	-11.0409
携帯	-11.041
普	-11.0411
適応	-11.0413
▁上記の	-11.0415
勉強	-11.0416
を作った	-11.042
次いで	-11.0422
最適	-11.0422
描かれ	-11.0422
をベースに	-11.0422
が掲載され	-11.0424
いま	-11.0426
理由で	-11.0426
クルー	-11.0428
面積は	-11.0429
立大学	-11.043
破綻	-11.043
に選出され	-11.0431
坂本	-11.0432
三浦	-11.0436
本州	-11.0436
後述する	-11.0438
安全性	-11.0438
海域	-11.044
大いに	-11.044
15"	-11.044
数百	-11.0443
アメリカでは	-11.0444
dis	-11.0444
教科書	-11.0451
芦	-11.0452
実態	-11.0452
付いた	-11.0453
然と	-11.0454
改訂	-11.0459
斎藤	-11.0461
前方	-11.0462
尉	-11.0462
肢	-11.0465
錯	-11.0466
綴	-11.0466
繋がっ	-11.0466
最優秀	-11.0467
頂点	-11.0467
伊予	-11.0467
陣営	-11.0471
内外	-11.0471
坑	-11.0472
を超え	-11.0472
上京	-11.0473
おき	-11.0473
彼女は	-11.0473
ローズ	-11.0474
の活躍	-11.0474
惨	-11.048
選考	-11.0482
考えられ	-11.049
電車区	-11.049
柔	-11.0495
月以降	-11.0495
国語	-11.0495
犯人	-11.0497
銀座	-11.0497
償	-11.0497
透明	-11.0497
を続けた	-11.0498
ものだ	-11.0501
講師	-11.0501
ku	-11.0503
uni	-11.0504
砲撃	-11.0505
ger	-11.0506
本来は	-11.0512
燃	-11.0513
に行く	-11.0513
自由主義	-11.0513
ドゥー	-11.0514
空中	-11.0514
に住む	-11.0515
大都市	-11.0515
家庭用	-11.0517
されることになった	-11.0517
奈良県	-11.0519
nes	-11.0519
の平均	-11.052
生態	-11.0523
殆ど	-11.0523
擁立	-11.0524
京急	-11.0524
小山	-11.0526
を獲得し	-11.0527
渋	-11.0527
討伐	-11.0529
ana	-11.053
たびたび	-11.053
称号	-11.0531
航空会社	-11.0531
硫黄	-11.0537
頻度	-11.054
につき	-11.0541
生産量	-11.0544
テール	-11.0545
リーグ戦	-11.0545
1921	-11.0547
ラスト	-11.0547
新設された	-11.0548
爆撃機	-11.0548
役員	-11.0549
四郎	-11.055
世紀から	-11.0551
トレー	-11.0552
響	-11.0553
利用する	-11.0554
専門家	-11.0554
テオ	-11.0555
を結び	-11.0556
敢	-11.0558
取り組み	-11.0559
願い	-11.0563
▁1994	-11.0564
彗星	-11.0565
もっと	-11.0567
小野	-11.0569
ばら	-11.0569
設置されている	-11.0571
乏	-11.0571
ガラ	-11.0571
顧客	-11.0573
sho	-11.0574
砲塔	-11.0578
が登場した	-11.0579
に対応した	-11.0581
qua	-11.0582
友好	-11.0584
に立ち	-11.0584
高麗	-11.0585
検索	-11.0588
ice	-11.0591
辞職	-11.0592
異なっている	-11.0592
教義	-11.0598
商店	-11.0599
改定	-11.06
嘆	-11.0601
こともあって	-11.0602
主として	-11.0603
することがある	-11.0603
急行列車	-11.0607
をかけて	-11.0608
謎	-11.0608
被害者	-11.0608
抗争	-11.061
周囲の	-11.061
万年前	-11.0613
世帯	-11.0614
ことが判明し	-11.062
軽減	-11.0623
近年の	-11.0624
レーン	-11.0628
貼	-11.063
慣習	-11.0638
が進んだ	-11.064
オーナー	-11.0641
西欧	-11.0641
革新	-11.0642
踊	-11.0643
活性化	-11.0645
ことがあった	-11.0649
ずれ	-11.065
呼びかけ	-11.0651
狩猟	-11.0652
公務員	-11.0652
噴火	-11.0652
てはならない	-11.0656
連勝	-11.0656
ヒーロー	-11.0657
1914	-11.0659
対照	-11.0659
アルゴリズム	-11.0659
を導入し	-11.066
ブラウン	-11.0661
売れ	-11.0662
変わった	-11.0662
を支持し	-11.0663
武家	-11.0664
晶	-11.0665
未だ	-11.0665
御殿	-11.0666
ことが出来る	-11.0667
町にある	-11.0669
誤解	-11.067
178	-11.0676
研究会	-11.0679
バトル	-11.0682
条第	-11.0683
億ドル	-11.0685
攻勢	-11.0685
天井	-11.0685
以南	-11.0687
旭	-11.0689
修復	-11.0691
アニ	-11.0691
%	-11.0692
民営化	-11.0695
わなかった	-11.0696
区画	-11.0699
10"	-11.0703
るようになる	-11.0704
min	-11.0706
☆	-11.071
しゅ	-11.0711
てくる	-11.0716
還元	-11.0717
才	-11.072
の一つとして	-11.0721
媒体	-11.0721
指揮者	-11.0722
に設置された	-11.0726
付随	-11.0727
揃	-11.0728
たことで	-11.0728
を参照のこと	-11.073
をあげ	-11.0732
を高め	-11.0736
シング	-11.0737
三島	-11.0738
イチ	-11.0739
珍しく	-11.0739
畳	-11.0746
蝦夷	-11.0746
悪魔	-11.0747
ron	-11.075
直通する	-11.0754
受託	-11.0755
付けて	-11.0756
立体	-11.0759
甲子園	-11.0761
パーキングエリア	-11.0761
関わり	-11.0763
湾岸	-11.0765
運行されていた	-11.0766
東京大学	-11.0768
日のダイヤ改正	-11.077
トリック	-11.0772
1912	-11.0773
登場し	-11.0775
紀元	-11.0775
短く	-11.0775
出され	-11.0777
栃木県	-11.0778
本国	-11.0778
おこ	-11.078
プール	-11.0781
ゼー	-11.0783
日本政府	-11.0783
患	-11.0787
小説家	-11.0788
ことによる	-11.0789
跨線橋	-11.079
カウント	-11.079
に限り	-11.0791
客室	-11.0794
の減少	-11.0797
もちろん	-11.0797
徴収	-11.0799
立憲	-11.0799
を求めて	-11.0799
生じ	-11.0803
dos	-11.0803
作られる	-11.0803
デザイナー	-11.0804
ζ	-11.0804
を開発し	-11.0806
日本において	-11.081
ェ	-11.0811
伊東	-11.0811
農村	-11.0814
で放送された	-11.0815
コミ	-11.0815
小惑星	-11.0816
を認める	-11.0818
書いている	-11.0819
ary	-11.0819
1917	-11.0822
自国	-11.0822
わた	-11.0822
に触れ	-11.0824
マリオ	-11.0825
嫡	-11.0825
に参加し	-11.0827
固体	-11.0829
のほうが	-11.0829
立てた	-11.083
予約	-11.0835
ゼル	-11.0836
チャート	-11.0839
科学者	-11.084
交通量	-11.084
勝利した	-11.0843
50"	-11.0845
水路	-11.0845
建築物	-11.0846
困	-11.0847
設置されていた	-11.0848
ノルウェー	-11.0849
を開始する	-11.0849
ハーン	-11.0852
指数	-11.0854
ようとする	-11.0854
るまで	-11.0854
下位	-11.0855
扱われ	-11.0855
月下旬	-11.0856
豚	-11.0856
全部	-11.0856
楠	-11.0856
カフェ	-11.0857
この間	-11.0858
ない限り	-11.086
局長	-11.0861
フォーマット	-11.087
徴	-11.0873
チェック	-11.0875
ストロ	-11.0876
雰囲気	-11.0878
かけて	-11.0879
簡単に	-11.0881
▁1991	-11.0881
後者は	-11.0884
ことが明らか	-11.0885
を設立し	-11.0885
廻	-11.0885
わせる	-11.0886
欠点	-11.0889
ロッテ	-11.0889
を失い	-11.0889
いわ	-11.0889
障	-11.089
径	-11.089
を達成した	-11.0891
永久	-11.0892
収録されている	-11.0893
box	-11.0893
主題歌	-11.0895
ゴールド	-11.0897
ペア	-11.0899
声明	-11.09
朴	-11.09
律令	-11.0902
消化	-11.0903
ファイター	-11.0906
珍	-11.0906
ドラム	-11.0906
領地	-11.0907
きゅう	-11.0908
安全保障	-11.0908
展望	-11.091
首脳	-11.091
届け	-11.0911
が整備され	-11.0913
に登場	-11.0913
を皮切りに	-11.0915
象徴	-11.0916
が形成され	-11.0922
拾	-11.0922
旧制	-11.0922
クリア	-11.0923
陸奥	-11.0923
フェア	-11.0923
▁天正	-11.0927
直前の	-11.0927
木造	-11.0928
コーン	-11.0928
フランス軍	-11.0928
応募	-11.093
大聖堂	-11.0932
代数	-11.0933
パートナー	-11.0933
山口県	-11.0934
ターボ	-11.0936
嗣	-11.0937
標識	-11.0938
系譜	-11.094
ピッチ	-11.094
ったもの	-11.0943
拍	-11.0943
よって	-11.0944
昧	-11.0944
トーナメント	-11.0944
壮	-11.0945
▁bo	-11.0946
文芸	-11.0946
決戦	-11.0947
ear	-11.0947
制圧	-11.0948
手続	-11.0948
ジオ	-11.0948
ってしまう	-11.095
返り	-11.0952
くなった	-11.0956
トウ	-11.0957
部下	-11.0959
利用客	-11.096
曹操	-11.096
ite	-11.096
ものではなく	-11.0963
を強め	-11.0967
ポテンシャル	-11.0967
に代表される	-11.0967
会議で	-11.0969
ラウンド	-11.0971
165	-11.0974
日本一	-11.0978
好きな	-11.0981
奴	-11.0982
東アジア	-11.0982
シカゴ	-11.0982
満足	-11.0983
奪われ	-11.0985
前作	-11.0991
ノイ	-11.0992
が出た	-11.0992
ty	-11.0993
親交	-11.0995
後退	-11.0996
ごとの	-11.0998
に用いる	-11.0998
で行う	-11.0998
支部	-11.0999
ムスリム	-11.1004
子孫	-11.1006
の有無	-11.1006
とくに	-11.1008
リップ	-11.1009
移設	-11.1011
を踏まえ	-11.1012
ってくる	-11.1013
を開設	-11.1015
運行する	-11.1015
ラジ	-11.1016
新羅	-11.1017
を命じ	-11.1017
幾何学	-11.1019
新作	-11.1021
を上げ	-11.1022
が設けられている	-11.1026
ないまま	-11.1026
綾	-11.1027
ナトリウム	-11.1027
頼朝	-11.1032
越前	-11.1032
ばん	-11.1033
売店	-11.1033
フットボール	-11.1034
埼玉	-11.1034
室町時代	-11.1035
バイオ	-11.1035
に所属し	-11.1037
財務	-11.1037
会館	-11.1039
ウェブ	-11.1039
角川	-11.1042
に準じ	-11.1042
直通列車	-11.1042
直轄	-11.1043
sion	-11.1043
様々	-11.1045
府中	-11.1047
一門	-11.1047
定められている	-11.1048
幌	-11.1049
湊	-11.1049
付近で	-11.1052
橋梁	-11.1054
ib	-11.1055
あれ	-11.1055
を始める	-11.1056
天使	-11.1056
wo	-11.1058
指令	-11.1061
光学	-11.1061
脅	-11.1064
世論	-11.1064
俺	-11.1064
仮想	-11.1066
があって	-11.1066
右側	-11.1067
基幹	-11.1068
寄付	-11.1071
が施され	-11.1072
廃棄	-11.1073
済み	-11.1073
人格	-11.1073
幅広い	-11.1074
古くは	-11.1074
正常	-11.1079
求められ	-11.1079
表彰	-11.1081
木材	-11.1082
ベラ	-11.1083
年度から	-11.1083
大統領選挙	-11.1084
二つ	-11.1084
つもり	-11.1085
すぎる	-11.1086
砂糖	-11.1088
夏季	-11.1089
就職	-11.1092
すべく	-11.1094
舷	-11.1095
公布	-11.1099
棄	-11.1099
定められ	-11.11
インターナショナル	-11.1102
相違	-11.1102
山崎	-11.1104
参加者	-11.1104
ā	-11.111
が起きた	-11.111
ジャンプ	-11.111
oo	-11.1111
特有の	-11.1111
を通過する	-11.1111
hy	-11.1111
▁相対式ホーム	-11.1111
出産	-11.1113
dia	-11.1113
以北	-11.1114
ナショナル	-11.1117
一揆	-11.1117
徳川家康	-11.1118
四日市	-11.1119
自衛	-11.1121
改編	-11.1121
詳	-11.1122
継いで	-11.1123
一般的	-11.1123
詠	-11.1125
最高速度	-11.1125
アラビア語	-11.1125
侵	-11.1126
アプリ	-11.1127
危険性	-11.1127
に従い	-11.1128
も多かった	-11.1129
神学	-11.1131
ジム	-11.1134
魅力	-11.1136
北上	-11.1137
代行	-11.1138
エクスプレス	-11.114
た場合	-11.1141
持ってい	-11.1146
プロデュース	-11.1147
シャルル	-11.1148
正月	-11.1148
隊長	-11.115
発酵	-11.1154
単位で	-11.1156
皇室	-11.1156
麗	-11.1157
真空	-11.1158
所領	-11.1158
滋賀県	-11.1162
出会い	-11.1163
感謝	-11.1164
りん	-11.1166
金曜日	-11.1167
祝日	-11.1167
賞受賞	-11.1169
ロサンゼルス	-11.117
ディスプレイ	-11.1171
ウェー	-11.1172
方面への	-11.1172
劇場版	-11.1173
市出身	-11.1174
だったという	-11.1175
瞬間	-11.1177
が生じた	-11.118
を超えた	-11.1182
祥	-11.1184
シャトル	-11.1188
教養	-11.1188
と称される	-11.119
滞	-11.1191
コンテナ	-11.1193
航行	-11.1194
専攻	-11.1194
駄	-11.1201
回想	-11.1201
目黒	-11.1203
評議会	-11.1204
時刻表	-11.1204
敗退	-11.1206
進み	-11.1207
降下	-11.1208
打率	-11.1208
増備	-11.1209
ハウ	-11.1215
鐘	-11.1216
暑	-11.1216
浦和	-11.1217
vol	-11.1219
部位	-11.122
撮	-11.1222
臨床	-11.1225
預	-11.1226
グレー	-11.1229
條	-11.123
庵	-11.1231
志向	-11.1234
拡大した	-11.1234
高価	-11.1236
祖先	-11.1238
を問わず	-11.1239
リアル	-11.1239
に関する法律	-11.124
徳川家	-11.124
tro	-11.1241
交付	-11.1242
を防ぐため	-11.1246
秩父	-11.1254
のなかで	-11.1254
を訪れ	-11.1256
推理	-11.1258
塗り	-11.1259
測量	-11.126
使者	-11.1261
気持ち	-11.1262
以内	-11.1263
デッキ	-11.1266
短期間	-11.1266
高野	-11.1266
正義	-11.1267
佐々木	-11.1269
生前	-11.1271
グラウンド	-11.1273
信号機	-11.1273
具体的には	-11.1275
刊行された	-11.1277
蜂起	-11.1277
報じられ	-11.1278
退団	-11.1281
オレ	-11.1282
rpg	-11.1284
を決め	-11.1285
酔	-11.1285
分かる	-11.1286
ルーム	-11.1286
ことがあり	-11.129
誘致	-11.1293
ずる	-11.1298
講談社	-11.13
国体	-11.1302
運行される	-11.1304
テレビ局	-11.1306
ou	-11.1306
を採用する	-11.1306
混同	-11.1307
務めた	-11.1309
城主	-11.1312
没後	-11.1312
側近	-11.1312
企	-11.1312
ヨン	-11.1313
list	-11.1314
ポリス	-11.1314
《	-11.1316
かけた	-11.1316
幹線	-11.1317
移動する	-11.1318
パイプ	-11.132
タナ	-11.132
大島	-11.1323
広島市	-11.1324
加盟国	-11.1325
エロ	-11.1325
年ぶりの	-11.1328
年代まで	-11.1329
上洛	-11.1331
叔父	-11.1333
工夫	-11.1333
バスターミナル	-11.1338
開始された	-11.134
薬物	-11.1341
を実施した	-11.1342
ッキ	-11.1342
ix	-11.1343
7000	-11.1346
じゃない	-11.1347
げる	-11.1349
近似	-11.1349
らせる	-11.135
付与	-11.1351
間接	-11.1351
ミック	-11.1351
国府	-11.1351
連立	-11.1352
公的	-11.1352
ひとり	-11.1353
重い	-11.1354
見つかっ	-11.1359
集まり	-11.136
閣僚	-11.1362
高層	-11.1365
多大な	-11.1365
起動	-11.1366
村山	-11.1367
サービスエリア	-11.1367
コンテンツ	-11.137
》	-11.137
どのような	-11.1371
ッパー	-11.1372
一緒に	-11.1373
log	-11.1374
土壌	-11.1378
左側	-11.1379
のもとに	-11.138
行っていた	-11.1382
武蔵野	-11.1382
use	-11.1382
パキスタン	-11.1385
修道院	-11.1385
連覇	-11.1386
内陸	-11.139
大久保	-11.1392
衰	-11.1393
蓄積	-11.1394
近藤	-11.1394
するような	-11.1396
復旧	-11.1397
最中	-11.1397
コロンビア	-11.1401
同位体	-11.1401
鳩	-11.1401
モノレール	-11.1402
東京駅	-11.1402
亡くなった	-11.1405
津軽	-11.1405
戚	-11.1409
それ以降	-11.1412
bb	-11.1412
帝国大学	-11.1413
活性	-11.1414
シフト	-11.1415
なのか	-11.1418
を建設し	-11.1418
塩基	-11.1419
time	-11.142
盛ん	-11.1423
女神	-11.1423
述べ	-11.1424
船橋	-11.1426
for	-11.143
と呼んだ	-11.1432
フォント	-11.1432
これ以降	-11.1434
上田	-11.1438
が必要となる	-11.1441
アレンジ	-11.1441
所蔵	-11.1442
スミス	-11.1445
の中心地	-11.1445
横綱	-11.1446
載せ	-11.1448
テーション	-11.1449
右翼	-11.1449
日現在	-11.1451
公社	-11.1456
起こる	-11.1456
解説者	-11.1457
販売されている	-11.1458
和解	-11.1458
ゴス	-11.1459
char	-11.1461
ゲーム機	-11.1462
が採用された	-11.1463
妊娠	-11.1463
レーザー	-11.1464
所持	-11.1464
フロー	-11.1464
大津	-11.1464
選抜	-11.1467
先生	-11.147
医薬品	-11.1471
ケーブルテレビ	-11.1471
主役	-11.1473
傍	-11.1478
飛ば	-11.1481
を施し	-11.1483
データベース	-11.1485
パッ	-11.1485
大幅な	-11.1487
妨害	-11.1487
を拒否し	-11.1492
祈	-11.1494
在学中	-11.1495
ガイド	-11.1495
に由来し	-11.1497
役者	-11.1497
といって	-11.1498
キリスト教徒	-11.1504
避け	-11.1505
完結	-11.1505
デバイス	-11.151
泣	-11.151
三大	-11.151
信用金庫	-11.151
鳥羽	-11.1513
改築	-11.1514
が成立し	-11.1515
王権	-11.1515
付く	-11.1516
地質	-11.1517
伝えた	-11.152
1890	-11.1522
が残っている	-11.1523
実証	-11.1524
のいずれか	-11.1524
アーケード	-11.1526
セルビア	-11.1527
最長	-11.1527
ることなく	-11.1528
▁島式ホーム	-11.153
補佐	-11.153
それほど	-11.1532
を決める	-11.1533
藤田	-11.1536
旅団	-11.1539
本願寺	-11.1542
大ヒット	-11.1546
下り線	-11.1547
建造物	-11.1547
系列局	-11.1547
挑	-11.1551
歳以上	-11.1551
に分けられる	-11.1552
じん	-11.1555
をとった	-11.1556
浜松	-11.1557
髄	-11.1558
μ	-11.1558
仮定	-11.1558
撤退した	-11.1563
幡	-11.1564
に設置されている	-11.1564
胃	-11.1566
描いた	-11.1572
ステンレス	-11.1573
考察	-11.1574
イスラム教	-11.158
陸上競技	-11.158
に渡り	-11.1581
シンガポール	-11.1581
例がある	-11.1584
出入り	-11.1584
寛永	-11.1585
汽	-11.1589
艦長	-11.159
対空	-11.159
ワル	-11.1594
一般化	-11.1602
イカ	-11.1604
素子	-11.1606
かかった	-11.1606
救済	-11.1606
か国	-11.1606
難しく	-11.1607
亜科	-11.1609
za	-11.161
配給	-11.1611
切った	-11.1612
1911	-11.1613
を目的に	-11.1614
press	-11.1615
反論	-11.1615
かみ	-11.1615
駿河	-11.1615
を目指して	-11.1618
が廃止され	-11.1619
は不明である	-11.1625
夜行	-11.1626
を目指した	-11.1627
ネット局	-11.1627
ぶん	-11.1627
lin	-11.1629
ギャグ	-11.163
コート	-11.1633
産出	-11.1636
后	-11.1636
先輩	-11.1638
品川	-11.1644
ポジション	-11.1645
カレッジ	-11.1645
tre	-11.1648
回目の	-11.1648
用法	-11.1648
大野	-11.165
ラフ	-11.165
首長	-11.1651
するようになり	-11.1652
アルファベット	-11.1653
礼拝	-11.1654
釈	-11.1659
便宜	-11.1662
スコア	-11.1662
進んだ	-11.1664
を発見した	-11.1665
毎日放送	-11.1666
に登場した	-11.1667
血管	-11.1667
内閣総理大臣	-11.1669
sco	-11.1669
守り	-11.1671
受け入れられ	-11.1673
を加え	-11.1673
視覚	-11.1675
リアス	-11.1677
ワンマン運転	-11.1678
わざ	-11.1679
頻	-11.1682
が得られる	-11.1683
重臣	-11.1683
潰	-11.1685
3,000	-11.1685
セガ	-11.1685
と判断し	-11.1686
ture	-11.1686
ユダヤ教	-11.1687
ニズム	-11.1687
ワール	-11.1688
ラント	-11.1688
tic	-11.1689
linux	-11.1693
事前に	-11.1693
ダービー	-11.1694
運転される	-11.1696
ことなど	-11.1697
記載されている	-11.1701
良好	-11.1702
オイル	-11.1706
rea	-11.1706
han	-11.1706
後部	-11.1708
コンクリート	-11.1709
婚姻	-11.1709
架空の	-11.1709
救援	-11.1712
雀	-11.1716
ニル	-11.1718
訪れる	-11.1718
観念	-11.1721
されるため	-11.1722
一次	-11.1729
といわれ	-11.173
どちらも	-11.1731
バレー	-11.1732
知的	-11.1732
レコーディング	-11.1733
可決	-11.1735
360	-11.1735
動機	-11.1738
出される	-11.1741
北区	-11.1741
さくら	-11.1741
日本代表	-11.1742
に似た	-11.1742
で構成される	-11.1744
も可能	-11.1745
石井	-11.1746
三重	-11.1748
を越えて	-11.1748
取り付け	-11.1749
住居	-11.1751
実際は	-11.1752
力士	-11.1755
日本国外	-11.1755
跳	-11.1757
哉	-11.1757
東山	-11.1758
という語	-11.1761
孤	-11.1762
申し出	-11.1765
天守	-11.1765
計量	-11.1765
待合室	-11.1765
槻	-11.1765
電動	-11.1766
live	-11.1767
降車	-11.1772
植え	-11.1773
嶺	-11.1773
枕	-11.1773
以	-11.1775
まえ	-11.1775
住み	-11.1776
翔	-11.1781
甥	-11.1781
分泌	-11.1782
という意味で	-11.1784
明治維新	-11.1785
電動機	-11.1786
富山県	-11.1787
残された	-11.1789
舌	-11.1789
が図られ	-11.1789
クジラ	-11.179
金曜	-11.179
和泉	-11.1791
五十	-11.1792
という形で	-11.1795
領有	-11.1795
上り線	-11.1796
ヨハネ	-11.1797
手前	-11.1799
薄い	-11.1806
右衛門	-11.1806
階建て	-11.1808
福山	-11.181
ていき	-11.1813
と並んで	-11.1813
リゾート	-11.1814
蛍	-11.1814
に過ぎない	-11.1814
世界観	-11.1815
高額	-11.182
阿波	-11.1821
オーディション	-11.1821
アシスタント	-11.1822
お笑い	-11.1822
ステレオ	-11.1823
ウー	-11.1823
救助	-11.1824
仰	-11.1826
となったため	-11.1827
を高める	-11.1828
コンパクト	-11.183
交響曲	-11.183
限りで	-11.1831
初演	-11.1831
圧倒的	-11.1838
愛媛県	-11.1838
▁概説	-11.1838
減少した	-11.1842
重ね	-11.1842
ris	-11.1843
fu	-11.1843
ここから	-11.1844
を終えた	-11.1848
伸ばし	-11.185
ガール	-11.1851
宮城	-11.1854
恐	-11.1854
踏み	-11.1857
焼失	-11.1857
を食べる	-11.1859
総理	-11.1859
摩擦	-11.1862
全身	-11.1862
nec	-11.1868
は少なく	-11.187
ヴェネツィア	-11.187
パフォーマンス	-11.187
分ける	-11.1872
tive	-11.1872
gb	-11.1872
が入る	-11.1873
発祥	-11.1874
ビジョン	-11.1876
安打	-11.1876
珠	-11.1877
で唯一	-11.188
天神	-11.1882
ats	-11.1887
利便性	-11.1887
ことが多かった	-11.1888
ブロー	-11.1893
以内に	-11.1895
東日本大震災	-11.1895
知名度	-11.1895
小笠原	-11.1895
橋上駅舎	-11.1895
会見	-11.19
豊かな	-11.19
センチメートル	-11.1903
西鉄	-11.1905
営業運転	-11.1905
と発言し	-11.1906
物理的	-11.1907
困難な	-11.1909
が開催され	-11.1915
えん	-11.1915
南アフリカ	-11.1918
ish	-11.1919
アンテナ	-11.192
金銭	-11.1921
が無く	-11.1921
ok	-11.1921
問い	-11.1929
歌謡	-11.193
ヘイ	-11.1933
が導入された	-11.194
沿	-11.194
親族	-11.1942
別れ	-11.1943
表示される	-11.1944
萌	-11.1952
バリアフリー	-11.1952
所要時間	-11.1953
謝罪	-11.1953
尼	-11.1954
石原	-11.1954
深刻な	-11.1955
に向けた	-11.1956
尽く	-11.1958
らせた	-11.1959
叫	-11.196
づくり	-11.1962
後藤	-11.1962
肉体	-11.1963
全土	-11.197
国際的な	-11.1972
に努め	-11.1973
あん	-11.1974
cia	-11.1976
夷	-11.1977
につれて	-11.1979
置換	-11.1979
マンガ	-11.1981
預金	-11.1983
ァ	-11.1983
党首	-11.1986
上空	-11.1987
技術者	-11.1988
回戦	-11.1989
電荷	-11.1989
設置された	-11.199
崩れ	-11.1991
究	-11.1993
フスキー	-11.1993
エルサレム	-11.1994
ハリー	-11.1994
枯	-11.1994
他人	-11.1994
諱	-11.1994
1913	-11.1997
ial	-11.1999
魔女	-11.1999
しまう	-11.2001
発売した	-11.2002
ゴシック	-11.2002
ニュージーランド	-11.2002
岬	-11.2002
財団	-11.2004
並びに	-11.2004
イング	-11.2005
に成功し	-11.2008
ari	-11.2009
変異	-11.201
を知った	-11.201
が成立する	-11.2013
動脈	-11.2016
臼	-11.2018
返す	-11.2022
が設立され	-11.2023
ぽ	-11.2025
廟	-11.2027
が確認され	-11.2029
公募	-11.203
死んだ	-11.2031
理性	-11.2033
ウラ	-11.2035
影響を受け	-11.2035
香川県	-11.2035
続けていた	-11.2036
ギル	-11.2039
気筒	-11.204
庭園	-11.204
岩手県	-11.2043
に任じ	-11.2046
ホイ	-11.2052
礁	-11.2052
仕掛け	-11.2054
公用語	-11.2056
松井	-11.2058
を利用し	-11.2058
を確保する	-11.2062
を廃止し	-11.2064
ギア	-11.2064
ics	-11.2065
最終回	-11.2066
使える	-11.2067
食堂	-11.2067
が採用され	-11.2067
半ば	-11.2068
蹴	-11.2068
ミッション	-11.2068
シュタイン	-11.2068
ドイツ人	-11.2072
生じた	-11.2073
ny	-11.2073
翻	-11.2074
口径	-11.2074
ショート	-11.2075
一貫して	-11.2075
棲	-11.2077
沸	-11.2077
媒	-11.2079
zo	-11.208
盟	-11.2083
尋	-11.2084
化粧	-11.2085
ディズニー	-11.2085
研修	-11.2086
鳥取	-11.2087
原始	-11.2089
中央区	-11.2091
評判	-11.2092
gs	-11.2092
立川	-11.2093
残留	-11.2096
台地	-11.2096
目撃	-11.2097
者数	-11.2097
現金	-11.2099
左派	-11.2109
恭	-11.211
泡	-11.211
を取った	-11.2113
star	-11.2118
線型	-11.2124
一気に	-11.2126
ライダー	-11.2126
高度な	-11.2132
有数の	-11.2132
げん	-11.2135
山梨県	-11.2138
孤立	-11.2138
工程	-11.2139
線形	-11.2139
広まった	-11.2141
を導入した	-11.2143
ビスマルク	-11.2143
に変え	-11.2145
鶴見	-11.2145
の一員	-11.2146
を設置する	-11.2148
船体	-11.2148
ファースト	-11.2148
無効	-11.2151
小川	-11.2153
に所属する	-11.2153
正式名称	-11.2153
豊富	-11.2154
改称	-11.2155
下院	-11.2156
英語版	-11.2156
に反対し	-11.2157
に従う	-11.2157
エリザベス	-11.216
優等列車	-11.216
融資	-11.2161
編曲	-11.2162
を表明した	-11.2162
江戸幕府	-11.2164
丹波	-11.2164
アメリカ海軍	-11.2167
さわ	-11.2169
を避けるため	-11.2169
んでおり	-11.217
旗艦	-11.217
写像	-11.2172
著者	-11.2173
景気	-11.2173
たけし	-11.2173
猪	-11.2173
ug	-11.2177
募	-11.2177
収束	-11.2178
ほしい	-11.2181
を宣言し	-11.2181
原子核	-11.2182
当地	-11.2182
1907	-11.2182
職人	-11.2185
犠牲	-11.2185
rb	-11.2186
青色	-11.2187
実数	-11.2188
4000	-11.2189
に編入され	-11.2189
対外	-11.2191
アダルト	-11.2194
どんな	-11.2194
小泉	-11.2197
切断	-11.2198
格納	-11.2199
使用している	-11.2201
を派遣し	-11.2202
ヒー	-11.2202
ルネサンス	-11.2202
財閥	-11.2202
新製	-11.2203
が与えられ	-11.2205
シエ	-11.2205
西宮	-11.2206
は無く	-11.2213
実戦	-11.2214
粛	-11.2217
粗	-11.2219
俣	-11.2219
硬貨	-11.222
青山	-11.2222
玩具	-11.2227
探検	-11.2228
運転所	-11.2228
番目	-11.2229
青森県	-11.2232
を走る	-11.2234
闇	-11.2236
潔	-11.2236
β	-11.2236
危	-11.2237
踊り	-11.2237
古河	-11.2237
java	-11.2237
mk	-11.224
と一緒に	-11.2241
確認できる	-11.2243
改札内	-11.2244
十六	-11.2245
を継承し	-11.2247
定義される	-11.2248
松竹	-11.2249
対策として	-11.2249
uefa	-11.225
他国	-11.2252
知られていた	-11.2252
スケール	-11.2253
バラエティ番組	-11.2256
古代ギリシア	-11.2257
連邦軍	-11.226
スコット	-11.226
篤	-11.2261
ホーク	-11.2263
辞典	-11.2264
を集めた	-11.2266
秋田県	-11.2266
場合でも	-11.2267
建てられた	-11.2268
デジタル放送	-11.227
検察	-11.2271
バッハ	-11.2273
ゆき	-11.2276
分間隔	-11.2279
を記念して	-11.228
に転じ	-11.2284
歌う	-11.2285
に陥った	-11.2287
運転されていた	-11.2287
職務	-11.2287
ゆえに	-11.2288
に出る	-11.2293
されることとなった	-11.2294
ドラえもん	-11.2295
労働組合	-11.2297
この結果	-11.2297
体積	-11.23
欧	-11.2301
不振	-11.2301
に基づいた	-11.2304
成り立つ	-11.2304
身長	-11.2308
テラ	-11.231
愛知	-11.2317
階層	-11.2317
共和党	-11.2321
金剛	-11.2321
有馬	-11.2322
ani	-11.2324
長女	-11.2325
ガム	-11.2326
学派	-11.2327
食糧	-11.233
一貫	-11.2332
していて	-11.2335
1871	-11.2337
高架化	-11.2337
半数	-11.234
熊野	-11.2346
拉致	-11.2346
アイテム	-11.2346
袁	-11.2346
曾	-11.2347
日本シリーズ	-11.2347
位置付け	-11.2348
利根川	-11.2348
理事会	-11.2348
艦艇	-11.2348
放送される	-11.2349
2.5	-11.235
同行	-11.2353
1905	-11.2354
red	-11.2355
bgm	-11.2355
天王寺	-11.2356
ロフ	-11.2357
ニッポン放送	-11.2357
集約	-11.2358
を変更し	-11.2358
隠れ	-11.2362
因子	-11.2365
を必要とする	-11.2365
伝統的に	-11.2371
開通した	-11.2371
super	-11.2374
取り上げ	-11.2378
ゲルマン	-11.2388
になってから	-11.2389
捕らえ	-11.2389
電機	-11.239
リーマン	-11.239
チア	-11.2391
コーラ	-11.2392
news	-11.2392
終着	-11.2393
南京	-11.2395
裸	-11.2398
顎	-11.2398
を引き起こす	-11.2398
播磨	-11.2398
きり	-11.2401
コメディ	-11.2403
佐野	-11.2404
ギン	-11.2406
依然として	-11.2407
と指摘している	-11.2408
創設された	-11.2411
を批判し	-11.2412
穏	-11.2414
1889	-11.2417
ないので	-11.2418
ys	-11.242
1908	-11.2423
プラットフォーム	-11.2424
甲府	-11.2424
笑い	-11.2425
je	-11.2426
着手	-11.2427
初となる	-11.2428
重要である	-11.2432
どちらか	-11.2432
液晶	-11.2433
下流	-11.2434
食物	-11.2438
切手	-11.2439
漂	-11.2441
沈没	-11.2442
奏者	-11.2444
均	-11.2445
に掲載された	-11.2445
べる	-11.2446
に使用される	-11.2448
を挟んで	-11.2451
連動	-11.2451
刑法	-11.2452
芝居	-11.2453
子音	-11.2454
擁護	-11.2458
宴	-11.2458
ヴェン	-11.2459
どり	-11.246
電動車	-11.2461
キャッシュ	-11.2462
創始	-11.2468
千人	-11.2469
貸し	-11.2471
景観	-11.2471
駆け	-11.2472
送られ	-11.2474
ジュニア	-11.2474
ニール	-11.2475
昭和天皇	-11.2475
をめぐって	-11.2475
保全	-11.2476
プレーヤー	-11.2476
水中	-11.2476
市営地下鉄	-11.2476
に耐え	-11.2478
格子	-11.2479
土休日	-11.248
古来	-11.2481
先住民	-11.2482
ラート	-11.2482
胎	-11.2484
増発	-11.2487
をもたらした	-11.2488
ハート	-11.2489
岡崎	-11.2489
映画化	-11.249
zh	-11.2496
日蓮	-11.2497
ソ連軍	-11.2498
を想定し	-11.2499
\	-11.2501
をめぐる	-11.2501
を築いた	-11.2502
ホンダ	-11.2502
食材	-11.2503
タービン	-11.2505
オペ	-11.2507
ストーン	-11.2507
生体	-11.2508
与党	-11.2508
出兵	-11.251
華族	-11.251
に配置され	-11.2511
復活した	-11.2511
ホイール	-11.2511
勢い	-11.2513
与えられ	-11.2514
成り	-11.2515
が発表され	-11.2516
傾向がある	-11.2518
を継いだ	-11.2519
頑	-11.2519
模索	-11.2519
と語った	-11.2524
宗教的	-11.2525
堆積	-11.2528
資本主義	-11.2529
クリーム	-11.2529
を有している	-11.2535
台数	-11.2535
普遍	-11.2536
記者会見	-11.2536
うまく	-11.2537
間違い	-11.2539
この事件	-11.2542
名義で	-11.2543
ペリ	-11.2544
シチリア	-11.2545
扶	-11.2545
本項では	-11.2545
を確保し	-11.255
グラー	-11.255
しまい	-11.2553
と発表した	-11.2553
韻	-11.2554
思考	-11.2555
先駆け	-11.2556
マイケル	-11.2556
遠く	-11.2562
廊	-11.2562
part	-11.2563
open	-11.2569
骸	-11.2571
佳	-11.2572
も増え	-11.2572
梨	-11.2574
続けられ	-11.2574
サウス	-11.258
星人	-11.2581
を背景に	-11.2581
考えられる	-11.2582
さき	-11.2583
キック	-11.2587
ペース	-11.2587
典型的な	-11.2588
千歳	-11.259
子供たち	-11.259
騎手	-11.2591
落下	-11.2594
貌	-11.2597
バリエーション	-11.2598
負荷	-11.2598
引退後	-11.2599
編集者	-11.2603
集会	-11.2603
なかったこと	-11.2604
指向	-11.2604
の一種である	-11.2606
年代初頭	-11.2607
天保	-11.2609
unix	-11.2611
遭	-11.2615
作目	-11.2616
と対戦	-11.2616
実家	-11.2616
住吉	-11.2616
不在	-11.2618
補強	-11.2621
oh	-11.2623
ウェブサイト	-11.2624
出馬	-11.2625
入植	-11.2626
不利	-11.2627
アルプス	-11.2628
ルーツ	-11.2629
捕食	-11.2629
を続ける	-11.263
東芝	-11.2631
喫	-11.2635
町内	-11.2636
謡	-11.2639
理由から	-11.264
娯楽	-11.2641
福岡市	-11.2642
を生かし	-11.2642
への影響	-11.2649
ハイブリッド	-11.265
ヘリコプター	-11.265
責任者	-11.2655
世界初の	-11.2656
月時点で	-11.2657
偶然	-11.266
名所	-11.2663
車掌	-11.2663
日に行われた	-11.2664
日放送分	-11.2665
動く	-11.2666
兼任	-11.2667
メニュー	-11.267
鎌	-11.2676
を受けていた	-11.2676
ふく	-11.2676
仮面ライダー	-11.2677
被災	-11.2678
を防ぐ	-11.2678
信託	-11.2681
事前	-11.2684
元来	-11.2685
を対象に	-11.2685
難民	-11.2685
マスク	-11.2687
それ以外	-11.2688
田原	-11.2689
中央競馬	-11.2692
世間	-11.2694
抵	-11.2694
卑	-11.2694
ねじ	-11.2696
終わった	-11.2697
単体	-11.2698
ther	-11.2698
題材	-11.2698
ヴォー	-11.2704
町名	-11.2706
ミュー	-11.2706
チーズ	-11.2706
を維持する	-11.2708
を構え	-11.2712
につながる	-11.2712
大日本帝国	-11.2712
▁略歴	-11.2712
誕生日	-11.2713
を決意	-11.2713
を巡って	-11.2716
入線	-11.2716
疑い	-11.2717
乗り入れる	-11.272
ッピング	-11.2721
都市部	-11.2726
製作された	-11.2727
代将軍	-11.2728
合法	-11.2735
本尊	-11.2735
任意	-11.2737
発信	-11.2742
遅く	-11.2742
尽力	-11.2743
多くの場合	-11.2744
という名前	-11.2745
本当に	-11.2746
波長	-11.2747
qui	-11.2747
引き継いだ	-11.2748
トレード	-11.2749
と称され	-11.2749
二郎	-11.2751
インバータ	-11.2751
提唱した	-11.2751
をかけた	-11.2752
日本初の	-11.2753
ソビエト	-11.2755
禄	-11.2756
使用できる	-11.2756
仲介	-11.2759
ミール	-11.2761
pm	-11.2764
北西部	-11.2767
衣装	-11.2769
に変更した	-11.277
line	-11.2772
テキサス	-11.2774
つつも	-11.2776
駅前広場	-11.2776
カリウム	-11.2776
技能	-11.2778
あらかじめ	-11.2783
麻雀	-11.2784
西ドイツ	-11.2784
阿部	-11.2785
慶応	-11.2787
1・2	-11.2792
公団	-11.2793
スティック	-11.2795
浮上	-11.2797
ハンド	-11.2798
西郷	-11.2798
招待	-11.2802
樹脂	-11.2802
元号	-11.2804
完了した	-11.2805
総統	-11.2805
ボート	-11.2807
アダム	-11.2808
反面	-11.2809
黒田	-11.2811
自分たち	-11.2811
整備された	-11.2811
を訪れた	-11.2811
入居	-11.2818
斜	-11.2818
全集	-11.2819
続けて	-11.2819
を結んだ	-11.2819
普段	-11.2821
呼ばれる	-11.2821
ハリ	-11.2822
を指して	-11.2827
売買	-11.2827
ディレクター	-11.2828
囚	-11.2828
広がって	-11.2829
福田	-11.283
へ移	-11.283
帰り	-11.283
機材	-11.2833
汎用	-11.2834
田園	-11.2835
調査では	-11.2837
多少	-11.2837
ねん	-11.2838
嫡男	-11.2839
共用	-11.2841
演じる	-11.2842
できるようになった	-11.2848
に貢献した	-11.285
ray	-11.285
あさ	-11.2854
塊	-11.2855
ミュンヘン	-11.2855
ユース	-11.2857
神田	-11.2863
考古学	-11.2864
スペイン語	-11.2864
皿	-11.2864
合わせる	-11.2866
オールスター	-11.2868
を搭載する	-11.2871
プログラミング	-11.2871
信徒	-11.2878
家畜	-11.2879
このころ	-11.2879
を中心として	-11.288
世紀頃	-11.2882
緊張	-11.2883
ドリーム	-11.2883
は以下の通りである	-11.2885
広報	-11.2885
北東部	-11.2888
小規模な	-11.2889
ヶ谷	-11.289
出てくる	-11.289
快速列車	-11.289
抽象	-11.2891
ことが可能	-11.2891
ストリート	-11.2892
木曜	-11.2892
公家	-11.2893
ker	-11.2893
を決定した	-11.2897
抽出	-11.2898
右手	-11.2898
アクセント	-11.2908
旭川	-11.2908
リャ	-11.2909
自立	-11.2911
ボルト	-11.2914
高知	-11.2914
小路	-11.2914
ベンチ	-11.292
しろ	-11.292
互	-11.2921
荒川	-11.2923
ライブラリ	-11.2924
ウラン	-11.2927
俳	-11.2927
使節	-11.293
軽量	-11.2931
出陣	-11.2935
がなされている	-11.2936
アミノ酸	-11.2936
認証	-11.2936
靴	-11.2937
を上回る	-11.2937
ソフトバンク	-11.2938
もはや	-11.2938
住んでいた	-11.2938
に参加する	-11.294
軍艦	-11.2941
畠山	-11.2941
母体	-11.2942
リーフ	-11.2943
1915	-11.2943
賄	-11.2945
墓地	-11.2946
格闘	-11.2946
財団法人	-11.2946
を深め	-11.2947
一種の	-11.2951
呼んで	-11.2952
遮断	-11.2956
狩り	-11.2956
運転されている	-11.2957
花火	-11.2959
を見つけ	-11.296
問題点	-11.296
建築家	-11.2962
レフ	-11.2962
発注	-11.2963
さらなる	-11.2964
挨拶	-11.2964
就航	-11.2966
が搭載され	-11.2968
鹿児島県	-11.2972
ヨーク	-11.2975
付けられ	-11.2976
方面へ	-11.2977
亜種	-11.2977
マイク	-11.2979
レンジャー	-11.2982
教育機関	-11.2983
に戻り	-11.2985
登板	-11.2988
適切	-11.2988
薩	-11.299
上場	-11.2991
受けた	-11.2991
歌唱	-11.2994
発売されている	-11.2997
中毒	-11.2998
パレスチナ	-11.3
温暖	-11.3001
失われた	-11.3004
中盤	-11.3007
を設置した	-11.3008
コミックス	-11.3009
フィクション	-11.3012
アルミ	-11.3012
マウス	-11.3017
チャーチル	-11.3019
リリースされた	-11.3023
書物	-11.3024
穀物	-11.3025
ブルース	-11.3026
小麦	-11.3027
日本海軍	-11.3028
即位した	-11.303
追求	-11.303
10%	-11.3031
を主張し	-11.3032
パーツ	-11.3036
リン酸	-11.3038
織田信長	-11.3038
まとめて	-11.3039
モンド	-11.304
上げて	-11.304
摂津	-11.3041
カワ	-11.3042
遷	-11.3042
刷	-11.3045
激化	-11.3046
正しく	-11.3048
持続	-11.305
体内	-11.3053
地面	-11.3057
棋士	-11.3057
支流	-11.3059
されるようになり	-11.3065
余裕	-11.3066
中枢	-11.3068
調和	-11.3072
死ぬ	-11.3073
を歴任	-11.3074
カルシウム	-11.3074
と言われた	-11.3074
看護	-11.3074
マイクロソフト	-11.3077
リビア	-11.3077
蒙	-11.3082
戦った	-11.3082
プロトコル	-11.3083
ステー	-11.3085
アンリ	-11.3088
まもなく	-11.3089
大塚	-11.3089
南西部	-11.3091
拘	-11.3091
シミュレーション	-11.3092
楕円	-11.3092
戦果	-11.3093
知らせ	-11.3093
ツァー	-11.3093
を進める	-11.3094
プリンス	-11.3096
グレート	-11.3097
早稲田大学	-11.3097
飲食店	-11.3102
られなかった	-11.3108
アイランド	-11.3108
東区	-11.3112
除外	-11.3114
山陽本線	-11.3114
行われており	-11.3116
自動的に	-11.3118
bar	-11.3119
趣旨	-11.312
診療	-11.312
目立つ	-11.312
同型	-11.3122
ポケット	-11.3124
iz	-11.3124
can	-11.3125
色彩	-11.3126
反撃	-11.3126
として扱われ	-11.3127
ラジオ番組	-11.313
ギリシア語	-11.3131
失脚	-11.3132
円谷	-11.3134
坪	-11.3138
嫌い	-11.3138
が用意され	-11.3145
収録された	-11.3145
マケドニア	-11.3147
表紙	-11.315
アイデア	-11.3152
に該当する	-11.3152
風俗	-11.3155
小規模	-11.3156
ゴジラ	-11.3157
陰謀	-11.3157
境内	-11.3158
ロシア語	-11.3158
マーシャル	-11.3159
内装	-11.3163
彫	-11.3165
癒	-11.3166
督	-11.3166
排水	-11.3167
特別番組	-11.3167
駅付近	-11.3169
リーグ優勝	-11.3171
てきている	-11.3172
ノース	-11.3173
ヤクルト	-11.3175
てくれた	-11.3176
ヶ丘	-11.3177
が発着する	-11.3177
仙台市	-11.318
豊富な	-11.3181
ml	-11.3183
総額	-11.3183
政務	-11.3184
ぴ	-11.3184
胴	-11.3185
転写	-11.3186
低減	-11.3186
指標	-11.3186
個性	-11.3187
上限	-11.3188
契機	-11.3189
審議	-11.319
地盤	-11.3191
南下	-11.3192
者もいる	-11.3192
既存	-11.3193
錬	-11.3194
幼児	-11.3196
放射線	-11.3196
lp	-11.3196
通商	-11.3197
特色	-11.3202
薬剤	-11.3203
凶	-11.3203
肯定	-11.3203
膨大な	-11.3203
ライス	-11.3204
高かった	-11.3206
手段として	-11.3206
ina	-11.3212
蜜	-11.3212
地方公共団体	-11.3212
貧困	-11.3213
発作	-11.3213
〜』	-11.3216
二条	-11.322
貨車	-11.3221
洛	-11.3222
月中旬	-11.3222
停留場	-11.3222
を加える	-11.3223
サッ	-11.3223
音響	-11.3225
安定した	-11.3231
から構成され	-11.3231
san	-11.3237
という概念	-11.3237
制作された	-11.3237
けど	-11.3238
を挙げている	-11.3239
管弦楽	-11.324
とも言われる	-11.324
プラスチック	-11.324
柵	-11.3241
臨海	-11.3241
文化的	-11.3242
love	-11.3246
審議会	-11.3246
ビートルズ	-11.325
左衛門	-11.325
警告	-11.325
失敗した	-11.3251
に応じた	-11.3255
必要があった	-11.3259
歌舞伎	-11.3259
一丁目	-11.326
ニーズ	-11.3261
駅構内図	-11.3262
2.0	-11.3264
シールド	-11.3265
掘	-11.3265
を提案し	-11.3267
薩摩	-11.3269
その名	-11.3269
紋章	-11.327
sha	-11.3271
用いた	-11.3272
オリックス	-11.328
特権	-11.328
畜	-11.3282
様な	-11.3286
凡	-11.3287
を除いた	-11.3287
タケ	-11.3288
を残す	-11.329
いったん	-11.3294
事務局	-11.3299
ペルー	-11.33
予言	-11.33
pol	-11.3301
つつあった	-11.3302
紀伊	-11.3302
全世界	-11.3303
どのように	-11.3305
大隊	-11.3309
エクス	-11.331
流派	-11.3311
形電車	-11.3312
現在まで	-11.3314
新しく	-11.3314
赦	-11.3315
となること	-11.3315
られず	-11.3315
シベリア	-11.3315
菩薩	-11.3316
雇	-11.3316
撃沈	-11.3317
を送って	-11.3319
南端	-11.332
法廷	-11.332
かぶ	-11.3322
行政区	-11.3322
トゥス	-11.3324
急遽	-11.3325
白河	-11.3328
長時間	-11.3328
造り	-11.3334
転送	-11.3334
トレーニング	-11.3335
捕獲	-11.3335
探査	-11.3336
が配置され	-11.3337
うどん	-11.334
近接	-11.3341
ガード	-11.3342
ghq	-11.3344
ブドウ	-11.3344
切って	-11.3344
土器	-11.3345
支給	-11.3347
除く	-11.3347
アポロ	-11.3348
転向	-11.3349
撰	-11.3353
マリン	-11.3354
航空隊	-11.3355
補完	-11.3355
木星	-11.3355
添加	-11.3356
を残している	-11.336
笛	-11.3363
に対抗する	-11.3364
に移り	-11.3365
代謝	-11.3365
安芸	-11.3366
マール	-11.3366
ref	-11.3367
1906	-11.3368
血液型	-11.337
考えて	-11.3371
ブッシュ	-11.3371
考える	-11.3372
乗降人員	-11.3373
フィート	-11.3373
スーツ	-11.3373
機関区	-11.3373
しゅう	-11.3373
を提出し	-11.3373
緯度	-11.3373
も同じ	-11.3374
感染症	-11.3375
三男	-11.3375
への移行	-11.3377
十字軍	-11.3379
紛	-11.338
留め	-11.3382
ase	-11.3382
開業時	-11.3384
arch	-11.3385
決着	-11.3385
投入された	-11.3385
大尉	-11.3386
日程	-11.3388
投下	-11.339
ヴィクトリア	-11.3391
文学部	-11.3393
から離れ	-11.3393
義昭	-11.3396
を作って	-11.3396
king	-11.3397
トーマス	-11.3398
ヒロイン	-11.34
アラビア	-11.3401
事業所	-11.3401
奪還	-11.3401
マニア	-11.3403
ナレーション	-11.3403
を考慮し	-11.3405
前述の通り	-11.3407
レンタル	-11.3409
協同組合	-11.341
運搬	-11.341
迎撃	-11.3411
差し替え	-11.3411
津波	-11.3415
天候	-11.3415
テニス	-11.3415
三角形	-11.3415
キーボード	-11.3416
をつける	-11.3416
哺乳類	-11.3419
があれば	-11.342
参加している	-11.342
cho	-11.3421
楽天	-11.3421
労働党	-11.3422
間もなく	-11.3423
パウロ	-11.3429
閑	-11.3429
人以上	-11.343
偶	-11.3431
適合	-11.3431
炭酸	-11.3434
てくれ	-11.3434
高地	-11.3436
日以降	-11.3437
括弧	-11.3439
モチーフ	-11.3439
年代半ば	-11.344
指定席	-11.344
開店	-11.344
いつも	-11.3447
キット	-11.3448
楊	-11.3448
疫	-11.3448
追悼	-11.3448
ひら	-11.345
少なかった	-11.345
農地	-11.3451
har	-11.3453
が含まれている	-11.3453
っぱ	-11.3454
降水量	-11.3458
馬車	-11.3459
示された	-11.3461
form	-11.3461
慢性	-11.3462
cent	-11.3463
指輪	-11.3464
檀	-11.3467
歓	-11.3467
sto	-11.3467
残っていた	-11.3468
軍事的	-11.3468
があったため	-11.3472
特徴的な	-11.3473
候補者	-11.3473
車輪	-11.3474
ュ	-11.3475
砦	-11.3477
ラッシュ時	-11.3477
ヶ所	-11.3478
山頂	-11.3478
見られない	-11.3478
書いて	-11.3479
1870	-11.3481
適用される	-11.3485
松田	-11.3485
軽井沢	-11.3487
混ぜ	-11.3488
山形県	-11.3489
を命じた	-11.3489
ヤード	-11.3489
lf	-11.3494
容器	-11.3495
†	-11.3496
大韓民国	-11.3496
を支持する	-11.3497
mhz	-11.3498
没収	-11.3499
連合艦隊	-11.3501
対馬	-11.3504
役職	-11.3505
を生み出し	-11.3505
fer	-11.3507
放射性	-11.3511
滅ぼし	-11.3514
を発し	-11.3517
管領	-11.352
つながり	-11.3525
阻害	-11.3525
特番	-11.3527
エビ	-11.3527
有力な	-11.353
高性能	-11.3533
盲	-11.3534
ハチ	-11.3534
久保	-11.3535
実権	-11.3538
添え	-11.3538
外務省	-11.3541
落成	-11.3542
石川県	-11.3544
古代ローマ	-11.3549
つながって	-11.3553
箕	-11.3554
小沢	-11.3556
lar	-11.3558
素数	-11.3559
_3	-11.3559
濁	-11.3563
乗り場	-11.3564
宇治	-11.3564
インフレ	-11.3565
小学生	-11.3566
ユーザ	-11.3566
を否定し	-11.357
ことができず	-11.3572
多様性	-11.3573
跨	-11.3573
スクリーン	-11.3573
1896	-11.3576
基金	-11.3578
ボストン	-11.3582
ダイヤモンド	-11.3583
ジャンクション	-11.3584
今まで	-11.3584
api	-11.3585
為替	-11.3585
凍結	-11.3585
毎日新聞	-11.3587
維	-11.3589
療養	-11.3589
日本側	-11.3589
という用語	-11.359
を経由する	-11.359
○	-11.3592
狼	-11.3592
読売新聞	-11.3592
積極的な	-11.3594
のりば	-11.3597
上方	-11.3598
どころ	-11.3598
調節	-11.36
本形式	-11.3602
侵害	-11.3603
決済	-11.3604
得た	-11.3607
生え	-11.361
と表記される	-11.3611
チケット	-11.3611
イギリス軍	-11.3612
にちなんで	-11.3612
関わって	-11.3614
を通過し	-11.3615
と思われ	-11.3616
信頼性	-11.3616
type	-11.3617
事象	-11.3619
教室	-11.362
かかり	-11.362
本拠	-11.3621
武田氏	-11.3622
分かって	-11.3623
もたらされ	-11.3624
第五	-11.3624
ぐん	-11.3624
決められ	-11.3625
漏	-11.3627
得られた	-11.3629
かせる	-11.363
腔	-11.3631
免除	-11.3632
磁場	-11.3633
単線	-11.3634
東西線	-11.3635
殺された	-11.3638
こん	-11.3639
鉄道事業者	-11.3643
分配	-11.365
各々	-11.365
奔	-11.3651
最盛期	-11.3651
匹	-11.3651
に進出し	-11.3652
隆盛	-11.3655
ッキング	-11.3657
ハンドル	-11.3658
自称	-11.3658
楚	-11.366
茨	-11.366
ちゅう	-11.3661
に際し	-11.3662
を巡る	-11.3663
新政府	-11.3663
競技場	-11.3664
デルタ	-11.3664
っか	-11.3666
農家	-11.3667
石器	-11.3668
戯	-11.3668
日本国憲法	-11.367
乗用車	-11.367
用いられていた	-11.3673
ないよう	-11.3675
らん	-11.3675
王室	-11.3677
促	-11.3677
プラグ	-11.3678
骨格	-11.3679
悔	-11.368
を支える	-11.3683
委	-11.3685
を支配し	-11.3685
東北地方	-11.3687
牧場	-11.3688
東北本線	-11.3689
民俗	-11.3689
木曽	-11.369
ノイド	-11.369
好み	-11.369
を組み合わせた	-11.3694
膨	-11.3698
助言	-11.37
と評している	-11.37
tin	-11.3701
を引き起こし	-11.3703
背後	-11.3706
のひとつである	-11.3708
アーキテクチャ	-11.3709
ヴァイオリン	-11.371
野球場	-11.3711
解答	-11.3711
を決定する	-11.3716
稚	-11.3719
power	-11.3719
司令	-11.3719
瞬	-11.3719
同志	-11.3722
バット	-11.3722
激減	-11.3724
慢	-11.3725
ポンプ	-11.3727
エアロ	-11.3727
小学館	-11.3729
ファミコン	-11.3729
怪我	-11.373
はるかに	-11.373
海賊	-11.3732
レジスタ	-11.3736
火星	-11.3736
変わらない	-11.3739
拒絶	-11.3739
新宿駅	-11.3741
川口	-11.3745
させられた	-11.3747
医学部	-11.3748
報酬	-11.3748
日午前	-11.3751
ミラー	-11.3751
警報	-11.3751
ヨハン	-11.3756
分間	-11.3758
区別する	-11.376
始まって	-11.3762
最高裁判所	-11.3763
などが挙げられる	-11.3764
政界	-11.3765
分断	-11.3766
真理	-11.3767
器具	-11.3767
ムハンマド	-11.3768
盾	-11.3768
重要文化財	-11.377
優勢	-11.3773
塩化	-11.3774
運命	-11.3775
を取得し	-11.3776
ッシャー	-11.3776
たとえ	-11.3777
失業	-11.3777
開閉	-11.3778
静止	-11.378
月曜日	-11.3785
ォ	-11.3785
蔣介石	-11.3788
列島	-11.3788
区内	-11.3788
豊橋	-11.379
に発生した	-11.3793
イタリア語	-11.3796
親衛隊	-11.3798
終焉	-11.3798
豊臣秀吉	-11.3799
好評	-11.3799
ベック	-11.3799
楽章	-11.3801
筋肉	-11.3803
二度	-11.3809
悲劇	-11.3809
1916	-11.381
理事長	-11.3811
摂政	-11.3811
想像	-11.3812
出来た	-11.3818
人質	-11.382
トリア	-11.3821
に生息する	-11.3823
回大会	-11.3824
講座	-11.3824
万トン	-11.3826
氏族	-11.3827
直ちに	-11.3831
台詞	-11.3834
決断	-11.3834
絶え	-11.3835
playstation	-11.3838
みずほ	-11.3839
連邦政府	-11.3839
胤	-11.3847
釈迦	-11.3847
封じ	-11.3848
処置	-11.3849
せよ	-11.3849
漬け	-11.3852
ネコ	-11.3853
伝記	-11.3854
刈	-11.3857
貴重な	-11.3858
包括	-11.3858
書類	-11.3859
のほとんどは	-11.3859
プレミアム	-11.386
的存在	-11.3863
デハ	-11.3863
尽	-11.3866
マネージャー	-11.3867
きわめて	-11.3867
苑	-11.3868
閉塞	-11.3868
不可欠	-11.3868
くじ	-11.3869
と思った	-11.387
ことができなかった	-11.3872
小屋	-11.3872
電信	-11.3872
-29	-11.3877
意味合い	-11.3877
滑走路	-11.3877
仕切	-11.3878
ner	-11.3878
を実現し	-11.3878
知られた	-11.3879
主電動機	-11.3881
づけられ	-11.3882
ずっと	-11.3886
聖職者	-11.3887
ビュ	-11.3891
決まる	-11.3891
割り当て	-11.3893
吉川	-11.3896
アンダー	-11.3898
従軍	-11.3899
聴取	-11.3902
チェル	-11.3904
に乗って	-11.3906
重大な	-11.3908
が開かれ	-11.391
聖人	-11.3911
採掘	-11.3917
匿	-11.3917
凱	-11.3917
新興	-11.3918
アリス	-11.3919
解明	-11.3919
倒産	-11.392
てくれる	-11.3922
見ることができる	-11.3922
外見	-11.3925
に分類され	-11.3926
カンボジア	-11.3927
系図	-11.393
不十分	-11.3931
工芸	-11.3931
幣	-11.3936
霞	-11.3938
と主張し	-11.3938
0.0	-11.3945
ニコラ	-11.3945
安田	-11.3946
を超えて	-11.3946
と主張している	-11.3946
法改正	-11.3947
異端	-11.395
片側	-11.395
を進めた	-11.3953
オーク	-11.3955
進路	-11.3955
送られた	-11.3956
みんな	-11.3958
カリフォルニア州	-11.3964
純粋	-11.3965
存在せず	-11.3965
ies	-11.3966
染色体	-11.3968
注文	-11.397
断絶	-11.3974
東ローマ帝国	-11.3976
伝来	-11.3977
斑	-11.3977
パンタグラフ	-11.3977
偉大な	-11.3977
左手	-11.3978
曽	-11.3983
騒音	-11.3985
去った	-11.3986
gdp	-11.3987
エッセイ	-11.3988
合体	-11.399
真っ	-11.3991
八代	-11.3994
rf	-11.3995
両側	-11.3995
ボーイング	-11.3999
急激に	-11.4
同等	-11.4004
常陸	-11.4005
かけられ	-11.4006
司祭	-11.4006
ヘー	-11.4006
とする説もある	-11.4007
モバイル	-11.4008
標本	-11.4009
世紀前半	-11.4011
写本	-11.4013
付いて	-11.4016
1909	-11.4017
basic	-11.4018
1901	-11.4019
進軍	-11.4019
地獄	-11.4022
バラエティ	-11.4026
信玄	-11.4027
崇拝	-11.4028
観光地	-11.403
ことなどから	-11.403
グリーン車	-11.4033
自由な	-11.4033
不定期	-11.4037
アルメニア	-11.4038
モンテ	-11.404
影響を与える	-11.4042
中継局	-11.4048
学士	-11.4048
東武鉄道	-11.405
元帥	-11.4051
札幌市	-11.4052
長崎県	-11.4053
経歴	-11.4053
習得	-11.4053
撃退	-11.4055
に応じ	-11.4057
高校生	-11.4058
アプローチ	-11.4058
主教	-11.4061
low	-11.4062
able	-11.4063
香り	-11.4064
割り当てられ	-11.4064
歳の時に	-11.4065
断層	-11.4065
エール	-11.4066
水産	-11.4068
tron	-11.4068
ボクシング	-11.4068
サンデー	-11.4069
芸術家	-11.4073
ium	-11.4076
詳細な	-11.4078
クリスマス	-11.4079
公爵	-11.408
トマス	-11.4081
下ろし	-11.4082
進撃	-11.4084
入門	-11.4088
コムーネ	-11.4089
自作	-11.4094
а	-11.4095
クレイ	-11.4098
バイエルン	-11.4099
ドキュメンタリー	-11.4099
幼稚園	-11.4099
university	-11.4099
福知山	-11.4099
に到着した	-11.4101
は以下のとおり	-11.4101
魚類	-11.4102
作動	-11.4106
を舞台に	-11.4108
吹き替え	-11.411
先述の	-11.411
進められ	-11.4112
共和政	-11.4114
青い	-11.4115
計算機	-11.4116
トレイン	-11.4117
症候群	-11.4119
成功を収め	-11.4119
湧	-11.4119
プラザ	-11.4121
裁判官	-11.4121
カリフォルニア	-11.4123
剥	-11.413
明るい	-11.413
ルドルフ	-11.413
中性子	-11.413
実質的な	-11.4131
鋳造	-11.4132
まっていた	-11.4137
誰も	-11.4138
那覇	-11.414
アメリカ大陸	-11.4141
ory	-11.4142
ire	-11.4146
鋳	-11.4148
ジャーナリスト	-11.415
敗れ	-11.415
に依存し	-11.415
経済成長	-11.4151
フン	-11.4151
架線	-11.4153
並列	-11.4154
庶	-11.4157
セックス	-11.416
決まって	-11.4161
宗家	-11.4162
尊敬	-11.4163
が開発され	-11.4163
親子	-11.4163
に命じ	-11.4165
五輪	-11.4166
セダン	-11.4168
考えた	-11.4168
詔	-11.417
公益	-11.4173
むら	-11.4174
語彙	-11.4174
基底	-11.4176
敦	-11.418
アルミニウム	-11.4181
朝夕	-11.4182
準拠	-11.4182
モーニング	-11.4183
熊本県	-11.4183
撤回	-11.4183
神秘	-11.4184
優秀	-11.4185
1868	-11.4185
認められている	-11.4185
具体的	-11.4187
作画	-11.4188
文化放送	-11.419
僧侶	-11.4191
唱え	-11.4194
批評	-11.4198
器官	-11.4198
大学教授	-11.4201
賠償	-11.4201
コミュニティバス	-11.4201
牟	-11.4201
餅	-11.4202
修了	-11.4203
謝	-11.4206
マレー	-11.4207
警察官	-11.4207
まつ	-11.4212
膨張	-11.4213
市交通局	-11.4213
ence	-11.4215
gui	-11.4218
宗派	-11.4218
配下	-11.422
牙	-11.4222
倣	-11.4222
路面電車	-11.4222
当番組	-11.4222
関節	-11.4223
規範	-11.4223
ロップ	-11.4227
世紀以降	-11.4229
0.5	-11.423
提	-11.4231
対面	-11.4231
sis	-11.4232
を必要とし	-11.4233
付けられている	-11.4235
撤去された	-11.4235
高圧	-11.4237
バンダイ	-11.4238
中央アジア	-11.4247
が建設され	-11.4247
駐屯	-11.4253
日本国有鉄道	-11.4253
橘	-11.4253
初頭	-11.4254
軌間	-11.4256
出自	-11.4257
書体	-11.4257
を購入し	-11.4257
訂	-11.4263
古事記	-11.4263
笹	-11.4264
名乗り	-11.4264
以西	-11.4269
行える	-11.427
とは言え	-11.427
南東部	-11.4271
慮	-11.4272
辞書	-11.4274
参拝	-11.4276
吸収合併	-11.4277
ten	-11.4277
釧路	-11.4277
誤差	-11.4278
ボーカル	-11.4281
異なった	-11.4282
を誇る	-11.4284
を繰り広げ	-11.4284
数千	-11.4284
亮	-11.4284
賑	-11.4284
尼崎	-11.4285
合衆国	-11.4286
式典	-11.4287
せられた	-11.4288
辞退	-11.4289
結成された	-11.4292
グレイ	-11.4294
一致する	-11.4294
を占領し	-11.4295
火力	-11.4296
光線	-11.4298
ぱ	-11.4299
津川	-11.4299
取って	-11.4299
入れ替え	-11.4301
処女	-11.4301
遺言	-11.4303
不全	-11.4304
によって異なる	-11.4304
上げられ	-11.4304
諦	-11.4305
師匠	-11.4306
純粋な	-11.4308
定期的に	-11.4309
命名された	-11.4312
等級	-11.4313
mor	-11.4313
を占めている	-11.4314
多項式	-11.4315
遅延	-11.4317
忠実	-11.4317
を余儀なくされた	-11.4321
dh	-11.4322
が開発した	-11.4324
を前提とし	-11.4324
営団	-11.4324
スマート	-11.4326
奨励	-11.4326
袖	-11.4326
端子	-11.4326
競走馬	-11.4327
先代	-11.4328
に専念	-11.4329
モンスター	-11.4329
峡	-11.4332
を失う	-11.4333
を境に	-11.4333
宇宙船	-11.4333
これについて	-11.4334
培	-11.4336
免疫	-11.4336
を訪問し	-11.4338
駅弁	-11.4338
を主張した	-11.4339
せない	-11.4339
大使館	-11.4339
コンピューター	-11.434
急行電鉄	-11.434
実体	-11.4342
くろ	-11.4345
ユーゴスラビア	-11.4346
あくまでも	-11.4347
受け継がれ	-11.4347
秘書	-11.4347
サンフランシスコ	-11.4348
パロディ	-11.4349
音節	-11.435
戸籍	-11.435
てゆく	-11.4353
1898	-11.4354
史上初の	-11.4355
塞	-11.4355
評論	-11.4356
哀	-11.4357
国宝	-11.4357
が広がる	-11.4357
開館	-11.4361
インフラ	-11.4361
を変える	-11.4362
を行わ	-11.4362
帰国した	-11.4363
script	-11.4365
リトアニア	-11.4367
灘	-11.4367
佐世保	-11.4368
を重視する	-11.4369
思い出	-11.4371
1903	-11.4372
飛鳥	-11.4374
1904	-11.4375
に始まる	-11.4377
精神的	-11.4377
実写	-11.438
発達した	-11.4382
放置	-11.4383
抄	-11.4388
ハリウッド	-11.4388
第三次	-11.439
と信じ	-11.439
をなす	-11.4392
長期間	-11.4392
平安	-11.4394
を攻撃し	-11.4398
ループ	-11.4399
ü	-11.4399
島根県	-11.4399
所管	-11.4401
落選	-11.4402
救急	-11.4402
電気軌道	-11.4407
アルファ	-11.4408
関東地方	-11.441
作成した	-11.441
今度は	-11.441
知らない	-11.4411
突破	-11.4411
ash	-11.4414
みず	-11.4415
を越える	-11.4416
bit	-11.4416
出演している	-11.4416
に限らず	-11.442
幾つか	-11.4421
月曜	-11.4424
ring	-11.4424
胴体	-11.443
とも言える	-11.443
と呼んでいる	-11.4431
加算	-11.4434
準決勝	-11.4434
藩士	-11.4439
も少なくない	-11.4442
京成電鉄	-11.4443
1869	-11.4443
派閥	-11.4443
転落	-11.4445
book	-11.4446
ハルト	-11.4449
マドリード	-11.4451
憂	-11.4451
西園寺	-11.4451
ブルガリア	-11.4452
りょう	-11.4452
外国語	-11.4452
を認めた	-11.4452
させられ	-11.4453
短期大学	-11.4453
止まり	-11.4453
最下位	-11.4454
告知	-11.4454
平衡	-11.4454
に向かった	-11.4454
幼少	-11.4454
描かれる	-11.4456
採取	-11.4456
十八	-11.4457
を考慮して	-11.4461
ゲージ	-11.4463
ler	-11.4463
親しまれ	-11.4464
安価	-11.4465
リレー	-11.4469
中京	-11.447
文脈	-11.447
太陽系	-11.4472
造営	-11.4472
歓迎	-11.4472
ニュートン	-11.4472
二酸化炭素	-11.4473
郵政	-11.4474
尊重	-11.4476
として知られている	-11.4476
安政	-11.4481
として用いられる	-11.4482
大きかった	-11.4483
プロモーション	-11.4483
錐	-11.4483
強硬	-11.4483
拡散	-11.4484
発動	-11.4484
不思議	-11.4494
ミラノ	-11.4494
に代わる	-11.4494
潟	-11.4494
第二次世界大戦中	-11.4496
転移	-11.45
途上	-11.4502
プー	-11.4503
創建	-11.4507
タイミング	-11.4507
再興	-11.4509
複製	-11.4512
麓	-11.4514
分けられ	-11.4514
定期列車	-11.4515
梶	-11.4515
令和元年	-11.4515
に分かれる	-11.4515
を名乗る	-11.4515
嶽	-11.4516
処罰	-11.4516
高齢者	-11.4516
新造	-11.4519
につれ	-11.452
国立公園	-11.4521
時代劇	-11.4521
ことはなく	-11.4523
満州	-11.4524
養殖	-11.4526
欠け	-11.4526
工法	-11.4527
転属	-11.4527
使徒	-11.4528
王妃	-11.4532
集まる	-11.4536
危惧	-11.4536
室町幕府	-11.4536
硫酸	-11.4539
明記	-11.4539
支払う	-11.454
露出	-11.4542
校長	-11.4542
定着した	-11.4544
カーネル	-11.4546
摘	-11.4546
グッズ	-11.4547
訳語	-11.4548
福井県	-11.4548
ゲスト出演	-11.4551
発揮	-11.4551
上下線	-11.4552
司会者	-11.4552
レーシング	-11.4554
らしく	-11.4554
立てられ	-11.4557
慶應義塾	-11.4558
vtr	-11.4559
伝播	-11.4559
川流域	-11.4564
多摩川	-11.4567
耶	-11.4568
淡路	-11.4569
捧げ	-11.457
住む	-11.4572
が決定した	-11.4572
替わり	-11.4573
ホッ	-11.4574
狙い	-11.4575
八戸	-11.4575
触媒	-11.4579
釈放	-11.458
ピンク	-11.4586
衰え	-11.4587
生育	-11.459
補償	-11.459
と同じように	-11.4592
遠隔	-11.4592
ジョイ	-11.4593
ローマ教皇	-11.4593
所有者	-11.4594
格闘技	-11.4595
発電機	-11.4598
訪れた	-11.4598
1872	-11.4598
唯	-11.4599
会合	-11.46
参議院	-11.46
旬	-11.46
スロット	-11.4601
改変	-11.4601
成熟	-11.4603
ていれば	-11.4603
酸化物	-11.4603
慎重	-11.4603
1878	-11.4604
ことを示す	-11.4604
婦人	-11.461
春秋	-11.4613
打ち切り	-11.4613
トルク	-11.4614
世界各地	-11.4616
に移行した	-11.4616
低温	-11.4618
極東	-11.4618
みると	-11.4621
ブログ	-11.4622
種目	-11.4623
年代にかけて	-11.4625
ボーン	-11.4625
掌	-11.4627
傘	-11.4629
ブリー	-11.4629
婿	-11.4632
待機	-11.4634
掲	-11.4636
プラー	-11.4638
飾り	-11.4639
診	-11.4641
ハノーファー	-11.4643
欽	-11.4643
グローバル	-11.4643
城下町	-11.4643
経費	-11.4644
スマートフォン	-11.4644
1897	-11.4644
快速急行	-11.4645
男爵	-11.4645
設定されていた	-11.4648
定住	-11.4653
標的	-11.4654
懇	-11.4654
鷲	-11.4654
月上旬	-11.4654
なかなか	-11.4656
を披露し	-11.4657
遂	-11.4659
斗	-11.466
中学生	-11.4661
腎	-11.4665
フェラーリ	-11.4665
萬	-11.4665
を通って	-11.4666
宰相	-11.4667
八重	-11.4669
ピーター	-11.467
掘り	-11.4675
フランクフルト	-11.4676
だん	-11.4678
引き受け	-11.4679
レーニン	-11.4681
バイク	-11.4683
ショット	-11.4684
クロム	-11.4684
歩行	-11.4686
辱	-11.4686
困難である	-11.4686
当事者	-11.4687
録画	-11.4688
競輪	-11.4688
朝倉	-11.469
コロニー	-11.4692
自由党	-11.4694
を発揮し	-11.4695
ニウス	-11.4697
余剰	-11.4697
帆	-11.4697
ベートーヴェン	-11.4697
変え	-11.4699
史記	-11.4701
赤軍	-11.4701
みたい	-11.4706
ジョンソン	-11.4706
准	-11.4708
征伐	-11.4708
検定	-11.4708
協奏曲	-11.4708
で表される	-11.4711
蜂	-11.4718
1880	-11.4718
支障	-11.4719
波動	-11.4722
志願	-11.4724
市営バス	-11.4727
聞く	-11.473
に当たって	-11.4733
インテル	-11.4733
天気	-11.4737
位置づけられ	-11.4738
訪れ	-11.4743
科学技術	-11.4744
商用	-11.4747
運び	-11.4747
itu	-11.4749
セキュリティ	-11.4752
鉄道事業	-11.4752
西武鉄道	-11.4753
ちょうど	-11.4754
ワンマン	-11.4754
が設定され	-11.4755
領内	-11.476
窪	-11.4763
を始めとする	-11.4764
明確	-11.4764
最近では	-11.4764
洗礼	-11.4765
核兵器	-11.4767
名声	-11.4771
トリオ	-11.4772
手数料	-11.4773
vhs	-11.4773
幼少期	-11.4774
世紀半ば	-11.4775
退役	-11.4777
1902	-11.4779
カセット	-11.4779
に関連する	-11.4784
常時	-11.4784
起訴	-11.4786
助手	-11.4788
青梅	-11.4788
アリストテレス	-11.4795
協調	-11.4795
武帝	-11.4795
かかって	-11.4796
にくく	-11.4799
100%	-11.48
倉庫	-11.4801
歯科	-11.4802
アルカリ	-11.4803
アーサー	-11.4803
救出	-11.4812
楼	-11.4817
bra	-11.4821
に搭載され	-11.4822
格差	-11.4822
均衡	-11.4828
遭遇	-11.4828
視察	-11.4831
運送	-11.4833
管制	-11.4835
けば	-11.4837
ミュージカル	-11.4839
集まって	-11.4839
が普及し	-11.484
門司	-11.4845
監督に就任	-11.4847
シュート	-11.4847
まつり	-11.4848
殉	-11.485
ハイビジョン	-11.4852
ければ	-11.4853
を入れて	-11.4854
保育	-11.4855
和歌山県	-11.4857
編集長	-11.4862
軽量化	-11.4863
を含んで	-11.4864
に戻って	-11.4865
貨物線	-11.4866
徐	-11.4871
松戸	-11.4874
党員	-11.4874
生殖	-11.4874
1873	-11.4876
外相	-11.4876
それ以上	-11.488
通知	-11.4881
忙	-11.4883
従属	-11.4883
迂回	-11.4887
歴史家	-11.4889
勤め	-11.4891
max	-11.4892
マーケット	-11.4897
車両基地	-11.4899
が置かれた	-11.49
を喫し	-11.4902
喩	-11.4905
順番	-11.4907
出すこと	-11.4908
威力	-11.4909
川端	-11.4909
条項	-11.4909
てきて	-11.4913
0°	-11.4914
アテナイ	-11.4916
日比谷	-11.4916
ユニバーサル	-11.4916
まらない	-11.4918
進入	-11.4918
大きくなる	-11.4919
開港	-11.492
曽根	-11.4922
奮	-11.4926
住所	-11.4926
落合	-11.4928
儒	-11.493
ワット	-11.4933
茶屋	-11.4934
砲弾	-11.4936
してくる	-11.4937
車椅子	-11.4938
防災	-11.494
警察署	-11.494
ぜん	-11.4942
に所属していた	-11.4943
と称して	-11.4948
リメイク	-11.4949
ji	-11.4951
dra	-11.4953
栄え	-11.4953
ナイフ	-11.4954
実務	-11.4956
字幕	-11.496
を帯び	-11.496
が完成し	-11.4962
が設けられた	-11.4963
充分	-11.4965
地理的	-11.4975
の中で最も	-11.4976
ことも可能	-11.4978
広範囲	-11.498
も用いられる	-11.498
倫	-11.4982
数少ない	-11.4983
ファイナル	-11.4984
退社	-11.4986
マルコ	-11.4987
▁you	-11.499
親会社	-11.4992
急性	-11.4992
樺太	-11.4994
問われ	-11.4995
制服	-11.4997
反転	-11.4997
函数	-11.4999
報告されている	-11.5
渡った	-11.5002
喚	-11.5004
こういった	-11.5007
明示	-11.501
留置	-11.501
あえて	-11.5011
腫	-11.5016
第三セクター	-11.5016
発車メロディ	-11.5017
毎時	-11.5024
に反対する	-11.5025
源流	-11.5027
膝	-11.5027
腺	-11.5027
せば	-11.5031
亜目	-11.5034
歪	-11.5038
形成される	-11.504
技師	-11.5042
熊谷	-11.5043
旧来の	-11.5044
日本共産党	-11.5045
父子	-11.5045
岩石	-11.5047
世界各国	-11.5048
フェスティバル	-11.5049
か否か	-11.5049
鞍	-11.5049
スケジュール	-11.505
オールナイトニッポン	-11.505
捜索	-11.505
割れ	-11.5057
を見せる	-11.5058
死体	-11.5058
ホームページ	-11.5059
о	-11.506
機関銃	-11.5061
コンゴ	-11.5061
筑波	-11.5064
宜	-11.5071
業務委託駅	-11.5072
させようと	-11.5072
tokyo	-11.5072
倶楽部	-11.5072
渡す	-11.5073
歴史上	-11.5073
......	-11.5073
っていく	-11.5074
ャー	-11.5075
少佐	-11.5079
なってきた	-11.5082
ダイエー	-11.5087
ウイング	-11.5089
ッシング	-11.5093
チャージ	-11.5093
火器	-11.5093
味噌	-11.5094
圓	-11.5095
取れ	-11.5095
これを受けて	-11.5096
揺	-11.5097
映画館	-11.5098
アヌス	-11.5101
と呼ばれるようになった	-11.5104
与える	-11.5107
劣る	-11.5107
被告	-11.5108
慣例	-11.5112
フランス革命	-11.5113
心配	-11.5114
央	-11.5117
石垣	-11.5117
鎌倉幕府	-11.5119
集まった	-11.5122
乗員	-11.5125
栄えた	-11.5125
簡単な	-11.5128
オペレーティングシステム	-11.5128
過半数	-11.5129
農耕	-11.513
マイナス	-11.513
ワークス	-11.513
ムーン	-11.5131
っこ	-11.5131
サクラ	-11.5138
累	-11.5138
を形成している	-11.5138
薩摩藩	-11.5139
を繰り返す	-11.514
row	-11.514
両端	-11.5143
youtube	-11.5151
が進んでいる	-11.5151
don	-11.5156
専属	-11.5157
支持者	-11.5159
として扱われる	-11.516
人気を博し	-11.5162
スペクトル	-11.5162
舵	-11.5162
待遇	-11.5162
海兵隊	-11.5163
浄土	-11.5166
鉱石	-11.5168
これに伴い	-11.5172
を備える	-11.5172
予告	-11.5175
換算	-11.5175
併結	-11.5176
憲章	-11.5177
テクノロジー	-11.5185
相模原	-11.5187
党派	-11.5187
略奪	-11.5187
を主張する	-11.5194
という説もある	-11.5195
万枚	-11.5199
先進	-11.52
オルガン	-11.5201
自由通路	-11.5201
1899	-11.5203
パルス	-11.5205
ぼう	-11.5205
みどり	-11.5207
調印	-11.5208
運休	-11.521
穀	-11.5211
知られており	-11.5212
前進	-11.5212
換装	-11.5213
真実	-11.5213
元禄	-11.5214
別荘	-11.5216
対比	-11.5217
失点	-11.5218
ニコライ	-11.5221
舞鶴	-11.5222
暮	-11.5224
史跡	-11.5226
クモハ	-11.5227
幸福	-11.5228
バルセロナ	-11.523
溜	-11.523
ともいえる	-11.523
天才	-11.5235
藤沢	-11.524
券売機	-11.5241
招聘	-11.5241
括	-11.5241
櫓	-11.5242
千里	-11.5245
ier	-11.5245
決算	-11.5246
を目的とする	-11.5247
mlb	-11.5247
維新	-11.5251
汗	-11.5253
シネマ	-11.5256
標準化	-11.5259
意向	-11.5262
パーティー	-11.5262
一体化	-11.5266
広義の	-11.5267
迎	-11.5269
火薬	-11.527
シューマン	-11.5272
ことに成功した	-11.5272
得票	-11.5272
伊那	-11.5279
製作所	-11.5281
解剖	-11.5282
船団	-11.5286
ビック	-11.5292
帝政	-11.5294
賃金	-11.5295
クライアント	-11.53
苦戦	-11.5301
火葬	-11.5304
黒澤	-11.5304
選手権大会	-11.5304
3.5	-11.5306
コンテスト	-11.5307
交際	-11.5308
豪族	-11.5309
公害	-11.531
柔軟	-11.5311
世襲	-11.5312
映画監督	-11.5313
を取得した	-11.5316
ごろから	-11.5321
富士山	-11.5322
後漢	-11.5323
を行っており	-11.5324
投与	-11.5325
を設ける	-11.5326
※	-11.5326
発想	-11.5327
著作物	-11.5328
アンドレ	-11.5331
インスリン	-11.5334
破棄	-11.5335
新潟市	-11.534
メトロ	-11.5341
反対側	-11.5343
祇	-11.5345
いかなる	-11.5345
謳	-11.5345
リチウム	-11.5345
歩行者	-11.5351
作られている	-11.5353
安定性	-11.5354
キャプテン	-11.5357
ゲノム	-11.5357
惟	-11.5357
牝馬	-11.5357
英語圏	-11.5358
能登	-11.536
されてしまう	-11.536
鍛	-11.5368
爪	-11.5368
を持っており	-11.5371
援軍	-11.5371
フォース	-11.5373
憧れ	-11.5374
九条	-11.5374
に位置している	-11.5374
に分けて	-11.5375
鉱業	-11.5379
回帰	-11.538
浅野	-11.5381
週末	-11.5382
マーン	-11.5382
先祖	-11.5384
1879	-11.5387
弾薬	-11.5387
稽古	-11.5392
支所	-11.5393
騎士団	-11.5394
赤坂	-11.5394
マラソン	-11.5395
発覚	-11.5395
後輩	-11.5399
貸切	-11.54
されていった	-11.5401
ています	-11.5404
多額の	-11.5404
サロン	-11.5404
細かい	-11.5407
を参考に	-11.5407
とほぼ同じ	-11.5407
揃え	-11.5409
コロナ	-11.5414
プトレマイオス	-11.5414
ムッソリーニ	-11.5414
甚	-11.5414
衆議院議員	-11.5415
▲	-11.5416
mil	-11.5416
モニター	-11.5416
打席	-11.5418
戦時中	-11.542
ベール	-11.5421
何度か	-11.5427
ピエール	-11.5428
いまだ	-11.5429
伝送	-11.5431
を完成させ	-11.5432
輝元	-11.5433
内陸部	-11.5433
耐性	-11.5434
終わって	-11.5435
前述のように	-11.5436
対談	-11.5437
みどりの窓口	-11.5438
最強	-11.5439
醸造	-11.5439
劣化	-11.5439
典型	-11.544
立体交差	-11.5441
べきだ	-11.5445
捕手	-11.5445
盆	-11.5446
毎回	-11.5448
ポピュラー	-11.545
瀬戸内海	-11.545
褒	-11.545
爵位	-11.545
青春	-11.5453
奪取	-11.5454
上がって	-11.5454
ようになっていた	-11.5459
土砂	-11.546
後醍醐天皇	-11.5461
績	-11.5465
ホット	-11.5468
高速化	-11.5469
如来	-11.547
同級生	-11.5473
挺	-11.5473
ユネスコ	-11.5473
大半の	-11.5481
一括	-11.5484
桓	-11.5484
対戦車	-11.5484
寅	-11.5485
りゅう	-11.5485
宰	-11.5486
納め	-11.5487
次官	-11.5491
!!』	-11.5495
旅館	-11.5495
内務省	-11.5496
キー局	-11.5497
50%	-11.5498
妖	-11.5503
脂	-11.5506
硝	-11.5508
駐留	-11.5511
トーン	-11.5511
山陰	-11.5516
賊	-11.5516
働きかけ	-11.5516
ようになって	-11.5518
犠牲者	-11.5519
ブレイク	-11.552
アピール	-11.552
仕方	-11.552
中国共産党	-11.5527
世俗	-11.5531
頸	-11.5531
リアルタイム	-11.5532
那須	-11.5533
許容	-11.5535
計測	-11.5537
を実施する	-11.5541
trans	-11.5542
ナポリ	-11.5542
槽	-11.5543
反動	-11.5543
を表明し	-11.5545
信号場	-11.5545
国有化	-11.5546
改宗	-11.5547
普通車	-11.5548
緯	-11.5549
key	-11.5555
警視庁	-11.5555
イブン	-11.5555
唄	-11.5555
ヵ	-11.5555
紳	-11.5555
和睦	-11.5557
を用いている	-11.5557
同僚	-11.5557
書房	-11.5559
が運営する	-11.5559
を受けること	-11.5562
信任	-11.5565
もらった	-11.5566
王族	-11.5568
=76	-11.5569
イースト	-11.5572
出血	-11.5575
idae	-11.5576
借金	-11.5576
演習	-11.5578
太字	-11.5581
大きく異なる	-11.5585
三冠	-11.5587
生中継	-11.5587
▁生い立ち	-11.5591
平坦	-11.5591
斜面	-11.5591
に生まれる	-11.5591
押さえ	-11.5592
オーディオ	-11.5593
決まり	-11.5594
を実施している	-11.5601
動物園	-11.5601
収納	-11.5604
電気機関車	-11.5605
フェンス	-11.5605
=69	-11.5606
てもらう	-11.5608
極端に	-11.5609
景勝	-11.561
に従事し	-11.561
主席	-11.5614
モジュール	-11.5614
肌	-11.5614
お互い	-11.5615
封鎖	-11.5615
主砲	-11.5616
と考えられていた	-11.5617
意匠	-11.5618
発進	-11.562
かせた	-11.5622
ランダム	-11.5625
コンスタン	-11.5625
担当者	-11.5625
毅	-11.5626
ユーラシア	-11.5626
スープ	-11.5626
4,000	-11.5627
とほぼ同	-11.5629
スラヴ	-11.5629
破損	-11.5629
改組	-11.563
代表取締役	-11.5631
ハーバー	-11.5631
徳島県	-11.5631
閣議	-11.5634
川崎市	-11.5636
隼	-11.5638
鐵	-11.5638
リンゴ	-11.5639
カテゴリー	-11.564
函	-11.5642
伊賀	-11.5643
到	-11.5644
貴族院	-11.5649
ブライアン	-11.565
閲覧	-11.565
ple	-11.5651
仕上げ	-11.5651
掌握	-11.5652
欲しい	-11.5652
漆	-11.5662
燃え	-11.5663
慶喜	-11.5666
沿岸部	-11.5667
に着手し	-11.5668
亀山	-11.5669
』・『	-11.5671
ともいわれる	-11.5672
限られた	-11.5673
を実現する	-11.5677
ゲーリング	-11.5678
を模した	-11.5681
ぐらい	-11.5682
六角	-11.5683
〇	-11.5685
スタンダード	-11.5685
妥協	-11.5686
ターリバーン	-11.5686
邸宅	-11.5687
アニメ版	-11.5687
施策	-11.5687
長州藩	-11.5689
柴田	-11.5691
噴	-11.5692
対岸	-11.5694
儀礼	-11.5695
可変	-11.5695
汐	-11.5697
妊	-11.5697
崖	-11.5698
に応え	-11.5699
が起きる	-11.5701
ive	-11.5701
無償	-11.5703
佐渡	-11.5704
ウェスト	-11.5708
塵	-11.5709
鞭	-11.5709
プレゼント	-11.571
壬	-11.571
造成	-11.5711
を図り	-11.5711
劉備	-11.5711
高知県	-11.5713
一般国道	-11.5716
暴動	-11.5719
魔術	-11.5719
小児	-11.572
フィレンツェ	-11.5721
股	-11.5722
乗換	-11.5723
プラトン	-11.5733
凌	-11.5733
ジューコフ	-11.5734
風習	-11.5736
迫害	-11.5737
幅広く	-11.5742
田辺	-11.5744
隋	-11.5745
サスペンション	-11.5745
羽田空港	-11.5746
john	-11.5746
東京府	-11.5748
寒冷	-11.5748
マスメディア	-11.5749
攻撃隊	-11.5754
ゼウス	-11.5755
ネズミ	-11.5757
繋がり	-11.5758
慣れ	-11.5759
に加盟し	-11.5765
姿を消し	-11.5771
バルブ	-11.5772
乱れ	-11.5776
遅い	-11.5776
に適した	-11.5778
電報	-11.5784
手順	-11.5784
アルバイト	-11.5785
1895	-11.5788
不況	-11.5789
の項を参照	-11.5791
政令	-11.5793
national	-11.5794
社団法人	-11.5794
1.0	-11.5795
平成元年	-11.5798
を強いられ	-11.5799
支出	-11.5803
騒	-11.5804
取り扱う	-11.5805
out	-11.5812
短期	-11.5813
吹田	-11.5814
進言	-11.5816
聖堂	-11.5817
ロイヤル	-11.5818
駅管理の無人駅	-11.5818
沼津	-11.5818
安倍	-11.5819
祭祀	-11.582
ほかにも	-11.5824
はじめて	-11.5826
交響曲第	-11.5829
愚	-11.583
マップ	-11.583
数学者	-11.5831
base	-11.5834
スズメ	-11.5834
高騰	-11.5834
を経由し	-11.5836
打倒	-11.5838
輩	-11.5841
縫	-11.5842
意欲	-11.5847
規約	-11.5852
=74	-11.5853
建てられ	-11.5853
文部省	-11.5854
琵琶湖	-11.5854
登記	-11.586
注目を集め	-11.5864
ヒンドゥー教	-11.5866
茅	-11.5866
を活かし	-11.5868
遂行	-11.5868
表の通り	-11.5869
藤井	-11.5871
病死	-11.5872
ことが知られている	-11.5874
府県	-11.5878
を招いた	-11.5879
を導入する	-11.5879
大半が	-11.5882
主宰	-11.5887
役を演じ	-11.5891
ギャラリー	-11.5891
漏れ	-11.5896
ギリシャ語	-11.5899
ベータ	-11.5899
最期	-11.59
ウォーター	-11.59
優秀な	-11.5902
ゲリラ	-11.5902
尖	-11.5903
ブラウザ	-11.5903
設け	-11.5904
緩やか	-11.5905
ロシア帝国	-11.5907
が発達し	-11.5908
取り入れられ	-11.5908
担保	-11.5909
減速	-11.591
幕張	-11.591
飛行隊	-11.5913
漫才	-11.5915
を置いた	-11.5916
勅令	-11.5918
nrn	-11.5918
転入	-11.5918
を余儀なくされ	-11.592
を発行し	-11.5921
自社制作	-11.5921
公会議	-11.5923
投球	-11.5925
鳥居	-11.5927
鯨	-11.5927
嵯峨	-11.5927
と推定されている	-11.5928
抑	-11.5928
牛乳	-11.5931
から成る	-11.5931
を用いること	-11.5935
蛮	-11.5939
掘削	-11.5939
巳	-11.5939
渦	-11.594
申告	-11.594
制裁	-11.594
微生物	-11.5942
納入	-11.5943
枠組み	-11.5946
告白	-11.5947
全列車が	-11.5949
求める	-11.5954
とみなし	-11.5956
再婚	-11.5958
溶け	-11.5959
わかる	-11.5962
新型コロナウイルス	-11.5964
に所在する	-11.5964
醤油	-11.5965
末端	-11.5966
広がった	-11.5967
兵庫	-11.5972
勃	-11.5973
のインタビューで	-11.5974
という理由で	-11.5975
停滞	-11.5977
を引く	-11.5978
=73	-11.598
つくば	-11.5984
なかでも	-11.5986
製造業	-11.5993
絶縁	-11.5993
料金所	-11.6
遮	-11.6
憎	-11.6001
靖	-11.6001
マジック	-11.6001
ケネディ	-11.6001
遺族	-11.6008
セメント	-11.601
傍ら	-11.601
ターゲット	-11.6013
も含まれる	-11.6016
隠居	-11.6019
博覧会	-11.6026
痕跡	-11.6026
集結	-11.6028
親友	-11.6028
が確認されている	-11.6031
深刻	-11.6037
もっぱら	-11.6038
中等教育	-11.604
苦労	-11.604
数学的	-11.6042
呼び名	-11.6043
が指摘されている	-11.6045
右派	-11.6046
鳥取県	-11.6046
搬	-11.6049
ウエスト	-11.6051
撤廃	-11.6051
ハーフ	-11.6053
なっていく	-11.6055
づき	-11.6056
軍事力	-11.6057
捻	-11.6063
東端	-11.6063
眼鏡	-11.6064
国会議員	-11.6065
まで続いた	-11.6067
ゃ	-11.6067
元老院	-11.6075
恐慌	-11.6075
狭義の	-11.6076
蘇我	-11.6076
トマト	-11.6077
戯曲	-11.6078
陰陽	-11.6079
験	-11.608
圧迫	-11.608
に置く	-11.6084
断片	-11.6086
コスモ	-11.6087
メアリー	-11.6087
均一	-11.6089
騎乗	-11.6091
シェー	-11.6097
墳	-11.6098
創業者	-11.6098
恋人	-11.6099
を踏襲し	-11.61
錠	-11.61
メチル	-11.61
over	-11.6101
に対抗し	-11.6103
鑑賞	-11.6107
辿	-11.6112
日露戦争	-11.6112
を除けば	-11.6112
ヘーゲル	-11.6113
鱗	-11.6113
を増やし	-11.6113
焦点	-11.6115
菊池	-11.6115
民主化	-11.6116
降格	-11.6122
帰国後	-11.6126
結城	-11.6127
ガーデン	-11.6134
運ばれ	-11.6139
コントローラ	-11.6139
が検討され	-11.614
を満たし	-11.614
可能性が高い	-11.6141
草津	-11.6149
主翼	-11.6149
恥	-11.615
惣	-11.615
カジノ	-11.615
コンビニ	-11.615
劉邦	-11.6151
に置かれた	-11.6151
=42	-11.6152
free	-11.6155
ネーション	-11.6156
吊り	-11.6156
伝わって	-11.6157
に移った	-11.6158
壁画	-11.6162
支配者	-11.6163
連敗	-11.6164
校舎	-11.6167
イニング	-11.6168
自然科学	-11.617
リフト	-11.617
を活用し	-11.6171
ラーメン	-11.6171
年代末	-11.6174
圧倒的な	-11.6175
曳	-11.6175
セリフ	-11.6176
はあるものの	-11.6183
嚢	-11.6188
▁あらすじ	-11.6188
先進国	-11.6188
奈良時代	-11.6188
山陽新幹線	-11.619
クレジットカード	-11.6191
1884	-11.6194
を抑える	-11.6197
セントラル	-11.6202
解雇	-11.6202
満洲国	-11.6211
影響を及ぼし	-11.6213
エンジニア	-11.6213
模倣	-11.6213
備前	-11.6213
サンダー	-11.6213
序盤	-11.6214
山縣	-11.6215
方面行き	-11.6215
寄贈	-11.6216
議会議員	-11.6216
を保つ	-11.6216
組み立て	-11.6219
込むこと	-11.6223
万人以上	-11.6223
イデオロギー	-11.6225
アテネ	-11.6225
に巻き込まれ	-11.6227
を整え	-11.623
見通し	-11.6236
蔣経国	-11.6237
糾	-11.6238
ラテン文字	-11.6238
コンビニエンスストア	-11.6238
占拠	-11.6238
尋ね	-11.624
宝石	-11.6241
行政区画	-11.6241
代名詞	-11.6245
付けられる	-11.6246
構え	-11.6246
種牡馬	-11.6251
に移し	-11.6251
酒井	-11.6251
を対象とした	-11.6251
飽和	-11.6252
年代に入ると	-11.6255
北斗	-11.6256
特典	-11.6259
庄内	-11.6263
ソナタ	-11.6263
睡眠	-11.6263
ダメージ	-11.6263
σ	-11.6263
クラフト	-11.6265
応答	-11.6265
成田空港	-11.6266
抽	-11.6266
芸能界	-11.6268
推計	-11.6268
可動	-11.6269
緊	-11.627
奥州	-11.6271
福音書	-11.6276
を連ね	-11.6277
が開設され	-11.6278
離れている	-11.6278
共鳴	-11.628
開幕戦	-11.6281
へ移行	-11.6287
恨	-11.6288
実業家	-11.6289
常磐線	-11.629
国鉄時代	-11.629
効力	-11.6291
を建設する	-11.6291
と対立し	-11.6293
=72	-11.6295
背番号	-11.6296
以東	-11.6296
安価な	-11.6296
看	-11.6299
探索	-11.6299
蔑	-11.6301
international	-11.6301
class	-11.6301
脂質	-11.6303
資材	-11.6303
建武	-11.6305
奇数	-11.6306
告示	-11.6306
xml	-11.6311
ウイグル	-11.6314
こんな	-11.6314
を以て	-11.6314
諡	-11.6315
=97	-11.6318
麻薬	-11.632
叩	-11.6321
樹木	-11.6326
フランツ	-11.6331
暴走	-11.6332
購	-11.6337
長谷川	-11.6339
を築き	-11.634
と答えた	-11.6343
に移され	-11.6343
近縁	-11.6348
灰色	-11.6348
原爆	-11.6351
碁	-11.6352
啓蒙	-11.6352
マレーシア	-11.6353
宣教師	-11.6353
西端	-11.6354
遷都	-11.6354
クラーク	-11.6355
彰	-11.6363
楽譜	-11.6364
に於いて	-11.6365
jnn	-11.6365
キャッチコピー	-11.6365
ウィーク	-11.6367
調布	-11.6367
駅に停車する	-11.637
テロップ	-11.6371
と主張する	-11.6374
鉢	-11.6377
任天堂	-11.6378
インストール	-11.6378
おこなわれ	-11.6378
が変更され	-11.6382
▁以下は	-11.6383
挙兵	-11.6388
円盤	-11.6389
大分県	-11.6389
を訪ね	-11.639
滋	-11.639
リットル	-11.6391
極限	-11.6396
痛み	-11.6403
鍵盤	-11.6404
とらえ	-11.6405
ヶ崎	-11.6409
佐賀県	-11.6413
ストレス	-11.6427
山手線	-11.6429
粛清	-11.6431
取れる	-11.6439
運転士	-11.6441
炊	-11.6442
いすゞ	-11.6442
ステークス	-11.6443
が悪化し	-11.6443
委任	-11.6443
プランク	-11.6445
を表現する	-11.645
が高まり	-11.6455
ドラフト	-11.6468
溶解	-11.6472
積雪	-11.6475
特記	-11.6476
フード	-11.6477
構成員	-11.6478
偉	-11.648
カンパニー	-11.648
眺	-11.648
囲碁	-11.6481
ようだ	-11.6482
冷房装置	-11.6484
批評家	-11.6484
算出	-11.6484
nato	-11.6491
入試	-11.6494
ا	-11.6494
きっぷ	-11.6494
麻呂	-11.6494
御家人	-11.6494
太鼓	-11.6495
改札機	-11.6497
解読	-11.6498
洪	-11.6499
総務	-11.6499
を支配する	-11.6499
変わらず	-11.6506
共和制	-11.6507
増殖	-11.6507
ソロモン	-11.651
畠	-11.6512
浴場	-11.6515
に設けられた	-11.6519
寵	-11.6519
敷地内	-11.6524
青葉	-11.6525
次世代	-11.6527
取締	-11.6527
way	-11.6529
とも言う	-11.6531
1887	-11.6532
刑務所	-11.6532
ユニフォーム	-11.6532
疑惑	-11.6533
注意が必要である	-11.6534
プレーオフ	-11.6534
堤防	-11.6534
奇跡	-11.6536
傑作	-11.6539
を記録する	-11.6539
オリコン	-11.654
あわせ	-11.6544
白血病	-11.6545
シンセサイザー	-11.6545
承継	-11.6547
総務省	-11.6547
そういった	-11.6549
を失って	-11.655
追撃	-11.655
密接	-11.6554
偶数	-11.6556
場合によっては	-11.6558
カウンター	-11.6559
文部科学省	-11.6559
熱力学	-11.6563
を契機に	-11.6565
とみなす	-11.6566
スカウト	-11.6571
=83	-11.6572
必殺	-11.6573
往来	-11.6574
磁性	-11.6575
布教	-11.6578
落とす	-11.6582
妥当	-11.6585
ダウンロード	-11.6586
emi	-11.6587
マウント	-11.6591
サポーター	-11.6597
棺	-11.6597
エフエム	-11.6598
制覇	-11.66
徴兵	-11.6601
運行開始	-11.6603
後援	-11.6607
ユナイテッド	-11.6611
を禁じ	-11.6614
接合	-11.6617
寛政	-11.6621
に見舞われ	-11.6624
を招く	-11.6624
燃費	-11.6625
遺構	-11.6626
決勝戦	-11.6626
結ぶ	-11.6627
と合併し	-11.6629
飲む	-11.663
畿内	-11.6632
栃木	-11.6634
и	-11.6635
在来	-11.6636
蜀	-11.6637
其	-11.6637
エンタープライズ	-11.6637
1893	-11.6638
封建	-11.664
精密	-11.664
npb	-11.665
荻	-11.665
諸説ある	-11.665
惜	-11.665
nasa	-11.6655
賞賛	-11.6655
エチオピア	-11.6663
亘	-11.6663
麹	-11.6663
ワゴン	-11.6665
フラッシュ	-11.6666
phy	-11.6666
著しい	-11.6671
パケット	-11.6674
gnu	-11.6676
同人誌	-11.6676
プロペラ	-11.6677
聞こえ	-11.6677
旋律	-11.6677
別途	-11.6679
有害	-11.6681
おしん	-11.6688
ショッピング	-11.6689
肖像	-11.6689
ハインリヒ	-11.669
頁	-11.669
三国志	-11.6692
ゲームソフト	-11.6693
受容体	-11.6695
容認	-11.6699
ャ	-11.67
留置線	-11.6701
バビロニア	-11.6702
昨	-11.6703
惹	-11.6703
胚	-11.6703
射程	-11.6708
が制定され	-11.671
mark	-11.6712
を保有し	-11.6714
を向上させ	-11.6714
を象徴する	-11.6715
インタフェース	-11.6716
制御装置	-11.6717
ペンネーム	-11.6717
ong	-11.6718
になれ	-11.6719
たびに	-11.6719
1876	-11.6722
急進	-11.6723
飛ぶ	-11.6728
肥後	-11.6728
カルタゴ	-11.6729
藍	-11.6729
暁	-11.6729
スロバキア	-11.6729
おこなっ	-11.6732
統計書	-11.6734
縁起	-11.6736
改札外	-11.6737
ライフル	-11.674
芥	-11.6742
鵜	-11.6743
を望む	-11.6743
敦賀	-11.6744
セールス	-11.6744
次々に	-11.6744
=105	-11.6746
に集中し	-11.675
に隣接し	-11.675
1891	-11.6752
pop	-11.6753
エンゲルス	-11.6755
毛沢東	-11.6756
ザクセン	-11.6756
捕鯨	-11.6757
生誕	-11.6758
肥料	-11.6759
受容	-11.6766
熙	-11.6769
攘夷	-11.6769
カラオケ	-11.6769
副作用	-11.6776
sub	-11.6781
1894	-11.6782
東横線	-11.6784
招集	-11.6786
便利	-11.6787
爆破	-11.6787
渕	-11.6796
帰属	-11.6802
墜落	-11.681
play	-11.681
却下	-11.6812
生み出され	-11.6812
を減らし	-11.6813
防空	-11.6816
活字	-11.6816
と比べ	-11.6818
北欧	-11.6818
零戦	-11.6822
を行なう	-11.6822
喫煙	-11.6823
パラメータ	-11.6823
曰く	-11.6823
汎	-11.6827
青銅	-11.6829
揺れ	-11.683
鶴岡	-11.6835
ワーグナー	-11.6836
持株会社	-11.6836
ニオン	-11.6837
切符	-11.6838
プログラミング言語	-11.6838
ホルモン	-11.6841
を著し	-11.6846
媛	-11.6849
桜井	-11.685
列強	-11.6852
噴出	-11.6853
豪華	-11.6855
打診	-11.6864
の一角	-11.687
途絶え	-11.6876
全面的に	-11.6885
ように見える	-11.6885
を有していた	-11.6892
スパルタ	-11.6892
書き換え	-11.6896
ヘブライ語	-11.6903
侯爵	-11.6903
消極的	-11.6904
関税	-11.6906
と同等の	-11.6907
志摩	-11.6907
を呈し	-11.6908
を促す	-11.6911
果たし	-11.6912
南北朝時代	-11.6917
フロリダ	-11.6917
を増やす	-11.6917
オートバイ	-11.6918
税率	-11.6921
高校時代	-11.6927
注釈	-11.6929
糖尿病	-11.6943
嘘	-11.6944
メカニズム	-11.6944
介護	-11.6948
毛利氏	-11.6953
渤海	-11.6957
バッテリー	-11.6957
累計	-11.6959
を明らかにし	-11.696
結核	-11.6966
カルチャー	-11.6967
アレクサンド	-11.6967
ベトナム戦争	-11.6968
拒	-11.697
厚生労働省	-11.6971
肥前	-11.6971
と思って	-11.6971
婚約	-11.6982
填	-11.6984
スローガン	-11.6984
廠	-11.6984
芋	-11.6984
含まない	-11.6984
踏襲	-11.6986
運ぶ	-11.6986
供与	-11.6987
を紹介し	-11.6988
郷土	-11.6989
低価格	-11.699
に対応するため	-11.699
納税	-11.6992
電撃	-11.6993
太刀	-11.6994
纏	-11.6998
聖公会	-11.6998
柿	-11.6998
卸	-11.6998
宮崎県	-11.7
荘園	-11.7001
巡礼	-11.7002
好んで	-11.7009
リベラル	-11.7011
旅客列車	-11.7013
に比べると	-11.7015
自由民主党	-11.7019
莫大な	-11.7025
どおり	-11.7028
主たる	-11.7032
たくさん	-11.7036
俸	-11.7038
を減らす	-11.7039
に携わっ	-11.7042
喜び	-11.705
開始当初	-11.705
停戦	-11.7052
憤	-11.7052
窺	-11.7052
都営地下鉄	-11.7053
謀反	-11.7057
を抱いて	-11.7058
を強調し	-11.7058
合理的	-11.7059
ピラミッド	-11.7066
とは限らない	-11.7066
脂肪酸	-11.7071
1881	-11.7071
朝ラッシュ時	-11.7071
報復	-11.7072
日放送の	-11.7073
抱え	-11.7079
望遠鏡	-11.708
東海道新幹線	-11.7082
を輩出し	-11.7083
仮称	-11.7085
▁comp	-11.7091
繰り返され	-11.7095
イスラム教徒	-11.7095
フジテレビ系列	-11.7098
及ぼ	-11.7106
誉	-11.7107
疾	-11.7107
microsoft	-11.7108
戦国大名	-11.7108
推し進め	-11.7108
確信	-11.7112
帽子	-11.7113
山梨	-11.7113
高野山	-11.7115
を手に入れ	-11.7116
アントニオ	-11.7121
薫	-11.7121
癖	-11.7121
麟	-11.7121
カエサル	-11.7121
ショッピングセンター	-11.7122
万博	-11.7123
アラスカ	-11.7123
乏しい	-11.7123
抜いて	-11.7123
赴任	-11.7123
賛同	-11.7125
腫瘍	-11.7135
フランソワ	-11.7135
連装	-11.7135
畔	-11.7135
日立製作所	-11.7135
ダウンタウン	-11.7136
著名人	-11.7136
墓所	-11.7136
真珠	-11.7138
幹線道路	-11.7138
賃	-11.7139
リスナー	-11.7145
但	-11.7146
回衆議院議員総選挙	-11.7148
マルクス主義	-11.7149
阿蘇	-11.715
腐敗	-11.7151
=113	-11.7156
撃ち	-11.716
こども	-11.7163
丼	-11.7163
を極め	-11.7163
アレクサンドル	-11.7164
サーキット	-11.7164
有料道路	-11.7166
日本列島	-11.717
生態系	-11.7171
ヘビー級	-11.7176
に渡る	-11.7184
真似	-11.7189
預け	-11.719
荷重	-11.719
震災	-11.7191
到来	-11.7192
提言	-11.7192
懲役	-11.7193
好調	-11.7195
=82	-11.7197
好まれ	-11.72
過ごす	-11.7204
粟	-11.7204
と共同で	-11.7207
行き来	-11.7207
予報	-11.7208
給与	-11.7208
近辺	-11.7213
尼子	-11.7214
モーツァルト	-11.7218
冪	-11.7218
事件が発生	-11.7219
は下記の通り	-11.7219
租税	-11.7219
交互に	-11.722
反響	-11.7221
調停	-11.7222
議決	-11.7223
暗黒	-11.7227
筑後	-11.7227
クロアチア	-11.7232
晃	-11.7232
米ドル	-11.7239
判例	-11.7241
儒教	-11.7241
経典	-11.7244
plan	-11.7246
暖房	-11.7248
最も重要な	-11.7256
デパート	-11.7258
圭	-11.726
マネジメント	-11.726
ハイデッガー	-11.726
収蔵	-11.7268
が禁止され	-11.7269
1874	-11.7274
には至らなかった	-11.7274
絹	-11.7274
スピーカー	-11.7274
から始まる	-11.7274
山麓	-11.7275
離反	-11.7279
ヤマハ	-11.7279
住宅街	-11.728
叩き	-11.728
顔料	-11.728
1,0	-11.7281
汲	-11.7288
ology	-11.7289
ますます	-11.7291
ジャケット	-11.7292
を支援し	-11.7296
pon	-11.7296
サウジアラビア	-11.7302
をやめ	-11.7302
を試みた	-11.7302
東欧	-11.7304
月のダイヤ改正	-11.7305
寿司	-11.731
輛	-11.7316
洞窟	-11.7316
云	-11.7316
もあれば	-11.7317
蒸留	-11.7318
未遂	-11.7321
に関与し	-11.7324
駆逐	-11.7325
ことはできなかった	-11.733
伊丹	-11.7333
mini	-11.7334
にともない	-11.7336
妖怪	-11.7336
ーニャ	-11.7339
戴	-11.7344
迅速	-11.7344
雛	-11.7344
を行なった	-11.7345
行われるようになった	-11.7348
できなくなった	-11.7353
浅井	-11.7354
を経験し	-11.7357
鴻	-11.7358
3.0	-11.736
を発見し	-11.736
寸法	-11.7364
弁当	-11.7364
に特化した	-11.7365
を支援する	-11.7365
出来なかった	-11.7366
の頭文字	-11.7368
魯	-11.7372
アインシュタイン	-11.7372
借用	-11.7372
半減期	-11.7373
メジロ	-11.7373
正確	-11.7374
を保持し	-11.7374
詳しい	-11.7374
バッファ	-11.7378
倉敷	-11.7382
next	-11.7382
告発	-11.7384
酢	-11.7386
ファシズム	-11.7386
亜鉛	-11.7388
スーパーマーケット	-11.7388
最高峰	-11.739
八郎	-11.7395
まわり	-11.7396
賭け	-11.7396
レコーダー	-11.74
曖昧さ回避	-11.7401
細かく	-11.7404
演算子	-11.7406
センサー	-11.7412
業態	-11.7413
邑	-11.7415
近畿日本鉄道	-11.7415
ö	-11.7415
庇護	-11.7415
を計画し	-11.742
割譲	-11.7422
高く評価され	-11.7422
証券取引所	-11.7429
テナント	-11.7429
消失	-11.7431
と記されている	-11.7432
満了	-11.7432
に起因する	-11.7443
殴	-11.7443
拡充	-11.7444
麻痺	-11.7444
拍子	-11.7446
榎本	-11.7447
貯蔵	-11.7447
チャレンジ	-11.7453
超過	-11.7455
に統合され	-11.7467
常識	-11.7468
産卵	-11.7468
採集	-11.7469
播	-11.7469
漸	-11.7472
監査	-11.7473
休刊	-11.7476
direct	-11.7479
渓	-11.7484
★	-11.7486
複素数	-11.7487
を擁する	-11.7487
を構成し	-11.7487
見えない	-11.749
文禄	-11.7492
批准	-11.75
セッション	-11.75
隙	-11.75
オットー	-11.75
タバコ	-11.75
使い分け	-11.7501
を知って	-11.7504
粘土	-11.7505
存在しなかった	-11.7505
1882	-11.7511
を強化し	-11.7511
ノイズ	-11.7511
メソポタミア	-11.7514
猟	-11.7515
メンテナンス	-11.7515
蹄	-11.7515
に就く	-11.7515
クロスシート	-11.7516
を推進し	-11.752
連結器	-11.7524
花粉	-11.7526
テュルク	-11.7529
ガイドライン	-11.7531
体操	-11.7537
++	-11.7542
アルバニア	-11.7543
に就いた	-11.7544
わからない	-11.7545
県庁所在地	-11.7545
克服	-11.7546
少女漫画	-11.7549
補充	-11.7554
租	-11.7556
抹	-11.7558
飛騨	-11.7558
モロッコ	-11.7558
叶	-11.7558
宮内庁	-11.7558
選択肢	-11.7559
キャッチ	-11.7564
ブリテン	-11.7566
カテゴリ	-11.757
トウモロコシ	-11.7572
参謀本部	-11.7573
布告	-11.7575
ベースボール	-11.7577
引き分け	-11.7579
脆弱	-11.7586
複々線	-11.7587
を作成し	-11.7588
接収	-11.7589
そういう	-11.7592
を生み出す	-11.7601
キログラム	-11.7602
葛飾	-11.7602
稲荷	-11.7602
東北新幹線	-11.7605
監修	-11.7605
ハリス	-11.7607
ッティング	-11.7608
対峙	-11.7615
】	-11.7616
【	-11.7616
榴	-11.7616
冷凍	-11.7616
結びつき	-11.7617
精算	-11.7622
風呂	-11.7623
欧州連合	-11.7625
ゃく	-11.7626
band	-11.7626
file	-11.7632
列挙	-11.7637
込んでいる	-11.7643
エキス	-11.7645
弔	-11.7645
を要し	-11.7645
久留米	-11.7645
君主制	-11.7651
をもち	-11.7657
内紛	-11.7659
極端な	-11.7659
休憩	-11.7659
遷移	-11.766
収縮	-11.7662
小樽	-11.7663
紹	-11.7673
ルーズベルト	-11.7673
レバノン	-11.7673
にまつわる	-11.7674
html	-11.7674
ヂ	-11.7674
いけない	-11.7675
土俵	-11.7675
ection	-11.7676
駆逐隊	-11.7677
を組んで	-11.768
閥	-11.7684
ure	-11.7686
プライベート	-11.7688
椅子	-11.7689
0.1	-11.769
スプリング	-11.7692
ペダル	-11.7695
価値観	-11.7695
旋回	-11.7696
twitter	-11.7703
カタルーニャ	-11.7703
骨折	-11.7703
出会った	-11.7704
デュー	-11.7704
=106	-11.7709
に限って	-11.7714
初登場	-11.772
通告	-11.7728
占星術	-11.7732
餓	-11.7732
エンタテインメント	-11.7732
全盛期	-11.7732
退去	-11.7738
プラズマ	-11.7747
孟	-11.7747
怠	-11.7747
乗組員	-11.7747
を放棄し	-11.7748
加古川	-11.7753
主催試合	-11.7758
ユークリッド	-11.7762
6,000	-11.7762
game	-11.7767
を紹介する	-11.7767
明瞭	-11.7767
枢	-11.777
顕微鏡	-11.7776
ä	-11.7776
▁駅名の由来	-11.7777
漁獲	-11.7778
積極的	-11.7779
下に置かれ	-11.7783
を提示し	-11.7784
夕刊	-11.7785
諾	-11.779
飢	-11.7791
弱体化	-11.7791
アッシリア	-11.7792
鈴鹿	-11.7792
実現しなかった	-11.7795
医科大学	-11.7803
槓	-11.7806
頓挫	-11.7806
承諾	-11.7806
拳銃	-11.7807
と比較すると	-11.7808
川水系	-11.7809
宣告	-11.781
焼け	-11.7813
に滞在し	-11.7818
バスケットボール	-11.782
鰭	-11.7821
とも言われている	-11.7821
に沿った	-11.7821
を突破し	-11.7823
占有	-11.7828
平均気温	-11.7831
功労	-11.7837
に依存する	-11.7838
締	-11.7838
最も古い	-11.7844
を移し	-11.7844
粋	-11.7849
提起	-11.7851
常設	-11.7855
厩	-11.7864
逐	-11.7864
渇	-11.7865
8,000	-11.7866
痘	-11.7866
挿絵	-11.7866
にすぎない	-11.7866
="106	-11.7867
ニュータイプ	-11.7879
陀	-11.788
旧約聖書	-11.788
light	-11.788
肖像画	-11.788
抑圧	-11.7881
おかげで	-11.7881
北陸新幹線	-11.7883
動揺	-11.7883
血統	-11.7885
日常生活	-11.7885
構文	-11.789
刻まれ	-11.7891
ミシシッピ	-11.7894
斥	-11.7894
ください	-11.7895
▁with	-11.7895
ぁ	-11.7895
打たれ	-11.7899
開業当初	-11.7904
ピアニスト	-11.791
にかかわらず	-11.791
幻想	-11.7911
織物	-11.7912
work	-11.7913
六甲	-11.7919
衡	-11.7922
社民党	-11.7925
採算	-11.7928
回顧	-11.7928
搭乗員	-11.7928
答申	-11.7929
として生まれる	-11.794
拡幅	-11.794
をまとめた	-11.7947
р	-11.7954
申し入れ	-11.7954
譚	-11.7955
連鎖	-11.796
中心市街地	-11.7961
鄭	-11.7969
アンケート	-11.7969
ワクチン	-11.797
斜め	-11.7974
sign	-11.7978
クリミア	-11.7984
まとめられ	-11.7991
1892	-11.7992
実効	-11.7996
に数えられ	-11.7998
になってしまう	-11.7999
同性愛	-11.7999
マクドナルド	-11.8
奇襲	-11.8001
収支	-11.8004
軍需	-11.8007
解禁	-11.8008
と判断され	-11.8009
服装	-11.801
詣	-11.8013
禍	-11.8015
イエロー	-11.8015
しっかり	-11.8015
下がる	-11.8016
詰ま	-11.8017
代理店	-11.802
消火	-11.8024
が計画され	-11.8029
コラボレーション	-11.803
〕	-11.803
論じた	-11.803
噴射	-11.8031
返済	-11.8033
虐	-11.8038
チャンピオンズリーグ	-11.8044
〔	-11.8045
筐体	-11.8045
界磁	-11.8047
回数券	-11.8047
ries	-11.8049
室蘭	-11.805
е	-11.8059
に加わった	-11.8061
官吏	-11.8067
現役時代	-11.8071
フランシスコ	-11.8073
を検討し	-11.8074
を負う	-11.8077
縦貫	-11.8081
喜劇	-11.8081
と思っていた	-11.8084
を連れて	-11.8086
懲	-11.8087
ノミネート	-11.809
が高まった	-11.8091
関ヶ原の戦い	-11.8105
晒	-11.8105
▁外部リンク	-11.8105
搬送	-11.8107
ッケン	-11.811
コンパイラ	-11.8121
を殺害し	-11.8122
に師事	-11.8127
を行わない	-11.8129
見かけ	-11.8133
成し遂げ	-11.8135
マイナーチェンジ	-11.8136
渓谷	-11.8138
blue	-11.8139
改められ	-11.8141
陥	-11.8148
立たない	-11.8149
盧	-11.8151
溶媒	-11.8151
ジョーンズ	-11.8152
できなくなる	-11.8152
退却	-11.8155
怖	-11.8166
阿弥陀	-11.8166
に陥り	-11.8166
プーチン	-11.8167
モンゴル帝国	-11.8173
突如	-11.8178
を擁し	-11.8181
交響楽団	-11.8181
シーア派	-11.8182
係員	-11.8184
マーティン	-11.8187
防御率	-11.8192
を免れ	-11.8195
馴染	-11.8197
fnn	-11.8197
舗装	-11.8197
リサーチ	-11.8199
猪木	-11.8203
自分自身	-11.8209
向かって	-11.8212
杜	-11.8212
喉	-11.8212
肝臓	-11.8213
住居表示	-11.8215
ぎょう	-11.8216
禁じられ	-11.8226
款	-11.8228
牡	-11.8228
モビルスーツ	-11.8228
を好む	-11.8229
請願	-11.823
を展開する	-11.8235
カタカナ	-11.8243
united	-11.8243
ufj	-11.8244
沖海戦	-11.8244
短距離	-11.8254
á	-11.8259
駐在	-11.8264
近傍	-11.8264
覇権	-11.827
が強かった	-11.8276
と見られている	-11.8277
に侵攻し	-11.8278
盛り込まれ	-11.8282
位を獲得	-11.8287
として機能し	-11.8287
復讐	-11.8289
自動車専用道路	-11.829
量子力学	-11.829
ポルシェ	-11.8291
常磐	-11.8291
いわば	-11.8293
に陥る	-11.8298
いでいる	-11.8302
巴	-11.8305
ソクラテス	-11.8305
なければならなかった	-11.8305
董	-11.8305
night	-11.8305
刑罰	-11.8307
指針	-11.8307
免許状	-11.8311
廉	-11.8314
を許され	-11.8316
н	-11.8318
マサチューセッツ	-11.832
杖	-11.832
三菱ふそう	-11.8321
隙間	-11.8321
休暇	-11.8321
入れられ	-11.8326
審査員	-11.8326
詮	-11.8336
自動販売機	-11.8336
紡	-11.8336
消費税	-11.8338
に悩まされ	-11.834
に匹敵する	-11.8352
クリスティ	-11.8358
殺人事件	-11.8358
伏せ	-11.8359
テュ	-11.8361
帥	-11.8363
集英社	-11.8367
消耗	-11.8368
行方不明	-11.8368
佐伯	-11.8373
石狩	-11.8375
を発揮する	-11.8382
多く見られる	-11.8382
爾	-11.8383
フュー	-11.8383
ペンギン	-11.8384
に係る	-11.8384
のび太	-11.8391
冗	-11.8398
堕	-11.8398
市制施行	-11.8399
疲労	-11.8399
メソッド	-11.8399
貰	-11.8399
出張所	-11.8399
ドコモ	-11.8404
歳のとき	-11.8414
溢	-11.8414
を含んだ	-11.8414
日平均乗車人員	-11.8415
ナチ党	-11.8416
を称し	-11.8417
を確認する	-11.8422
召集	-11.8434
rock	-11.8434
改題	-11.8439
不祥事	-11.8441
箇	-11.8442
記念碑	-11.8444
パナソニック	-11.8446
イレブン	-11.8446
急激な	-11.8446
虹	-11.8446
飢饉	-11.8446
を生成する	-11.8453
滴	-11.8461
搾	-11.8461
慕	-11.8477
隷	-11.8477
匠	-11.8487
謁	-11.8493
嶼	-11.8541
蒼	-11.8604
紐	-11.862
蝶	-11.8653
噛	-11.8668
覇	-11.87
叱	-11.8717
樋	-11.8717
殷	-11.8733
趣	-11.8748
栓	-11.8765
撫	-11.8766
薙	-11.8782
只	-11.8798
叉	-11.8814
餐	-11.883
喰	-11.8831
於	-11.8847
稜	-11.8847
凄	-11.8847
吊	-11.8888
婆	-11.8896
綬	-11.8896
勉	-11.8928
凸	-11.8979
─	-11.8995
丞	-11.9012
δ	-11.9046
亥	-11.9062
諜	-11.9078
遍	-11.9079
傑	-11.9087
鈍	-11.9096
罹	-11.9096
伽	-11.9096
唇	-11.9096
菱	-11.9106
鼓	-11.9145
聡	-11.9146
凹	-11.9146
^	-11.9146
牽	-11.9157
狛	-11.9163
阻	-11.9179
桶	-11.918
堰	-11.9197
悠	-11.9214
檜	-11.9231
諫	-11.9231
壌	-11.9246
糧	-11.928
嘱	-11.9282
挿	-11.9306
焦	-11.9329
侮	-11.9333
煉	-11.9368
璧	-11.9368
姦	-11.9368
ぺ	-11.9385
悦	-11.9385
蔽	-11.9403
寂	-11.949
煩	-11.9507
裾	-11.9507
樽	-11.9519
蔓	-11.9524
牢	-11.9525
狙	-11.9542
掴	-11.9542
狗	-11.956
曇	-11.956
頓	-11.9595
△	-11.9597
魅	-11.9603
峯	-11.9631
捉	-11.9643
串	-11.9648
謹	-11.9648
с	-11.9664
ó	-11.9666
険	-11.9736
寇	-11.9737
寡	-11.9737
析	-11.9752
‐	-11.9755
鬱	-11.9773
朋	-11.9773
嵩	-11.9791
挫	-11.9809
ゥ	-11.9813
鞘	-11.9828
釣	-11.9855
醸	-11.9862
嘴	-11.9863
眞	-11.99
炒	-11.9918
凍	-11.995
乞	-11.9954
膠	-11.9955
耗	-11.9972
斯	-11.999
疇	-12.001
栖	-12.0027
曝	-12.0028
朽	-12.0028
杵	-12.0065
呑	-12.0083
濱	-12.0083
峻	-12.0102
苫	-12.0102
漫	-12.0119
藝	-12.0121
茹	-12.0121
膳	-12.0139
霜	-12.014
ω	-12.0177
毘	-12.0195
賓	-12.0214
λ	-12.0214
蕃	-12.0232
苔	-12.0233
賦	-12.0233
朔	-12.0252
榜	-12.027
壱	-12.0288
弊	-12.0289
廣	-12.0289
冥	-12.029
麿	-12.0308
控	-12.0381
璽	-12.0384
煎	-12.0385
芯	-12.0423
壕	-12.0423
к	-12.0439
喝	-12.0442
遵	-12.0442
撤	-12.0473
扁	-12.0481
咸	-12.05
般	-12.0504
嬉	-12.0539
糞	-12.0577
鎧	-12.0577
’	-12.0597
埴	-12.0597
畝	-12.0597
孵	-12.0597
睦	-12.0614
瀧	-12.0616
壺	-12.0636
煽	-12.0655
殊	-12.0713
逝	-12.0714
屯	-12.0714
庚	-12.0714
宙	-12.0734
訛	-12.0754
杭	-12.0774
繕	-12.0794
в	-12.0794
拡	-12.0815
喪	-12.0833
冨	-12.0853
舘	-12.0853
肘	-12.0854
做	-12.0854
丙	-12.0874
厄	-12.0934
礎	-12.0953
珂	-12.0974
叔	-12.099
堯	-12.0994
γ	-12.0995
逗	-12.0995
捨	-12.1024
葺	-12.1036
奨	-12.1096
挽	-12.1097
~	-12.1097
暇	-12.1116
痕	-12.1117
遜	-12.1117
罵	-12.1117
帽	-12.113
ν	-12.1138
箸	-12.1138
庸	-12.1159
伐	-12.1175
叢	-12.1179
劾	-12.1179
鵬	-12.12
需	-12.1209
于	-12.122
駕	-12.1241
閤	-12.1241
溺	-12.1242
逓	-12.1242
宕	-12.1263
弧	-12.1283
ī	-12.1283
釘	-12.1283
仇	-12.1304
巫	-12.1304
坐	-12.1304
仔	-12.1325
廷	-12.1331
殖	-12.1338
窃	-12.1346
傀	-12.1367
窯	-12.1367
勾	-12.1387
伍	-12.1388
螺	-12.1389
扮	-12.143
且	-12.1431
繊	-12.1451
緻	-12.1452
鋒	-12.1452
厨	-12.1473
苛	-12.1494
拭	-12.1516
遥	-12.1537
荊	-12.1537
匂	-12.1537
ヅ	-12.1538
顧	-12.1552
沃	-12.1559
縞	-12.158
碧	-12.1623
昆	-12.1666
棘	-12.1667
拗	-12.1688
è	-12.1688
矯	-12.171
頒	-12.1711
痴	-12.1732
机	-12.1732
姪	-12.1754
尹	-12.1755
斐	-12.1775
桟	-12.1776
允	-12.1798
π	-12.182
妄	-12.182
硫	-12.1835
陪	-12.1864
叛	-12.1864
堪	-12.1864
采	-12.1864
陛	-12.1864
騰	-12.1878
溥	-12.1908
榛	-12.1909
煕	-12.1931
喋	-12.1931
屏	-12.1953
ل	-12.1953
此	-12.1975
紺	-12.1976
裔	-12.1996
稙	-12.2044
舗	-12.2048
殲	-12.2065
襄	-12.2065
勒	-12.2065
í	-12.2065
毀	-12.2065
耆	-12.2066
髙	-12.2111
帖	-12.2133
泄	-12.2133
輿	-12.2156
椿	-12.2156
逢	-12.2157
瞳	-12.2179
禰	-12.2202
燈	-12.2202
蝕	-12.2202
旦	-12.2215
馳	-12.2248
渥	-12.2248
奄	-12.2271
т	-12.2294
慧	-12.2317
妨	-12.236
稽	-12.2361
冒	-12.2375
鹸	-12.2387
迭	-12.2433
蛋	-12.2434
莽	-12.2457
徽	-12.2457
荀	-12.2458
嬢	-12.248
卯	-12.2481
捜	-12.2504
錫	-12.2504
櫛	-12.2505
怨	-12.2528
杏	-12.2528
翁	-12.2528
巾	-12.2528
踪	-12.2552
糠	-12.2576
@	-12.2599
甫	-12.2647
撒	-12.2671
轢	-12.2671
祚	-12.2671
ε	-12.2671
眉	-12.2695
ぢ	-12.2696
ゐ	-12.2719
吟	-12.2719
蘆	-12.2719
禽	-12.2719
誅	-12.2743
巌	-12.2767
埠	-12.2767
瀕	-12.2792
斧	-12.2792
箏	-12.2815
$	-12.2816
捗	-12.2841
л	-12.2841
漬	-12.2877
按	-12.2889
騙	-12.2889
‰	-12.2889
郵	-12.291
梵	-12.2914
墾	-12.2938
矩	-12.2939
脊	-12.2963
旺	-12.2963
鷺	-12.2963
碓	-12.2964
聯	-12.2988
飽	-12.301
ū	-12.3038
窒	-12.3087
鸞	-12.3088
弐	-12.3088
疆	-12.3089
禎	-12.3112
妬	-12.3138
梱	-12.3138
舜	-12.3163
竪	-12.3164
吏	-12.32
鮎	-12.3213
濠	-12.3213
轄	-12.3234
畷	-12.3239
擲	-12.3264
剃	-12.3264
酪	-12.3264
俵	-12.3314
疲	-12.3315
兜	-12.3315
薇	-12.3341
琵	-12.3367
嗅	-12.3367
葦	-12.3367
淑	-12.3392
梓	-12.3418
洩	-12.3418
隘	-12.3418
瓜	-12.3419
楯	-12.3444
ぇ	-12.347
埼	-12.3495
ο	-12.3496
寓	-12.3523
學	-12.3549
薔	-12.3549
梯	-12.3573
伺	-12.3575
礫	-12.3575
鄧	-12.3575
宦	-12.3601
択	-12.3626
灌	-12.3627
郁	-12.3654
憶	-12.3705
痢	-12.3734
襟	-12.3761
亨	-12.3761
薦	-12.3814
衙	-12.3814
熾	-12.3814
轟	-12.3841
痙	-12.3841
站	-12.3868
雁	-12.3869
聚	-12.3895
隕	-12.3895
蚕	-12.3895
倶	-12.3895
薨	-12.3896
娼	-12.3923
慨	-12.395
φ	-12.395
雍	-12.395
衷	-12.3977
稔	-12.3977
ρ	-12.3977
閃	-12.4004
菓	-12.4017
蟹	-12.4032
揮	-12.4055
擦	-12.4059
卷	-12.4066
瑜	-12.4086
皐	-12.4088
升	-12.4115
嘗	-12.4142
蔭	-12.4142
較	-12.4169
邇	-12.417
攣	-12.417
●	-12.4171
捏	-12.4198
宍	-12.4282
栽	-12.4283
葵	-12.4283
渠	-12.4311
漕	-12.4339
摺	-12.4339
薪	-12.4367
弼	-12.4367
醜	-12.4368
厥	-12.4396
懿	-12.4453
橙	-12.4482
櫻	-12.4511
悼	-12.4539
榊	-12.4569
努	-12.4573
憑	-12.4598
髭	-12.4627
謂	-12.4627
逼	-12.4656
戊	-12.4656
妾	-12.4686
距	-12.4714
弄	-12.4715
掻	-12.4715
濫	-12.4715
揖	-12.4715
靭	-12.4744
竺	-12.4745
樫	-12.4745
樺	-12.4773
ぃ	-12.4774
膣	-12.4774
痩	-12.4804
塑	-12.4833
蕭	-12.4834
±	-12.4834
塀	-12.4834
阮	-12.4863
揉	-12.4863
濡	-12.4864
珪	-12.4893
鍾	-12.4894
絆	-12.4923
軋	-12.4924
炸	-12.4924
ن	-12.4954
ι	-12.4954
栃	-12.501
à	-12.5014
粕	-12.5075
焚	-12.5105
綺	-12.5106
團	-12.5136
虔	-12.5137
鹵	-12.5198
撲	-12.5216
汪	-12.5228
匁	-12.5229
嫉	-12.5259
邊	-12.5291
欺	-12.5291
爺	-12.5291
卦	-12.5292
践	-12.5319
萎	-12.5321
篭	-12.5322
箔	-12.5323
乖	-12.5353
某	-12.5353
廿	-12.5353
慌	-12.5385
餃	-12.5385
·	-12.5385
梢	-12.5385
<	-12.5415
酉	-12.5448
佑	-12.5448
蝋	-12.548
堡	-12.5512
疏	-12.5543
頬	-12.5544
墜	-12.5572
奢	-12.5575
註	-12.5576
嵌	-12.5576
珊	-12.5576
竿	-12.5576
ç	-12.5576
д	-12.5608
渾	-12.5608
喘	-12.5608
錆	-12.564
捷	-12.564
翅	-12.5672
應	-12.5672
擾	-12.5705
墟	-12.5705
囃	-12.5705
弩	-12.5737
嬰	-12.5738
葡	-12.5738
冑	-12.5738
撥	-12.577
耽	-12.577
脩	-12.5771
勿	-12.5802
彬	-12.5803
掩	-12.5803
罠	-12.5836
丑	-12.5869
侠	-12.5869
會	-12.5902
τ	-12.5902
遙	-12.5902
姜	-12.5903
ي	-12.5935
爽	-12.5968
嚇	-12.5968
曙	-12.5969
鉾	-12.5969
—	-12.6002
椒	-12.6036
賤	-12.6036
娶	-12.6069
楔	-12.6069
僑	-12.6069
擁	-12.6097
膵	-12.6102
瑚	-12.6103
而	-12.6103
噺	-12.6137
м	-12.6167
š	-12.617
猶	-12.6171
簒	-12.6171
屠	-12.6171
詫	-12.6171
鰓	-12.6172
狐	-12.6172
昏	-12.624
濾	-12.6273
漱	-12.6274
錘	-12.6274
蕉	-12.6274
飴	-12.6274
彷	-12.6308
賂	-12.6343
鼠	-12.6343
柑	-12.6343
祓	-12.6377
汝	-12.6378
蒔	-12.6412
妓	-12.6412
淮	-12.6412
膏	-12.6412
芹	-12.6412
輻	-12.6412
繰	-12.6439
拮	-12.6447
諧	-12.6447
畏	-12.6482
渉	-12.6515
漠	-12.6515
崔	-12.6517
藁	-12.6518
咽	-12.6518
錮	-12.6518
蹟	-12.6553
俯	-12.6553
匡	-12.6588
瞑	-12.6588
翠	-12.6624
暫	-12.6658
魁	-12.666
瓊	-12.666
漿	-12.666
砺	-12.6695
鯉	-12.6696
肛	-12.6731
彌	-12.6731
牒	-12.6732
卜	-12.6767
夭	-12.6767
戮	-12.6768
贅	-12.6768
贄	-12.6876
嘲	-12.6876
旛	-12.6877
璋	-12.6913
傳	-12.6913
恣	-12.6913
疹	-12.6914
洒	-12.695
呆	-12.695
厭	-12.7024
砥	-12.7024
荏	-12.7024
筈	-12.7024
蔡	-12.7098
臥	-12.7099
偲	-12.7099
惚	-12.7136
拙	-12.7136
′	-12.7137
芭	-12.7173
劫	-12.7211
腿	-12.7211
κ	-12.7211
ر	-12.7211
僅	-12.7211
畿	-12.7223
嘔	-12.7249
戌	-12.7249
矮	-12.7287
兎	-12.7287
婢	-12.7287
矛	-12.7287
竈	-12.7287
浙	-12.7287
犀	-12.7287
顆	-12.7325
喬	-12.7325
掟	-12.7325
或	-12.7325
瑠	-12.7325
趾	-12.7325
腱	-12.7363
祢	-12.7365
玲	-12.7402
脆	-12.744
辣	-12.744
肋	-12.744
讒	-12.744
祠	-12.7441
鉤	-12.7441
圀	-12.748
睡	-12.748
訶	-12.748
й	-12.7513
咎	-12.7518
湛	-12.7518
這	-12.7557
熹	-12.7558
遁	-12.7558
實	-12.7558
篆	-12.7558
倹	-12.7596
艤	-12.7636
虞	-12.7636
哨	-12.7675
鼎	-12.7676
冤	-12.7676
⇒	-12.7715
喧	-12.7755
萱	-12.7755
渚	-12.7756
梗	-12.7756
佛	-12.7795
宥	-12.7795
م	-12.7835
屑	-12.7836
□	-12.7836
蕩	-12.7875
冶	-12.7875
崋	-12.7916
紗	-12.7916
藪	-12.7916
穿	-12.7917
馮	-12.7957
謬	-12.7957
穣	-12.7957
僚	-12.7963
址	-12.7998
賈	-12.7998
ゑ	-12.7998
翰	-12.8039
邱	-12.8039
綜	-12.8039
槌	-12.8039
吠	-12.8081
昂	-12.812
θ	-12.8121
餡	-12.8121
у	-12.8158
г	-12.8161
穢	-12.8162
鋸	-12.8163
粥	-12.8204
竄	-12.8245
ō	-12.8246
━	-12.8246
萄	-12.8288
淫	-12.833
≒	-12.833
秤	-12.833
迹	-12.8331
托	-12.8331
覗	-12.8331
肇	-12.8331
誕	-12.8361
馨	-12.8372
謗	-12.8415
窟	-12.8415
陝	-12.8415
蔣	-12.8415
蚊	-12.8415
饗	-12.8458
廓	-12.8458
綸	-12.8544
欣	-12.8544
鷗	-12.8544
凰	-12.8587
齋	-12.8587
塹	-12.8588
僭	-12.863
黎	-12.863
玖	-12.8631
鯖	-12.8674
﨑	-12.8674
∈	-12.8675
蓬	-12.8718
姻	-12.8718
裳	-12.8719
堆	-12.8761
攪	-12.8762
甕	-12.8763
袴	-12.8763
婁	-12.8806
沌	-12.8806
ñ	-12.8807
盃	-12.8807
彭	-12.8851
傲	-12.8852
鉉	-12.8895
拿	-12.894
吻	-12.894
躯	-12.8941
ร	-12.8941
戎	-12.8941
悉	-12.8985
麒	-12.8985
驤	-12.8986
棍	-12.9031
跋	-12.9031
弛	-12.9076
把	-12.9076
厘	-12.9122
憾	-12.9122
唾	-12.9122
怯	-12.9168
楢	-12.9168
療	-12.9201
誹	-12.9213
涌	-12.9214
轍	-12.926
←	-12.926
兌	-12.9307
菖	-12.9307
禿	-12.9307
哺	-12.9307
酋	-12.9353
韋	-12.9353
鮫	-12.94
桿	-12.9401
樟	-12.9401
莢	-12.9448
套	-12.9448
范	-12.9448
閩	-12.9495
墺	-12.9495
芙	-12.9495
艶	-12.9543
愉	-12.959
臆	-12.9591
忘	-12.9598
偵	-12.9638
瘍	-12.9638
詐	-12.9638
頌	-12.9639
傅	-12.9687
宸	-12.9687
誦	-12.9687
糊	-12.9687
槇	-12.9735
煤	-12.9735
蛭	-12.9735
η	-12.9735
虜	-12.9784
و	-12.9784
∀	-12.9784
碍	-12.9784
禹	-12.9833
ô	-12.9833
廬	-12.9882
鮭	-12.9882
鰻	-12.9883
ı	-12.9932
箋	-12.9932
迄	-12.9932
斤	-12.9932
駁	-12.9932
灸	-12.9933
♭	-12.9933
霖	-12.9981
麾	-12.9981
燻	-12.9982
與	-12.9982
貪	-12.9982
鍮	-12.9982
琳	-13.0032
豫	-13.0032
媚	-13.0032
嗜	-13.0081
凋	-13.0082
迅	-13.013
祟	-13.0132
掠	-13.0183
閲	-13.0183
諌	-13.0183
艘	-13.0183
羹	-13.0234
韮	-13.0234
蟄	-13.0234
滸	-13.0235
咳	-13.0285
冀	-13.0285
胱	-13.0286
膀	-13.0286
讀	-13.0286
琢	-13.0286
窩	-13.0337
璃	-13.0337
衞	-13.0337
า	-13.0441
癸	-13.0441
契	-13.0484
穎	-13.0492
姑	-13.0493
憐	-13.0546
巷	-13.0546
â	-13.0546
奘	-13.0546
證	-13.0546
訊	-13.0598
饅	-13.0599
耀	-13.0599
鰐	-13.0599
佃	-13.0599
什	-13.0652
槐	-13.0705
舒	-13.0705
ß	-13.0705
垢	-13.0705
惠	-13.0706
靡	-13.0759
姚	-13.0759
亢	-13.0759
豹	-13.0759
◎	-13.076
庇	-13.0814
郊	-13.0841
榎	-13.0858
脾	-13.0867
毫	-13.0868
壽	-13.0868
愁	-13.0922
♪	-13.0922
緋	-13.0922
狸	-13.0923
佩	-13.0923
б	-13.0974
捌	-13.0977
刹	-13.0978
祷	-13.1032
п	-13.1032
⇔	-13.1088
蔚	-13.1088
玩	-13.1143
渭	-13.1144
趨	-13.1144
÷	-13.1144
鰹	-13.12
躁	-13.12
酌	-13.12
ø	-13.12
疽	-13.1201
雫	-13.1201
莫	-13.1256
閘	-13.1256
ヱ	-13.1257
櫃	-13.1257
ú	-13.1257
雉	-13.1313
柚	-13.1313
ب	-13.1313
衍	-13.1314
曼	-13.1371
瀋	-13.1371
蒐	-13.1371
濤	-13.1371
瞞	-13.1486
箪	-13.1486
菟	-13.1486
蛛	-13.1487
蟻	-13.1487
賭	-13.1502
皝	-13.1544
懺	-13.1544
س	-13.1544
贖	-13.1602
邁	-13.1602
煌	-13.1602
鋏	-13.1602
瘤	-13.1603
簾	-13.1603
彧	-13.1604
杷	-13.1661
丕	-13.1661
縣	-13.171
撹	-13.172
■	-13.172
沫	-13.172
巽	-13.1721
銑	-13.178
贋	-13.178
鞆	-13.178
椋	-13.1781
鯛	-13.1839
枇	-13.184
浚	-13.184
鞠	-13.1841
蓉	-13.19
恪	-13.19
睨	-13.19
я	-13.1959
槿	-13.196
咬	-13.1961
暢	-13.2022
碩	-13.2022
奸	-13.2022
繍	-13.2022
ั	-13.2022
蜘	-13.2022
醤	-13.2083
拌	-13.2083
د	-13.2083
嗚	-13.2083
ł	-13.2083
鯱	-13.2145
頚	-13.2145
æ	-13.2145
朕	-13.2146
湘	-13.22
摯	-13.2206
笏	-13.2207
閻	-13.2207
摸	-13.2207
裴	-13.2208
霍	-13.2269
抒	-13.2269
磔	-13.227
ゝ	-13.2333
釉	-13.2333
籾	-13.2333
曰	-13.239
俘	-13.2395
胥	-13.2395
姥	-13.2396
紘	-13.2459
絃	-13.2459
赳	-13.2459
逍	-13.246
顛	-13.246
掾	-13.246
蕾	-13.2523
茸	-13.2524
赫	-13.2524
壷	-13.2587
哈	-13.2587
旱	-13.2587
忽	-13.2588
»	-13.2588
苅	-13.2588
砧	-13.2652
袂	-13.2653
當	-13.2653
χ	-13.2653
ь	-13.2653
些	-13.2653
屍	-13.2717
貶	-13.2718
膿	-13.2718
鑽	-13.2783
ē	-13.2784
棹	-13.2784
楷	-13.2784
鈔	-13.2784
攘	-13.2849
螢	-13.285
拼	-13.285
«	-13.285
瑕	-13.2851
靱	-13.2917
燭	-13.2917
煬	-13.2984
迦	-13.2984
疵	-13.2984
瓢	-13.2984
稗	-13.2985
椀	-13.3052
憩	-13.3119
彪	-13.3119
荼	-13.3119
諺	-13.312
♥	-13.312
狄	-13.312
絨	-13.3188
脛	-13.3188
經	-13.3188
疋	-13.319
么	-13.3256
魃	-13.3257
囁	-13.3257
偈	-13.3257
芒	-13.3326
ы	-13.3326
∞	-13.3327
剋	-13.3327
瘡	-13.3327
聾	-13.3396
冴	-13.3396
羌	-13.3396
冲	-13.3397
圃	-13.3466
琥	-13.3467
榮	-13.3467
ा	-13.3467
儲	-13.3486
纂	-13.3533
諮	-13.3537
珀	-13.3537
帷	-13.3538
隧	-13.3538
ê	-13.3538
饒	-13.3538
煥	-13.3609
酬	-13.3609
尤	-13.3681
謄	-13.3681
å	-13.3681
馴	-13.3682
्	-13.3682
瞰	-13.3754
躙	-13.3827
‘	-13.3827
繹	-13.3827
惰	-13.3827
斂	-13.3899
苞	-13.39
碗	-13.39
悶	-13.39
鞨	-13.3901
羨	-13.3901
崑	-13.3901
柩	-13.3974
猥	-13.3974
≠	-13.3974
綏	-13.3974
з	-13.4044
訣	-13.4048
襖	-13.405
滓	-13.4124
犠	-13.4124
ヰ	-13.4124
賽	-13.4124
匝	-13.4124
諒	-13.4199
拉	-13.4199
爛	-13.42
齧	-13.4276
枡	-13.4276
宵	-13.4276
蓑	-13.4276
•	-13.4276
惇	-13.4277
繡	-13.4277
穆	-13.4352
誼	-13.4353
ه	-13.4353
藏	-13.4353
萠	-13.4353
瑳	-13.4353
牝	-13.4428
啄	-13.4428
捲	-13.4429
辟	-13.443
υ	-13.443
黛	-13.4508
茲	-13.4509
賣	-13.4509
≪	-13.4509
鍼	-13.4509
軾	-13.4587
礦	-13.4587
楓	-13.4588
碇	-13.4588
č	-13.4588
號	-13.4667
芻	-13.4667
蛙	-13.4746
沮	-13.4746
徂	-13.4747
ψ	-13.4747
游	-13.4747
陞	-13.4814
偕	-13.4827
僻	-13.4827
饋	-13.4828
笥	-13.4828
淋	-13.4828
錨	-13.4828
剪	-13.4829
舶	-13.4906
鏃	-13.4908
邉	-13.4909
鎚	-13.4909
羲	-13.4909
蛹	-13.4909
潘	-13.4909
焙	-13.4909
苻	-13.4909
́	-13.4977
坤	-13.499
蕨	-13.4991
澱	-13.4993
褐	-13.5068
唆	-13.5072
鍬	-13.5073
捺	-13.5073
已	-13.5074
亦	-13.5074
舫	-13.5156
糟	-13.5156
稠	-13.5157
น	-13.5157
茄	-13.5157
櫂	-13.524
埃	-13.524
龐	-13.524
卍	-13.5241
婉	-13.5241
鶯	-13.5241
幟	-13.5326
涵	-13.5326
凪	-13.5326
倦	-13.541
弗	-13.541
彅	-13.541
燐	-13.5411
蠣	-13.5411
翡	-13.5411
晦	-13.5496
禧	-13.5497
孕	-13.5497
舛	-13.5584
漣	-13.5584
疱	-13.5584
槙	-13.5584
侶	-13.5584
ş	-13.5584
肖	-13.5584
彙	-13.5643
械	-13.5667
疼	-13.5671
瀞	-13.5672
蕊	-13.5672
聰	-13.5672
ˈ	-13.5672
戔	-13.5672
檎	-13.5673
帛	-13.576
瑛	-13.576
杓	-13.576
ë	-13.576
≤	-13.576
撞	-13.576
ː	-13.5761
浬	-13.5761
鳶	-13.5849
囮	-13.5849
梧	-13.5849
ś	-13.585
柘	-13.585
َ	-13.585
滲	-13.585
贔	-13.585
拵	-13.585
幇	-13.5938
沓	-13.5939
禮	-13.5939
鴎	-13.5939
輯	-13.594
攀	-13.594
奎	-13.603
凧	-13.603
閔	-13.603
冉	-13.6031
撈	-13.6031
ч	-13.6032
ة	-13.6122
蒜	-13.6122
昴	-13.6122
臀	-13.6214
吃	-13.6214
關	-13.6215
檄	-13.6215
鎬	-13.6215
坡	-13.6215
莉	-13.6215
灼	-13.6307
窄	-13.6308
氣	-13.6309
筏	-13.6309
呟	-13.6401
虻	-13.6403
鵡	-13.6403
邯	-13.6403
來	-13.6403
จ	-13.6403
х	-13.6495
瑾	-13.6497
涜	-13.6498
瀾	-13.6498
ό	-13.6498
ج	-13.6498
ξ	-13.6498
祁	-13.6498
蕪	-13.65
据	-13.6575
夙	-13.6594
獨	-13.6594
飜	-13.6594
י	-13.6594
舅	-13.6594
袍	-13.6595
ぅ	-13.6595
釧	-13.665
檻	-13.6691
腋	-13.6691
ă	-13.6691
鏑	-13.6692
咋	-13.6693
竣	-13.6786
莞	-13.6788
鞅	-13.6788
梟	-13.6788
莱	-13.6789
桧	-13.6789
î	-13.6789
憚	-13.6789
桔	-13.6789
↑	-13.679
仄	-13.6888
奠	-13.6888
諍	-13.6889
र	-13.689
隴	-13.6986
藉	-13.6988
岱	-13.6988
ت	-13.6988
總	-13.6988
喀	-13.6988
ง	-13.6989
寶	-13.6989
◯	-13.6989
毯	-13.7089
俟	-13.7089
裟	-13.7089
驒	-13.7089
咄	-13.7089
ด	-13.7089
塙	-13.719
踵	-13.7191
氐	-13.7191
ว	-13.7192
臂	-13.7192
并	-13.7294
侈	-13.7294
ق	-13.7294
措	-13.7717
伎	-13.7935
批	-13.8503
琉	-13.8504
阜	-13.8504
賠	-13.8622
妥	-13.8859
憧	-13.9049
泌	-13.9353
焉	-13.936
涯	-13.9744
秩	-14.0015
崗	-14.0868
捧	-14.1143
披	-14.1322
醒	-14.1323
燥	-14.1638
循	-14.1799
痺	-14.2128
蝦	-14.2472
酵	-14.3
訟	-14.3382
罷	-14.3382
搭	-14.4367
獅	-14.4587
坦	-14.4592
迂	-14.5397
該	-14.5481
殆	-14.5731
ゞ	-14.6483
傭	-14.7015
爬	-14.7874
橿	-14.8807
貿	-14.8811
拐	-14.8813
峨	-14.9147
瞭	-15.0064
肯	-15.0601
剖	-15.0795
膚	-15.1003
槃	-15.1417
汰	-15.1418
諏	-15.1419
揆	-15.1843
剰	-15.185
綻	-15.1853
筐	-15.2302
銚	-15.2302
堵	-15.3283
聘	-15.3811
粧	-15.4949
濯	-15.6961
斡	-15.773
涅	-15.9471
酎	-15.9472
惧	-16.0471
讐	-16.158
淘	-16.1583
穫	-16.1583
椅	-16.2825
菩	-16.4255
遽	-16.5927
峙	-16.7924
氾	-16.7928
漑	-17.0423
騨	-17.0428
逮	-17.0428
牲	-17.0428
紆	-17.043
嘩	-17.3736
渤	-17.3753
彗	-17.3758
楕	-17.3761
祉	-17.3762
娯	-17.3762
噌	-17.3764
娠	-17.8761
挨	-17.8762
徨	-18.8739
屓	-18.874
渫	-18.8741
晰	-18.8742
徠	-18.8743
輳	-18.8744
靺	-18.8745
蹂	-18.8746
齬	-18.8747
齟	-18.8748
彿	-18.8749
愕	-18.875
躊	-18.8751
躇	-18.8752
訃	-18.8753
嚆	-18.8754
蕎	-18.8755
儡	-18.8756
嵯	-18.8756
揶	-18.8757
揄	-18.8758
擢	-18.8759
琶	-18.876
雰	-18.8761
匈	-18.8761
曖	-18.8762
饉	-18.8762
醐	-18.8763
醍	-18.8764
拶	-18.8764
拷	-18.8765
肪	-18.8765
