<unk>	0
<s>	0
</s>	0
、	-3.22598
の	-3.43396
。	-3.68939
▁	-3.95224
は	-4.06686
が	-4.16894
を	-4.19781
に	-4.32746
)	-4.79176
(	-4.8054
と	-4.84159
で	-4.90186
・	-4.90721
年	-4.97336
.	-5.07133
」	-5.30386
「	-5.33923
した	-5.4511
▁##	-5.55698
し	-5.62505
や	-5.63436
する	-5.67352
も	-5.7049
から	-5.72366
1	-5.73026
="	-5.75681
"	-5.79038
である	-5.79989
月	-5.80901
2	-5.86994
3	-6.06136
では	-6.064
として	-6.06419
ス	-6.07517
る	-6.0969
た	-6.11684
日	-6.12558
大	-6.21937
な	-6.28443
c	-6.29462
された	-6.30618
い	-6.32559
』	-6.35887
人	-6.39183
『	-6.39308
4	-6.40815
doc	-6.44865
には	-6.45816
駅	-6.51656
という	-6.52116
している	-6.53598
ア	-6.54356
り	-6.56451
して	-6.58938
など	-6.60307
この	-6.61419
か	-6.61625
ク	-6.62126
ト	-6.64238
て	-6.6531
本	-6.65385
5	-6.65522
ル	-6.67491
線	-6.67721
また	-6.68047
く	-6.6906
国	-6.69383
中	-6.72407
/	-6.72824
その	-6.73817
10	-6.75301
7	-6.76974
一	-6.78052
リ	-6.79518
上	-6.79767
6	-6.80526
市	-6.81029
8	-6.82876
ている	-6.84653
ラ	-6.85286
され	-6.85714
される	-6.85975
=	-6.87478
山	-6.88214
カ	-6.90987
者	-6.91212
:	-6.93062
マ	-6.93214
9	-6.94035
-	-6.95124
地	-6.95305
されている	-6.95973
法	-6.97099
ド	-6.98022
s	-6.99336
名	-6.99346
長	-6.99725
田	-6.99783
日本	-7.00733
戦	-7.01175
子	-7.01668
下	-7.02264
ら	-7.02422
イ	-7.02824
後	-7.02849
による	-7.03367
によって	-7.04089
コ	-7.04179
ja	-7.05202
化	-7.06268
▁-	-7.06891
新	-7.07537
出	-7.0771
高	-7.07768
年に	-7.08154
?	-7.0858
タ	-7.0862
第	-7.08934
った	-7.08959
19	-7.10983
的	-7.11436
m	-7.11547
水	-7.11558
ロ	-7.12735
org	-7.12879
内	-7.1326
ム	-7.13563
>	-7.1358
前	-7.13899
wikipedia	-7.14319
▁<	-7.14321
wiki	-7.14325
▁id	-7.14349
://	-7.14369
https	-7.14409
urid	-7.14534
▁url	-7.14557
▁title	-7.14576
▁categories	-7.14585
▁</	-7.14676
川	-7.14686
部	-7.14884
">	-7.14892
三	-7.15778
ナ	-7.15892
ため	-7.15992
となった	-7.16012
生	-7.16141
き	-7.16456
み	-7.17443
フ	-7.17773
数	-7.17966
用	-7.18562
体	-7.19376
家	-7.19427
車	-7.19488
がある	-7.20275
ー	-7.20395
であり	-7.20604
分	-7.20754
エ	-7.21321
同	-7.21393
により	-7.22181
|	-7.22262
ッ	-7.22915
的な	-7.245
機	-7.24962
学	-7.25508
18	-7.26288
12	-7.26367
ズ	-7.26389
つ	-7.26861
シ	-7.26973
性	-7.27252
行	-7.27734
手	-7.27778
ウ	-7.28178
ま	-7.28706
していた	-7.28844
であった	-7.28957
語	-7.29748
ン	-7.30009
う	-7.30338
回	-7.30353
オ	-7.30818
物	-7.31058
小	-7.31109
町	-7.31455
す	-7.31749
ない	-7.32139
11	-7.32594
島	-7.33307
d	-7.33494
東	-7.34068
への	-7.3441
b	-7.36772
方	-7.36989
北	-7.37545
a	-7.37817
事	-7.38255
放送	-7.38366
さ	-7.39082
、「	-7.39132
まで	-7.39354
ミ	-7.39737
所	-7.39807
レ	-7.40005
って	-7.40217
野	-7.41058
面	-7.41246
ジ	-7.41712
位	-7.41832
ニ	-7.41953
n	-7.4226
バ	-7.42369
へ	-7.43495
軍	-7.43691
南	-7.43759
立	-7.44034
より	-7.44282
ん	-7.44623
会	-7.44983
となる	-7.45362
金	-7.45892
道	-7.46281
西	-7.46672
サ	-7.47353
などの	-7.47439
メ	-7.47567
キ	-7.47897
元	-7.47986
日に	-7.48601
形	-7.48682
20	-7.48912
グ	-7.49201
t	-7.49582
en	-7.4975
原	-7.50167
)。	-7.51267
でも	-7.51604
外	-7.51671
ブ	-7.51712
作	-7.51825
▁(	-7.51976
見	-7.5234
お	-7.52486
発	-7.52779
全	-7.53098
号	-7.5316
時	-7.53438
リー	-7.53447
y	-7.53598
県	-7.54792
15	-7.54839
p	-7.55129
不	-7.55405
チ	-7.5561
ネ	-7.55759
点	-7.56714
力	-7.56978
g	-7.5724
王	-7.57272
ハ	-7.57371
ノ	-7.57945
場	-7.5822
目	-7.58359
入	-7.58522
重	-7.58586
f	-7.5871
系	-7.58889
め	-7.58996
れ	-7.59656
動	-7.59711
正	-7.59877
にも	-7.60134
大学	-7.60971
海	-7.61052
的に	-7.61093
公	-7.61192
神	-7.61624
平	-7.61728
モ	-7.62012
間	-7.62194
書	-7.62423
いた	-7.62948
社	-7.6313
合	-7.63166
ていた	-7.63801
え	-7.63883
主	-7.63897
期	-7.64124
約	-7.6431
ガ	-7.6785
だった	-7.68226
式	-7.68443
型	-7.68649
流	-7.68998
実	-7.69103
じ	-7.69329
昭和	-7.69849
二	-7.70681
h	-7.70719
こと	-7.70877
作品	-7.70912
代	-7.71124
先	-7.72067
区	-7.72108
城	-7.72388
,	-7.72497
において	-7.72563
しかし	-7.73017
各	-7.73332
鉄道	-7.73444
両	-7.73452
プ	-7.7348
イン	-7.73806
木	-7.74148
16	-7.74254
石	-7.74909
局	-7.75266
テ	-7.75578
文	-7.75667
等	-7.75884
パ	-7.76093
0	-7.7635
わ	-7.76422
スト	-7.76751
理	-7.76965
世界	-7.77061
天	-7.77205
l	-7.77488
村	-7.77668
和	-7.77753
ダ	-7.78009
r	-7.78364
17	-7.78543
ール	-7.79032
州	-7.79084
あ	-7.79145
o	-7.79751
セ	-7.80024
ツ	-7.8008
定	-7.80446
k	-7.80875
デ	-7.81094
無	-7.81118
明	-7.81293
ット	-7.81317
バス	-7.81791
ず	-7.81891
ック	-7.82588
記	-7.82601
30	-7.82729
色	-7.82835
義	-7.84099
番組	-7.84466
における	-7.84515
ば	-7.84685
気	-7.84792
および	-7.84865
e	-7.85046
有	-7.85262
地域	-7.86187
度	-7.86223
世	-7.86782
次	-7.87063
ボ	-7.87567
制	-7.8873
w	-7.88932
進	-7.89589
信	-7.89796
ディ	-7.89806
口	-7.90733
平成	-7.90851
音	-7.91137
量	-7.91395
ビ	-7.91515
知	-7.91607
にある	-7.91742
られた	-7.91765
14	-7.92124
東京	-7.92312
通	-7.92425
との	-7.92893
できる	-7.93075
安	-7.93076
教	-7.93264
ティ	-7.9366
u	-7.93808
総	-7.94106
v	-7.94114
とする	-7.9419
光	-7.94218
直	-7.94279
っ	-7.94505
月に	-7.9469
対	-7.9478
旧	-7.951
13	-7.95534
さらに	-7.96168
だ	-7.9649
電	-7.96781
派	-7.96807
マン	-7.97017
のみ	-7.97053
成	-7.97117
x	-7.97142
列車	-7.97208
こ	-7.97367
頭	-7.98791
多	-7.99076
その後	-7.99756
白	-8.00051
土	-8.00404
について	-8.00416
j	-8.00842
政	-8.00859
後に	-8.01203
バー	-8.02195
橋	-8.02205
アン	-8.02404
変	-8.02448
朝	-8.02893
となり	-8.03043
論	-8.0323
着	-8.03235
版	-8.03298
種	-8.03712
となっている	-8.03793
け	-8.04005
っている	-8.04023
ラー	-8.04041
松	-8.04101
万	-8.04384
問題	-8.04407
なかった	-8.0455
最	-8.04763
員	-8.04807
話	-8.04831
集	-8.05212
開	-8.05249
馬	-8.05641
アメリカ	-8.05693
ター	-8.05858
風	-8.05893
例	-8.0605
官	-8.06121
台	-8.06365
現	-8.06382
とも	-8.06436
宮	-8.06449
々	-8.06511
ソ	-8.06734
氏	-8.07032
役	-8.07263
これは	-8.08111
コン	-8.08202
権	-8.08337
側	-8.08399
アル	-8.0896
広	-8.09028
別	-8.09188
車両	-8.09487
ベ	-8.09591
時代	-8.09596
それ	-8.10221
党	-8.10369
レー	-8.10498
説	-8.10653
当	-8.10673
食	-8.10887
があり	-8.11008
関係	-8.1108
時間	-8.11362
なお	-8.11589
ピ	-8.11899
活動	-8.12103
されていた	-8.12204
すること	-8.13026
使用	-8.13277
ゴ	-8.13942
ロー	-8.13942
i	-8.13947
re	-8.14008
井	-8.1421
とは	-8.14239
テレビ	-8.14358
に対して	-8.14978
jr	-8.15076
もの	-8.15165
付	-8.152
年には	-8.15203
郡	-8.15577
店	-8.15693
25	-8.15861
心	-8.15935
団	-8.15946
自	-8.1606
ね	-8.1623
路線	-8.16294
死	-8.1634
ど	-8.16411
ち	-8.16533
保	-8.16666
ある	-8.16698
寺	-8.17162
任	-8.17354
都市	-8.1847
場合	-8.19038
ペ	-8.19185
表	-8.19335
ように	-8.19338
ヤ	-8.19565
ヒ	-8.19653
ザ	-8.19772
ケ	-8.20169
条	-8.20298
ホーム	-8.20646
改	-8.20701
での	-8.20821
勝	-8.20843
同年	-8.21081
ること	-8.21228
武	-8.21815
番	-8.22013
む	-8.2233
ギ	-8.22436
映画	-8.22544
十	-8.22568
開発	-8.22621
中国	-8.22845
院	-8.22982
ドイツ	-8.22994
地方	-8.23213
ダー	-8.23262
せ	-8.23277
相	-8.23361
隊	-8.23514
特に	-8.23835
50	-8.24011
もある	-8.24131
ーン	-8.24344
年の	-8.24347
曲	-8.24391
人の	-8.24486
科	-8.24708
意	-8.24738
利用	-8.25439
産	-8.2558
兵	-8.2579
身	-8.25904
転	-8.2609
;	-8.26133
米	-8.26458
しており	-8.26546
ており	-8.26676
ポ	-8.26678
」「	-8.26693
連	-8.26697
については	-8.2671
反	-8.26742
再	-8.26826
津	-8.26864
24	-8.2703
増	-8.27787
ことを	-8.27856
ic	-8.27939
船	-8.28025
ゲーム	-8.28135
よう	-8.28268
調	-8.28292
強	-8.28462
運転	-8.28488
歌	-8.28531
ラン	-8.28757
られる	-8.28821
他	-8.28887
年代	-8.29148
と呼ばれる	-8.29583
波	-8.29645
21	-8.29753
室	-8.29802
四	-8.29908
これ	-8.29948
伝	-8.30044
古	-8.3008
星	-8.30117
谷	-8.30424
カー	-8.30509
ライ	-8.30681
空	-8.30772
サン	-8.30879
取	-8.30882
民	-8.31072
半	-8.31358
国際	-8.31457
んだ	-8.31469
ただし	-8.31581
日本の	-8.31612
中央	-8.31642
ワ	-8.31989
」(	-8.3208
異	-8.32148
親	-8.32227
社会	-8.32304
越	-8.32352
』(	-8.32354
られ	-8.32548
真	-8.32632
戦争	-8.32783
計画	-8.32901
っていた	-8.33141
格	-8.33405
ことから	-8.33503
業	-8.3353
来	-8.34309
初	-8.34461
le	-8.34469
ことが	-8.34508
士	-8.3458
賞	-8.34586
明治	-8.34616
多くの	-8.34629
加	-8.34735
べ	-8.34827
フランス	-8.34958
撃	-8.35216
になる	-8.35225
研究	-8.35461
リン	-8.35703
職	-8.35966
器	-8.36105
世紀	-8.3656
領	-8.36988
門	-8.37003
河	-8.37062
退	-8.37126
事業	-8.37266
字	-8.37268
があった	-8.37526
とした	-8.37739
類	-8.37758
23	-8.3777
称	-8.37895
なく	-8.37952
リア	-8.38121
断	-8.38375
質	-8.38454
すると	-8.38636
22	-8.38832
当時	-8.38891
&	-8.38916
運行	-8.3918
、『	-8.3945
一般	-8.39553
を持つ	-8.39585
音楽	-8.39851
会社	-8.39978
決	-8.40041
記録	-8.40256
レン	-8.4056
年度	-8.41022
40	-8.4103
太	-8.41197
女	-8.41404
赤	-8.41481
特	-8.41627
座	-8.41703
%	-8.41783
五	-8.41946
族	-8.42047
館	-8.42059
屋	-8.42172
28	-8.42231
言	-8.42577
現在の	-8.42746
ではなく	-8.42846
al	-8.43009
教育	-8.43185
フィ	-8.43189
主義	-8.4319
になった	-8.43203
楽	-8.43206
落	-8.4338
ほど	-8.43948
イギリス	-8.4404
状態	-8.44168
er	-8.44351
母	-8.44687
27	-8.44698
近	-8.4495
シリーズ	-8.45009
つの	-8.45053
他の	-8.45406
残	-8.45498
在	-8.45844
天皇	-8.45866
解	-8.46463
品	-8.46649
プロ	-8.46677
経済	-8.46772
26	-8.46796
黒	-8.4684
▁また	-8.4686
29	-8.46976
艦	-8.47019
省	-8.4728
からの	-8.47346
現在	-8.47381
文化	-8.47505
関	-8.47566
久	-8.47782
政府	-8.47814
結果	-8.47948
火	-8.48116
たち	-8.48215
しい	-8.48454
マー	-8.48555
組	-8.4861
造	-8.48652
交通	-8.4877
務	-8.49335
使	-8.49488
乗	-8.49564
図	-8.49579
学校	-8.49657
構造	-8.49727
z	-8.49762
だけ	-8.49822
御	-8.49848
ップ	-8.49864
ホ	-8.50152
以降	-8.50181
観	-8.5041
an	-8.50531
90	-8.50583
情報	-8.5064
考え	-8.50723
年から	-8.50819
事件	-8.50946
後の	-8.51063
機関	-8.51181
歳	-8.51276
達	-8.51338
路	-8.51524
美	-8.51568
円	-8.51619
画	-8.51752
60	-8.51752
としては	-8.524
部分	-8.5247
父	-8.52607
向	-8.52611
基	-8.52781
ベル	-8.52904
いて	-8.52946
シャ	-8.53103
治	-8.53193
よ	-8.53311
取り	-8.53622
鉄	-8.53754
とともに	-8.53756
存在	-8.53801
スター	-8.53825
える	-8.53893
ヴィ	-8.54175
送	-8.54264
京	-8.54291
端	-8.54356
終	-8.5436
角	-8.54732
編成	-8.54795
住	-8.55253
者の	-8.55282
常	-8.55311
宗	-8.55345
級	-8.5551
を受け	-8.55512
機能	-8.55627
そして	-8.55698
とされる	-8.5584
夫	-8.56085
率	-8.56282
区間	-8.56399
出演	-8.56429
好	-8.56439
ゼ	-8.56447
ぶ	-8.56456
び	-8.56565
だが	-8.56679
尾	-8.56955
花	-8.57055
利	-8.57129
技術	-8.57185
ほか	-8.57267
といった	-8.57348
青	-8.57392
極	-8.57396
豊	-8.57408
シュ	-8.57457
に対する	-8.57555
ヘ	-8.57819
留	-8.5787
岡	-8.58078
視	-8.58114
結	-8.58118
アー	-8.58332
そ	-8.58482
100	-8.58522
ひ	-8.58527
販売	-8.58674
または	-8.58926
当時の	-8.59556
文字	-8.59616
参加	-8.59672
ジャ	-8.59868
ar	-8.59998
in	-8.60135
運動	-8.60191
破	-8.60265
低	-8.60287
戸	-8.6033
熱	-8.60373
経	-8.60498
_	-8.60558
キャ	-8.60565
システム	-8.60628
施設	-8.60772
命	-8.60801
従	-8.60915
積	-8.61091
設置	-8.61094
藤	-8.61431
佐	-8.61454
31	-8.61497
工	-8.61602
末	-8.61695
建設	-8.61872
線の	-8.61876
愛	-8.61997
いる	-8.62032
以上	-8.62098
通り	-8.62118
際	-8.62312
させ	-8.62504
国家	-8.62506
is	-8.62529
設定	-8.62535
攻撃	-8.62935
限	-8.6297
エン	-8.63013
客	-8.63349
八	-8.63373
かった	-8.63541
走	-8.63553
を行う	-8.63787
ソン	-8.63809
トン	-8.63891
切	-8.6391
サー	-8.64022
交	-8.64035
配	-8.64236
ろ	-8.64272
カル	-8.64563
含	-8.64645
良	-8.64712
打	-8.64863
試合	-8.64933
根	-8.64984
変更	-8.6501
管	-8.65025
決定	-8.65152
のように	-8.65193
順	-8.65229
ro	-8.65399
大きな	-8.65443
清	-8.6545
させる	-8.65455
道路	-8.656
ぐ	-8.65691
及び	-8.65754
製	-8.65815
吉	-8.65834
の中で	-8.6587
修	-8.65877
ニー	-8.65912
年間	-8.6604
日の	-8.66216
代表	-8.66227
ブル	-8.66234
ch	-8.66351
生産	-8.66362
都	-8.66531
男	-8.66573
板	-8.66575
沢	-8.66675
今	-8.66714
単	-8.66771
急	-8.668
られている	-8.66907
ファ	-8.66912
一方	-8.67077
聖	-8.67124
地区	-8.67145
開催	-8.67185
層	-8.67248
非	-8.67251
監督	-8.67253
自由	-8.67278
素	-8.67434
st	-8.67481
失	-8.6757
に関する	-8.67581
ート	-8.67596
藩	-8.67626
ックス	-8.67676
グループ	-8.67778
商	-8.6778
チーム	-8.67865
ナー	-8.6793
同じ	-8.68078
大阪	-8.68681
令	-8.68709
パー	-8.68795
においては	-8.68818
80	-8.69475
ゲ	-8.69585
志	-8.69772
発売	-8.70031
席	-8.70042
防	-8.70085
薬	-8.70173
フェ	-8.70284
春	-8.70357
時に	-8.7065
圧	-8.7069
ニア	-8.70746
タン	-8.70886
師	-8.70974
述	-8.71445
管理	-8.71453
オー	-8.71513
方面	-8.71581
タイ	-8.71598
リーグ	-8.71688
製造	-8.71719
ると	-8.71871
制作	-8.71905
それぞれ	-8.72027
千	-8.72062
私	-8.72074
選	-8.72082
ところ	-8.72091
)」	-8.72159
鳥	-8.72233
独立	-8.72236
諸	-8.72324
砲	-8.72447
江	-8.72756
帯	-8.72778
属	-8.72841
速	-8.72918
開始	-8.72992
状	-8.73145
編	-8.73332
悪	-8.73458
のような	-8.73518
ものの	-8.73544
収	-8.73576
装	-8.7373
シー	-8.74046
支	-8.74077
▁m	-8.74518
敗	-8.74645
居	-8.74921
これらの	-8.74944
程度	-8.74986
以下の	-8.75113
カード	-8.75188
減	-8.75282
したが	-8.75305
しく	-8.75341
向け	-8.75365
ra	-8.75476
英	-8.75732
これを	-8.75745
at	-8.75859
ッド	-8.75872
営	-8.75893
節	-8.75902
京都	-8.76037
されており	-8.76066
差	-8.7612
足	-8.76333
させた	-8.76475
感	-8.76493
ma	-8.76534
横	-8.76626
放	-8.76703
弾	-8.76787
ジュ	-8.76841
000	-8.76855
70	-8.76917
表記	-8.76931
ながら	-8.76943
港	-8.76962
ではない	-8.76989
羽	-8.77125
組織	-8.77129
得	-8.77143
声	-8.77167
ものである	-8.77258
崎	-8.77434
値	-8.77456
府	-8.77557
しない	-8.7762
▁概要	-8.77627
計	-8.77683
運用	-8.77954
渡	-8.78073
ヌ	-8.78469
女性	-8.78496
建	-8.7899
首	-8.79134
術	-8.79146
病	-8.79165
人間	-8.79251
モン	-8.79264
園	-8.79371
起	-8.79388
史	-8.79422
ドル	-8.79502
優	-8.79621
ロシア	-8.79771
大会	-8.79973
入れ	-8.80014
要	-8.80023
生活	-8.8018
特徴	-8.80263
勢	-8.80292
方法	-8.80362
選挙	-8.80419
銀行	-8.80439
永	-8.80469
などが	-8.80549
血	-8.80697
全国	-8.8074
よりも	-8.80793
章	-8.80828
何	-8.81028
企業	-8.81097
割	-8.81163
ルー	-8.81189
アイ	-8.81202
対象	-8.81221
人口	-8.81372
中に	-8.81464
岩	-8.81591
されて	-8.81632
ことで	-8.81693
航空	-8.81714
バイ	-8.81854
が多い	-8.81986
満	-8.82061
葉	-8.82143
選手	-8.82223
降	-8.82251
報	-8.82552
群	-8.82623
ビー	-8.82631
周辺	-8.82726
告	-8.82763
リング	-8.82766
ような	-8.82817
の一部	-8.82851
のうち	-8.82882
に対し	-8.82968
しか	-8.82977
政治	-8.83188
li	-8.83195
源	-8.83396
評価	-8.83595
シン	-8.83895
額	-8.83923
検	-8.83968
軽	-8.83972
福	-8.84044
ために	-8.84045
調査	-8.84047
左	-8.84069
返	-8.84408
校	-8.84547
ロン	-8.84557
核	-8.8459
れた	-8.84688
項	-8.84765
引	-8.85027
示	-8.85075
上げ	-8.85197
本線	-8.85329
▁なお	-8.85472
ヨーロッパ	-8.85514
移	-8.85609
us	-8.85637
ぎ	-8.85736
35	-8.85755
チェ	-8.8576
界	-8.85879
言語	-8.85946
あるいは	-8.85948
料	-8.85978
丸	-8.86039
最も	-8.86112
駅間	-8.86206
能	-8.86288
異なる	-8.86562
比	-8.86596
国民	-8.86739
主に	-8.86784
殺	-8.86791
初めて	-8.86806
雄	-8.86829
廃止	-8.86903
蔵	-8.87037
人物	-8.87104
売	-8.87121
庁	-8.87323
徳	-8.87338
上の	-8.87438
歩	-8.87449
カン	-8.87456
方式	-8.87541
ジェ	-8.87595
エル	-8.87605
養	-8.87627
帝国	-8.87842
サービス	-8.87856
短	-8.87875
00	-8.87895
ッチ	-8.87939
場所	-8.88127
なる	-8.8814
実施	-8.88163
議会	-8.88166
目的	-8.8826
のため	-8.88301
陸	-8.88336
材	-8.88355
案	-8.8841
将	-8.88433
変化	-8.88438
最高	-8.88559
者が	-8.88592
特別	-8.88826
祭	-8.88827
表示	-8.88849
接	-8.8897
を含む	-8.89112
個	-8.89449
にて	-8.89461
紙	-8.89476
前に	-8.89518
付け	-8.89604
応	-8.89784
la	-8.89804
としての	-8.89959
es	-8.9
敵	-8.90045
制度	-8.90084
早	-8.90089
と共に	-8.90123
右	-8.90177
内容	-8.90188
列	-8.90282
ほとんど	-8.9041
ハイ	-8.90681
ゆ	-8.90725
支配	-8.90863
▁s	-8.90881
などで	-8.909
バル	-8.91055
税	-8.9106
当駅	-8.91406
se	-8.91422
少	-8.91489
布	-8.91505
構成	-8.91544
内の	-8.91694
伊	-8.91701
秀	-8.91718
巻	-8.91753
れる	-8.91767
難	-8.918
球	-8.91826
張	-8.91908
to	-8.91943
一部	-8.91956
輪	-8.91998
it	-8.92074
ローマ	-8.92165
置	-8.92178
未	-8.92383
像	-8.92386
高い	-8.9244
国内	-8.92469
on	-8.92511
指	-8.92599
そう	-8.92687
引き	-8.9277
げ	-8.92824
必要	-8.92826
からは	-8.92885
などを	-8.92933
部隊	-8.92962
なり	-8.92986
以外	-8.9301
対応	-8.93198
自動車	-8.93237
2000	-8.93299
ふ	-8.93406
データ	-8.93421
テン	-8.93496
そのため	-8.93518
人が	-8.93535
政権	-8.93849
堂	-8.94037
コー	-8.94098
以下	-8.94124
へと	-8.94164
題	-8.94275
こともある	-8.94332
ほぼ	-8.94427
ガー	-8.94434
階	-8.94465
自然	-8.94489
演	-8.94508
酸	-8.94515
表現	-8.94568
2007	-8.94895
英語	-8.95184
六	-8.95265
センター	-8.95271
関連	-8.95308
当初	-8.95513
司	-8.95527
チャ	-8.95565
2006	-8.95626
状況	-8.95714
イタリア	-8.95787
科学	-8.95792
運	-8.96196
除	-8.96242
▁"	-8.96281
全体	-8.96445
便	-8.96516
補	-8.96535
定義	-8.96556
ウス	-8.96573
ジョ	-8.96654
の一つ	-8.96688
ノー	-8.96724
遠	-8.96733
大統領	-8.96773
れば	-8.96862
2008	-8.97151
夏	-8.97211
受	-8.97332
ラジオ	-8.9738
守	-8.97487
若	-8.97495
えた	-8.97528
採用	-8.97533
'	-8.97566
宇宙	-8.97629
ニュー	-8.97644
を受けた	-8.97737
技	-8.97829
域	-8.97868
形式	-8.98044
めた	-8.98059
したもの	-8.98113
期間	-8.98248
共	-8.9828
クリ	-8.98365
距離	-8.98372
日から	-8.98377
友	-8.98392
装置	-8.98492
分類	-8.98545
発展	-8.98548
坂	-8.98555
皇	-8.98611
ーズ	-8.98743
発見	-8.98776
乱	-8.98888
特急	-8.98974
われ	-8.99085
プラ	-8.99111
理由	-8.9921
らず	-8.99321
んで	-8.99331
間の	-8.99505
ピー	-8.99568
批判	-8.99569
多く	-8.99712
持	-8.9973
海軍	-8.9979
紀	-8.99845
38	-8.99879
現代	-8.99924
かけ	-8.99995
読	-9.00029
味	-9.00183
輸送	-9.00295
ta	-9.00313
トリ	-9.00373
ファン	-9.00448
様	-9.00693
ハン	-9.00741
のために	-9.00772
街	-9.0078
バン	-9.00883
整備	-9.00892
とき	-9.00983
36	-9.00987
ユ	-9.00989
2009	-9.01149
モデル	-9.0117
突	-9.01252
位置	-9.01255
レイ	-9.01368
ご	-9.01416
環境	-9.01417
林	-9.01479
を見	-9.01567
ッシュ	-9.01607
過	-9.0167
▁日本	-9.01752
de	-9.01795
マイ	-9.0183
ランド	-9.01889
自身	-9.01915
ri	-9.01952
ング	-9.02011
準	-9.02022
37	-9.02025
かつて	-9.02113
者は	-9.02114
工事	-9.02127
高速	-9.02153
を行った	-9.02163
夜	-9.02278
家の	-9.0232
農	-9.02345
望	-9.02359
エンジン	-9.02434
帰	-9.02471
浜	-9.02526
〜	-9.02641
2005	-9.02819
以外の	-9.03009
小説	-9.03119
であったが	-9.03207
意味	-9.03212
様々な	-9.03289
射	-9.03589
遺	-9.03642
帝	-9.03693
一方で	-9.03759
時点で	-9.0389
産業	-9.03905
超	-9.03962
オン	-9.03988
日には	-9.0405
基本	-9.04136
lo	-9.04185
優勝	-9.04195
39	-9.04458
スポーツ	-9.04579
時期	-9.04611
種類	-9.04696
例えば	-9.04775
32	-9.0483
na	-9.04858
中の	-9.04877
連合	-9.04899
月には	-9.05148
2011	-9.05199
大きく	-9.05213
me	-9.05215
密	-9.05291
適	-9.05363
翌	-9.05459
レス	-9.05659
ショ	-9.05759
▁この	-9.05936
予定	-9.05966
時代の	-9.06078
秋	-9.06207
上で	-9.06369
te	-9.06519
▁『	-9.06629
幅	-9.06679
スタ	-9.0669
ライン	-9.06697
国の	-9.06718
指定	-9.06731
予	-9.06753
であるが	-9.06843
覚	-9.0693
容	-9.06941
インド	-9.06958
トル	-9.07001
精	-9.07116
典	-9.07169
1990	-9.07354
消	-9.07356
ざ	-9.07362
記念	-9.07396
飛行	-9.07428
評	-9.07446
設計	-9.07459
所属	-9.0764
にかけて	-9.07713
アニメ	-9.07732
グラ	-9.07766
とし	-9.07802
経営	-9.07809
害	-9.07829
できない	-9.0791
ウェ	-9.07957
廃	-9.0799
完成	-9.08007
第一	-9.08078
ことがある	-9.08112
pa	-9.08148
妻	-9.08153
専用	-9.08171
2004	-9.0818
強い	-9.08314
戻	-9.08641
ネット	-9.08661
塩	-9.08679
2020	-9.08755
委員会	-9.08988
ビル	-9.09055
陣	-9.09182
するため	-9.09204
ce	-9.09235
クラ	-9.0932
百	-9.09406
地上	-9.09415
忠	-9.09421
漫画	-9.09449
登場	-9.09576
33	-9.09627
34	-9.09656
としている	-9.09698
工業	-9.09739
草	-9.09745
電子	-9.09808
郎	-9.09875
自ら	-9.09904
の影響	-9.09942
規模	-9.10072
年まで	-9.10185
cm	-9.10187
東京都	-9.10233
増加	-9.10257
営業	-9.10377
製作	-9.10397
シェ	-9.10453
副	-9.10489
開業	-9.10616
会議	-9.10624
景	-9.10806
シーズン	-9.10865
遊	-9.111
方向	-9.11156
公開	-9.11332
2012	-9.11446
を取り	-9.11563
講	-9.11633
導入	-9.11659
マル	-9.11796
さん	-9.11835
与	-9.11883
非常に	-9.11897
内に	-9.12014
ダイ	-9.12015
ジョン	-9.1202
国道	-9.12022
付近	-9.1208
ガン	-9.12226
殿	-9.12243
よく	-9.12289
になっている	-9.12324
45	-9.12352
拡大	-9.12372
北海道	-9.1246
500	-9.12472
単位	-9.12538
追	-9.12549
見られる	-9.12618
段	-9.12659
分け	-9.12748
倉	-9.12761
48	-9.12771
発生	-9.12774
仕	-9.12998
学生	-9.13013
まった	-9.13024
延	-9.13052
デザイン	-9.13165
行政	-9.1326
参	-9.13263
あり	-9.13391
行われた	-9.13413
酒	-9.13508
投	-9.13525
ダン	-9.13535
急行	-9.13538
ント	-9.13539
クロ	-9.13583
服	-9.13586
議	-9.13621
内で	-9.13694
形で	-9.13888
浦	-9.13941
もあり	-9.14015
訳	-9.14051
反対	-9.14068
発行	-9.14117
直接	-9.14121
搭載	-9.14127
森	-9.14178
影響	-9.14178
再び	-9.1419
以上の	-9.14226
サイ	-9.14295
が多く	-9.14304
果	-9.14336
給	-9.14351
始	-9.14356
▁歴史	-9.14392
終了	-9.14413
!	-9.14609
思	-9.14662
トロ	-9.14668
速度	-9.14745
肉	-9.1476
トラ	-9.1481
興	-9.14857
th	-9.14893
富	-9.14929
助	-9.14932
深	-9.14952
数は	-9.1497
動物	-9.15009
に伴い	-9.15034
湖	-9.15107
ヴァ	-9.15264
2010	-9.15271
出版	-9.15328
mo	-9.15547
樹	-9.15595
頼	-9.15698
続	-9.15701
mm	-9.15835
通常	-9.15864
周	-9.15913
芸	-9.15915
2015	-9.15947
算	-9.15984
ことは	-9.15996
条件	-9.16017
移動	-9.16039
納	-9.16047
合併	-9.16083
等の	-9.16139
統	-9.16145
盤	-9.16218
番号	-9.16262
標	-9.163
リスト	-9.16324
共同	-9.16331
せず	-9.16335
名古屋	-9.16389
デン	-9.16474
まる	-9.16522
2019	-9.16536
立て	-9.16541
時代に	-9.16635
までの	-9.16684
ジャー	-9.16891
キャラクター	-9.16922
+	-9.16942
初の	-9.17025
電気	-9.17091
or	-9.17177
ード	-9.17214
政策	-9.17221
名称	-9.17295
宝	-9.17396
ブラ	-9.17497
km	-9.17564
パン	-9.1771
切り	-9.17726
を参照	-9.17744
電車	-9.17744
→	-9.17748
セル	-9.1782
里	-9.17873
誌	-9.17946
賀	-9.18018
ヨ	-9.18088
もあった	-9.18204
郷	-9.18307
受け	-9.18512
備	-9.18585
クス	-9.18649
孫	-9.18666
ワー	-9.18684
場合は	-9.18799
[[	-9.18831
違い	-9.1896
ハー	-9.19076
跡	-9.19092
復	-9.19146
価	-9.19161
▁b	-9.19242
朝鮮	-9.19269
担当	-9.193
契約	-9.19309
行き	-9.19335
岸	-9.19368
幕	-9.19388
2022	-9.19458
の戦い	-9.19556
支援	-9.19561
宗教	-9.19603
寄	-9.19605
]]	-9.19633
1980	-9.19707
空港	-9.19718
▁of	-9.20017
人気	-9.20027
華	-9.20075
ようになった	-9.2008
2016	-9.20081
仮	-9.20227
2013	-9.20394
万人	-9.20412
まり	-9.20415
具	-9.20457
玉	-9.20461
os	-9.20462
のある	-9.2053
衆	-9.20558
当初は	-9.20697
2003	-9.207
注	-9.20775
続け	-9.20824
▁a	-9.20854
地球	-9.20877
効果	-9.20931
育	-9.20946
キー	-9.20978
立ち	-9.20985
によると	-9.21009
絶	-9.21038
念	-9.21067
したこと	-9.21074
時の	-9.21083
組み	-9.21204
欠	-9.21204
理論	-9.21226
確認	-9.21235
める	-9.21256
2014	-9.21271
の大	-9.21472
魚	-9.21504
していたが	-9.2151
通信	-9.21552
ca	-9.21578
歴史	-9.21698
ti	-9.21705
lt	-9.22198
飛	-9.2227
はない	-9.2233
総合	-9.22391
暦	-9.22393
運営	-9.22407
系統	-9.22445
瀬	-9.22499
打ち	-9.225
古代	-9.22512
配置	-9.22571
盛	-9.22634
最初の	-9.2265
銀	-9.22695
以後	-9.22701
作戦	-9.22747
全て	-9.22761
接続	-9.22804
九州	-9.22884
ウム	-9.22913
2018	-9.22914
中心	-9.2294
学者	-9.2294
と呼ぶ	-9.22974
宿	-9.23012
ユー	-9.23063
するために	-9.23096
余	-9.23096
戦後	-9.23121
入り	-9.23225
費	-9.23283
系の	-9.23304
団体	-9.23351
になり	-9.23425
甲	-9.23445
ステ	-9.23472
老	-9.23482
などに	-9.23511
によれば	-9.23525
2021	-9.23526
以来	-9.2357
公園	-9.2358
連続	-9.23592
新聞	-9.23615
記述	-9.2362
民族	-9.23655
込み	-9.23716
ing	-9.23862
系列	-9.23872
倍	-9.23882
出場	-9.23892
規定	-9.24075
成立	-9.2423
冷	-9.24252
と同じ	-9.24332
平均	-9.24335
漢	-9.24341
出し	-9.24341
能力	-9.24535
55	-9.24599
圏	-9.24637
勢力	-9.24759
文学	-9.2476
仏	-9.24815
航	-9.24887
最終	-9.24888
di	-9.24894
標準	-9.24998
こう	-9.25056
逆	-9.25066
貨物	-9.25068
専門	-9.25125
条約	-9.25126
ぼ	-9.25181
休	-9.25265
の一	-9.25504
問	-9.25505
際に	-9.25585
軍事	-9.25637
を受けて	-9.25642
を中心に	-9.25656
自分	-9.25754
湾	-9.2586
築	-9.25862
兼	-9.26105
チャー	-9.26133
弱	-9.26147
徒	-9.26201
提供	-9.26265
個人	-9.26294
過去	-9.26387
統一	-9.26442
制御	-9.26495
軍の	-9.26541
症	-9.26594
起こ	-9.26688
教会	-9.26708
中継	-9.26736
細	-9.26738
七	-9.26747
聞	-9.2683
月から	-9.269
gt	-9.26928
指摘	-9.27074
2017	-9.27111
協会	-9.27164
にあった	-9.27174
習	-9.27258
温	-9.27437
as	-9.2745
倒	-9.27493
ウィ	-9.27627
指揮	-9.27647
劇	-9.27651
▁18	-9.2766
現在は	-9.27681
骨	-9.27699
折	-9.27741
発表	-9.27864
クラブ	-9.27927
可能	-9.27997
済	-9.28023
おり	-9.28081
之	-9.28129
革命	-9.28134
保護	-9.28146
用の	-9.28241
ss	-9.2827
頃	-9.28332
書き	-9.28348
新幹線	-9.28385
片	-9.2852
改造	-9.28527
支持	-9.28573
阿	-9.28577
ヴ	-9.28628
介	-9.28636
護	-9.28687
ed	-9.28706
為	-9.28709
略	-9.28755
負	-9.28836
議員	-9.28862
臣	-9.29006
泉	-9.29061
著	-9.29091
想	-9.292
ことが多い	-9.29211
店舗	-9.29318
体制	-9.29335
展開	-9.29339
日本では	-9.29351
広島	-9.29359
閉	-9.29409
証	-9.29495
トー	-9.29558
出来	-9.29631
駅舎	-9.29634
説明	-9.29637
戦闘	-9.29657
sa	-9.29666
の間に	-9.29678
用いられる	-9.29707
一部の	-9.29729
初期	-9.29771
公式	-9.29819
セン	-9.29856
報告	-9.29886
ザー	-9.2993
試験	-9.29977
含まれ	-9.29998
勝利	-9.30034
出した	-9.30068
枠	-9.30196
アメリカ合衆国	-9.30228
乗り	-9.30305
幕府	-9.30357
までは	-9.30363
マス	-9.30577
コンピュータ	-9.30578
礼	-9.3058
市の	-9.30596
スタン	-9.30616
人々	-9.30645
el	-9.30654
枚	-9.30678
～	-9.3094
南部	-9.31007
激	-9.31061
されること	-9.31202
200	-9.31307
離	-9.31342
彼ら	-9.31343
生まれ	-9.31349
券	-9.31453
観光	-9.31454
の中	-9.31488
広く	-9.31521
被	-9.31546
58	-9.3159
かれ	-9.31601
したため	-9.31614
市内	-9.31752
普通	-9.31817
連邦	-9.3188
行為	-9.31917
1970	-9.31969
皇帝	-9.31987
形態	-9.32023
奪	-9.32033
情	-9.3211
47	-9.32138
栄	-9.32177
にとって	-9.322
祖	-9.32342
細胞	-9.32356
王国	-9.32395
ことになる	-9.32401
ol	-9.32466
将軍	-9.32511
を経て	-9.3264
救	-9.32734
co	-9.32745
洋	-9.32784
荷	-9.32848
減少	-9.32864
に出	-9.32868
no	-9.32896
両編成	-9.32978
最大	-9.33035
日本語	-9.33057
辞	-9.33155
呼び	-9.33252
流れ	-9.33408
定期	-9.33433
建築	-9.33475
房	-9.33534
mi	-9.33585
中で	-9.33668
製品	-9.33686
行動	-9.33714
業務	-9.33748
連絡	-9.33776
持ち	-9.33891
姿	-9.33982
ていない	-9.34069
横浜	-9.34155
没	-9.34187
アジア	-9.34226
詩	-9.34257
スク	-9.34271
近年	-9.34278
出身	-9.34279
霊	-9.34294
ソフト	-9.34314
換	-9.34319
まれ	-9.34347
目の	-9.34402
処理	-9.34418
2001	-9.34462
分野	-9.34496
ne	-9.34513
住民	-9.3455
ベース	-9.34579
わった	-9.34702
可	-9.3471
演奏	-9.34724
裏	-9.34758
2002	-9.3489
上に	-9.34935
が必要	-9.35087
大臣	-9.35213
油	-9.35252
クト	-9.35398
ニュース	-9.35435
側の	-9.35466
翼	-9.3549
ルド	-9.3551
照	-9.35514
少ない	-9.35558
言葉	-9.35579
多数	-9.35658
が行われた	-9.35786
結婚	-9.358
なら	-9.35802
苦	-9.35824
安定	-9.3598
重要な	-9.35992
ヶ	-9.3603
竹	-9.36045
待	-9.36071
するなど	-9.3611
幸	-9.36114
新しい	-9.36172
わり	-9.36187
艦隊	-9.36221
思想	-9.3623
されていない	-9.36339
企画	-9.36452
るため	-9.36572
彼	-9.36635
出す	-9.3678
雲	-9.3681
陽	-9.36814
ケット	-9.3683
成功	-9.36891
喜	-9.36927
名は	-9.36949
亜	-9.36973
以降は	-9.37006
原子	-9.37081
物語	-9.37126
実現	-9.37208
力を	-9.37223
ウル	-9.37262
の場合	-9.37301
ソ連	-9.3733
傾向	-9.3739
縁	-9.37512
因	-9.37519
関東	-9.3753
を行い	-9.37577
を指す	-9.37708
並	-9.37747
それを	-9.37884
フォ	-9.37924
普及	-9.37935
とされている	-9.37965
工場	-9.37965
雪	-9.38028
エネルギー	-9.38076
64	-9.38138
ガス	-9.38198
えて	-9.38204
すべて	-9.38289
am	-9.38384
生物	-9.38513
尊	-9.3855
メートル	-9.38616
大正	-9.38698
大陸	-9.3871
収録	-9.38745
ba	-9.388
歴	-9.38875
絵	-9.38904
68	-9.38963
聴	-9.38987
軌道	-9.38989
障害	-9.38995
扱い	-9.39046
になって	-9.39078
ho	-9.39099
活躍	-9.39144
このような	-9.39146
高校	-9.39157
アフリカ	-9.39214
原因	-9.39235
si	-9.3928
the	-9.39286
このため	-9.39309
写	-9.39424
タイプ	-9.39451
市場	-9.39505
子供	-9.39585
空間	-9.39691
ve	-9.39721
ur	-9.39774
以前	-9.39805
充	-9.39825
株式会社	-9.39845
紀元前	-9.39872
タイトル	-9.39884
就	-9.39926
デビュー	-9.40017
ュ	-9.40125
したり	-9.4017
スーパー	-9.40227
大型	-9.40228
たい	-9.40326
彼は	-9.4035
我	-9.40486
発着	-9.40504
てきた	-9.40506
タル	-9.40597
75	-9.40606
仁	-9.4061
スペイン	-9.40727
であること	-9.40759
化した	-9.40759
陸軍	-9.40768
貫	-9.4079
主な	-9.40791
いている	-9.4091
黄	-9.40932
採	-9.40975
誕生	-9.41053
野球	-9.4114
料理	-9.41154
次の	-9.41161
誤	-9.4119
精神	-9.41194
策	-9.41268
はこの	-9.41433
かな	-9.41496
テル	-9.41503
実験	-9.41526
and	-9.41543
化学	-9.41637
罪	-9.41659
振	-9.41671
ポン	-9.41719
警察	-9.4173
プレ	-9.41735
東日本	-9.41739
江戸	-9.41768
国鉄	-9.41796
ペン	-9.41798
78	-9.41966
韓国	-9.42014
することが	-9.42099
リオ	-9.42118
雨	-9.4212
弁	-9.42131
法律	-9.42195
ていたが	-9.42218
第二	-9.42395
なか	-9.42523
競技	-9.42534
だと	-9.42577
鶴	-9.42724
概念	-9.42731
一人	-9.42825
いずれも	-9.42839
57	-9.42986
作家	-9.43004
da	-9.43018
89	-9.43056
フル	-9.43107
そのまま	-9.43152
▁g	-9.43161
散	-9.43162
共和国	-9.4318
継	-9.43181
bs	-9.43238
らない	-9.43319
登	-9.43336
毛	-9.43351
軸	-9.43443
後は	-9.43484
前の	-9.43578
九	-9.43741
自体	-9.43774
基準	-9.43785
▁p	-9.43786
していない	-9.43837
近代	-9.43866
脱	-9.43878
神戸	-9.43968
vi	-9.44013
可能性	-9.44109
旗	-9.44115
ヴェ	-9.4413
」、「	-9.44154
彼の	-9.44215
印	-9.44217
筆	-9.443
ジャン	-9.4435
44	-9.4436
ビア	-9.4443
計算	-9.4448
99	-9.44481
香	-9.44505
することで	-9.44527
59	-9.44641
98	-9.44663
奥	-9.4467
いう	-9.4492
太郎	-9.44967
65	-9.45012
地に	-9.4507
制限	-9.45097
49	-9.45168
っており	-9.45197
シア	-9.45198
詞	-9.45246
対立	-9.4532
を示す	-9.45443
塚	-9.4547
ティー	-9.45526
88	-9.4568
専	-9.45684
茶	-9.4571
側に	-9.45732
統合	-9.45742
これら	-9.45788
モー	-9.45936
弟	-9.45994
メンバー	-9.46008
ほ	-9.46041
児	-9.46052
少年	-9.46061
』『	-9.46078
完全	-9.46084
快速	-9.46088
狭	-9.46091
レース	-9.46106
植物	-9.46167
ゾ	-9.46173
窓	-9.46206
ha	-9.46247
のもの	-9.46249
憲法	-9.46271
ボー	-9.46323
あった	-9.46336
ても	-9.46427
固	-9.46451
300	-9.46471
地下	-9.46491
億	-9.46545
それら	-9.46629
北部	-9.46684
が存在する	-9.46693
連載	-9.46823
86	-9.46849
共通	-9.46945
境	-9.47023
龍	-9.47028
滅	-9.4704
イル	-9.47066
ia	-9.4708
ようになり	-9.4712
替え	-9.472
掲載	-9.47244
46	-9.47252
近く	-9.47303
ファー	-9.4736
メディア	-9.47368
舞台	-9.47414
壁	-9.4743
反応	-9.47449
▁f	-9.47449
改正	-9.47557
設立	-9.47583
主張	-9.47589
協力	-9.47713
合わせ	-9.47716
かつ	-9.47816
複	-9.47907
銃	-9.48002
メン	-9.48042
事故	-9.48104
いい	-9.48154
商品	-9.48165
amp	-9.48186
交換	-9.48231
招	-9.48235
後述	-9.48269
nhk	-9.48339
内閣	-9.48352
巡	-9.48366
東北	-9.48461
死去	-9.48563
娘	-9.48589
56	-9.48603
キリスト教	-9.48655
サッカー	-9.48685
エー	-9.48749
-1	-9.4879
相手	-9.4884
もので	-9.48842
掛け	-9.48899
メーカー	-9.48907
et	-9.48914
経験	-9.49036
認められ	-9.49039
79	-9.49071
綱	-9.49088
▁しかし	-9.49228
通過	-9.49262
だったが	-9.49268
探	-9.49285
54	-9.49504
安全	-9.49518
程	-9.49548
q	-9.49561
仕事	-9.49572
はその	-9.49623
ます	-9.4968
子の	-9.49785
ac	-9.49796
リス	-9.49844
襲	-9.499
登録	-9.49991
87	-9.50001
市民	-9.50008
バンド	-9.50056
67	-9.50097
混	-9.50098
要素	-9.50105
西部	-9.50105
重要	-9.50148
願	-9.502
法人	-9.50269
併	-9.50331
魔	-9.50394
庫	-9.50395
禁止	-9.50418
をもって	-9.50597
去	-9.50693
処	-9.50711
候補	-9.50726
ベン	-9.5076
判	-9.50852
撮影	-9.50854
紹介	-9.50854
のこと	-9.50948
自動	-9.5099
どう	-9.51065
厳	-9.51195
辺	-9.51299
同時に	-9.51455
区別	-9.51508
69	-9.51682
こうした	-9.51709
性を	-9.51716
ナル	-9.51735
これに	-9.51748
bo	-9.51763
85	-9.51793
することを	-9.51836
最後の	-9.51898
77	-9.51903
名を	-9.52038
べき	-9.52065
似	-9.52214
旅客	-9.52303
ょ	-9.52338
砂	-9.52383
労働	-9.52415
ter	-9.52443
が出	-9.52505
43	-9.52507
刊	-9.52691
緑	-9.52804
排	-9.52858
トゥ	-9.52953
においても	-9.53014
日まで	-9.53025
フラ	-9.53091
数の	-9.53205
態	-9.53292
万円	-9.53293
フォー	-9.53366
ロック	-9.53388
かつては	-9.5339
1999	-9.53483
半島	-9.53502
1,	-9.53533
微	-9.53545
決め	-9.53565
しようと	-9.53587
宇	-9.53683
同盟	-9.53722
沼	-9.53752
陰	-9.53848
それまで	-9.53851
としても	-9.53922
衛	-9.53958
パイ	-9.53962
ラス	-9.53996
ダム	-9.54017
1960	-9.54085
かり	-9.54088
つけ	-9.54149
ブリ	-9.54151
抗	-9.54191
隆	-9.54208
一覧	-9.54223
ナイ	-9.54258
財	-9.54369
ようになる	-9.54394
以	-9.54421
向上	-9.54454
が行われ	-9.54526
ことも	-9.54769
麻	-9.54794
鉱	-9.54832
用語	-9.5486
範囲	-9.54921
江戸時代	-9.54956
コード	-9.55045
使われる	-9.55113
人は	-9.5513
商業	-9.55181
金属	-9.55313
となっていた	-9.55342
第三	-9.55461
溶	-9.55476
首相	-9.55522
描	-9.55579
下り	-9.5566
ad	-9.55706
土地	-9.55708
フリー	-9.55764
派の	-9.55784
報道	-9.55793
改革	-9.55932
物質	-9.55972
可能な	-9.5598
推	-9.56016
呼称	-9.56044
ドラマ	-9.56126
自身の	-9.5619
デー	-9.56195
映像	-9.56273
脳	-9.5628
読み	-9.5629
アルバム	-9.56295
筋	-9.56337
番線	-9.56342
抜	-9.56366
一時	-9.56456
阪神	-9.56521
ける	-9.56523
同一	-9.56541
あまり	-9.56567
信号	-9.56583
マーク	-9.56647
▁d	-9.56668
これが	-9.56681
網	-9.56692
内部	-9.56743
冬	-9.56828
元年	-9.56837
慶	-9.56846
奉	-9.56863
ウン	-9.56882
台湾	-9.56942
のほか	-9.5695
概	-9.56966
旅	-9.56974
性能	-9.57006
クション	-9.57019
哲学	-9.57046
封	-9.57119
曜日	-9.57191
磁	-9.57195
池	-9.57246
雑誌	-9.57267
ーション	-9.57306
部の	-9.57328
機構	-9.57353
がない	-9.57457
戦で	-9.5749
学部	-9.57492
複数の	-9.57511
冠	-9.57649
違	-9.57695
ni	-9.57796
務め	-9.58053
ドリ	-9.58163
疑	-9.58171
76	-9.58175
ジー	-9.58194
機器	-9.58262
途中	-9.58295
背	-9.58315
性の	-9.58346
記載	-9.58373
結成	-9.58376
スキー	-9.58428
段階	-9.58436
do	-9.58508
仕様	-9.58519
簡	-9.58727
を担当	-9.58792
床	-9.58804
諸国	-9.58836
せる	-9.58845
成長	-9.58889
駅前	-9.58915
卒業	-9.58942
設	-9.58943
幼	-9.58962
”	-9.59064
被害	-9.59093
の間	-9.59094
教授	-9.59117
になると	-9.59127
られていた	-9.59139
知られる	-9.59237
の間で	-9.59246
いわゆる	-9.59472
んでいる	-9.59488
ミュ	-9.59516
でき	-9.59547
強く	-9.59575
者を	-9.59659
フレ	-9.59688
95	-9.5969
焼	-9.59701
1998	-9.59743
記事	-9.59773
太陽	-9.59778
置かれ	-9.59892
66	-9.599
地の	-9.59944
比較的	-9.6008
ここで	-9.60092
実際	-9.60139
導	-9.60167
トップ	-9.60187
アップ	-9.60195
巨	-9.60445
と呼ばれ	-9.60504
困難	-9.60505
ライブ	-9.60519
設備	-9.60541
ボール	-9.60542
高く	-9.60641
su	-9.60645
判断	-9.60739
なっている	-9.60767
限り	-9.60784
許	-9.60804
")	-9.60824
臨時	-9.60842
対策	-9.60859
番台	-9.60939
破壊	-9.60942
男性	-9.60951
初代	-9.61073
要求	-9.61131
唱	-9.61163
原則	-9.6126
討	-9.61391
42	-9.61402
パリ	-9.61421
傷	-9.61436
動き	-9.61457
東部	-9.61467
かい	-9.61472
ナン	-9.61487
健	-9.61519
多い	-9.61531
に対応	-9.61626
宣言	-9.61677
しばしば	-9.61703
もう	-9.61771
ぜ	-9.61793
グル	-9.61822
たが	-9.61863
存	-9.61892
件	-9.61908
曜	-9.61956
チョ	-9.61966
▁e	-9.61975
合い	-9.62051
至	-9.6214
本来	-9.62179
飲	-9.62195
まず	-9.62204
を持ち	-9.6221
のための	-9.62229
ドラ	-9.62229
えき	-9.62233
写真	-9.62256
97	-9.62339
編集	-9.62341
関西	-9.6235
富士	-9.62356
氏の	-9.62382
1997	-9.62416
装備	-9.62422
避	-9.62492
電鉄	-9.62495
神社	-9.62497
主要	-9.62535
高等学校	-9.6254
コース	-9.6254
第二次世界大戦	-9.62558
移行	-9.62565
静	-9.62676
索	-9.6277
隠	-9.62801
基地	-9.62837
ルート	-9.63034
に入	-9.63063
ていなかった	-9.63084
メイン	-9.63162
文書	-9.63187
経由	-9.63219
捕	-9.63282
幹	-9.63417
まだ	-9.6344
フラン	-9.63499
ここ	-9.63506
禁	-9.63521
96	-9.63566
されたが	-9.63633
ッツ	-9.63685
時には	-9.63711
剤	-9.63725
牧	-9.63755
芸術	-9.63765
派遣	-9.63815
選択	-9.63893
意見	-9.6393
he	-9.63954
確保	-9.6404
基本的に	-9.64187
を開始した	-9.6423
底	-9.64244
還	-9.64265
ポリ	-9.64278
の中心	-9.64287
夕	-9.64337
チン	-9.64366
関数	-9.64379
奏	-9.64445
を受ける	-9.64456
譲	-9.64489
ディー	-9.64501
アラ	-9.64513
付き	-9.64557
63	-9.64563
上り	-9.64649
指導	-9.64672
エス	-9.647
恵	-9.64738
なった	-9.64747
すなわち	-9.64814
存在する	-9.64818
拠点	-9.64838
住宅	-9.64845
づ	-9.64881
審	-9.64903
va	-9.6491
翌年	-9.64946
一般に	-9.64958
ge	-9.64958
俗	-9.64982
彦	-9.64999
海外	-9.65001
ボル	-9.65049
▁the	-9.65073
稲	-9.65092
フォン	-9.651
前後	-9.651
購入	-9.65113
制定	-9.65133
ms	-9.65196
福岡	-9.65242
整	-9.65302
タイム	-9.65313
グリ	-9.65343
ものが	-9.65366
デジタル	-9.654
されていたが	-9.65421
53	-9.65436
刑	-9.65478
雷	-9.6551
ワン	-9.65531
作業	-9.65595
あたり	-9.65625
列車が	-9.65675
新たな	-9.65724
作り	-9.6574
もしくは	-9.65744
賛	-9.65744
代目	-9.65794
まま	-9.65814
観測	-9.65832
車体	-9.65938
せん	-9.65977
厚	-9.65978
爵	-9.66018
全ての	-9.66051
2023	-9.66126
顔	-9.66149
牛	-9.66195
弘	-9.66195
um	-9.66197
集団	-9.66203
移転	-9.66283
維持	-9.66346
復活	-9.66416
てしまう	-9.6642
#	-9.66429
耐	-9.66446
唐	-9.66464
so	-9.6651
に変更	-9.66516
にあたる	-9.66556
作成	-9.66593
イオン	-9.66663
po	-9.66696
cd	-9.66756
領域	-9.66783
乗り入れ	-9.66785
善	-9.66813
臨	-9.66882
ネル	-9.66921
迫	-9.66932
そこで	-9.66974
参照	-9.67016
ション	-9.67068
分離	-9.67111
イメージ	-9.67124
迎え	-9.67149
継承	-9.67189
認	-9.67242
62	-9.67258
プレー	-9.67289
の中に	-9.67306
闘	-9.67328
交流	-9.67389
意識	-9.67398
ii	-9.67457
オス	-9.67499
家族	-9.67501
大量	-9.67527
兄	-9.67591
です	-9.67593
現象	-9.67656
ニング	-9.67712
君	-9.67793
矢	-9.67914
的には	-9.67975
剣	-9.67993
規格	-9.68017
“	-9.68072
劇場	-9.68135
間に	-9.68145
進出	-9.6816
▁w	-9.68194
ga	-9.68218
タウン	-9.68236
ラル	-9.68276
不明	-9.68298
イベント	-9.68328
漁	-9.68408
立場	-9.68411
駅で	-9.68431
継続	-9.68502
ぬ	-9.68599
デル	-9.68606
寄り	-9.68717
長い	-9.68719
世の	-9.68824
しなかった	-9.6892
直後	-9.68923
強化	-9.68944
改札	-9.68947
認識	-9.69005
ボン	-9.69051
生まれた	-9.69123
1996	-9.69184
ドア	-9.69213
別の	-9.69251
クル	-9.69278
国立	-9.69339
ph	-9.69403
伯	-9.6942
un	-9.6944
儀	-9.69574
ライト	-9.69575
資	-9.69616
最大の	-9.69639
展	-9.69658
完	-9.6966
メント	-9.6966
ホー	-9.69696
考	-9.6974
米国	-9.69815
74	-9.69876
bc	-9.69904
直通	-9.69942
益	-9.69967
なくなった	-9.70007
ir	-9.70013
自分の	-9.70042
名前	-9.70166
検討	-9.70194
トンネル	-9.70217
ものは	-9.7024
行う	-9.70306
舎	-9.70307
を与え	-9.70308
炭	-9.7031
部門	-9.704
鹿	-9.70407
52	-9.70419
梅	-9.70459
創	-9.70462
独	-9.7049
するもの	-9.70509
限定	-9.70554
結合	-9.70557
と考えられている	-9.70577
権を	-9.70583
を行っている	-9.70584
エリア	-9.70586
までに	-9.70631
行われ	-9.70634
消費	-9.70704
の第	-9.70743
思い	-9.70769
に近い	-9.7077
加盟	-9.70788
首都	-9.70817
塔	-9.70851
少なく	-9.70883
エア	-9.70924
追加	-9.70966
植	-9.70968
やすい	-9.70989
引退	-9.71016
分子	-9.7103
液	-9.71037
ことができる	-9.71041
ns	-9.71074
を結ぶ	-9.71079
始めた	-9.71079
スカ	-9.71124
ファイ	-9.71125
ノン	-9.71128
ケー	-9.71201
性が	-9.71223
ておらず	-9.71232
模	-9.71263
舞	-9.71276
年代に	-9.71292
停	-9.71294
笑	-9.7149
ation	-9.71497
追い	-9.71539
名の	-9.7155
つく	-9.71577
価格	-9.71613
爆	-9.71631
▁その後	-9.71711
西日本	-9.71797
pc	-9.71838
施	-9.71897
il	-9.7194
那	-9.71969
敬	-9.72084
でもある	-9.72112
刻	-9.7215
日本人	-9.72177
してきた	-9.72197
合わせて	-9.72235
由来	-9.7225
ビン	-9.72281
ドゥ	-9.72299
背景	-9.72363
軍は	-9.72412
陥	-9.72417
言われ	-9.72428
施行	-9.7243
を除く	-9.72455
▁km	-9.7252
らい	-9.72529
だけで	-9.72582
延長	-9.72606
1995	-9.7261
荒	-9.72701
競馬	-9.72711
方針	-9.72744
プリ	-9.72747
沖縄	-9.7275
答	-9.72766
医療	-9.72774
他に	-9.72788
囲	-9.72863
分割	-9.72877
の研究	-9.72898
露	-9.72899
警	-9.72931
行われる	-9.72962
するという	-9.72981
セット	-9.73025
ギャ	-9.73033
移籍	-9.73108
ことに	-9.73118
51	-9.73135
毒	-9.73184
数が	-9.73187
性質	-9.73202
機械	-9.73216
ヴォ	-9.7322
を有する	-9.73227
徳川	-9.73237
を開始	-9.73254
クラス	-9.73276
らせ	-9.73331
ダル	-9.73341
ミン	-9.7335
然	-9.73357
▁co	-9.7339
ゲル	-9.73435
担	-9.73451
無い	-9.73453
にあり	-9.73463
これにより	-9.73481
宣	-9.73541
憲	-9.73721
適用	-9.73728
ci	-9.7379
特殊	-9.73808
すれば	-9.73817
所有	-9.73843
前述の	-9.73905
集合	-9.73941
1994	-9.73984
柄	-9.73991
るようになった	-9.74038
度の	-9.74088
ig	-9.74091
互	-9.74117
化された	-9.74142
協	-9.74187
となって	-9.74247
復帰	-9.7425
を意味する	-9.74255
の歴史	-9.74272
攻	-9.74273
カラー	-9.74305
改良	-9.74344
パル	-9.74541
が設置され	-9.74594
墓	-9.74638
ゲー	-9.74692
続く	-9.74795
メイ	-9.74795
茂	-9.74925
歯	-9.74977
fa	-9.74987
律	-9.74992
刀	-9.74997
アレ	-9.74997
低い	-9.75072
活	-9.75147
停止	-9.75152
沈	-9.75198
既に	-9.75212
解釈	-9.75291
南北	-9.75293
奇	-9.75301
プログラム	-9.75326
毎	-9.75361
硬	-9.75421
否定	-9.75476
ex	-9.75508
取引	-9.75511
にして	-9.75514
ps	-9.75573
智	-9.75578
面積	-9.75585
亡	-9.75589
電話	-9.75601
地元	-9.75654
命令	-9.75695
区分	-9.75737
1991	-9.75835
保存	-9.75917
バック	-9.75964
84	-9.76009
キング	-9.76038
径	-9.7604
ワイ	-9.76064
掘	-9.76108
1000	-9.76207
病院	-9.76214
康	-9.76281
博	-9.7638
戦車	-9.76427
億円	-9.76514
回転	-9.76515
線と	-9.76573
伝統	-9.76618
飯	-9.76716
場合もある	-9.76781
提案	-9.76827
湯	-9.76853
犯	-9.76896
カラ	-9.76954
発電	-9.77009
皮	-9.77029
規制	-9.77067
生き	-9.77113
大きい	-9.77243
アク	-9.77271
作曲	-9.77409
ブランド	-9.77467
リック	-9.77479
駅から	-9.77485
1992	-9.77487
を通じて	-9.77494
ラム	-9.77518
すこと	-9.77619
新たに	-9.77631
事業者	-9.77656
挙	-9.7771
41	-9.77738
防衛	-9.77781
ごとに	-9.77788
当て	-9.77841
乳	-9.77921
統治	-9.77937
トラン	-9.77977
竜	-9.78078
役割	-9.7808
責任	-9.78086
初期の	-9.78088
▁in	-9.78098
死亡	-9.7816
tr	-9.78314
同様	-9.78329
解説	-9.78331
架	-9.78347
寿	-9.78361
使われ	-9.78362
0%	-9.7838
彼女	-9.78412
ケン	-9.78444
機体	-9.78451
令和	-9.78502
▁h	-9.7851
アメリカの	-9.78584
することができる	-9.78596
種の	-9.78627
崩壊	-9.78715
と同	-9.78731
芝	-9.78766
従来の	-9.78871
受賞	-9.78873
本部	-9.78898
刊行	-9.78907
貴	-9.78957
1989	-9.78972
に位置する	-9.78979
知られている	-9.7898
須	-9.7905
ゲン	-9.79051
型の	-9.7907
察	-9.79096
ck	-9.79125
▁駅構造	-9.79221
を用いて	-9.79234
ケース	-9.79284
理解	-9.79287
識	-9.79302
とり	-9.79306
稿	-9.79317
全く	-9.79328
裁判	-9.79355
キン	-9.7937
ることができる	-9.79444
go	-9.79494
社長	-9.79537
ka	-9.79545
民間	-9.79602
通称	-9.79609
姓	-9.79747
騎	-9.7976
仲	-9.79804
操作	-9.79847
を使用し	-9.79902
の名称	-9.79937
駐	-9.7996
クター	-9.79977
を得	-9.79991
空気	-9.80062
wa	-9.80168
借	-9.80176
鎌倉	-9.80179
シャー	-9.80181
本社	-9.80209
固定	-9.80274
気候	-9.80321
しても	-9.80349
丹	-9.8036
以降の	-9.80391
▁de	-9.8043
仏教	-9.80434
建物	-9.80588
アス	-9.80616
出力	-9.80692
最終的に	-9.80757
1993	-9.80866
西武	-9.80913
などがある	-9.80944
感じ	-9.80955
確	-9.8099
を求め	-9.81023
ミニ	-9.81023
2,	-9.81024
働	-9.81033
ec	-9.81055
拝	-9.81081
作用	-9.81106
息子	-9.81136
使い	-9.81199
金融	-9.812
募	-9.81204
豪	-9.81207
釈	-9.81218
スタジオ	-9.81278
トレ	-9.81284
ロード	-9.81284
ユダヤ人	-9.81301
ということ	-9.81311
濃	-9.8132
料金	-9.81335
であるため	-9.81365
奈良	-9.81379
ソー	-9.81394
なければならない	-9.8141
誘	-9.81453
過ぎ	-9.81474
バッ	-9.81476
現在では	-9.81484
資料	-9.81495
〉	-9.81497
ものと	-9.81508
〈	-9.81534
撤退	-9.81561
呼	-9.81602
止	-9.8161
分の	-9.81617
替	-9.81625
発売された	-9.81662
完全に	-9.81683
id	-9.81728
達成	-9.81788
発生した	-9.81791
確立	-9.81793
桜	-9.81844
供	-9.81859
抵抗	-9.81861
西洋	-9.8187
sc	-9.81885
んでいた	-9.81909
テーマ	-9.81915
東海	-9.81917
ごろ	-9.81922
供給	-9.81968
競走	-9.81973
鎮	-9.81989
開通	-9.82023
線が	-9.82067
94	-9.82105
加えて	-9.82113
則	-9.82122
に関しては	-9.82124
伝え	-9.82174
ver	-9.82177
統計	-9.82184
を引き	-9.8223
使用される	-9.82251
低下	-9.82292
年以降	-9.82304
61	-9.82306
ピン	-9.82323
ネー	-9.8233
パラ	-9.82385
訪れ	-9.82446
卵	-9.82466
sp	-9.82466
束	-9.82494
効	-9.82692
相互	-9.82711
テー	-9.82714
存在した	-9.8275
隻	-9.82779
たり	-9.82846
当時は	-9.82854
クレ	-9.82913
各国	-9.82969
形成	-9.83055
丘	-9.83056
イー	-9.83066
再開	-9.83119
純	-9.83152
危険	-9.83186
実行	-9.83284
込む	-9.83292
衣	-9.83317
交渉	-9.83353
機の	-9.83437
家庭	-9.8344
つまり	-9.83486
なければ	-9.83517
こともあり	-9.83529
be	-9.83673
必要がある	-9.83694
つか	-9.83755
兵器	-9.83764
われた	-9.83789
▁v	-9.83798
脚	-9.83815
実際に	-9.83843
免	-9.84009
及	-9.8403
可能である	-9.84151
を発表	-9.84185
コロ	-9.84185
東西	-9.84192
災	-9.84215
浮	-9.8423
研究所	-9.8424
も多い	-9.84249
だけでなく	-9.84277
...	-9.84289
op	-9.84294
伊勢	-9.84304
楽器	-9.84383
貞	-9.84398
姫	-9.84417
駒	-9.84417
治療	-9.84488
寛	-9.84493
続いて	-9.84522
カリ	-9.84558
酸化	-9.84564
眼	-9.84566
ただ	-9.84577
労	-9.84598
とされ	-9.84618
暴	-9.84626
が可能	-9.84642
ケル	-9.84669
羅	-9.84682
)3	-9.84688
括	-9.84698
ガンダム	-9.84749
ろう	-9.8475
ブレ	-9.84792
会長	-9.84817
録	-9.84842
ネットワーク	-9.84865
鏡	-9.84905
世代	-9.84939
貴族	-9.84949
平日	-9.84949
ゅ	-9.84976
込まれ	-9.84985
小型	-9.84988
言い	-9.84998
独自の	-9.85013
農業	-9.8505
の場合は	-9.85084
形状	-9.85132
挙げ	-9.85139
占領	-9.85154
を務めた	-9.85177
わけ	-9.85196
輝	-9.85244
と同様に	-9.85248
失敗	-9.85257
とその	-9.85277
西側	-9.8531
更新	-9.85328
合成	-9.85336
後も	-9.85344
を認め	-9.85357
糖	-9.85359
レオ	-9.85473
球場	-9.8548
この時	-9.85505
600	-9.85521
pu	-9.8558
すべての	-9.85584
却	-9.8561
ng	-9.85612
更に	-9.8562
損	-9.85644
千葉	-9.85693
改善	-9.85751
落ち	-9.8578
革	-9.85787
400	-9.85807
ポー	-9.85812
地帯	-9.85813
一般的に	-9.85835
競	-9.85878
裁判所	-9.85878
ジン	-9.85929
途	-9.85949
発足	-9.85954
洗	-9.86004
ドー	-9.86016
肥	-9.86062
創設	-9.86144
試	-9.86146
不足	-9.86199
山口	-9.8621
球団	-9.86228
いった	-9.86322
発言	-9.86338
決勝	-9.86339
者として	-9.86469
仙台	-9.86515
障	-9.86523
灯	-9.86615
薄	-9.86674
つき	-9.86714
栽培	-9.8673
温泉	-9.86747
com	-9.86762
侵攻	-9.86787
岡山	-9.86807
上記の	-9.86816
ゴール	-9.86821
小学校	-9.86896
についても	-9.8693
ギリシア	-9.87018
占め	-9.87114
▁※	-9.87244
医	-9.87275
季	-9.87285
議論	-9.87394
多数の	-9.87475
ころ	-9.87523
ことにより	-9.87584
なども	-9.87587
亀	-9.87619
談	-9.87655
資金	-9.87685
史上	-9.8769
名が	-9.87701
のち	-9.87859
推進	-9.8787
案内	-9.87895
宅	-9.87917
サル	-9.87922
脂	-9.87967
ul	-9.88032
ヒット	-9.88048
範	-9.88076
ティング	-9.88086
線路	-9.88093
投入	-9.8813
1988	-9.88168
岳	-9.8818
ものを	-9.88195
年頃	-9.88256
ブルー	-9.88281
盛ん	-9.88289
医学	-9.88345
開設	-9.88373
毎年	-9.88387
銅	-9.88474
後継	-9.88536
ほう	-9.88541
執	-9.88572
チュ	-9.88623
式の	-9.88638
その他の	-9.88739
手法	-9.88752
委員	-9.88789
発達	-9.88822
保険	-9.88865
を表す	-9.88872
包	-9.88897
晴	-9.88942
コーナー	-9.88967
しながら	-9.88992
致	-9.89006
有効	-9.89008
秒	-9.89061
スティ	-9.89068
は以下の通り	-9.89101
ともに	-9.89102
となっており	-9.89133
ルイ	-9.89237
アリ	-9.89245
ブルク	-9.89251
配信	-9.89407
海岸	-9.8943
と同様	-9.89455
証明	-9.89468
価値	-9.89487
資本	-9.8953
ものであった	-9.89553
ショー	-9.89617
するための	-9.89648
次いで	-9.89674
生涯	-9.8971
葬	-9.89724
単に	-9.89787
1950	-9.89792
続き	-9.89798
新宿	-9.89815
拠	-9.89829
振り	-9.89838
玄	-9.8985
放送された	-9.89878
スは	-9.8988
後期	-9.89895
貨	-9.89896
に基づく	-9.89967
転換	-9.90009
兄弟	-9.90133
それに	-9.90136
周年	-9.90152
構	-9.90161
逆に	-9.90182
オリ	-9.90213
拡張	-9.90232
hi	-9.9024
▁利用状況	-9.90246
鳴	-9.90247
カイ	-9.90297
虫	-9.90306
ブレーキ	-9.90306
ロス	-9.90327
頂	-9.90385
ミー	-9.90414
中学校	-9.90481
レーション	-9.90512
ロンドン	-9.90536
オル	-9.9059
温度	-9.90618
電力	-9.90624
中世	-9.90699
ニック	-9.90707
基礎	-9.90746
貸	-9.90764
レベル	-9.90823
大和	-9.90839
走行	-9.90842
地下鉄	-9.90878
潮	-9.90884
有名	-9.90933
分布	-9.90949
ヘル	-9.90976
払	-9.91107
セイ	-9.91136
1985	-9.91145
わずか	-9.9122
外国	-9.91237
炎	-9.91245
離れ	-9.91248
事実上	-9.91257
日本で	-9.91275
できた	-9.91319
に由来する	-9.91396
いく	-9.91424
信仰	-9.91476
始まった	-9.91528
氷	-9.91547
のちに	-9.91597
fi	-9.91602
nt	-9.91616
政党	-9.9163
中間	-9.91668
1987	-9.91709
構想	-9.9171
平和	-9.91861
権利	-9.91872
アム	-9.91891
と述べている	-9.91909
同じく	-9.91914
けた	-9.91933
tbs	-9.91936
fr	-9.91951
事務所	-9.91984
消滅	-9.91986
婚	-9.92083
ビデオ	-9.92098
自治体	-9.92316
止め	-9.92405
800	-9.92415
形の	-9.92416
のもと	-9.92452
リリース	-9.92579
到着	-9.92591
演じ	-9.9268
原作	-9.92693
記号	-9.9275
アナウンサー	-9.9276
ニューヨーク	-9.92781
感染	-9.92834
課	-9.92929
犬	-9.93027
複数	-9.93048
オリンピック	-9.93087
夢	-9.93088
くなる	-9.93103
注意	-9.93122
パート	-9.93169
ときに	-9.93233
近鉄	-9.93284
ベー	-9.93299
ーター	-9.93313
込んだ	-9.93386
すでに	-9.93396
きっかけ	-9.93413
漢字	-9.93463
プル	-9.9352
投票	-9.93569
往復	-9.93605
女子	-9.93616
いくつかの	-9.93636
組み合わせ	-9.9366
▁大	-9.93661
特定	-9.93683
集中	-9.93741
諸島	-9.93758
ドン	-9.9378
単独	-9.93807
▁st	-9.93822
キハ	-9.93897
場合には	-9.93901
する場合	-9.93917
人を	-9.93976
一度	-9.94002
祝	-9.94032
成績	-9.94036
今日	-9.9407
フジテレビ	-9.94072
浅	-9.94126
ザン	-9.94184
故	-9.94295
はなく	-9.94297
事実	-9.94313
formula	-9.94348
高架	-9.94358
検査	-9.94396
イングランド	-9.94404
堀	-9.94405
を集め	-9.94455
信長	-9.94457
ke	-9.9446
新潟	-9.94492
欧州	-9.94573
すべき	-9.94628
比較	-9.94693
柱	-9.94697
かれた	-9.94736
1986	-9.94766
自動車道	-9.94768
慣	-9.9479
を進め	-9.94805
結び	-9.94852
とされた	-9.94896
本作	-9.94976
必要な	-9.9506
インターネット	-9.95108
地震	-9.95153
まとめ	-9.9519
それは	-9.95199
ぶり	-9.95217
シングル	-9.95279
進行	-9.95286
争	-9.95287
分析	-9.95287
新設	-9.95295
毎日	-9.95298
プロジェクト	-9.95363
中止	-9.95394
が高い	-9.95408
停車	-9.95507
押し	-9.95516
準備	-9.95575
オープン	-9.95656
なし	-9.95659
▁t	-9.9567
自己	-9.95685
経緯	-9.95704
美術	-9.95783
踏	-9.95819
植民地	-9.95821
田駅	-9.95822
旨	-9.95824
を見せ	-9.95888
自治	-9.95898
のか	-9.9594
ポイント	-9.95992
日より	-9.95996
の際に	-9.96046
序	-9.96075
を獲得	-9.96112
行った	-9.96115
譜	-9.96119
生成	-9.96177
同社	-9.96208
らなかった	-9.96212
札幌	-9.96225
ru	-9.96349
長期	-9.96368
晩	-9.96372
たもの	-9.96464
組合	-9.96477
ョ	-9.96502
表面	-9.96517
粉	-9.9652
の開発	-9.96592
オランダ	-9.96602
さまざまな	-9.96603
に就任	-9.96608
変換	-9.96623
pe	-9.96641
権力	-9.96661
ソフトウェア	-9.96711
飾	-9.96716
なもの	-9.96726
影響を与え	-9.96761
が設置されている	-9.9679
本人	-9.96805
天文	-9.96849
李	-9.9686
その他	-9.96863
レコード	-9.96882
の存在	-9.96896
を用いる	-9.96919
tion	-9.96981
も多く	-9.97003
調整	-9.97023
燃料	-9.97039
際には	-9.97079
の名前	-9.97144
乗車	-9.97198
▁その他	-9.97202
獲得	-9.97228
売り	-9.97323
衛星	-9.97364
主人公	-9.97391
唯一の	-9.97415
頃から	-9.9742
させて	-9.97455
デス	-9.97468
暗	-9.97474
たちは	-9.97541
過程	-9.97562
ルール	-9.97681
みな	-9.97709
▁k	-9.97719
始まり	-9.97734
▁第	-9.97751
裕	-9.97754
か月	-9.97767
されない	-9.97795
才	-9.97819
pi	-9.97852
威	-9.97896
停留所	-9.97905
月まで	-9.97928
係	-9.97945
との関係	-9.97953
てくる	-9.97956
かなり	-9.9801
秘	-9.98044
セント	-9.98086
主催	-9.98101
嫌	-9.98206
カメラ	-9.98206
を用いた	-9.98262
抱	-9.98272
裁	-9.98388
鋼	-9.98421
長官	-9.98449
ってきた	-9.9845
共産党	-9.98506
大規模な	-9.98531
崩	-9.98569
エジプト	-9.98612
送り	-9.98645
外交	-9.98698
荘	-9.98701
できなかった	-9.9871
規	-9.98715
削	-9.98728
tv	-9.98764
目標	-9.98765
レート	-9.98816
連盟	-9.98926
俳優	-9.98987
と言う	-9.99
就任	-9.99006
tt	-9.99081
旅行	-9.99087
狩	-9.99093
州の	-9.99139
買	-9.99164
機関車	-9.99167
シート	-9.99181
のひとつ	-9.99228
オリジナル	-9.99266
アナ	-9.99281
腹	-9.99289
三菱	-9.99408
邦	-9.99409
貿易	-9.99417
即位	-9.99451
結局	-9.99475
登場した	-9.99542
製の	-9.99555
載	-9.99556
末期	-9.99561
発表された	-9.99596
又	-9.99613
閣	-9.99659
対抗	-9.9967
免許	-9.99673
高度	-9.99685
許可	-9.99704
執筆	-9.99709
ビット	-9.9972
ちゃん	-9.99728
食品	-9.99753
1984	-9.99765
)|	-9.99772
シス	-9.9978
怪	-9.9985
と考えられる	-9.99911
通常の	-9.99928
歳の	-9.99934
運賃	-9.99948
如	-9.99967
昇	-10.0003
各種	-10.0003
入学	-10.0005
謝	-10.0005
らが	-10.0006
象	-10.0009
これまで	-10.0011
従来	-10.0013
声優	-10.0016
それぞれの	-10.0018
操	-10.0021
からも	-10.0022
残り	-10.0029
トラック	-10.0032
トリー	-10.0033
っていない	-10.0036
贈	-10.0036
バラ	-10.0036
義務	-10.0045
座席	-10.0046
続けた	-10.005
br	-10.005
随	-10.0051
特定の	-10.0056
ノル	-10.0056
前半	-10.0063
遅れ	-10.0068
承	-10.0068
pro	-10.0078
ずつ	-10.0079
注目	-10.0083
うち	-10.0088
授	-10.0095
高さ	-10.01
回復	-10.0101
てしまった	-10.0102
)4	-10.0106
ターミナル	-10.0111
を加え	-10.012
ゴー	-10.0123
手に	-10.0125
スタイル	-10.0133
秀吉	-10.0134
ホテル	-10.0137
提出	-10.0138
起源	-10.014
事務	-10.0141
数学	-10.0143
試み	-10.0144
惑星	-10.0146
下げ	-10.0148
したのは	-10.0153
sf	-10.0155
沖	-10.0155
環	-10.0155
隣	-10.0156
取得	-10.0157
場合がある	-10.0158
週	-10.0158
孝	-10.016
いていた	-10.0168
古典	-10.0171
援	-10.0174
に加え	-10.0181
手段	-10.0181
駆	-10.0181
に取り	-10.0185
per	-10.019
扱う	-10.019
戦隊	-10.0194
たとえば	-10.0195
テレ	-10.0197
長崎	-10.0204
良い	-10.0207
民主党	-10.0209
遅	-10.021
上昇	-10.0211
au	-10.0211
×	-10.0211
規則	-10.0212
膜	-10.0213
フロ	-10.0214
侯	-10.022
丁目	-10.0223
に至る	-10.0224
菌	-10.0239
覆	-10.0243
側面	-10.0247
周囲	-10.0248
柔	-10.0251
扉	-10.026
頃に	-10.0266
有力	-10.0269
が行われる	-10.027
遷	-10.0274
著作	-10.0274
いだ	-10.0275
託	-10.0276
東側	-10.0288
とう	-10.0288
見られ	-10.0298
握	-10.0299
とおり	-10.0299
功	-10.0302
戦艦	-10.0306
アクセス	-10.0308
郵便	-10.0313
世は	-10.0314
°	-10.0317
快	-10.0324
犯罪	-10.0325
解決	-10.034
届	-10.0342
直前	-10.0342
壊	-10.0346
鑑	-10.0349
のみで	-10.0357
連結	-10.0358
国王	-10.0361
していった	-10.0361
寒	-10.0372
エイ	-10.0375
婦	-10.0376
ホール	-10.0378
明らかに	-10.0378
スペース	-10.0383
ベルト	-10.0386
弥	-10.039
長さ	-10.039
ウォ	-10.0396
ry	-10.0397
楽曲	-10.0398
ゴン	-10.04
をはじめ	-10.0402
押	-10.0407
テロ	-10.0408
現れ	-10.0412
にもかかわらず	-10.0415
期待	-10.042
ポート	-10.0421
それが	-10.0429
ものであり	-10.0431
キュ	-10.0432
対戦	-10.0443
ディング	-10.0445
オール	-10.0446
繁	-10.0446
少女	-10.0446
保有	-10.0447
反乱	-10.0452
いずれ	-10.0453
シル	-10.0453
親王	-10.0471
向き	-10.0472
受け入れ	-10.0477
を始め	-10.048
その後も	-10.0481
偽	-10.0483
シーン	-10.0486
摩	-10.0491
マリ	-10.0499
早く	-10.0502
と同時に	-10.0505
戦略	-10.0505
』、『	-10.0505
bi	-10.0506
出典	-10.0507
街道	-10.0509
ダイヤ	-10.0509
io	-10.051
アド	-10.051
登場する	-10.051
劉	-10.0511
駅の	-10.0511
塁	-10.0516
カップ	-10.0517
四国	-10.0518
定め	-10.0522
太平洋	-10.0523
粒子	-10.0525
を起こし	-10.0535
放射	-10.0538
に属する	-10.0543
食べ	-10.0556
ムー	-10.0559
すぎ	-10.0563
レギュラー	-10.0567
どちら	-10.0567
チュー	-10.0571
資格	-10.0572
ie	-10.0576
命名	-10.0577
開催された	-10.0582
ゃ	-10.0585
脈	-10.0586
分岐	-10.0588
伝説	-10.0591
以前の	-10.0593
伏	-10.0596
廃止された	-10.0599
デュ	-10.06
していく	-10.06
覇	-10.0601
uni	-10.0602
恋	-10.0604
代わりに	-10.0608
昼	-10.0608
いない	-10.0609
当たり	-10.0615
痛	-10.062
man	-10.0621
蒸気	-10.0623
ウェイ	-10.0623
事態	-10.0629
づけ	-10.063
ストン	-10.0635
ていく	-10.0636
fm	-10.0639
航空機	-10.0639
罰	-10.0653
ヴァン	-10.0657
動作	-10.0657
階級	-10.0663
やがて	-10.0663
雑	-10.0667
高速道路	-10.0667
珍	-10.0676
即	-10.0677
怒	-10.0681
株	-10.0681
ファイル	-10.0685
割り	-10.0689
元素	-10.0695
足利	-10.0701
もなく	-10.0703
将棋	-10.0703
られて	-10.0708
測	-10.0708
ていった	-10.071
モノ	-10.071
公共	-10.071
ぞ	-10.0716
帰国	-10.0722
遺伝子	-10.0723
わか	-10.0725
駅まで	-10.073
スー	-10.0733
スタッフ	-10.0736
存在しない	-10.0739
一般的な	-10.0743
始め	-10.0745
性格	-10.0749
危機	-10.0751
腕	-10.0754
ヌス	-10.0762
杉	-10.0778
はほとんど	-10.0789
ページ	-10.079
京成	-10.0791
ut	-10.0797
神話	-10.08
モンゴル	-10.0801
テスト	-10.0803
拒否	-10.0803
時間帯	-10.0806
擁	-10.0808
リウス	-10.081
そのもの	-10.0811
古い	-10.0812
区域	-10.0816
博物館	-10.0818
ニュ	-10.0819
解散	-10.0824
必	-10.0826
180	-10.0832
一致	-10.0836
愛称	-10.0847
ジョージ	-10.0848
展示	-10.0851
柳	-10.0851
知られ	-10.0853
クー	-10.0853
rp	-10.0856
人民	-10.0863
ine	-10.0866
輸入	-10.0874
作られた	-10.0875
1972	-10.0881
実質	-10.0883
化する	-10.0885
トイレ	-10.0886
上下	-10.0897
を得る	-10.0902
アンド	-10.0906
媒	-10.0906
熊	-10.0908
スタジアム	-10.0908
fc	-10.0909
守護	-10.0914
になっていた	-10.0924
ニン	-10.0925
複雑	-10.0926
知識	-10.0928
メモリ	-10.093
を設け	-10.0943
陸上	-10.0943
ッカー	-10.0955
を使って	-10.0956
ip	-10.0959
を目指し	-10.096
恐	-10.0963
泊	-10.0969
されたもの	-10.0976
武田	-10.0978
うえ	-10.0981
だろう	-10.0982
1982	-10.0987
のまま	-10.0987
もっとも	-10.0987
されるようになった	-10.0987
現実	-10.1005
用途	-10.1007
摂	-10.1007
オーストリア	-10.1012
立つ	-10.102
シュー	-10.1021
大阪府	-10.1026
敷	-10.1027
王朝	-10.1029
▁formula	-10.1031
オフ	-10.1033
ゼン	-10.1034
よい	-10.1035
協定	-10.1038
ベトナム	-10.1043
斜	-10.1044
沿岸	-10.1047
外部	-10.1053
gi	-10.1054
悪化	-10.1054
解放	-10.1056
これらは	-10.1056
監	-10.1061
えない	-10.1065
枝	-10.1066
を備え	-10.1067
詳細は	-10.1067
日本国内	-10.1071
以前は	-10.1072
僧	-10.108
メル	-10.1082
アメリカ軍	-10.1082
インター	-10.1084
同士	-10.1085
財政	-10.109
潜	-10.1093
福島	-10.1096
承認	-10.1102
支払	-10.1104
吹	-10.1109
深夜	-10.111
が増え	-10.1115
続いた	-10.1115
最後に	-10.1118
定められ	-10.112
ギリシャ	-10.1122
縮	-10.1127
管轄	-10.1128
700	-10.1128
からなる	-10.1129
わない	-10.1129
レッド	-10.1131
シティ	-10.1133
を使用する	-10.1134
欲	-10.1137
筑	-10.1137
了	-10.1142
騒	-10.1144
震	-10.1147
健康	-10.1147
吸収	-10.1155
という意味	-10.1156
絶対	-10.1156
した場合	-10.1157
債	-10.1159
選ばれ	-10.1159
要請	-10.116
windows	-10.1161
保守	-10.1163
活用	-10.1163
関係者	-10.1168
つつ	-10.1174
容易	-10.1177
キャン	-10.1181
盗	-10.1181
好き	-10.1183
!』	-10.1188
▁駅周辺	-10.1189
伴	-10.1191
リュ	-10.1191
かわ	-10.1193
tra	-10.1193
合計	-10.1196
ブロ	-10.1199
プリン	-10.12
クロス	-10.1205
体系	-10.1207
ou	-10.1212
河川	-10.1221
が設けられ	-10.1229
迷	-10.1235
に入り	-10.1241
水素	-10.1246
染	-10.1248
欧	-10.1254
かん	-10.1255
具体的	-10.1256
次第に	-10.1258
ごと	-10.1264
鹿児島	-10.1267
政府は	-10.1269
数多く	-10.1272
劣	-10.1275
流行	-10.1276
豆	-10.1276
鎖	-10.1289
出身の	-10.1292
最初に	-10.1293
に関して	-10.1297
縦	-10.1297
票	-10.1302
1983	-10.1306
認定	-10.1306
ユニット	-10.1311
公演	-10.1314
武蔵	-10.1314
プレイ	-10.1315
ウォー	-10.1317
例として	-10.132
日本軍	-10.132
熟	-10.1325
彩	-10.1325
塞	-10.1327
乗降	-10.133
市街地	-10.133
同様に	-10.1337
誰	-10.1338
サイト	-10.1347
建造	-10.1348
ないため	-10.1349
ブー	-10.1349
山陽	-10.1352
ミル	-10.1363
レッ	-10.1365
左右	-10.1368
ミス	-10.1369
1975	-10.137
大きさ	-10.1376
パス	-10.138
表明	-10.1381
ap	-10.1381
チャンネル	-10.1383
ッグ	-10.1385
滑	-10.1388
1978	-10.139
主体	-10.1392
込んで	-10.1393
恒	-10.1395
150	-10.1399
に伴う	-10.1401
訴	-10.1402
1945	-10.1403
遺産	-10.1416
強制	-10.1417
貢献	-10.142
まれた	-10.1421
ホル	-10.1423
常に	-10.1425
秋田	-10.1425
訓練	-10.1453
小さな	-10.1455
北側	-10.1458
営業所	-10.146
富山	-10.1462
負担	-10.1462
論文	-10.1463
浄	-10.1466
フェル	-10.1472
ko	-10.1481
主要な	-10.1481
利用者	-10.1484
推定	-10.1487
リウム	-10.1488
使用されている	-10.1489
まって	-10.1491
広告	-10.15
歴代	-10.1502
を得た	-10.1504
用意	-10.1505
描かれ	-10.1506
処分	-10.1509
鬼	-10.1515
政治的	-10.1522
使われている	-10.1527
dvd	-10.153
であれば	-10.1532
できず	-10.1536
マッ	-10.1537
天正	-10.1538
賞を受賞	-10.154
差し	-10.1541
映	-10.1541
させること	-10.1541
再生	-10.1542
田中	-10.1542
知事	-10.1546
徐々に	-10.1548
進められ	-10.1554
しん	-10.1555
略称	-10.1563
ヤー	-10.1566
上げた	-10.1568
とも呼ばれる	-10.1569
高等	-10.1572
も存在する	-10.1576
垣	-10.1578
1979	-10.1579
▁2010	-10.158
銭	-10.1581
川崎	-10.1589
混乱	-10.1596
con	-10.1598
この頃	-10.16
添	-10.1601
カール	-10.1603
共に	-10.1604
改札口	-10.1605
煙	-10.1607
実際には	-10.1608
土曜	-10.1609
が大きく	-10.1609
選手権	-10.1615
こそ	-10.1616
撤去	-10.1617
im	-10.162
グリーン	-10.1622
申	-10.1625
が多かった	-10.1627
補助	-10.1628
数字	-10.1634
委託	-10.1635
博士	-10.1638
穴	-10.164
妙	-10.164
居住	-10.1641
多摩	-10.1654
昭	-10.1654
たこと	-10.1655
人類	-10.1658
箇所	-10.1662
がいる	-10.1668
▁2000	-10.1668
しょう	-10.1674
の一種	-10.1674
プロ野球	-10.1681
繰り	-10.1689
ドロ	-10.1697
例外	-10.1703
スタート	-10.1704
翻訳	-10.1705
5%	-10.1706
社会主義	-10.1711
を採用し	-10.1717
淡	-10.1718
利益	-10.1718
ts	-10.172
空母	-10.1721
家康	-10.1725
1968	-10.1725
成分	-10.1726
輸出	-10.1729
年齢	-10.1733
入れた	-10.1736
を超える	-10.1736
このとき	-10.1738
1973	-10.174
材料	-10.1741
遇	-10.1746
ィ	-10.175
影	-10.1751
フィー	-10.1757
紫	-10.1757
通勤	-10.1758
沿い	-10.1758
双	-10.1759
依存	-10.1765
上位	-10.1769
境界	-10.1776
われる	-10.1779
優先	-10.1784
逸	-10.1794
預	-10.1796
岐	-10.1796
使用された	-10.1798
生息	-10.1801
征	-10.1802
エピソード	-10.1807
狙	-10.1825
ard	-10.1827
由	-10.1831
ヨー	-10.1841
遺跡	-10.1842
労働者	-10.1845
偏	-10.1854
次元	-10.1857
現地	-10.1864
籍	-10.1873
極めて	-10.1874
ことになった	-10.1876
が挙げられる	-10.1882
巨人	-10.1882
ミサイル	-10.1883
自社	-10.1884
発表した	-10.1893
弟子	-10.1897
を除き	-10.1905
グロ	-10.1907
元々	-10.1909
名誉	-10.191
項目	-10.1912
ダウン	-10.1923
測定	-10.1925
1969	-10.1926
見える	-10.1934
斎	-10.1934
スピ	-10.1937
wi	-10.1939
コア	-10.194
両者	-10.1942
逃	-10.1943
用いられ	-10.1947
文献	-10.1948
求	-10.195
収入	-10.1952
地名	-10.1953
相当	-10.1956
日中	-10.1971
巻き	-10.1975
生命	-10.1976
唯一	-10.1977
レット	-10.1977
all	-10.1978
率いる	-10.1981
得点	-10.1987
net	-10.1987
需要	-10.1993
分裂	-10.1996
ユダヤ	-10.1997
ブラジル	-10.2
神経	-10.2003
事例	-10.2005
艇	-10.2005
依頼	-10.2006
を超え	-10.2007
勇	-10.2008
措置	-10.2011
顕	-10.2015
ウィン	-10.2016
占	-10.202
そのような	-10.2023
ポーランド	-10.2031
に入る	-10.2038
を設立	-10.2041
川駅	-10.2042
投手	-10.2046
通路	-10.2046
回り	-10.2052
ペル	-10.2055
を残し	-10.2057
プラン	-10.206
およそ	-10.2062
祥	-10.2062
世紀に	-10.2063
傾	-10.2068
もあって	-10.2074
使用する	-10.2075
書かれ	-10.2077
年代後半	-10.2081
サイズ	-10.2083
会員	-10.2084
岐阜	-10.2086
コスト	-10.209
!」	-10.2091
効率	-10.2094
ストーリー	-10.2094
ピアノ	-10.21
オーストラリア	-10.2105
一番	-10.2109
梁	-10.2114
オブ	-10.2114
見解	-10.2117
事情	-10.212
にわたって	-10.2122
コミック	-10.2125
与え	-10.2127
防止	-10.2135
札	-10.214
普	-10.2141
1981	-10.2142
ばかり	-10.2145
ワールド	-10.2145
南側	-10.2148
巣	-10.2148
バージョン	-10.215
長く	-10.2151
カナダ	-10.2154
リンク	-10.2155
現在も	-10.2157
殺害	-10.2158
に相当する	-10.2159
するようになった	-10.2161
謀	-10.2164
臓	-10.2165
パーク	-10.2167
とは別	-10.2167
呂	-10.2171
輩	-10.2176
残る	-10.2179
コス	-10.2184
言う	-10.2187
湿	-10.2189
キロ	-10.2192
曹	-10.2192
吉田	-10.2192
姿勢	-10.2195
逮捕	-10.2197
出た	-10.2198
職員	-10.2202
ゲスト	-10.2204
行く	-10.2207
ベスト	-10.2207
現存	-10.2208
1971	-10.221
沿	-10.2211
セー	-10.2215
コル	-10.2217
齢	-10.2217
医師	-10.2219
原理	-10.222
呉	-10.2225
正式に	-10.2227
寄せ	-10.2229
ステージ	-10.2233
戦闘機	-10.2233
庭	-10.2234
ロゴ	-10.2236
改修	-10.2238
教師	-10.2241
賢	-10.2244
阪急	-10.2247
ャ	-10.2248
繰り返し	-10.2249
査	-10.225
芸能	-10.2251
すぐに	-10.2253
を求める	-10.2253
参戦	-10.2257
爆撃	-10.2259
海上	-10.2266
わせ	-10.227
ドーム	-10.227
回路	-10.227
指導者	-10.228
勝ち	-10.2281
mp	-10.2284
噴	-10.2285
現役	-10.2304
民主	-10.2304
天然	-10.2306
あげ	-10.2311
持つ	-10.2319
次郎	-10.2319
コール	-10.2321
東急	-10.2322
収め	-10.2322
邸	-10.2324
澤	-10.2324
を使う	-10.2324
プロレス	-10.2328
患者	-10.2331
時刻	-10.2338
プライ	-10.2343
ディア	-10.2346
協議	-10.2349
なん	-10.2353
このように	-10.2354
もない	-10.2358
大幅に	-10.2368
畑	-10.2371
ポルトガル	-10.2376
予備	-10.2379
軌	-10.2385
推移	-10.2385
ツアー	-10.2389
不可能	-10.2392
也	-10.2393
衝突	-10.2397
起用	-10.2401
無く	-10.2403
モード	-10.2405
週間	-10.2407
pl	-10.2407
鈴木	-10.241
チャン	-10.2412
息	-10.2413
1974	-10.2416
に位置し	-10.2416
将来	-10.2417
放送局	-10.2418
指示	-10.2418
申し	-10.2423
司会	-10.2423
最初	-10.2424
構築	-10.2425
歌手	-10.2425
筒	-10.2432
象徴	-10.2444
費用	-10.2445
プス	-10.2453
で最も	-10.2454
暖	-10.2455
が行われている	-10.2455
換え	-10.2456
シリア	-10.2456
ケーブル	-10.2458
司令官	-10.246
時代から	-10.2462
練	-10.2465
部屋	-10.2473
譲渡	-10.2477
締結	-10.2481
キュー	-10.2486
ハウス	-10.2486
藤原	-10.2487
合流	-10.2489
かせ	-10.2494
沿線	-10.2494
句	-10.2497
ボード	-10.2499
類似	-10.2502
インターチェンジ	-10.2502
上野	-10.2503
の方が	-10.251
斉	-10.2514
出る	-10.2514
焼き	-10.2514
教皇	-10.2522
くなった	-10.2525
1964	-10.2534
であっても	-10.2536
乗車券	-10.2543
掲げ	-10.2548
を示し	-10.2559
俊	-10.2564
大阪市	-10.2569
資源	-10.257
掌	-10.257
ue	-10.2572
業者	-10.2581
クライ	-10.2582
さえ	-10.2586
棄	-10.2591
業界	-10.2592
1976	-10.2595
貧	-10.2604
置き換え	-10.2604
織田	-10.2605
家臣	-10.261
ならない	-10.2617
詳	-10.2617
磨	-10.2618
勲	-10.2618
年にかけて	-10.2619
干	-10.262
投資	-10.2622
印刷	-10.263
人工	-10.2637
研	-10.2638
図書館	-10.2644
art	-10.2652
希望	-10.2656
に登場する	-10.2658
友人	-10.2663
勤	-10.2664
弦	-10.2664
主力	-10.2666
に指定され	-10.267
買収	-10.2673
マラ	-10.2675
国境	-10.2675
後半	-10.2685
旋	-10.2687
徴	-10.2693
画面	-10.2695
無線	-10.2697
ヒト	-10.2699
看	-10.2701
ki	-10.2705
提	-10.2708
聖書	-10.2717
移住	-10.2722
音声	-10.2723
アウト	-10.2736
箱	-10.274
君主	-10.2741
この時期	-10.2746
kg	-10.2747
他にも	-10.275
わず	-10.2751
締	-10.2751
再建	-10.2756
中部	-10.2759
見た	-10.2761
ブーム	-10.2763
の多くは	-10.2764
という言葉	-10.2764
ガル	-10.2766
方程式	-10.2768
競馬場	-10.2771
こともあった	-10.2772
個体	-10.2774
終了した	-10.2778
外国人	-10.2781
緩	-10.2784
流通	-10.2785
仙	-10.2789
ユニ	-10.2793
全員	-10.2794
デイ	-10.2798
身体	-10.2818
リズム	-10.2818
fo	-10.282
マイクロ	-10.2822
認め	-10.2822
fe	-10.2825
熊本	-10.2832
閉鎖	-10.2833
廃車	-10.2834
教え	-10.2835
稼	-10.2837
提携	-10.2838
見る	-10.2842
質量	-10.2853
ウィリアム	-10.2855
されなかった	-10.2861
ストラ	-10.2862
灰	-10.2866
抑え	-10.2869
号線	-10.2871
融	-10.2877
一族	-10.2878
電化	-10.2881
ガラス	-10.2884
執行	-10.2885
根拠	-10.2886
法則	-10.2887
通行	-10.2897
ディスク	-10.2897
要因	-10.2897
無料	-10.2898
収容	-10.2905
領土	-10.2912
1977	-10.2913
悲	-10.2919
予想	-10.2919
文明	-10.2923
アイルランド	-10.2925
攻め	-10.2925
時点	-10.2925
同時	-10.2937
下記の	-10.2938
tor	-10.2938
重量	-10.2941
出現	-10.2942
線の駅である	-10.2943
繋	-10.2945
宋	-10.2949
進化	-10.2951
山田	-10.2959
rt	-10.2963
グレ	-10.2963
深い	-10.2963
主演	-10.2971
分解	-10.2971
サイド	-10.2975
武装	-10.2988
単純	-10.2989
終了後	-10.2993
加工	-10.2997
積極的に	-10.2997
をもつ	-10.2999
並行	-10.3002
伐	-10.3007
ホン	-10.3009
フランク	-10.3013
ot	-10.3015
南海	-10.3017
全線	-10.3023
一郎	-10.3024
に応じて	-10.3025
かかる	-10.3029
予算	-10.3032
lu	-10.3033
密度	-10.3038
トルコ	-10.3042
北陸	-10.3044
はじめ	-10.3044
と呼ばれた	-10.3053
東武	-10.3053
来た	-10.3053
機会	-10.3053
したがって	-10.3055
尚	-10.3055
od	-10.3059
上げる	-10.3059
加入	-10.3061
ないこと	-10.3061
選出	-10.3062
を発表した	-10.3062
日本テレビ	-10.307
ッキー	-10.3073
おこ	-10.3074
ツェ	-10.3076
週刊	-10.3078
代替	-10.3078
1967	-10.3085
が発生し	-10.3086
発音	-10.3086
られており	-10.3086
武器	-10.3095
神奈川県	-10.3096
燃	-10.3097
韓	-10.3101
尽	-10.3106
を作る	-10.3106
気象	-10.3108
国会	-10.3112
一体	-10.3116
gu	-10.3121
サブ	-10.3123
と同じく	-10.3124
二人	-10.3126
ならば	-10.3127
塗装	-10.3131
奨	-10.3132
定着	-10.3135
修正	-10.3137
歴史的	-10.3141
独自	-10.3142
冊	-10.3145
ソロ	-10.3156
幾	-10.3157
任務	-10.3159
紋	-10.316
誇	-10.3166
有名な	-10.3166
夜間	-10.3171
方言	-10.3173
取った	-10.3173
詳細	-10.3173
刺	-10.3174
ティン	-10.3177
獲	-10.3184
偶	-10.3193
のことである	-10.3197
に分かれ	-10.32
嘉	-10.3205
地点	-10.3207
扱われ	-10.3208
手紙	-10.3217
恩	-10.322
台車	-10.322
bl	-10.3221
ill	-10.3221
編入	-10.3223
と主張し	-10.3223
整理	-10.3226
附	-10.3229
督	-10.324
杯	-10.3241
自衛隊	-10.3244
北朝鮮	-10.325
想定	-10.3255
勅	-10.3256
モーター	-10.3256
様式	-10.3256
吸	-10.3257
描写	-10.3258
録音	-10.3261
扱	-10.3262
休日	-10.3265
小さい	-10.3271
こちら	-10.3277
当該	-10.3279
生じる	-10.3281
を変え	-10.3281
なかったため	-10.3292
解体	-10.3292
崇	-10.3293
争い	-10.3297
少し	-10.3299
ノイ	-10.33
1966	-10.3301
蘇	-10.3305
といわれる	-10.3305
に入った	-10.3311
日平均乗車人員	-10.3311
気温	-10.3317
駅番号は	-10.3318
財産	-10.332
ff	-10.3321
公表	-10.3325
を行っていた	-10.3327
垂	-10.333
画像	-10.3337
昌	-10.3339
大手	-10.3344
とする説	-10.3345
みられる	-10.3351
陵	-10.3353
投げ	-10.3355
一切	-10.3361
力学	-10.3361
設立された	-10.3368
せい	-10.3376
しゃ	-10.3377
会場	-10.3378
塗	-10.3383
蓄	-10.3384
千葉県	-10.3387
普通列車	-10.3394
に入って	-10.3394
演出	-10.3395
ber	-10.3396
販	-10.3398
隔	-10.3412
に基づいて	-10.3412
栗	-10.3412
桁	-10.3412
意図	-10.3413
審査	-10.3416
渡り	-10.342
既存	-10.3427
抜け	-10.3432
阪	-10.3442
虎	-10.3443
掛	-10.3444
がなされ	-10.3444
を除いて	-10.3446
初め	-10.3449
イラク	-10.3453
路線バス	-10.3454
もともと	-10.3458
サラ	-10.3458
特性	-10.3463
完了	-10.3465
1965	-10.3466
エレベーター	-10.3468
行われている	-10.3473
フォード	-10.3483
を搭載し	-10.3486
gp	-10.349
師団	-10.35
で構成され	-10.3504
泰	-10.3514
獣	-10.3526
行われていた	-10.3531
学習	-10.3531
葛	-10.3542
であったため	-10.3547
されてきた	-10.355
交代	-10.3558
を設置し	-10.3559
装甲	-10.3563
ヶ月	-10.3574
引き続き	-10.3576
庄	-10.3577
ローマ帝国	-10.3579
響	-10.3583
訪問	-10.3587
交差点	-10.3587
糸	-10.3608
生徒	-10.3608
誘導	-10.3612
償	-10.3617
提唱	-10.3622
差別	-10.3622
ものがある	-10.3623
工学	-10.3628
記憶	-10.3631
意味で	-10.3633
含む	-10.364
美術館	-10.364
その結果	-10.3641
前提	-10.3645
付けられ	-10.3645
固有	-10.3648
ることになった	-10.3648
主導	-10.3652
月末	-10.3653
少数	-10.3656
lan	-10.3658
紅	-10.3659
学園	-10.3659
飛び	-10.3665
テイ	-10.368
眠	-10.3681
埋	-10.3682
繁殖	-10.3688
ell	-10.3691
父親	-10.3694
採用された	-10.3699
ee	-10.37
追放	-10.3702
山形	-10.3703
明らか	-10.3703
著書	-10.3711
午前	-10.3715
署	-10.3716
用いる	-10.3717
該当	-10.3717
é	-10.3719
タンパク質	-10.3722
車内	-10.3722
弓	-10.3725
周波数	-10.3725
長男	-10.3726
延伸	-10.3729
ニャ	-10.3732
ことができ	-10.3732
[	-10.3734
青森	-10.3735
埼玉県	-10.3735
爆発	-10.3738
鷹	-10.3738
者たち	-10.3743
ment	-10.3743
解消	-10.3746
に就任した	-10.375
スペシャル	-10.375
現在でも	-10.3752
ブロック	-10.3754
ハル	-10.3754
双方	-10.3754
に入ると	-10.3768
ヤン	-10.3775
浪	-10.3776
碑	-10.3783
つける	-10.3787
駿	-10.3792
なくなる	-10.3796
伸び	-10.3797
を利用して	-10.3798
石油	-10.3804
に変更された	-10.3805
駆動	-10.3807
遂	-10.3808
に分類される	-10.382
文化財	-10.3823
1930	-10.3827
受信	-10.3827
休止	-10.3835
を持っている	-10.3843
最低	-10.3843
子会社	-10.3846
を有し	-10.3852
古くから	-10.3857
反発	-10.3857
叙	-10.386
]	-10.3862
を得て	-10.3865
旬	-10.3872
*	-10.3872
殖	-10.3875
麦	-10.3876
三郎	-10.3878
を中心とした	-10.3879
欧米	-10.3885
兵士	-10.3886
を置く	-10.3889
峰	-10.3905
不可	-10.3909
つけた	-10.3912
書かれた	-10.3914
長野	-10.3923
することになった	-10.3925
ベルリン	-10.3929
戦前	-10.3931
停車する	-10.3953
付けた	-10.3954
ジャンル	-10.3961
new	-10.3965
られない	-10.3969
ロール	-10.3971
間隔	-10.3973
相対	-10.3974
膨	-10.3976
という説	-10.3978
チャンピオン	-10.398
サポート	-10.3981
山脈	-10.3986
ae	-10.3987
を持った	-10.3987
開業した	-10.3988
観客	-10.3991
症状	-10.3994
パソコン	-10.3999
を持って	-10.4007
コンサート	-10.4009
モハ	-10.4009
ペー	-10.401
進む	-10.4016
ヴェル	-10.4016
と言われる	-10.4023
ものもある	-10.4025
ソース	-10.4026
1962	-10.4028
働き	-10.403
ate	-10.4032
請	-10.4033
連れ	-10.4034
インタビュー	-10.4035
様子	-10.4043
と比べ	-10.4045
関与	-10.4049
電気鉄道	-10.4054
開発された	-10.4055
いち	-10.4057
兵庫県	-10.4062
ヴァー	-10.4063
圧力	-10.4064
イスラエル	-10.4064
\	-10.4065
携	-10.4065
暗殺	-10.4067
洞	-10.4068
蓮	-10.4068
絵画	-10.4069
ポール	-10.4074
雅	-10.4075
享	-10.4081
伝承	-10.4082
付ける	-10.4084
発車	-10.4084
激しい	-10.4084
棒	-10.4085
近畿	-10.4085
機種	-10.4087
出発	-10.409
剰	-10.4091
ジャパン	-10.4094
ent	-10.4096
ケイ	-10.4096
千代	-10.4099
画家	-10.4101
こうして	-10.4102
連携	-10.411
age	-10.4111
甘	-10.4111
合意	-10.4112
保持	-10.4116
書籍	-10.4125
参謀	-10.4126
コミュニティ	-10.4127
屈	-10.4131
児童	-10.4135
空軍	-10.414
尉	-10.4141
透	-10.4144
しつつ	-10.4146
桂	-10.4157
ミュージック	-10.4161
マシン	-10.4163
現場	-10.4164
菊	-10.4167
離脱	-10.4169
ステーション	-10.417
リュー	-10.417
続ける	-10.4177
抽	-10.4177
屋根	-10.418
のみならず	-10.4181
株式	-10.4182
mar	-10.4185
否	-10.4186
盛り	-10.4187
穂	-10.4191
答え	-10.4194
僚	-10.4197
新規	-10.42
朱	-10.42
銀河	-10.4201
かけて	-10.4202
重視	-10.4208
オペラ	-10.4208
と考えられ	-10.4208
ベイ	-10.4211
英国	-10.4218
成田	-10.4236
恐れ	-10.4238
発明	-10.424
可能性がある	-10.4241
やすく	-10.4242
1963	-10.4243
得られる	-10.4244
発射	-10.4245
ミング	-10.4246
始める	-10.425
覧	-10.4251
年代以降	-10.4252
動力	-10.4252
食べる	-10.4255
印象	-10.4259
半分	-10.4264
腐	-10.4264
酸素	-10.4272
マリア	-10.4272
後者	-10.4279
援助	-10.4282
ボーイ	-10.4284
終わり	-10.4287
肩	-10.4291
備え	-10.4293
帳	-10.4305
簡易	-10.4305
残っている	-10.4307
島式ホーム	-10.4311
eu	-10.4314
判決	-10.4315
を果たした	-10.4316
研究者	-10.4323
を通して	-10.4323
離れた	-10.4324
ヘッド	-10.4324
駅構内	-10.4334
漫画家	-10.4335
代表的な	-10.434
献	-10.4341
すぐ	-10.4344
宮崎	-10.4345
本塁打	-10.4352
文庫	-10.4353
建設された	-10.4356
を与える	-10.4358
ツィ	-10.4363
プレイヤー	-10.4363
と語っている	-10.4364
さない	-10.4366
迎	-10.4369
!!	-10.4369
マルクス	-10.4372
奴隷	-10.4375
石川	-10.4376
在籍	-10.4379
髪	-10.4382
意思	-10.4383
練習	-10.4387
揚	-10.4388
category	-10.4388
ハード	-10.4394
ハム	-10.4396
書いた	-10.4398
ちょう	-10.4399
剛	-10.441
仲間	-10.4416
信頼	-10.4416
丁	-10.442
易	-10.4422
基盤	-10.4423
勧	-10.4428
も同様	-10.4428
バイパス	-10.4432
起こった	-10.4437
磐	-10.4437
辛	-10.444
送信	-10.4445
フランス語	-10.4447
十字	-10.4448
訴え	-10.4458
流域	-10.4459
に際して	-10.4459
曽	-10.4464
藩主	-10.4468
触	-10.4471
コンビ	-10.4472
銘	-10.4474
支え	-10.4477
1940	-10.4483
品種	-10.4483
付けられた	-10.4486
上杉	-10.4504
参考	-10.4511
誠	-10.4516
物理学	-10.4516
存続	-10.4522
しばらく	-10.4522
関心	-10.4526
所在	-10.4527
メール	-10.4529
尼	-10.4536
用いられている	-10.454
脇	-10.455
スポンサー	-10.4553
ツァ	-10.4556
脚本	-10.4564
近い	-10.4565
と思われる	-10.4568
のではないか	-10.4568
与えられた	-10.4571
確定	-10.4573
神宮	-10.4576
日のダイヤ改正	-10.4577
置き	-10.4582
捨て	-10.4584
戒	-10.4584
衡	-10.4585
複合	-10.46
愛知県	-10.4602
針	-10.4606
ェ	-10.4609
ごく	-10.4613
午後	-10.4613
均	-10.4615
環状	-10.4615
ビジネス	-10.4616
ポル	-10.4633
話題	-10.4634
解析	-10.4635
に比べて	-10.4643
部族	-10.4643
学科	-10.4646
ブラック	-10.4646
本拠地	-10.4648
買い	-10.4648
der	-10.4649
どこ	-10.4657
種別	-10.4657
1961	-10.4659
を務める	-10.4663
を示した	-10.4663
濃度	-10.4664
全面	-10.4675
復興	-10.4686
を利用する	-10.4689
獄	-10.4696
に当たる	-10.4696
申請	-10.4704
テレビ朝日	-10.471
短い	-10.471
ナポレオン	-10.4717
5000	-10.4718
妹	-10.4728
場面	-10.4734
ロケット	-10.4743
気動車	-10.4744
秦	-10.4749
殻	-10.476
貯	-10.476
コーチ	-10.4762
してしまう	-10.4763
並び	-10.4765
du	-10.4765
ワイン	-10.477
撮	-10.477
まち	-10.4771
ld	-10.4771
定数	-10.4776
自宅	-10.4779
権限	-10.4779
更	-10.4786
を占める	-10.4788
中心部	-10.4795
拡	-10.4799
駆け	-10.48
時台	-10.4801
滝	-10.4805
所在地	-10.4808
閥	-10.4809
松本	-10.4813
入力	-10.4816
短縮	-10.4819
ローカル	-10.482
しかしながら	-10.4821
使う	-10.4822
ベクトル	-10.4823
直線	-10.4827
緊急	-10.4832
朝廷	-10.4836
行列	-10.4836
カトリック	-10.484
ぽ	-10.4852
似た	-10.4857
削減	-10.4861
あくまで	-10.4866
1944	-10.4869
政治家	-10.487
に含まれる	-10.4871
ダイヤ改正	-10.4875
軟	-10.4877
播	-10.4877
踏切	-10.4884
をはじめとする	-10.4886
和歌山	-10.4891
井上	-10.4891
磁気	-10.4901
このほか	-10.4901
満洲	-10.4903
フィールド	-10.4903
硫	-10.4905
火山	-10.4908
イラン	-10.4911
喫	-10.4919
に基づき	-10.492
通じ	-10.4922
パターン	-10.4924
堅	-10.493
gra	-10.4931
脅	-10.4934
女優	-10.4938
を使った	-10.4939
チェン	-10.4942
ワーク	-10.4944
流れる	-10.4947
を獲得した	-10.4958
言及	-10.4967
吹き	-10.4967
到達	-10.4968
乗車人員	-10.497
ターン	-10.4972
に達し	-10.4979
中華人民共和国	-10.4981
▁地理	-10.4991
が起き	-10.4992
虐	-10.4995
海峡	-10.5
今後	-10.5004
ユーザー	-10.5009
ラテン語	-10.501
触れ	-10.5012
開幕	-10.5014
寝	-10.5015
難しい	-10.502
接触	-10.5021
導入された	-10.5025
アラブ	-10.5029
悩	-10.5031
プロデューサー	-10.5031
診	-10.5036
攻略	-10.5037
に比べ	-10.5037
ロボット	-10.5042
紛争	-10.5042
上陸	-10.5043
が開始された	-10.5044
坊	-10.5049
取材	-10.5051
応用	-10.5054
病気	-10.5064
容量	-10.5068
披露	-10.5071
天体	-10.5073
埋め	-10.5078
配列	-10.508
必ず	-10.5084
用いられた	-10.5085
考え方	-10.5088
プロイセン	-10.5093
課程	-10.5098
京王	-10.5103
数値	-10.5103
降伏	-10.5113
滞在	-10.5113
経過	-10.5114
勤務	-10.5117
競争	-10.5119
伊藤	-10.512
が成立し	-10.5122
傍	-10.5122
タレント	-10.5125
戦死	-10.5132
を形成し	-10.5132
rna	-10.5133
込まれた	-10.514
東海道	-10.5146
なので	-10.515
孔	-10.5152
one	-10.5155
ぷ	-10.5155
必ずしも	-10.5163
学問	-10.5166
実装	-10.5167
訴訟	-10.517
と称し	-10.5173
都心	-10.5174
部品	-10.518
市町村	-10.5181
テープ	-10.5186
候	-10.5187
伝えられ	-10.5189
芳	-10.5192
設けられ	-10.5201
麗	-10.5204
第二次	-10.5204
鉛	-10.5207
各地で	-10.5213
なくなり	-10.5214
耳	-10.5218
卿	-10.5221
打撃	-10.5222
停車駅	-10.5225
を用い	-10.5237
災害	-10.5238
を図る	-10.5244
狂	-10.5244
禄	-10.5246
dna	-10.5246
の大半	-10.5247
を指し	-10.5251
1948	-10.5255
妃	-10.5258
挑戦	-10.526
自転車	-10.527
損害	-10.5272
耕	-10.5273
放映	-10.5275
と言われている	-10.5278
メキシコ	-10.5281
ッター	-10.5288
経路	-10.5294
大学院	-10.5297
推測	-10.5297
陳	-10.5299
懐	-10.5299
防御	-10.5308
百貨店	-10.5314
かどうか	-10.5314
郊外	-10.5323
合格	-10.5323
込	-10.5323
指名	-10.5332
笠	-10.5333
職業	-10.5333
挟	-10.5336
電源	-10.5338
論理	-10.5339
設置されている	-10.5339
東洋	-10.5343
促進	-10.5344
遠征	-10.5346
イスラム	-10.5346
求められ	-10.5354
都道府県	-10.537
棋	-10.5373
けん	-10.5373
インディアン	-10.5374
ヒル	-10.5374
桑	-10.5382
冷房	-10.5384
スイス	-10.5386
張り	-10.5388
敗北	-10.5389
清水	-10.539
使われた	-10.5391
近郊	-10.5396
違反	-10.5396
再度	-10.54
祀	-10.5404
彰	-10.5412
を行うこと	-10.5414
寺院	-10.5414
詰め	-10.5416
消防	-10.5419
啓	-10.5419
佐藤	-10.5423
皆	-10.5427
晋	-10.5431
頻	-10.5434
出入口	-10.5442
ナショナル	-10.5446
励	-10.5449
若い	-10.5452
全域	-10.5456
実績	-10.5458
ラウンド	-10.546
電圧	-10.546
時計	-10.5462
東口	-10.5468
経済学	-10.5479
あらゆる	-10.548
深く	-10.548
1958	-10.5481
ティブ	-10.5482
キャンパス	-10.5488
墜	-10.5491
惑	-10.5492
提示	-10.5494
進んだ	-10.5499
このうち	-10.5504
刑事	-10.5504
を持っていた	-10.5504
会津	-10.5505
西口	-10.5507
フィルム	-10.5514
を命じ	-10.5514
切れ	-10.5517
作曲家	-10.5523
交差	-10.5523
起点	-10.5528
爆弾	-10.5532
蒲	-10.5533
圧縮	-10.5535
観察	-10.5537
ナイト	-10.5548
増え	-10.5548
通算	-10.5551
急速に	-10.5552
最多	-10.5555
であろう	-10.5556
を使用した	-10.5557
わけではない	-10.5559
証券	-10.556
が実施され	-10.556
排除	-10.5563
求め	-10.5567
開局	-10.557
金沢	-10.5571
1949	-10.5573
異常	-10.5575
相模	-10.5585
▁for	-10.5586
ッピング	-10.5586
伸	-10.559
巡洋艦	-10.5594
を目指す	-10.5594
池田	-10.5596
標高	-10.5601
猛	-10.5602
血液	-10.5606
遣	-10.5606
議席	-10.5609
翌日	-10.5611
宰	-10.5613
東映	-10.5619
周期	-10.5623
ポスト	-10.5625
運輸	-10.5625
の下で	-10.5633
ヘン	-10.5636
国際空港	-10.5638
ボイ	-10.5638
名詞	-10.5641
符	-10.5642
mon	-10.5645
違う	-10.5651
codice	-10.5652
吾	-10.5652
隣接する	-10.5652
資産	-10.5655
福祉	-10.5663
移民	-10.5665
逃げ	-10.5665
ウイルス	-10.5667
歩兵	-10.5669
助け	-10.5674
hz	-10.5676
代理	-10.568
衰退	-10.5692
施工	-10.5693
最近	-10.5694
渋谷	-10.5695
に成功した	-10.5697
込め	-10.5698
ドイツ語	-10.5698
ワード	-10.5702
呼ばれ	-10.5704
況	-10.5711
社員	-10.5716
パイロット	-10.5721
縮小	-10.5722
コメント	-10.5723
勃発	-10.5723
終結	-10.5724
授与	-10.5727
スカイ	-10.5729
を採用した	-10.573
売却	-10.5739
織	-10.574
抜き	-10.5742
ネーム	-10.5743
踊	-10.5745
▁バス路線	-10.5745
共有	-10.575
滅亡	-10.5758
ブラン	-10.5759
奈	-10.5762
1959	-10.5762
ly	-10.5763
司法	-10.5764
小さく	-10.5774
ウルトラマン	-10.5775
ワシントン	-10.5775
てしまい	-10.5778
に向けて	-10.5785
を描いた	-10.5788
控	-10.5791
男子	-10.5795
フォーク	-10.5795
支店	-10.5797
接近	-10.5798
成果	-10.5798
細川	-10.5799
火災	-10.5805
暴力	-10.5806
帰還	-10.581
姉妹	-10.5819
北口	-10.5821
1947	-10.5822
ことができた	-10.5824
拘	-10.5827
搭乗	-10.5827
小林	-10.5839
化合物	-10.5841
晶	-10.5844
起きた	-10.5847
相撲	-10.5858
とは異なり	-10.5858
トランス	-10.5859
訪	-10.5866
ヌー	-10.5867
加藤	-10.5875
を高め	-10.5876
パワー	-10.5885
顧	-10.5888
ジェン	-10.5891
1946	-10.5895
が生じ	-10.5897
駆逐艦	-10.5897
魔法	-10.5903
酷	-10.5909
振動	-10.591
軍隊	-10.5911
視聴率	-10.5921
集落	-10.5921
ではあるが	-10.5925
胸	-10.5929
ヘンリー	-10.5931
契	-10.5937
ギター	-10.5939
不満	-10.594
シャン	-10.5942
1955	-10.5945
搬	-10.5949
袋	-10.5956
訓	-10.5957
当選	-10.5964
階段	-10.5965
史料	-10.597
構内	-10.5977
乾燥	-10.5977
古墳	-10.5978
棟	-10.5981
跡地	-10.5984
腸	-10.5989
est	-10.599
幹部	-10.6
に属し	-10.6
系電車	-10.6002
ひとつ	-10.6002
位置づけ	-10.6003
卓	-10.6013
男女	-10.6018
iv	-10.6018
酵素	-10.6018
悟	-10.6025
ぱ	-10.6029
正教会	-10.6032
限界	-10.6035
試作	-10.604
遭	-10.6045
ようになっている	-10.6045
通貨	-10.605
興行	-10.605
証拠	-10.6051
洲	-10.6052
マルチ	-10.6054
切り替え	-10.6056
驚	-10.6073
旭	-10.6073
鼻	-10.6073
以内	-10.6073
一旦	-10.6083
を利用した	-10.6088
肝	-10.6089
リニューアル	-10.6093
ランキング	-10.6093
敏	-10.6093
負け	-10.6095
議長	-10.6095
第一次世界大戦	-10.6097
son	-10.6099
量産	-10.6102
失われ	-10.611
とは異なる	-10.6112
一緒に	-10.6114
フェン	-10.6115
嫡	-10.6117
一連の	-10.6117
現れる	-10.6118
メロディ	-10.612
診断	-10.6124
反映	-10.6125
振興	-10.6129
オーバー	-10.6135
枢	-10.6137
創刊	-10.6143
1954	-10.6147
ハンガリー	-10.6149
ヒトラー	-10.6158
少なくとも	-10.6158
ことはなかった	-10.616
影響力	-10.6167
仮名	-10.6168
催	-10.6168
鍵	-10.617
療法	-10.618
ロング	-10.6196
希	-10.6201
捉え	-10.6202
移管	-10.6204
幣	-10.6214
ウェル	-10.6215
ワイド	-10.6217
慎	-10.6223
素材	-10.6224
福井	-10.6228
緒	-10.6231
登場人物	-10.6233
非難	-10.6236
電池	-10.6237
倫	-10.6239
グラム	-10.6243
隣接	-10.6245
尺	-10.6252
興味	-10.6253
二つの	-10.6253
共演	-10.6254
瑞	-10.6255
互いに	-10.626
匠	-10.6268
ディーゼル	-10.6272
イヤー	-10.6277
躍	-10.6284
孤	-10.6284
侵入	-10.6285
ォ	-10.6291
厳しい	-10.6295
困	-10.6295
姉	-10.6296
権威	-10.6303
アナログ	-10.6305
証言	-10.6305
リスク	-10.631
shi	-10.6318
ビュー	-10.6319
pri	-10.6324
未満	-10.6326
夷	-10.6326
尿	-10.633
スタンド	-10.6335
収集	-10.6336
未来	-10.6339
むしろ	-10.6342
慶長	-10.6347
比率	-10.6349
蘭	-10.635
取締役	-10.6354
庶	-10.6363
徹底	-10.6367
盆	-10.6371
液体	-10.6381
小田急	-10.6383
乗り換え	-10.6385
但	-10.6392
八幡	-10.6393
1952	-10.6393
が発生する	-10.6396
を構成する	-10.6396
育成	-10.6397
語源	-10.64
当主	-10.64
兆	-10.64
1941	-10.6404
決議	-10.6404
母親	-10.6409
1953	-10.6411
1956	-10.6414
呈	-10.6416
民主主義	-10.642
粘	-10.6425
考案	-10.6428
魏	-10.6434
海洋	-10.6435
原料	-10.6441
ことになり	-10.6442
辞任	-10.6444
新潟県	-10.6444
任命	-10.6454
伝統的な	-10.6455
促	-10.6455
と呼ばれている	-10.6455
1943	-10.6457
縄	-10.6458
包囲	-10.6459
都市圏	-10.6462
讃	-10.6463
京阪	-10.6466
登山	-10.6467
昔	-10.6467
佐賀	-10.647
ライフ	-10.6472
結晶	-10.6473
体験	-10.6474
履	-10.6475
ヴァル	-10.6482
抗議	-10.6487
浴	-10.6492
キロメートル	-10.6497
キャスター	-10.6498
を導入し	-10.6498
定める	-10.65
課題	-10.6503
道具	-10.6504
傘下	-10.6504
機動戦士ガンダム	-10.6504
空襲	-10.6508
創作	-10.6508
訂	-10.6517
ant	-10.6521
昇格	-10.6522
祈	-10.6525
循環	-10.6525
ワールドカップ	-10.6526
ゾン	-10.6533
操縦	-10.6535
倭	-10.6543
ニズム	-10.6544
裂	-10.6545
に向かって	-10.6546
拳	-10.6547
選定	-10.6555
強調	-10.6557
約束	-10.6557
毛利	-10.6561
宣伝	-10.6561
と称され	-10.6567
洛	-10.6567
長野県	-10.657
雀	-10.6572
ってしまった	-10.658
リオン	-10.658
峠	-10.658
栄養	-10.6581
アプリケーション	-10.6593
著作権	-10.6596
継ぎ	-10.6597
秘密	-10.6604
に次ぐ	-10.6606
正規	-10.6608
電波	-10.6612
ウクライナ	-10.6614
禅	-10.6614
謡	-10.6614
侵	-10.662
静岡	-10.6622
番のりば	-10.6623
祖父	-10.6624
嶋	-10.6627
柴	-10.6631
処刑	-10.6633
にくい	-10.6637
疾患	-10.664
配備	-10.6643
our	-10.6649
符号	-10.665
創業	-10.6661
薩	-10.6669
そのうち	-10.6681
芽	-10.6683
予測	-10.6684
論争	-10.6686
般	-10.669
扇	-10.6699
黄色	-10.6701
瞬	-10.6704
療	-10.6705
{	-10.6718
und	-10.6724
桃	-10.6725
ものだった	-10.6728
ファミリー	-10.6729
感情	-10.6735
烈	-10.6738
無視	-10.6745
スウェーデン	-10.6746
に至るまで	-10.6748
放棄	-10.6749
衆議院	-10.6751
終点	-10.6755
を持たない	-10.6757
緩和	-10.6761
相続	-10.6768
壇	-10.6773
征服	-10.6778
に至った	-10.6782
生じた	-10.6782
旧暦	-10.6783
フィリピン	-10.6798
敷地	-10.6803
溝	-10.6811
世紀末	-10.6812
魂	-10.6816
揺	-10.6816
亡命	-10.682
堺	-10.6824
乗客	-10.6831
死刑	-10.6834
再編	-10.6835
始発	-10.6836
司令部	-10.6842
委	-10.6847
撤	-10.6847
往	-10.685
理想	-10.685
―	-10.6855
感覚	-10.6863
きょう	-10.6864
上がり	-10.687
ヒュー	-10.6872
独占	-10.6882
分散	-10.6889
暫定	-10.6899
であって	-10.6901
アカデミー	-10.6903
貝	-10.6903
牌	-10.6903
騎士	-10.6913
沙	-10.6916
拓	-10.6917
ライセンス	-10.692
静岡県	-10.6921
併設	-10.6922
寸	-10.6925
スイッチ	-10.6933
態度	-10.6934
1957	-10.6936
皇后	-10.6937
認知	-10.6939
炭素	-10.6942
珠	-10.6942
監視	-10.695
受験	-10.6951
イラスト	-10.6956
テレビドラマ	-10.6961
が形成され	-10.6962
疑問	-10.6963
国籍	-10.6968
凍	-10.6977
を中心とする	-10.6978
スクール	-10.6979
詰	-10.6981
sion	-10.6986
零	-10.6991
守備	-10.7
出資	-10.7003
克	-10.7004
揮	-10.7033
童	-10.7052
既	-10.7058
妨	-10.7066
鮮	-10.7071
泳	-10.711
揃	-10.7132
柏	-10.715
丈	-10.7164
堤	-10.7173
蜂	-10.7186
衰	-10.7198
洪	-10.72
辰	-10.7268
虚	-10.7286
飼	-10.7289
尻	-10.7327
浩	-10.7336
幻	-10.7395
亭	-10.7409
畜	-10.7414
潤	-10.7446
椎	-10.7451
赴	-10.7474
掲	-10.7486
召	-10.7487
–	-10.7492
僕	-10.7493
哲	-10.7493
依	-10.7523
蒸	-10.7524
賃	-10.7537
宜	-10.7557
滞	-10.7635
危	-10.7652
乏	-10.7656
忍	-10.7684
妊	-10.7693
肺	-10.7694
鈴	-10.7694
軒	-10.7694
篠	-10.7717
肢	-10.7732
怖	-10.7798
暮	-10.782
勘	-10.7836
猟	-10.7841
朗	-10.7841
疎	-10.7861
陶	-10.7865
乾	-10.787
抑	-10.7881
菓	-10.7889
逐	-10.7908
釣	-10.7909
掃	-10.7914
汚	-10.7923
鋭	-10.7923
慢	-10.7928
冒	-10.7957
癌	-10.7986
拍	-10.8011
籠	-10.805
煮	-10.806
腰	-10.8104
胴	-10.8124
舟	-10.8124
勉	-10.8128
埼	-10.8143
絡	-10.819
疫	-10.8218
茎	-10.8223
酵	-10.8256
尋	-10.8283
歓	-10.8293
輔	-10.8303
邪	-10.8318
徹	-10.8343
諾	-10.8363
稀	-10.8368
穀	-10.8394
寮	-10.8399
祐	-10.8404
宛	-10.8414
誓	-10.8414
粛	-10.8439
奴	-10.8455
斬	-10.847
鋳	-10.8476
践	-10.8501
擬	-10.8537
窒	-10.8656
涼	-10.8672
黙	-10.8677
遮	-10.8698
維	-10.8723
緯	-10.8753
侍	-10.8756
緊	-10.8769
汁	-10.8776
郭	-10.8792
羊	-10.8797
綿	-10.8808
澄	-10.8824
是	-10.8824
魅	-10.8834
篇	-10.884
宏	-10.8856
衝	-10.8863
壌	-10.8893
畠	-10.8903
賊	-10.892
蒙	-10.892
梨	-10.893
α	-10.8936
菜	-10.8946
乙	-10.8952
慈	-10.8962
汎	-10.8968
國	-10.8973
到	-10.8984
雇	-10.8985
漏	-10.9032
苗	-10.906
塾	-10.9065
炉	-10.9071
猪	-10.9076
釜	-10.9076
謙	-10.9098
戯	-10.9136
賜	-10.9136
翔	-10.919
貼	-10.9202
淀	-10.9246
猫	-10.9251
遡	-10.9268
忘	-10.9295
浸	-10.9306
乃	-10.9312
后	-10.9319
猿	-10.9351
湘	-10.9351
瓦	-10.9357
叔	-10.9374
偉	-10.9486
倣	-10.9503
臭	-10.952
責	-10.9546
糧	-10.9549
拒	-10.956
蛇	-10.9577
隅	-10.9583
}	-10.9596
蓋	-10.96
遍	-10.9617
淵	-10.9617
刃	-10.9623
紛	-10.9628
函	-10.9649
於	-10.9663
磯	-10.9669
鍋	-10.9674
穏	-10.9709
敦	-10.9715
轄	-10.9719
欄	-10.9721
髄	-10.9721
砕	-10.975
斗	-10.9762
卒	-10.9829
萩	-10.9837
趣	-10.9877
僅	-10.9896
凝	-10.9926
妥	-10.9955
隈	-10.9961
閏	-10.9961
据	-10.9973
錯	-10.9973
泥	-10.9985
焦	-11.0062
匹	-11.0063
忌	-11.0068
胡	-11.008
餌	-11.011
嵐	-11.0122
麓	-11.0135
班	-11.0147
霧	-11.0153
菩	-11.0159
錦	-11.0208
琴	-11.0213
槍	-11.0214
趙	-11.0238
阻	-11.0292
絞	-11.0299
帥	-11.0311
懸	-11.0316
准	-11.0342
累	-11.0342
儒	-11.0354
腫	-11.0354
鳳	-11.0361
噂	-11.0404
銚	-11.0442
鴨	-11.046
剥	-11.0472
椅	-11.0504
胞	-11.0534
擦	-11.0541
鯨	-11.0668
寧	-11.0675
企	-11.0682
妖	-11.0713
瓶	-11.0738
幽	-11.0751
碁	-11.0751
吐	-11.0751
缶	-11.0757
菅	-11.0764
雌	-11.0783
嫁	-11.079
慰	-11.0828
肖	-11.0828
閲	-11.0835
貢	-11.0835
褐	-11.0854
廷	-11.0874
簿	-11.0893
ヲ	-11.0906
粒	-11.0906
鶏	-11.0926
燕	-11.0926
弧	-11.0945
錬	-11.0985
墨	-11.1011
呪	-11.1031
輌	-11.1065
涙	-11.1097
叩	-11.1124
−	-11.1144
亮	-11.1217
烏	-11.1238
午	-11.1238
疲	-11.1251
胆	-11.1292
姻	-11.1299
咲	-11.1299
奮	-11.1305
屯	-11.1305
賭	-11.1319
己	-11.1384
窮	-11.1387
叡	-11.1422
巧	-11.1442
殆	-11.1497
牡	-11.1525
綻	-11.1539
諭	-11.1539
辻	-11.1539
桐	-11.1546
藻	-11.1546
輸	-11.155
麺	-11.158
淳	-11.1588
脊	-11.1601
棚	-11.1615
遼	-11.1651
縛	-11.1651
漬	-11.1714
租	-11.1721
芦	-11.1721
綴	-11.1735
坑	-11.1742
醸	-11.1742
惨	-11.1749
吊	-11.1764
渋	-11.1796
彗	-11.1814
敢	-11.1827
悼	-11.1864
嘆	-11.1871
謎	-11.1878
懲	-11.1964
秩	-11.1971
☆	-11.1979
堆	-11.1994
畳	-11.2015
患	-11.2055
鼓	-11.2067
傑	-11.2067
ζ	-11.2074
玩	-11.2088
睦	-11.2103
楠	-11.2125
豚	-11.2125
漫	-11.213
渓	-11.214
廻	-11.2155
郵	-11.2161
朴	-11.217
拾	-11.2192
嗣	-11.2207
揆	-11.2214
昧	-11.2214
壮	-11.2214
戴	-11.2229
隙	-11.2237
綾	-11.2296
鍛	-11.2303
幌	-11.2318
湊	-11.2319
俺	-11.2333
陀	-11.2357
舷	-11.2364
ā	-11.2379
詠	-11.2394
泌	-11.2432
捜	-11.2432
飢	-11.2447
駄	-11.247
暑	-11.2485
鐘	-11.2485
庵	-11.2501
條	-11.2501
拉	-11.2546
酔	-11.2554
酢	-11.2569
《	-11.2585
痕	-11.2585
稽	-11.2616
誉	-11.2622
》	-11.2639
鳩	-11.267
戚	-11.2678
娠	-11.2717
騰	-11.2741
泣	-11.278
挑	-11.2816
μ	-11.2827
幡	-11.2833
胃	-11.2835
汽	-11.2859
倶	-11.2875
樽	-11.2883
挿	-11.2893
腺	-11.293
潰	-11.2954
頓	-11.2994
跳	-11.3027
哉	-11.3027
槻	-11.3035
嶺	-11.3043
枕	-11.3043
甥	-11.3051
舌	-11.3059
樺	-11.3067
蛍	-11.3084
挫	-11.3091
仰	-11.3095
詣	-11.3115
廉	-11.314
填	-11.3148
靖	-11.3157
藍	-11.3157
慕	-11.3206
粧	-11.3214
萌	-11.3222
叫	-11.323
帽	-11.3255
琵	-11.3255
究	-11.3263
枯	-11.3263
諱	-11.3263
岬	-11.3271
臼	-11.3288
廟	-11.3297
礁	-11.3321
蹴	-11.3338
翻	-11.3345
棲	-11.3346
沸	-11.3346
盟	-11.3349
恭	-11.3379
泡	-11.338
厩	-11.3396
飽	-11.3405
耗	-11.3472
粗	-11.3488
俣	-11.3489
潔	-11.3505
β	-11.3506
闇	-11.3506
篤	-11.353
ァ	-11.3608
袁	-11.3616
曾	-11.3617
裸	-11.3667
顎	-11.3668
斯	-11.3685
漂	-11.3711
宴	-11.3728
酬	-11.3728
迦	-11.3736
胎	-11.3754
頑	-11.3788
需	-11.3812
扶	-11.3814
韻	-11.3823
甚	-11.3832
廊	-11.3833
佳	-11.3841
骸	-11.3841
貌	-11.3867
娯	-11.3885
鎌	-11.3945
暇	-11.3955
抵	-11.3963
栖	-11.3964
卑	-11.3964
抄	-11.3982
慌	-11.4017
囚	-11.4097
塊	-11.4125
皿	-11.4134
俳	-11.4194
靴	-11.4206
賄	-11.4215
挨	-11.4215
拶	-11.4224
肯	-11.4233
舗	-11.4277
刷	-11.4315
焉	-11.4315
栃	-11.4333
彙	-11.4334
楕	-11.4334
侶	-11.4343
墳	-11.4378
坪	-11.4407
彫	-11.4434
俵	-11.4435
癒	-11.4435
ぴ	-11.4454
凶	-11.4472
蜜	-11.4482
柵	-11.451
釧	-11.4529
遽	-11.4538
伽	-11.4547
凡	-11.4557
赦	-11.4585
汲	-11.4623
撰	-11.4623
笛	-11.4632
吏	-11.4642
閑	-11.4698
睡	-11.4708
楊	-11.4718
檀	-11.4737
砦	-11.4746
†	-11.4765
盲	-11.4804
箕	-11.4823
濁	-11.4833
跨	-11.4843
○	-11.4862
狼	-11.4862
腔	-11.4901
蔣	-11.4909
畿	-11.4918
奔	-11.492
裔	-11.492
楚	-11.493
茨	-11.493
悔	-11.4949
稚	-11.4989
盾	-11.5038
胤	-11.5116
刈	-11.5127
苑	-11.5138
捧	-11.5157
凱	-11.5187
匿	-11.5187
逝	-11.5196
霞	-11.5207
牝	-11.5237
斑	-11.5247
誕	-11.529
а	-11.536
弊	-11.5378
湧	-11.5389
汰	-11.5399
醤	-11.5409
詔	-11.544
遥	-11.544
餅	-11.5471
牟	-11.5471
牙	-11.5491
橘	-11.5523
笹	-11.5533
慮	-11.5541
縣	-11.5553
賑	-11.5553
諦	-11.5574
袖	-11.5595
峡	-11.5601
培	-11.5606
哀	-11.5627
冥	-11.5637
灘	-11.5637
ü	-11.5668
脆	-11.5679
迂	-11.5689
惧	-11.57
憂	-11.5721
窟	-11.5732
憧	-11.5742
錐	-11.5753
潟	-11.5765
嶽	-11.5784
梶	-11.5784
摘	-11.5815
耶	-11.5837
唯	-11.5877
瘍	-11.588
婿	-11.5902
欽	-11.5913
懇	-11.5924
鷲	-11.5924
萬	-11.5934
腎	-11.5934
辱	-11.5956
帆	-11.5967
窪	-11.6032
傘	-11.6034
藝	-11.6075
楼	-11.6086
殉	-11.6119
莫	-11.613
忙	-11.6152
迅	-11.6152
徐	-11.6163
喩	-11.6175
曰	-11.6175
攘	-11.6208
濫	-11.6241
欺	-11.6252
剖	-11.6263
喚	-11.6274
膝	-11.6296
聘	-11.6297
歪	-11.6308
鞍	-11.6319
坦	-11.6319
о	-11.6328
噌	-11.633
庇	-11.6353
圓	-11.6364
央	-11.6383
榎	-11.6387
舵	-11.6432
溜	-11.65
櫓	-11.6511
汗	-11.6523
灌	-11.6557
※	-11.6595
祇	-11.6615
謳	-11.6615
猶	-11.6615
惟	-11.6626
爪	-11.6638
▲	-11.6685
褒	-11.6719
績	-11.6732
挺	-11.6742
桓	-11.6754
寅	-11.6755
硝	-11.6778
頸	-11.6801
槽	-11.6813
紳	-11.6824
ヵ	-11.6824
唄	-11.6825
峨	-11.6837
肌	-11.6884
毅	-11.6895
鐵	-11.6908
隼	-11.6908
漆	-11.6931
〇	-11.6955
汐	-11.6967
崖	-11.6967
鞭	-11.6979
壬	-11.6979
塵	-11.6979
黎	-11.6991
憩	-11.6991
股	-11.6992
凌	-11.7003
隋	-11.7016
喧	-11.7075
愚	-11.71
縫	-11.7112
茅	-11.7136
尖	-11.7172
戊	-11.7184
嵯	-11.7185
蛮	-11.7209
渦	-11.7209
巳	-11.7209
ゞ	-11.7221
勃	-11.724
憎	-11.727
捻	-11.7332
錠	-11.7369
験	-11.7374
辿	-11.7382
鱗	-11.7382
恥	-11.7419
惣	-11.742
曳	-11.7445
嚢	-11.7457
糾	-11.7507
σ	-11.7532
馴	-11.7533
梗	-11.7558
恨	-11.7558
蔑	-11.7571
諡	-11.7584
詐	-11.7596
購	-11.7604
批	-11.7607
鉢	-11.7647
滋	-11.766
炊	-11.7712
悠	-11.775
眺	-11.775
ا	-11.7763
哨	-11.7776
寵	-11.7789
棺	-11.7867
諮	-11.788
痺	-11.7893
и	-11.7902
蜀	-11.7907
其	-11.7907
祷	-11.7919
惜	-11.792
荻	-11.792
麹	-11.7932
亘	-11.7933
頁	-11.7959
昨	-11.7972
惹	-11.7972
胚	-11.7972
而	-11.7986
暁	-11.7999
芥	-11.8012
鵜	-11.8012
嗜	-11.8039
熙	-11.804
渕	-11.8065
媛	-11.8118
渤	-11.8189
嘘	-11.8213
ゥ	-11.823
廠	-11.8253
芋	-11.8254
卸	-11.8267
柿	-11.8267
纏	-11.8267
俸	-11.8308
憤	-11.8322
窺	-11.8322
或	-11.8336
疾	-11.8376
薫	-11.839
麟	-11.8391
癖	-11.8391
畔	-11.8404
丼	-11.8432
粟	-11.8474
冪	-11.8488
晃	-11.8502
冶	-11.8516
圭	-11.853
絹	-11.8544
輛	-11.8586
云	-11.8586
儲	-11.86
雛	-11.8614
鴻	-11.8628
魯	-11.8642
瞭	-11.8642
ö	-11.8684
邑	-11.8685
殴	-11.8713
漸	-11.8741
★	-11.8756
騨	-11.877
蹄	-11.8784
峙	-11.8813
叶	-11.8827
抹	-11.8827
榴	-11.8885
【	-11.8885
】	-11.8885
弔	-11.8914
紹	-11.8942
ヂ	-11.8943
筐	-11.8987
餓	-11.9002
孟	-11.9016
怠	-11.9016
憑	-11.9031
ä	-11.9046
槓	-11.9075
鰭	-11.909
粋	-11.9119
渇	-11.9134
痘	-11.9135
獅	-11.915
ぁ	-11.9164
斥	-11.9164
р	-11.9222
譚	-11.9224
學	-11.9224
鄭	-11.9239
禍	-11.9284
〕	-11.9299
〔	-11.9314
е	-11.9328
橿	-11.936
晒	-11.9375
盧	-11.9421
讐	-11.9421
杜	-11.9482
喉	-11.9482
款	-11.9497
奄	-11.9513
á	-11.9528
傭	-11.9528
巴	-11.9574
董	-11.9575
н	-11.9585
醒	-11.959
杖	-11.959
詮	-11.9606
紡	-11.9606
爾	-11.9653
冗	-11.9668
堕	-11.9668
貰	-11.9668
溢	-11.9684
饉	-11.97
箇	-11.9709
虹	-11.9715
滴	-11.973
搾	-11.9731
隷	-11.9747
謁	-11.9762
濯	-11.981
嶼	-11.981
蒼	-11.9873
紐	-11.989
蝶	-11.9922
噛	-11.9938
匈	-11.997
樋	-11.9986
叱	-11.9986
殷	-12.0002
矮	-12.0035
撫	-12.0035
栓	-12.0035
薙	-12.0051
只	-12.0068
叉	-12.0084
餐	-12.01
喰	-12.01
稜	-12.0116
凄	-12.0117
綬	-12.0166
婆	-12.0166
瑠	-12.0166
堵	-12.0216
罷	-12.0232
凸	-12.0248
─	-12.0265
丞	-12.0282
δ	-12.0315
亥	-12.0332
諜	-12.0348
罹	-12.0365
晦	-12.0365
鈍	-12.0365
唇	-12.0365
菱	-12.0374
聡	-12.0416
凹	-12.0416
^	-12.0416
牽	-12.0431
狛	-12.0432
桶	-12.045
堰	-12.0467
諫	-12.05
檜	-12.0501
嘱	-12.0552
侮	-12.0603
嘩	-12.0637
姦	-12.0638
煉	-12.0638
璧	-12.0638
悦	-12.0655
ぺ	-12.0655
蔽	-12.0672
寂	-12.0759
煩	-12.0777
裾	-12.0777
蔓	-12.0794
牢	-12.0794
掴	-12.0811
曇	-12.0829
狗	-12.0829
捉	-12.0834
拐	-12.0865
△	-12.0865
峯	-12.09
氾	-12.09
串	-12.0917
謹	-12.0918
с	-12.0931
ó	-12.0935
険	-12.1004
寇	-12.1007
寡	-12.1007
‐	-12.1024
析	-12.1029
朋	-12.1043
鬱	-12.1043
嵩	-12.1061
鞘	-12.1097
嘴	-12.1133
眞	-12.117
炒	-12.1187
膠	-12.1224
乞	-12.1224
拷	-12.1225
疇	-12.1279
朽	-12.1297
曝	-12.1297
聚	-12.1298
杵	-12.1334
濱	-12.1352
呑	-12.1353
璃	-12.1353
峻	-12.1371
苫	-12.1372
茹	-12.139
膳	-12.1408
霜	-12.1408
ω	-12.1446
毘	-12.1465
λ	-12.1484
賓	-12.1484
苔	-12.1502
賦	-12.1502
蕃	-12.1504
朔	-12.1521
榜	-12.154
廣	-12.1559
壱	-12.156
麿	-12.1578
煎	-12.1654
璽	-12.1654
芯	-12.1692
壕	-12.1692
к	-12.1704
喝	-12.1711
遵	-12.1711
扁	-12.175
咸	-12.177
嬉	-12.1808
糞	-12.1847
鎧	-12.1847
’	-12.1866
畝	-12.1866
孵	-12.1866
埴	-12.1867
瀧	-12.1886
壺	-12.1906
煽	-12.1925
殊	-12.1982
庚	-12.1984
宙	-12.2003
訛	-12.2024
杭	-12.2043
в	-12.2063
繕	-12.2063
喪	-12.2101
舘	-12.2123
做	-12.2123
冨	-12.2124
肘	-12.2124
丙	-12.2144
酎	-12.2163
漑	-12.2184
厄	-12.2204
礎	-12.2222
珂	-12.2244
堯	-12.2264
γ	-12.2265
逗	-12.2265
捨	-12.2292
葺	-12.2306
~	-12.2366
挽	-12.2367
遜	-12.2387
罵	-12.2387
ν	-12.2407
箸	-12.2407
庸	-12.2428
叢	-12.2448
劾	-12.2449
鵬	-12.2469
于	-12.2491
逓	-12.2511
溺	-12.2511
閤	-12.2511
駕	-12.2512
宕	-12.2532
ī	-12.2553
釘	-12.2553
仇	-12.2574
巫	-12.2574
坐	-12.2574
仔	-12.2594
窃	-12.2616
傀	-12.2637
窯	-12.2637
勾	-12.2656
螺	-12.2658
伍	-12.2658
扮	-12.27
且	-12.27
繊	-12.2721
緻	-12.2721
鋒	-12.2722
厨	-12.2742
苛	-12.2764
拭	-12.2785
匂	-12.2806
荊	-12.2806
ヅ	-12.2807
沃	-12.2829
縞	-12.285
碧	-12.2893
昆	-12.2936
棘	-12.2936
拗	-12.2958
è	-12.2958
矯	-12.2979
頒	-12.2979
机	-12.3001
痴	-12.3001
尹	-12.3023
姪	-12.3024
斐	-12.3044
桟	-12.3045
允	-12.3068
π	-12.3089
妄	-12.309
堪	-12.3133
采	-12.3133
陪	-12.3133
叛	-12.3134
陛	-12.3134
溥	-12.3177
榛	-12.3177
煕	-12.32
喋	-12.32
屏	-12.3222
ل	-12.3223
紺	-12.3245
此	-12.3245
爬	-12.3267
稙	-12.3312
耆	-12.3335
襄	-12.3335
í	-12.3335
殲	-12.3335
勒	-12.3335
毀	-12.3335
髙	-12.338
斡	-12.338
泄	-12.3403
帖	-12.3403
椿	-12.3426
逢	-12.3426
輿	-12.3427
槃	-12.3448
瞳	-12.3449
燈	-12.3472
蝕	-12.3472
禰	-12.3472
旦	-12.3483
渥	-12.3517
馳	-12.3517
т	-12.3561
慧	-12.3587
鹸	-12.3656
迭	-12.3703
蛋	-12.3703
荀	-12.3726
徽	-12.3727
莽	-12.3727
涅	-12.3749
嬢	-12.375
卯	-12.375
櫛	-12.3774
錫	-12.3774
翁	-12.3797
杏	-12.3797
怨	-12.3798
巾	-12.3798
踪	-12.3821
糠	-12.3845
@	-12.3869
甫	-12.3917
ε	-12.394
轢	-12.394
撒	-12.3941
祚	-12.3941
ぢ	-12.3964
眉	-12.3965
吟	-12.3988
禽	-12.3989
蘆	-12.3989
ゐ	-12.3989
誅	-12.4013
曼	-12.4013
埠	-12.4037
巌	-12.4037
瀕	-12.4061
斧	-12.4062
箏	-12.4084
$	-12.4085
萎	-12.4109
捗	-12.411
л	-12.411
騙	-12.4159
‰	-12.4159
按	-12.4159
梵	-12.4184
墾	-12.4208
矩	-12.4209
碓	-12.4232
鷺	-12.4233
旺	-12.4233
聯	-12.4257
ū	-12.4307
疆	-12.4357
鸞	-12.4357
弐	-12.4357
禎	-12.4382
梱	-12.4407
妬	-12.4407
舜	-12.4433
竪	-12.4433
濠	-12.4483
鮎	-12.4483
淘	-12.4508
畷	-12.4509
剃	-12.4534
酪	-12.4534
擲	-12.4535
兜	-12.4585
薇	-12.4611
嗅	-12.4636
葦	-12.4637
淑	-12.4662
隘	-12.4688
洩	-12.4688
梓	-12.4688
瓜	-12.4689
楯	-12.4714
荼	-12.4714
ぇ	-12.474
ο	-12.4766
寓	-12.4792
薔	-12.4818
梯	-12.4842
伺	-12.4844
鄧	-12.4844
礫	-12.4845
宦	-12.4871
択	-12.4895
郁	-12.4924
憶	-12.4973
痢	-12.5003
崗	-12.503
亨	-12.5031
襟	-12.5031
薦	-12.5083
熾	-12.5084
衙	-12.5084
痙	-12.511
轟	-12.5111
雁	-12.5138
站	-12.5138
隕	-12.5165
薨	-12.5165
蚕	-12.5165
卷	-12.5174
娼	-12.5192
慨	-12.5219
φ	-12.5219
雍	-12.522
稔	-12.5246
ρ	-12.5246
衷	-12.5247
閃	-12.5274
蟹	-12.5301
皐	-12.5356
瑜	-12.5356
升	-12.5385
嘗	-12.5412
蔭	-12.5412
較	-12.5439
攣	-12.5439
●	-12.544
邇	-12.544
捏	-12.5468
栽	-12.5552
宍	-12.5552
葵	-12.5552
渠	-12.558
摺	-12.5609
漕	-12.5609
薪	-12.5637
醜	-12.5637
弼	-12.5637
厥	-12.5667
懿	-12.5723
橙	-12.5752
努	-12.5755
櫻	-12.578
榊	-12.5839
髭	-12.5897
謂	-12.5897
逼	-12.5925
妾	-12.5955
距	-12.5984
弄	-12.5984
揖	-12.5985
掻	-12.5985
靭	-12.6014
竺	-12.6014
樫	-12.6015
膣	-12.6043
ぃ	-12.6044
痩	-12.6074
±	-12.6103
蕭	-12.6103
塀	-12.6103
塑	-12.6103
濡	-12.6133
阮	-12.6133
揉	-12.6133
珪	-12.6163
鍾	-12.6163
軋	-12.6193
絆	-12.6193
炸	-12.6193
ι	-12.6223
ن	-12.6223
à	-12.6283
粕	-12.6345
綺	-12.6375
焚	-12.6375
團	-12.6405
虔	-12.6406
鹵	-12.6468
汪	-12.6498
匁	-12.6498
撲	-12.6501
嫉	-12.6529
卦	-12.6561
爺	-12.6561
邊	-12.6561
篭	-12.6591
箔	-12.6592
某	-12.6623
廿	-12.6623
乖	-12.6623
·	-12.6654
梢	-12.6655
餃	-12.6655
<	-12.6684
佑	-12.6717
酉	-12.6718
蝋	-12.6749
堡	-12.6781
疏	-12.6814
頬	-12.6814
珊	-12.6845
ç	-12.6845
嵌	-12.6846
竿	-12.6846
註	-12.6846
奢	-12.6846
д	-12.6874
渾	-12.6877
喘	-12.6878
錆	-12.691
捷	-12.691
應	-12.6942
翅	-12.6942
擾	-12.6974
墟	-12.6974
囃	-12.6975
葡	-12.7007
弩	-12.7007
冑	-12.7007
嬰	-12.7008
脩	-12.704
撥	-12.704
耽	-12.704
勿	-12.7072
掩	-12.7072
彬	-12.7073
罠	-12.7106
侠	-12.7138
丑	-12.7139
姜	-12.7171
會	-12.7172
遙	-12.7172
τ	-12.7172
ي	-12.7205
曙	-12.7237
爽	-12.7238
鉾	-12.7238
嚇	-12.7238
—	-12.7272
賤	-12.7305
椒	-12.7305
楔	-12.7339
僑	-12.7339
娶	-12.7339
瑚	-12.7372
膵	-12.7374
噺	-12.7406
м	-12.7434
š	-12.7441
屠	-12.7441
詫	-12.7441
狐	-12.7441
簒	-12.7441
鰓	-12.7441
昏	-12.7509
濾	-12.7543
蕉	-12.7543
飴	-12.7543
漱	-12.7544
錘	-12.7544
彷	-12.7578
柑	-12.7612
賂	-12.7612
鼠	-12.7612
汝	-12.7647
祓	-12.7647
蒔	-12.7682
芹	-12.7682
輻	-12.7682
妓	-12.7682
膏	-12.7682
淮	-12.7683
繰	-12.7703
諧	-12.7716
拮	-12.7717
畏	-12.7752
渉	-12.7783
漠	-12.7786
藁	-12.7787
錮	-12.7787
咽	-12.7787
崔	-12.7788
俯	-12.7822
蹟	-12.7822
瞑	-12.7858
匡	-12.7858
翠	-12.7893
暫	-12.7925
瓊	-12.7929
漿	-12.7929
魁	-12.793
鯉	-12.7965
砺	-12.7965
牒	-12.8001
肛	-12.8001
彌	-12.8001
夭	-12.8037
卜	-12.8037
贅	-12.8037
戮	-12.8038
嘲	-12.8146
旛	-12.8147
贄	-12.8147
璋	-12.8183
疹	-12.8183
傳	-12.8183
恣	-12.8183
洒	-12.822
呆	-12.822
荏	-12.8293
砥	-12.8293
筈	-12.8293
厭	-12.8293
臥	-12.8368
蔡	-12.8368
偲	-12.8368
惚	-12.8406
拙	-12.8406
′	-12.8406
芭	-12.8443
劫	-12.848
κ	-12.8481
ر	-12.8481
腿	-12.8481
嘔	-12.8519
戌	-12.8519
浙	-12.8556
犀	-12.8557
竈	-12.8557
兎	-12.8557
婢	-12.8557
矛	-12.8557
掟	-12.8595
喬	-12.8595
趾	-12.8595
顆	-12.8595
腱	-12.8633
祢	-12.8635
玲	-12.8672
肋	-12.8709
鉤	-12.871
辣	-12.871
祠	-12.8711
讒	-12.8711
圀	-12.8749
訶	-12.8749
й	-12.8779
湛	-12.8788
咎	-12.8788
實	-12.8827
篆	-12.8827
熹	-12.8827
這	-12.8828
遁	-12.8828
倹	-12.8866
艤	-12.8906
虞	-12.8906
冤	-12.8945
鼎	-12.8945
⇒	-12.8985
萱	-12.9025
渚	-12.9025
佛	-12.9064
宥	-12.9065
屑	-12.9104
م	-12.9105
□	-12.9105
蕩	-12.9145
紗	-12.9185
穿	-12.9185
崋	-12.9185
藪	-12.9186
謬	-12.9226
馮	-12.9226
穣	-12.9227
紆	-12.9267
址	-12.9267
ゑ	-12.9267
賈	-12.9268
邱	-12.9307
槌	-12.9308
綜	-12.9309
翰	-12.9309
吠	-12.9351
餡	-12.939
昂	-12.939
θ	-12.9391
у	-12.9422
г	-12.943
鋸	-12.9432
穢	-12.9433
粥	-12.9474
竄	-12.9515
━	-12.9516
ō	-12.9516
萄	-12.9557
覗	-12.9599
迹	-12.96
托	-12.96
秤	-12.96
淫	-12.96
≒	-12.96
肇	-12.96
馨	-12.9642
陝	-12.9684
謗	-12.9685
蚊	-12.9685
廓	-12.9728
饗	-12.9728
鷗	-12.9813
綸	-12.9814
欣	-12.9814
塹	-12.9857
齋	-12.9857
凰	-12.9858
僭	-12.99
玖	-12.99
﨑	-12.9944
∈	-12.9944
鯖	-12.9944
蓬	-12.9988
裳	-12.999
甕	-13.0032
攪	-13.0032
袴	-13.0032
盃	-13.0076
ñ	-13.0076
婁	-13.0076
沌	-13.0077
彭	-13.012
傲	-13.012
鉉	-13.0165
拿	-13.0209
吻	-13.021
戎	-13.021
ร	-13.0211
躯	-13.0211
悉	-13.0255
驤	-13.0255
麒	-13.0256
棍	-13.03
跋	-13.0301
把	-13.0345
弛	-13.0346
唾	-13.0391
憾	-13.0391
厘	-13.0392
楢	-13.0437
怯	-13.0438
涌	-13.0483
誹	-13.0483
轍	-13.053
←	-13.053
禿	-13.0576
菖	-13.0576
哺	-13.0576
兌	-13.0576
酋	-13.0623
韋	-13.0623
桿	-13.067
鮫	-13.067
樟	-13.067
套	-13.0716
范	-13.0717
莢	-13.0717
墺	-13.0764
閩	-13.0765
芙	-13.0765
艶	-13.0812
臆	-13.086
愉	-13.086
偵	-13.0905
頌	-13.0908
傅	-13.0956
糊	-13.0956
宸	-13.0956
誦	-13.0957
槇	-13.1005
η	-13.1005
煤	-13.1005
蛭	-13.1005
虜	-13.1053
碍	-13.1053
و	-13.1054
∀	-13.1054
禹	-13.1102
ô	-13.1103
鰻	-13.1152
鮭	-13.1152
廬	-13.1152
斤	-13.1201
♭	-13.1201
駁	-13.1201
ı	-13.1201
箋	-13.1202
灸	-13.1202
迄	-13.1202
霖	-13.1251
麾	-13.1251
貪	-13.1251
燻	-13.1251
鍮	-13.1251
與	-13.1251
琳	-13.13
豫	-13.1301
媚	-13.1301
凋	-13.1352
祟	-13.1402
艘	-13.1452
諌	-13.1453
掠	-13.1453
蟄	-13.1503
羹	-13.1503
滸	-13.1504
韮	-13.1504
咳	-13.1555
胱	-13.1555
膀	-13.1555
讀	-13.1555
琢	-13.1555
冀	-13.1555
衞	-13.1606
窩	-13.1606
癸	-13.1711
า	-13.1711
姑	-13.1763
穎	-13.1763
奘	-13.1815
â	-13.1815
巷	-13.1815
證	-13.1815
憐	-13.1816
饅	-13.1868
耀	-13.1868
訊	-13.1868
鰐	-13.1868
佃	-13.1869
什	-13.1921
垢	-13.1975
ß	-13.1975
惠	-13.1975
舒	-13.1975
槐	-13.1976
豹	-13.2028
靡	-13.2028
姚	-13.2029
◎	-13.2029
亢	-13.2029
郊	-13.2116
壽	-13.2136
毫	-13.2137
脾	-13.214
狸	-13.2192
佩	-13.2192
緋	-13.2192
愁	-13.2192
♪	-13.2192
б	-13.2242
捌	-13.2246
刹	-13.2247
п	-13.2302
蔚	-13.2358
⇔	-13.2358
÷	-13.2413
趨	-13.2413
渭	-13.2414
ø	-13.2469
鰹	-13.2469
躁	-13.2469
酌	-13.247
疽	-13.247
雫	-13.247
ú	-13.2526
閘	-13.2526
櫃	-13.2527
ヱ	-13.2527
雉	-13.2582
ب	-13.2583
柚	-13.2583
衍	-13.2583
蒐	-13.2639
濤	-13.264
瀋	-13.264
菟	-13.2755
箪	-13.2755
瞞	-13.2756
蟻	-13.2756
蛛	-13.2757
س	-13.2813
懺	-13.2813
皝	-13.2817
彧	-13.2872
邁	-13.2872
煌	-13.2872
瘤	-13.2872
簾	-13.2872
鋏	-13.2872
贖	-13.2873
杷	-13.293
丕	-13.2931
巽	-13.299
沫	-13.299
■	-13.299
撹	-13.299
鞆	-13.3049
椋	-13.3049
贋	-13.305
銑	-13.305
枇	-13.3109
浚	-13.3109
鯛	-13.311
鞠	-13.3111
睨	-13.3169
蓉	-13.317
恪	-13.3171
я	-13.3226
槿	-13.323
咬	-13.323
暢	-13.3291
碩	-13.3291
奸	-13.3291
繍	-13.3291
ั	-13.3292
蜘	-13.3293
ł	-13.3352
د	-13.3352
拌	-13.3353
嗚	-13.3353
æ	-13.3414
頚	-13.3414
朕	-13.3414
鯱	-13.3415
摸	-13.3476
摯	-13.3476
閻	-13.3476
笏	-13.3476
裴	-13.3477
霍	-13.3539
磔	-13.3539
抒	-13.3539
籾	-13.3602
釉	-13.3602
ゝ	-13.3603
俘	-13.3665
姥	-13.3666
胥	-13.3666
紘	-13.3727
絃	-13.3729
赳	-13.3729
逍	-13.3729
顛	-13.3729
掾	-13.3731
蕾	-13.3793
茸	-13.3793
赫	-13.3793
忽	-13.3857
哈	-13.3857
壷	-13.3857
»	-13.3858
旱	-13.3858
苅	-13.3858
ь	-13.3922
砧	-13.3922
χ	-13.3922
袂	-13.3923
當	-13.3923
些	-13.3923
膿	-13.3987
貶	-13.3987
屍	-13.3988
鑽	-13.4053
鈔	-13.4053
ē	-13.4054
棹	-13.4054
楷	-13.4055
螢	-13.4118
拼	-13.4119
«	-13.412
瑕	-13.412
靱	-13.4186
燭	-13.4187
瓢	-13.4253
稗	-13.4253
煬	-13.4254
疵	-13.4254
椀	-13.4321
彪	-13.4389
♥	-13.4389
狄	-13.4389
諺	-13.4389
經	-13.4457
絨	-13.4458
脛	-13.4458
疋	-13.446
么	-13.4526
囁	-13.4526
偈	-13.4526
魃	-13.4527
剋	-13.4596
芒	-13.4596
ы	-13.4596
瘡	-13.4596
∞	-13.4596
聾	-13.4666
羌	-13.4666
冴	-13.4666
冲	-13.4668
榮	-13.4736
圃	-13.4736
ा	-13.4736
琥	-13.4737
纂	-13.4803
隧	-13.4807
ê	-13.4807
饒	-13.4808
帷	-13.4808
珀	-13.4808
煥	-13.4878
謄	-13.495
å	-13.4951
्	-13.4951
尤	-13.4951
瞰	-13.5023
躙	-13.5095
繹	-13.5096
‘	-13.5096
惰	-13.5097
羨	-13.5169
碗	-13.5169
斂	-13.5169
崑	-13.517
苞	-13.517
悶	-13.517
鞨	-13.5176
綏	-13.5243
≠	-13.5243
猥	-13.5243
柩	-13.5244
з	-13.5308
襖	-13.5318
訣	-13.5319
匝	-13.5393
ヰ	-13.5393
犠	-13.5393
賽	-13.5394
滓	-13.5394
諒	-13.5469
爛	-13.547
惇	-13.5544
蓑	-13.5545
宵	-13.5545
•	-13.5545
齧	-13.5546
枡	-13.5546
繡	-13.5547
瑳	-13.5622
誼	-13.5622
ه	-13.5623
萠	-13.5623
藏	-13.5623
穆	-13.5623
啄	-13.57
υ	-13.57
辟	-13.5701
捲	-13.5701
黛	-13.5778
≪	-13.5778
鍼	-13.5778
賣	-13.5778
茲	-13.5779
軾	-13.5857
碇	-13.5857
č	-13.5857
礦	-13.5857
楓	-13.5858
芻	-13.5935
號	-13.5936
徂	-13.6016
蛙	-13.6016
ψ	-13.6016
游	-13.6016
沮	-13.6017
僻	-13.6096
淋	-13.6096
偕	-13.6097
錨	-13.6097
饋	-13.6097
剪	-13.6097
笥	-13.6098
陞	-13.6115
舶	-13.6175
蛹	-13.6178
邉	-13.6178
潘	-13.6178
鎚	-13.6178
焙	-13.6179
羲	-13.6179
苻	-13.6179
鏃	-13.6179
́	-13.623
澱	-13.6259
坤	-13.626
蕨	-13.626
唆	-13.6341
已	-13.6342
捺	-13.6343
亦	-13.6343
鍬	-13.6344
茄	-13.6426
糟	-13.6426
稠	-13.6426
舫	-13.6426
น	-13.6427
鶯	-13.651
婉	-13.651
櫂	-13.651
卍	-13.651
埃	-13.6511
龐	-13.6512
幟	-13.6595
凪	-13.6595
涵	-13.6595
彅	-13.668
弗	-13.668
蠣	-13.668
燐	-13.668
翡	-13.668
倦	-13.6681
孕	-13.6767
禧	-13.6767
漣	-13.6853
槙	-13.6853
疱	-13.6853
ş	-13.6854
舛	-13.6854
疼	-13.6941
檎	-13.6941
ˈ	-13.6941
蕊	-13.6941
瀞	-13.6941
聰	-13.6941
戔	-13.6942
械	-13.7021
杓	-13.7029
瑛	-13.703
撞	-13.703
≤	-13.703
ë	-13.703
帛	-13.703
ː	-13.703
浬	-13.703
囮	-13.7118
鳶	-13.7119
梧	-13.7119
柘	-13.7119
َ	-13.7119
贔	-13.7119
ś	-13.7119
滲	-13.7119
拵	-13.7119
禮	-13.7209
輯	-13.7209
攀	-13.7209
鴎	-13.7209
幇	-13.7209
沓	-13.721
凧	-13.7299
閔	-13.73
撈	-13.73
奎	-13.73
冉	-13.73
ч	-13.7301
ة	-13.7392
蒜	-13.7392
昴	-13.7392
吃	-13.7483
坡	-13.7484
莉	-13.7484
臀	-13.7484
鎬	-13.7484
關	-13.7484
檄	-13.7484
灼	-13.7577
氣	-13.7578
窄	-13.7578
筏	-13.7578
鵡	-13.7672
虻	-13.7672
來	-13.7673
邯	-13.7673
呟	-13.7673
จ	-13.7673
х	-13.7761
瑾	-13.7767
蕪	-13.7767
ό	-13.7767
瀾	-13.7767
ξ	-13.7767
ج	-13.7767
祁	-13.7768
涜	-13.7768
飜	-13.7863
舅	-13.7863
夙	-13.7863
獨	-13.7863
袍	-13.7864
ぅ	-13.7864
י	-13.7864
咋	-13.796
腋	-13.7961
鏑	-13.7961
ă	-13.7961
檻	-13.7961
竣	-13.8055
憚	-13.8058
梟	-13.8058
î	-13.8058
莱	-13.8058
鞅	-13.8059
桧	-13.8059
莞	-13.8059
桔	-13.8059
↑	-13.806
仄	-13.8157
奠	-13.8158
र	-13.8158
諍	-13.8159
喀	-13.8257
岱	-13.8257
◯	-13.8257
藉	-13.8258
ت	-13.8258
寶	-13.8258
ง	-13.8258
總	-13.8258
隴	-13.8259
裟	-13.8358
咄	-13.8359
驒	-13.8359
俟	-13.8359
ด	-13.8359
毯	-13.836
塙	-13.846
氐	-13.8461
臂	-13.8461
踵	-13.8461
ว	-13.8461
侈	-13.8564
ق	-13.8564
并	-13.8564
措	-13.8986
伎	-13.9206
琉	-13.9773
阜	-13.9774
賠	-13.9891
涯	-14.1011
披	-14.2593
燥	-14.2908
循	-14.3069
蝦	-14.3741
訟	-14.465
搭	-14.5646
該	-14.6739
貿	-15.0081
膚	-15.227
諏	-15.2689
穫	-16.2851
逮	-17.1692
牲	-17.1696
徨	-17.5001
屓	-17.5002
渫	-17.5003
晰	-17.5004
徠	-17.5005
輳	-17.5006
靺	-17.5007
蹂	-17.5008
齬	-17.5009
齟	-17.501
彿	-17.5011
愕	-17.5012
躊	-17.5013
躇	-17.5014
訃	-17.5015
嚆	-17.5016
蕎	-17.5017
儡	-17.5018
揶	-17.5019
揄	-17.502
擢	-17.5021
琶	-17.5022
雰	-17.5023
曖	-17.5024
醐	-17.5025
醍	-17.5026
祉	-17.5027
肪	-17.5027
