<unk>	0
<s>	0
</s>	0
.	-3.02946
ം	-4.08726
▁	-4.18195
,	-4.23369
="	-4.56141
്	-4.58406
"	-4.9576
ു	-4.96206
doc	-4.97552
>	-4.97862
ൽ	-5.27791
ൻ	-5.36036
d	-5.42102
-	-5.43529
▁ഒരു	-5.46778
ങ്ങൾ	-5.53563
/	-5.578
ർ	-5.59574
▁ഈ	-5.60629
▁(	-5.61575
സ്	-5.61728
#	-5.61858
▁#	-5.65133
?	-5.65709
://	-5.65913
org	-5.66033
ml	-5.66535
wiki	-5.6657
https	-5.66769
wikipedia	-5.66795
▁<	-5.668
▁id	-5.67065
curi	-5.67118
▁url	-5.6717
▁categories	-5.67172
▁title	-5.67174
)	-5.67526
▁</	-5.67555
=""	-5.70859
ി	-5.72488
ത്	-5.73029
ത്തിൽ	-5.74402
▁എന്ന	-5.75377
മ	-5.75487
യ	-5.76369
വ	-5.7882
ക	-5.81255
ാ	-5.83252
ത	-5.84171
യിൽ	-5.85048
ന	-5.88305
യുടെ	-5.90413
▁അ	-5.91415
വും	-6.00275
ര	-6.02587
യും	-6.04007
ല	-6.05207
ക്ക	-6.08967
ത്തിന്റെ	-6.11237
കൾ	-6.11528
സ	-6.13604
ും	-6.15392
ിൽ	-6.15855
മാണ്	-6.16141
=	-6.19965
മായ	-6.20549
▁ആ	-6.21566
▁"	-6.29213
ത്ത	-6.32844
റ	-6.36807
ാൻ	-6.37785
മായി	-6.41681
യാണ്	-6.44014
ക്	-6.46411
ാണ്	-6.48735
ട	-6.52688
ത്തെ	-6.53557
േ	-6.55846
ിന്റെ	-6.57197
ണ	-6.58163
ുകൾ	-6.58737
=1	-6.5921
ക്ക്	-6.59885
സി	-6.6071
ുന്ന	-6.63202
വി	-6.63732
ള	-6.68295
യിലെ	-6.69256
യെ	-6.69845
നി	-6.70096
ോ	-6.715
ങ്ങളിൽ	-6.71508
ങ്ങളും	-6.72068
▁മ	-6.72545
പ	-6.73506
െ	-6.73633
പ്പ	-6.74548
▁ക	-6.76686
ുന്നു	-6.76796
ുകയും	-6.79436
▁വി	-6.86217
ട്ട	-6.86538
:	-6.90477
ന്	-6.91213
ലി	-6.91761
ന്റെ	-6.93869
▁സ	-6.94227
▁.	-6.95055
ിലെ	-6.95633
▁അദ്ദേഹം	-6.96061
▁എ	-6.96359
ടി	-6.97342
▁ആണ്	-6.97474
ത്തിലെ	-6.98503
ത്തിന്	-6.99395
ഡ്	-6.99464
ഗ	-7.0114
ദ	-7.01375
ായി	-7.02051
▁ഇത്	-7.0294
റ്റ	-7.02943
▁ത	-7.04743
▁ഇ	-7.06354
ുള്ള	-7.07467
▁വ	-7.08393
s	-7.09266
ച്ച	-7.09591
▁പ്രധാന	-7.0963
ഹ	-7.10247
ജ	-7.10373
ങ്ങളുടെ	-7.12005
ത്ത്	-7.12355
▁ചെയ്തു	-7.12765
ുക	-7.13048
അ	-7.13736
റി	-7.1411
▁ഏറ്റവും	-7.15465
▁തന്നെ	-7.16292
പി	-7.16402
▁നിന്ന്	-7.17
ായ	-7.17561
ിയ	-7.17897
കളിൽ	-7.18294
ക്കു	-7.18483
യുള്ള	-7.19795
ഡ	-7.20465
യോ	-7.20577
▁നിന്നും	-7.20921
ന്ന	-7.21158
ഡി	-7.21455
മി	-7.21825
തി	-7.21901
▁പ്ര	-7.23657
▁19	-7.24113
മുള്ള	-7.24335
▁സി	-7.25066
ൂ	-7.25196
(	-7.25465
;	-7.2624
കളും	-7.26413
ത്തിനു	-7.26902
രി	-7.271
ിക	-7.29345
യ്	-7.29479
ിക്ക	-7.30006
▁എന്നിവ	-7.32694
▁പ	-7.32876
ുന്നത്	-7.33184
▁ഉ	-7.3347
തു	-7.34451
പ്പെട്ട	-7.34473
മാ	-7.34698
ൾ	-7.34752
▁എന്നാൽ	-7.34874
ഴ	-7.34938
ിച്ചു	-7.35841
▁മുതൽ	-7.3589
ാം	-7.36069
▁എന്നീ	-7.36258
▁വരെ	-7.36392
▁എന്ന്	-7.37487
നെ	-7.37489
ൊ	-7.37855
12	-7.38094
ങ്ങളെ	-7.38258
'	-7.38958
റ്റ്	-7.39728
ശ	-7.3973
നാ	-7.40291
കളുടെ	-7.41185
ൺ	-7.41621
▁തന്റെ	-7.42255
▁പി	-7.42463
നും	-7.4297
▁കാ	-7.43444
ീ	-7.43841
ിരുന്നു	-7.44307
▁ചില	-7.45651
നായ	-7.45871
▁ന	-7.45936
ിട്ടുണ്ട്	-7.45966
ില്ല	-7.46688
ൈ	-7.46838
ങ്ങ	-7.47277
▁സ്	-7.47717
▁ച	-7.4788
▁വാ	-7.48082
▁പല	-7.48333
ഷ	-7.48362
ബ	-7.4862
▁18	-7.49864
ത്തു	-7.50521
മ്പ	-7.51245
ച	-7.52043
ങ്ക	-7.52095
▁കോ	-7.52898
▁ബ	-7.53787
3"	-7.53815
▁-	-7.54037
രു	-7.54134
യായി	-7.54618
▁'	-7.55123
7"	-7.55302
ജി	-7.55393
▁പാ	-7.55686
9"	-7.55686
▁മു	-7.55821
പ്ര	-7.56034
4"	-7.56359
ൂർ	-7.56381
6"	-7.56415
വാ	-7.56544
5"	-7.56578
),	-7.56591
13	-7.56683
1"	-7.56964
2"	-7.57018
▁അവ	-7.5736
ലാ	-7.57546
ത്തി	-7.57643
8"	-7.57989
വർ	-7.58312
യായ	-7.58354
ായിരുന്നു	-7.5841
ലെ	-7.58577
ണ്ട	-7.59858
ബി	-7.6001
ല്ല	-7.60081
▁ഇവിടെ	-7.60367
▁മാ	-7.60935
‍	-7.60972
▁ശ	-7.61531
ിന്	-7.6233
ദ്	-7.63447
▁ഹ	-7.63618
▁പിന്നീട്	-7.63707
ട്ടി	-7.63788
▁1	-7.63997
▁ജ	-7.64852
താണ്	-7.64951
11	-7.65814
തും	-7.65897
ഇ	-7.66421
ിനെ	-7.66585
0"	-7.66928
ിച്ച	-7.66941
▁വലിയ	-7.67031
ാൽ	-7.67202
മ്മ	-7.67445
യ്ക്ക്	-7.68372
റ്റി	-7.68429
▁എന്നു	-7.68511
യാ	-7.69015
ങ്ങള	-7.69963
▁തുടങ്ങിയ	-7.70404
ണി	-7.70895
ളി	-7.71012
മോ	-7.71044
▁ആദ്യ	-7.71617
▁നി	-7.71708
സാ	-7.72285
ുകളും	-7.72613
ട്ട്	-7.72928
ബ്	-7.73231
മു	-7.73318
മായിരുന്നു	-7.73462
▁ല	-7.74337
▁വളരെ	-7.75068
▁ഇവ	-7.75426
▁ഒ	-7.7543
യി	-7.76023
ത്തിലും	-7.76049
y	-7.76154
നു	-7.76188
▁കു	-7.76235
ഗ്	-7.76277
▁ശേഷം	-7.76324
14	-7.77212
▁സം	-7.77264
n	-7.77595
ഷ്	-7.77928
ക്ഷ	-7.77968
▁എല്ലാ	-7.78156
▁സാ	-7.78219
▁ബി	-7.78366
▁ഗ	-7.78818
▁അദ്ദേഹത്തിന്റെ	-7.78974
എ	-7.7898
20	-7.79173
കളെ	-7.79616
▁,	-7.8067
എസ്	-7.80848
▁എന്നും	-7.815
ലോ	-7.81733
).	-7.82079
▁കൂടുതൽ	-7.8232
താ	-7.82371
▁മറ്റു	-7.83268
ിക്കുന്ന	-7.8337
c	-7.83678
യിലും	-7.84764
കാര	-7.84987
പ്	-7.85
നം	-7.8506
▁ഇട	-7.85392
ിരുന്ന	-7.85494
ിരിക്കുന്നു	-7.85566
▁അത്	-7.85716
▁ചെയ്ത	-7.85744
ക്കി	-7.85771
ണം	-7.86524
പ്പെട്ടു	-7.86669
ഫ്	-7.86925
▁ഓ	-7.87421
ഭ	-7.87678
ന്ത	-7.87984
രാ	-7.88037
ുകളിൽ	-7.88467
▁കേരള	-7.89116
്യ	-7.89287
▁ഭാഷ	-7.894
▁കെ	-7.8945
▁ഇന്ത്യൻ	-7.89466
▁സു	-7.89718
▁മി	-7.89733
യർ	-7.89982
ിലും	-7.90072
▁വഴി	-7.90836
▁അവർ	-7.90906
▁ൽ	-7.90914
യില	-7.91583
▁രണ്ടു	-7.91911
▁വര	-7.91921
▁സ്ഥിതി	-7.92264
ാന	-7.92724
t	-7.93454
▁കാല	-7.93807
ങ്ങളിലും	-7.93944
|	-7.94795
▁എന്നാണ്	-7.94937
ിനു	-7.95137
നോ	-7.95281
▁2	-7.95452
▁കേന്ദ്ര	-7.9634
▁ഐ	-7.96451
പ്പ്	-7.96616
ുമ്പോൾ	-7.96968
al	-7.97035
ഫ	-7.97288
▁ലോക	-7.97305
▁സംസ്ഥാന	-7.97458
ാർ	-7.97481
ംഗ	-7.97903
▁ദ	-7.9814
തിനാൽ	-7.98463
പ്പോൾ	-7.98653
കര	-7.98663
▁ഉള്ള	-7.98854
▁ക്ഷേത്ര	-7.9907
ുണ്ട്	-7.99072
ാനും	-7.99359
p	-7.99529
ാറുണ്ട്	-7.99534
റാ	-7.99542
▁രൂപ	-8.00063
ങ്ങളാണ്	-8.00583
▁ചാ	-8.00925
റു	-8.02156
വ്	-8.02223
യായിരുന്നു	-8.02376
m	-8.0307
കള	-8.03327
▁ഇതിന്റെ	-8.03455
▁ചെയ്യുന്ന	-8.05087
▁വെ	-8.0519
▁രണ്ട്	-8.0542
റോ	-8.05436
പ്പി	-8.05449
▁3	-8.0601
ആ	-8.06638
▁ചിത്ര	-8.06723
19	-8.06807
ത്തില	-8.07156
കാ	-8.07275
▁നാ	-8.07295
▁നില	-8.07418
ന്മാർ	-8.07667
ക്കാ	-8.07689
വേ	-8.07849
▁പുതിയ	-8.07849
ക്കും	-8.07858
▁അംഗ	-8.07887
ങ്ങൾക്ക്	-8.0794
തായി	-8.08356
റിയ	-8.08821
ധ	-8.09227
ാനുള്ള	-8.09516
▁ഭാഗ	-8.09646
ഞ്ച	-8.09685
▁ഓഫ്	-8.09707
വെ	-8.0972
▁ഡി	-8.09774
ക്കോ	-8.09777
▁മെ	-8.09949
ച്ചു	-8.10575
▁ശ്രീ	-8.10926
സിന്റെ	-8.11086
രിയ	-8.11112
ൗ	-8.11234
▁ഉപ	-8.11359
▁ആയിരുന്നു	-8.11511
▁തുടർന്ന്	-8.12016
ണ്ട്	-8.12161
വര	-8.12267
▁ഇന്ത്യ	-8.12284
▁വിവിധ	-8.12704
▁കി	-8.12749
▁കൈ	-8.13143
▁ഏ	-8.13163
ീയ	-8.13627
സം	-8.14155
സ്ത	-8.14408
▁ചെ	-8.14497
സ്റ്റ	-8.14819
െങ്കിലും	-8.14947
രുടെ	-8.15219
)"	-8.15287
ിച്ച്	-8.15405
▁മത	-8.1568
ുകളുടെ	-8.15721
▁ചലച്ചിത്ര	-8.15892
▁ചെയ്യുന്നു	-8.16251
മീ	-8.16267
▁സെ	-8.16488
▁ജന	-8.16571
ഥ	-8.16791
▁നഗര	-8.17002
▁ഭരണ	-8.17191
▁ചെറിയ	-8.17239
▁പ്രദേശ	-8.17381
▁ബാ	-8.17407
ത്ര	-8.17809
▁നിയമ	-8.17867
▁ലാ	-8.17954
നായി	-8.1841
k	-8.18702
മുണ്ട്	-8.18894
ിത	-8.1925
ില	-8.19276
ന്ദ	-8.19448
e	-8.19661
▁ചെയ്യ	-8.20001
2	-8.20392
ബാ	-8.20625
▁ലി	-8.20724
ന്റ	-8.20764
▁വന്ന	-8.20924
▁വേ	-8.21187
യു	-8.21341
കോ	-8.21492
കെ	-8.21661
ഖ	-8.21826
▁റ	-8.22003
▁നിരവധി	-8.22025
കാല	-8.22054
▁ജില്ലയിലെ	-8.22089
▁[[	-8.2214
്റെ	-8.22565
മേ	-8.22786
10	-8.22861
▁രാജ്യ	-8.22883
▁അതിന്റെ	-8.22985
ത്തിലാണ്	-8.23094
en	-8.23394
നാണ്	-8.23437
യ്ക്ക	-8.23461
▁ഗ്രന്ഥ	-8.23553
▁തുടങ്ങി	-8.24047
▁ഒന്ന	-8.24061
ഴി	-8.24188
പ്പെട	-8.2448
▁കൊണ്ട്	-8.24524
▁പേരിൽ	-8.24704
ാത്ത	-8.24725
ത്തിനും	-8.2488
ികൾ	-8.24902
▁രാജ	-8.24912
f	-8.24974
▁കൊ	-8.2502
▁നടന്ന	-8.25239
a	-8.2533
▁കേരളത്തിലെ	-8.2555
▁ജീവിത	-8.25623
ുവാൻ	-8.25639
ിക്കുന്നു	-8.25888
b	-8.26618
ri	-8.26799
▁സ്ഥല	-8.26839
▁നക്ഷത്ര	-8.26844
കു	-8.26854
▁ആർ	-8.26943
&	-8.27394
സർ	-8.27463
60	-8.27553
ാവ	-8.27604
▁17	-8.27691
in	-8.28045
le	-8.28082
രാജ	-8.2813
ഞ്ഞ	-8.28272
പാ	-8.28695
28	-8.28932
▁ദൈവ	-8.28985
15	-8.28988
▁കൂടാതെ	-8.29361
▁അതി	-8.29411
രോ	-8.29519
30	-8.29597
ിരിക്കുന്ന	-8.298
▁ഉണ്ട്	-8.29963
an	-8.29967
42	-8.30056
മാർ	-8.30219
ൌ	-8.30226
43	-8.30588
ത്വ	-8.30659
▁പേര	-8.30688
▁പ്രതി	-8.31064
▁സാഹിത്യ	-8.31091
ഹാ	-8.31307
▁മഹാ	-8.31324
ർത്ത	-8.31506
18	-8.31643
▁അവരുടെ	-8.317
ക്കാർ	-8.318
27	-8.31826
▁ആദ്യത്തെ	-8.31828
▁വൈ	-8.31832
▁മോ	-8.32226
രെ	-8.32294
ശി	-8.32351
കം	-8.32403
▁രാഷ്ട്രീയ	-8.32414
32	-8.326
▁ഇതിൽ	-8.32616
80	-8.32765
കൾക്ക്	-8.32776
യിലാണ്	-8.33097
g	-8.33218
35	-8.33317
കി	-8.33369
▁ക്രി	-8.33491
▁ഗ്രാമപഞ്ചായത്ത്	-8.33516
▁സാധാരണ	-8.33578
17	-8.3358
ഹ്	-8.33758
ക്കാര	-8.33986
1	-8.34356
▁മറ്റൊരു	-8.34864
]]	-8.34877
▁ക്ഷേത്രം	-8.34933
ഷ്ട	-8.34986
ങ്	-8.35645
▁പരി	-8.35682
▁s	-8.3569
33	-8.35717
▁തു	-8.3604
41	-8.36059
▁ലെ	-8.3622
▁ജല	-8.36249
ാതെ	-8.36572
ട്	-8.36605
ുമായി	-8.36847
ള്ള	-8.3699
▁4	-8.37035
▁ഖ	-8.37041
▁കഥ	-8.37093
w	-8.3727
ഡോ	-8.3733
▁കൂടി	-8.37588
▁താ	-8.37708
▁മുൻ	-8.38035
▁ഓരോ	-8.38089
▁കട	-8.38101
▁അഥവാ	-8.38178
▁അവിടെ	-8.38199
▁പള്ളി	-8.38424
50	-8.38444
▁വരുന്ന	-8.38598
▁മലയാള	-8.38648
▁കാണ	-8.38648
നീ	-8.38781
▁മനുഷ്യ	-8.39024
25	-8.392
▁10	-8.39258
▁ഹോ	-8.39261
പ്പെടുന്നു	-8.3932
▁സ്ഥാന	-8.39337
▁15	-8.39398
▁മര	-8.39526
34	-8.39577
▁അടുത്ത	-8.39857
77	-8.39986
▁രീതി	-8.40055
▁ചരിത്രം	-8.40072
r	-8.40382
▁ഗോ	-8.40492
▁നട	-8.40515
മെ	-8.4062
തോടെ	-8.40621
ിലേക്ക്	-8.40698
▁ചെറു	-8.40715
70	-8.40835
വു	-8.40907
29	-8.40996
ാമ	-8.41146
ച്ച്	-8.41213
47	-8.41254
ിരുന്നത്	-8.41276
▁തല	-8.41319
▁5	-8.41364
സ്സ	-8.41378
ിരിക്കുന്നത്	-8.41467
o	-8.41494
▁നിന്നു	-8.41522
45	-8.41586
68	-8.41587
▁കര	-8.41978
ഐ	-8.42273
▁പൂ	-8.4252
▁കൃഷി	-8.42731
▁ആവശ്യ	-8.42862
▁ഇദ്ദേഹം	-8.42888
ങ്ങളിലെ	-8.42979
ലും	-8.43011
ഗോ	-8.43051
ത്താ	-8.43229
▁സ്വ	-8.43262
രായ	-8.43455
ദി	-8.43518
▁ശരീര	-8.43619
എം	-8.43716
ിട്ടുള്ള	-8.43762
▁യുദ്ധ	-8.43809
▁എം	-8.43829
▁ആയ	-8.44199
▁വിജയ	-8.44475
മാന	-8.4451
24	-8.44673
▁ബോ	-8.4472
ക്കുന്ന	-8.44769
ന്റ്	-8.45146
സ്റ്റ്	-8.45181
ഹി	-8.45213
▁യു	-8.45243
▁പെ	-8.45244
തന്നെ	-8.45318
രൂപ	-8.45342
▁കൃതി	-8.45416
22	-8.45424
ുവ	-8.45553
▁രോഗ	-8.45666
▁പ്രത്യേക	-8.45775
പ്പെടുന്ന	-8.45793
ിക്കുകയും	-8.45949
44	-8.46024
▁തി	-8.46384
▁വേണ്ടി	-8.46532
76	-8.46588
▁സഭ	-8.46801
▁പൊ	-8.46824
67	-8.46833
▁വർഷ	-8.47039
ഫി	-8.47169
69	-8.47202
16	-8.47241
78	-8.47354
▁ഗ്രാമ	-8.47603
സോ	-8.47724
യം	-8.47724
ra	-8.47725
▁ദേശീയ	-8.4777
ുകള	-8.47857
23	-8.4787
31	-8.48084
▁ഫ	-8.48123
▁നിർമ്മിച്ച	-8.48233
ിംഗ്	-8.48418
75	-8.48529
▁ആയി	-8.48701
26	-8.48758
66	-8.48837
▁കൂട്ട	-8.48967
59	-8.49002
lt	-8.49198
▁നദി	-8.49308
ar	-8.49319
പ്പു	-8.49514
▁തുടങ്ങിയവ	-8.4958
00	-8.49659
▁നടത്തിയ	-8.49935
▁മൂന്നു	-8.50324
49	-8.50328
21	-8.50601
90	-8.51134
ത്തിലുള്ള	-8.51192
ത്തോടെ	-8.51357
സെ	-8.51405
re	-8.51485
▁ചെയ്യുന്നത്	-8.51486
48	-8.51547
86	-8.51821
യിലുള്ള	-8.51823
▁ജോലി	-8.51841
വരെ	-8.51846
▁പറയുന്നു	-8.52
ജന	-8.52033
▁ഏക	-8.52076
▁എസ്	-8.52092
ഭാഗ	-8.52151
▁സിനിമ	-8.52451
▁ഡ	-8.52513
ജ്	-8.52606
▁വെള്ള	-8.52609
ണ്ണ	-8.52617
ശാല	-8.52629
യ്യ	-8.52665
▁വർഷം	-8.5269
▁കൂ	-8.52843
രം	-8.5299
▁അവസാന	-8.53083
▁പാർട്ടി	-8.5311
▁ഡെ	-8.5313
▁ഏകദേശം	-8.53146
64	-8.53259
▁മികച്ച	-8.53322
46	-8.53493
▁ഹാ	-8.5354
▁ഇതു	-8.53657
61	-8.53947
ലു	-8.53999
3	-8.54032
്യം	-8.54051
ട്ടു	-8.5422
h	-8.54245
ോൺ	-8.54393
▁ഭ	-8.54402
65	-8.54513
കളിലും	-8.54523
38	-8.54577
79	-8.5462
▁16	-8.54624
72	-8.54656
▁എഴുതിയ	-8.5468
▁ബന്ധ	-8.547
li	-8.54724
gt	-8.54917
ുകയുണ്ടായി	-8.55098
സു	-8.5518
യിലേക്ക്	-8.5518
40	-8.55279
ാറ	-8.55349
▁of	-8.55352
ഷി	-8.55386
ായിരുന്ന	-8.55632
രും	-8.55678
ക്സ്	-8.5574
കളാണ്	-8.55786
▁ജി	-8.55897
▁ആദ്യമായി	-8.56001
ടു	-8.56034
▁പാല	-8.56061
വീ	-8.56132
▁നാടക	-8.56254
▁നേടി	-8.56317
▁ചരിത്ര	-8.56339
ിലാണ്	-8.56574
▁കുറഞ്ഞ	-8.56824
ഘ	-8.56888
▁ട	-8.56934
▁പേര്	-8.56943
▁നിറ	-8.57004
▁ഫല	-8.57028
36	-8.57033
വുമായി	-8.57117
ദാ	-8.57242
ma	-8.57324
▁അനു	-8.57379
u	-8.57408
37	-8.57646
▁മറ്റ്	-8.57646
▁വിഭാഗ	-8.57716
ിട	-8.57907
▁a	-8.57971
നേ	-8.57996
്യാ	-8.58016
ഗ്ര	-8.58212
▁സംഗീത	-8.58359
ൃ	-8.58375
ത്യ	-8.58431
ന്നു	-8.58495
▁രണ്ടാം	-8.5864
ുടെ	-8.58695
er	-8.58702
▁നേടിയ	-8.58901
▁മാത്രം	-8.59483
പോ	-8.59505
▁രാമ	-8.59631
സിൽ	-8.59694
▁കല	-8.59963
ാവുന്ന	-8.60157
തോ	-8.60243
▁ഹെ	-8.60271
56	-8.60314
▁6	-8.60441
▁എൻ	-8.60463
ൊരു	-8.60511
62	-8.60587
ur	-8.60676
63	-8.61061
▁അൽ	-8.61086
▁വ്യക്തി	-8.61361
▁മല	-8.61467
▁പോ	-8.61471
▁സമ	-8.61538
▁അമേരിക്കൻ	-8.61887
55	-8.61894
യ്ക്കു	-8.6193
73	-8.6197
▁നൽകി	-8.62109
▁12	-8.62328
▁ഇവർ	-8.62389
▁ശിവ	-8.62585
87	-8.62807
▁20	-8.62984
▁മൂ	-8.62988
▁കാരണം	-8.6299
▁തോ	-8.6306
▁കാണാം	-8.63142
58	-8.63575
am	-8.63679
▁യാത്ര	-8.63974
▁ഇന്ത്യയിലെ	-8.6406
▁ടി	-8.64248
▁കൂടിയ	-8.64404
▁കോട്ട	-8.64411
▁തമിഴ്	-8.64448
▁തെ	-8.64513
▁എന്നിവയാണ്	-8.64609
▁കുടുംബ	-8.64618
la	-8.64644
▁സ്ഥിതിചെയ്യുന്ന	-8.64761
ിന	-8.64787
▁മാത്രമേ	-8.64818
▁കിലോമീറ്റർ	-8.65288
ണ്ഡ	-8.65304
▁മാറി	-8.65436
▁ഉപയോഗിക്ക	-8.65481
യൂ	-8.65578
സ്ഥ	-8.65609
ുന്നതിന്	-8.65632
നിയ	-8.65643
▁ശക്തി	-8.65664
യുമായി	-8.65716
ങ്ങളായ	-8.65896
▁ഇങ്ങനെ	-8.65923
▁സ്ത്രീ	-8.66202
▁കമ്പനി	-8.66243
▁നൽകിയ	-8.6671
▁പദ്ധതി	-8.66735
▁സഹ	-8.67029
ിട്ട	-8.67101
▁കണ്ട	-8.67178
▁കണ്ണ	-8.67214
▁പദ	-8.67663
▁ഇത്തരം	-8.67708
കേന്ദ്ര	-8.67779
ക്കൽ	-8.67891
39	-8.67957
▁കേരളത്തിൽ	-8.68008
89	-8.68039
88	-8.68137
ണ്ടി	-8.68208
ത്തിന	-8.68426
▁സോ	-8.68513
z	-8.68631
▁സർക്കാർ	-8.68734
▁പഴയ	-8.68766
l	-8.69019
57	-8.6907
▁പ്രവർത്തന	-8.69156
51	-8.69231
ഗാ	-8.69294
▁തീ	-8.69346
ൻസ്	-8.69505
ശാസ്ത്ര	-8.69646
▁നടത്ത	-8.69771
▁b	-8.69773
74	-8.69833
▁ലോ	-8.69847
ാനായി	-8.69874
ിക്കാൻ	-8.69932
▁സംഘടന	-8.70057
or	-8.70069
▁ഷാ	-8.70106
▁കുട്ടി	-8.70248
▁നടത്തി	-8.7028
▁കാരണ	-8.70432
▁ആധുനിക	-8.70483
▁റോ	-8.70501
▁ജെ	-8.70809
▁ഡോ	-8.7096
▁മാറ്റ	-8.71056
മാക	-8.71188
▁റി	-8.71238
▁നല്ല	-8.71404
വിന്റെ	-8.71483
▁അടി	-8.71626
54	-8.71677
▁എന്നിങ്ങനെ	-8.71832
ുണ്ടായ	-8.71867
▁ദേവ	-8.72031
▁മേഖല	-8.72067
▁പോലെ	-8.72148
ro	-8.72197
▁8	-8.72201
4	-8.72282
▁(19	-8.72531
71	-8.72595
രിക്ക	-8.72657
ാണു	-8.72684
പ്പെടുത്ത	-8.72859
▁ചിത്രം	-8.72869
ോളം	-8.72901
റിന്റെ	-8.7293
▁പൊതു	-8.7303
ലാണ്	-8.7304
മര	-8.73088
ീന	-8.73093
▁വന്നു	-8.73275
▁ദിവസം	-8.73338
ാനി	-8.73726
ത്തിലൂടെ	-8.73864
പ്രദേശ	-8.73917
▁കാര്യ	-8.74002
▁മുഖ്യ	-8.74218
ധ്യ	-8.74474
ക്കര	-8.74657
ത്താണ്	-8.74714
is	-8.7475
▁7	-8.74958
i	-8.75013
മാൻ	-8.75029
▁ഇത	-8.75143
92	-8.7515
▁ജോ	-8.7515
മല	-8.7519
▁സമീപ	-8.7527
▁ഇപ്പോൾ	-8.75284
▁പു	-8.75406
േഷൻ	-8.75423
▁വീണ്ടും	-8.75443
▁മൂലം	-8.75449
▁ബന്ധപ്പെട്ട	-8.75451
▁പര	-8.75494
വിൽ	-8.75514
ാസ്	-8.7579
▁നൽക	-8.75914
▁ഇന്ന്	-8.76001
▁അമ്മ	-8.7614
▁ബ്രിട്ടീഷ്	-8.76329
▁നീ	-8.76358
ഭാഷ	-8.76397
▁ശാസ്ത്ര	-8.76554
ബന്ധ	-8.76569
▁കൊല്ല	-8.76641
▁സ്വതന്ത്ര	-8.76686
▁ടെ	-8.76687
▁&	-8.76882
ത്തിയ	-8.76965
▁മൂന്ന്	-8.77026
കാലത്ത്	-8.77161
ക്കായി	-8.77218
▁നിര	-8.77232
ാക്ക	-8.77256
ാള	-8.77262
se	-8.77374
ിയുടെ	-8.77409
ജ്ഞ	-8.77434
വൻ	-8.77549
ന്നി	-8.77561
▁സാമ്പത്തിക	-8.77623
▁റാ	-8.77638
▁പ്രകാരം	-8.77641
▁ഉപയോഗിച്ച്	-8.77662
st	-8.77717
ൻഡ	-8.77856
ൂര	-8.77955
ക്രമ	-8.77994
▁പ്രവർത്തിക്ക	-8.78128
▁ചി	-8.78132
ീസ്	-8.78257
▁അഭിപ്രായ	-8.78268
കല	-8.7833
▁പേരു	-8.78408
▁ഭൂമി	-8.78425
ശ്	-8.78486
ന്തി	-8.78644
ുകളെ	-8.78754
▁കേ	-8.78837
▁പ്രമുഖ	-8.78854
▁ഏറെ	-8.78855
ഷൻ	-8.78858
മന	-8.78883
▁പഞ്ചായത്ത്	-8.78893
▁പ്രശസ്ത	-8.78943
▁ബെ	-8.79052
ിങ്	-8.79408
93	-8.79422
പു	-8.79491
▁തിരു	-8.79777
▁മരണ	-8.79859
ക്സ	-8.79949
ുന്നുണ്ട്	-8.79994
തിനു	-8.80034
▁ഇതിനു	-8.80092
▁സംഘ	-8.80175
ക്കാൻ	-8.8027
▁നിന്നുള്ള	-8.80302
▁യൂ	-8.80331
▁നെ	-8.80379
ലീ	-8.80458
രീതി	-8.80622
▁കഴിഞ്ഞ	-8.80683
0	-8.80719
▁തേ	-8.8076
നായിരുന്നു	-8.80776
85	-8.80947
▁ന്യൂ	-8.80963
▁കാലത്ത്	-8.81057
_	-8.81247
ത്തിലേക്ക്	-8.81288
▁ന്	-8.81374
▁ഉയർന്ന	-8.81405
മുഖ	-8.81453
ിൻ	-8.81623
▁നിർമ്മിക്ക	-8.81784
ta	-8.8191
ത്തേ	-8.82076
v	-8.82197
▁അല്ലെങ്കിൽ	-8.82242
വയ	-8.82251
▁വിദ്യാഭ്യാസ	-8.82263
▁9	-8.8245
▁പുരാതന	-8.82502
▁അധികാര	-8.82658
വള	-8.82664
നാഥ	-8.8276
ആം	-8.82819
മാക്കി	-8.83176
▁ബാല	-8.832
വയാണ്	-8.83214
ക്കുള്ള	-8.83216
▁താഴെ	-8.83439
ഉ	-8.83599
▁ട്ര	-8.83604
99	-8.83864
▁പഠന	-8.83891
ങ്ങളായി	-8.83922
പ്പോ	-8.8393
ിലുള്ള	-8.83948
09	-8.83962
x	-8.84
▁രക്ഷ	-8.841
▁അട	-8.84105
ംബ	-8.84198
▁മേ	-8.84462
ാര	-8.84513
53	-8.84686
▁ഫി	-8.84776
തീ	-8.84832
91	-8.84834
ശേഷം	-8.85083
ic	-8.85153
▁സീ	-8.85159
▁ഗുരു	-8.85182
▁സാമ്രാജ്യ	-8.85221
▁സമൂഹ	-8.85262
▁അവകാശ	-8.85444
ല്പ	-8.85448
▁പറഞ്ഞ	-8.85471
ത്തിനായി	-8.85549
സ്ഥാന	-8.8556
▁അറിയപ്പെടുന്നു	-8.85672
▁ഇൻ	-8.85811
▁ഭൂ	-8.85868
വുമായ	-8.85899
തുമായ	-8.8599
▁അടിസ്ഥാന	-8.86038
ദ്ധ	-8.86158
ഞ്ഞു	-8.86244
ത്തും	-8.86258
▁കളി	-8.86259
േറ്റ	-8.86311
റേ	-8.86449
ക്കുകയും	-8.86455
▁സമയ	-8.86476
യുടെയും	-8.86592
%	-8.866
lo	-8.86683
▁കലാ	-8.86763
ഞ്ജ	-8.86889
▁സസ്യ	-8.86908
▁മധ്യ	-8.86935
on	-8.87022
▁വില	-8.87042
നില	-8.87072
സീ	-8.87181
us	-8.872
ിനി	-8.87247
▁വിള	-8.87282
▁ദിവസ	-8.87482
▁അങ്ങനെ	-8.87517
ിയും	-8.87532
▁ലഭിച്ച	-8.87576
ോട്	-8.87604
ing	-8.87616
ദേശ	-8.87624
▁ജീവിതം	-8.87701
▁ജില്ല	-8.87718
▁ജാ	-8.8783
▁ഷ	-8.87832
▁c	-8.87878
▁:	-8.87892
പദ	-8.88026
▁ചന്ദ്ര	-8.88136
ലിന്റെ	-8.88193
na	-8.88258
▁നാലു	-8.88301
ോള	-8.88322
▁ഇസ്	-8.8833
ne	-8.88494
തല	-8.88615
▁പേ	-8.88629
▁കവി	-8.88674
▁സർ	-8.88681
▁ആന	-8.88758
യിലൂടെ	-8.88775
▁ഇന്ത്യയിൽ	-8.88879
▁രചന	-8.88884
ാക്കി	-8.88896
ുമാണ്	-8.88909
ബർ	-8.89016
തിൽ	-8.89488
▁മറ്റും	-8.89527
▁ചേർന്ന	-8.89688
▁വാദ	-8.89726
▁അറിയ	-8.89861
▁ജീവ	-8.89873
▁ഉപയോഗിക്കുന്ന	-8.89877
▁മാസ	-8.89944
▁പറയ	-8.90053
▁14	-8.90076
ാനു	-8.90143
റും	-8.90187
▁എണ്ണ	-8.9024
▁നിർമ്മാണ	-8.90524
▁ഉപയോഗിക്കുന്നു	-8.90542
നിൽ	-8.90568
ia	-8.90634
▁അതിൽ	-8.90654
ര്യ	-8.90654
▁ഇല	-8.90815
പ്പാ	-8.90833
മില്ല	-8.90891
▁നിന്ന	-8.90924
▁സ്ഥാനം	-8.91254
▁പത്ര	-8.9133
▁മിക്ക	-8.91332
▁p	-8.91397
ഭി	-8.91487
▁സൈനിക	-8.91643
▁ദാ	-8.91665
=2	-8.91679
▁കണ്ടെത്ത	-8.91682
ങ്ങി	-8.91712
▁അദ്ദേഹത്തെ	-8.91732
▁എങ്കിലും	-8.91757
▁ഇംഗ്ലീഷ്	-8.91762
▁ആദ്യം	-8.919
▁ധാരാളം	-8.9193
ഭരണ	-8.91937
മാര	-8.9204
▁ഗുണ	-8.92071
വാദ	-8.9214
ലുകൾ	-8.92187
ഖ്	-8.92193
▁പാട	-8.92201
07	-8.92326
▁ദ്വീപ	-8.92392
▁സ്ഥാപന	-8.92781
▁ഇതിനെ	-8.92793
ച്ചി	-8.92836
▁അതു	-8.92877
▁പുസ്തക	-8.92897
▁പ്രകാശ	-8.92904
▁രൂപം	-8.92933
95	-8.93056
▁കള	-8.9311
പാട	-8.93309
ിക്കുന്നത്	-8.93399
മല്ല	-8.9347
04	-8.93503
▁അഭിനയ	-8.93622
▁11	-8.93636
▁വിശ്വാസ	-8.93664
▁ജനുവരി	-8.93853
▁ജയ	-8.94013
▁ഫാ	-8.94024
▁അമേരിക്ക	-8.94223
ാക	-8.94247
▁വച്ച്	-8.94363
▁പ്രതിഷ്ഠ	-8.94402
▁മണ്ണ	-8.94409
▁വിധ	-8.94542
▁വന	-8.94543
ങ്ങൾക്കും	-8.94715
▁ലഭിച്ചു	-8.94925
05	-8.95002
▁തിരിച്ച	-8.95027
ാൾ	-8.95062
▁കൊണ്ട	-8.95152
ation	-8.95159
തിന്റെ	-8.95195
▁ആശയ	-8.95349
വാസ	-8.9536
as	-8.95427
രീ	-8.95473
ബു	-8.95497
▁ഊ	-8.95577
▁മുഹമ്മദ്	-8.95675
▁മൂല	-8.95716
ഷ്യ	-8.95861
യായിരുന്ന	-8.95873
മാസ	-8.95901
▁പട്ടണ	-8.9592
ce	-8.96153
ഭവ	-8.96157
▁നിന്നാണ്	-8.96162
തിന്	-8.96195
▁എന്നിവർ	-8.96337
കളായി	-8.96458
മായും	-8.96571
▁വിഷയ	-8.96591
▁സഹായ	-8.96744
▁അര	-8.96752
യൻ	-8.96763
▁സംസ്കൃത	-8.96836
ലിയ	-8.96865
▁ശബ്ദ	-8.96965
il	-8.96968
ാന്ത	-8.96968
▁വ്യത്യസ്ത	-8.97012
വൈ	-8.97031
52	-8.97174
08	-8.9719
▁13	-8.97193
▁മാർ	-8.97254
▁നിലവിൽ	-8.97317
at	-8.975
▁നിർ	-8.97707
ർക്ക്	-8.97811
▁ഒന്നാം	-8.97858
th	-8.97927
തിനെ	-8.98101
ുകയായിരുന്നു	-8.98128
ുണ്ടായിരുന്ന	-8.98379
ബോ	-8.98412
el	-8.98446
▁മീറ്റർ	-8.98516
83	-8.98538
01	-8.98715
82	-8.98825
▁ചേര	-8.98838
▁ഹി	-8.98919
▁വാക്ക	-8.99317
ദ്ര	-8.9932
േശ്വര	-8.99339
▁സ്വയം	-8.99343
യാർ	-8.99352
▁പ്രധാനമായും	-8.99397
െന്നും	-8.9949
98	-8.99529
കൻ	-8.99662
▁കവിത	-8.99748
▁സമര	-8.99755
ിലൂടെ	-8.99762
▁അത	-8.99904
06	-9.00064
▁തീര	-9.00071
▁കൊച്ചി	-9.00139
ിയൻ	-9.00152
ലോക	-9.00324
ഭാവ	-9.00331
ാലി	-9.00436
ഗതി	-9.00787
ടുക്ക	-9.00791
മേഖല	-9.01131
▁മീ	-9.01155
▁the	-9.01186
▁യ	-9.01403
ിനും	-9.01418
തിര	-9.01419
ടുത്ത	-9.01443
ടെ	-9.01545
ോട്ട	-9.01753
തെ	-9.01759
96	-9.01783
▁രക്ത	-9.01833
വായ	-9.01919
▁വിവാഹം	-9.02057
ാളി	-9.02097
ല്യ	-9.02115
പരമായ	-9.02116
ുമ	-9.02187
▁വ്യവസായ	-9.02215
▁ചേർന്ന്	-9.02223
▁f	-9.02282
കളായ	-9.02348
81	-9.02388
ti	-9.02404
▁ഭാരത	-9.02445
▁അല	-9.02568
94	-9.02613
▁പക്ഷേ	-9.02663
▁ആദ്യകാല	-9.027
▁സംവിധാനം	-9.02742
നിര	-9.0287
▁ഇല്ല	-9.02894
▁കോൺഗ്രസ്	-9.02896
▁ഗ്രാമപഞ്ചായത്ത	-9.02934
സ്ട്ര	-9.02951
▁സംഭവ	-9.02998
ുന്നതിനു	-9.03003
▁ഹിന്ദു	-9.03045
▁കഴിയ	-9.03084
ത്വം	-9.0314
സൺ	-9.03541
എൻ	-9.03605
▁ശ്രമ	-9.03614
▁മറ	-9.03686
യ്ക്കും	-9.0392
ാല	-9.03993
▁പാത	-9.04015
84	-9.04123
▁സ്ഥിര	-9.04152
▁ഗ്രഹ	-9.04158
▁അപ	-9.04194
ക്ര	-9.04253
മാണിത്	-9.04259
▁മുഖ	-9.04261
പ്പള്ളി	-9.04405
▁സംസ്കാര	-9.04418
മെന്ന	-9.04451
വന	-9.04721
▁കുറ	-9.04742
▁k	-9.04837
▁സമുദ്ര	-9.04851
▁അതിനു	-9.04899
പ്രകാരം	-9.04951
ിട്ടില്ല	-9.04973
▁നടക്കുന്ന	-9.0512
മത	-9.05162
8	-9.05218
te	-9.053
▁അഭിനയിച്ച	-9.05424
▁വിഷ	-9.05444
ക്ത	-9.0547
യുടേയും	-9.05489
▁ഉത്തര	-9.05642
ത്തിനുള്ള	-9.05692
ha	-9.0579
▁കോഴിക്കോട്	-9.05813
▁അന്താരാഷ്ട്ര	-9.05867
▁ഇതിന്	-9.05883
▁ഇരു	-9.05946
me	-9.06111
െന്ന്	-9.06225
ശ്ശേരി	-9.06247
▁മുൻപ്	-9.06315
▁അതിനാൽ	-9.06384
ാട	-9.06462
ആർ	-9.06592
ുന്നതിനും	-9.06671
ഓ	-9.06735
▁കൂട	-9.0675
▁ശ്രദ്ധ	-9.06812
ാർത്ഥ	-9.07026
▁ബ്ര	-9.07046
▁കല്ല	-9.07058
ാവ്	-9.07086
6	-9.07114
▁എന്നത്	-9.07181
േറ്റ്	-9.072
▁തമ്മിൽ	-9.07207
▁ജോൺ	-9.07223
▁മഞ്ഞ	-9.07373
":	-9.07425
ക്ഷേത്ര	-9.07466
▁ദി	-9.07576
97	-9.07725
▁ഇന	-9.07837
02	-9.08115
ിയ്ക്ക	-9.08167
br	-9.08169
ഹാര	-9.08214
▁ടോ	-9.08221
ംഗ്	-9.0824
മാക്ക	-9.08242
▁ഭഗവതി	-9.08253
▁വടക്കു	-9.08272
ചി	-9.08458
▁മുസ്	-9.08523
െന്ന	-9.08658
ധി	-9.08687
ക്കുന്നു	-9.08737
െല്ലാം	-9.08821
▁ഭാഗം	-9.09081
▁അദ്ദേഹത്തിന്	-9.09138
▁ഫോ	-9.0919
ധാര	-9.09219
ഷണ	-9.09334
▁പ്രധാനപ്പെട്ട	-9.09356
നാട്	-9.09443
un	-9.09514
▁മുൻപ	-9.09573
▁പ്രാ	-9.09626
കാര്യ	-9.09684
ീകരണ	-9.0969
കർ	-9.09743
ലേ	-9.09771
കളിലെ	-9.09828
വന്ന	-9.09844
യേ	-9.09939
03	-9.09944
▁പ്രസ്ഥാന	-9.10133
ദ്യ	-9.10158
െങ്കിൽ	-9.10256
▁കൊണ്ടു	-9.10324
ർട്ട്	-9.10337
▁സിദ്ധാന്ത	-9.10356
▁മൂന്ന	-9.10445
േണ്ട	-9.1047
▁ജനസംഖ്യ	-9.10515
പ്പെടുകയും	-9.10584
റുകൾ	-9.10907
5	-9.10913
▁വംശ	-9.11163
ർമ	-9.1122
യിട	-9.11248
▁ഫെബ്രുവരി	-9.11251
▁പ്രകൃതി	-9.11267
de	-9.11345
▁ക്രമ	-9.11386
▁ഏപ്രിൽ	-9.11489
▁ബു	-9.1151
ാദി	-9.11541
ീകരിക്ക	-9.11605
▁30	-9.11683
▁മാർച്ച്	-9.11782
▁ഇന്ത്യയുടെ	-9.11833
െടുത്ത	-9.11837
▁പേർ	-9.11866
ത്തന്നെ	-9.11919
▁മദ്ധ്യ	-9.11923
▁ക്ല	-9.11935
ിയായ	-9.11949
റിൽ	-9.11957
▁പ്രസിദ്ധീകരിച്ച	-9.11975
സ്യ	-9.12164
ങ്ങൾക്കു	-9.12171
▁വ്യത്യാസ	-9.12201
ിക്കപ്പെട്ട	-9.12302
ാംഗ	-9.12317
▁പിന്തുണ	-9.12319
ീകരിച്ച	-9.12369
▁പക്ഷി	-9.12401
ുണ്ടായിരുന്നു	-9.12417
ല്	-9.12446
▁ജൂലൈ	-9.12465
▁ഭാര്യ	-9.12506
ങ്ങളില	-9.12529
റ്റു	-9.12666
സൈ	-9.12825
ഒ	-9.12876
വാര	-9.1291
▁ആക്രമണ	-9.13176
ഭാ	-9.13178
ന്മാരുടെ	-9.13279
▁കാലഘട്ട	-9.13296
ാണ	-9.13439
▁സമയം	-9.13492
ദേവ	-9.13588
▁മത്സര	-9.1359
▁കഥാപാത്ര	-9.13605
വല	-9.1367
▁മൊ	-9.13697
▁മൈ	-9.13749
▁ഹൈ	-9.13756
▁സ്വന്തം	-9.13892
വിള	-9.13917
ോസ്	-9.13939
▁രേഖ	-9.13952
ചിത്ര	-9.14031
▁വേഷ	-9.14042
▁തിര	-9.1409
▁രചിച്ച	-9.14122
▁ടീമ	-9.14123
▁ഫെ	-9.1415
▁റെ	-9.14232
ക്കൾ	-9.14234
▁വിദ്യാഭ്യാസം	-9.14323
▁ഗവേഷണ	-9.1444
േണ്ടി	-9.14486
▁ഒറ്റ	-9.14516
▁മാറ്റി	-9.14531
▁ബല	-9.14585
▁വിദേശ	-9.14739
കാലം	-9.14776
▁കാർ	-9.14849
വോ	-9.14907
വർമ്മ	-9.14923
▁ലേഖന	-9.14984
▁ഡിസംബർ	-9.1505
യോടെ	-9.15098
▁ചൈന	-9.15199
▁ഗാന	-9.15262
▁തങ്ങളുടെ	-9.15422
മൂ	-9.15483
▁സൈന്യ	-9.15578
ച്ഛ	-9.15602
▁പതിപ്പ	-9.15677
▁ഒക്ടോബർ	-9.15698
ക്കാല	-9.15744
ഭ്യ	-9.15763
es	-9.15845
രേഖ	-9.15935
▁മാത്ര	-9.16094
ുമുള്ള	-9.16113
യെന്ന	-9.16204
ുന്നതിൽ	-9.16254
മായിരുന്ന	-9.16415
▁മുട്ട	-9.16541
ക്ട	-9.16558
▁ഒരേ	-9.16679
▁തര	-9.16748
ർത്ഥ	-9.1676
ന്ന്	-9.16774
▁കീ	-9.1679
▁സൈ	-9.16801
എൽ	-9.16842
▁അവയുടെ	-9.16891
▁സത്യ	-9.16891
▁ബീ	-9.16929
▁വേദ	-9.16985
രംഗ	-9.1705
ൻഡ്	-9.17079
▁വിവര	-9.17086
യാൽ	-9.17209
▁കുന്ന	-9.17255
▁കൃഷ്ണ	-9.17291
,000	-9.17295
▁ഘ	-9.17314
▁തൊ	-9.17314
▁‘	-9.17349
▁ക്ര	-9.17354
▁m	-9.17373
ല്ലി	-9.1738
▁രീതിയിൽ	-9.17402
ക്കാട്	-9.1756
▁ധന	-9.17575
▁25	-9.17638
റെ	-9.17639
7	-9.17647
തെന്ന്	-9.17719
ോപ	-9.17743
▁ഘടക	-9.1778
റ്റാ	-9.17787
ുമായിരുന്നു	-9.17806
▁നവംബർ	-9.17858
▁ചികിത്സ	-9.17884
▁സ്കൂൾ	-9.17929
ഭേദ	-9.18032
▁പൂജ	-9.18041
▁പാട്ട	-9.18244
▁വീ	-9.18313
▁തമ്മിലുള്ള	-9.18326
▁പുറത്തിറങ്ങിയ	-9.18343
▁ഉപയോഗ	-9.184
▁നിലയിൽ	-9.18405
ക്കുറിച്ചുള്ള	-9.18429
യുണ്ട്	-9.18431
▁മഴ	-9.18437
▁ഉണ്ടായ	-9.18452
▁തിരഞ്ഞെടുക്ക	-9.18459
▁ഏതാണ്ട്	-9.18459
പുരം	-9.18519
▁ഉണ്ടായിരുന്നു	-9.18533
▁ജൂൺ	-9.18585
▁അന	-9.18645
▁സ്വഭാവ	-9.18968
ഷ്ഠ	-9.19101
ലിൽ	-9.19119
ണിയ	-9.19133
ഞ്ചി	-9.19135
ദീ	-9.1916
▁in	-9.19228
വഴി	-9.19333
▁അക്കാദമി	-9.19368
സ്റ്റി	-9.19386
ത്തോളം	-9.19475
▁അഭി	-9.19571
▁കൊടുത്ത	-9.19605
ഗണ	-9.19628
▁ടൈ	-9.19665
▁മാത്രമാണ്	-9.19666
▁നൂറ്റാണ്ടിൽ	-9.19729
മർ	-9.19754
▁ഔദ്യോഗിക	-9.19829
തൃ	-9.19849
▁വൻ	-9.1988
കൊണ്ട	-9.19977
ർജ്ജ	-9.19998
▁2008	-9.2008
ത്തുള്ള	-9.20142
di	-9.20182
▁അതിർത്തി	-9.20232
പ്പുഴ	-9.20272
▁ലഭിക്ക	-9.20277
▁നാമ	-9.20288
പര	-9.20309
▁ഉപയോഗിച്ച	-9.20322
ത്തോ	-9.20445
ിപ്പിക്ക	-9.20498
യുമാണ്	-9.205
വില	-9.20571
▁പെരു	-9.20582
പുര	-9.20684
▁നൂറ്റാണ്ട	-9.20689
▁അവസ്ഥ	-9.20739
കൊ	-9.20781
രണ	-9.20858
▁ഭക്ഷണ	-9.20866
▁നാഗ	-9.20907
▁ജനിച്ചു	-9.20929
▁ദേശ	-9.20933
കൊണ്ടു	-9.21012
▁gramapanchayat	-9.21036
▁ചിന്ത	-9.2105
▁കണ്ടെത്തിയ	-9.2113
ീൻ	-9.21189
▁മുഴുവൻ	-9.2121
▁അഞ്ചു	-9.21241
▁ഇവയുടെ	-9.21251
▁ഉത്സവ	-9.21289
▁വ്യവസ്ഥ	-9.21308
ോൾ	-9.21359
ch	-9.21467
▁മനസ്സിലാക്ക	-9.21472
▁ദക്ഷിണ	-9.21486
▁ചു	-9.21503
ാപ	-9.21628
ജെ	-9.21659
ുകയാണ്	-9.21678
▁മണി	-9.21786
ിയാ	-9.21789
കൊണ്ട്	-9.2193
ബ്ര	-9.22027
▁സ്റ്റ	-9.22071
മണി	-9.22197
▁തരം	-9.22199
ക്ഷണ	-9.22201
ട്ടിൽ	-9.2224
▁തുടർന്നു	-9.22343
▁സമയത്ത്	-9.22394
സഭ	-9.22441
ഡിയ	-9.22509
മ്പി	-9.22511
▁മരണം	-9.22541
നായിരുന്ന	-9.22543
▁ഗാ	-9.22544
ുകളിലും	-9.22579
യോഗ	-9.22602
▁തവണ	-9.22624
ത്തിന്റെയും	-9.2265
▁കീഴിൽ	-9.22696
നിറ	-9.22822
ക്കിടയിൽ	-9.22925
’	-9.2293
വുമാണ്	-9.23147
▁കുറ്റ	-9.23213
▁പ്രസിദ്ധ	-9.2347
ക്കേ	-9.23641
▁കണക്കാക്ക	-9.23929
സിയ	-9.23973
▁ഉൾപ്പെടുന്ന	-9.24082
▁ഉദാഹരണ	-9.24137
▁പറഞ്ഞു	-9.24297
▁പറ	-9.24378
ിപ്പ	-9.24425
പോലെ	-9.24449
▁ഡാ	-9.24452
മ്പ്	-9.2451
▁അറബി	-9.24679
▁പതിവ	-9.24761
സ്കോ	-9.24943
പാദ	-9.2504
സേ	-9.25041
▁ചെയ്തത്	-9.2506
▁അനുഭവ	-9.25089
▁നീല	-9.25091
▁സംഖ്യ	-9.25113
വിനെ	-9.25121
▁ഭാഷാ	-9.25154
▁ഘട്ട	-9.25208
▁സാമൂഹിക	-9.25243
പ്രാ	-9.25313
▁വ്യ	-9.25334
▁പൂർണ്ണ	-9.25379
ിങ്ങ്	-9.25482
▁പ്രത്യേകത	-9.25514
ിൻറെ	-9.25604
ാലും	-9.25642
മാരുടെ	-9.25701
]	-9.2579
▁പോക	-9.25802
▁മുന്ന	-9.25963
it	-9.26015
▁ടാ	-9.26023
ുകൾക്ക്	-9.26024
▁കണ	-9.26047
വിഭാഗ	-9.26223
പരി	-9.26326
െയ്	-9.2645
▁വിവാഹ	-9.26513
▁ഉണ്ടാക	-9.26622
നട	-9.27057
▁അടങ്ങിയ	-9.2707
എന്നറിയപ്പെടുന്ന	-9.27101
▁ലോഹ	-9.27217
ലൈ	-9.27229
ദ്ധ്യ	-9.27297
രാമ	-9.27303
▁“	-9.27331
യാന	-9.27372
▁അർത്ഥ	-9.2738
ത്തേക്ക്	-9.27398
ter	-9.27399
▁സൂര്യ	-9.27401
പൂർ	-9.27429
▁പറയുന്നത്	-9.2757
▁ദേവി	-9.27588
ണ്	-9.2759
▁g	-9.27608
▁ഉണ്ടാക്ക	-9.27642
ങ്ങ്	-9.27684
വാന	-9.27685
ാമത്തെ	-9.27867
▁വരെയുള്ള	-9.27874
ിയത്	-9.27963
ുകളാണ്	-9.2802
▁പിൻ	-9.28021
▁സ്ഥാപിച്ച	-9.28031
▁കോടി	-9.28171
ുണ്ടാകുന്ന	-9.28187
▁ജീവി	-9.28361
▁കാണപ്പെടുന്ന	-9.28387
▁ma	-9.28397
▁വിപ്ലവ	-9.28547
▁ചേ	-9.28577
▁യഹൂദ	-9.28606
ിക്കൽ	-9.2863
റ്റോ	-9.28657
ന്മാര	-9.28746
ായിരിക്കും	-9.28771
ve	-9.29053
▁പുറത്തു	-9.29057
▁സാധാരണയായി	-9.29075
ശാ	-9.29124
കൃത	-9.29137
▁2009	-9.2917
ിട്ടുള്ളത്	-9.29179
▁അതേ	-9.29196
man	-9.29197
▁ഉണ്ടാകുന്ന	-9.29306
▁കോടതി	-9.29404
va	-9.29408
കേ	-9.29624
ഹോ	-9.29692
▁യുദ്ധം	-9.29712
ുകയോ	-9.29794
▁നടത്തുന്ന	-9.29796
റിഞ്ഞ	-9.29821
▁മഹ	-9.29913
▁ചടങ്ങ	-9.29926
▁രാഷ്ട്ര	-9.29965
▁ഘടന	-9.29973
ഷാ	-9.30024
ja	-9.30066
no	-9.30129
▁കാണപ്പെടുന്നു	-9.30167
വർഷ	-9.30196
▁h	-9.30245
റ്റർ	-9.30253
യുദ്ധ	-9.30263
▁e	-9.30273
▁താൻ	-9.30287
▁തിരിച്ചു	-9.30374
പ്രവർത്തന	-9.30406
േരി	-9.30431
▁ഇര	-9.30446
▁ചക്രവർത്തി	-9.30462
രോഗ	-9.30527
ടിയ	-9.30555
പ്രതി	-9.30651
ിച്ചത്	-9.30715
▁സൂചിപ്പിക്കുന്ന	-9.30739
ed	-9.30759
▁മുമ്പ്	-9.30762
ർച്ച	-9.30852
▁വാഴ	-9.30877
▁കണ്ടു	-9.3089
▁പ്രതിരോധ	-9.30906
▁ഒര	-9.30942
▁നായർ	-9.30956
മൻ	-9.31177
ുന്നതിനായി	-9.31201
▁ചേർന്നു	-9.31208
▁കടന്നു	-9.31291
▁സ്ഥാപിക്ക	-9.31327
ശക്തി	-9.31349
▁പദവി	-9.3137
▁ഗു	-9.31438
പന	-9.31451
▁നൽകുന്ന	-9.31492
▁ഊർജ്ജ	-9.31585
ഃ	-9.31651
▁രണ്ടാമത്തെ	-9.31665
ുന്നതും	-9.31814
ഗർ	-9.31894
ോളി	-9.31933
ാനാ	-9.31958
▁ഔഷധ	-9.31997
▁തലസ്ഥാന	-9.32057
▁കണക്ക	-9.32348
▁കുറവ	-9.32453
ശ്ര	-9.32485
ഢ	-9.3252
▁നമ്പൂതിരി	-9.3252
ിക്കുക	-9.32604
തേ	-9.32698
▁ഉണ്ടായിരുന്ന	-9.32701
ad	-9.32702
▁യാ	-9.3277
▁എന്ത	-9.32836
▁ഓർ	-9.32858
▁പുറ	-9.32892
▁പണ്ഡിത	-9.32903
▁ആഘോഷ	-9.32946
▁വിശ്വ	-9.32972
▁നാട	-9.32994
▁പ്രചാര	-9.33098
▁ബേ	-9.33119
▁വളർച്ച	-9.33137
ർണ	-9.33174
▁2006	-9.33176
▁ദിന	-9.33184
ss	-9.332
▁പകരം	-9.33366
▁സഹോദര	-9.33388
▁തിരുവനന്തപുരം	-9.33394
▁നിൽക്കുന്ന	-9.33394
▁താര	-9.33498
ിയോ	-9.3356
ഡെ	-9.33565
▁പുറമേ	-9.33595
▁വികസന	-9.3361
▁കാണുന്ന	-9.33651
▁കോളേജ്	-9.33671
▁കുട	-9.33747
ാരി	-9.33899
ട്രോ	-9.33899
പതി	-9.33946
▁സ്റ്റാ	-9.33961
ജാ	-9.33976
ൊക്കെ	-9.34002
പക്ഷ	-9.34019
▁മാന	-9.34054
▁നോവല	-9.34114
കൾക്കും	-9.34276
പ്പെടുത്തി	-9.34396
ണാ	-9.34459
▁പ്രായ	-9.34462
േയ	-9.34514
ചെ	-9.34578
▁n	-9.34591
▁അറിയപ്പെടുന്ന	-9.34644
▁ഹിന്ദി	-9.34697
യറ	-9.34748
co	-9.34754
▁കഴിവ	-9.34785
▁എഴുത	-9.3479
▁പന്ത	-9.3479
▁t	-9.34894
ol	-9.34932
▁2010	-9.34947
ka	-9.35095
സംഖ്യ	-9.35144
▁ഗാന്ധി	-9.35361
▁വ്യാപാര	-9.35388
▁വളർത്ത	-9.35603
▁ജില്ലയിൽ	-9.35625
ni	-9.35708
sh	-9.35716
ളം	-9.35787
കിട	-9.35794
▁പ്ലാ	-9.35803
▁സാധ്യത	-9.35826
ya	-9.35833
▁തീരുമാന	-9.35864
▁വിശേഷ	-9.35892
▁ഹരി	-9.35942
ുമായുള്ള	-9.35945
▁സ്വീകരിക്ക	-9.36171
▁പുഴ	-9.36205
ir	-9.36227
ദു	-9.36238
▁യുവ	-9.36243
ിട്ടു	-9.3626
▁രണ്ട	-9.36278
▁വിശുദ്ധ	-9.36292
▁പ്രദേശം	-9.36339
ഫോ	-9.36348
▁ഫോർ	-9.36364
പ്പെട്ടത്	-9.3639
▁മന	-9.364
മാത്ര	-9.36425
▁സംഗീതം	-9.36473
▁പട്ട	-9.36515
ഈ	-9.36517
▁കടല	-9.36545
vi	-9.36665
വൽ	-9.36719
ികളുടെ	-9.36758
ബെ	-9.36864
▁രാസ	-9.36902
▁പൊതുവേ	-9.36903
▁ദു	-9.3698
▁അക്ഷര	-9.37005
▁ഗ്ര	-9.37024
▁ഇംഗ്ലണ്ട	-9.37046
ഗ്രന്ഥ	-9.37067
▁പഠിക്ക	-9.37156
ക്കൊ	-9.37157
▁അലി	-9.37201
യോട്	-9.37205
▁സെപ്റ്റംബർ	-9.37295
▁അവസര	-9.3742
▁വശ	-9.37427
േഴ്സ്	-9.37457
രാജ്യ	-9.37473
ൂറ	-9.37488
ക്ഷേത്രം	-9.37522
▁w	-9.37553
▁നിയന്ത്രണ	-9.37587
▁വയസ്സിൽ	-9.37607
▁ഇന്നത്തെ	-9.3766
സ്വ	-9.37691
▁നാല്	-9.37763
▁പെട്ട	-9.37773
ാവസ്ഥ	-9.3794
▁നിറഞ്ഞ	-9.37985
▁പട	-9.3811
വർഷം	-9.38152
▁വൈദ്യുത	-9.38248
▁ജനങ്ങൾ	-9.38277
ക്ഷി	-9.3831
▁പോകുന്ന	-9.38319
tt	-9.38365
▁കൊട്ടാര	-9.38409
▁വാണിജ്യ	-9.38417
▁പീ	-9.38421
si	-9.38472
സ്വാമി	-9.38652
ുമെന്ന	-9.3866
j	-9.38693
hi	-9.38698
ോട	-9.38751
▁കിടക്കുന്ന	-9.38788
ങ്ങളുടെയും	-9.38815
ാവുന്നതാണ്	-9.38859
▁ഇദ്ദേഹത്തിന്റെ	-9.38861
▁പഴ	-9.38887
▁താപനില	-9.38895
▁പ്രശ്ന	-9.38947
▁പോലുള്ള	-9.39109
▁നിർദ്ദേശ	-9.39119
ത്തേയും	-9.39147
മാവ	-9.39166
കാർ	-9.39285
mi	-9.39332
▁അവാർഡ്	-9.39344
▁അക	-9.39389
തായ	-9.39411
▁ജാതി	-9.39517
▁നേതൃത്വത്തിൽ	-9.3953
മണ്ഡല	-9.39689
▁കാലം	-9.39694
ദർ	-9.39788
ുള്ളൂ	-9.39832
▁അഗ്നി	-9.39906
▁പഞ്ച	-9.39999
▁ഉൽ	-9.40026
▁ഇന്നും	-9.40059
ിയിൽ	-9.40093
▁ഉപയോഗിച്ചിരുന്ന	-9.40138
സിനെ	-9.40193
▁സ്വകാര്യ	-9.40212
ശാസ്ത്രം	-9.40249
▁മേൽ	-9.4025
▁പുരസ്കാരം	-9.4026
▁അറിയപ്പെടുന്നത്	-9.40293
ുമെന്ന്	-9.40302
▁ആരോഗ്യ	-9.40463
▁തന്നെയാണ്	-9.40471
▁കണ്ണൂർ	-9.40477
▁നായ	-9.40541
കളില	-9.40547
▁ഫ്രാൻസ	-9.40559
▁സോഫ്റ്റ്	-9.40579
9	-9.40656
▁വർഗ്ഗ	-9.40667
▁ക്ഷേത്രത്തിൽ	-9.4076
▁പ്രവർത്തിച്ച	-9.40871
ബ്ബ	-9.40882
ക്കെതിരെ	-9.40905
▁കമ്പ്യൂട്ടർ	-9.40934
▁കരുതപ്പെടുന്നു	-9.40949
▁ഉപയോഗിക്കുന്നത്	-9.40994
▁ഇതിന	-9.41019
▁ഉപയോഗിച്ചു	-9.41075
കരമായ	-9.4122
ങ്ങളിലൂടെ	-9.41286
▁സ്പ	-9.41295
▁കത്ത	-9.41528
▁സേന	-9.41535
തായിരുന്നു	-9.41549
▁ലഭിക്കുന്ന	-9.41613
▁ചോ	-9.41649
ബാധ	-9.41688
▁തെക്ക്	-9.4181
ത്തിൻറെ	-9.41835
ങ്ങളെയും	-9.41845
വ്യ	-9.41855
▁നാരായണ	-9.41929
▁പാറ	-9.41959
കഥ	-9.42039
▁ജനിച്ച	-9.42045
സും	-9.42051
▁ഇതേ	-9.42069
▁ശക്തമായ	-9.42123
വരും	-9.42124
ങ്ങളുമായി	-9.42153
സ്സ്	-9.42266
▁പല്ല	-9.42269
▁മണ്ഡല	-9.42296
▁2007	-9.42342
▁നാഷണൽ	-9.42375
നിയമ	-9.4246
സിലെ	-9.42471
ിരിക്ക	-9.42486
വ്യവസ്ഥ	-9.42557
▁ആരംഭിച്ചു	-9.42607
▁മാതൃക	-9.42646
ൈറ്റ്	-9.42648
▁ചെയ്യാൻ	-9.42661
ജീ	-9.42824
വരുടെ	-9.42834
ർത്തി	-9.42889
▁പരീക്ഷണ	-9.42994
ിന്റെയും	-9.43073
▁ചർച്ച	-9.43112
ഗി	-9.43305
ത്തിലേ	-9.43343
ക്കള	-9.43465
▁സാംസ്കാരിക	-9.4353
▁എണ്ണം	-9.43565
pe	-9.43581
▁വിശ്വാസം	-9.43583
▁രാത്രി	-9.4362
▁കുള	-9.43663
▁ബ്രാഹ്മണ	-9.43687
▁21	-9.43692
▁ഒന്നാണ്	-9.43725
ക്കിയ	-9.4373
ോടൊപ്പം	-9.43761
തരം	-9.4385
▁വടക്ക്	-9.43931
▁മാർഗ്ഗ	-9.43973
തര	-9.4399
പ്ല	-9.44061
▁ആൻഡ്	-9.44082
▁ഗണ	-9.44189
തിരി	-9.44196
ഗ്രഹ	-9.4423
▁ലോകത്തിലെ	-9.4431
▁പറയപ്പെടുന്നു	-9.44351
ാലയ	-9.44356
പ്പെടുത്തിയ	-9.44385
”	-9.44391
ുന്നതിനുള്ള	-9.44412
▁ഭരണം	-9.44424
▁ഉട	-9.44427
▁പ്രാധാന്യം	-9.4446
▁പട്ടിക	-9.44574
ല്ലാ	-9.44625
▁പിതാവ്	-9.44779
▁സമ്മാന	-9.44787
▁ഭാഗമായി	-9.44858
▁മാറ	-9.44865
▁സേവന	-9.44895
▁ഉപകരണ	-9.44937
ശാസ്ത്രജ്ഞ	-9.45174
▁മുമ്പ	-9.45272
▁അതിനെ	-9.45274
ാംശ	-9.45337
▁പറയുന്ന	-9.45347
സൂ	-9.45351
▁ഭാര	-9.4549
▁22	-9.45546
രിക	-9.45563
▁കാലാവസ്ഥ	-9.45609
▁വിര	-9.4564
പ്പെടുന്നത്	-9.4564
▁വരുന്നു	-9.45643
▁ഇവരുടെ	-9.45841
▁പുര	-9.45893
▁രാജവംശ	-9.45965
▁യോഗ	-9.4598
▁അന്തരീക്ഷ	-9.46066
▁വയസ്സ	-9.46187
ഴ്	-9.46196
▁ഗ്രീക്ക്	-9.46295
000	-9.46308
▁അന്ത്യ	-9.46319
വിധ	-9.46325
ണ്ടു	-9.46344
▁താലൂക്കിൽ	-9.46356
▁സംബന്ധിച്ച	-9.4636
ങ്ങളുണ്ട്	-9.46364
▁മത്സ്യ	-9.46365
ക്കർ	-9.4652
ക്കാരുടെ	-9.46531
▁കെട്ടിട	-9.46597
▁ജീവിതരേഖ	-9.46599
വയ്ക്ക	-9.46618
▁ദൂര	-9.46644
ഥി	-9.46648
ബല	-9.46685
ത്തെയും	-9.46692
ർക്കും	-9.46735
▁മന്ത്രി	-9.46735
▁ധ	-9.46798
com	-9.46808
▁വിവരങ്ങൾ	-9.46855
സ്ഥല	-9.46962
▁മുതല	-9.47107
ണമെന്ന	-9.4715
ഡാ	-9.47158
▁പ്രോഗ്രാമ	-9.47168
▁ചര	-9.47192
ഷ്ണ	-9.47204
പെട്ട	-9.47206
▁കന	-9.47234
▁അടിമ	-9.47264
um	-9.47301
▁ചതുരശ്ര	-9.47368
▁എൽ	-9.47382
ോണി	-9.47401
മ്പു	-9.47428
so	-9.47483
ാണെന്ന്	-9.47485
▁പ്രക്രിയ	-9.47644
▁ചുമതല	-9.47677
കുന്ന	-9.47791
▁കാഴ്ച	-9.47812
he	-9.47974
▁സ്വീകരിച്ച	-9.48029
▁പോലും	-9.48083
നിന്നു	-9.48096
ത്തിന്റേയും	-9.48101
▁ഓഗസ്റ്റ്	-9.4818
ധന	-9.48251
▁ഉയര	-9.48261
ഠ	-9.48395
▁തൃ	-9.48398
▁വിളിക്കുന്നു	-9.48419
▁ഇഷ്ട	-9.4854
▁അസ	-9.48566
▁വല	-9.48593
▁2011	-9.48593
da	-9.48644
ഗ്ഗ	-9.48646
▁ക്രിക്കറ്റ്	-9.48678
പ്പെട്ടിട്ടുണ്ട്	-9.48746
ൊന്നും	-9.48753
ru	-9.4877
▁കോശ	-9.48784
കെട്ട	-9.48819
▁നവ	-9.48903
▁ഭൂമിയിൽ	-9.48936
▁അന്ത	-9.4895
▁നൃത്ത	-9.49032
ന്ധ	-9.49057
ഴ്സ	-9.4906
▁തുടക്കം	-9.49098
▁തുടര	-9.49204
ന്യ	-9.49422
pa	-9.49449
▁ശൈലി	-9.49449
കൾക്കു	-9.49477
രോധ	-9.49525
്യൂട്ട	-9.49566
▁പരമ	-9.4957
▁വീട	-9.49572
▁യൂറോപ്പ	-9.49625
▁പഠനം	-9.49669
▁മൃഗ	-9.49807
▁പോലീസ്	-9.49808
ga	-9.49892
▁പരമ്പര	-9.49895
▁വിദ്യാർത്ഥി	-9.49915
▁ഇവയിൽ	-9.49938
▁അന്ന	-9.49947
കരണ	-9.49971
െത്തിയ	-9.49998
▁ഇവയെ	-9.50008
▁അടിസ്ഥാനമാക്കി	-9.50106
ോടെ	-9.50118
കൂടി	-9.50179
ci	-9.50208
ഫല	-9.50231
▁കാവ	-9.50266
▁വെബ്	-9.50266
▁അർ	-9.50274
▁മൂലക	-9.50297
▁24	-9.50372
▁2001	-9.50373
▁വെച്ച്	-9.50394
▁ഉണ്ടാവ	-9.50448
▁മലയാളം	-9.50475
▁ഉൾപ്പെടുന്നു	-9.50522
ാസന	-9.50546
▁പാർ	-9.50553
യേയും	-9.50647
▁രംഗ	-9.50654
സാഹിത്യ	-9.50679
പൂ	-9.50702
▁ഉത്	-9.50805
▁നൂറ്റാണ്ടിന്റെ	-9.50831
റുടെ	-9.50843
കേരള	-9.50892
▁കാര	-9.50908
കൈ	-9.50969
▁ചിത്രങ്ങൾ	-9.5099
മാറ്റ	-9.50999
മൂല	-9.51038
▁തൊഴിലാളി	-9.51062
▁നഗരം	-9.51107
▁ആരംഭിച്ച	-9.51111
ത്രി	-9.51135
▁അറിവ	-9.51263
▁പ്രാചീന	-9.51265
▁അക്കാലത്ത്	-9.51306
▁23	-9.51307
▁എഴുതി	-9.51332
▁യൂറോപ്യൻ	-9.51335
കളുണ്ട്	-9.51362
▁വളരെയധികം	-9.5137
▁ശിക്ഷ	-9.51405
കൃഷ്ണ	-9.51487
കാരി	-9.5149
ക്റ്റ	-9.51535
▁സങ്കല്പ	-9.51541
യിലേക്കു	-9.51564
കൂ	-9.51576
ൊന്ന	-9.51612
ജനനം	-9.51641
▁തെക്കേ	-9.5171
▁കരുതുന്നു	-9.51767
▁കമ്പ	-9.51778
മെന്റ്	-9.51788
▁ജന്മ	-9.51876
ുകാർ	-9.51892
▁ജനിച്ചത്	-9.51978
മാല	-9.51999
റായി	-9.5209
▁അവരെ	-9.52128
▁ഖാൻ	-9.52178
ക്കട	-9.52211
▁തോന്ന	-9.52277
ാധിപ	-9.52319
▁ലേ	-9.52359
▁കിഴക്കൻ	-9.52366
▁പുരുഷ	-9.52428
സേന	-9.52475
▁സൗകര്യ	-9.52548
ബോധ	-9.5257
▁കെട്ടി	-9.52592
▁പച്ച	-9.52619
വാദി	-9.52674
▁ത്രി	-9.52685
മായാണ്	-9.52805
▁സ്വാതന്ത്ര്യ	-9.52873
ാണി	-9.52892
▁ദർശന	-9.52933
▁കലാപ	-9.52979
ത്തോട്	-9.53143
▁ദൃശ്യ	-9.53157
▁തുർക്കി	-9.53169
ാണിത്	-9.5317
ദർശ	-9.53219
ലൂ	-9.53225
▁പോയ	-9.53236
.5	-9.53245
▁മൂന്നാം	-9.53274
▁ഇവിടുത്തെ	-9.53275
▁കരി	-9.53311
ാവശ്യ	-9.53358
ീർ	-9.53414
▁അവതരിപ്പിക്ക	-9.53488
▁ആകെ	-9.53504
െടുക്കുന്ന	-9.53516
▁കൊല്ലം	-9.53583
ശു	-9.53609
▁അരി	-9.53643
▁മെയ്	-9.53683
▁സെക്രട്ടറി	-9.53702
ക്കാലം	-9.53768
മാകുന്ന	-9.53776
▁ചെടി	-9.53855
ത്തര	-9.53868
▁ആചാര	-9.53888
▁സമ്പ്രദായ	-9.53908
ുൾ	-9.54036
പ്പൂ	-9.5404
ph	-9.54095
▁ഫ്ല	-9.54307
▁കാണാൻ	-9.54353
ല്ലാതെ	-9.54453
സമ	-9.54486
▁പൈ	-9.54521
▁രാജാവ	-9.54554
▁കാർഷിക	-9.54564
▁ശാഖ	-9.54604
▁ചെയ്ത്	-9.54616
ുളള	-9.54618
ഹര	-9.54633
▁എക്സ്	-9.5472
▁സാങ്കേതിക	-9.54724
കളുടെയും	-9.54727
ിപ്പിക്കുന്ന	-9.54741
ഭാഗം	-9.54763
▁ഗ്രൂപ്പ	-9.54782
▁പ്രാദേശിക	-9.54889
▁എന്നതാണ്	-9.5497
▁സ്ഥലം	-9.55011
ഗ്ന	-9.55015
▁പാലക്കാട്	-9.55019
േഷ്യ	-9.5509
▁നിലപാട	-9.55166
▁ഗണപതി	-9.55225
▁കേസ	-9.55295
ഗു	-9.55355
▁തുല്യ	-9.55367
▁കഴിയും	-9.5538
▁ശാസ്ത്രീയ	-9.55498
▁ഉന്നത	-9.55573
▁ശാ	-9.55584
കരിക്ക	-9.55593
▁ലക്ഷ്യ	-9.55718
കളി	-9.55755
ഗ്രാമപഞ്ചായത്ത്	-9.55772
വരുന്ന	-9.55778
കളുമായി	-9.55791
▁അന്നത്തെ	-9.55814
നിന്നും	-9.55853
ge	-9.55867
▁ചെമ്പ	-9.55875
▁എന്നിവയുടെ	-9.5596
▁കൽ	-9.55965
യൂർ	-9.56009
▁പാരമ്പര്യ	-9.56013
▁വിമാന	-9.5606
▁ബ്രഹ്മ	-9.56075
നാർ	-9.5611
ന്യാസ	-9.56167
ത്താൽ	-9.5621
▁വർണ്ണ	-9.56357
▁വെടി	-9.56442
▁മുകളിൽ	-9.56455
▁ബ്ലോക്ക്	-9.56503
▁ജനനം	-9.56523
വരുന്നു	-9.56523
ചന്ദ്ര	-9.56636
േക്ക	-9.56641
പാത	-9.56662
▁തൂ	-9.56677
▁ലൈംഗിക	-9.56751
സ്റ്റർ	-9.56778
▁അഞ്ച	-9.56805
▁ബുദ്ധ	-9.56834
മയ	-9.56893
▁സംവിധാന	-9.56926
പ്പൻ	-9.56979
സംഘ	-9.56983
ിപ്പിച്ച	-9.56985
▁തെക്കു	-9.57008
േശ	-9.57023
നിന്ന്	-9.57057
▁ഉൾ	-9.57065
ക്രി	-9.57099
നാട	-9.57296
▁നേര	-9.57328
പെ	-9.57329
ദർശന	-9.57366
ിരുന്നില്ല	-9.5747
വർക്ക്	-9.57545
▁താലൂക്ക	-9.57554
▁പരിപാടി	-9.57653
ശീല	-9.57655
ng	-9.57693
▁ഭരണാധികാരി	-9.57753
▁പടിഞ്ഞാറ്	-9.57784
▁പുറത്ത	-9.57788
▁വടക്കൻ	-9.57791
▁പഞ്ചായത്ത	-9.57811
▁കൗ	-9.57822
▁ദ്	-9.57839
ിച്ചിരുന്നു	-9.57845
രിഞ്ഞ	-9.57964
▁സ്കൂള	-9.58018
▁സ്വാധീന	-9.58103
മൂർത്തി	-9.58116
▁പദം	-9.58129
പുത്ര	-9.58174
ുകൊണ്ട്	-9.58197
െപ്പോലെ	-9.58226
▁കൂടെ	-9.58244
▁വളരുന്ന	-9.58251
▁വിളിക്ക	-9.58252
പൊ	-9.58307
▁സാമ്രാജ്യം	-9.58322
വിവക്ഷകൾ	-9.58423
▁കറുത്ത	-9.58428
പഠന	-9.5848
▁പ്രധാനമന്ത്രി	-9.58483
▁ലക്ഷ	-9.5854
▁മകന	-9.58612
▁ബുദ്ധമത	-9.58615
േയും	-9.58666
ചാ	-9.58722
▁അന്ന്	-9.5875
ബിയ	-9.58778
▁ഭാവ	-9.58805
▁അധിക	-9.58874
▁യഥാർത്ഥ	-9.58874
▁വിദ്യ	-9.58878
ോണ	-9.58893
പ്പൊ	-9.58904
▁നൈ	-9.58918
ിച്ചിരുന്ന	-9.58926
▁തട	-9.59003
ാണെങ്കിലും	-9.59012
▁കാൽ	-9.59037
▁സർവകലാശാല	-9.59117
▁അംഗീകരിക്ക	-9.5915
കൂട	-9.5916
പശ്ചാത്തല	-9.59173
▁നിയമം	-9.592
ട്ടോ	-9.59369
വശ	-9.59406
▁രാ	-9.59544
▁റോഡ	-9.59576
tic	-9.59608
ac	-9.59614
പ്റ്റ	-9.59619
▁പ്രവർത്തനങ്ങൾ	-9.59649
▁സോവിയറ്റ്	-9.59667
ക്കൂട്ട	-9.59673
ദ്ദ	-9.59682
ഏ	-9.5971
▁ആക	-9.5974
▁പരാമർശ	-9.59744
▁ആറു	-9.59796
▁മാത്രമല്ല	-9.59822
▁നടപടി	-9.59828
▁ചൂട	-9.5983
▁ഗതാഗത	-9.59857
ഫ്ര	-9.59928
ബിൾ	-9.60034
കോശ	-9.60045
▁കറ	-9.60061
▁26	-9.60073
▁മലയാളചലച്ചിത്ര	-9.60201
ത്തൂർ	-9.60216
▁വിതരണം	-9.60228
▁അവതരിപ്പിച്ച	-9.60234
▁2000	-9.6027
▁ബന്ധം	-9.60303
കളിലൂടെ	-9.60306
ay	-9.60316
▁വ്യക്ത	-9.60319
മാണ	-9.6033
▁മക്ക	-9.60351
ച്	-9.60362
മിന	-9.60387
ാഴ്ച	-9.60416
▁നടക്ക	-9.60434
വർഗ	-9.60459
▁ഇസ്ലാമിക	-9.60468
▁ഉച്ച	-9.60488
ll	-9.60654
ിയായി	-9.60666
▁ഖു	-9.6069
▁വടക്കേ	-9.60699
▁രാജാവ്	-9.60713
ഘടന	-9.60802
▁വള	-9.6081
ചന	-9.60831
ശ്രീ	-9.61016
ഞ്ചേരി	-9.61017
!	-9.61044
go	-9.61091
▁എത്ത	-9.61113
നഗര	-9.61131
only	-9.61179
▁അണു	-9.61196
▁രസ	-9.61207
ിനോട്	-9.61236
▁അവർക്ക്	-9.61383
▁2005	-9.61384
्	-9.61389
▁മേയ്	-9.6141
▁കഴിയുന്ന	-9.61427
ക്കാണ്	-9.61438
മുറ	-9.61558
വിദ്യ	-9.61622
▁ജനറൽ	-9.61625
▁തൃശ്ശൂർ	-9.61738
മാണു	-9.61795
▁ശി	-9.61818
include	-9.61854
▁പലപ്പോഴും	-9.61907
ക്കിട	-9.61941
വ്വ	-9.6195
▁കോൺ	-9.61983
പാല	-9.62066
ho	-9.62111
▁സമുദായ	-9.62132
▁വൃത്ത	-9.62144
ട്ടർ	-9.62147
▁നു	-9.62155
500	-9.62187
ട്രി	-9.62244
▁പറ്റി	-9.62247
▁27	-9.62276
യാണു	-9.6236
ന്മാരും	-9.62366
▁എന്നിവയും	-9.62368
പിള്ള	-9.6241
മാക്കിയ	-9.62425
▁ഒഴിവാക്ക	-9.62437
▁നിലനിർത്ത	-9.6244
▁വച്ച	-9.62546
ചരിത്ര	-9.6255
▁അന്തരിച്ചു	-9.62559
ul	-9.62589
ായും	-9.62592
തന്ത്ര	-9.62629
▁നോ	-9.62659
▁നേതാവ	-9.62764
▁അപ്പ	-9.6279
▁വേണ്ട	-9.62825
▁re	-9.62849
po	-9.62885
▁ഗോത്ര	-9.62888
▁കടൽ	-9.62913
▁‍	-9.6293
▁കിഴക്ക്	-9.62931
▁ശതക	-9.62942
▁റേഡിയോ	-9.62951
ഞ്ച്	-9.62956
▁ആഴ	-9.63126
▁പതി	-9.63169
ളാ	-9.63215
▁ദുർ	-9.63256
et	-9.63317
മില്ലാത്ത	-9.6332
▁തെറ്റ	-9.63327
ാത്മക	-9.63416
▁നടന്നു	-9.63423
വർണ്ണ	-9.63433
▁തടാക	-9.63513
▁de	-9.63514
▁ഭാരതീയ	-9.63551
വാർ	-9.63658
▁നൂറ	-9.63679
▁സർക്കാര	-9.63691
ba	-9.63709
▁കർ	-9.63709
▁നേട	-9.63722
ചിത	-9.63764
▁സിസ്റ്റ	-9.63939
▁വീട്ട	-9.64135
▁ലിപി	-9.64207
▁യുദ്ധത്തിൽ	-9.64213
▁ഇവിട	-9.64303
യേറ്റ	-9.64332
▁പിന്ന	-9.64384
▁കാലഘട്ടത്തിൽ	-9.64386
കുളം	-9.64398
▁പ്രവർത്തനം	-9.64407
രചന	-9.64425
എന്ന	-9.64453
ത്തെക്കുറിച്ച്	-9.64483
കട	-9.64514
▁പണി	-9.64516
▁കീഴില	-9.64555
▁പ്രാഥമിക	-9.64566
▁അഫ്ഗാനി	-9.64567
കളെയും	-9.64567
▁ചുരുക്ക	-9.64573
വരാണ്	-9.64591
വന്നു	-9.64684
▁അനേകം	-9.64701
പ്പോഴ	-9.6471
▁and	-9.64724
ൻറെ	-9.64732
▁വരുത്ത	-9.64767
യെയും	-9.64825
▁കുറു	-9.64927
▁റൂ	-9.64958
▁പോയി	-9.64999
ുവാനും	-9.65035
ാണു്	-9.65069
▁പങ്കു	-9.65179
ണമെന്ന്	-9.65222
ിയിരുന്നു	-9.6523
രാഷ്ട്ര	-9.65277
▁28	-9.65287
▁ഖാ	-9.65291
▁പങ്കെടുത്ത	-9.65349
▁ക്ഷേത്രത്തിലെ	-9.65437
ർദ്ദ	-9.65471
നാനാർത്ഥ	-9.65528
▁50	-9.65532
ുന്നതിന	-9.65649
പ്പന	-9.65693
▁മുറി	-9.65742
ർവ്വ	-9.65753
▁പാശ്ചാത്യ	-9.65769
▁യന്ത്ര	-9.65808
▁100	-9.65858
വർഗ്ഗ	-9.65861
▁വേർ	-9.65867
▁പ്രവിശ്യ	-9.6589
▁വിഷ്ണു	-9.65896
▁നൂറ്റാണ്ടു	-9.65902
▁ഏതാനും	-9.65915
▁ഫ്ര	-9.662
▁തിരുവ	-9.66247
the	-9.66276
ശ്വ	-9.66287
▁ധർമ്മ	-9.66288
മിയ	-9.66339
▁ക്രിസ്തു	-9.66358
തയും	-9.66364
വെച്ച	-9.66397
ങ്ങളേയും	-9.66426
ca	-9.66502
കാന്ത	-9.66512
▁വിശേഷിപ്പിക്ക	-9.66566
ികളെ	-9.66596
കാരൻ	-9.66634
നുസരിച്ച്	-9.66659
വിശ്വാസ	-9.66671
▁വന്നത്	-9.66718
ദേവി	-9.66784
▁ചേർത്ത	-9.66853
▁നിയന്ത്രിക്ക	-9.66867
മാണെന്ന്	-9.66873
ഗിരി	-9.66903
▁അതായത്	-9.66988
ികളും	-9.67026
ബൈ	-9.67071
▁വിട്ടു	-9.67073
ന്തു	-9.67102
▁ഒടുവിൽ	-9.67109
▁അധികം	-9.6712
ളോ	-9.67135
▁ഉയരം	-9.67171
ak	-9.67209
▁ലൈ	-9.67253
▁നബി	-9.67281
▁ഫലമായി	-9.67295
പ്പിൽ	-9.67332
ഭ്ര	-9.67352
രായി	-9.67353
ങ്ങിയ	-9.67359
▁ഏഷ്യ	-9.67384
ഘട്ട	-9.6741
ഖാ	-9.67433
▁ഗ്രാ	-9.67466
▁അർത്ഥം	-9.67526
ഡു	-9.67542
▁കോട്ടയം	-9.67553
▁സമിതി	-9.67556
▁ഉറപ്പ	-9.67631
ക്കൂ	-9.67683
▁മാധ്യമ	-9.67787
▁മുതലായ	-9.67798
▁ഇള	-9.67833
▁കോർ	-9.67845
▁ഭരണഘടന	-9.67878
mo	-9.67901
മെന്റ	-9.67923
എഫ്	-9.67939
▁ഓട	-9.67995
▁വീര	-9.68026
▁പ്രവർത്തിച്ചു	-9.68057
–	-9.68059
▁നായക	-9.68068
▁തത്ത്വചിന്ത	-9.68099
വൂർ	-9.68134
സാര	-9.68143
▁സംഭാവന	-9.68148
▁പരമ്പരാഗത	-9.68219
റിയാ	-9.68237
▁ആസ്	-9.68342
േന്ദ്ര	-9.68356
▁ആല	-9.68369
▁കിട്ടിയ	-9.68378
▁2004	-9.68391
▁ഗി	-9.68408
▁തുറമുഖ	-9.68467
ശേഷ	-9.68468
=9	-9.68491
▁അനുസരിച്ച്	-9.68494
▁ഭാഷയിൽ	-9.68593
▁ഒരാള	-9.68604
▁ആളുകൾ	-9.68607
▁പ്രോ	-9.68641
രുത	-9.6866
കുല	-9.68733
മേള	-9.6874
വെള്ള	-9.68747
wa	-9.68755
▁റോമൻ	-9.68776
ാതിരിക്ക	-9.68781
മ്മാ	-9.68853
▁വെള്ളം	-9.68857
പ്പോഴും	-9.68935
▁ബഹു	-9.68967
▁ജീവിച്ചിരുന്ന	-9.69012
to	-9.691
▁ശരാശരി	-9.69215
മംഗലം	-9.69264
▁ആരംഭ	-9.69361
▁ചിത്രത്തിൽ	-9.69471
▁ഗർഭ	-9.69512
ചെയ്യ	-9.69515
▁നേരിട്ട	-9.69563
▁വെയർ	-9.69669
റ്റിൽ	-9.69727
െന്നു	-9.69732
▁ശിഷ്യ	-9.69735
▁പിന്നിൽ	-9.69753
ക്കളുടെ	-9.69826
ജൻ	-9.69842
പ്രവർത്തിക്കുന്ന	-9.69857
▁അറ്റ	-9.69861
▁ഐതിഹ്യ	-9.69934
▁ഉദ്യോഗസ്ഥ	-9.69989
▁പുതു	-9.70004
▁ആയിരുന്ന	-9.70035
▁കുറച്ചു	-9.70055
വേദ	-9.70099
പ്ത	-9.70108
ഷീ	-9.7011
▁മനസ്സ	-9.70203
▁ഭാഗങ്ങൾ	-9.70317
▁ചേർക്ക	-9.70328
▁തുറന്ന	-9.70358
വേഗ	-9.70367
▁കഴിഞ്ഞു	-9.70401
ോളജി	-9.70405
യില്ല	-9.70413
പൂജ	-9.70415
▁ഷെ	-9.70539
ുന്നതു	-9.70541
പ്പാട	-9.7059
▁തിരുവിതാംകൂർ	-9.70603
per	-9.70616
▁വൈദ്യുതി	-9.70637
▁അവയിൽ	-9.70653
മാണി	-9.70702
▁ആൺ	-9.70705
ിന്റേയും	-9.70725
ങ്ങളുടേയും	-9.70749
▁ദശ	-9.70764
ാണുള്ളത്	-9.70781
▁മലപ്പുറം	-9.70875
▁കമ്പ്യൂട്ടറ	-9.70895
െയിൻ	-9.70897
െടുത്തു	-9.70908
▁കൺ	-9.7091
▁നിയമസഭ	-9.70957
▁ആശുപത്രി	-9.70984
▁ഡെൽഹി	-9.70985
▁വാതക	-9.70992
ab	-9.71029
▁നീണ്ട	-9.71099
▁ഫ്രഞ്ച്	-9.71119
രിച്ച	-9.7116
▁ഇക്	-9.71232
ങ്ങളുള്ള	-9.7124
sa	-9.71353
ക്കെ	-9.71366
▁എന്നായിരുന്നു	-9.71394
കളേയും	-9.71525
▁കർഷക	-9.71578
െണ്ണ	-9.71584
▁വ്യാ	-9.71649
▁v	-9.71668
ല്ലൂർ	-9.71741
▁തമിഴ	-9.71759
▁ഹൃദയ	-9.71767
വശത്ത	-9.71809
▁തടയ	-9.71836
ഫാ	-9.71878
ട്ടാ	-9.71885
▁ഞ	-9.71888
റ്റുകൾ	-9.71894
▁കൃതികൾ	-9.71918
▁ഇദ്ദേഹ	-9.71984
▁വ്യാഖ്യാന	-9.72011
▁പുരാണ	-9.72016
▁തുടങ്ങ	-9.72018
▁എന്നിവിടങ്ങളിൽ	-9.7205
▁ഇരട്ട	-9.72085
▁സ്വാധീനം	-9.72126
▁[	-9.72163
▁ശ്രദ്ധേയ	-9.72259
▁സെന്റ്	-9.7226
യാക	-9.72282
▁കണ്ടെത്തി	-9.72299
യാള	-9.72307
▁കഴിക്ക	-9.72329
▁നിർമ്മാണം	-9.72341
ൂരിൽ	-9.72371
പ്പുറം	-9.72389
ജീവിത	-9.72428
കൊണ്ടുള്ള	-9.72531
▁സൃഷ്ടിച്ച	-9.72544
▁0	-9.72593
▁സുറിയാനി	-9.72655
▁അബ്ദ	-9.72671
തയുടെ	-9.72707
ബേ	-9.72725
▁പ്രസിദ്ധമായ	-9.72729
▁അറിയപ്പെട്ട	-9.72754
▁സൃഷ്ടിക്ക	-9.72758
▁മരിച്ച	-9.72761
ദിന	-9.72872
ex	-9.72939
▁അറ	-9.72989
▁പൂര	-9.72995
▁മുംബൈ	-9.73046
▁തെക്കൻ	-9.73048
പ്പാട്ട	-9.731
ത്തിനുശേഷം	-9.73153
ങ്ങളിലാണ്	-9.73209
മനുസരിച്ച്	-9.73218
▁ആഫ്രിക്ക	-9.7322
ഥാ	-9.73262
യ്ക്കുള്ള	-9.73324
▁വാഹന	-9.73337
▁ആര	-9.73369
▁എത്തിയ	-9.73497
▁നിരീക്ഷണ	-9.73501
▁ഈജിപ്ത	-9.73568
തുപോലെ	-9.73575
▁ഉത്ഭവ	-9.73584
▁അവിട	-9.73622
ലർ	-9.73649
ധര	-9.7367
▁വിഗ്രഹ	-9.73675
▁പോർ	-9.73683
▁എഴുത്തുകാര	-9.737
വാത	-9.73731
▁വായന	-9.73794
മേറിയ	-9.73797
▁റെയിൽ	-9.73808
വ്യൂഹ	-9.73832
▁അഞ്ച്	-9.73914
റിയപ്പെടുന്നു	-9.73953
▁ചേർത്ത്	-9.74008
റിലെ	-9.74117
▁ചെന്ന	-9.74126
▁ഭൗതിക	-9.7413
റ്റെ	-9.74141
നക്ഷത്ര	-9.7415
▁ഇന്ത്യാ	-9.74161
▁പ്രദേശങ്ങൾ	-9.74246
▁ശുദ്ധ	-9.74417
▁തുടക്കത്തിൽ	-9.74447
ോടുള്ള	-9.74481
▁മനോ	-9.74502
ാനോ	-9.74517
രിൽ	-9.74529
▁വിധേയ	-9.74556
ദാന	-9.74559
ിക്കപ്പെടുന്ന	-9.74562
▁ആണെന്ന	-9.74565
▁ക്രൈസ്തവ	-9.7457
ാക്കിയ	-9.74766
നാള	-9.74801
ലക്ഷ്മി	-9.74808
▁പ്രദേശങ്ങളിൽ	-9.74812
മൊ	-9.74814
ാങ്ക	-9.74857
▁സാമൂഹ്യ	-9.74883
▁പരിശീലന	-9.74884
▁വസ്ത്ര	-9.74885
▁രാജ്യങ്ങളിൽ	-9.7491
വച്ച	-9.74917
▁പ്രവർത്തക	-9.74944
സൂത്ര	-9.74955
▁കഴു	-9.75034
▁പ്രത്യേകം	-9.75049
▁അദ്ദേഹ	-9.75104
▁താപ	-9.75107
ുടേ	-9.75138
▁അപകട	-9.75164
▁കൂട്ടി	-9.75167
▁പോളി	-9.75229
▁വിവാദ	-9.75254
ly	-9.75258
▁അദ്ധ്യായ	-9.75282
om	-9.75284
▁നയ	-9.75316
▁പാകിസ്താന	-9.75415
▁ra	-9.7548
▁കരുതി	-9.75482
ക്കുന്നത്	-9.7552
തുകൊണ്ട്	-9.75524
▁വിട	-9.75542
▁സാഹചര്യ	-9.75548
വൃത്തി	-9.75561
▁രാജ്യത്തിന്റെ	-9.75616
su	-9.75643
▁കമ്മ്യൂണിസ്റ്റ്	-9.75815
▁രേഖപ്പെടുത്തിയ	-9.75842
യെല്ലാം	-9.75851
▁ഭാഗമായ	-9.75853
▁എറണാകുളം	-9.75905
▁ഏഴു	-9.75965
റ്റിക്	-9.76093
▁മുസ്ലിം	-9.76221
▁കുഴ	-9.76241
▁ആകൃതി	-9.76256
▁നെടു	-9.76341
▁പടിഞ്ഞാറൻ	-9.76445
▁വിശദ	-9.76454
ck	-9.76465
▁തത്ത്വ	-9.76597
ा	-9.76621
ിങ്ങ	-9.76623
▁ആഹാര	-9.76626
▁പ്രവാചക	-9.76653
▁പ്രപഞ്ച	-9.76655
മൈ	-9.76686
▁മുതലായവ	-9.76692
ശാഖ	-9.76732
ഫെ	-9.76839
▁വർഗ	-9.76852
▁ലക്ഷണ	-9.76852
pi	-9.76859
du	-9.76907
▁പ്രസിദ്ധീകരിക്ക	-9.7691
300	-9.76964
▁പരിഭാഷ	-9.7702
▁ഐതിഹ്യം	-9.77065
▁നേർ	-9.77072
▁പഞ്ചായത്തിന്റെ	-9.77131
ഭാഗത്ത്	-9.77139
ിരിക്കും	-9.77141
▁ഡയ	-9.77176
▁അധി	-9.77277
ാന്തര	-9.77316
▁പ്രത്യ	-9.77394
▁മാർക്	-9.77401
മാകുന്നു	-9.77426
ഉം	-9.77561
▁സർവ്വകലാശാല	-9.7757
വസ്തു	-9.77584
▁വിഭാഗം	-9.77587
ന്മാരെ	-9.7765
മ്മി	-9.77662
▁അഭിനയിച്ചു	-9.77666
ീര	-9.77703
▁വിമർശന	-9.77713
▁കാട്ട	-9.77781
▁നാല	-9.77781
▁റഷ്യ	-9.77852
▁പ്ല	-9.77969
ക്ഷയ	-9.77975
▁തൈ	-9.77976
ko	-9.78014
▁ജനത	-9.78046
ാധികാര	-9.78053
▁കരുത	-9.78102
▁ശ്രീലങ്ക	-9.78117
▁അയാൾ	-9.78119
▁പ്രൊ	-9.78151
▁ക്രോ	-9.78182
▁അകലെ	-9.78189
q	-9.78259
▁തെയ്യ	-9.78263
ിനേയും	-9.78272
ടുപ്പ	-9.78302
▁ശ്ര	-9.78312
▁പിന്നീട	-9.78329
പ്പിക്ക	-9.78348
▁സ്വർണ്ണ	-9.78351
ഡീ	-9.78391
നിർമ്മാണ	-9.78407
▁നിർമിച്ച	-9.78415
▁ബ്രാ	-9.78415
▁ഷോ	-9.78448
ന്റി	-9.78545
▁കൊടുക്ക	-9.78625
▁പുസ്തകം	-9.78639
▁യേശു	-9.7879
▁വീതി	-9.78807
േണ്ടത	-9.78812
▁നീള	-9.78831
▁ഏതെങ്കിലും	-9.78851
ാ‍	-9.78865
▁വിവരണ	-9.78887
ചെയ്ത	-9.78921
▁ഇതിലെ	-9.78972
തെന്നും	-9.78983
ദൂ	-9.7904
▁കണ്ടുവരുന്ന	-9.79062
ാണെന്നും	-9.79147
▁ലക്ഷം	-9.79209
ry	-9.7921
▁ശതമാന	-9.79223
▁വിദ്യാലയ	-9.79228
▁നേ	-9.79239
▁ബർ	-9.7925
താര	-9.79267
▁നാള	-9.79291
മാരും	-9.79306
ിതമായ	-9.79309
വർഗ്ഗം	-9.79337
pu	-9.79452
ശേഷി	-9.79456
im	-9.79521
ന്നൂർ	-9.79567
ായാണ്	-9.79581
▁40	-9.79609
▁പ്രശസ്തമായ	-9.79666
▁ഇവിടത്തെ	-9.79674
ജീവി	-9.79722
ടക്കം	-9.79742
▁സജീവ	-9.79786
lu	-9.79793
▁മാസം	-9.79807
▁രാജാ	-9.79864
▁l	-9.79866
രൂ	-9.79881
▁മിക്കവാറും	-9.79912
പ്പിച്ച	-9.79915
▁കാവ്യ	-9.79917
▁നാട്ട	-9.79957
▁തരംഗ	-9.79977
▁ആകാശ	-9.80055
id	-9.80057
▁എല്ലാം	-9.80058
വാദം	-9.80083
ശ്യ	-9.80109
േജ്	-9.80161
▁മാറിയ	-9.80213
▁ഉൾപ്പെട്ട	-9.80242
▁നോക്കി	-9.80248
സമയ	-9.80295
▁മലബാർ	-9.80331
▁അസ്	-9.80355
do	-9.80357
േക്ക്	-9.80402
പ്പെട്ടിരുന്നു	-9.80482
റ്റ്സ്	-9.80515
▁മൗ	-9.80563
റസ്	-9.80576
▁ശിവക്ഷേത്ര	-9.806
▁കോളേജിൽ	-9.80615
▁ഇടയിൽ	-9.80627
▁തർക്ക	-9.80632
ത്തിനെ	-9.80651
ങ്ങളോ	-9.80741
▁പ്രവേശന	-9.80764
മൂലം	-9.80817
ine	-9.80859
▁ആയുധ	-9.80893
▁ബൈ	-9.80916
▁പിണ്ഡ	-9.80945
▁കാറ്റ	-9.80946
▁അച്ചടി	-9.80953
▁അയ്യ	-9.81
▁ശതമാനം	-9.81028
ജീവിതം	-9.81034
▁വലിപ്പ	-9.81075
ചക്ര	-9.81113
ങ്കര	-9.81203
▁ഭയ	-9.81211
നീയ	-9.81298
▁ശ്രീകോവില	-9.81315
▁ബോധ	-9.81356
▁ചിഹ്ന	-9.81378
ഇന്ത്യ	-9.81402
ബൂ	-9.81456
em	-9.81458
ബീ	-9.81459
സമൂഹ	-9.81506
ുണ്ടെന്ന	-9.81519
▁അവസാനം	-9.81545
-19	-9.81563
വേഷ	-9.81568
▁പന്ത്രണ്ട	-9.81599
ടോ	-9.81615
മേനോൻ	-9.81623
▁രേഖപ്പെടുത്ത	-9.81648
▁വകുപ്പ	-9.81649
▁തോമസ്	-9.81744
▁കാരണമായി	-9.81779
ീകൃത	-9.81788
▁1990	-9.81864
വർത്തി	-9.8187
▁രോഗം	-9.81923
നാമ	-9.81926
ുവെന്ന	-9.81937
▁സാധിച്ച	-9.81937
▁പ്രയോഗ	-9.8194
കളുടേയും	-9.8207
പത്ര	-9.82136
േറിയ	-9.8217
▁നയിച്ച	-9.82176
▁പട്ടാള	-9.82201
bo	-9.82208
▁അംഗീകരിച്ച	-9.82229
ിൻ്റെ	-9.82272
▁സമ്മേളന	-9.82273
ا	-9.82309
▁ഔ	-9.82497
▁നോക്ക	-9.8255
െഴുത്ത	-9.82563
▁ആലപ്പുഴ	-9.82608
▁അവലംബം	-9.82625
ണ്ണി	-9.8264
ിനുള്ള	-9.82689
▁ടെക്	-9.82689
പ്തി	-9.82704
▁വാർത്ത	-9.82729
▁കടന്ന	-9.82736
ഭീ	-9.82764
ക്കെട്ട	-9.82872
കുമാര	-9.82877
പ്രകാര	-9.82878
▁പ്രസിദ്ധീകരണ	-9.8289
▁ജൈവ	-9.8289
▁മോഡ	-9.82905
സൻ	-9.82943
കൂട്ട	-9.8296
amp	-9.82963
▁ആഭ്യന്തര	-9.83026
▁പ്രസിഡന്റ്	-9.83026
ാരംഭ	-9.83034
▁റെയിൽവേ	-9.83061
▁രാജ്യത്തെ	-9.83075
▁വൈദ്യ	-9.83155
വൃത്ത	-9.83196
മാർഗ്ഗ	-9.83203
▁പ്രഖ്യാപിച്ചു	-9.83206
▁ബിരുദ	-9.83226
ജ്ജ	-9.83317
▁ചോദ്യ	-9.83334
▁എത്തി	-9.83339
▁നീളം	-9.83369
കളിലൊന്ന	-9.83374
ധിക	-9.83431
▁പകുതി	-9.83459
▁സ്വാ	-9.83484
രാഗ	-9.83486
ണ്യ	-9.83567
▁സ്ഥലത്ത്	-9.8357
▁ഡ്ര	-9.83589
▁ഫൈ	-9.83622
ാർഥ	-9.83638
വിടെ	-9.83659
tu	-9.8378
▁നൂറ്റാണ്ടിലെ	-9.83804
പ്പർ	-9.83857
▁നൽകുന്നു	-9.83917
▁ഇപ്പോഴും	-9.83992
▁വർക്ക	-9.84009
ഹു	-9.84019
ിട്ട്	-9.84044
▁ബംഗാളി	-9.8405
▁വൃക്ഷ	-9.84133
▁കണക്കാക്കപ്പെട	-9.8415
ജല	-9.84176
▁സ്ഥാപിച്ചു	-9.84197
▁നടത്തുന്നത്	-9.84231
▁തിരിച്ചറിയ	-9.8434
▁ഓഫീസ	-9.84346
ാണെന്നു	-9.84393
▁ചലന	-9.84463
▁ഞാൻ	-9.84467
▁സൂ	-9.84483
▁സ്ഥാപക	-9.8449
ന്ത്	-9.84557
▁പരാജയ	-9.84558
▁i	-9.84609
▁എളുപ്പ	-9.8462
ള്ളി	-9.84622
▁മുത്ത	-9.84668
ea	-9.84705
▁അണക്കെട്ട	-9.84768
▁വിനോദ	-9.8477
പഥ	-9.84846
▁തയ്യാറ	-9.8489
▁mo	-9.84915
പ്രദ	-9.84923
▁തടി	-9.8496
▁അഷ്ട	-9.84969
പേ	-9.85003
▁കുഞ്ഞ	-9.85003
▁ബിരുദം	-9.85005
▁ഹേ	-9.85013
▁ഉപദേശ	-9.85039
▁ജോസഫ്	-9.8506
▁റീ	-9.85063
ാർഡ്	-9.85084
ചിന്ത	-9.85099
▁ബാബ	-9.85132
▁ഉദാ	-9.85133
െയും	-9.85158
▁കൈകാര്യം	-9.85207
സിന്	-9.85228
▁മതി	-9.85299
ൂൺ	-9.85301
▁ജ്ഞാന	-9.85313
രിപ്പ	-9.85347
മെങ്കിലും	-9.85429
വട	-9.8544
വാൻ	-9.85442
▁ശേഷി	-9.85482
▁നെല്ല	-9.85482
ങ്കി	-9.85517
▁രാജ്യം	-9.85523
▁വ്യാസ	-9.85552
ram	-9.85605
ിറങ്ങ	-9.85654
സ്താന	-9.85748
ക്കുകൾ	-9.85787
▁റോമ	-9.85808
▁പിൽക്കാലത്ത്	-9.8585
ിരിക്കാം	-9.8589
ർഥ	-9.8592
ഭദ്ര	-9.85946
108	-9.85957
ാവകാശ	-9.85973
ീകരണം	-9.85973
സ്റ്റോ	-9.86099
താപ	-9.86103
▁നഷ്ട	-9.86158
▁താരതമ്യേന	-9.86241
▁ഉണ്ടാക്കുന്ന	-9.86267
കളുള്ള	-9.8628
▁പരിചയ	-9.86316
▁വെള്ളി	-9.86456
ക്കൊണ്ട്	-9.8652
▁പെരി	-9.86531
▁ഒട്ട	-9.86533
ട്ര	-9.86543
op	-9.86555
ഗുപ്ത	-9.86573
▁തുടങ്ങുന്ന	-9.86711
▁തന്ത്ര	-9.86734
▁വില്ലേജ	-9.86735
▁കയ്യ	-9.86745
റൈ	-9.86753
▁പന	-9.86755
bi	-9.86793
▁മടങ്ങ	-9.86828
▁തിരക്കഥ	-9.86874
▁ശ്രീകൃഷ്ണ	-9.86879
▁കൂടിയാണ്	-9.8688
കാലത്തു	-9.8689
▁പൊട്ട	-9.86894
▁കുതിര	-9.86969
▁നിലനിന്നിരുന്ന	-9.8697
ദോ	-9.86972
▁പ്രത്യക്ഷ	-9.8701
ബ്ലി	-9.87015
ുണ്ടെങ്കിലും	-9.87031
▁ചെയ്തിരുന്നു	-9.87039
▁വലുത	-9.87079
ക്കിന്റെ	-9.87128
▁വിലയിരുത്ത	-9.87135
▁ബാക്കി	-9.87166
േഷ്	-9.87171
ങ്ങളിലായി	-9.87175
▁st	-9.87203
പരമായി	-9.87208
▁ദീർഘ	-9.87214
▁വായു	-9.87243
▁പിടി	-9.87249
▁ചെയ്യും	-9.87262
os	-9.87272
▁ആശ്രയിച്ച	-9.87285
ഗൃഹ	-9.87319
▁സ്നേഹ	-9.87435
▁താള	-9.87436
▁മധുര	-9.87443
▁പത്തു	-9.87492
▁എച്ച്	-9.87549
വംശ	-9.87576
▁ക്ലാ	-9.87617
േക്കാൾ	-9.87668
▁സമാ	-9.8768
ുന്നതാണ്	-9.87694
▁തയ്യാറാക്ക	-9.87742
▁പ്രിയ	-9.87849
▁വള്ള	-9.87854
ിയിട്ടുണ്ട്	-9.87887
▁എട്ടു	-9.88117
▁പരസ്പരം	-9.88144
േഷന	-9.88175
▁സഭാ	-9.88183
വാല	-9.88272
▁പെൺ	-9.88287
▁റോഡ്	-9.88348
ണ്ടാ	-9.8836
▁കൂടുതല	-9.88374
▁തടവ	-9.88379
െത്തി	-9.88404
▁പുനർ	-9.88413
▁ഒളി	-9.88417
▁ആൾ	-9.88423
▁29	-9.88551
നുസരിച്ച	-9.88551
▁കരു	-9.88605
▁സംരക്ഷണ	-9.88646
▁പുഷ്പ	-9.88651
▁ഭക്ഷണം	-9.88751
▁കത്തോലിക്കാ	-9.88919
▁പേർഷ്യൻ	-9.88951
വിന്	-9.88956
▁ഉപഗ്രഹ	-9.88996
▁സംഭവിച്ച	-9.89123
പ്രവാഹ	-9.89135
;/	-9.89154
മാക്കുന്ന	-9.89154
▁ചിലപ്പോൾ	-9.89185
▁ആദര	-9.89208
▁നികുതി	-9.89255
▁നേതൃത്വം	-9.89275
ശ്വാസ	-9.89311
ഞ്ഞി	-9.89324
ോറ	-9.89332
▁ചെലവ	-9.89363
ശ്ശി	-9.89385
ക്കൊപ്പം	-9.89413
▁(18	-9.8943
▁ആറ്റ	-9.89431
രാണ്	-9.89432
▁കൊള	-9.89445
▁വഹിച്ച	-9.89446
കീഴ	-9.8947
ക്കാൾ	-9.89474
▁സംഘം	-9.89505
▁ഉൾക്കൊള്ളുന്ന	-9.89515
ത്രേ	-9.89581
▁നാമം	-9.89685
▁ഉദ്	-9.89703
▁ലീ	-9.89703
ke	-9.89766
ൾഡ്	-9.89779
▁ഉള്ളത്	-9.8978
▁നാണയ	-9.89873
ിട്ടും	-9.89909
▁ചക്ര	-9.89925
▁കാമ	-9.89926
ent	-9.89936
ശാന്തി	-9.89987
▁നദീ	-9.90004
▁സൂപ്പർ	-9.90029
മേൽ	-9.9003
ver	-9.90049
▁മന്ത്ര	-9.90161
യുക്ത	-9.90187
യാക്കി	-9.90191
ിനൊപ്പം	-9.90216
പോർട്ട	-9.90219
▁നഗരസഭ	-9.90237
▁ഭാഗത്ത്	-9.90255
ുകളിലെ	-9.90289
ോടു	-9.90365
ഭൂ	-9.90376
▁ഇന്ദ്ര	-9.90411
ഖ്യ	-9.90421
▁2003	-9.90425
മാരെ	-9.90431
▁സെർ	-9.90519
▁വില്ല	-9.9053
പ്പുറത്ത	-9.90539
▁പെടുന്ന	-9.9059
ഗമ	-9.90606
ാറില്ല	-9.9073
▁സഖ്യ	-9.90745
▁അതിന്	-9.9079
▁ജർമ്മനി	-9.90797
▁ക്രിസ്തീയ	-9.90797
▁വെളുത്ത	-9.90797
▁സാമാന്യ	-9.90798
യാണ	-9.90827
ജോ	-9.90854
▁ആസ്ഥാന	-9.90904
ശേഖര	-9.90975
▁പുരസ്കാര	-9.90997
ലിൻ	-9.9102
▁ഗാനങ്ങൾ	-9.91109
▁നിഷ്	-9.91119
▁അധികാരം	-9.91213
മുടി	-9.91226
▁ആദി	-9.91276
▁കോളനി	-9.91412
ിലേയും	-9.9142
ദൈവ	-9.91464
ൻറ്	-9.91543
▁ഭരണകൂട	-9.91548
▁കുറിച്ച്	-9.91561
യൊ	-9.91574
▁സൗദി	-9.91601
ുണ്ടാവ	-9.91694
▁പിടിച്ച	-9.91715
▁കുല	-9.91742
കാലത്തെ	-9.91797
പാർ	-9.91811
▁വെളി	-9.91884
▁മാതാവ	-9.91966
▁ആര്യ	-9.91991
▁31	-9.92033
ാക്കൾ	-9.9204
▁മാറ്റം	-9.92054
ut	-9.9207
▁സ്റ്റേറ്റ്	-9.92073
▁ദേവാലയ	-9.92075
▁കടുത്ത	-9.9208
▁ലക്ഷ്യം	-9.92133
han	-9.9216
ശോ	-9.92192
യായും	-9.92214
▁1970	-9.92217
▁ഐക്യ	-9.92229
▁പങ്കെടുക്ക	-9.92233
മിന്റെ	-9.92317
▁മേഖലയിൽ	-9.92317
▁സൗ	-9.92354
▁തനി	-9.92378
കൊടുക്ക	-9.92404
കർഷ	-9.92444
▁മുള	-9.92447
മിട	-9.92472
ക്കാരും	-9.92514
▁കിരീട	-9.92521
ിപ്പിച്ചു	-9.92546
▁ലോകകപ്പ	-9.92573
ീവ്	-9.92632
ലിംഗ	-9.92644
▁മലബാറ	-9.92685
തിയ	-9.92765
▁o	-9.92794
ഫോൺ	-9.92838
▁ശത്രു	-9.92861
പ്പറ്റി	-9.92912
▁താമസ	-9.92947
▁പ്രതീക	-9.92963
സ്രോതസ്സ	-9.92996
▁me	-9.93049
ran	-9.93058
െത്തുന്ന	-9.93073
▁സാധിക്ക	-9.93135
നാട്ടിലെ	-9.93188
▁പാഠ	-9.93232
▁വ്യാഴ	-9.93236
കൂടിയ	-9.93246
ുപോയ	-9.93317
ഴിഞ്ഞ	-9.93319
ർണ്ണ	-9.93343
ഒരു	-9.93349
ധാരണ	-9.9336
യോടു	-9.93362
മുദ്ര	-9.93379
▁ആന്റ്	-9.93415
ഡേ	-9.93432
▁സഭയുടെ	-9.9347
▁ഫിലിം	-9.93491
▁അർദ്ധ	-9.93499
▁ചെയ്യപ്പെട്ട	-9.93523
▁ചെയ്യുകയും	-9.93546
കരിച്ച	-9.9358
pro	-9.93584
▁പശ്ചിമ	-9.93627
▁ശില്പ	-9.93681
ാനാണ്	-9.93754
നാമം	-9.93777
▁ഗുഹ	-9.93808
▁സൃഷ്ടി	-9.93819
▁വിധാന	-9.93846
▁വിഭാഗത്തിൽ	-9.93936
▁ആഗോള	-9.9394
▁ഓസ്ട്രേലിയ	-9.93954
▁മാർപ്പാപ്പ	-9.93954
ില്ലാത്ത	-9.93954
▁കുടുംബം	-9.94009
▁പണ്ട	-9.94014
▁co	-9.94019
ിലേക്കു	-9.94086
▁വേഗത	-9.94093
▁ഇരുമ്പ	-9.94105
▁പ്രകട	-9.94132
ട്ടെ	-9.94177
▁ആള	-9.94188
ോടുകൂടി	-9.94253
▁സർവ	-9.94269
▁ആരംഭിക്ക	-9.94279
▁അമേരിക്കയിലെ	-9.94315
ഡൻ	-9.94323
ാധി	-9.94323
യുഗ	-9.94385
▁കാണുന്നു	-9.94413
യാണിത്	-9.94497
▁ആൽബ	-9.94506
▁യൂണിയന	-9.94538
മാനം	-9.94556
▁നോർ	-9.94598
▁മൊത്തം	-9.94604
വിട	-9.94688
▁ലൂ	-9.94757
▁അറേബ്യ	-9.94759
▁പരിഗണിക്ക	-9.94764
▁സ്വാമി	-9.94792
രത്ന	-9.94815
െക്കുറിച്ചും	-9.9483
▁മലയാളത്തിൽ	-9.94836
▁പ്രതിഫല	-9.94863
▁ബഹുമതി	-9.94928
▁മാധവ	-9.9494
തെന്ന	-9.9496
▁1999	-9.94977
▁തിരുവനന്തപുരത്ത	-9.94979
മായിരിക്കും	-9.95027
▁അവയെ	-9.95037
ലേഖ	-9.95075
ടിച്ച	-9.95104
ku	-9.95212
യാട്ട	-9.95235
▁കുറയ	-9.95264
ുവെന്ന്	-9.95279
▁തുടങ്ങിയത്	-9.95309
െഴുതിയ	-9.95401
▁പ്രദേശത്ത്	-9.95438
▁ആത്മ	-9.95443
▁നിത്യ	-9.95448
▁സിസ്റ്റം	-9.95618
കൃതി	-9.95619
▁ആഗ്രഹ	-9.95644
▁നിലനിൽക്കുന്ന	-9.95696
വിശേഷ	-9.9571
▁ത്ര	-9.95746
▁ചിത്രത്തിന്റെ	-9.95757
പ്പറ	-9.95777
▁ഗോള	-9.95782
ഷ്യൻ	-9.95789
ഡർ	-9.95834
▁അദ്ധ്യാപക	-9.95906
▁എയർ	-9.96015
▁കർണാടക	-9.96061
tha	-9.96188
പ്പാട്	-9.96269
▁വസ്തുക്കള	-9.96271
▁pa	-9.96277
▁മകൻ	-9.96284
ee	-9.9631
ന്റെയും	-9.96312
▁ഗണിത	-9.96316
▁കപ്പല	-9.96343
▁എന്നിരുന്നാലും	-9.96389
▁അമ്ല	-9.9639
▁അധ	-9.96493
▁കപ്പ	-9.96507
ക്കുളം	-9.96522
യ്ക്കുന്ന	-9.96531
▁നമ്പ	-9.96538
പുറ	-9.96544
▁നടപ്പിലാക്ക	-9.96554
▁സർവ്വ	-9.96555
▁നിക്ഷേപ	-9.96596
▁വിജയിച്ച	-9.96765
കളിലാണ്	-9.96777
▁കഥാ	-9.96816
കാരണ	-9.96847
റിക്	-9.96867
▁സമാന	-9.96882
▁തൊഴിൽ	-9.96884
ക്കുറിച്ച	-9.96927
കീ	-9.97042
▁ഇരുപതാം	-9.97098
▁പ്രദേശത്തെ	-9.97138
ുന്നില്ല	-9.97205
▁അതുപോലെ	-9.97248
നോട്	-9.97268
തെങ്കിലും	-9.9729
ാണെന്ന	-9.97338
ോത്സവ	-9.97381
▁സ്മാരക	-9.97381
ാതിരുന്ന	-9.974
▁തൂക്ക	-9.97438
▁രാജ്യങ്ങൾ	-9.9744
▁പുന	-9.97512
ക്ടർ	-9.97514
▁കോളേജ	-9.97516
▁വലിപ്പം	-9.97528
▁കളിക്കാര	-9.97538
▁ഇൻസ്റ്റിറ്റ്യൂ	-9.97546
ക്കിൾ	-9.97575
ുവാനുള്ള	-9.9761
ക്കാരനായ	-9.97669
▁കൊടി	-9.97722
ഗുണ	-9.97757
▁വരി	-9.97885
▁സുവിശേഷ	-9.97921
▁കിട്ട	-9.97989
▁വികാസ	-9.97992
▁എടുത്തു	-9.98005
റൂ	-9.98023
▁സൈന്യം	-9.98026
പോക	-9.98038
▁ഒഴുകുന്ന	-9.98047
▁ഒട്ടേറെ	-9.98049
▁ചെയ്യുക	-9.98091
▁–	-9.98095
▁പരീക്ഷ	-9.98157
▁പുറം	-9.98158
നേതാക്കള	-9.98162
രക്ഷ	-9.98172
▁മാൻ	-9.98222
▁വേര	-9.98256
ക്കൊണ്ട	-9.98286
മീറ്റർ	-9.98327
ങ്ങാട്	-9.98364
▁കായിക	-9.98409
ുമായിരുന്ന	-9.98465
▁അതിരുകൾ	-9.98488
oo	-9.98495
പിടി	-9.98526
▁യൂണിയൻ	-9.98549
▁ലീഗ്	-9.9855
▁പണിത	-9.98551
▁ജീവചരിത്ര	-9.98568
▁ക്ലബ്ബ	-9.9857
ക്ഷൻ	-9.98588
▁ഉൾപ്പെടെ	-9.98642
▁മകനായി	-9.98709
▁ഇറ്റലി	-9.98721
▁ചുമ	-9.98729
ity	-9.9873
▁വിസ്തൃതി	-9.98733
lam	-9.98753
▁അതുകൊണ്ട്	-9.98767
▁എഴുത്ത	-9.98805
ക്കാരെ	-9.98854
र	-9.98885
▁ഭൂപ്രകൃതി	-9.98893
▁പ്രതിനിധി	-9.98905
▁കുഞ്ഞു	-9.98939
▁കുടുംബത്തിൽ	-9.98941
▁ഷി	-9.98967
▁കാര്യങ്ങൾ	-9.98978
ന്ദ്ര	-9.98987
തിലൂടെ	-9.99002
▁സുഹൃത്ത	-9.9901
▁എതിർ	-9.99055
▁ശങ്കര	-9.99137
ത്തിലേക്കു	-9.99156
▁ജില്ലാ	-9.99166
കക്ഷി	-9.99168
ാനന്ദ	-9.99217
ല്ലാത്ത	-9.99218
▁ജനാധിപത്യ	-9.99244
പേര	-9.9925
രാവ	-9.99257
ുക്കൾ	-9.9928
ുണ്ടാക	-9.99283
▁അമ്പ	-9.99301
▁al	-9.9934
▁ശിലാ	-9.99367
കുട്ടി	-9.99374
▁ചീ	-9.99399
▁ക്രിസ്തുമത	-9.99411
▁എഫ്	-9.99414
സിസ്	-9.99428
▁2012	-9.99474
കലാ	-9.99487
▁ഭക്ത	-9.99567
▁നീക്ക	-9.99628
▁പ്രഭു	-9.99639
▁വാർ	-9.99655
ശ്ച	-9.99684
സ്ഥാപന	-9.99706
▁വിധി	-9.99766
എച്ച്	-9.99776
ഹിത	-9.99825
ക്കാലത്ത്	-9.99879
tra	-9.99889
ങ്ങളിലേക്ക്	-9.99898
ل	-9.99901
▁മീന	-9.99927
ീഷ്	-9.99951
▁ശ്രദ്ധിക്ക	-9.99957
ിലേറെ	-9.99959
▁പിന്നെ	-9.99968
▁സാധിക്കും	-9.99974
all	-10.0002
▁സൂചിപ്പിക്ക	-10.0002
▁മസ്ജിദ	-10.0007
▁സംരക്ഷിക്ക	-10.0008
ന്ത്യ	-10.001
▁ഡേ	-10.0022
▁വീട്ടിൽ	-10.0023
▁സന്ദർശിച്ച	-10.0024
▁വാസ	-10.0032
ഗോപാല	-10.0035
ിയ്ക്കുന്ന	-10.0039
ായുധ	-10.0044
ത്തോടു	-10.0051
▁ചിത്രത്തിലെ	-10.0064
▁na	-10.0068
▁പിതാവ	-10.0074
▁തെരഞ്ഞെടുക്ക	-10.0076
▁ചൊവ്വ	-10.0076
▁എത്തിച്ചേര	-10.0076
▁സൗര	-10.0077
ഗ്രി	-10.0085
▁സമ്പ	-10.0087
▁ഉദ്ദേശ	-10.0087
ിച്ചിട്ടുണ്ട്	-10.0092
▁ക്യൂബ	-10.0093
വർത്തന	-10.0095
ക്കുട്ടി	-10.0097
▁രാശി	-10.0098
▁സംയുക്ത	-10.0098
▁മുഖ്യമന്ത്രി	-10.0098
ഞ്ഞ്	-10.0099
▁മരുന്ന	-10.01
▁2002	-10.0102
▁ഏഴ	-10.0104
▁തെളിവ	-10.0106
മൊഴി	-10.0106
ചേര	-10.0123
ജീവ	-10.0123
▁സ്വര	-10.0127
▁സംഭാഷണ	-10.0127
ിലായി	-10.0132
ഭൂത	-10.0139
▁പങ്കാളി	-10.0146
0,000	-10.0152
ist	-10.0154
ate	-10.0156
▁നീങ്ങ	-10.0158
▁തിരഞ്ഞെടുപ്പിൽ	-10.0162
▁ലഭ്യമായ	-10.0163
▁ആയിര	-10.0164
▁വിളിച്ച	-10.0175
▁കമ്മിറ്റി	-10.0179
▁ലഭ്യമാണ്	-10.0179
▁പ്രഥമ	-10.018
▁തൃക്ക	-10.018
▁ഒന്നു	-10.018
▁സിറ്റി	-10.0181
▁ഒരിക്കൽ	-10.0181
ജ്യ	-10.0182
ാണെങ്കിൽ	-10.0182
ുവെന്നും	-10.0184
ൊര	-10.0185
▁1960	-10.0185
▁ഭൂമിയുടെ	-10.0187
▁പക്ഷ	-10.0187
▁ദീപ	-10.0191
▁to	-10.0194
▁വിളിച്ചു	-10.0194
▁മാനസിക	-10.0197
▁പകര	-10.0197
മുതൽ	-10.0202
സ്ഥാനം	-10.0204
▁സന്ദേശ	-10.0209
tor	-10.0211
യിലേ	-10.0213
▁സ്ഥാപിതമായ	-10.0214
മുണ്ടായിരുന്ന	-10.0215
▁നടത്തുന്നു	-10.0218
▁ഒന്നും	-10.0222
മഹാ	-10.0234
▁വിജയം	-10.0242
നാശ	-10.0242
ിനെതിരെ	-10.0247
▁ചിലർ	-10.0249
▁വിനോദസഞ്ചാര	-10.0249
▁പിടിച്ചു	-10.025
▁വിശ്വസിച്ച	-10.0253
▁രാജാവിന്റെ	-10.0255
▁സിദ്ധ	-10.0256
നാൾ	-10.0265
▁ലഭിച്ചത്	-10.0265
▁ആധിപത്യ	-10.0266
▁ഹൈന്ദവ	-10.0266
െടുത്ത്	-10.0268
തായും	-10.0268
പ്പേര	-10.0269
▁വ്യാപിച്ച	-10.0273
ദോഷ	-10.0275
▁ശക്ത	-10.0276
▁കുരു	-10.0276
ant	-10.0281
▁യൂണിവേഴ്സിറ്റി	-10.0284
ns	-10.029
സമിതി	-10.0292
കുമാർ	-10.0292
▁ബാധിച്ച	-10.0295
▁വിരുദ്ധ	-10.0296
നുമായ	-10.0297
▁പാർട്ടിയുടെ	-10.0299
▁ഉപരിതല	-10.0301
▁സമാധാന	-10.0302
▁ധാതു	-10.0304
gu	-10.0304
തുമാണ്	-10.0324
ana	-10.0325
ുമെന്നും	-10.0326
▁കിഴക്കു	-10.0328
▁വായിക്ക	-10.0334
▁സ്റ്റേഷന	-10.0338
ക്കളെ	-10.0342
▁മീറ്ററ	-10.0343
▁ശ്രീരാമ	-10.0344
▁വസ്തുവ	-10.0344
ധാന	-10.0347
▁ആറ്	-10.0347
ക്കാട	-10.0352
▁ഭൂരിപക്ഷ	-10.0354
ികളായ	-10.0356
േണ്ടത്	-10.0359
▁സന്	-10.0361
വർത്ത	-10.0363
ct	-10.0369
ുവെങ്കിലും	-10.037
▁വരുത്തി	-10.0372
▁കുടിയേറ്റ	-10.0374
കുടുംബ	-10.0376
▁എങ്ങനെ	-10.0378
ുണ്ടായി	-10.0378
▁വ്യക്തമായ	-10.0383
▁കാന്തിമാനം	-10.0389
▁മുഗൾ	-10.039
▁പാർലമെന്റ	-10.039
ഭൂമി	-10.0391
യാത്ര	-10.0394
▁ലോകത്തെ	-10.0399
▁അഗ്ര	-10.0403
▁ടെലിവിഷൻ	-10.0407
▁കച്ചവട	-10.0407
▁പേരിനു	-10.041
▁ഭാഗങ്ങളിൽ	-10.0421
▁വരും	-10.0421
▁പ്രകടന	-10.0422
▁ചിത്രങ്ങളിൽ	-10.0424
-1	-10.0424
ഡുകൾ	-10.0428
▁കീഴ്	-10.0429
▁എന്നൊരു	-10.0435
▁അയച്ച	-10.0438
▁തിരുവിതാംകൂറ	-10.0442
▁കുടി	-10.045
▁അല്ല	-10.0453
▁സവിശേഷത	-10.0453
▁സൂക്ഷ്മ	-10.0461
▁തിരഞ്ഞെടുത്ത	-10.0461
har	-10.0461
▁എന്നിവയിൽ	-10.0466
മെന്നും	-10.0483
+	-10.0487
▁വിജ്ഞാന	-10.0488
പ്രധാന	-10.049
ഞ	-10.0491
▁ബ്രി	-10.0492
▁വയല	-10.0492
▁ബാർ	-10.0498
ങ	-10.0512
▁ജലം	-10.0515
▁പാപ	-10.0524
ങ്കോ	-10.0525
കുറ	-10.0527
ച്ചേരി	-10.0538
▁ലഘു	-10.054
▁ജൂ	-10.0542
▁ഗീത	-10.0543
▁ബുദ്ധി	-10.0543
▁ഗ്ല	-10.0546
sp	-10.0549
പ്പണി	-10.0551
▁കാണപ്പെടുന്നത്	-10.0557
▁അവാർഡ	-10.0557
▁മലയാളത്തിലെ	-10.0564
▁തീർത്ത	-10.0565
▁ബുദ്ധിമുട്ട	-10.0569
▁ദില്ലി	-10.0572
▁പുറത്തേക്ക	-10.0572
▁നാട്	-10.0575
▁മൂല്യ	-10.0576
▁കുട്ടികൾ	-10.0578
റീ	-10.0583
ല്ലോ	-10.0585
പരിവർത്തന	-10.0586
▁സംശയ	-10.0587
fi	-10.0589
▁ഏത	-10.0593
ക്ഷേപ	-10.0597
സിദ്ധ	-10.0598
▁സ്വീകരിച്ചു	-10.06
▁സഹായിക്ക	-10.0602
ങ്ങാടി	-10.0606
▁മൂത്ത	-10.0608
നാരായണ	-10.0614
പ്രവർത്തക	-10.0615
സാധന	-10.0618
▁ഇലക്ട്രോണ	-10.0621
▁നെറ്റ്	-10.0625
▁പറ്റ	-10.0632
▁പ്രസിഡണ്ട	-10.0641
▁സഞ്ചാര	-10.0641
▁സൂക്ഷിക്ക	-10.0641
തലത്തിൽ	-10.0643
▁സഹോദരി	-10.0645
▁സഹായത്തോടെ	-10.0647
▁പണ	-10.0648
▁പോലെയുള്ള	-10.0652
▁മാംസ	-10.0652
യുമായ	-10.0653
ഗ്രാമ	-10.0655
tri	-10.0656
▁ഭാ	-10.0656
▁കൊണ്ടുവന്ന	-10.0657
▁എന്നിവിടങ്ങളില	-10.066
hy	-10.0661
▁അവൾ	-10.0665
▁പാദ	-10.0668
▁മാക്	-10.0672
വാക്യ	-10.0673
▁വരുമാന	-10.0678
ധർമ	-10.0686
▁ബസ്	-10.0692
▁രഹസ്യ	-10.0695
▁അനുകൂല	-10.0695
▁പ്രസംഗ	-10.0695
▁കഥകളി	-10.0697
▁ശ്രദ്ധേയമായ	-10.0699
▁ടെലി	-10.07
▁sa	-10.07
പ്രീതി	-10.0702
മുണ്ടായിരുന്നു	-10.0705
▁വച്ചു	-10.0711
▁ആത്മഹത്യ	-10.0714
ക്കുവേണ്ടി	-10.072
▁പുനര	-10.0722
]],	-10.0722
തുടർന്ന്	-10.0724
നിർമ്മ	-10.0727
ai	-10.0729
▁മന്ത്രിസഭ	-10.0734
ഗീ	-10.0738
▁ചെന്നൈ	-10.074
▁നിറം	-10.0743
▁കാര്യത്തിൽ	-10.0745
ൈഡ്	-10.0746
ക്കോട്ട	-10.0746
▁സാമൂതിരി	-10.075
▁മദീന	-10.0751
▁വീണ	-10.0753
▁ചാര	-10.0754
▁ജീവന	-10.0754
യന്ത്ര	-10.0762
▁വിശ്വസിക്കപ്പെട	-10.0763
▁ചെറുപ്പ	-10.0766
400	-10.077
mar	-10.0773
▁മണ	-10.0776
▁നടത്തിയിരുന്ന	-10.0776
പ്പെട്ടിരുന്ന	-10.078
ദാസ്	-10.078
▁സൂര്യന	-10.0787
▁ബഹിരാകാശ	-10.0787
▁തീരുമാനിച്ചു	-10.0788
ിയിരുന്ന	-10.0788
▁1996	-10.0789
▁പഞ്ചായത്തിലെ	-10.079
ിനെയും	-10.0792
▁നഗരത്തിൽ	-10.0804
▁വെച്ച	-10.0805
ഗുരു	-10.0808
▁അവര	-10.081
▁വ്യാപകമായി	-10.0811
▁വീഴ	-10.0815
▁അമിത	-10.0818
[	-10.0819
▁ഹു	-10.0822
പ്പട	-10.0823
ഴുത	-10.0826
▁ഉപയോഗം	-10.0827
സിസ്റ്റ	-10.0832
▁ഗോൾ	-10.0832
▁പടി	-10.0834
▁തൊട്ടു	-10.0836
ത്തീ	-10.0845
▁പത്മ	-10.085
▁ഉര	-10.0851
▁പ്ലേ	-10.0852
▁പഠിച്ച	-10.0858
▁നശിപ്പിക്ക	-10.0862
▁അശോക	-10.0862
▁ബെർ	-10.0867
▁സ്ത്രീകൾ	-10.0868
▁മാസിക	-10.0876
റിനെ	-10.088
▁രാജി	-10.0882
പ്രസ്ഥാന	-10.0885
▁സ്റ്റോ	-10.0888
ുവിന്റെ	-10.0892
fe	-10.0894
▁ട്രാ	-10.0894
▁എടുത്ത	-10.0896
പാത്ര	-10.0898
▁ജർമ്മൻ	-10.0898
▁കലണ്ടർ	-10.0898
▁പിന്തുടർന്ന	-10.0898
ക്രിയ	-10.09
സംഗീത	-10.0904
▁വളർന്ന	-10.0907
യാണെന്ന്	-10.091
▁ഓർത്തഡോക്സ്	-10.0917
▁പാക	-10.0923
▁ഓർമ്മ	-10.0927
▁ഇറാന	-10.0934
ശില	-10.0935
▁മക്കള	-10.0939
വച്ച്	-10.0943
▁അനന്ത	-10.0944
▁തീവ്ര	-10.0944
കൊള്ള	-10.0949
▁സമാനമായ	-10.095
▁സിംഹ	-10.0951
hu	-10.0954
▁ഗ്രിഗോറിയൻ	-10.0954
▁പുരോഹിത	-10.0954
വാസി	-10.096
▁റൺസ	-10.0964
▁കേട്ട	-10.0966
ൈറ്റ	-10.0967
▁പഴക്ക	-10.0968
ath	-10.0969
വേദന	-10.0971
ശ്രമ	-10.0971
▁പണിയ	-10.0972
▁ഉയർന്നു	-10.0972
യെങ്കിലും	-10.0973
ണുകൾ	-10.0974
ഗാന	-10.0977
▁ബലി	-10.0977
▁എന്നിവരുടെ	-10.0989
ചലച്ചിത്രം	-10.0989
നൊ	-10.099
▁ദർശനം	-10.0992
▁അസുഖ	-10.0992
▁ദിശ	-10.1
ങ്ങളായിരുന്നു	-10.1005
ട്രാ	-10.1006
നിലെ	-10.1007
▁നേട്ട	-10.1007
▁തുടർന്ന	-10.101
▁ബ്രിട്ടീഷുകാർ	-10.1011
▁തുടക്ക	-10.1019
േഴ്	-10.102
▁പൊതുവെ	-10.1023
mb	-10.1024
▁തുക	-10.1025
▁കൊള്ള	-10.1025
▁പ്രവേശിക്ക	-10.1026
▁ഇല്ലാത്ത	-10.1029
▁വിശദീകരിക്ക	-10.1031
േഴ്സ	-10.1031
തീര	-10.1038
▁അതിനുശേഷം	-10.1041
▁റഷ്യൻ	-10.1041
▁മഹാഭാരത	-10.1052
▁സംസാരിക്കുന്ന	-10.1052
ശങ്ക	-10.1055
▁ഉൾപ്പെടുത്ത	-10.1055
▁പ്രൊഫ	-10.1059
▁ഇക്കാലത്ത്	-10.106
▁റോമാ	-10.1061
മാണെന്ന	-10.1071
ian	-10.1072
ബറ	-10.1074
ശുദ്ധ	-10.1076
ഭാഗത്തു	-10.1076
ൂരി	-10.1083
▁ഡൽഹി	-10.1086
▁ക്രമേണ	-10.1086
പോയി	-10.1099
മ്യ	-10.1101
au	-10.1103
▁പ്രത്യേകതകൾ	-10.1104
ന്മാരായ	-10.1105
▁മഹാവിഷ്ണു	-10.1105
▁മരിച്ചു	-10.111
ായ്മ	-10.1111
▁ഇതാണ്	-10.1114
ഹരി	-10.1116
കൊണ്ടിരുന്ന	-10.1116
കളായിരുന്നു	-10.1119
▁വിസ്തീർണ്ണമുള്ള	-10.1124
ചാര	-10.1127
▁മാറ്റങ്ങൾ	-10.1128
▁വിശ്വസിക്കുന്നു	-10.1129
സഫ	-10.113
▁ഉദയ	-10.113
സാധാരണ	-10.1131
മണ്ണ	-10.1134
സരണ	-10.1135
ാമൻ	-10.1155
കൃ	-10.1165
▁പൗര	-10.1166
▁മുന്നിൽ	-10.117
▁നാലാം	-10.1173
▁പഠനങ്ങൾ	-10.1176
▁പാത്ര	-10.118
▁പാമ്പ	-10.118
മൺ	-10.1182
▁യുഗ	-10.1185
▁പിള്ള	-10.1203
▁അത്ര	-10.1204
മതി	-10.1208
ഹീ	-10.121
യിലെത്തി	-10.1217
ണിന്റെ	-10.122
ദ്വീപ	-10.1221
▁സിനിമാ	-10.1223
പ്രതിഷ്ഠ	-10.1224
മുണ്ട	-10.1232
വരിൽ	-10.1234
▁ഒൻപത	-10.124
കളോ	-10.1241
സിദ്ധാന്ത	-10.1242
ലേറ്റ	-10.1247
▁ചിറക	-10.1247
ിക്കുമ്പോൾ	-10.1254
▁പ്രത്യേകിച്ച്	-10.1255
ment	-10.1256
▁ഉണ്ടായി	-10.1257
പര്യ	-10.1258
▁അന്വേഷണ	-10.1259
nu	-10.1259
ചരണ	-10.1266
രഹിത	-10.127
▁വേല	-10.1271
പറയ	-10.1272
▁ചുറ്റി	-10.1272
▁അപ്പോൾ	-10.1275
▁കേരളത്തിന്റെ	-10.1278
ap	-10.1278
▁റിപ്പബ്ലിക്ക	-10.1278
വച്ചു	-10.1282
▁വാങ്ങ	-10.1284
സ്പെ	-10.1289
▁വനിത	-10.1289
▁നടത്തിയത്	-10.1291
▁നടക്കുന്നത്	-10.1292
▁2014	-10.1298
▁ഉപയോഗപ്പെടുത്ത	-10.1309
▁പൂർണ	-10.1312
▁അപേക്ഷിച്ച്	-10.1319
▁എഡിറ്റ	-10.1321
▁മുദ്ര	-10.1326
ഷണൽ	-10.1335
ണോ	-10.1336
▁അംഗീകാര	-10.1336
▁നിലവിലുള്ള	-10.1336
▁സ്ഥലങ്ങളിൽ	-10.1337
ara	-10.1341
▁പടിഞ്ഞാറു	-10.1344
▁ശ്രമിച്ച	-10.1345
ാരംഭിച്ച	-10.1347
▁രജ	-10.1349
▁പാർക്ക	-10.1356
▁പത്ത	-10.1374
▁വധശിക്ഷ	-10.1375
▁രംഗത്ത്	-10.1376
▁സാമ്യ	-10.1381
▁ഉണ്ടാക്കിയ	-10.1383
▁സമ്പന്ന	-10.1384
മില്ലാതെ	-10.1385
▁കക്ഷി	-10.1389
▁പകർന്ന	-10.1395
▁അന്യ	-10.14
ജാത	-10.1401
ളീ	-10.1411
തിനുശേഷം	-10.1413
▁പിടിക്ക	-10.1413
▁ചരിത്രത്തിൽ	-10.1414
▁വേദന	-10.1414
▁സൊസൈറ്റി	-10.1415
നൂ	-10.1418
▁നൂ	-10.1424
▁രൂപത്തിൽ	-10.1425
▁ബൈബിള	-10.1434
▁1998	-10.1437
▁ആരംഭിച്ചത്	-10.1439
▁ഇന്നു	-10.1448
▁ഉത്പാദന	-10.1454
▁പൂർണ്ണമായും	-10.1457
മണ്ഡപ	-10.1457
▁കിഴക്കോട്ട	-10.1459
ഫർ	-10.1461
പീ	-10.1461
▁ആവാസ	-10.1463
ാകുന്നു	-10.1468
▁പക്ഷെ	-10.1468
ശീ	-10.147
ങ്ങളാൽ	-10.147
പത്തി	-10.1473
▁നേരിട്ട്	-10.1473
ധാ	-10.1481
▁1992	-10.1483
▁മത്സരത്തിൽ	-10.1483
ദേഹ	-10.1487
▁ഫോട്ടോ	-10.1488
ിലെത്തി	-10.149
ഭാരത	-10.1494
▁ch	-10.1494
▁കുമാര	-10.1497
ot	-10.1497
ായിത്തീർന്ന	-10.1498
▁2013	-10.1498
▁സ്ഥാപനങ്ങൾ	-10.1501
▁ന്യായ	-10.1501
▁കാര്യമായ	-10.1505
▁ശരിയായ	-10.1506
▁താഴ	-10.1506
താവ	-10.1509
▁പ്രശ്നങ്ങൾ	-10.1512
­	-10.1513
mu	-10.1514
▁കർമ്മ	-10.1517
▁മൈക്രോ	-10.1526
▁r	-10.1531
▁നെയ്	-10.1534
ാറുള്ള	-10.1537
▁പൊടി	-10.154
▁കിഴക്ക	-10.1542
▁ഡിസ്	-10.1542
▁കുറേ	-10.1546
ജ്ഞാന	-10.1548
ിലായിരുന്നു	-10.155
▁കൃത്രിമ	-10.1553
▁വിറ്റ	-10.1556
ിൽനിന്ന്	-10.1558
▁സെൻ	-10.156
▁അടുത്തുള്ള	-10.1563
▁ചെങ്ക	-10.1563
നന്ദ	-10.1563
രുള	-10.1567
▁പ്രതിഭാസ	-10.1573
▁ആക്രമിച്ച	-10.1577
▁ഗവ	-10.1581
▁കേന്ദ്രീകരിച്ച	-10.1583
▁നടി	-10.1586
▁നക്ഷത്രങ്ങൾ	-10.159
▁ടീം	-10.1593
മ്പല	-10.161
▁മുസ്ലീം	-10.1613
▁x	-10.1622
▁കാണുക	-10.1623
▁ദ്രാവിഡ	-10.1625
സ്വരൂപ	-10.1629
ചതുര	-10.1632
രുത്	-10.1633
▁സാന്നിധ്യ	-10.1633
യെക്കുറിച്ച്	-10.1634
▁മൂന്നാമത്തെ	-10.1636
ഡിന്റെ	-10.1643
ക്കാരൻ	-10.1645
യിലായിരുന്നു	-10.165
▁തന്മാത്ര	-10.1653
ത്തെപ്പറ്റി	-10.1656
പീഠ	-10.1658
▁നൽകിയത്	-10.1659
▁വരുന്നത്	-10.1659
▁നഷ്ടപ്പെട്ട	-10.1661
ചാലക	-10.1661
▁ആനന്ദ	-10.1664
▁സംഭാവനകൾ	-10.1664
▁ആഫ്രിക്കൻ	-10.1666
▁പുറത്ത്	-10.167
ലോഗ	-10.1671
▁ഉപേക്ഷിച്ച	-10.1673
േതര	-10.1674
സ്റ്റീ	-10.1677
▁അസ്ഥി	-10.1678
▁ഭാഗമാണ്	-10.168
▁ഓണ	-10.1687
ച്ചിൽ	-10.169
▁ഉത്തമ	-10.169
▁ചുവന്ന	-10.1692
▁സ്വാഭാവിക	-10.1693
▁ഉടമ്പടി	-10.1693
പോലും	-10.1703
മാറി	-10.1706
▁തുടർച്ചയായി	-10.1708
▁വർദ്ധിപ്പിക്ക	-10.1713
▁മദ്രാസ്	-10.1713
ുമായും	-10.1714
ip	-10.1714
▁മാല	-10.1715
▁വകുപ്പ്	-10.1719
▁മുന്നോട്ടു	-10.172
▁ഇന്ന	-10.1724
▁ദ്രവ്യ	-10.1731
▁ഭക്ഷ്യ	-10.1734
ഖണ്ഡ	-10.1734
▁പുറത്തിറക്ക	-10.1738
ൂരിലെ	-10.1742
മാർക്ക്	-10.1742
ഓളം	-10.1745
▁ഒന്ന്	-10.1749
ക്കൂട	-10.1749
തിനെത്തുടർന്ന്	-10.1751
200	-10.1752
വ്യതിയാന	-10.1754
വിവര	-10.1755
▁അടയാള	-10.1756
▁കാട	-10.1762
▁തെങ്ങ	-10.1763
▁കൊണ്ടാണ്	-10.1766
▁രോഗി	-10.1766
ുപയോഗിച്ച്	-10.1767
ടങ്ങിയ	-10.1771
▁എലി	-10.1773
▁ലോക്സഭ	-10.1774
ായിട്ടാണ്	-10.1778
റ്ററി	-10.1778
▁വിശേഷിപ്പിച്ച	-10.1779
▁റൈ	-10.1781
▁+	-10.1785
▁വാദ്യ	-10.1786
▁നാര	-10.1789
▁സർക്കാരിന്റെ	-10.179
ക്കല്ല	-10.1792
▁ക്ഷേത്രത്തിന്റെ	-10.1793
കൊടുത്ത	-10.1795
▁ബാഹ്യ	-10.1795
▁1997	-10.1796
▁ഒഫ്	-10.1796
▁സേവനം	-10.1799
▁ദേവത	-10.1801
▁പലരും	-10.1805
ിലേക്കും	-10.1808
▁വിമാനത്താവളം	-10.1813
നിയൻ	-10.1815
കണ്ഠ	-10.1815
▁പ്രാപിച്ച	-10.1818
▁ഏതു	-10.182
▁പോരാട്ട	-10.1821
ത്തിലായിരുന്നു	-10.1828
▁പരാജയപ്പെടുത്തി	-10.183
ഗന്ധ	-10.1831
രുടെയും	-10.1847
▁ദൂരം	-10.1852
ില്ലെന്ന	-10.1853
▁പഞ്ചായത്തിൽ	-10.1853
▁മറുപടി	-10.1856
▁ലോകമഹായുദ്ധ	-10.1856
കോട്ട	-10.1857
tion	-10.1863
▁പൗ	-10.1864
▁ഉയർത്തി	-10.1869
▁ബാങ്ക്	-10.1871
▁വിഭവ	-10.1872
▁കർണ്ണ	-10.1876
വേലി	-10.1877
▁ഇളയ	-10.1878
▁നടന്നത്	-10.1878
▁പ്രകാശവർഷം	-10.188
പൂർവ	-10.1889
▁വർഷവും	-10.1892
▁പ്രവൃത്തി	-10.1893
▁ചെലുത്ത	-10.1898
▁ഒരാൾ	-10.19
▁വഹിക്കുന്ന	-10.1902
bu	-10.1902
മുണ്ടായ	-10.1911
▁പുറത്താക്ക	-10.1917
▁നിലവിലുണ്ട്	-10.1918
▁പഠിപ്പിക്ക	-10.1918
പുസ്തക	-10.1919
▁ഗണിതശാസ്ത്ര	-10.1919
▁ക്രിക്കറ്റ	-10.1921
▁കലർന്ന	-10.1923
ാഹി	-10.1931
▁അടിസ്ഥാനത്തിൽ	-10.1936
▁വർഷത്തെ	-10.1937
▁ഭർത്താവ	-10.1938
▁ഇംഗ്ലീഷ	-10.1941
▁താഴ്	-10.1945
വിധി	-10.195
▁എടുക്ക	-10.1952
▁എത്ര	-10.1958
▁സമതല	-10.1959
ട്രിക്	-10.1973
ചേ	-10.1975
സ്വഭാവ	-10.1976
▁വസ്തുക്കൾ	-10.1976
▁ചോള	-10.1977
▁തിളക്ക	-10.198
സ്ഥാപ	-10.1981
▁1950	-10.1982
▁ഉയരത്തിൽ	-10.1983
▁കറുപ്പ	-10.1986
▁ട്രാൻസ്	-10.2001
▁നഗരത്തിന്റെ	-10.2002
▁കൊച്ചു	-10.2002
▁ചൈനീസ്	-10.2005
ൻമാർ	-10.2005
ിലേക്കുള്ള	-10.2009
▁തറ	-10.201
▁കുറിച്ച	-10.2015
സ്തി	-10.2017
▁നയിക്ക	-10.2021
त	-10.2021
▁പ്രഖ്യാപിക്ക	-10.2021
▁ബൈബിൾ	-10.2022
ലിനെ	-10.2026
▁പറയാം	-10.2026
▁വില്യം	-10.203
▁നിയമസഭാ	-10.2034
▁ഇടപെട	-10.2037
▁ദശലക്ഷം	-10.2042
▁ഉടമസ്ഥ	-10.2042
▁ഹിമ	-10.2044
▁പൊതുവായ	-10.2045
▁നിർബന്ധ	-10.2045
▁ശരി	-10.2046
▁1991	-10.2049
▁അനുബന്ധ	-10.205
▁ശേഖര	-10.2054
▁നല്ക	-10.2054
ഹെ	-10.2058
ൊടു	-10.2062
▁മഹാദേവ	-10.2065
▁പുണ്യ	-10.2066
▁ലിഖിത	-10.2077
▁ചെയ്തിട്ടുണ്ട്	-10.2082
▁മുതിർന്ന	-10.2084
ദിവസം	-10.2088
▁1995	-10.2089
▁സ്വാതന്ത്ര്യം	-10.2102
▁ഡൈ	-10.2103
▁വധിക്ക	-10.211
▁അവതാര	-10.2114
▁വാക്യ	-10.2115
▁സീത	-10.2117
സ്കി	-10.2118
▁ആസ്ഥാനം	-10.2118
▁നാട്ടു	-10.212
▁കൂടുതലായി	-10.212
▁ക്വാ	-10.2124
▁ഫുട്ബോൾ	-10.2126
▁കന്നഡ	-10.2127
▁പേരിലാണ്	-10.2139
▁തെളിയിക്ക	-10.2147
പരിശോധന	-10.2147
▁പ്രക്ഷോഭ	-10.2149
▁രണ്ടായി	-10.2162
ൿ	-10.2169
▁പാകിസ്താൻ	-10.2169
▁ശ്ലോക	-10.2169
▁ഇബ്നു	-10.2172
▁നീക്കം	-10.2174
▁പെട്ര	-10.2176
▁നേരെ	-10.2178
▁വർണ	-10.218
▁കിഴക്കേ	-10.2182
▁സഹായിക്കുന്നു	-10.2184
സാഹ	-10.2191
▁കോള	-10.2192
▁പൂർവ	-10.2192
സമാഹാര	-10.2192
ത്തിനുള്ളിൽ	-10.2194
▁ഉണ്ണി	-10.2201
▁നിശ്ചിത	-10.221
മുക്ത	-10.2216
▁മുകളില	-10.2221
▁ആരാധന	-10.2221
▁വെളിച്ച	-10.2222
▁പങ്ക്	-10.2224
▁പോൾ	-10.2225
▁വിദഗ്ദ്ധ	-10.2226
ഇംഗ്ലീഷ്	-10.2229
ഋ	-10.2232
ि	-10.2232
▁പതിനഞ്ച	-10.2232
▁ഹിറ്റ്	-10.2233
ty	-10.2234
സിനു	-10.2235
ച്ചെ	-10.2235
▁തലമുറ	-10.2236
ുണ്ടാക്കുന്ന	-10.2242
▁ആണു	-10.2245
ട്ടൺ	-10.2245
കാവ്യ	-10.2246
▁സുബ്രഹ്മണ്യ	-10.2246
war	-10.2247
we	-10.225
▁വൈദിക	-10.2254
▁പരിധി	-10.2259
പ്പിച്ചു	-10.226
der	-10.2261
▁കിലോമീറ്ററ	-10.2263
ക്കാർക്ക്	-10.2265
▁സന്ധി	-10.2267
▁ഉൾപ്പെടുത്തിയ	-10.227
ഫോർ	-10.2271
▁പ്രസ്തുത	-10.2275
▁ദേശീയോദ്യാന	-10.2275
▁ജ്യോതിശാസ്ത്ര	-10.2278
▁രാഗ	-10.2281
▁മാർഗ	-10.2281
▁ലളിത	-10.2282
up	-10.2286
▁അമ്പല	-10.229
▁പമ്പ	-10.2291
▁വാങ്ങി	-10.2293
▁സൂര്യന്റെ	-10.2294
▁പ്രസിഡന്റായ	-10.2296
▁ഭൂരിഭാഗവും	-10.2296
▁മർദ്ദ	-10.2297
▁gramapanchayath	-10.2302
▁രാമൻ	-10.2305
▁എഴുതപ്പെട്ട	-10.2307
▁ഭീമ	-10.2309
വാള	-10.2309
▁ശാന്ത	-10.2313
▁പണം	-10.2313
▁എതിർപ്പ	-10.2314
മുട്ട	-10.2314
▁എന്നിവയെ	-10.2315
°	-10.2316
സാമ്രാജ്യ	-10.2316
വിജ്ഞാന	-10.2318
▁th	-10.2318
▁നിൽക്ക	-10.2321
കളിലായി	-10.2326
▁കളിക്ക	-10.2328
oor	-10.2329
▁ആയിരിക്കും	-10.2336
▁ഛ	-10.2338
▁തോട്ട	-10.2343
മാണെന്നും	-10.2343
നാടക	-10.2345
കൃഷി	-10.2347
▁po	-10.2352
വ്യാ	-10.2352
▁കാരണമായ	-10.2354
▁മോഹൻ	-10.2361
▁പരസ്യ	-10.2367
▁മേല	-10.2374
▁കഴിഞ്ഞ്	-10.2376
▁വോട്ട	-10.2377
ക്കൂടി	-10.238
ിൽനിന്നും	-10.238
▁കഴിഞ്ഞാൽ	-10.2381
▁ലഭിച്ചിട്ടുണ്ട്	-10.2383
▁കോണ	-10.239
ang	-10.2393
പാണ്ഡവ	-10.2397
ാവുകയും	-10.2398
▁ദിവസങ്ങൾ	-10.2399
van	-10.2408
▁കണക്കാക്കുന്നു	-10.2408
gra	-10.2411
▁പ്രവേശിച്ച	-10.2412
▁നടത്തുകയും	-10.2414
▁അളവ്	-10.2417
▁പുല	-10.2418
ത്തിലോ	-10.242
ിലേ	-10.2423
▁ലീഗ	-10.243
െഴുത	-10.2431
ിരിയ്ക്ക	-10.2432
▁വലതു	-10.2432
▁film	-10.2432
▁ഈസ്റ്റ്	-10.2435
▁ദന്ത	-10.2437
വചന	-10.2443
▁ബാങ്ക	-10.2446
▁അദ്ദേഹത്തിനു	-10.2447
▁അല്പം	-10.2449
ക്കാരായ	-10.245
▁വേൾഡ്	-10.2451
▁സുന്ദര	-10.2451
നിധി	-10.2453
▁അനുമാന	-10.2458
ജാതി	-10.2459
700	-10.246
م	-10.2469
മൂന്ന	-10.247
▁അഭയ	-10.2474
▁പ്രാധാന്യ	-10.2475
പ്പുര	-10.2476
▁സിനിമയിൽ	-10.2479
▁ജൂത	-10.2489
▁പുരോഗതി	-10.2491
▁ഇന്ധന	-10.2491
യിന	-10.2493
ag	-10.2496
▁മോശ	-10.2498
ിലേയ്ക്ക്	-10.2503
ber	-10.2505
io	-10.2506
▁കാണിക്കുന്ന	-10.2508
▁ആദിവാസി	-10.2511
ബ്രാ	-10.2511
േലിയ	-10.2514
റാവു	-10.2516
ക്കോട്	-10.2517
മലയാള	-10.2517
▁കാട്ടു	-10.252
▁പൂവ	-10.252
യല്ല	-10.2521
ദൃ	-10.2523
▁കണ്ട്	-10.2528
▁ca	-10.253
▁പതിനൊന്ന	-10.2535
ദായ	-10.2535
ുദ്ദീൻ	-10.2535
▁പർവത	-10.2536
ഗവേഷക	-10.2542
▁കയറ	-10.2543
▁ba	-10.2549
▁പരിണാമ	-10.2553
ദാസ	-10.2554
▁ആവശ്യമായ	-10.2554
▁ഇനി	-10.2555
ണീ	-10.2558
▁ആരാധനാലയ	-10.2558
ജാല	-10.2562
തിനാല	-10.2563
gre	-10.2574
▁സ്വാധീനിച്ച	-10.2578
പുരുഷ	-10.2583
▁പ്രയോജന	-10.2585
▁യൂണിറ്റ	-10.2586
▁സാര	-10.2599
▁നിരീക്ഷിക്ക	-10.2601
▁ഭീഷണി	-10.2601
റിന്	-10.2601
ുപയോഗിച്ച	-10.2601
പുരാണ	-10.2609
▁മറ്റ	-10.261
രംഗത്ത്	-10.2614
ീഷ	-10.2617
ക്കുട	-10.2621
മൃത	-10.2623
▁വീഡിയോ	-10.2624
▁മറ്റുള്ള	-10.2625
▁1984	-10.2625
▁രാഷ്ട്രപതി	-10.2626
പ്രവേശ	-10.2627
ന്റേയും	-10.2628
▁വട്ട	-10.2629
▁വ്യത്യസ്തമായി	-10.2629
▁ബഹുമാന	-10.2631
ബുദ്ധ	-10.2632
▁കുഴി	-10.2632
ഗോള	-10.2632
▁നീളമുള്ള	-10.2635
ദിവസ	-10.2636
gh	-10.2637
ഘോഷ	-10.2637
▁കായ	-10.2638
ക്യു	-10.264
▁ജീവിക്കുന്ന	-10.2642
തെന്നു	-10.265
thi	-10.2658
▁la	-10.267
മന്ത്രി	-10.2685
▁ഇതര	-10.2689
ശ്ശ	-10.2689
▁അളവ	-10.2689
▁രാമായണ	-10.2691
കാണ	-10.2692
▁നോവൽ	-10.2692
▁(1	-10.2695
ാശയ	-10.2706
▁സഞ്ചരിച്ച	-10.2712
▁വികസിച്ച	-10.2712
യേറിയ	-10.2715
▁താഴ്ന്ന	-10.2716
മ്പ്ര	-10.2719
chi	-10.2722
▁1962	-10.2728
കൂടാതെ	-10.2734
▁പ്രണയ	-10.2737
▁മനുഷ്യര	-10.274
▁ധാരാളമായി	-10.2742
▁ചിറ	-10.2748
യൂണി	-10.2751
600	-10.2752
bha	-10.2755
▁മണിക്കൂറ	-10.2757
▁അലങ്കാര	-10.2759
▁സഹകരണ	-10.2761
▁കാന്തിക	-10.2763
ശരീര	-10.2763
▁സുഖ	-10.2764
▁തരത്തിലുള്ള	-10.2769
▁രവി	-10.2771
▁നിർമ്മിക്കുന്ന	-10.2771
ങ്ങളിലേ	-10.2772
ോർജ്ജ	-10.2774
ിനടുത്ത	-10.2777
▁ചെയ്തിരുന്ന	-10.2778
ight	-10.2778
▁കണ്ടുപിടിത്ത	-10.2779
▁ഉത്പാദിപ്പിക്ക	-10.2779
▁യുക്തി	-10.2782
▁താഴ്വര	-10.2783
▁1993	-10.2789
▁നദിയുടെ	-10.2792
▁ബോർഡ	-10.2795
▁പങ്ക	-10.2798
▁സഹായക	-10.28
▁മരണമടഞ്ഞ	-10.2802
▁അനുവദിക്ക	-10.2802
▁പുരാവസ്തു	-10.2803
സംവിധാന	-10.2808
▁തായ്	-10.2809
▁ഉയർത്ത	-10.2815
പ്പെ	-10.2819
▁പരാ	-10.2819
▁സൂക്ഷിച്ച	-10.2825
▁ഭഗവാൻ	-10.2825
▁ഡിഗ്രി	-10.2829
തല്ല	-10.2837
നെറ്റ്	-10.284
▁നിർത്ത	-10.2841
ഹാൻ	-10.2845
▁കുറയ്ക്ക	-10.2845
▁ജൈന	-10.2846
▁മെഡിക്കൽ	-10.2847
▁ഐക്യനാടുകള	-10.2848
▁വെയറ	-10.2849
ാകട്ടെ	-10.2851
▁വർഷങ്ങൾ	-10.2854
▁എന്നിവരാണ്	-10.2858
▁സംഭവിക്ക	-10.2859
▁സ്കൂളിൽ	-10.2861
800	-10.2861
യോഗ്യ	-10.2863
ാമെന്ന	-10.2867
നുമായി	-10.2872
ദേവത	-10.2874
▁ജന്തു	-10.2876
fr	-10.288
▁ഘടകങ്ങൾ	-10.288
സംഘടന	-10.2883
തിനാലാണ്	-10.2887
▁വിളിക്കുന്നത്	-10.2889
▁കണ്ടുപിടിക്ക	-10.2893
▁പരിസ്ഥിതി	-10.2895
con	-10.2897
രേയും	-10.2898
പെടുത്ത	-10.2899
വിരുദ്ധ	-10.29
ങ്ങളെല്ലാം	-10.2908
▁ആത്മാവ	-10.2909
റിയപ്പെടുന്നത്	-10.2911
വ്ര	-10.2911
▁മഹാരാഷ്ട്ര	-10.292
▁വളർന്നു	-10.2928
കർമ്മ	-10.2928
▁അംബ	-10.2934
▁കാർബൺ	-10.2938
▁1977	-10.294
▁നക്ഷത്രരാശി	-10.2941
▁നാവിക	-10.2943
▁മഹാരാജാവ	-10.2945
av	-10.2948
▁മടങ്ങി	-10.2949
▁അത്തരം	-10.2949
sha	-10.2951
▁സർപ്പ	-10.2959
lar	-10.2959
സമയത്ത്	-10.296
▁അനുവദിച്ച	-10.2961
▁ക്രിയ	-10.2964
▁എത്തുന്ന	-10.2966
▁പിൽക്കാല	-10.2976
ുകയില്ല	-10.2978
വേദി	-10.298
▁അണക്കെട്ട്	-10.2984
▁സന്ദർശിക്ക	-10.2984
▁ഖണ്ഡ	-10.2985
▁കിളി	-10.2986
▁പുരസ്കാരങ്ങൾ	-10.3001
കവാട	-10.3005
▁200	-10.3005
▁സേവ	-10.3009
▁അനുമതി	-10.301
▁ഈശ്വര	-10.301
▁നിയമങ്ങൾ	-10.3011
ഘടക	-10.3016
ബിന്ദു	-10.3017
▁ഉള്ളടക്ക	-10.3022
ഉദാ	-10.3025
▁അച്ഛൻ	-10.3031
▁മാതൃ	-10.3032
▁നന്നായി	-10.3035
ിരിക്കണം	-10.3035
▁കള്ള	-10.3036
▁ഡീ	-10.3038
സെന്റ	-10.3039
▁കരുതുന്ന	-10.3039
രുടേയും	-10.3048
▁മാസത്തിൽ	-10.3049
▁താലൂക്കിലെ	-10.305
▁കൃഷ്ണൻ	-10.3053
▁വാർഷിക	-10.3053
▁കോളജ	-10.3054
▁സൂചന	-10.3054
▁ka	-10.3054
ാധിപത്യ	-10.3055
par	-10.3062
▁താമസം	-10.3065
▁നീണ്ടു	-10.3067
പൈ	-10.3068
രാജാക്കന്മാര	-10.3071
നേതൃത്വ	-10.3079
▁തള്ളി	-10.3079
▁പരിഷ	-10.3081
യുടേത	-10.3084
▁ഇവയ്ക്ക്	-10.309
ഭക്ത	-10.3095
▁തളി	-10.3097
▁ഇരുപത	-10.3098
▁സുൽത്താൻ	-10.3099
▁രാവിലെ	-10.31
▁മനുഷ്യന്റെ	-10.3107
▁കാണുന്നത്	-10.3121
▁ആകർഷണ	-10.3123
▁പ്രതീക്ഷ	-10.3123
▁ഭീകര	-10.3124
▁തദ്ദേശീയ	-10.3124
ങ്ങളിലൊന്ന	-10.3126
▁ടെസ്റ്റ്	-10.3133
മുണ്ടാക	-10.3136
▁ക്യാ	-10.3137
▁കുടിയ	-10.3139
▁ചൊല്ല	-10.3147
▁വിവരിക്കുന്ന	-10.3149
▁പ്രമാണ	-10.3155
▁അവസാനത്തെ	-10.3156
ഹരണ	-10.3161
പ്യ	-10.3163
ത്തിനെതിരെ	-10.3164
cha	-10.3169
രചയിതാവ	-10.3169
▁അവശിഷ്ട	-10.3169
ശ്രേണി	-10.317
പൂർവ്വ	-10.3171
▁മലയ	-10.3173
▁ആത്മീയ	-10.3174
▁മനുഷ്യൻ	-10.3176
യേൽ	-10.318
▁ക്ലോ	-10.3191
▁ലിംഗ	-10.3192
▁ബംഗാൾ	-10.3193
▁പ്രശസ്തി	-10.3198
▁കേരളീയ	-10.3203
▁കട്ടി	-10.3204
▁ഇതുവരെ	-10.3205
▁കൈവശ	-10.3205
▁ഗോപുര	-10.3208
ിന്റേത	-10.3209
▁ധരിച്ച	-10.3211
▁ഇടതു	-10.3213
▁തേടി	-10.3216
നൂർ	-10.3216
▁തീയതി	-10.3216
ശൈലി	-10.3217
▁ഹിമാലയ	-10.3217
നേതൃത്വത്തിലുള്ള	-10.3218
▁നടപ്പാക്ക	-10.3218
▁അകലെയാണ്	-10.322
▁കപ്പൽ	-10.3222
വിഷയ	-10.323
മല്ലാത്ത	-10.3231
▁വളര	-10.3233
▁ചാനല	-10.3233
▁സാക്ഷി	-10.3233
▁vi	-10.3238
▁ഇന്റർ	-10.324
▁ഏഷ്യൻ	-10.324
▁കാലയളവിൽ	-10.324
▁ഡിജിറ്റൽ	-10.324
▁നാസി	-10.3245
▁മെട്രോ	-10.3248
രൂപത്തിൽ	-10.3249
ഫൈ	-10.325
▁ഹീ	-10.3251
▁1971	-10.3252
പദ്ധതി	-10.3253
ts	-10.3253
▁അമേരിക്കയിൽ	-10.3255
ക്കുള	-10.3263
▁മ്യൂസിയ	-10.3263
▁കമ്പനിയുടെ	-10.3265
▁മൂർ	-10.3268
▁തലശ്ശേരി	-10.3271
ചേർന്ന	-10.3276
▁ആയുർവേദ	-10.3287
▁വ്യാവസായിക	-10.3287
▁ഇപ്രകാരം	-10.3294
തിലക	-10.3305
min	-10.331
▁കുറിച്ചു	-10.331
▁formula	-10.3311
▁ഇന്ദിര	-10.3311
▁1947	-10.3312
▁be	-10.3314
▁കോൺഗ്രസ	-10.3328
▁ഇവരെ	-10.3334
न	-10.3334
▁നൽകുകയും	-10.3341
▁മുഹമ്മദ	-10.3351
ത്രെ	-10.3354
റേറ്റ	-10.3358
▁അത്ഭുത	-10.3358
▁പ്രമേയ	-10.3359
▁നാശ	-10.336
▁ചുറ്റും	-10.3362
▁തലസ്ഥാനമായ	-10.3378
ക്കിടയില	-10.3382
▁ജനങ്ങളുടെ	-10.3382
▁വിഭജിച്ച	-10.3382
▁1994	-10.3385
ച്ചില	-10.3388
▁ഉത്തരവ	-10.3392
▁മാനേജ	-10.3393
വട്ടം	-10.3397
▁പ്രസിദ്ധമാണ്	-10.3398
ംബര	-10.34
ിച്ചാൽ	-10.3405
സൗ	-10.3405
ച്ചെടി	-10.3408
ോപകരണ	-10.3409
▁സമാന്തര	-10.3409
▁മുന്നേറ്റ	-10.341
▁ഗ്രീക്കു	-10.3411
▁രൂപീകരിച്ച	-10.3417
▁കയറി	-10.3423
▁ദക്ഷിണാഫ്രിക്ക	-10.343
▁നമ്മുടെ	-10.343
▁യാതൊരു	-10.343
ഗ്രീ	-10.3433
▁ഉദാഹരണത്തിന്	-10.3434
▁വെളിപ്പെടുത്ത	-10.3444
ഫേ	-10.3445
gi	-10.3445
▁കഴിച്ചു	-10.3452
▁തീവണ്ടി	-10.3454
▁തിരികെ	-10.3454
▁വടക്കുകിഴക്ക	-10.3455
നദി	-10.3456
▁ഹെർ	-10.3456
▁വെട്ടി	-10.3456
▁പെട്ടെന്ന്	-10.3457
▁ആകർഷിക്ക	-10.3458
▁ബ്രിട്ടന	-10.3463
കളിലേക്ക്	-10.3465
▁ഫീ	-10.3465
▁വേണം	-10.3465
പ്രസാദ	-10.3469
▁വികസിപ്പിച്ച	-10.3472
▁താഴെപ്പറയുന്ന	-10.3478
▁പ്രതിഷേധ	-10.3478
▁പെൺകുട്ടി	-10.3479
▁പാവ	-10.3483
▁പേർഷ്യ	-10.3484
യിനം	-10.3486
ബർഗ്	-10.3488
കുള	-10.3489
app	-10.3494
▁വൈറസ	-10.3498
സഹായ	-10.35
വകാശ	-10.35
▁എതിരാളി	-10.3502
▁താരാപഥ	-10.3502
▁പരന്ന	-10.3503
▁കുമാർ	-10.3505
ധിഷ്ഠിത	-10.3507
▁പഞ്ചാബി	-10.3515
▁വർഷത്തിലെ	-10.3515
▁ഭാഷകളിൽ	-10.3519
▁ഇടുക്കി	-10.3521
▁1979	-10.3522
▁അംശ	-10.3522
ോട്ടു	-10.3524
▁പത്തനംതിട്ട	-10.3527
▁തൃശൂർ	-10.3527
▁ജർമനി	-10.3527
▁കൈമാറ	-10.3527
▁പ്രാർത്ഥന	-10.3528
▁വടക്ക	-10.3536
mon	-10.3537
മീറ്ററ	-10.354
ബലി	-10.3541
▁നടത്താൻ	-10.3544
▁ഉപകരണങ്ങൾ	-10.3547
ന്റോ	-10.3549
▁ഫ്രഞ്ചു	-10.3552
▁വിമാനത്താവള	-10.3553
▁സുഗന്ധ	-10.3555
▁ജില്ലയുടെ	-10.356
▁ആക്രമിക്ക	-10.3561
സംഹിത	-10.3561
▁അടുക്ക	-10.3563
▁കുട്ട	-10.3567
ിലധികം	-10.357
ജ്വല	-10.3572
ട്രീ	-10.3573
▁ഭദ്രകാളി	-10.3575
▁ആശ്രമ	-10.3577
▁കർത്താവ	-10.3578
ill	-10.3579
ാത്മ	-10.3583
കുളങ്ങര	-10.3585
be	-10.3587
ക്റ്റ്	-10.359
▁ബ്ല	-10.3594
▁പൂർവ്വ	-10.3595
▁പൗരസ്ത്യ	-10.3599
പോന്ന	-10.36
▁സന്യാസി	-10.3601
▁ഭരത	-10.3605
▁മേഘ	-10.3608
▁വിതരണ	-10.3609
ക്കാവ്	-10.361
▁എഞ്ചിന	-10.3616
▁ഉയരമുള്ള	-10.3617
▁കുറവാണ്	-10.3619
▁ഭാവി	-10.3622
ani	-10.3622
▁റഹ്	-10.3623
▁അറിയപ്പെട്ടിര	-10.3624
ിനോടു	-10.3624
ن	-10.3624
▁കഠിന	-10.3624
kerala	-10.3624
ത്തോടുകൂടി	-10.363
▁അർഹ	-10.3633
ടക്കമുള്ള	-10.3634
▁റിപ്പോർട്ട്	-10.3637
▁അക്രമ	-10.3638
ction	-10.3639
സ്റ്റിക്	-10.3644
ാവലി	-10.3644
▁പുത്രന	-10.3647
▁സന്ദർഭ	-10.3648
▁ഇസ്ലാം	-10.3649
ഷെ	-10.3652
▁ജനന	-10.3654
▁ദേവീ	-10.3654
▁വർഷങ്ങൾക്കു	-10.3658
ali	-10.3662
nam	-10.3665
മുണ്ടാക്ക	-10.3665
▁ഹാരി	-10.3666
ിനെതിരായ	-10.3669
യിലേക്കുള്ള	-10.367
▁ക്രിസ്ത്യൻ	-10.3673
▁വ്യത്യസ്തമായ	-10.3674
▁വിപണി	-10.3676
ഫീൽഡ	-10.3682
▁1989	-10.3687
ാറുള്ളത്	-10.369
▁നായിക	-10.3699
▁വികസിപ്പിച്ചെടു	-10.3705
▁പുളി	-10.3711
▁മേഖലകളിൽ	-10.3713
▁സന്തോഷ	-10.3722
വിജയ	-10.3723
▁അകല	-10.3729
ുണ്ടാക്കിയ	-10.3732
▁സംസാര	-10.3732
wi	-10.3736
▁അപേക്ഷ	-10.3738
▁ഡാറ്റ	-10.3744
▁1980	-10.3745
▁ഇത്തരത്തിൽ	-10.3747
▁മരണശേഷം	-10.3754
▁അതിലെ	-10.3756
ിതനായ	-10.3758
▁സബ്	-10.3761
▁ഗൗ	-10.3761
▁ബോർഡ്	-10.3762
▁ഇതോടെ	-10.3762
ത്തിൻ്റെ	-10.3763
▁ഗ്രാമത്തിൽ	-10.3765
▁ഗ്രാമമാണ്	-10.3765
▁for	-10.3766
▁പോര	-10.377
▁അധിനിവേശ	-10.3772
തുരശ്രകിലോമീറ്റർ	-10.3772
▁വയസ	-10.3773
▁നിരന്തര	-10.3774
യെപ്പറ്റി	-10.3775
▁ഗണ്യമായ	-10.3775
▁ശേഖരിച്ച	-10.3786
▁ദൈർഘ്യ	-10.3797
▁നെഹ്രു	-10.3797
marker	-10.3797
ങ്ങളിലുള്ള	-10.3798
▁നിരക്ക	-10.3799
▁ജീവിച്ച	-10.38
ക്കാണ	-10.3807
▁എന്നതായിരുന്നു	-10.3807
ള്ളു	-10.3809
മരണ	-10.381
ബ്രി	-10.3812
▁തണ്ട	-10.3816
▁അതേസമയം	-10.3822
ഗ്രാഫ	-10.3822
▁വേദി	-10.3825
ത്തിനടുത്ത	-10.383
▁ഇല്ലാത	-10.3831
നാക്കി	-10.3832
▁തോട	-10.3836
ical	-10.3841
പ്പാല	-10.3846
▁ഉദ്ഭവ	-10.3849
▁ഒപ്പം	-10.3849
▁സാന്നിദ്ധ്യ	-10.3851
▁താരതമ്യ	-10.3861
കളോട്	-10.3862
ze	-10.3866
ാകൃതി	-10.3868
pla	-10.387
▁മൈസൂർ	-10.3872
▁ജനകീയ	-10.3872
▁ഇറങ്ങ	-10.3874
▁ശിവലിംഗ	-10.3875
▁പ്രോട്ടോ	-10.3876
▁ലാമിക	-10.3876
ാചാര	-10.3878
▁ലഭിക്കുന്നു	-10.3881
▁കുറച്ച്	-10.3881
kan	-10.3881
പറമ്പ്	-10.3887
തവണ	-10.3889
▁മുറിച്ച	-10.3889
▁1986	-10.3893
ശിവ	-10.3897
ر	-10.3897
type	-10.3898
▁ആരാധിക്ക	-10.39
ാക്ഷര	-10.39
▁ഫ്രെ	-10.3902
▁ടൂ	-10.3905
മ്പുഴ	-10.3911
▁ധാരണ	-10.3912
▁കാലത്തെ	-10.3916
യ്ക്കായി	-10.3919
▁con	-10.3919
സംസ്കാര	-10.3921
▁തൊഴില	-10.3922
▁യുണൈറ്റഡ്	-10.3922
നിയമസഭാമണ്ഡലം	-10.3923
▁അവതരിപ്പിച്ചു	-10.3923
മഹർഷി	-10.3923
▁അച്ഛന	-10.3926
കളുമാണ്	-10.3927
▁അക്കാലത്തെ	-10.3927
▁സ്റ്റേഷൻ	-10.3927
ുമെല്ലാം	-10.393
മൂല്യ	-10.3935
▁രംഗത്തെ	-10.3935
▁ഗാമ	-10.3936
▁ഇന്റർനെറ്റ്	-10.3938
▁ജാവ	-10.3939
ുമ്പോഴും	-10.3939
നുമായിരുന്നു	-10.3942
▁കാണിച്ച	-10.3944
▁ധ്രുവ	-10.3945
▁ഇലകൾ	-10.3945
ഫലമായി	-10.3955
▁പതിനാല	-10.3955
താണെന്ന്	-10.3956
ഡ്യൂ	-10.3959
▁ചിന്താ	-10.3967
ah	-10.3972
▁ഓഫീസ്	-10.3973
▁നിലനിന്ന	-10.3979
ചുവ	-10.3982
സ്ഥിതി	-10.3982
കാട്ട	-10.3987
▁അഞ്ചാം	-10.3989
ത്തിനിടയ	-10.3995
ിലേയ്ക്കു	-10.3995
▁അളവിൽ	-10.3997
▁ഒളിമ്പിക്	-10.3998
▁തട്ട	-10.4002
മിത്ര	-10.4005
▁കഴിച്ച	-10.4009
▁രാജാവായ	-10.4011
▁ദിവ്യ	-10.4011
ുമൊക്കെ	-10.4011
ലാൻഡ്	-10.4016
യുമായിരുന്നു	-10.4017
പുഴ	-10.4021
▁സ്വാതന്ത്ര്യസമര	-10.4024
▁സുപ്രധാന	-10.4029
les	-10.4031
▁ഏഴ്	-10.4032
സൂചി	-10.4033
പാഠ	-10.4035
ദ്രവ്യ	-10.4037
▁സെമി	-10.4037
▁1987	-10.404
ക്കുറവ	-10.4042
▁കുത്തി	-10.4043
▁അന്തർ	-10.4044
▁ഭ്രമണ	-10.4049
▁എതിർത്ത	-10.4055
▁ചിത്രീകരിക്ക	-10.406
▁കോഡ്	-10.4061
ism	-10.4063
വാണി	-10.4066
▁ടർ	-10.4067
ത്തിലുണ്ട്	-10.4072
▁കുഞ്ഞി	-10.4073
▁ബൃഹ	-10.4075
▁°	-10.4077
▁പഠിച്ചു	-10.408
പ്പാറ	-10.408
▁ബൊ	-10.4087
▁നിർത്തി	-10.4088
▁ജപ്പാന	-10.409
▁കൊന്ന	-10.4094
▁നിലകൊള്ളുന്ന	-10.4101
▁തയ്യാറാക്കിയ	-10.4103
ാരാധന	-10.4108
▁കായ്	-10.411
▁ഏറ്റു	-10.4111
പെട	-10.4114
ത്തേക്കു	-10.4115
▁പ്രദേശമാണ്	-10.412
▁പോലീസ	-10.4127
പ്രകാശ	-10.4128
▁1930	-10.4132
വരികയും	-10.4133
0%	-10.4137
വള്ളി	-10.4139
▁വലിച്ച	-10.4145
▁സിങ്	-10.4146
▁കർണ്ണാടക	-10.4152
▁നിർമ്മിത	-10.4153
▁കിട്ടുന്ന	-10.4154
ന്മാരിൽ	-10.4155
ചരിത	-10.4155
സംവിധായക	-10.4156
▁പൂർണമായ	-10.4166
മ്ര	-10.4166
▁കോൺഗ്രസ്സ്	-10.4169
▁മേഖലയിലെ	-10.4169
വത്കരണ	-10.4175
▁ഗുജറാത്തി	-10.4178
▁പുസ്തകങ്ങൾ	-10.4178
▁അമൃത	-10.4183
▁രേഖകൾ	-10.4185
▁ദിനമാണ്	-10.419
▁എട്ട്	-10.419
▁മലയാളി	-10.4192
ിരിക്കുക	-10.4193
▁ശ്രമിച്ചു	-10.4194
▁വെച്ചു	-10.4196
▁മണൽ	-10.4201
▁ദൗത്യ	-10.4203
▁മലങ്കര	-10.4207
▁ഉൾക്കൊള്ള	-10.4211
▁ഒമ്പത	-10.4212
▁ചിത്രീകരിച്ച	-10.4215
▁അന്നു	-10.422
▁കണ്ടെത്തിയത്	-10.4223
വേല	-10.4227
▁സാധിക്കുന്ന	-10.4228
▁പേരാണ്	-10.4228
▁ശ്വാസകോശ	-10.4229
▁1982	-10.4234
▁മഠ	-10.4235
പേർ	-10.4239
▁ബോംബെ	-10.4241
▁ബ്രോ	-10.4246
▁കീഴിലുള്ള	-10.4248
▁റെഡ്	-10.4254
▁ധരിക്ക	-10.4255
}	-10.4255
▁പിൻഗാമി	-10.4255
▁റെക്കോർഡ	-10.4255
▁ഒരിക്കലും	-10.4256
▁കാബൂള	-10.4256
▁വിവർത്തനം	-10.4256
▁കാനഡ	-10.4256
ശില്പ	-10.4257
▁ഉദ്യാന	-10.4257
▁സാക്ഷരത	-10.4261
▁ചരിത്രത്തിലെ	-10.4265
ധൂ	-10.4265
പാട്ട	-10.4269
▁നീര	-10.4273
▁മൺ	-10.4274
ഫീസ	-10.4278
▁എന്റെ	-10.428
▁താത്പര്യ	-10.4282
(19	-10.4282
▁ക്രൂ	-10.4283
▁പദാർഥ	-10.4285
▁പരിമിത	-10.4285
▁ചുര	-10.4286
▁ഭൂമിശാസ്ത്രം	-10.4286
▁അറബ്	-10.4292
▁പട്ടികയിൽ	-10.4293
▁ഭൗതികശാസ്ത്ര	-10.4298
സമുച്ചയ	-10.4308
▁സമവാക്യ	-10.431
▁സ്വപ്ന	-10.4311
▁വഹിച്ചു	-10.4314
പിടിച്ച	-10.4324
▁പൂർത്തിയാക്കിയ	-10.4325
▁സുൽത്താന	-10.4328
▁സ്റ്റേഡിയ	-10.4334
▁ആരോപണ	-10.4334
▁ഗോവിന്ദ	-10.4334
▁റോയൽ	-10.4335
മാതാ	-10.4336
▁വീക്ഷണ	-10.4338
മംഗല	-10.434
▁പദാർത്ഥ	-10.4341
▁ഓട്ട	-10.4349
▁നോബൽ	-10.436
ശൈ	-10.4365
▁ഏഷ്യാ	-10.4372
▁ദ്രവ	-10.4373
▁കിലോ	-10.4377
▁വയനാട്	-10.438
ുന്നതുവരെ	-10.4381
ഭഗവാന	-10.4383
സമ്മത	-10.4383
▁താല്പര്യ	-10.4387
▁ലൈബ്രറി	-10.4387
▁mu	-10.4395
▁കൂടുതലും	-10.44
▁കൊണ്ടുവര	-10.4406
▁1972	-10.4408
▁അതിര	-10.4414
▁കണ്ടുപിടിച്ച	-10.4414
▁തിരുനാൾ	-10.4416
▁കഥകൾ	-10.4423
ുപയോഗിക്കുന്ന	-10.4423
▁പലതും	-10.4429
ങ്ങളിലൊന്നാണ്	-10.4431
▁സിംഗ്	-10.4435
▁ഫ്രീ	-10.4435
▁{	-10.4437
▁മദ്യ	-10.4438
▁തികച്ചും	-10.444
▁ദുരന്ത	-10.444
▁ചുവപ്പു	-10.444
▁പ്രഭാഷണ	-10.444
ിയ്ക്കുന്നു	-10.4444
▁കരുതപ്പെടുന്ന	-10.4446
പ്പിള്ളി	-10.4446
ഭാഷാ	-10.4448
▁പേരുകൾ	-10.4452
▁വിദ്യാ	-10.4453
▁ആശാ	-10.4455
ത്തിരി	-10.4456
ന്യൂ	-10.4464
▁ശൃംഖല	-10.4464
▁അച്യുത	-10.4466
▁മനോഹരമായ	-10.4467
▁എഴു	-10.4481
ായിരിക്കണം	-10.4483
ന്റേത	-10.4485
▁ടിപ്പു	-10.4487
ലാന്റ	-10.4487
▁നിർവ്വഹിച്ചത്	-10.4489
▁മേധാവി	-10.449
▁കാർട്ട	-10.4494
▁വ്യാകരണ	-10.4495
ls	-10.4501
▁നല്കിയ	-10.4506
▁ദിവസവും	-10.4507
▁സങ്കേത	-10.4509
▁ചേർന്നാണ്	-10.4512
cy	-10.4513
▁ഭരിച്ച	-10.4517
▁ഉപയോഗിച്ചാണ്	-10.452
▁നവോത്ഥാന	-10.452
▁രൂപകല്പന	-10.452
▁വെള്ളച്ചാട്ട	-10.452
▁സൗന്ദര്യ	-10.452
▁ജോർജ്ജ്	-10.4522
▁വധ	-10.4522
▁കരാറ	-10.4523
▁ആദ്യകാലത്ത്	-10.4525
▁തടസ്സ	-10.4526
വർണ	-10.4528
▁ഊര	-10.4528
▁റൊ	-10.453
▁പ്രബന്ധ	-10.4532
▁അയൽ	-10.4534
▁മധു	-10.4537
▁പ്രഖ്യാപിച്ച	-10.454
ക്കുള്ളിൽ	-10.4542
▁1948	-10.4543
ഫ്യൂ	-10.4543
ങ്ങളോടു	-10.4544
ത്തുനിന്നും	-10.4544
▁പൂർത്തിയാക്കി	-10.4544
▁ഇതിഹാസ	-10.4547
▁ചരിത്രസംഭവങ്ങൾ	-10.4547
യാൾ	-10.455
▁ആദിമ	-10.455
▁ആണവ	-10.4551
▁അഭിമുഖ	-10.4552
▁സമ്പദ്	-10.4554
ഹൗസ	-10.4557
▁കൊടു	-10.4559
▁കൊടുക്കുന്ന	-10.456
▁1957	-10.4562
▁2015	-10.4563
സ്റ്ററ	-10.4567
▁1964	-10.4569
▁1975	-10.4571
▁സംവിധാനത്തിൽ	-10.4571
▁ചാലക്കുടി	-10.4573
▁ദ്രാവക	-10.4573
▁ഭൗമ	-10.4574
▁നൽകുന്നത്	-10.4578
ാമെന്ന്	-10.458
ുകൾക്കും	-10.4585
▁2016	-10.4587
▁പുരുഷന്മാര	-10.4598
car	-10.4599
മുനിസിപ്പാലിറ്റി	-10.46
▁ശേഷമാണ്	-10.4601
ham	-10.4606
പൂർണ്ണ	-10.4608
▁രചനകൾ	-10.4608
▁ജോർജ്	-10.4611
നിൽക്കുന്ന	-10.4619
▁സവിശേഷ	-10.4623
▁തെക്കുകിഴക്ക	-10.4628
▁സ്വർഗ്ഗ	-10.4631
▁മൈൽ	-10.4632
വിമർശ	-10.4639
ഗൂ	-10.4648
▁ആചരിക്ക	-10.4655
▁പുനഃ	-10.4656
▁തൊലി	-10.466
▁ഗ്രീസ	-10.4661
▁തെക്കുഭാഗത്ത	-10.4661
▁ഭരിച്ചിരുന്ന	-10.4671
▁മുഴ	-10.4677
പ്പോഴേക്കും	-10.4682
പ്രാധാന്യമുള്ള	-10.4682
വാദ്യ	-10.4688
▁ബ്ലോക്ക	-10.4689
▁പൂർത്തിയാക്ക	-10.4694
▁പൊതുജന	-10.4694
ഭോ	-10.4698
▁സ്വർണ	-10.4698
▁പർവ്വത	-10.47
കളോടു	-10.4706
▁1969	-10.4707
ാടക	-10.4708
▁തെളിയിച്ച	-10.4709
▁സംരംഭ	-10.4709
ശൂന്യ	-10.4709
▁ചേർത്തു	-10.472
വാരി	-10.4726
മാണുള്ളത്	-10.473
▁പുറത്തിറക്കിയ	-10.4731
▁ചുറ്റു	-10.4736
sion	-10.4743
മാരിൽ	-10.4743
▁കേവല	-10.4743
▁സിറിയ	-10.4743
ുണ്ടാകും	-10.4749
▁സ്ഥാനത്ത്	-10.4749
▁പ്രത്യക്ഷപ്പെട	-10.4758
▁സംഭവിക്കുന്ന	-10.476
ki	-10.4762
▁താമസിയാതെ	-10.4764
▁അവളുടെ	-10.4764
ാണോ	-10.4765
▁അനുഭവപ്പെടുന്ന	-10.477
▁തോതിൽ	-10.4773
▁കൃത്യ	-10.4775
▁രോമ	-10.4777
▁നൽകാൻ	-10.4777
യൊക്കെ	-10.4785
▁പ്രശസ്തനായ	-10.4787
▁അലക്സാണ്ടർ	-10.4791
സ്പർശ	-10.4791
▁മരുഭൂമി	-10.4791
വർദ്ധന	-10.4794
▁പരാമർശിക്കുന്ന	-10.4795
▁അർഥ	-10.4795
വസ്തുക്കള	-10.4798
യുമായുള്ള	-10.48
ാചാര്യ	-10.4802
സാദൃശ്യ	-10.4803
ary	-10.4809
ങ്ങളോട്	-10.4818
ുന്നതിലും	-10.4818
▁പൊന്നാനി	-10.4819
▁വികിരണ	-10.4819
▁താമസിക്കുന്ന	-10.482
▁പുത്രൻ	-10.4822
▁സാങ്കേതികവിദ്യ	-10.4825
സാധ	-10.4825
ധീ	-10.4826
▁വസിക്കുന്ന	-10.4832
▁ഇവർക്ക്	-10.4839
മാറ്റി	-10.4842
ub	-10.4846
ുൾപ്പെടെ	-10.4846
▁പോഷക	-10.4847
▁സഹോദരൻ	-10.485
▁കൊട്ട	-10.4852
കൃഷ്ട	-10.4853
▁കരിങ്ക	-10.4853
കയറ്റ	-10.4856
▁ഇരിക്ക	-10.4857
▁കുറിച്ചുള്ള	-10.486
uni	-10.4862
▁വെറും	-10.4863
▁സുരക്ഷിത	-10.4867
▁ചെയ്യപ്പെട്ടു	-10.4867
▁ജലസേചന	-10.4874
▁ഗവണ്മെന്റ	-10.4874
▁വിഭജന	-10.4874
▁പേരിലും	-10.4879
▁പടിഞ്ഞാറ	-10.4893
ഭോഗ	-10.4896
▁സ്പാനിഷ്	-10.4902
▁ഓപ്പൺ	-10.4902
▁ഇലക്ട്രോണിക്	-10.4905
▁തുടങ്ങിയവയാണ്	-10.4905
മുമ്പ്	-10.4905
ിനുള്ളിൽ	-10.4908
▁പരിഹാര	-10.4912
▁ഇദ്ദേഹത്തെ	-10.4912
വിചാര	-10.4922
▁ഉണ്ടായത്	-10.4924
▁http	-10.4928
▁ഇപ്പോഴത്തെ	-10.493
▁കാസ്ട്രോ	-10.493
▁ഭിന്ന	-10.4932
▁ഇബ്	-10.4936
▁ബോംബ	-10.4938
▁ചായ	-10.4946
കുട	-10.4948
നാഗ	-10.4949
ലൈറ്റ്	-10.495
▁ഇരുപത്തി	-10.4955
▁ദൂരദർശിനി	-10.4958
▁തിരുവാതിര	-10.4958
▁സഞ്ചരിക്ക	-10.4958
ിനെക്കുറിച്ച്	-10.4961
▁സൈറ്റ	-10.4962
കളോടെ	-10.4964
▁ഹാസ്യ	-10.4967
ച്ചിറ	-10.4975
▁അമർ	-10.4988
▁വസ്തുത	-10.4989
▁ദേശീയപാത	-10.4991
▁സെക്കന്റ	-10.4991
▁മത്സരങ്ങൾ	-10.4998
▁വരച്ച	-10.4999
▁വെട്ട	-10.5002
ങ്ങളുമ	-10.5007
▁ദുഃഖ	-10.5014
▁വേണ്ടിയുള്ള	-10.5015
രാധ	-10.5016
▁മാറ്റിയ	-10.5016
▁ഉപയോഗിക്കാൻ	-10.5017
▁പിടിച്ചെടുത്ത	-10.5022
ക്കുറിച്ചു	-10.5022
▁സയൻസ്	-10.5023
▁മറ്റൊന്ന	-10.5025
സൾഫ	-10.5025
▁1973	-10.5033
തെരഞ്ഞെടുപ്പ	-10.5041
▁യഥാക്രമം	-10.5042
▁കുങ്കുമ	-10.5042
▁സർവീസ്	-10.5042
ത്തെത്തുടർന്ന്	-10.5043
ങ്ങനെ	-10.5044
▁സൂഫി	-10.5046
കൊല്ല	-10.5053
▁നഗരത്തിലെ	-10.5059
▁കണ്ണികൾ	-10.5059
▁ഇടയ്ക്ക	-10.5059
വൈദ്യുത	-10.5059
▁മാവോ	-10.5063
ക്രോ	-10.5063
▁പ്രതല	-10.5068
▁സോഷ്യലിസ്റ്റ്	-10.507
▁വിഭജിക്ക	-10.507
▁മേൽനോട്ട	-10.507
▁പ്രദക്ഷിണ	-10.5075
ec	-10.5077
▁ലൂയി	-10.5078
▁തിരിഞ്ഞ	-10.5082
മലയാളചലച്ചിത്രം	-10.5084
▁ശേഖരിക്ക	-10.5092
▁അടങ്ങുന്ന	-10.5092
▁നീതി	-10.5093
പട്ടണ	-10.5098
▁ഹൈഡ്രജൻ	-10.5098
▁ലിനക്സ്	-10.5098
▁വീതം	-10.51
▁എൻജിന	-10.5112
▁കിംഗ്	-10.5117
▁അടിത്തറ	-10.5127
▁ചാൾസ്	-10.5127
▁പാളി	-10.5135
▁പഴക്കമുള്ള	-10.5138
▁ഭഗ	-10.5142
കഴിഞ്ഞ	-10.5146
▁1965	-10.515
കളാൽ	-10.5151
▁കൊടുങ്ങല്ലൂർ	-10.5155
▁പത്നി	-10.5157
▁രചിക്കപ്പെട്ട	-10.5163
▁കീഴടക്കി	-10.5168
ക്കൊണ്ടു	-10.5169
▁ശിശു	-10.5171
je	-10.5172
▁പത്ത്	-10.5177
യോജന	-10.5183
▁വേനൽക്കാല	-10.5184
▁പരിക്രമണ	-10.5184
▁അറസ്റ്റ്	-10.5189
ജന്യ	-10.519
വസാന	-10.5196
▁രീതിയിലുള്ള	-10.5201
▁ആവശ്യപ്പെട്ടു	-10.5201
ത്തിനുവേണ്ടി	-10.5202
▁പ്രചോദന	-10.5213
▁മാർത്താണ്ഡ	-10.5213
▁വികാര	-10.5217
▁ആറാട്ട	-10.5219
ക്കാട്ട	-10.5224
▁മേരി	-10.5225
ണമെന്നും	-10.5227
▁രൂപപ്പെട്ട	-10.5229
▁പ്രകടിപ്പിക്ക	-10.5232
ഗീത	-10.5234
▁ബാനറിൽ	-10.5241
▁പലതര	-10.5245
▁നിർബന്ധിത	-10.5245
fa	-10.5248
പ്പെട്ടിട്ടുള്ള	-10.5251
▁ഉൾപ്പെടെയുള്ള	-10.5254
▁റിപ്പോർട്ട	-10.5254
gen	-10.5255
▁രൂപീകരിക്ക	-10.5255
പ്രഭ	-10.5262
ധർമ്മ	-10.5268
▁1978	-10.5269
▁പേജ	-10.5269
che	-10.527
▁ഭക്തി	-10.5281
▁നേടിയിട്ടുണ്ട്	-10.5283
▁കൊറിയ	-10.5283
▁ഭരണകാലത്ത്	-10.5287
▁പ്രേമ	-10.529
െയ്ൻ	-10.5293
▁1961	-10.5294
ഗണിത	-10.5294
▁സംവിധായകന	-10.5294
▁ലത്തീൻ	-10.5299
▁സാന്ദ്രത	-10.5299
ിരിക്കെ	-10.5301
▁തെളിവുകൾ	-10.5302
▁വായിച്ച	-10.5305
▁തട്ടി	-10.5306
ുടേയും	-10.5307
രൂപത്തിലുള്ള	-10.5308
▁ഒക്കെ	-10.531
▁ആരാധനാ	-10.5313
▁വാക്കുകൾ	-10.5314
ലീല	-10.5325
▁പഞ്ചാബ്	-10.5328
ക്കെതിരായ	-10.533
▁പിതാവിന്റെ	-10.5332
▁അപൂർവ്വ	-10.5332
കോണ	-10.5334
▁കാമ്പ	-10.5341
▁1956	-10.5349
ാകുന്ന	-10.5351
▁പരാജയപ്പെട്ടു	-10.5354
▁സ്പെക്ട്ര	-10.5357
▁സമർപ്പിച്ച	-10.5358
▁ഭീമൻ	-10.5359
▁പരിസര	-10.5364
▁ചേരുന്ന	-10.5366
▁പ്രകടിപ്പിച്ച	-10.5366
ബറി	-10.5366
▁ക്ഷേത്രങ്ങളിൽ	-10.5367
ുകാരുടെ	-10.5378
ത്തിലധികം	-10.538
▁1967	-10.5385
▁തണുപ്പ	-10.5386
▁വർദ്ധിക്ക	-10.5386
ചൂ	-10.5396
▁വൈദ്യശാസ്ത്ര	-10.5399
▁ആപ്പിൾ	-10.5404
വാഹി	-10.5406
വാസികൾ	-10.5406
▁പശു	-10.5408
▁തമിഴ്നാട്	-10.5409
‘	-10.541
▁നീളവും	-10.541
▁മക്കൾ	-10.5411
tro	-10.5412
▁കോർപ്പറേഷൻ	-10.5415
▁പരിഹരിക്ക	-10.5416
▁വിവരിച്ച	-10.5417
▁കേൾക്ക	-10.5418
ട്യൂ	-10.5419
▁തിരിച്ചറിഞ്ഞ	-10.542
തുകൊണ്ടാണ്	-10.5422
ോദയ	-10.5422
▁ആഴ്ച	-10.5429
▁ഞാ	-10.543
നിന്നുള്ള	-10.5432
▁രൂപപ്പെടുത്ത	-10.5439
യില്ലാത്ത	-10.5439
▁സർവകലാശാലയിൽ	-10.544
ium	-10.5441
▁നിർവഹിച്ച	-10.5445
▁വിപണന	-10.5445
തമ്പുരാൻ	-10.5445
▁നിഗമന	-10.5445
ർപ്പണ	-10.5445
▁കടന്നുപോകുന്ന	-10.5445
▁ഓട്ടോ	-10.5446
സ്തംഭ	-10.5447
▁ദ്വാര	-10.5448
ത്തോടൊപ്പം	-10.5451
പ്ള	-10.5452
▁അടുപ്പ	-10.5453
▁പരസ്പര	-10.5454
വുമുണ്ട്	-10.5454
▁വേർതിരിച്ച	-10.5461
▁2018	-10.5462
ക്ഷമത	-10.5469
▁വെസ്റ്റ്	-10.5472
▁സ്ഥാപിച്ചത്	-10.5473
▁കമ്മീഷൻ	-10.5474
പ്രഖ്യാപന	-10.5474
▁ധാന്യ	-10.5475
▁സ്വദേശി	-10.5475
▁ഉണ്ടെന്ന	-10.5476
▁സ്മരണ	-10.5482
ുകയാണെങ്കിൽ	-10.5483
▁സീറ്റ	-10.5485
പഞ്ച	-10.5487
▁1988	-10.5491
▁ബുക്ക	-10.5493
▁സഞ്ചരിക്കുന്ന	-10.5503
▁ചരിത്രകാരന്മാർ	-10.5504
▁പ്രതിഷ്ഠിച്ച	-10.5504
▁ഒഴുകി	-10.5509
▁രാജ്യങ്ങളിലും	-10.5511
യിലേയ്ക്ക്	-10.5515
▁പൂക്കൾ	-10.5516
ിറങ്ങിയ	-10.5519
▁1940	-10.5527
▁പ്രദർശന	-10.5529
ലിയൻ	-10.553
ence	-10.5535
ിത്തീർന്ന	-10.5537
▁റൗ	-10.5538
ിച്ചുകൊണ്ട്	-10.5539
▁സവിശേഷതകൾ	-10.5539
ുകൊണ്ടിരിക്കുന്ന	-10.5542
250	-10.5545
ers	-10.5546
ില്ലെങ്കിലും	-10.5546
▁ചിറ്റ	-10.5553
▁കാസർഗോഡ്	-10.5563
▁ഗുരുവായൂർ	-10.5563
▁യഹോവ	-10.5563
▁വാർഡുകള	-10.5566
▁ബാധിക്കുന്ന	-10.5568
▁1953	-10.5573
കളെല്ലാം	-10.5573
സംബന്ധമായ	-10.5576
▁പുറത്തിറങ്ങി	-10.558
www	-10.5593
▁ജർമൻ	-10.5593
▁വിശദീകരണ	-10.5599
▁നന്ന	-10.5604
▁വിക്കറ്റ	-10.5605
ങ്ങളുമാണ്	-10.5606
▁പുറമെ	-10.561
kar	-10.5615
▁പുലർത്ത	-10.5622
▁സൗരയൂഥ	-10.5623
ിനകത്ത	-10.5624
ju	-10.5629
▁വലിപ്പമുള്ള	-10.5638
▁പ്രബല	-10.565
▁ശാരീരിക	-10.5652
▁ജനിതക	-10.5653
ല്യൂ	-10.5657
yan	-10.566
pal	-10.5662
kal	-10.5666
ൂട്ട്	-10.5666
▁മറിച്ച്	-10.5667
▁ഉണ്ടായിരിക്കും	-10.5673
san	-10.5674
▁2019	-10.5675
▁കളിച്ച	-10.5675
▁ഗംഗ	-10.5678
▁സുപ്രീം	-10.5682
▁രാജ്ഞി	-10.5683
▁വിസ്തീർണ	-10.5683
▁പതാക	-10.5683
▁അളവു	-10.5692
േണ്ടതുണ്ട്	-10.5692
▁ദെ	-10.5694
▁ദ്വി	-10.5702
▁പ്രാകൃത	-10.5702
▁കൊൽക്കത്ത	-10.5713
▁സംഘടിപ്പിച്ച	-10.5713
▁ആശയങ്ങൾ	-10.5716
▁ശീത	-10.5717
പർവ്വ	-10.5723
▁പ്രവചന	-10.5723
▁പോസ്റ്റ	-10.573
മുണ്ടെന്ന	-10.5745
റിയപ്പെട്ടിരുന്ന	-10.5747
▁ഫിലിപ്പ	-10.5747
▁ആളുകള	-10.5752
ig	-10.5755
മായിരുന്നില്ല	-10.5756
▁ചന്ത	-10.5765
▁ലോകത്ത്	-10.5766
▁സഹായിച്ചു	-10.5766
▁ഓപ്പറ	-10.5767
▁പുത്രനായ	-10.5773
▁കുറിപ്പുകൾ	-10.5773
▁വികസിപ്പിക്ക	-10.5773
▁ഫ്രാങ്ക	-10.5775
▁മിശ്രിത	-10.5783
ബദ്ധ	-10.5789
▁കാളി	-10.5792
▁ബ്രഹ്മാവ	-10.5792
കർത്താവ	-10.5793
▁ചെയ്യപ്പെടുന്ന	-10.5799
res	-10.5801
▁ഓപ്പറേറ്റിംഗ്	-10.5804
▁ഉപേക്ഷിക്ക	-10.5804
▁വാസ്തു	-10.5804
▁അബ്ദുൽ	-10.5804
▁സ്വന്തമാക്ക	-10.5805
ുവാനായി	-10.5807
son	-10.5809
▁1985	-10.5815
തനുസരിച്ച്	-10.5819
▁ചരിത്രകാരന	-10.5821
pre	-10.5831
▁ബ്ളോക്ക്	-10.5832
േക്കാം	-10.5832
jo	-10.5834
നുസൃത	-10.5834
▁ലഭ്യമാക്ക	-10.5834
▁വേഗത്തിൽ	-10.5836
▁രസതന്ത്ര	-10.5836
▁ജിദ്ദ	-10.584
▁തുടർന്നുള്ള	-10.5846
ib	-10.5848
ser	-10.5853
▁അന്ധ	-10.5853
▁രക്ഷിക്ക	-10.5856
മ്പാട	-10.5861
▁സഞ്ചാരി	-10.5863
▁അർജ്ജുനന	-10.5865
▁പ്രദർശിപ്പിക്ക	-10.5865
ിനടുത്തുള്ള	-10.5872
മുണ്ടായി	-10.5877
▁താമസിച്ച	-10.589
▁ഏറ്റവുമധികം	-10.5895
സരസ്വതി	-10.5895
▁വ്യോമ	-10.5896
▁കൃത്യമായി	-10.5897
മൃഗ	-10.5897
▁നിർദ്ദേശിച്ച	-10.5899
സ്റ്റൺ	-10.59
ിരുന്നെങ്കിലും	-10.59
▁1983	-10.59
വിഭവ	-10.5902
▁എന്നിവയെല്ലാം	-10.5911
▁കാർത്തിക	-10.5913
▁ഇതിനായി	-10.5918
▁ഒത്തു	-10.5921
െടുക്കുക	-10.5925
▁അയാളുടെ	-10.5926
▁വിൻഡോസ	-10.5927
▁വധിച്ച	-10.5927
▁അനുഗ്രഹ	-10.5932
▁ചുറ്റുമുള്ള	-10.5934
▁മാപ്പിള	-10.5934
▁രംഗത്ത	-10.5936
▁ബാധിക്ക	-10.5945
▁നല്കി	-10.5945
▁അഭിഷേക	-10.5957
▁ഗെയിം	-10.5957
▁മണിക്കൂർ	-10.5957
▁വന്യജീവി	-10.5957
▁വർദ്ധിച്ചു	-10.5958
സമ്പ്രദായ	-10.5959
ാനന്തര	-10.596
▁ആറാം	-10.5962
▁പ്രതിഭ	-10.5966
▁അപൂർവ	-10.5966
▁നേരിട	-10.5969
ഉപയോഗിക്കാറുണ്ട്	-10.5971
▁കൊമ്പ	-10.5979
age	-10.5981
വംശജര	-10.5985
▁കലാരൂപ	-10.5986
▁അനുഷ്ഠാന	-10.5988
▁സംഘടിപ്പിക്ക	-10.5989
വാചക	-10.5992
യോടൊപ്പം	-10.5992
ുകിടക്കുന്ന	-10.5992
▁ശ്രമിക്കുന്ന	-10.5993
▁വിരമിച്ച	-10.5994
▁വലയ	-10.5996
cu	-10.6002
▁വിലക്ക	-10.6005
▁കായല	-10.6008
▁1963	-10.601
▁തവള	-10.6011
▁ഉണ്ടാകും	-10.6012
▁ശവകുടീര	-10.6019
ഹൈഡ്ര	-10.6019
ക്ഷേമ	-10.602
ഇലക്ട്രിക്	-10.6022
▁1981	-10.6023
▁തേട	-10.6027
ഛേദ	-10.6032
▁മനസ്സിലാക്കിയ	-10.6039
▁റോബർട്ട്	-10.605
▁പരശുരാമ	-10.605
മന്ദിര	-10.605
▁കുടുംബത്തിലെ	-10.6054
പുരസ്കാര	-10.6054
▁അളക്ക	-10.6056
തിനേക്കാൾ	-10.6061
▁സിവിൽ	-10.607
▁ആസ്ഥാനമായ	-10.6071
▁ഡിസ്ക	-10.6073
▁ഉറു	-10.6075
▁തെക്കുപടിഞ്ഞാറ	-10.6077
▁ബംഗ്ലാദേശ	-10.6081
▁സത്യാഗ്രഹ	-10.6081
▁ഉത്പന്ന	-10.6081
oc	-10.6082
▁ശാസ്ത്രജ്ഞന	-10.6084
▁അയ്യപ്പൻ	-10.6087
ാണെന്നാണ്	-10.6089
chan	-10.6089
▁വർഷങ്ങളിൽ	-10.6091
▁ചെയ്	-10.6092
▁1946	-10.6107
▁ഇറ്റാലിയൻ	-10.6113
▁ദേവസ്വം	-10.6113
▁മാറുന്നു	-10.6125
ചാരി	-10.6125
▁നിലവാര	-10.6127
▁മോണ	-10.6135
▁ഗംഗാ	-10.6141
▁ഈഴവ	-10.6143
▁ഗ്രാമീണ	-10.6144
▁വിചാരണ	-10.6144
▁സ്വന്തമായി	-10.6145
വസ്തുക്കൾ	-10.6151
▁1980-	-10.6154
▁സ്പീ	-10.6166
▁കണക്കാക്കിയ	-10.6167
▁തോറ്റ	-10.6172
▁പടിഞ്ഞാറേ	-10.6172
▁ഏറ്റെടുത്തു	-10.6173
▁ഒരോ	-10.6175
▁ആസ്പദമാക്കി	-10.6176
ശീവേലി	-10.6177
▁ബീജ	-10.6178
▁ദക്ഷിണേന്ത്യ	-10.6182
▁സജ്ജ	-10.62
▁അടിച്ചമർത്ത	-10.6207
▁മെക്സിക്കോ	-10.6207
my	-10.6207
▁നിരൂപക	-10.6208
സൂക്ത	-10.6209
ുകയുള്ളൂ	-10.6224
ീശ്വര	-10.6228
tes	-10.6235
▁ആദ്യകാലങ്ങളിൽ	-10.6236
▁കമ്യൂണിസ്റ്റ്	-10.6239
▁കൊലപാതക	-10.6239
▁നാമകരണം	-10.6239
ങ്ങളെക്കുറിച്ച്	-10.6239
▁രണ്ടാമൻ	-10.6241
സംസ്കൃത	-10.6247
ിപ്പിക്കുകയും	-10.6247
ോയിഡ	-10.6248
▁ദീർഘകാല	-10.6254
▁കുംഭ	-10.6256
net	-10.6261
പറമ്പ	-10.6265
▁ബന്ധിപ്പിക്ക	-10.6265
സ്ഫോട	-10.627
▁ഭൂകമ്പ	-10.6271
▁അവതരണ	-10.6271
▁ചെമ്മ	-10.6274
▁വലിയൊരു	-10.6274
▁കലാലയ	-10.6278
▁ഫ്രാൻസിസ്	-10.6279
▁തുറക്ക	-10.6282
▁ഗാന്ധിജി	-10.6291
▁ഇൻസ്റ്റ	-10.6292
▁ജീവിക്ക	-10.6298
▁ദൈവശാസ്ത്ര	-10.63
▁പരമാവധി	-10.6303
▁തവിട്ടു	-10.6303
▁ഡോളർ	-10.6303
▁പഞ്ചായത്തും	-10.6304
▁പശ്ചിമഘട്ട	-10.6304
▁കാണിക്ക	-10.6315
▁ക്യാമ്പ	-10.6316
ിലേക്ക	-10.6317
റേഷൻ	-10.6323
▁പുലി	-10.6332
▁1968	-10.6337
▁അരങ്ങേറ	-10.6339
▁ഡോളറ	-10.6341
ാകാം	-10.6341
cent	-10.6345
▁ആന്റി	-10.6346
വരായിരുന്നു	-10.6347
▁പ്രാപിക്ക	-10.6348
വിഗ്രഹ	-10.6358
▁അവലംബ	-10.636
ദിശ	-10.636
▁പതന	-10.6363
മ്യൂ	-10.6372
pan	-10.6378
ദീപ	-10.6378
▁പരിധിയിൽ	-10.6379
മേട	-10.6382
ther	-10.6391
ചര്യ	-10.6391
▁വ്രത	-10.64
െടുക്കാൻ	-10.6412
100	-10.6412
▁എന്നറിയപ്പെട്ട	-10.6415
പ്പിൾ	-10.6416
▁ആരംഭിക്കുന്നത്	-10.6416
▁1954	-10.6416
പള്ളി	-10.642
▁തനിക്ക്	-10.6429
▁ന്യുമോണിയ	-10.6432
▁പ്രായോഗിക	-10.6432
▁രൂപവത്കരിച്ച	-10.6432
▁ഉപനിഷത്ത	-10.6432
▁നാലമ്പല	-10.6432
▁വിലാസം	-10.6434
▁പതിനെട്ടാം	-10.6437
▁1952	-10.6438
▁യോഗ്യത	-10.6439
▁വേർതിരിക്ക	-10.6443
▁പതിനാറ	-10.6458
tho	-10.6458
▁എഴുന്നള്ള	-10.6464
ാണിവ	-10.6466
▁മുപ്പത	-10.647
▁ആയിരിക്ക	-10.6472
പ്രശ്ന	-10.6475
▁പ്രചാരത്തില	-10.6475
ജ്യോതി	-10.6495
▁വായുവ	-10.6497
▁റബ്ബർ	-10.6497
▁സാക്ഷ്യ	-10.6497
▁ജപ്പാൻ	-10.6497
▁സെന്റർ	-10.6498
▁കരാർ	-10.6498
അധിവർഷത്തി	-10.6499
▁വിശാലമായ	-10.65
▁ഇതില	-10.651
നിർണ്ണയ	-10.6516
▁തീരെ	-10.6518
▁ആപേക്ഷിക	-10.6529
▁വടക്കുപടിഞ്ഞാറ	-10.6532
ക്കിടെ	-10.6533
▁ഔദ്യോഗികമായി	-10.6534
ീന്ദ്ര	-10.6535
iv	-10.6536
ങ്ങളിലൊന്നായ	-10.6537
▁നൈട്ര	-10.6538
▁അയക്ക	-10.6542
▁പറയുന്നുണ്ട്	-10.6543
ie	-10.6549
ീനിയ	-10.6558
ലൈൻ	-10.6562
▁പ്രവർത്തിപ്പി	-10.6564
മന്ത്ര	-10.6567
▁പാരീസ	-10.6568
▁ദൂരെ	-10.6568
▁ആൽഫ	-10.657
▁അശ്വ	-10.6575
mala	-10.6576
one	-10.6584
പ്രകൃതി	-10.6584
ron	-10.6586
▁ആവിഷ്	-10.6595
ബോൾ	-10.6595
▁ഹൈക്കോടതി	-10.6595
▁സദാ	-10.6595
▁പൂർത്തിയായ	-10.6596
▁മെസ്സി	-10.6596
▁പിറന്ന	-10.6598
ുണ്ടു്	-10.6602
▁അവയവ	-10.6603
▁നഷ്ടപ്പെട	-10.6604
▁ജനവിഭാഗ	-10.6607
സങ്കല്പ	-10.6608
▁ഭക്തർ	-10.6611
ില്ലെന്നും	-10.6613
ലധികം	-10.6621
▁മറ്റൊര	-10.6623
▁1949	-10.6624
▁പറക്ക	-10.6628
▁പ്രതിനിധീകരിക്ക	-10.6628
▁അഭിപ്രായപ്പെട്ട	-10.6628
▁ആസൂത്രണ	-10.6629
▁പത്രപ്രവർത്തക	-10.6631
▁സഹായിക്കുന്ന	-10.6636
യനുസരിച്ച്	-10.6637
▁അയ്യപ്പ	-10.6637
▁ഭൂപ്രദേശ	-10.6638
▁വിളക്കു	-10.6641
▁കൃത്യമായ	-10.6647
cho	-10.6649
▁പിന്തുടരുന്ന	-10.6649
▁ഏർപ്പെട്ട	-10.6651
വ്യാപക	-10.6656
വകുപ്പ	-10.6656
▁ഹ്രസ്വ	-10.6661
▁പരിഗണിച്ച	-10.6662
▁അലക്സാ	-10.6662
പ്രയോഗ	-10.6663
▁ജന്മി	-10.6673
വ്യാപാര	-10.6675
▁ഭാരതത്തിലെ	-10.6677
വിനിമയ	-10.6696
▁എന്നർത്ഥം	-10.6697
▁പ്രതിപാദിക്ക	-10.6697
▁ഒന്നിലധികം	-10.6698
ത്യാഗ	-10.6705
▁ഹാർഡ്	-10.6706
▁തീരത്ത്	-10.6706
ുമ്പോഴാണ്	-10.671
▁കടുവ	-10.6711
ായിത്തീര	-10.6715
ദേശീയ	-10.6718
ുമ്പോഴ	-10.6723
▁നമസ്കാര	-10.6728
▁ബാബിലോണ	-10.6728
ഉത്തർപ്രദേശ	-10.6728
▁ഉടലെടുത്ത	-10.6728
▁1945	-10.673
▁ടാങ്ക	-10.6737
▁കാണപ്പെട	-10.6742
▁2017	-10.6747
▁തീവ്രവാദ	-10.6748
▁തലവന	-10.675
▁രൂപീകൃതമായ	-10.6762
▁വാദിച്ചു	-10.6763
cl	-10.6763
ous	-10.6764
900	-10.6775
ൂടെ	-10.6775
മാവുകയും	-10.6788
▁ഭവന	-10.6791
land	-10.6793
▁മെത്രാപ്പോലീത്ത	-10.6795
▁ഭക്ഷിക്ക	-10.68
▁അനുവാദ	-10.6803
യിൽനിന്ന്	-10.6822
▁യേശുവിന്റെ	-10.6833
5%	-10.6839
kara	-10.6841
▁ഏഴാം	-10.6849
▁മത്സരങ്ങളിൽ	-10.6852
കിഴക്ക	-10.6854
▁ال	-10.6862
▁നയതന്ത്ര	-10.6864
ാനാകും	-10.6865
വോൾട്ട	-10.6869
▁നേടുന്ന	-10.687
▁കിഴക്കുഭാഗത്ത	-10.6879
▁പഞ്ചായത്തുകൾ	-10.688
cor	-10.6882
മുണ്ടാകും	-10.6892
▁കാലിഫോർണിയ	-10.6896
▁കൗൺസിൽ	-10.6896
▁പ്രോത്സാഹിപ്പി	-10.6896
▁മൃതദേഹ	-10.6896
യാണെന്നും	-10.6897
▁എക്സ	-10.6903
▁സീസണിൽ	-10.6913
ദ്ദേശ	-10.6917
▁ഇൻഫ	-10.6922
വീര്യ	-10.6928
▁1976	-10.6929
മായിട്ടാണ്	-10.6934
▁യാഗ	-10.6955
▁ലാഭ	-10.6955
▁സ്പെയിന	-10.6961
ite	-10.6962
പെരു	-10.6964
▁അധീനതയില	-10.6964
▁ഗവർണർ	-10.6964
▁രണ്ടോ	-10.6966
ഛ	-10.6979
▁1958	-10.6987
▁നോട്ട	-10.6996
▁ചൂണ്ടിക്കാണിക്ക	-10.6998
▁ഉറവിട	-10.6999
▁മറാഠ	-10.6999
വാഴ്ച	-10.7002
ies	-10.7002
▁മാറുകയും	-10.7004
പരിഷ്കാര	-10.7005
▁ചെയ്യുമ്പോൾ	-10.7007
കുമാരി	-10.7014
▁1974	-10.7017
▁കണക്കാക്കുന്നത്	-10.7027
ിരിക്കുമ്പോൾ	-10.7029
▁ഒഴികെ	-10.7033
▁രൂക്ഷ	-10.7033
▁ലാറ്റിൻ	-10.7033
▁താമസിച്ചിരുന്ന	-10.7033
▁രൂപീകരണ	-10.7034
▁അന്തിമ	-10.7039
േർഡ്	-10.7044
val	-10.7047
ത്തുനിന്ന്	-10.7049
▁അവരിൽ	-10.7056
▁പരാതി	-10.7057
▁മത്സരിച്ച	-10.7062
▁2020	-10.7066
▁അദ്ധ്യക്ഷ	-10.7068
ദ്വൈത	-10.7068
ണമെങ്കിൽ	-10.7069
▁ഒരാളായ	-10.7071
ില്ലാതെ	-10.7072
▁രാജീവ്	-10.7073
പ്രസക്ത	-10.7076
സൃഷ്ടി	-10.7088
നില്ക്ക	-10.7091
ശ്രദ്ധ	-10.7094
▁റാണി	-10.7098
▁ഇംഗ്ലീഷിൽ	-10.7099
സംസ്ഥാന	-10.71
▁കയറ്റുമതി	-10.7102
▁കുരുമുളക	-10.7102
▁നരസിംഹ	-10.7102
▁കുടികൊള്ളുന്ന	-10.7102
ചുറ്റ	-10.7103
▁കേശവ	-10.7104
▁അനുപാത	-10.7108
▁സജീവമായി	-10.7119
പണ്ഡിത	-10.7126
▁ജെയിംസ്	-10.7137
▁ദുര്യോധന	-10.7137
▁സമുദ്രനിരപ്പിൽ	-10.7137
▁നിഘണ്ടു	-10.7137
▁നിലവിലുണ്ടായിര	-10.7138
▁ത്രികോണ	-10.7139
▁വ്യക്തിത്വ	-10.7139
▁മിശ്ര	-10.7141
▁വിൽക്ക	-10.7141
▁ഹിന്ദുമത	-10.7144
▁മറ്റേ	-10.7148
▁താമര	-10.7155
േറെ	-10.716
▁സപ്ത	-10.7167
▁പുത്രി	-10.7168
പ്രക്രിയ	-10.7169
▁കരസ്ഥമാക്കി	-10.717
ിറക്ക	-10.7171
▁ഉച്ചാരണ	-10.7172
▁ശുക്ര	-10.7172
▁ആശയവിനിമയ	-10.7173
▁സന്ദർശന	-10.7173
നിർണയ	-10.7173
▁മൈക്രോസോഫ്റ്റ	-10.7186
ചികിത്സ	-10.7194
ji	-10.7202
▁ജനപ്രിയ	-10.7207
▁ഹൈസ്കൂൾ	-10.7207
▁പുത്തൻ	-10.7207
▁ചോദിച്ച	-10.7208
ാരോഗ്യ	-10.7209
ക്കഴിഞ്ഞ	-10.7213
▁പ്രസവ	-10.7214
▁ഇറങ്ങിയ	-10.7217
▁പുലർത്തുന്ന	-10.7222
▁ഇന്തോ	-10.7239
▁ഗാലക്സി	-10.7242
▁ഖലീഫ	-10.7242
▁ആരാധക	-10.7242
▁സർവീസ	-10.7246
വിദ്യാഭ്യാസ	-10.726
▁അനന്തര	-10.7265
▁ബോളിവുഡ്	-10.7277
▁ഡോക്ടർ	-10.728
▁വൈക്കം	-10.7281
shi	-10.7293
ബ്യൂ	-10.7293
പാരമ്പര്യ	-10.7301
vo	-10.7303
▁എടുക്കുന്ന	-10.7311
▁ചതുർ	-10.7311
▁അഴിമതി	-10.7312
▁പച്ചക്കറി	-10.7312
▁ഗവൺമെന്റ്	-10.7314
▁ആത്മകഥ	-10.7314
▁പ്രജനന	-10.7316
മന്ത്രിയായിരുന്ന	-10.7325
▁തുണി	-10.7327
▁വഹിക്ക	-10.7332
ക്ലാസ	-10.7335
▁1966	-10.7344
ഗവൺമെന്റ	-10.7346
ഫിലി	-10.7346
▁അൽഗൊരിത	-10.7348
▁ഡേവിഡ്	-10.7348
▁ലഹള	-10.7348
▁സിന്ധു	-10.7348
▁തിരഞ്ഞെടുപ്പ്	-10.7349
▁ധ്യാന	-10.735
▁ചിത്രീകരണ	-10.7354
▁എല്ലാവരും	-10.7363
▁ലോകസഭ	-10.7368
gar	-10.7373
കിഴങ്ങ	-10.7375
ാക്രമണ	-10.7376
▁സേവനമനുഷ്ഠിച്ച	-10.7383
▁സൗഹൃദ	-10.7383
നിർമ്മാതാവ	-10.7383
▁ഏറ്റെടുക്ക	-10.7384
indian	-10.7384
ton	-10.7389
▁സമഗ്ര	-10.7399
▁വിശ്രമ	-10.7404
▁1955	-10.7407
മടക്ക	-10.7411
▁യൂറോപ്പിലെ	-10.7412
ജ്യോതിശാസ്ത്രജ്ഞ	-10.7414
▁പ്രോസസ	-10.7417
തിരഞ്ഞെടുപ്പ	-10.7418
▁ആയിരക്കണക്കിന	-10.7419
▁തെലുങ്ക്	-10.7419
▁അർബുദ	-10.7419
▁രൂപകൽപ്പന	-10.7419
▁മൊബൈൽ	-10.7419
▁ജ്യോതിഷ	-10.7419
▁പാചക	-10.742
▁ദിനപത്ര	-10.7421
ത്തേക്കാൾ	-10.7422
ത്തിലേക്കുള്ള	-10.7424
▁അതിവേഗ	-10.7426
ത്തിലേയ്ക്ക്	-10.7431
▁നന്ദി	-10.7436
ാർദ്ധ	-10.7436
ന്ത്ര	-10.7448
▁ഹെറാ	-10.7449
▁സ്പീഷീസ	-10.7455
▁ഓസ്ട്രിയ	-10.7455
▁ഏറ്റുമുട്ട	-10.7455
▁ജനുസ്സ	-10.7456
▁കൂട്ടായ്മ	-10.7459
▁അകത്ത	-10.7464
▁പത്താം	-10.7476
▁മെത്രാന	-10.748
പരിധി	-10.7488
▁തൊട്ടടുത്ത	-10.7491
▁പുറപ്പെടുവിക്ക	-10.7491
▁മാവേലിക്കര	-10.7491
▁പഠിപ്പിച്ച	-10.7491
▁രൂപാന്തര	-10.75
ൊന്നുമില്ല	-10.7503
▁പദ്യ	-10.7503
▁ചുണ്ട	-10.7504
കലർന്ന	-10.7506
ിക്കൊണ്ടിരിക്ക	-10.751
▁എനിക്ക	-10.7514
ടങ്ങുന്ന	-10.7518
kh	-10.752
സങ്കീർണ്ണ	-10.7523
▁പോരാട	-10.7525
▁സുരക്ഷാ	-10.7526
▁പത്മനാഭ	-10.7527
▁മൃദു	-10.7527
▁പ്രചരിച്ച	-10.7527
▁സമർപ്പിക്ക	-10.7527
▁നാടോടി	-10.7527
▁ഫയല	-10.753
▁മീഡിയ	-10.7534
▁ചീഫ്	-10.7535
വാഹന	-10.7542
പേക്ഷ	-10.7547
▁തീരുമാനിച്ച	-10.7549
▁ഓക്സ	-10.7551
▁തീർത്ഥാടന	-10.7563
▁ഹൈസ്കൂള	-10.7563
▁ആധാരമാക്കി	-10.7563
▁ബിരുദാനന്തര	-10.7564
▁സ്ഫോടന	-10.7565
▁അവസാനിച്ച	-10.7568
var	-10.7569
uth	-10.757
▁ചെറുകഥ	-10.7573
▁അവസാനിക്കുന്ന	-10.7574
▁ഖാന്റെ	-10.7578
▁ക്വി	-10.7579
▁വിശ്വസിക്ക	-10.7579
▁പൂജ്യ	-10.758
▁നാഡീ	-10.7585
▁വാല്യ	-10.7595
ാത്മാവ	-10.7597
▁നേടുകയും	-10.7598
▁തകർന്ന	-10.76
▁നാലാമത്തെ	-10.7602
തുമൂലം	-10.7616
▁മാത്രമായിരുന്നു	-10.7632
▁ഐക്യരാഷ്ട്രസഭ	-10.7636
▁മാതാപിതാക്കൾ	-10.7636
▁സംസ്കരിച്ച	-10.7636
▁ക്യാമറ	-10.7636
ന്യൂക്ലിയ	-10.7637
▁പോയിന്റ	-10.7639
▁ഇത്തരത്തിലുള്ള	-10.7643
ങ്ങളിലേക്കും	-10.7646
ാകൃതിയിലുള്ള	-10.7653
if	-10.7653
▁വിശ്വസിക്കുന്ന	-10.7666
▁വേട്ടയാട	-10.7673
▁പ്രധാനവേഷങ്ങളി	-10.7678
▁പ്രയോഗിക്ക	-10.7684
ബാദ	-10.7692
▁അഹ്മദ്	-10.7709
▁ഗുരുത്വാകർഷണ	-10.7709
വൽക്കരണ	-10.7709
data	-10.7715
▁സൃഷ്ടിക്കുന്ന	-10.7721
പ്രിന്റ	-10.773
ിരിയ്ക്കുന്നു	-10.7733
▁കഴിവുള്ള	-10.7745
▁ദാരിദ്ര്യ	-10.7746
▁നിയന്ത്രണത്തില	-10.7746
▁മാനദണ്ഡ	-10.7746
▁എത്തിച്ചേർന്ന	-10.7747
▁ഭൂഖണ്ഡ	-10.7749
▁തകർക്ക	-10.775
▁ബ്ളോക്കിൽ	-10.7753
▁കിടന്ന	-10.7757
▁വൻകര	-10.7766
▁വയ്ക്കുന്ന	-10.7767
▁ചിത്രത്തിലൂടെ	-10.777
▁ക്ലാസ്സ	-10.7775
▁പഞ്ചായത്തുകളും	-10.7776
▁സംസാരിക്ക	-10.7776
▁രൂപംകൊണ്ട	-10.778
പരിപാടി	-10.778
പരിഷ്കരണ	-10.7784
▁മഹാദേവക്ഷേത്രം	-10.7785
▁ഗ്രീൻ	-10.7789
▁തുടർ	-10.7815
▁വെല്ലുവിളി	-10.782
▁സംവിധായകൻ	-10.7821
form	-10.7822
ച്യ	-10.783
▁ഉണ്ടായിരിക്ക	-10.7836
▁ആലുവ	-10.7842
▁ശൈവ	-10.7851
▁ഷൂ	-10.7856
▁കൂട്ടിച്ചേർത്ത	-10.7858
▁പ്രശംസ	-10.7858
▁അക്ബർ	-10.7858
▁അടിയന്തരാവസ്ഥ	-10.7858
▁വൈഷ്ണവ	-10.7859
▁ഫയൽ	-10.7859
▁വ്യക്തമാക്കുന്ന	-10.7865
വരുത്ത	-10.7866
സമൃദ്ധ	-10.7895
jpg	-10.7895
▁ഇന്റർനാഷണൽ	-10.7895
▁ഉദ്ഘാടന	-10.7895
▁ഉത്തരവാദിത്ത	-10.7895
▁അഭിഭാഷക	-10.7895
▁മൈതാന	-10.7896
ോപരിതല	-10.7898
ശോഭ	-10.7901
സ്മൃതി	-10.7904
▁ഇവിടെയുണ്ട്	-10.792
▁ദണ്ഡ	-10.7926
ഗായക	-10.793
▁ഐശ്വര്യ	-10.7933
▁വിപരീത	-10.7933
▁ന്യൂയോർക്ക്	-10.7933
▁ക്വാണ്ടം	-10.7933
▁ആഗസ്റ്റ്	-10.7933
▁ഇറാഖ	-10.7933
▁തെരുവ	-10.7938
▁രോഗാണു	-10.7951
▁വിമർശിക്ക	-10.7961
▁ഉബുണ്ടു	-10.797
▁ശസ്ത്രക്രിയ	-10.797
▁ഒഴുക്ക	-10.7971
▁നമുക്ക്	-10.7971
▁നിരോധിച്ച	-10.7971
mer	-10.7979
▁പ്രതികരണ	-10.798
▁2021	-10.7988
▁സമീപത്ത	-10.7991
▁പരാജയപ്പെട്ട	-10.8001
▁ഗൂഗിൾ	-10.8008
▁ലിമിറ്റഡ	-10.8008
▁ഹൈദരാബാദ	-10.8008
▁വിസ്തീർണ്ണം	-10.8008
▁ഡോക്ടറ	-10.8009
▁മെച്ചപ്പെടുത്ത	-10.801
▁വ്യാപ്ത	-10.801
▁മൗലിക	-10.8014
രാഷ്ട്രീയ	-10.8017
▁മുഴുവനും	-10.8026
▁ഉണക്ക	-10.8041
▁പന്നി	-10.8044
▁അർജന്റീന	-10.8046
▁പ്രോഗ്രാം	-10.8046
▁ശബരിമല	-10.8046
കൊണ്ടിരിക്ക	-10.8047
▁എട്ടാം	-10.8047
▁പകർപ്പ	-10.8047
അല്ലാഹു	-10.8048
▁രൂപവത്കരണ	-10.8051
▁ഡൊമ	-10.8052
▁ഭാഗവത	-10.8057
ുപോകുന്ന	-10.8059
▁തമ്പി	-10.8059
നിറുത്ത	-10.8067
▁പ്രദർശനത്തിന	-10.8078
▁വോൾ	-10.8081
▁ഏജൻസി	-10.8085
▁സൗജന്യ	-10.8085
▁സാദ്ധ്യത	-10.8085
▁രുചി	-10.8086
സാദ്ധ്യ	-10.8095
▁ആന്ധ്ര	-10.8123
▁ഹനുമാൻ	-10.8123
▁മസ്തിഷ്ക	-10.8123
▁വ്യാപകമായ	-10.8124
▁ഹീലിയ	-10.8128
▁തദ്ദേശ	-10.813
▁ഉറച്ച	-10.8134
▁ജയിച്ച	-10.8137
▁ഒപ്പു	-10.814
▁രചിച്ചിട്ടുണ്ട്	-10.8154
▁പ്രതിസന്ധി	-10.8161
▁ജയിലിൽ	-10.8162
▁ഇൻഡ്യ	-10.8167
▁അനുയോജ്യമായ	-10.817
pra	-10.8171
ger	-10.8172
എന്നാൽ	-10.8179
▁ഇറക്ക	-10.8181
ക്കൊടുത്ത	-10.8185
ദാർശനിക	-10.82
▁ആധികാരിക	-10.82
▁ശിവരാത്രി	-10.82
▁റിലീസ്	-10.82
▁പ്രാവശ്യം	-10.82
മനുഷ്യ	-10.8204
▁ആദ്യത്തേത	-10.8208
▁സുഹൃത്തുക്കള	-10.821
▁നിശ്ചയിക്ക	-10.8213
▁മലനിരകള	-10.8215
▁ഇവരിൽ	-10.8236
▁ബോട്ട	-10.8236
▁തെളിഞ്ഞ	-10.8239
▁ദഹന	-10.824
▁അക്ഷരമാല	-10.8242
▁ജോൺസൺ	-10.8246
▁പേരിട്ട	-10.8256
▁നവീകരണ	-10.8257
▁മറ്റുള്ളവര	-10.8271
▁വിപുല	-10.8272
▁ശാസ്താവ	-10.8272
▁യഥാർഥ	-10.8278
▁അട്ടിമറി	-10.8278
▁പൗലോസ്	-10.8278
▁ദ്രോണ	-10.8278
▁ശുദ്ധജല	-10.8279
േറ്റീവ്	-10.828
▁ചെയ്യേണ്ട	-10.8282
▁കൈവരിക്ക	-10.8282
നിവേദ്യ	-10.8283
▁എത്തിക്ക	-10.8293
െതിരെ	-10.8294
സ്ത്രീ	-10.8296
ish	-10.8297
▁പോർച്ചുഗീസ്	-10.8317
ുകയാണുണ്ടായത്	-10.8317
▁തന്മൂലം	-10.8317
സൂചക	-10.8319
ധ്രുവ	-10.8321
▁പരക്കെ	-10.8322
▁കൊട്ടാരക്കര	-10.8324
▁വർഷങ്ങൾക്ക്	-10.8335
▁അകലെയുള്ള	-10.8338
തത്ത്വ	-10.8347
▁ഉദ്ദേശിച്ച	-10.835
▁ഭൂരിഭാഗം	-10.8356
▁യാഥാസ്ഥിതിക	-10.8356
▁സംഘർഷ	-10.8356
▁തെരഞ്ഞെടുപ്പിൽ	-10.8356
▁കുരങ്ങ	-10.8358
▁നിർവചന	-10.8358
▁ഏറ്റെടുത്ത	-10.836
▁കത്തോലിക്ക	-10.8364
▁വേഗം	-10.8366
പതിനായിര	-10.8374
▁ഇരുണ്ട	-10.8375
▁നേരത്തേ	-10.8376
▁സുരക്ഷ	-10.8376
ിനോടൊപ്പം	-10.8394
▁ഓപ്പറേറ്റിങ്	-10.8396
▁ഡ്രൈവ	-10.8396
▁നിർവ്വഹിച്ച	-10.8402
പെടുന്ന	-10.8402
▁തമ്മില	-10.8402
▁മാർക്കറ്റ	-10.8404
▁കാഴ്ചപ്പാട	-10.8409
▁സംഗമ	-10.841
▁പകർത്ത	-10.842
▁പാരിസ	-10.8421
▁ലളിതമായ	-10.8424
bar	-10.8427
കമ്മ്യൂണിസ	-10.8435
ടെർമിന	-10.8436
▁ഇടതുപക്ഷ	-10.8436
ദ്ദേഹം	-10.8439
ഛായ	-10.8444
▁തിരക്ക	-10.8447
▁നേതാവായിരുന്ന	-10.8453
▁നല്കുന്ന	-10.8457
▁ii	-10.8459
▁ചവിട്ട	-10.846
▁മുന്നണി	-10.8469
▁പെരുമ്പ	-10.8471
▁അഹമ്മദ്	-10.8474
▁ഉപഭൂഖണ്ഡത്ത	-10.8474
▁ഉരുത്തിരിഞ്ഞ	-10.8474
യുണ്ടാക്ക	-10.8475
▁വിദൂര	-10.8475
▁പുല്ല	-10.8481
▁ഓഹരി	-10.8484
▁തുടർച്ചയായ	-10.8485
▁വിമർശിച്ച	-10.8491
▁അറിയപ്പെട	-10.8493
▁ഘടിപ്പിച്ച	-10.8514
▁വാസ്തുവിദ്യ	-10.8515
▁ലവണ	-10.8516
▁തുളു	-10.8517
ോർജ	-10.8526
▁ഡെവലപ്	-10.8527
▁രാജ്യസഭ	-10.8528
കൊച്ചി	-10.8532
▁രാജാവായിരുന്ന	-10.8539
▁ഹൈഡ്രോ	-10.8541
▁തെളിവുകള	-10.8545
പടിഞ്ഞാറുഭാഗത്ത്	-10.8547
▁പതിനെട്ട	-10.8549
▁പത്തൊൻപതാ	-10.8554
▁ടെക്നോളജി	-10.8554
രശ്മി	-10.8555
▁ഉറപ്പിച്ച	-10.8557
▁അതുവഴി	-10.8562
▁കോമൺ	-10.8566
ബന്ധിപ്പിക്കുന്ന	-10.8568
ഗ്രഹണ	-10.8574
പരമ്പര	-10.8591
▁കൊഴുപ്പ	-10.8594
▁വാർഡുകൾ	-10.8596
▁കല്യാണ	-10.8597
▁വിപുലമായ	-10.8601
file	-10.8602
തമിഴ്	-10.8606
▁ഗദ്യ	-10.862
ിനേക്കാൾ	-10.8634
▁ഖുർആനി	-10.8635
▁പീഠഭൂമി	-10.8635
▁അഗസ്റ്റ	-10.8638
▁താമസിക്ക	-10.8639
▁നല്ലൊരു	-10.8651
ങ്ങളെപ്പറ്റി	-10.8651
ാഘാത	-10.8675
▁നിർവഹിക്ക	-10.8675
▁പൈതൃക	-10.8675
▁കണക്കിലെടുത്ത	-10.8675
▁ആർത്തവ	-10.8679
ുണ്ടാക്കി	-10.868
ശിലായുഗ	-10.8681
▁ബ്ലോഗ	-10.8683
ചലന	-10.8687
▁പെട്ടെന്നു	-10.8688
info	-10.8699
▁പിന്നില	-10.871
▁നിർണായക	-10.8716
▁മഹ്മൂദ	-10.8716
▁കന്നുകാലി	-10.8716
▁കോർപ്പറേഷന	-10.8716
▁മോഹൻലാൽ	-10.8716
ധാർമ്മിക	-10.8716
ശുദ്ധി	-10.8737
tive	-10.8738
▁പറയപ്പെടുന്ന	-10.875
▁ഖുർആൻ	-10.8757
▁ഗുജറാത്ത്	-10.8757
▁ചങ്ങനാശ്ശേരി	-10.8757
▁ധൂമകേതു	-10.8757
▁ഇടവേള	-10.8757
▁മികവ	-10.8767
സാങ്കേതിക	-10.8768
▁നിറത്തിലുള്ള	-10.8777
ാസുര	-10.8778
▁ആപ്ലിക്കേഷന	-10.8798
▁നിരീക്ഷിച്ച	-10.8798
▁വൈവിധ്യ	-10.8798
▁കൊടുമുടി	-10.8798
ഓടെ	-10.88
ങ്ങളുമുണ്ട്	-10.8803
▁രാജകുടുംബ	-10.8804
ban	-10.8807
▁മതപരമായ	-10.8807
ുയർത്തി	-10.8807
▁നേരിടുന്ന	-10.8826
ഗതാഗത	-10.8832
▁അധ്യക്ഷ	-10.8839
▁പ്രയാസ	-10.884
▁സന്ദർശക	-10.8841
വിവാഹ	-10.8842
ഭുജ	-10.8873
▁സ്ഥലനാമ	-10.8876
▁വിക്കിപീഡിയ	-10.888
▁സമ്പൂർണ്ണ	-10.888
▁രാജാക്കന്മാരുടെ	-10.888
▁പിടിച്ചടക്കി	-10.8881
▁കരിമ്പ	-10.8885
നൽക	-10.8906
▁സങ്കര	-10.891
▁ഉരുക്ക	-10.892
ുറപ്പിച്ച	-10.892
പൃഥ്വിരാജ	-10.8922
▁അപ്രത്യക്ഷ	-10.8922
▁ലഭ്യമല്ല	-10.8922
വൃക്ഷ	-10.8936
▁നിർണയിക്ക	-10.894
▁ആഗ്രഹിച്ച	-10.8947
▁നിർമ്മിക്കുന്നത	-10.8952
▁ആസിഡ	-10.8959
▁വിശിഷ്ട	-10.8963
▁വാസുദേവ	-10.8963
▁അണുബാധ	-10.8966
വൃത	-10.8967
▁ഉറക്ക	-10.8972
ിനെതിരേ	-10.8974
ലിഖിത	-10.8981
▁കീഴടക്ക	-10.8986
▁ഉടനെ	-10.899
▁വേറെ	-10.8991
ാവാം	-10.8992
ിലൊരാളായ	-10.9002
ാഭിഷേക	-10.9005
▁അധ്യാപക	-10.9005
▁ഗുരുവായൂര	-10.9005
▁നാട്ടുരാജ്യ	-10.9007
പരിപാലന	-10.9008
▁സ്വയംഭരണ	-10.9014
“	-10.9021
▁മാസ്റ്റർ	-10.9025
▁സീസണ	-10.9027
▁അനുയായികള	-10.9031
▁അഫ്ഗാനിസ്താനിലെ	-10.9047
▁ഫൈനലിൽ	-10.9047
▁ബിസിനസ്	-10.9047
▁റിച്ചാർഡ്	-10.9047
▁സന്നദ്ധ	-10.9047
▁പ്രേരിപ്പിച്ച	-10.9047
▁കൈവരിച്ച	-10.9049
▁ആന്തരിക	-10.9053
▁തീരപ്രദേശ	-10.9058
▁രഥ	-10.9058
▁ഭരിക്ക	-10.9068
▁കൂടുതലുള്ള	-10.9071
തമ്പുരാന	-10.9081
▁തെരഞ്ഞെടുത്ത	-10.9089
▁നാഗരികത	-10.9089
▁ആവിഷ്കരിച്ച	-10.909
▁വംശനാശ	-10.9092
▁ചൂണ്ട	-10.9096
▁വർഷത്തോളം	-10.9101
വിധേയ	-10.9111
ാനാവില്ല	-10.9112
▁ചുവടു	-10.912
▁ദുരിത	-10.9127
▁പാണ്ഡ്യ	-10.9132
▁പൊരുത്ത	-10.9132
▁ഇല്ലാതാക്ക	-10.9133
കളിലേക്കു	-10.9138
▁തിരുവല്ല	-10.9139
കളുമുണ്ട്	-10.9139
para	-10.9151
▁മില്ലി	-10.9157
▁സോഴ്	-10.9166
▁ഡിസംബറിൽ	-10.9174
▁നാദിർ	-10.9175
വാഹക	-10.9178
▁ഒന്നാമൻ	-10.9181
anda	-10.9184
പറഞ്ഞ	-10.9197
ture	-10.9197
ദക്ഷിണ	-10.9206
inter	-10.9215
▁കലാകാരന	-10.9231
▁ആചാര്യ	-10.9236
▁അറുപത	-10.924
▁ബന്ധിപ്പിച്ച	-10.9243
▁ചുരുങ്ങിയ	-10.9247
▁പര്യടന	-10.926
▁നേതാവായ	-10.9262
സങ്കേത	-10.928
▁ബ്ലൂ	-10.9282
▁ഇസ്രായേലി	-10.9293
മേനോന	-10.9295
പരവുമായ	-10.93
▁തണുത്ത	-10.9303
▁സ്കോട്ട്	-10.9304
ശീർഷ	-10.9304
▁സർക്കാറ	-10.9305
arch	-10.9314
ുടനീളം	-10.9315
▁നശിച്ച	-10.9315
രാജാവായ	-10.9317
കോടതി	-10.9327
que	-10.9328
▁ഓക്സൈഡ	-10.9332
▁കൂട്ടിച്ചേർക്ക	-10.9346
▁സ്ഥാനാർത്ഥി	-10.9348
▁പെണ്ണ	-10.9353
കാര്യങ്ങളിൽ	-10.9369
▁പിതാവായ	-10.9372
▁ഉഷ്ണമേഖലാ	-10.939
▁ഒട്ടനവധി	-10.939
▁വളരെയേറെ	-10.939
▁എബ്രായ	-10.939
▁മെച്ചപ്പെട്ട	-10.9391
▁അവളെ	-10.9393
▁ബ്രിട്ടീഷുകാര	-10.9396
▁രാജ്യാന്തര	-10.9399
കുറഞ്ഞ	-10.9401
ിപ്പോക	-10.9405
▁സമ്മതിച്ച	-10.9406
▁ഇതൊരു	-10.9407
▁സംഗീതജ്ഞ	-10.9409
കാലഘട്ടത്ത	-10.9411
പ്രശസ്ത	-10.9413
ബ്രഹ്മ	-10.9413
പോലുള്ള	-10.9416
▁വിശ്വാസികൾ	-10.9419
▁ജ്യേഷ്ഠ	-10.9434
▁ഉത്തരേന്ത്യ	-10.9434
▁വിമോചന	-10.9434
▁ന്യൂനപക്ഷ	-10.9434
▁ഉർദു	-10.9434
▁കൃഷ്ണപിള്ള	-10.9438
ിസ്ഥാൻ	-10.9473
▁ചൂണ്ടിക്കാട്ട	-10.9477
▁സ്റ്റുഡിയോ	-10.9477
▁ബൗദ്ധ	-10.9477
▁പ്രായപൂർത്തി	-10.9477
▁ഇലക്ട്രോൺ	-10.9477
▁മാതൃഭൂമി	-10.9478
▁പ്രത്യേകിച്ചും	-10.9479
▁അതോടൊപ്പം	-10.9484
▁നിശ്ചയിച്ച	-10.9484
ിരുന്നുവെങ്കിലും	-10.9484
▁ഉപാധി	-10.9485
ഴുത്ത	-10.9486
▁പുതുതായി	-10.9491
▁വളഞ്ഞ	-10.9507
▁നായകനായി	-10.9511
cher	-10.9513
▁ട്രസ്റ്റ	-10.9516
▁പുതുക്കി	-10.9516
▁ചരിത്രപരമായ	-10.9516
▁പരിശോധിക്ക	-10.9521
▁ചെയർമാൻ	-10.9521
▁കമ്മീഷന	-10.9521
▁രഞ്ജി	-10.9522
▁അന്തർദേശീയ	-10.9522
▁പ്രതിപാദിച്ച	-10.9522
▁ഒരുമിച്ച്	-10.9524
▁ജയിലില	-10.9524
▁പഞ്ചസാര	-10.9525
▁ആകർഷിച്ച	-10.9525
box	-10.9526
thumb	-10.9528
ചിഹ്ന	-10.9533
▁അനുയോജ്യ	-10.9556
▁സയൻസ	-10.9557
▁ശത്രുക്കള	-10.956
▁പതിനേഴാം	-10.9566
▁അമീർ	-10.9568
പേരൂർ	-10.9571
▁ഗ്രേറ്റ്	-10.9572
▁മനുഷ്യാവകാശ	-10.9572
▁എത്തിച്ച	-10.9574
▁അദ്ദേഹത്തിന	-10.9584
ാവതാര	-10.9584
cul	-10.9598
▁പ്രയോഗിച്ച	-10.9602
▁ഏർപ്പെട	-10.9603
international	-10.961
▁കൗൺസില	-10.961
ദൃഷ്ടി	-10.961
▁കായംകുള	-10.9611
▁ലൈസൻസ	-10.9611
ത്തിനിടെ	-10.9612
▁പാർശ്വ	-10.9614
പുഷ്പ	-10.9619
മാതൃക	-10.9624
▁ബോക്സ	-10.9627
▁ഉണങ്ങ	-10.9633
ഊ	-10.9636
അറബി	-10.9637
▁മറ്റുള്ളവർ	-10.964
▁റിസർച്ച്	-10.9655
▁ദരിദ്ര	-10.9655
▁സന്താന	-10.9656
ഒരേയൊരു	-10.9657
▁മലേഷ്യ	-10.9663
▁പ്രതിപക്ഷ	-10.9667
▁പബ്ലിക്	-10.967
▁കൊണ്ടുപോക	-10.9671
▁അയോണ	-10.9674
കുമാറ	-10.9686
സമ്മർദ	-10.9693
world	-10.97
▁പങ്കുവഹിച്ച	-10.97
▁ജാക്സൺ	-10.97
▁വിശകലനം	-10.9702
▁എഞ്ചിനീയറിംഗ്	-10.9702
▁പണിക്കർ	-10.9703
▁തീർന്ന	-10.9704
▁പരാമർശിച്ച	-10.9705
▁പരിശ്രമ	-10.9705
▁ഏക്കർ	-10.9715
▁അവസാനിപ്പിക്ക	-10.9723
▁കന്യാകുമാരി	-10.9745
▁പ്രൈമറി	-10.9745
▁പലായനം	-10.9745
▁നിയോഗിച്ച	-10.9746
▁ജൂലിയ	-10.9746
▁സമ്പർക്ക	-10.9748
▁തകർത്ത	-10.9752
സമ്പത്ത	-10.9761
▁രണ്ടാമത	-10.9771
നടപടി	-10.9772
സദസ്സ	-10.9775
മൊരുക്ക	-10.9783
▁നേതാക്കൾ	-10.979
▁പ്രചരിപ്പിക്ക	-10.979
▁ട്രോഫി	-10.979
▁പ്രക്ഷേപണ	-10.979
▁സങ്കീർണ	-10.979
▁ഏകദിന	-10.9797
ുണ്ടെങ്കിൽ	-10.982
▁കിലോഗ്രാം	-10.9835
▁അനവധി	-10.9835
ക്കെതിരേ	-10.9835
book	-10.9835
▁ഡിവിഷന	-10.9836
▁ചുറ്റപ്പെട്ട	-10.9838
▁കണക്കനുസരിച്ച്	-10.9839
▁അണുകേന്ദ്ര	-10.9842
▁പതിനാറാം	-10.9845
▁നിർദ്ദേശിക്ക	-10.9865
സഹോദര	-10.9866
▁കാന്തികക്ഷേത്ര	-10.9869
▁നസ്രാണി	-10.9881
▁കാഞ്ഞിര	-10.9881
▁ജലാശയ	-10.9886
വൈകല്യ	-10.9887
▁ഗ്നു	-10.9892
▁യവന	-10.9897
വ്യത്യാസ	-10.9903
സിനിമ	-10.9909
▁കടലാസ	-10.9917
▁അരങ്ങേറ്റം	-10.9927
▁ഓക്സിജൻ	-10.9927
▁തമോദ്വാര	-10.9927
▁പ്രേക്ഷക	-10.9927
▁പരിണമിച്ച	-10.9927
▁സുരേഷ്	-10.9927
▁സെൻസസ്	-10.9927
▁അലക്സാണ്ടറ	-10.9928
പ്പാദന	-10.9929
▁നവീന	-10.9935
▁സ്റ്റീവ	-10.9936
▁ശംഖ	-10.9942
ിട്ടുണ്ടെന്ന	-10.9951
വിതരണ	-10.996
സൂര്യ	-10.9966
▁എഞ്ചിനീയറ	-10.997
▁അദ്ധ്യാപകനായി	-10.9971
▁പയ്യന്നൂർ	-10.9973
▁അക്ഷാംശ	-10.9973
▁അസംബ്ലി	-10.9973
▁സൂപ്പർനോവ	-10.9973
▁ദിനോസ	-10.9975
▁വസ്തുക്കളുടെ	-10.9978
തുടങ്ങിയ	-10.998
▁നന്മ	-10.9984
▁നിർണ്ണയിക്ക	-10.9997
▁മണ്ടേല	-11.0019
▁രണ്ടാമത്തേത	-11.0019
▁സൂനഹദോസ	-11.0019
▁ഉൾക്കടല	-11.0019
▁മൽസര	-11.0019
▁രണ്ടാമന	-11.0021
▁അദ്ദേഹത്തിൻറെ	-11.0022
▁അസുര	-11.0022
▁കീഴടങ്ങ	-11.0024
▁നേത്ര	-11.0033
▁കൊള്ളുന്ന	-11.0037
വിലാസ	-11.005
film	-11.0053
മത്സര	-11.0053
▁തിരഞ്ഞെടുപ്പു	-11.0064
തരത്തിലുള്ള	-11.0065
▁മമ്മൂട്ടി	-11.0066
▁ലണ്ടൻ	-11.0066
പരീക്ഷ	-11.0068
▁ഇരുവരും	-11.0072
▁ദക്ഷിണാമൂർത്തി	-11.0113
▁തകർച്ച	-11.0113
▁ഭ്രമണപഥ	-11.0114
▁നിരോധിക്ക	-11.0115
trans	-11.0116
ുണ്ടോ	-11.012
ിട്ടുണ്ടെങ്കിലും	-11.012
കിലോമീറ്ററാണ്	-11.0139
pho	-11.0141
തുരുത്തി	-11.0147
template	-11.0159
▁ടൂർണമെന്റ	-11.0159
▁നമ്പ്യാർ	-11.016
▁ശേഷമുള്ള	-11.016
▁ശങ്കരാചാര്യ	-11.016
▁അന്റാർട്ടിക്ക	-11.0161
▁പെരുമാറ്റ	-11.0164
▁തത്ത്വശാസ്ത്ര	-11.0165
▁ബാലകൃഷ്ണ	-11.0166
▁നിലനിൽക്ക	-11.0178
▁ഉൾക്കൊണ്ട	-11.0188
മുൻപ്	-11.0197
▁ഒക്ടോബറിൽ	-11.0207
▁അജ്ഞാത	-11.0207
▁ക്യാപ്റ്റൻ	-11.0207
▁അത്യാവശ്യ	-11.0207
▁ബ്ലാക്ക്	-11.0207
▁സിംഹാസന	-11.0209
▁നിഷേധിക്ക	-11.0222
▁അർജ്ജുനൻ	-11.0254
▁നെബുല	-11.0254
▁ഒരിനം	-11.0254
▁നേരിടേണ്ടി	-11.0256
▁ലയിച്ച	-11.0262
▁ചരിവ	-11.0282
▁കയറ്റി	-11.0291
ിനുവേണ്ടി	-11.0292
ഷേക്സ്പിയ	-11.0302
▁കാലക്രമേണ	-11.0302
▁ഫിലിംഫെയർ	-11.0302
▁ബ്രിട്ടിഷ്	-11.0302
▁വെള്ളപ്പൊക്ക	-11.0302
▁അവസാനിപ്പിച്ച	-11.0302
▁വീടുകള	-11.032
▁പുള്ളി	-11.0329
ാബാദ്	-11.0334
▁കണ്ടെടുത്ത	-11.034
സൗകര്യ	-11.0341
▁വാഗ്ദാനം	-11.0349
▁അഫ്ഗാനിസ്താൻ	-11.035
രാഘവൻ	-11.035
▁അറബിക്കടല	-11.035
▁കിടക്ക	-11.0358
▁നിരാശ	-11.0363
▁പങ്കിടുന്ന	-11.0365
സ്റ്റൈൻ	-11.0366
▁നടത്തിവരുന്ന	-11.0387
▁ബാംഗ്ലൂർ	-11.0398
▁സങ്കൽപ്പ	-11.0398
▁വടകര	-11.0398
പഞ്ചായത്ത	-11.0399
▁ഗാനങ്ങൾക്ക	-11.0403
▁കമാൻഡ	-11.0406
▁ഏർപ്പെടുത്തിയ	-11.0411
▁ശാസ്ത്രജ്ഞർ	-11.0412
▁ബന്ധപ്പെടുത്തി	-11.0428
യോർക്ക	-11.0429
▁പ്രദർശിപ്പിച്ച	-11.0446
▁നോവലിസ്റ്റ	-11.0447
▁ശേഷവും	-11.0447
▁നാവികസേന	-11.0447
▁ദുർബല	-11.0449
▁ഏതൊരു	-11.0451
▁ജുമാ	-11.0455
▁പ്ലാസ്മ	-11.0462
▁മുഴുവന	-11.0466
▁അയിര	-11.0467
സിംഹ	-11.047
ഹൃദയ	-11.0488
▁യോജിച്ച	-11.0495
▁സൂചിപ്പിച്ച	-11.0495
▁മരണാനന്തര	-11.0497
▁ഖഗോള	-11.05
▁പടിഞ്ഞാറോട്ട	-11.0505
നക്ഷത്രരാശി	-11.0538
▁അസോസിയേഷൻ	-11.0543
▁ഡയറക്ടർ	-11.0543
▁വിഭിന്ന	-11.0543
▁തിയതി	-11.0544
▁ചന്ദന	-11.055
▁ശാസ്താ	-11.0551
▁ധീര	-11.0551
▁ഗാർഡ	-11.0573
സ്വാതന്ത്ര്യ	-11.0588
ചൈതന്യ	-11.0592
▁അഫ്ഗാൻ	-11.0592
▁തെരേസ	-11.0592
▁സയ്യിദ്	-11.0592
▁ഋഗ്വേദ	-11.0592
▁പേരുകേട്ട	-11.0592
▁പ്രതികൂല	-11.0592
▁മയ്യഴി	-11.0592
▁നിമിഷ	-11.0592
▁ബിഷപ്പ	-11.0596
▁വിധേയമാക്ക	-11.0603
ാനാവാത്ത	-11.0607
▁വേർതിരിച്ചെടു	-11.0614
ഡബ്ല്യു	-11.0641
ദ്വന്ദ്വ	-11.0641
▁ഡെമോക്രാറ്റിക്	-11.0641
▁തളിപ്പറമ്പ	-11.0642
▁പ്രൊഫസറ	-11.0644
▁പകൽ	-11.0648
നേതാവ	-11.0659
▁പതിക്കുന്ന	-11.0681
▁വർഗ്ഗീകരണ	-11.0686
▁ബാംഗ്ലൂര	-11.0691
▁തലച്ചോറ	-11.0691
▁ഉൽപ്പന്ന	-11.0691
▁മാർച്ചിൽ	-11.0695
▁സന്ധ്യ	-11.0696
▁language	-11.0741
▁നിർണ്ണായക	-11.0741
▁പുരോഗമന	-11.0741
▁സമകാലിക	-11.0741
▁കണക്കുകൂട്ട	-11.0741
ology	-11.0741
▁ഒഴിച്ചു	-11.0741
▁തുടക്കമിട്ട	-11.0741
▁ചുറ്റുപാട	-11.0743
▁ആവരണ	-11.0747
ോയ്ഡ്	-11.0753
▁ലക്ഷ്യമാക്കി	-11.0753
വന്നിരുന്ന	-11.0754
ign	-11.0758
▁ചാർജ	-11.0777
വ്യവസായ	-11.0789
▁അഭിവൃദ്ധി	-11.0791
▁ചിത്രശലഭ	-11.0791
▁സെൻട്രൽ	-11.0791
▁പിന്നാലെ	-11.0791
▁ആരാധിച്ച	-11.0794
▁ലെൻസ	-11.0804
ബോർഡ	-11.0807
▁താഴേക്ക	-11.082
ുണ്ടായിരിക്കും	-11.0839
ഇലക്ട്രോ	-11.0839
ഇന്നത്തെ	-11.084
▁താൽക്കാലിക	-11.0841
▁ഇറക്കുമതി	-11.0841
▁ഓറഞ്ച്	-11.0841
മീമാംസ	-11.0842
▁പരുത്തി	-11.0842
▁വേണു	-11.0843
▁നീണ്ടുനിന്ന	-11.0844
▁അരുവി	-11.0844
ിലൊരാള	-11.0845
ഷനുകൾ	-11.0852
▁രചിക്ക	-11.088
സംരക്ഷണ	-11.0891
qua	-11.0891
▁കൊടുങ്ങല്ലൂര	-11.0892
▁നാടുവാഴി	-11.0892
▁കൂട്ടക്കൊല	-11.0892
▁ദ്വിതീയ	-11.0892
▁കുറ്റവാളി	-11.0892
▁പീഡന	-11.0892
▁അതീവ	-11.0893
▁പിടിച്ചെടുക്ക	-11.0898
കളെക്കുറിച്ച്	-11.0923
▁temple	-11.0942
▁കാലാവധി	-11.0942
▁അഭ്യസിച്ച	-11.0942
▁ആന്റണി	-11.0942
▁തികഞ്ഞ	-11.0943
▁ആരോപിക്ക	-11.0943
▁യുണിക്സ	-11.0943
▁മാനേജ്മെന്റ	-11.0943
▁ഡയറക്	-11.0944
▁സച്ചിൻ	-11.0944
="116	-11.0947
സ്നേഹ	-11.0948
▁പോവുക	-11.0963
▁വർദ്ധിച്ച	-11.0992
ാന്വേഷണ	-11.0993
▁രൂപവത്കരിക്ക	-11.0993
▁ഋഷി	-11.0993
▁യോജിപ്പ	-11.0994
▁വസന്ത	-11.0994
▁ഗരുഡ	-11.0994
▁ട്യൂബ	-11.1009
നിശ്ചയ	-11.1023
ശുശ്രൂഷ	-11.1045
▁ആവിർഭാവ	-11.1045
▁ഉപയോക്താവ	-11.1045
▁പ്രസ്താവന	-11.1045
▁വിൻസെൻറ	-11.1045
▁ബ്രാഡ്മാന	-11.1045
▁ഔഷധയോഗ്യ	-11.1047
▁കുടിയേറിയ	-11.1047
▁ആലപിച്ച	-11.1048
▁മദ്ധ്യേഷ്യ	-11.105
▁എന്നിവിടങ്ങള	-11.1052
ബാഷ്പ	-11.1059
ിസ്താൻ	-11.1066
▁ഉദ്യോഗ	-11.1096
▁ശുപാർശ	-11.1096
നിരീക്ഷക	-11.1096
▁അകമ്പടി	-11.1096
▁മുന്നോട്ട്	-11.1096
▁ഹജ്ജ്	-11.1096
▁വെങ്കല	-11.1096
▁ഡയറക്ടറ	-11.1097
▁പിറവി	-11.1097
▁പോളണ്ട	-11.1098
▁പോരാളി	-11.1099
kumar	-11.1099
▁കാളിദാസ	-11.1099
▁കല്പിച്ച	-11.1102
▁കൈലാസ	-11.1106
▁ഗ്രീക്	-11.1106
ൊഴികെ	-11.1115
▁നേതൃ	-11.1133
ജീവിതകാലം	-11.1137
▁അക്കൗണ്ട	-11.1148
▁ഇന്തോനേഷ്യ	-11.1148
▁മംഗോളിയ	-11.1148
▁മത്സ്യബന്ധന	-11.1148
ൊഴുകുന്ന	-11.1148
▁മഹത്തായ	-11.1148
▁സൂര്യപ്രകാശ	-11.115
▁അധികാരത്തിലെത്ത	-11.1161
▁നവരാത്രി	-11.12
▁പ്രവണത	-11.12
▁തൃശ്ശൂര	-11.12
ഭൂഷൺ	-11.12
▁എന്നർത്ഥമുള്ള	-11.12
▁ജന്മദിന	-11.1205
▁ആവർത്തിച്ച	-11.1205
ക്രിസ്തു	-11.1205
ഭൂമിശാസ്ത്രപരമായ	-11.1208
▁മറ്റെല്ലാ	-11.1213
ുകയുള്ളു	-11.1218
ശബ്ദ	-11.1222
ദൃശ്യ	-11.1236
സ്നാന	-11.124
▁വൈരുദ്ധ്യ	-11.1252
▁മില്യൺ	-11.1252
▁താൽപര്യ	-11.1252
▁ആംഗ്ലോ	-11.1252
▁മനോരമ	-11.1253
▁നിരോധന	-11.1253
▁ജ്യോതിർ	-11.1254
▁ബാല്യകാല	-11.1254
ഭൗതിക	-11.1257
▁ദിവാൻ	-11.1258
▁കനാല	-11.1262
iii	-11.1266
കന്യക	-11.127
നിഷേധ	-11.1277
▁പിന്മാറ	-11.128
▁അന്വേഷിച്ച	-11.1305
▁അപ്പസ്തോല	-11.1305
▁പണികഴിപ്പിച്ച	-11.1305
▁മാതാപിതാക്കള	-11.1305
▁നിർവചിക്ക	-11.1305
▁ഹുസൈൻ	-11.1305
▁സമൃദ്ധമായ	-11.1306
സാഹിബ്	-11.1307
▁കൂടിച്ചേർന്ന	-11.1307
▁കൂടുതലായും	-11.1308
ജന്മ	-11.1309
▁ട്രാൻസ	-11.1314
▁രാവണന	-11.1339
പാണി	-11.1342
▁കന്ദഹാറ	-11.1358
▁ഗലീലിയോ	-11.1358
▁ട്രെയിന	-11.1358
▁തെലുഗു	-11.1358
▁നിത്യഹരിത	-11.1358
▁പൗരാണിക	-11.1358
▁വകലാശാല	-11.1358
▁എമിറേറ്റ	-11.1358
▁മെമ്മറി	-11.1358
▁മന്ത്രാലയ	-11.1361
നിയന്ത്രണ	-11.1362
▁അണ്ണാ	-11.1395
▁ഒരുമിച്ചു	-11.141
▁കരുണാകര	-11.1411
▁വിഖ്യാത	-11.1411
ition	-11.1412
▁ഗവർണറ	-11.1412
▁തപസ്സ	-11.1413
▁അമ്പലപ്പുഴ	-11.1414
qui	-11.1417
ൻ്റ്	-11.1418
▁വടക്കോട്ട	-11.143
▁ഗ്രാഫിക്	-11.1446
▁അനേക	-11.1461
▁സെന്റീമീറ്റർ	-11.1465
▁ലാന്റിക്	-11.1465
▁പ്രഭാവം	-11.1466
▁നശിപ്പിച്ച	-11.1466
▁രാക്ഷസ	-11.1466
ലക്ഷ്യ	-11.148
പ്രസാധക	-11.1483
▁ജവഹർലാൽ	-11.1518
▁പത്തൊമ്പതാം	-11.1518
▁ജൂണിൽ	-11.1518
▁ഖനനം	-11.1519
▁മൾട്ടി	-11.1519
▁ആരോപിച്ച	-11.1519
▁അവശേഷിക്കുന്ന	-11.1519
▁തകരാറ	-11.152
▁രാഹു	-11.1522
ധ്വനി	-11.1522
ക്കുറിപ്പ	-11.1525
▁system	-11.1572
▁വിസമ്മതിച്ച	-11.1574
▁നിയോഗിക്ക	-11.1576
ഹിന്ദി	-11.1578
▁ഹദീസ	-11.1582
ound	-11.1582
▁വ്യാപിക്ക	-11.1583
▁അതുകൊണ്ടുതന്നെ	-11.1627
▁പരിശോധിച്ച	-11.1627
▁സ്റ്റാൻഡേർഡ	-11.1627
▁പട്ടാമ്പി	-11.1627
▁ജോൺസന്റെ	-11.1627
▁ശ്രുതി	-11.1627
▁പ്രഭാത	-11.1628
▁തറവാട്ട	-11.1628
▁വികസിക്ക	-11.1628
മുകുന്ദ	-11.1628
വ്യക്തി	-11.1638
▁പിന്തുടര	-11.1646
വാസികള	-11.1673
▁കരുതിയിരുന്ന	-11.1677
▁ശ്രീകോവിൽ	-11.1681
▁കടൽത്തീര	-11.1681
▁അവിടുത്തെ	-11.1682
▁പോഷകനദി	-11.1682
▁സാഹിത്യകാരന	-11.1683
പിന്നീട്	-11.1694
▁ആന്തര	-11.1699
▁മാരക	-11.1703
ക്കടുത്തുള്ള	-11.1711
▁റേഡിയ	-11.1716
▁ഉല്പാദിപ്പിക്ക	-11.1736
▁നവംബറിൽ	-11.1736
▁ബാക്ടീരിയ	-11.1736
▁ടൂറിസം	-11.1736
▁ലണ്ടനിലെ	-11.1736
▁മഹാസമുദ്ര	-11.1736
▁മൗലവി	-11.1736
▁കൈമാറ്റം	-11.1737
▁സൈക്കിള	-11.1737
▁എക്സ്പ്രസ്	-11.1737
▁നേപ്പാള	-11.1737
▁പ്രസിഡൻറ	-11.1737
സ്ക്രിപ്റ്റ	-11.174
▁ഉപയോഗിച്ചുവര	-11.1748
▁അഗസ്ത്യ	-11.1792
▁ഫ്ലോറിഡ	-11.1792
▁ഇതിവൃത്ത	-11.1792
▁മലയോര	-11.1792
▁കാർബണ	-11.1792
▁ബലിക്കല്ല	-11.1793
▁ഓറിയന്റ	-11.1793
▁ചാനൽ	-11.1796
▁comp	-11.1799
സമ്മേളന	-11.1806
▁പുകയില	-11.1811
▁പ്യൂ	-11.1813
▁സർവ്വീസ	-11.1829
▁ആംഗലേയ	-11.1841
▁രക്തസാക്ഷി	-11.1847
▁ഫിലിപ്പീൻസ	-11.1848
▁തോൽപ്പിച്ച	-11.1848
▁ഏർപ്പെടുത്ത	-11.1848
പടയാളി	-11.1857
ൻഷ്യൽ	-11.1859
▁പിടികൂട	-11.1876
▁കഴക	-11.1894
▁തൊടുപുഴ	-11.1903
▁പ്രതിനിധാനം	-11.1903
▁ഫാക്ടറി	-11.1903
▁നടനുള്ള	-11.1903
▁ഹൃദയാഘാത	-11.1904
▁മെഡൽ	-11.1904
▁സെർവറ	-11.1909
▁ചുരുങ്ങ	-11.1923
ോദര	-11.1933
▁നശിക്ക	-11.194
constellation	-11.1959
▁യോഹന്നാൻ	-11.1959
▁അഖിലേന്ത്യാ	-11.1959
▁നിമിത്തം	-11.1959
▁ക്ഷത്രിയ	-11.1959
▁ദൃഢ	-11.1959
▁അഗാധ	-11.1959
▁തർജ്ജമ	-11.1959
സോഷ്യലിസ	-11.1962
▁പഞ്ചായത്തുകള	-11.1977
▁അക്കാലത്ത	-11.1995
▁ചിത്രകാരന	-11.2
ോക്സി	-11.2005
▁ഇസ്രായേൽ	-11.2016
▁ഗീബൽസ	-11.2016
▁നിയോജകമണ്ഡല	-11.2016
▁സൈദ്ധാന്തിക	-11.2016
▁അർജുന	-11.2016
▁ശ്വസന	-11.2016
▁നരേന്ദ്ര	-11.2016
▁ഉപജീവന	-11.2016
▁അലങ്കരിച്ച	-11.2016
▁പ്രബോധന	-11.2016
▁കല്പിക്ക	-11.2032
▁പെരിയാറ	-11.2038
▁പഞ്ചായത്തില	-11.2039
വിശകലന	-11.207
▁ബാക്റ്റീരിയ	-11.2072
color	-11.2073
▁സാമന്ത	-11.2073
▁നിലവിലെ	-11.2073
▁അഭിനേതാവ	-11.2074
▁പേറ്റന്റ	-11.2074
▁ശങ്കർ	-11.2075
▁തനതായ	-11.208
ാഖ്യാന	-11.208
വിദഗ്ദ്ധ	-11.2091
▁ധാരാളമ	-11.2111
▁കുറ്റകൃത്യ	-11.213
▁നാടുകടത്ത	-11.213
▁കൊളംബിയ	-11.213
▁പ്രമേഹ	-11.213
▁ജമാഅത്ത	-11.213
▁സുലഭ	-11.213
പ്രിൻസിപ്പ	-11.2134
ുന്നതില	-11.2169
▁വ്യാപിച്ചുകിട	-11.217
▁അഗ്നിപർവത	-11.2187
▁ബ്രാഡ്മാൻ	-11.2187
▁പാർവതി	-11.2187
▁സോഡിയം	-11.2187
▁നാടകകൃത്ത	-11.2188
▁ബ്രസീല	-11.2188
▁യമുന	-11.2191
▁ശർമ്മ	-11.2191
▁അയാളെ	-11.22
ുതുടങ്ങി	-11.2213
▁കന്നട	-11.2236
ച്ചേർന്ന	-11.2245
▁ആചരിച്ച	-11.2245
▁വഴിത്തിരിവ	-11.2245
▁ഋതു	-11.2245
▁അധ്യായ	-11.2245
▁പ്രദാനം	-11.2246
▁ആവേശ	-11.2246
▁അനുഷ്ഠിക്ക	-11.2247
ോക്സൈഡ	-11.2263
▁പുലർത്തിയിരുന്ന	-11.2264
സന്ദേശ	-11.2267
point	-11.2297
എന്നിവരായിരുന്നു	-11.2301
▁പ്രസ്താവിച്ച	-11.2303
▁ചൂഷണ	-11.2303
▁ലായനി	-11.2304
▁ഗായകന	-11.2314
ഗവേഷണ	-11.2326
▁വർത്തിക്കുന്ന	-11.2338
idae	-11.2339
വികാസ	-11.2346
▁writer	-11.2362
▁അഗസ്തീനോസ	-11.2362
ാടിസ്ഥാനത്തിൽ	-11.2362
▁യൂണിവേഴ്	-11.2362
▁ജഡ്ജി	-11.2362
▁ശിരസ്സ	-11.2362
▁സാധ്യമല്ല	-11.2362
▁നിയന്ത്രിച്ച	-11.2363
▁ചെലവഴിച്ച	-11.2363
തോതിലുള്ള	-11.2364
▁മുഖേന	-11.2364
▁നിർത്തലാക്ക	-11.2364
ശ്ലേഷ	-11.2418
▁അങ്കമാലി	-11.242
▁വയസ്സുള്ളപ്പോൾ	-11.242
▁കേംബ്രി	-11.242
▁ആർട്സ്	-11.2421
▁അസ്തിത്വ	-11.2421
▁ക്ഷീര	-11.2421
▁അധികാരമേറ്റ	-11.2421
▁ഉദര	-11.2422
▁ഓക്സിജന	-11.2426
വിരല	-11.2434
▁സെനറ്റ	-11.2437
▁കിണറ	-11.2439
ിനോടനുബന്ധിച്ച	-11.2443
സ്ഥാപിക്കപ്പെട്ട	-11.2444
▁പ്രചാരത്തിലുണ്ട	-11.2452
▁ഔപചാരിക	-11.248
▁പടയണി	-11.248
▁ട്രേഡ്	-11.248
▁പൊതിഞ്ഞ	-11.248
▁സാധ്യമാക്ക	-11.248
▁സെക്കൻഡ	-11.2481
▁എതിരായ	-11.2485
െപ്പോലുള്ള	-11.2513
▁മൂന്നാമത	-11.2528
▁ഉപയോക്താക്കൾ	-11.2539
▁പ്രഖ്യാത	-11.2539
▁രാവണൻ	-11.2539
▁വഴിപാടുകൾ	-11.2539
▁ടോളമി	-11.2539
ചാമുണ്ഡി	-11.254
▁ഭാഗികമായി	-11.254
▁മത്തായി	-11.2542
▁പരേത	-11.2554
▁സെന്ററ	-11.2565
▁പത്രോസ	-11.258
ആമത്തെ	-11.258
▁അലൂമിനിയ	-11.2599
▁ജനസാന്ദ്രത	-11.2599
▁ദാമോദരൻ	-11.2599
▁മുനിസിപ്പൽ	-11.2599
▁മൂവാറ്റുപുഴ	-11.2599
▁ബ്യൂറോ	-11.2599
▁park	-11.2599
▁നീരാവി	-11.26
▁നിക്കോള	-11.2601
▁പരാമർശിക്കപ്പെട	-11.2604
▁പതിമൂന്നാം	-11.2659
▁പ്രീമിയർ	-11.2659
▁ആന്ധ്രാപ്രദേശ	-11.2659
▁കാഫ്ക	-11.266
▁ഉറങ്ങ	-11.267
▁മാത്യു	-11.2702
ാഗ്നി	-11.2713
▁ആറന്മുള	-11.272
▁ഏപ്രിലിൽ	-11.272
▁സിംഗപ്പൂർ	-11.272
▁മാന്ത്രിക	-11.272
▁പ്രേരണ	-11.272
▁സംഗീതസംവിധാനം	-11.272
▁രാജകീയ	-11.272
▁നിബന്ധന	-11.272
▁ഇമെയിൽ	-11.272
▁നാല്പത	-11.2721
▁ജമ്മു	-11.2723
▁റോക്കറ്റ	-11.2737
നിരീക്ഷണ	-11.275
വികസന	-11.2751
▁ഒറീസ	-11.278
▁ഫെഡറൽ	-11.2781
▁ആഖ്യാന	-11.2781
▁ശമ്പള	-11.2782
▁ധാതുക്കള	-11.2835
properties	-11.2842
▁കാനേഷുമാരി	-11.2842
▁പുറപ്പെടുവിച്ച	-11.2842
▁ഹ്യൂസ്റ്റൺ	-11.2842
▁ജന്തുക്കള	-11.2861
▁കൊതുക	-11.2864
▁അറ്റ്ലാന്റിക്	-11.2904
feature	-11.2904
▁വിധായകന	-11.2904
▁മ്യൂസിക്	-11.2905
▁ചെയർമാനായ	-11.2906
ബന്ധിച്ചിടത്തോളം	-11.2907
▁ഓഡിയോ	-11.2912
▁ആവർത്തിക്ക	-11.292
ബ്രിട്ടീഷുകാരുടെ	-11.2957
▁സെപ്തംബർ	-11.2966
▁അതിലധികമ	-11.2966
▁ചിലയിടങ്ങളിൽ	-11.2966
▁മാദ്ധ്യമ	-11.2966
▁river	-11.2966
▁വെളുപ്പ	-11.2966
▁മനഃശാസ്ത്ര	-11.2967
ാഞ്ജലി	-11.2967
▁ആഥൻസ	-11.2968
▁ലയിക്ക	-11.2979
▁പുനർനാമകരണം	-11.3028
john	-11.3028
▁അഗ്നിപർവ്വത	-11.3028
▁നാമനിർദ്ദേശം	-11.3028
▁പടയോട്ട	-11.3029
▁വർധിച്ച	-11.3029
▁മഹത്ത്വ	-11.303
സംബന്ധിയായ	-11.303
ാലങ്കാര	-11.3031
▁പൌര	-11.3031
▁വേറിട്ട	-11.3036
▁എറണാകുള	-11.3049
വല്ലഭ	-11.305
നൃത്ത	-11.3074
▁സമ്മതിക്ക	-11.3076
സ്റ്റുട്ട്ഗാർട്ട	-11.3091
▁അക്വീനാസ	-11.3091
▁ഇംഗ്ളീഷ	-11.3091
▁സിംഗപ്പൂര	-11.3091
▁ഭഗവദ്	-11.3091
▁പരിഗണന	-11.3092
▁പ്രതിജനക	-11.3092
▁മാർട്ടിൻ	-11.3092
▁വിദ്യാർഥി	-11.3092
▁ആവശ്യകത	-11.3094
▁ശ്വേത	-11.3095
▁ഹോട്ടല	-11.3112
െടുക്കാന	-11.3118
▁ആഭിമുഖ്യ	-11.3155
▁ഛിന്നഗ്രഹ	-11.3155
▁വാർത്താവിനിമയ	-11.3155
▁സെഞ്ച്വറി	-11.3155
▁എത്യോപ്യ	-11.3155
▁മിഷനറി	-11.3155
▁അന്വേഷിക്ക	-11.3155
▁ആവർത്തനപ്പട്ടിക	-11.3155
▁നേടിക്കൊടുത്തു	-11.3155
▁വികസിത	-11.3155
▁കൊറോണ	-11.3155
▁വഴക്ക	-11.3172
▁ഇന്റർനെറ്റ	-11.318
സമുദായ	-11.3194
മേലുള്ള	-11.3206
ോപനിഷത്ത	-11.3218
പ്രൊട്ടസ്റ്റന്റ്	-11.3218
▁ഉല്പാദന	-11.3218
▁ഗെവാറ	-11.3218
▁ആട്ടക്കഥ	-11.3218
▁മോട്ടോർ	-11.3218
▁ചാക്യാർ	-11.3218
▁മെഷീൻ	-11.3218
▁സ്പേസ്	-11.3219
▁ഹനുമാന	-11.3219
▁ഗ്ലോബ	-11.3228
▁ഇമേജ	-11.3229
ത്തിനായുള്ള	-11.3239
സമേത	-11.3276
▁ഭൌതിക	-11.3282
▁ഭൂഗർഭ	-11.3282
▁മഹാത്മാഗാന്ധി	-11.3282
▁ഈജിപ്റ്റ	-11.3283
▁പവിത്ര	-11.3283
▁ഒതുങ്ങി	-11.3284
▁പടർന്നു	-11.3284
▁വജ്ര	-11.3285
▁നൂതന	-11.3285
തിനാവശ്യമായ	-11.3288
▁സങ്കീർണ്ണമായ	-11.3289
▁കൂട്ടിയിടി	-11.3293
▁നില്ക്കുന്ന	-11.3318
▁ശുഭ	-11.3322
▁ഈജിപ്ഷ്യൻ	-11.3347
▁ചെങ്ങന്നൂർ	-11.3347
▁നാശനഷ്ട	-11.3347
▁ഗെയിമ	-11.3347
▁ഉല്പത്തി	-11.3347
▁മലനിരകൾ	-11.3347
▁പിരിച്ചുവിട	-11.3348
▁ഡെൽറ്റ	-11.3353
വാര്യർ	-11.3361
ിലേക്കെത്ത	-11.3362
▁ജനറല	-11.3365
▁ആതിഥേയ	-11.3412
▁ഇന്ദിരാഗാന്ധി	-11.3412
▁ഗൂഢാലോചന	-11.3412
▁ന്യൂട്രിനോ	-11.3412
▁പാത്രിയർക്കീസ	-11.3412
▁യൂക്ലിഡ	-11.3412
▁ലോകമെമ്പാടും	-11.3412
▁വൈകുന്നേര	-11.3412
▁വൻതോതിൽ	-11.3412
▁ലൂഥർ	-11.3412
▁ബ്രസീൽ	-11.3412
▁രാജസ്ഥാൻ	-11.3412
▁മെത്രാൻ	-11.3412
▁വൃക്ക	-11.3412
ഭ്രംശ	-11.3413
▁ബ്ലെയ്ക്ക	-11.3413
സംസ്കരണ	-11.3417
▁ചാവേസ	-11.3436
ുന്നവരുണ്ട്	-11.3463
geometry	-11.3477
▁ആനുകാലിക	-11.3477
▁തിമിംഗില	-11.3477
▁ഭാഗത്തായി	-11.348
ാദ്രി	-11.3515
ഔ	-11.3523
▁മുഖ്യധാരാ	-11.3539
▁തറവാട	-11.3542
ത്തോടനുബന്ധിച്ച	-11.3543
ുന്തോറും	-11.3543
▁റവന്യൂ	-11.3543
ാരോഹണ	-11.3543
▁വിഭാവനം	-11.3543
▁ഉണ്ടെങ്കിലും	-11.3543
പാർവ്വതീ	-11.3543
▁റസ്സൽ	-11.3543
▁കൽക്കരി	-11.3544
▁വസതി	-11.3544
പ്രയത്ന	-11.3545
നിർദ്ദേശ	-11.3551
ദാഹരണമാണ്	-11.3586
ീജിയ	-11.3587
▁മുപ്പത്തി	-11.3607
വിവരക്കണക്കുകൾ	-11.3609
▁കാതോലിക്ക	-11.3609
▁തരംഗദൈർഘ്യ	-11.3609
▁സാഹസിക	-11.3609
▁ദുറാനി	-11.3609
▁ലൂഥറ	-11.3611
▁നിശിത	-11.3612
വിശ്ലേഷണ	-11.3613
വെങ്കിട	-11.3614
▁അമ്മാവന	-11.3614
▁ചോദിക്ക	-11.3618
ാകാശ	-11.3627
ൊഴിയ	-11.3646
നൂറ്റാണ്ട	-11.3654
മുഹമ്മദ്	-11.3657
വിപ്ലവ	-11.3658
▁മുഴുകി	-11.3666
▁ഓൺലൈൻ	-11.3676
▁ഡാർവിൻ	-11.3676
▁മെഡിറ്ററേനിയൻ	-11.3676
▁സെപ്റ്റംബറിൽ	-11.3676
▁യോഹന്നാന	-11.3676
▁സംപ്രേഷണം	-11.3676
▁അവശേഷിച്ച	-11.3677
krishna	-11.3743
▁വൃശ്ചിക	-11.3743
▁വിക്ടോറിയ	-11.3743
▁ഡുറാന്റ	-11.3743
▁വഴിയൊരുക്ക	-11.3743
▁കമ്യൂണിസ	-11.3743
ാഭിനയ	-11.3743
▁തടവിലാക്ക	-11.3743
▁സ്വന്തമായ	-11.3744
▁നിലവിലിരുന്ന	-11.3744
▁പൊട്ടിപ്പുറപ്പ	-11.3745
▁ബന്ധുക്കള	-11.3757
▁തരംതിരിക്ക	-11.3764
ഏപ്രിൽ	-11.3794
വൈദഗ്ദ്ധ്യ	-11.3811
▁ഉപജ്ഞാതാവ	-11.3811
▁ഞായറാഴ്ച	-11.3811
▁പശ്ചാത്തലസംഗീതം	-11.3811
▁തേനീച്ച	-11.3811
നിർദ്ധാരണ	-11.3811
▁തുരങ്ക	-11.3811
▁അരവിന്ദ	-11.3811
വൽക്കരിക്ക	-11.3813
പ്രേഷണ	-11.3814
▁പ്രവർത്തനമാരംഭി	-11.3822
സോഫ്റ്റ്	-11.3835
ചലച്ചിത്ര	-11.3843
port	-11.3844
പ്രകടന	-11.3863
title	-11.3863
ുറപ്പിക്ക	-11.3878
▁ട്വന്റി	-11.3879
symbol	-11.3879
▁വെള്ളിയാഴ്ച	-11.3879
▁അഴീക്കോട	-11.3879
▁ഊർജ	-11.388
മലിനീകരണ	-11.3881
▁ആയുസ്സ	-11.3888
ുന്നതിനുവേണ്ടി	-11.3889
ുപയോഗിക്ക	-11.3919
▁പെരിന്തൽമണ്ണ	-11.3947
▁ദാവൂദ	-11.3947
▁പീരങ്കി	-11.3947
▁ലണ്ടനിൽ	-11.3947
കശേരുക	-11.3947
▁ദേശാടന	-11.3947
▁മാലിന്യ	-11.3947
▁വക്താവ	-11.3947
▁കൽക്കട്ട	-11.3948
നരവംശശാസ്ത്ര	-11.3948
▁അത്യന്ത	-11.3948
▁കണ്ടുമുട്ടി	-11.3955
പ്രത്യക്ഷപ്പെട്ട	-11.3971
▁രാധാകൃഷ്ണ	-11.4016
▁സഹസ്രാബ്ദ	-11.4016
▁വർധിപ്പിക്ക	-11.4016
▁പരിഷ്കരിച്ച	-11.4016
▁പ്രേരിപ്പിക്ക	-11.4016
▁ഒരൊറ്റ	-11.4016
▁മേൽക്കൂര	-11.4016
▁വിറ്റ്ജൻ	-11.4016
▁സോഷ്യൽ	-11.4016
▁ഹിന്ദുസ്ഥാനി	-11.4016
▁വരാഹ	-11.4023
മാധ്യമ	-11.4023
ാഭ്യാസ	-11.4027
▁സസ്തനികള	-11.4028
▁സിഗ്നല	-11.403
▁ഹൈഡ്രജന	-11.4054
അലങ്കാരം	-11.4079
അദ്ദേഹത്ത	-11.4081
▁വിദഗ്	-11.4084
▁കോൺക്രീറ്റ	-11.4086
▁ഭട്ടതിരി	-11.4086
▁നെപോളിയന	-11.4086
▁പതിറ്റാണ്ട	-11.4086
▁ഭഗവാന്റെ	-11.4086
▁ഗാന്ധാര	-11.4086
▁ദമ്പതികള	-11.4086
▁എഞ്ചിൻ	-11.409
▁സാധ്യമായ	-11.4093
ത്തുടങ്ങി	-11.4129
▁പ്രഗല്ഭ	-11.4155
▁അരിസ്റ്റോട്ടില	-11.4155
▁പര്യാപ്ത	-11.4155
▁സർക്യൂട്ട	-11.4155
▁ശതവാഹന	-11.4155
▁പരിപാലിക്ക	-11.4157
▁ഗൗതമ	-11.4162
പതിനേഴ	-11.4172
▁അൻപത	-11.4174
▁വിസ്തൃത	-11.418
വിശ്വാസികള	-11.418
▁അറസ്റ്റു	-11.418
തിനുശേഷമ	-11.4183
സാന്നിദ്ധ്യ	-11.4215
സാംസ്കാരിക	-11.4215
▁അനിവാര്യ	-11.4226
▁കാശ്മീർ	-11.4226
▁പ്രചരിപ്പിച്ച	-11.4226
▁സമകാലീന	-11.4226
നിർവഹണ	-11.4226
▁പൈത്തൺ	-11.4226
{	-11.5433
<	-12.9571
