<unk>	0
<s>	0
</s>	0
.	-2.91568
,	-4.12833
ം	-4.33495
▁	-4.34758
="	-4.50658
്	-4.57622
doc	-4.85902
>	-4.86206
"	-4.88884
ു	-5.29228
d	-5.35689
▁ഒരു	-5.36614
ൽ	-5.44524
/	-5.46092
▁ഈ	-5.4968
▁(	-5.50303
#	-5.50445
▁#	-5.53228
?	-5.54053
://	-5.54257
org	-5.54547
wiki	-5.54914
ml	-5.55066
▁<	-5.55097
https	-5.55113
wikipedia	-5.5514
▁id	-5.55406
curi	-5.55463
▁url	-5.55514
▁categories	-5.55517
▁title	-5.55518
▁</	-5.55947
)	-5.58336
=""	-5.59244
ൻ	-5.63953
▁എന്ന	-5.67611
ങ്ങൾ	-5.73358
-	-5.75261
ത്	-5.84345
യുടെ	-5.8504
ത്തിൽ	-5.88452
യിൽ	-5.93247
ി	-5.95325
സ്	-5.96719
യും	-5.97062
വും	-5.9766
ും	-6.00207
ാ	-6.07219
ർ	-6.07626
ത്തിന്റെ	-6.15017
ിൽ	-6.1644
▁"	-6.16495
മ	-6.23641
കൾ	-6.24081
ത	-6.25812
യ	-6.26076
മാണ്	-6.29652
മായ	-6.34044
ക	-6.34869
വ	-6.35639
ന	-6.39818
ിന്റെ	-6.44651
ക്ക്	-6.44683
ാൻ	-6.45548
▁അ	-6.47132
ാണ്	-6.5348
മായി	-6.53884
ത്തെ	-6.58039
▁ആ	-6.58352
ക്ക	-6.59071
യാണ്	-6.62789
െ	-6.68264
ങ്ങളും	-6.68401
ുന്നു	-6.69124
ര	-6.69903
=	-6.70085
▁.	-6.72204
യെ	-6.73171
യിലെ	-6.76464
ല	-6.76716
സ	-6.77901
ുകയും	-6.7801
ങ്ങളിൽ	-6.78229
ുന്ന	-6.78332
സി	-6.78733
ുകൾ	-6.79956
:	-6.82827
▁അദ്ദേഹം	-6.84376
▁ആണ്	-6.85912
റ	-6.88667
ത്ത	-6.90561
ക്	-6.91991
▁ഇത്	-6.93455
ത്തിന്	-6.94662
ന്റെ	-6.96738
ന്	-6.97
▁പ്രധാന	-6.98202
ിലെ	-6.99431
▁ചെയ്തു	-7.00545
▁ഏറ്റവും	-7.03826
▁നിന്ന്	-7.05269
ങ്ങളുടെ	-7.06317
▁തന്നെ	-7.07659
▁നിന്നും	-7.09022
ത്തിലെ	-7.0927
ോ	-7.10509
വി	-7.11211
ായി	-7.13045
=1	-7.13702
(	-7.13998
;	-7.14536
അ	-7.19271
s	-7.19358
ണ	-7.19552
കളും	-7.21719
▁എന്നാൽ	-7.23157
▁വി	-7.23542
ുക	-7.24324
ത്തിനു	-7.24367
▁എന്നീ	-7.24481
▁എന്ന്	-7.25674
േ	-7.25715
ുന്നത്	-7.25825
▁എ	-7.2642
▁മുതൽ	-7.26483
'	-7.27545
പ്പ	-7.27796
കളിൽ	-7.27914
ത്ത്	-7.29566
▁മ	-7.30079
പി	-7.30107
▁തന്റെ	-7.3052
നി	-7.31481
▁വരെ	-7.32448
▁സി	-7.32589
ള	-7.33392
ഡി	-7.33671
ട	-7.33829
ുള്ള	-7.33894
ക്കു	-7.34145
▁സ	-7.34421
യോ	-7.3563
ിരുന്നു	-7.3641
കളുടെ	-7.36425
യുള്ള	-7.37138
ഡ്	-7.37227
▁-	-7.37289
പ	-7.3947
▁ക	-7.39559
ിട്ടുണ്ട്	-7.39615
റി	-7.40593
ട്ട	-7.40723
▁ചില	-7.40965
ച്ച	-7.4106
ടി	-7.41251
ങ്ങളെ	-7.42136
▁ഇ	-7.42886
▁'	-7.43183
▁പല	-7.4325
▁എന്നിവ	-7.43793
യായി	-7.44074
ായ	-7.44428
യായ	-7.44686
),	-7.46771
▁18	-7.46778
13	-7.48307
റ്റ	-7.49432
ഡ	-7.4955
പ്പെട്ട	-7.50208
ലി	-7.50306
▁പിന്നീട്	-7.51977
മുള്ള	-7.53192
ിനെ	-7.53313
നും	-7.53319
ിന്	-7.54315
ലെ	-7.54659
തു	-7.54804
▁വലിയ	-7.55387
ൺ	-7.5544
▁ഇവിടെ	-7.56332
നെ	-7.5702
ിയ	-7.57113
ഗ	-7.58753
ായിരുന്നു	-7.58875
▁എന്നു	-7.58953
▁പി	-7.60004
തും	-7.60534
▁,	-7.60541
▁തുടങ്ങിയ	-7.60602
ാം	-7.62551
താണ്	-7.62586
ില്ല	-7.6282
▁ആദ്യ	-7.63179
▁ത	-7.64127
▁ശേഷം	-7.64545
▁സ്	-7.65087
ത്തിലും	-7.66373
യ്	-7.66613
ദ	-7.67003
12	-7.67005
ജി	-7.67045
▁അദ്ദേഹത്തിന്റെ	-7.67315
ിക	-7.67683
മി	-7.67857
▁വളരെ	-7.68134
രി	-7.68901
ൾ	-7.69253
▁എന്നും	-7.69556
▁പ	-7.69854
മോ	-7.70189
ബി	-7.70269
ജ	-7.70473
▁കൂടുതൽ	-7.70664
റ്റ്	-7.71558
▁മറ്റു	-7.71917
▁ൽ	-7.72001
▁അത്	-7.72519
എസ്	-7.72603
▁എല്ലാ	-7.73185
ഹ	-7.73356
കളെ	-7.7456
▁ഇവ	-7.74972
▁വ	-7.75296
മാ	-7.76007
ത്തു	-7.76241
2	-7.76675
തി	-7.76686
ഇ	-7.76754
നായ	-7.77516
▁ഇന്ത്യൻ	-7.77759
വർ	-7.78635
ന്ന	-7.7867
3	-7.79346
ിരിക്കുന്നു	-7.79598
).	-7.79717
യ്ക്ക്	-7.80222
മായിരുന്നു	-7.80246
▁ചെയ്ത	-7.80333
▁സ്ഥിതി	-7.80585
എ	-7.80613
ൂ	-7.81365
▁അവ	-7.81766
11	-7.81966
ിലും	-7.82157
▁അവർ	-7.82501
യിലും	-7.82506
▁ച	-7.82529
ബ	-7.83064
▁എന്നാണ്	-7.83166
ിരുന്ന	-7.83697
‍	-7.84504
ശ	-7.85289
ുകളും	-7.8637
ാൽ	-7.87367
▁ഉള്ള	-7.8739
മ്പ	-7.87516
▁രണ്ടു	-7.88745
▁കേരള	-7.89599
▁പ്ര	-7.89652
|	-7.89951
ങ്ങ	-7.9048
നു	-7.90556
ൂർ	-7.90681
ിച്ചു	-7.91005
▁ബി	-7.91494
പ്ര	-7.91568
▁ഇതിന്റെ	-7.91761
പ്പെട്ടു	-7.92723
ീ	-7.93216
പ്	-7.93585
▁രണ്ട്	-7.93689
ദ്	-7.94072
നാ	-7.94225
ക്കും	-7.94248
▁കെ	-7.94502
ുകളിൽ	-7.94844
▁ഐ	-7.94943
▁ന	-7.95004
ത്തി	-7.95248
ങ്ങളാണ്	-7.95571
ഷ	-7.9679
▁വഴി	-7.96802
▁നി	-7.97398
മു	-7.97914
▁ഓഫ്	-7.98024
▁ആയിരുന്നു	-7.99401
▁ബ	-7.99407
ണം	-7.99452
▁ചെയ്യുന്ന	-7.9949
▁തുടർന്ന്	-8.00233
പ്പോൾ	-8.00394
▁മാ	-8.00491
▁ഹ	-8.01445
5"	-8.01583
ങ്ങള	-8.01671
9"	-8.01784
ന്ത	-8.02164
▁പുതിയ	-8.02527
ല്ല	-8.02667
ിനു	-8.04012
)"	-8.04356
യായിരുന്നു	-8.04578
ാനും	-8.04628
▁കാ	-8.04669
ിക്ക	-8.04687
▁കോ	-8.06058
▁ഒ	-8.06059
▁ചെയ്യുന്നു	-8.06094
ച	-8.0622
ങ്ങളിലും	-8.06646
▁സാ	-8.06924
14	-8.07403
ിച്ച	-8.07476
▁ഡി	-8.07559
c	-8.07962
ുമ്പോൾ	-8.08757
ണ്ട	-8.08955
ഗ്	-8.09088
യർ	-8.09119
y	-8.0912
റ്റി	-8.0927
▁വിവിധ	-8.09385
4"	-8.09403
▁3	-8.0978
▁സം	-8.09925
20	-8.10261
▁നിരവധി	-8.10369
▁ജില്ലയിലെ	-8.10428
▁[[	-8.10531
ഴ	-8.10533
▁ഇട	-8.1074
▁ചെറിയ	-8.10812
വാ	-8.1083
▁ല	-8.1117
▁അതിന്റെ	-8.11201
▁2	-8.11589
ുടെ	-8.11644
▁ചലച്ചിത്ര	-8.118
മ്മ	-8.11807
▁തുടങ്ങി	-8.12314
▁സംസ്ഥാന	-8.12354
ഷ്	-8.12599
▁കൊണ്ട്	-8.12652
1"	-8.12856
▁പേരിൽ	-8.12902
ഫ്	-8.13246
n	-8.13272
വ്	-8.13275
യി	-8.13323
രു	-8.13382
തായി	-8.13599
ത്തിനും	-8.13753
▁നടന്ന	-8.13948
ുവാൻ	-8.14079
▁കേരളത്തിലെ	-8.14291
▁ഇന്ത്യ	-8.14727
▁ഭാഷ	-8.14966
ളി	-8.152
▁രൂപ	-8.15363
ട്ട്	-8.15458
▁സു	-8.15547
ാനുള്ള	-8.15883
&	-8.1598
ലാ	-8.16095
▁കു	-8.16304
4	-8.1667
കെ	-8.1731
ട്ടി	-8.17331
െങ്കിലും	-8.17423
▁കി	-8.17497
ആ	-8.17594
▁കൂടാതെ	-8.17624
സാ	-8.1813
▁1	-8.18159
▁ഉണ്ട്	-8.18309
ൊ	-8.18398
ബ്	-8.19019
▁ഭരണ	-8.19041
▁ശ്രീ	-8.19317
▁ജ	-8.195
▁ദ	-8.19911
▁അവരുടെ	-8.19981
▁ആദ്യത്തെ	-8.20151
=2	-8.20253
റോ	-8.20441
3"	-8.20487
7"	-8.20622
▁രാഷ്ട്രീയ	-8.20738
▁ഇതിൽ	-8.20785
രുടെ	-8.21008
ാന	-8.21107
▁മു	-8.21274
▁ഗ്രാമപഞ്ചായത്ത്	-8.21795
ങ്ങൾക്ക്	-8.21801
▁ക്ഷേത്രം	-8.22019
ിരിക്കുന്ന	-8.22267
▁17	-8.22405
6"	-8.22494
സിന്റെ	-8.22569
▁കൈ	-8.22812
m	-8.22821
1	-8.2297
]]	-8.23053
▁മറ്റൊരു	-8.23163
▁ക്ഷേത്ര	-8.2323
കാ	-8.23682
▁വര	-8.23789
ണി	-8.24313
നം	-8.24706
ാറുണ്ട്	-8.24709
ുകളുടെ	-8.25138
കള	-8.25145
a	-8.25469
ൈ	-8.25527
്യ	-8.25637
▁സാധാരണ	-8.26019
▁അഥവാ	-8.26552
വര	-8.2658
ഫ	-8.26627
▁നഗര	-8.26695
മീ	-8.27031
താ	-8.27079
ക്കി	-8.27128
നോ	-8.27154
യാ	-8.27762
▁ചരിത്രം	-8.2805
ിലേക്ക്	-8.28481
10	-8.28553
▁എം	-8.28666
യില	-8.29047
▁വരുന്ന	-8.2911
▁വന്ന	-8.29271
▁അവിടെ	-8.29926
▁വാ	-8.29928
30	-8.2999
ിരിക്കുന്നത്	-8.30179
ണ്ട്	-8.30267
▁കഥ	-8.30499
കാര	-8.30554
▁മത	-8.30598
▁ഇദ്ദേഹം	-8.30885
റാ	-8.30915
▁ഉ	-8.30991
പ്പ്	-8.31002
മാർ	-8.31175
എം	-8.31254
▁കാല	-8.31286
ിക്കുന്ന	-8.31384
k	-8.31503
ക്കാർ	-8.31652
ുണ്ട്	-8.31999
6	-8.32098
സം	-8.32232
▁ഗ	-8.32338
വേ	-8.32384
▁ചിത്ര	-8.32386
▁ലെ	-8.32475
ക്കോ	-8.3255
ഐ	-8.32586
▁ജല	-8.32587
ലോ	-8.32994
നാണ്	-8.33118
b	-8.33122
ങ്	-8.33189
യു	-8.33365
▁ഓരോ	-8.33677
▁കൂടി	-8.34037
▁ലോക	-8.34192
▁ഓ	-8.34493
വെ	-8.34631
▁പള്ളി	-8.3467
▁സെ	-8.34992
ാതെ	-8.3549
▁സാഹിത്യ	-8.3583
t	-8.35879
▁കൃഷി	-8.36077
▁പ്രത്യേക	-8.36366
▁കര	-8.36422
2"	-8.36532
രാ	-8.36857
▁10	-8.36931
7	-8.3712
ുമായി	-8.37174
നായി	-8.37298
▁മലയാള	-8.37321
8"	-8.37534
ാത്ത	-8.37762
▁മെ	-8.37896
p	-8.37929
ത്തിലാണ്	-8.38198
▁മൂന്നു	-8.38389
തിനാൽ	-8.38392
▁എസ്	-8.38419
▁4	-8.38419
▁5	-8.38634
lt	-8.38738
▁ദേശീയ	-8.38779
▁അടുത്ത	-8.39229
▁ശ	-8.39251
5	-8.39333
▁ഉപ	-8.39499
്റെ	-8.39685
▁ചെയ്യുന്നത്	-8.39717
മുണ്ട്	-8.40036
▁പറയുന്നു	-8.40078
▁കേന്ദ്ര	-8.40612
19	-8.40884
▁ഏകദേശം	-8.4148
▁വേണ്ടി	-8.41573
▁മികച്ച	-8.41665
▁ആർ	-8.41897
യിലാണ്	-8.41948
▁നടത്തിയ	-8.42003
▁ആയി	-8.42447
ത്തില	-8.42651
▁വർഷം	-8.42762
▁നിയമ	-8.43043
gt	-8.43317
o	-8.43343
ിട്ടുള്ള	-8.43366
16	-8.4346
ന്മാർ	-8.43475
ഞ്ച	-8.43701
▁of	-8.43706
ഭ	-8.43806
en	-8.43832
▁മി	-8.43875
ച്ചു	-8.43968
▁ആദ്യമായി	-8.44292
ങ്ക	-8.4432
ാർ	-8.4442
▁പേര്	-8.44549
▁നേടി	-8.44881
▁ചെറു	-8.4503
▁തല	-8.45205
വുമായി	-8.4531
ില	-8.45487
▁മറ്റ്	-8.45752
ക്ഷ	-8.45803
▁യുദ്ധ	-8.45933
▁ചെ	-8.46037
▁പ്രദേശ	-8.46098
▁പാ	-8.46099
▁15	-8.46361
കൾക്ക്	-8.46526
▁നിന്നു	-8.46935
▁രണ്ടാം	-8.47019
▁മാത്രം	-8.4729
17	-8.4746
▁ആയ	-8.47586
8	-8.47622
▁ജോലി	-8.47942
കളാണ്	-8.48482
ങ്ങളിലെ	-8.48563
▁നദി	-8.48619
കി	-8.48787
ത്തിലുള്ള	-8.48836
g	-8.48865
▁ചെയ്യ	-8.48906
▁സംഗീത	-8.49204
ൗ	-8.49281
കര	-8.49461
ുകയുണ്ടായി	-8.49686
in	-8.49874
▁അമേരിക്കൻ	-8.50199
▁ഇവർ	-8.50355
▁നൽകി	-8.50403
▁യു	-8.50476
▁കാരണം	-8.50578
ിച്ച്	-8.50636
0	-8.51052
65	-8.51149
ിരുന്നത്	-8.51294
▁ജന	-8.51384
▁കാണാം	-8.51437
മെ	-8.51686
▁പാർട്ടി	-8.51853
▁16	-8.51968
യിലേക്ക്	-8.52008
▁ബാ	-8.52118
ലും	-8.52161
▁സ്ഥാന	-8.52308
35	-8.52498
ിത	-8.52549
ീയ	-8.52578
രായ	-8.52616
ക്കുന്ന	-8.5272
▁എന്നിവയാണ്	-8.5277
▁ഇന്ത്യയിലെ	-8.52793
▁നില	-8.52836
▁സ്ഥിതിചെയ്യുന്ന	-8.53107
▁ജി	-8.53159
▁കിലോമീറ്റർ	-8.537
ിലാണ്	-8.53805
42	-8.53999
▁അൽ	-8.54148
സ്ത	-8.54166
▁കോട്ട	-8.54828
▁വെ	-8.55138
▁എൻ	-8.55156
▁നട	-8.55479
e	-8.55611
▁മാറി	-8.55612
കോ	-8.5574
88	-8.5575
0"	-8.55756
ങ്ങളായ	-8.55972
44	-8.55975
▁ഇത്തരം	-8.56043
▁രീതി	-8.56147
▁മാത്രമേ	-8.56214
▁കേരളത്തിൽ	-8.56308
രെ	-8.56614
▁സർക്കാർ	-8.57074
▁വേ	-8.57524
87	-8.57533
ഖ	-8.57978
▁വെള്ള	-8.58162
▁കുറഞ്ഞ	-8.58203
▁മര	-8.58295
▁12	-8.5842
al	-8.5881
▁ആധുനിക	-8.58817
തന്നെ	-8.58844
79	-8.59052
64	-8.5917
ാവുന്ന	-8.59197
സ്റ്റ്	-8.59212
സർ	-8.59252
റിയ	-8.59253
▁ചരിത്ര	-8.59414
41	-8.59417
കം	-8.59422
75	-8.59647
▁ചിത്രം	-8.59663
യുമായി	-8.5975
▁നല്ല	-8.59841
▁വന്നു	-8.60074
▁പോലെ	-8.60104
▁തമിഴ്	-8.60512
▁ദിവസം	-8.60792
29	-8.60874
▁മല	-8.61216
സ്റ്റ	-8.61238
വരെ	-8.61269
▁6	-8.61307
ഥ	-8.61313
ഞ്ഞ	-8.61377
സോ	-8.61509
പ്പെടുന്നു	-8.61896
▁(19	-8.61992
▁കൂടിയ	-8.6208
▁എഴുതിയ	-8.62085
▁കമ്പനി	-8.62468
ദി	-8.62659
ത്തോടെ	-8.62786
തോടെ	-8.62813
സു	-8.62856
മേ	-8.62861
പ്പി	-8.62935
▁മൂലം	-8.63096
ഫി	-8.63147
▁രാജ്യ	-8.63371
ക്കാ	-8.63634
▁ഇപ്പോൾ	-8.63655
▁വീണ്ടും	-8.63787
▁ഇങ്ങനെ	-8.63861
▁ന്	-8.6397
24	-8.64111
ധ	-8.64204
▁പ്രവർത്തിക്ക	-8.64256
ക്കര	-8.64287
▁ഡോ	-8.64319
▁ഇന്ന്	-8.64324
66	-8.64358
▁ബ്രിട്ടീഷ്	-8.64711
▁തുടങ്ങിയവ	-8.64742
▁അംഗ	-8.6478
▁&	-8.64829
▁നിർമ്മിച്ച	-8.65019
▁മൂന്ന്	-8.65069
▁സ്വ	-8.65129
▁പ്രകാരം	-8.65632
▁ടി	-8.65687
▁കല	-8.65736
▁പൂ	-8.65794
▁ഉപയോഗിച്ച്	-8.65796
പ്പെടുന്ന	-8.6588
▁റ	-8.65895
▁മുൻ	-8.65923
▁സാമ്പത്തിക	-8.65952
കാല	-8.66046
ിംഗ്	-8.66056
62	-8.66069
▁സഭ	-8.66195
▁ജീവിത	-8.66219
f	-8.66225
▁നടത്തി	-8.66443
ികൾ	-8.66835
▁മാറ്റ	-8.66985
▁പഞ്ചായത്ത്	-8.67037
▁പരി	-8.6712
▁പ്രമുഖ	-8.67162
78	-8.67277
74	-8.67289
ുന്നതിന്	-8.67305
▁ഹാ	-8.67356
▁രാജ	-8.67492
ായിരുന്ന	-8.67584
കളിലും	-8.67599
▁ഏക	-8.67633
യ്ക്കു	-8.67751
ാനായി	-8.67915
▁യാത്ര	-8.68248
▁കുടുംബ	-8.68293
▁നിന്നുള്ള	-8.68581
▁ഷാ	-8.68584
le	-8.68622
▁കാലത്ത്	-8.68885
യ്യ	-8.68999
ക്കായി	-8.69097
തിനു	-8.69124
▁ചാ	-8.6916
▁ഇതു	-8.69223
▁ദൈവ	-8.69409
ത്ര	-8.69431
ിക്കുന്നു	-8.69493
▁പ്രവർത്തന	-8.69597
ന്റ	-8.69945
59	-8.70021
▁ഉയർന്ന	-8.70053
തോ	-8.70078
31	-8.70161
49	-8.70199
ന്റ്	-8.70225
▁ബന്ധ	-8.70359
▁നേടിയ	-8.70561
▁അല്ലെങ്കിൽ	-8.70599
43	-8.70646
ആം	-8.70684
▁എന്നിങ്ങനെ	-8.70731
യം	-8.7075
▁കണ്ണ	-8.70751
സെ	-8.70796
▁പഴയ	-8.70838
▁പൊതു	-8.70974
▁മുഖ്യ	-8.70998
▁വിദ്യാഭ്യാസ	-8.71005
▁നൽകിയ	-8.71038
▁ജെ	-8.71234
55	-8.71551
▁വിജയ	-8.71674
▁റി	-8.71736
w	-8.71802
▁കണ്ട	-8.7193
▁പാല	-8.72141
▁ശക്തി	-8.72206
▁8	-8.72214
ുന്നുണ്ട്	-8.72252
86	-8.72512
▁പഠന	-8.72554
▁നക്ഷത്ര	-8.72595
ത്തിലേക്ക്	-8.72671
യിലുള്ള	-8.72723
37	-8.72801
▁ഗ്രാമ	-8.72819
15	-8.72885
ബാ	-8.73005
ma	-8.73075
▁കൃതി	-8.73311
ിട	-8.73357
▁s	-8.73576
▁ലാ	-8.73594
▁രോഗ	-8.73602
ത്തിലൂടെ	-8.7364
▁അറിയപ്പെടുന്നു	-8.73767
സിൽ	-8.73792
▁ഗ്രന്ഥ	-8.73873
▁a	-8.73999
ക്കൽ	-8.74057
▁ജീവിതം	-8.74268
▁അടിസ്ഥാന	-8.74391
ഹാ	-8.74399
ച്ച്	-8.74461
▁അവസാന	-8.74604
▁കൊ	-8.74615
57	-8.74983
▁ഏറെ	-8.75061
ട്	-8.75066
ൊരു	-8.75107
63	-8.75109
പാ	-8.75143
▁7	-8.75247
▁:	-8.75369
തുമായ	-8.75515
26	-8.75614
▁അങ്ങനെ	-8.75838
▁ഉപയോഗിക്ക	-8.76039
▁വിഭാഗ	-8.7626
ഗോ	-8.76384
▁നാലു	-8.76392
ഹ്	-8.76595
▁മേഖല	-8.76611
▁മറ്റും	-8.76762
▁അതി	-8.76812
കു	-8.77062
▁ഇന്ത്യയിൽ	-8.77201
▁ഡെ	-8.77388
▁മരണ	-8.77578
ന്ദ	-8.77622
▁സ്ഥല	-8.77726
ത്തിനായി	-8.77907
ൌ	-8.77979
▁അതിൽ	-8.78143
▁സ്ഥാനം	-8.7838
ക്സ്	-8.78396
▁ഉപയോഗിക്കുന്നു	-8.78401
▁സഹ	-8.78606
▁ആദ്യം	-8.78829
▁എണ്ണ	-8.78832
▁പദ്ധതി	-8.78872
കാലത്ത്	-8.78998
▁ഉപയോഗിക്കുന്ന	-8.79009
▁നിർമ്മാണ	-8.79051
രൂപ	-8.79139
ri	-8.79211
▁ഗോ	-8.79296
ിക്കുകയും	-8.79379
യുടെയും	-8.79449
▁കാണ	-8.79675
വുമായ	-8.79711
ഡോ	-8.79869
▁രൂപം	-8.79905
▁ഇംഗ്ലീഷ്	-8.79951
▁സൈനിക	-8.80048
▁ഇതിനു	-8.80081
▁എങ്കിലും	-8.80107
▁അദ്ദേഹത്തെ	-8.80109
രോ	-8.80179
68	-8.80187
▁20	-8.80245
▁ധാരാളം	-8.80274
18	-8.80603
▁ലി	-8.80847
▁സാമ്രാജ്യ	-8.81005
തിൽ	-8.81059
രും	-8.81086
56	-8.81147
▁ഇതിനെ	-8.81312
വയാണ്	-8.81511
സ്ഥാന	-8.8165
▁മഹാ	-8.81771
▁9	-8.81779
▁ആന	-8.8181
▁വൈ	-8.81833
▁നാടക	-8.81848
▁വിശ്വാസ	-8.82031
▁ബന്ധപ്പെട്ട	-8.82316
റു	-8.82328
▁ലോ	-8.82396
ക്കുള്ള	-8.82399
▁ജില്ല	-8.824
▁വച്ച്	-8.82406
▁എന്നിവർ	-8.82441
മാന	-8.82521
▁ലഭിച്ചു	-8.82551
▁താഴെ	-8.82582
▁ഖ	-8.82784
ജ്	-8.82817
i	-8.82961
▁അമ്മ	-8.82985
▁സസ്യ	-8.83332
▁മനുഷ്യ	-8.83496
▁മുഹമ്മദ്	-8.83907
▁നൽക	-8.84162
▁പൊ	-8.84204
89	-8.84218
61	-8.84293
▁സിനിമ	-8.84307
ഷ്ട	-8.84417
96	-8.84507
ത്വ	-8.84521
▁ഇല	-8.84631
▁സ്വതന്ത്ര	-8.8465
▁നിന്നാണ്	-8.84664
▁ഏ	-8.84727
34	-8.84805
▁സംഘടന	-8.85036
▁14	-8.85062
▁അടി	-8.85149
91	-8.85165
32	-8.85291
ഷൻ	-8.85493
▁ദേവ	-8.85568
ങ്ങളായി	-8.85832
▁നിറ	-8.85866
76	-8.85866
യായിരുന്ന	-8.85869
ംഗ	-8.85872
▁മധ്യ	-8.85884
re	-8.8591
▁അനു	-8.85959
ുകയായിരുന്നു	-8.8598
▁ഒന്നാം	-8.8608
യ്ക്ക	-8.86253
ലാണ്	-8.86298
▁ഡ	-8.86517
▁മീറ്റർ	-8.86698
48	-8.86802
മല	-8.86866
▁കൂട്ട	-8.86871
▁സ്ത്രീ	-8.87127
25	-8.8724
▁ക്രി	-8.87507
▁ശാസ്ത്ര	-8.87716
▁പ്രധാനമായും	-8.87733
ള്ള	-8.8782
▁നടത്ത	-8.87881
▁സമ	-8.87986
യിലൂടെ	-8.88218
52	-8.88226
69	-8.88252
▁b	-8.88353
▁കൊച്ചി	-8.88432
h	-8.88576
▁പ്രതിഷ്ഠ	-8.88587
80	-8.8874
9	-8.88822
▁the	-8.88864
58	-8.88895
സ്ഥ	-8.89046
▁പാത	-8.89132
കല	-8.89265
▁രാമ	-8.89284
▁ബോ	-8.89306
ുകളെ	-8.89398
▁പുരാതന	-8.89517
ഉ	-8.8959
46	-8.89664
45	-8.89713
▁ട	-8.89915
▁വിവാഹം	-8.89964
ശ്	-8.90214
വു	-8.90244
▁ചേർന്ന്	-8.90339
▁വ്യവസായ	-8.90529
നേ	-8.90595
സ്സ	-8.90698
▁സംവിധാനം	-8.90725
▁പ്രശസ്ത	-8.90772
ാണു	-8.90905
▁പക്ഷേ	-8.90972
▁11	-8.90973
▁സംഘ	-8.91048
50	-8.91133
ുവ	-8.9117
▁പ്രതി	-8.9117
▁ഗ്രാമപഞ്ചായത്ത	-8.91265
ഴി	-8.91339
ിനും	-8.91374
▁സർ	-8.91487
▁കഴിഞ്ഞ	-8.91533
▁വർഷ	-8.91562
▁കവി	-8.91574
▁ആദ്യകാല	-8.91593
la	-8.91674
▁നിലവിൽ	-8.91764
▁പര	-8.91958
05	-8.91965
▁ഗ്രഹ	-8.92491
ൻസ്	-8.92508
▁സ്വയം	-8.92538
ദാ	-8.92551
▁13	-8.9258
li	-8.9261
മാണിത്	-8.92613
▁ലഭിച്ച	-8.92631
ജന	-8.9299
v	-8.93026
സീ	-8.9304
▁വില	-8.93146
▁ശിവ	-8.93369
r	-8.93543
യുടേയും	-8.93646
72	-8.93712
▁ഇതിന്	-8.93798
നിൽ	-8.93843
▁ഭാഗ	-8.9386
▁മുൻപ്	-8.93883
ോളം	-8.93971
▁എന്നത്	-8.94107
el	-8.94108
▁കോഴിക്കോട്	-8.94168
▁ഭാഗം	-8.94195
▁അതിനാൽ	-8.94226
▁അന്താരാഷ്ട്ര	-8.94251
ത്തിനുള്ള	-8.94393
ആർ	-8.94506
▁ഫ	-8.94543
▁തു	-8.94678
▁കളി	-8.94715
▁മിക്ക	-8.94814
നായിരുന്നു	-8.94897
an	-8.94952
▁ഹെ	-8.95381
▁തമ്മിൽ	-8.9555
കേന്ദ്ര	-8.95568
എൻ	-8.95572
▁നിർമ്മിക്ക	-8.95595
▁നാ	-8.9575
95	-8.95787
ുമാണ്	-8.95829
09	-8.9585
":	-8.9609
▁ജനുവരി	-8.96342
▁വ്യത്യസ്ത	-8.96352
▁ശരീര	-8.96416
▁കലാ	-8.96446
ുകള	-8.96527
▁ഭഗവതി	-8.96581
തെ	-8.96677
81	-8.96693
മാക്കി	-8.96915
ക്കാര	-8.96945
ഭാഷ	-8.96998
ശാസ്ത്ര	-8.97099
പ്പെട	-8.97211
ിലുള്ള	-8.97215
ഓ	-8.97596
വൻ	-8.97603
▁പ്രധാനപ്പെട്ട	-8.97687
ഭാഗ	-8.97954
നില	-8.97969
ങ്ങൾക്കും	-8.97973
▁മാസ	-8.97986
▁അതു	-8.98051
▁ഹോ	-8.98072
റിന്റെ	-8.98303
▁പെ	-8.98487
മാൻ	-8.98553
ാവ	-8.98619
ക്കാൻ	-8.987
83	-8.98717
▁പേർ	-8.98754
▁ബെ	-8.98755
▁മാർ	-8.98773
▁അല	-8.98991
73	-8.98999
▁തെ	-8.99083
▁മോ	-8.99179
▁വ്യക്തി	-8.99211
36	-8.99363
04	-8.99402
▁തീ	-8.99438
▁പ്രകൃതി	-8.9954
▁ഇസ്	-8.99551
▁ന്യൂ	-8.99619
ുന്നതിനും	-8.99718
▁ഏപ്രിൽ	-8.99808
70	-8.99866
▁അര	-8.99897
ബോ	-9.00032
▁ഇന്ത്യയുടെ	-9.00093
ra	-9.00193
▁മാർച്ച്	-9.00233
ോട്	-9.00326
ലോക	-9.00356
▁പ്രസിദ്ധീകരിച്ച	-9.00394
പ്രദേശ	-9.00425
▁കോൺഗ്രസ്	-9.00544
▁ഇത	-9.00622
▁കുട്ടി	-9.00672
ിലൂടെ	-9.00793
▁അതിനു	-9.00814
▁ഭാര്യ	-9.00843
▁കൂട	-9.00844
▁ചേർന്ന	-9.00852
കളായ	-9.00883
▁വന	-9.00918
▁ജൂലൈ	-9.00927
▁സമയം	-9.00976
▁ഫാ	-9.00983
▁സമുദ്ര	-9.01011
na	-9.01153
▁മേ	-9.01166
x	-9.01334
ുണ്ടായ	-9.01415
മല്ല	-9.01472
ഹി	-9.01525
▁ദി	-9.01566
23	-9.01577
രീതി	-9.01599
▁ഭൂമി	-9.01642
=9	-9.01708
ത്തന്നെ	-9.01723
▁നിന്ന	-9.01897
കൊണ്ട്	-9.01923
▁നിര	-9.01943
രിയ	-9.01991
ച്ചി	-9.02053
▁വിദ്യാഭ്യാസം	-9.02128
തീ	-9.02137
▁സ്വന്തം	-9.02236
br	-9.02412
ത്വം	-9.02423
▁പേര	-9.02463
കളിലെ	-9.02475
▁പദ	-9.02498
92	-9.02683
▁ഉത്തര	-9.02864
ശി	-9.02944
▁സംസ്കൃത	-9.03318
▁തങ്ങളുടെ	-9.03379
21	-9.03383
▁ഡിസംബർ	-9.03497
▁അദ്ദേഹത്തിന്	-9.03553
▁വിള	-9.03699
ത്തിന	-9.03815
▁ഫല	-9.03868
നിയ	-9.03916
▁പ്രകാശ	-9.03929
▁ഒക്ടോബർ	-9.0402
പോ	-9.04271
54	-9.04388
ശാല	-9.04727
നീ	-9.04789
▁വൻ	-9.04807
▁അവയുടെ	-9.04848
▁ടോ	-9.04861
ശേഷം	-9.04866
▁മീ	-9.04868
77	-9.05026
വന	-9.05041
40	-9.05061
▁ബാല	-9.05066
▁ഉണ്ടായിരുന്നു	-9.05139
_	-9.05142
ഷി	-9.05199
തിനെ	-9.05442
ാമ	-9.0548
,000	-9.0549
▁‘	-9.05632
▁രീതിയിൽ	-9.05819
us	-9.05933
ലീ	-9.06026
▁സ്കൂൾ	-9.0625
▁മാറ്റി	-9.06274
▁നവംബർ	-9.063
▁നിലയിൽ	-9.06389
▁തമ്മിലുള്ള	-9.06669
▁പുറത്തിറങ്ങിയ	-9.06749
േഷൻ	-9.06755
▁തിരഞ്ഞെടുക്ക	-9.06803
90	-9.06825
▁ഏതാണ്ട്	-9.06876
ലിന്റെ	-9.06906
▁ജൂൺ	-9.07022
ന്തി	-9.07123
▁ഇല്ല	-9.07182
▁തി	-9.07267
മായും	-9.07284
▁അമേരിക്ക	-9.07394
▁കണ്ടെത്തിയ	-9.07441
യുമാണ്	-9.07597
▁ശ്രദ്ധ	-9.07672
▁പേരു	-9.07711
▁ജാ	-9.07729
▁ജനസംഖ്യ	-9.07814
ുന്നതിനു	-9.07843
യേ	-9.07846
▁മാത്രമാണ്	-9.07858
33	-9.07863
▁നൂറ്റാണ്ടിൽ	-9.07932
ലു	-9.07995
പരമായ	-9.08053
ുന്നതിൽ	-9.08075
വിന്റെ	-9.08142
▁ഔദ്യോഗിക	-9.08178
▁ദേശ	-9.08224
▁അത	-9.08225
60	-9.08533
se	-9.08567
39	-9.08601
▁ജനിച്ചു	-9.08728
▁രചന	-9.09053
▁പോ	-9.09092
▁തരം	-9.09128
ടു	-9.09169
തെന്ന്	-9.09208
▁വ്യവസ്ഥ	-9.09235
▁gramapanchayat	-9.09386
▁അഞ്ചു	-9.09386
മില്ല	-9.095
▁ഇവയുടെ	-9.09511
ിന	-9.09519
▁മുഴുവൻ	-9.09555
ജെ	-9.09721
l	-9.09729
ണ്ടി	-9.09732
93	-9.09735
ta	-9.0986
ur	-9.0991
▁മരണം	-9.10069
േണ്ട	-9.10238
28	-9.10253
▁സമയ	-9.10367
ിനി	-9.10378
am	-9.10391
▁തുടർന്നു	-9.10438
യ്ക്കും	-9.10449
▁സമയത്ത്	-9.10596
മുഖ	-9.10728
▁കട	-9.10735
67	-9.10794
▁കാര്യ	-9.10886
▁തവണ	-9.10886
ഗാ	-9.10954
വാദ	-9.1109
▁കീഴിൽ	-9.111
▁താ	-9.11146
▁കണ്ടെത്ത	-9.1126
’	-9.11274
പ്രകാരം	-9.11526
71	-9.11597
രം	-9.11716
എൽ	-9.1173
വുമാണ്	-9.11763
▁ജോൺ	-9.11825
ശ്ശേരി	-9.12127
22	-9.12137
▁പറഞ്ഞു	-9.12178
on	-9.12337
സഭ	-9.12456
85	-9.12499
ഭാവ	-9.12598
▁വിഷയ	-9.12662
ാള	-9.12705
കാലം	-9.12723
ാസ്	-9.12825
▁ടെ	-9.12927
▁ഉൾപ്പെടുന്ന	-9.12938
▁കൃഷ്ണ	-9.13029
▁ചെയ്തത്	-9.13098
▁ഒരേ	-9.13226
▁c	-9.13228
▁പാട	-9.13296
രാജ	-9.13326
▁ഫി	-9.13369
▁അധികാര	-9.13442
47	-9.13456
ന്മാരുടെ	-9.1351
▁മൂല	-9.1352
തിന്	-9.13529
റുകൾ	-9.13554
me	-9.13629
▁സാമൂഹിക	-9.1366
ഒ	-9.13736
▁ഫെബ്രുവരി	-9.1377
റെ	-9.13831
▁f	-9.13898
ന്നു	-9.13958
▁ഇൻ	-9.14021
ിങ്	-9.14451
▁തിരു	-9.14457
▁പുസ്തക	-9.14665
▁മുഖ	-9.14765
▁ശബ്ദ	-9.14774
▁പത്ര	-9.14885
ഘ	-9.14899
▁കേ	-9.15047
▁p	-9.153
▁അടങ്ങിയ	-9.15346
ത്തേ	-9.15622
▁“	-9.15628
▁ഷ	-9.15637
▁പറയുന്നത്	-9.15848
യൻ	-9.1587
പ്പു	-9.15871
z	-9.15984
▁നാഗ	-9.1603
▁വരെയുള്ള	-9.16102
മാര	-9.164
27	-9.16563
▁സ്ഥാപിച്ച	-9.16598
ia	-9.1663
▁സോ	-9.16653
▁യുദ്ധം	-9.16742
ക്ഷേത്ര	-9.16843
തിന്റെ	-9.17048
▁കൊല്ല	-9.17127
ീസ്	-9.17258
മാരുടെ	-9.17418
▁സാധാരണയായി	-9.17431
ത്താ	-9.17467
▁ഗുരു	-9.17572
▁മണി	-9.17608
ുകയാണ്	-9.17643
മേഖല	-9.17663
▁സമര	-9.17741
99	-9.17751
▁കാണപ്പെടുന്നു	-9.17759
▁ഉണ്ടായ	-9.17795
▁രാഷ്ട്ര	-9.17801
▁കാണപ്പെടുന്ന	-9.17885
▁നടക്കുന്ന	-9.17935
കൻ	-9.17962
▁റോ	-9.18111
ിക്കാൻ	-9.18142
53	-9.18211
ിയുടെ	-9.18291
lo	-9.18306
er	-9.18341
ത്തിന്റെയും	-9.18407
▁അഭിനയ	-9.18431
ിട്ടില്ല	-9.18503
▁ഭൂ	-9.18524
ുമായിരുന്നു	-9.18573
▁മുമ്പ്	-9.18599
▁റാ	-9.18624
▁നടത്തുന്ന	-9.18636
പുരം	-9.18725
ിട്ടുള്ളത്	-9.18736
▁നായർ	-9.18856
▁അറബി	-9.19016
▁സൂചിപ്പിക്കുന്ന	-9.19147
▁ഭക്ഷണ	-9.19151
▁ഹി	-9.19223
▁കണ്ടു	-9.19268
▁തീര	-9.19334
തല	-9.19346
ക്കുകയും	-9.19568
▁കൊണ്ട	-9.19582
▁പദവി	-9.19781
ലേ	-9.19818
ണ്ണ	-9.19835
▁രണ്ടാമത്തെ	-9.20004
▁നിർ	-9.20155
ാലും	-9.20162
ശക്തി	-9.20312
th	-9.20425
ുന്നതിനായി	-9.206
▁വേദ	-9.20617
ൂര	-9.20642
▁അതേ	-9.20752
▁ചേർന്നു	-9.20919
▁പക്ഷി	-9.20957
▁നൽകുന്ന	-9.21028
ക്കാട്	-9.21036
51	-9.2105
ിട്ട	-9.21066
es	-9.21143
നാട്	-9.2115
▁പകരം	-9.21235
പ്പെടുകയും	-9.21271
▁അറിയ	-9.21273
▁അക്കാദമി	-9.21325
കളായി	-9.21329
▁കാണുന്ന	-9.21431
▁മുട്ട	-9.21457
▁ബ്ര	-9.2151
▁മഴ	-9.21543
ക്കുന്നു	-9.21555
▁കള	-9.21572
▁കാരണ	-9.21625
ർത്ത	-9.21662
ിയും	-9.21705
ing	-9.21735
▁തിരുവനന്തപുരം	-9.21737
കർ	-9.21839
▁വിദേശ	-9.21863
▁പുറമേ	-9.21936
ാര	-9.21949
▁പ്രദേശം	-9.21981
▁കോളേജ്	-9.22016
▁30	-9.22088
ത്തും	-9.22154
െന്നും	-9.22201
വർഷ	-9.22269
▁ആശയ	-9.22285
▁അലി	-9.22299
▁25	-9.2231
ാക്ക	-9.22594
ാക്കി	-9.22962
▁ഹിന്ദി	-9.23001
▁അതിർത്തി	-9.23008
▁ഇരു	-9.23013
▁ഘടന	-9.23075
▁ചന്ദ്ര	-9.23154
▁മദ്ധ്യ	-9.23183
പദ	-9.23309
വൈ	-9.23365
ത്യ	-9.23376
▁അറിയപ്പെടുന്ന	-9.23486
▁കാലം	-9.23746
▁സംഗീതം	-9.23901
▁ജില്ലയിൽ	-9.23903
എന്നറിയപ്പെടുന്ന	-9.23926
▁പെട്ട	-9.24228
98	-9.2425
▁താൻ	-9.24393
▁പുഴ	-9.24446
▁വശ	-9.24533
കൊ	-9.24582
▁കോടി	-9.24641
▁വിശുദ്ധ	-9.24688
▁ഒര	-9.24836
▁ചേര	-9.24878
പര	-9.24896
യുണ്ട്	-9.25004
ഞ്ഞു	-9.25104
ഖ്	-9.25207
▁പൊതുവേ	-9.25236
▁കുട	-9.25429
യോട്	-9.25513
▁പു	-9.25568
▁സെപ്റ്റംബർ	-9.25614
▁ജോ	-9.25616
▁k	-9.25623
ഗ്രന്ഥ	-9.25645
▁ലോഹ	-9.25777
▁വയസ്സിൽ	-9.25879
നിര	-9.25907
▁ഇന്നത്തെ	-9.25922
▁നാല്	-9.25928
▁കവിത	-9.25976
▁)	-9.26337
▁പേ	-9.26395
ദേശ	-9.26425
▁വൈദ്യുത	-9.2645
ാണ	-9.26603
▁ഗാന	-9.26715
ങ്ങി	-9.26773
▁ജയ	-9.26788
▁വാണിജ്യ	-9.26901
ഷ്യ	-9.26938
▁ബേ	-9.26942
ഈ	-9.26955
▁തോ	-9.27067
▁ഇദ്ദേഹത്തിന്റെ	-9.27092
▁ഭാരത	-9.2719
▁താപനില	-9.27236
ത്തിയ	-9.27306
ർക്ക്	-9.27348
▁ഹിന്ദു	-9.27349
▁അവാർഡ്	-9.2736
▁യഹൂദ	-9.27361
ങ്ങൾക്കു	-9.27394
▁പോലുള്ള	-9.27398
ങ്ങ്	-9.27557
നട	-9.27597
▁സ്ഥാപന	-9.27651
is	-9.27664
▁ജാതി	-9.27683
യിട	-9.27711
രീ	-9.27776
▁19	-9.27802
▁അവസ്ഥ	-9.2785
ിൻറെ	-9.27882
▁രക്ത	-9.27918
▁നേതൃത്വത്തിൽ	-9.27937
u	-9.28107
▁ദക്ഷിണ	-9.28145
38	-9.28174
ഡെ	-9.28204
▁ഇന്നും	-9.28232
ുന്നതും	-9.2831
്യം	-9.28337
▁പറയ	-9.28349
▁പുരസ്കാരം	-9.28353
▁ഉപയോഗിച്ചിരുന്ന	-9.28357
▁അറിയപ്പെടുന്നത്	-9.2854
▁സ്വകാര്യ	-9.2854
ാളി	-9.28626
▁യൂ	-9.2876
▁തന്നെയാണ്	-9.28798
▁ആരോഗ്യ	-9.28807
▁പ്രസിദ്ധ	-9.28886
▁കരുതപ്പെടുന്നു	-9.28887
▁കണ്ണൂർ	-9.28915
ംബ	-9.28928
ുകളിലും	-9.28986
▁ക്ഷേത്രത്തിൽ	-9.29033
▁നാമ	-9.29048
േഴ്സ്	-9.29078
▁ദേവി	-9.2909
ുകയോ	-9.29109
▁വിവാഹ	-9.29119
ചിത്ര	-9.29241
▁ഉപയോഗിക്കുന്നത്	-9.29246
▁ചൈന	-9.29264
st	-9.29276
▁ma	-9.29363
റും	-9.29383
▁കമ്പ്യൂട്ടർ	-9.29388
▁സീ	-9.29508
▁പ്രവർത്തിച്ച	-9.29614
▁നിറഞ്ഞ	-9.29657
വന്ന	-9.29733
ിങ്ങ്	-9.29738
ലുകൾ	-9.29921
▁പട	-9.29944
▁തെക്ക്	-9.3007
ാല	-9.30077
▁ആഘോഷ	-9.30255
▁ജനിച്ച	-9.30316
▁ആരംഭിച്ചു	-9.30321
ത്തിൻറെ	-9.30322
വാസ	-9.30346
▁ഒന്ന	-9.30389
ിയായ	-9.30461
▁പറഞ്ഞ	-9.30475
ദേവ	-9.30543
ങ്ങളിലൂടെ	-9.30724
▁ചെയ്യാൻ	-9.30768
ബു	-9.3079
▁കടന്നു	-9.30857
▁നാഷണൽ	-9.30861
ടെ	-9.30873
▁മഹ	-9.30933
▁മാതൃക	-9.30966
മെന്ന	-9.3107
▁ഭരണം	-9.31159
▁എണ്ണം	-9.31242
▁വിശ്വാസം	-9.31287
ക്രമ	-9.31292
▁ചികിത്സ	-9.31365
▁തിരിച്ചു	-9.3145
▁കോടതി	-9.31584
രാജ്യ	-9.31655
▁ഒന്നാണ്	-9.31714
▁നമ്പൂതിരി	-9.31831
▁സാംസ്കാരിക	-9.31841
un	-9.31876
94	-9.31893
ങ്ങളുടെയും	-9.3204
▁സേന	-9.32079
ങ്ങളുമായി	-9.32086
െന്ന്	-9.32136
ce	-9.32136
▁വടക്ക്	-9.32225
or	-9.32339
▁ചിന്ത	-9.32347
▁പട്ടിക	-9.32393
▁ഫോ	-9.32408
▁പറയപ്പെടുന്നു	-9.32418
▁കുള	-9.32425
▁താര	-9.32426
ുമ	-9.32434
▁പ്രാധാന്യം	-9.32485
▁ലോകത്തിലെ	-9.32502
▁എൽ	-9.32585
വിൽ	-9.32621
മാക്ക	-9.32664
”	-9.32735
ട്ടു	-9.32827
ത്തേയും	-9.32862
മ്പി	-9.32979
യാർ	-9.32986
തേ	-9.33047
▁പിതാവ്	-9.33115
▁ഭാഗമായി	-9.33118
നായിരുന്ന	-9.3329
▁ഭാഷാ	-9.33327
▁കാർ	-9.33527
▁ഗുണ	-9.33563
▁വംശ	-9.33569
ക്സ	-9.33579
▁ഉപയോഗിച്ചു	-9.3361
▁പറയുന്ന	-9.3362
ുന്നതിനുള്ള	-9.33637
തായിരുന്നു	-9.33773
വള	-9.33821
84	-9.33846
▁ആവശ്യ	-9.33874
82	-9.33912
▁റെ	-9.33994
▁രേഖ	-9.34016
▁ഇവരുടെ	-9.34119
il	-9.3431
മന	-9.34337
▁അതിനെ	-9.34338
▁ഒറ്റ	-9.34362
▁വരുന്നു	-9.34366
ാംഗ	-9.34449
]	-9.34499
▁മൂ	-9.3455
▁വിവരങ്ങൾ	-9.34584
▁താലൂക്കിൽ	-9.34585
▁രാസ	-9.34592
▁ഗ്രീക്ക്	-9.34627
▁ഗു	-9.34646
േശ്വര	-9.34659
മത	-9.34679
യോടെ	-9.34727
രേഖ	-9.34817
▁മത്സ്യ	-9.3488
▁ജീവിതരേഖ	-9.34925
ിന്റെയും	-9.34935
▁സംഭവ	-9.35036
▁കാര	-9.35057
ടുക്ക	-9.35103
ങ്ങളെയും	-9.35216
ജ്ഞ	-9.35231
വരും	-9.35312
▁കൊണ്ടു	-9.35321
ic	-9.35333
കൾക്കും	-9.35335
ബന്ധ	-9.35349
▁ദിവസ	-9.35477
ച്ഛ	-9.35618
▁തര	-9.35646
▁പോക	-9.35747
പു	-9.35804
െന്ന	-9.3586
റ്റു	-9.35924
▁പാറ	-9.35942
▁g	-9.35942
▁ചുമതല	-9.36017
▁പ്രക്രിയ	-9.36027
സും	-9.36121
▁പോലും	-9.36187
um	-9.36204
▁വാഴ	-9.36249
▁ഉപയോഗ	-9.3637
▁രചിച്ച	-9.36392
▁വാദ	-9.36399
▁പൂജ	-9.36412
▁ജനങ്ങൾ	-9.36434
▁ഓഗസ്റ്റ്	-9.36491
te	-9.36529
വഴി	-9.36589
റേ	-9.36591
▁ചതുരശ്ര	-9.36648
ത്തോളം	-9.36756
ിരുന്നില്ല	-9.36823
▁ചേ	-9.36824
▁ക്രിക്കറ്റ്	-9.3684
ത്തിന്റേയും	-9.36977
▁നഗരം	-9.37
ങ്ങളുണ്ട്	-9.37008
▁വിളിക്കുന്നു	-9.37009
ബർ	-9.37056
▁പഞ്ച	-9.37077
▁തുടക്കം	-9.37113
▁അഭിനയിച്ച	-9.37119
▁2008	-9.37204
▁മലയാളം	-9.37271
▁ഭൂമിയിൽ	-9.37284
▁കൊടുത്ത	-9.37294
▁ചിത്രങ്ങൾ	-9.37356
സൺ	-9.37391
▁ചക്രവർത്തി	-9.37397
മൂ	-9.37408
ഭരണ	-9.37416
▁വർഗ്ഗ	-9.37419
▁നവ	-9.37427
ാദി	-9.37435
▁പഠനം	-9.3757
▁എഴുതി	-9.37582
വയ	-9.37644
പ്പാ	-9.3767
▁ഗവേഷണ	-9.37691
ti	-9.37747
de	-9.37769
റിൽ	-9.37801
at	-9.37852
ൃ	-9.3787
▁സ്വാതന്ത്ര്യ	-9.37935
▁കരി	-9.37989
ുകളാണ്	-9.38083
▁പോലീസ്	-9.38089
ിയത്	-9.38148
ിയൻ	-9.38169
▁പ്രസ്ഥാന	-9.38277
▁in	-9.3829
യേയും	-9.3831
▁പഴ	-9.38387
▁ഇവയിൽ	-9.3842
▁സോഫ്റ്റ്	-9.38464
▁ഇതേ	-9.38484
▁അടിസ്ഥാനമാക്കി	-9.38603
▁ഉൾപ്പെടുന്നു	-9.38635
▁മാന	-9.38765
▁വെച്ച്	-9.38769
യൂ	-9.38816
▁ഹൈ	-9.38898
▁മഞ്ഞ	-9.39027
ാൾ	-9.39031
▁നൂറ്റാണ്ടിന്റെ	-9.39055
▁ഘടക	-9.39113
▁ഇവയെ	-9.39229
മാവ	-9.39302
▁മന	-9.39314
ch	-9.3934
97	-9.39366
▁കരുതുന്നു	-9.3937
▁ആരംഭിച്ച	-9.39386
പ്പെട്ടത്	-9.39522
ro	-9.39535
▁അക്കാലത്ത്	-9.39552
▁പ്രാചീന	-9.3961
മണി	-9.39633
▁യൂറോപ്യൻ	-9.39651
▁വളരെയധികം	-9.39718
▁സമൂഹ	-9.39761
▁പച്ച	-9.39773
വരുടെ	-9.39822
▁അന	-9.3988
പ്പെട്ടിട്ടുണ്ട്	-9.39891
പ്പുഴ	-9.39897
▁സ്ഥലം	-9.39908
ദ്ര	-9.39962
▁യ	-9.39966
▁ഖാൻ	-9.39967
▁കൊല്ലം	-9.39968
പക്ഷ	-9.40092
▁തെക്കേ	-9.40117
▁നെ	-9.4013
▁ജനിച്ചത്	-9.40257
▁പോയ	-9.40267
▁പ്രതിരോധ	-9.40298
ിക്കുന്നത്	-9.40305
▁ഗാന്ധി	-9.40311
ed	-9.4043
ാറ	-9.40511
ടുത്ത	-9.40578
▁കിഴക്കൻ	-9.40613
ുണ്ടായിരുന്നു	-9.40638
ജനനം	-9.40739
▁എഴുത	-9.4083
00	-9.40885
ക്കുറിച്ചുള്ള	-9.40918
▁മേൽ	-9.4093
▁ഘട്ട	-9.40944
ഭാഗം	-9.40989
▁അവരെ	-9.4104
പുര	-9.41107
▁വ്യാപാര	-9.41209
▁സംസ്കാര	-9.41231
മർ	-9.41404
▁ആകെ	-9.41534
▁തേ	-9.41534
▁മൂന്നാം	-9.4156
▁മെയ്	-9.41594
▁ഇവിടുത്തെ	-9.41619
ത്തെയും	-9.41721
▁സത്യ	-9.41765
▁അവതരിപ്പിക്ക	-9.41841
ക്ഷേത്രം	-9.42006
മാക	-9.42236
▁സ്വീകരിക്ക	-9.42336
▁ബല	-9.42383
▁ദൂര	-9.42433
▁കാണാൻ	-9.42441
യൂർ	-9.42454
ീകരണ	-9.42536
ക്കെതിരെ	-9.42547
ാക	-9.42565
മൻ	-9.42595
നിന്നു	-9.42693
▁ചെയ്ത്	-9.42708
▁തുർക്കി	-9.42772
▁സാങ്കേതിക	-9.42844
▁കാർഷിക	-9.42908
▁m	-9.42914
▁വികസന	-9.42926
ിൻ	-9.43026
▁ചോ	-9.43225
▁പ്രാദേശിക	-9.43233
▁എന്നതാണ്	-9.43275
ണ്ഡ	-9.43287
▁ബീ	-9.43318
▁നീ	-9.43331
▁പാലക്കാട്	-9.43363
▁സംഖ്യ	-9.43392
▁വടക്കു	-9.4343
▁കഴിയും	-9.43554
ാനി	-9.43572
ne	-9.43574
ാനു	-9.43678
▁ഗണ	-9.43775
പരി	-9.43813
ഡാ	-9.43824
▁എന്നിവയുടെ	-9.43826
▁ഉന്നത	-9.43862
ന്ന്	-9.43901
ാവുന്നതാണ്	-9.43921
▁ചി	-9.43946
കഥ	-9.43953
▁മന്ത്രി	-9.43973
യാൽ	-9.4406
രാമ	-9.44097
പ്പള്ളി	-9.44097
▁മുകളിൽ	-9.44099
സിനെ	-9.4411
▁അന്നത്തെ	-9.44113
▁വിമാന	-9.44206
ഷാ	-9.44209
▁പട്ട	-9.44281
▁പാരമ്പര്യ	-9.44284
▁പദം	-9.44338
▁ജനനം	-9.44348
ഗ്രാമപഞ്ചായത്ത്	-9.44359
▁കൂ	-9.4444
ുകൊണ്ട്	-9.44527
▁നിയമം	-9.44608
▁ബ്ലോക്ക്	-9.44679
വിഭാഗ	-9.44693
▁2010	-9.44866
▁പട്ടണ	-9.44919
മര	-9.45157
സ്വ	-9.45213
▁കഥാപാത്ര	-9.45229
▁2009	-9.45249
കാര്യ	-9.45251
ക്കൾ	-9.4531
▁കുറ്റ	-9.45318
▁സ്ഥാപിക്ക	-9.4536
▁നിൽക്കുന്ന	-9.45459
ലിൽ	-9.45466
▁പ്രാ	-9.45554
ഷണ	-9.45628
ുമായുള്ള	-9.45657
▁സാമ്രാജ്യം	-9.45667
▁ചർച്ച	-9.45686
▁ഔഷധ	-9.45761
ബ്ര	-9.45763
▁വടക്കൻ	-9.46024
▁ഉപയോഗിച്ച	-9.46087
▁പടിഞ്ഞാറ്	-9.46116
▁മത്സര	-9.46154
%	-9.46168
സിലെ	-9.46215
▁അർത്ഥ	-9.46229
as	-9.46245
ve	-9.46278
▁വളർത്ത	-9.46319
▁അക്ഷര	-9.46452
▁പ്രവർത്തനങ്ങൾ	-9.46496
▁അന്ന്	-9.46582
▁w	-9.4665
വീ	-9.46743
▁കൂടെ	-9.46772
▁22	-9.46793
ധാര	-9.46796
ജാ	-9.468
വിവക്ഷകൾ	-9.46814
▁സമീപ	-9.46833
▁അഭിപ്രായ	-9.46872
▁പ്രധാനമന്ത്രി	-9.47002
ക്കാരുടെ	-9.47017
▁ബന്ധം	-9.471
വിള	-9.4719
ുകൾക്ക്	-9.47261
െടുത്ത	-9.47294
▁ആൻഡ്	-9.47316
▁ഉത്	-9.47353
▁അക	-9.47369
▁പിന്തുണ	-9.47414
ാലി	-9.47437
▁തിര	-9.47599
▁ഇന	-9.47611
▁ട്ര	-9.47634
▁വിവര	-9.47655
▁പ്രത്യേകത	-9.47661
▁പെരു	-9.47728
വ്യവസ്ഥ	-9.47841
സിയ	-9.47852
ുണ്ടാകുന്ന	-9.47999
മെന്റ്	-9.48008
▁സോവിയറ്റ്	-9.48011
▁ഉപകരണ	-9.48085
▁പിൻ	-9.48107
va	-9.48115
▁ആക്രമണ	-9.48125
▁മാത്രമല്ല	-9.48142
▁കാഴ്ച	-9.48171
പോലെ	-9.48253
▁പീ	-9.48368
▁വിതരണം	-9.48389
▁കുന്ന	-9.48394
ക്ര	-9.48413
▁മലയാളചലച്ചിത്ര	-9.48581
▁ഭ	-9.48603
▁ലഭിക്ക	-9.48631
man	-9.48739
▁പുറത്തു	-9.48742
മായിരുന്ന	-9.48751
ങ്ങളില	-9.48825
▁രാജാവ്	-9.48935
▁ബുദ്ധ	-9.48958
▁വടക്കേ	-9.48967
▁‍	-9.49093
ശാസ്ത്രം	-9.49114
▁ഗണപതി	-9.49164
ുമെന്ന്	-9.49167
▁വളർച്ച	-9.49186
ത്തോട്	-9.49302
▁നീല	-9.49334
com	-9.49377
ാട	-9.49379
പാദ	-9.49391
▁ഇര	-9.49404
▁മൂന്ന	-9.49475
only	-9.49512
വോ	-9.49551
▁മേയ്	-9.49558
▁അവർക്ക്	-9.49615
▁ഉയര	-9.49749
▁=	-9.49823
▁ഇസ്ലാമിക	-9.49849
no	-9.49885
രിക്ക	-9.49953
▁ജനറൽ	-9.49979
▁കടൽ	-9.5014
▁തൃശ്ശൂർ	-9.50167
include	-9.50198
▁പലപ്പോഴും	-9.50221
▁മൃഗ	-9.50237
ിനോട്	-9.50262
ation	-9.50332
▁സമുദായ	-9.50432
▁എന്നിവയും	-9.50451
it	-9.50486
▁വ്യത്യാസ	-9.50578
▁നോവല	-9.50597
▁ബുദ്ധമത	-9.50752
ക്കർ	-9.50878
▁ദൃശ്യ	-9.5093
▁സ്കൂള	-9.51
തര	-9.51027
▁നേട	-9.5112
▁അറ	-9.51137
▁കിഴക്ക്	-9.51171
നിറ	-9.51178
▁അന്തരിച്ചു	-9.5129
▁എക്സ്	-9.51326
▁പ്രവർത്തനം	-9.51342
▁ഗോത്ര	-9.51442
▁കല്ല	-9.51514
പതി	-9.51566
ലം	-9.51614
▁കാലാവസ്ഥ	-9.51777
▁ഉത്സവ	-9.51852
യറ	-9.51864
▁ഭാരതീയ	-9.51877
▁രാത്രി	-9.51934
▁സിസ്റ്റ	-9.51938
വല	-9.5196
▁ശക്തമായ	-9.51969
▁ദാ	-9.52042
▁21	-9.52069
▁ബ്രാഹ്മണ	-9.52109
ത്തേക്ക്	-9.52129
▁കറുത്ത	-9.52155
▁കെട്ടിട	-9.52231
ണ്	-9.52244
▁യുദ്ധത്തിൽ	-9.52349
▁e	-9.52364
▁ഉണ്ടാക	-9.52366
▁പല്ല	-9.52404
06	-9.52406
▁കാലഘട്ടത്തിൽ	-9.5242
▁കിടക്കുന്ന	-9.52447
രചന	-9.52487
▁2006	-9.52528
വരാണ്	-9.52561
മാല	-9.52562
ഞ്ചി	-9.52644
ni	-9.52718
▁ചു	-9.52724
▁ലിപി	-9.52724
േറ്റ്	-9.52754
ത്തെക്കുറിച്ച്	-9.52849
▁പ്രാഥമിക	-9.52911
ന്മാര	-9.52927
▁അനേകം	-9.52958
ാണെന്ന്	-9.5299
ിരിക്കും	-9.53026
സംഖ്യ	-9.53056
▁24	-9.53109
▁രംഗ	-9.53133
▁and	-9.53157
vi	-9.53188
▁സ്വഭാവ	-9.53211
▁പോയി	-9.53358
▁പൂർണ്ണ	-9.53415
▁നോ	-9.53457
ല്യ	-9.53567
കേ	-9.53595
ുവാനും	-9.53604
▁യന്ത്ര	-9.53618
▁കണ	-9.53648
വിനെ	-9.53649
സ്ഥല	-9.53691
03	-9.53731
▁അപ	-9.53851
നാനാർത്ഥ	-9.53872
▁വീ	-9.53952
▁മറ	-9.53968
ഗ്ര	-9.54051
▁നടക്ക	-9.54059
▁മുസ്	-9.54079
▁പ്രവിശ്യ	-9.54234
▁ഏതാനും	-9.54246
▁വെബ്	-9.5425
പാല	-9.54356
▁സാധ്യത	-9.54381
റ്റോ	-9.54392
മ്പ്	-9.54411
പാത	-9.54534
േയും	-9.54562
▁മൊ	-9.54585
ad	-9.54611
▁വന്നത്	-9.54648
കൈ	-9.54679
▁അധികം	-9.5473
ധ്യ	-9.54745
▁വിശേഷിപ്പിക്ക	-9.54764
▁അർത്ഥം	-9.54789
▁ക്ഷേത്രത്തിലെ	-9.54845
▁ഉയരം	-9.54851
▁മാറ	-9.54954
പെട്ട	-9.55018
▁അരി	-9.55067
▁ഫലമായി	-9.55068
▁നിയന്ത്രിക്ക	-9.55209
▁ബ്രഹ്മ	-9.55281
▁ലഭിക്കുന്ന	-9.55287
▁വെള്ളം	-9.55313
ഞ്ജ	-9.55385
▁സമിതി	-9.55423
▁ഒടുവിൽ	-9.55453
▁അതായത്	-9.55507
്യാ	-9.55522
ദ്ധ	-9.55546
▁ഫോർ	-9.5558
▁മുതലായ	-9.55687
വൽ	-9.55698
പ്പെടുത്തി	-9.55712
▁കാൽ	-9.55769
രംഗ	-9.55779
da	-9.55781
▁23	-9.55806
02	-9.55808
ല്പ	-9.5581
▁കോട്ടയം	-9.55874
▁പ്രവർത്തിച്ചു	-9.55927
▁അന്തരീക്ഷ	-9.55927
േണ്ടി	-9.5595
▁സ്വീകരിച്ച	-9.55968
▁മാധ്യമ	-9.56085
െയ്	-9.56092
▁100	-9.5612
▁ശൈലി	-9.56149
ാന്ത	-9.56321
▁സിദ്ധാന്ത	-9.56332
▁ഭാഗങ്ങൾ	-9.56383
▁കണക്കാക്കപ്പെട	-9.56386
▁അഗ്നി	-9.56411
മാസ	-9.56435
എഫ്	-9.56441
▁വൃത്ത	-9.56467
▁പണ്ഡിത	-9.56573
ങ്ങളേയും	-9.56596
▁അനുസരിച്ച്	-9.56659
▁ആളുകൾ	-9.5667
▁സംഭാവന	-9.56684
▁ഗാ	-9.56713
▁ഭാഷയിൽ	-9.5672
▁മൂലക	-9.56751
പ്പോ	-9.56757
സ്റ്റർ	-9.56782
▁രണ്ട	-9.56817
▁റോമൻ	-9.56864
കട	-9.56865
മില്ലാത്ത	-9.56956
▁പ്രശ്ന	-9.56972
യെയും	-9.5701
▁ശാസ്ത്രീയ	-9.57076
▁ചിത്രത്തിൽ	-9.57144
െടുക്കുന്ന	-9.57145
▁ഉണ്ടായിരുന്ന	-9.57174
ലൈ	-9.57282
▁നു	-9.57291
ാരി	-9.57313
തിരി	-9.57353
▁കിട്ടിയ	-9.57361
▁ചെടി	-9.57402
ഹാര	-9.57407
ഗണ	-9.57417
മിയ	-9.57466
▁ജീവിച്ചിരുന്ന	-9.57547
▁ശരാശരി	-9.5756
▁ബഹു	-9.57657
ന്നി	-9.57679
▁2011	-9.57719
ss	-9.57766
▁കഴിഞ്ഞു	-9.578
▁പിന്നിൽ	-9.57885
▁വെയർ	-9.57899
ചെയ്യ	-9.57915
മൂല	-9.57952
പാട	-9.5796
▁അവയിൽ	-9.58125
▁റേഡിയോ	-9.5815
ഫോ	-9.58172
▁ശാഖ	-9.58303
▁de	-9.58328
▁ചേർക്ക	-9.58621
▁ഐതിഹ്യ	-9.58675
▁വൈദ്യുതി	-9.58804
▁ലൈംഗിക	-9.58855
വായ	-9.58916
▁ക്രമ	-9.58962
ഡിയ	-9.58967
ക്കാണ്	-9.58996
▁തിരുവിതാംകൂർ	-9.59017
▁സൈന്യ	-9.59057
ിന്റേയും	-9.59115
▁മലപ്പുറം	-9.59218
ണാ	-9.59219
മായാണ്	-9.59242
ുണ്ടായിരുന്ന	-9.5928
ക്കിടയിൽ	-9.59378
ിപ്പ	-9.59394
▁എന്നായിരുന്നു	-9.59397
തായ	-9.594
▁ഫ്രഞ്ച്	-9.59459
▁ജീവ	-9.59469
▁മരിച്ച	-9.59556
▁കൃതികൾ	-9.59566
di	-9.59626
▁സ്വാധീനം	-9.59672
▁പൈ	-9.59683
▁ജന്മ	-9.59765
▁നിർമ്മാണം	-9.598
ലിയ	-9.59853
07	-9.59932
ദീ	-9.59937
മാണെന്ന്	-9.59942
▁സൂര്യ	-9.59946
▁വാതക	-9.5998
▁ഷെ	-9.60006
▁ആറു	-9.6005
ാണി	-9.60108
co	-9.60148
▁എന്നിവിടങ്ങളിൽ	-9.60273
▁യോഗ	-9.60287
▁കണ്ടെത്തി	-9.60298
▁മുമ്പ	-9.60413
▁എത്ത	-9.605
▁തിരിച്ച	-9.60543
▁സെന്റ്	-9.6055
ങ്ങളുടേയും	-9.6056
ൻഡ	-9.60622
വച്ച	-9.60689
▁പാശ്ചാത്യ	-9.60734
വർഗ്ഗ	-9.60799
pa	-9.60809
▁2007	-9.60874
യില്ല	-9.60894
എന്ന	-9.60998
▁സുറിയാനി	-9.60999
▁പ്രസിദ്ധമായ	-9.6106
പെ	-9.6116
▁പങ്കു	-9.61214
പ്പെടുത്ത	-9.61269
▁പ്രദേശങ്ങൾ	-9.61289
ജീവിത	-9.61323
ya	-9.61331
▁അപ്പ	-9.61332
സ്വാമി	-9.61349
▁പറ	-9.61372
▁മുംബൈ	-9.61389
▁തെക്കൻ	-9.614
ul	-9.61423
മനുസരിച്ച്	-9.61425
വില	-9.61445
▁മണ്ഡല	-9.61483
▁ഇന്ത്യാ	-9.61484
മാറ്റ	-9.61496
▁അഞ്ച	-9.61595
റ്റാ	-9.61635
വരുന്നു	-9.61669
▁വിദ്യാർത്ഥി	-9.61713
▁അവിട	-9.61718
ല്	-9.61725
▁പുരാണ	-9.61796
തരം	-9.618
▁പ്രത്യേകം	-9.61839
▁ധർമ്മ	-9.61844
▁ഡാ	-9.61855
റുടെ	-9.61865
▁അഞ്ച്	-9.61882
▁ചേർത്ത്	-9.62088
▁കോശ	-9.62121
▁എത്തിയ	-9.62164
▁വേർ	-9.62178
ol	-9.6218
ുമുള്ള	-9.62259
ka	-9.623
ക്കാല	-9.62448
കളെയും	-9.62453
▁ഊർജ്ജ	-9.62467
കാരി	-9.62468
ര്യ	-9.62478
സ്സ്	-9.62496
കരമായ	-9.62509
ിക്കപ്പെട്ട	-9.62564
ീകരിക്ക	-9.62574
▁കഴിയ	-9.62624
ഫാ	-9.6271
▁തുടക്കത്തിൽ	-9.62751
തം	-9.62847
▁ക്രൈസ്തവ	-9.6288
▁രാജ്യങ്ങളിൽ	-9.63006
▁സർവകലാശാല	-9.63156
ത്തുള്ള	-9.63172
▁അട	-9.63177
ാണിത്	-9.63213
▁പ്രദേശങ്ങളിൽ	-9.63226
പ്പാട	-9.63305
▁സാമൂഹ്യ	-9.63325
▁രാജ്യത്തിന്റെ	-9.63377
▁വിഭാഗം	-9.63461
▁അപകട	-9.63523
j	-9.63558
▁ദിന	-9.63579
▁രേഖപ്പെടുത്തിയ	-9.63583
ത്രി	-9.63631
▁ആയിരുന്ന	-9.63651
the	-9.63668
ച്	-9.63793
മാക്കിയ	-9.63862
▁ഏഴു	-9.63865
ല്ലി	-9.63956
ുള്ളൂ	-9.6397
ചെ	-9.63984
▁സെക്രട്ടറി	-9.63987
മ്പു	-9.64053
▁സാഹചര്യ	-9.64068
ഗു	-9.64086
പ്രാ	-9.64104
▁അന്ന	-9.64104
▁സൃഷ്ടിക്ക	-9.64125
et	-9.64136
▁കമ്മ്യൂണിസ്റ്റ്	-9.6416
ത്തിനുശേഷം	-9.64214
ിരിക്ക	-9.64222
▁എറണാകുളം	-9.6426
സാഹിത്യ	-9.64313
▁എഴുത്തുകാര	-9.64387
വശ	-9.64433
തുകൊണ്ട്	-9.64449
▁നാരായണ	-9.64497
കൂട	-9.64506
▁സംവിധാന	-9.6452
▁h	-9.64594
ോസ്	-9.64618
▁കഴിയുന്ന	-9.64665
▁മുസ്ലിം	-9.64682
▁അറിവ	-9.64693
ചി	-9.6474
േറ്റ	-9.64744
▁മണ്ണ	-9.64744
▁ഊ	-9.6482
▁പടിഞ്ഞാറൻ	-9.64864
86"	-9.64868
▁സംബന്ധിച്ച	-9.64869
▁എല്ലാം	-9.64938
ा	-9.64966
▁പ്രപഞ്ച	-9.64983
▁ഐതിഹ്യം	-9.64985
▁തത്ത്വ	-9.65066
▁ടാ	-9.65179
▁പുസ്തകം	-9.65209
പ്പെടുന്നത്	-9.65226
ങ്ങളുള്ള	-9.65307
▁മുതലായവ	-9.65316
ജീവി	-9.65322
▁നടന്നു	-9.65344
▁പഞ്ചായത്തിന്റെ	-9.65384
▁പുരുഷ	-9.65402
ട്രോ	-9.65431
ഫല	-9.65452
▁നിയമസഭ	-9.65491
ck	-9.65574
കളി	-9.65588
ബെ	-9.65645
രോഗ	-9.65688
▁അഭിനയിച്ചു	-9.65705
▁പ്രസിദ്ധീകരിക്ക	-9.65744
▁t	-9.65797
യെന്ന	-9.658
▁അദ്ദേഹ	-9.65856
ിയ്ക്ക	-9.6586
രണ	-9.65885
ീൻ	-9.65988
▁ദ്	-9.66043
ഃ	-9.66171
▁നീണ്ട	-9.66218
റ്റിക്	-9.66255
▁റഷ്യ	-9.66271
ll	-9.66305
പിള്ള	-9.6631
കൂ	-9.6631
വർഗ്ഗം	-9.66343
ക്കൂട്ട	-9.66399
▁അയാൾ	-9.66411
നിന്ന്	-9.66423
▁ശ്രീലങ്ക	-9.6646
ർജ്ജ	-9.66471
▁ലക്ഷം	-9.66477
▁50	-9.6648
38"	-9.66486
▁അംഗീകരിക്ക	-9.66499
▁അകലെ	-9.66557
60"	-9.66593
▁ത്രി	-9.66677
▁27	-9.66719
കളേയും	-9.66721
▁നിർമിച്ച	-9.66742
▁വീതി	-9.66821
മൈ	-9.66844
▁ലേഖന	-9.66928
▁ഹൃദയ	-9.66985
▁മാസം	-9.67018
പ്രവർത്തിക്കുന്ന	-9.67079
▁രോഗം	-9.67131
▁നീള	-9.67133
▁അടിമ	-9.67165
▁ഏതെങ്കിലും	-9.67171
▁ധന	-9.6718
▁അവസാനം	-9.67208
കോശ	-9.67273
▁വിപ്ലവ	-9.67346
▁ഇതിലെ	-9.67361
▁കാവ്യ	-9.6752
കൂടി	-9.6755
21"	-9.67567
▁റോഡ	-9.67567
▁ഭരണാധികാരി	-9.67601
▁പ്രശസ്തമായ	-9.67622
32"	-9.67639
▁വരുത്ത	-9.67675
ഗ്രഹ	-9.6769
ംഗ്	-9.67719
▁വിദ്യാലയ	-9.67773
ർട്ട്	-9.67786
ങ്ങളിലാണ്	-9.67797
▁കൂട്ടി	-9.67831
റിഞ്ഞ	-9.67883
▁ഉണ്ടാകുന്ന	-9.6791
▁ഇവിടത്തെ	-9.67932
രിൽ	-9.67949
▁ഫെ	-9.67967
▁സഹായ	-9.67979
▁ആചാര	-9.6799
ർച്ച	-9.68024
▁26	-9.68119
റിയപ്പെടുന്നു	-9.68122
▁ഇടയിൽ	-9.68162
▁മിക്കവാറും	-9.68256
▁ശതമാനം	-9.68334
കേരള	-9.68425
ക്ട	-9.6852
▁പരീക്ഷണ	-9.68601
28"	-9.6861
▁രക്ഷ	-9.68638
ബൈ	-9.68647
▁മലബാർ	-9.68682
ണമെന്ന്	-9.68785
ട്ടോ	-9.68793
ഉം	-9.6885
▁കോളേജിൽ	-9.68865
▁എത്തി	-9.68947
98"	-9.68956
▁തർക്ക	-9.68962
പ്പുറം	-9.69055
നാട	-9.69111
▁മാറിയ	-9.69113
ഗതി	-9.69168
ജീവിതം	-9.69208
58"	-9.69229
▁രാജ്യം	-9.69317
െല്ലാം	-9.69397
▁വിട്ടു	-9.69401
ഗി	-9.69409
80"	-9.69415
▁ദ്വീപ	-9.69599
▁ചിഹ്ന	-9.69648
▁സർക്കാര	-9.69685
▁28	-9.69701
12"	-9.69782
▁ഗി	-9.69873
27"	-9.6988
▁[	-9.699
q	-9.69924
ചാ	-9.69992
53"	-9.70091
▁വേണ്ട	-9.70154
▁തോമസ്	-9.70221
72"	-9.70228
▁അവലംബം	-9.70386
ർണ	-9.7041
വർഷം	-9.70413
വർക്ക്	-9.70419
▁n	-9.7043
ോൾ	-9.70481
ക്കെട്ട	-9.70588
▁നയ	-9.70679
തെന്നും	-9.70688
റ്റർ	-9.70713
ിൻ്റെ	-9.70763
76"	-9.70773
ട്ര	-9.70802
ൊക്കെ	-9.70824
▁തലസ്ഥാന	-9.7084
ത്താൽ	-9.7089
▁മൈ	-9.70928
▁ആലപ്പുഴ	-9.70947
ക്രി	-9.70953
33"	-9.70964
▁രാജ്യത്തെ	-9.71026
01	-9.71066
▁കാരണമായി	-9.71121
22"	-9.7115
▁നീളം	-9.71282
▁പ്രഖ്യാപിച്ചു	-9.71283
▁പ്രസിദ്ധീകരണ	-9.71301
97"	-9.71319
▁അധിക	-9.7136
പൂജ	-9.7138
▁പാർ	-9.71381
ാവ്	-9.71393
▁റെയിൽവേ	-9.71393
േക്ക്	-9.71502
85"	-9.71508
ത്തോ	-9.71521
ോടെ	-9.71524
36"	-9.71587
▁സ്ഥലത്ത്	-9.71692
▁വേഷ	-9.71692
▁നൽകുന്നു	-9.71702
15"	-9.71743
▁പ്രസിഡന്റ്	-9.71746
▁വൈദ്യ	-9.71807
99"	-9.71952
▁പകുതി	-9.71969
82"	-9.72
▁കണക്കാക്ക	-9.72005
▁ആര	-9.72008
▁അവതരിപ്പിച്ച	-9.72042
കാരൻ	-9.72068
to	-9.72155
93"	-9.72159
▁സ്ഥാപിച്ചു	-9.72205
നാഥ	-9.72241
▁ഇപ്പോഴും	-9.72265
73"	-9.72289
ബ്ബ	-9.72307
▁സേവന	-9.72342
▁ബിരുദം	-9.72359
▁വൃക്ഷ	-9.72394
ac	-9.72413
▁നൂറ്റാണ്ടിലെ	-9.72431
▁നടത്തുന്നത്	-9.72467
▁വർണ്ണ	-9.72477
ഴ്	-9.72499
▁വെള്ളി	-9.72536
സൂ	-9.72598
▁പതിപ്പ	-9.72627
▁കത്ത	-9.72645
▁ചലന	-9.72703
–	-9.72753
ഠ	-9.72762
▁v	-9.72771
ത്തിനെ	-9.72796
84"	-9.72847
▁ഞാൻ	-9.72847
തയും	-9.72848
കൾക്കു	-9.72871
നഗര	-9.72887
67"	-9.72938
വർഗ	-9.72955
▁എളുപ്പ	-9.72964
89"	-9.72988
▁40	-9.72996
ബിൾ	-9.73007
▁0	-9.7301
▁ജീവി	-9.73028
▁ചര	-9.73047
േരി	-9.73139
sa	-9.73144
▁i	-9.73172
39"	-9.7318
07"	-9.73185
▁പുതു	-9.73192
71"	-9.73254
ദ്യ	-9.73257
▁ശ്രമ	-9.73287
ഗിരി	-9.73336
▁ഉപദേശ	-9.73338
▁കീ	-9.73351
▁വിനോദ	-9.73356
▁ധ	-9.73365
▁നിയന്ത്രണ	-9.73401
ബേ	-9.73421
▁കൈകാര്യം	-9.73551
▁സമ്മാന	-9.736
ണിയ	-9.73604
▁ഭാവ	-9.73635
▁ജോസഫ്	-9.73643
▁പോകുന്ന	-9.73669
വയ്ക്ക	-9.73684
amp	-9.73713
▁പ്രയോഗ	-9.739
കളുണ്ട്	-9.73932
പൂർ	-9.73991
വ്യ	-9.73997
ികളുടെ	-9.74046
സ്ട്ര	-9.74087
▁സംഭവിച്ച	-9.74111
77"	-9.74122
▁രാജാവ	-9.74128
▁re	-9.74177
▁പിൽക്കാലത്ത്	-9.74185
90"	-9.74193
▁സ്വാധീന	-9.74236
▁ഉൾ	-9.74289
പ്പെടുത്തിയ	-9.74292
40"	-9.74317
▁ഷോ	-9.74328
കൊണ്ട	-9.74336
▁കുറച്ചു	-9.74392
ru	-9.74415
du	-9.74442
hi	-9.74504
▁കാലഘട്ട	-9.74552
ഫ്ര	-9.7458
▁താരതമ്യേന	-9.74585
പത്ര	-9.74588
ശ്രീ	-9.74631
▁ചെയ്തിരുന്നു	-9.74637
മേറിയ	-9.74654
▁പ്രത്യക്ഷ	-9.74658
ഡു	-9.74672
രേ	-9.74711
▁താപ	-9.74723
19"	-9.74886
▁പത്തു	-9.74896
ലൂ	-9.74917
▁തട	-9.7494
പ്പൻ	-9.74941
▁കൂടിയാണ്	-9.74995
തൃ	-9.74997
▁ശിക്ഷ	-9.75037
▁അഭി	-9.75042
▁ഭൗതിക	-9.7506
mo	-9.75062
മൂലം	-9.7509
ബല	-9.75229
പ്പൂ	-9.7523
▁ചെയ്യും	-9.75292
10"	-9.75348
▁റെയിൽ	-9.75412
▁കുതിര	-9.75419
കളുമായി	-9.75431
▁എച്ച്	-9.75459
▁വ്യ	-9.75485
▁31	-9.75606
34"	-9.75701
▁സ്നേഹ	-9.75707
▁ഉണ്ടാക്ക	-9.75742
വാദി	-9.75813
92"	-9.75818
▁തടി	-9.75867
ദു	-9.75869
▁ആശ്രയിച്ച	-9.7587
18"	-9.75915
▁ദു	-9.75984
രായി	-9.75987
വംശ	-9.75987
ുന്നതു	-9.76026
▁നാമം	-9.76068
▁ലക്ഷ്യ	-9.7609
▁ഭക്ഷണം	-9.76099
51"	-9.76189
▁അസ	-9.76223
കളുടെയും	-9.76256
ba	-9.76285
▁പരസ്പരം	-9.76288
പൊ	-9.7635
56"	-9.76354
ോള	-9.76406
▁സംഘം	-9.76419
▁സ്റ്റാ	-9.76451
▁നിലനിർത്ത	-9.76476
▁റോഡ്	-9.76551
▁ഒഴിവാക്ക	-9.76614
▁എട്ടു	-9.7667
ത്തൂർ	-9.767
ാവസ്ഥ	-9.76791
ir	-9.76816
ja	-9.7689
▁സംരക്ഷണ	-9.76919
02"	-9.7693
▁വളരുന്ന	-9.77045
ക്കൊ	-9.77056
ോടൊപ്പം	-9.77057
ഖാ	-9.77082
▁ഭാഗത്ത്	-9.77117
▁(18	-9.77132
▁അധികാരം	-9.77137
▁വായു	-9.77172
01"	-9.77179
▁കത്തോലിക്കാ	-9.77237
മയ	-9.77247
▁ഗാനങ്ങൾ	-9.77281
▁ഉപഗ്രഹ	-9.77318
▁പേർഷ്യൻ	-9.77389
ലിൻ	-9.77394
23"	-9.77404
▁തെക്കു	-9.77441
▁ചക്ര	-9.77464
ായും	-9.77465
▁ചിലപ്പോൾ	-9.77497
▁മാൻ	-9.77588
▁തുല്യ	-9.77626
50"	-9.77655
▁2001	-9.77721
pi	-9.77798
▁നികുതി	-9.77799
▁പുഷ്പ	-9.77829
▁ഉള്ളത്	-9.77858
പുത്ര	-9.77947
▁പരിപാടി	-9.77989
im	-9.78024
▁നേതൃത്വം	-9.78055
▁ഡെൽഹി	-9.78055
;/	-9.78166
സൻ	-9.78174
ci	-9.7826
▁വിഷ്ണു	-9.78308
▁സൂപ്പർ	-9.78366
▁പണി	-9.78443
▁നഷ്ട	-9.78478
വരുന്ന	-9.78502
▁ചെയ്യപ്പെട്ട	-9.78526
▁നഗരസഭ	-9.78572
▁ചെന്ന	-9.78593
നിന്നും	-9.78631
▁അതിന്	-9.78661
▁പരമ്പരാഗത	-9.78705
▁കടല	-9.78714
▁ഇന്ദ്ര	-9.78732
▁മാറ്റം	-9.78776
▁വ്യാഖ്യാന	-9.78851
തന്ത്ര	-9.78862
സമ	-9.78867
ar	-9.78899
ണമെന്ന	-9.78928
70"	-9.78958
ാറില്ല	-9.78987
യോഗ	-9.78995
▁ഓട	-9.79001
ിക്കുക	-9.7902
▁വേര	-9.79076
യാള	-9.7912
▁വെളുത്ത	-9.79141
▁സാമാന്യ	-9.79141
▁വർഗ	-9.79148
മേൽ	-9.79171
റായി	-9.79224
47"	-9.79238
▁ക്രിസ്തീയ	-9.79267
ൂറ	-9.79306
25"	-9.79367
▁ലക്ഷ്യം	-9.79391
ാലയ	-9.79448
▁വിര	-9.7945
▁മാർഗ്ഗ	-9.79461
94"	-9.79463
ധി	-9.79473
▁പഠിക്ക	-9.79479
▁കുറിച്ച്	-9.79574
ുമായ	-9.79575
▁രാ	-9.79593
▁സൈ	-9.79654
▁പന്ത	-9.79666
▁കോളനി	-9.79686
ടോ	-9.79697
ക്കൊപ്പം	-9.79703
ിപ്പിക്ക	-9.79737
ിട്ടു	-9.79751
ഘടന	-9.79789
▁പരമ്പര	-9.79792
ഗർ	-9.79826
.5	-9.79873
▁മുള	-9.79916
14"	-9.7993
▁സൗദി	-9.79934
▁വല	-9.79947
▁വയസ്സ	-9.79984
ദൈവ	-9.8005
സ്ക	-9.80082
▁പ്ല	-9.80094
08"	-9.80113
▁കുടുംബം	-9.80239
▁വിശേഷ	-9.80259
11"	-9.80287
▁കലാപ	-9.80321
മാരും	-9.80347
▁തടാക	-9.8038
ചിത	-9.80391
▁ദേവാലയ	-9.80406
സൈ	-9.8043
▁ഫ്ല	-9.8044
▁വിധി	-9.80456
▁al	-9.8046
വശത്ത	-9.8048
▁സ്റ്റേറ്റ്	-9.80678
46"	-9.80721
▁2005	-9.80832
54"	-9.80863
ിട്ടും	-9.80869
യാണു	-9.80891
ാർത്ഥ	-9.80895
▁ആൺ	-9.80905
▁വിട	-9.80941
▁മേഖലയിൽ	-9.80946
▁വിധേയ	-9.8095
യാണിത്	-9.80958
ന്റി	-9.80959
▁യഥാർത്ഥ	-9.81006
യുദ്ധ	-9.81007
▁വച്ച	-9.81067
▁ശ്രീകൃഷ്ണ	-9.81187
പ്റ്റ	-9.81191
▁വീര	-9.81192
03"	-9.81236
ിലേക്കു	-9.81245
▁കാണുന്നു	-9.81259
mi	-9.81287
▁ആന്റ്	-9.81293
ാന്തര	-9.813
വെള്ള	-9.81341
▁സഭയുടെ	-9.81352
▁2000	-9.81419
▁ഹരി	-9.81487
▁നൃത്ത	-9.81489
ങ്ങളിലായി	-9.81573
ളം	-9.81582
ഹോ	-9.81594
▁വിഷ	-9.81632
െണ്ണ	-9.81633
48"	-9.81653
▁വിശ്വ	-9.81673
▁ചെയ്യുകയും	-9.81697
ക്കുന്നത്	-9.81736
പ്പിക്ക	-9.81746
ാനോ	-9.81788
08	-9.81791
▁യാ	-9.81804
▁ഫിലിം	-9.81825
ഒരു	-9.81873
▁വിഭാഗത്തിൽ	-9.81897
ിക്കൽ	-9.81919
▁തൊഴിലാളി	-9.82038
▁കരുതി	-9.82067
െത്തിയ	-9.82089
▁ക്രോ	-9.82095
ത്തര	-9.82146
▁തിരക്കഥ	-9.82157
്യൂട്ട	-9.82176
ങ്ങളോ	-9.82199
ടുപ്പ	-9.82232
os	-9.82264
▁മാർപ്പാപ്പ	-9.82298
മൂർത്തി	-9.8231
ജൻ	-9.82329
ഷ്ഠ	-9.82335
ോൺ	-9.82377
▁വേഗത	-9.82457
തിര	-9.82472
▁ക്ല	-9.82505
▁പരിഭാഷ	-9.82545
യാന	-9.82601
▁വെടി	-9.82621
▁രാജ്യങ്ങൾ	-9.82665
▁തത്ത്വചിന്ത	-9.82679
ga	-9.82694
▁സൃഷ്ടി	-9.82724
▁ചേർത്ത	-9.82763
▁അന്ത്യ	-9.82799
ിയിൽ	-9.82802
വാര	-9.82806
തുപോലെ	-9.82816
▁മലയാളത്തിൽ	-9.82944
ിനേയും	-9.82957
▁നിരീക്ഷണ	-9.83059
കൃത	-9.83066
▁പുറ	-9.83083
▁സമാന	-9.83093
▁സ്വാമി	-9.83119
ry	-9.83126
▁സഭാ	-9.8315
▁തുടങ്ങിയത്	-9.83241
▁മൊത്തം	-9.83268
▁അമേരിക്കയിലെ	-9.8335
സ്റ്റി	-9.83351
▁സിസ്റ്റം	-9.83429
▁ചിത്രത്തിന്റെ	-9.83491
▁പെൺ	-9.83545
▁പ്രദേശത്ത്	-9.83551
▁ശുദ്ധ	-9.83561
▁ആകാശ	-9.83589
▁തിരുവനന്തപുരത്ത	-9.83659
നാമ	-9.83674
▁അവയെ	-9.83702
ചന്ദ്ര	-9.83704
▁നിത്യ	-9.83714
വറ	-9.83789
▁വലിപ്പ	-9.83827
▁ഇഷ്ട	-9.83836
▁എന്ത	-9.83908
▁ബു	-9.83916
കാർ	-9.83926
ly	-9.83936
ഭേദ	-9.8395
pe	-9.83953
ുന്നതാണ്	-9.8406
യ്ക്കുള്ള	-9.84096
06"	-9.84112
ശാഖ	-9.84134
▁താള	-9.8415
▁സൈന്യം	-9.84266
▁പാക	-9.84269
▁ഭരണഘടന	-9.8432
ക്കുക	-9.84369
രുത	-9.84379
▁മകൻ	-9.84385
സസ്	-9.84424
▁ഘ	-9.84505
മാരെ	-9.84545
▁ചെയ്യുക	-9.84567
▁പ്രോ	-9.84611
▁വിവാദ	-9.84647
കുല	-9.84649
▁സങ്കല്പ	-9.84658
യായും	-9.84669
▁എന്നിരുന്നാലും	-9.84734
▁ഭാഗമായ	-9.84784
പ്പന	-9.8479
▁കേസ	-9.84813
▁കുഞ്ഞ	-9.84827
യൊ	-9.84837
താര	-9.84845
▁ദർശന	-9.84864
ent	-9.84953
▁കാര്യങ്ങൾ	-9.85044
▁മധുര	-9.85057
▁സർവ്വ	-9.85085
മെന്റ	-9.85086
ഭി	-9.85153
ഞ്ഞി	-9.85155
▁കർഷക	-9.85179
▁1.	-9.85187
ോട്ട	-9.85204
സമൂഹ	-9.85205
▁വലിപ്പം	-9.85211
▁തൊഴിൽ	-9.85271
▁പ്രദേശത്തെ	-9.85286
▁ബോധ	-9.85302
▁കാവ	-9.85335
▁ശ്രദ്ധിക്ക	-9.85375
▁അതുപോലെ	-9.85403
▁ഇരുപതാം	-9.85428
ോണി	-9.855
ക്കേ	-9.85511
▁ഭാര	-9.85524
ദർശന	-9.85614
▁കോർ	-9.85625
ന്മാരും	-9.8566
പൂ	-9.85662
▁ആള	-9.85684
▁ആഫ്രിക്ക	-9.85699
▁പിടിച്ച	-9.85724
si	-9.85781
▁പണിത	-9.85866
ran	-9.85868
ചിന്ത	-9.85879
▁ഇൻസ്റ്റിറ്റ്യൂ	-9.8589
▁ഒന്നു	-9.85898
▁സ്മാരക	-9.85914
▁കോളേജ	-9.8597
▁വാഹന	-9.85971
ുവാനുള്ള	-9.86003
▁–	-9.8601
യാക	-9.86064
റിക്	-9.8617
▁കടുത്ത	-9.86183
▁ജൈവ	-9.86231
▁സുവിശേഷ	-9.86244
▁പുനർ	-9.86267
▁വിദ്യ	-9.8627
▁ദീർഘ	-9.86289
ക്കള	-9.86292
▁ര	-9.86343
െഴുതിയ	-9.86371
▁ഒട്ടേറെ	-9.86391
▁കായിക	-9.86436
ലിംഗ	-9.86503
ചരിത്ര	-9.86526
▁മനസ്സിലാക്ക	-9.86553
മാണു	-9.8656
▁തുറമുഖ	-9.8661
▁ഉണ്ടാവ	-9.86672
ോറ	-9.8668
▁അനുഭവ	-9.86685
ങ്കി	-9.86686
സേന	-9.86688
▁തുടര	-9.86711
▁അതിരുകൾ	-9.86813
▁ലീഗ്	-9.86874
▁യൂണിയൻ	-9.86893
ന്ദ്ര	-9.86894
▁വിജയം	-9.86906
▁എഫ്	-9.86926
▁അതുകൊണ്ട്	-9.86965
▁ഉൾപ്പെടെ	-9.87029
▁ആര്യ	-9.87105
▁അയ	-9.87112
▁ജ്യോതിശാസ്ത്ര	-9.87137
സിസ്	-9.87151
▁അവകാശ	-9.87212
▁കുടുംബത്തിൽ	-9.87223
▁ഭൂപ്രകൃതി	-9.87235
▁മകനായി	-9.87242
▁ഏഷ്യ	-9.87282
▁ആറ്റ	-9.87305
സ്യ	-9.87318
ഡേ	-9.87319
ഘട്ട	-9.87324
ity	-9.87331
▁കൺ	-9.87358
▁ജില്ലാ	-9.8738
▁ഉച്ച	-9.8743
ാതിരുന്ന	-9.87445
▁തീരുമാന	-9.87482
▁കൽ	-9.87484
ിനുള്ള	-9.87496
▁പ്രതിനിധി	-9.87518
സ്കോ	-9.87519
▁ജനാധിപത്യ	-9.87576
ങ	-9.87586
ത്താണ്	-9.8759
ിച്ചത്	-9.87614
▁ചെമ്പ	-9.87632
ുകാർ	-9.87648
▁2012	-9.87699
▁ഡ്ര	-9.87769
ക്കൻ	-9.87796
േഷ്	-9.87823
േജ്	-9.87832
▁പട്ടാള	-9.8788
▁ബർ	-9.87927
ണ്ടു	-9.87941
▁ചിലർ	-9.87948
▁നേ	-9.87955
▁പിന്നെ	-9.87981
▁ഉൾപ്പെട്ട	-9.88003
ന്മാരെ	-9.88026
▁മുഖ്യമന്ത്രി	-9.88036
ന്ത്	-9.88082
പ്രതി	-9.88161
കളിലൂടെ	-9.8817
▁കാറ്റ	-9.8821
▁വിലയിരുത്ത	-9.88225
▁ഗണിത	-9.88282
എച്ച്	-9.88288
സംഘ	-9.88288
▁സാധിക്കും	-9.88298
▁നായ	-9.88324
▁ഗുഹ	-9.88333
▁കമ്പ	-9.88362
▁ഉൽ	-9.88385
തെങ്കിലും	-9.88389
പരമായി	-9.88398
▁വീട്ടിൽ	-9.88405
▁കാട്ട	-9.88416
▁സംരക്ഷിക്ക	-9.88418
യാണ	-9.88472
വിശ്വാസ	-9.88476
▁വ്യക്ത	-9.88478
▁അർ	-9.88482
▁സ്ഥാപക	-9.88515
▁സന്ദർശിച്ച	-9.88587
▁ക്രിസ്തുമത	-9.88588
ായിരിക്കും	-9.88628
▁ചിത്രത്തിലെ	-9.88723
▁പറ്റി	-9.88847
▁me	-9.88862
തായും	-9.88919
id	-9.88931
ക്കുട്ടി	-9.88959
▁തൂ	-9.89008
▁സ്വര	-9.89091
ചന	-9.89092
▁തെരഞ്ഞെടുക്ക	-9.891
▁എത്തിച്ചേര	-9.89108
-19	-9.89159
▁ചൊവ്വ	-9.89251
ായാണ്	-9.89266
▁സംയുക്ത	-9.89296
▁പിതാവ	-9.8934
▁ഒന്നും	-9.89363
000	-9.89385
മംഗലം	-9.89399
▁നടത്തുന്നു	-9.89518
ജല	-9.89525
ക്കൂ	-9.89591
തയുടെ	-9.89697
▁വിളിച്ചു	-9.897
ശു	-9.89701
‍,	-9.89708
▁രാശി	-9.8976
തു്	-9.8979
▁സഹായിക്ക	-9.89822
▁ഭൂമിയുടെ	-9.89843
▁കറ	-9.89921
▁തിരഞ്ഞെടുപ്പിൽ	-9.89964
ഏ	-9.89969
ഫെ	-9.9003
▁കമ്മിറ്റി	-9.90136
▁പ്രഥമ	-9.90137
▁ഒരിക്കൽ	-9.90147
▁ലഭ്യമാണ്	-9.90178
യാക്കി	-9.90254
തുമാണ്	-9.90277
ഡീ	-9.90299
▁മാനസിക	-9.9031
▁ആല	-9.90327
ാവശ്യ	-9.90329
ബോധ	-9.90344
▁സന്ദേശ	-9.90353
വാർ	-9.90378
▁റൂ	-9.90395
▁ക്യൂബ	-9.904
▁ഫ്രാൻസ	-9.9042
▁എടുത്തു	-9.90436
▁വിമർശന	-9.90483
▁അർദ്ധ	-9.9049
ഥി	-9.90568
നിർമ്മാണ	-9.90585
ുൾ	-9.90587
▁സമ്പ്രദായ	-9.90601
മുതൽ	-9.90603
ാത്മക	-9.90627
ില്ലാത്ത	-9.90676
▁പതി	-9.90718
▁ലഭിച്ചത്	-9.90735
▁ജലം	-9.90788
▁സ്ഥിര	-9.90824
സ്ഥാനം	-9.90827
▁വിനോദസഞ്ചാര	-9.90833
▁വിരുദ്ധ	-9.90894
റ്റ്സ്	-9.90897
ദർ	-9.90904
▁വായിക്ക	-9.90933
▁പാപ	-9.90933
▁ഹൈന്ദവ	-9.91008
ക്ഷൻ	-9.91059
bi	-9.91064
▁രാജാവിന്റെ	-9.91068
െന്നു	-9.91081
▁സർവ്വകലാശാല	-9.91133
▁യൂണിവേഴ്സിറ്റി	-9.91183
▁വ്യാസ	-9.9123
ർത്തി	-9.91234
▁പാർട്ടിയുടെ	-9.91237
ver	-9.91241
▁ലേ	-9.91287
ശാ	-9.91287
▁വരും	-9.91298
റ്റെ	-9.91376
▁പാദ	-9.91458
മഹാ	-9.91466
▁ഉപരിതല	-9.91468
▁സമാധാന	-9.91469
▁പശ്ചിമ	-9.91476
ട്ടിൽ	-9.91483
▁അദ്ധ്യായ	-9.9153
ിനെതിരെ	-9.9157
▁ഗ്രൂപ്പ	-9.91575
ലർ	-9.91609
സിന്	-9.91648
▁മക്ക	-9.91664
ളാ	-9.91677
▁ഗതാഗത	-9.9168
ിട്ട്	-9.91707
▁സിറ്റി	-9.91712
കരണ	-9.91724
▁മുറി	-9.91734
▁ശ്രദ്ധേയമായ	-9.91743
▁ലഭ്യമായ	-9.91765
ter	-9.9179
▁പൊട്ട	-9.91855
ab	-9.91901
▁ലോകത്തെ	-9.91916
▁നിറം	-9.92064
ha	-9.92077
യിലേക്കു	-9.92094
▁ബൈ	-9.92098
▁എങ്ങനെ	-9.92106
യാത്ര	-9.92178
വേദ	-9.92212
നിയമ	-9.92227
▁ആത്മ	-9.92229
▁മുഗൾ	-9.92239
▁ബസ്	-9.92252
പഥ	-9.92255
▁ചിത്രങ്ങളിൽ	-9.92263
ജീ	-9.92283
കുടുംബ	-9.92356
▁എന്നിവയിൽ	-9.9236
▁ആറ്	-9.92361
പ്പിച്ച	-9.92375
▁കഴിക്ക	-9.92375
ഷ്ണ	-9.92447
▁എന്നൊരു	-9.92452
ഭൂമി	-9.92459
നോട്	-9.92465
▁ടെലിവിഷൻ	-9.92489
▁കാന്തിമാനം	-9.92491
ൂരിൽ	-9.92501
▁ശ്രീരാമ	-9.92556
ബിയ	-9.9258
▁കിഴക്കു	-9.92729
ാധികാര	-9.92768
▁മൂത്ത	-9.9278
45"	-9.92787
ut	-9.92836
▁ബാധിച്ച	-9.92916
▁നബി	-9.92918
ുണ്ടെങ്കിലും	-9.92942
ca	-9.92953
▁ഭാഗങ്ങളിൽ	-9.92963
ർമ	-9.9297
വാൻ	-9.93013
▁ഇരട്ട	-9.93022
േണ്ടത്	-9.93092
ee	-9.93139
മായിരിക്കും	-9.93144
ന്തു	-9.93162
▁നടപടി	-9.93164
▁ബംഗാളി	-9.93179
▁ആൾ	-9.93202
കളിലാണ്	-9.93208
ാതിരിക്ക	-9.93245
▁ശ്രീകോവില	-9.93283
▁കീഴ്	-9.93291
▁to	-9.93393
▁ഖാ	-9.93402
കൊണ്ടു	-9.93402
▁തടയ	-9.93405
സാര	-9.93477
▁കഴു	-9.93506
▁പുറത്തേക്ക	-9.93573
▁രേഖപ്പെടുത്ത	-9.93576
ഢ	-9.93586
▁ഗീത	-9.93595
പഠന	-9.93596
▁ലക്ഷ	-9.93715
▁വകുപ്പ	-9.93739
ട്ടെ	-9.93742
▁നാട	-9.93784
▁കാണപ്പെടുന്നത്	-9.93806
ക്കാരും	-9.9383
▁വിശ്വസിക്കപ്പെട	-9.93879
ല്ലൂർ	-9.93884
▁തീർത്ത	-9.93888
▁സ്വീകരിച്ചു	-9.93956
ക്കട	-9.94017
▁ബുദ്ധിമുട്ട	-9.94031
▁ദില്ലി	-9.94046
▁നെറ്റ്	-9.94083
ana	-9.94117
▁മലയാളത്തിലെ	-9.94142
▁ദൈവം	-9.9419
ോണ	-9.94192
▁സംശയ	-9.94209
▁pa	-9.94221
ല്ലാതെ	-9.94223
ധര	-9.94233
കാലത്തെ	-9.94237
മുണ്ടായിരുന്നു	-9.94242
▁നാല	-9.94254
▁തരംഗ	-9.94287
വൂർ	-9.94303
ർത്ഥ	-9.94336
▁ബുദ്ധി	-9.94344
ഭാ	-9.94355
▁വച്ചു	-9.94398
▁ചടങ്ങ	-9.94412
▁ഇതിന	-9.94422
മതി	-9.94523
▁വില്ല	-9.94524
ാനാണ്	-9.94558
▁അവൾ	-9.94595
ാപ	-9.94607
രാണ്	-9.94659
ിക്	-9.94724
▁സൂക്ഷിക്ക	-9.94779
▁സജീവ	-9.94809
▁പോലെയുള്ള	-9.94812
പ്രവർത്തന	-9.94853
▁ഉപയോഗം	-9.94857
ീര	-9.94909
▁സഹായത്തോടെ	-9.94942
▁ആദി	-9.9502
ത്തോടു	-9.95126
▁പങ്കെടുത്ത	-9.95147
▁mo	-9.95148
റ്റുകൾ	-9.9515
▁പുറത്ത	-9.9518
▁കാര്യത്തിൽ	-9.95223
പ്പെട്ടിരുന്നു	-9.95227
ക്കം	-9.95308
▁29	-9.95308
▁അനുകൂല	-9.9532
പേര	-9.95371
വിദ്യ	-9.95391
▁രഹസ്യ	-9.95439
▁ആത്മഹത്യ	-9.95481
വൃത്തി	-9.95512
▁കഥകളി	-9.95566
▁കുറവ	-9.95574
▁പ്രസംഗ	-9.95598
സൽ	-9.95643
ക്കുവേണ്ടി	-9.95644
▁തീരുമാനിച്ചു	-9.9567
െയും	-9.95673
▁കുറു	-9.95679
▁ചെന്നൈ	-9.95693
▁കേട്ട	-9.95712
ഗാന	-9.95715
ാത	-9.95742
ക്ഷി	-9.95748
രക്ഷ	-9.95792
▁തുക	-9.95817
▁സാമൂതിരി	-9.95846
▁മദീന	-9.95867
റ്റിൽ	-9.95892
േക്ക	-9.95922
േയ	-9.95933
▁ആഭ്യന്തര	-9.96025
ാമത്തെ	-9.96103
tt	-9.96154
▁പഞ്ചായത്തിലെ	-9.96172
▁ആസ്	-9.96204
വേഷ	-9.9621
▁ബഹിരാകാശ	-9.96214
ph	-9.96291
മ്മി	-9.96308
▁അമിത	-9.96353
▁ലിം	-9.96512
]],	-9.96513
വേഗ	-9.96522
കലാ	-9.9658
▁പഠിച്ച	-9.9661
▁വ്യാപകമായി	-9.96659
ങ്ങളിലേക്ക്	-9.96692
മാത്ര	-9.96714
ian	-9.96727
രാഗ	-9.96744
വച്ച്	-9.9675
വിട	-9.96752
▁പൂര	-9.96935
▁ആയുധ	-9.96942
▁നശിപ്പിക്ക	-9.96956
▁അശോക	-9.96957
റസ്	-9.96967
▁തുടങ്ങ	-9.97
▁ഷി	-9.97011
മൊ	-9.97062
യേറ്റ	-9.97097
▁സഞ്ചാര	-9.97102
▁അനന്ത	-9.97154
ിയെ	-9.97172
▁പന	-9.97204
ാണു്	-9.97205
ിച്ചിരുന്നു	-9.97207
ജ്ജ	-9.97234
▁മാസിക	-9.97291
▁പണിയ	-9.97327
▁പിന്തുടർന്ന	-9.97328
▁കലണ്ടർ	-9.97338
▁ദർശനം	-9.9742
▁ശക്ത	-9.97427
▁ജർമ്മൻ	-9.97451
▁2004	-9.97461
▁എടുത്ത	-9.97511
▁ഓർത്തഡോക്സ്	-9.97513
▁കൊട്ടാര	-9.97523
▁ഓർമ്മ	-9.9754
ak	-9.97607
▁ലീ	-9.97613
▁ശിഷ്യ	-9.97667
പീ	-9.97672
▁സിംഹ	-9.97699
യാണെന്ന്	-9.97788
▁ഗ്രിഗോറിയൻ	-9.97887
▁മനസ്സ	-9.97943
▁അത്ര	-9.97966
▁ആഴ	-9.97985
ot	-9.98004
▁എന്നിവരുടെ	-9.98049
▁മുതല	-9.98054
▁പുരോഹിത	-9.98084
ഗ്രാമ	-9.9818
ചക്ര	-9.98206
യെല്ലാം	-9.98324
▁യൂറോപ്പ	-9.98342
ര്	-9.98347
▁മാറ്റങ്ങൾ	-9.98348
▁പോളി	-9.98407
ശേഷി	-9.98412
▁ബ്രിട്ടീഷുകാർ	-9.98451
▁പ്രവേശിക്ക	-9.98499
▁പൊതുവെ	-9.98536
▁മരിച്ചു	-9.98555
▁റഷ്യൻ	-9.98574
▁സഹോദര	-9.98591
▁മുന്ന	-9.98602
▁അതിനുശേഷം	-9.9861
▁നക്ഷത്രങ്ങൾ	-9.9861
ദിന	-9.98632
▁സമാനമായ	-9.98655
▁ആക	-9.9866
▁യുഗ	-9.98715
യൽ	-9.98785
▁മഹാഭാരത	-9.98845
▁അല്ല	-9.9886
ധന	-9.98866
▁നഗരത്തിൽ	-9.98892
▁ഇക്കാലത്ത്	-9.98895
ho	-9.9891
▁ഇതാണ്	-9.98912
▁ത്ര	-9.99047
▁സ്റ്റ	-9.99063
▁ശരി	-9.99064
ke	-9.99123
▁പ്രത്യേകതകൾ	-9.99133
ോളജി	-9.9916
ന്റെയും	-9.99183
▁പഠനങ്ങൾ	-9.99208
▁ക്രമേണ	-9.99208
▁ഡൽഹി	-9.99208
ിയാണ്	-9.99224
▁ഗവ	-9.99279
▁സ്വർണ്ണ	-9.99298
▁ശ്രമിച്ച	-9.99436
!	-9.9945
▁സഖ്യ	-9.9945
▁na	-9.99459
▁പിള്ള	-9.99463
▁സിനിമാ	-9.99492
▁പാമ്പ	-9.99521
▁അറിയപ്പെട്ടിര	-9.99549
▁പടി	-9.99559
▁വിസ്തീർണ്ണമുള്ള	-9.99589
ശേഖര	-9.99611
▁വേല	-9.99629
▁വിശ്വസിക്കുന്നു	-9.99642
-1	-9.99664
▁പ്രൊ	-9.9973
▁വാക്ക	-9.99744
▁പൗര	-9.99779
▁ചീ	-9.99813
▁മുന്നിൽ	-9.99826
ങ്ക്	-9.99833
റിയാ	-9.99835
ള്ളി	-9.99858
▁ഐക്യ	-9.99908
▁പ്രതീക	-9.99927
▁അപ്പോൾ	-9.99961
▁സംസാരിക്കുന്ന	-9.9997
പ്പൊ	-9.99984
▁സൗകര്യ	-9.9999
മിന	-9.9999
ീന	-10
▁മതി	-10.0001
▁കാണുക	-10.0002
ക്കുളം	-10.0002
▁നാലാം	-10.0003
നൂ	-10.0008
▁സൗര	-10.0012
ക്കുകൾ	-10.0016
വച്ചു	-10.0018
▁ഉദയ	-10.0022
▁കിട്ട	-10.0024
▁60	-10.0029
▁സൂക്ഷ്മ	-10.0035
ിയോ	-10.005
▁പഞ്ചായത്ത	-10.0051
ൊന്ന	-10.0053
▁ഇല്ലാത്ത	-10.0053
▁വേദന	-10.0071
▁ബഹുമതി	-10.0075
▁കേരളത്തിന്റെ	-10.0076
▁പിടി	-10.0079
▁അദ്ധ്യാപക	-10.0079
▁ഓണ	-10.0081
പ്രതിഷ്ഠ	-10.0082
▁പ്രത്യേകിച്ച്	-10.0084
ൈറ്റ്	-10.0088
▁വസ്ത്ര	-10.0093
▁അന്വേഷണ	-10.0093
▁പ്രായ	-10.0094
lu	-10.0097
▁നടക്കുന്നത്	-10.0097
▁പ്രവാചക	-10.0098
▁നടത്തിയത്	-10.01
▁റീ	-10.01
▁സർവ	-10.01
സിദ്ധാന്ത	-10.0101
ക്ത	-10.0103
റൽ	-10.0109
▁ഒന്ന്	-10.011
▁വെളി	-10.0111
▁അഗ്ര	-10.0111
നേതാക്കള	-10.0116
▁കക്ഷി	-10.0121
മാണ	-10.0123
▁തമിഴ	-10.0127
▁ആം	-10.0127
▁2014	-10.0127
വിൻ	-10.0128
നുമായ	-10.0131
▁സ്ഥലങ്ങളിൽ	-10.0132
രാഷ്ട്ര	-10.0136
ാങ്ക	-10.0137
▁പ്രശ്നങ്ങൾ	-10.0144
▁അപേക്ഷിച്ച്	-10.0153
▁ടെക്	-10.0155
▁കേന്ദ്രം	-10.0156
വരിൽ	-10.016
▁നൈ	-10.016
▁ഇന്ന	-10.0165
▁സ്ഥാപനങ്ങൾ	-10.0167
▁നിലവിലുള്ള	-10.0171
▁രൂപത്തിൽ	-10.0171
▁കൊടുക്ക	-10.0172
ുളള	-10.0176
▁മറ്റ	-10.0182
▁മൗ	-10.0186
▁പുറം	-10.0187
▁രംഗത്ത്	-10.0188
▁വാർത്ത	-10.0188
tu	-10.019
▁ഭയ	-10.0191
ോളി	-10.0196
റൂ	-10.0209
▁വധശിക്ഷ	-10.021
േഷന	-10.0212
▁നേരിട്ട്	-10.0221
മുണ്ടായ	-10.0232
ഭാരത	-10.0241
▁ചരിത്രത്തിൽ	-10.0243
യുഗ	-10.0247
▁സൊസൈറ്റി	-10.0249
ീകരിച്ച	-10.0253
മീറ്റർ	-10.0259
പിടി	-10.0264
▁ആരംഭിച്ചത്	-10.0265
രിക	-10.0268
▁sa	-10.027
ഞ്ച്	-10.0271
▁പ്ലാ	-10.0276
▁മത്സരത്തിൽ	-10.0278
▁പേരിനു	-10.028
▁ഉണ്ടായി	-10.0281
▁ഉത്പാദന	-10.0288
ങ്ങളായിരുന്നു	-10.0289
▁പൂർണ്ണമായും	-10.029
േഷ്യ	-10.0294
േന്ദ്ര	-10.0294
▁ഗണിതശാസ്ത്ര	-10.0296
ഴിഞ്ഞ	-10.0298
▁പക്ഷെ	-10.0301
▁ബാക്കി	-10.0304
കൂട്ട	-10.0317
▁കുല	-10.0322
▁ജ്ഞാന	-10.0326
▁2013	-10.0328
▁പ്രവർത്തക	-10.0336
ന്യ	-10.0337
▁കരുത	-10.0341
▁പണ	-10.0346
­	-10.0348
ക്കിയ	-10.0348
ുമെന്ന	-10.035
▁1,	-10.0353
കാന്ത	-10.0357
▁ഉണ്ടാക്കിയ	-10.0358
▁ഇന്നു	-10.0375
po	-10.0378
ീർ	-10.038
നുസരിച്ച്	-10.0381
ദോ	-10.0382
േണ്ടത	-10.0383
ട്ടാ	-10.0384
▁കർണാടക	-10.0387
▁അടുത്തുള്ള	-10.0388
▁സാധിക്ക	-10.0389
▁രസ	-10.0391
ge	-10.0393
▁എടുക്ക	-10.0394
▁തന്ത്ര	-10.0396
▁നാള	-10.0402
▁ഭാഗമാണ്	-10.0403
▁മുൻപ	-10.0404
▁ഗോള	-10.041
▁അറ്റ	-10.0414
ا	-10.0427
▁ടീമ	-10.043
ോർ	-10.0431
▁പുറത്ത്	-10.0432
▁സാര	-10.0433
▁ദേവത	-10.0434
▁പ്രതിഭാസ	-10.0436
ദ്ദ	-10.0437
▁കേന്ദ്രീകരിച്ച	-10.0439
വട	-10.0444
▁ജർമ്മനി	-10.0445
▁സെൻ	-10.0445
▁മുസ്ലീം	-10.0447
ികളും	-10.0449
▁പരീക്ഷ	-10.0452
▁ദ്രാവിഡ	-10.0454
▁നൽകിയത്	-10.0455
ല്ലാ	-10.0458
▁സ്റ്റോ	-10.0468
▁സംഭാവനകൾ	-10.0468
▁മൂന്നാമത്തെ	-10.0468
▁സേവനം	-10.0468
▁ആഫ്രിക്കൻ	-10.0471
▁ശരിയായ	-10.0475
▁ആനന്ദ	-10.048
ന്ധ	-10.0481
ളു	-10.0485
▁ടീം	-10.0485
▁ഇളയ	-10.0488
▁ഉൾക്കൊള്ളുന്ന	-10.0499
▁വരുന്നത്	-10.0502
മുണ്ടായിരുന്ന	-10.0503
മില്ലാതെ	-10.0507
▁തെയ്യ	-10.0507
▁അസ്ഥി	-10.0509
▁ദ്രവ്യ	-10.0511
ോപ	-10.0511
ിയാ	-10.0512
▁തന്മാത്ര	-10.0515
▁ബലി	-10.0516
▁നല്ക	-10.0516
▁ചുവന്ന	-10.0517
യെക്കുറിച്ച്	-10.0519
tra	-10.0519
▁co	-10.0519
▁വകുപ്പ്	-10.0522
▁ജൂ	-10.0523
▁ഉടമ്പടി	-10.0528
▁വള	-10.0534
▁സ്വാഭാവിക	-10.0536
ത്തെപ്പറ്റി	-10.0539
▁തുടർച്ചയായി	-10.054
ിങ്ങ	-10.0545
▁നിക്ഷേപ	-10.0546
▁മദ്രാസ്	-10.0548
▁വർദ്ധിപ്പിക്ക	-10.0548
ക്റ്റ	-10.0548
ികളെ	-10.0549
▁മുന്നോട്ടു	-10.055
▁ക്ഷേത്രത്തിന്റെ	-10.0551
▁ആശുപത്രി	-10.0554
▁r	-10.0554
ചലച്ചിത്രം	-10.0558
ുന്നില്ല	-10.0559
▁ഏതു	-10.0566
▁ഉം	-10.0566
▁ഭക്ഷ്യ	-10.0568
ളീ	-10.0577
നിലെ	-10.0584
▁സൃഷ്ടിച്ച	-10.0587
▁ദൂരം	-10.0588
വ്യതിയാന	-10.0588
സ്റ്റോ	-10.0594
യെങ്കിലും	-10.0595
▁പാത്ര	-10.0598
▁ca	-10.0603
കളുടേയും	-10.0606
ക്കളുടെ	-10.0608
▁ആവശ്യമായ	-10.061
▁മാത്ര	-10.061
▁ഒഫ്	-10.0613
▁കെട്ടി	-10.0613
▁ഫ്ര	-10.0614
▁നായക	-10.0616
▁സർക്കാരിന്റെ	-10.0622
യാൻ	-10.0624
സറ	-10.0626
▁വിമാനത്താവളം	-10.0628
▁ശേഷി	-10.0629
▁ബാഹ്യ	-10.0629
കൃതി	-10.063
▁പലരും	-10.063
▁കാമ	-10.0631
▁+	-10.0632
▁കൊണ്ടാണ്	-10.064
▁അണു	-10.0642
ുമെന്നും	-10.0643
▁സ്വീ	-10.065
▁പക്ഷ	-10.0658
കീ	-10.0664
▁പഞ്ചായത്തിൽ	-10.0666
▁വർഷവും	-10.0668
▁പാട്ട	-10.067
നക്ഷത്ര	-10.0673
▁പോരാട്ട	-10.0673
▁സംഭവിക്ക	-10.0681
ങ്കോ	-10.0681
▁നടന്നത്	-10.0685
▁ബാബ	-10.0688
ൊന്നും	-10.0688
▁ലോകമഹായുദ്ധ	-10.069
▁മറുപടി	-10.0691
▁വിഗ്രഹ	-10.0694
ോടു	-10.0694
മുട്ട	-10.0699
▁തൂക്ക	-10.0704
▁ബാങ്ക്	-10.0709
▁ദിവസങ്ങൾ	-10.0709
▁ചോള	-10.0711
▁പ്രകാശവർഷം	-10.0713
▁വികസിപ്പിച്ച	-10.0716
▁കലർന്ന	-10.0719
▁പ്രവൃത്തി	-10.0719
േറിയ	-10.0722
ിരിക്കാം	-10.0727
ായിട്ടാണ്	-10.0728
ക്ടർ	-10.0729
ൻറെ	-10.0729
▁ഒരാൾ	-10.0733
▁പരിഗണിക്ക	-10.0736
▁വർഷത്തെ	-10.0738
▁ലൂ	-10.0739
▁പങ്കെടുക്ക	-10.0741
െടുത്ത്	-10.0743
ർക്കും	-10.0749
▁അണക്കെട്ട	-10.0751
▁പഠിപ്പിക്ക	-10.0752
▁അടിസ്ഥാനത്തിൽ	-10.0754
ട്ടർ	-10.0756
ന്നൂർ	-10.0758
all	-10.0758
▁മേല	-10.0762
▁പൂവ	-10.0762
▁നിലവിലുണ്ട്	-10.0762
▁ഇള	-10.077
ജു	-10.0772
▁ഭർത്താവ	-10.0773
മിന്റെ	-10.0775
▁പിണ്ഡ	-10.0781
600	-10.0782
▁ലഘു	-10.0787
ടിയ	-10.0789
▁നഗരത്തിന്റെ	-10.079
tha	-10.0791
▁പുന	-10.0792
▁പാഠ	-10.0792
▁ആൻ	-10.0793
▁വസ്തുക്കൾ	-10.0795
▁സമതല	-10.08
▁അക്	-10.0809
ഡർ	-10.081
▁80	-10.0818
▁ഉദ്	-10.0818
▁ഫൈ	-10.082
▁കൊച്ചു	-10.0824
▁ഉയരത്തിൽ	-10.0825
▁ഇക്	-10.0829
▁ആസ്ഥാനം	-10.0837
▁ചൈനീസ്	-10.0837
ഡൻ	-10.0839
▁പതിവ	-10.084
▁പാകിസ്താന	-10.0844
കുന്ന	-10.0844
▁പറയാം	-10.0847
▁പിടിക്ക	-10.0849
പറയ	-10.085
കളായിരുന്നു	-10.085
▁കച്ചവട	-10.085
▁പ്രഖ്യാപിക്ക	-10.0856
▁ബൈബിൾ	-10.0857
▁പിടിച്ചു	-10.0857
▁വില്യം	-10.0862
fi	-10.0863
▁ലിഖിത	-10.0867
▁സ്വാതന്ത്ര്യം	-10.0868
▁വാക്യ	-10.0874
ل	-10.0876
▁നിർബന്ധ	-10.0876
ram	-10.088
ിയിട്ടുണ്ട്	-10.0889
ക്കിന്റെ	-10.089
▁മഹാദേവ	-10.0895
▁ദശലക്ഷം	-10.0896
▁വിധ	-10.0897
ദിവസം	-10.0899
▁എലി	-10.0899
▁പാൽ	-10.0901
▁സഹോദരി	-10.0909
വൃത്ത	-10.0912
▁നയിച്ച	-10.0913
▁നീക്കം	-10.0913
ാർഥ	-10.0916
▁ചെയ്തിട്ടുണ്ട്	-10.0917
▁ശി	-10.0917
▁മുതിർന്ന	-10.0919
em	-10.0923
▁പുണ്യ	-10.0925
ിലേക്കുള്ള	-10.0926
▁ആഗോള	-10.0929
ിനെയും	-10.0938
രുത്	-10.094
ത്തറ	-10.0942
ല്ലോ	-10.0943
▁വർണ	-10.0943
▁അവതാര	-10.0945
▁ശില്പ	-10.0947
▁കരു	-10.095
റിലെ	-10.0954
ിരിക്കണം	-10.0957
▁ഫുട്ബോൾ	-10.0961
▁കന്നഡ	-10.0961
ദൂ	-10.0961
ഭ്യ	-10.0967
▁കന	-10.0972
▁പേരിലാണ്	-10.0972
മണ്ഡല	-10.0977
▁സഹായിക്കുന്നു	-10.0982
▁പ്രക്ഷോഭ	-10.0983
▁വയ്ക്ക	-10.099
▁രാഗ	-10.0992
700	-10.0995
▁കിഴക്കേ	-10.0995
▁നേരെ	-10.0996
sp	-10.0999
▁പാകിസ്താൻ	-10.1003
▁തോട്ട	-10.1004
▁ഇബ്നു	-10.1005
▁കർമ്മ	-10.1009
ചേര	-10.101
oor	-10.1012
േഴ്സ	-10.1015
▁ആൽ	-10.1022
▁അമ്പ	-10.1027
ത്തിനുള്ളിൽ	-10.1032
ക്വ	-10.1033
bu	-10.1035
▁നിശ്ചിത	-10.1037
ട്ടൺ	-10.1037
െടുത്തു	-10.1038
ിപ്പിക്കുന്ന	-10.1041
രൂപം	-10.1042
ക്കോട്ട	-10.1048
▁വിദഗ്ദ്ധ	-10.1051
▁പണം	-10.1052
ാ‍	-10.1059
▁കുടിയേറ്റ	-10.106
▁പോൾ	-10.106
▁ലളിത	-10.106
വാന	-10.1061
▁പങ്ക്	-10.1066
▁പൂർണ	-10.1067
▁പൂർവ	-10.1068
▁പരിധി	-10.1069
മറ	-10.1072
യുമായ	-10.1075
▁ആരാധന	-10.1075
ക്കാരെ	-10.1076
ീകരണം	-10.1078
ക്കെ	-10.1078
▁റൈ	-10.1082
▁x	-10.1083
വിടെ	-10.1086
ുകളിലെ	-10.1088
▁വൈദിക	-10.1088
▁രാമൻ	-10.1088
▁ശിലാ	-10.1094
സേ	-10.1095
▁യുവ	-10.1096
യിലായിരുന്നു	-10.1096
ഇംഗ്ലീഷ്	-10.1099
▁ആശയം	-10.1101
▁അമ്പല	-10.1102
▁തലമുറ	-10.1103
▁എഴുതപ്പെട്ട	-10.1109
▁പ്രസ്തുത	-10.1109
▁മന്ത്ര	-10.1109
▁ആഹാര	-10.111
00"	-10.111
▁സൂര്യന്റെ	-10.1112
▁സന്ധി	-10.1115
ജാത	-10.112
▁തെളിയിക്ക	-10.1122
▁എതിർപ്പ	-10.1122
▁കഴിഞ്ഞ്	-10.1126
▁എതിർ	-10.1129
ിച്ചിരുന്ന	-10.1131
▁ഭൂരിഭാഗവും	-10.1131
നാടക	-10.1135
▁gramapanchayath	-10.1135
▁ലു	-10.1135
ിയായി	-10.1144
ിതമായ	-10.1145
▁വട്ട	-10.1146
500	-10.1146
▁തൈ	-10.1149
▁മർദ്ദ	-10.1155
▁മാർഗ	-10.1157
▁കൂടുതലായി	-10.1159
▁ഞ	-10.1165
▁അംഗീകരിച്ച	-10.1166
▁ജനത	-10.1169
▁ആകൃതി	-10.117
പോക	-10.1171
ജാതി	-10.1173
▁ആയിരിക്കും	-10.1173
°	-10.1175
ൂൺ	-10.1175
ഭവ	-10.118
▁ഉൾപ്പെടുത്തിയ	-10.1188
▁വർഷങ്ങൾ	-10.1192
▁പരസ്യ	-10.1197
▁തുറന്ന	-10.1201
▁അന്യ	-10.1202
▁ദന്ത	-10.1206
▁കഴിഞ്ഞാൽ	-10.1208
▁മാക്	-10.121
▁ലഭിച്ചിട്ടുണ്ട്	-10.1216
യല്ല	-10.1219
വാദം	-10.1223
ണർ	-10.1224
ാട്ട്	-10.1224
ഗുണ	-10.1225
ക്കാലത്ത്	-10.1227
ത്രേ	-10.1227
▁ഈസ്റ്റ്	-10.1233
▁കണ്ട്	-10.1243
▁നടത്തുകയും	-10.1246
▁സിനിമയിൽ	-10.1248
▁അളവ്	-10.1249
പ്രസ്ഥാന	-10.1253
▁film	-10.1255
▁ലീഗ	-10.1257
ീൽ	-10.126
ദ്ധ്യ	-10.1269
▁തിരിച്ചറിയ	-10.1271
▁സിദ്ധാന്തം	-10.1272
▁നാണയ	-10.1278
▁സുന്ദര	-10.1278
▁കഥാ	-10.1279
mb	-10.128
▁ബാങ്ക	-10.128
▁വേൾഡ്	-10.1284
▁ഉണ്ണി	-10.1285
tri	-10.1288
▁അനുമാന	-10.1289
ൻസി	-10.129
▁വക	-10.1292
മസ്	-10.1295
▁മോശ	-10.1297
▁അവര	-10.1298
م	-10.1304
▁ജൂത	-10.1309
ളോ	-10.1312
▁മക്കള	-10.1312
▁പരാജയപ്പെടുത്തി	-10.1316
▁സ്ത്രീകൾ	-10.1317
▁ആൽബ	-10.1324
ഞ്ഞ്	-10.1325
▁ഇന്ധന	-10.1326
▁കോൺ	-10.1326
▁മൈക്രോ	-10.1326
പ്ത	-10.1334
▁എയർ	-10.1337
▁ആദിവാസി	-10.1341
▁പുരോഗതി	-10.1343
▁അല്പം	-10.1345
യമ്മ	-10.1352
▁കണക്കാക്കുന്നു	-10.1352
▁പരാജയ	-10.1353
പ്പം	-10.1356
▁നിൽക്ക	-10.136
▁സ്ട്ര	-10.1363
▁കർ	-10.1364
▁കാരണമായ	-10.1365
ുദ്ദീൻ	-10.1369
▁കാട്ടു	-10.137
ാനന്ദ	-10.137
▁ജീവിക്കുന്ന	-10.1373
മലയാള	-10.1375
▁പരിണാമ	-10.1381
▁ചിറ	-10.1386
▁താമസ	-10.1388
▁ക്ര	-10.139
ൻഡ്	-10.1395
▁2003	-10.1395
തല്ല	-10.1403
▁ഇവിട	-10.1412
ാടി	-10.1413
ട്ടൻ	-10.1418
സ്സി	-10.142
ക്കൊണ്ട്	-10.1424
▁കുരു	-10.1424
െത്തി	-10.143
വർത്ത	-10.1432
ക്കാലം	-10.1435
▁നിരീക്ഷിക്ക	-10.1435
▁ഭീഷണി	-10.1435
pu	-10.1438
om	-10.1438
പുരുഷ	-10.144
രംഗത്ത്	-10.144
▁കാര്യമായ	-10.1445
sh	-10.1448
▁കുട്ടികൾ	-10.1452
▁മൂർ	-10.1453
സ്കി	-10.1454
▁ഇതര	-10.1454
ധാ	-10.1456
▁രാഷ്ട്രപതി	-10.146
▁വീഡിയോ	-10.146
▁സ്പ	-10.1461
▁പ്രഭു	-10.147
ക്കാരൻ	-10.1471
▁വോ	-10.1473
റൈ	-10.1476
പാർ	-10.1484
▁തുടക്ക	-10.1484
▁വ്യത്യസ്തമായി	-10.1484
▁മടങ്ങി	-10.1485
▁ഓസ്ട്രേലിയ	-10.1489
▁നിർത്ത	-10.1491
▁നീളമുള്ള	-10.1495
ങ്ങാട്	-10.1495
▁രാജി	-10.1498
ത്താൻ	-10.1499
ുക്കൾ	-10.1499
ഭൂ	-10.1502
▁പടിഞ്ഞാറു	-10.1505
കിട	-10.1508
▁പങ്ക	-10.1508
▁മതം	-10.1509
▁അറേബ്യ	-10.1511
▁വാങ്ങ	-10.1515
▁ഔ	-10.1515
▁നെടു	-10.1519
▁രോഗി	-10.152
▁നോവൽ	-10.1526
▁ഇറ്റലി	-10.153
ത്തിലായിരുന്നു	-10.1536
▁താഴ്ന്ന	-10.154
തെന്നു	-10.1544
നാർ	-10.1545
▁സഞ്ചരിച്ച	-10.1547
▁അളവ	-10.1547
▁അസ്	-10.1547
ബീ	-10.1549
▁തെളിവ	-10.1549
▁തലസ്ഥാനമായ	-10.1549
▁(1	-10.155
▁കഴിവ	-10.155
യിന	-10.1557
▁സുഖ	-10.1558
▁രാമായണ	-10.1567
gu	-10.1568
▁അദ്ദേഹത്തിനു	-10.1568
പ്പിച്ചു	-10.1571
▁കുറയ്ക്ക	-10.1576
ാണെന്നും	-10.1582
▁പ്രണയ	-10.1588
▁ഘടകങ്ങൾ	-10.1588
▁തരത്തിലുള്ള	-10.1589
▁ധാരാളമായി	-10.159
വന്നു	-10.1591
▁മണിക്കൂറ	-10.1591
▁ഉത്തമ	-10.1592
▁ചുറ്റി	-10.1593
ag	-10.1594
▁ഭാ	-10.1594
▁കാന്തിക	-10.1599
▁സഹകരണ	-10.16
കുളം	-10.1601
ിപ്പിച്ചു	-10.1602
▁വർക്ക	-10.1606
▁കള്ള	-10.1611
ഖ്യ	-10.1612
▁അലങ്കാര	-10.1614
▁കണ്ടുപിടിത്ത	-10.1614
▁ഉത്പാദിപ്പിക്ക	-10.1614
▁നദിയുടെ	-10.1615
▁രാജാ	-10.1615
▁താഴ്വര	-10.1616
▁നിയമങ്ങൾ	-10.1621
ക്കാരനായ	-10.1626
▁ശേഖര	-10.1628
▁ലൈ	-10.163
▁ഉത്സവം	-10.1634
्	-10.1635
▁അനുവദിക്ക	-10.1636
▁പുരാവസ്തു	-10.1637
▁അയ്യ	-10.1637
വം	-10.164
▁വസ്തുക്കള	-10.1642
ക്കൂടി	-10.1652
▁ഇനി	-10.1653
കളില	-10.1653
▁നൂറ്റാണ്ടു	-10.1654
▁ഭഗവാൻ	-10.1659
▁യുക്തി	-10.1659
▁സൂക്ഷിച്ച	-10.1661
▁ഡിഗ്രി	-10.1661
മാനം	-10.1666
▁വെയറ	-10.1668
▁കളിക്കാര	-10.1672
▁വളർന്നു	-10.1672
▁ഡീ	-10.1675
▁ടൈ	-10.1678
▁മെഡിക്കൽ	-10.1682
ex	-10.1684
ant	-10.1684
▁സ്കൂളിൽ	-10.1687
യുക്ത	-10.169
ക്കാരായ	-10.1691
▁കപ്പ	-10.1692
രുവ	-10.1693
യിൻ	-10.1697
▁തറ	-10.1698
ാകട്ടെ	-10.1698
▁എന്നിവരാണ്	-10.1699
ാഴ്ച	-10.17
വിധ	-10.17
കൽ	-10.1706
▁എന്നിവയെ	-10.1708
സല	-10.171
തിനാലാണ്	-10.1714
സ്ഥാപന	-10.1716
▁നക്ഷത്രം	-10.1722
▁പരിസ്ഥിതി	-10.1728
കവി	-10.1729
▁വിളിക്കുന്നത്	-10.1733
ക്കാൾ	-10.1738
സംഘടന	-10.1739
രിഞ്ഞ	-10.174
▁വലുത	-10.174
▁കണ്ടുപിടിക്ക	-10.1741
▁200	-10.1743
പെടുത്ത	-10.1744
▁പ്രോഗ്രാമ	-10.1745
▁തട്ട	-10.1745
▁പുര	-10.1746
▁ഖണ്ഡ	-10.1749
▁വ്യത്യാസം	-10.175
ുവിന്റെ	-10.1756
▁ചുമ	-10.1758
▁ഹു	-10.1759
ുവെന്നും	-10.1764
▁നക്ഷത്രരാശി	-10.1765
▁നടപ്പിലാക്ക	-10.1767
▁മനുഷ്യൻ	-10.1768
▁അണക്കെട്ട്	-10.177
▁പുരസ്കാരങ്ങൾ	-10.1772
▁കാർബൺ	-10.1773
കർഷ	-10.1776
നസ്	-10.1777
ശീ	-10.178
▁അത്തരം	-10.1781
ക്കാട	-10.1782
▁ശിവക്ഷേത്ര	-10.1784
▁താമസം	-10.1792
▁എത്ര	-10.1797
▁റേ	-10.1797
▁ആത്മാവ	-10.1804
▁കോല	-10.1805
മാറി	-10.1807
ണ്ണി	-10.1808
പ്ല	-10.1812
ങ്കര	-10.1815
▁കാട	-10.1815
▁പിൽക്കാല	-10.1818
ൿ	-10.1818
▁സന്ദർശിക്ക	-10.1818
▁ശതക	-10.1821
▁ra	-10.1825
ment	-10.1826
▁സൂ	-10.1826
ശാസ്ത്രജ്ഞ	-10.1828
▁ഗ്രന്ഥം	-10.183
▁ba	-10.1831
ഞ്ചേരി	-10.1833
ലേറ്റ	-10.1837
▁നീക്ക	-10.1839
ങ്ങളെല്ലാം	-10.1842
▁മാസത്തിൽ	-10.1842
▁അനുമതി	-10.1843
▁ഈശ്വര	-10.1844
ാസന	-10.1845
▁ഓർ	-10.1852
പേ	-10.1854
▁തങ്ങൾ	-10.1855
ng	-10.1857
▁അച്ഛൻ	-10.1865
ത്തിലോ	-10.1866
▁രാജവംശ	-10.1866
▁താലൂക്കിലെ	-10.1872
ഘടക	-10.1873
au	-10.188
▁നിർദ്ദേശ	-10.188
▁ഉയർന്നു	-10.1881
▁ക്രിയ	-10.1884
▁അഷ്ട	-10.1885
ിയിരുന്നു	-10.1886
▁ഗർഭ	-10.1887
▁സൂചന	-10.1888
▁തലസ്ഥാനം	-10.1889
▁മനുഷ്യന്റെ	-10.1899
ബ്രാ	-10.1899
ay	-10.19
▁പരാമർശ	-10.1904
▁വാർഷിക	-10.1904
▁ഇവയ്ക്ക്	-10.1912
▁കൃഷ്ണൻ	-10.1917
▁ഉദാ	-10.1919
ിംഗ	-10.192
▁നാവിക	-10.1925
▁കാണുന്നത്	-10.193
▁സുൽത്താൻ	-10.1934
▁രാവിലെ	-10.1934
▁ലോക്സഭ	-10.1934
സ്പെ	-10.1935
▁നന്നായി	-10.1936
▁ലിംഗ	-10.1942
▁അവസാനത്തെ	-10.1946
പ്പാട്ട	-10.1949
സാമ	-10.1954
ജ്ഞാന	-10.1957
▁ആകർഷണ	-10.1957
▁ഭീകര	-10.1957
▁തദ്ദേശീയ	-10.1961
▁അങ്ക	-10.1966
ിക്കപ്പെടുന്ന	-10.197
യ്ക്കൽ	-10.1971
ത്തിനെതിരെ	-10.1973
▁നൂ	-10.1975
▁ജീവന	-10.1975
▁പുരസ്കാര	-10.198
തിനുശേഷം	-10.1987
സമയത്ത്	-10.1997
ഹം	-10.2
▁ക്യാ	-10.2003
ദാന	-10.2005
▁യൂണിയന	-10.2005
ദാസ്	-10.2006
മെന്നും	-10.2008
ാക്കിയ	-10.2008
കുട്ടി	-10.2011
▁ഉണ്ടാക്കുന്ന	-10.2011
▁ആത്മീയ	-10.2011
▁ഡൈ	-10.2015
▁ടെസ്റ്റ്	-10.2017
▁നോക്ക	-10.2022
▁വാദം	-10.2022
ചെയ്ത	-10.2026
▁കപ്പൽ	-10.2026
▁ഒളി	-10.203
രൂ	-10.203
▁ഏഷ്യൻ	-10.2031
▁ധരിച്ച	-10.2033
▁തണ്ട	-10.2034
▁പ്രമാണ	-10.2036
▁കൈവശ	-10.2038
▁കൊടി	-10.2038
▁ചെലവ	-10.2038
▁ഇതുവരെ	-10.2039
ുപോയ	-10.2042
▁ഹേ	-10.2042
പോലും	-10.2043
▁കേരളീയ	-10.2044
▁ബംഗാൾ	-10.2044
സംഗീത	-10.2047
ine	-10.2048
പ്പറ്റി	-10.2049
▁അകലെയാണ്	-10.205
▁ഹിമാലയ	-10.2051
▁ഗോപുര	-10.2051
▁തൃ	-10.2052
നെറ്റ്	-10.2053
▁തീയതി	-10.2054
▁കുറിച്ചു	-10.2054
▁പുത്രന	-10.2055
▁ചാനല	-10.2056
ചു	-10.2059
▁നിലനിന്നിരുന്ന	-10.206
▁തിരുവ	-10.2061
▁ഉദ്യോഗസ്ഥ	-10.2064
ശൈലി	-10.2067
0%	-10.2068
േൽ	-10.2071
ന്മാരായ	-10.2073
▁ഡിജിറ്റൽ	-10.2074
ോട്ട്	-10.2081
▁കാലയളവിൽ	-10.2088
▁അമേരിക്കയിൽ	-10.209
▁നിർമ്മിക്കുന്ന	-10.2093
▁അക്ക	-10.2093
▁കമ്പനിയുടെ	-10.2094
ct	-10.2095
▁യേശു	-10.2098
ിനൊപ്പം	-10.2099
▁തോന്ന	-10.21
▁തലശ്ശേരി	-10.2104
പദ്ധതി	-10.2111
ാണെങ്കിലും	-10.2115
▁സൗ	-10.2115
▁ഇപ്രകാരം	-10.2116
പന	-10.2119
▁വ്യാവസായിക	-10.2121
വിഷയ	-10.2123
കോട്ട	-10.2125
▁ചുറ്റും	-10.2127
ai	-10.2127
▁വളര	-10.2128
▁ആയുർവേദ	-10.2132
per	-10.2133
▁വ്യക്തമായ	-10.2142
▁ഫീ	-10.2143
▁പരന്ന	-10.2144
▁formula	-10.2145
▁ഇന്ദിര	-10.2145
▁മുറ	-10.2146
റീ	-10.2147
നൊ	-10.2156
തയിൽ	-10.2156
▁വേദി	-10.2161
▁കോൺഗ്രസ	-10.2161
▁ജനങ്ങളുടെ	-10.2161
▁vi	-10.2162
up	-10.2163
▁മലയാളി	-10.2166
▁ബെർ	-10.2167
▁തനി	-10.2168
ാട്ട	-10.2168
▁കൃത്രിമ	-10.2169
▁തോട	-10.217
താപ	-10.217
▁കറുപ്പ	-10.2174
രൂപത്തിൽ	-10.2179
▁നൽകുകയും	-10.2179
ടാ	-10.2182
▁നാശ	-10.2187
▁ശബ്ദം	-10.2189
▁അത്ഭുത	-10.2194
▁തള്ളി	-10.2195
ുകയില്ല	-10.2197
▁നോർ	-10.2202
har	-10.2206
ang	-10.2209
▁വെട്ടി	-10.2211
മാർഗ്ഗ	-10.2215
▁പ്രസിദ്ധമാണ്	-10.2216
മാർക്ക്	-10.2216
▁വിഭജിച്ച	-10.2218
▁മാനേജ	-10.2219
▁കുറേ	-10.2224
ോട	-10.2227
200	-10.2232
ിലേക്കും	-10.2235
▁അക്രമ	-10.2238
വാത	-10.2242
ിലധികം	-10.2242
▁കുമാർ	-10.2243
▁മീന	-10.2245
കനായ	-10.225
ക്രമം	-10.2251
der	-10.2257
▁നോക്കി	-10.2257
▁ഉദാഹരണത്തിന്	-10.226
▁ന്യായ	-10.226
നേതൃത്വത്തിലുള്ള	-10.2264
▁ദക്ഷിണാഫ്രിക്ക	-10.2264
▁നമ്മുടെ	-10.2264
▁യാതൊരു	-10.2264
▁മുന്നേറ്റ	-10.2267
േശ	-10.2275
ന്റോ	-10.2276
▁പ്രശസ്തി	-10.2277
▁നാസി	-10.2278
ശ്വ	-10.2282
▁വേണം	-10.2283
▁ഇവരെ	-10.2283
▁കമ്പ്യൂട്ടറ	-10.2285
▁ധാതു	-10.2287
▁കൊള്ള	-10.2288
▁തിരികെ	-10.2289
▁രണ്ടായി	-10.2291
ക്യു	-10.2291
▁പെട്ടെന്ന്	-10.2291
ാക്കൾ	-10.2292
▁മണ	-10.2294
മുദ്ര	-10.2295
▁ജനന	-10.2298
▁വെളിപ്പെടുത്ത	-10.2299
വട്ടം	-10.2306
▁ഗ്രാമം	-10.2307
▁ആണു	-10.2311
റിയപ്പെടുന്നത്	-10.2313
▁പ്രതിഷേധ	-10.2313
▁പെൺകുട്ടി	-10.2313
വേലി	-10.2314
സംഹിത	-10.2315
മൊഴി	-10.2317
ക്കുട	-10.2319
▁വർഷത്തിലെ	-10.2319
▁ഭാഷകളിൽ	-10.232
ികളായ	-10.2322
▁അംശ	-10.2324
▁പേർഷ്യ	-10.2329
▁ഉപകരണങ്ങൾ	-10.2332
we	-10.2334
പ്പട	-10.2335
▁എതിരാളി	-10.2337
▁പൊടി	-10.2342
▁വ്യത്യസ്തമായ	-10.2342
▁കുഴി	-10.2345
വ്ര	-10.2348
കേന്ദ്രം	-10.2349
മെന്ന്	-10.2349
▁താരാപഥ	-10.2351
▁നടത്താൻ	-10.2352
▁സേവ	-10.2352
▁ഇടുക്കി	-10.2355
മേള	-10.2357
▁സവിശേഷത	-10.2359
▁ജർമനി	-10.2361
▁തൃശൂർ	-10.2361
▁പ്രാർത്ഥന	-10.2361
ണീ	-10.2363
വിശേഷ	-10.2364
മല്ലാത്ത	-10.2366
രസ	-10.2366
▁കർത്താവ	-10.2369
▁പത്തനംതിട്ട	-10.2372
ന്ത്യ	-10.2379
▁വിളിക്ക	-10.2379
800	-10.2381
▁ഹാരി	-10.2382
പ്പർ	-10.2386
ക്കോട്	-10.2387
▁ആക്രമിക്ക	-10.2388
ഹെ	-10.2388
▁ഇരുപത	-10.2389
▁ജില്ലയുടെ	-10.2391
▁ആശ്രമ	-10.2391
▁തെങ്ങ	-10.2392
മാകുന്നു	-10.2393
യിരുന്നു	-10.2393
കുമാർ	-10.2395
▁പൂർവ്വ	-10.2397
മിത്ര	-10.241
▁ഭദ്രകാളി	-10.241
▁for	-10.2412
▁be	-10.2417
കൂടിയ	-10.2417
ah	-10.2418
▁നിലപാട	-10.2419
▁വിമാനത്താവള	-10.2427
▁കോള	-10.2427
▁കുറവാണ്	-10.2429
▁പൗരസ്ത്യ	-10.243
െഴുത്ത	-10.2431
▁ബിൻ	-10.2435
സര	-10.2443
▁തുടർന്ന	-10.2449
▁കയ്യ	-10.245
▁ദേവീ	-10.2451
▁ശേഖരിച്ച	-10.2458
▁ഡയ	-10.2462
▁ഉയരമുള്ള	-10.2463
മാണെന്നും	-10.2466
നിന്ന	-10.2466
▁വിതരണ	-10.247
▁ശാ	-10.247
▁റിപ്പോർട്ട്	-10.2473
മന്ത്രി	-10.2479
▁നിയന്ത്രണം	-10.2479
ഫേ	-10.2481
▁ഇസ്ലാം	-10.2485
▁അകല	-10.2485
കണ	-10.2486
▁നായിക	-10.2494
▁ദിനം	-10.2498
ിലേയും	-10.2502
▁നേർ	-10.2505
വിയ	-10.2505
▁ക്രിസ്ത്യൻ	-10.2507
യിലേക്കുള്ള	-10.251
ാറുള്ളത്	-10.2511
▁സബ്	-10.2512
ദന	-10.2512
ിലാ	-10.2514
▁വെച്ച	-10.2514
▁വരുത്തി	-10.2517
▁പുളി	-10.2518
+	-10.2525
▁ഉയർത്തി	-10.2527
▁1980	-10.2529
ൻമാർ	-10.2534
▁അംഗങ്ങൾ	-10.2536
▁മേഖലകളിൽ	-10.2539
op	-10.2542
▁ഗ്രാമമാണ്	-10.2543
ഞ	-10.2549
ജോ	-10.255
▁1990	-10.2551
▁ചായ	-10.2552
ുപയോഗിച്ച്	-10.2556
▁സന്തോഷ	-10.2557
▁ബോർഡ്	-10.2565
▁അപേക്ഷ	-10.2565
▁മേഘ	-10.2567
▁ഗ്	-10.257
ഇന്ത്യ	-10.2571
സഹായ	-10.2571
▁ലഭിക്കുന്നു	-10.2574
യിലെത്തി	-10.2575
വസ്തുക്കള	-10.2578
ാറ്	-10.2581
പ്പോഴ	-10.2582
▁ഇത്തരത്തിൽ	-10.2582
വിജയ	-10.2582
▁മരണശേഷം	-10.2587
▁ഇതോടെ	-10.2587
▁ഫോട്ടോ	-10.2589
▁ഓഫീസ	-10.2589
hu	-10.2594
ദിവസ	-10.2599
▁തെറ്റ	-10.2601
▁ഊർജ്ജം	-10.2602
യെപ്പറ്റി	-10.2603
▁കൊള	-10.2604
വിധി	-10.2606
▁അധിനിവേശ	-10.2606
▁നിരന്തര	-10.2608
ർബ	-10.2608
sha	-10.2609
താണെന്ന്	-10.261
▁അതിലെ	-10.2613
▁ലേഖനം	-10.2614
▁ഗ്രാമത്തിൽ	-10.2614
▁ബാർ	-10.2615
▁ധാരണ	-10.2617
ന്നാ	-10.2619
▁ശ്രമിച്ചു	-10.2619
▁തടവ	-10.2622
ത്തിലേക്കു	-10.2624
ള്ളു	-10.263
marker	-10.2631
യുമായിരുന്നു	-10.2633
ക്കാരി	-10.2633
▁ഇലകൾ	-10.2636
▁കുമാര	-10.2639
▁കാലത്തെ	-10.2639
ഹീ	-10.2639
ത്തല	-10.2639
▁ഭക്ത	-10.264
▁എന്നതായിരുന്നു	-10.2645
ക്കല	-10.2645
▁ആസ്ഥാന	-10.2649
▁സമരം	-10.265
▁നൂറ്റാണ്ട	-10.2651
▁വലതു	-10.2651
ുമായും	-10.2654
▁അതിര	-10.2656
▁അതേസമയം	-10.2657
ഭീ	-10.2659
ുമെല്ലാം	-10.2661
രാജ്	-10.2663
▁അറിയപ്പെട്ട	-10.2668
▁32	-10.2669
ക്കിട	-10.2672
▁മുദ്ര	-10.2674
▁ഈജിപ്ത	-10.2675
▁ഊര	-10.2677
▁സാന്നിദ്ധ്യ	-10.2677
▁താഴ്	-10.268
മിക്	-10.268
ോല	-10.2686
യിട്ട	-10.2686
ത്തിൻ്റെ	-10.2689
▁ഇനം	-10.2692
▁മന്ത്രിസഭ	-10.2694
നയ	-10.2698
▁സന്യാസി	-10.27
▁മുത്ത	-10.2702
▁തളി	-10.2703
▁പരമ	-10.2705
gi	-10.2706
▁വാസ	-10.2706
കാരണ	-10.2706
0,000	-10.2706
▁മൈസൂർ	-10.2706
▁ജനകീയ	-10.2706
▁ശിവലിംഗ	-10.2708
▁സമാ	-10.2709
▁con	-10.2712
▁ഭാരം	-10.2713
▁അജ	-10.2717
മണ്ണ	-10.2721
▁കയറ	-10.2721
▁പങ്കാളി	-10.2722
യ്ക്കുന്ന	-10.2726
ر	-10.2731
type	-10.2732
▁ഓഫീസ്	-10.2733
ിലേറെ	-10.2734
▁കുറച്ച്	-10.2735
▁നടി	-10.2737
▁ധ്രുവ	-10.2737
▁ചിന്താ	-10.274
▁ഉയർത്ത	-10.2742
▁ഉദ്ഭവ	-10.2742
▁ഒപ്പം	-10.2743
ലാൻഡ്	-10.2743
▁നമ്പ	-10.2747
▁പരിചയ	-10.2749
ണ്യ	-10.2749
തീര	-10.2751
പ്പണി	-10.2754
▁സ്റ്റേഷൻ	-10.2759
മൂല്യ	-10.2759
▁അക്കാലത്തെ	-10.2762
▁അസുഖ	-10.2763
ഗ്രീ	-10.277
▁19-	-10.277
▁ഇന്റർനെറ്റ്	-10.2773
ുമ്പോഴും	-10.2776
▁യുണൈറ്റഡ്	-10.2779
തവണ	-10.2786
▁പ്രത്യ	-10.2787
▁നീണ്ടു	-10.2789
▁അവതരിപ്പിച്ചു	-10.2792
ജ്യ	-10.2793
ശ്ശി	-10.2796
▁രാജവംശം	-10.2797
യ്ക്കായി	-10.2799
ക്കാർക്ക്	-10.28
▁കിഴക്ക	-10.2801
▁സൂചിപ്പിക്ക	-10.2801
▁ഏഴ്	-10.2804
mu	-10.2804
▁ശത്രു	-10.2809
▁പതിപ്പ്	-10.2812
▁റു	-10.2813
▁വഹിച്ച	-10.2815
ണോ	-10.2815
▁വിജ്ഞാന	-10.2817
▁അഞ്ചാം	-10.2817
കൃഷ്ണ	-10.2821
▁തയ്യാറാക്കിയ	-10.2823
wa	-10.2825
▁ചാര	-10.2827
▁അവസര	-10.2829
▁1999	-10.283
▁അളവിൽ	-10.283
▁പ്രവേശന	-10.2831
▁വിസ്തൃതി	-10.2831
ि	-10.2832
പ്പാറ	-10.2841
▁ദിവ്യ	-10.2841
കളുമാണ്	-10.2846
▁ഗാമ	-10.2849
കക്ഷി	-10.285
▁അന്നു	-10.2851
ുമൊക്കെ	-10.2852
ഴുത	-10.2854
റിനെ	-10.2855
കെട്ട	-10.2855
▁വിജയിച്ച	-10.2857
▁ലാമിക	-10.2859
ിലായിരുന്നു	-10.2859
െത്തുന്ന	-10.286
ാവലി	-10.286
ക്കിൽ	-10.2862
▁പുസ്തകങ്ങൾ	-10.2865
▁സൈറ്റ	-10.2866
▁പ്രദേശമാണ്	-10.2869
പ്പിൽ	-10.2874
ിണി	-10.2877
▁ഭരണകൂട	-10.2878
സിനു	-10.2879
യാക്ക	-10.2879
▁കഴിച്ച	-10.288
▁°	-10.2882
▁മോഹൻ	-10.2883
ങ്ങളാൽ	-10.2885
രൻ	-10.2885
▁ഭാഗങ്ങള	-10.2886
▁എന്നിവിടങ്ങളില	-10.2888
▁വരവ	-10.289
ങ്ങളിലൊന്ന	-10.2905
▁രംഗത്തെ	-10.2905
▁വിറ്റ	-10.2905
സ്തി	-10.2906
▁ചുരുക്ക	-10.291
▁പൂർണമായ	-10.2911
നാമം	-10.2912
▁രക്ഷിക്ക	-10.2916
▁കോഡ്	-10.2916
▁o	-10.2923
▁ഫലം	-10.2925
▁ജപ്പാന	-10.2925
▁ഇംഗ്ലണ്ട	-10.293
ക്ഷണ	-10.293
▁ശരീരം	-10.2931
ഗെ	-10.294
പ്പാട്	-10.2941
ണ്ടാ	-10.2942
▁പിന്ന	-10.2947
▁കോൺഗ്രസ്സ്	-10.2951
ko	-10.2953
▁പഠിച്ചു	-10.2957
▁ഗ്ല	-10.2958
▁വാദ്യ	-10.2958
പത്തി	-10.2965
▁എന്റെ	-10.297
▁അച്ചടി	-10.297
ാകുന്നു	-10.297
▁മാർഗ്ഗം	-10.2984
ാറുള്ള	-10.2985
▁കർണ്ണാടക	-10.2986
പ്രകാശ	-10.2987
▁പേരാണ്	-10.2988
go	-10.299
പ്പുര	-10.299
ദാസ	-10.2994
▁വളർന്ന	-10.2994
▁ക്ലബ്ബ	-10.2995
▁ദിനമാണ്	-10.2996
ടങ്ങിയ	-10.2997
മാണി	-10.2998
െപ്പോലെ	-10.3
▁എട്ട്	-10.3004
ിൽനിന്ന്	-10.3004
ാകൃതി	-10.301
▁മാല	-10.3011
▁അവസരം	-10.3014
▁മണൽ	-10.3015
▁മേഖലയിലെ	-10.3017
സ്ഥിതി	-10.3018
▁ട്രാൻസ്	-10.3018
▁പ്രിയ	-10.3021
▁രേഖകൾ	-10.3026
▁പറ്റ	-10.3029
▁റെഡ്	-10.3031
താവ	-10.3032
സ്വഭാവ	-10.3034
▁വെച്ചു	-10.3038
വിന്	-10.3038
ിനായി	-10.3039
വ്യൂഹ	-10.3039
▁മലങ്കര	-10.304
ഉദാ	-10.3046
▁കണ്ടെത്തിയത്	-10.3046
▁മഠ	-10.305
തലത്തിൽ	-10.3054
ുവെങ്കിലും	-10.3057
be	-10.3059
▁വയല	-10.3059
oo	-10.3061
▁ദൗത്യ	-10.3063
▁ശ്വാസകോശ	-10.3064
▁അമ്ല	-10.3065
▁വസ്തുവ	-10.3065
ism	-10.3065
▁വിധാനം	-10.3067
▁പമ്പ	-10.3068
▁ബോംബെ	-10.3069
ഹാൻ	-10.307
▁പ്രതിഫല	-10.3071
▁വാൻ	-10.3072
ുണ്ടായി	-10.3073
▁ഹാർ	-10.3073
▁കീഴിലുള്ള	-10.3073
▁വള്ള	-10.3075
▁കിട്ടുന്ന	-10.3076
▁ചിത്രീകരിച്ച	-10.3078
ക്ഷയ	-10.3079
▁കെട്ട	-10.3081
▁വർഷങ്ങൾക്കു	-10.3081
▁അനുബന്ധ	-10.3082
▁കൊണ്ടുവര	-10.3085
വാല	-10.3085
▁ചരിത്രത്തിലെ	-10.3085
▁വീണ	-10.3087
▁പേരുകൾ	-10.3088
▁കൊണ്ടുവന്ന	-10.3088
ബ്രി	-10.309
▁ഒരിക്കലും	-10.309
▁പിൻഗാമി	-10.309
▁ഉദ്യാന	-10.3091
പ്പുകൾ	-10.3094
▁കാനഡ	-10.3097
▁l	-10.3101
▁സമ്പന്ന	-10.3106
▁ഇവിടം	-10.3112
ുവെന്ന്	-10.3114
▁പരിമിത	-10.3119
▁വാല	-10.3119
▁പട്ടികയിൽ	-10.3122
▁അറബ്	-10.3122
▁സുപ്രധാന	-10.3123
▁സുഹൃത്ത	-10.3124
ത്തിലുണ്ട്	-10.3127
▁നിർത്തി	-10.3129
ിലേയ്ക്ക്	-10.3129
കളിലേക്ക്	-10.3132
▁മലയ	-10.3138
nu	-10.314
▁ഇവിടെയാണ്	-10.314
▁മാംസ	-10.3142
▁ദിശ	-10.3142
▁സുൽത്താന	-10.3143
▁സമവാക്യ	-10.3144
▁ഗ്ര	-10.3145
▁വാൽ	-10.3149
പ്പട്ട	-10.3152
▁വിവർത്തനം	-10.3153
▁ഭാഷകൾ	-10.3153
ip	-10.3157
▁ചുര	-10.3158
▁പതിവ്	-10.3159
con	-10.316
ക്കുറിച്ച	-10.3162
▁വോട്ട	-10.3164
▁സ്വപ്ന	-10.3165
▁ഹെർ	-10.3165
▁ഭൂമിശാസ്ത്രം	-10.3165
▁ഉപയോഗപ്പെടുത്ത	-10.3165
cy	-10.3165
▁ആരോപണ	-10.3169
▁സ്റ്റേഡിയ	-10.3169
▁റോയൽ	-10.317
ുന്നതുവരെ	-10.3171
ാതി	-10.3172
▁സംസ്കാരം	-10.3173
ാഹി	-10.3176
▁പദാർഥ	-10.3176
▁പൂർത്തിയാക്കിയ	-10.3177
▁ജോർജ്	-10.3179
▁കഥകൾ	-10.3179
ക്കസ്	-10.3182
രുടേയും	-10.3187
▁കിലോ	-10.319
ഫർ	-10.3191
▁വ്യാ	-10.3192
▁നോബൽ	-10.3195
▁ഗോവിന്ദ	-10.32
വ്വ	-10.3206
പ്പറ	-10.3209
▁കൂടുതലും	-10.3211
വർണ്ണ	-10.3213
ക്കുള്ളിൽ	-10.3213
▁20-	-10.3219
▁താല്പര്യ	-10.3221
▁ലൈബ്രറി	-10.3221
▁പദാർത്ഥ	-10.3229
ോർജ്ജ	-10.3229
▁35	-10.3232
▁വഹിച്ചു	-10.3233
▁വീക്ഷണ	-10.3233
ദേവത	-10.3234
ൾഡ്	-10.3238
യാൾ	-10.3239
▁നിലനിൽക്കുന്ന	-10.324
▁ചെങ്ക	-10.324
▁പരിശീലനം	-10.3244
chi	-10.3245
▁കണ്ടുപിടിച്ച	-10.3249
▁തിരുനാൾ	-10.3249
ക്കളെ	-10.3249
▁രചനകൾ	-10.3251
▁മെട്രോ	-10.3252
▁വിവരണ	-10.3253
र	-10.3253
മ്യ	-10.3254
സുകൾ	-10.3255
ഖണ്ഡ	-10.3256
▁ആശാ	-10.326
ali	-10.3261
▁പലതും	-10.3261
തിനെത്തുടർന്ന്	-10.3262
ൂരി	-10.3263
ർ‍	-10.3263
▁{	-10.3264
തിരു	-10.3264
കാവ്	-10.3266
▁പ്രയോജന	-10.3268
▁ഇന്റർ	-10.3268
(19	-10.3273
▁തികച്ചും	-10.3274
▁ദുരന്ത	-10.3274
സെന്റ	-10.3275
▁വിധം	-10.3275
▁എട	-10.3276
▁മദ്യ	-10.3278
▁വിശദീകരിക്ക	-10.3279
ber	-10.3279
▁ദിവസവും	-10.3288
▁ശൃംഖല	-10.3291
▁പ്രഭാഷണ	-10.3292
▁വധിക്ക	-10.3292
2)	-10.3301
ഖി	-10.3305
▁പരിശീലന	-10.3306
നീയ	-10.3309
ിലായി	-10.3311
ന്യൂ	-10.3314
▁മനോ	-10.3316
▁1970	-10.332
▁നിർവ്വഹിച്ചത്	-10.332
ങ്ങളിലൊന്നാണ്	-10.3321
▁നീര	-10.3321
▁കണക്ക	-10.3322
കൃ	-10.3322
▁തേടി	-10.3324
കുമാര	-10.3324
▁ബിരുദ	-10.3325
▁സങ്കേത	-10.3327
▁90	-10.3328
▁ചേർന്നാണ്	-10.3329
▁ക്രിസ്തു	-10.3329
ിപ്പിച്ച	-10.333
▁1948	-10.3331
തുരശ്രകിലോമീറ്റർ	-10.3332
കളുള്ള	-10.3333
▁ഉപയോഗിച്ചാണ്	-10.3336
തയെ	-10.3336
▁ജാവ	-10.3336
▁തൊട്ടു	-10.3341
▁നല്കിയ	-10.3342
നിയൻ	-10.3344
▁ശരീരത്തിൽ	-10.3344
യാറ	-10.3347
▁സിംഗ്	-10.3348
▁ka	-10.335
▁പൂർത്തിയാക്കി	-10.3351
▁ആദ്യകാലത്ത്	-10.3352
▁പ്രായം	-10.3353
പർ	-10.3354
▁നവോത്ഥാന	-10.3354
▁രൂപകല്പന	-10.3354
▁ജോർജ്ജ്	-10.3356
▁തടസ്സ	-10.3357
mon	-10.3358
▁കരാറ	-10.3359
കളോ	-10.336
▁മൈൽ	-10.3361
▁വിളിച്ച	-10.3362
▁പടിഞ്ഞാറ	-10.3362
▁ആക്	-10.3367
ങ്ങളോടു	-10.3369
ൂണ	-10.337
ുള്ളത്	-10.337
▁വ്യാകരണ	-10.3372
▁ആണവ	-10.3376
നദി	-10.3376
ുണ്ടെന്ന്	-10.338
▁താലൂക്ക	-10.3381
▁ഇതിഹാസ	-10.3381
▁ചരിത്രസംഭവങ്ങൾ	-10.3381
▁സൗന്ദര്യ	-10.3382
▁സംവിധാനത്തിൽ	-10.3383
▁മൂല്യ	-10.3383
യിലേക്കും	-10.3383
കരിക്ക	-10.3384
▁2015	-10.3388
▁പ്രചാരം	-10.3389
▁വികാസ	-10.339
മാകുന്ന	-10.3391
ഹു	-10.3392
വാക്യ	-10.3393
ങ്കു	-10.3395
▁നൽകുന്നത്	-10.3396
▁ഡിസ്	-10.3397
▁ഗ്രീസ	-10.3399
▁വേഷം	-10.3408
നുമായി	-10.3408
do	-10.3409
ത്തിരി	-10.3409
മാണു്	-10.341
▁ചോദ്യം	-10.3412
▁അഭിമുഖ	-10.3415
▁വേർതിരിച്ച	-10.3416
▁2016	-10.3418
▁2002	-10.342
▁പ്രശസ്തനായ	-10.3422
ku	-10.3422
ട്രാ	-10.3423
▁പ്രബന്ധ	-10.3424
▁പ്രഖ്യാപിച്ച	-10.3424
▁ദ്രാവക	-10.3424
▁ചുവപ്പു	-10.3425
▁ഭരിച്ചിരുന്ന	-10.343
▁ക്ലോ	-10.3433
ാവുകയും	-10.3433
േഴ്	-10.3434
▁പുറത്തിറക്കിയ	-10.3434
മുനിസിപ്പാലിറ്റി	-10.3435
▁സർപ്പ	-10.3436
ൈൻ	-10.3438
▁സീത	-10.344
▁തൊലി	-10.3445
▁സവിശേഷ	-10.3448
▁മടങ്ങ	-10.3449
െങ്കിൽ	-10.345
▁അയൽ	-10.345
▁സൺ	-10.345
ക്കിൾ	-10.3451
ുണ്ടാക്കിയ	-10.3452
ഗ്ഗ	-10.3452
▁പേരും	-10.3454
▁മുഴ	-10.3457
ച്ചിൽ	-10.3457
യുന്ന	-10.3457
▁നാട്	-10.346
ഗോള	-10.3461
ക്കാണ	-10.3463
ക്കാവ്	-10.3464
സമിതി	-10.3467
▁സ്വർഗ്ഗ	-10.3469
ങ്ങളിലുള്ള	-10.3473
നുസരിച്ച	-10.3474
വിഷ	-10.3474
ശിവ	-10.3476
▁ക്ഷേത്രങ്ങൾ	-10.3477
bo	-10.348
ാമെന്ന്	-10.3482
▁ചേർത്തു	-10.3484
▁സഞ്ചരിക്ക	-10.3488
▁ആദിമ	-10.349
മ്മാ	-10.3491
ിലോ	-10.3492
▁ബാധ	-10.3493
▁പ്രകട	-10.3494
▁നാര	-10.35
▁ത്വ	-10.35
▁കീഴ	-10.3505
▁ഖു	-10.3507
കൊല്ല	-10.351
▁കളിച്ച	-10.3512
ക്കല്ല	-10.3513
▁ശേഷമാണ്	-10.3516
ath	-10.3519
ate	-10.3523
▁സ്വർണ	-10.3525
▁പ്രത്യക്ഷപ്പെട	-10.3529
ലിസ്	-10.353
▁പെടുന്ന	-10.3531
▁അപ്	-10.3532
▁സിറിയ	-10.3533
tor	-10.3536
▁പൂർത്തിയാക്ക	-10.3538
su	-10.3538
ന്റേയും	-10.354
▁മീറ്ററ	-10.3541
ാനം	-10.3541
▁സഹോദരൻ	-10.3541
ക്രിയ	-10.3543
▁സംരംഭ	-10.3543
▁രോഗങ്ങൾ	-10.3545
കനും	-10.3545
മ്പല	-10.3547
▁ആക്രമണം	-10.355
നുമായിരുന്നു	-10.3559
▁സ്ഥാനത്ത്	-10.356
മാണുള്ളത്	-10.3565
നൂർ	-10.3566
ധാന	-10.3575
▁വെട്ട	-10.3575
ഗമ	-10.3576
▁പ്രതല	-10.3578
മംഗല	-10.3579
▁po	-10.3581
▁വൈസ്	-10.3581
ുപയോഗിച്ച	-10.3581
ണിന്റെ	-10.3584
▁മനുഷ്യർ	-10.3584
▁രോമ	-10.3584
▁ar	-10.3586
▁അർഥ	-10.3586
▁നൽകാൻ	-10.3588
▁ഉട	-10.3592
he	-10.3593
ൂരിലെ	-10.3593
രവ	-10.3594
▁സ്വഭാവം	-10.3594
യുമായുള്ള	-10.3597
▁താമസിയാതെ	-10.3598
▁അവളുടെ	-10.36
▁തോതിൽ	-10.3603
100	-10.3603
▁ചെയ്യപ്പെട്ടു	-10.3609
▁വയനാട്	-10.361
കർമ്മ	-10.361
സ്പർശ	-10.3612
▁ഗോൾ	-10.3612
ചര	-10.3615
▁വിവരിച്ച	-10.3617
▁മരുഭൂമി	-10.3626
യുടേത	-10.363
▁ലാം	-10.3631
ച്ചേരി	-10.3632
ോടും	-10.3632
▁ഉല	-10.3634
▁അലക്സാണ്ടർ	-10.3636
▁ഒഴുകുന്ന	-10.3637
ിയ്ക്കുന്ന	-10.3638
▁കാലഘട്ടം	-10.3639
▁മനോഹരമായ	-10.364
പത	-10.3646
നാള	-10.3648
പ്രീതി	-10.365
രത്ന	-10.3652
▁വികിരണ	-10.3653
▁പൊന്നാനി	-10.3653
▁പുത്രൻ	-10.3655
▁വസിക്കുന്ന	-10.3656
▁മത്സരങ്ങൾ	-10.3658
സരണ	-10.3659
war	-10.3659
▁ഭൂത	-10.3659
ഭാഷാ	-10.3663
ാചാര്യ	-10.3667
ുന്നതിലും	-10.3668
▁സിങ്	-10.367
▁ഇവർക്ക്	-10.3672
▁അമർ	-10.3674
▁ശാന്തി	-10.3676
ty	-10.3682
▁ഗതി	-10.3682
ലൊ	-10.3684
ടൈ	-10.3685
▁വിവരണം	-10.3686
▁വെറും	-10.3687
മുക്ത	-10.369
െയിൻ	-10.369
രായിരുന്നു	-10.3692
▁കുറിച്ചുള്ള	-10.3692
▁സുരക്ഷിത	-10.3693
▁പേജ	-10.3694
▁കിളി	-10.3695
▁തുടങ്ങിയവയാണ്	-10.3696
dam	-10.3697
▁ഇദ്ദേഹത്തെ	-10.37
▁സാങ്കേതികവിദ്യ	-10.37
ാമെന്ന	-10.37
ലിനെ	-10.3706
▁പേരിലും	-10.3708
▁ജലസേചന	-10.3708
▁വിഭജന	-10.3709
കോണ	-10.371
കാവ്യ	-10.3711
ദള	-10.3721
▁ഉണ്ടായത്	-10.3723
ാനാ	-10.3723
നിക്ക	-10.3723
▁ഇലക്ട്രോണിക്	-10.3723
ങ്ങാടി	-10.3724
ായുധ	-10.3726
▁പ്രസ്ഥാനം	-10.3727
യൊക്കെ	-10.3731
കൊള്ള	-10.3734
▁സ്പാനിഷ്	-10.3736
▁ഓപ്പൺ	-10.3736
▁പരിഹാര	-10.374
ോടുകൂടി	-10.374
തുടർന്ന്	-10.3743
▁സീറ്റ	-10.3744
▁അച്ച	-10.375
▁മുടി	-10.3759
ക്കാനുള്ള	-10.3761
ശീല	-10.3762
▁തീവണ്ടി	-10.3764
▁ഇപ്പോഴത്തെ	-10.3764
▁കാസ്ട്രോ	-10.3764
▁ഭിന്ന	-10.3764
▁സ്വാതന്ത്ര്യസമര	-10.3769
▁വർഷത്തിൽ	-10.3772
ക്കുറിച്ചു	-10.3774
ർണ്ണ	-10.3775
▁അക്ഷ	-10.3775
▁സ്റ്റേഷന	-10.3777
▁പരാ	-10.3778
നാക്കി	-10.378
▁http	-10.3781
ാംശ	-10.3783
▁is	-10.3787
▁ദൂരദർശിനി	-10.3792
▁തിരുവാതിര	-10.3792
▁ഏഴ	-10.3794
▁ഹാസ്യ	-10.3795
ംബര	-10.3804
▁സമ്പ്രദായം	-10.3805
കൃഷി	-10.3808
▁കാമ്പ	-10.381
ാകുന്ന	-10.3812
ീഷ	-10.3816
▁അഡ്	-10.3817
▁ഉപയോഗിക്കാൻ	-10.3818
▁റോമ	-10.3819
ുടേ	-10.3821
തെന്ന	-10.3822
▁വരുമാന	-10.3824
▁ദേശീയപാത	-10.3825
മാതാ	-10.3835
▁വേണ്ടിയുള്ള	-10.3837
▁നടക്കുന്നു	-10.384
കളോട്	-10.3841
▁പത്ത്	-10.3841
▁ജീവൻ	-10.3842
ങ്ങനെ	-10.3844
നാക	-10.3845
ദൃ	-10.3848
ഴ്സ	-10.3848
▁അധി	-10.3849
ബന്ധം	-10.3849
▁സെക്കന്റ	-10.385
▁കൊടു	-10.3853
▁വെൽ	-10.3853
▁മരുന്ന	-10.3854
സന	-10.3856
▁സയൻസ്	-10.3858
fe	-10.3863
▁മറ്റൊന്ന	-10.3867
ൈൽ	-10.387
ബർഗ്	-10.3871
▁ദുഃഖ	-10.3872
▁കോണ	-10.3874
▁സർവീസ്	-10.3876
▁കുങ്കുമ	-10.3876
▁യഥാക്രമം	-10.3876
▁വാക്ക്	-10.3878
▁സൂഫി	-10.3879
വർമ്മ	-10.3882
▁വികാര	-10.3882
▁പാർലമെന്റ	-10.3886
▁കണ്ണികൾ	-10.3886
▁അമൃത	-10.3887
▁വാങ്ങി	-10.3888
▁ഇരുപത്തി	-10.3888
▁സമീപം	-10.3889
ത്തെത്തുടർന്ന്	-10.389
ജീവ	-10.3896
ium	-10.3902
▁രൂപപ്പെട്ട	-10.3902
▁മേൽനോട്ട	-10.3904
▁സോഷ്യലിസ്റ്റ്	-10.3904
▁പ്രകടിപ്പിക്ക	-10.3906
▁ദീപ	-10.391
മലയാളചലച്ചിത്രം	-10.391
▁വസ്തുത	-10.3911
▁പെൻ	-10.3911
മാരിൽ	-10.3916
▁അടങ്ങുന്ന	-10.3917
▁ജീവിക്ക	-10.3918
രുടെയും	-10.3919
▁താമസിക്കുന്ന	-10.3921
▁തിരഞ്ഞെടുത്ത	-10.3923
▁വടക്കുകിഴക്ക	-10.3924
▁ജയിൽ	-10.3926
▁ഗ്രൂപ്പ്	-10.3929
ഗീത	-10.393
▁ro	-10.393
▁ഹൈഡ്രജൻ	-10.3933
▁വീതം	-10.3935
മിത	-10.3939
▁ഹർ	-10.394
രഹിത	-10.3946
കീഴ	-10.3947
▁ബൈബിള	-10.3952
ഹരി	-10.3958
▁നേതാവ	-10.3958
▁പർ	-10.3961
▁ചാൾസ്	-10.3961
▁അടിത്തറ	-10.3963
നാശ	-10.3964
നാഥ്	-10.397
▁പഴക്കമുള്ള	-10.3973
ശോ	-10.3974
▁നീതി	-10.3974
tic	-10.3977
ഭ്ര	-10.3978
▁ja	-10.3983
▁ലിനക്സ്	-10.3984
▁ഇതും	-10.3985
മ്ര	-10.3987
ഹർ	-10.3988
▁വരി	-10.3989
▁പത്നി	-10.399
▁ശിശു	-10.3992
ൊര	-10.3992
ദായ	-10.3993
ിലേ	-10.3994
▁സിദ്ധ	-10.4
▁കൊടുങ്ങല്ലൂർ	-10.4001
▁ജന്തു	-10.4002
▁രചിക്കപ്പെട്ട	-10.401
മാക്കുന്ന	-10.4011
tion	-10.4014
▁സംഭവിക്കുന്ന	-10.4017
▁വരെയും	-10.4022
▁അറസ്റ്റ്	-10.4023
ളള	-10.4024
▁മാറ്റിയ	-10.4025
▁ആവ	-10.4026
▁പണ്ട്	-10.4028
▁പരാജയപ്പെട്ടു	-10.4029
പ്പൂർ	-10.403
▁മേരി	-10.4038
ലിക്	-10.4039
ണുകൾ	-10.4041
മറ്റ	-10.4041
▁വാക്കുകൾ	-10.4043
യൂണി	-10.4046
പ്പോഴും	-10.4049
▁മാള	-10.4049
▁നൃത്തം	-10.405
മാസം	-10.4051
ബറ	-10.4052
▁പ്രതിഷ്ഠിച്ച	-10.4052
പ്പെട്ടിരുന്ന	-10.4054
▁ഭക്തി	-10.4055
▁വിഭവ	-10.4056
ser	-10.4057
▁സന്	-10.4057
▁അഭിപ്രായപ്പെട്ട	-10.4062
▁തായ്	-10.4065
നർ	-10.4067
so	-10.4067
▁ch	-10.4068
▁വായിച്ച	-10.4071
▁രീതിയിലുള്ള	-10.4072
ത്തുനിന്നും	-10.4072
സിൻ	-10.4075
▁ബാനറിൽ	-10.4076
ഞ്ചു	-10.4078
വേദി	-10.408
വുകൾ	-10.4081
യാട്ട	-10.4082
▁പലതര	-10.4083
▁നിർബന്ധിത	-10.4083
ച്ചെ	-10.4084
▁ഉൾപ്പെടെയുള്ള	-10.4086
▁റിപ്പോർട്ട	-10.4087
van	-10.4091
▁കൊറിയ	-10.4091
▁നേരിട	-10.4093
▁വസ്തു	-10.4094
▁ഗംഗ	-10.4101
ap	-10.4107
▁നഗരത്തിലെ	-10.4111
▁നേടിയിട്ടുണ്ട്	-10.4111
▁നിർമ്മിച്ചു	-10.4112
▁ഭരണകാലത്ത്	-10.4119
▁പർവത	-10.412
▁ആരാധനാ	-10.412
േറ്റർ	-10.4121
ധർമ്മ	-10.4123
▁തെളിവുകൾ	-10.4124
▁ആറ	-10.4124
▁ഇളം	-10.4126
ഗണിത	-10.4132
▁ലത്തീൻ	-10.4133
▁സാന്ദ്രത	-10.4133
▁ടെസ്	-10.4134
പട	-10.4134
▁വിട്ട	-10.4134
▁തന്ന	-10.4135
വഹ	-10.414
പൂര	-10.414
▁ഒക്കെ	-10.414
ത്തിനുവേണ്ടി	-10.4145
▁പ്രേമ	-10.4146
▁ക്ഷേത്രങ്ങളിൽ	-10.4147
▁ബന്ധപ്പെട്ട്	-10.415
▁കൊടുത്തു	-10.415
▁സ്ഥലങ്ങൾ	-10.4151
▁സ്രോതസ്സ	-10.4152
▁ഓസ്	-10.4153
▁ലാണ്	-10.4159
തിയ	-10.4159
▁പഞ്ചാബ്	-10.4163
ക്കെതിരായ	-10.4163
▁st	-10.4167
▁പിതാവിന്റെ	-10.4169
ki	-10.417
▁പശു	-10.4174
▁കുറ	-10.4179
▁വിലക്ക	-10.4179
ത്തിൻ	-10.418
▁കൊണ്ടുള്ള	-10.4181
▁അവകാശം	-10.4182
▁വായന	-10.4185
▁പ്രകടിപ്പിച്ച	-10.4187
▁വാൾ	-10.4189
kan	-10.419
▁ഭീമൻ	-10.4191
▁സമർപ്പിച്ച	-10.4192
▁ഗുണങ്ങൾ	-10.4192
ഡുകൾ	-10.4194
മാണെന്ന	-10.4195
ാക്ഷര	-10.4196
▁ഖര	-10.4196
▁പ്രാധാന്യ	-10.4198
▁ലക്ഷ്മി	-10.4199
ണ്ടർ	-10.42
ായിരിക്കണം	-10.42
ാധി	-10.4203
യോൺ	-10.4206
രിപ്പ	-10.4213
▁ആഴ്ച	-10.4215
മായതിനാൽ	-10.4219
രിച്ച	-10.422
നവ	-10.4224
▁തൃക്ക	-10.4224
▁വർദ്ധിക്ക	-10.4226
▁നഷ്ടപ്പെട്ട	-10.4227
▁നേരിട്ട	-10.4228
പഞ്ച	-10.4233
▁ആപ്പിൾ	-10.4233
▁വൈദ്യശാസ്ത്ര	-10.4235
ങ്ങളുമ	-10.4235
ഗുരു	-10.4244
ഭൂത	-10.4244
▁നീളവും	-10.4245
▁സ്ഥാപനം	-10.4245
മൺ	-10.425
▁കോർപ്പറേഷൻ	-10.425
▁പരിഹരിക്ക	-10.425
▁കേൾക്ക	-10.4251
▁തിരിച്ചറിഞ്ഞ	-10.4251
▁അടുപ്പ	-10.4252
ts	-10.4255
യാവ	-10.4255
പ്പെട്ടിട്ടുള്ള	-10.4262
‘	-10.4268
സൗ	-10.4269
▁ഓട്ടോ	-10.4269
▁സർവകലാശാലയിൽ	-10.427
▁!	-10.4271
▁സാമ്യ	-10.4274
▁ഗോവ	-10.4276
▁കുഴ	-10.4277
fa	-10.4278
ഷെ	-10.4278
▁നിർവഹിച്ച	-10.4279
▁നിഗമന	-10.4282
മുറ	-10.4282
യില്ലാത്ത	-10.4284
▁2018	-10.4288
▁കഴിച്ചു	-10.429
▁ആട	-10.429
ഹേ	-10.429
▁അഭിനയിച്ച്	-10.4292
▁സ്ഥാപിച്ചത്	-10.4294
▁പാളി	-10.4294
വിരുദ്ധ	-10.4296
▁സംഘടനയുടെ	-10.4298
ുണ്ടാക്കുന്ന	-10.43
▁ആശയങ്ങൾ	-10.4301
ടക്കം	-10.4302
ുകളായി	-10.4302
പ്രവാഹ	-10.4302
▁സഞ്ചാരി	-10.4303
▁ബിൽ	-10.4307
പ്രഖ്യാപന	-10.4309
▁കമ്മീഷൻ	-10.4309
▁ധാന്യ	-10.4309
▁കേരളം	-10.431
▁1940	-10.4313
▁സ്മരണ	-10.4313
▁അഭിപ്രായം	-10.4314
▁അന്ത	-10.4322
▁സെർ	-10.4322
▁അപൂർവ്വ	-10.4323
ച്ചില	-10.4323
▁വെസ്റ്റ്	-10.4324
▁പരസ്പര	-10.4327
യിലേയ്ക്ക്	-10.4327
ചേർന്ന	-10.4327
▁സമ്മാനം	-10.4328
▁മുപ്പത	-10.4331
ട്രി	-10.4335
▁അനുഭവപ്പെടുന്ന	-10.4335
▁രാജ്യങ്ങളിലും	-10.4337
▁ചരിത്രകാരന്മാർ	-10.4338
▁സവിശേഷതകൾ	-10.4338
▁പ്രകടന	-10.434
ൻറ്	-10.4343
▁ദൈവശാസ്ത്ര	-10.4343
▁പൂക്കൾ	-10.4344
ോദയ	-10.4348
▁രാജ്	-10.4348
സ്ഥാപ	-10.435
▁മാധവ	-10.4351
ക്കൂട	-10.4352
ശില	-10.4352
▁മക്കൾ	-10.4352
▁കർണ്ണ	-10.4354
▁ദശ	-10.4354
lam	-10.4359
▁താഴ	-10.4359
▁ദ്വാര	-10.4362
ഉപയോഗിക്കാറുണ്ട്	-10.4373
▁വീട്ട	-10.4374
നിന്നുള്ള	-10.4375
▁ഉണ്ടെന്ന	-10.4377
▁കാള	-10.4387
സാമ്രാജ്യ	-10.4387
▁ലാൽ	-10.4387
പുറ	-10.4389
▁പരിശോധന	-10.439
രാധ	-10.4391
▁ആരംഭ	-10.4391
▁പ്രദർശന	-10.4396
▁കാസർഗോഡ്	-10.4397
▁യഹോവ	-10.4397
▁ഗുരുവായൂർ	-10.4397
▁bo	-10.4398
പൂർണ്ണ	-10.4399
ുടെയും	-10.4403
kar	-10.4404
▁മുകളില	-10.4405
മുടി	-10.4405
age	-10.4407
▁വിക്കറ്റ	-10.4408
▁അതിന	-10.4409
thi	-10.4409
▁സഹായം	-10.4412
▁അതോടെ	-10.4415
ാമി	-10.4417
▁തീവ്ര	-10.4418
▁ആവശ്യങ്ങൾ	-10.4419
കുള	-10.4423
▁1960	-10.4423
▁നേര	-10.4423
ബദ്ധ	-10.4425
▁സേ	-10.4425
▁ജർമൻ	-10.4427
www	-10.4427
കരിച്ച	-10.4428
നടി	-10.4429
▁ലോകകപ്പ്	-10.4429
ത്തോടൊപ്പം	-10.4431
ന്യാസ	-10.4434
കണ്ട	-10.4435
മാക്കുന്നു	-10.4437
▁ആവശ്യപ്പെട്ടു	-10.4437
▁പുറമെ	-10.4438
▁കയറി	-10.4442
ിറങ്ങിയ	-10.4442
▁മത്സരം	-10.4442
▁ക്വാ	-10.4443
▁മേനോൻ	-10.4444
▁രൂപീകരിക്ക	-10.4445
▁പുറത്തിറങ്ങി	-10.4445
▁70	-10.4446
ദേവി	-10.4447
▁അളവു	-10.4448
pan	-10.445
▁അന്തർ	-10.4452
▁മരം	-10.4456
മരം	-10.4456
▁ചാല	-10.4461
നേയും	-10.4465
ശ്യ	-10.4466
▁നാട്ട	-10.4466
▁കടന്ന	-10.4466
che	-10.4469
▁പ്രബല	-10.447
▁സ്വാധീനിച്ച	-10.4475
▁പ്രചാര	-10.4475
ഡിൽ	-10.4476
▁ചലച്ചിത്രം	-10.4477
▁വികസിപ്പിച്ചെടു	-10.4479
▁പത്മ	-10.4483
▁കൊട്ടാരം	-10.4484
ല്ലാത്ത	-10.4486
▁ശാരീരിക	-10.4487
▁ജനിതക	-10.4487
▁കൗ	-10.4487
▁മനുഷ്യര	-10.4489
▁വലിപ്പമുള്ള	-10.4489
വിസ്	-10.449
▁പാപ്പ	-10.449
നാൾ	-10.449
▁ശിവൻ	-10.4492
മിൻ	-10.4495
son	-10.4496
▁2019	-10.4499
ara	-10.4502
▁കായല	-10.4502
▁അംഗമായി	-10.4503
▁നയിക്ക	-10.4509
വുമുണ്ട്	-10.4509
▁ഉണ്ടായിരിക്കും	-10.451
യോടൊപ്പം	-10.4511
പര്യ	-10.4514
▁രാജ്ഞി	-10.4517
▁വിസ്തീർണ	-10.4517
▁പതാക	-10.4517
▁നാടകം	-10.4519
▁വ്യാഴ	-10.452
▁മറിച്ച്	-10.4521
േണ്ടതുണ്ട്	-10.4522
ുകയാണെങ്കിൽ	-10.4523
▁ഗ്രന്ഥങ്ങൾ	-10.4523
നിക്	-10.4524
▁വിദ്യാ	-10.4525
▁പ്രാകൃത	-10.4529
ത്തിനടുത്ത	-10.4529
▁കൊന്ന	-10.4531
ശ്ശ	-10.4538
▁പറ്റിയ	-10.4543
▁ലോകത്ത്	-10.4545
▁പെരി	-10.4545
▁സംസ്ഥാനത്തെ	-10.4545
▁കൊൽക്കത്ത	-10.4547
▁സംഘടിപ്പിച്ച	-10.4547
▁പ്രവചന	-10.455
▁ബ്രഹ്മാവ	-10.4555
▁പാട്ടു	-10.456
▁ബ്രിട്ടന	-10.456
നിൽക്കുന്ന	-10.4562
തിനേക്കാൾ	-10.4566
▁നേതാവ്	-10.4567
ടേ	-10.4568
▁കിരീട	-10.4569
▁300	-10.4571
▁തൊഴില	-10.4574
ോട്ടു	-10.4578
▁ഉത്തരവ	-10.4579
ാബ്	-10.4582
ാരംഭ	-10.4583
▁കുത്തി	-10.4584
▁ഓപ്പറ	-10.4585
▁ശ്രദ്ധേയ	-10.4589
▁വലയ	-10.4591
വെച്ച	-10.4593
ലിന്	-10.4594
▁കൊമ്പ	-10.4596
▁ശ്ലോക	-10.4598
▁പോകുന്നു	-10.4599
കുറ	-10.46
▁മട	-10.4603
സ്റ്റാ	-10.4606
ിൽനിന്നും	-10.4607
▁വികസിപ്പിക്ക	-10.4608
▁ടെലി	-10.4609
▁മർ	-10.4609
▁അറ്റ്	-10.461
▁കുടി	-10.461
ണൽ	-10.4612
▁കുറിപ്പുകൾ	-10.4612
ുടേയും	-10.4613
▁1998	-10.4613
▁സുബ്രഹ്മണ്യ	-10.4614
കളാൽ	-10.4615
▁മിശ്രിത	-10.4616
ഹിത	-10.4617
min	-10.4617
-2	-10.4619
▁തുടങ്ങിയവർ	-10.4621
കൂടാതെ	-10.4623
▁കൊണ്ടും	-10.4627
nam	-10.463
ങ്ങളിലേ	-10.4632
ിയ്ക്കുന്നു	-10.4636
▁ഓപ്പറേറ്റിംഗ്	-10.4638
▁ഉപേക്ഷിക്ക	-10.4638
ക്കാട്ട	-10.4638
▁അബ്ദുൽ	-10.4638
ത്തീ	-10.4646
▁ഭൗതികശാസ്ത്ര	-10.4649
േക്കാം	-10.465
ഷീ	-10.4653
മെങ്കിലും	-10.4653
▁കളിക്ക	-10.4654
▁ഗൃഹ	-10.4656
▁സ്വാ	-10.4658
▁la	-10.4661
▁ക്രിസ്	-10.4661
▁ഇംഗ്ലീഷ	-10.4664
▁ബ്ളോക്ക്	-10.4667
നുസൃത	-10.4668
റിന്	-10.4669
▁രണ്ടും	-10.4669
▁വേഗത്തിൽ	-10.4669
▁സഞ്ചരിക്കുന്ന	-10.4669
▁മനസ്സിലാക്കിയ	-10.4669
▁ജിദ്ദ	-10.4672
ബലി	-10.4672
വയും	-10.4673
▁വിശേഷിപ്പിച്ച	-10.4674
സിസ്റ്റ	-10.4674
▁തുടർന്നുള്ള	-10.4676
കാട്ട	-10.468
പ്പിള്ളി	-10.4682
▁മഹാവിഷ്ണു	-10.4683
തിക	-10.4691
▁ഭാഷയുടെ	-10.4691
കയറ്റ	-10.4692
▁തോറ്റ	-10.4697
▁ചിത്രീകരിക്ക	-10.4697
▁സഹായിച്ചു	-10.4699
▁പ്രദർശിപ്പിക്ക	-10.4699
▁പാവ	-10.4699
ഗൻ	-10.4701
▁1983	-10.4703
ഹര	-10.4704
ത്തേക്കു	-10.4706
▁ബാധിക്കുന്ന	-10.4717
ങ്ങളോട്	-10.4717
യേറിയ	-10.4722
▁പുത്രനായ	-10.4725
ങ്ങളുമാണ്	-10.4726
▁15-	-10.4726
ഷ്യൻ	-10.4728
▁കാർത്തിക	-10.4729
bha	-10.4729
▁ഏറ്റവുമധികം	-10.473
ക്കാന	-10.4731
▁രംഗത്ത	-10.4731
▁തുറന്നു	-10.4733
▁മനുഷ്യന	-10.4735
പോയി	-10.4735
▁ലഭ്യമാക്ക	-10.4736
ിനോടു	-10.4736
▁ഇതിനായി	-10.4738
▁എന്നിവയെല്ലാം	-10.474
▁കാക്ക	-10.474
നോവ	-10.4743
▁കൃത്യമായി	-10.4743
പിടിച്ച	-10.4745
▁സ്വദേശി	-10.4747
റിയപ്പെട്ടിരുന്ന	-10.4754
▁പതിനൊന്ന	-10.4755
ധിക	-10.4757
▁അഭിപ്രായത്തിൽ	-10.4757
▁പോലീസ	-10.4759
▁അനുഗ്രഹ	-10.4764
▁2008-	-10.4764
▁അയാളുടെ	-10.4765
▁ചുറ്റുമുള്ള	-10.4765
പടി	-10.4766
▁2,	-10.4767
ഫ്യൂ	-10.4768
ill	-10.4769
▁അടക്കം	-10.4777
▁പറക്ക	-10.4778
▁സ്വരൂപ	-10.4779
▁പാര	-10.478
▁കാര്യം	-10.4781
▁നടപ്പാക്ക	-10.4782
▁ബാധിക്ക	-10.4789
▁ആണെന്ന്	-10.4789
▁ഗെയിം	-10.4791
▁വന്യജീവി	-10.4791
▁കാലത്താണ്	-10.4792
വേദന	-10.4795
ഫ്രി	-10.4796
പെട	-10.4797
▁1963	-10.4797
കളെല്ലാം	-10.4797
▁തവള	-10.4807
=55	-10.4808
▁ആറാം	-10.4811
പ്പുറ	-10.4813
▁ജീവിച്ച	-10.4814
▁മേധാവി	-10.4814
io	-10.4815
▁മണിക്കൂർ	-10.4815
സംവിധായക	-10.4815
ുവാനായി	-10.4818
സമ്പ്രദായ	-10.4818
▁മാപ്പിള	-10.482
▁ഇടതു	-10.4821
▁ഭാഗത്തു	-10.4822
▁അനുഷ്ഠാന	-10.4822
▁സംഘടിപ്പിക്ക	-10.4822
▁ശീത	-10.4824
▁ഉണ്ടാകും	-10.4828
▁നല്കി	-10.4829
▁വടക്ക	-10.4832
▁രവി	-10.4834
▁1-	-10.4838
▁45	-10.484
▁ഹോമ	-10.4843
▁അളക്ക	-10.4845
▁ഇത്ര	-10.4845
സംവിധാന	-10.4845
▁കലാരൂപ	-10.4846
▁ശ്രമം	-10.4846
▁നാസ	-10.4847
▁ചോദ്യ	-10.485
▁ദ്വി	-10.4851
മേട	-10.4851
▁ശവകുടീര	-10.4853
ണമെന്നും	-10.4857
▁പ്രി	-10.4859
ib	-10.4861
ക്കളി	-10.4863
▁നാലമ്പല	-10.4863
▁വിഷമ	-10.4875
▁മഹാരാഷ്ട്ര	-10.4875
▁വർഷങ്ങളിൽ	-10.4877
▁സിവിൽ	-10.4877
▁കുടുംബത്തിലെ	-10.4879
▁എല്ല	-10.4879
പ്യ	-10.488
5%	-10.4882
▁കിഴക്കോട്ട്	-10.4883
▁വന്ന്	-10.4883
न	-10.4884
▁റോബർട്ട്	-10.4884
▁നേരിട്ടു	-10.4885
▁1946	-10.4889
▁അപൂർവ	-10.489
ാവകാശ	-10.4891
▁തിളക്ക	-10.4893
ഥാ	-10.4894
▁മാവോ	-10.4894
ങ്കൽ	-10.4896
▁അറിയപ്പെട്ടു	-10.4897
▁പ്രകാശം	-10.4902
▁അയ്യപ്പൻ	-10.4904
▁ശ്ര	-10.4905
▁നീർ	-10.4905
മിട	-10.4905
▁പാലി	-10.4906
▁ദൈവത്തിന്റെ	-10.4907
▁തെക്കുകിഴക്ക	-10.4907
▁കൊട്ട	-10.4909
▁ചൂട	-10.491
▁ദാന	-10.4915
▁സത്യാഗ്രഹ	-10.4916
ദത്ത	-10.4917
▁ഓടി	-10.4917
ദോഷ	-10.4918
▁ഈഴവ	-10.492
▁ലോകത്തിന്റെ	-10.4921
യറ്റ	-10.4921
▁ക്യൂ	-10.4925
▁വാർ	-10.4926
▁പശ്ചാത്തല	-10.4926
▁an	-10.4927
▁പുലി	-10.4933
pla	-10.4938
▁ദ്രവ	-10.4939
പേർ	-10.4943
▁നിലയ	-10.4946
▁ഉണ്ടാക്കി	-10.4947
▁ഇറ്റാലിയൻ	-10.4947
▁സ്പെക്ട്ര	-10.4947
▁ദേവസ്വം	-10.4947
▁കുറിച്ച	-10.495
രുമായി	-10.4956
▁മക്	-10.4961
▁ഒരോ	-10.4962
ൂസ്	-10.4967
ക്കുമ്പോൾ	-10.4968
▁എന്നിവയ	-10.4971
▁ഉണ്ടാകുന്നു	-10.4973
▁വായുവ	-10.4974
ാധിപ	-10.4975
ബോധം	-10.4975
ن	-10.4978
▁ഗ്രാമീണ	-10.4979
▁പ്രവേശനം	-10.4981
▁വലിച്ച	-10.4982
▁വിചാരണ	-10.4985
▁1980-	-10.4988
▁ഏറ്റെടുത്തു	-10.4988
▁ബീജ	-10.4988
▁ബോസ്	-10.4988
ഗേ	-10.4991
സ്റ്റൺ	-10.4993
▁അവൻ	-10.4995
ഡിന്റെ	-10.4998
▁നിലവാര	-10.5001
▁പടിഞ്ഞാറേ	-10.5002
ജന്യ	-10.5003
ങ്ങിയ	-10.5004
▁കേസ്	-10.5006
ാണിവ	-10.5007
വസ്തുക്കൾ	-10.5008
▁കണക്കാക്കിയ	-10.5011
▁സ്വന്തമായി	-10.5012
▁നും	-10.5014
▁മസ്ജിദ്	-10.5018
▁പ്രവാഹ	-10.5022
ുകയുള്ളൂ	-10.5022
▁1996	-10.5024
റേറ്റ	-10.5026
▁നെയ്	-10.5026
ന്തോ	-10.5028
▁ഉത്ഭവ	-10.5033
▁ക്രൂ	-10.5035
▁വാര	-10.5035
▁അർഹ	-10.5037
▁ട്രാ	-10.5039
ലാന്റ	-10.5041
▁മെക്സിക്കോ	-10.5042
▁അടിച്ചമർത്ത	-10.5042
gh	-10.5042
▁ദക്ഷിണേന്ത്യ	-10.5042
പ്പെ	-10.5046
ാണെന്നു	-10.505
ീശ്വര	-10.5051
▁ആധിപത്യം	-10.5052
ിലെത്തി	-10.5052
▁ദുർ	-10.5054
ിരിക്കെ	-10.5055
ത്രെ	-10.5056
ക്കളിൽ	-10.5057
▁150	-10.5059
വാസികൾ	-10.5059
▁ഏല	-10.5059
പ്രവർത്തക	-10.5062
മിൽ	-10.5064
▁സഭയിൽ	-10.5065
▁ആദ്യകാലങ്ങളിൽ	-10.5066
ുണ്ടാകും	-10.5066
▁പുനര	-10.5066
▁നിരൂപക	-10.5068
300	-10.5069
▁നിർമ്മിച്ചത്	-10.5069
തൊ	-10.507
▁കമ്യൂണിസ്റ്റ്	-10.5073
▁കാണിക്ക	-10.5074
▁കൊലപാതക	-10.5074
▁രണ്ടാമൻ	-10.5074
▁le	-10.5081
▁സംഭാഷണം	-10.5087
▁ഫ്രെ	-10.5088
▁മേള	-10.5088
▁ഇവയാണ്	-10.5093
പള്ളി	-10.5094
▁വലിയൊരു	-10.5104
▁പ്രാപിച്ച	-10.5106
▁ഭൂകമ്പ	-10.5106
▁സാൻ	-10.5106
ങ്ങളെക്കുറിച്ച്	-10.5107
ec	-10.5108
▁ഫ്രാൻസിസ്	-10.5108
▁പോർ	-10.5108
▁കലാലയ	-10.5109
▁പ്ലേ	-10.511
▁ഇണ	-10.5113
നാര	-10.5113
ഹരണ	-10.5114
▁മാറുന്നു	-10.5116
▁ഗാന്ധിജി	-10.512
സ്റ്റീ	-10.5121
▁വിഭാഗങ്ങൾ	-10.5122
ഫൈ	-10.5123
▁നാമകരണം	-10.5123
പ്പാട്ട്	-10.5125
ലിസ	-10.5125
▁കുംഭ	-10.5127
▁1995	-10.5128
▁തയ്യാറാക്ക	-10.5133
ടിച്ച	-10.5134
▁ക്യാമ്പ	-10.5136
▁പരമാവധി	-10.5137
▁ഡോളർ	-10.5137
▁ചെവി	-10.5141
▁ഫ്രീ	-10.5143
യോടു	-10.5144
▁അടയാള	-10.5145
▁ആന്റി	-10.5145
▁സോമ	-10.5146
ിയാർ	-10.5147
യിനം	-10.5148
▁ട്രി	-10.5148
▁ആരംഭിക്ക	-10.5153
▁മാതാവ്	-10.516
പ്പിൾ	-10.5166
▁ജൈന	-10.5166
▁പുല	-10.5166
one	-10.5166
▁പ്രാപിക്ക	-10.5172
▁ബന്ധിപ്പിക്ക	-10.5175
▁പിന്നീട	-10.5176
ിനുള്ളിൽ	-10.5177
▁വീട	-10.5184
▁തേട	-10.5186
▁ഏത	-10.5189
▁പഞ്ചായത്തും	-10.519
▁പതന	-10.5191
വിഗ്രഹ	-10.5191
▁കപ്പല	-10.5195
▁ഭേദ	-10.5196
▁ഭക്തർ	-10.5199
ോപകരണ	-10.5204
▁കായ	-10.5205
▁1954	-10.5206
▁നാട്ടു	-10.5206
▁പുരസ്	-10.5208
ലധികം	-10.5208
▁പരിധിയിൽ	-10.521
▁പഞ്ചാബി	-10.5211
റ്റിന്റെ	-10.5211
സായി	-10.5212
▁ഗതാഗതം	-10.5214
നൈ	-10.5215
dy	-10.5216
ണിൽ	-10.5216
ction	-10.5218
▁1992	-10.5219
ju	-10.5222
മുണ്ടാക	-10.5223
▁വിജയിച്ചു	-10.5224
സഹ	-10.5225
ുന്നതായി	-10.5227
ദം	-10.5231
▁വ്രത	-10.5235
▁2001-	-10.5236
ശേഷ	-10.5244
ക്ഷര	-10.5246
▁500	-10.5247
▁സ്റ്റാർ	-10.525
▁നാരായണൻ	-10.5252
▁പുറത്താക്ക	-10.5256
▁പ്രതിപാദിക്ക	-10.5256
▁തനിക്ക്	-10.5256
▁ദീർഘകാല	-10.5258
▁se	-10.5258
ക്കാരന	-10.5259
▁എഡ്	-10.5259
▁ജന്മി	-10.526
▁സഹായക	-10.5261
▁ആരംഭിക്കുന്നത്	-10.5262
▁മാതൃ	-10.5264
▁പ്രായോഗിക	-10.5266
▁രൂപവത്കരിച്ച	-10.5266
▁വിലാസം	-10.5267
▁യോഗ്യത	-10.527
▁മത്സരിച്ച	-10.527
▁ഉപനിഷത്ത	-10.527
▁പതിനെട്ടാം	-10.527
▁ഉര	-10.5271
:-	-10.5271
സൂത്ര	-10.5272
▁രജ	-10.5273
▁ന്യുമോണിയ	-10.5281
യിലോ	-10.5288
▁സംസ്ഥാനത്തിന്റെ	-10.5288
▁അയച്ചു	-10.5292
▁പതിനാറ	-10.5293
മൂന്ന	-10.5296
▁2-	-10.5297
യെന്ന്	-10.5299
സംസ്കാര	-10.53
▁കാൾ	-10.5301
പ്പും	-10.5301
▁ധർമ	-10.5304
ോടുള്ള	-10.5306
പ്രധാന	-10.5308
▁എഴുന്നള്ള	-10.5309
▁തട്ടി	-10.5311
▁കരാർ	-10.5318
▁പരാമർശിക്കുന്ന	-10.532
▁കാളി	-10.5321
▁കൊക്ക	-10.5322
▁ക്രിസ്ത്യാനി	-10.5325
▁പ്രതിമ	-10.5328
▁മരിക്ക	-10.5329
▁തീരെ	-10.533
▁റബ്ബർ	-10.5331
വേല	-10.5331
▁സാക്ഷ്യ	-10.5331
▁ജപ്പാൻ	-10.5331
▁സെന്റർ	-10.5332
അധിവർഷത്തി	-10.5332
▁പനി	-10.5333
▁തുടങ്ങുന്ന	-10.5333
പ്രശ്ന	-10.5334
▁അറിഞ്ഞ	-10.5335
▁ക്രിക്കറ്റ	-10.5338
ഫീസ	-10.5339
▁ജീവിതത്തിൽ	-10.5339
ായ്മ	-10.5344
▁ഉണ്ടായിരുന്നത്	-10.5345
ച്ചൻ	-10.5347
▁ആയിര	-10.5348
ക്കീ	-10.5352
വർത്തി	-10.5354
തട	-10.5355
പുഴ	-10.5357
▁സമ്പ	-10.5359
▁ഔദ്യോഗികമായി	-10.5361
ധിഷ്ഠിത	-10.5362
▁പട്ടണം	-10.5366
▁പറയുന്നുണ്ട്	-10.5366
108	-10.5369
▁വനിത	-10.5375
par	-10.5375
വദ	-10.5377
പെരു	-10.5379
est	-10.5384
ion	-10.5385
ർവ്വ	-10.5387
ചെയ്തു	-10.5388
മരണ	-10.5392
▁18-	-10.5395
രാജൻ	-10.5396
▁നാടൻ	-10.5397
▁തലവന	-10.5398
ാചാര	-10.5398
▁കൃത്യമായ	-10.5401
▁ദൂരെ	-10.5403
▁1949	-10.5403
കൊടുക്ക	-10.5404
▁കുറഞ്ഞു	-10.5404
▁ഓട്ട	-10.5405
▁അമേരിക്കയുടെ	-10.5411
tan	-10.5411
വാൾ	-10.5414
▁ബോർഡ	-10.5415
ക്കളും	-10.5424
▁പാരീസ	-10.5425
▁അകത്ത	-10.5428
▁കവിതകൾ	-10.5428
▁ഹൈക്കോടതി	-10.5429
▁പൂർത്തിയായ	-10.543
▁പിറന്ന	-10.543
▁അവയവ	-10.5432
▁ഭവ	-10.5433
▁ജീവചരിത്ര	-10.5433
▁മെസ്സി	-10.5433
ബിന്ദു	-10.5434
▁ജനവിഭാഗ	-10.5436
റിസ്	-10.5438
ച്ചെടി	-10.5438
▁1997	-10.544
യനുസരിച്ച്	-10.5442
▁വട	-10.5444
പ്രായ	-10.5445
▁ലോകം	-10.5446
പ്രകൃതി	-10.5447
▁മാർക്	-10.5449
▁മിനി	-10.545
നുമാണ്	-10.545
▁ഘട്ടത്തിൽ	-10.545
▁2006-	-10.5452
▁മിൽ	-10.5459
കണ്ഠ	-10.5462
▁വിശാലമായ	-10.5465
േന	-10.5465
▁ആദര	-10.5466
▁national	-10.5466
പ്പുറത്ത	-10.5466
▁ഒരാള	-10.5467
സങ്കല്പ	-10.5468
▁ഗംഗാ	-10.5468
▁തന്നെയായിരുന്നു	-10.5468
▁ഏർപ്പെട്ട	-10.5469
ുമുണ്ട്	-10.5471
ary	-10.5472
fr	-10.5472
▁16-	-10.5478
▁ഭൂപ്രദേശ	-10.5481
▁നേടിയത്	-10.5483
▁തരത്തിൽ	-10.549
▁ശതമാന	-10.5492
▁കുറയ	-10.5493
▁തുറക്ക	-10.5494
▁മുണ്ട	-10.5495
▁ചതുര	-10.5495
ാണെങ്കിൽ	-10.5495
▁ഹ്രസ്വ	-10.5496
▁പരിഗണിച്ച	-10.5496
ക്യ	-10.5496
▁1945	-10.55
വകുപ്പ	-10.5501
ക്റ്റ്	-10.5504
▁പ്രവർത്തിപ്പി	-10.5508
യോഗം	-10.5509
യന്ത്ര	-10.551
മന്ത്ര	-10.5513
▁കടന്ന്	-10.5515
ea	-10.5515
ഇന്ത്യൻ	-10.5516
▁ഏറ്റു	-10.5518
hy	-10.552
▁മണ്ണ്	-10.5522
▁തീരത്ത്	-10.5523
മണ	-10.5527
▁mu	-10.5528
▁എന്നർത്ഥം	-10.553
▁ആയിരിക്ക	-10.553
▁ഒന്നിലധികം	-10.553
വ്യാപാര	-10.5533
▁ഏത്	-10.5536
▁ഹാർഡ്	-10.554
▁അഗ	-10.5542
▁1990-	-10.5542
▁as	-10.5542
ാണോ	-10.5543
ുമ്പോഴാണ്	-10.5543
ുവാന	-10.5547
▁റോമാ	-10.5552
त	-10.5554
▁ഭാരതത്തിലെ	-10.5554
ുമ്പോഴ	-10.5555
ദിശ	-10.5556
▁അയ്യപ്പ	-10.5559
▁പോഷക	-10.5562
▁ഉടലെടുത്ത	-10.5562
▁ഇല്ലാത	-10.5563
▁ക്വ	-10.5564
▁ചെയ്	-10.5565
മ്പ്ര	-10.5566
▁ഒഴുകി	-10.5567
▁ഏഷ്യാ	-10.5573
▁എഞ്ചിന	-10.5573
▁ടാങ്ക	-10.5574
ീകൃത	-10.5574
▁2017	-10.5575
ton	-10.5575
▁സഹായിക്കുന്ന	-10.5578
▁ശാന്ത	-10.558
വ്യാ	-10.5582
▁ട്രോ	-10.5583
▁ചെയ്യപ്പെടുന്ന	-10.5584
▁എന്നിവര	-10.5584
▁അനുവാദ	-10.5585
ട്ടിക്	-10.5585
ani	-10.5586
▁ചിര	-10.5587
▁അഹ	-10.5587
900	-10.5589
▁ശേഷ	-10.5592
san	-10.5593
▁വിത്തു	-10.5596
പ്രയോഗ	-10.5597
മണ്ഡലം	-10.5605
പ്പാല	-10.5609
യാണെന്നും	-10.5609
sy	-10.5609
ാദേവി	-10.561
▁മുക്ക	-10.5616
▁ശില	-10.5621
മീറ്ററ	-10.5623
▁മെത്രാപ്പോലീത്ത	-10.5629
▁പ്രതിനിധീകരിക്ക	-10.5635
ക്രോ	-10.5637
വുമുള്ള	-10.5641
സിറ്റി	-10.5642
▁ഫ്രാൻസ്	-10.5643
▁യാഗ	-10.5643
മുണ്ടായി	-10.5643
▁പത്ത	-10.5646
▁j	-10.5646
▁1984	-10.5647
▁വേട്ട	-10.5649
▁ഹീ	-10.5651
▁or	-10.5651
ക്ഷമ	-10.5659
▁സാധിച്ച	-10.5659
▁രാജാവായ	-10.566
▁ലോകകപ്പ	-10.5662
▁മത്സരങ്ങളിൽ	-10.5663
▁മുൻപു	-10.5665
▁യേശുവിന്റെ	-10.5665
▁പവർ	-10.5666
▁മരണമടഞ്ഞു	-10.5667
▁ഏഴാം	-10.5669
നെന്ന	-10.5671
[	-10.5671
ില്ലെങ്കിലും	-10.5672
▁400	-10.5675
▁നൂറ്റാണ്ട്	-10.5675
▁ലോകത്തിൽ	-10.5677
ഭാഗത്ത്	-10.5681
താണു	-10.5683
car	-10.5683
മണ്ഡപ	-10.5684
▁വാദിച്ചു	-10.5686
▁അടുക്ക	-10.5686
▁ഭീമ	-10.5687
▁കടുവ	-10.5689
ുണ്ടാക	-10.5693
▁ഘന	-10.5693
▁വെർ	-10.5694
▁പിന്തുടരുന്ന	-10.5694
▁നോട്ട	-10.5695
▁സൗരയൂഥ	-10.5697
▁ഉടമ	-10.5697
▁പഞ്ചായത്തുകൾ	-10.5697
▁നയതന്ത്ര	-10.5698
ത്തുകയും	-10.57
▁1976	-10.5702
▁ബഹുമാന	-10.5707
കിഴക്ക	-10.5707
▁പിന്നില	-10.5708
▁ഭാരതത്തിൽ	-10.5717
ഗ്രി	-10.5721
▁ഉമ്മ	-10.5722
ുമായിരുന്ന	-10.5722
▁ഗ്രീക്കു	-10.5722
ബാധ	-10.5726
ക്കഴിഞ്ഞ	-10.5727
▁കാലിഫോർണിയ	-10.5731
▁കൗൺസിൽ	-10.5731
▁പ്രോത്സാഹിപ്പി	-10.5731
വിജ്ഞാന	-10.5734
▁പാർക്ക	-10.5734
▁തിരുത്ത	-10.5734
▁ഇതില	-10.5738
▁ദുർഗ്ഗ	-10.5739
▁സ്ഥലമാണ്	-10.574
െയ്ൻ	-10.5742
ത്തെയാണ്	-10.5743
ക്കുശേഷം	-10.5744
▁ال	-10.5745
▁ലാഭ	-10.5746
▁സീസണിൽ	-10.5748
▁പണ്ട	-10.5752
ചാര	-10.5754
ളുകൾ	-10.5754
▁ശ്രേണി	-10.5755
ഡ്ര	-10.5756
ഡ്സ്	-10.5756
▁1950	-10.5759
▁ഓല	-10.576
ഗ്ന	-10.5761
▁സിനിമയിലെ	-10.5766
▁പരിഷ	-10.5767
▁1958	-10.5769
▁രണ്ടോ	-10.5773
േതര	-10.5774
▁വല്ല	-10.5778
land	-10.5779
▁കപ്പ്	-10.5782
▁കഴിവു	-10.5783
▁താമസിച്ചിരുന്ന	-10.5785
തിന	-10.5785
മാറ	-10.5785
▁വടക്കുപടിഞ്ഞാറ	-10.5788
ുകൾക്കും	-10.5788
▁സ്പെയിന	-10.5793
വാരി	-10.5795
വത്കരണ	-10.5798
▁ഗവർണർ	-10.5799
▁ഭൗമ	-10.5799
സമര	-10.58
▁ചെയ്തിരുന്ന	-10.5801
യോഗ്യ	-10.5803
▁ഒമ്പത	-10.5803
chan	-10.5804
ൈഡ്	-10.5804
▁1974	-10.5805
▁അനാ	-10.5809
▁തെക്കുപടിഞ്ഞാറ	-10.5813
ഗുപ്ത	-10.5815
നായും	-10.5817
ത്തായ	-10.5817
▁ഡേ	-10.5818
▁നെല്ല	-10.582
▁സംസാരിക്ക	-10.5823
▁ചെയ്യുമ്പോൾ	-10.5823
മായിട്ടാണ്	-10.5825
▁രൂപീകരണ	-10.5825
▁റൺസ്	-10.5825
▁കാണിക്കുന്ന	-10.5826
യെടുത്ത	-10.5827
▁മടങ്ങ്	-10.5829
ഗത	-10.5831
മിക	-10.5831
▁മാറുകയും	-10.5832
പ്രോ	-10.5832
▁ചാലക്കുടി	-10.5832
▁ചൂണ്ടിക്കാണിക്ക	-10.5833
▁ഉറവിട	-10.5833
മാത്രം	-10.5838
▁അവരിൽ	-10.5838
▁ഭാഗവും	-10.5841
യൂസ്	-10.5843
നാഗ	-10.5845
ബോൾ	-10.5848
കോള	-10.5849
വായി	-10.585
▁ശ്രമങ്ങൾ	-10.5854
ാനായ	-10.5855
▁ബൊ	-10.5861
▁കുഞ്ഞു	-10.5863
▁1991	-10.5864
net	-10.5865
▁കണക്കാക്കുന്നത്	-10.5866
▁ലാറ്റിൻ	-10.5868
▁10-	-10.5869
▁അന്തിമ	-10.587
റ്റൻ	-10.5871
▁ഭൂരിപക്ഷ	-10.5876
ns	-10.5876
▁നിയമസഭാ	-10.588
▁സ്ഥലത്തു	-10.588
▁റിപ്പബ്ലിക്ക	-10.588
▁സന്ദർഭ	-10.5881
▁വിക്കി	-10.5882
▁പരാതി	-10.5883
wi	-10.5885
▁മൺ	-10.5886
▁2020	-10.5886
പറമ്പ്	-10.5888
▁റാണി	-10.5888
ാഹ്	-10.5891
▁രാജ്യത്ത്	-10.5891
▁ആശുപത്രിയിൽ	-10.5892
▁ഹിമ	-10.5893
ഫലമായി	-10.5894
▁കരസ്ഥമാക്കി	-10.5894
▁ലക്ഷണ	-10.5896
▁ആവശ്യമാണ്	-10.5897
പിച്ച	-10.5897
▁ബോട്ട	-10.5898
▁സെമി	-10.59
മുണ്ടാകും	-10.5901
mala	-10.5902
▁സാധിച്ചു	-10.5903
▁നാം	-10.5903
▁രാജീവ്	-10.5903
▁പ്രതിഭ	-10.5907
▁ഇംഗ്ലീഷിൽ	-10.5908
മ്പർ	-10.591
യിൽനിന്ന്	-10.5911
▁പുലർത്തുന്ന	-10.5912
▁ഗാനം	-10.5914
▁എത്തുന്ന	-10.5919
▁sh	-10.5922
ഭരണം	-10.5924
മുണ്ടെന്ന	-10.5924
▁കണ്ടുവരുന്നു	-10.5925
▁ഒട്ട	-10.5927
▁സൃഷ്ടിച്ചു	-10.5928
▁തണുപ്പ	-10.593
▁കാണിച്ച	-10.5933
▁ജീവചരിത്രം	-10.5934
ാനാകും	-10.5935
▁കയറ്റുമതി	-10.5936
▁നരസിംഹ	-10.5937
വാഹി	-10.5939
▁അനുപാത	-10.594
▁കട്ടി	-10.5941
▁പേടക	-10.5941
▁പ്രയോഗിക്ക	-10.5944
▁വ്യക്തിത്വ	-10.5947
▁തീരുമാനിച്ച	-10.5948
നെയും	-10.5949
▁പ്രജനന	-10.5955
▁കേശവ	-10.5958
▁ഹിറ്റ്	-10.5962
ർഥ	-10.5965
ണമെങ്കിൽ	-10.5965
▁ഗ്രാ	-10.5969
കാണ	-10.5969
▁ജെയിംസ്	-10.5971
▁ദുര്യോധന	-10.5971
▁സമുദ്രനിരപ്പിൽ	-10.5971
ലായ	-10.5972
കാരണം	-10.5972
▁ഹിന്ദുമത	-10.5975
▁താമര	-10.5975
വരായിരുന്നു	-10.5975
▁പശ്ചിമഘട്ട	-10.5976
വുമ	-10.5979
പണ്ഡിത	-10.598
പ്രധാനമായ	-10.5981
ish	-10.5982
▁സപ്ത	-10.5983
ദ്രവ്യ	-10.5983
▁പുത്രി	-10.5986
oc	-10.5986
▁കാണപ്പെട	-10.5988
▁ആഗ്രഹ	-10.5989
▁നിഘണ്ടു	-10.5993
ില്ലെന്ന്	-10.5997
നിർണയ	-10.5997
▁സൂര്യൻ	-10.5997
▁നിഷ്	-10.5998
സ്റ്റിക്	-10.6
▁2009-	-10.6002
ie	-10.6006
▁ഉച്ചാരണ	-10.6006
▁ശുക്ര	-10.6006
▁ആശയവിനിമയ	-10.6006
പന്ന	-10.6007
▁പാലം	-10.6009
▁മിശ്ര	-10.6015
▁ഭവന	-10.6015
▁സന്ദർശന	-10.6016
▁ദേശീയോദ്യാനം	-10.6018
ക്കാനും	-10.602
▁എഴുത്ത	-10.6021
യിലേ	-10.6021
▁ബ്രി	-10.6028
▁നിന്നുമാണ്	-10.603
പ്പായ	-10.6034
മാരായ	-10.6036
▁പുത്തൻ	-10.6041
▁ഹൈസ്കൂൾ	-10.6041
▁ജനപ്രിയ	-10.6043
▁പ്രസവ	-10.6043
ബറി	-10.6044
▁കാർഡ	-10.6044
▁ഫു	-10.6046
വാള	-10.6047
▁ലഭിക്കുന്നത്	-10.6051
ചികിത്സ	-10.6053
സൃഷ്ടി	-10.6055
ers	-10.6055
▁സമാഹാര	-10.6056
▁ഒന്നായി	-10.606
▁pro	-10.606
▁സമീപന	-10.6061
പ്രഭ	-10.6063
▁കീഴില	-10.6063
ങ്ങും	-10.6064
▁ഭാവി	-10.6064
les	-10.6064
▁പഴക്ക	-10.6064
gra	-10.6065
▁കവാട	-10.607
▁ഇന്തോ	-10.6074
▁പ്രീ	-10.6075
▁ഖലീഫ	-10.6076
പ്രക്രിയ	-10.6078
▁സർവീസ	-10.6078
▁പരിസര	-10.608
▁th	-10.6083
▁ജനങ്ങളെ	-10.6086
▁പൂർ	-10.6088
സ്രോതസ്സ	-10.6088
ാഭി	-10.6088
▁തുണി	-10.6092
▁ചടങ്ങ്	-10.6092
▁സൊ	-10.6094
▁തൊ	-10.6094
തുകൊണ്ടാണ്	-10.6094
▁ഗാലക്സി	-10.6096
▁ചുണ്ട	-10.6097
▁രാജാക്കന്മാര	-10.6098
▁താഴെപ്പറയുന്ന	-10.6101
യാണു്	-10.6104
tro	-10.6106
വീര	-10.6106
▁ബോളിവുഡ്	-10.6111
="19	-10.6111
▁ഡോക്ടർ	-10.6114
mar	-10.6115
▁ഇറങ്ങിയ	-10.6116
▁നേടുന്ന	-10.6118
▁സഹായി	-10.6118
▁കരുതുന്ന	-10.6118
▁1966	-10.6118
മന്ത്രിയായിരുന്ന	-10.6119
▁ചിത്രീകരണ	-10.6119
വിദ്യാഭ്യാസ	-10.6119
യെന്നും	-10.6126
▁ഇറാന	-10.6129
ദേ	-10.6133
ഇൻ	-10.6135
കുളങ്ങര	-10.6137
സ്റ്ററ	-10.6139
▁തത്	-10.614
▁നര	-10.6144
ാത്മ	-10.6145
▁അഴിമതി	-10.6147
▁പച്ചക്കറി	-10.6147
▁ഇംഗ്ലണ്ട്	-10.6147
ദർശ	-10.6152
▁ജയിച്ച	-10.6155
▁രചനാ	-10.6155
ൊപ്പം	-10.6156
▁വിധത്തിൽ	-10.6157
▁പങ്കെടുത്തു	-10.6158
പാരമ്പര്യ	-10.616
▁ആത്മകഥ	-10.6167
▁നിലകളിൽ	-10.6168
ഘോഷ	-10.617
കൊണ്ടും	-10.617
▁സജീവമായി	-10.6174
▁അശ്വ	-10.6175
▁രക്തം	-10.6178
▁കൈമാറ	-10.6182
▁അൽഗൊരിത	-10.6182
▁ലഹള	-10.6182
▁സിന്ധു	-10.6182
▁ധ്യാന	-10.6183
▁തിരഞ്ഞെടുപ്പ്	-10.6183
വള്ളി	-10.6183
ചാലക	-10.6185
▁ഡേവിഡ്	-10.6185
▁അമര	-10.6186
▁പ്രത്യേകതയാണ്	-10.6188
▁1955	-10.6189
▁നൂറു	-10.619
ഗൃഹ	-10.6196
▁എല്ലാവരും	-10.6198
ാക്രമണ	-10.6198
പോന്ന	-10.6199
▁ആസ്പദമാക്കി	-10.62
▁വൈക്കം	-10.6206
തരംഗ	-10.6217
▁സൗഹൃദ	-10.6218
നിർമ്മാതാവ	-10.6218
▁രചയിതാവ	-10.6218
▁നിർമ്മിക്കുന്നത	-10.6219
▁നാട്ടിലെ	-10.6219
▁സമഗ്ര	-10.6222
▁വിശ്രമ	-10.6222
▁മകൾ	-10.6223
ാരംഭിച്ച	-10.6226
രീതിയിൽ	-10.6226
▁മുനി	-10.623
▁പൊതുവായ	-10.6231
ചരണ	-10.6231
▁ഗവൺമെന്റ്	-10.6235
ഓളം	-10.6235
▁സെൽ	-10.6239
ക്കുള	-10.6242
മുറി	-10.6243
ിച്ചിട്ടുണ്ട്	-10.6243
▁പദ്യ	-10.6244
tes	-10.6245
▁ശിവക്ഷേത്രം	-10.6245
ത്തേക്കാൾ	-10.6245
▁ഏറ്റെടുക്ക	-10.6247
▁മഞ്ഞു	-10.6249
▁പൗ	-10.6251
▁ശങ്കര	-10.6251
▁ശരീരത്തിന്റെ	-10.6253
നേഷ്യ	-10.6253
▁അർബുദ	-10.6253
▁രൂപകൽപ്പന	-10.6253
▁ആയിരക്കണക്കിന	-10.6253
▁തെലുങ്ക്	-10.6253
▁മൊബൈൽ	-10.6253
▁പാചക	-10.6253
▁ജ്യോതിഷ	-10.6254
▁രാജാക്കന്മാർ	-10.6255
▁ദിനപത്ര	-10.6255
▁യൂറോപ്പിലെ	-10.6255
▁അതിവേഗ	-10.6256
തിരഞ്ഞെടുപ്പ	-10.6258
പൈ	-10.6258
കുട	-10.6259
ത്തിലേ	-10.6262
▁go	-10.6266
▁തെരഞ്ഞെടുപ്പ	-10.6267
ത്തിലേയ്ക്ക്	-10.627
▁അംബ	-10.6271
▁പെടുന്നു	-10.6273
ാർഡ്	-10.6273
▁അയക്ക	-10.6274
▁17-	-10.6274
▁ശാല	-10.6276
cho	-10.6277
▁ഫോൺ	-10.628
▁നിയമസഭാമണ്ഡലം	-10.6281
▁അമ്മയുടെ	-10.6281
▁ha	-10.6282
ുന്നതിനാൽ	-10.6284
▁പതിനഞ്ച	-10.6284
▁അഭിപ്രായപ്പെട	-10.6288
▁he	-10.6289
▁സ്പീഷീസ	-10.6289
▁ഓസ്ട്രിയ	-10.6289
▁ജനുസ്സ	-10.629
▁ഏറ്റുമുട്ട	-10.629
▁കൂട്ടായ്മ	-10.6291
res	-10.6294
▁പശ്ചാത്തലം	-10.6294
▁പൂജ്യ	-10.6295
▁വിവരം	-10.6296
▁ടു	-10.6296
▁പത്താം	-10.6298
പേക്ഷ	-10.63
▁നൂറ	-10.6304
മേനോൻ	-10.6305
ക്ഷേപ	-10.6308
▁സര	-10.6308
▁ചൊല്ല	-10.6308
▁ഇടപെട	-10.6315
▁വാലി	-10.6315
▁ചികിത്സാ	-10.6316
▁ശ്രമിക്കുന്ന	-10.6316
മാർഗ്ഗം	-10.6318
ത്തിലേക്കുള്ള	-10.632
▁എനിക്ക	-10.6323
▁സ്ഥാപിതമായ	-10.6323
▁പുറപ്പെടുവിക്ക	-10.6325
▁മാവേലിക്കര	-10.6325
▁ബാലി	-10.6325
▁തൊട്ടടുത്ത	-10.6326
സങ്കീർണ്ണ	-10.6326
▁അംഗീകാരം	-10.6327
്യൻ	-10.6327
iv	-10.6328
യായാണ്	-10.6328
േക്കാൾ	-10.6328
ബൂ	-10.6329
▁വർദ്ധിച്ചു	-10.6331
▁രൂപാന്തര	-10.6332
പോവ	-10.6332
▁മാധവൻ	-10.6332
▁കണക്കുകൾ	-10.6334
▁വിഗ്രഹം	-10.6338
▁പ്രദേശത്തു	-10.6338
ദേവൻ	-10.6342
▁നിയന്ത്രണത്തില	-10.6346
▁സുരക്ഷാ	-10.6349
▁വധ	-10.6353
▁രാജ്യമാണ്	-10.6353
▁വീട്ടു	-10.6355
ിരിക്കുമ്പോൾ	-10.6356
ീവ്	-10.6356
വാദ്യ	-10.6357
▁പത്മനാഭ	-10.6361
▁സമർപ്പിക്ക	-10.6361
▁നാടോടി	-10.6362
▁നദികൾ	-10.6363
▁വാല്യ	-10.6363
▁വിൻ	-10.6365
▁ചീഫ്	-10.6367
▁എഡിറ്റ	-10.6368
▁ഹെറാ	-10.6368
▁നിർദ്ദേശിക്ക	-10.6372
▁സ്തുതി	-10.6374
ദർശനം	-10.6375
▁എന്നൊക്കെ	-10.6375
ർക്കി	-10.6376
ായതിനാൽ	-10.6378
വടി	-10.6379
▁പോരാട	-10.638
വിവര	-10.6383
പാറ	-10.6384
വാഹന	-10.6384
റാം	-10.6388
▁ഭൂരിപക്ഷം	-10.6389
▁വെളിച്ച	-10.6389
പാത്ര	-10.639
▁വീട്	-10.639
സാർ	-10.6392
▁ഖാന്റെ	-10.6394
▁താമസിക്ക	-10.6394
▁തീർത്ഥാടന	-10.6397
▁ആഹാരം	-10.64
▁പൊക്ക	-10.6401
▁നാഡീ	-10.6401
▁പോയിന്റ	-10.6404
കൊണ്ടിരുന്നു	-10.6404
ിറങ്ങി	-10.6407
വേളയിൽ	-10.6414
▁ആധാരമാക്കി	-10.6415
സിദ്ധ	-10.642
കളിലായി	-10.642
▁വഹിക്ക	-10.6424
▁വ്വ	-10.6424
▁75	-10.6425
ചാരി	-10.6427
▁സംസ്കൃതത്തിൽ	-10.6427
▁മീഡിയ	-10.6428
ചൂ	-10.6428
നുകൾ	-10.643
ial	-10.6431
▁നേടുകയും	-10.6433
▁അധീനതയില	-10.6434
▁തകർന്ന	-10.6434
▁കോഴി	-10.6437
▁സമ്പദ്	-10.6437
▁വരെയാണ്	-10.6438
ാരാധന	-10.6439
ist	-10.6442
ുകളുടെയും	-10.6446
ധൂ	-10.6448
▁മകന	-10.6448
ടൻ	-10.6449
sis	-10.645
ദിനം	-10.645
val	-10.645
▁നാലാമത്തെ	-10.6452
വർണ	-10.6454
▁ഇരിക്ക	-10.6456
▁പക്ഷികൾ	-10.6456
▁ഉദാഹരണം	-10.6457
▁കാലയളവ	-10.6458
▁വെള്ളത്തിൽ	-10.646
▁സ്ഫോടന	-10.6465
വംശജര	-10.6466
▁വിൽക്ക	-10.6466
▁നിലവിലുണ്ടായിര	-10.6467
▁മാതാപിതാക്കൾ	-10.647
▁ഐക്യരാഷ്ട്രസഭ	-10.6471
▁ക്യാമറ	-10.6471
▁ശേഖരിക്ക	-10.6472
▁3-	-10.6476
ger	-10.6477
▁ഇത്തരത്തിലുള്ള	-10.6478
▁ഛ	-10.6479
▁നാൾ	-10.6481
ിന്റേത	-10.6481
തിനാല	-10.6482
സസ്യ	-10.6482
പുസ്തക	-10.6484
▁വരുത്തിയ	-10.6485
▁നക്ഷത്രമാണ്	-10.6486
ടങ്ങുന്ന	-10.6487
ബാല	-10.6489
മെന്നു	-10.649
▁മാത്രമായിരുന്നു	-10.6491
▁വരണ്ട	-10.6494
ുന്നതിനെ	-10.6498
സാദ്ധ്യ	-10.6501
വില്ല	-10.6503
▁1993	-10.6504
▁ആവശ്യപ്പെട്ട	-10.6504
▁കൂട്ടം	-10.6505
gre	-10.6505
▁സാക്ഷി	-10.6506
ുൾപ്പെടെ	-10.6507
▁മോഹ	-10.6507
▁വേട്ടയാട	-10.6507
സത്യ	-10.6509
െഴുത	-10.6511
▁പ്രധാനവേഷങ്ങളി	-10.6512
▁ഉൾപ്പെടുത്തി	-10.6513
▁ഉപ്പ	-10.6515
▁ആരാധനാലയങ്ങൾ	-10.6516
▁കാന്ത	-10.6522
ുകളുള്ള	-10.6524
ധാരണ	-10.653
▁നടപടികൾ	-10.6531
▁അബു	-10.6533
▁കഴിവ്	-10.6533
▁പർവ്വത	-10.6534
▁ദ്വീപുകൾ	-10.6535
▁ടർ	-10.6536
പൂർവ	-10.6539
കമ്പ	-10.6543
▁അഹ്മദ്	-10.6544
വൽക്കരണ	-10.6544
▁1962	-10.6546
data	-10.6547
യിലേയും	-10.6548
പാണ്ഡവ	-10.6554
▁ഗുരുത്വാകർഷണ	-10.6555
പട്ടണ	-10.6557
▁നക്ഷത്രത്തിന്റെ	-10.6558
▁പേരുകളിൽ	-10.6559
dr	-10.656
കഴിഞ്ഞ	-10.656
▁ഗുണം	-10.6561
▁ചെറുകഥ	-10.6561
▁കഴിവുള്ള	-10.6561
▁ഓവ	-10.6562
▁വിപണി	-10.6562
▁ചിത്രമായ	-10.6565
ന്മാരിൽ	-10.6566
ദശ	-10.6568
▁su	-10.6572
▁ഉറപ്പിച്ച	-10.6573
ന്ത്ര	-10.6574
ിരുന്നതായി	-10.6577
▁കണ്ടുവരുന്ന	-10.6578
▁കേന്ദ്രങ്ങൾ	-10.6578
▁ദാരിദ്ര്യ	-10.6581
▁എത്തിച്ചേർന്ന	-10.6581
▁മാനദണ്ഡ	-10.6581
▁തകർക്ക	-10.6582
▁ഭൂഖണ്ഡ	-10.6582
ന്ദർ	-10.6582
ിയിരുന്ന	-10.6583
▁നന്ദി	-10.6587
▁ബ്ളോക്കിൽ	-10.6588
റുക്ക	-10.659
നന്ദ	-10.659
▁ഗ്രാം	-10.659
▁രൂപംകൊണ്ട	-10.6591
▁ഭഗ	-10.6595
▁2007-	-10.6598
▁വൻകര	-10.6598
വനും	-10.6599
സാഹ	-10.6599
ാധിപത്യ	-10.6605
▁വിശ്വസിച്ച	-10.6605
▁മുഹമ്മദ	-10.6605
യോള	-10.6607
▁പഞ്ചായത്തുകളും	-10.6607
▁ഉൾപ്പെടുത്ത	-10.661
ിതനായ	-10.661
▁പെർ	-10.661
▁എക്	-10.6613
▁മകനായ	-10.6615
േഷ	-10.6615
വരുത്ത	-10.6618
▁മഹാദേവക്ഷേത്രം	-10.6619
▁ഗ്രീൻ	-10.6619
റിംഗ്	-10.6621
▁ഹോം	-10.6621
▁കോളജ	-10.6621
▁അച്ഛന	-10.6627
▁തുടങ്ങുന്നത്	-10.6628
വാസി	-10.6629
ാലു	-10.663
▁ഷൂ	-10.6631
ിലുമായി	-10.6639
▁പിഴ	-10.6641
▁2004-	-10.6644
▁വിശ്വസിക്കുന്ന	-10.6647
▁പ്രശസ്തമാണ്	-10.665
യുണ്ടാക്ക	-10.6652
ത്തോടെയാണ്	-10.6652
▁വെല്ലുവിളി	-10.6655
▁സംവിധായകൻ	-10.6655
▁നടൻ	-10.6656
ക്കായുള്ള	-10.666
▁കിലോമീറ്ററ	-10.6661
ിരിയ്ക്കുന്നു	-10.6661
▁ശ്രമിക്ക	-10.6662
▁ശൈവ	-10.6663
▁നദീ	-10.6667
▁യൂണിറ്റ	-10.6667
▁1979	-10.6672
▁1977	-10.6673
ട്രിക്	-10.6674
▁എയ്	-10.6676
ിരുന്നെങ്കിലും	-10.6678
യുണ്ടായ	-10.668
▁വിശ്വസിക്ക	-10.6685
▁വിൽ	-10.6688
han	-10.669
▁പ്രശംസ	-10.6692
▁കൂട്ടിച്ചേർത്ത	-10.6692
▁വൈഷ്ണവ	-10.6692
▁അടിയന്തരാവസ്ഥ	-10.6693
▁അക്ബർ	-10.6694
▁തുട	-10.6694
▁ലോക്	-10.6695
▁ഫയൽ	-10.6695
▁വ്യാപിച്ചു	-10.6695
▁എത്തിക്ക	-10.6697
▁ആലുവ	-10.6698
▁ഉമ	-10.6703
▁പ്രഭ	-10.6706
▁കമ്പി	-10.6708
▁പ്രശ്നം	-10.6709
മൃഗ	-10.6713
▁ജീവിതത്തിന്റെ	-10.6716
▁ഭരത	-10.6718
▁ശതമാനവും	-10.6721
▁ഫെർ	-10.6722
gar	-10.6724
ത്തിൽനിന്ന്	-10.6724
},	-10.6725
രംഗത്തെ	-10.6726
jpg	-10.673
▁ഉത്തരവാദിത്ത	-10.673
▁അഭിഭാഷക	-10.673
▁മൈതാന	-10.673
▁ഇന്റർനാഷണൽ	-10.673
സ്മൃതി	-10.6733
▁പുല്ല	-10.674
400	-10.6742
▁ആൽഫ	-10.6742
ദാർ	-10.6743
▁ഉള്ളടക്കം	-10.6744
▁ടൂ	-10.6744
ji	-10.675
ോത്സവ	-10.675
ശരീര	-10.675
▁ഇവിടെയുണ്ട്	-10.6751
ജർ	-10.6752
▁ആധാര	-10.6758
ക്കൈ	-10.6759
ുന്നതിന്റെ	-10.676
▁നെഹ്രു	-10.676
ാണെന്ന	-10.676
▁രസതന്ത്ര	-10.6762
▁സമ്മേളന	-10.6763
▁ഐശ്വര്യ	-10.6767
▁വിപരീത	-10.6767
▁ന്യൂയോർക്ക്	-10.6767
▁ക്വാണ്ടം	-10.6767
▁ആഗസ്റ്റ്	-10.6767
▁ഇറാഖ	-10.6767
ക്കൊണ്ടു	-10.6768
ഭാഗവും	-10.677
▁നേതാവായ	-10.6773
▁വിമർശിക്ക	-10.6774
▁വില്ലേജ	-10.6777
▁രോഗാണു	-10.6777
▁പ്രാധാന്യമുള്ള	-10.6778
യിലെത്തിയ	-10.6778
ത്തിനാണ്	-10.6778
▁റഹ്	-10.6779
ചേ	-10.678
പാഠ	-10.6781
ുകൂടി	-10.6781
ബ്ലി	-10.6783
▁വാത	-10.6787
ട്യൂ	-10.6789
▁സംഭാഷണ	-10.6789
▁പന്നി	-10.6791
ദേശീയ	-10.6799
ൊന്നുമില്ല	-10.6799
▁സംഭവം	-10.68
▁ഉദ്ദേശിച്ച	-10.6801
▁ദണ്ഡ	-10.6802
▁ഉബുണ്ടു	-10.6805
▁ശസ്ത്രക്രിയ	-10.6805
▁നമുക്ക്	-10.6805
▁നിരോധിച്ച	-10.6807
▁ഒഴുക്ക	-10.6808
lan	-10.6809
▁2021	-10.6813
വണ്ണ	-10.6814
തോടെയാണ്	-10.6815
▁തെരുവ	-10.6815
▁33	-10.6817
വെൽ	-10.6818
ദ്വീപ	-10.6824
▁എടുക്കുന്ന	-10.6825
കാലത്തും	-10.6826
tal	-10.6828
▁സൂര്യന	-10.6829
ദൂര	-10.6837
▁ആറാട്ട	-10.6837
▁വോൾ	-10.6839
▁വിശ്വസിച്ചു	-10.6839
പ്തി	-10.684
മാവുകയും	-10.6841
▁വഹിക്കുന്ന	-10.6841
ശൂന്യ	-10.6841
▁പ്രതികരണ	-10.6842
▁ഗൂഗിൾ	-10.6843
▁ഹൈദരാബാദ	-10.6843
▁വിസ്തീർണ്ണം	-10.6843
▁മെച്ചപ്പെടുത്ത	-10.6844
▁മൗലിക	-10.6846
▁സമാന്തര	-10.6848
▁മുഴുവനും	-10.6854
▁പേരിട്ട	-10.6854
▁സിൽ	-10.6855
▁മോഡല	-10.6857
var	-10.6858
▁ശാസ്താവ	-10.6859
ില്ലെന്നും	-10.6861
ze	-10.6864
▁തമ്പി	-10.6864
▁കാൻ	-10.6864
▁എപ്പോഴ	-10.6866
ശ്രദ്ധ	-10.6867
ഡൊ	-10.6869
▁മറ്റുള്ള	-10.6869
▁മഹർഷി	-10.687
▁താലൂക്ക്	-10.687
കരി	-10.6871
മാണെങ്കിലും	-10.6876
ടിച്ചു	-10.6876
▁അടിമത്ത	-10.6876
ണെ	-10.6879
▁വികസിച്ച	-10.688
പ്പേര	-10.688
▁അർജന്റീന	-10.6881
▁ശബരിമല	-10.6881
▁പ്രോഗ്രാം	-10.6881
▁നാട്ടിൽ	-10.6881
▁ഉത്ഭവം	-10.6883
▁പ്രസാദ	-10.6883
▁രൂപവത്കരണ	-10.6884
േജ	-10.6885
▁എട്ടാം	-10.6886
▁ദിവസങ്ങളിൽ	-10.6886
ദീപ	-10.6889
▁സമൂഹത്തിൽ	-10.6892
▁പാർക്ക്	-10.6898
▁തുലാ	-10.6899
▁ഭാഗവത	-10.69
കോർ	-10.6903
തത്വ	-10.6906
▁ഓൾ	-10.6908
െടുക്കുക	-10.6909
രാഷ്ട്രീയ	-10.6909
▁47	-10.6909
ിക്കുമ്പോൾ	-10.6912
കൃഷ്ണൻ	-10.6917
▁ഹാജി	-10.6917
▁സ്റ്റെ	-10.6919
▁ഏജൻസി	-10.6919
▁രുചി	-10.6919
▁സൗജന്യ	-10.6919
▁സാദ്ധ്യത	-10.692
▁പുസ്തകത്തിൽ	-10.692
▁തിരുവിതാംകൂറ	-10.692
▁വർക്ക്	-10.6921
pal	-10.6922
▁വ്യാപകമായ	-10.6922
ുകളിലൂടെ	-10.6931
▁ഗണ്യമായ	-10.6931
▁6-	-10.6932
▁എന്നതിന്റെ	-10.6932
day	-10.6933
▁1970-	-10.6937
my	-10.6937
ാംശം	-10.6945
▁സംബന്ധിച്ച്	-10.6946
▁തെളിവുകള	-10.6947
▁മനസ്സിലാക്കി	-10.6948
▁പ്രദർശനത്തിന	-10.6948
▁താങ്ങ	-10.6954
രാമൻ	-10.6954
▁വ്യഞ്ജന	-10.6957
▁ഹനുമാൻ	-10.6957
സ്തംഭ	-10.6958
▁ഹീലിയ	-10.6961
ബുദ്ധ	-10.6964
▁ശാസന	-10.6965
▁കാലി	-10.6967
രേയും	-10.6967
▁വക്ക	-10.6968
ാട്	-10.6968
▁ആഗ്രഹിച്ച	-10.6968
ear	-10.6975
▁മസ്തിഷ്ക	-10.6975
▁ടീമിന്റെ	-10.6975
▁രചിച്ചിട്ടുണ്ട്	-10.6981
yan	-10.6982
▁കാപ്പി	-10.6982
▁ഇടം	-10.6984
മായിരുന്നില്ല	-10.6986
▁പരാജയപ്പെട്ട	-10.6986
ാശയ	-10.6987
രക്ത	-10.699
പഠനം	-10.6992
െതിരെ	-10.6996
▁പ്രദേശങ്ങളും	-10.6996
▁ജയിലിൽ	-10.6996
▁പ്രതിസന്ധി	-10.6996
ഭദ്ര	-10.6997
▁ഇൻഡ്യ	-10.6997
▁കാരണങ്ങൾ	-10.7004
ence	-10.7004
കൊടുത്ത	-10.7005
▁ചെണ്ട	-10.7007
ലിയൻ	-10.701
▁ആണെന്നു	-10.7012
കൊടുത്തു	-10.7012
▁പേരിന്റെ	-10.7016
▁ക്വി	-10.7019
ിരു	-10.7022
ഹൈ	-10.7023
ശ്ച	-10.7027
ൂട്ട്	-10.7029
▁ബോംബ	-10.7029
▁ഗൗ	-10.7031
ത്തോട്ട	-10.7032
എന്നാൽ	-10.7034
▁ആധികാരിക	-10.7034
▁ശിവരാത്രി	-10.7034
▁റിലീസ്	-10.7034
▁പ്രാവശ്യം	-10.7034
▁ചിത്രത്തിലൂടെ	-10.7035
▁സുഹൃത്തുക്കള	-10.7036
▁കഷ്ട	-10.7037
മുണ്ടാക്ക	-10.7037
▁ഫിലിപ്പ	-10.7038
▁സത്യം	-10.7038
▁തമിഴിൽ	-10.7038
▁അനുയോജ്യമായ	-10.7038
▁മലനിരകള	-10.7039
▁india	-10.7042
▁14-	-10.7042
ത്തുനിന്ന്	-10.7047
▁ഉണ്ടായിരിക്ക	-10.7052
▁കടക്ക	-10.7056
▁4-	-10.7058
വുമായുള്ള	-10.7061
▁ഇവരിൽ	-10.7061
▁തുടർ	-10.7062
മനുഷ്യ	-10.7063
▁ബസ	-10.7065
ther	-10.7066
െടുക്കാൻ	-10.7067
ച്ചിറ	-10.7071
▁ദ്വീപുകള	-10.7071
▁ആദ്യത്തേത	-10.7072
▁ദഹന	-10.7074
▁വ്യാപിച്ച	-10.7076
▁അക്ഷരമാല	-10.7076
▁നിരക്ക	-10.7076
▁കം	-10.7077
▁ജോൺസൺ	-10.7077
▁നള	-10.7078
ുന്നവർ	-10.7083
ലുകളും	-10.7085
▁1994	-10.7085
▁മീൻ	-10.7088
▁മാണി	-10.709
▁നവീകരണ	-10.709
▁സജ്ജ	-10.7092
▁വിപുല	-10.7094
▁പെട്ര	-10.7097
▁കനത്ത	-10.7098
കൊണ്ടിരുന്ന	-10.7099
ർപ്പണ	-10.7099
▁രത്ന	-10.7099
shi	-10.7101
▁11-	-10.7101
▁രീതികൾ	-10.7103
▁ഗോപാല	-10.7103
▁സാന്നിധ്യ	-10.7104
ഗ്രാം	-10.7108
▁ഒരുപാട	-10.7109
ാഴി	-10.711
▁പൗലോസ്	-10.7112
▁അട്ടിമറി	-10.7112
▁ദ്രോണ	-10.7112
▁യഥാർഥ	-10.7112
▁ശുദ്ധജല	-10.7113
നിവേദ്യ	-10.7114
▁കൈവരിക്ക	-10.7114
▁നീങ്ങ	-10.7115
▁മോർ	-10.7116
▁mar	-10.7117
ത്തോടുകൂടി	-10.7117
പട്ട	-10.7118
▁ഉപരി	-10.712
▁നേരത്തേ	-10.712
▁ചെറുതും	-10.7122
▁കിരീടം	-10.7123
ഗ്രഹണ	-10.7123
pp	-10.7124
▁മുതു	-10.7126
▁1982	-10.7131
ik	-10.7133
ുകിടക്കുന്ന	-10.7137
ഫോർ	-10.7137
▁കർമ	-10.7137
▁ആധിപത്യ	-10.7139
ചില	-10.714
▁കായ്	-10.7142
നിർ	-10.7143
ബാർ	-10.7144
ംഗി	-10.7144
വരി	-10.7145
▁ഉറച്ച	-10.7149
മായുള്ള	-10.7149
▁നദീതട	-10.715
▁പോർച്ചുഗീസ്	-10.7151
ുകയാണുണ്ടായത്	-10.7151
▁തന്മൂലം	-10.7151
സൂചക	-10.7152
▁നേതാവായിരുന്ന	-10.7152
▁പരക്കെ	-10.7154
മാണെന്നു	-10.7155
▁കൊട്ടാരക്കര	-10.7155
▁ചിലത്	-10.7156
▁വർഷങ്ങൾക്ക്	-10.7158
▁വാക്കു	-10.7158
▁ഇരുണ്ട	-10.7158
▁നബിയുടെ	-10.7159
▁കാലങ്ങളിൽ	-10.716
▁വ്യക്തമായി	-10.7162
യിലായി	-10.7164
▁സാഹിത്യം	-10.7165
▁ഒപ്പു	-10.7168
▁അകലെയുള്ള	-10.7169
ഗീ	-10.7171
തിലൂടെ	-10.7172
▁അധ	-10.7174
കൊണ്ടുള്ള	-10.7177
▁ചൂടു	-10.718
പരിധി	-10.7182
രുള	-10.7184
tho	-10.7187
▁നടത്തിയിരുന്നു	-10.7187
▁ഭൂരിഭാഗം	-10.719
▁യാഥാസ്ഥിതിക	-10.719
▁കുരങ്ങ	-10.7191
▁സംഘർഷ	-10.7191
▁നിർവചന	-10.7191
▁വേഗം	-10.7194
▁വരച്ച	-10.7195
വർമ	-10.7196
▁അയച്ച	-10.7199
▁നിലപാട്	-10.72
സ്ത്രീ	-10.7202
▁പാരിസ	-10.7204
▁ഒക്	-10.7204
▁കത്തോലിക്ക	-10.7205
മുണ്ട	-10.7209
▁1947	-10.7211
▁തെരഞ്ഞെടുപ്പിൽ	-10.7214
▁നിർമ്മിതി	-10.7216
ഷോ	-10.7217
ലക്ഷ്മി	-10.7218
റ്ററി	-10.7219
▁വില്ലേജ്	-10.722
▁ഉറു	-10.7222
▁ഡാറ്റ	-10.7222
▁കാഴ്ചപ്പാട	-10.7224
▁തമ്മില	-10.7227
▁കണ്ടെത്താൻ	-10.7229
നാഥൻ	-10.7229
mer	-10.7229
▁ഓപ്പറേറ്റിങ്	-10.723
▁ഡ്രൈവ	-10.723
▁സുരക്ഷ	-10.7232
▁ഏറ്റെടുത്ത	-10.7233
▁മാർക്കറ്റ	-10.7233
▁സംഗമ	-10.7235
cl	-10.7237
cent	-10.724
സംഘം	-10.724
▁നിർവ്വഹിച്ച	-10.724
▁നിലനിന്നിരുന്നു	-10.724
▁ദേഹ	-10.7241
▁പകർത്ത	-10.7244
തത്ത്വ	-10.7244
▁ബ്ല	-10.7248
നിന്നാണ്	-10.7248
pra	-10.7249
ഭട	-10.7251
sc	-10.7252
കളിലൊന്ന	-10.7256
▁കൃതിയിൽ	-10.7256
▁റായ്	-10.7258
ൊന്നു	-10.7259
▁യഥാർത്ഥത്തിൽ	-10.726
പ്പിയ	-10.7261
▁ഒന്നായ	-10.7262
ക്ഷമത	-10.7263
രെയും	-10.7264
ബ്യൂ	-10.7265
പ്രവേശ	-10.7266
മേറ്റ	-10.7266
▁റാം	-10.7268
ലിനു	-10.7269
▁ഇടതുപക്ഷ	-10.727
കർത്താവ	-10.7271
കമ്മ്യൂണിസ	-10.7271
▁നിൽക്കുന്നു	-10.7271
ാണെന്നാണ്	-10.7272
▁ഗുജറാത്തി	-10.7272
▁1989	-10.7272
▁ഉറപ്പ	-10.7272
സ്വര	-10.7273
േണ്ടതാണ്	-10.7275
ഗ്രാഫ	-10.7276
▁മുന്നണി	-10.7279
മൃത	-10.7279
▁ദൈവിക	-10.7281
ശ്ര	-10.7282
▁മരിയ	-10.7282
▁വിട്ട്	-10.7283
▁ബലം	-10.7284
▁അറിയിച്ചു	-10.7284
▁സാക്ഷരത	-10.7285
▁ഒരുക്കിയ	-10.7287
▁പേരുള്ള	-10.7287
=57	-10.7291
▁തോൽ	-10.7292
▁വിളിക്കുന്ന	-10.7292
ാവതി	-10.7297
cha	-10.7299
▁പ്രസിഡന്റ	-10.73
▁ഉപ്പു	-10.7302
▁പുറത്തിറക്കി	-10.7302
ാകാം	-10.7305
ാടക	-10.7305
▁അഹമ്മദ്	-10.7309
▁ഉപഭൂഖണ്ഡത്ത	-10.7309
▁ഉരുത്തിരിഞ്ഞ	-10.7309
▁വയസ	-10.731
▁ബാല്യ	-10.731
▁ഓഹരി	-10.7313
▁വിമർശിച്ച	-10.7313
▁ഡെവലപ്	-10.7314
ഖനന	-10.7315
▁ദോഷ	-10.7316
▁വിദൂര	-10.7317
േറ്റു	-10.7319
▁തുടർച്ചയായ	-10.7325
മാകും	-10.7326
കൊച്ചി	-10.7326
മിനി	-10.7329
if	-10.7339
kal	-10.7339
cor	-10.7339
▁ആക്രമിച്ചു	-10.7341
ാകുകയും	-10.7342
▁ഭൂമിയിലെ	-10.7342
ഭോഗ	-10.7343
▁സൈന്യത്തെ	-10.7346
▁ആസ്ഥാനമായ	-10.7347
▁ഘടിപ്പിച്ച	-10.7349
▁വാസ്തുവിദ്യ	-10.7349
▁തവിട്ടു	-10.7349
▁ലവണ	-10.7349
താഴ	-10.7352
▁തുളു	-10.7352
▁ഭാഗമായിരുന്നു	-10.7352
▁1921	-10.7354
▁ആക്രമിച്ച	-10.7357
▁പൊതുജന	-10.736
▁ലളിതമായ	-10.7361
▁ii	-10.7363
▁1971	-10.7363
സമ്പത്ത	-10.7364
യര	-10.7366
▁ലക്	-10.7368
▁യാത്രാ	-10.737
▁വർമ്മ	-10.7371
▁നീച്ച	-10.7371
▁സംവിധായകന	-10.7372
പൂർവ്വ	-10.7375
ഫീ	-10.7376
യെക്കുറിച്ചുള്ള	-10.7376
മായോ	-10.7378
ലൈറ്റ്	-10.7378
▁ധരിക്ക	-10.738
യേൽ	-10.738
▁പാടി	-10.7383
▁പതിനെട്ട	-10.7384
ന്മാർക്ക്	-10.7386
▁കത്തി	-10.7388
▁ടെക്നോളജി	-10.7389
▁ശനി	-10.739
▁ക്ലാസ്സ	-10.7393
▁അതുവഴി	-10.7394
ലാൽ	-10.7395
▁36	-10.7396
▁1959	-10.7396
rea	-10.7397
▁കോമൺ	-10.7397
ീഷ്	-10.7398
ിലേക്ക	-10.7399
▁പൂരം	-10.7399
▁1930	-10.74
▁നയിച്ചു	-10.74
▁വയസ്സു	-10.7402
▁ഉടൻ	-10.7404
je	-10.7405
=108	-10.7406
▁കഴിഞ്ഞില്ല	-10.7406
▁പാർട്ടിയിൽ	-10.7406
▁ചവിട്ട	-10.7407
ശാസ്	-10.7411
▁പാട്ട്	-10.7413
▁12-	-10.7416
പ്രദ	-10.7417
▁ഇദ്ദേഹ	-10.7417
ട്ടിന്റെ	-10.7417
ാഗ്ര	-10.7418
▁രാജാവായിരുന്ന	-10.742
പരമ്പര	-10.7423
മാനി	-10.7424
▁അധികാരത്തിൽ	-10.7425
file	-10.7426
▁മനസ്സിലാക്കാൻ	-10.7427
▁കൊഴുപ്പ	-10.7429
ീക	-10.7434
▁വാള	-10.7434
▁വാർഡുകൾ	-10.7436
▁ഗദ്യ	-10.7436
▁ദ്വീപ്	-10.7437
ical	-10.7438
▁വരികയും	-10.744
▁കൃതികളിൽ	-10.7441
ചരിത്രം	-10.7442
▁ലോകസഭ	-10.7442
▁കൂടുതലാണ്	-10.7443
▁കമല	-10.7445
കൾക്കിടയിൽ	-10.7446
▁കാന	-10.7447
▁ചുറ്റു	-10.7448
പിരി	-10.7448
ല്യൂ	-10.745
▁ബഹ	-10.7451
ff	-10.7453
ാവാം	-10.7453
▁വിപുലമായ	-10.7454
ബന്ധിപ്പിക്കുന്ന	-10.7455
▁സൃഷ്ടിക്കുന്ന	-10.746
വചന	-10.7466
▁ko	-10.7466
▁മുല്ല	-10.7469
▁പീഠഭൂമി	-10.747
▁കല്യാണ	-10.7473
▁1972	-10.7478
ഫിലി	-10.748
ശങ്ക	-10.748
▁കൊല	-10.7481
▁നല്ലൊരു	-10.7483
▁നിർമ്മിക്കാൻ	-10.7484
ശേഷിയുള്ള	-10.7484
▁ഇരട്ടി	-10.7492
ലിപി	-10.7492
▁പറയപ്പെടുന്ന	-10.7492
▁പേരെ	-10.7496
▁man	-10.7496
▁ജീവിതത്തിലെ	-10.7496
▁പഴക്കം	-10.7497
▁തലത്തിൽ	-10.7498
നിർണ്ണയ	-10.7498
▁ലിങ്ക	-10.7498
തമിഴ്	-10.75
വർദ്ധന	-10.7501
▁അന്ധ	-10.7501
ഓടെ	-10.7501
ധർമ	-10.7502
▁പറഞ്ഞത്	-10.7502
▁u	-10.7503
▁സങ്കല്പം	-10.7503
▁ദെ	-10.7503
▁ഭാഷയിലെ	-10.7504
വുമായിരുന്നു	-10.7508
▁ധാര	-10.7508
ഋ	-10.7509
ശിലായുഗ	-10.7509
▁നിർവഹിക്ക	-10.751
▁ഭരണകൂടം	-10.7512
ുകൊണ്ടു	-10.7513
▁2000-	-10.7515
പാട്ട	-10.7516
യോട	-10.7516
▁പരിപാടികൾ	-10.7517
▁മുൻകാല	-10.7518
▁ട്	-10.7521
യുമുള്ള	-10.7523
▁ഒത്തു	-10.7524
▁ബ്ലോഗ	-10.7529
നുള്ള	-10.753
ങ്ങളെപ്പറ്റി	-10.7534
▁മാർത്താണ്ഡവർമ്മ	-10.7535
ങ്ങൽ	-10.7535
▁ക്ഷേത്രമാണ്	-10.7536
▁കിടക്കുന്നു	-10.7537
▁ശക്തമായി	-10.7538
വർക്കും	-10.7538
ഫീൽഡ	-10.7539
▁എഴുതിയത്	-10.7541
▁di	-10.7541
▁പുൽ	-10.7543
▁കീർ	-10.7543
മാർഗ	-10.7543
ചലന	-10.7543
▁വിത്ത്	-10.7544
ലുള്ള	-10.7544
▁മദർ	-10.7545
▁പരാമർശിച്ച	-10.7545
▁മികവ	-10.7547
▁കാബൂള	-10.755
▁കന്നുകാലി	-10.755
▁കോർപ്പറേഷന	-10.755
▁നിർണായക	-10.755
ജ്ഞനായ	-10.755
▁മോഹൻലാൽ	-10.7551
▁മധു	-10.7554
▁പെട്ടെന്നു	-10.7558
ഷേ	-10.7558
▁1986	-10.7559
▁തൽ	-10.7563
▁പൈതൃക	-10.7565
ിനോടൊപ്പം	-10.7567
▁അടുത്തു	-10.7567
▁മഹാരാജാവ	-10.7569
ാഘാത	-10.757
റുപ്പ	-10.7571
▁കാസ	-10.7574
സണ	-10.7575
▁എന്നിവരെ	-10.7576
▁ഗോപി	-10.7576
info	-10.7578
കരിച്ചു	-10.7579
▁റൊ	-10.7579
പരവും	-10.7579
▁സമ്മേളനത്തിൽ	-10.7581
▁so	-10.7582
▁മൂപ്പ	-10.7584
ven	-10.7585
▁നീങ്ങി	-10.7587
▁ഗുജറാത്ത്	-10.7591
▁ചങ്ങനാശ്ശേരി	-10.7591
▁ധൂമകേതു	-10.7591
▁ഖുർആൻ	-10.7591
ുണ്ടെന്ന	-10.7592
bar	-10.7595
▁1951	-10.7595
▁ഗ്രന്ഥത്തിൽ	-10.7596
ുണ്ടായിരുന്നത്	-10.7599
പോന്നു	-10.7601
▁1000	-10.7601
▁ടൺ	-10.7602
▁കൈയ്യ	-10.7602
▁ശത്രുക്കള	-10.7604
▁നിറത്തിലുള്ള	-10.7605
▁തേങ്ങ	-10.7606
പ്രിന്റ	-10.7611
സാധാരണ	-10.7615
▁പട്ടണത്തിൽ	-10.7621
റായ	-10.7621
▁പ്രചാരണ	-10.7622
ഛ	-10.7623
വെങ്കിലും	-10.7625
▁തുടരുന്നു	-10.7627
▁കോഡ	-10.7628
▁പഠിക്കുന്ന	-10.7628
ഫോൺ	-10.7631
▁മതപരമായ	-10.7632
uni	-10.7632
▁നിരീക്ഷിച്ച	-10.7632
▁കൊടുമുടി	-10.7633
▁രാജകുടുംബ	-10.7636
▁കൂടുതല	-10.7641
ഗതാഗത	-10.7644
▁വഴിയാണ്	-10.7645
▁മറ്റുള്ളവര	-10.7649
ദുര	-10.7652
▁വൈവിധ്യ	-10.7658
ps	-10.7658
▁ചട്ട	-10.766
മധ്യ	-10.766
രോപ	-10.7664
▁ഒന്നോ	-10.7664
▁അടിയ	-10.7668
▁സൂചി	-10.7669
ിനകത്ത	-10.767
▁ബിരുദവും	-10.7671
▁കട്ട	-10.7672
▁സുപ്രീം	-10.7673
ഗമന	-10.7673
▁അധ്യക്ഷ	-10.7673
▁പ്രയാസ	-10.7674
ക്കൊണ്ട	-10.7674
▁കാണാന	-10.7674
▁ഗവൺമെന്റ	-10.7675
▁ഇല്ലാതെ	-10.7681
▁ഫോറ	-10.7681
▁ഗവണ്മെന്റ്	-10.7682
▁ആവാസ	-10.7685
▁1960-	-10.7686
ിപ്പിച്ച്	-10.7686
▁മാത്രമായി	-10.7686
▁നഗരമാണ്	-10.769
▁ട്രസ്റ്റ	-10.7694
▁പാടില്ല	-10.7697
▁ഇടവേള	-10.7702
ിരിക്കുക	-10.7703
▁സന്യാസ	-10.7706
▁നാടകങ്ങൾ	-10.7706
ുള്ളതാണ്	-10.7707
▁കുറെ	-10.7707
ies	-10.7713
ാർത്ഥം	-10.7714
▁വിക്കിപീഡിയ	-10.7715
▁സമ്പൂർണ്ണ	-10.7715
▁പിടിച്ചടക്കി	-10.7715
▁പ്രദേശത്തിന്റെ	-10.7721
▁ഏകക	-10.7721
െന്നാണ്	-10.7722
▁ബദ	-10.7723
ുകൊണ്ടിരിക്കുന്ന	-10.7726
ീയമായ	-10.7727
▁സങ്കര	-10.7727
▁രാജാക്കന്മാരുടെ	-10.7728
av	-10.7731
ോടി	-10.7734
▁ഖാന	-10.7735
▁ചിറക	-10.7736
ത്തിലധികം	-10.7736
റ്റേ	-10.7736
ുകളുണ്ട്	-10.7737
▁ലേഖനങ്ങൾ	-10.7737
കളോടെ	-10.7739
ക്യൂ	-10.7739
▁കരിമ്പ	-10.7741
▁കരുതപ്പെടുന്ന	-10.7741
▁ആസിഡ	-10.7743
▁വളരുന്നു	-10.7745
▁മറു	-10.7746
ജൂ	-10.7752
▁അറിയപ്പെട	-10.7752
ജ്യോതി	-10.7755
▁അപ്രത്യക്ഷ	-10.7756
വാതക	-10.7758
നൈറ്റ്	-10.7761
പുരാണ	-10.7761
▁പുരാതനമായ	-10.7761
▁എത്തിച്ച	-10.7763
റർ	-10.7764
▁ആകർഷിക്ക	-10.7765
▁പത്തൊൻപതാ	-10.7766
▁നിർണയിക്ക	-10.7766
ക്കാരാണ്	-10.7767
▁വിധാന	-10.7768
▁കാരണമാകുന്നു	-10.777
▁സാന്നിധ്യം	-10.777
ചോ	-10.777
▁യൂറോപ്പിൽ	-10.777
ബാദ	-10.7772
ou	-10.7773
▁പാസ്	-10.7776
▁നിയമിച്ചു	-10.7776
കേരളത്തിലെ	-10.7777
▁സമ്മത	-10.7779
▁ചേർന്നതാണ്	-10.7785
▁വായ്	-10.7791
നാരായണ	-10.7792
ാവൂ	-10.7794
▁ബൂ	-10.7795
വൃക്ഷ	-10.7796
▁വിശിഷ്ട	-10.7798
▁ക്ലാസ്	-10.7803
ഡ്രോ	-10.7803
ച്യ	-10.7805
ത്തിര	-10.7805
▁5-	-10.7805
▁ഉടനെ	-10.7806
▁ഗ്രന്ഥശാല	-10.7807
ിനടുത്തുള്ള	-10.7807
▁നാടു	-10.781
▁വേറെ	-10.7812
▁കൃതിയുടെ	-10.7814
▁അണുബാധ	-10.7814
▁മറ്റേ	-10.7814
▁അനുയായികള	-10.7816
ഹാർ	-10.7816
ങ്ങളുമുണ്ട്	-10.7817
▁കൂട്ടത്തിൽ	-10.782
ാമൻ	-10.7821
▁കുട്ട	-10.7824
യേക്കാൾ	-10.7829
ങ്ങളിലേക്കും	-10.783
▁ഉറ	-10.7833
▁ഉമർ	-10.7833
ഭുജ	-10.7837
▁ഗുരുവായൂര	-10.784
▁നഗരങ്ങൾ	-10.7841
▁നാട്ടുരാജ്യ	-10.7841
പരിപാലന	-10.7842
കളിലുള്ള	-10.7844
▁അധ്യാപക	-10.7845
▁പദത്തിൽ	-10.7846
കാര്യങ്ങളിൽ	-10.7848
▁ഭരിക്ക	-10.7849
▁കലാപം	-10.7849
സാധ	-10.785
▁മാസ്റ്റർ	-10.7851
▁അറുപത	-10.7853
പ്ലാ	-10.7857
▁അല്ലാത്ത	-10.7858
▁അനുവദിച്ച	-10.7859
▁ഉപയോഗിച്ചുള്ള	-10.7861
▁സീസണ	-10.7862
വീര്യ	-10.7862
▁സ്വയംഭരണ	-10.7865
▁കുട്ടികളെ	-10.7866
▁പതിനാല	-10.7866
▁വിശേഷണ	-10.7867
lic	-10.7869
ിനേക്കാൾ	-10.7872
നാവ	-10.7875
▁തള	-10.7875
▁കുട്ടികളുടെ	-10.7876
ുറപ്പിച്ച	-10.7877
ളിയ	-10.7878
▁ചെയ്യേണ്ട	-10.7878
െടുത്തത്	-10.7879
▁അർജ്ജുനന	-10.7879
“	-10.788
ഗ്രാ	-10.7881
▁റിച്ചാർഡ്	-10.7882
▁പ്രേരിപ്പിച്ച	-10.7882
ഭോ	-10.7882
▁ഇദ്ദേഹത്തിന്	-10.7882
▁മണ്ഡലത്തിൽ	-10.7882
▁കൈവരിച്ച	-10.7883
▁ആന്തരിക	-10.7885
▁ഇറങ്ങി	-10.7887
▁ഉരുക്ക	-10.7889
കരണം	-10.7892
▁ഫൈനലിൽ	-10.7892
▁പ്രൊഫ	-10.7893
▁രഥ	-10.7894
▁മോണ	-10.7896
▁ലഭ്യമല്ല	-10.7896
ിലുണ്ട്	-10.7899
ടീ	-10.7903
▁ഇല്ലാതാക്ക	-10.7904
▁ബിസിനസ്	-10.7906
ron	-10.7906
▁കൂടുതലുള്ള	-10.7906
▁വയറ	-10.7907
▁പ്രസിഡന്റായി	-10.7907
▁അഫ്ഗാനിസ്താനിലെ	-10.7908
▁നേരിടുന്ന	-10.791
▁സോഴ്	-10.7911
sion	-10.7914
കോൺ	-10.7914
▁തിരുവല്ല	-10.7914
▁കോപ	-10.7916
▁പ്രസിഡണ്ട്	-10.7916
ുമെങ്കിലും	-10.7917
▁ശാസ്ത്രം	-10.7919
▁പറഞ്ഞ്	-10.7919
▁ഉറക്ക	-10.792
▁വിൻഡോസ്	-10.792
▁മില്ലി	-10.7921
▁നിലനിൽക്കുന്നു	-10.7923
▁പദ്ധതിയുടെ	-10.7923
▁ഇസ്രായേലി	-10.7923
▁തെരഞ്ഞെടുത്ത	-10.7924
▁നാഗരികത	-10.7924
▁യോഗം	-10.7924
▁വംശനാശ	-10.7925
▁പരാമർശിക്ക	-10.7925
കുന്ന്	-10.7926
▁വർഷത്തോളം	-10.7929
▁ബോക്സ	-10.793
▁വിത്തുകൾ	-10.7931
▁ഹയർ	-10.7931
▁8-	-10.7931
▁ആവിഷ്കരിച്ച	-10.7934
പ്പുറത്ത്	-10.7939
ങ്കോട്	-10.794
▁ഉദാഹരണമാണ്	-10.7941
▁രൂപീകരിച്ച	-10.7943
പെടുന്ന	-10.7944
ub	-10.7944
മാകുകയും	-10.7944
കായ	-10.7945
▁അച്യുത	-10.7945
▁അംഗീകരിച്ചു	-10.7945
▁വീഴ	-10.7945
പോർട്ട	-10.7946
▁1957	-10.7948
▁ne	-10.7949
വാഹക	-10.7952
▁ജു	-10.7953
▁1987	-10.7953
▁ദുരിത	-10.7954
▁ചുവടു	-10.7954
▁നല്കുന്ന	-10.7957
▁കെട്ടു	-10.7958
കഴ	-10.796
▁ശവ	-10.7961
▁അംഗീകാര	-10.7964
▁പോള	-10.7966
വിധേയ	-10.7967
കവിത	-10.7969
ുവെന്ന	-10.797
lin	-10.7972
നൽക	-10.7974
▁1975	-10.7974
ത്തിലൂടെയാണ്	-10.7975
യുടേ	-10.798
തെന്നാണ്	-10.7981
▁തെയ്യം	-10.7982
▁തെളിഞ്ഞ	-10.7983
ിലൊരാളായ	-10.7985
▁സാധിക്കുന്ന	-10.7985
▁തീരപ്രദേശ	-10.7987
▁വള്ളി	-10.7988
4-	-10.799
▁അംഗങ്ങള	-10.799
▁ഗവേഷണം	-10.7991
▁നിറമുള്ള	-10.7991
▁ഉപയോഗങ്ങൾ	-10.7992
▁ഞാ	-10.7992
▁പാണ്ഡ്യ	-10.7994
▁സഭകൾ	-10.7994
▁പകര	-10.7997
▁നാളിൽ	-10.8
▁പദ്ധതികൾ	-10.8003
▁പുനഃ	-10.8003
▁ആവശ്യം	-10.8005
▁ti	-10.8007
▁നാദിർ	-10.8009
പേരൂർ	-10.8009
▁ഒന്നാമൻ	-10.801
▁മന്ദ	-10.8011
ക്കാവ	-10.8012
▁ഡിസംബറിൽ	-10.8013
▁ഉദാഹരണമായി	-10.8018
▁സംസാര	-10.8022
pre	-10.8025
ളവ	-10.8025
ക്കൊള്ള	-10.8027
ുകയെന്ന	-10.8028
പ്രിയ	-10.8029
ിച്ചാൽ	-10.803
▁തിന്ന	-10.8034
▁മലബാറിലെ	-10.8034
▁ബ്രിട്ടീഷുകാര	-10.8037
ാനാവില്ല	-10.804
കാരനായ	-10.8041
വായു	-10.8042
ത്തക്ക	-10.8044
ഗൂ	-10.8048
▁തെക്കും	-10.805
▁ഉപയോഗിക്കാം	-10.805
ദ്ദേഹം	-10.8052
ദക്ഷിണ	-10.8054
▁സമീപത്ത	-10.8056
▁കൌ	-10.8056
വൃത	-10.8062
റുകളും	-10.8064
▁സാർ	-10.8065
vo	-10.8067
▁പ്രയോഗിച്ച	-10.8067
സെൻ	-10.8072
▁നേരത്തെ	-10.8072
ടെക്	-10.8074
▁തിയോ	-10.8076
▁ബന്ധിപ്പിച്ച	-10.8076
ഹാരി	-10.8077
▁ശ്രദ്ധേയമാണ്	-10.8078
ിയാൽ	-10.8081
▁ചുരുങ്ങിയ	-10.8081
വിധം	-10.8083
▁കടലിൽ	-10.8083
▁പ്രദേശങ്ങളിലും	-10.8084
▁ഹൊ	-10.8084
യുണ്ടായിരുന്ന	-10.8085
▁ബെയ്	-10.8086
▁കണക്കിലെടുത്ത	-10.8089
▁നിരക്ക്	-10.8094
▁മ്യൂസിയ	-10.8094
▁പര്യടന	-10.8094
യോടും	-10.8095
▁ബീറ്റ	-10.8095
▁ആണി	-10.8096
▁കൃത	-10.8097
▁പ്രവേശിച്ച	-10.8098
▁നാനാ	-10.8098
▁ആചാര്യ	-10.8102
▁1936	-10.8102
▁സ്ഥിരമായി	-10.8102
തന്നെയാണ്	-10.8102
▁സരസ്വതി	-10.8103
ശുദ്ധി	-10.8104
ത്തിലായി	-10.8104
▁ചെല്ല	-10.8107
▁സമൂഹം	-10.8107
▁റൺസ	-10.8109
▁ചേരുന്ന	-10.811
ശ്വാസ	-10.8112
▁മുര	-10.8114
▁വചന	-10.8114
ത്തിനിടയിൽ	-10.8118
ാശ്രമ	-10.8121
▁ബ്ലൂ	-10.8122
▁ഉണ്ടാകുന്നത്	-10.8125
▁ഇനങ്ങൾ	-10.8125
▁ബ്രോ	-10.8132
ക്കൊടുത്ത	-10.8135
യാണെങ്കിലും	-10.8135
▁ദർശനമായി	-10.8136
▁കുഞ്ഞി	-10.8137
▁തണുത്ത	-10.8138
▁സ്കോട്ട്	-10.8138
▁ക്ലി	-10.8138
സങ്കേത	-10.8139
ീശ	-10.814
സമയ	-10.814
▁നശിച്ച	-10.8141
▁സീന	-10.8143
▁ഓക്സൈഡ	-10.815
▁ജോസ്	-10.8152
ചാർ	-10.8153
▁കിടന്ന	-10.8153
▁വലം	-10.8156
▁പെണ്ണ	-10.8157
▁ചൊ	-10.8158
▁രീതിയിലാണ്	-10.8159
പണി	-10.8159
▁പ്രകടനം	-10.8159
മായിത്തീർന്നു	-10.8162
▁നേട്ട	-10.8165
താണെന്നും	-10.8172
മാട	-10.8174
ബലം	-10.8176
വാറ	-10.8177
ക്ലോ	-10.8178
▁അഫ്ഗാനി	-10.8179
▁കൂട്ടിച്ചേർക്ക	-10.8181
▁സ്ഥാനാർത്ഥി	-10.8181
▁2005-	-10.8181
ey	-10.8182
kerala	-10.8183
ർദ്ദ	-10.8185
റാവു	-10.8193
▁ആസ്മ	-10.8194
▁പിതാവായ	-10.8195
ലക്ഷണ	-10.8196
▁ഫ്രഞ്ചു	-10.82
▁മാട	-10.8206
▁തീരുമാനം	-10.8206
ുന്നതോടെ	-10.821
▁അംഗമായിരുന്നു	-10.8214
കുറഞ്ഞ	-10.8221
▁വളഞ്ഞ	-10.8222
▁ലക്ഷണം	-10.8224
▁ഉഷ്ണമേഖലാ	-10.8224
▁ഒട്ടനവധി	-10.8224
▁വളരെയേറെ	-10.8224
▁എബ്രായ	-10.8224
▁മെച്ചപ്പെട്ട	-10.8225
ജാല	-10.8226
▁വടക്കുഭാഗത്ത്	-10.8226
▁അന്ത്യം	-10.8227
▁രാജ്യാന്തര	-10.8229
▁നഷ്ടപ്പെട	-10.8232
▁ഇതൊരു	-10.8234
ിക്കാം	-10.8235
▁എഴുത്തു	-10.8238
▁ജയിലില	-10.8241
▁വിശ്വാസികൾ	-10.8243
▁കെട്ടിയ	-10.8244
▁ബ്രാ	-10.825
▁വഹിക്കുന്നു	-10.8253
▁റൗ	-10.8255
▁ലക്ഷ്മണ	-10.8256
▁13-	-10.8257
▁ഇലക്ട്രോണ	-10.8261
ക്കുരു	-10.8262
പ്പൊടി	-10.8264
▁പ്രവേശിച്ചു	-10.8266
പ്പോഴേക്കും	-10.8266
▁ഉത്തരേന്ത്യ	-10.8268
▁ജ്യേഷ്ഠ	-10.8268
▁ന്യൂനപക്ഷ	-10.8268
▁ഉർദു	-10.8268
▁മുൻപിൽ	-10.827
▁കൃഷ്ണപിള്ള	-10.8271
▁കൂട്ടു	-10.8273
ഗാർ	-10.8276
▁പിരിഞ്ഞ	-10.828
▁അവളെ	-10.8283
▁പാട്ടുകൾ	-10.8283
▁ജയ്	-10.8284
പ്പാർ	-10.8288
▁ad	-10.8292
ിരുന്നതിനാൽ	-10.8293
▁വിമോചന	-10.8296
▁ഓളം	-10.8302
pro	-10.8303
gen	-10.8303
▁ഇംഗ്ലണ്ടിലെ	-10.8304
▁ചന്ദ്രൻ	-10.831
▁ബൗദ്ധ	-10.8312
▁ചൂണ്ടിക്കാട്ട	-10.8312
▁സ്റ്റുഡിയോ	-10.8312
▁ഇലക്ട്രോൺ	-10.8312
▁പ്രത്യേകിച്ചും	-10.8312
▁മാതൃഭൂമി	-10.8312
▁ത്രികോണ	-10.8313
▁എന്നാണു	-10.8313
▁ബുക്ക്	-10.8314
▁ഉപാധി	-10.8315
▁നിശ്ചയിച്ച	-10.8315
▁റാവു	-10.8321
▁കണക്ക്	-10.8323
▁പുതുതായി	-10.8325
▁കുറ്റി	-10.8326
▁അതോടൊപ്പം	-10.8326
▁നക്ഷത്രങ്ങളുടെ	-10.8331
▁ആരംഭിക്കുന്ന	-10.8332
▁സിംഗ	-10.8332
ത്തിനെതിരായ	-10.8334
▁അനന്തര	-10.8337
▁കിങ്	-10.834
യെയാണ്	-10.8341
▁ശിവന്റെ	-10.8342
▁1996-	-10.8344
inter	-10.8345
▁പൊള്ള	-10.8346
▁വികാസം	-10.8349
▁]	-10.835
ദ്ദേശ	-10.835
▁അനുയോജ്യ	-10.8351
ാക്കുകയും	-10.8354
▁തദ്ദേശ	-10.8354
▁ചെയർമാൻ	-10.8356
▁പരിശോധിക്ക	-10.8356
▁പ്രതിപാദിച്ച	-10.8356
▁അന്തർദേശീയ	-10.8356
▁ഒരുമിച്ച്	-10.8357
▁ആകർഷിച്ച	-10.8357
▁പഞ്ചസാര	-10.8358
ചിഹ്ന	-10.836
▁ഒഴുകുന്നു	-10.8362
▁ഉൾക്കൊള്ള	-10.8362
▁അവകാശപ്പെട്ട	-10.8362
പരവുമായ	-10.8364
▁1937	-10.8364
▁കൊടുക്കുന്ന	-10.8372
▁അവന്റെ	-10.8373
▁എതിർത്ത	-10.8374
box	-10.8375
▁ഇടയ്ക്ക	-10.8376
ച്ചേ	-10.8376
▁ക്രീ	-10.8376
പോലുള്ള	-10.8378
കളോടു	-10.8381
കെട്ടി	-10.8381
▁താന	-10.8385
▁തങ്ക	-10.8386
▁സയൻസ	-10.8387
മ്യൂ	-10.8388
▁തിരിച്ചറിയാൻ	-10.8388
▁എന്നിവിടങ്ങളിലെ	-10.839
ത്തുമ്പോൾ	-10.8391
▁സ്ഥലത്തെ	-10.8391
▁എന്നിവയ്ക്ക്	-10.8391
യ്യാ	-10.8393
▁നേതൃത്വ	-10.8394
▁സംഭരണ	-10.8398
▁പതിനേഴാം	-10.84
thumb	-10.84
▁അമീർ	-10.8401
മറിയ	-10.8402
▁കീഴടക്കി	-10.8403
▁ഭാഗത്തെ	-10.8404
▁ഗ്രേറ്റ്	-10.8405
▁ഏർപ്പെട	-10.8405
▁മനുഷ്യാവകാശ	-10.8407
▁വാഗ്	-10.8408
▁1931	-10.8409
ാവതാര	-10.8409
▁പിണ്ഡം	-10.841
ാതിരിക്കാൻ	-10.8411
▁പോർട്ട	-10.8414
വിനു	-10.8414
▁ചരിത്രപരമായ	-10.8416
▁വിപ്ലവം	-10.8416
▁കപൂർ	-10.8419
ബ്ല	-10.842
മാതൃക	-10.842
▁സേവനങ്ങൾ	-10.8421
▁റെയ്	-10.8422
▁കവിതാ	-10.8426
ഷണൽ	-10.8426
▁പള്ളിയിൽ	-10.8429
ാത്തതിനാൽ	-10.8429
▁മകര	-10.843
▁മുറിവ	-10.843
ുമെന്നു	-10.8431
▁ജനതാ	-10.8431
കുത്ത	-10.8432
▁രചിച്ചു	-10.8434
കല്ല	-10.844
▁ഉപയോഗിക്കപ്പെട	-10.8443
▁ആരാധിക്ക	-10.8443
▁കൗൺസില	-10.8445
international	-10.8445
ദൃഷ്ടി	-10.8445
▁ലൈസൻസ	-10.8445
▁പാർശ്വ	-10.8447
തുടങ്ങിയ	-10.8451
വട്ട	-10.8452
▁പൂർണ്ണമായി	-10.8454
മാറ്റി	-10.8455
▁വണ്ട	-10.8456
▁1999-	-10.8456
▁കടലാസ	-10.8457
പുഷ്പ	-10.8461
▁si	-10.8462
▁ഭാഷയാണ്	-10.8464
▁ഇരുമ്പ	-10.8465
▁നെൽ	-10.8465
▁നിർദ്ദേശം	-10.8469
മുൻ	-10.847
പ്രവർത്തനങ്ങൾ	-10.8471
സാധന	-10.8473
▁ലക്ഷണങ്ങൾ	-10.8473
cu	-10.8473
കുമാറ	-10.8475
▁അവസാനിപ്പിക്ക	-10.8476
▁നടത്തിയിരുന്ന	-10.8476
ത്തിനിടെ	-10.8477
ഫലങ്ങൾ	-10.8479
▁വാരിക	-10.848
▁പ്രവാചകൻ	-10.8481
▁വിളക്കു	-10.8481
▁(17	-10.8482
യൂര	-10.8483
▁ജനുവരിയിൽ	-10.8486
▁രീതിയാണ്	-10.8487
▁അമ്ലം	-10.8488
▁റിസർച്ച്	-10.8489
▁ദരിദ്ര	-10.8489
▁സന്താന	-10.8489
ശാന്തി	-10.849
ഒരേയൊരു	-10.8491
▁മലേഷ്യ	-10.8494
▁1969	-10.8495
▁പ്രതിപക്ഷ	-10.8495
ഊ	-10.8495
അറബി	-10.8495
▁കണ്ടത്	-10.8497
▁കിംഗ്	-10.8497
▁കൊണ്ടുപോക	-10.8498
▁റിപ്പബ്ലിക്ക്	-10.8502
▁പകരമായി	-10.8503
▁പോര	-10.8503
തൈ	-10.8504
ക്ലി	-10.8513
വാങ്ങ	-10.8515
നീർ	-10.8517
ous	-10.8518
▁മാനവ	-10.852
▁ക്രിസ്ത്യാനികൾ	-10.8526
▁നായകനായി	-10.8527
ിയ്ക്കുന്നത്	-10.8529
▁ഭാഗങ്ങളും	-10.853
പുരാണം	-10.8531
▁വ്യൂഹ	-10.8531
▁പങ്കുവഹിച്ച	-10.8534
▁താരതമ്യം	-10.8535
▁ജാക്സൺ	-10.8535
▁പരിശ്രമ	-10.8535
▁വിശകലനം	-10.8535
▁തീർന്ന	-10.8535
▁എഞ്ചിനീയറിംഗ്	-10.8536
ടക്കമുള്ള	-10.8539
▁ഏക്കർ	-10.854
താള	-10.8541
▁തിരിച്ച്	-10.8543
കേശ	-10.8543
▁ടിപ്പു	-10.8544
▁സായുധ	-10.8545
നീതി	-10.8545
▁രണ്ടാമത	-10.8547
▁ശശി	-10.8549
mil	-10.8551
▁പദങ്ങൾ	-10.8553
▁എവിടെ	-10.8555
▁സാഹിത്യത്തിൽ	-10.8557
▁പണിക്കർ	-10.8559
യ്ക്കാ	-10.8562
തിർ	-10.8565
▁പരീക്ഷണങ്ങൾ	-10.8566
ുകളില	-10.8567
col	-10.8569
▁അനുഭവപ്പെട	-10.8573
▁ജൂലിയ	-10.8575
▁വായനക്കാര	-10.8576
▁പ്രൈമറി	-10.8579
▁പലായനം	-10.8579
▁കന്യാകുമാരി	-10.8579
▁നിയോഗിച്ച	-10.858
▁നമസ്കാര	-10.858
▁സമ്പർക്ക	-10.858
▁തകർത്ത	-10.8582
▁രൂപപ്പെടുത്ത	-10.8583
▁1934	-10.8586
സദസ്സ	-10.8587
▁തീയ	-10.8587
▁മൂത്ര	-10.8587
▁മണ്ണിൽ	-10.859
▁ശര	-10.8591
▁തെക്കുഭാഗത്ത്	-10.8592
ില്ലെങ്കിൽ	-10.8596
മൊരുക്ക	-10.86
▁കാന്റ	-10.8601
ാണുള്ളത്	-10.8604
ഭാഗത്തു	-10.8607
▁ta	-10.861
▁രസം	-10.861
▁മലബാറ	-10.8612
▁രക്ഷപ്പെട	-10.8613
▁മറിയ	-10.8614
▁ഗുപ്ത	-10.8615
▁മുഖം	-10.8615
▁ഖുർ	-10.8618
▁പ്രചരിപ്പിക്ക	-10.8624
▁പ്രക്ഷേപണ	-10.8624
▁സങ്കീർണ	-10.8625
▁എഴു	-10.8631
നടപടി	-10.8634
▁അല്പ	-10.8636
▁ലഭിക്കും	-10.8636
4)	-10.8636
▁ഏകദിന	-10.8636
▁മറ്റുള്ളവർ	-10.8636
fer	-10.8636
ഡൈ	-10.8639
▁നന്ന	-10.8639
▁പിന്നീടു	-10.864
ുപോകുന്ന	-10.8644
rus	-10.8644
ത്തിലെത്തി	-10.8646
para	-10.8647
her	-10.8648
യോർക്ക	-10.8648
▁പുരുഷന്മാര	-10.8653
▁അവസ്ഥയിൽ	-10.8654
കളുമുണ്ട്	-10.8657
▁നേതാക്കൾ	-10.8657
▁ക്രാ	-10.866
കൊണ്ടാണ്	-10.866
▁വൈറസ	-10.8661
ിപ്പിക്കുകയും	-10.8666
ക്കെതിരേ	-10.867
book	-10.867
▁കിലോഗ്രാം	-10.867
▁അനവധി	-10.867
▁കണക്കനുസരിച്ച്	-10.8671
▁ട്രോഫി	-10.8671
▁ചുറ്റപ്പെട്ട	-10.8671
ക്കുറവ	-10.8673
▁ഡിവിഷന	-10.8675
▁പ്രാരംഭ	-10.8675
▁റാങ്ക	-10.8676
▁സിനിമകളിൽ	-10.8677
▁പതിനാറാം	-10.8677
ari	-10.8678
▁ഒന്നര	-10.8681
ൊപ്പ	-10.8682
▁മന്ദിര	-10.8683
▁പിതൃ	-10.8686
▁അംഗമായ	-10.8686
▁തുല്യമായ	-10.8688
▁ആവി	-10.8691
▁അണുകേന്ദ്ര	-10.8692
▁അയോണ	-10.8695
രോധ	-10.8696
▁മാത്രമുള്ള	-10.87
ലീന	-10.8701
▁25-	-10.8701
▁സൗകര്യങ്ങൾ	-10.8706
▁കൊല്ലപ്പെട്ടു	-10.8706
▁പാർവ്വതി	-10.8707
▁ചേരി	-10.8709
മാന്റെ	-10.8709
▁സംഗീതജ്ഞ	-10.8711
▁കാന്തികക്ഷേത്ര	-10.8711
▁അഭിനയിച്ചത്	-10.8712
▁വച്ചാണ്	-10.8713
▁പരിവർത്തന	-10.8713
▁അടക്ക	-10.8714
▁മംഗള	-10.8715
▁നസ്രാണി	-10.8715
ഴുത്ത	-10.8715
▁വാക്കിന്റെ	-10.8717
▁പ്രചാരത്തില	-10.8718
▁ജലാശയ	-10.8718
വൈകല്യ	-10.872
നിഷ്ഠ	-10.8721
tive	-10.8723
സഹോദര	-10.8723
▁യവന	-10.8723
ച്ചാൽ	-10.8724
▁ചടങ്ങുകൾ	-10.8724
▁ഗ്നു	-10.8727
ിക്കൊണ്ട്	-10.8727
▁മെഗാ	-10.873
സെറ്റ്	-10.8732
▁ഘടകം	-10.8732
dar	-10.8733
സിനിമ	-10.874
dha	-10.874
കാലത്തു	-10.874
▁1964	-10.874
▁എട്ട	-10.874
▁വിപണനം	-10.8742
▁കാറ	-10.8749
▁മസ്ജിദ	-10.875
▁തമ്പുരാൻ	-10.8755
▁ഏറിയ	-10.8759
▁വ്യാഴത്തിന്റെ	-10.8761
▁അരങ്ങേറ്റം	-10.8761
▁ഓക്സിജൻ	-10.8761
▁തമോദ്വാര	-10.8761
▁പരിണമിച്ച	-10.8761
▁സുരേഷ്	-10.8761
▁അലക്സാണ്ടറ	-10.8761
▁പ്രേക്ഷക	-10.8762
▁സെൻസസ്	-10.8763
▁നവീന	-10.8763
▁ho	-10.8764
▁സഹായിച്ച	-10.8764
▁നിലയിലും	-10.8764
▁ശംഖ	-10.8765
ula	-10.8765
▁നേരിയ	-10.8765
▁ചാർജ്ജ	-10.8767
▁വൃദ്ധ	-10.8768
▁മൂക്ക	-10.8768
ങ്ങൾക്കിടയിൽ	-10.8768
ach	-10.8769
▁അണ	-10.8769
മുള	-10.8772
▁തൻറെ	-10.8773
▁വ്യക്തികൾ	-10.8774
▁ടീ	-10.8775
▁ചിത്രകല	-10.8776
▁എഞ്ചിനീയറ	-10.8778
▁ഉഷ്ണ	-10.878
▁കിഴക്കുഭാഗത്ത്	-10.8784
▁മതില	-10.8786
വ്യാപക	-10.8787
ോത്സവം	-10.8787
▁അവനെ	-10.8788
പല	-10.8788
സഫ	-10.879
▁ഉപയോഗിച്ചത്	-10.8793
▁കൊട്ടാരത്തിൽ	-10.8794
▁കുരുമുളക്	-10.8795
ിനാണ്	-10.8798
▁റിപ്പബ്ലിക്	-10.8798
വിലാസ	-10.88
▁മൂട	-10.88
വ്യത്യാസ	-10.8804
▁അസംബ്ലി	-10.8807
▁മൃതദേഹം	-10.8808
▁സൂപ്പർനോവ	-10.8808
▁ഏറ	-10.8809
ോണിക്	-10.8809
മ്പാട	-10.8809
▁കമ്മ	-10.8811
▁അടിച്ച	-10.8811
▁ആക്ട	-10.8812
▁1939	-10.8813
യിലുണ്ട്	-10.8816
േറ്റീവ്	-10.8817
▁നന്മ	-10.8818
വിതരണ	-10.8818
▁നിർണ്ണയിക്ക	-10.8819
▁അക്ഷാംശ	-10.8819
സൂര്യ	-10.8819
▁പകർന്നത്	-10.8822
▁ബ്ലോക്ക	-10.8824
▁വസ്തുക്കളുടെ	-10.8826
മ്പുഴ	-10.8828
▁ചിത്രങ്ങളും	-10.8828
ങ്ങളെയാണ്	-10.883
▁കീഴിലാണ്	-10.883
▁ചെലുത്ത	-10.8836
▁പ്രമേയം	-10.8837
▁ശങ്കരൻ	-10.8838
4%	-10.8839
▁യുക്ത	-10.8842
ിയപ്പോൾ	-10.8842
▁30-	-10.8842
▁ഉടമസ്ഥ	-10.8843
പ്പഴ	-10.8843
▁സമ്മർദ്ദ	-10.8843
▁2010-	-10.8848
▁വികസനം	-10.8851
que	-10.8851
▁അഭയം	-10.8853
▁മണ്ടേല	-10.8854
▁രണ്ടാമത്തേത	-10.8854
▁സൂനഹദോസ	-10.8854
▁ഉൾക്കടല	-10.8854
▁മൽസര	-10.8854
▁അവശിഷ്ടങ്ങൾ	-10.8854
▁അർത്ഥത്തിൽ	-10.8856
ചരിതം	-10.8856
▁അദ്ദേഹത്തിൻറെ	-10.8857
▁1932	-10.8861
▁നേത്ര	-10.8861
▁1929	-10.8863
▁അസുര	-10.8863
▁1942	-10.8864
▁പല്ലുകൾ	-10.8864
താണെന്ന	-10.8866
50-	-10.8867
▁രക്ഷാ	-10.8873
▁വെക്ക	-10.8879
▁ആയതിനാൽ	-10.888
▁ജീവികള	-10.8883
ഡ്ജ്	-10.8884
▁പേരുണ്ട്	-10.8885
പാക	-10.8886
▁കരിങ്ക	-10.8887
ലോഹ	-10.8893
▁തിരഞ്ഞെടുപ്പു	-10.8893
▁ടൈം	-10.8893
▁തത്ത്വശാസ്ത്ര	-10.8894
▁ജൊ	-10.8895
▁സ്റ്റീവ	-10.8897
▁അഭിനയത്തിന്	-10.8898
പൂർവം	-10.8898
മുനി	-10.8899
റൊ	-10.8899
▁സദാ	-10.8899
▁മമ്മൂട്ടി	-10.89
▁ലണ്ടൻ	-10.89
▁നമ്പർ	-10.8901
▁പഠിക്കാൻ	-10.8901
▁സൂത്ര	-10.8902
ക്കിടെ	-10.8903
▁ഇരുവരും	-10.8905
ഛായ	-10.8905
ാലോ	-10.8907
നീഷ്യ	-10.8908
cher	-10.891
മത്സര	-10.8911
film	-10.8912
ിയിരിക്കുന്നു	-10.8913
▁കടും	-10.8913
ഭാഗങ്ങൾ	-10.8917
▁തുടങ്ങിയവയും	-10.8917
▁നീക്കി	-10.8919
▁കീട	-10.892
▁മുറിച്ച	-10.8922
േണ്ടിവന്നു	-10.8923
ദ്വാര	-10.8923
▁കാലഘട്ടത്തിലെ	-10.8927
ുപയോഗിക്കുന്ന	-10.8928
റേഷൻ	-10.8928
▁1967	-10.8928
kun	-10.8933
▁7-	-10.8935
mal	-10.8937
▁ബിരുദാനന്തര	-10.8941
▁ചെയ്യാനുള്ള	-10.8942
▁ആപേക്ഷിക	-10.8944
▁ദക്ഷിണാമൂർത്തി	-10.8947
▁തകർച്ച	-10.8947
ത്വവും	-10.8951
▁നിരോധിക്ക	-10.8951
നിർത്ത	-10.8953
▁പുതുക്കി	-10.8954
ലാൻഡ	-10.8955
▁ചിറ്റ	-10.8957
▁ദിവസത്തെ	-10.8958
ിട്ടുണ്ടെങ്കിലും	-10.896
▁സൗത്ത്	-10.8961
പ്പെടുത്തുന്നു	-10.8967
തരത്തിലുള്ള	-10.8968
ുണ്ടെങ്കിൽ	-10.8968
രാശി	-10.8968
▁വിവരിക്കുന്ന	-10.8968
▁മുൻപേ	-10.897
ാനായിരുന്നു	-10.8971
▁അറിവ്	-10.8977
▁തീർത്ഥ	-10.8977
ശാസ്ത്രത്തിൽ	-10.8978
▁മിസ്	-10.8979
▁ഠ	-10.8982
▁ടിവി	-10.8982
▁21-	-10.8983
▁ചെയ്തിരുന്നത്	-10.8985
▁നയിക്കുന്ന	-10.8985
▁ഗന്ധ	-10.8988
ിക്കൊണ്ടിരിക്ക	-10.8989
▁തുമ്പ	-10.8991
▁per	-10.8992
▁രാജ്യങ്ങളുടെ	-10.8993
▁ടൂർണമെന്റ	-10.8994
template	-10.8994
▁നമ്പ്യാർ	-10.8994
▁ശങ്കരാചാര്യ	-10.8994
▁ചുരുക്കം	-10.8994
പരിപാടി	-10.8995
▁അന്റാർട്ടിക്ക	-10.8995
▁സുഗന്ധ	-10.8996
രാസ	-10.8996
▁mi	-10.8998
▁ഗ്രാമത്തിലെ	-10.8999
▁പെരുമാറ്റ	-10.9002
▁ശേഷമുള്ള	-10.9006
▁സംസ്	-10.9006
▁വെയ്	-10.9007
▁ഡച്ച്	-10.9008
പ്പിള്ള	-10.9008
▁9-	-10.901
▁വിഷു	-10.9011
▁ഇബ്	-10.9013
▁കീഴടങ്ങ	-10.9013
▁ലൂയി	-10.9016
യായിരിക്കും	-10.9016
▁നഗർ	-10.9017
ശില്പ	-10.902
കളേ	-10.9022
കളിലേക്കു	-10.9025
▁പട്ടണമാണ്	-10.9026
▁ഗൾഫ്	-10.9026
can	-10.9028
▁തനിക്കു	-10.903
കാലഘട്ടത്ത	-10.9032
കളിലൊന്നായ	-10.9032
▁കൊല്ലപ്പെട്ട	-10.9035
യുമുണ്ട്	-10.9037
▁48	-10.9039
▁അവശിഷ്ട	-10.904
▁വനിതാ	-10.9041
▁ഉൾക്കൊണ്ട	-10.9041
▁ഒക്ടോബറിൽ	-10.9041
▁അജ്ഞാത	-10.9041
▁ക്യാപ്റ്റൻ	-10.9041
▁അത്യാവശ്യ	-10.9041
▁സിംഹാസന	-10.9042
▁നിഷേധിക്ക	-10.905
▁എന്നിങ്ങനെയുള്ള	-10.905
▁പാള	-10.9051
▁ബ്ലാക്ക്	-10.9051
▁മൂർത്തി	-10.9052
era	-10.9052
▁ഭയന്ന	-10.9053
▁ടെസ്റ്റ	-10.9055
▁ലയിച്ച	-10.9057
▁കുറവായ	-10.9058
ance	-10.9059
▁നക്ഷത്രങ്ങളെ	-10.906
▁അബൂ	-10.9062
▁ലാവ	-10.9066
▁കഴിക്കുന്ന	-10.9067
▁റൂട്ട	-10.9067
▁സ്ഥലനാമ	-10.9067
▁ഖനി	-10.9069
ഇത്	-10.907
▁നോക്കിയ	-10.9072
വിഭവ	-10.9073
▁1973	-10.9074
▁കുരിശ	-10.9076
▁കേന്ദ്രമാണ്	-10.9077
ീനിയ	-10.9078
▁va	-10.9079
ോറിയ	-10.908
▁സംസ്ഥാനത്തിലെ	-10.9081
ിക്കാനും	-10.9085
▁അദ്ധ്യക്ഷ	-10.9086
▁ഡയറി	-10.9086
▁ഭാവന	-10.9087
▁അർജ്ജുനൻ	-10.9088
▁നെബുല	-10.9088
▁ഒരിനം	-10.9089
ൂടെ	-10.9091
ുണ്ടാവ	-10.9091
▁ക്ലാ	-10.9094
മേഖലയിൽ	-10.9097
▁തോന്നിയ	-10.9097
▁1956	-10.9099
▁ചരിവ	-10.91
▁പേരിലുള്ള	-10.9102
▁നിലനിന്ന	-10.9105
▁അവസാനിപ്പിച്ച	-10.9107
▁ഇരുമ്പു	-10.9108
▁നിലനിൽക്ക	-10.9108
▁ആദർശ	-10.9109
നിധി	-10.911
150	-10.9114
▁ലിമിറ്റഡ്	-10.9115
▁38	-10.9116
▁അദ്ധ്യാപകനായി	-10.9117
▁ഇസ്ലാമി	-10.9119
▁പാർലമെന്റ്	-10.912
ഷിയ	-10.9127
▁ഹരിത	-10.9129
ഫറ	-10.9129
▁ജോഡി	-10.9132
ീന്ദ്ര	-10.9135
▁കാലക്രമേണ	-10.9136
▁ബ്രിട്ടിഷ്	-10.9136
▁വെള്ളപ്പൊക്ക	-10.9136
▁1978	-10.9136
▁ഫിലിംഫെയർ	-10.9136
▁ഗാനങ്ങൾക്ക	-10.9137
ham	-10.9138
▁പത്രപ്രവർത്തക	-10.9139
▁ചിത്രമാണ്	-10.914
▁രാജാവിനെ	-10.914
▁സ്ഥലത്താണ്	-10.9141
▁പുസ്തകത്തിന്റെ	-10.9145
▁2002-	-10.9145
വരുന്നത്	-10.9146
മഹ	-10.9146
▁1944	-10.9147
▁പുള്ളി	-10.9147
പ്ള	-10.9148
▁കയറ്റി	-10.9149
കൊണ്ടോ	-10.9149
▁പന്ത്രണ്ട്	-10.9153
യ്ക	-10.9153
▁മെറ്റ	-10.9165
ob	-10.9175
ിയ്ക്കുകയും	-10.9179
പുല	-10.918
▁സമൂഹത്തിന്റെ	-10.9183
▁അഫ്ഗാനിസ്താൻ	-10.9184
രാഘവൻ	-10.9184
▁അറബിക്കടല	-10.9184
▁വാഗ്ദാനം	-10.9184
▁പുരസ്കാരവും	-10.9188
േർഡ്	-10.9188
▁1938	-10.9189
ig	-10.919
▁നാദ	-10.919
▁വാങ്ങിയ	-10.9193
▁തടാകം	-10.9194
▁കോഴ്സ	-10.9195
പുരി	-10.9195
▁ചെമ്പ്	-10.9196
▁ഏർപ്പെടുത്തിയ	-10.9196
ുകൊണ്ടുള്ള	-10.9199
▁1965	-10.9199
സൗകര്യ	-10.92
▁നാനോ	-10.92
▁എന്നതിന്	-10.9201
▁പങ്കിടുന്ന	-10.9202
സംബന്ധ	-10.9204
ory	-10.9207
tar	-10.921
▁ദത്ത	-10.9212
▁ചെറുപ്പ	-10.9213
▁ഇൻസ്റ്റ	-10.9215
▁അണിയ	-10.9216
▁ബാലകൃഷ്ണ	-10.9216
ിട്ടുണ്ടെന്ന	-10.9217
▁ഏഷ്യയിലെ	-10.9217
ard	-10.9217
▁കടു	-10.9217
▁ഗാർഡ	-10.9218
പറ	-10.9219
▁കണ്ടെടുത്ത	-10.9221
▁ഇതിനുള്ള	-10.9226
ide	-10.923
▁മദ	-10.923
ign	-10.9232
▁ബാംഗ്ലൂർ	-10.9232
▁സങ്കൽപ്പ	-10.9232
▁ക്ലബ്ബ്	-10.9233
▁പ്രോട്ടോ	-10.9234
▁കമാൻഡ	-10.9235
▁വടകര	-10.9235
▁ശാസ്ത്രജ്ഞർ	-10.9236
trans	-10.9239
നില്ക്ക	-10.924
▁നിരാശ	-10.9241
വിചാര	-10.9242
ജയ	-10.9242
ട്സ്	-10.9245
▁ധനു	-10.9248
▁തിരഞ്ഞെടുത്തു	-10.9249
▁സോഫ്	-10.925
▁സംസ്കാരത്തിന്റെ	-10.9254
▁കടത്ത	-10.9255
▁അക്ഷരങ്ങൾ	-10.9262
▁സ്വന്തമാക്കി	-10.9266
▁തുറമുഖം	-10.9266
യിൽനിന്നും	-10.9268
ഡ്യൂ	-10.9269
▁ആവൃത്തി	-10.9269
▁കാർട്ട	-10.9272
▁ദിവസമാണ്	-10.9273
▁തയ്യാറാക്കുന്ന	-10.9276
നിഷ്	-10.9277
▁വരുമ്പോൾ	-10.9278
▁ശാസ്ത്രജ്ഞന	-10.9279
▁വ്യോമ	-10.928
▁പ്രദർശിപ്പിച്ച	-10.928
▁ദുർബല	-10.9281
▁നാവികസേന	-10.9281
ിപ്പിക്കാൻ	-10.9282
▁നോവലിസ്റ്റ	-10.9283
▁ഏതൊരു	-10.9283
▁ചന്ത	-10.9283
▁പ്ലാസ്മ	-10.9286
▁തടവുകാര	-10.9286
കൃഷ്ട	-10.9287
റോൺ	-10.9289
ക്രാ	-10.9289
ക്കടവ്	-10.929
▁കഠിന	-10.9292
▁തിരിയ	-10.9294
ern	-10.9295
പ്പോലും	-10.9296
▁കിട	-10.9297
▁വൈകി	-10.9297
▁കാണിക്കുന്നു	-10.93
ാനന്തരം	-10.9301
▁വാർഡുകള	-10.9302
▁അഫ്ഗാനിസ്താനിൽ	-10.9306
tter	-10.9308
▁തൊണ്ട	-10.9308
▁ക്ലാസ	-10.931
സിംഹ	-10.9313
▁മറ്റുള്ളവ	-10.9314
▁കൊള്ളുന്ന	-10.9317
▁ശേഷവും	-10.9318
tur	-10.932
പുരസ്കാരം	-10.932
▁റെക്കോർഡ്	-10.9321
▁ജുമാ	-10.9321
ുയർത്തി	-10.9322
ിരുന്നുവെങ്കിലും	-10.9323
▁വിഷയങ്ങൾ	-10.9326
▁വിവരിക്കുന്നു	-10.9327
▁കാലത്തു	-10.9327
▁യോജിച്ച	-10.9329
▁ബന്ധു	-10.9329
▁ഖഗോള	-10.9332
▁കളരി	-10.9332
▁നിർദ്ദേശിച്ച	-10.9334
▁വാക്കിൽ	-10.9334
▁മക്കയിൽ	-10.9336
വാഴ്ച	-10.9336
ശൈ	-10.9343
▁ആരും	-10.9344
▁സൂചിപ്പിച്ച	-10.9344
▁താത്പര്യ	-10.9346
ായിത്തീർന്നു	-10.935
▁ക്ഷേമ	-10.9353
ലോൺ	-10.9354
▁കുട്ടികള	-10.9355
▁സ്ത്രീകളുടെ	-10.936
▁ദാർശനിക	-10.9362
▁ചമ്പ	-10.9363
▁ഇങ്ങനെയാണ്	-10.9363
ത്തേയ്ക്ക്	-10.9364
▁സമയത്തു	-10.9369
▁ദോ	-10.9369
ica	-10.9369
▁പടിഞ്ഞാറോട്ട	-10.9372
▁പശ്ചാത്തലത്തിൽ	-10.9373
▁ബാബു	-10.9373
▁അവാർഡ	-10.9375
▁കുത്ത	-10.9375
ക്കുടി	-10.9376
സോൺ	-10.9377
▁അസോസിയേഷൻ	-10.9378
▁ഡയറക്ടർ	-10.9378
▁വിഭിന്ന	-10.9378
▁തിയതി	-10.9378
▁ചന്ദന	-10.938
▁ധീര	-10.9381
▁എന്നതിനാൽ	-10.9382
▁മരണാനന്തര	-10.9383
▁ഉപേക്ഷിച്ച്	-10.9384
▁ചിട്ട	-10.9385
ില്ലാതെ	-10.9386
▁1919	-10.939
▁സമുച്ചയ	-10.9391
യിസ്	-10.9393
▁പന്ത്	-10.9394
നക്ഷത്രരാശി	-10.9397
▁മുകൾ	-10.9397
പീഠ	-10.9398
▁വിധേയമാക്ക	-10.9399
▁തീരുമാനിക്ക	-10.9402
ഗോപാല	-10.9403
▁പണ്ഡിതന്മാർ	-10.9408
▁തേയില	-10.941
സിംഗ്	-10.9411
▁വരികൾ	-10.9412
▁കുറിക്ക	-10.9412
new	-10.9412
ബിറ്റ്	-10.9413
▁do	-10.9414
▁കുറവ്	-10.9414
▁പരിവർത്തനം	-10.9419
▁ഉദാഹരണ	-10.942
▁മൈക്രോസോഫ്റ്റ്	-10.942
▁കഴുക	-10.9422
▁ലെൻസ	-10.9423
▁നടത്തിവരുന്ന	-10.9424
ചൈതന്യ	-10.9427
▁അഫ്ഗാൻ	-10.9427
▁ഋഗ്വേദ	-10.9427
▁സയ്യിദ്	-10.9427
▁പ്രതികൂല	-10.9427
▁മയ്യഴി	-10.9427
▁തെരേസ	-10.9427
▁നിമിഷ	-10.9427
▁പേരുകേട്ട	-10.9427
▁ബിഷപ്പ	-10.9428
ുകളിലായി	-10.9439
ംകുളം	-10.944
▁വൈറസ്	-10.9444
▁പ്രമേയ	-10.9445
സ്വാതന്ത്ര്യ	-10.9446
ത്യാഗ	-10.9446
-18	-10.9446
▁വയ്ക്കുന്ന	-10.9449
കാട്	-10.9452
▁1961	-10.9452
ാനായില്ല	-10.9456
ാമെന്നും	-10.9462
▁ആർട്ട്	-10.9462
▁വാർഡ്	-10.9462
▁സ്വർണ്ണം	-10.9466
▁അയ്യർ	-10.9467
നീല	-10.9469
ട്രിയ	-10.9472
യോജന	-10.9476
ഡബ്ല്യു	-10.9476
▁ഡെമോക്രാറ്റിക്	-10.9476
ിറക്ക	-10.9476
▁കവിയും	-10.9476
▁പ്രൊഫസറ	-10.9477
▁രാജ്യങ്ങളിലെ	-10.9477
row	-10.948
▁1933	-10.9482
▁ഇരുന്ന	-10.9482
▁പതിക്കുന്ന	-10.9484
ture	-10.9485
ങ്ങളിലൊന്നായ	-10.9485
▁പകൽ	-10.9488
▁ജീവിതത്തെ	-10.9491
▁തളിപ്പറമ്പ	-10.9491
ോദ്	-10.9492
ലേക്ക്	-10.9494
▁ഭ്രമണ	-10.9495
▁പതിപ്പുകൾ	-10.9495
ls	-10.9497
▁മർദ	-10.9499
▁ഹൈഡ്ര	-10.9499
നേതാവ	-10.9503
ിപ്പിക്കുന്നു	-10.9503
ിലൊരാള	-10.9504
ങ്ങളോടെ	-10.9505
▁ജനങ്ങളിൽ	-10.9506
ലേഖ	-10.9509
സ്വരൂപ	-10.9509
സമയം	-10.951
▁പെരുമ്പ	-10.951
▁വർഗ്ഗീകരണ	-10.9512
▁നിശ്ചയിക്ക	-10.9513
▁സൗകര്യം	-10.9515
▁തലച്ചോറ	-10.9525
▁ബാംഗ്ലൂര	-10.9525
▁ഉൽപ്പന്ന	-10.9525
▁സന്ധ്യ	-10.9527
ഗൺ	-10.9527
▁മാർച്ചിൽ	-10.9528
ടിഞ്ഞ	-10.9529
▁മനസ്സിൽ	-10.9532
▁പ്രോസസ	-10.9534
ികത	-10.9534
േക്കും	-10.9537
▁വിസ്തൃതിയുള്ള	-10.9538
sta	-10.9542
▁ഗവേഷക	-10.9545
▁വിശ്വസ്ത	-10.9546
▁ഇരുമ്പ്	-10.9546
മാലി	-10.955
▁സ്പീ	-10.955
വർത്തന	-10.9551
ാട്ടു	-10.9552
മാക്കുകയും	-10.9554
▁പീഠ	-10.9558
വസര	-10.956
▁ബ്രൂ	-10.9562
▁കീഴടക്ക	-10.9564
▁വിദ്യാർത്ഥികൾ	-10.9565
▁സ്വതന്ത്രമായി	-10.9565
ിസ്ഥാൻ	-10.9565
വെന്നു	-10.9568
തിനാലും	-10.9571
▁അവയ്ക്ക്	-10.9572
kh	-10.9575
▁language	-10.9575
▁നിർണ്ണായക	-10.9575
▁പുരോഗമന	-10.9575
▁സമകാലിക	-10.9575
▁തുടക്കമിട്ട	-10.9575
▁കണക്കുകൂട്ട	-10.9576
▁ചുറ്റുപാട	-10.9576
ഭാസ	-10.9577
ജ്ഞൻ	-10.9578
▁ആവരണ	-10.958
lar	-10.958
പ്പോയ	-10.9584
▁ആക്കി	-10.9584
ത്തിലേയും	-10.9587
▁നൽകുക	-10.9595
▁നടത്താറുണ്ട്	-10.9596
▁വിഷയങ്ങളിൽ	-10.9596
▁ലക്ഷ്യമാക്കി	-10.9597
പോരുന്നു	-10.9599
ഭാരം	-10.9601
▁ലഭ്യത	-10.9603
▁ആദരിച്ചു	-10.9605
▁ഉഴ	-10.9609
▁ex	-10.961
nal	-10.961
▁ഇംഗ്ലണ്ടിൽ	-10.9614
▁അയിര	-10.9615
▁ചാലക	-10.9616
▁മദ്	-10.9623
ഗ്വ	-10.9623
▁അഭിവൃദ്ധി	-10.9625
▁സെൻട്രൽ	-10.9625
▁പിന്നാലെ	-10.9625
▁ചിത്രശലഭ	-10.9626
▁രൂപങ്ങൾ	-10.9626
▁ആരാധിച്ച	-10.9626
▁സുവർണ്ണ	-10.9631
സംസ്കൃത	-10.9633
ുണ്ടാവുന്ന	-10.9634
▁ഒട്ടക	-10.9635
▁പ്രവർത്തനങ്ങളിൽ	-10.9635
▁1924	-10.9635
▁വിഭജിക്ക	-10.9636
log	-10.964
▁നിർമ്മ	-10.9644
▁ഓൺ	-10.9647
വ്യവസായ	-10.9647
▁രാം	-10.9648
app	-10.965
‍‍	-10.965
▁ചരക്കു	-10.9653
ത്തിലായ	-10.9656
വാസികള	-10.9656
ാബാദ്	-10.9656
ama	-10.9662
▁കപ്പലുകൾ	-10.9663
ത്തെക്കുറിച്ചും	-10.9663
ിനടുത്ത്	-10.9666
▁സൂറ	-10.9666
▁തീർക്ക	-10.9667
▁റോയ്	-10.9668
▁പൊതുവായി	-10.967
ൊടു	-10.9671
▁ഇറക്കുമതി	-10.9675
▁ഓറഞ്ച്	-10.9675
▁താൽക്കാലിക	-10.9675
മീമാംസ	-10.9676
▁വേണു	-10.9676
▁പരുത്തി	-10.9676
▁അരുവി	-10.9677
കോട്	-10.9678
▁യൂറോപ്പ്	-10.9679
▁ബുധ	-10.968
▁ആയിരം	-10.9682
▁ഇവയ്ക്കു	-10.9683
▁കാണ്ഡ	-10.9685
▁സേതു	-10.9685
പടല	-10.9686
▁വീടു	-10.9686
▁രചിക്ക	-10.9692
▁നീണ്ടുനിന്ന	-10.9695
▁ഒരാളാണ്	-10.9698
ഇന്നത്തെ	-10.9699
ology	-10.9699
▁ജീവികൾ	-10.97
▁പൂജാ	-10.97
▁വാർത്താ	-10.9701
പ്രാപ്തി	-10.9702
▁അനുവദിച്ചു	-10.9703
വീണ	-10.9703
▁ഭക്ഷിക്ക	-10.9706
▁ഭരണഘടനാ	-10.9711
തിനൊപ്പം	-10.9711
▁ഓക്സ	-10.9712
പറമ്പിൽ	-10.9713
ത്തിലേക്കും	-10.9713
▁പിടിച്ചെടുക്ക	-10.9713
പറഞ്ഞ	-10.9715
ഗന്ധ	-10.9716
▁കബ	-10.9718
▁രചനകളിൽ	-10.9721
▁മൂന്നോ	-10.9722
▁അല്ലാതെ	-10.9724
▁ഗ്രി	-10.9724
▁കൊടുങ്ങല്ലൂര	-10.9726
▁കൂട്ടക്കൊല	-10.9726
▁നാടുവാഴി	-10.9726
▁കുറ്റവാളി	-10.9726
▁പീഡന	-10.9726
▁അതീവ	-10.9727
സർഗ്ഗ	-10.9727
ുകൊണ്ടാണ്	-10.9727
യാക്കിയ	-10.9728
▁ചക്രവർത്തിയുടെ	-10.9728
ക്കോസ്	-10.9729
ീകരിച്ചു	-10.9731
▁താവള	-10.9732
▁മനുഷ്യരുടെ	-10.9736
▁ബാബിലോണിയ	-10.9736
▁കേന്ദ്രമാക്കി	-10.9736
▁ഭാഗ്യ	-10.9741
▁പാണ്ടി	-10.9742
▁കാണിച്ചു	-10.9742
▁എഴുതിയിട്ടുണ്ട്	-10.9742
▁നരക	-10.9744
ഴിച്ച	-10.9744
▁സ്റ്റൈ	-10.9745
എമ്മ	-10.9748
▁ചാത്ത	-10.9748
സംരക്ഷണ	-10.9749
മാകുന്നത്	-10.9752
▁കേവല	-10.9754
▁പ്രതീക്ഷ	-10.9755
▁1992-	-10.9756
▁അവസാനമായി	-10.9758
▁ശീല	-10.9758
ില്ലെന്ന	-10.9759
സിലും	-10.9762
▁കണക്കു	-10.9766
▁ആരാധക	-10.9767
▁ആവശ്യമുള്ള	-10.9768
▁കിടക്ക	-10.9769
pen	-10.9775
▁temple	-10.9777
▁അഭ്യസിച്ച	-10.9777
▁കാലാവധി	-10.9777
▁ആന്റണി	-10.9777
▁തികഞ്ഞ	-10.9777
▁യുണിക്സ	-10.9777
▁മാനേജ്മെന്റ	-10.9778
▁സച്ചിൻ	-10.9778
▁ആരോപിക്ക	-10.9778
ജീവിതകാലം	-10.9781
▁കഴിയാത്ത	-10.9781
▁പേശി	-10.9782
▁ഭരണസമിതി	-10.9782
േക്കാളും	-10.9783
▁എന്നുമാണ്	-10.9785
▁എന്തെങ്കിലും	-10.9786
cle	-10.9787
▁1953	-10.9789
za	-10.9789
ാരോഗ്യ	-10.979
പിച്ചു	-10.9791
▁തൊഴിലാളികൾ	-10.9792
▁നന്ദ	-10.9792
▁ഇതിലൂടെ	-10.9794
▁കല്ലു	-10.9794
ശോഭ	-10.9802
ങ്ങളേ	-10.9802
▁തീവ്രത	-10.9802
റിസ	-10.9803
സ്നേഹ	-10.9803
▁വഴിയിൽ	-10.9805
പ്രസ്ഥാനത്തിന്റെ	-10.9806
▁പൊന്ന	-10.9807
▁ക്രൈ	-10.9807
വണ്ണം	-10.9808
കഥാ	-10.9809
▁കരുതിയ	-10.9811
കുറി	-10.9813
yam	-10.9814
▁ഭംഗി	-10.9815
▁ഷഡ്	-10.9817
ുണ്ടായിരിക്കും	-10.9818
▁ഉറപ്പിക്ക	-10.9819
▁അതില	-10.9819
nic	-10.982
▁മെത്രാന	-10.982
80-	-10.982
േർസ്	-10.9824
bra	-10.9825
▁ഋഷി	-10.9828
ാന്വേഷണ	-10.9828
▁വസന്ത	-10.9828
▁ഗരുഡ	-10.9828
▁രൂപവത്കരിക്ക	-10.9829
ഗ്ലി	-10.9829
▁കറി	-10.983
ഗല	-10.9831
▁വൈക്ക	-10.9833
▁1928	-10.9834
▁രൂപമാണ്	-10.9835
▁പൂക്കള	-10.9837
▁ട്യൂബ	-10.9837
▁ചെയ്യുന്നുണ്ട്	-10.984
▁വാമന	-10.9841
ste	-10.9847
▁ഫ്രാങ്ക്	-10.9848
▁ഗ്രേ	-10.9849
▁23-	-10.9849
പൂർണ	-10.9849
▁കോവില	-10.9851
▁കളിക്കുന്ന	-10.9856
രാവ	-10.9857
▁വ്യക്തമാക്കുന്ന	-10.986
▁അവസാനിച്ചു	-10.9861
▁ചാർത്ത	-10.9862
കൊണ്ടിരിക്ക	-10.9862
▁ഗാല	-10.9863
▁പിന്തുണച്ച	-10.9864
▁പഞ്ചായത്താണ്	-10.9865
നിശ്ചയ	-10.9867
▁സ്വദേശ	-10.9867
▁ഇടയ്ക്ക്	-10.9868
▁ചുവപ്പ്	-10.9869
അമേരിക്കൻ	-10.987
▁ഏറ്റ	-10.9873
▁വേനൽക്കാല	-10.9875
▁നന	-10.9877
ശുശ്രൂഷ	-10.9879
▁ആവിർഭാവ	-10.9879
▁ഉപയോക്താവ	-10.9879
▁പ്രസ്താവന	-10.9879
▁വിൻസെൻറ	-10.9879
▁വാസ്തു	-10.9879
▁ദർ	-10.988
വയായിരുന്നു	-10.988
▁മദ്ധ്യേഷ്യ	-10.9882
▁ഒരുപോലെ	-10.9882
റ്റീവ്	-10.9884
▁അന്തരീക്ഷത്തിൽ	-10.9886
മുമ്പ്	-10.9888
▁1988	-10.9888
__	-10.9888
പ്പോര	-10.9888
▁രാജ്യസഭ	-10.989
▁1917	-10.9891
▁മങ്ങിയ	-10.9891
form	-10.9893
മുൻപ്	-10.9898
▁പുരുഷന്മാർ	-10.9899
▁ഭദ്ര	-10.9899
▁ആലപിച്ച	-10.9903
▁തിരിച്ചെത്തിയ	-10.9903
▁കൃത്യത	-10.9904
▁സിനിമകൾ	-10.9907
▁വെളിച്ചം	-10.9907
▁ജിന്ന	-10.9911
ത്തിലേറെ	-10.9912
▁അന്നേ	-10.9913
pt	-10.9914
▁സാധന	-10.9919
▁ഒഴിവാക്കി	-10.9922
▁ചെയ്താൽ	-10.9922
▁എന്നിവരും	-10.9923
▁ഔഷധയോഗ്യ	-10.9928
രൂപത്തില	-10.9928
വകാശ	-10.9928
▁വർദ്ധിച്ച	-10.993
▁ശുപാർശ	-10.9931
നിരീക്ഷക	-10.9931
▁ഡയറക്ടറ	-10.9931
▁കുടിയേറിയ	-10.9931
▁പിറവി	-10.9931
▁മുന്നോട്ട്	-10.9931
▁പോരാളി	-10.9932
▁വെങ്കല	-10.9932
െല്ലാ	-10.9932
▁കാളിദാസ	-10.9933
ൈറ്റ	-10.9933
▁കൈലാസ	-10.9933
kumar	-10.9934
നെല്ലി	-10.9936
▁ധനകാര്യ	-10.9937
▁വളയ	-10.9938
▁ജനവാസ	-10.9942
ുകയുള്ളു	-10.9942
▁ഉദ്യോഗ	-10.9943
▁സൂര്യനെ	-10.995
ore	-10.995
സായ്	-10.9951
ms	-10.9951
▁ഫലപ്രദ	-10.9952
▁നിലനിർത്തി	-10.9952
▁ബെൻ	-10.9953
▁വെള്ളച്ചാട്ട	-10.9956
യിലൂടെയാണ്	-10.996
▁ജോലിയിൽ	-10.9961
kara	-10.9963
ോദര	-10.9967
തെങ്കിൽ	-10.9967
▁നേരിടേണ്ടി	-10.9969
▁അടയ്ക്ക	-10.997
▁ഭ്രമണപഥ	-10.9971
നിയമം	-10.9971
▁സമൂഹത്തിലെ	-10.9972
ക്കൊടുക്ക	-10.9973
▁ഈജിപ്തിലെ	-10.9977
▁കനാല	-10.9977
യിലേക്ക	-10.9978
ൊഴികെ	-10.9981
▁മംഗോളിയ	-10.9982
▁അക്കൗണ്ട	-10.9982
▁ഇന്തോനേഷ്യ	-10.9983
▁മത്സ്യബന്ധന	-10.9983
▁സൂര്യപ്രകാശ	-10.9984
▁മഹത്തായ	-10.9984
▁ഹജ്ജ്	-10.9985
▁താഴെയുള്ള	-10.9986
▁കിട്ടി	-10.9986
▁യോനി	-10.9986
▁യൂണിയന്റെ	-10.9987
▁ഡോളറ	-10.9988
="116	-10.9989
▁നിലനിന്നു	-10.9989
▁ഐക്യനാടുകളിലെ	-10.9993
▁പിന്നീടുള്ള	-10.9995
ഫ്റ്റ്	-10.9997
pho	-10.9998
▁നൂറ്	-11.0003
നീക്ക	-11.0004
സ്നാന	-11.0008
വൈദ്യുത	-11.001
▁1985	-11.001
▁പരിക്രമണ	-11.001
▁രാജ്യങ്ങളും	-11.0012
ചീ	-11.0014
▁അവർക്കു	-11.0014
▁ഹൗ	-11.0017
▁പോളണ്ട	-11.0017
പ്പെടുത്തുകയും	-11.0019
ാർദ്ധ	-11.0019
ന്റേ	-11.002
ition	-11.002
▁108	-11.002
▁കഴിയില്ല	-11.002
▁മുറിച്ചു	-11.0022
▁അച്ചടിച്ച	-11.0023
▁അറിയിക്ക	-11.0025
▁പ്രചരിച്ച	-11.0027
▁ആചരിക്ക	-11.0029
▁പുന്ന	-11.0032
▁തൃശ്ശൂര	-11.0034
▁നവരാത്രി	-11.0034
▁രൂപത്തിലുള്ള	-11.0034
▁എന്നർത്ഥമുള്ള	-11.0034
കന്യക	-11.0035
ae	-11.0035
▁ആവർത്തിച്ച	-11.0036
▁പാലിക്ക	-11.0036
മടക്ക	-11.0038
▁വാഴപ്പള്ളി	-11.0039
പടിഞ്ഞാറുഭാഗത്ത്	-11.0043
▁നോക്കുമ്പോൾ	-11.0043
ുണ്ടു്	-11.0043
▁മറ്റെല്ലാ	-11.0045
▁ശതകത്തിൽ	-11.0046
▁വിശേഷാൽ	-11.0048
കുത്തി	-11.0048
swa	-11.0049
ക്റ്റർ	-11.0053
▁ജന്മദിന	-11.0053
ത്തിന്റേത	-11.0055
െഴുതി	-11.0057
▁2003-	-11.0058
ാകൃതിയിലുള്ള	-11.006
▁ക്ള	-11.0061
▁പ്രവണത	-11.0062
▁അങ്ങാടി	-11.0063
ക്രിസ്തു	-11.0064
കോടി	-11.0066
തായിരിക്കും	-11.0067
▁വരുമാനം	-11.0067
▁നിറച്ച	-11.0069
ശബ്ദ	-11.007
മഴ	-11.0071
നേര	-11.0072
▁ശ്രേഷ്ഠ	-11.0073
വസ്തുവ	-11.0075
ജന്മ	-11.0075
▁1981	-11.0075
വാദികൾ	-11.0078
▁നേതൃ	-11.0078
ിക്കപ്പെട	-11.008
▁ശ്രദ്ധേയനായ	-11.0081
ശങ്കര	-11.0083
പ്രമാണം	-11.0084
മനസ്സ	-11.0084
▁ഫ്രാൻസിലെ	-11.0085
zh	-11.0086
▁വൈരുദ്ധ്യ	-11.0087
▁താൽപര്യ	-11.0087
▁മില്യൺ	-11.0087
▁മനോരമ	-11.0087
▁ആംഗ്ലോ	-11.0087
▁മ്യൂസിയം	-11.0087
▁ഉത്പന്ന	-11.0088
▁നിരോധന	-11.0088
▁ചാർജ	-11.0089
യച്ചു	-11.009
▁ദിവാൻ	-11.0091
▁ഭാരതപ്പുഴ	-11.0092
ത്തിൽനിന്നും	-11.0092
▁പ്രദക്ഷിണം	-11.0092
▁പതിനഞ്ചാം	-11.0095
▁പബ്ലിക്	-11.0096
pur	-11.0096
പ്രകാര	-11.0099
▁ഡ്യൂ	-11.01
ല്ലെങ്കിൽ	-11.01
▁ഹൗസ്	-11.01
ിസ്താൻ	-11.0107
▁26-	-11.0107
▁വിനിമയ	-11.0108
▁ഭരിച്ച	-11.0109
▁ഉദ്ദേശം	-11.011
▁ഫയർ	-11.0112
▁പിന്മാറ	-11.0113
ഭൗതിക	-11.0116
ting	-11.0116
വീക്ഷണ	-11.0118
റ്റിൻ	-11.0118
▁സാഹിത്യകാരന	-11.0118
▁സമൃദ്ധമായ	-11.0119
പ്പോഴാണ്	-11.0119
▁ബുക്ക	-11.012
▁പുറത്താക്കി	-11.0122
നിഷേധ	-11.0124
വെച്ചു	-11.0125
ിലെത്തിയ	-11.0126
ാവകാശം	-11.0132
▁താമസിച്ച	-11.0133
▁യൂറോ	-11.0133
ുമെന്നാണ്	-11.0135
▁ഗോൾഡ	-11.0137
മാക്കാൻ	-11.0138
▁മാതാപിതാക്കള	-11.0139
▁അപ്പസ്തോല	-11.0139
▁നിർവചിക്ക	-11.0139
▁പണികഴിപ്പിച്ച	-11.0139
▁അന്വേഷിച്ച	-11.014
▁കൂടിച്ചേർന്ന	-11.0142
▁മൂല്യം	-11.0142
▁പിന്തുടര	-11.0143
ിരിയ്ക്ക	-11.0144
list	-11.0145
▁തീരദേശ	-11.0145
ോക്സി	-11.0145
▁കിലോമീറ്ററാണ്	-11.0146
▁പ്രതാപ	-11.0148
▁ബ്രാഡ്മാന	-11.0148
യുണ്ടായിരുന്നു	-11.0149
▁പ്രിയപ്പെട്ട	-11.0154
▁കൂടുതലായും	-11.0156
ിച്ചുകൊണ്ട്	-11.0157
▁1914	-11.0157
▁1950-	-11.0157
▁നൈട്ര	-11.0158
▁തിരിക്കാം	-11.0158
ക്കെല്ലാം	-11.0159
180	-11.0165
▁സമ്മേളനം	-11.0166
▁ഹുസൈൻ	-11.0169
▁ഇടയിലുള്ള	-11.0169
▁മുങ്ങി	-11.0169
സമാഹാര	-11.0171
:19	-11.0172
▁ഭ്രമണം	-11.0172
വൈദ്യ	-11.0172
ശാന	-11.0173
▁ആർമി	-11.0173
▁രൂപപ്പെടുത്തിയ	-11.0174
ദൃശ്യ	-11.0175
▁ട്രൈ	-11.0177
▁ഉദ്ദേശ	-11.0178
സ്റ്റെ	-11.0179
▁ഒരുമിച്ചു	-11.018
▁1500	-11.018
▁സിനിമയുടെ	-11.0183
▁ദശക	-11.0184
ശേഷമാണ്	-11.0186
▁സന്ദർശക	-11.0188
യാണെന്ന	-11.019
▁കന്ദഹാറ	-11.0192
▁ട്രെയിന	-11.0192
▁തെലുഗു	-11.0192
▁വകലാശാല	-11.0192
▁നിത്യഹരിത	-11.0192
▁പൗരാണിക	-11.0192
▁എമിറേറ്റ	-11.0192
▁മെമ്മറി	-11.0192
▁ഗലീലിയോ	-11.0193
▁ഉദ്ഘാടനം	-11.0193
▁മന്ത്രാലയ	-11.0194
▁സമർത്ഥ	-11.0196
ബുദ്ധി	-11.0196
▁വ്യാപിച്ചുകിട	-11.0197
gal	-11.0197
▁സെർവർ	-11.02
യെന്നു	-11.0201
കരമാണ്	-11.0202
▁കരുതുന്നത്	-11.0202
▁കനാൽ	-11.0203
▁അണ്ണാ	-11.0204
ളൂർ	-11.0205
▁1991-	-11.0205
▁ഫെബ്രുവരിയിൽ	-11.0208
▁മെന	-11.0209
▁ഓർത്ത	-11.0212
▁ഡൊമ	-11.0215
രിയാ	-11.0217
▁തെളിയിച്ചു	-11.0217
▁സമീപമുള്ള	-11.0218
▁നിലയിലാണ്	-11.0223
നിയന്ത്രണ	-11.0224
ode	-11.0224
ുണ്ണി	-11.0226
ാകും	-11.0227
▁എക്സ	-11.0229
േറെ	-11.023
▁പകർന്നു	-11.0231
വിജ്ഞാനീയ	-11.0231
▁നാണയങ്ങൾ	-11.0231
▁1997-	-11.0234
▁ചെട്ടി	-11.0234
ിനടുത്ത	-11.0234
70-	-11.0239
▁കുന്നിൻ	-11.0239
▁സംസ്ഥാനങ്ങളിൽ	-11.0239
ചര്യ	-11.0241
▁നിയമിക്ക	-11.0244
▁പോസ്റ്റ്	-11.0244
▁കരുണാകര	-11.0246
▁വിഖ്യാത	-11.0246
▁വിഷം	-11.0246
▁തപസ്സ	-11.0246
▁ഗവർണറ	-11.0246
ോപരിതല	-11.0247
▁അമ്പലപ്പുഴ	-11.0248
ുകളുമായി	-11.025
▁ഖുറ	-11.0251
▁വീര്യം	-11.0251
▁ബന്ധപ്പെടുത്തി	-11.0253
py	-11.0254
▁നെല്ല്	-11.0254
▁ബ്രാഹ്മണർ	-11.0258
bal	-11.0264
ക്കുന്നതിന്	-11.0265
ധീ	-11.0271
▁മഹാരാജാവ്	-11.0273
ചുറ്റ	-11.0274
▁തേര	-11.0275
കോഡ്	-11.0278
▁പ്രചാരത്തിലുണ്ട	-11.0278
▁ലാന്റിക്	-11.0279
യുണ്ടാക	-11.028
▁കല്പിച്ച	-11.0281
▁ഉദ്ദേശ്യ	-11.0284
ല്യം	-11.0287
▁കേന്ദ്രമായി	-11.0288
▁വടക്കോട്ട	-11.029
്യത	-11.0293
സാരി	-11.0294
▁വിളവ	-11.0298
കണ്ണ	-11.0299
▁സെന്റീമീറ്റർ	-11.0299
▁പ്രഭാവം	-11.0299
▁നശിപ്പിച്ച	-11.0299
▁അരിക	-11.03
▁വരിക	-11.0303
▁ഹേഗ	-11.0305
▁കുറുകെ	-11.0307
▁അനുഭവിക്ക	-11.0311
▁തൊട്ട	-11.0312
▁രാത്രിയിൽ	-11.0312
▁ഗ്രീക്	-11.0314
പയോഗ	-11.0316
▁ഇഞ്ച്	-11.0316
▁ഇന്ത്യയിലും	-11.0317
▁അണ്ഡ	-11.0322
ഭാഗങ്ങളിൽ	-11.0323
▁അതുവരെ	-11.0326
ടൺ	-11.0329
വസ്തു	-11.033
▁കിഴക്കോട്ട	-11.033
▁മാർക്സിസ്റ്റ്	-11.0331
ലക്ഷ്യ	-11.0332
▁അനേക	-11.0332
സ്താന	-11.0335
ലൻഡ്	-11.0336
▁മൃദു	-11.0336
പാളി	-11.0339
ബർഗ	-11.0339
▁ആവിഷ്	-11.0344
▁ആഴം	-11.0344
_1	-11.0345
▁ലങ്ക	-11.0351
▁രാക്ഷസ	-11.0351
▁പന്ത്രണ്ടു	-11.0353
▁ജവഹർലാൽ	-11.0353
▁മൾട്ടി	-11.0353
▁അവശേഷിക്കുന്ന	-11.0353
▁ജൂണിൽ	-11.0354
ബാൾ	-11.0354
▁നിറമാണ്	-11.0354
▁പത്തൊമ്പതാം	-11.0354
▁ആരോപിച്ച	-11.0354
▁രാഹു	-11.0354
▁ഖനനം	-11.0355
▁തമിഴ്നാട്	-11.0355
തോടുകൂടി	-11.0356
ക്കുറിപ്പ	-11.0357
▁യഥാ	-11.036
▁ആൽക്ക	-11.036
▁കോമ	-11.0361
ലിയാ	-11.0362
വാട്ട	-11.0362
▁എല	-11.0366
▁ഉത്ഭവിച്ച	-11.0367
▁എന്നറിയപ്പെട	-11.0371
കലർന്ന	-11.0372
▁ലംബ	-11.0373
▁കുറക്ക	-11.0373
▁മിനിറ്റ	-11.0374
സ്റ്റൈൻ	-11.0376
കളെക്കുറിച്ച്	-11.0376
▁തരി	-11.0377
▁എതിർത്തു	-11.038
▁ചെറിയൊരു	-11.0382
▁ഭാഗങ്ങളിലും	-11.0387
tin	-11.0389
▁തകരാറ	-11.0391
▁വിവർത്തന	-11.0394
▁യൂണിറ്റ്	-11.0394
▁തത്ത്വചിന്തക	-11.0397
▁പ്രതിനിധീകരിച്ച	-11.0401
▁cha	-11.0402
ava	-11.0405
▁system	-11.0407
കർമ	-11.0407
▁വിസമ്മതിച്ച	-11.0407
▁നിയോഗിക്ക	-11.0408
▁വികസിച്ചു	-11.0409
▁വ്യാപിക്ക	-11.0409
▁ചേരുന്നു	-11.0409
▁ഹദീസ	-11.0409
ാ‍യ	-11.0412
▁പത്രാധിപ	-11.0412
▁അത്താഴ	-11.0413
ധ്വനി	-11.0414
ങ്ങളൊന്നും	-11.0416
▁ഡിസ്ക	-11.042
മുള്ളതും	-11.0421
▁ആകാം	-11.0426
ഇട	-11.0426
▁അബ്ദ	-11.0428
ഹിന്ദി	-11.0429
പദവി	-11.0429
▁മുതൽക്കേ	-11.0431
▁ചെയ്യപ്പെട	-11.0432
സിയാ	-11.0433
▁2011-	-11.0436
▁ഫലപ്രദമായ	-11.044
ക്കുണ്ട്	-11.0447
വിട്ടു	-11.0448
▁ചെമ്മ	-11.045
ഗുല	-11.0451
ഭക്ത	-11.0452
▁ഫർ	-11.0452
▁കൊടുക്കുന്നു	-11.0455
▁ചില്ല	-11.0459
▁പട്ടാമ്പി	-11.0461
▁പരിശോധിച്ച	-11.0461
▁ശ്രുതി	-11.0461
▁ജോൺസന്റെ	-11.0461
▁വികസിക്ക	-11.0461
▁വധിച്ച	-11.0462
▁അവതരിപ്പിച്ചത്	-11.0462
▁തറവാട്ട	-11.0462
▁പ്രഭാത	-11.0463
▁അതുകൊണ്ടുതന്നെ	-11.0464
▁തിരിഞ്ഞ	-11.0466
ഉപ	-11.0467
അതി	-11.0467
▁1922	-11.0468
▁സ്റ്റാൻഡേർഡ	-11.047
▁പദത്തിന്റെ	-11.0472
▁ആശ്രയിക്കുന്ന	-11.0473
▁വിവിധതരം	-11.0474
▁ഡാർ	-11.0475
▁ഭു	-11.0477
▁സെക്രട്ടറിയായി	-11.0477
ഷ്യസ്	-11.048
▁ഭൂമിയെ	-11.0481
▁റേഡിയ	-11.0482
▁അവാർഡും	-11.049
▁ചിത്രകാരന	-11.0495
ാവസ്ഥയിൽ	-11.0495
വ്യക്തി	-11.0497
▁തോന്നി	-11.0498
▁നൂറ്റാണ്ടുകൾ	-11.0503
വെന്ന	-11.0503
▁അധികവും	-11.0504
▁ഉപേക്ഷിച്ചു	-11.0507
▁ഉഷ	-11.0509
പൂർവ്വം	-11.0509
സൂക്ത	-11.0511
സൊ	-11.0512
ഇലക്ട്രോ	-11.0514
▁കടൽത്തീര	-11.0516
▁അവിടുത്തെ	-11.0516
▁പോഷകനദി	-11.0516
▁പ്യൂ	-11.0516
തുമൂലം	-11.0517
▁ഉണ്ടാവുക	-11.0518
▁ശ്രീകോവിൽ	-11.0518
250	-11.052
വയസ്സ	-11.0525
ഡോർ	-11.0525
▁ആചാരങ്ങൾ	-11.0526
ത്തിലെത്തിയ	-11.0528
▁അരങ്ങ	-11.053
▁നിന്നോ	-11.053
▁അദ്ധ്യായം	-11.0531
▁സിദ്ധിച്ച	-11.0532
▁ഇടപെടല	-11.0533
▁പെരിങ്ങ	-11.0533
▁ഗുരുത്വ	-11.0535
▁തുറ	-11.0535
കുമാരി	-11.0535
കളിലൊന്നാണ്	-11.0535
▁കഥാപാത്രങ്ങൾ	-11.0536
▁കല്പ	-11.0538
▁പറഞ്ഞാൽ	-11.0538
▁ഗ്യാ	-11.0538
60-	-11.0541
▁അച്ചു	-11.0545
▁ആസൂത്രണം	-11.0546
▁ഉപയോഗിച്ചുവര	-11.0549
▁കമ്പ്യൂട്ടറുകള	-11.0549
▁നായകൻ	-11.055
nn	-11.0551
▁മാരക	-11.0551
കേന്ദ്രങ്ങൾ	-11.0552
ുണ്ടോ	-11.0552
പിന്നീട്	-11.0553
▁എന്തു	-11.0553
▁പറയുക	-11.0554
▁പാണ	-11.0559
ഥേ	-11.0559
▁ആരാധനാലയ	-11.0559
▁കണ്ടെത്തല	-11.056
▁ജന്തുക്കള	-11.0561
▁പരിചയപ്പെടുത്ത	-11.0562
▁ആഹ്വാനം	-11.0564
▁ടൂറിസം	-11.0571
▁നവംബറിൽ	-11.0571
▁ബാക്ടീരിയ	-11.0571
▁ലണ്ടനിലെ	-11.0571
ൊഴുകുന്ന	-11.0571
▁ഉല്പാദിപ്പിക്ക	-11.0571
▁മൗലവി	-11.0571
▁കൈമാറ്റം	-11.0571
▁പ്രസിഡൻറ	-11.0571
▁എക്സ്പ്രസ്	-11.0571
▁നേപ്പാള	-11.0571
▁വാദിക്കുന്നു	-11.0571
▁പുലർത്ത	-11.0572
▁മഹാസമുദ്ര	-11.0572
ray	-11.0572
▁പിടിച്ചെടുത്തു	-11.0573
▁ഉണ്ടാവുന്ന	-11.0575
▁സൈക്കിള	-11.0576
▁സർവ്വീസ	-11.058
ായിത്തീര	-11.0583
▁മോഡ	-11.0585
▁പിടികൂട	-11.0585
▁പറയാറുണ്ട്	-11.0586
▁കൊടിമര	-11.0589
▁1968	-11.059
▁ആരംഭം	-11.0591
ാനുഭവ	-11.0593
▁കൂൾ	-11.0594
▁നഗരമായ	-11.0597
▁വിചാര	-11.0599
iii	-11.06
▁ഹൈഡ്രോ	-11.0601
▁പോകാൻ	-11.0602
▁യമ	-11.0605
ഭക്തി	-11.0606
ുകളോ	-11.0606
▁ദേശീയോദ്യാന	-11.0607
pl	-11.0609
▁തക്ക	-11.0609
▁വേർതിരിക്ക	-11.0609
▁ആമുഖ	-11.0612
▁രൂപീകരിച്ചു	-11.0612
▁ഭരിച്ചു	-11.0614
കളായും	-11.0619
▁ഫ്ലോറിഡ	-11.0626
▁അഗസ്ത്യ	-11.0626
▁ഇതിവൃത്ത	-11.0626
▁മലയോര	-11.0626
▁ഏരിയ	-11.0626
▁ഓറിയന്റ	-11.0626
▁ബലിക്കല്ല	-11.0627
▁ചാനൽ	-11.0627
▁ചൂണ്ട	-11.0629
▁വൈറ്റ്	-11.0638
▁കിരണ	-11.0638
▁ബാല്യകാല	-11.0639
▁രാവണന	-11.0641
▁കൂവ	-11.0643
ല്പ്പ	-11.0649
▁തയ്യാറ	-11.0653
▁വെള്ളച്ചാട്ടം	-11.0654
▁24-	-11.0654
esh	-11.0655
▁റോസ്	-11.0656
▁സകല	-11.0658
▁സാധിക്കുന്നു	-11.066
സമ്മേളന	-11.0664
▁ഓർക്ക	-11.0665
പ്പെടുത്തുന്ന	-11.0665
▁വ്യാപാരി	-11.0667
ഗോത്ര	-11.0673
ഫോർഡ്	-11.0674
▁കല്ലട	-11.0675
▁1998-	-11.0678
രൂപത്തിലുള്ള	-11.068
▁കടന്നുപോകുന്ന	-11.0681
▁ഫിലിപ്പീൻസ	-11.0682
▁രക്തസാക്ഷി	-11.0682
▁സ്വീകരിക്കുകയും	-11.0685
▁പന്ത്രണ്ടാം	-11.0685
ടൂ	-11.0686
നാഴി	-11.0688
▁ആംഗലേയ	-11.0689
നല്ലൂർ	-11.069
ൻഷ്യൽ	-11.069
than	-11.0691
▁തിരിച്ചെത്തി	-11.0695
വെച്ച്	-11.0695
വൃ	-11.0696
▁മൂലമാണ്	-11.0699
ാറുള്ളൂ	-11.0699
▁നൂറ്റാണ്ടില	-11.0699
വരേയും	-11.0702
▁ഗ്രന്ഥമായ	-11.0703
▁പുകയില	-11.0703
▁പങ്കാളിത്ത	-11.0704
▁നടത്തുക	-11.0705
▁അധികാരത്തിലെത്ത	-11.071
▁തോൽപ്പിച്ച	-11.0714
▁അരങ്ങേറ	-11.0714
▁സൌകര്യ	-11.0715
▁വാരിയ	-11.0717
ുകളുടേയും	-11.0717
വിമാന	-11.0718
▁സിഖ്	-11.0725
▁കുറയുന്ന	-11.0727
▁ധാർമ്മിക	-11.0729
▁ഏർപ്പെടുത്ത	-11.0731
വിവാഹ	-11.0731
▁ഉണ്ട	-11.0735
▁ആന്ധ്ര	-11.0736
▁തൊടുപുഴ	-11.0737
▁പ്രതിനിധാനം	-11.0737
▁ഫാക്ടറി	-11.0737
▁മെഡൽ	-11.0738
ഛേദ	-11.0738
▁ഹൃദയാഘാത	-11.0738
▁വകഭേദ	-11.0739
▁സ്ഥാപിക്കുകയും	-11.0739
▁കുട്ടികൾക്ക്	-11.0739
▁സെർവറ	-11.074
▁നടനുള്ള	-11.074
cul	-11.0742
▁യുവജന	-11.0743
▁പയ്യന്നൂർ	-11.0744
▁നശിക്ക	-11.0746
▁ലോകയുദ്ധ	-11.0746
▁കുടുംബാംഗ	-11.0747
ബർട്ട	-11.0748
ന്റേത	-11.075
പറമ്പ	-11.0751
▁ഊട്ടി	-11.0751
ാസുര	-11.0753
ോയ്ഡ്	-11.0756
▁ചുരുങ്ങ	-11.0756
ജ്വല	-11.0758
▁27-	-11.076
നുമായിരുന്ന	-11.076
മുതല	-11.0762
ിനെതിരായ	-11.0767
▁രാജവംശത്തിന്റെ	-11.0768
റിയപ്പെടുന്ന	-11.0769
പ്പിടിച്ച	-11.0772
പ്പടി	-11.0775
വരെയും	-11.0776
▁ബന്ധന	-11.0778
ിട്ടുണ്ട	-11.0781
▁ആളുകളെ	-11.0783
▁പ്രചോദന	-11.0784
▁ഇന്റ	-11.0788
▁യുദ്ധത്തിന്റെ	-11.0788
▁കാവൽ	-11.0789
▁ആരംഭത്തിൽ	-11.079
മുണ്ടാക്കി	-11.079
▁അവധി	-11.0791
▁kerala	-11.0791
▁സംഭവങ്ങൾ	-11.0792
യാമ	-11.0793
constellation	-11.0794
▁യോഹന്നാൻ	-11.0794
▁ക്ഷത്രിയ	-11.0794
▁ദൃഢ	-11.0794
▁അഗാധ	-11.0794
▁തർജ്ജമ	-11.0794
▁തിരിക്ക	-11.0794
▁അഖിലേന്ത്യാ	-11.0794
▁ആർത്തവ	-11.0794
▁രാമവർമ്മ	-11.0796
▁ഉപദ്വീപ	-11.0797
▁കണ്ണാടി	-11.0797
▁സൂര്യനിൽ	-11.0798
▁ചെറുകിട	-11.0799
1311	-11.08
▁നെയ്യ	-11.0802
▁റെക്കോർഡ	-11.0803
▁മേഖലകൾ	-11.0804
▁അവകാശങ്ങൾ	-11.0807
ചിറ	-11.0807
mm	-11.0807
▁ഒരാളായിരുന്നു	-11.0807
ിനെക്കുറിച്ച്	-11.0808
ുന്നതിലൂടെ	-11.081
▁തിരൂർ	-11.0811
ോയിഡ	-11.0812
▁പേരുകളിലും	-11.0814
▁മനോഹര	-11.0819
▁അടക്കമുള്ള	-11.082
▁ബംഗ്ലാദേശ്	-11.082
▁സഭയിലെ	-11.0821
പ്രദേശങ്ങളിൽ	-11.0823
ഭാഷയിൽ	-11.0827
▁ആർക്കും	-11.0829
▁അവസാനത്തോടെ	-11.0829
▁തോറും	-11.083
▁താത്പര്യം	-11.0831
▁കമ്പ്യൂട്ടറുകൾ	-11.0831
▁ഡിസ്ക്	-11.0831
ിലൂടെയാണ്	-11.0833
വലിയ	-11.0833
പാട്ട്	-11.0834
▁ആഗ്രഹം	-11.0834
സമുച്ചയ	-11.0835
▁നിമിത്തം	-11.0836
thu	-11.0837
▁ഭിത്തി	-11.0839
▁ഭാഷാശാസ്ത്ര	-11.084
ത്തൂ	-11.0841
െക്കുറിച്ചും	-11.0847
രശ്മി	-11.0849
▁ഗീബൽസ	-11.085
▁ഇസ്രായേൽ	-11.085
▁ശ്വസന	-11.085
▁സൈദ്ധാന്തിക	-11.085
▁അലങ്കരിച്ച	-11.085
▁പ്രബോധന	-11.085
▁അർജുന	-11.085
▁നരേന്ദ്ര	-11.0851
▁ഉപജീവന	-11.0852
▁നിയോജകമണ്ഡല	-11.0854
▁വിജയനഗര	-11.0856
യോടുള്ള	-11.0857
▁ചൂട്	-11.0857
▁1962-	-11.0857
▁ഒറ്റപ്പെട്ട	-11.0859
▁ആചരിക്കുന്നു	-11.0859
▁സ്ത്രീകളും	-11.0861
▁22-	-11.0863
▁ആളുകള	-11.0863
▁ജഗ	-11.0868
ens	-11.0871
വന്നിരുന്ന	-11.0872
▁പാടിയ	-11.0873
▁നിന്നുമുള്ള	-11.0873
ിയ്ക്കാൻ	-11.0877
▁ചതുർ	-11.0877
ദേഹ	-11.0878
▁അകാല	-11.0881
▁സഹോദരന	-11.0882
▁ശാപ	-11.0883
▁ഇഞ്ചി	-11.0884
▁കുരിശു	-11.0885
▁കന്നി	-11.0887
▁തെളിയിച്ച	-11.0887
▁മാസങ്ങളിൽ	-11.0887
▁ക്രിക്കറ്റിൽ	-11.0887
▁കിണറ	-11.0887
ധ്രുവ	-11.0892
പ്പെടും	-11.0899
ശുദ്ധ	-11.09
സിങ്	-11.09
▁പിടിച്ചെടുത്ത	-11.0902
king	-11.0903
വിശകലന	-11.0905
▁ബാക്റ്റീരിയ	-11.0907
▁നിലവിലെ	-11.0907
▁സാമന്ത	-11.0907
▁പേറ്റന്റ	-11.0907
▁ശങ്കർ	-11.0907
▁അഭിനേതാവ	-11.0908
▁തൊട്ട്	-11.0909
▁തനതായ	-11.0909
▁പ്രാപിച്ചു	-11.0909
▁വേദാന്ത	-11.0912
▁ജീവിതവും	-11.0912
▁ധാരാളമ	-11.0913
color	-11.0913
▁1941	-11.0919
▁1935	-11.092
ബാബ	-11.0924
സമൃദ്ധ	-11.0927
▁മണ്ണു	-11.0931
▁ആരംഭിക്കുകയും	-11.0931
▁250	-11.0932
▁നൂറ്റാണ്ടുകളിൽ	-11.0932
▁പോർട്ട്	-11.0938
▁ഉള്ളടക്ക	-11.094
▁അതിർത്തികൾ	-11.0944
▁സദ്യ	-11.0947
▁കഴിയുന്നു	-11.0947
▁ലാമ	-11.0949
▁വളരെക്കാല	-11.0949
നാട്ടു	-11.0949
▁മുട്ടകൾ	-11.095
വിദഗ്ദ്ധ	-11.095
▁1971-	-11.0952
നഗർ	-11.0953
പദാർഥ	-11.0953
▁ആകർഷിക്കുന്ന	-11.0954
ചുവ	-11.0955
▁കൂലി	-11.0955
▁വന്നപ്പോൾ	-11.0962
▁ക്രമീകരണ	-11.0963
▁കുറ്റകൃത്യ	-11.0964
▁കൊളംബിയ	-11.0964
▁ജമാഅത്ത	-11.0964
▁സുലഭ	-11.0964
▁പ്രമേഹ	-11.0964
▁സൈക്കിൾ	-11.0965
▁ഒന്നാണിത്	-11.0968
▁മോചന	-11.0969
▁മറാഠി	-11.097
▁അവശ്യ	-11.0973
▁കയ്യിൽ	-11.0973
▁സജീവമായ	-11.0973
▁പ്രസിഡണ്ട	-11.0975
▁ഫലക	-11.0975
ris	-11.0976
ുകാരുടെ	-11.0976
▁യുദ്ധത്തിനു	-11.0976
▁ചെയ്യാം	-11.0977
ഥർ	-11.0977
▁ഇവയെല്ലാം	-11.0977
വാഴ	-11.0978
▁ഇൻഫ	-11.0981
▁1920	-11.0981
പോളി	-11.0983
cal	-11.0992
▁കഫ	-11.0994
▁കഴക	-11.0994
▁പുക	-11.0994
▁തുമ്പി	-11.0998
▁പാന	-11.0998
രാക	-11.1001
▁കോട	-11.1001
ലൻഡ	-11.1002
▁ക്ഷേത്രത്തിന്	-11.1002
ിക്കുന്നതു	-11.1003
മൗ	-11.1004
▁ഇഗ്	-11.1004
▁ആണെന്ന	-11.1008
▁കർഷകർ	-11.1009
ന്വേഷ	-11.1009
▁ഉറപ്പു	-11.1012
കിഴങ്ങ	-11.1013
▁കുറിച്ചത്	-11.1019
▁പാർവതി	-11.1022
▁സോഡിയം	-11.1022
▁വയലാർ	-11.1022
▁നാടകകൃത്ത	-11.1022
▁അഗ്നിപർവത	-11.1022
▁ബ്രസീല	-11.1022
▁സ്പെയിൻ	-11.1022
▁കോൺസ	-11.1023
▁ബ്രാഡ്മാൻ	-11.1023
▁പഞ്ചായത്തു	-11.1023
▁ശർമ്മ	-11.1024
▁നെഞ്ച	-11.1024
സേവന	-11.1025
പ്രിൻസിപ്പ	-11.1025
▁യമുന	-11.1028
ലോഗ	-11.103
▁ആസ്ഥാനമാക്കി	-11.1034
പ്പൂര	-11.1035
ബെർ	-11.1035
▁കോൺസ്റ്റ	-11.1038
ക്കുറവ്	-11.1038
▁നേർത്ത	-11.1038
മുഖ്യ	-11.1038
▁കൂള	-11.1039
വാണി	-11.104
ിയോസ്	-11.1042
▁സ്വീകരിച്ചത്	-11.1042
▁അയാളെ	-11.1043
▁മുതലേ	-11.1043
▁കുടിയ	-11.1047
ഷനുകൾ	-11.1048
തിലക	-11.1053
▁ഓസ്ട്രേലിയൻ	-11.1056
▁കന്നട	-11.1057
▁പെരിയാറ	-11.1059
▁മരണത്തിനു	-11.1059
▁ഭരണാധികാരികൾ	-11.1063
▁കേന്ദ്രമായ	-11.1064
▁പരമ്പരയിലെ	-11.1065
arch	-11.1065
▁വിശദീകരണ	-11.1066
▁ഗായകന	-11.1067
▁ഫ്ള	-11.1068
▁ഏഴാമ	-11.107
▁നിരൂപണ	-11.1071
raj	-11.1071
▁രചിച്ചത്	-11.1072
▁വരാൻ	-11.1074
▁കൂടിയായിരുന്നു	-11.1076
met	-11.1077
▁തന്ത്രി	-11.1077
ച്ചേർന്ന	-11.1078
ലേഖന	-11.1079
▁ഋതു	-11.1079
▁അധ്യായ	-11.1079
▁പ്രദാനം	-11.1079
▁വഴിത്തിരിവ	-11.108
▁അനുഷ്ഠിക്ക	-11.108
ിലേയ്ക്കു	-11.1081
▁ആരാധിക്കുന്ന	-11.1083
▁മിന്ന	-11.1083
ത്രയ	-11.1084
▁അവസരത്തിൽ	-11.1085
▁ജനപ്രീതി	-11.1085
ങ്ങളിലെല്ലാം	-11.1086
വേര	-11.1086
▁ഇൻഡോ	-11.1087
▁ലാമി	-11.1087
▁പുലർത്തിയിരുന്ന	-11.1087
റീസ്	-11.1091
▁1993-	-11.1092
▁ആവേശ	-11.1092
▁സ്ത്രീകളെ	-11.1092
ശ്രമ	-11.1092
▁സന്നദ്ധ	-11.1095
രാക്കി	-11.1096
▁മോദി	-11.1096
▁മനസ്സിലാക്കാം	-11.1098
▁തോമാ	-11.1098
▁വേഷങ്ങൾ	-11.1099
▁നേരിട്ടുള്ള	-11.1099
മാകാം	-11.1101
▁പുറത്തുവന്ന	-11.1105
▁പ്രസിഡന്റായ	-11.1106
▁ക്ഷേത്രത്തിനു	-11.1109
ക്കിടയിലെ	-11.1109
▁ഓഫീസർ	-11.111
ഷ്ടി	-11.111
▁മാപ്പ	-11.1113
▁വേണമെന്ന	-11.1117
▁രാമചന്ദ്രൻ	-11.1125
സന്ദേശ	-11.1125
നോള	-11.1125
സാദൃശ്യ	-11.113
▁അവസാനിച്ച	-11.1131
point	-11.1135
▁നടത്തിപ്പ	-11.1135
▁പ്രസ്താവിച്ച	-11.1137
▁ചൂഷണ	-11.1137
▁കേടു	-11.1138
▁ലായനി	-11.1138
▁നീന്ത	-11.1139
▁പ്രേം	-11.114
▁ആയുധങ്ങൾ	-11.1142
റുകളുടെ	-11.1143
▁വഞ്ചി	-11.1144
▁ഗവേഷണങ്ങൾ	-11.1145
▁നിലയ്ക്ക	-11.1147
uk	-11.115
▁സംബന്ധമായ	-11.1151
▁വർത്തിക്കുന്ന	-11.1152
▁നൽകിയിട്ടുണ്ട്	-11.1152
▁അഗസ്റ്റ	-11.1158
▁ഈജിപ്ത്	-11.1158
▁വ്യാജ	-11.1163
▁ഗാന്ധിയുടെ	-11.1164
▁കാര്യമായി	-11.1165
ജനക	-11.1167
▁അനുഭവിച്ച	-11.1171
ുതുടങ്ങി	-11.1172
▁1977-	-11.1176
▁പ്രാണി	-11.1179
▁ചിന്ന	-11.118
ഗവേഷണ	-11.1185
▁മോക്ഷ	-11.1185
▁തിരക്ക	-11.1188
ഭക്ഷണ	-11.119
▁പത്രോസ	-11.1191
af	-11.1192
തുരുത്തി	-11.1192
▁സിദ്ധാന്തങ്ങൾ	-11.1192
ിനുവേണ്ടി	-11.1193
പ്രസക്ത	-11.1193
▁യൂണിവേഴ്	-11.1196
ാടിസ്ഥാനത്തിൽ	-11.1196
▁ഡോക്ടറ	-11.1196
▁അഗസ്തീനോസ	-11.1196
▁writer	-11.1196
▁ജഡ്ജി	-11.1196
▁ശിരസ്സ	-11.1196
▁സാധ്യമല്ല	-11.1196
▁നിയന്ത്രിച്ച	-11.1196
▁ചെലവഴിച്ച	-11.1197
▁നിർത്തലാക്ക	-11.1197
ിനോടനുബന്ധിച്ച	-11.1198
▁മുഖേന	-11.1199
▁സഹപ്രവർത്തക	-11.1199
▁ക്രമീകരിക്ക	-11.1201
▁പെറു	-11.1203
pat	-11.1203
▁സർവേ	-11.1206
▁ദൈർഘ്യം	-11.1207
▁ഒന്നായിരുന്നു	-11.1207
▁ഉൾക്കൊള്ളുന്നു	-11.1209
ചിത്രങ്ങൾ	-11.1211
▁നൽകിയിരുന്നു	-11.1212
▁പീറ്റർ	-11.1213
▁പ്രചോദനം	-11.1215
▁പത്രാധിപര	-11.1215
▁ടാറ്റ	-11.1216
▁സാമ്യമുള്ള	-11.1217
▁കാണും	-11.1219
▁വിനയ	-11.1221
▁മന്ത്രവാദ	-11.1234
▁കാണപ്പെട്ട	-11.1237
▁കൊണ്ടുവന്നു	-11.1241
▁കമ്പനികൾ	-11.1243
fl	-11.1245
▁രക്ഷപ്പെട്ട	-11.1252
▁തള്ള	-11.1254
▁തിരിഞ്ഞു	-11.1254
▁ഓക്സിജന	-11.1255
▁അസ്തിത്വ	-11.1255
▁അങ്കമാലി	-11.1255
▁പരമാധികാര	-11.1256
▁അധികാരമേറ്റ	-11.1257
▁വയസ്സുള്ളപ്പോൾ	-11.1257
▁കൗമാര	-11.1257
▁ആർട്സ്	-11.1258
▁ഡേറ്റ	-11.1258
▁സമയത്താണ്	-11.1259
▁സെനറ്റ	-11.126
▁തമിഴ്നാട്ടിലെ	-11.1262
▁ഫ്രണ്ട്	-11.1262
▁ബുധന	-11.1265
▁1952	-11.1265
▁1943	-11.1266
▁നടത്തിയിരുന്നത്	-11.1266
▁മൌ	-11.1267
▁ഉപവിഭാഗ	-11.1267
▁വിശദീകരിച്ച	-11.1269
▁നടപ്പിലാക്കിയ	-11.127
▁ലിയോ	-11.127
യുണ്ടായി	-11.1273
സ്ട്രി	-11.1273
▁ഉദര	-11.1275
പർവ്വ	-11.1276
▁കോശങ്ങൾ	-11.1278
വിളക്ക്	-11.128
തോതിലുള്ള	-11.1282
▁നിരപ്പ	-11.1282
▁ദേവിയുടെ	-11.1282
ആറ	-11.1284
▁ഒപ്പ	-11.1286
▁രൂക്ഷ	-11.1287
▁1947-	-11.1289
▁അറേബ്യൻ	-11.1289
▁പദ്മ	-11.129
▁തുടങ്ങുകയും	-11.1291
▁പെട്രോളിയം	-11.1291
▁എതിരായ	-11.1291
▁വാക്കുകള	-11.1291
ാമെങ്കിലും	-11.1293
▁സംഗ്രഹ	-11.1294
▁ഒരാളായി	-11.1294
▁വെണ്ണ	-11.1295
സ്വാമിക്ഷേത്ര	-11.1299
▁അന്തര	-11.13
▁അവകാശവാദ	-11.1303
റ്റൈ	-11.1304
▁ചുട്ട	-11.1304
▁വ്യക്തിയുടെ	-11.1306
▁പേരില	-11.1306
റ്റിംഗ്	-11.1307
▁സീമ	-11.1309
▁എത്തുന്നു	-11.131
▁വാചക	-11.1312
▁നേട്ടം	-11.1314
▁ഔപചാരിക	-11.1314
▁ട്രേഡ്	-11.1314
▁പടയണി	-11.1314
▁പൊതിഞ്ഞ	-11.1314
▁സെക്കൻഡ	-11.1314
▁സാധ്യമാക്ക	-11.1315
▁കുള്ളൻ	-11.1315
ക്യാ	-11.1316
▁കാവേരി	-11.1316
വികാസ	-11.1316
ട്രീ	-11.1317
ten	-11.1317
383	-11.1318
▁വിളിച്ചിരുന്നത്	-11.1319
▁പ്രത്യയ	-11.132
കുഞ്ഞ	-11.132
ൊലി	-11.1322
പിതാവ	-11.1323
ാനാവാത്ത	-11.1323
ിട്ടില്ലാത്ത	-11.1324
ഘ്ന	-11.1324
ാഘോഷ	-11.1325
▁ഗേറ്റ്	-11.1328
ആമത്തെ	-11.1328
ഥാന	-11.1329
രോഗങ്ങൾ	-11.133
വർദ്ധ	-11.1332
▁നാലാമ	-11.1333
നുഭവ	-11.1337
സുമായി	-11.1337
പ്പിടി	-11.134
▁കാണാറുണ്ട്	-11.134
പിണ്ഡ	-11.1341
▁ബ്രാൻഡ	-11.1346
▁കേവലം	-11.1347
▁കണി	-11.1348
▁നാല്പത	-11.1349
ox	-11.1353
യാണുള്ളത്	-11.1357
കൊണ്ടിരിക്കുന്നു	-11.1358
▁നിർദ്ദേശങ്ങൾ	-11.1358
▁കഠിനമായ	-11.1359
▁ഭാഗിക	-11.1367
സംസ്ഥാന	-11.1368
ല്ലെന്നും	-11.1368
െപ്പോലുള്ള	-11.1368
ത്തോടുള്ള	-11.1369
▁ചൗ	-11.137
▁കണ്ടുവരുന്നത്	-11.1373
▁ഉപയോക്താക്കൾ	-11.1373
▁പ്രഖ്യാത	-11.1373
ചാമുണ്ഡി	-11.1373
▁ടോളമി	-11.1373
▁വഴിപാടുകൾ	-11.1373
▁രാവണൻ	-11.1374
▁അഭിഷേകം	-11.1374
▁മത്തായി	-11.1375
▁കളിക്കാർ	-11.1375
▁സീസൺ	-11.1379
▁ഇരിക്കുന്ന	-11.1381
▁2022	-11.1385
ോപാധി	-11.1385
▁കരുതിയിരുന്ന	-11.1387
▁പരേത	-11.1387
▁സെന്ററ	-11.1388
ഗൊ	-11.1388
യിഡ്	-11.1389
▁നോർത്ത്	-11.1391
▁രക്ഷണ	-11.1395
inte	-11.1395
▁രാമകൃഷ്ണ	-11.1399
▁ന്യൂസ്	-11.14
nar	-11.1401
ബ്രോ	-11.1402
▁കൃത്യ	-11.1404
▁കെയ്	-11.1405
▁നിർദ്ദേശിച്ചു	-11.1408
▁കൂർ	-11.1409
▁ഹെഡ്	-11.1411
▁ഗ്രാഫിക്	-11.1413
▁ടീമുകൾ	-11.1417
▁മൈക്കൽ	-11.1419
▁ഭാഗികമായി	-11.142
▁കഥയാണ്	-11.1421
▁കോളജ്	-11.1423
idae	-11.1426
▁ശലഭ	-11.1427
ലൈൻ	-11.1428
▁വ്യക്തിയാണ്	-11.143
▁അലൂമിനിയ	-11.1433
▁ജനസാന്ദ്രത	-11.1433
▁ദാമോദരൻ	-11.1433
▁മുനിസിപ്പൽ	-11.1433
▁മൂവാറ്റുപുഴ	-11.1433
▁park	-11.1433
▁ബ്യൂറോ	-11.1433
▁നീരാവി	-11.1434
▁റോമിൽ	-11.1435
▁യുഎസ്	-11.1437
സമ്മത	-11.1437
▁പോസ്റ്റ	-11.1439
▁ഉച്ചരിക്ക	-11.144
▁ചെയ്യാനും	-11.1441
▁ഹിന്ദുക്കൾ	-11.1441
▁വെല്ല	-11.1442
ലാനി	-11.1442
▁നിറവും	-11.1443
▁കുറിക്കുന്ന	-11.1443
▁അക്കാദമിയുടെ	-11.1444
▁ശരത്	-11.1445
േണ്ടിവര	-11.145
▁കലാകാരന	-11.1451
▁28-	-11.1452
ദ്ധ്യായ	-11.1453
▁ബാക്കിയുള്ള	-11.1453
▁കുഴൽ	-11.146
തോടൊപ്പം	-11.1462
▁കടവ	-11.1464
ster	-11.1464
▁വിധിച്ച	-11.1466
▁കഥാപാത്രങ്ങളെ	-11.1468
oli	-11.1468
▁ബോധ്യ	-11.147
▁ദൈവത്തെ	-11.1471
▁ഭാഷ്യ	-11.1473
▁മൂസ	-11.1478
ira	-11.1478
▁സൈന്യത്തിന്റെ	-11.148
▁ഗ്രാഫ	-11.1484
▁വിഭാഗത്തിന്റെ	-11.1487
▁അവതരണം	-11.1488
▁ജ്യോതിർ	-11.1491
ിത്തീർന്ന	-11.1492
▁പ്രോഗ്രാമിങ്	-11.1493
▁ആന്ധ്രാപ്രദേശ	-11.1494
▁പതിമൂന്നാം	-11.1494
▁പ്രീമിയർ	-11.1494
▁കാഫ്ക	-11.1494
▁നായനാർ	-11.1495
▁ജീവികളുടെ	-11.1496
▁ഫോർമാറ്റ	-11.1498
▁വാഹനങ്ങൾ	-11.1498
▁അഭിനയിക്ക	-11.1499
▁മാത്യു	-11.15
നിർമ്മ	-11.1504
▁മുഖ്യമായും	-11.1508
▁മാതാവ	-11.1509
▁മാസങ്ങൾ	-11.1509
▁വീണു	-11.1513
വിമർശ	-11.1515
▁ആർച്ച്	-11.1521
▁പരശുരാമൻ	-11.1527
▁അന്തരിച്ച	-11.1527
രഹിതമായ	-11.1528
പ്പെടുന്നുണ്ട്	-11.1529
ടിയോളം	-11.1529
nan	-11.1535
രോഹി	-11.1535
ash	-11.1535
▁കിലോമീറ്ററും	-11.1536
▁ഡാറ്റാ	-11.1536
▁മനുഷ്യനെ	-11.1537
▁വ്യത്യസ്തമാണ്	-11.1537
തിരുവ	-11.1539
▁പ്രകാരമുള്ള	-11.154
വാർഡ്	-11.154
പ്രാപ്ത	-11.1542
ാത്മകമായ	-11.1542
ാനുമുള്ള	-11.1545
ങ്ങളുടേ	-11.1549
ban	-11.155
▁3000	-11.155
കുറ്റ	-11.155
▁ശീവേലി	-11.1551
യുവ	-11.1552
line	-11.1553
▁ആറന്മുള	-11.1554
▁ഏപ്രിലിൽ	-11.1554
▁മാന്ത്രിക	-11.1554
▁പ്രേരണ	-11.1554
▁സംഗീതസംവിധാനം	-11.1554
▁രാജകീയ	-11.1554
▁ഇമെയിൽ	-11.1554
▁സിംഗപ്പൂർ	-11.1555
▁ജമ്മു	-11.1555
▁ഫീൽഡ്	-11.1556
▁നിബന്ധന	-11.1557
▁ശരീരത്തിലെ	-11.1558
▁കാര്യാലയ	-11.1559
▁റോക്കറ്റ	-11.1559
ങ്കല	-11.156
▁ചെളി	-11.1561
▁വിളിക്കാറുണ്ട്	-11.1561
▁റോസ	-11.1562
▁കാണാവുന്നതാണ്	-11.1562
▁ഭാഗത്തുള്ള	-11.1563
പർവ്വം	-11.1566
▁മുൻനിര	-11.1566
റൈറ്റ	-11.1571
▁റോഡിൽ	-11.1573
pol	-11.1573
തിനെക്കുറിച്ച്	-11.1574
▁മിഷൻ	-11.1577
▁അർധ	-11.1577
പ്പത്തി	-11.1577
▁ഉണ്ടാക്കുന്നു	-11.1578
ക്രീ	-11.158
സംഭവ	-11.1583
▁വസ്തുക്കളെ	-11.1583
▁ബിംബ	-11.1583
▁നഷ്ടപ്പെട്ടു	-11.1584
▁പാറ്റ	-11.1587
മാണെങ്കിൽ	-11.1587
ബ്ള	-11.1588
ങ്ങളിലോ	-11.1589
sr	-11.1591
▁സംഖ്യാ	-11.1595
മുപയോഗിച്ച	-11.1599
▁ശൈലിയിൽ	-11.1603
▁റീഡ	-11.1604
▁സംഘടനകൾ	-11.1605
▁മാത്രമായ	-11.1606
നിരീക്ഷണ	-11.1609
വികസന	-11.1609
ിറങ്ങ	-11.1611
▁വിശേഷിപ്പിച്ചത്	-11.1612
കേത	-11.1612
സൈന്യ	-11.1613
ുന്നതിന	-11.1613
നിയന്ത്രിത	-11.1615
▁ഫെഡറൽ	-11.1615
▁ആഖ്യാന	-11.1615
▁ശമ്പള	-11.1615
നിറുത്ത	-11.1616
▁ഹിന്ദുക്കള	-11.1617
▁പിന്തുണയ്ക്ക	-11.1617
▁ചാരനിറ	-11.1617
▁വാസസ്ഥല	-11.1617
▁ഉറങ്ങ	-11.1618
▁പെരിയാർ	-11.1618
char	-11.1619
▁ഉദാഹരണങ്ങളാണ്	-11.162
▁മതേതര	-11.162
▁ഉറപ്പാക്ക	-11.1621
തനുസരിച്ച്	-11.1621
▁പ്രദേശങ്ങളിലെ	-11.1622
സൂക്ഷ	-11.1622
▁ഗോഡ്	-11.1622
▁പ്രോഗ്രാമുകൾ	-11.1624
ഡ്രി	-11.1625
ഹിമ	-11.163
▁വിശദീകരണം	-11.163
▁സർവ്വകലാശാലയിൽ	-11.1632
▁ആദ്യഘട്ട	-11.1633
▁ഗർത്ത	-11.1637
▁തേൻ	-11.1639
▁അവാർഡുകൾ	-11.1641
▁വേണ്ടിയാണ്	-11.1641
▁കുഞ്ഞുങ്ങൾ	-11.1642
▁കാശി	-11.1644
ുണ്ടായിരുന്നില്ല	-11.1646
▁നെറ്റി	-11.1648
▁1995-	-11.1648
▁കൊതുക	-11.1649
▁പുരുഷന്മാരും	-11.1653
▁കണക്കാക്കുന്ന	-11.1655
▁സംഖ്യകൾ	-11.1655
▁കാലാവസ്ഥാ	-11.1655
▁താഴേക്ക	-11.1658
രംഗത്തേക്ക്	-11.1659
ഹൈഡ്ര	-11.166
▁ഇന്ത്യയെ	-11.166
▁ഇറങ്ങ	-11.1662
ax	-11.1662
പിടുത്ത	-11.1664
▁ലയിക്ക	-11.1667
വാർത്ത	-11.1668
▁മാർഷ	-11.1671
കൂടെ	-11.1671
▁വിശാല	-11.1672
പ്പെടാറുണ്ട്	-11.1673
▁തരംഗങ്ങൾ	-11.1673
▁ലൈൻ	-11.1674
▁ആഫ്രിക്കയിലെ	-11.1674
വ്യാപന	-11.1675
▁പ്രദക്ഷിണ	-11.1675
▁പുറപ്പെടുവിച്ച	-11.1677
properties	-11.1677
▁ഹ്യൂസ്റ്റൺ	-11.1677
▁ദ്വിതീയ	-11.1677
▁കാനേഷുമാരി	-11.1677
▁അബ്ദുൾ	-11.1677
▁പ്രോഗ്രാമിംഗ്	-11.1681
▁ടാഗ	-11.1683
ുകാരനായ	-11.1684
രേഖകൾ	-11.1687
▁കല്പിക്ക	-11.1687
▁കീഴടക്കിയ	-11.1688
air	-11.169
▁അതിനുള്ള	-11.1699
▁ഇലക്ട്രോണുകള	-11.1701
▁നൈൽ	-11.1702
▁രാജാവായി	-11.1702
non	-11.1702
▁ഭാഷകളിലും	-11.1712
ഫോണ	-11.1714
വസ്ത്ര	-11.1719
ite	-11.1722
കൃതികൾ	-11.1723
▁വിരമിച്ചു	-11.1726
പറ്റി	-11.1726
▁1994-	-11.1727
വിച്ച്	-11.1727
▁നിലകൊള്ളുന്നു	-11.1731
അമ്മ	-11.1731
feature	-11.1738
▁അറ്റ്ലാന്റിക്	-11.1738
▁കടമ	-11.1738
▁വിധായകന	-11.1738
▁മ്യൂസിക്	-11.1739
▁തീവ്രവാദ	-11.1739
▁ആൺകുട്ടി	-11.174
ബന്ധിച്ചിടത്തോളം	-11.174
▁ഭൂപട	-11.174
യന്നൂർ	-11.1741
▁കാണി	-11.1741
സ്ഥാപിക്കപ്പെട്ട	-11.1742
▁മഹാകവി	-11.1743
▁ജന്മദേശ	-11.1743
പരിഷ്കാര	-11.1744
▁ശാസ്ത്രജ്ഞൻ	-11.1746
▁ഓഡിയോ	-11.1746
സ്വഭാവമുള്ള	-11.1747
▁സെല്ല	-11.1749
▁1926	-11.1749
യ്ക്കാണ്	-11.1751
ക്കൊണ്ടിരുന്ന	-11.1752
മാരംഭിച്ചു	-11.1754
ത്തുടങ്ങി	-11.1755
സ്യൂ	-11.1755
പാണി	-11.1757
▁ചുമത്ത	-11.1757
▁മഞ്ചേരി	-11.1757
▁ക്രമീകരിച്ച	-11.176
മെങ്കിൽ	-11.177
മെൻറ്	-11.1773
▁ഹെയ്	-11.1773
ുണ്ടാക്കി	-11.1775
ഒന്ന	-11.1779
▁ആവർത്തിക്ക	-11.1779
ശാസന	-11.1783
▁തിളക്കമുള്ള	-11.1785
▁രൂപത്തിലാണ്	-11.1786
▁ഒൻപത്	-11.1787
▁അക്കാലത്ത	-11.1792
2009	-11.1794
ിപ്പോക	-11.1794
▁ചെയർമാനായ	-11.1795
▁മാറുന്ന	-11.1796
▁സെപ്തംബർ	-11.18
▁ചിലയിടങ്ങളിൽ	-11.18
▁river	-11.18
ാഞ്ജലി	-11.1801
▁അതിലധികമ	-11.1801
▁ആഥൻസ	-11.1801
▁വെളുപ്പ	-11.1802
▁ചന്ദ്രഗുപ്ത	-11.1802
▁പത്രപ്രവർത്തന	-11.1804
▁യക്ഷി	-11.1805
ശിക്ഷ	-11.1805
▁അസ്ത്ര	-11.1806
▁പരിശുദ്ധ	-11.1807
▁1925	-11.181
യുമായിരുന്ന	-11.1812
▁ശിക്ഷാ	-11.1813
▁വിരമിച്ച	-11.1813
ിയിരുന്നത്	-11.1816
▁അടൂർ	-11.1817
ഭായി	-11.1821
▁പ്രകടമായ	-11.1823
▁പ്രതികാര	-11.1824
▁ബോർ	-11.1824
വ്വാ	-11.1829
▁സുന്നി	-11.1834
▁സമീപിച്ച	-11.1836
ina	-11.1837
▁വളർത്തിയ	-11.1839
▁ലിയനാർഡോ	-11.184
▁സൂചിപ്പിക്കാൻ	-11.184
able	-11.1841
▁പുറത്തുള്ള	-11.1841
▁മാദ്ധ്യമ	-11.1844
തെല്ലാം	-11.1844
▁ഉണ്ടായിട്ടുണ്ട്	-11.1846
▁മോഡൽ	-11.1848
▁പരമ്പരാഗതമായി	-11.1851
▁പുരട്ട	-11.1852
സംബന്ധമായ	-11.1854
▁നീട്ടി	-11.1856
▁ടൈംസ്	-11.1859
▁മുതലുള്ള	-11.186
▁വംശീയ	-11.1862
▁സംജ്ഞ	-11.1862
▁അഗ്നിപർവ്വത	-11.1863
▁പുനർനാമകരണം	-11.1863
▁നാമനിർദ്ദേശം	-11.1863
▁പടയോട്ട	-11.1863
▁വർധിച്ച	-11.1863
john	-11.1863
ാലങ്കാര	-11.1863
ാഭിഷേകം	-11.1864
▁മഹത്ത്വ	-11.1864
വലയ	-11.1864
▁മിക്കപ്പോഴും	-11.1866
▁വേറിട്ട	-11.1866
▁കെട്ടിടങ്ങൾ	-11.1866
▁ഒഴിച്ചു	-11.187
സംബന്ധിയായ	-11.1871
▁വുഡ്	-11.1873
▁അദ്ദേഹത്തിന	-11.1876
▁ഗൈ	-11.1879
▁സ്ഥാപിതമായി	-11.1881
▁നൽകപ്പെട്ട	-11.1884
▁ഇലക്ട്രോണുകൾ	-11.1884
▁തെറ്റായ	-11.1885
▁തൊട	-11.1886
▁മഞ്ച	-11.1888
▁വീടുകൾ	-11.1895
▁കണക്കാക്കി	-11.1901
qui	-11.1901
▁അംഗമാണ്	-11.1904
ാനാവും	-11.1904
▁ഐക്യനാടുകള	-11.1906
▁ചേർത്തല	-11.1906
വിശ്വ	-11.1908
▁ഇൻഡി	-11.1909
മൊന്നും	-11.1911
ഇലക്ട്രിക്	-11.1915
▁കളിക്കാരന	-11.1916
▁അമ്മാവന	-11.1917
las	-11.1918
▁തുടങ്ങുന്നു	-11.1918
▁എറണാകുള	-11.1923
▁വരച്ചു	-11.1924
നൃത്ത	-11.1925
സ്റ്റുട്ട്ഗാർട്ട	-11.1926
▁അക്വീനാസ	-11.1926
▁ഇംഗ്ളീഷ	-11.1926
▁ഭഗവദ്	-11.1926
▁പരിഗണന	-11.1926
▁മാർട്ടിൻ	-11.1926
▁വിദ്യാർഥി	-11.1926
▁സിംഗപ്പൂര	-11.1926
▁ആവശ്യകത	-11.1926
▁വിമർശനങ്ങൾ	-11.1927
▁പ്രതിജനക	-11.1927
രാജാ	-11.1928
നോൾ	-11.1928
▁ജലവൈദ്യുത	-11.1929
▁ക്രിസ്തുവിന്റെ	-11.1929
േയ്ക്ക്	-11.1931
▁രാജേന്ദ്ര	-11.1931
▁ഹോട്ടല	-11.1931
▁പ്ലാസ്റ്റിക്	-11.1933
ചെറു	-11.1935
▁ഉഗ്ര	-11.1939
▁ജനങ്ങൾക്ക്	-11.194
▁നടത്തപ്പെടുന്ന	-11.1942
ration	-11.1946
ങ്ങളാണുള്ളത്	-11.1948
▁പൌര	-11.195
▁താമസിച്ചു	-11.1952
▁ടീമിൽ	-11.1957
ത്തിനിടയ	-11.1957
▁120	-11.1957
ിനാൽ	-11.1964
രാജാവായ	-11.1965
▁എന്നറിയപ്പെട്ട	-11.1966
വിരോധ	-11.1968
▁indian	-11.1972
ുന്നുവെന്ന	-11.1977
▁കായംകുളം	-11.1981
▁കാലുകൾ	-11.1985
▁ആഭിമുഖ്യ	-11.1989
▁ആവർത്തനപ്പട്ടിക	-11.1989
▁എത്യോപ്യ	-11.1989
▁ഛിന്നഗ്രഹ	-11.1989
▁മിഷനറി	-11.1989
▁വികസിത	-11.1989
▁സെഞ്ച്വറി	-11.1989
▁നേടിക്കൊടുത്തു	-11.1989
▁വാർത്താവിനിമയ	-11.1989
▁കൊറോണ	-11.1989
▁ഗർഭിണി	-11.199
ച്ഛേദ	-11.199
▁ആവാസവ്യവസ്ഥ	-11.199
▁അന്വേഷിക്ക	-11.199
▁മഹാലക്ഷ്മി	-11.1991
▁വഴക്ക	-11.1992
▁ഉണ്ടാക്കാൻ	-11.1992
▁ശുഭ	-11.1993
▁പൂജകൾ	-11.1994
▁മനഃശാസ്ത്ര	-11.1996
▁1923	-11.1998
▁1918	-11.1999
▁പാനീയ	-11.1999
▁കൂടിയാട്ട	-11.2
▁നിയമപരമായ	-11.2001
▁കയർ	-11.2004
▁ഫയല	-11.2005
▁സ്വതന്ത്രമായ	-11.2006
▁വാസുദേവൻ	-11.2007
മദ്ധ്യ	-11.201
▁ഇന്റർനെറ്റ	-11.2013
ചരിത	-11.2016
▁ഒന്നിച്ചു	-11.2017
▁പരിക്രമണം	-11.2019
▁പ്രായമുള്ള	-11.2019
വാഡ	-11.2021
▁1987-	-11.2023
▁ചെറുപ്പത്തിൽ	-11.2026
▁മാലി	-11.2028
▁മലബാറിൽ	-11.2033
▁മുൻപുള്ള	-11.2034
▁ക്ലബ്	-11.2043
ഴ്സി	-11.2043
▁പുറത്തിറങ്ങ	-11.2043
▁മഹ്മൂദ്	-11.2047
ക്കപ്പല	-11.2047
▁ഗുരുവ	-11.2048
രണ്ടു	-11.2049
വസാന	-11.2051
സമുദായ	-11.2052
പ്രൊട്ടസ്റ്റന്റ്	-11.2053
▁ആട്ടക്കഥ	-11.2053
▁ഉല്പാദന	-11.2053
▁ഗെവാറ	-11.2053
▁മോട്ടോർ	-11.2053
▁ചാക്യാർ	-11.2053
▁മെഷീൻ	-11.2053
▁സ്പേസ്	-11.2053
ിലാക്കി	-11.2054
▁ഹനുമാന	-11.2055
▁ഇമേജ	-11.2056
▁വിപ്ലവകാരി	-11.2056
▁മതവിശ്വാസ	-11.2057
▁തടഞ്ഞു	-11.2057
▁മഹായുദ്ധ	-11.2059
▁അതിഥി	-11.2059
▁1927	-11.206
▁പതിനാലാം	-11.2061
▁ഗ്ലോബ	-11.2064
സേവ	-11.2065
▁അദ്വൈത	-11.2066
▁വിജയകരമായി	-11.2067
ലിങ്	-11.2071
▁ചിത്രമായിരുന്നു	-11.2073
▁പരമ്പരയിൽ	-11.2073
▁ബൈബിളിലെ	-11.2073
ബ്രിട്ടീഷുകാരുടെ	-11.2074
▁വളർച്ചയെ	-11.2075
മേലുള്ള	-11.2079
▁വധിച്ചു	-11.2081
▁പാകിസ്താനിലെ	-11.2081
ുണ്ടാവുക	-11.2081
സമേത	-11.2082
ക്കിടയിലുള്ള	-11.2082
▁റോമിലെ	-11.2084
ive	-11.2085
hen	-11.2087
ബെറി	-11.2088
▁ഒളിമ്പിക്	-11.2089
vil	-11.2089
പാർട്ടി	-11.2091
ഇപ്പോൾ	-11.2092
ിരുന്നുള്ളൂ	-11.2094
▁സംസ്കരിച്ചു	-11.2099
▁മിസ്സ്	-11.2101
ക്കൊടി	-11.2102
കോവിൽ	-11.2103
▁പായ	-11.2106
വിരല	-11.2109
▁താരതമ്യ	-11.211
▁പെരുമാറ	-11.2111
▁ചന്ദ്രന്റെ	-11.2115
▁അഭിഷേക	-11.2116
▁ഉണ്ടാക്കുന്നത്	-11.2117
▁ഭൌതിക	-11.2117
▁ഭൂഗർഭ	-11.2117
▁പവിത്ര	-11.2117
▁മഹാത്മാഗാന്ധി	-11.2117
▁ഈജിപ്റ്റ	-11.2117
▁ഒതുങ്ങി	-11.2117
▁വജ്ര	-11.2118
▁ഭാഗത്തായി	-11.2118
▁പടർന്നു	-11.2118
▁നൂതന	-11.2118
തിനാവശ്യമായ	-11.2119
▁ചുരുള	-11.2119
പ്രസാദ	-11.2122
തമ്പുരാന	-11.2127
▁വിവരിക്ക	-11.2129
▁ഹൈവേ	-11.2132
2006	-11.2135
▁ചൈനയിൽ	-11.2135
▁മൊത്ത	-11.2142
▁കൊയ്	-11.2143
▁കൂറ	-11.2144
▁1911	-11.2145
▁നില്ക്കുന്ന	-11.2145
▁പരശുരാമ	-11.2146
പ്പോള	-11.2151
▁വയസിൽ	-11.2152
▁1984-	-11.2153
▁1964-	-11.2161
▁തേജ	-11.2162
ത്തിലുണ്ടായ	-11.2162
ോർജ	-11.2162
▁തിരുവാ	-11.2163
▁നിർമ്മിക്കുകയും	-11.2164
▁കല്പന	-11.2164
▁കൂർത്ത	-11.2164
▁കൂട്ടിയിടി	-11.2165
▁കോടതിയിൽ	-11.2166
▁ഒഴികെ	-11.2175
▁സഹോദരന്മാര	-11.2178
▁സങ്കീർണ്ണമായ	-11.2178
▁ആന്തര	-11.2179
▁ഈജിപ്ഷ്യൻ	-11.2181
▁ചെങ്ങന്നൂർ	-11.2181
▁നാശനഷ്ട	-11.2181
▁ഉല്പത്തി	-11.2181
▁ഗെയിമ	-11.2181
▁മലനിരകൾ	-11.2182
▁അഞ്ചാമത്തെ	-11.2184
▁ഡെൽറ്റ	-11.2184
▁ഇമാം	-11.2184
▁മഹാക്ഷേത്ര	-11.2186
▁1989-	-11.2186
▁ജനറല	-11.2187
മുണ്ടാകുന്ന	-11.2188
▁അഭയ	-11.2188
വാര്യർ	-11.2188
വാചക	-11.2189
▁വേനൽക്കാലത്ത്	-11.219
ശോധ	-11.2195
ത്തോടനുബന്ധിച്ച	-11.2195
▁മൈല	-11.2196
ക്കിളി	-11.2204
▁നാടുകടത്ത	-11.2206
▁മൂലകമാണ്	-11.2213
▁എഴുതാൻ	-11.2214
യോഗ്യമായ	-11.2219
പുട	-11.222
യാട്	-11.2221
ക്കണ്ണ	-11.2222
ോണുകൾ	-11.2229
▁ആക്രമണത്തിൽ	-11.223
▁ഇന്റൽ	-11.2232
▁സംവിധാനങ്ങൾ	-11.2232
ത്തോടുകൂടിയ	-11.2236
▁world	-11.2238
▁വിഭജിക്കപ്പെട്ട	-11.2239
▁ഗവേഷകർ	-11.2239
ിട്ടുള്ളൂ	-11.2239
ക്കാരനായി	-11.224
ദിക്ക	-11.2241
▁സമാന്തരമായി	-11.2244
▁പലവിധ	-11.2245
▁വിശദമായ	-11.2245
▁ഇന്ദിരാഗാന്ധി	-11.2246
▁ഗൂഢാലോചന	-11.2246
▁പാത്രിയർക്കീസ	-11.2246
▁ആതിഥേയ	-11.2246
▁ന്യൂട്രിനോ	-11.2246
▁ലോകമെമ്പാടും	-11.2246
▁വൈകുന്നേര	-11.2246
▁വൻതോതിൽ	-11.2246
▁ബ്രസീൽ	-11.2246
▁രാജസ്ഥാൻ	-11.2246
▁മെത്രാൻ	-11.2246
▁യൂക്ലിഡ	-11.2246
ഭ്രംശ	-11.2246
▁വൃക്ക	-11.2247
▁ലൂഥർ	-11.2247
▁ബ്ലെയ്ക്ക	-11.2247
▁ഇറാൻ	-11.2247
▁താരവ്യൂഹ	-11.2249
▁മേജർ	-11.2249
▁കൗണ്ടി	-11.2249
▁പ്രൊഫസർ	-11.2249
▁1986-	-11.225
▁ചാവേസ	-11.2252
▁ശ്രീകുമാർ	-11.2254
▁ആശ്രയിക്ക	-11.2255
▁ചൈനയിലെ	-11.2259
▁മദ്ധ്യകാല	-11.226
▁മധ്യകാല	-11.2262
our	-11.2262
പദാർത്ഥ	-11.2263
സൈറ്റ	-11.2263
▁കലഹ	-11.2266
▁പുറപ്പെട്ടു	-11.2266
▁വ്യക്തമല്ല	-11.2267
ുന്നവരുണ്ട്	-11.2274
▁രൂപീകൃതമായത്	-11.2274
▁സംസാരിച്ച	-11.2275
▁അക്കാ	-11.2276
▁കേസിൽ	-11.2278
▁1912	-11.2278
▁എഴുന്ന	-11.2281
oh	-11.2282
▁ഒൻപതാ	-11.2282
ജ്യോതിശാസ്ത്രജ്ഞ	-11.2283
▁ഇന്ത്യയിലേക്ക്	-11.229
മേനി	-11.2292
▁കാർബണ	-11.2292
▁യുവാവ	-11.2292
▁പറയാൻ	-11.2292
എക്സ്	-11.2299
▁കത്തിച്ച	-11.2299
കാലത്തുതന്നെ	-11.2299
▁അറിയാൻ	-11.23
az	-11.2301
ലന്റ്	-11.2303
▁വിശദീകരിക്കുന്ന	-11.2303
കിട്ട	-11.2305
▁പതിനായിര	-11.2306
art	-11.231
▁വസ്തുവിന്റെ	-11.231
geometry	-11.2312
▁ആനുകാലിക	-11.2312
▁തിമിംഗില	-11.2312
▁പൊട്ടി	-11.2315
2010	-11.2316
▁ഗ്രന്ഥങ്ങളിൽ	-11.2318
▁എല്ലാവർക്കും	-11.2319
പുറത്ത	-11.2319
▁യജ്ഞ	-11.2321
raja	-11.2326
▁പുറപ്പെടുന്ന	-11.2326
▁മരുന്നുകൾ	-11.2334
ഗ്രേ	-11.234
▁ജസ്റ്റ	-11.2342
ജനത	-11.2345
▁റോള	-11.2347
വോൾട്ട	-11.2348
▁ലൈന	-11.235
▁പുലർത്തി	-11.2351
ഞ്ഞാറ	-11.2352
▁പതിവായി	-11.2353
▁മാംസ്യ	-11.236
▁സ്ഥാനത്തു	-11.236
▁പങ്കെടുക്കുന്ന	-11.236
▁ഘടകമാണ്	-11.2363
▁അസ്സ	-11.2367
▁അഹ്	-11.2367
യാണെന്നു	-11.2368
▁അവസാനിക്കുന്നു	-11.2369
▁വാദിക്ക	-11.2371
▁1800	-11.2371
▁മുഖ്യധാരാ	-11.2373
▁മുന്നേ	-11.2373
▁ഭാഗമായിരുന്ന	-11.2375
▁അധീന	-11.2377
ാരോഹണ	-11.2377
▁റവന്യൂ	-11.2377
▁വിഭാവനം	-11.2377
▁തറവാട	-11.2378
ുന്തോറും	-11.2378
▁റസ്സൽ	-11.2378
▁കൽക്കരി	-11.2378
▁വസതി	-11.2378
▁കാറ്റലോഗ	-11.2378
പ്രയത്ന	-11.2378
▁ആഭ്യന്തരയുദ്ധ	-11.2379
നിർദ്ദേശ	-11.238
▁പൂനെ	-11.238
▁ഉണ്ടെങ്കിലും	-11.2381
സാങ്കേതിക	-11.2381
▁താലൂക്കിലാണ്	-11.2382
ശീവേലി	-11.2382
മുളള	-11.2383
വേഴ്	-11.2383
▁മറ്റൊര	-11.2384
▁ഹൈസ്കൂള	-11.2384
▁പ്രചരണ	-11.2384
▁ബാൻഡ	-11.2385
▁നോക്കിയാൽ	-11.2386
▁തിരിച്ചുവര	-11.2387
▁സാധനങ്ങൾ	-11.2395
ചിത്ത	-11.2399
▁ആവശ്യമില്ല	-11.2401
ിതര	-11.2406
▁ഉണ്ടാകാം	-11.2407
▁1900	-11.2408
angal	-11.2408
▁പരിഷ്കരണ	-11.241
▁തകര	-11.2411
അഭി	-11.2413
▁മൂടി	-11.2417
ഡിയൻ	-11.2418
▁ഉണക്കി	-11.242
ഭ്രമ	-11.2429
ാറുണ്ടായിരുന്നു	-11.2432
ാഗ്നി	-11.2435
▁കൊക്കോ	-11.2435
▁ലീല	-11.2435
▁അനുജ	-11.244
ത്താവള	-11.2443
വിവരക്കണക്കുകൾ	-11.2444
▁ദുറാനി	-11.2444
▁സാഹസിക	-11.2444
▁ലൂഥറ	-11.2444
▁നിശിത	-11.2444
▁ദിശയിൽ	-11.2446
ത്തിനായുള്ള	-11.2446
ാകാശ	-11.2446
വിശ്ലേഷണ	-11.2447
▁ചോദിക്ക	-11.2448
▁നീലഗിരി	-11.2448
▁തരംഗദൈർഘ്യ	-11.2449
പ്ലി	-11.2449
▁സാധ്യതയുണ്ട്	-11.2449
▁അസീസ്	-11.2449
▁സാക്ഷികൾ	-11.245
ാവയവ	-11.245
▁നിയമനിർമ്മാണ	-11.2452
വർക്കു	-11.2453
▁സ്വാധീനിച്ചു	-11.2458
▁കോൾ	-11.2458
▁നാട്യ	-11.246
▁1916	-11.246
qua	-11.2462
cra	-11.2464
▁ഇഷ്ടപ്പെട്ട	-11.2465
ക്കകത്ത	-11.2469
▁ത്രിത്വ	-11.2469
▁കുഴല	-11.2475
▁തഴ	-11.2475
▁തിരുവിതാംകൂറിലെ	-11.2475
▁ചൊല്ലി	-11.2481
▁കുന്തി	-11.2482
||	-11.2483
▁ജീവശാസ്ത്ര	-11.2486
െക്കുറിച്ച്	-11.2486
port	-11.2487
▁മുപ്പത്തി	-11.2487
▁മുഴുകി	-11.2488
▁അടച്ചു	-11.2492
ക്കുഴി	-11.2494
േനിയ	-11.2502
hor	-11.2502
▁സ്വന്തമായ	-11.2507
▁സ്ഥാപനമാണ്	-11.251
▁തിരുവിതാംകൂറിൽ	-11.251
▁ലഭിക്കുകയും	-11.251
▁മെഡിറ്ററേനിയൻ	-11.251
▁സെപ്റ്റംബറിൽ	-11.251
▁സംപ്രേഷണം	-11.251
▁ഓൺലൈൻ	-11.2511
▁അവശേഷിച്ച	-11.2511
▁ഡാർവിൻ	-11.2511
വിപ്ലവ	-11.2516
മുഹമ്മദ്	-11.2516
▁ചാണക	-11.2516
156	-11.2519
▁ചാമ്പ്യൻസ്	-11.252
▁ശതകത്തിന്റെ	-11.252
ക്കടുത്തുള്ള	-11.2523
▁മാറ്റുകയും	-11.2529
ുണ്ടെന്നും	-11.2531
ുന്നതിനുവേണ്ടി	-11.2534
▁അടച്ച	-11.2539
ിരട്ടി	-11.2539
▁ബ്ലോക്കിൽ	-11.2541
ൻഡർ	-11.2543
▁ആഴത്തിൽ	-11.2548
▁കായൽ	-11.2549
ത്തവള	-11.2552
▁കാരണമാകുന്ന	-11.2553
▁നൂറ്റാണ്ടിനു	-11.2556
▁കുടികൊള്ളുന്ന	-11.2559
രാജാക്കന്മാര	-11.2561
സ്ഥാപനങ്ങൾ	-11.2563
▁അടയാളപ്പെടുത്ത	-11.2566
▁തടയാൻ	-11.2572
▁ബയോ	-11.2572
▁കൽപ	-11.2573
▁ക്രെ	-11.2575
▁വഴിയൊരുക്ക	-11.2577
krishna	-11.2577
▁ഡുറാന്റ	-11.2577
▁വിക്ടോറിയ	-11.2577
▁വ്യവഹാര	-11.2577
▁തപാൽ	-11.2578
▁നിലവിലിരുന്ന	-11.2578
ാഭിനയ	-11.2578
▁നിർമിത	-11.258
▁നിർദ്ദേശപ്രകാരം	-11.2581
▁പോട്ടർ	-11.2581
കർണ്ണ	-11.2583
▁ടൈപ്പ്	-11.2585
▁ഹൂ	-11.2586
▁പുഷ്	-11.2586
▁വിശദ	-11.2587
നൂറ്റാണ്ട	-11.259
▁ഏറെക്കാല	-11.2591
▁തരംതിരിക്ക	-11.2591
▁ആകുന്നു	-11.2595
▁മിഗ്	-11.2602
മർദ്ദ	-11.2606
▁ചാടി	-11.261
▁പഞ്ചായത്തുകള	-11.261
▁മുഹമ്മദിന്റെ	-11.2614
▁തടവിലാക്ക	-11.2615
സൾഫ	-11.2618
▁നാട്ടുകാര	-11.2619
ുറപ്പിക്ക	-11.2619
▁കോപ്പ	-11.2619
▁ഡയറക്	-11.262
▁ഹോളി	-11.2622
▁ഹോക്കി	-11.2623
▁തോന്നുന്ന	-11.2625
▁പോകുന്നത്	-11.2626
▁വന്നിരുന്നു	-11.2628
രാജാവ്	-11.2629
ീകരിക്കപ്പെട്ട	-11.2632
▁ചിട്ടപ്പെടുത്ത	-11.2632
▁വകുപ്പിന്റെ	-11.2637
ശീർഷ	-11.2643
കുടി	-11.2644
ോപനിഷത്ത	-11.2644
ത്തൂര	-11.2645
▁തേനീച്ച	-11.2645
▁ഞായറാഴ്ച	-11.2645
▁പശ്ചാത്തലസംഗീതം	-11.2645
നിർദ്ധാരണ	-11.2645
▁ഉപജ്ഞാതാവ	-11.2645
▁തുരങ്ക	-11.2645
▁പൊരുത്ത	-11.2645
▁അരവിന്ദ	-11.2645
▁ചുരുക്കപ്പേര	-11.2646
വൽക്കരിക്ക	-11.2646
▁വിജ്ഞാനകോശ	-11.2647
▁വായനശാല	-11.2648
▁ഒന്നിച്ച	-11.265
പ്രേഷണ	-11.2651
▁സ്ത്രീകൾക്ക്	-11.2651
▁അവതരണ	-11.2651
▁കടന്നുപോകുന്നു	-11.2651
ബ്രഹ്മ	-11.2652
▁അധിപ	-11.2652
ഏപ്രിൽ	-11.2653
▁ശ്രീകോവിലിൽ	-11.2658
▁കോച്ച	-11.2658
▁സേവനമനുഷ്ഠിച്ചു	-11.266
▁ഉണ്ടാകാറുണ്ട്	-11.266
▁പരാമർശിക്കപ്പെട	-11.2664
▁ഖാദി	-11.2665
▁ഇക്കാര്യത്തിൽ	-11.2668
ുപയോഗിക്ക	-11.267
▁കൃതികളും	-11.2671
▁പിറക	-11.2671
ിടത്ത്	-11.2672
ുടമ	-11.2674
uth	-11.2677
▁ട്രീ	-11.2678
▁ലിസ്റ്റ	-11.2678
▁വർക്കല	-11.2679
യുമായും	-11.2683
▁സഹോദരനായ	-11.2685
▁ചോദിച്ച	-11.2686
▁ഉദാഹരണങ്ങൾ	-11.269
മഞ്ഞ	-11.269
ഗായക	-11.269
▁കർണ്ണൻ	-11.2691
▁ജാക്	-11.2695
▁സംഘകാല	-11.2696
right	-11.2697
▁ചന്തു	-11.27
▁മാക്സ്	-11.27
vu	-11.2703
▁മരണമടഞ്ഞ	-11.2705
▁ശില്പി	-11.2705
▁jo	-11.2707
▁ട്രൂ	-11.2707
▁മുന്നിലെ	-11.2709
symbol	-11.2713
▁ട്വന്റി	-11.2713
▁അഴീക്കോട	-11.2713
▁വെള്ളിയാഴ്ച	-11.2713
▁നാഡി	-11.2714
▁നീലകണ്ഠ	-11.2715
▁ശക്തിയായി	-11.2715
eu	-11.2716
▁ആയുസ്സ	-11.2717
▁ഇഴ	-11.2717
title	-11.2721
രചയിതാവ	-11.2721
പ്രകടന	-11.2721
ച്ചാർ	-11.2723
സോഫ്റ്റ്	-11.2723
▁അംഗീകരിക്കുന്ന	-11.2725
▁ലാബ	-11.2726
പെയ്	-11.2727
▁ഊർജ	-11.2737
▁നിരീക്ഷണങ്ങൾ	-11.2739
ക്കിടയിലും	-11.274
▁മൈക്ക	-11.2741
▁തിരിച്ചടി	-11.2742
ope	-11.2743
കാണ്ഡ	-11.2744
▁സൈന്യാധിപ	-11.2745
ബാഹു	-11.2745
2007	-11.2747
▁by	-11.2747
കവാട	-11.2749
▁മന്ത്രിസഭയിൽ	-11.2752
▁രേഖപ്പെടുത്തി	-11.2754
ോത്തര	-11.2754
പ്പെട്ടിട്ടില്ല	-11.2756
ാന്ത്യ	-11.2759
കളെപ്പോലെ	-11.2759
nh	-11.276
▁ചെയ്യുന്നതിനു	-11.276
▁1890	-11.276
▁ദുർഗ	-11.2761
▁എഡിറ്റർ	-11.2763
▁1979-	-11.2764
▁ഇറ്റലിയിലെ	-11.2765
▁അവസാനിക്കുന്ന	-11.2765
ചലച്ചിത്ര	-11.2767
▁പ്രശ്	-11.2769
▁29-	-11.2771
സംസ്കരണ	-11.2772
തിനുപയോഗിക്കുന്ന	-11.2774
▁നടുക്ക	-11.2775
▁അസാധാരണ	-11.2776
▁സവിശേഷതകള	-11.2777
▁വിവാദങ്ങൾ	-11.2781
▁പീരങ്കി	-11.2782
▁പെരിന്തൽമണ്ണ	-11.2782
▁ലണ്ടനിൽ	-11.2782
▁ദേശാടന	-11.2782
▁വക്താവ	-11.2782
▁കൽക്കട്ട	-11.2782
▁ദാവൂദ	-11.2782
▁റൺ	-11.2782
▁അത്യന്ത	-11.2782
▁ഇലക്ട്രിക്കൽ	-11.2782
▁മാലിന്യ	-11.2782
▁ഭേദഗതി	-11.2783
▁വംശജർ	-11.2784
▁1988-	-11.2784
നരവംശശാസ്ത്ര	-11.2787
▁വായ്പ	-11.2787
▁ക്രിസ്ത്യാനികള	-11.2789
ഹൃദയ	-11.2791
▁കണ്ടുമുട്ടി	-11.2793
gan	-11.2799
രാമായണ	-11.2799
കാലത്താണ്	-11.2802
▁മേഖലകളിലും	-11.2803
▁സ്വർഗ	-11.2806
▁ഒളിമ്പിക്സ്	-11.281
▁1973-	-11.2811
rt	-11.2813
▁ദിനോസ	-11.2814
▁വ്യാപ്തി	-11.2816
▁ബന്ധുക്കള	-11.2818
ടുവ	-11.2821
rat	-11.2822
▁രൂപീകൃതമായ	-11.2823
വെന്നാണ്	-11.2825
▁മൂന്നായി	-11.2829
▁പ്രശസ്തരായ	-11.283
▁ചെലവു	-11.283
▁ചരിത്രകാരനായ	-11.2831
▁വിശ്വനാഥ	-11.2831
▁അതിനായി	-11.2833
പാപ	-11.2837
▁സ്റ്റേ	-11.2838
anda	-11.2841
കിളി	-11.2842
സിദ്ധി	-11.2842
▁അൻപത	-11.2844
▁തയ്യാറാക്കി	-11.2849
▁സഹസ്രാബ്ദ	-11.285
▁ഒരൊറ്റ	-11.2851
▁പ്രേരിപ്പിക്ക	-11.2851
▁മേൽക്കൂര	-11.2851
▁രാധാകൃഷ്ണ	-11.2851
▁വർധിപ്പിക്ക	-11.2851
▁വിറ്റ്ജൻ	-11.2851
▁സോഷ്യൽ	-11.2851
▁സസ്തനികള	-11.2851
▁ഹിന്ദുസ്ഥാനി	-11.2851
അലങ്കാരം	-11.2851
▁പരിഷ്കരിച്ച	-11.2851
▁നിലപാടുകൾ	-11.2851
▁സിഗ്നല	-11.2851
▁അബ്ദാലി	-11.2852
▁ഇൻറർ	-11.2853
▁1969-	-11.2853
▁വേണ്ടത്ര	-11.2859
▁വളർന്നത്	-11.2859
ാഭ്യാസ	-11.2861
▁ഊർ	-11.2865
ബാഷ്പ	-11.2868
ജ്ഞർ	-11.2869
ങ്കിലും	-11.2869
▁വാതില	-11.2871
▁കുറയുകയും	-11.2875
മാധ്യമ	-11.288
▁പ്രസിദ്ധനായ	-11.2888
സാക്ഷി	-11.2893
▁കീഴിലായിരുന്നു	-11.2893
എന്നിവരായിരുന്നു	-11.2893
സൂരി	-11.2894
▁1961-	-11.2895
▁ഹൈഡ്രജന	-11.2897
വാണ	-11.2903
pw	-11.2909
കന്ദ	-11.2912
ത്തോട	-11.2913
യിലായിരുന്ന	-11.2914
▁1965-	-11.2914
ായിരുന്നെങ്കിലും	-11.2916
▁ചെലുത്തിയ	-11.2919
▁വിദഗ്	-11.2919
▁കോൺക്രീറ്റ	-11.292
▁പതിറ്റാണ്ട	-11.292
▁ഗാന്ധാര	-11.292
▁ദമ്പതികള	-11.292
▁ടെലിഫോൺ	-11.292
▁ഭട്ടതിരി	-11.2921
▁ഭഗവാന്റെ	-11.2921
▁പ്രസിഡന്റു	-11.2921
▁വെബ്സൈറ്റ	-11.2921
hal	-11.2922
▁എഞ്ചിൻ	-11.2922
▁സാധ്യമായ	-11.2922
▁റഹ്മാൻ	-11.2922
▁പറവൂർ	-11.2923
ബൈറ്റ്	-11.2924
cer	-11.2924
▁കമ്മറ്റി	-11.2925
സ്ഫോടന	-11.2927
▁കൂത്തു	-11.2928
യാര	-11.293
പങ്ക	-11.2935
▁വീട്ടിലെ	-11.2937
ori	-11.2942
ാവസ്ഥയില	-11.2942
▁എന്നിവയുമായി	-11.2943
▁കുറവു	-11.2944
▁അവസരങ്ങളിൽ	-11.2951
▁നഖ	-11.2955
▁നോവലിന്റെ	-11.2957
▁മാരി	-11.2959
▁പ്രാണ	-11.2968
▁ചേരുവ	-11.2969
▁മുന്നില	-11.2971
▁ഉദ	-11.2972
▁രേഖാംശ	-11.2973
▁ജർമ്മനിയിലെ	-11.298
കളെപ്പറ്റി	-11.2986
▁ഗൗതമ	-11.2986
ue	-11.2988
▁പ്രഗല്ഭ	-11.299
▁അരിസ്റ്റോട്ടില	-11.299
▁പര്യാപ്ത	-11.299
▁ശതവാഹന	-11.299
▁സർക്യൂട്ട	-11.299
▁പരിപാലിക്ക	-11.2991
▁ഇറാനിയൻ	-11.2992
▁മൗര്യ	-11.2992
ത്താല	-11.2993
▁ഉൾക്കൊള്ളിച്ച	-11.2994
▁വർഷക്കാലം	-11.2994
▁മുസ്ലീങ്ങളുടെ	-11.2995
▁പഠിപ്പിച്ച	-11.2995
സമാജ	-11.2995
പതിനേഴ	-11.2997
▁ലൈഫ്	-11.2999
▁പ്രതിജ്ഞ	-11.2999
▁കരിങ്കല്ല	-11.3001
യില്ലാതെ	-11.3003
▁കച്ചേരി	-11.3006
▁നിദാന	-11.3008
▁ഉദ്യോഗസ്ഥർ	-11.301
മുണ്ടാവ	-11.3011
▁ശ്ലോകങ്ങൾ	-11.3012
▁ലോപിച്ച	-11.3013
റിങ്	-11.3014
▁ഭരതൻ	-11.3015
▁അറസ്റ്റു	-11.3016
ീഷ്യ	-11.3019
▁ബംഗ്ലാദേശ	-11.3027
▁സമ്മതിക്ക	-11.3028
▁സ്ഥലങ്ങളിലും	-11.3029
▁ഒരാളായ	-11.303
▁വിഭവങ്ങൾ	-11.304
▁ആകൃതിയിൽ	-11.3043
കളേക്കാൾ	-11.3049
ിരിക്കുകയും	-11.3051
▁ദ്വീപിൽ	-11.3055
ഹീന	-11.3056
▁രൂപപ്പെടുന്ന	-11.3057
▁പ്ലേറ്റോ	-11.3058
ശ്ലേഷ	-11.3058
▁കൈമാറി	-11.3059
ത്തിനോ	-11.306
▁അനിവാര്യ	-11.306
▁കാശ്മീർ	-11.306
▁സമകാലീന	-11.306
▁പൈത്തൺ	-11.306
▁പ്രചരിപ്പിച്ച	-11.306
▁ഉയർച്ച	-11.306
▁ശർക്കര	-11.306
▁വിസ്തൃത	-11.3061
മുകുന്ദ	-11.3061
▁ഡെൻമാർക്ക	-11.3061
നിർവഹണ	-11.3061
രുതെന്ന	-11.3061
▁അണുസംഖ്യ	-11.3063
▁വോൾട്ടത	-11.3063
ിലൊന്ന്	-11.3063
▁ചെരിവ	-11.3067
ബാധിത	-11.3068
▁കരസേന	-11.3071
▁പുറകില	-11.3072
സാന്നിദ്ധ്യ	-11.3072
സാംസ്കാരിക	-11.3074
ിനോടുള്ള	-11.3076
▁ചരിത്രകാരന	-11.3079
▁ചിങ്ങ	-11.3083
▁1930-	-11.3087
▁കായ്കൾ	-11.3088
▁ഉൾപ്പെട്ടിരുന്ന	-11.3091
▁ഇടവക	-11.3095
▁വിശദമായി	-11.3104
▁ഗണ്യമായി	-11.3109
▁ലൂയിസ്	-11.3109
▁തെറ്റി	-11.3111
anth	-11.3111
▁യൂത്ത്	-11.3113
▁ബ്ളോക്കിലാണ	-11.3113
ചെന്ന	-11.3116
▁പ്രതികരിച്ച	-11.3116
കോടതി	-11.3117
▁പ്രവർത്തി	-11.3117
▁1953-	-11.3122
▁മനസ്സിലായ	-11.3122
ൊഴിയ	-11.3123
വുഡ	-11.3127
▁വാർഡ	-11.3128
▁ബ്രാഡ്	-11.3129
cri	-11.3129
▁ലഭിച്ചിരുന്നു	-11.313
▁ജനതയുടെ	-11.313
▁പൂർത്തിയാക	-11.3131
▁ലോകമെമ്പാടുമ	-11.3131
▁ക്കെഗാഡ	-11.3131
കാഠിന്യ	-11.3131
പ്രാതിനിധ്യ	-11.3131
▁ആഗിരണം	-11.3131
▁ഫൗണ്ടേഷൻ	-11.3131
▁മുദ്രാവാക്യ	-11.3131
▁സംഭരിക്ക	-11.3131
malayalam	-11.3131
▁താലിബാൻ	-11.3131
▁പ്രോജക്റ്റ	-11.3131
▁സാവധാന	-11.3131
▁ഇറച്ചി	-11.3131
▁മോചിപ്പിക്ക	-11.3131
▁എന്നപേരിൽ	-11.3132
▁ബാറ്റ്സ്മാന	-11.3132
▁ബ്രിട്ടൻ	-11.3132
▁ചാമ്പ്യൻഷിപ്പ	-11.3133
▁മീറ്ററോളം	-11.3135
ound	-11.3136
ിയ്ക്കപ്പെട്ട	-11.3138
▁നാവി	-11.3141
▁ഉപയോഗപ്പെടുത്തി	-11.3144
ാവശ്യങ്ങൾ	-11.3149
▁കൃഷിയിട	-11.3149
▁ചിറകുകൾ	-11.315
ice	-11.3152
സമയത്ത	-11.3154
▁പരമേശ്വരൻ	-11.316
▁കലശ	-11.3161
▁ഒബ്	-11.3161
പാര	-11.3162
▁സമയങ്ങളിൽ	-11.3164
▁വീടുകളിൽ	-11.3166
▁ഉരുണ്ട	-11.3167
▁വോൺ	-11.3168
ാനുപയോഗിക്കുന്ന	-11.3168
▁കുടിയേറി	-11.3168
▁നടുവില	-11.3171
▁എന്നറിയപ്പെട്ടു	-11.3171
▁വെച്ചാണ്	-11.3174
ഉണ്ടായിരുന്നില്ല	-11.3178
▁പുറത്തിറക്ക	-11.3179
ലഭിക്കുകയുണ്ടായി	-11.3181
റ്റോറിയ	-11.3184
േലിയ	-11.3187
ദീന	-11.3191
ശേരി	-11.3192
▁ചിത്രങ്ങളിലും	-11.3193
▁ഓവർ	-11.3196
▁1952-	-11.3201
description	-11.3203
▁നർത്തകി	-11.3203
▁മെമ്മോറിയൽ	-11.3203
▁പിരമിഡ	-11.3203
▁അച്ചുതണ്ട	-11.3203
▁മനുഷ്യരെ	-11.3203
▁രാജഭരണ	-11.3203
▁എതിരെ	-11.3203
▁പര്യായ	-11.3204
▁നിത്യേന	-11.3204
▁രോഗപ്രതിരോധ	-11.3204
▁വഹിച്ചിരുന്ന	-11.3208
▁നഗ്ന	-11.3211
▁സുബ്രഹ്മണ്യൻ	-11.3215
പ്രതിരോധ	-11.3217
സുന്ദര	-11.3219
▁കുടികൊള്ളുന്നു	-11.3223
▁ബില്ല	-11.3223
ഭഗവാന	-11.3233
▁വേർതിരിച്ചെടു	-11.3235
pha	-11.3238
tom	-11.3239
േക്കർ	-11.3242
▁ഏകാന്ത	-11.3244
▁പ്രവർത്തകർ	-11.3244
ിരിയ്ക്കുന്നത്	-11.3244
▁1913	-11.3248
▁വിവക്ഷ	-11.325
▁ഒട്ടും	-11.3258
▁ഭരണത്തിൻ	-11.3259
▁അവകാശപ്പെടുന്നു	-11.3259
▁ഇദ്ദേഹത്തിനു	-11.3261
▁തീവ്രവാദി	-11.3264
=38	-11.3265
േറ്റഡ്	-11.3267
aga	-11.3273
▁രക്താതിമർദ്ദ	-11.3275
▁ഫെഡറേഷൻ	-11.3275
▁ഉല്പന്ന	-11.3275
▁എഡിസൺ	-11.3275
▁ബ്രിട്ടണ	-11.3275
▁പ്രസിഡണ്ടായ	-11.3275
▁കാസനോവ	-11.3275
▁ഇതിനിടയിൽ	-11.3275
▁ഗുരുതരമായ	-11.3276
▁തുള്ളൽ	-11.3276
size	-11.3276
▁ശതമാനത്തോളം	-11.3276
▁ആയപ്പോഴേക്കും	-11.3278
▁സ്ഥാനപ്പേര	-11.3278
ബ്ലോ	-11.3278
▁ദേവന്മാര	-11.3279
▁പൂർണ്ണസംഖ്യ	-11.3279
atta	-11.3279
പ്രത്യക്ഷപ്പെട്ട	-11.3282
▁നിയമസഭാംഗ	-11.3282
വരികയും	-11.3284
ാസ്ഥി	-11.3288
▁1978-	-11.3288
men	-11.3292
▁ബേസിക്	-11.3294
▁മുമ്പു	-11.3298
▁ആശങ്ക	-11.3298
▁സ്ഥാപനങ്ങളും	-11.33
▁അയയ്ക്ക	-11.3302
▁ചോദിച്ചു	-11.3303
ബഹു	-11.3304
▁ചാർട്ട	-11.3308
▁നട്ട	-11.3309
▁സാധ്യതയുള്ള	-11.3313
▁മൊഹ	-11.3315
സാഹിബ്	-11.3317
▁തൈല	-11.3327
▁താല	-11.3327
▁ആർക്കി	-11.3331
▁കെട്ടിയാട	-11.3334
▁ശാസ്ത്രജ്ഞര	-11.3335
▁വർഷങ്ങളായി	-11.3335
▁കല്ലറ	-11.3336
▁ബൃഹ	-11.3337
▁പുലയ	-11.3341
ദ്ദി	-11.3342
▁ശുദ്ധമായ	-11.3343
ത്തിലേക്ക	-11.3344
▁കമ്മീഷന	-11.3345
▁കണ്ണുകൾ	-11.3345
▁വർഷത്തിനു	-11.3346
2008	-11.3346
ദ്വന്ദ്വ	-11.3347
▁പ്രസിഡൻസി	-11.3347
▁ഇബ്രാഹിം	-11.3347
▁പിളർപ്പ	-11.3347
സ്രഷ്ടാവ	-11.3347
▁പ്രാവീണ്യ	-11.3347
▁രജിസ്റ്റർ	-11.3347
▁സാധാരണഗതിയിൽ	-11.3347
▁വെറ്റില	-11.3347
▁നടുവിൽ	-11.3347
▁ദോസ്ത്	-11.3347
ങ്ങളിലൊന്നായി	-11.3347
▁അബ്ദുല്ല	-11.3347
equ	-11.3348
ഹൗസ	-11.3348
▁ഷേർ	-11.3348
▁കാബൂളിൽ	-11.3348
▁ചർച്ചകൾ	-11.3348
▁1975-	-11.3349
▁അഫ്ഗാനിസ്താന്റെ	-11.3349
▁പണ്ഡിതന്മാര	-11.3349
▁പൊലീസ	-11.335
തിലുപരി	-11.335
▁ഒന്നാമത്തെ	-11.3351
▁ജീവിതരീതി	-11.3353
ൻ്റ്	-11.3355
▁അയിത്ത	-11.3356
▁ക്യാപ്റ്റന	-11.3357
▁മൈന	-11.3357
▁കാലഘട്ടത്തിലാണ്	-11.3358
പരിവർത്തന	-11.3366
കളായിരുന്ന	-11.3368
സഹജമായ	-11.3368
ഫെയർ	-11.337
▁യുവതി	-11.337
ത്തിലുമുള്ള	-11.337
▁നിന്നിരുന്ന	-11.337
പ്രകാരമുള്ള	-11.3372
പ്രമാണ	-11.3374
ple	-11.3375
▁മണല	-11.3376
വേശ	-11.3378
▁ഗ്രാമത്തിലാണ്	-11.3378
▁അടുത്തകാലത്ത	-11.3379
▁എൻഡോ	-11.338
▁ഇദ്ദേഹമാണ്	-11.3381
▁ടൈറ്റ	-11.3386
▁കോഴിക്കോട	-11.339
▁1985-	-11.339
▁പതിച്ച	-11.3391
▁1957-	-11.3391
▁ഉപകരണമാണ്	-11.3392
▁ബോർഡിന്റെ	-11.3403
▁വിജയിക്ക	-11.3409
▁കരുതപ്പെടുന്നത്	-11.3415
രാവണ	-11.3416
ുന്നതിനാണ്	-11.3416
മലിനീകരണ	-11.3416
ക്കണക്ക	-11.3418
she	-11.3419
ഭവിച്ച	-11.342
▁കാലഗണനാരീതി	-11.342
▁പിളർന്ന	-11.342
▁രുദ്രാക്ഷ	-11.342
▁അരിസോണ	-11.342
▁കർശന	-11.342
▁ജാനകി	-11.342
▁ഡിസൈൻ	-11.342
▁വമ്പിച്ച	-11.342
▁ചതുപ്പു	-11.342
കളൊന്നും	-11.342
▁ഇക്കാലത്താണ്	-11.342
▁സംഘടിത	-11.3421
▁ശ്യാമ	-11.3421
▁രജപുത്ര	-11.3421
▁ഹെൻറി	-11.3422
▁ലാർവ	-11.3422
▁ഖുർആനിലെ	-11.3424
▁മൂലധന	-11.3424
▁ശിഷ്ട	-11.3425
▁ആകൃതിയിലുള്ള	-11.3426
▁മോസ്കോ	-11.3427
▁വണ്ടി	-11.3432
▁ഭൂമിശാസ്ത്ര	-11.3433
▁വീശുന്ന	-11.3433
▁തിന്മ	-11.3436
പരിശോധന	-11.3438
▁വിരിയ	-11.3439
▁ഒന്നിന്	-11.3439
▁കീഴിലായി	-11.3439
മേരി	-11.3447
ന്റൈൻ	-11.3451
▁സാഹ	-11.3456
▁ശാസ്താ	-11.3464
▁പോത്ത	-11.3465
▁മധ്യഭാഗത്ത	-11.3465
കളിലോ	-11.3476
സാദ	-11.3477
▁സ്ഥാപിതമായത്	-11.348
▁മഹാനായ	-11.3482
▁ഫ്ലാ	-11.3485
പൊളി	-11.3486
ക്കിടയില	-11.3488
▁അവലംബിച്ച	-11.3489
▁ആവശ്യപ്പെട	-11.3493
വിമുക്ത	-11.3493
▁കാബൂൾ	-11.3494
▁വൈവിധ്യമാർന്ന	-11.3494
▁ജൂനിയർ	-11.3494
▁നിലമ്പൂർ	-11.3494
▁ഇന്റർഫേസ	-11.3494
▁വഷള	-11.3494
▁പകർപ്പവകാശ	-11.3494
▁വഴിപാട്	-11.3494
▁പ്രൊഫഷണൽ	-11.3494
▁സൂക്തങ്ങൾ	-11.3494
christ	-11.3495
fu	-11.3496
▁സമാധി	-11.3499
▁ഒഴികെയുള്ള	-11.3501
ദർശി	-11.3501
▁അല്ലാഹുവ	-11.3502
▁രണ്ടാമന	-11.3503
മോൺ	-11.3504
▁കോമഡി	-11.3504
▁ഉരഗ	-11.3506
▁ഇതുമൂലം	-11.351
▁പ്രതിരോധിക്ക	-11.3511
ശക്ത	-11.3511
▁comp	-11.3513
ഔ	-11.3513
ഓഗസ്റ്റ്	-11.3513
▁ബ്ലാ	-11.3516
പ്രകാരമാണ്	-11.3519
▁ചൂടാക്ക	-11.3522
▁കോൺഗ്രസ്സിന്റെ	-11.3522
ിനോട	-11.3523
cre	-11.3527
▁ശാഖകള	-11.3528
▁ചെയ്യാന	-11.3529
▁കുടിക്ക	-11.3536
2000	-11.3537
▁ചെയ്യാറുണ്ട്	-11.3538
▁ധരിക്കുന്ന	-11.3539
▁ഇറക്ക	-11.3545
▁പിന്തുടർച്ച	-11.3546
▁വിപണിയിൽ	-11.3547
▁അസുഖങ്ങൾ	-11.3549
tical	-11.3549
തുലന	-11.3551
പ്പെടാത്ത	-11.3555
ന്നപോലെ	-11.3556
ക്കേട	-11.3559
▁പഠിപ്പിച്ചു	-11.3562
▁1956-	-11.3563
▁മത്സരിക്ക	-11.3564
ev	-11.3566
വല്ലി	-11.3567
coordinates	-11.3568
▁ഒട്ടുമിക്ക	-11.3568
▁കശുവണ്ടി	-11.3568
▁പരമോന്നത	-11.3568
▁പണിതീർത്ത	-11.3568
▁രഘു	-11.3568
▁സമ്പാദിച്ച	-11.3568
▁വിക്ഷേപണ	-11.3568
ായിത്തീർന്ന	-11.3568
▁തിരുവമ്പാടി	-11.3568
ുമ്പോഴേക്കും	-11.3568
▁ഗായിക	-11.3568
▁പട്ടിണി	-11.357
▁താലിബാന	-11.357
▁അച്ഛന്റെ	-11.3572
ഗുരുവായ	-11.3573
വാടി	-11.3575
▁അനുശാസ	-11.3576
▁വലുതും	-11.3578
▁മുൻകൈ	-11.3579
▁വിടവ	-11.358
▁കഴിയാതെ	-11.3581
▁നായകനായ	-11.3582
▁സ്രവ	-11.3584
മത്സ്യ	-11.3588
യെപ്പോലെ	-11.3589
മാറ്റിക്	-11.3589
▁നോവലുകൾ	-11.3592
▁ബാരി	-11.3595
▁പരുക്ക	-11.3597
▁നായ്ക്ക	-11.3599
▁തുടങ്ങിയവരുടെ	-11.3603
ളുടെ	-11.3606
യുളള	-11.3607
▁തൊഴിലാളികളുടെ	-11.3608
▁ഫ്രാങ്ക	-11.3617
ാവസാന	-11.3617
▁ചേർന്നുള്ള	-11.362
▁ചെടികൾ	-11.3621
ുന്നതിനിടയിൽ	-11.3624
▁ഇബ്ൻ	-11.3624
▁ഓർമ	-11.3624
കവച	-11.3626
മണിയോടെ	-11.3627
ത്തിനടുത്തുള്ള	-11.3631
▁ഇസ്രയേൽ	-11.3642
▁നിശ്ശബ്ദ	-11.3642
▁നെപോളിയൻ	-11.3642
ൊട്ടാകെ	-11.3642
▁പ്രാർഥന	-11.3643
▁എങ്കിൽ	-11.3643
▁വാസ്തുശില്പ	-11.3643
ാവരണ	-11.3643
▁ഭസ്മ	-11.3644
▁നിഴല	-11.3645
▁പിന്തുണയോടെ	-11.3648
thur	-11.3649
▁ചെയ്യുന്നതിന്	-11.365
▁വിജയകരമായ	-11.3651
▁നിഷേധിച്ച	-11.3651
▁ഗുജറാത്തിലെ	-11.3653
▁ആസ്ഥാനമായി	-11.3654
▁ബർമ്മ	-11.3656
ിനെക്കുറിച്ചുള്ള	-11.3659
▁ഇസ്ലാമ	-11.3659
ഭിത്തി	-11.3663
ശ്രേണി	-11.3664
കൊട്ടാര	-11.3664
ലീല	-11.3666
▁തലവൻ	-11.3669
sam	-11.3669
മഹർഷി	-11.3671
▁ഫണ്ട	-11.3671
▁മണ്ഡപത്ത	-11.3672
▁എഴുപത	-11.3672
▁ഫിഫ	-11.3672
▁മകനാണ്	-11.3673
നാളിൽ	-11.3676
0050	-11.3686
▁വാദിച്ച	-11.3687
▁കാട്ടിയ	-11.3692
▁എൺപത	-11.3699
▁വേണാട്	-11.37
▁സേവനമനുഷ്ഠിച്ച	-11.3701
▁സ്വീകരണ	-11.3702
▁ഭാവിയിൽ	-11.3703
▁പരിഗണിക്കപ്പെട	-11.3703
ദ്വൈത	-11.3704
▁ഡെൽഹിയിലെ	-11.3709
വുമില്ല	-11.3709
▁നേതാവും	-11.3712
മധുരം	-11.3716
▁കംപ്യൂട്ടർ	-11.3717
▁താത്കാലിക	-11.3717
▁യജമാന	-11.3717
▁ഗോതമ്പ്	-11.3717
▁തെക്കോട്ട്	-11.3718
▁ഉപദ്രവ	-11.3718
▁ഋണ	-11.3718
▁ക്ഷണിച്ചു	-11.3718
▁അമ്പത	-11.3718
▁നൈട്രജൻ	-11.3718
▁ജയറാം	-11.372
▁വ്യക്തിഗത	-11.372
▁പരാമർശമുണ്ട്	-11.3725
▁ഭൂവിഭാഗ	-11.3725
േന്ദ്രിയ	-11.3725
▁തുരത്ത	-11.3726
▁വസ്ത്രങ്ങൾ	-11.3726
▁ഒരിടത്ത	-11.3728
ജ്വാല	-11.3729
▁രക്ഷപെട	-11.3733
mor	-11.3733
▁കലാകാരന്മാര	-11.3734
ler	-11.3737
▁പ്രസ്സ	-11.3737
▁അധികാരികൾ	-11.3739
▁ടീമുകള	-11.374
▁സ്ഥിരമായ	-11.3749
▁പുത്രന്മാര	-11.3753
▁ബിന്ദുവ	-11.3754
ആര്യ	-11.3758
ക്കിടക്കുന്ന	-11.3759
പഠി	-11.3759
tics	-11.376
കോഡ	-11.3762
മീഡിയ	-11.3767
▁ശിഷ്യന്മാര	-11.3768
avi	-11.3773
ിരിക്കാൻ	-11.3774
▁വൃഷ	-11.3775
▁കറങ്ങ	-11.3776
▁1968-	-11.3779
കൊടുക്കാൻ	-11.378
▁അഫ്ഗാനിസ്താന	-11.378
യിലേയ്ക്കു	-11.378
സമുദ്ര	-11.3781
east	-11.3785
▁ഗോപാലകൃഷ്ണ	-11.3791
▁നിയമിതനായി	-11.3791
▁പരാജയപ്പെടുത്ത	-11.3793
▁ആദിപരാശക്തി	-11.3793
▁ഇക്കാരണത്താൽ	-11.3793
▁ഏകാദശി	-11.3793
▁അസ്വസ്ഥ	-11.3793
▁പ്രാബല്യ	-11.3793
▁കമ്പ്യൂട്ടിംഗ	-11.3793
▁വത്തിക്കാൻ	-11.3793
▁സന്തുഷ്ട	-11.3793
▁വരൾച്ച	-11.3793
▁1972-	-11.3793
▁നിലനിൽപ്പ	-11.3793
▁സ്ഥിരത	-11.3794
▁ബോഡി	-11.3794
▁ഗണേശ	-11.3795
▁ഔഷധഗുണ	-11.3796
▁കളിമണ്ണ	-11.3797
▁മഹാവിഷ്ണുവിന്റെ	-11.3797
ത്തിനനുസരിച്ച്	-11.3798
ight	-11.3804
ഗ്ലൂ	-11.3808
ത്തൊഴിലാളി	-11.3814
▁വില്ലേജുകൾ	-11.3816
▁മകളായി	-11.3818
ജൂലൈ	-11.3819
▁1981-	-11.3821
▁ജീവനക്കാര	-11.3821
പ്പുലി	-11.3822
സന്ധി	-11.3823
▁ലഭ്യ	-11.3823
▁സൈന	-11.3825
വിശ്വാസികള	-11.3826
▁ഉൽഭവ	-11.3827
▁കുടുംബത്തിലാണ്	-11.3828
▁ഇതിനുശേഷം	-11.383
▁നായര	-11.3831
▁വിഭാഗത്തിലെ	-11.3831
കളഞ്ഞു	-11.3832
▁കോർട്ട	-11.384
ക്കെതിരെയുള്ള	-11.3841
hel	-11.3842
▁ബന്ധമുള്ള	-11.3843
ഹോമ	-11.3847
▁നേട്ടങ്ങൾ	-11.3849
way	-11.3849
▁മലയാളഭാഷ	-11.385
വല്ലഭ	-11.3853
▁കല്ലുകൾ	-11.3853
phy	-11.3863
▁കാമറ	-11.3867
shan	-11.3867
▁കഴിഞ്ഞിരുന്നു	-11.3869
▁യെരുശലേമ	-11.387
▁കംപ്യൂട്ടറ	-11.387
▁ഡോക്യുമെന്ററി	-11.387
▁വിവേകാനന്ദ	-11.387
▁പൊട്ടിത്തെറി	-11.387
▁മോസില്ല	-11.387
▁ഒടുവില	-11.387
▁ഇടത്തരം	-11.387
▁ടാഗോർ	-11.387
ക്ഷോഭ	-11.3874
▁അവസാദ	-11.3874
ിരിക്കുകയാണ്	-11.3875
▁മഞ്ഞനിറ	-11.3875
▁കൊല്ലവർഷം	-11.3875
▁ചിറ്റൂർ	-11.3876
wn	-11.3876
▁മുരളി	-11.3877
▁നിരസിച്ച	-11.3879
▁വാട്ടർ	-11.388
ങ്ങളാണെന്ന	-11.388
▁സാക്ഷരതാ	-11.388
നഗറ	-11.3882
=85	-11.3882
▁ഇതുവഴി	-11.3882
▁ജീവകം	-11.3883
▁പാഷ	-11.3883
▁പതിനൊന്നാം	-11.3883
▁ഇടപാട	-11.3888
▁സ്പോ	-11.3891
▁മലിന	-11.3891
▁താഴെപ്പറയുന്നവയ	-11.3892
▁കിംഗ്സ്	-11.3893
2%	-11.3894
പ്രതിനിധി	-11.3895
▁ചിറകുകള	-11.3895
സാമ്പത്തിക	-11.3895
വിനോദ	-11.3896
▁കൗരവ	-11.3898
▁പ്രവാസി	-11.3899
യിലെത്തുന്ന	-11.3903
▁ഒൻപതു	-11.3903
▁നിർമ്മിത	-11.3905
▁മാർക്സ്	-11.3906
ഭംഗ	-11.3907
▁1967-	-11.3909
ോളജിക്കൽ	-11.391
ഭംഗി	-11.3911
▁തൈകൾ	-11.3912
▁പ്ലാറ്റ	-11.3915
▁പന്ത്രണ്ട	-11.3915
▁നാലോ	-11.3916
▁ചോറ	-11.3917
▁അംഗങ്ങളെ	-11.3919
▁ഒഴിവ	-11.392
▁മാലിക്	-11.392
lon	-11.3924
▁രേഖകളിൽ	-11.3925
▁ഫിലോ	-11.393
▁pri	-11.3932
മാർച്ച്	-11.3932
▁കേന്ദ്രീകരിക്ക	-11.3933
ഹത്യ	-11.3934
വിവരണ	-11.3937
പോൾ	-11.3939
▁വ്യാഖ്യാനിക്ക	-11.394
ിരുന്നുവെന്നും	-11.3942
ാദ്രി	-11.3943
▁മക്കയിലെ	-11.3944
▁ശ്രദ്ധിച്ച	-11.3946
▁പ്രായപൂർത്തി	-11.3946
▁ഇൻഷുറൻസ്	-11.3946
▁പര്യവേഷണ	-11.3946
▁പീപ്പിൾസ്	-11.3946
▁പ്രത്യുത്പാദന	-11.3946
▁യാഥാർത്ഥ്യ	-11.3946
▁വാല്മീകി	-11.3946
▁പ്രവചിക്ക	-11.3946
▁ബഹിഷ്	-11.3947
▁പുകഴ്ത്ത	-11.3947
▁മാലാഖ	-11.3947
▁അനുഷ്ഠിച്ച	-11.3947
▁വ്യായാമ	-11.3947
▁വർദ്ധിപ്പിച്ച	-11.3947
▁മുരിങ്ങ	-11.3947
amba	-11.3947
▁വീക്ഷിക്ക	-11.3948
▁എസ്റ്റേറ്റ	-11.3948
▁വാനര	-11.3948
▁ചിത്തിര	-11.3948
ശിഖര	-11.3948
▁രസാദി	-11.395
▁വെങ്കട	-11.395
▁പരിഷ്കാരങ്ങൾ	-11.395
▁കുണ്ട	-11.3953
zha	-11.3953
▁തൊപ്പി	-11.3954
▁സീതയെ	-11.3963
ദണ്ഡ	-11.3965
ത്തിനകം	-11.3969
▁പുതിയനിയമ	-11.3973
▁വിരിഞ്ഞ	-11.3973
▁സമ്മതിച്ചു	-11.3977
▁സാധാരണക്കാര	-11.3978
ണമെന്നില്ല	-11.3978
▁മഞ്ഞൾ	-11.3981
▁അസാധാരണമായ	-11.3981
▁ആഗ്രഹിക്കുന്ന	-11.3983
▁കഥാപാത്രത്തെ	-11.3984
യാണെങ്കിൽ	-11.3986
മാകുമ്പോൾ	-11.3988
▁വിധവ	-11.399
ഗാമി	-11.3996
▁1982-	-11.3997
▁ബാറ്റ്	-11.3998
▁തുടരുകയും	-11.3999
ഫ്രോ	-11.4
▁കൊല്ലപ്പെട	-11.4007
ആദ്യ	-11.4008
▁അച്ചടിക്ക	-11.4008
▁മകനെ	-11.4012
▁ദേവന്മാർ	-11.4013
▁ഗ്രെ	-11.4014
▁ജൈനമത	-11.4017
ling	-11.4017
▁ട്രാൻസ	-11.4021
▁ക്ഷേത്രങ്ങളിലും	-11.4021
ii	-11.4024
▁നാളികേര	-11.4024
▁പികാസോ	-11.4024
▁കൂടിക്കാഴ്ച	-11.4024
▁വൈകാതെ	-11.4024
▁റദ്ദാക്ക	-11.4024
▁വിപാകം	-11.4024
▁ഉത്പന്നങ്ങൾ	-11.4024
▁മേൽശാന്തി	-11.4025
▁ഔഷധസസ്യ	-11.4026
▁ജീവജാലങ്ങള	-11.4026
പ്പാദന	-11.4029
▁വൃത്തിയാക്ക	-11.4029
▁സഹായകമായി	-11.4031
▁നാരങ്ങ	-11.4035
▁വ്യക്തികളുടെ	-11.4036
▁1915	-11.4038
▁കട്ടിയുള്ള	-11.4038
▁താടി	-11.4043
▁ജീൻ	-11.4043
▁ബംഗാളിലെ	-11.4048
iya	-11.4049
▁പരാമർശങ്ങൾ	-11.4051
സ്കൂൾ	-11.4051
പ്രസംഗ	-11.4052
ചക്രവർത്തി	-11.4053
സഞ്ചാര	-11.4054
ക്ലാസ	-11.4054
▁മുകളിലുള്ള	-11.4056
▁വടക്കുള്ള	-11.4056
▁പറന്നു	-11.4057
cro	-11.4059
▁അവസാനിക്ക	-11.4061
▁കുഴിച്ച	-11.4065
▁രതി	-11.4069
യ്ക്കടുത്ത	-11.4078
പ്പറമ്പ്	-11.4088
▁സർവകലാശാലയിലെ	-11.4089
sar	-11.4092
ദാരി	-11.4093
ബൊ	-11.4097
▁തയ്യാറായി	-11.4098
കണിക	-11.4102
▁കാല്പനിക	-11.4102
▁ദുബായ്	-11.4102
▁പൂന്തോട്ട	-11.4102
▁മംഗലാപുരം	-11.4102
▁മേൽക്കോയ്മ	-11.4102
▁ലബോറട്ടറി	-11.4102
▁എന്നിവയാണവ	-11.4102
യാഗ	-11.4102
▁ഇന്നിംഗ്സ	-11.4103
▁ഗൗരവ	-11.4103
▁നെഹ്റു	-11.4104
▁പത്മശ്രീ	-11.4104
ൊഴുക്ക	-11.4104
▁ആൽബർട്ട്	-11.4104
▁സഞ്ജയ	-11.4104
▁കേണൽ	-11.4105
▁പന്തളം	-11.4105
ങ്ങളെക്കുറിച്ചും	-11.4107
കളാക്കി	-11.4107
ബന്ധന	-11.4109
▁പ്രചാരത്തിലുള്ള	-11.4114
▁ദൈർഘ്യ	-11.4115
ഷധ	-11.412
ക്കുളങ്ങര	-11.4125
▁ആശ്വാസ	-11.4127
പൊട്ട	-11.4131
ജനുവരി	-11.4131
നിശ്ചിത	-11.4132
▁വേർതിരിക്കുന്ന	-11.4132
▁ധനിക	-11.4133
ഭാര്യ	-11.4135
▁സ്തന	-11.4135
gram	-11.4139
▁ഉദാത്ത	-11.4139
▁നെറ്റ്വർക്ക	-11.4151
▁പറഞ്ഞിട്ടുണ്ട്	-11.4153
വീട്ടിൽ	-11.4157
ചാല	-11.4157
▁പ്രതിപ്രവർത്തന	-11.4163
▁മുതലാണ്	-11.4164
ുന്നതില	-11.4166
▁ഉയർത്തിയ	-11.417
▁റൊമാ	-11.417
അല്ലാഹു	-11.4173
ശിഷ്യ	-11.4176
▁സമ്പന്നമായ	-11.4177
ഞാൻ	-11.4178
▁തൃപ്പ	-11.4179
▁അഭിനേത്രി	-11.4181
▁നീഹാരിക	-11.4181
▁പൗലോസിന്റെ	-11.4181
▁വാർദ്ധക്യ	-11.4181
▁സെന്റിമീറ്റർ	-11.4181
▁സ്പെഷ്യൽ	-11.4181
▁ഘോഷയാത്ര	-11.4181
▁ശ്വേത	-11.4181
▁വീണ്ടെടുക്ക	-11.4181
▁അനുസരിക്ക	-11.4181
▁നിറവേറ്റ	-11.4181
▁ഏറ്റവുമ	-11.4182
▁അവതരിച്ച	-11.4182
▁ഡാമ	-11.4182
▁ക്രിസ്തുവിനു	-11.4182
▁പകർപ്പ	-11.4182
▁വിൽപ്പന	-11.4182
kulam	-11.4182
▁1920-	-11.4184
[...]
