<unk>	0
<s>	0
</s>	0
▁	-2.94857
၊	-4.27736
="	-4.31108
.	-4.45787
"	-4.53334
)	-4.734
ကို	-4.74402
▁(	-4.93075
သည်	-4.93885
doc	-4.94972
>	-4.9532
နှင့်	-5.06989
တွင်	-5.16654
များ	-5.32593
d	-5.37951
၏	-5.40559
သော	-5.44056
▁အ	-5.46165
က	-5.48812
/	-5.52688
အ	-5.56147
မှ	-5.59148
my	-5.60886
wiki	-5.62316
org	-5.63953
▁<	-5.64249
?	-5.64369
://	-5.64412
curi	-5.6444
https	-5.64511
wikipedia	-5.64511
▁title	-5.64569
▁url	-5.64607
▁id	-5.64621
▁cate	-5.64626
gories	-5.64646
▁</	-5.65024
မ	-5.73246
▁##	-5.7412
၍	-5.75654
မှာ	-5.81124
ကြီး	-5.89306
သည်။	-5.93737
်	-5.95288
ခဲ့သည်။	-5.95798
များကို	-6.03376
-	-6.03732
▁မ	-6.09195
ရွာ၊	-6.15026
ရ	-6.21599
▁ဖြစ်သည်။	-6.21765
ခြင်း	-6.21949
၌	-6.23346
သည့်	-6.25876
ကာ	-6.27188
ပြီး	-6.27243
ရှိ	-6.27287
ရန်	-6.28186
သို့	-6.29419
▁ထို	-6.29974
ပင်	-6.30984
ရာ	-6.31342
။	-6.32978
(	-6.33941
မှု	-6.34791
ဖြင့်	-6.44738
အား	-6.45108
သာ	-6.51449
တော်	-6.52131
လည်း	-6.53313
;	-6.57502
တ	-6.61457
s	-6.6151
လာ	-6.61738
ပါ	-6.61831
,	-6.66316
ရေး	-6.66471
▁သည်	-6.70234
တို့	-6.70546
&	-6.71364
ဖြစ်သည်။	-6.71848
▁နှင့်	-6.72744
သူ	-6.7287
၁	-6.73109
စ	-6.73163
▁ခုနှစ်	-6.74468
|	-6.75412
ဟု	-6.76354
အဖြစ်	-6.76873
လ	-6.79476
▁ဦး	-6.84603
ဝ	-6.85172
မြို့	-6.85374
=	-6.85791
▁ခုနှစ်တွင်	-6.86117
သ	-6.86609
နေ	-6.88883
း	-6.93486
ကြသည်။	-6.95599
:	-6.96048
▁ရေ	-6.97158
▁mmr	-7.00316
en	-7.00402
ပ	-7.02125
နိုင်	-7.02179
lt	-7.02668
ရွာ	-7.02989
အောင်	-7.03141
တာ	-7.03979
သား	-7.04919
ပေး	-7.06286
ဦး	-7.06361
သွား	-7.07301
ထား	-7.07363
gt	-7.08466
့	-7.08643
▁က	-7.0877
လျှင်	-7.09127
▁-	-7.10453
များသည်	-7.11987
များတွင်	-7.12688
ဝင်	-7.1685
ဖြစ်	-7.18095
ကား	-7.18853
စွာ	-7.19025
၏။	-7.19073
ချောင်း	-7.1948
▁လူ	-7.21272
▁တွင်	-7.22475
မင်း	-7.23051
တောင်	-7.23628
ပုံ	-7.24058
▁ကို	-7.25684
တင်	-7.26601
နိုင်ငံ	-7.26624
▁ဤ	-7.27449
▁ရက်။	-7.27589
▁တ	-7.2918
မျိုး	-7.2939
နှစ်	-7.30282
နီ	-7.30402
စား	-7.30456
တစ်	-7.3078
ကျ	-7.30991
ခံ	-7.31148
န	-7.31371
ရေ	-7.31448
▁နှစ်	-7.32809
များနှင့်	-7.32974
တို့ကို	-7.33022
ပေါင်း	-7.33068
လိုက်	-7.33281
လုံး	-7.33506
အတွက်	-7.33656
လို	-7.34633
ယူ	-7.34781
ကြ	-7.34816
ခ	-7.35715
နာ	-7.35748
လေး	-7.3681
စ်	-7.3707
စာ	-7.3717
တို့သည်	-7.37264
လက်	-7.37373
▁the	-7.38152
ပြု	-7.38467
ဒ	-7.38865
နည်း	-7.39242
စု	-7.39869
ခဲ့ပြီး	-7.40177
▁တစ်	-7.40693
▁ဖြစ်	-7.42326
▁စစ်	-7.43498
▁မြန်မာ	-7.43746
ခြင်း၊	-7.43947
ဂ	-7.45482
▁၁၈	-7.45551
ထွက်	-7.4589
▁အခြား	-7.47319
ရီ	-7.47454
ခဲ့	-7.47544
တို့၏	-7.48208
တန်း	-7.48408
လေသည်။	-7.49476
▁ရှိ	-7.50368
သဖြင့်	-7.50987
လီ	-7.51346
ကြောင်း	-7.51637
လေ	-7.52502
တိုက်	-7.52644
စေ	-7.53094
▁မြန်မာနိုင်ငံ	-7.53202
အတွင်း	-7.53528
ချက်	-7.53983
ကုန်း	-7.5413
မာ	-7.54367
▁ရှိသည်။	-7.54652
ဆုံး	-7.55389
ကောင်း	-7.55533
များ၊	-7.55625
အရ	-7.55911
လျက်	-7.56407
▁"	-7.57074
ဘ	-7.57643
ချ	-7.57734
ရှင်	-7.57842
▁ရွှေ	-7.57915
၂	-7.57983
'	-7.58316
ရှိသည်။	-7.58666
ကျော်	-7.59635
ထားသော	-7.59915
10	-7.60023
ပြ	-7.60348
သစ်	-7.60473
မိ	-7.60525
စစ်	-7.60808
တစ်ခု	-7.61569
လမ်း	-7.61956
နယ်	-7.61956
လှ	-7.62667
များမှာ	-7.62786
ရိုး	-7.62811
ခဲ့သော	-7.63165
ကွင်း	-7.63842
ဆို	-7.64015
နိုင်သည်။	-7.64346
ရင်း	-7.64486
▁ယင်း	-7.64501
”	-7.6454
တိုင်း	-7.64578
စီ	-7.64588
▁စ	-7.64621
မျှ	-7.64983
တော့	-7.65029
t	-7.66095
ဆောင်	-7.66241
ဘဲ	-7.66336
ထားသည်။	-7.66394
သုံး	-7.66654
ဝါ	-7.67562
▁ဟု	-7.68053
ာ	-7.68667
▁နိုင်ငံ	-7.68858
▁လက်	-7.69272
တဲ့	-7.69273
▁“	-7.69279
ကျောင်း	-7.69391
▁စတင်	-7.70751
▁တောင်	-7.71017
ရသည်။	-7.71076
စဉ်	-7.71573
ဘူတာ	-7.71622
ဆိုင်ရာ	-7.72005
ငယ်	-7.72094
in	-7.72127
c	-7.72451
မူ	-7.72493
▁&	-7.73158
▁သို့မဟုတ်	-7.73901
အထိ	-7.7412
e	-7.74134
ထက်	-7.74174
ခေါ်	-7.74344
လုပ်	-7.74517
n	-7.74574
ပြင်	-7.74879
တွေ	-7.75391
▁၂	-7.75621
လ်	-7.75763
y	-7.7606
ရက်	-7.7609
ဒေသ	-7.764
လူ	-7.76549
၁၉	-7.77104
ကြောင့်	-7.77339
၃	-7.77609
▁ပ	-7.77867
တက်	-7.78176
3"	-7.78233
4"	-7.78533
ကျွန်း	-7.78639
▁of	-7.78997
ယ	-7.79003
▁၁	-7.79226
▁သို့သော်	-7.79682
တော	-7.7995
ခဲ့ကြသည်။	-7.80086
ကုန်	-7.80367
တို	-7.80412
a	-7.80443
ပြန်	-7.80805
▁နေ	-7.8184
ချင်း	-7.82064
ဖြစ်ပြီး	-7.82262
8"	-7.82401
▁၃	-7.82504
အားဖြင့်	-7.82693
တပ်	-7.82741
သောအခါ	-7.83274
▁အသုံးပြု	-7.83528
5"	-7.84043
ခန့်	-7.84189
6"	-7.84265
▁ကျောက်	-7.844
ရပ်	-7.84557
▁အဖြစ်	-7.84711
ပေါက်	-7.84801
2"	-7.84894
တတ်	-7.85108
မြေ	-7.85783
များ၏	-7.85866
ယာ	-7.86143
▁ပြုလုပ်	-7.86376
ဖြစ်သော	-7.8666
9"	-7.86695
ခွဲ	-7.86804
မြောက်	-7.87068
▁သ	-7.87107
▁အမေရိကန်	-7.8744
▁ရက်နေ့တွင်	-7.87639
ပိုင်း	-7.87663
1"	-7.87745
7"	-7.87932
သော်လည်း	-7.88159
ပြီးနောက်	-7.88469
တန်	-7.88549
တိုင်	-7.89045
▁၁၂	-7.89075
ပန်း	-7.89236
ဖြူ	-7.89795
ရာတွင်	-7.90574
မည်	-7.90681
မြစ်	-7.9096
ဘုရား	-7.92259
▁မြေ	-7.92341
ရောက်	-7.92567
▁ပါဝင်	-7.92569
ပြည်	-7.92828
▁အလွန်	-7.93386
▁မင်း	-7.93511
ကလေး	-7.93708
သံ	-7.94054
ကုန်းရွာ၊	-7.94342
မီ	-7.94432
ဖ	-7.94612
တူ	-7.94616
▁ရက်	-7.94951
ကြား	-7.95452
0"	-7.95593
ဆေး	-7.95748
တော်မူ	-7.96494
ပြီးလျှင်	-7.96655
တည်း	-7.9784
၄	-7.97867
ပါး	-7.97868
တွင်း	-7.97932
တည်	-7.98073
▁နောက်	-7.98514
ဆက်	-7.98628
ဟာ	-7.9952
▁ပြန်လည်	-7.9963
သည်ဟု	-7.99763
ပေ	-7.99773
ဒီ	-7.9985
▁စာ	-8.00374
▁အသက်	-8.01172
မှုများ	-8.01739
ပေါ်	-8.02219
ပွဲ	-8.02234
;/	-8.02639
ကန်	-8.02785
ချုပ်	-8.02844
▁၄	-8.03219
ခွင့်	-8.03305
▁သူ၏	-8.03459
▁ခုနှစ်၊	-8.0377
အဖွဲ့	-8.03831
ဆင်	-8.03861
r	-8.03883
o	-8.03948
တရား	-8.03989
လုပ်ငန်း	-8.04128
နေသော	-8.04537
▁ကျောင်း	-8.04739
သီး	-8.04844
▁အစိုးရ	-8.04878
ထ	-8.0504
0	-8.05522
▁မှ	-8.05603
▁သုံး	-8.05702
ရည်	-8.05972
▁ဆောင်ရွက်	-8.05974
▁'	-8.06034
ဘက်	-8.06062
စက်	-8.06261
ထုတ်	-8.06273
မြို့နယ်	-8.06599
▁ရ	-8.07273
▁ဒုတိယ	-8.07405
ဝန်	-8.07454
နဲ့	-8.07931
▁စိတ်	-8.0796
၅	-8.08474
စိတ်	-8.08807
m	-8.09389
ရင်	-8.09505
ပဲ	-8.09733
▁ဆို	-8.09761
များက	-8.09954
နား	-8.10228
▁မဟာ	-8.10264
▁ငါး	-8.10393
မြို့တွင်	-8.10524
သိ	-8.10598
ing	-8.11003
ရောင်	-8.11078
ပညာ	-8.11263
al	-8.11531
ကြာ	-8.11533
▁ရေးသား	-8.11737
ဇ	-8.11752
မြင့်	-8.12024
b	-8.121
▁အာ	-8.12154
▁ward	-8.1221
ံ	-8.12306
လူမျိုး	-8.12959
▁ခု	-8.13485
ခေတ်	-8.13612
le	-8.14027
ရွှေ	-8.14046
ဖြစ်၍	-8.14086
ဒါ	-8.14309
သော်	-8.14511
သေး	-8.14797
▁၅	-8.14874
ရှိသော	-8.15462
ပိုင်	-8.15725
ရှည်	-8.15769
▁အမှတ်	-8.15806
▁a	-8.16001
▁၏	-8.16394
▁လေ	-8.1709
▁အမျိုးသား	-8.1738
ဟ	-8.17449
မှုကို	-8.17593
ခဲ့လေသည်။	-8.17715
▁သံ	-8.17762
သေ	-8.18005
ကိုလည်း	-8.18245
န်	-8.18341
တီ	-8.18656
▁အဓိက	-8.18753
▁၁၇	-8.18777
▁ပထမ	-8.19092
f	-8.19494
▁ဂ	-8.19745
ခုနှစ်	-8.20164
▁in	-8.21162
မ်	-8.21297
ဆ	-8.21534
ဆီ	-8.21574
နက်	-8.21777
l	-8.2192
▁သည်။	-8.22008
များဖြင့်	-8.22185
တိ	-8.22269
ခရိုင်	-8.22272
သောကြောင့်	-8.22334
▁မီး	-8.22761
▁ပေ	-8.22812
ရုံ	-8.22825
ချိန်	-8.22878
လဲ	-8.2325
▁ထို့နောက်	-8.23271
ဗ	-8.2347
▁−	-8.235
ဟူ၍	-8.2365
▁စီးပွားရေး	-8.23886
စနစ်	-8.23924
ဘဝ	-8.24076
p	-8.24123
▁၁၉	-8.24183
▁လ	-8.24304
▁ဘုရား	-8.24657
ပါက	-8.24768
▁သိ	-8.24919
ငွေ	-8.24946
k	-8.25067
▁၎င်း	-8.25124
▁နေရာ	-8.2542
▁ဘ	-8.25835
▁s	-8.25843
i	-8.25878
▁မိမိ	-8.26149
ကူး	-8.26223
ရို	-8.26285
ရစ်	-8.2636
ကျမ်း	-8.26406
ရောဂါ	-8.26848
▁နိုင်ငံရေး	-8.26879
▁မိုး	-8.27071
နေ့	-8.27103
ပြုလုပ်	-8.27196
▁၁၃	-8.27444
ဓာတ်	-8.27855
ပြား	-8.2787
ဌာန	-8.2807
▁လေး	-8.28259
▁ပန်း	-8.28356
▁ကျော်	-8.28694
မှူး	-8.288
ဘုရင်	-8.28849
ခြင်းကို	-8.29088
▁တည်ရှိသည်။	-8.29119
သင့်	-8.29336
▁ဆရာ	-8.29513
▁၁၅	-8.29611
w	-8.29821
g	-8.299
▁ဆေး	-8.29964
ရာ၌	-8.30014
ဖက်	-8.30027
သူများ	-8.30514
တို့တွင်	-8.30563
အောက်	-8.30571
ပတ်	-8.30683
20	-8.30932
ရုပ်	-8.30975
ခန်း	-8.31079
▁မြို့	-8.31273
▁သူ	-8.31491
စုရွာ၊	-8.31711
ဘာ	-8.31713
▁ရေး	-8.3177
လို့	-8.32192
င်	-8.32251
ထိုး	-8.32345
▁ဒေသ	-8.32658
ခင်	-8.32887
ဝေ	-8.33044
မောင်	-8.33091
▁ဆင်	-8.33167
ခု	-8.33197
ခဲ့သည့်	-8.3331
ပေါ်တွင်	-8.33629
▁၆	-8.33665
▁အရှင်	-8.33722
x	-8.34088
▁ထို့ကြောင့်	-8.34606
စီး	-8.34636
▁ရရှိ	-8.34718
သန်း	-8.34871
▁စာပေ	-8.3522
▁ကိုယ်	-8.35352
များအား	-8.35535
▁တရုတ်	-8.35685
ရဲ	-8.36029
▁နတ်	-8.36267
▁ဒေါ်	-8.36287
ည	-8.36448
▁ခ	-8.36503
ပု	-8.3655
▁ဖ	-8.36735
များမှ	-8.36761
လင်း	-8.36894
နေရာ	-8.36905
စပ်	-8.36982
▁ထိုသို့	-8.36997
▁ရန်ကုန်	-8.37023
ကဲ့သို့	-8.3715
ဟန်	-8.37155
▁ခေါ်	-8.37162
▁town	-8.372
ု	-8.37273
ရဲ့	-8.37486
▁အင်္ဂလိပ်	-8.37651
▁and	-8.37711
လုံ	-8.37805
လောက်	-8.37994
▁ငွေ	-8.38081
z	-8.38202
ဝင်း	-8.38366
တို့က	-8.38384
▁အတွက်	-8.38415
▁တက္ကသိုလ်	-8.38498
စံ	-8.38548
th	-8.38709
၆	-8.39155
ပါတီ	-8.39161
▁အထူး	-8.39361
ထိ	-8.39364
▁ပထမဆုံး	-8.39655
ဟောင်း	-8.39679
▁၁၁	-8.3969
လား	-8.39825
တစ်ဦး	-8.39854
▁လေ့လာ	-8.40092
ခဲ့ရာ	-8.40138
16	-8.40296
ဆရာ	-8.40372
▁နေထိုင်	-8.4038
▁ခန့်	-8.40394
▁ပါ	-8.40536
▁အမည်	-8.40539
မြန်မာ	-8.40614
နု	-8.40744
▁၇	-8.40753
ပြည်နယ်	-8.40827
▁အား	-8.40961
ရသော	-8.41013
လွန်	-8.41098
re	-8.41112
တက္ကသိုလ်	-8.41139
အတိုင်း	-8.41156
▁ကမ္ဘာ	-8.41231
u	-8.4138
▁ကမ္ဘာ့	-8.4143
မီး	-8.4148
ဆန်	-8.41528
အိမ်	-8.41718
▁ဝင်ရောက်	-8.41889
မည့်	-8.41926
st	-8.41933
စေရန်	-8.42045
▁နိုင်ငံတော်	-8.42174
မြ	-8.42491
မ်း	-8.42509
ပါ။	-8.42545
အို	-8.42743
▁အောက်	-8.43049
မြတ်	-8.43184
▁တရား	-8.43766
၇	-8.4397
ဖို့	-8.4408
နို	-8.44254
ပါတယ်။	-8.44435
19	-8.445
၀	-8.44504
ရော	-8.44602
ဒ်	-8.44631
▁၁၆	-8.44665
ပါသည်။	-8.44841
ra	-8.45133
ကာလ	-8.45257
ချောင်းရွာ	-8.45279
an	-8.45294
▁မြန်မာ့	-8.45308
ma	-8.45593
▁အချို့	-8.45724
▁သစ်	-8.45802
▁ဥပဒေ	-8.45812
ရပ်ကွက်	-8.45853
▁တော	-8.45858
▁။	-8.45927
▁အိမ်	-8.45973
သတ်	-8.46
န်း	-8.46079
▁မောင်	-8.46257
ီ	-8.46317
▁h	-8.4636
▁၈	-8.46457
ထားသည့်	-8.46662
ဖူး	-8.46704
▁ဂျပန်နိုင်ငံ၊	-8.46776
▁ပေး	-8.47246
လာသည်။	-8.47331
▁သား	-8.47347
▁ရောက်	-8.47554
၈	-8.47634
18	-8.47705
တ်	-8.47831
ပစ်	-8.47882
ကပ်	-8.48023
▁တို့	-8.48098
န့်	-8.48266
ကင်း	-8.48337
12	-8.48354
▁ယူ	-8.48374
▁ဥ	-8.48422
ဆု	-8.48463
နတ်	-8.48892
▁အခြေခံ	-8.49016
▁လုပ်	-8.4924
က်	-8.49265
အေး	-8.49474
နန်း	-8.49553
▁အချိန်	-8.49774
▁မရှိ	-8.49868
မိုး	-8.49879
ခဲ	-8.4988
▁အတွင်း	-8.50049
▁မာ	-8.50218
မရှိ	-8.50277
ိ	-8.50483
ရိ	-8.50612
la	-8.50627
▁ဆက်လက်	-8.50754
လည်းကောင်း၊	-8.50874
နိုင်သော	-8.50976
▁သတ်မှတ်	-8.50977
ကောင်	-8.51006
ကျောက်	-8.51058
▁၁၀	-8.51081
ကောက်	-8.51408
ဆိုး	-8.5164
h	-8.51699
15	-8.51961
▁ဗိုလ်	-8.52044
ရွက်	-8.5209
▁ဖွဲ့စည်း	-8.52109
▁သခင်	-8.5228
အသင်း	-8.52411
ခရိုင်၊	-8.52417
▁သူ့	-8.52629
▁ထိုအခါ	-8.52645
ပ်	-8.52676
▁ရဟန်း	-8.52721
▁အထိ	-8.52772
▁ဂျပန်	-8.52982
▁၁၄	-8.53099
▁ပြန်	-8.53244
ပြော	-8.53304
ရုံး	-8.53323
ဆောင်ရွက်	-8.53455
▁တစ်ခု	-8.53465
ခဲ့ကြ	-8.53531
ရရှိ	-8.53635
▁အကြောင်း	-8.5368
ဘာသာ	-8.53945
▁လုပ်ငန်း	-8.54544
▁ma	-8.54596
စကား	-8.54807
▁ဂီတ	-8.54961
ed	-8.55216
▁ရှင်	-8.5557
ခဲ့၏။	-8.55576
▁ဒီ	-8.55584
▁=	-8.55586
ခဲ့ရသည်။	-8.55728
23	-8.55769
ဆာ	-8.55802
ဇာ	-8.55966
ဆရာတော်	-8.5608
se	-8.56097
▁ပြည်ထောင်စု	-8.56394
or	-8.56485
လေ့	-8.56501
▁ပညာ	-8.56565
▁သော	-8.56629
▁မြစ်	-8.56829
ညို	-8.57022
တ္တ	-8.57275
အသုံးပြု	-8.57361
ထွန်း	-8.57368
တယ်	-8.57372
ရေးသား	-8.57716
ဿ	-8.57819
စင်	-8.57822
နေထိုင်	-8.57847
ထပ်	-8.57982
▁တည်ရှိသည့်	-8.58163
၂၀	-8.58524
▁ဝါ	-8.58816
ဝိုင်း	-8.58869
ခတ်	-8.58913
ချို	-8.58935
▁ဖြစ်ပြီး	-8.58936
ပေသည်။	-8.58958
မှတ်	-8.58976
▁to	-8.59339
လင်	-8.59476
▁စက်	-8.5948
ရံ	-8.59508
စ္စ	-8.59651
ကွက်	-8.59755
တယ်။	-8.59797
ပါဝင်	-8.59922
ယား	-8.59967
မေ	-8.59992
13	-8.60259
11	-8.60269
2	-8.60274
အုပ်	-8.60543
ချင်	-8.60616
ထဲတွင်	-8.60699
နောက်	-8.60859
ငါး	-8.61003
24	-8.61092
ဘွဲ့	-8.61399
▁လူဦးရေ	-8.61401
▁မတ်လ	-8.61465
▁ကျင်းပ	-8.61497
ကြည့်	-8.61601
▁ပြု	-8.61607
ပစ္စည်း	-8.61629
▁ပိုမို	-8.61752
▁သွေး	-8.61788
▁ဗြိတိသျှ	-8.61873
ကြီးများ	-8.61999
တတ်သည်။	-8.6206
ဟူသော	-8.62076
ဆိုင်	-8.62216
▁သူသည်	-8.62398
သွင်း	-8.62426
▁အိန္ဒိယ	-8.62517
ခုနှစ်တွင်	-8.62559
အိုင်	-8.62619
▁ပါတီ	-8.62754
01	-8.6277
▁အထက်	-8.62893
စိန်	-8.62944
21	-8.63037
▁စာအုပ်	-8.63301
▁ဘူတာတစ်ခု	-8.6351
▁မေလ	-8.63616
တီး	-8.63669
17	-8.63794
▁တိုက်ခိုက်	-8.63981
▁မျိုး	-8.64493
အကြောင်း	-8.64509
▁လမ်း	-8.64722
▁သမ္မတ	-8.6475
▁ပြောင်းလဲ	-8.64759
ta	-8.64774
တွေ့	-8.64804
သည်လည်း	-8.65084
ခေါင်း	-8.65116
ချီ	-8.65237
တိုး	-8.65283
ေ	-8.65429
▁ရပ်ကွက်	-8.65478
▁အဲခိ	-8.65484
အစိုးရ	-8.65724
ပို	-8.65761
အနေဖြင့်	-8.65882
ဆန်း	-8.66178
▁န	-8.66241
▁တိုက်	-8.66562
ဖြစ်၏။	-8.66702
မှန်	-8.66787
ဥ	-8.66815
စော	-8.6699
ဆွဲ	-8.67025
သက်	-8.67025
ကြည်	-8.67143
me	-8.67163
70	-8.67272
it	-8.67283
駅	-8.67329
▁ရုပ်ရှင်	-8.67331
▁သို့	-8.67477
▁မန္တလေး	-8.67613
▁တပ်	-8.67643
▁ဖော်ပြ	-8.67869
er	-8.68119
ရု	-8.68239
ပျက်	-8.68369
ကွဲ	-8.68535
သမား	-8.68536
ပီ	-8.68585
▁ရှေး	-8.68587
ar	-8.68701
၀၀၀	-8.68925
နှင့်အတူ	-8.6896
▁သမိုင်း	-8.69073
ညီ	-8.69216
စေသည်။	-8.69234
ငြိမ်း	-8.69398
အဆင့်	-8.69398
▁မြင်	-8.69592
▁ထို့ပြင်	-8.69819
ဂါ	-8.69839
▁အလုပ်	-8.69865
သည့်အခါ	-8.6987
သကဲ့သို့	-8.69893
မက်	-8.69989
တွဲ	-8.70082
▁အောင်	-8.70086
လိ	-8.70197
28	-8.70215
ူ	-8.70264
နိုင်ရန်	-8.70298
22	-8.70429
ပူ	-8.70485
မှစ၍	-8.70516
▁ဆ	-8.70603
▁ကျွန်း	-8.70777
အာ	-8.7083
စည်း	-8.7086
▁no	-8.7089
မတ်	-8.70952
%	-8.70962
ဝါဒ	-8.71004
▁သန်း	-8.71099
လာခဲ့သည်။	-8.71136
ော	-8.7116
▁ရွာ	-8.71165
005	-8.71185
▁၉	-8.71199
▁")	-8.71237
များအတွက်	-8.71324
ငှက်	-8.71339
▁ခေါင်းဆောင်	-8.71357
’	-8.71359
14	-8.71394
29	-8.71456
ဆင်း	-8.71554
br	-8.71557
မဟာ	-8.71617
ခါ	-8.7163
င်း	-8.71665
ဓ	-8.71808
▁မိုင်	-8.72036
ွ	-8.72076
▁င	-8.72089
▁ယခု	-8.72263
▁f	-8.72344
ကြလေသည်။	-8.72422
ကိုင်	-8.72534
▁b	-8.72663
▁ဧပြီလ	-8.72741
▁ဇွန်လ	-8.72881
▁သွား	-8.73115
ကြ၏။	-8.73144
▁ပြော	-8.7322
ခြောက်	-8.73385
များစွာ	-8.7344
ကြမ်း	-8.73457
ဝိ	-8.73511
ဘီ	-8.73592
လျက်ရှိသည်။	-8.73665
▁ကျုံ	-8.7369
49	-8.73759
တံ	-8.73768
▁တည်ဆောက်	-8.73955
မြင်	-8.73981
များလည်း	-8.73989
▁ရောဂါ	-8.74013
▁တပ်မတော်	-8.74039
ပြည်ထောင်စု	-8.74289
မြို့၊	-8.74558
ပြောင်း	-8.74759
တောင်း	-8.74882
32	-8.74948
သင်	-8.7498
▁စကား	-8.75016
▁ကောင်း	-8.75156
id	-8.75181
မယ်	-8.75387
ထည်	-8.75508
▁အကျိုး	-8.75526
▁၂၀	-8.75704
ဖို	-8.7576
စုံ	-8.75878
▁ရန်ကုန်မြို့	-8.7588
ခင်း	-8.75914
▁ဤသို့	-8.75966
ဖွဲ့	-8.76145
စွဲ	-8.76603
တို့နှင့်	-8.76847
သီ	-8.76848
တိုက်ခိုက်	-8.76896
မဲ့	-8.76908
▁ခြေ	-8.76946
လန်	-8.76973
အမည်	-8.77074
ဖျား	-8.7714
များ၌	-8.77185
ဖြစ်သူ	-8.77255
ခြေ	-8.77267
ဆိပ်	-8.77314
▁ပြင်သစ်	-8.77386
ကြွ	-8.77415
အပြင်	-8.77539
အင်း	-8.77632
စရာ	-8.77858
လောင်း	-8.77966
ဏ	-8.78003
လယ်	-8.78029
လေ့ရှိသည်။	-8.78061
တစ်မျိုး	-8.78252
▁ဗ	-8.78284
▁ဩဂုတ်လ	-8.78327
▁k	-8.78392
ခြား	-8.78629
မန်	-8.78924
▁ပုံ	-8.79228
ဖွယ်	-8.79312
ကိုယ်	-8.79452
ဖြတ်	-8.79587
စာပေ	-8.79602
▁ထွက်	-8.79615
26	-8.79657
ဖြစ်စေ	-8.79714
30	-8.79747
31	-8.79752
တို့မှ	-8.79884
ရှား	-8.79923
▁ပေါက်	-8.79944
ထင်	-8.80033
ဝယ်	-8.80074
el	-8.80092
50	-8.80107
▁မွန်	-8.80172
▁ပင်လယ်	-8.8019
မဲ	-8.80209
ပုံစံ	-8.80321
ကယ်	-8.8035
02	-8.80528
▁တာဝန်	-8.80635
▁သို့ရာတွင်	-8.80804
▁ရှမ်း	-8.80865
▁ဆရာတော်	-8.80922
▁အနောက်	-8.80931
ri	-8.80936
သွေး	-8.80949
၉	-8.81004
▁ပါဝင်သည်။	-8.81135
▁ပြည့်နှစ်	-8.81253
ဝါး	-8.81276
▁တည်ထောင်	-8.8135
ne	-8.81352
▁ဘုရင်	-8.81488
မော်	-8.81526
ကံ	-8.81586
လာသော	-8.81639
▁ဝက်	-8.81658
ထောင်	-8.81916
ထောက်	-8.81927
▁တည်	-8.8195
▁ပြည်	-8.82062
us	-8.82119
ရှိပြီး	-8.82184
▁ဇန်နဝါရီလ	-8.82395
▁ဟ	-8.82472
လည်းကောင်း	-8.82495
နေသည်။	-8.82621
▁မြင်း	-8.82679
ဘာသာစကား	-8.82683
ရှာ	-8.82825
1	-8.82829
ြ	-8.82908
▁ယဉ်ကျေးမှု	-8.82915
နှုန်း	-8.8296
လတ်	-8.8305
ဖြစ်သည့်	-8.83124
▁အရှေ့	-8.83174
ချစ်	-8.83181
ဗာ	-8.83282
ပြီ	-8.83288
ခြင်းဖြင့်	-8.83296
il	-8.83304
▁အောက်တိုဘာလ	-8.83387
▁သီချင်း	-8.83399
25	-8.83437
▁ကလေး	-8.83454
▁သတင်း	-8.83556
ns	-8.83598
ရိုက်	-8.83601
ပြည့်	-8.83697
▁ကံ	-8.83736
▁သဘာဝ	-8.8374
လောင်	-8.83802
▁ပြည်နယ်	-8.83886
ic	-8.83894
တစ်ရပ်	-8.83899
ခဲ့ရ	-8.83928
လစ်	-8.83971
ဘတ်	-8.84024
▁ဒီဇင်ဘာလ	-8.84042
ဥပဒေ	-8.8411
တို့မှာ	-8.84115
ခြံ	-8.84195
▁ဇူလိုင်လ	-8.84383
03	-8.84387
ခြင်းနှင့်	-8.84526
27	-8.84815
ရမည်။	-8.84833
အေ	-8.84843
င့်	-8.84912
စေတီ	-8.84973
များကိုလည်း	-8.85046
ဗေဒ	-8.85083
▁c	-8.85181
▁ရှေ့	-8.8522
တား	-8.85308
သဘော	-8.85493
ရန်အတွက်	-8.85589
ထံ	-8.85627
ch	-8.85651
တို့အား	-8.85664
▁ဝင်	-8.85812
ဝေး	-8.85847
▁ဘာ	-8.85942
တို့ဖြင့်	-8.85957
▁မည်သည့်	-8.86085
၁၂	-8.86308
က္က	-8.86514
ဘိ	-8.86554
လျက်ရှိ	-8.86575
▁အဖွဲ့	-8.86736
သိန်း	-8.86821
စိုး	-8.86882
▁စိုက်ပျိုး	-8.86962
ဖတ်	-8.87265
es	-8.87268
ကု	-8.87269
▁အုပ်ချုပ်	-8.87372
▁မြောက်	-8.87505
ပွင့်	-8.87539
▁ဒ	-8.87626
ခို	-8.87631
ထားခြင်း	-8.87745
▁ဖြစ်၏။	-8.87939
လည်	-8.8798
▁အသံ	-8.88
▁ဖေဖော်ဝါရီလ	-8.88169
▁ဓာတ်	-8.88337
lo	-8.88611
▁အို	-8.88612
ကောင်စီ	-8.88647
စခန်း	-8.88751
အိုး	-8.8882
ရှင်း	-8.88923
▁များစွာ	-8.88929
ချေ	-8.89075
ro	-8.89132
38	-8.89372
တွင်လည်း	-8.89468
▁နိုဝင်ဘာလ	-8.89524
ရှိ၍	-8.89576
▁ဥရောပ	-8.89885
တင်း	-8.89966
▁လုပ်ကိုင်	-8.90006
ပေးခဲ့သည်။	-8.90008
ပို့	-8.9004
ဝတ်	-8.90158
ပေ။	-8.90267
ဂို	-8.90346
▁w	-8.90349
နိုင်ခဲ့သည်။	-8.90487
လော	-8.90488
▁နောက်ဆုံး	-8.90507
ce	-8.90519
မင်းသား	-8.907
▁ဟူသော	-8.90739
▁စား	-8.90761
▁re	-8.90761
▁ယခုအခါ	-8.90811
ကြိုး	-8.9085
▁g	-8.91001
▁နာ	-8.91038
ယံ	-8.91046
ဆဲ	-8.91052
ခေါင်းဆောင်	-8.9108
သားများ	-8.9116
ဖေ	-8.91184
င	-8.9131
ဘေး	-8.91337
ခဲ့ခြင်း	-8.91552
သမိုင်း	-8.91662
ရင့်	-8.91702
ဂျီ	-8.91872
▁ဗုဒ္ဓ	-8.91879
04	-8.91881
နစ်	-8.91907
ကျင်းပ	-8.92019
ပိုး	-8.92027
▁ဆာ	-8.92098
0130	-8.9237
▁ဗဟို	-8.92379
ve	-8.92386
ဘူး	-8.9239
နီး	-8.92413
၁၈	-8.92506
နိ	-8.92921
၁၀	-8.9304
▁ဗိုလ်ချုပ်	-8.93073
လောက	-8.93078
ထီး	-8.93307
na	-8.93334
▁ရက်နေ့	-8.93699
▁ထင်ရှား	-8.93799
ထဲ	-8.93808
သိမ်း	-8.93836
▁အပင်	-8.93867
ရှိသည့်	-8.93896
ချိ	-8.93921
သောင်း	-8.9396
တု	-8.94131
အပ်	-8.94131
ke	-8.94254
ဆူ	-8.94267
▁ဘဝ	-8.94378
li	-8.9443
▁ပေါင်း	-8.94438
▁ကုမ္ပဏီ	-8.9457
▁ဓမ္မ	-8.94666
ဖွဲ့စည်း	-8.94671
အိ	-8.94738
မှုကြောင့်	-8.94894
▁ပညာရေး	-8.95045
▁ခေတ်	-8.95046
▁ဟူ၍	-8.95064
79	-8.95118
အပေါ်	-8.95142
စာအုပ်	-8.95216
▁ထုတ်လုပ်	-8.95233
ဒို	-8.95278
လိပ်	-8.95288
▁ကုန်	-8.95342
ခြင်းကြောင့်	-8.95367
▁တိုးတက်	-8.9591
▁စုစုပေါင်း	-8.96086
ပိ	-8.96119
40	-8.96137
to	-8.96142
လိုင်း	-8.9626
တုံး	-8.96315
လပ်	-8.96358
33	-8.96396
▁de	-8.9653
ဝတ္ထု	-8.96552
▁ငှက်	-8.96632
▁မြို့နယ်	-8.96668
ကူ	-8.96939
သည်ကို	-8.96988
▁သတင်းစာ	-8.9702
▁မြို့တော်	-8.97225
လွှတ်	-8.97265
ကလည်း	-8.97376
ဆယ်	-8.97471
▁ဖြစ်ကြသည်။	-8.97744
▁သေ	-8.97791
▁တက်	-8.97792
▁ဆီ	-8.97863
တောက်	-8.98267
ly	-8.98322
အားလုံး	-8.9833
▁စက်တင်ဘာလ	-8.98515
▁တင်	-8.98549
ရုပ်ရှင်	-8.98814
က္ခ	-8.98874
ပွား	-8.98928
▁ရက်တွင်	-8.98941
▁ကာ	-8.98944
▁အဖွဲ့ဝင်	-8.98956
ပညာရှင်	-8.9912
ခဲ့သော်လည်း	-8.99158
ွေ	-8.99183
ကိုး	-8.99261
သုတ်	-8.99324
▁ပြည်သူ့	-8.99456
၁၅	-8.99483
▁အသင်း	-8.99604
▁စသော	-8.99609
္	-8.99672
ဉာဏ်	-8.99693
▁အင်း	-8.99693
ထူး	-8.99733
မှာလည်း	-8.9985
ဆွေ	-8.99891
▁သူတို့	-8.99915
▁ရခိုင်	-8.99917
ပြာ	-8.99996
▁ဖြစ်လာ	-9.00428
ရယ်	-9.00509
ပျောက်	-9.00591
100	-9.00623
အချိန်	-9.00635
▁စသည့်	-9.00646
ထားပြီး	-9.00648
တစ်ယောက်	-9.00677
လှည့်	-9.0081
ရမည်	-9.0084
▁လက်ခံ	-9.0085
▁ဆက်	-9.00934
time	-9.01249
ဆံ	-9.01327
မွေး	-9.01408
vi	-9.01526
အစ	-9.01669
ခဲ့သူ	-9.01689
စေ့	-9.017
စိမ်း	-9.0178
et	-9.01821
▁သာ	-9.01837
သု	-9.01858
de	-9.0186
ခုံ	-9.02062
မဟုတ်	-9.0208
un	-9.02182
ကီ	-9.02222
အရာ	-9.0237
ညာ	-9.02392
▁သု	-9.02422
▁တစ်ဦး	-9.02602
▁သဘော	-9.02653
ဂူ	-9.02702
▁ရွေးချယ်	-9.02725
▁ရဲ	-9.02905
အရှေ့	-9.03026
▁ကဗျာ	-9.03032
▁တွေ့ရသည်။	-9.03113
37	-9.03198
ထု	-9.03274
▁သွားရောက်	-9.03277
ခြင်းသည်	-9.03305
ခြင်းဖြစ်သည်။	-9.03306
ဃ	-9.03336
အနက်	-9.03459
ချေ။	-9.0349
▁ဝမ်း	-9.03714
မို	-9.0378
▁စံ	-9.03873
▁လည်းကောင်း၊	-9.03949
▁သက္ကရာဇ်	-9.04016
ဆင့်	-9.0402
47	-9.04037
▁ယောက်	-9.04118
▁၁ဝ	-9.04118
ကျယ်	-9.04188
▁ဇာတ်	-9.04216
မင်းကြီး	-9.04237
စိုက်	-9.04311
လိုက်သည်။	-9.04372
င်္ဂ	-9.04518
၁၃	-9.0452
မြို့သည်	-9.04708
▁မေ	-9.04823
ယို	-9.04837
ထုံး	-9.04905
အနောက်	-9.04973
▁ချစ်	-9.05001
သလို	-9.05005
on	-9.05298
te	-9.05373
▁သင်္ဘော	-9.054
▁ဆက်သွယ်	-9.05419
▁အခြေအနေ	-9.05437
▁ပုံစံ	-9.0544
▁ကန်	-9.0555
လွတ်	-9.05602
တဲ	-9.05607
နိုင်သည့်	-9.05668
နံ	-9.05711
▁အက်	-9.05756
52	-9.05787
သွားသည်။	-9.06096
အထက်	-9.06224
▁ရာခိုင်နှုန်း	-9.06347
48	-9.06361
▁အမျိုးသမီး	-9.06366
▁ထိုအ	-9.06485
ဇင်	-9.06522
▁လက်ရှိ	-9.0654
34	-9.06554
▁ဝ	-9.06647
မှီ	-9.06653
39	-9.06818
တမ်း	-9.06851
▁နာရီ	-9.06893
လွှာ	-9.06907
80	-9.06966
▁နန်း	-9.07027
မြဲ	-9.07041
တို့၌	-9.07217
လူမျိုးများ	-9.07238
ခဲ့သည်	-9.0725
41	-9.07327
ရှု	-9.07495
▁အင်	-9.07548
▁ပြ	-9.07589
လုပ်ကိုင်	-9.07608
ထူ	-9.0776
▁ဖြစ်ပွား	-9.07822
အမျိုးမျိုး	-9.07825
အမျိုးသား	-9.07829
▁pa	-9.07909
ခံရ	-9.07947
နေစဉ်	-9.07955
ရလေသည်။	-9.07997
အမှတ်	-9.08051
အချို့	-9.08073
၁၆	-9.08106
ရမ်း	-9.08159
စတင်	-9.08273
▁သင်ကြား	-9.0831
▁ကင်း	-9.08434
▁ကျောင်းသား	-9.08458
99	-9.08525
▁ကြား	-9.0854
မွန်	-9.08687
ပန်	-9.087
ခေါင်	-9.08716
▁အောင်မြင်	-9.08809
▁မြန်မာပြည်	-9.08903
▁အထူးသဖြင့်	-9.08931
90	-9.08945
ဂြိုဟ်	-9.09094
▁အဆိုပါ	-9.09104
ဓမ္မ	-9.09193
ကော	-9.09246
▁အီ	-9.09296
▁ထ	-9.09305
ia	-9.09413
▁နိုင်ငံတကာ	-9.09422
သတ်မှတ်	-9.09447
▁မူလ	-9.09456
▁တော်	-9.09534
ပြိုင်	-9.09725
▁တက်ရောက်	-9.099
▁အိုင်	-9.10017
▁ကြက်	-9.10093
▁la	-9.10122
ပြေး	-9.10153
59	-9.10217
v	-9.10218
ကြီးကို	-9.10347
ထို	-9.10483
ချက်များ	-9.10485
▁ngc	-9.10539
▁အခါ	-9.10566
ပယ်	-9.10572
ပြင်း	-9.10578
နေကြ	-9.10622
ယု	-9.10648
▁ပစ္စည်း	-9.10682
ဆီး	-9.10703
တွေကို	-9.1081
▁အင်အား	-9.10882
▁metal	-9.10955
46	-9.1103
စာရင်း	-9.11081
▁တိုင်း	-9.11208
sh	-9.11244
▁စသည်တို့	-9.11298
▁အရောင်	-9.11372
▁ပူးပေါင်း	-9.1144
ဝက်	-9.11464
63	-9.11504
▁တော်လှန်ရေး	-9.11519
▁တိုင်းပြည်	-9.1153
▁ရာစု	-9.11561
ir	-9.11802
ရေးအတွက်	-9.11838
ပျံ	-9.11868
▁ဒေါက်တာ	-9.11925
35	-9.11931
ဆစ်	-9.12008
အတွင်း၌	-9.12117
at	-9.12185
81	-9.12252
ချောင်	-9.12323
▁ဘွဲ့	-9.1233
လွန်း	-9.1249
ကြော	-9.12531
▁အများဆုံး	-9.12559
▁တွေ့ရ	-9.12569
နေသည့်	-9.12656
ကြပြီး	-9.12684
▁၂၅	-9.12686
ကုမ္ပဏီ	-9.12716
▁ပို၍	-9.12722
ကိုင်း	-9.1287
၎င်း	-9.12927
ဖော်	-9.13095
▁ခေါင်း	-9.13231
ခိုင်	-9.13231
▁ဝါး	-9.13276
ိုက်	-9.13284
ရူး	-9.13355
ter	-9.13437
▁ကရင်	-9.13602
am	-9.13673
▁မိမိတို့	-9.13774
▁ကာလ	-9.14052
56	-9.14061
▁m	-9.14083
▁ထိ	-9.14237
ချပ်	-9.14262
ရှ	-9.14453
▁e	-9.14496
▁ဥက္ကဋ္ဌ	-9.14534
▁ထုတ်ဝေ	-9.1455
▁ဆိုသည်။	-9.14573
▁အဆင့်	-9.14607
▁ကြာ	-9.14688
53	-9.14688
မင်	-9.14704
▁ညောင်	-9.14722
မရ	-9.14905
▁‘	-9.14923
▁ပု	-9.15199
ယော	-9.15224
တာဝန်	-9.15254
▁ပြောဆို	-9.15328
5	-9.15564
▁ဇ	-9.15581
ဝဝ	-9.15584
▁အုပ်ချုပ်ရေး	-9.15645
▁စာရင်း	-9.15658
▁ကြယ်	-9.1567
▁be	-9.15723
85	-9.158
▁သင်	-9.15843
78	-9.15905
▁အနုပညာ	-9.15931
မည်ဟု	-9.15966
▁ထည့်သွင်း	-9.15972
ရသည့်	-9.16
ဇာတ်	-9.16016
▁အေ	-9.16019
▁ယူဆ	-9.16035
ပြတ်	-9.16088
ပုဂ္ဂိုလ်	-9.16117
▁ကျန်	-9.1614
ss	-9.16217
▁ထောင်	-9.163
▁ဦးဆောင်	-9.16442
ဖော်ပြ	-9.16475
အုပ်ချုပ်	-9.16517
ကျိုး	-9.16533
▁ဝတ္ထု	-9.16588
▁ကျန်းမာရေး	-9.16614
96	-9.16628
ျ	-9.16633
အခါ	-9.16677
ိန်	-9.16808
▁သရက်	-9.16828
ဝဝဝ	-9.16945
▁ပန်းချီ	-9.17031
ခွန်	-9.17111
▁လိုအပ်	-9.17154
သာမက	-9.17208
ဂေါ	-9.17294
ပေါင်းများစွာ	-9.17299
▁ဆောင်	-9.17322
ရ်	-9.17326
မိုင်	-9.17331
ol	-9.17399
လု	-9.17475
လေ့လာ	-9.17497
▁ရုပ်	-9.17539
ရိုင်း	-9.1766
စွမ်း	-9.17811
▁ပုဂ္ဂိုလ်	-9.1783
မောင်း	-9.17835
77	-9.17841
ပြောင်းလဲ	-9.17849
▁အိန္ဒိယနိုင်ငံ	-9.17868
▁ဆယ်	-9.17896
ti	-9.1794
ဝန်း	-9.17988
05	-9.18141
ဂျာ	-9.18158
ကပင်	-9.18245
▁ဝိ	-9.18291
▁စိန်	-9.18302
▁လွတ်လပ်ရေး	-9.18337
ီယမ်	-9.18487
ation	-9.18552
▁တွေ့ရှိ	-9.18592
ur	-9.18599
မြို့၌	-9.18608
▁မှတ်တမ်း	-9.18721
သွယ်	-9.18737
ဖျက်	-9.18794
▁ချင်း	-9.18929
၁၁	-9.19003
အလိုက်	-9.19064
87	-9.19166
အဖွဲ့အစည်း	-9.19198
နွယ်	-9.19223
ဖောက်	-9.1925
ကမ်း	-9.1926
ကိစ္စ	-9.19466
ထဲသို့	-9.19468
▁စော	-9.19489
ွတ်	-9.19603
ပုဒ်	-9.19632
▁ဖြစ်ပေါ်	-9.19671
နှ	-9.19934
▁ငါ	-9.19941
▁ခြောက်	-9.20025
ဆွတ်	-9.20118
=5	-9.20306
▁ခေါ်သည်။	-9.20313
၁၄	-9.20331
54	-9.20581
▁တီထွင်	-9.2065
နောင်	-9.20702
▁ချ	-9.20752
ပေးရန်	-9.20802
များသို့	-9.20815
008	-9.20889
▁သတ္တု	-9.209
j	-9.20911
▁အစာ	-9.21007
မျက်	-9.21102
▁အမျိုးမျိုး	-9.21181
သောက်	-9.21251
အတွင်းရှိ	-9.21269
▁ဘာသာစကား	-9.21304
အလုပ်	-9.21329
ပိုင်းတွင်	-9.21335
ိတ်	-9.21342
▁မက်	-9.21367
ဘု	-9.21371
▁အိုး	-9.21385
43	-9.21513
▁for	-9.21526
ကိုသာ	-9.21574
ကွာ	-9.21596
ကြီး၏	-9.21644
▁ပို	-9.21659
▁အစ	-9.21809
▁ပဲခူး	-9.21827
လံ	-9.21863
▁ကွန်	-9.21875
လွင်	-9.21902
စောင့်	-9.21934
ry	-9.21982
▁စစ်ကိုင်း	-9.22025
▁တည်ရှိ	-9.22037
▁အကြီးဆုံး	-9.22079
လွှတ်တော်	-9.22093
▁အဆို	-9.22229
▁လုပ်ဆောင်	-9.22236
သင်း	-9.22306
ကလေးများ	-9.22331
ယန်	-9.22344
အခြေအနေ	-9.22447
ါ	-9.22467
44	-9.22471
▁တတိယ	-9.22478
▁ကာကွယ်	-9.225
ကိန်း	-9.22634
64	-9.22683
▁၃၀	-9.22711
▁မဟုတ်	-9.22715
ရီး	-9.22801
ချိန်တွင်	-9.2282
we	-9.22824
ဒီး	-9.22938
▁နိုင်ငံခြား	-9.22973
▁သုံးစွဲ	-9.23048
ung	-9.23049
▁အမျိုးအစား	-9.23128
လော့	-9.2333
ut	-9.23391
▁ကုန်း	-9.23453
ရွေ့	-9.23474
ဒိ	-9.23561
မှား	-9.23574
93	-9.2377
▁ကွင်း	-9.23807
ဖြစ်စေ၊	-9.23834
▁ပြောင်း	-9.23864
ရှေ့	-9.23879
▁ကျ	-9.23884
တူး	-9.23928
လျင်	-9.23944
55	-9.24079
အံ့	-9.2408
08	-9.24086
မျိုးကို	-9.24129
တစ်ခုကို	-9.24217
▁အဲ	-9.24274
▁အိ	-9.24325
▁ကွန်ပျူတာ	-9.2435
▁အနည်းငယ်	-9.24381
_	-9.24388
▁အခြားသော	-9.2447
▁ta	-9.2453
▁ပါး	-9.24568
▁ထိုနောက်	-9.247
ထမ်း	-9.24824
လှိုင်	-9.24871
▁ခုနှစ်မှ	-9.24922
▁ရွက်	-9.24943
▁တရားဝင်	-9.2502
▁ချောင်း	-9.25061
၀၀	-9.25119
▁ကိုးကား	-9.25142
ka	-9.25174
▁သမီး	-9.25241
▁rock	-9.25299
▁မဲ	-9.25329
ကြရသည်။	-9.25376
ဆိုသည်မှာ	-9.2538
65	-9.25487
ကွယ်	-9.25513
ဘုံ	-9.25594
ခက်	-9.25605
ဲ	-9.25644
▁ဖြစ်လေသည်။	-9.25703
သည်မှာ	-9.25741
07	-9.25793
▁ka	-9.25882
ကြသော	-9.25943
တော့သည်။	-9.2601
ပေးသည်။	-9.26033
72	-9.26109
ရာမှ	-9.26114
ပြောင်	-9.26116
▁လူမျိုး	-9.26166
▁သက်	-9.26196
သမျှ	-9.26219
ထိပ်	-9.26329
▁နောင်	-9.26338
ချော	-9.26474
▁ကွယ်လွန်	-9.26507
▁တာ	-9.26529
မြို့တော်	-9.26565
လက်ထက်	-9.26586
မြန်မာနိုင်ငံ	-9.26589
စမ်း	-9.26633
▁p	-9.26655
▁ရေနံ	-9.26671
၁၇	-9.26701
ကျင်း	-9.26774
▁ထုတ်	-9.26819
နိုင်ငံ၏	-9.26865
▁ကိုးကွယ်	-9.27006
61	-9.27117
71	-9.27137
60	-9.27147
ge	-9.27204
▁ရောက်ရှိ	-9.27211
အုပ်စု	-9.27233
ကေ	-9.27291
▁မဂ္ဂဇင်း	-9.27294
ang	-9.27342
ဂျ	-9.27368
84	-9.27384
74	-9.27396
ကြေး	-9.27424
ကဏ္ဍ	-9.27463
ဂိုဏ်း	-9.27546
▁ဘေး	-9.2765
ဖြစ်လာ	-9.27743
ညွန့်	-9.27889
▁ဆန်	-9.27918
95	-9.27921
ပြေ	-9.27925
▁အဓိပ္ပာယ်	-9.27999
ကတည်းက	-9.28006
သန်	-9.28041
▁ည	-9.28045
နန်	-9.28068
98	-9.28097
▁ရောမ	-9.2811
ဖာ	-9.28256
is	-9.28371
▁ဘီ	-9.28527
▁ဝန်ကြီးချုပ်	-9.28543
ပစ္စည်းများ	-9.28552
အင်အား	-9.28653
▁ပါဝင်သော	-9.28769
88	-9.28773
76	-9.28774
▁ထိုး	-9.28784
ul	-9.28805
73	-9.28862
ဖန်	-9.2901
62	-9.29026
ုတ်	-9.29037
▁sa	-9.29074
ရှိ၏။	-9.29119
▁ဂရိ	-9.29121
▁အရပ်	-9.29167
နယ်မြေ	-9.29229
▁အင်တာနက်	-9.29236
ကိုက်	-9.29244
အောင်ဆန်း	-9.29297
▁ပြုစု	-9.29314
ကြီးသည်	-9.29382
86	-9.29432
▁အိပ်	-9.29433
ကြယ်	-9.29496
သာလျှင်	-9.29538
▁အသီး	-9.2958
လာကြသည်။	-9.29646
▁သားတော်	-9.29666
ဖြစ်ပွား	-9.29727
▁ထိုကြောင့်	-9.29796
▁mo	-9.3009
▁ထပ်မံ	-9.30191
ဗီ	-9.30201
▁ရှိနေ	-9.30232
▁လက်မ	-9.30255
ခရီး	-9.30315
▁ပြည်တွင်း	-9.30331
▁ဘယ်	-9.30338
▁အင်းဝ	-9.30408
သေးသည်။	-9.30486
▁အလယ်	-9.30487
▁အရွက်	-9.30508
▁ထိုင်းနိုင်ငံ	-9.30523
တိုင်းဒေသကြီး	-9.3055
▁မြ	-9.30554
▁ထင်ရှားသော	-9.30776
၍၊	-9.30781
မော	-9.30798
▁နေ့	-9.30801
▁သေဆုံး	-9.30804
ကြပ်	-9.30865
▁တောင်ဘက်	-9.30953
▁ခွဲခြား	-9.30971
ထည့်	-9.31026
ပွဲတော်	-9.31044
နင်း	-9.31091
ck	-9.31094
▁အာရှ	-9.31101
တည်ဆောက်	-9.31171
နှစ်ခု	-9.31205
▁ဆိုသည်မှာ	-9.31231
▁ဌာန	-9.31295
န္တ	-9.31331
▁အနောက်ဘက်	-9.31439
၂၀၀	-9.31507
မှုများကို	-9.31511
ယောက်	-9.31512
ဘို	-9.31618
▁ဖြစ်သော	-9.31679
▁အုတ်	-9.31901
▁အသား	-9.32055
စည်	-9.3209
▁ပျက်စီး	-9.32109
ကြို	-9.32144
mo	-9.32146
လူး	-9.32172
▁မြောက်ဘက်	-9.32272
▁လာရောက်	-9.32341
3	-9.3239
စသော	-9.32399
▁လျှပ်စစ်	-9.32421
0100	-9.32426
စစ်ပွဲ	-9.32477
▁ပြုပြင်	-9.32488
ကဲ	-9.32493
တေး	-9.32544
သတင်း	-9.32609
the	-9.32756
ငူ	-9.32802
42	-9.32913
▁ယုံကြည်	-9.32928
▁ခရိုင်	-9.32941
ဝန်ကြီး	-9.32957
▁နွား	-9.33048
ရက်နေ့တွင်	-9.33064
▁အပါအဝင်	-9.33096
စွန်း	-9.3311
ခြုံ	-9.33222
▁၂၁	-9.33275
နိမ့်	-9.33306
တပ်များ	-9.33327
▁ဗမာပြည်	-9.33331
man	-9.3339
မြို့နယ်၊	-9.33408
▁သုတေသန	-9.33409
▁ရှာဖွေ	-9.33422
▁လက်နက်	-9.33451
▁ခန့်အပ်	-9.33536
လျား	-9.33584
ကစား	-9.33752
ဖွား	-9.33793
▁အပြင်	-9.33844
▁ရရှိခဲ့သည်။	-9.33876
ခိုး	-9.33955
ဆုံ	-9.33968
ယက်	-9.34024
▁ယ	-9.34025
▁ဝေ	-9.34164
အပြည်ပြည်ဆိုင်ရာ	-9.34177
ပျော်	-9.34184
စေခဲ့သည်။	-9.34207
ဖြစ်သည်	-9.34292
ထုတ်လုပ်	-9.34373
007	-9.34426
▁ကိုယ်တိုင်	-9.34458
94	-9.34471
ဟော	-9.34525
▁ကောက်	-9.34566
▁ကျား	-9.34604
▁ထို့အပြင်	-9.34638
ဖုံး	-9.34684
58	-9.34699
▁အရေး	-9.3479
ba	-9.34889
▁လေသည်။	-9.3492
▁ပုဂံ	-9.34982
▁လေယာဉ်	-9.35044
ခိုင်း	-9.35051
▁အားလုံး	-9.35113
▁လွှတ်တော်	-9.35142
ကော်မတီ	-9.35143
ယန်း	-9.35145
▁အောက်ပါ	-9.3523
▁se	-9.35379
ထံမှ	-9.35393
လွယ်	-9.35398
▁စာရေးဆရာ	-9.35411
▁ထိန်းသိမ်း	-9.35536
တော်ကြီး	-9.35546
▁ဆု	-9.35552
▁၎င်း၏	-9.3563
ခမ်း	-9.35648
မန်း	-9.35757
▁၎င်းတို့	-9.35793
▁ရဲဘော်	-9.35855
ဋ	-9.35861
ဏ်	-9.35874
ဝမ်း	-9.36006
▁ဖြင့်	-9.36109
▁တိုင်းရင်းသား	-9.36262
▁အရှေ့ဘက်	-9.36314
text	-9.36318
▁co	-9.36353
နေရ	-9.36363
▁ဗုဒ္ဓဘာသာ	-9.36403
▁အာဏာ	-9.3643
▁ကြိုးစား	-9.36476
မြို့ကို	-9.36632
▁၂၄	-9.36653
▁ပိုး	-9.36658
ဗား	-9.36694
▁ပေါ်	-9.36708
ဝန်ကြီးဌာန	-9.36754
▁လုံး	-9.36757
ပိတ်	-9.36779
▁အလုပ်သမား	-9.36798
သုံးစွဲ	-9.36836
▁ဟို	-9.36839
ခွက်	-9.36892
▁နယ်	-9.36934
▁သိမ်းပိုက်	-9.36937
▁မွေး	-9.36991
အောင်မြင်	-9.36999
အဖွဲ့ဝင်	-9.37007
▁ခေါ်ဆို	-9.37028
tu	-9.37084
ဠ	-9.37109
▁လူထု	-9.37119
တေ	-9.37201
▁အခန်း	-9.37227
▁ကြိုး	-9.37266
ဩ	-9.37275
ga	-9.37288
0170	-9.37293
ဝဲ	-9.37332
ဘောင်	-9.3737
ni	-9.37389
▁လည်းကောင်း	-9.37448
ဝပ်	-9.3749
ဋ္ဌ	-9.37565
အာဏာ	-9.37637
▁လာ	-9.37685
ရှိရာ	-9.37698
▁၂၀၁၀	-9.37784
▁အောက်ပါအတိုင်း	-9.37816
format	-9.37898
▁အုပ်စု	-9.37915
ပင်ဖြစ်သည်။	-9.37924
▁ဆောက်လုပ်	-9.38053
ca	-9.38077
လာပြီး	-9.38225
97	-9.38324
▁ဖြစ်စေ	-9.38341
▁ဆား	-9.38362
အကျိုး	-9.38385
▁သမိုင်းကြောင်း	-9.3849
▁မိ	-9.38493
အောက်တွင်	-9.38578
▁နည်းပညာ	-9.38583
▁ဟာ	-9.38594
ရဟန်း	-9.3864
တံဆိပ်	-9.38726
ခြမ်း	-9.38753
▁မျက်နှာ	-9.38761
ထုတ်ဝေ	-9.3888
ဗိုလ်	-9.38898
tor	-9.38935
▁တူ	-9.38949
▁ရာသီဥတု	-9.38987
▁အော်	-9.39033
▁မော်	-9.39093
ပြန်သည်။	-9.39125
မု	-9.39254
ကမ္ဘာ	-9.39257
လန်း	-9.3927
▁စီ	-9.39274
ရာဇာ	-9.39283
ဘဏ်	-9.39305
▁သစ်ပင်	-9.39318
ဒါး	-9.39322
im	-9.394
ver	-9.39452
▁အားကစား	-9.39534
▁နည်း	-9.39556
▁ကျမ်း	-9.39608
ရခြင်း	-9.39703
▁ရာထူး	-9.39732
ပေါ	-9.39789
▁နောက်ပိုင်းတွင်	-9.39912
ပုံကို	-9.40002
model	-9.40092
da	-9.40161
▁မင်းသား	-9.40279
ဂျိ	-9.40308
ပေါ့	-9.40357
မှုနှင့်	-9.40375
ဖွင့်	-9.4048
▁သူတို့၏	-9.40534
co	-9.40612
▁ဘာသာ	-9.40648
အီ	-9.40759
67	-9.40811
▁တာဝန်ယူ	-9.40872
▁ပြင်ဆင်	-9.40909
ဂိုး	-9.40956
um	-9.40986
lu	-9.41056
တွင်မူ	-9.41113
▁တို့ကို	-9.41147
ရူ	-9.41209
▁ရှိပြီး	-9.41224
▁ဘုရားရှင်	-9.41264
ဒူး	-9.41269
▁me	-9.41289
၎င်း၊	-9.41331
ပေါ်၌	-9.41407
စိုက်ပျိုး	-9.41417
▁လည်း	-9.41428
▁အရာ	-9.41555
ဟိ	-9.41587
36	-9.417
▁ယင်းသို့	-9.41763
▁မိသားစု	-9.41884
ထိန်း	-9.41888
▁ကြေညာ	-9.4193
▁ထင်	-9.42074
▁အစီအစဉ်	-9.42113
ား	-9.42167
ထေရ်	-9.42239
လေ၏။	-9.4224
83	-9.42317
▁လို	-9.42374
လုပ်ငန်းများ	-9.42457
▁ကစား	-9.42464
as	-9.42466
▁လူ့	-9.4256
▁ရေးဆွဲ	-9.42563
]	-9.42591
▁မိခင်	-9.42597
ကျင့်	-9.42641
▁တိရစ္ဆာန်	-9.42709
မောက်	-9.42718
▁ပွင့်	-9.42737
sa	-9.42758
ဖြစ်ကြောင်း	-9.42765
▁ဖန်တီး	-9.42867
မြို့သို့	-9.42885
▁တွေ့	-9.42934
▁သဲ	-9.42937
ဒဏ်	-9.43014
ခိ	-9.43169
သီချင်း	-9.43221
▁ပြောင်းရွှေ့	-9.43242
စင်း	-9.43268
တစ်ပါး	-9.43321
ထဲမှ	-9.43405
▁လောက	-9.43429
ထင်ရှား	-9.43452
ပေးခြင်း	-9.4364
ကြိုက်	-9.43798
▁နှစ်ပေါင်း	-9.43862
တောင်တန်း	-9.43922
▁ပီ	-9.44003
mi	-9.44036
သိပ္ပံ	-9.44085
မှု၊	-9.44096
ကြံ	-9.44097
ုန်း	-9.44098
နှင့်တကွ	-9.44099
▁ရန်သူ	-9.44119
lin	-9.44197
ကတော့	-9.44305
▁ဖွင့်လှစ်	-9.44345
▁အပူ	-9.44352
▁ချီးမြှင့်	-9.44432
နာရီ	-9.44532
၅၀	-9.44539
များကြောင့်	-9.44585
▁ရုံး	-9.44672
အဲ	-9.44758
▁o	-9.44809
▁အချို့သော	-9.44812
▁၂၂	-9.44899
▁အထွေထွေ	-9.449
▁ရှမ်းပြည်နယ်	-9.44915
▁ခရစ်	-9.44964
▁မြတ်စွာဘုရား	-9.44975
အသစ်	-9.44976
▁သီးခြား	-9.45113
အပါအဝင်	-9.45114
▁အမှုထမ်း	-9.45159
အသံ	-9.45224
ရှစ်	-9.45292
57	-9.45311
အကြောင်းကို	-9.45359
▁စနစ်	-9.45399
▁သာမန်	-9.45412
ကွန်း	-9.45443
တုတ်	-9.45461
အင်	-9.45468
အမျိုးအစား	-9.4547
▁ဆရာကြီး	-9.45532
▁ကြေး	-9.45547
▁အများအပြား	-9.4555
ကြီးမား	-9.45631
မိတ်	-9.45663
▁ဝန်ကြီး	-9.45682
▁မိန်းမ	-9.45768
ပင်လယ်	-9.45772
▁လိုက်	-9.45774
stamp	-9.45797
အက်စ်	-9.45836
လွဲ	-9.45878
လေ့ရှိ	-9.45893
ထောင့်	-9.45976
ရေးနှင့်	-9.46011
contributor	-9.46121
ဆိုင်း	-9.46366
ဖီ	-9.46371
⁠	-9.46376
▁နှစ်စဉ်	-9.4639
▁မှန်	-9.46443
one	-9.46462
▁မန္တလေးမြို့	-9.46681
▁တရုတ်နိုင်ငံ	-9.46738
▁ba	-9.46766
တိုက်ပွဲ	-9.46767
▁ကူညီ	-9.46919
▁ဖြတ်	-9.46933
တိမ်	-9.46943
ယဉ်	-9.46955
▁ငွေကြေး	-9.47127
▁is	-9.47233
စာချုပ်	-9.47359
ုန်	-9.47359
68	-9.47483
▁ရှေးဟောင်း	-9.47491
ဒိုး	-9.47494
ky	-9.47509
▁ဒါ	-9.47555
ကျပ်	-9.47589
▁ကိုယ်ပိုင်	-9.476
▁၂ဝ	-9.47619
▁ဦးဘ	-9.4763
ဝင်ရောက်	-9.47644
▁ပြဋ္ဌာန်း	-9.4772
▁ကြိုးပမ်း	-9.4775
▁ကု	-9.47946
▁ဒီမိုကရေစီ	-9.47981
ထိုက်	-9.48011
မား	-9.4802
▁အရ	-9.48059
ဖြေ	-9.48208
▁2	-9.48252
6	-9.48264
▁တင်ပြ	-9.48266
▁မင်းကြီး	-9.4827
သို	-9.48293
▁ယခင်က	-9.48362
အရှင်	-9.48366
▁တီးဝိုင်း	-9.48419
▁အတူ	-9.48443
ထိုင်	-9.48458
လှူ	-9.48475
ဏ္ဍ	-9.48521
▁ထိုင်း	-9.4865
နဲ	-9.48669
▁၂၇	-9.48735
အတွင်းတွင်	-9.48813
▁မှတ်	-9.4884
▁ဂျာမန်	-9.4887
▁ပြည့်နှစ်တွင်	-9.48872
ချမ်း	-9.48878
▁ကျွဲ	-9.48945
▁ဖခင်	-9.49081
▁ကိုယ်စားလှယ်	-9.49107
မင်းဆက်	-9.49116
▁ထီး	-9.49172
သင်ကြား	-9.49197
ဆပ်	-9.49237
ရက်နေ့	-9.49266
▁လှေ	-9.49267
ဖြာ	-9.49454
ကင်	-9.49482
တင့်	-9.49513
▁ရိုက်ကူး	-9.49529
ရ၏။	-9.49687
ဘ်	-9.49758
▁ဒေါ်လာ	-9.49784
▁များသောအားဖြင့်	-9.49939
ဂ္ဂ	-9.49961
▁မွေးဖွား	-9.49971
ခွာ	-9.49973
▁ပတ်ဝန်းကျင်	-9.49991
သမ္မတ	-9.50033
▁အနက်အဓိပ္ပာယ်	-9.50057
အပ်သော	-9.50085
parent	-9.5012
တောင်ပိုင်း	-9.50122
လာကြ	-9.50261
▁သိပ္ပံ	-9.5034
တပ်မတော်	-9.50346
▁ဆွမ်း	-9.50352
ပြောဆို	-9.50359
▁ဂျ	-9.50397
ဂုဏ်	-9.505
ချာ	-9.50517
၃၀	-9.50574
▁con	-9.50645
မျက်နှာ	-9.50674
ဝံ	-9.50831
တတ်သော	-9.50876
တိုင်အောင်	-9.50918
ယောင်	-9.50952
မျှော်	-9.50988
fi	-9.51045
▁လုံးဝ	-9.51169
ပ္ပ	-9.51189
▁သို့သော်လည်း	-9.51196
၂၅	-9.51237
▁ယခင်	-9.51277
ကြိမ်	-9.51291
အနီး	-9.51298
▁ဒုတိယကမ္ဘာစစ်	-9.51364
...	-9.51416
▁ဂေါတမမြတ်စွာ	-9.51425
သဘင်	-9.51449
သည့်အတွက်	-9.51478
ကုလား	-9.51511
▁ဘီစီ	-9.51572
အုပ်ချုပ်ရေး	-9.51597
မှာပင်	-9.51627
သာယာ	-9.51715
ီး	-9.51743
username	-9.51814
ွာ	-9.51915
wa	-9.51921
ကွန်	-9.51947
နိုင်ငံများ	-9.51951
ရေးရာ	-9.51952
▁ဝန်ကြီးဌာန	-9.52007
ကဗျာ	-9.52022
စီးပွားရေး	-9.52176
▁အပေါ်	-9.52182
ည်း	-9.52238
ဂီတ	-9.52293
▁ပြည့်	-9.52296
▁ခရီး	-9.52332
ချက်ကို	-9.52347
gu	-9.52472
▁ပြည်ပ	-9.52486
ခ်	-9.52528
ဤ	-9.52692
ီးယား	-9.52708
ပေါင်	-9.52736
အရပ်	-9.52774
▁ဆိုဗီယက်	-9.5281
▁t	-9.52832
ဘိုး	-9.52834
▁ခု၊	-9.5284
▁bo	-9.53031
▁ကြည့်	-9.53039
▁ရပ်	-9.53054
▁မိုင်း	-9.5334
ပြု၍	-9.53351
▁ကြံ	-9.53405
မျှသာ	-9.53496
ကျန်	-9.53503
ွမ်	-9.53562
အများဆုံး	-9.53585
▁စေတီ	-9.536
ယဉ်ကျေးမှု	-9.5366
မေး	-9.53707
▁အဖွဲ့အစည်း	-9.53709
▁နယ်မြေ	-9.53716
မှုသည်	-9.5374
▁ရွေးကောက်ပွဲ	-9.538
▁အမိ	-9.53815
ချမ်းသာ	-9.53916
▁တစ်ယောက်	-9.53925
▁၂၀၁၄	-9.53932
▁ဆီး	-9.54016
▁၂၃	-9.54019
ha	-9.5405
ဒေသတွင်	-9.54067
တော်မူသည်။	-9.5407
▁ရာစုနှစ်	-9.54079
▁1	-9.54092
▁၁။	-9.54174
▁n	-9.54206
▁အကောင်းဆုံး	-9.54413
▁ကွန်မြူနစ်	-9.54454
▁တာဝန်ထမ်းဆောင်	-9.54489
▁ဥပမာ	-9.54606
ယ်	-9.54668
စိ	-9.5469
ခုနှစ်၊	-9.54795
▁မြောက်ပိုင်း	-9.54812
တည်ရှိ	-9.5483
▁လယ်	-9.54854
ကျွေး	-9.54865
ကော်	-9.54866
7	-9.54876
▁ပေါ်ပေါက်လာ	-9.54948
ဖြ	-9.54988
ထွေး	-9.54992
၌လည်း	-9.55009
▁၂၀၀၈	-9.55027
▁နှလုံး	-9.55076
▁သရုပ်ဆောင်	-9.55077
▁မိမိ၏	-9.55263
ရီးယား	-9.5536
အလယ်	-9.55409
ယွန်း	-9.55531
အချိန်တွင်	-9.55616
တ္ထ	-9.55635
အစား	-9.55667
com	-9.55728
ခွင်	-9.55799
အနည်းငယ်	-9.55818
အတွင်းသို့	-9.55854
နေရာတွင်	-9.559
မဆို	-9.55921
▁ကမ္ဘာပေါ်တွင်	-9.55938
▁ဘိုး	-9.5594
တွေ့ရှိ	-9.55953
▁j	-9.55968
▁စပါး	-9.55984
▁ကျော်ကြား	-9.5602
တည်ထောင်	-9.56055
ရာသီ	-9.5606
၂၂	-9.56124
▁on	-9.56233
▁ရတနာ	-9.5638
▁ဆူ	-9.56388
45	-9.56391
▁၂၀၁၁	-9.56424
ဖြစ်ကာ	-9.56457
လင့်	-9.56464
▁အမြဲ	-9.56478
▁အစောပိုင်း	-9.56513
▁တောင်ငူ	-9.56581
ထား၍	-9.56624
▁တောင်ပိုင်း	-9.56683
သင်္ဘော	-9.56751
ရထား	-9.56774
▁မူ	-9.56821
စတာ	-9.56844
လုပ်ဆောင်	-9.56959
▁ဆုံးဖြတ်	-9.56976
pa	-9.56991
▁တန်	-9.56992
လှေ	-9.57016
ကိုယ်တိုင်	-9.57089
ian	-9.57127
ပိုက်	-9.57149
8	-9.57295
ဒင်	-9.57324
ဟူ	-9.57376
▁ဆွေးနွေး	-9.57416
မြို့မှ	-9.57427
▁ဩ	-9.57449
▁စစ်တပ်	-9.57458
▁ကော်	-9.57473
▁ha	-9.57505
no	-9.57512
fe	-9.57524
ေး	-9.5766
လှမ်း	-9.57679
ဆောင်ရွက်ခဲ့သည်။	-9.5768
ကျား	-9.57696
▁ဖန်	-9.57725
▁မင်္ဂလာ	-9.57745
ခွေ	-9.57772
ှ	-9.57821
မ္	-9.57954
son	-9.57973
▁အပြစ်	-9.57989
လျှောက်	-9.58088
▁အလင်း	-9.58118
▁ကောင်းစွာ	-9.58156
သန့်	-9.5827
▁မျက်	-9.58457
ဆုတ်	-9.58516
ရိတ်	-9.58546
014	-9.5865
ခုတ်	-9.5874
အက္ခရာ	-9.5875
▁ရှိသော	-9.58789
ik	-9.58819
ကျေးရွာ	-9.58834
ဒန်	-9.58837
ရော်	-9.58854
▁လင်း	-9.58919
ac	-9.5895
▁ပဲ	-9.58954
▁အမိန့်	-9.59035
▁ပြည့်စုံ	-9.5909
မြောက်ပိုင်း	-9.59118
▁ဧ	-9.5912
69	-9.59194
▁ထိုစဉ်က	-9.59257
ကြောင်း၊	-9.59268
▁ခုနှစ်အထိ	-9.59281
ခုန်	-9.5931
pe	-9.59316
per	-9.59321
▁နာမည်	-9.59374
09	-9.59383
▁ဟံသာဝတီ	-9.59402
စလုံး	-9.59408
▁ဖြစ်ပေါ်လာ	-9.59455
ခဲ့သည်ဟု	-9.59482
▁စစ်ဆေး	-9.59506
▁၂၈	-9.59573
ဒေး	-9.59576
ဗစ်	-9.59648
မွေ	-9.59681
▁li	-9.5973
]]	-9.59794
တော်ကို	-9.59848
▁ခန့်မှန်း	-9.599
ခဲ့ပေ။	-9.59912
တိုးတက်	-9.5997
▁ယနေ့	-9.59984
ချေး	-9.59987
▁တစ်မျိုး	-9.60149
ng	-9.60157
မူး	-9.60168
▁ဝတ်	-9.60176
▁ဖမ်းဆီး	-9.60238
ad	-9.60247
▁ယောက်ျား	-9.60278
▁အေး	-9.60297
▁စသည်ဖြင့်	-9.60315
ပါဝင်သည်။	-9.60329
▁ဒီဇင်ဘာ	-9.60358
▁အစိတ်အပိုင်း	-9.60366
▁ရှာဖွေတွေ့ရှိ	-9.60386
စာတမ်း	-9.60481
ဂီ	-9.60561
06	-9.60621
▁မီ	-9.60701
▁ကညင်	-9.60719
ဇီ	-9.60748
▁အန်	-9.60755
▁ဇာတ်ကား	-9.60758
▁တိုက်ပွဲ	-9.60782
▁သတ္တဝါ	-9.60882
▁le	-9.60903
ဖျ	-9.60942
တွယ်	-9.60963
ဖိုး	-9.60975
ho	-9.61011
▁စာရေး	-9.61035
▁အနီး	-9.61072
▁ရဟန္တာ	-9.61088
▁စပိန်	-9.61118
▁ကျွမ်းကျင်	-9.61154
▁ခံယူ	-9.61178
▁နီ	-9.61202
တစ်လုံး	-9.61211
▁အနက်	-9.61216
▁ကုလား	-9.61271
▁ဥရောပတိုက်	-9.61271
▁စီမံကိန်း	-9.61274
ရော့	-9.61349
pi	-9.61424
တစ်ခုဖြစ်သည်။	-9.61464
▁ဒု	-9.6148
ဘယ်	-9.61593
မှုန့်	-9.61593
ရတနာ	-9.61621
▁ကိုး	-9.61622
အသက်	-9.61633
နိုင်ခြင်း	-9.61647
ရောင်ခြည်	-9.61649
ဝီ	-9.61664
▁ဒါရိုက်တာ	-9.61713
မွှေး	-9.61732
▁တွဲ	-9.61798
ဗျ	-9.61824
နော်	-9.61828
တခု	-9.61831
bo	-9.61837
ရမည့်	-9.61848
▁စီစဉ်	-9.62019
ချက်အရ	-9.62063
▁မိဖုရား	-9.62103
▁ထောက်ခံ	-9.62124
▁နား	-9.62131
▁အသစ်	-9.62288
ဈေး	-9.62333
လက်အောက်	-9.6235
ြန်မာဆိုရိုးစကား	-9.62455
▁တပည့်	-9.62575
all	-9.62596
စောင်း	-9.62681
▁ကွမ်း	-9.62706
ion	-9.62767
လာသောအခါ	-9.62831
▁တဖြည်းဖြည်း	-9.62835
91	-9.6288
▁ရှိကြသည်။	-9.62895
တော်လှန်ရေး	-9.62919
ညွှန်း	-9.6297
ိန်း	-9.631
နှံ	-9.63201
▁ကီလိုမီတာ	-9.63271
သမ္မတနိုင်ငံ	-9.63352
ယုံကြည်	-9.63356
ကြရ	-9.63479
ကောလိပ်	-9.63518
▁အမှု	-9.63521
မ္မ	-9.63578
ci	-9.63624
ခြင်းမရှိ	-9.6365
ရေးကို	-9.63661
နီးပါး	-9.63719
စေး	-9.63783
ရား	-9.63791
စဉ်က	-9.63803
▁ပစ်	-9.63837
ပြီး၊	-9.63849
▁တစ်ဖက်	-9.63913
သည့်အပြင်	-9.63921
▁ပူ	-9.63923
▁လှူဒါန်း	-9.63924
▁ထည့်	-9.63956
လေရာ	-9.63973
▁တိုက်ရိုက်	-9.64015
အက်	-9.64033
သို့ရောက်	-9.64037
▁ကြောင့်	-9.64068
စွန်	-9.64075
▁သိရှိ	-9.64082
အရာရှိ	-9.64147
ရှာဖွေ	-9.64161
▁lo	-9.64173
▁အောက်တိုဘာ	-9.64231
လှန်	-9.64311
▁၂၆	-9.6438
မှည့်	-9.64413
ကုသ	-9.64427
▁မျက်စိ	-9.64449
ja	-9.6445
▁၂။	-9.64508
သတင်းစာ	-9.64556
▁ခုနစ်	-9.6456
မင်္ဂလာ	-9.64604
ate	-9.64739
ခွ	-9.64751
ုံ	-9.64785
မြို့စား	-9.64791
006	-9.64842
▁or	-9.64862
ment	-9.64946
go	-9.64957
▁တစ်ခါတစ်ရံ	-9.64993
▁ပြဿနာ	-9.65037
များအဖြစ်	-9.65164
▁ဇနီး	-9.65168
▁ဗမာ	-9.65212
ချွန်	-9.6522
▁၂၀၁၅	-9.65232
▁ကေ	-9.6526
ထုပ်	-9.6531
▁ဝေဖန်	-9.654
ဇော	-9.65487
တင်မြှောက်	-9.6554
▁သစ္စာ	-9.65551
သူတို့	-9.6557
▁အရွယ်	-9.65588
▁ကျပ်	-9.65664
▁၂၀၁၆	-9.65746
▁မဟာမိတ်	-9.65754
ဥက္ကဋ္ဌ	-9.65756
▁၎င်းတို့၏	-9.65833
ပျို	-9.65878
ဆိုသူ	-9.65963
4	-9.65973
os	-9.65976
ဗဟို	-9.66003
ဘက်မှ	-9.66018
ခြင်းများ	-9.66029
သဲ	-9.66136
ဗုဒ္ဓ	-9.66175
မည်း	-9.66178
အချက်	-9.66226
လက်ထက်တွင်	-9.66239
▁ကွဲပြား	-9.66323
ခဲ့၍	-9.66338
တွေး	-9.66338
comment	-9.66347
▁ကော်မတီ	-9.6635
▁ဈေး	-9.6645
▁၂၀၀၉	-9.66451
▁ဟန်	-9.66514
မြို့ဟောင်း	-9.66576
ip	-9.66578
ဟို	-9.6659
တစ်လျှောက်	-9.66614
တံခွန်	-9.66616
နိုင်ငံတွင်	-9.66702
▁စစ်ရေး	-9.66738
▁ကုလသမဂ္ဂ	-9.66757
▁ကပ်	-9.66779
▁ပွဲ	-9.66799
မြင်း	-9.6681
▁ပျော်	-9.66813
▁ပတ်	-9.66967
စနစ်ကို	-9.66998
▁ရောင်းချ	-9.67002
ဘော	-9.67006
တွေ့ရ	-9.67094
▁ရော	-9.67099
လှုပ်	-9.67106
သိက္ခာပုဒ်	-9.67183
ရှုံး	-9.67242
▁ဟိ	-9.67243
▁ပိုင်ဆိုင်	-9.67292
▁ထောက်	-9.67329
▁su	-9.67332
ောင့်	-9.67384
▁ဓား	-9.67429
▁အချက်	-9.67466
သတ္တု	-9.67469
ton	-9.67478
▁ဘာသာရေး	-9.67484
▁[[	-9.67495
▁ရင်	-9.67556
▁ခေါ်ဝေါ်	-9.67565
▁သင်္ချာ	-9.67602
စေတီတော်	-9.67687
ဲ့	-9.6774
▁မေး	-9.67748
ine	-9.67816
ကာကွယ်	-9.67882
▁မတ်	-9.67885
ရေး၊	-9.67892
သမီး	-9.67935
▁စု	-9.68022
ကျူ	-9.68118
▁wa	-9.68179
ဖု	-9.68224
▁အရှေ့တောင်အာရှ	-9.68234
လျ	-9.68253
ဖြစ်သည်ဟု	-9.68256
အခြေခံ	-9.68274
▁စစ်ပွဲ	-9.68299
ဝတီ	-9.683
▁လှုပ်ရှား	-9.68317
▁စီမံ	-9.68367
များအနက်	-9.68434
▁ရှစ်	-9.68446
ဆိတ်	-9.68503
မည်။	-9.6852
လိုအပ်	-9.68573
နိုး	-9.68618
▁တို့သည်	-9.68671
89	-9.68745
စက်ရုံ	-9.68754
75	-9.68761
သို့မဟုတ်	-9.68778
ခဲ့ကြောင်း	-9.68781
ဆောက်	-9.68808
▁ထွန်းကား	-9.68833
▁အာဖရိက	-9.68898
▁အသုံးချ	-9.68904
▁၂၀၁၂	-9.68911
▁ကျေးရွာ	-9.69004
ကျူး	-9.6903
▁အီရန်	-9.69093
▁ထပ်	-9.69122
ရှိန်	-9.69166
▁မကြာခဏ	-9.69193
▁ကိန်း	-9.69285
ချက်များကို	-9.69298
▁ho	-9.69329
▁မို	-9.69331
များရှိ	-9.69351
▁ဂျွန်	-9.69391
▁ရေးသားခဲ့သည်။	-9.69523
ခေါက်	-9.6962
▁မြတ်စွာဘုရားသည်	-9.69665
၈၈	-9.69701
တိုင်းဒေသကြီး၊	-9.69723
▁သားသမီး	-9.69757
ယင်	-9.69815
ကွန်မြူနစ်ပါတီ	-9.69816
၃၆	-9.69816
▁ဂုဏ်	-9.69836
စို	-9.69847
▁ရာဇ	-9.69853
သခင်	-9.69854
ဇ္ဇ	-9.69863
92	-9.69895
ယာဉ်	-9.69897
▁အနာ	-9.69926
▁မြတ်စွာဘုရား၏	-9.69975
ရွှင်	-9.69998
ဟူသည်	-9.70122
ရှူး	-9.70139
အန်	-9.70145
ဘူ	-9.70228
မြား	-9.70254
ဖြစ်ရာ	-9.70259
စွန့်	-9.70347
ပျက်စီး	-9.70364
▁di	-9.7043
ru	-9.70454
▁ပါလီမန်	-9.7046
လေးပါး	-9.70461
ဥယျာဉ်	-9.70489
ပေးနိုင်	-9.70564
▁မု	-9.70568
▁mi	-9.70625
▁အင်္ဂလန်	-9.70668
မြို့၏	-9.70679
▁နိ	-9.70718
ခါး	-9.70751
hu	-9.70825
au	-9.70842
▁mg	-9.70869
▁ခံစား	-9.70929
▁အသီးသီး	-9.7093
ခိုက်	-9.7093
သိုက်	-9.70981
▁အရည်	-9.71045
ဘေ	-9.71052
နှင်	-9.71084
၄၈	-9.71148
▁ကောင်းမွန်	-9.71157
ဇင်း	-9.71157
▁ခွေး	-9.71168
သမ္	-9.71169
▁၁၉၉၀	-9.71171
ဝန်ထမ်း	-9.7123
▁မိဘ	-9.71239
တံတား	-9.71246
▁ရထား	-9.71258
ချည်	-9.71313
နိုင်ခဲ့	-9.71338
▁တန်ဖိုး	-9.71371
▁kone	-9.71383
ဒူ	-9.71509
ဖြစ်လေသည်။	-9.71519
နှင်း	-9.71571
ဖမ်း	-9.71591
ကြရာ	-9.71643
▁ထုံး	-9.71654
▁ရုရှား	-9.71688
စူး	-9.71693
ရှေး	-9.71719
နီးယား	-9.71727
လမ်းကြောင်း	-9.71817
ရိပ်	-9.71833
▁လူမှုရေး	-9.71839
▁ဒုက္ခ	-9.71873
▁တစ်နှစ်	-9.71919
▁ဝေါဟာရ	-9.71997
▁ra	-9.72012
လျော့	-9.72043
—	-9.72132
တပ်ဖွဲ့	-9.72136
▁မည်သို့	-9.72201
di	-9.72265
ya	-9.7228
ခံခဲ့ရ	-9.72362
အရောင်	-9.72421
လည်းဖြစ်သည်။	-9.72439
▁လူငယ်	-9.72458
၂၄	-9.72505
▁၂၉	-9.72546
သင်တန်း	-9.7257
ကျသော	-9.72664
ဘက်တွင်	-9.72724
▁သစ်တော	-9.72915
▁၂၀၀၇	-9.72916
su	-9.72941
ကျွန်	-9.73061
ဗ္ဗ	-9.73164
▁စာရေးဆရာများ	-9.73201
ပျို့	-9.73221
▁မပြု	-9.73236
တိတ်	-9.73265
သွန်း	-9.73323
ပက်	-9.73435
ဒေါ်	-9.73486
များဖြစ်သည်။	-9.73493
ရောင်း	-9.73544
လှုပ်ရှား	-9.73547
ပေးသော	-9.73578
ပြန်လည်	-9.73585
၇၅	-9.736
▁ပေါင်းစပ်	-9.73637
ပေါ်သို့	-9.73692
ent	-9.73715
▁punk	-9.73781
▁ကိုင်	-9.73813
po	-9.73815
▁ဖော်	-9.73818
ts	-9.73832
မှာမူ	-9.7384
ကြေ	-9.73877
ကိုးကွယ်	-9.73885
ကဲ့သို့သော	-9.73911
▁စ၍	-9.73939
ist	-9.73974
▁တောင်းဆို	-9.73977
စွယ်	-9.74004
ဒေသများတွင်	-9.74006
ဇော်	-9.74039
▁နန်းတော်	-9.74047
မှသာ	-9.74049
အတတ်	-9.74128
ရှို	-9.74243
ရာထူး	-9.74282
က္	-9.74323
အလွန်	-9.74333
ယုတ်	-9.74358
▁စက်တင်ဘာ	-9.74361
၉၀	-9.74389
▁အမည်ဖြင့်	-9.74391
▁ဝန်ဆောင်မှု	-9.74413
သင်္	-9.74416
ဟုဆို	-9.74436
▁လက်ဝဲ	-9.74436
ရှိနေ	-9.74526
▁ဖဆပလ	-9.74536
▁အမြင့်	-9.74564
▁ပန်	-9.74706
၂၃	-9.7473
အနား	-9.74781
▁မြင့်	-9.74812
လက္ခဏာ	-9.74841
om	-9.74853
▁၃။	-9.7486
ယပ်	-9.74939
▁အက္ခရာ	-9.7501
ပန်းချီ	-9.75063
▁လူမှု	-9.75158
▁ကား	-9.75175
မိုက်	-9.75338
▁ယော	-9.75399
▁ဖြစ်လာသည်။	-9.75466
ဖြစ်သဖြင့်	-9.75472
ခွဲခြား	-9.7551
၆၄	-9.75531
သာသနာ	-9.75575
si	-9.75588
မဂ္ဂဇင်း	-9.75652
▁တို	-9.75667
▁အများစု	-9.75696
ငြိမ်	-9.75761
သရုပ်ဆောင်	-9.75773
▁ကြိမ်	-9.75788
မ္ဗ	-9.75813
▁စီး	-9.75842
မျိုးစုံ	-9.75867
ီယာ	-9.75882
▁ဒီဂရီ	-9.75935
လှသော	-9.75969
▁အလျား	-9.76059
ပုတ်	-9.76214
၂၁	-9.76233
he	-9.76302
▁ချက်	-9.76306
ခူး	-9.7632
မစ်	-9.7634
အများစု	-9.76357
▁စတုတ္ထ	-9.7637
▁သာသနာ	-9.76399
▁နိုဝင်ဘာ	-9.76417
နှစ်ပါး	-9.76457
▁ထိုနှစ်	-9.76481
▁လက်ထက်	-9.76499
ll	-9.76522
မြတ်စွာဘုရား	-9.7654
မျက်နှာပြင်	-9.76575
ယှဉ်	-9.76592
▁ဂူ	-9.76609
သလောက်	-9.76671
▁ထူထောင်	-9.76772
၇၀	-9.76829
၂၆	-9.76875
၆၅	-9.76891
▁တီး	-9.76908
82	-9.76982
▁အစေ့	-9.77011
▁လူသိများ	-9.77207
ကျောင်းတော်	-9.77233
မှတဆင့်	-9.77234
▁၂၀၀၀	-9.77237
▁တရုတ်ပြည်	-9.77283
ရှိသူ	-9.77309
ဂု	-9.77347
▁တစ်နေ့	-9.77416
ကတ်	-9.77449
▁သတိ	-9.77464
ခဲ့ပြီးနောက်	-9.77492
▁မိနစ်	-9.77499
မှုတ်	-9.77534
ကျင်	-9.77567
▁ဘော	-9.77596
▁၁၉၄၈	-9.77609
အရင်း	-9.77643
ထဲ၌	-9.77651
အလို	-9.77669
ပင့်	-9.7771
▁အုပ်	-9.77781
လာခဲ့	-9.77831
ဦးစီးဌာန	-9.77831
တွက်	-9.77838
▁တောင်တန်း	-9.77906
▁ပြည်သူ	-9.77938
ပညာရပ်	-9.77977
ကျေး	-9.78049
▁စာချုပ်	-9.78136
ပတ်သက်	-9.78159
ယင်း	-9.78201
▁ဖြစ်နေ	-9.7832
▁ကုသ	-9.78325
hi	-9.78352
၅၅	-9.78362
ဆယ့်	-9.78485
ချ်	-9.78532
▁၁၉၈၀	-9.78538
ကိ	-9.78559
မြန်	-9.78566
အိပ်	-9.78633
အရေး	-9.78639
▁ဆန့်ကျင်	-9.78662
ဇေယျ	-9.78662
▁အိမ်ထောင်	-9.78692
▁နောက်ပိုင်း	-9.78707
သ်	-9.78726
▁အမတ်	-9.78747
▁ပေးအပ်	-9.78787
9	-9.78835
▁ချုပ်	-9.78836
အင်္ဂါ	-9.78849
va	-9.7885
မေ့	-9.78862
ပြသ	-9.79039
လာသည့်	-9.7904
အလျောက်	-9.79057
200	-9.79079
ယခု	-9.79085
လွှဲ	-9.79092
မဟုတ်ဘဲ	-9.79101
၃၈	-9.7917
သတ္တိ	-9.79221
▁ဦးခေါင်း	-9.79224
နုတ်	-9.79281
ဒ္ဒ	-9.79315
စီမံကိန်း	-9.79343
▁ကူး	-9.79351
▁ဆောက်	-9.79395
ဒေသများ	-9.79398
ngc	-9.79404
သူကြီး	-9.7941
▁လေဆိပ်	-9.79427
သဏ္ဌာန်	-9.79462
ပြုစု	-9.79481
▁လက်ထပ်	-9.79507
ထံသို့	-9.79531
ပတ်လည်	-9.79582
▁ဧက	-9.79614
တစ်ခုလုံး	-9.79627
အဖြစ်သို့	-9.79645
ဝန်းကျင်	-9.79679
be	-9.79702
▁ခံ	-9.79827
ty	-9.79865
▁လျှောက်	-9.7987
▁album	-9.79938
ဖ်	-9.79982
▁ထိပ်	-9.80045
မြိုင်	-9.80052
ပြင်းထန်	-9.80059
ဖြည့်	-9.8006
▁စွန့်	-9.80073
ဟုလည်း	-9.80077
ွက်	-9.80181
ဌ	-9.80201
▁ထိခိုက်	-9.80248
အန္တရာယ်	-9.80347
ရှိသဖြင့်	-9.80347
▁စည်း	-9.80396
▁လှုပ်ရှားမှု	-9.80408
▁ခရစ်ယာန်	-9.8041
▁အသုံး	-9.8042
▁ထန်း	-9.80498
▁နေ့စဉ်	-9.80502
ဖွံ့ဖြိုးတိုးတက်	-9.80508
▁တွဲဖက်	-9.8054
သည်အထိ	-9.80574
ဖြစ်လာသည်။	-9.80585
▁ဇန်နဝါရီ	-9.80648
ချိုး	-9.80663
▁ထိန်းချုပ်	-9.80678
မကြီး	-9.80699
လက်မ	-9.80741
▁အဲဒီ	-9.80757
▁ပါဠိ	-9.80865
ber	-9.80869
▁ပိတ်	-9.80876
▁ဂျပန်နိုင်ငံ	-9.809
▁အစည်းအဝေး	-9.80927
▁မျှ	-9.80982
မှတစ်ဆင့်	-9.81023
ကန်း	-9.81025
▁ရည်ရွယ်	-9.81033
ကြောင်းကို	-9.81037
▁ရိုးရာ	-9.81039
ရှမ်း	-9.81139
စစ်ဆေး	-9.8118
▁၃ဝ	-9.81277
သိုင်း	-9.81284
▁ထုတ်ပြန်	-9.81296
▁မောင်း	-9.81364
▁၎င်းသည်	-9.81379
ဒေါ	-9.814
▁အဖ	-9.81413
▁ပျူ	-9.81469
▁ဦးစီး	-9.81498
ဖဲ	-9.81546
ရရှိခဲ့သည်။	-9.81609
▁၁၉၄၇	-9.8165
▁အသိအမှတ်ပြု	-9.81725
▁အင်ဒိုနီးရှား	-9.81746
ပြိုင်ပွဲ	-9.81775
▁kan	-9.81788
ခဲ့ပါတယ်။	-9.81795
op	-9.81912
ပုံ၊	-9.81941
တုံ	-9.82045
▁so	-9.82066
ဘက်သို့	-9.8214
▁ပျက်	-9.82174
▁စတုရန်းမိုင်	-9.82197
သမဂ္ဂ	-9.82201
သူသည်	-9.82253
▁စမ်းသပ်	-9.82263
▁မရ	-9.82298
ပထမ	-9.82315
▁သတ်	-9.82337
နှော	-9.82345
▁အလယ်ပိုင်း	-9.82375
စောင့်ရှောက်	-9.82389
နပ်	-9.82405
▁ထမ်းဆောင်	-9.82451
ဗက်	-9.82523
▁အခွင့်အရေး	-9.8254
တုန်း	-9.82573
နှစ်ဦး	-9.82581
မှတ်တမ်း	-9.82644
ချဉ်	-9.82688
ွိုင်	-9.82716
▁ရည်ညွှန်း	-9.82725
▁စိုက်ပျိုးရေး	-9.82811
ွမ်း	-9.82862
▁စေတီတော်	-9.82874
▁၂၀၁၃	-9.82883
ခဲ့သဖြင့်	-9.83088
ပြွန်	-9.83094
▁စက်မှု	-9.83154
▁ဆိုင်ရာ	-9.83168
အမတ်	-9.83214
▁စားသောက်	-9.83219
▁ပညာသင်ကြား	-9.83262
▁လူသား	-9.83271
▁၂၀၀၆	-9.83348
▁ပတ်သက်၍	-9.83356
ကြက်	-9.83418
ဆက်ဆံ	-9.83422
+	-9.83426
နည်းဖြင့်	-9.83484
မင်းတရားကြီး	-9.83502
ant	-9.83507
စော်ဘွား	-9.83556
ဖြစ်ပေါ်	-9.83572
▁ပထမဦးဆုံး	-9.83586
ဖြစ်စဉ်	-9.83601
ရှီ	-9.837
မရှိဘဲ	-9.83806
စီရင်	-9.8381
တွေက	-9.83812
les	-9.83898
ငွေ့	-9.84019
ဖုန်း	-9.84054
▁စိုက်	-9.8406
▁ခရီးသွား	-9.84086
▁အုန်း	-9.84132
▁ဖြစ်ခဲ့သည်။	-9.84142
ခွံ	-9.84182
▁ပို့	-9.84202
▁ဖေဖော်ဝါရီ	-9.84246
▁မီတာ	-9.8432
▁၁၉၄၅	-9.84354
သွားခဲ့သည်။	-9.84364
ခွင့်ရ	-9.84368
ခဲ့ကာ	-9.84374
ဆန္ဒ	-9.84399
ညောင်	-9.84423
ပြုတ်	-9.8444
▁စွဲ	-9.84504
စာဆို	-9.84517
▁တံတား	-9.84569
▁pro	-9.8458
ဖြစ်နေ	-9.84606
ကြသည်	-9.84634
ရှိသော်လည်း	-9.84649
▁လျှောက်ထား	-9.84673
▁ဖြစ်ပေသည်။	-9.84686
▁ခင်	-9.8473
ကျွန်းဆွယ်	-9.84744
ကောင်းမွန်	-9.84787
▁အာကာသ	-9.84799
▁ထိုင်	-9.84848
▁တစ်ဖန်	-9.84853
▁ဆက်စပ်	-9.84856
▁နယ်နိမိတ်	-9.84867
၄၂	-9.84868
ခဲ့ခြင်းဖြစ်သည်။	-9.84919
▁ဖိလစ်ပိုင်	-9.84958
ဘုန်း	-9.84981
အမျိုးသမီး	-9.84994
အကြီးဆုံး	-9.85016
▁ဖြစ်လာခဲ့သည်။	-9.85033
ကိုမူ	-9.85074
▁အစု	-9.85088
▁ဘောလုံး	-9.85089
ဖြန့်	-9.85118
▁အဝေး	-9.8514
ရေးဆွဲ	-9.85149
ပွဲများ	-9.85155
၂၈	-9.8516
▁...	-9.85171
လေယာဉ်	-9.85189
၉၅	-9.85233
ကောင်းသော	-9.85238
▁ဝယ်ယူ	-9.85283
နိုင်ငံ၊	-9.85307
▁ပြဇာတ်	-9.85327
ကလပ်	-9.85335
ခံရသည်။	-9.8535
ဇု	-9.85351
ပြင်ရွာ	-9.85352
▁ကော	-9.85362
▁အရိုး	-9.85381
နိုင်ငံရေး	-9.85404
▁၃၁	-9.85489
▁ဖွဲ့စည်းပုံ	-9.85674
▁ဥယျာဉ်	-9.85713
၃၄	-9.85723
ကြသည့်	-9.8577
မြှောက်	-9.85798
▁ကျောက်စာ	-9.85813
ဘင်	-9.85868
▁tha	-9.85911
ကျက်	-9.85918
▁ကိစ္စ	-9.85922
ဂျင်	-9.85984
ပြန့်	-9.85994
မောင်မောင်	-9.86016
မာန်	-9.86024
▁ထား	-9.86045
ကြောင်	-9.86087
သတ္တဝါ	-9.86093
အူ	-9.86103
ကျန်း	-9.86125
▁da	-9.86134
▁သင်္ကန်း	-9.86148
▁နဂါး	-9.86185
နွေး	-9.86209
▁ex	-9.86224
င်္	-9.86315
▁ညီ	-9.86329
နိုင်ငံများတွင်	-9.86338
ဇို	-9.86342
မှန်း	-9.8635
▁gyi	-9.86364
မုန်း	-9.86395
▁မင်းတုန်းမင်း	-9.86412
ပေးရသည်။	-9.86418
▁သင်တန်း	-9.86429
ပါတယ်	-9.86451
ဒေါင့်	-9.86467
▁ယိုးဒယား	-9.86476
အမည်မှာ	-9.86476
▁ဗကပ	-9.86477
▁ရောက်ရှိလာ	-9.86513
အုန်း	-9.86555
မျှင်	-9.86556
▁ဆိုင်	-9.86564
▁ကျေးဇူး	-9.86661
▁လူတို့	-9.86673
▁ဆိုရှယ်လစ်	-9.86694
ဗင်	-9.86724
ကြေညာ	-9.86737
စံနစ်	-9.86741
လှုပ်ရှားမှု	-9.86773
ies	-9.86787
▁သက်တမ်း	-9.86863
ိက	-9.86885
၂၇	-9.8689
နော	-9.86901
ဘုရား၏	-9.86902
တိုင်ပင်	-9.86978
▁ဖွင့်	-9.86983
▁မင်းသမီး	-9.86992
သူ၏	-9.87021
▁ဖြစ်၍	-9.87129
▁ရိုက်	-9.87132
▁min	-9.87138
▁လက်တွေ့	-9.87282
ကျောင်းတိုက်	-9.87323
သေးငယ်	-9.87333
011	-9.87418
▁vi	-9.87432
▁ဟော	-9.87453
မင်းသမီး	-9.8749
နန္ဒ	-9.87503
ဇ်	-9.8752
nu	-9.87531
ဓိ	-9.87541
ပါဝင်သော	-9.87593
▁အတည်ပြု	-9.87593
ပြုပြင်	-9.87605
၅၂	-9.87685
▁by	-9.87696
▁ဖြစ်ကြ	-9.87736
▁ငြိမ်းချမ်းရေး	-9.87738
▁အကျဉ်း	-9.87779
မိဖုရား	-9.87815
တိုင်းရင်းသား	-9.87819
▁အမှန်	-9.87867
အကြား	-9.87875
▁သံဃာ	-9.87911
မြို့နယ်တွင်	-9.87944
ရွတ်	-9.87955
▁u	-9.88035
သွားသော	-9.88044
ary	-9.88146
ဆိပ်ကမ်း	-9.8815
▁ဧရာဝတီမြစ်	-9.88166
▁as	-9.88171
နှင့်အညီ	-9.88181
▁mu	-9.88197
▁ကြောက်	-9.88218
ဟုခေါ်	-9.88227
အမြင်	-9.88244
ပွတ်	-9.88376
▁ခွင့်ပြု	-9.8841
▁မော်လမြိုင်	-9.88422
bi	-9.88434
၈၄	-9.88486
န္	-9.8858
der	-9.88659
▁ဘုန်း	-9.88694
သော်လည်းကောင်း၊	-9.88695
▁ပေါင်	-9.88726
ခရစ်	-9.8874
ယေ	-9.88843
▁စသည်တို့ကို	-9.88861
▁တွေ့ဆုံ	-9.88876
▁ထိုအချိန်တွင်	-9.88929
လှိုင်း	-9.88962
▁အသုံးပြုကြသည်။	-9.89033
▁သက်ဆိုင်ရာ	-9.89035
မြို့ရှိ	-9.89067
သွန်	-9.89092
▁အမျိုး	-9.89133
တစ်ဆူ	-9.89138
ဗန်	-9.89161
▁တိုးချဲ့	-9.89178
▁ပရိသတ်	-9.89228
အားကစားပြိုင်ပွဲ	-9.89229
အထူး	-9.89244
▁နန်းတက်	-9.89298
၅၆	-9.89351
▁မည်သူ	-9.89356
အိတ်	-9.89426
age	-9.89449
အရပ်ရပ်	-9.89469
နာမည်	-9.89595
▁မယ်	-9.8963
▁အန္တရာယ်	-9.8966
ရယူ	-9.8969
အရွယ်	-9.89709
ဈာန်	-9.89715
ရာ၊	-9.89745
တည်း။	-9.89849
▁နံနက်	-9.89849
လူမျိုးတို့	-9.89892
ers	-9.89954
ပစ္စည်းများကို	-9.89973
▁ga	-9.89981
အားလုံးကို	-9.89986
▁ရှည်လျား	-9.90016
နိုင်ငံသည်	-9.90025
▁ဂျီ	-9.90066
▁ပုံသဏ္ဌာန်	-9.90081
▁မသိ	-9.90087
▁တေး	-9.90117
▁၄။	-9.90146
▁အတွင်းရေးမှူး	-9.90189
0150	-9.90198
ခြင်း။	-9.90216
▁၁၉၆၂	-9.90268
▁အင်္ဂါ	-9.90273
▁၂၀၁၇	-9.90274
tt	-9.90291
အသီးသီး	-9.90297
▁an	-9.90307
စိုင်း	-9.90317
ပမာဏ	-9.90353
ံ့	-9.90358
▁ဧရာဝတီ	-9.90373
▁ကူးစက်	-9.90492
▁ပြင်သစ်နိုင်ငံ	-9.90589
ခဲ့ဖူး	-9.90703
မုံ	-9.90715
ill	-9.90728
▁ဘိက္ခုနီ	-9.90787
တင်ပြ	-9.90825
▁စက်ရုံ	-9.9084
သာရ	-9.90866
▁အခွန်	-9.90894
▁ဇူလိုင်	-9.90945
▁သီလ	-9.90952
▁ခဲ	-9.90962
ခန္ဓာ	-9.91008
နှစ်အရွယ်	-9.91074
၄၆	-9.91083
▁အများအားဖြင့်	-9.91104
▁ချမ်းသာ	-9.91113
▁တင်း	-9.91129
ဆတ်	-9.91181
▁အများ	-9.91183
တီထွင်	-9.91189
▁ဉာဏ်	-9.91219
နိုင်ပေသည်။	-9.91293
▁ကာကွယ်ရေး	-9.91295
သိမ်	-9.91296
ရှိကြောင်း	-9.91302
ကနေ	-9.91304
▁များပြား	-9.91322
လိမ်	-9.91438
နှစ်ယောက်	-9.91493
▁တန်ခိုး	-9.9151
har	-9.91519
▁သင်ယူ	-9.91522
သဖွယ်	-9.91576
▁ရယူ	-9.91578
မှိုင်း	-9.91589
▁အီတလီ	-9.91593
▁v	-9.91637
▁တိ	-9.91684
၉၆	-9.91711
ဖြစ်သောကြောင့်	-9.91725
ရာစု	-9.91755
၌ပင်	-9.91778
ဗတ်	-9.91846
▁သပြေ	-9.91892
သီလ	-9.91965
အစီအစဉ်	-9.91982
အုတ်	-9.91992
▁ဟင်း	-9.91994
မနေ	-9.92025
၄၇	-9.92129
▁ခုနှစ်၌	-9.92158
▁အစဉ်	-9.92169
▁ဘက်	-9.92187
▁သီတင်းသုံး	-9.92258
▁လျှို့ဝှက်	-9.92276
သမားများ	-9.92283
▁၅၀	-9.92314
▁ဘာသာပြန်	-9.92335
▁သွားလာ	-9.92354
အလင်း	-9.92355
တမန်	-9.92358
ရွေးချယ်	-9.92413
▁ထားဝယ်	-9.92414
▁ကော့	-9.92439
ထဲမှာ	-9.92441
၈၅	-9.92471
တော်မူ၏။	-9.92472
လာခြင်း	-9.92517
▁ထက်	-9.92534
စေခြင်း	-9.92537
ထူထပ်	-9.92562
၁ဝ	-9.9263
▁သိရသည်။	-9.92642
tri	-9.92672
၉၉	-9.92673
▁ဆူး	-9.92701
▁ညောင်ပင်	-9.9272
▁20	-9.92775
ရက်မြောက်	-9.9279
ဗော	-9.92798
ပံ	-9.92831
▁တိုး	-9.92896
▁အီဂျစ်	-9.92914
ရေးအဖွဲ့	-9.92942
နည်းတူ	-9.93005
▁3	-9.93036
▁မြို့မ	-9.93039
▁ရှာ	-9.93042
နိုင်၏။	-9.93043
▁ပြသ	-9.93117
▁အာရပ်	-9.93173
ရေကျော်	-9.93201
▁မေတ္တာ	-9.93214
ကြသဖြင့်	-9.93335
မြူ	-9.93392
fo	-9.934
▁အပိုင်း	-9.9345
မသိ	-9.9347
အရေးအသား	-9.93496
▁ဟုခေါ်	-9.93517
သူများသည်	-9.93518
▁မြန်မာနိုင်ငံ၏	-9.9355
wi	-9.93553
▁ကြည့်ရှု	-9.93573
ထိန်းသိမ်း	-9.93615
▁ဘုံ	-9.93662
ညီလာခံ	-9.93711
ခြင်းခံရ	-9.93723
ယူ၍	-9.93777
▁အပွင့်	-9.93784
ကုတ်	-9.93784
အဆို	-9.9381
▁နားလည်	-9.93819
ဆိုက်	-9.93822
အစည်းအဝေး	-9.93856
ကျို	-9.93936
▁ပယ်	-9.93983
များပြား	-9.93986
▁အထက်တန်း	-9.93988
မို့	-9.93993
▁ခန္ဓာကိုယ်	-9.94035
စောင်	-9.94039
လိုလား	-9.9406
ကွေး	-9.941
tic	-9.94124
▁အကယ်၍	-9.94161
land	-9.94166
▁ကျွန်	-9.94179
▁မှတ်သား	-9.94188
▁ရည်ရွယ်ချက်	-9.94227
စတုရန်းကီလိုမီတာ	-9.94243
▁ro	-9.94339
နိုင်အောင်	-9.94374
▁သီ	-9.9445
တို့အတွက်	-9.94491
တန်ဆာ	-9.94527
ထွင်း	-9.94561
▁မတူ	-9.94609
တရုတ်	-9.9463
▁နေပြည်တော်	-9.9465
▁မြန်မာနိုင်ငံ၊	-9.94767
par	-9.94857
နေပြီး	-9.94871
ကြွယ်ဝ	-9.94904
▁လွှမ်းမိုး	-9.94904
▁စာတမ်း	-9.94969
အဖွဲ့၏	-9.94981
▁လိုက်နာ	-9.94998
ပြင်ဆင်	-9.95004
ab	-9.95004
ကျွမ်း	-9.95029
ထားလေသည်။	-9.95048
ဟ်	-9.95106
▁was	-9.95173
ဆိုလျှင်	-9.95183
▁သဘောတူ	-9.95202
ဂန်	-9.95266
တစ်ခုခု	-9.95274
▁ကျယ်ဝန်းသည်။	-9.95275
▁ထူးခြား	-9.95278
▁ပုံမှန်	-9.95293
▁၁၉၈၈	-9.95301
▁တောက်	-9.95332
ရန်ကုန်တက္ကသိုလ်	-9.95351
ပါသော	-9.95422
ပိုင်ခွင့်	-9.95443
ထံတွင်	-9.95446
ရရှိသော	-9.95477
▁ဝေး	-9.95499
ွှ	-9.95512
▁ခံရ	-9.95526
▁တူးဖော်	-9.9553
တည့်	-9.95545
▁ကောင်စီ	-9.95581
ရာဇဝင်	-9.9567
အနုပညာ	-9.95699
ဒိုင်း	-9.95717
ငါ	-9.95728
▁ကင်	-9.95788
amp	-9.95811
ium	-9.95821
▁ယခုခေတ်	-9.95835
▁သမ	-9.95864
▁ကမ်း	-9.95892
▁လီ	-9.9599
ပျ	-9.96013
▁ca	-9.96065
▁စေလွှတ်	-9.96113
ယှဉ်ပြိုင်	-9.96115
ဆိုတာ	-9.96119
ရိယ	-9.96127
ဘာသာဖြင့်	-9.96147
ဖိအား	-9.96191
နိုင်ပြီး	-9.96193
▁စကားလုံး	-9.96224
အင်ပါယာ	-9.96244
▁၂၀၀၅	-9.96255
do	-9.96284
၄၀	-9.96406
ရောင်းချ	-9.9643
စစ်တပ်	-9.9645
▁သစ်သား	-9.96496
စသည့်	-9.96506
▁ဝန်ထမ်း	-9.96511
▁စည်းရုံး	-9.96533
ot	-9.96539
▁လည်	-9.96544
ကြိတ်	-9.96563
▁ဘဏ်	-9.96591
ph	-9.96617
ငယ်များ	-9.96621
ku	-9.96639
▁သူမ	-9.96641
▁ဧပြီ	-9.96646
အပိုင်း	-9.96698
▁မော	-9.96702
၄၃	-9.96725
▁လေ့ကျင့်	-9.9673
ရှိသည်ဟု	-9.96764
▁ဖာ	-9.96792
ok	-9.96831
▁ကျိုက်	-9.96838
▁သင့်	-9.96873
လေ့ရှိကြသည်။	-9.96918
▁အမြင့်ဆုံး	-9.9694
ive	-9.9694
စကားကို	-9.96948
ဆုံးသော	-9.96964
▁ရှိ၏။	-9.96975
io	-9.9699
နည်းပညာ	-9.96997
ိန္ဒ	-9.97029
▁အေဒီ	-9.9703
သီရိ	-9.97131
▁တို့၏	-9.9714
▁အလို	-9.97141
▁ပေါက်ရောက်	-9.97149
ေယျ	-9.97156
ဖိ	-9.97165
ရတ်	-9.9722
၄၄	-9.97267
▁မြန်မာစာ	-9.97285
ပေးခဲ့	-9.97328
ရှော	-9.97358
▁လိင်	-9.97374
ရာဇ်	-9.97432
တတ်ကြသည်။	-9.97446
အဖွဲ့ချုပ်	-9.97512
အခြား	-9.97547
▁ဂါ	-9.97575
▁ခါး	-9.97587
▁ရှေးခေတ်	-9.97677
ဟေ	-9.9776
လုပ်ငန်းကို	-9.97761
ဆိုသည်။	-9.97777
ရမ်	-9.97779
၃၉	-9.9788
▁ထောက်ပံ့	-9.97893
▁ဘာသာရပ်	-9.97899
ဖွယ်ရာ	-9.97939
ကြသော်လည်း	-9.97944
ai	-9.97951
တပါး	-9.97976
▁ပူဇော်	-9.98024
ဂိ	-9.98049
▁အာရုံ	-9.98054
သောင်းကျန်းသူ	-9.98087
စွမ်းအင်	-9.98093
▁မြတ်	-9.98114
များအရ	-9.98118
၆၈	-9.98132
▁နည်းလမ်း	-9.9817
ယာမ	-9.98182
ပြည့်စုံ	-9.98198
▁တပ်ရင်း	-9.98218
▁အစားထိုး	-9.9825
▁na	-9.98259
ကျောက်စာ	-9.98265
ဆွ	-9.98289
ိတ	-9.98342
ိယ	-9.98364
မှော်	-9.98379
ပညာကို	-9.98399
▁ကိုယ့်	-9.98449
cy	-9.98462
▁နယ်ချဲ့	-9.98473
ုပ်	-9.9849
▁အပူချိန်	-9.98496
▁အနု	-9.98532
min	-9.98596
နှစ်ဖက်	-9.98663
မှုဖြင့်	-9.98713
န္ဒ	-9.98746
အမ်	-9.9876
သွားလာ	-9.98798
ကော့	-9.98827
၅၈	-9.98837
သုံးပါး	-9.9886
▁အဆောက်အအုံ	-9.98864
ပြဿနာ	-9.98888
ခရီးစဉ်	-9.989
တံခါး	-9.9892
▁ဦးကျော်	-9.98932
▁နှစ်ခု	-9.98945
▁ဆင်းရဲ	-9.98971
▁pin	-9.99021
▁bu	-9.99051
စေသော	-9.99054
▁ဗြိတိသျှတို့	-9.991
ရပြီး	-9.99159
ဗ်	-9.99209
ဗုံး	-9.99228
ပိုဒ်	-9.99292
▁သီဆို	-9.99332
▁ဩဇာ	-9.99334
ကမူ	-9.99341
အများအပြား	-9.99352
▁အယ်လ	-9.99417
▁new	-9.99428
ကာလတွင်	-9.99444
အဖြစ်ဖြင့်	-9.99472
way	-9.99476
51	-9.99595
လက်ခံ	-9.99597
သမိုင်းတွင်	-9.99641
▁i	-9.99681
မင်းသည်	-9.99725
▁သခင်စိုး	-9.99737
▁မြို့ပြ	-9.9974
လျက်ရှိသော	-9.99748
▁ချမှတ်	-9.99803
ဖြစ်သော်လည်း	-9.99827
ထွန်းကား	-9.99862
▁လက်နက်ကိုင်	-9.99893
ဘုတ်	-9.99929
၄၉	-9.99952
port	-10.0004
၂၉	-10.0007
သူများကို	-10.0008
ို	-10.0009
ဒယ်	-10.0012
ရတု	-10.0013
ငါးပါး	-10.0015
နောက်ပိုင်း	-10.002
လိုင်	-10.0021
▁ရောက်လာ	-10.0024
▁အလုပ်လုပ်	-10.0024
ကွေ့	-10.0027
▁တိုင်	-10.0027
နေသူ	-10.0028
▁စိတ်ဝင်စား	-10.0028
cu	-10.0038
ပျော့	-10.004
▁ဟူ	-10.0041
ong	-10.0042
ချိတ်	-10.0043
မည်ဖြစ်သည်။	-10.0048
▁ကာတွန်း	-10.005
ပြတိုက်	-10.006
▁ဩစတြေးလျ	-10.007
့ခ်	-10.0073
uk	-10.0076
ဒု	-10.0076
ko	-10.0078
တစ်ရာ	-10.0079
▁နောက်ထပ်	-10.0086
ကိုပင်	-10.0086
ဒုတိယ	-10.0087
လွှမ်းမိုး	-10.009
ရသည်	-10.0091
▁ပါဝင်ခဲ့သည်။	-10.0093
ဆွေးနွေး	-10.0094
▁နှစ်မျိုး	-10.0094
▁ဟိဂရှိ	-10.0096
၉၈	-10.0097
▁လူအများ	-10.0099
▁ရဟန်းတို့	-10.0101
မှောင်	-10.0105
၆၇	-10.0107
လုံးကို	-10.0111
ell	-10.0114
တစ်နိုင်ငံ	-10.0115
ပြစ်	-10.0116
▁ပေါ်ပေါက်	-10.0116
▁စီးဆင်း	-10.0121
▁ကြောင်	-10.0123
မွန်း	-10.0123
ခံစား	-10.0124
တောင့်	-10.0126
ကရင်	-10.0126
bu	-10.0128
▁ဒိုင်	-10.0132
ity	-10.0133
▁ဂျို	-10.0133
ခေတ်တွင်	-10.0134
၆၂	-10.0135
ဦးရေ	-10.0138
▁ဆက်သွယ်ရေး	-10.0143
▁with	-10.0146
ပူဇော်	-10.0149
ဇာတ်ကား	-10.0151
တွင်းသို့	-10.0153
▁နိုင်ငံ၏	-10.0153
၈၂	-10.0153
▁ဖွားမြင်	-10.0158
ဦးစီး	-10.0159
မုန်တိုင်း	-10.0161
နေ့တွင်	-10.0162
ချုံ	-10.0165
မပါ	-10.0166
ဒေဝ	-10.0166
▁ကိုယ်စားပြု	-10.0171
၆၆	-10.0171
ိုး	-10.0176
▁အဖြစ်ဖြင့်	-10.0176
aw	-10.0177
▁ဇီဝ	-10.0177
သစ္စာ	-10.0182
▁အစိုးရအဖွဲ့	-10.0185
၅၃	-10.0186
ခုံး	-10.0195
ction	-10.0201
ဟစ်	-10.0202
သီအိုရီ	-10.0203
၉၄	-10.0205
ပြီးမှ	-10.0205
▁ကွန်မြူနစ်ပါတီ	-10.0211
အနီးတွင်	-10.0214
ကွယ်လွန်	-10.022
ရှ်	-10.0221
ရခိုင်	-10.0228
▁တီ	-10.0228
၅၇	-10.023
များဖြစ်သော	-10.0231
che	-10.0231
▁စားသုံး	-10.0233
ပေါ်ရှိ	-10.0234
▁မကောင်း	-10.0234
▁လိပ်	-10.0234
▁ဖွံ့ဖြိုး	-10.0239
▁ဗီ	-10.0241
▁လုပ်ငန်းများ	-10.0242
မပြု	-10.0244
ဖြစ်ထွန်း	-10.0247
▁မကြာမီ	-10.0248
▁အားပေး	-10.0254
▁သပိတ်	-10.0255
မင်း၏	-10.0265
ကြာမြင့်	-10.0268
▁ပုံနှိပ်	-10.0269
▁မကွေး	-10.0274
▁အင်ဂျင်နီယာ	-10.0279
တောရွာ	-10.0279
▁မှတ်တမ်းတင်	-10.0279
ခံယူ	-10.0282
▁အောင်မြင်မှု	-10.0282
ဖြစ်အောင်	-10.0283
▁ရှင်းလင်း	-10.0283
မတူ	-10.0286
▁စွမ်းအင်	-10.0288
▁နှစ်ဦး	-10.0297
▁ငါ့	-10.0297
၇၂	-10.0303
ကျောင်းတွင်	-10.0305
▁ထိုကဲ့သို့	-10.0314
ခံခဲ့ရသည်။	-10.0315
vo	-10.0318
▁ပြေး	-10.032
so	-10.0329
▁ပိုင်း	-10.0331
▁ပုဂ္ဂလိက	-10.0332
▁si	-10.0336
ပုန်း	-10.0338
နန်းတော်	-10.034
ဝိဇ္ဇာ	-10.0348
win	-10.0354
ဖလား	-10.0354
mon	-10.0355
▁ဆင်းသက်လာ	-10.0357
▁ဗီယက်နမ်	-10.0359
▁အရေးပါ	-10.0361
ဆည်	-10.0362
၉၂	-10.0368
▁အရာရှိ	-10.037
ဏာ	-10.0375
၆၃	-10.0379
▁ပြိုင်ပွဲ	-10.0379
သော်လည်းကောင်း	-10.038
ခြင်းတို့	-10.038
အကျဉ်း	-10.0381
tha	-10.0386
ဝေါ	-10.0387
ခွင့်ပြု	-10.0393
▁ရွှေဘို	-10.0394
▁အထက်တန်းကျောင်း	-10.0395
▁ရေခဲ	-10.0398
▁ပညာရှင်	-10.0399
▁ဂျူ	-10.0401
pp	-10.0402
ki	-10.0404
၆၀	-10.0407
▁လောင်း	-10.0409
▁အနှစ်	-10.041
ရအောင်	-10.0415
▁၁၉၆၃	-10.0416
▁ယင်းတို့	-10.0418
▁စီရင်	-10.0422
ဒါန	-10.0424
▁အခမ်းအနား	-10.0424
ကမ်းခြေ	-10.0428
နှိပ်	-10.0428
▁တည်ရှိပြီး	-10.043
ယုံ	-10.0433
လှူဒါန်း	-10.0436
လမ်းစဉ်	-10.0436
▁ar	-10.0437
၈၀	-10.0438
ie	-10.0448
ဖြစ်ခဲ့သည်။	-10.0451
ကျီး	-10.0453
▁အမြစ်	-10.0462
အဖွဲ့သည်	-10.0463
▁man	-10.0465
ပို့ချ	-10.0466
ral	-10.0467
▁လော	-10.0468
ကြီးထွား	-10.047
▁အနည်းဆုံး	-10.0475
ရုပ်တု	-10.0482
▁ဇာတိ	-10.0487
and	-10.0487
ကျုံ	-10.0489
ကဲ့သို့ပင်	-10.0489
▁တန်း	-10.0495
▁ရှေးအခါက	-10.0497
ဘန်	-10.05
အမေရိက	-10.0502
မရှိသော	-10.0503
▁ဆက်ခံ	-10.0507
ပေးသည့်	-10.0511
ဒစ်	-10.0512
၇၆	-10.0513
အဖို့	-10.0514
▁ရှု	-10.0514
ပညာရေး	-10.0516
သုခ	-10.0523
လွမ်း	-10.0525
za	-10.0527
ဂေ	-10.0531
▁စောင့်	-10.0535
▁ဝင်း	-10.0539
▁စင်	-10.0541
▁လက်ထက်တွင်	-10.0541
▁စင်ကာပူ	-10.0542
ste	-10.0547
တစ်ကောင်	-10.0548
၈၃	-10.0549
ဉ္စ	-10.055
▁တော်လှန်	-10.0554
နေရာများ	-10.0555
ခွေး	-10.0568
နွဲ့	-10.057
▁ဒေ	-10.057
▁ပျံသန်း	-10.0571
▁သကြား	-10.0572
တို့ကြောင့်	-10.0574
▁တစ်ကြိမ်	-10.0581
ကျန်းမာရေး	-10.0586
▁အယ်ဒီတာ	-10.0587
▁ကြီးမား	-10.0588
မမြင်	-10.0588
▁ဗိုလ်မှူး	-10.059
▁ပမာဏ	-10.0591
▁လွတ်	-10.0594
သက်သက်	-10.0597
စသည်တို့	-10.06
အနေနှင့်	-10.06
▁do	-10.0601
▁ဟီ	-10.0601
ဆောင်း	-10.0602
▁ဖြေရှင်း	-10.0609
လွှား	-10.062
၈၉	-10.0625
▁ရှည်	-10.0626
တစ်စုံ	-10.0629
▁ဦးအောင်	-10.0629
▁၁၀၀	-10.0629
တ္တာ	-10.0631
မခံ	-10.0635
▁ထိုအချိန်	-10.0635
ဘို့	-10.0637
ကုန်၏။	-10.0638
မီတာ	-10.0638
ဒေ	-10.0641
▁ပရို	-10.0644
–	-10.0647
ငှား	-10.0648
မှုမှာ	-10.0654
▁အာဖရိကတိုက်	-10.0657
ထန်	-10.0663
▁အကျယ်	-10.0665
▁ဓာတ်ပုံ	-10.0669
ကမ္မ	-10.0669
▁အရေးပါသော	-10.067
ze	-10.0675
▁မွေးဖွားခဲ့သည်။	-10.0675
ဘွား	-10.0676
▁ရေဒီယို	-10.0676
ကျွန်းစု	-10.0677
▁လှိုင်း	-10.0678
ကွဲပြား	-10.0679
▁ကျရောက်	-10.0679
▁နှစ်သက်	-10.068
▁+	-10.068
▁အကြောင်းအရာ	-10.0682
လင်္ကာ	-10.0682
▁အမည်ရှိ	-10.0685
▁ဖြေ	-10.0685
▁ပျံ့နှံ့	-10.0687
▁စုပေါင်း	-10.069
၃၅	-10.0692
▁ကော်မရှင်	-10.0699
မျိုးဆက်	-10.0704
▁ဖော်ပြထားသည်။	-10.0705
ကျော်ကြား	-10.0707
▁အမြောက်အမြား	-10.0708
▁ခုတွင်	-10.071
▁လန်ဒန်	-10.071
ရင်းနှီး	-10.0711
▁ဆောင်းပါး	-10.0713
ပင်း	-10.0713
lan	-10.0717
▁စောင့်ရှောက်	-10.0718
တတ်မြောက်	-10.0725
ခြင်းမှာ	-10.0732
ဝဏ္ဏ	-10.0738
▁fa	-10.074
ကျေ	-10.0741
လက်နက်	-10.0742
ပုံမှာ	-10.0744
ကြ၍	-10.0744
နိုင်လေသည်။	-10.0745
၅၉	-10.0748
▁ကလေးများ	-10.0752
ဉ်	-10.0752
▁ဇီး	-10.0754
တစ်ဦးဖြစ်သည်။	-10.0765
အာပတ်	-10.0772
နေကြသည်။	-10.0774
လွှင့်	-10.0775
▁ကြိုတင်	-10.0787
▁ဖြစ်ကြောင်း	-10.0787
▁အလေး	-10.0788
မြှင့်တင်	-10.079
▁တချို့	-10.0798
▁သောက်	-10.0798
၄၅	-10.0807
ဂုံ	-10.0807
ဆိုရင်	-10.0808
ကိုယ်စားလှယ်	-10.0809
ဂျင်း	-10.0811
▁တိုင်းတာ	-10.0814
ကျည်	-10.0816
မဖြစ်	-10.0817
တယောက်	-10.082
▁စုစည်း	-10.0821
q	-10.0828
▁system	-10.0833
▁အထက်ပါ	-10.0837
သွားလေသည်။	-10.0842
▁စသည်	-10.0843
လ္လ	-10.0845
ရိုက်ကူး	-10.085
တုန်	-10.0854
၉၇	-10.0856
မဏိ	-10.0862
▁တွေ့ရှိရ	-10.0864
တိရစ္ဆာန်	-10.0864
ငို	-10.0866
ard	-10.0867
▁သူငယ်	-10.087
tra	-10.0877
၅၄	-10.0878
py	-10.0878
cre	-10.088
ဇိ	-10.0881
▁ကောလိပ်	-10.0888
မြောင်း	-10.0888
တစ်ဖက်	-10.0889
သက္ကရာဇ်	-10.0889
▁ဂျာမနီ	-10.0892
တောင်ရွာ၊	-10.0893
▁19	-10.0893
▁ခြ	-10.0893
ညှိ	-10.0895
▁၂၀၀၄	-10.0898
၅၀၀	-10.0898
▁ကျန်ရစ်	-10.09
နိုင်ကြ	-10.09
▁ဒေသခံ	-10.0901
▁ပြင်	-10.0904
သိပ်	-10.0911
▁မန်	-10.0912
mp	-10.0912
သိမ်းပိုက်	-10.0913
များအတွင်း	-10.0914
ရှိသည်	-10.0915
▁လူမျိုးစု	-10.0915
လေဆိပ်	-10.0916
▁ဖျက်ဆီး	-10.0918
မ့်	-10.0921
ရဏ	-10.0925
စက္က	-10.0925
ဒုံ	-10.0926
▁ခုခံ	-10.0928
အုံး	-10.093
စည်သူ	-10.0939
▁ယင်းသည်	-10.0942
▁ချီ	-10.0944
▁၅။	-10.0949
ဂျေ	-10.0954
နှစ်တွင်	-10.0957
▁၂ဝဝ	-10.0958
▁po	-10.0961
များဖြစ်ကြ	-10.0962
▁ရာဇဝင်	-10.0965
tan	-10.0965
▁at	-10.0967
▁အထိမ်းအမှတ်	-10.0967
▁ဖြတ်သန်း	-10.0968
ဇရပ်	-10.0972
▁–	-10.0974
ဇုန်	-10.0981
အနေအထား	-10.0981
▁လင်	-10.0982
▁ဝတ္ထုတို	-10.0983
စရိတ်	-10.0994
ct	-10.1004
ုတ္တ	-10.1006
0040	-10.1006
▁စုဆောင်း	-10.101
▁နုတ်ထွက်	-10.1011
▁၄၀	-10.1015
မျှတ	-10.1019
tho	-10.1021
လ္လာ	-10.1023
ဟုတ်	-10.1025
၉၁	-10.1025
[	-10.1026
▁chaung	-10.1026
ရာဇ	-10.1027
ရွှ	-10.103
▁လွန်	-10.1031
▁ရောင်	-10.104
ပလ္လင်	-10.1042
ဘွဲ့ကို	-10.1045
▁ဥပ	-10.105
▁လွန်စွာ	-10.1051
ကာလအတွင်း	-10.1054
tro	-10.1055
တလျှောက်	-10.1059
▁ပက်	-10.1059
▁သထုံ	-10.1061
▁စော်ဘွား	-10.1061
ဗလ	-10.1062
gr	-10.1063
▁ဝန်	-10.1064
▁ရွေးကောက်	-10.1068
▁အပ်	-10.1071
▁ဗာ	-10.1072
၆၉	-10.1072
▁ကျယ်ပြန့်	-10.1072
ဇွန်	-10.1076
▁ဖောက်	-10.1076
တိုင်းပြည်	-10.1078
cal	-10.1083
▁ဖျက်သိမ်း	-10.109
ဖြောင့်	-10.1091
သူ၊	-10.1093
7025	-10.1095
မှို	-10.1096
ပြီးသော	-10.1105
စွပ်	-10.1106
ပိုင်ရှင်	-10.111
▁နာမည်ကျော်	-10.1112
ကီး	-10.1114
▁ဓာတ်ငွေ့	-10.1122
ဆရာကြီး	-10.1123
▁တွင်း	-10.1124
▁လှည့်လည်	-10.1126
တိုင်း၊	-10.1131
ဆော	-10.1134
▁ချီတက်	-10.1134
ဝမ်	-10.1135
▁ခေါ်တွင်	-10.1137
▁ဧရိယာ	-10.1138
▁ပျမ်းမျှ	-10.1139
၉၃	-10.114
pri	-10.1142
ow	-10.1145
အားထုတ်	-10.1148
▁ရှိလေသည်။	-10.1156
ကူညီ	-10.1157
တစ်ခုတည်း	-10.116
▁ရို	-10.1161
ထားကြသည်။	-10.1162
ဖိတ်	-10.1163
▁အီး	-10.1163
▁ကောင်းကင်	-10.1167
ဟုခေါ်သည်။	-10.117
▁လွတ်မြောက်	-10.1173
ပြန့်ပွား	-10.1173
▁ဖြစ်သည်ဟု	-10.1176
ဗမာ	-10.1179
ဒင်္ဂါး	-10.1188
▁ဖတ်	-10.1192
▁ကချင်	-10.1192
▁တောင်း	-10.1198
မူကား	-10.1199
▁ပါမောက္ခ	-10.12
▁အခွင့်	-10.1203
ထူထောင်	-10.1209
66	-10.1212
▁ဝတ်ဆင်	-10.1214
▁ပစ္စည်းများ	-10.1214
ဟော်	-10.1218
သည့်အတိုင်း	-10.1219
လာလေသည်။	-10.1221
▁နိုင်	-10.1221
မင်းလှ	-10.1223
ဗို	-10.1223
တန်ဖိုး	-10.1227
▁သီရိ	-10.123
▁အဆုံး	-10.1233
ဖန်တီး	-10.1242
▁ယှဉ်ပြိုင်	-10.1244
mer	-10.125
▁၁၉၇၂	-10.1257
▁၁၉၇၀	-10.1258
လူဦးရေ	-10.126
▁ဘော်	-10.1263
▁အစားအစာ	-10.1266
သောင်	-10.1267
ဗျူဟာ	-10.1272
▁ဖော်ပြထား	-10.1275
▁ယာဉ်	-10.1276
ချောက်	-10.1277
မန္တလေး	-10.1278
▁နဲ့	-10.1283
ကျေးရွာအုပ်စု	-10.1284
အနွယ်	-10.1291
ဟီ	-10.1292
▁သမုဒ္ဒရာ	-10.1296
▁ရာသီ	-10.1297
၇၃	-10.1297
mu	-10.1298
▁ကျင့်သုံး	-10.13
▁ဩဂုတ်	-10.1303
▁ကူ	-10.1303
▁ပူးတွဲ	-10.1304
▁မြောက်ဘက်တွင်	-10.1307
ဒက်	-10.1309
▁ဧကရာဇ်	-10.1313
▁စီးပွား	-10.1314
တွေ့ရသည်။	-10.1314
▁အကူအညီ	-10.1318
ပူး	-10.132
▁မြင့်မား	-10.1322
▁ခပ်	-10.1329
၇၄	-10.1329
▁သာသနာတော်တွင်	-10.1334
လျှော့	-10.1338
▁၁၉၆၈	-10.134
sy	-10.1341
▁သမ္မာ	-10.1343
တို့လည်း	-10.1343
အရေအတွက်	-10.1344
▁အခြေခံဥပဒေ	-10.1345
လုပ်သား	-10.1347
ဂျာနယ်	-10.1353
▁လုံခြုံရေး	-10.1353
▁ဘီလီယံ	-10.1354
ပြောက်	-10.1354
▁ဆောင်း	-10.1358
▁ရွှေ့ပြောင်း	-10.1358
ခဲ့တဲ့	-10.1365
ဒုံး	-10.1365
အမိန့်	-10.1366
ဖြစ်နိုင်	-10.1368
ရသဖြင့်	-10.1373
လိုသော	-10.138
ရှိလေသည်။	-10.1382
ကျမ်းဂန်	-10.1382
▁အယ်လ်	-10.1382
ပျိုး	-10.1382
▁အမေရိကန်နိုင်ငံ	-10.1384
▁စနစ်တကျ	-10.1388
လူထု	-10.139
▁ခံရသည်။	-10.1392
▁အရှေ့ဘက်တွင်	-10.1396
ပွန်	-10.1397
ide	-10.1397
▁ဦးနု	-10.1398
အပြီးတွင်	-10.14
နေပြီ	-10.1402
revision	-10.1404
လှသည်။	-10.1404
ဧက	-10.1408
နိမိတ်	-10.1409
up	-10.1411
▁ဆွဲ	-10.1413
tion	-10.1419
ဖောင်း	-10.142
ဓန	-10.142
စည်ကား	-10.1421
နေသည်ကို	-10.1429
▁ဂျာနယ်	-10.1432
မြီး	-10.1436
▁လွှတ်	-10.1437
iv	-10.1438
▁တားမြစ်	-10.1438
အပင်	-10.1444
▁ပေါ	-10.1444
ကြင်	-10.1451
ဆောက်လုပ်	-10.1451
ဗီး	-10.1454
▁အမ်	-10.1457
shi	-10.1457
ရှောင်	-10.1458
အုံ	-10.1459
မူဝါဒ	-10.1461
▁ထီးနန်း	-10.1461
▁ဆရာဝန်	-10.1463
▁အရေးကြီး	-10.1465
▁ကြောင်း	-10.1467
တို့ကိုလည်း	-10.1472
▁၂၀၀၁	-10.1474
▁စပ်	-10.1476
▁ကျောင်းသားများ	-10.1477
▁ဗြိတိန်	-10.1478
လွင်ပြင်	-10.1482
ခင်မောင်	-10.1484
ဆက်သွယ်	-10.1488
ခြ	-10.1499
ဘော်	-10.1499
▁လျှပ်စစ်ဓာတ်	-10.1501
အု	-10.1504
မြို့နှင့်	-10.1513
ပါစေ	-10.1514
ဟုခေါ်သော	-10.1514
ဗယ်	-10.1515
ွီ	-10.1515
▁အာရှတိုက်	-10.1518
တော်များ	-10.1518
ထွေ	-10.152
နေခြင်း	-10.1523
▁ငယ်	-10.1523
ဂျစ်	-10.1525
ဂ်	-10.1527
ပူးပေါင်း	-10.1527
ကိရိယာ	-10.1537
▁အူ	-10.1539
nic	-10.154
▁ဖား	-10.154
▁၁၉၅၃	-10.1543
▁လစ်	-10.1543
ရောက်ရှိ	-10.1545
အစု	-10.1546
▁အလောင်း	-10.155
ချီးမြှင့်	-10.1556
အကြိမ်	-10.1565
ဖြစ်လာခဲ့သည်။	-10.157
တူညီ	-10.1572
▁လှပ	-10.1572
ယုန်	-10.1574
ရေတွက်	-10.1575
စီမံ	-10.1576
▁၁၉၆၀	-10.1577
▁ရဟန်းတစ်ပါး	-10.1578
58"	-10.158
ဇယား	-10.1583
လုံလောက်	-10.1585
အားကစား	-10.1585
ဆား	-10.1588
မှောက်	-10.159
▁အဆင့်ဆင့်	-10.159
ကျောင်းသား	-10.1592
ဂဏန်း	-10.1593
သွားပြီး	-10.1594
ုံး	-10.1595
သယ်	-10.1598
▁တွေ့ရှိရသည်။	-10.1598
ဆိုဒ်	-10.1602
မလေး	-10.1603
လူမျိုးတို့သည်	-10.1605
▁ပါဝင်သည့်	-10.1607
မြှုပ်	-10.1608
▁တတ်	-10.1608
▁ပုဒ်မ	-10.1609
ft	-10.1609
▁ပညာသင်	-10.1612
ပေးရ	-10.1613
နှုတ်	-10.1613
တစ်ခုဖြစ်ပြီး	-10.1614
ထုတ်လုပ်မှု	-10.1614
▁အင်္ဂလိပ်ဘာသာ	-10.1615
▁စိုး	-10.1617
ချန်	-10.162
ရွေး	-10.162
▁ရှား	-10.1622
ပိုင်ဆိုင်	-10.1624
အရင်းအမြစ်	-10.1625
▁ကျွန်ုပ်တို့	-10.1625
လွတ်လပ်ရေး	-10.1626
ူး	-10.1628
ny	-10.1629
မင်းခေါင်	-10.1632
မထေရ်	-10.1632
▁လွတ်လပ်စွာ	-10.1632
▁te	-10.1634
မော့	-10.1637
နှိုင်း	-10.1641
ပညာရှင်များ	-10.1642
▁၁၉၄၆	-10.1646
▁ဈေးကွက်	-10.1646
;0	-10.1648
60"	-10.165
၈၇	-10.1652
▁ခေါ်ကြသည်။	-10.1653
အီး	-10.1657
▁ခုနှစ်မှစ၍	-10.1659
ခန့်အပ်	-10.1661
▁အုပ်စိုး	-10.1661
ကာကွယ်ရေး	-10.1662
ထီ	-10.1664
▁ဆိုင်း	-10.1666
ပေးထား	-10.167
▁တိုးမြှင့်	-10.1671
ger	-10.1672
လျှပ်	-10.1672
ဒီမိုကရေစီ	-10.1674
▁လျော့	-10.1674
▁ပညာရပ်	-10.1674
ကျော	-10.1675
▁4	-10.1676
▁ဆင်း	-10.1678
▁ကြီးကြပ်	-10.168
▁ကျွန်တော်	-10.1684
▁လေကြောင်း	-10.1684
▁မျောက်	-10.1686
▁ပိုက်	-10.1689
▁ဖိုး	-10.1692
၇၈	-10.1692
51"	-10.1694
ရသူ	-10.1696
စေပြီး	-10.1705
ဘိုင်	-10.1705
အဆုံး	-10.1706
ညီနောင်	-10.1706
ကြားတွင်	-10.1707
▁အချို့က	-10.1708
▁သက်ရှိ	-10.171
၇၇	-10.1711
ရလဒ်	-10.1711
▁သီးသန့်	-10.1712
▁taung	-10.1714
▁ကျေးလက်	-10.1717
မြုပ်	-10.1718
▁ကျီး	-10.1722
ရ။	-10.1723
ချယ်	-10.1734
▁အနောက်ဘက်တွင်	-10.1738
▁သဘောထား	-10.1741
ဆင်ဖြူ	-10.1742
ထွတ်	-10.1743
အထောက်အထား	-10.1745
chi	-10.175
လောကတွင်	-10.1751
တရာ	-10.1755
များထဲတွင်	-10.1757
ဘော့	-10.1758
▁သေနတ်	-10.1762
▁ဖော်ထုတ်	-10.1763
▁ထားရှိ	-10.1764
လော်	-10.1767
▁အသွင်	-10.1767
▁စေ	-10.1769
များထက်	-10.1771
▁နှုတ်	-10.1772
သက်ရောက်မှု	-10.1776
ကျွတ်	-10.1777
ရလျှင်	-10.1781
fa	-10.1784
စ္ဆ	-10.1784
▁မှတ်ချက်	-10.1785
ခန့်တွင်	-10.1786
အတတ်ပညာ	-10.1786
▁ပြိုင်	-10.1788
နေရာ၌	-10.1789
▁အကြံပေး	-10.1792
ခြင်းအားဖြင့်	-10.1793
အာရှ	-10.1795
▁လို့	-10.1797
▁ဖြစ်ပါတယ်။	-10.1798
▁ခေတ်သစ်	-10.1799
လက်မှတ်	-10.1801
နီးစပ်	-10.1809
▁အခြေစိုက်	-10.181
များတွင်လည်း	-10.181
▁ပါရှိ	-10.1812
လီး	-10.1812
ဝရ	-10.1813
▁ရှ	-10.1814
66"	-10.1815
▁နွေရာသီ	-10.1816
ကြီးရွာ	-10.1817
အားပေး	-10.1818
97"	-10.1818
သမုဒ္ဒရာ	-10.1824
▁ne	-10.1827
အင်္ဂလိပ်	-10.1828
▁သင်း	-10.183
ပေါများ	-10.1836
00	-10.1836
▁စက္ကူ	-10.1839
က္ကာ	-10.1841
ဘာသာရပ်	-10.1842
မဟုတ်ပေ။	-10.1843
သူဖြစ်သည်။	-10.1843
မပေး	-10.1844
ခဲ့ပေသည်။	-10.1846
ဇေ	-10.1848
အင်ဂျင်	-10.1853
▁ဖြန့်ချိ	-10.1854
တက္ကသိုလ်မှ	-10.1859
tin	-10.1863
▁ထို့	-10.187
ရှက်	-10.1873
▁ဓ	-10.1876
မြင့်မား	-10.1881
▁ဖြစ်သည့်	-10.1881
▁mar	-10.1882
ဟင်း	-10.1885
ရွန်	-10.1886
အရေးတော်ပုံ	-10.1886
ပြည်သူ့	-10.1887
▁အရာဝတ္ထု	-10.1889
နေရာမှ	-10.1891
၃၇	-10.1894
▁မီးရထားလမ်း	-10.19
သဘာဝ	-10.1904
▁ဆေးရုံ	-10.1907
▁ပြင်ပ	-10.1908
▁အဆိပ်	-10.1909
လျော်	-10.191
သတိ	-10.191
ထာ	-10.1913
လျက်၊	-10.1915
▁ရပ်တည်	-10.1918
em	-10.192
အပေါ်တွင်	-10.1921
67"	-10.1922
ဟတ်	-10.1925
▁ဇာ	-10.1927
ဒြပ်	-10.1933
▁ကြွ	-10.1933
ွိုင်း	-10.1935
red	-10.1937
ကျမ်းစာ	-10.1938
▁၂၀၀၂	-10.1939
ted	-10.194
ဂဲ	-10.1942
▁ချည်	-10.1948
နှိပ်စက်	-10.1948
သက်တမ်း	-10.1954
ထိန်	-10.1958
▁တို့တွင်	-10.1959
ချည်း	-10.1962
စွမ်းအား	-10.1967
▁ထွန်း	-10.1969
▁ခုနှစ်က	-10.1973
ee	-10.1975
များကဲ့သို့	-10.1975
▁ရှောင်	-10.1975
မံ	-10.1978
▁ခရီးသည်	-10.1978
▁car	-10.1978
အမျိုး	-10.1983
mb	-10.1983
လျာ	-10.1987
ကျင့်သုံး	-10.1988
▁ရုရှ	-10.1994
57"	-10.1996
68"	-10.1998
▁၂၀၁၈	-10.1998
sta	-10.2
ပတ်လုံး	-10.2
▁၃၅	-10.2002
ဆဲလ်	-10.2005
▁ပုဂံခေတ်	-10.2007
▁အလှူ	-10.2008
▁that	-10.201
▁ဆရာတော်သည်	-10.2015
ser	-10.202
ဂရက်	-10.2022
မြတ်သော	-10.2027
▁မစ္စတာ	-10.2028
yo	-10.2031
▁အစိုးရက	-10.2032
▁အတိုင်း	-10.2033
▁နံပါတ်	-10.2033
အမြင့်	-10.2042
▁သက်သေ	-10.2048
91"	-10.2049
▁၁၉၆၄	-10.205
ကြုံ	-10.2055
ကျောင်းများ	-10.2055
ကုသိုလ်	-10.2055
▁အဆောက်အဦး	-10.2057
အော်	-10.2058
သဒ္ဒါ	-10.2063
ဘီး	-10.2067
ခြင်းခံရသည်။	-10.207
69"	-10.207
မှုန်	-10.2074
ကြွေး	-10.2077
ပီတာ	-10.2078
နိုင်မည်	-10.2079
▁မဖြစ်	-10.208
17"	-10.208
ိဿ	-10.208
▁al	-10.2082
70151	-10.2084
▁၁၉၅၈	-10.2085
▁၁၉၉၉	-10.2085
42"	-10.2088
rt	-10.2092
27"	-10.2092
သင်္ကန်း	-10.2093
ခံတပ်	-10.2093
အသွင်	-10.2093
ဆုကို	-10.2098
နိုင်သည်	-10.2099
ဋီကာ	-10.2099
▁အကြီးအကျယ်	-10.21
▁ယာ	-10.21
ခဏ	-10.2101
မရှိချေ။	-10.2101
ပြည်သူ့လွှတ်တော်	-10.2101
ရွာသစ်ရွာ၊	-10.2104
▁ယနေ့ခေတ်	-10.2104
kh	-10.211
▁ဘုရင်ခံ	-10.2111
east	-10.2112
▁ye	-10.2113
များရှိသည်။	-10.2115
▁အက်တမ်	-10.2119
ရကား	-10.2119
ဒြပ်စင်	-10.2121
အပေါင်း	-10.2129
ယူဆ	-10.213
sc	-10.2132
ဂွ	-10.2137
gi	-10.2138
ဂရု	-10.214
သူများက	-10.2141
သျှ	-10.2142
ဝဂ်	-10.2143
▁အယူအဆ	-10.2145
မိုင်း	-10.2147
တယ်၊	-10.2152
category	-10.2154
▁၂၀၀၃	-10.2154
▁သဘောတူညီချက်	-10.2155
▁ဆန္ဒ	-10.2156
တော့ဘဲ	-10.2157
ောင်း	-10.2161
▁မြေပြင်	-10.2163
▁တိုးတက်လာ	-10.2165
အောင်း	-10.2166
▁သာသနာပြု	-10.2166
ဟူ၍လည်း	-10.2166
99"	-10.2167
ဦးဆောင်	-10.217
နယ်ပယ်	-10.2173
တစ်ကြိမ်	-10.2175
▁web	-10.2176
▁ခိုး	-10.2177
မိသားစု	-10.2187
နှောင်း	-10.2188
▁တွန်း	-10.219
ခြည်	-10.2191
အကွာ	-10.2192
လျှံ	-10.2192
နှစ်သက်	-10.2195
▁ရင်ဆိုင်	-10.2197
▁အရက်	-10.22
များထဲမှ	-10.2203
လည်ပတ်	-10.2205
▁ဘုရင့်	-10.2207
ou	-10.2209
▁မြေအောက်	-10.2212
▁၁၉၇၅	-10.2212
ana	-10.2213
▁နယ်စပ်	-10.2215
▁ဘူ	-10.2218
▁အမြီး	-10.2219
ဆန့်ကျင်ရေး	-10.222
ပေးလိုက်	-10.222
တ္ထိ	-10.222
ကျုံး	-10.222
▁စခန်း	-10.2221
▁ဂျူး	-10.2221
▁ဖြစ်သည်	-10.2225
▁တောင်ဘက်တွင်	-10.2232
ဒဏ်ရာ	-10.2232
que	-10.2233
သား၊	-10.2233
▁စတင်တည်ထောင်	-10.2235
▁ကမ်းရိုးတန်း	-10.2236
▁လက္ခဏာ	-10.2236
ဖြစ်ပေသည်။	-10.2236
▁ဆိုကြသည်။	-10.224
ဖား	-10.2242
▁စပ်လျဉ်း၍	-10.2244
သေးသော	-10.2245
ဆိုတဲ့	-10.225
92"	-10.2251
▁သမီးတော်	-10.2254
စုတ်	-10.2261
အာရုံ	-10.2262
လှပ	-10.2262
poem	-10.2264
▁အယူဝါဒ	-10.2265
▁ဗဟိုကော်မတီ	-10.2266
▁၁၉၈၉	-10.2266
▁အင်္ဂလန်နိုင်ငံ	-10.2267
▁ချန်	-10.227
▁သီပေါမင်း	-10.2271
အတွင်းက	-10.2272
▁[	-10.2272
▁he	-10.2279
ပွ	-10.2282
အက်ဆစ်	-10.2282
▁per	-10.2284
don	-10.2285
▁၁၉၅၂	-10.2285
▁အနေဖြင့်	-10.2287
▁ဆေးပညာ	-10.2288
12"	-10.2289
▁ငလျင်	-10.229
ဝန်ကြီးချုပ်	-10.2291
▁နေ့တွင်	-10.2291
ချီး	-10.2294
ပေး၍	-10.2295
▁သာယာ	-10.2295
ပြီ။	-10.2301
ခဲ့ပြီး၊	-10.2301
အခွင့်အရေး	-10.2309
gra	-10.2315
လိုက်သော	-10.2316
89"	-10.2318
▁ပြောကြား	-10.232
▁သူ့အား	-10.2324
▁ယင်း၏	-10.233
▁အမြင်	-10.2332
▁ထမင်း	-10.2335
ကက်	-10.2335
▁ပုသိမ်	-10.2336
တည်ရှိသည်။	-10.2336
တော်မူသော	-10.2336
▁ကိရိယာ	-10.2338
▁၁၉၆၁	-10.2339
▁ကျဆုံး	-10.2341
▁ဇော်	-10.2343
ရသ	-10.235
သနည်း	-10.2351
▁ဂျော့	-10.2356
▁ကက်	-10.2358
ဏ္ဏ	-10.2361
ချေား	-10.2365
ven	-10.2366
▁အရေအတွက်	-10.2366
ကျန်းမာ	-10.2368
▁ဇွန်	-10.2371
▁လုပ်ကြံ	-10.2373
ဆင်နွှဲ	-10.2373
ရက်တွင်	-10.2373
▁ဖက်ဆစ်	-10.2374
▁၁၉၄၉	-10.2377
ပြဋ္ဌာန်း	-10.238
၃၁	-10.238
▁မိမိတို့၏	-10.2383
ဒင်း	-10.2385
မိမိ	-10.2388
မိန့်	-10.2388
အဘိဓာန်	-10.2392
▁နယူး	-10.2392
မဟုတ်၊	-10.2393
▁စည်းကမ်း	-10.2393
ခိုင်မာ	-10.2396
ရန်ကုန်	-10.2397
▁ကြေးနီ	-10.2398
ance	-10.2401
တပ်ရင်း	-10.241
south	-10.241
▁ထိုဒေသ	-10.2416
နိုင်ငံမှ	-10.2416
▁ပင်လယ်ရေ	-10.242
သားတို့	-10.2421
▁အင်္ဂ	-10.2421
ကိုယ်တော်	-10.2426
လက်ရာ	-10.2428
▁ဝါသနာ	-10.243
ကျွမ်းကျင်	-10.2431
ep	-10.2435
▁ကမ္ဘာမြေ	-10.2435
လှယ်	-10.2436
▁ထင်ရှားသည်။	-10.2437
19"	-10.2438
15"	-10.2439
▁အမ	-10.2444
▁ရစ်	-10.2447
▁၁၉၅၆	-10.2451
ကြီးက	-10.2452
▁ကုသိုလ်	-10.2453
▁ဆိုလို	-10.2455
king	-10.2457
34"	-10.2458
ဆော်	-10.2459
ခုနစ်	-10.2463
ပြို	-10.2465
▁အယ်	-10.2469
နေဆဲ	-10.2469
ခဲ့ကြပြီး	-10.247
ဆိုသော	-10.2471
အက်ဥပဒေ	-10.2471
မြို့နယ်၏	-10.2472
ဇီဝ	-10.2473
▁လယ်ယာ	-10.2477
▁လွတ်လပ်	-10.2479
ကွမ်း	-10.2481
▁သန်းခေါင်စာရင်း	-10.2483
ခရိုင်တွင်	-10.2485
လာ၍	-10.2485
▁အမျိုးသမီးများ	-10.2487
လူမျိုးတို့၏	-10.249
▁pe	-10.249
20"	-10.2495
35"	-10.2495
ဖွံ့ဖြိုး	-10.2496
ပမာ	-10.2503
▁စွပ်စွဲ	-10.2504
ရိုးရာ	-10.2504
▁ဓာတုဗေဒ	-10.2505
▁ပခုက္ကူ	-10.2506
၇၉	-10.2507
▁တူရိယာ	-10.2509
▁အသုံးဝင်	-10.2512
▁တပ်ဆင်	-10.2513
▁မြန်မာတို့	-10.2516
ဂိမ်း	-10.2525
၈၁	-10.2529
သူရဲကောင်း	-10.253
▁အစရှိသော	-10.2535
▁ခို	-10.2536
▁လှည်း	-10.2537
82"	-10.2538
သေဆုံး	-10.2542
▁ဂြိုဟ်	-10.2544
ဟက်	-10.2544
▁စဉ်းစား	-10.2545
ရန်နှင့်	-10.255
▁အနောက်တိုင်း	-10.255
▁ငါတို့	-10.2551
▁သန့်ရှင်း	-10.2553
od	-10.2555
sp	-10.2559
သမာဓိ	-10.256
နဝ	-10.2561
▁ဇာတ်လမ်း	-10.2561
▁အရသာ	-10.2562
▁တစ်ဆင့်	-10.2563
လိုက်လေသည်။	-10.257
သူမှာ	-10.2572
▁တင်သွင်း	-10.2572
13"	-10.2575
လို့၊	-10.2576
ယမ်း	-10.2576
▁ကမ္ဘောဒီးယား	-10.2579
ထုတ်ပေး	-10.2579
စိမ့်	-10.258
▁ရှိခဲ့သည်။	-10.2581
သိမ်းဆည်း	-10.2582
▁လည်ပတ်	-10.2584
▁ad	-10.2584
▁၄ဝ	-10.2587
နာယက	-10.259
▁အချင်းချင်း	-10.259
)|	-10.2591
▁ကြွက်	-10.2593
▁၃၂	-10.2595
▁ri	-10.2597
အလံ	-10.2597
ထားခဲ့သည်။	-10.2598
သွင်	-10.2602
ဝိုင်	-10.2607
dy	-10.2608
ကြိမ်မြောက်	-10.2611
၃၂	-10.2613
ig	-10.2614
အခန်း	-10.2615
▁ဖျော်ဖြေ	-10.2616
ကြိုးပမ်း	-10.2617
၃၃	-10.2618
ex	-10.2621
▁၁၉၄၂	-10.2621
တီးဝိုင်း	-10.2623
ဗျည်း	-10.2623
18"	-10.2632
ဘုရင်မ	-10.2635
ကစားနည်း	-10.2637
ဝှမ်း	-10.2638
ထရီ	-10.2641
▁ထု	-10.2641
တင့်တယ်	-10.2641
▁မရမ်း	-10.2643
ငုံ	-10.2644
ဝံသ	-10.2646
များသာ	-10.2656
▁၁၉၇၄	-10.2658
▁ကျင်းပခဲ့သည်။	-10.2662
ညှင်း	-10.267
▁နိုင်ငံများ	-10.267
၆၁	-10.2672
▁အင်္ဂလန်ပြည်	-10.2676
▁အနိုင်ရ	-10.2677
▁နို့	-10.2677
တတ်၏။	-10.2677
တဦး	-10.2679
ဒေဝီ	-10.2679
နော်ရထာ	-10.268
▁လွန်ခဲ့သော	-10.2681
ဝါဒီ	-10.2682
ဂတ်	-10.2682
▁တေ	-10.2682
၄၁	-10.2683
75"	-10.2684
▁အခြေ	-10.269
▁အဆ	-10.2692
ဂျက်	-10.2693
▁အသုံးပြုသည်။	-10.2694
lar	-10.2696
များဖြစ်သည့်	-10.27
တစ်စု	-10.2707
▁ဟော့ကိုင်းဒိုး	-10.2712
စောက်	-10.2712
▁တည်ရှိသော	-10.2715
36"	-10.2716
con	-10.2718
ဗျာ	-10.2722
00"	-10.2723
မဂ်	-10.2727
▁ရွာသစ်	-10.2728
လွယ်ကူ	-10.273
▁အပြန်အလှန်	-10.2731
▁အလွယ်တကူ	-10.2731
နှစ်မျိုး	-10.2733
▁တရားရုံး	-10.2736
▁taw	-10.2737
▁အားထုတ်	-10.2741
ရန့်	-10.2747
ခန်းမ	-10.275
▁ခမည်းတော်	-10.275
▁ကန့်သတ်	-10.2752
ကြည့်ရှု	-10.2755
ညွတ်	-10.2762
အဆင်း	-10.2764
တွေဟာ	-10.2766
▁ရက်ပေါင်း	-10.2768
ခြောက်သွေ့	-10.2769
ပါရဂူ	-10.277
81"	-10.2775
ပြုခြင်း	-10.2775
အဖွဲ့က	-10.2775
▁လက်ပံ	-10.2776
09"	-10.2779
11"	-10.2779
စွမ်းရည်	-10.2782
ချမှတ်	-10.2783
ကြောက်	-10.2785
▁တောင်ကုန်း	-10.2788
နိုင်ငံတော်	-10.2788
လမ်းညွှန်	-10.2789
ဘွယ်	-10.2789
ပီး	-10.2789
ap	-10.2791
အဆောက်အအုံ	-10.2799
ခဲ့ကြလေသည်။	-10.28
▁သဘောတရား	-10.2801
▁နိုင်ငံသား	-10.2807
▁ပေါ်တူဂီ	-10.2808
မပြတ်	-10.2811
▁ထိုင်ဝမ်	-10.2811
▁ညီလာခံ	-10.2813
▁သိန်း	-10.2813
14"	-10.2815
ဆုံးဖြတ်	-10.2818
ခေါင်းစဉ်	-10.2819
ဖြို	-10.2824
ban	-10.2825
အခြေချ	-10.2826
အစိုးရအဖွဲ့	-10.2827
45"	-10.2827
▁လက်ရာ	-10.2828
တွင်း၌	-10.2829
▁dis	-10.2831
သီချင်းများ	-10.2832
33"	-10.2834
အကြာတွင်	-10.2834
▁တိကျ	-10.2836
▁လိုက်ပါ	-10.2837
ထုံ	-10.2837
▁ဒေါ်ခင်	-10.2844
ရူပ	-10.2847
နိုင်စွမ်း	-10.2849
▁၁၉၆၅	-10.2851
▁သူ့ကို	-10.2852
▁အချင်း	-10.2853
ဒ္ဓ	-10.2855
▁ကျင်းပသော	-10.2856
ပင်ကို	-10.2856
အစိုးရက	-10.2856
သီဟ	-10.2859
ထောက်ပံ့	-10.286
ပုပ်	-10.2861
▁မုန့်	-10.2862
▁၁ဝဝ	-10.2862
အမေရိကန်	-10.2863
တိုင်းတွင်	-10.2864
မွမ်းမံ	-10.2866
▁တည်ထား	-10.2867
▁စိုးရိမ်	-10.2868
လောက်တွင်	-10.2873
မှုအတွက်	-10.2874
ဆွေးနွေးပွဲ	-10.2875
ဘူး။	-10.2876
စတန်	-10.2877
ခု၊	-10.2878
ဟူး	-10.2886
▁ယာယီ	-10.2886
▁ကန့်ကွက်	-10.2887
▁ကုန်းဘောင်ခေတ်	-10.2891
▁ဂျုံ	-10.2892
▁နေထိုင်ကြ	-10.2894
▁ရူပဗေဒ	-10.2894
▁တဦး	-10.2896
du	-10.2899
▁တော်ဝင်	-10.2902
▁၁၉၅၉	-10.2909
▁မယ်တော်	-10.2909
မ္မာ	-10.2909
တုပ်	-10.2909
▁ဝဲ	-10.291
▁မောင်းထောင်	-10.291
ထိန်းသိမ်းရေး	-10.2911
ပေါ်ပေါက်	-10.2916
▁နောင်အခါ	-10.2924
▁ဘဝဇာတ်ကြောင်း	-10.2925
▁၁၉၉၃	-10.2928
▁၁၉၉၇	-10.2928
နီးကပ်	-10.2934
မတိုင်မီ	-10.2936
ွေ့	-10.2936
▁x	-10.294
▁တို့ဖြစ်သည်။	-10.294
▁ဘီလူး	-10.294
▁ဟုလည်း	-10.2947
▁နောက်ဆုံးတွင်	-10.295
စေနိုင်	-10.2953
▁မလေးရှား	-10.2955
စန်း	-10.2961
နင်	-10.2961
▁မြို့ကြီး	-10.2963
▁စာအုပ်များ	-10.2966
အာဟာရ	-10.2968
အစွန်း	-10.2968
▁ကိုရီးယား	-10.2969
မာလာ	-10.2969
လိမ်း	-10.2969
▁နောက်ဆုံးဘဝ	-10.2974
မှုရှိ	-10.2978
စာစောင်	-10.2978
သူပုန်	-10.2984
ထားရှိ	-10.2984
▁ထွက်လာ	-10.2986
ခြယ်	-10.2987
အဓိပ္ပာယ်	-10.2989
ဂါထာ	-10.2994
နိုင်ကြောင်း	-10.2997
အကြားတွင်	-10.3
လှော်	-10.3003
အတိုင်းအတာ	-10.3004
sion	-10.3005
တော်မြတ်	-10.3006
စာရေး	-10.3013
ယွန်	-10.3013
သတ္တ	-10.3014
အဖွဲ့ကို	-10.3017
တစ်စင်း	-10.3018
▁ဒုတိယမြောက်	-10.3019
ငြ	-10.3023
လိုလို	-10.3023
day	-10.3023
ကြီးများကို	-10.3025
10"	-10.3032
ဖယ်	-10.3033
ဘားမား	-10.3034
▁ဆေးဝါး	-10.3035
တယ်လို့	-10.3036
▁မွေးမြူ	-10.3038
▁ဆိတ်	-10.3045
▁ပြန်လာ	-10.305
လျှပ်စစ်	-10.3051
၈၆	-10.3055
ဇံ	-10.3055
တ္တိ	-10.3057
▁သူတို့သည်	-10.3064
▁၁၉၅၄	-10.3066
ဒီဂရီ	-10.3066
ဒ္ဓါ	-10.3067
▁ဦးဘိုး	-10.3068
▁သူဌေး	-10.3068
ဆုပ်	-10.3087
ဝု	-10.3094
ပြောကြား	-10.3095
တစ်ခုတွင်	-10.3096
မွတ်	-10.3097
▁cha	-10.31
▁လူနာ	-10.3101
▁ကိုလိုနီ	-10.3101
▁အာသဝေါကုန်ခမ်း	-10.3102
ပရိ	-10.3104
ခေါ်ဝေါ်	-10.3109
=71	-10.3113
ဖီး	-10.3114
ရှိခဲ့သည်။	-10.3116
▁တစ်နေရာ	-10.3117
▁လန်ဒန်မြို့	-10.3118
▁အာနန္ဒာ	-10.3121
▁သာသနာတော်ရှိ	-10.3121
ဗူး	-10.3122
▁လေကြောင်းလိုင်း	-10.3124
ယခင်	-10.3124
ရွေးကောက်ပွဲတွင်	-10.3125
▁အကြား	-10.3128
မဟုတ်သော	-10.313
ပြည်သူ	-10.3133
▁စုံစမ်း	-10.3136
ရေးလုပ်ငန်း	-10.3136
▁အဝတ်	-10.3139
တို့သည်လည်း	-10.3143
ရှယ်ယာ	-10.3146
▁ဒုတိယအကြိမ်	-10.3148
နေပြည်တော်	-10.3151
အဂ္ဂ	-10.3153
အရည်အချင်း	-10.3157
နည်းကို	-10.3159
▁ပဉ္စမ	-10.316
အသုံးအနှုန်း	-10.3162
gyi	-10.3171
တွန်	-10.3172
ခြင်းတို့ကို	-10.3172
ဥပ	-10.3176
နည်းပါး	-10.3177
mar	-10.3181
▁shwe	-10.3182
▁၁၉၆၉	-10.3186
စေ၏။	-10.3186
06"	-10.3187
မင်းလက်ထက်	-10.319
▁ဘောလုံးအသင်း	-10.3191
▁ဖြစ်တော်မူ၏။	-10.3192
−	-10.3192
01"	-10.3192
အဖွဲ့အစည်းများ	-10.3195
လျင်မြန်	-10.3196
▁နေ့ရက်	-10.3198
စကာ	-10.32
ial	-10.32
အမည်ဖြင့်	-10.3201
▁ကဲ့ရဲ့	-10.3202
003	-10.3205
၅၁	-10.3207
▁စောင်း	-10.3209
▁ရခိုင်ပြည်နယ်	-10.3209
▁ရသေ့	-10.3214
▁ပုန်ကန်	-10.3216
ဒုက္ခ	-10.3219
အချင်းချင်း	-10.322
ရန်ပုံငွေ	-10.3222
တော့ပေ။	-10.3223
▁တံဆိပ်	-10.3227
▁သုံးသပ်	-10.3228
▁အစ္စလာမ်	-10.3229
သိုး	-10.3229
များဖြစ်ကြသည်။	-10.3233
▁မွေးချင်း	-10.3233
=96	-10.3236
ချွတ်	-10.3237
▁ရှမ်းပြည်	-10.3238
▁ဖွဲ့စည်းခဲ့သည်။	-10.3242
▁ကျေး	-10.3245
ပိုင်းဆိုင်ရာ	-10.3245
▁၁၉၇၃	-10.3246
ern	-10.3251
▁ရှေးက	-10.3253
▁ဘို	-10.3253
ဆက်သွယ်ရေး	-10.3257
▁ဖက်	-10.3259
▁စာမေးပွဲ	-10.326
ရှုပ်ထွေး	-10.3263
▁၁၉၄၁	-10.3266
▁၁၉၉၂	-10.3266
▁၁၉၆၇	-10.3266
ွိုက်	-10.327
▁ဤကဲ့သို့	-10.327
▁မြက်	-10.3276
▁ပင်စည်	-10.3276
လူငယ်	-10.3281
၉ဝ	-10.3281
▁ဦးနှောက်	-10.3283
ak	-10.3289
စာရေးဆရာ	-10.3289
နောက်ပိုင်းတွင်	-10.3302
ဖခင်	-10.3304
လျှော်	-10.3304
ဓာ	-10.3304
▁ကာဗွန်	-10.3305
010	-10.3308
▁၁၉၅၅	-10.3308
၂ဝ	-10.3309
ထဲက	-10.331
မျိုးတွင်	-10.332
တိန်	-10.3322
▁လဲ	-10.3323
▁ပိဋကတ်	-10.3323
▁လမ်းစဉ်	-10.3324
ဘောလုံး	-10.3325
လူတန်းစား	-10.3325
သုံးသပ်	-10.3326
၃ဝ	-10.3328
မန္တ	-10.3328
ဂေါတမ	-10.3329
ခေ	-10.3331
တစ်ခုမှာ	-10.3338
▁ဆဲ	-10.3338
မိနစ်	-10.3341
စီးပွား	-10.3344
ဖြစ်ခြင်း	-10.3348
သမ	-10.3352
▁နေအိမ်	-10.3356
▁ငရဲ	-10.3356
▁သတင်းအချက်အလက်	-10.3358
နို့	-10.3359
ချက်မှာ	-10.3359
ယောက်ျား	-10.3363
ဖွင့်လှစ်	-10.3364
ရုံးစိုက်ရာမြို့	-10.3364
▁တစ်ခါ	-10.337
▁အတု	-10.3373
▁အလှ	-10.3375
လုပ်ငန်းများကို	-10.3378
စို့	-10.338
▁စာသင်	-10.3381
လဟာ	-10.3383
▁ဂုဏ်ပြု	-10.3384
ဒဲ	-10.339
န္တရ	-10.3391
▁ခရစ်နှစ်	-10.3392
ကြချေ။	-10.3395
စိုးစံ	-10.3396
ွင်း	-10.3398
ဖုခု	-10.34
▁၆။	-10.3401
▁အများပြည်သူ	-10.3401
သပ်	-10.3403
ညင်း	-10.3407
ဒါယကာ	-10.3408
သည်ဟုဆိုသည်။	-10.341
ဆေးရုံ	-10.341
▁ဒိုင်း	-10.341
ms	-10.3412
ပွန်း	-10.3419
ကျူးလွန်	-10.342
▁ဂျာမနီနိုင်ငံ	-10.3424
▁ခက်ခဲ	-10.3424
ငြင်း	-10.3424
▁ဝေါ	-10.3425
ခံစားရ	-10.3425
▁ပြန်ဆို	-10.3429
ချား	-10.343
ဓာတ်ငွေ့	-10.3431
▁မုံရွာ	-10.3433
နေရာသို့	-10.3439
လာသည်	-10.344
တို့ဖြစ်သည်။	-10.344
နှောင်းပိုင်း	-10.344
▁ဂိုဏ်း	-10.3444
တစ်ဝိုက်	-10.3446
▁ဗိသုကာ	-10.3451
▁ခံခဲ့ရသည်။	-10.3453
ခံရပြီး	-10.3453
စီးဆင်း	-10.3455
ye	-10.3456
မယ်။	-10.3456
ဘွဲ့ရ	-10.3457
ဒေါင်း	-10.3459
အိုလံပစ်	-10.346
▁ဖွားမြင်သည်။	-10.3463
▁ဦးထွန်း	-10.3464
ငန်း	-10.3466
▁၄၅	-10.3467
▁နွေ	-10.347
gy	-10.347
ပွဲကို	-10.3471
▁ကိုင်း	-10.3471
ဝေါဟာရ	-10.3472
▁ဟောပြော	-10.3473
▁အရွယ်အစား	-10.3476
လိမ့်မည်။	-10.3479
▁၎င်းကို	-10.3484
▁အလားတူ	-10.3488
များအပြင်	-10.3488
သင်္ချာ	-10.3488
▁တူညီ	-10.3488
ရှန်း	-10.3489
▁နည်းပါး	-10.349
▁မည်မျှ	-10.3491
▁ဟုခေါ်သည်။	-10.3492
ပြီဖြစ်သည်။	-10.3492
▁မှန်ကန်	-10.3493
မျိုးဖြစ်သည်။	-10.3495
အတွင်းမှ	-10.3497
ဂုဏ်ထူး	-10.3498
▁ပဋိ	-10.3498
ပွဲတွင်	-10.3503
▁ဘုရားကြီး	-10.3506
▁လူကြီး	-10.3509
ထိုင်း	-10.3514
▁များစွာသော	-10.3514
▁thar	-10.3515
▁ပုလဲ	-10.3518
ပေးပြီး	-10.3518
ကျော်ထင်	-10.3524
▁kya	-10.3528
hy	-10.3528
နှင့်ပတ်သက်၍	-10.3531
▁လေထု	-10.3531
▁စစ်ဆင်ရေး	-10.3532
▁၁၉၉၁	-10.3533
နိုင်သဖြင့်	-10.3537
▁အသုံးပြုနိုင်	-10.3537
pro	-10.3538
ကြည်း	-10.354
အောက်ပိုင်း	-10.3541
▁ကမ္ဘာစစ်	-10.3547
ran	-10.3548
မှုတွင်	-10.3548
နိုင်မှု	-10.3549
▁ကုန်သည်	-10.355
und	-10.355
အတော်များများ	-10.3552
ကာတွန်း	-10.3553
လောက်အောင်	-10.3554
မြောင်	-10.3561
▁၅ဝ	-10.3564
▁ဆုံးဖြတ်ချက်	-10.3564
ဇာတိ	-10.3565
ster	-10.3565
▁အမြန်	-10.3566
▁ဘုန်းတော်ကြီး	-10.3571
ဓလေ့	-10.3572
တံတိုင်း	-10.3572
ခန့်က	-10.3573
▁မီးလောင်	-10.3578
▁ရောက်သောအခါ	-10.3579
ဥပမာ	-10.3586
▁မြစ်ဝကျွန်းပေါ်	-10.3587
ရောင်းဝယ်	-10.3589
ဘုရင်သည်	-10.3592
ဘုရားထက်ထက်	-10.3592
ပါဘူး။	-10.3594
▁ဝိဇ္ဇာ	-10.3594
▁၁၉၉၆	-10.3596
ရှူ	-10.3597
ရရှိခဲ့	-10.3599
သင့်လျော်	-10.3605
ကုန်သော	-10.3607
ညှာ	-10.3612
ence	-10.3613
▁သတ်ဖြတ်	-10.3619
မိန်း	-10.3623
▁ချက်ချင်း	-10.3623
▁ရတနာပုံ	-10.3631
သီးနှံ	-10.3632
▁တည်ထောင်ခဲ့သည်။	-10.3633
▁တနင်္သာရီ	-10.3633
▁ယင်းကို	-10.3638
နော့	-10.3638
▁အကြီး	-10.3638
ရှန်	-10.3639
▁၃၃	-10.3639
▁ထုတ်ယူ	-10.3641
▁အဆင့်မြင့်	-10.3642
ဌာနခွဲ	-10.3646
၇၁	-10.3649
▁သားရေ	-10.3651
အခါက	-10.3651
▁တွက်ချက်	-10.3657
▁dr	-10.3659
▁mong	-10.366
▁ဘဏ္ဍာရေး	-10.366
▁ထုတ်ဝေခဲ့သည်။	-10.3663
စွမ်းဆောင်	-10.3665
ပါယ်	-10.3667
မြို့ဖြစ်သည်။	-10.3668
တော်မူခဲ့သည်။	-10.3672
▁အသိ	-10.3673
ဆက်နွယ်	-10.3673
ဆော့	-10.3674
▁ဦးတည်	-10.3676
▁လျင်မြန်စွာ	-10.3676
အံ	-10.3677
စတီ	-10.3679
▁သမ္မတနိုင်ငံ	-10.3683
ob	-10.3689
han	-10.3693
ရွယ်	-10.3694
▁ရေကြောင်း	-10.3695
▁ဟိန္ဒူ	-10.3697
တုံ့ပြန်	-10.3697
ရိုင်	-10.37
မျိုးစိတ်	-10.3703
အမှုထမ်း	-10.3704
▁ဆိုလိုသည်။	-10.3706
မွေးမြူရေး	-10.371
▁ပို့ဆောင်	-10.3714
စိတ္တ	-10.3716
▁နိဗ္ဗာန်	-10.3718
▁အမြဲတမ်း	-10.372
▁အလေးချိန်	-10.3728
မိန်းမ	-10.3728
our	-10.3734
▁အနံ့	-10.3736
▁go	-10.3738
ရှယ်	-10.3738
▁သခင်သန်းထွန်း	-10.3739
ဖြစ်ပေါ်လာ	-10.3741
▁အဝ	-10.3749
ပြက္ခဒိန်	-10.3754
အဖွဲ့မှ	-10.376
ယျ	-10.376
▁အဖွဲ့အစည်းများ	-10.376
▁တိုကျို	-10.3761
ဂန္ဓ	-10.3763
▁ဘီး	-10.3765
ထားတဲ့	-10.3766
▁ဗြ	-10.3767
▁၁၉၅၀	-10.3768
▁ကနေဒါ	-10.3769
ရှင်သန်	-10.3772
▁တို့က	-10.378
▁ဝီ	-10.3781
ten	-10.3782
▁မှတ်ပုံတင်	-10.3782
ဆူး	-10.3783
▁အရှေ့ပိုင်း	-10.3784
လိမ့်မည်	-10.3784
ဇက်	-10.3785
လွှမ်း	-10.3785
▁ကျင်	-10.3788
တစ်ပုဒ်	-10.3789
▁ကျော	-10.3791
▁ခရမ်း	-10.3791
▁သိက္ခာပုဒ်	-10.3793
▁လိုအပ်သော	-10.3793
▁ခမိ	-10.3794
▁အသုံးပြု၍	-10.3795
တိမ်း	-10.3797
▁အနေနှင့်	-10.3799
ရွေးကောက်ပွဲ	-10.38
arch	-10.3801
နွေ	-10.3805
▁၁၉၉၅	-10.3808
▁ပထဝီဝင်	-10.3808
▁ဓာတု	-10.3814
▁စည်	-10.3816
▁ကျဆင်း	-10.3821
ပုံပြင်	-10.3824
နှဲ	-10.3827
▁သာသနာတော်	-10.383
▁ကြေညာခဲ့သည်။	-10.383
▁ဖောက်လုပ်	-10.3831
▁ဆက်ဆံရေး	-10.3831
▁ရှေ့နေ	-10.3836
▁မြေကြီး	-10.3845
လှုံ့ဆော်	-10.3845
▁တူရကီ	-10.3845
▁အရေပြား	-10.3846
▁ပြည်သူလူထု	-10.3846
▁ah	-10.3851
▁ဖြစ်သော်လည်း	-10.3852
▁ထူးချွန်	-10.3852
▁မြွေ	-10.3854
မှာတော့	-10.3858
ther	-10.3861
▁တစ်ပါး	-10.3862
အလောင်း	-10.3864
ကြွေ	-10.3865
တန့်	-10.3866
▁အကျင့်	-10.3867
▁၁၉၉၄	-10.3871
res	-10.3873
▁လက်တင်	-10.3879
▁ချိုး	-10.3879
▁ဗိုလ်မှူးကြီး	-10.388
သုတေသန	-10.388
အပ်နှင်း	-10.3881
စားသောက်	-10.3886
အများ	-10.3888
▁မီလီယံ	-10.3888
▁အလိုအလျောက်	-10.3889
ယူး	-10.389
တွင်းရှိ	-10.3894
အဓိက	-10.3894
တောင်ဘက်	-10.3895
▁ငှက်ပျော	-10.3895
=97	-10.3895
အတွင်းရေးမှူး	-10.3898
လဆန်း	-10.3898
စီမံခန့်ခွဲမှု	-10.3898
▁လောက်	-10.3899
▁စတင်ခဲ့သည်။	-10.3905
▁အဆောင်	-10.3907
▁ဦးရွှေ	-10.3908
ဆီသို့	-10.3908
daw	-10.3912
ရင်းမြစ်	-10.3912
▁jo	-10.3913
မိုင်ခန့်	-10.3914
အိုခ	-10.3917
အပြီး	-10.3918
0090	-10.3923
မှုမရှိ	-10.3923
ဒိုင်	-10.3925
ဉ်း	-10.3928
▁nyaung	-10.3932
ရွံ့	-10.3932
ခံရသူ	-10.3932
▁တိုက်တွန်း	-10.3933
▁၁၉၇၁	-10.3935
များအကြား	-10.3937
▁ငယ်ဘဝ	-10.3937
▁ဂျက်	-10.3943
fer	-10.3945
ဟူ၍လည်းကောင်း၊	-10.3945
ကွန်ဂရက်	-10.3947
ကဿပ	-10.3948
ဆိုးရွား	-10.3953
လိမ့်	-10.3953
▁လက်ထောက်	-10.3955
▁ဒို	-10.3956
ဏီ	-10.3958
ထည့်၍	-10.3958
her	-10.3959
ကြပါ	-10.396
သက်ရောက်	-10.3964
တမံ	-10.3964
သူအား	-10.3966
▁ဆုံးရှုံး	-10.3966
ပျဉ်	-10.3966
▁မီဒီယာ	-10.3968
line	-10.3968
ကေး	-10.397
ရှင်းလင်း	-10.3973
ဌေး	-10.3973
မကောင်း	-10.3974
▁ရုက္ခဗေဒ	-10.3975
/&	-10.3976
▁ယင်းတို့၏	-10.3977
▁နန်းတွင်း	-10.3981
သုံးခု	-10.3982
့စ်	-10.3986
အနှံ့	-10.3987
▁သစ်သီး	-10.3988
▁ထိုခေတ်	-10.3997
စပါး	-10.4002
▁ထွက်ပြေး	-10.4003
▁ဘိန်း	-10.4003
▁တူး	-10.4004
ထား၏။	-10.4005
များသည်လည်း	-10.4006
ကွပ်ကဲ	-10.401
▁ကချင်ပြည်နယ်	-10.4011
▁ဗြဟ္မာ	-10.4013
ကြခြင်း	-10.4014
▁ကပြ	-10.4016
ဝှက်	-10.4018
မုနိ	-10.4019
▁သိပ္ပံပညာ	-10.4021
သမုတ်	-10.4022
▁ရေးထိုး	-10.4022
ဖော	-10.4024
let	-10.4024
rea	-10.4025
▁စိတ်ဓာတ်	-10.4031
ဉာဏ	-10.4034
▁ကွယ်လွန်ခဲ့သည်။	-10.4036
လိုက်ပါ	-10.4038
ပြည်နယ်၊	-10.4039
▁ထိုသူ	-10.404
▁du	-10.404
▁ပတ္တမြား	-10.404
▁လူကြိုက်များ	-10.404
▁အခက်အခဲ	-10.4042
များပေါ်တွင်	-10.4042
nt	-10.4042
ဧရိယာ	-10.4045
လမ်းမကြီး	-10.4045
နူ	-10.4051
စံချိန်	-10.4052
အလယ်ပိုင်း	-10.4056
▁ခွဲ	-10.4058
▁ထောင့်	-10.4059
မြစ်ဝှမ်း	-10.406
စေ၍	-10.406
▁language	-10.4062
အခါ၌	-10.4065
▁အချက်အလက်	-10.4067
ae	-10.4069
ညီညွတ်ရေး	-10.4071
အတူ	-10.4073
ဂြိုဟ်ရံလ	-10.4084
▁မိတ်ဆွေ	-10.4084
gen	-10.4085
▁ပေါ်ထွက်လာ	-10.4085
▁သံမဏိ	-10.4088
▁အဘယ်	-10.4089
▁ဟေ	-10.4093
ထားခြင်းဖြစ်သည်။	-10.4098
ကစားသမား	-10.4099
ဒေါ်လာ	-10.41
ထရို	-10.4101
▁သိမ်းယူ	-10.4102
▁un	-10.4106
▁ဗောဓိ	-10.4106
▁ရှေးဦးစွာ	-10.4112
များအပေါ်	-10.4112
ဒတ်	-10.4112
ထားသည်ကို	-10.4114
သိရှိ	-10.4116
▁သေချာ	-10.4117
ထမ်းဆောင်ခဲ့သည်။	-10.4118
နားလည်	-10.4118
▁စာလုံး	-10.4119
မြတ်နိုး	-10.412
အစိုးရသည်	-10.4122
ပရိသတ်	-10.4126
=91	-10.4129
တစ်ခုဖြစ်	-10.4131
တစ်နှစ်တာ	-10.4132
▁အာဏာပိုင်	-10.4133
▁mon	-10.4137
if	-10.4139
▁ဓလေ့	-10.4139
ဧရိယာသည်	-10.4146
စစ်ဆင်ရေး	-10.4147
▁ရေတပ်	-10.4147
တစ်ခုအဖြစ်	-10.4149
ွန့်	-10.415
▁ကျောက်မီးသွေး	-10.415
သက္ကယ်	-10.415
ပြိုကွဲ	-10.4152
မုတ်	-10.4153
ကြိုးစား	-10.4153
▁ပေးပို့	-10.4154
သူများ၏	-10.4155
▁မန်း	-10.4158
▁ကြွေ	-10.4159
ပင်မျိုး	-10.4163
တွေမှာ	-10.4164
ကိုလည်းကောင်း၊	-10.4167
▁ခေတ်မီ	-10.4167
ခြင်းမပြု	-10.4172
တွေနဲ့	-10.4172
▁စာမျက်နှာ	-10.4176
နည်းလမ်း	-10.4176
▁အမြတ်	-10.4178
ခံရသော	-10.4181
▁တစ်ခုဖြစ်သည်။	-10.4182
▁ကြံစည်	-10.4182
လာရာ	-10.4186
ဘဏ္ဍာ	-10.4188
▁အလင်းနှစ်	-10.4189
▁ဤသို့ဖြင့်	-10.419
▁ya	-10.419
▁ဂလက်ဆီ	-10.419
သစ်တော	-10.4192
▁မီးရထား	-10.4192
တကာ	-10.4196
bur	-10.4197
gene	-10.4197
မြို	-10.4199
ဇန	-10.4202
▁ပညာရှိ	-10.4204
▁စာကြည့်တိုက်	-10.4205
▁ဣ	-10.4206
ခဲ့ရလေသည်။	-10.4207
▁အစား	-10.4211
ရမည်ဟု	-10.4213
=48	-10.4213
▁မြို့နေလူဦးရေ	-10.4217
ace	-10.4219
သပိတ်	-10.4223
ဇီး	-10.4226
▁ကြီးမားသော	-10.4229
▁အအေး	-10.423
ကုပ်	-10.4232
▁ဒေါင်း	-10.4235
ဝါဒကို	-10.4236
from	-10.4239
တွေ့မြင်	-10.4241
ိုင်	-10.4243
ဟိုင်း	-10.425
မရှိပေ။	-10.4252
တွင်ရှိသော	-10.4254
ဆင်းရဲ	-10.4254
စာရင်းတွင်	-10.4255
rs	-10.4255
မူလ	-10.4258
▁ဂေါ်	-10.4266
tre	-10.4269
ွပ်	-10.4271
ာက်	-10.4272
▁ပွဲတော်	-10.4274
▁စတင်၍	-10.4279
▁ဗမာ့	-10.4279
▁are	-10.428
sk	-10.4283
ဆုံးရှုံး	-10.4283
ဝီလျံ	-10.4284
ဗညား	-10.4284
▁အကြိမ်ကြိမ်	-10.4284
ဘိက္ခုနီ	-10.4287
ွံ	-10.4289
ပြည်သို့	-10.4289
အသုံး	-10.4292
ကွာဝေး	-10.4293
အဖွဲ့တွင်	-10.4295
ဗိုက်	-10.4296
ဆိုသည့်	-10.4296
ဗဲ	-10.4297
စည်းစိမ်	-10.4304
▁အပင်များ	-10.4304
▁အကောင်အထည်ဖော်	-10.4307
ပေါ်မှ	-10.4308
▁၁၉၈၅	-10.4311
အယ်	-10.4311
တစ်စောင်	-10.4316
▁အယူ	-10.4317
▁လေယာဉ်ပျံ	-10.4317
ယ့်	-10.4319
ဇာတ်လမ်း	-10.4322
cent	-10.4325
▁ကောင်	-10.4325
▁ကွယ်လွန်သည်။	-10.4326
တာရာ	-10.4327
ဆွန်	-10.4329
▁အာမခံ	-10.4334
tes	-10.4335
အခြေ	-10.4339
ချိုင်	-10.434
ပြဇာတ်	-10.4341
ကျရောက်	-10.4342
▁တခြား	-10.4345
သန	-10.4349
ကုန်၏၊	-10.4349
▁ခေတ္တ	-10.4351
သီဟသူ	-10.4353
▁မျက်နှာပြင်	-10.4356
န္ဓ	-10.4357
အခမ်းအနား	-10.4359
နေထိုင်ကြ	-10.4359
▁မရှိပေ။	-10.436
ပျဉ်း	-10.4362
▁နျူ	-10.4362
ဘီလူး	-10.4363
▁ဆိုသည့်	-10.4371
ဆောင်းပါး	-10.4371
val	-10.4373
▁ပဉ္စ	-10.4373
log	-10.4378
ပုံသဏ္ဌာန်	-10.4379
ec	-10.4382
▁၃၇	-10.4383
▁လွတ်လပ်သော	-10.4383
သွား၍	-10.4383
tal	-10.4384
▁မင်	-10.4384
မှနေ၍	-10.4386
ical	-10.4393
▁လူဦးရေသိပ်သည်းဆ	-10.4396
ဒါယကထေရ်	-10.4397
မုန့်	-10.4398
▁လက်အောက်ခံ	-10.44
▁သူမ၏	-10.4402
ကင်ဆာ	-10.4404
▁အကြံ	-10.4405
▁မိဘများ	-10.4406
ခြင်းမှ	-10.4406
ကျဆင်း	-10.4412
မရွေး	-10.4413
zo	-10.4416
▁သတ်မှတ်ထား	-10.4417
ပြီးစီး	-10.4417
▁black	-10.4419
▁ချား	-10.4421
▁ကျယ်	-10.4422
ရပ်ကွက်တွင်	-10.4426
ခေါင်းဆောင်များ	-10.4429
▁မြန်	-10.443
▁အငြင်းပွား	-10.4433
ရုံးစိုက်	-10.4439
▁တစ်စတုရန်း	-10.4439
ဆိုသော်	-10.444
ဧ	-10.4441
▁အမည်တွင်	-10.4441
သရေ	-10.4442
အကွာအဝေး	-10.4442
လုပ်ငန်း၊	-10.4443
ပြည်နယ်၏	-10.4444
▁သို့ဖြစ်၍	-10.4447
တရားကို	-10.4447
နိုင်ရန်အတွက်	-10.4449
▁တဆင့်	-10.445
▁ထိုနေရာ	-10.445
တစ်ထောင်	-10.4451
▁world	-10.4452
ဟိန်း	-10.4454
အနီးရှိ	-10.4457
west	-10.4461
▁အသက်မွေး	-10.4463
လေ့ကျင့်	-10.4464
▁၁၉၉၈	-10.4469
▁အရွယ်ရောက်	-10.4473
▁အဆင့်အတန်း	-10.4475
ကျီ	-10.4477
တွေ့ရှိရ	-10.4479
▁ထင်း	-10.4479
=63	-10.4482
သင်ယူ	-10.4485
ဘုရင်၏	-10.4487
များကိုသာ	-10.4487
▁ကျူးကျော်	-10.4488
▁လူဦးရေမှာ	-10.4496
▁ပါးစပ်	-10.4497
ဟယ်	-10.4499
တို့ဖြစ်ကြသည်။	-10.4499
ပိန်	-10.4501
▁အတွေးအခေါ်	-10.4502
တကျ	-10.4503
ကီလိုမီတာလျှင်	-10.4504
▁ထုတ်ဖော်	-10.4504
ဖျက်ဆီး	-10.4506
ပေါင်းစုံ	-10.4507
ei	-10.4509
အောင်ဆန်းစုကြည်	-10.451
▁ရိုးရိုး	-10.4515
ပင်လျှင်	-10.4517
ဓား	-10.4518
ပတ္တ	-10.4519
yun	-10.4519
တက်ရောက်	-10.4523
▁အဆိုတော်	-10.4524
ရာခိုင်နှုန်း	-10.4526
တူရိယာ	-10.4527
လျှက်	-10.4534
▁ဖု	-10.4538
စေကာမူ	-10.454
ကပ္ပ	-10.4544
အိန္ဒိယ	-10.4548
▁အကြမ်းဖက်	-10.4556
▁သယ်ယူပို့ဆောင်	-10.4557
မကျ	-10.4561
ဆက်ဆံရေး	-10.4563
အောင်မြင်ခဲ့သည်။	-10.457
▁မူရင်း	-10.4572
မှလည်း	-10.4573
▁ဟင်နရီ	-10.4578
သီး၊	-10.4578
▁အကြိမ်	-10.4579
▁တီးဝိုင်းများ	-10.4579
▁ရုတ်တရက်	-10.4579
▁အဖြူရောင်	-10.4582
▁ကွန်ယက်	-10.4584
ပဲ့	-10.4592
▁ဝင်ငွေ	-10.4593
မြည်	-10.4593
ကောက်ခံ	-10.4593
▁ဂယ်လက်ဆီ	-10.4594
လပြည့်ကျော်	-10.4596
▁ဆုံ	-10.4597
▁ju	-10.4605
▁လယ်ယာမြေ	-10.4609
▁တံခါး	-10.4611
▁ဖြစ်ရပ်	-10.4616
ခဲ့သည်မှာ	-10.4617
▁ပရိုဂရမ်	-10.4627
▁ဖိုင်	-10.4627
ကွာခြား	-10.4631
မျဉ်း	-10.4632
နှစ်ကြာ	-10.4633
ဆက်ခံ	-10.4639
ကြွင်း	-10.464
▁sp	-10.4642
▁ရသည်။	-10.4646
▁ရှောက်	-10.4649
▁ယင်းတို့ကို	-10.4651
သတ်မှတ်ချက်	-10.4659
လာသဖြင့်	-10.4662
ကြည့်လျှင်	-10.4664
▁it	-10.4672
▁အမြောက်	-10.4672
▁၁၉၅၇	-10.4676
ရေးဆရာ	-10.4677
လွတ်လပ်	-10.4677
သည်ဟုဆို	-10.4678
အဖွဲ့များ	-10.4679
မှုများကြောင့်	-10.468
လက်ရာများ	-10.4681
ps	-10.4681
cor	-10.4683
ဖွင့်လှစ်ခဲ့သည်။	-10.469
ဖြစ်ပါတယ်။	-10.4696
▁မျိုးစိတ်	-10.4698
တောင်ရွာ	-10.4698
တောင်ထိပ်	-10.4702
နိုင်ပေ။	-10.4703
သေး၏။	-10.4703
ဇနီး	-10.4705
▁အောင်မြင်စွာ	-10.4708
▁ဆောင်းရာသီ	-10.4708
ပါရှိသည်။	-10.4714
ish	-10.4716
စဉ့်	-10.4718
ဩဇာ	-10.4719
bar	-10.4721
▁အမှုဆောင်	-10.4721
သရက်	-10.4724
▁နယ်ပယ်	-10.4727
ပေးအပ်	-10.4727
တို့နှင့်အတူ	-10.4728
နိုင်း	-10.4729
လွတ်မြောက်ရေး	-10.4735
▁ph	-10.474
ထော်	-10.4741
သံဃာ	-10.4744
ပြုပြင်ပြောင်းလဲ	-10.4745
နွမ်း	-10.4745
▁ကွဲ	-10.4746
▁အဖျား	-10.4749
တပ်ဆင်	-10.475
▁စကားပြော	-10.4751
▁လက်မှတ်	-10.4756
အမှန်	-10.4762
ထုတ်ပြန်	-10.4763
ပေးခြင်း၊	-10.4763
ပုံအခြေခံဥပဒေ	-10.4766
▁စိစစ်	-10.4766
ဖိနပ်	-10.4766
▁ယေဘုယျအားဖြင့်	-10.4767
▁အုပ်ချုပ်မှု	-10.4772
▁ရွှေတောင်	-10.4774
▁အမည်ပေး	-10.4778
ခန်	-10.478
နှောင်	-10.4784
နှီး	-10.4785
တပ်ဦး	-10.4787
university	-10.4789
▁ယနေ့တိုင်	-10.479
▁အစ္စရေး	-10.479
အယူဝါဒ	-10.4791
လျှာ	-10.4793
သူတစ်ဦး	-10.4794
များနှင့်အတူ	-10.4797
တော်မူ၍	-10.4799
ဗုဒ္ဓဘာသာ	-10.48
လိုက်သောအခါ	-10.4801
▁သွင်း	-10.4802
▁စပ်ဆို	-10.4805
▁ကျက်စား	-10.4807
001	-10.4809
ပေမည်။	-10.481
▁ပေါ်လာ	-10.481
▁ကေအင်န်ယူ	-10.481
ron	-10.481
နေရာများတွင်	-10.4811
ဖြူး	-10.4823
▁ပင်မ	-10.4826
▁ချုပ်ဆို	-10.4826
ဟိုး	-10.4827
▁ပါရှိသည်။	-10.4829
နံ့	-10.4838
ဉ္ဇ	-10.4838
သူ့	-10.484
တစ်ဦးဖြစ်ပြီး	-10.484
ွိ	-10.4842
=104	-10.4843
▁ဆိုက်	-10.4845
▁အသံထွက်	-10.4847
▁pop	-10.4848
▁လမ်းကြောင်း	-10.4849
လျောက်	-10.4849
▁စင်စစ်	-10.485
ထွန်	-10.485
လူငယ်များ	-10.4852
သွားရောက်	-10.4855
▁ကဲ့သို့သော	-10.4855
▁မွေးဖွားသည်။	-10.4861
စိုင်	-10.4868
အဆောက်အဦ	-10.4874
▁ပုဏ္ဏား	-10.488
▁ညီညွတ်	-10.4884
▁ဘဝနိဂုံး	-10.4885
ခေါ်ဆို	-10.4888
ဆွေး	-10.489
▁တံ	-10.4891
▁နစ်	-10.4891
သင့်သည်။	-10.4892
yu	-10.4894
စေသည့်	-10.4894
ဟွန်း	-10.4899
ဝန်ထောက်	-10.4901
▁ဆည်	-10.4907
▁အစွဲပြု၍	-10.4907
ထွင်	-10.4909
lor	-10.4911
▁၁၉၈၁	-10.4911
ဘွဲ့ခံ	-10.4911
▁ကြုံ	-10.4911
▁ပထမအကြိမ်	-10.4912
▁ရရှိသည်။	-10.4914
ကြော်	-10.4914
လမ်	-10.4914
▁တခု	-10.4918
▁ထုတ်လွှင့်	-10.4922
ဂယ်	-10.4923
လှောင်	-10.4924
ics	-10.4926
▁ဂဏန်း	-10.4927
▁ရောင်း	-10.493
ဖှ	-10.493
ရ၍	-10.493
▁ချိတ်ဆက်	-10.4932
ကလေးများကို	-10.4937
မြို့နယ်သည်	-10.4938
▁မြန်မာသက္ကရာဇ်	-10.494
▁လှ	-10.4942
ပြပွဲ	-10.4947
▁ညနေ	-10.4954
သိပ်သည်း	-10.4955
ညွှန်ကြားရေးမှူး	-10.4956
ဇန်	-10.4956
▁လက်မှတ်ရေးထိုး	-10.4956
ပြည့်နှစ်	-10.4957
▁သက်သာ	-10.4959
ဆိပ်ရွာ	-10.496
▁ဝိနည်း	-10.4962
ဖြစ်လျှင်	-10.4963
▁၆၀	-10.4965
▁ဆောင်းပါးများ	-10.4967
▁သို့ဖြင့်	-10.4967
ကျယ်ပြန့်	-10.4967
▁သူရိယ	-10.4971
ဝံ့	-10.4975
စဲ	-10.4975
နယ်တွင်	-10.4976
စွယ်စုံကျမ်း	-10.4979
▁ထိန်	-10.498
ဖြန့်ချိ	-10.4983
နံ့သာ	-10.4983
▁၁၉၇၆	-10.4984
▁ဆံပင်	-10.4984
▁သရ	-10.499
▁ကြ	-10.4992
တြ	-10.4996
တက်လာ	-10.4998
▁သာမဏေ	-10.4999
ble	-10.5004
နိုင်ငံတော်သမ္မတ	-10.5007
▁၁၉၈၆	-10.5007
▁၈၀	-10.5009
▁စန္ဒ	-10.5009
လျှင်လည်း	-10.501
ting	-10.5013
သမာ	-10.5014
▁သိပ္ပံပညာရှင်	-10.5015
ဖြိုး	-10.5016
▁သိမ်	-10.5024
ဖျော်	-10.5027
ညက်	-10.5027
ယူနိုက်တက်	-10.5027
လှဲ	-10.5029
▁pu	-10.503
▁မိုးကုတ်	-10.5032
▁တည်နေရာ	-10.5033
▁သူမသည်	-10.5036
▁အသင့်	-10.5037
▁အသည်း	-10.5039
▁အထည်	-10.5039
▁ဖောင်	-10.504
ရပေသည်။	-10.5041
ဥစ္စာ	-10.5044
▁နေထိုင်ကြသည်။	-10.5047
မင်းတို့	-10.5048
ice	-10.5052
ထွာ	-10.5053
▁၁၉၃၉	-10.5056
=67	-10.5059
▁နာမည်ကြီး	-10.5059
▁ဗိုလ်ချုပ်ကြီး	-10.5064
မြောက်ဘက်	-10.5064
ဟင်္သာ	-10.5068
“	-10.5073
ဟပ်	-10.5074
ပိန်း	-10.5074
▁ဂရီဂေါရီးယန်း	-10.5076
▁ဆွီဒင်	-10.5076
▁country	-10.5076
▁သတိုး	-10.5079
ကျဉ်း	-10.5079
▁မုဆိုး	-10.5081
=68	-10.5081
ဖြင့်သာ	-10.5082
▁ခုနှစ်အတွင်း	-10.5082
▁အလံ	-10.5082
▁စိမ်း	-10.5082
ဆက်လက်	-10.5083
လေပြီ။	-10.5085
▁ကာယ	-10.5086
▁တည်ရှိနေ	-10.509
ဝန်ဆောင်မှု	-10.5093
စေနိုင်သည်။	-10.5097
သက်သာ	-10.51
အဆက်ဆက်	-10.5102
ဈေးကွက်	-10.5103
တိုးပွား	-10.5104
ကြပေ။	-10.5111
▁အဆီ	-10.5115
မြှ	-10.5116
▁သောင်	-10.5117
လေတော့သည်။	-10.5118
ag	-10.5121
▁သိုး	-10.5122
▁ဟိုက်	-10.5123
ဒီမိုကရက်တစ်	-10.5124
ပြာသာဒ်	-10.5124
နယ်စပ်	-10.5129
▁ခါ	-10.5132
▁ကိုလည်း	-10.5135
စွာဖြင့်	-10.5136
သည	-10.5136
▁ကလောင်	-10.5137
▁အဖွဲ့ချုပ်	-10.5139
ခဲ့ရာမှ	-10.514
အချို့ကို	-10.5142
ကိစ္စရပ်များ	-10.5146
▁ဌာပနာ	-10.5147
▁သုတ်	-10.5147
▁အခု	-10.5148
▁နှိုင်းယှဉ်	-10.5149
မြင့်သော	-10.5149
ခံရခြင်း	-10.5151
မဂ္ဂ	-10.5152
002	-10.5155
▁ယခုအခါတွင်	-10.5158
ေန	-10.5158
▁ကြယ်စုတန်းမှ	-10.5161
▁ဆိုတာ	-10.5163
▁ဟဲ	-10.5164
▁ကျန်ရှိ	-10.5165
မပျက်	-10.5166
နေတဲ့	-10.5166
ဒေါ့	-10.5166
တော့ချေ။	-10.517
▁ကွယ်လွန်ချိန်	-10.517
▁စိန့်	-10.5173
international	-10.5174
သားတော်	-10.518
▁ဆိုသော	-10.518
▁ထွက်ရှိ	-10.518
250	-10.5181
minor	-10.5183
နီယမ်	-10.5185
▁ဖွဲ့	-10.5187
စည်းရုံး	-10.5187
ပါဠိတော်	-10.5188
အလွှာ	-10.5188
▁ဒီဇိုင်း	-10.5189
ဗင်း	-10.5189
ပြုကာ	-10.519
ကြာရှည်	-10.5193
ငြိမ်းချမ်းရေး	-10.5202
ဂျွန်	-10.5202
▁စိတ်ကူး	-10.5204
▁လက်ယာ	-10.5204
ပြက္ခဒိန်အရ	-10.5204
▁ညွှန်ကြား	-10.5206
စကားလုံး	-10.5207
စာလုံး	-10.5214
core	-10.5216
pu	-10.5219
▁သိက္ခာ	-10.522
ထားရာ	-10.5222
▁bi	-10.5223
ိယထေရ်	-10.5223
ခြင်	-10.5224
▁အသုံးပြုသော	-10.5226
ခဲ့ချေ။	-10.5226
ဖုတ်	-10.5227
▁လယ်သမား	-10.5236
▁လာအို	-10.5241
▁war	-10.5245
ထောက်ခံ	-10.5246
နိုင်ငံသို့	-10.5247
အမှုန်	-10.525
▁၁၉၆၆	-10.5252
▁၆ဝ	-10.5255
ခန	-10.5256
▁ငယ်စဉ်က	-10.5256
လျှို	-10.5259
▁အသေးစိတ်	-10.5272
▁ဆွေမျိုး	-10.5273
▁ပရိ	-10.5277
အရပ်၌	-10.5279
▁သူတစ်ပါး	-10.5281
ခေတ်က	-10.5283
အမည်ကို	-10.5287
အဆောက်အဦး	-10.529
▁နာဂ	-10.529
▁မွတ်စလင်	-10.5291
▁အလင်းရောင်	-10.5292
▁ပြီးစီး	-10.5293
tab	-10.5295
စူ	-10.5299
ဘောလုံးသမား	-10.5305
ite	-10.5306
gar	-10.5311
▁အိဝ	-10.5311
▁ကြယ်စုတန်း	-10.5312
▁လက်မခံ	-10.5313
လွှဲပြောင်း	-10.5314
အက်ဖ်	-10.5318
သလင်း	-10.5319
ဝိပဿနာ	-10.5321
ပံ့ပိုး	-10.5321
pl	-10.5322
▁အားဖြင့်	-10.5322
▁အဓိပ္ပာယ်ရသည်။	-10.5326
▁အစိုးရ၏	-10.5328
pho	-10.5328
▁ယူဆောင်	-10.5329
▁လွယ်ကူ	-10.5331
▁သာယာဝတီ	-10.5331
နေသဖြင့်	-10.5337
▁သမဂ္ဂ	-10.5344
▁comp	-10.5344
အပြုအမူ	-10.5346
▁ဗန်းမော်	-10.5346
▁ညှိနှိုင်း	-10.5347
လျှော	-10.5349
▁ရုပ်ပွားတော်	-10.535
နိုင်သော်လည်း	-10.5353
မည်သော	-10.5356
▁နံရံ	-10.5356
ring	-10.5358
အချိုး	-10.536
ဆန့်ကျင်	-10.536
ပတ်ဝန်းကျင်	-10.5361
▁အစည်းအရုံး	-10.5365
▁နောင်တွင်	-10.5368
▁၁၉၇၉	-10.5375
မြူး	-10.5375
မျိုးနွယ်စု	-10.5377
ဖော်ပြထားသည်။	-10.5378
▁ကုန်သွယ်ရေး	-10.5379
▁နေရာတွင်	-10.538
ငံ	-10.538
est	-10.538
▁တူးမြောင်း	-10.5382
တူးမြောင်း	-10.5386
ပြီးသောအခါ	-10.5387
gh	-10.5388
ခြစ်	-10.5392
net	-10.5393
▁လူတို့၏	-10.5397
လာခဲ့ပြီး	-10.5399
▁ပြောပြ	-10.54
သူများအား	-10.5401
ပေလိမ့်မည်။	-10.5402
အဖြစ်လည်းကောင်း၊	-10.5403
တစ်မျိုးဖြစ်သည်။	-10.5403
▁၇။	-10.5404
တူးဖော်	-10.5405
ign	-10.5412
▁chan	-10.5413
ငင်	-10.5415
ဗြဲ	-10.5416
▁စီးဝင်	-10.5417
▁အထောက်အပံ့	-10.5419
▁သမင်	-10.542
▁အနီရောင်	-10.5421
ဆရာတော်ဘုရားကြီး	-10.5423
ပုထိုး	-10.5423
▁နောက်ခံ	-10.5425
▁စည်းမျဉ်း	-10.5428
ဋ္ဌာ	-10.543
agon	-10.5431
နေခဲ့သည်။	-10.5433
▁ဖမ်း	-10.5433
▁ကတိ	-10.5435
ဋိ	-10.5436
▁pan	-10.5441
ဖော်ထုတ်	-10.5441
ဂရမ်	-10.5443
▁အမေ	-10.5445
▁အမွေး	-10.5446
လွင့်	-10.5446
▁ဥပမာအားဖြင့်	-10.5457
▁ကမ်းခြေ	-10.5462
▁သံဃာတော်	-10.5462
သူတို့၏	-10.5464
လူ့	-10.5467
ဗြဟ္မ	-10.5467
ဒိဋ္ဌိ	-10.5472
▁လူ့အခွင့်အရေး	-10.5472
နူး	-10.5477
အမည်ရှိ	-10.5484
▁အိမ်ရှင်	-10.549
စမ်းသပ်	-10.5491
များကလည်း	-10.5492
ကုံး	-10.5493
▁အသုံးပြုသူ	-10.5494
▁ပြတိုက်	-10.5494
▁than	-10.5494
လတ္တံ့	-10.5497
▁သယ်ဆောင်	-10.5497
ဖျာ	-10.5498
▁မြိတ်	-10.5499
ဂွေး	-10.55
▁အဆုံးသတ်	-10.55
▁မေးမြန်း	-10.5504
▁အဖြူ	-10.5505
သေးပေ။	-10.5506
တင်သွင်း	-10.5508
▁တစ်နှစ်လျှင်	-10.5516
▁သူက	-10.5516
ဥရောပ	-10.5517
တပည့်	-10.5517
▁ကျယ်ဝန်း	-10.5517
ဗွီ	-10.552
▁အော့	-10.552
▁အောက်ဆီဂျင်	-10.5522
▁ဆည်းပူး	-10.5525
တည်ဆောက်ရေး	-10.5528
သူတို့သည်	-10.5531
▁ကဲ့သို့	-10.5532
▁ပိတ်ဆို့	-10.5532
gin	-10.5534
ပါဝင်သည့်	-10.5535
▁ထိုအချိန်က	-10.5535
ဆည်းပူး	-10.5542
▁မြောင်း	-10.5547
car	-10.5548
▁ရဟန်းပြု	-10.5559
ကူးစက်	-10.5564
▁ဂျပန်တို့	-10.5565
▁သီး	-10.5567
ကြကုန်	-10.5569
009	-10.5569
ကွပ်	-10.557
ဗီဇ	-10.5576
tur	-10.5578
သင်္ဘောများ	-10.5579
ကျောင်း၌	-10.5579
သမိန်	-10.5586
ဘား	-10.5586
▁အနေအထား	-10.5591
ရိုးမ	-10.5591
အိချိ	-10.5594
ကော်ပိုရေးရှင်း	-10.5598
▁မော်စကို	-10.5599
▁ဝေဒနာ	-10.56
▁၁၉၇၈	-10.5602
▁ပြီးဆုံး	-10.5603
ပ္	-10.5604
▁ချဉ်းကပ်	-10.5624
ရုပ်မြင်သံကြား	-10.5624
▁record	-10.5624
▁မျဉ်း	-10.5625
▁ပဋိပက္ခ	-10.5625
▁လွယ်	-10.5626
တွန်း	-10.5629
▁အာဏာသိမ်း	-10.563
▁state	-10.5634
ဒရယ်	-10.5636
လုပ်ကိုင်ခဲ့သည်။	-10.564
ညစ်	-10.564
▁ဗြိတိသျှအစိုးရ	-10.5649
▁အီလက်ထရွန်	-10.5649
▁အာကာသယာဉ်	-10.5651
▁ထိန်း	-10.5651
ကမ္ဘာ့	-10.5651
ဂျို	-10.5652
ရွာသစ်	-10.5652
sis	-10.5654
နာဂ	-10.566
=102	-10.5662
▁အကျယ်အဝန်း	-10.5664
▁ဆင်းသက်	-10.5666
▁အဓိကအားဖြင့်	-10.5667
▁ပြည်မြို့	-10.5668
▁တင်ပို့	-10.5669
▁အီတလီနိုင်ငံ	-10.5672
▁မစ်	-10.5672
ach	-10.5673
▁ဒသမ	-10.5673
▁သံလိုက်	-10.5674
မဲဆန္ဒနယ်	-10.5676
▁မျက်မှောက်	-10.5676
▁အစပြု	-10.5676
▁နိုင်ငံခြားသား	-10.5677
▁၁၉၇၇	-10.5679
ယိုး	-10.5681
▁ထွက်ခွာ	-10.5683
▁သိမ်း	-10.5689
▁ပညတ်	-10.5693
▁အကြီးအကဲ	-10.5694
▁လူတိုင်း	-10.5698
ရည်မှန်းချက်	-10.5701
▁ဦးစီးဌာန	-10.5702
▁ရောနှော	-10.5702
ပဒ	-10.5705
ဗေ	-10.5706
▁ခေါင်းလောင်း	-10.5708
ဝေဖန်	-10.5714
ယောင်း	-10.5722
▁ရောက်ရှိခဲ့သည်။	-10.5723
▁us	-10.5725
▁ခွဲထွက်	-10.5725
▁tra	-10.5725
ရန်း	-10.5727
ဖြစ်၍၊	-10.5727
၅ဝ	-10.5728
▁အခေါက်	-10.5729
ကျိုင်း	-10.573
▁၁၉၅၁	-10.573
ပြီးနောက်တွင်	-10.5734
ချူး	-10.5734
▁အင်္ဂလိပ်တို့	-10.5735
ဗြဟ္မာ	-10.5738
▁တပ်မဟာ	-10.5739
အနေနဲ့	-10.5746
▁ဌာနချုပ်	-10.5748
▁san	-10.5748
sm	-10.5749
▁၁၉၈၃	-10.5757
auk	-10.5758
ကျွဲ	-10.576
န္တာ	-10.5771
for	-10.5776
နိုက်	-10.5776
နေချိန်	-10.5776
အစိတ်အပိုင်းများ	-10.5777
နေ၏။	-10.5777
ဝတ္တု	-10.5779
▁မြို့တစ်မြို့	-10.5779
▁လော့	-10.5782
▁မြေဩဇာ	-10.5783
ဓဇ	-10.5784
ib	-10.5786
="51	-10.5789
စေလို	-10.5793
▁လင်္ကာ	-10.5795
ငဲ့	-10.5796
▁အတိအကျ	-10.5805
ပတ်လမ်း	-10.5805
▁ဖယ်	-10.5806
▁အနေ	-10.5808
▁ကြော်ငြာ	-10.5809
="102	-10.5809
north	-10.5812
ထူးခြား	-10.5813
သူငယ်	-10.5817
တဏှာ	-10.5831
ချေမှုန်း	-10.5831
ခဲ့ဖူးသည်။	-10.5832
▁စုံ	-10.5833
▁အရှေ့မြောက်	-10.5835
ဂိတ်	-10.5845
ထားရသည်။	-10.5848
ထည့်သွင်း	-10.5849
ရှိသောကြောင့်	-10.5849
၀၈	-10.5851
မျော	-10.5856
▁သင်္ကေတ	-10.5856
▁ဖယ်ရှား	-10.5859
ကော်မရှင်	-10.587
300	-10.5871
▁ခြားနား	-10.5878
ကိုယ်စားလှယ်များ	-10.5883
john	-10.5883
▁ကမ္ဘာပေါ်ရှိ	-10.5887
ဒေသနာ	-10.5892
=58	-10.5895
ကျေးဇူး	-10.5897
▁သက်တော်	-10.5897
▁မယား	-10.5903
ပေါ်ထွန်း	-10.5905
ထက်သန်	-10.5909
ဓုတင်	-10.5913
ous	-10.5914
▁၁၉၈၂	-10.5915
ele	-10.5915
▁ဟင်္သာတ	-10.5921
၅ဝဝ	-10.5921
▁စီမံခန့်ခွဲ	-10.5921
▁အချို့မှာ	-10.5923
၀၉	-10.5924
bon	-10.5932
ထွဋ်	-10.5936
▁ကေအိုင်အေ	-10.5936
▁အနာဂတ်	-10.5937
▁ညဉ့်	-10.5937
စူးစမ်း	-10.5938
ဖြစ်ရပ်	-10.5938
သျှင်	-10.5939
▁သိသာ	-10.5939
▁အဆက်အသွယ်	-10.5941
▁၁၉၃၆	-10.5943
▁တောင်ပေါ်	-10.5945
▁အချက်အချာ	-10.5946
▁kyauk	-10.5947
ဌာနချုပ်	-10.5949
ကွဲလွဲ	-10.5949
ကွန်ပျူတာ	-10.5953
အကူအညီ	-10.5954
gon	-10.5954
▁မြန်မာဘာသာ	-10.5955
ပြုံး	-10.5956
လိန်	-10.5958
▁မော်ကွန်း	-10.5958
ဝ်	-10.5961
▁သက်ဆိုင်	-10.5962
▁အဘိဓမ္မာ	-10.5962
▁ခန့်ထား	-10.5963
အသုံးအဆောင်	-10.5963
ရုံမျှ	-10.5964
▁ဘုရင့်နောင်	-10.5964
▁ကန့်	-10.5964
▁အလံနီ	-10.597
▁တရားဟော	-10.5972
▁အဆုတ်	-10.5979
စီးရီး	-10.5985
မွေးဖွား	-10.5989
ဒဏ္ဍာရီ	-10.5989
▁ခွဲစိတ်	-10.5995
ဟုန်	-10.5998
▁သျှင်	-10.5998
lon	-10.6001
ါး	-10.6002
▁လှူ	-10.6003
စက်မှု	-10.6006
▁ဆင်ခြင်	-10.6007
ခဲ့သောကြောင့်	-10.6008
ဆိုပြီး	-10.6011
▁နျူကလီးယား	-10.6015
ကြပေသည်။	-10.6018
အကြောင်းအရာ	-10.602
▁သီဟိုဠ်	-10.6024
ဝန်ကြီးအဖြစ်	-10.603
သူများမှာ	-10.6037
သွားကြ	-10.6039
ass	-10.604
သည့်ပြင်	-10.604
cl	-10.6044
▁လူမျိုးများ	-10.6045
သန့်စင်	-10.6047
တုန်းက	-10.6055
ဖြုတ်	-10.6059
▁တိရစ္ဆာန်များ	-10.6062
▁ကရင်ပြည်နယ်	-10.6064
တိန်း	-10.6065
▁သောကြာ	-10.6067
အရပ်တွင်	-10.6069
▁ဝန်းရံ	-10.6069
▁လုပ်ပိုင်ခွင့်	-10.6073
ဗိမာန်	-10.6079
ဒီပ	-10.6082
ဖော့	-10.6084
တစ်ချက်	-10.609
သည့်အလျောက်	-10.6092
အင်ဂျင်နီယာ	-10.6094
▁လုပ်ငန်းများကို	-10.6104
ရာစုနှစ်	-10.6105
စစ်ဌာနချုပ်	-10.6105
ကြကုန်၏။	-10.6106
လိမ့်မည်ဟု	-10.6108
၀၇	-10.6111
▁တကယ်	-10.6115
▁လွတ်လပ်ရေးရ	-10.612
နွား	-10.6121
မုန်	-10.6122
myanmar	-10.6123
▁အနှံ့အပြား	-10.6123
နည်းပညာတက္ကသိုလ်	-10.6125
သုံးဆယ်	-10.6126
စုဆောင်း	-10.6128
ခံ၍	-10.6128
eo	-10.6129
အရေးအခင်း	-10.6132
▁မြန်မာနိုင်ငံ၌	-10.6134
cro	-10.6137
=47	-10.6146
ရပြန်သည်။	-10.6147
▁မြောက်မြားစွာ	-10.615
▁power	-10.615
အထက်တန်းကျောင်း	-10.6151
ပေမယ့်	-10.6153
လေ့ရှိသော	-10.6154
▁စကြဝဠာ	-10.6158
ကိုယ်စား	-10.616
တစ်နှစ်တာ၏	-10.6162
▁အဋ္ဌကထာ	-10.6162
=76	-10.6163
နည်းပြ	-10.6165
တွေရဲ့	-10.6173
ism	-10.6174
▁ဒေါသ	-10.6176
ပစိဖိတ်	-10.6177
▁ကယ်လီဖိုးနီးယား	-10.6177
▁အတိုက်အခံ	-10.6177
ချန်ပီယံ	-10.6177
ပြီးသည့်နောက်	-10.6177
အွန်	-10.6178
ယိမ်း	-10.6178
ဖွဲ့စည်းခဲ့သည်။	-10.618
ပတ္တိ	-10.618
စီစဉ်	-10.6187
hen	-10.6192
▁အလိုရှိ	-10.6192
▁နှိမ်နင်း	-10.6198
ဥပါ	-10.6203
▁နတ်ရွာစံ	-10.6204
ကူးသန်းရောင်းဝယ်	-10.6204
ခဲ့တယ်။	-10.6205
လိုက်စား	-10.6206
▁အချိန်ဇုန်	-10.6207
cle	-10.621
ပေါ်ပေါက်လာ	-10.621
ထွက်သွား	-10.621
က္ခိ	-10.6216
သတ္တဝါများ	-10.622
▁ပျား	-10.6231
ding	-10.6232
▁ကိုယ်ခန္ဓာ	-10.6236
ရမည်ဖြစ်သည်။	-10.6236
ပိုးမွှား	-10.6238
ပိုမို	-10.6239
▁ဘား	-10.6244
နိုင်သည်ဟု	-10.6245
long	-10.6245
လီယို	-10.6245
▁မြန်မာပြန်	-10.6246
▁ဦးစွာ	-10.6249
သွားရာ	-10.6252
၀၆	-10.6256
န္န	-10.6257
ခဲ့ဘူး	-10.6258
နတ်မင်း	-10.626
▁ဥစ္စာ	-10.6262
▁၁၉၈၄	-10.6264
▁သင့်တော်	-10.6268
av	-10.627
▁ကနေဒါနိုင်ငံ	-10.6274
▁လက်နက်ချ	-10.6275
▁ခရု	-10.6275
ဖွံ့ဖြိုးရေး	-10.6283
▁ကဆုန်	-10.6285
ကုန်ဆုံးရန်	-10.6287
uc	-10.6287
ကိရိယာများ	-10.6287
နိုင်ငံသား	-10.6294
သူများနှင့်	-10.6295
char	-10.6297
ခူ	-10.6302
တစ်ခု၏	-10.6302
▁မြတ်စွာဘုရားအား	-10.6305
ခဲ့လျှင်	-10.6308
ပါဒ	-10.6308
016	-10.631
▁ပထမကမ္ဘာစစ်	-10.6313
ပေးပို့	-10.6314
▁ဆန်စပါး	-10.6314
▁myoth	-10.6315
ပါရှိသော	-10.6316
▁လေးစား	-10.6316
▁အမေရိကန်ဒေါ်လာ	-10.6318
နေထိုင်သူ	-10.6319
နဂါး	-10.632
လေကြောင်း	-10.6322
ကထိက	-10.6322
kar	-10.6331
ကြရန်	-10.6334
သင်္ဂြိုဟ်	-10.6343
လတာ	-10.6344
အကျင့်	-10.6344
▁မော်တော်ကား	-10.6346
▁ဖွံ့ဖြိုးရေး	-10.6347
▁အဖိုး	-10.6347
ရိပ်သာ	-10.6348
▁မူလက	-10.6353
▁မြို့၏	-10.6354
မြတ်စွာ	-10.6366
လန့်	-10.6366
စတြ	-10.6368
▁မဲဇလီ	-10.6368
အင်္ကျီ	-10.6368
လိမ္မာ	-10.637
▁နက္ခတ်	-10.6372
ခဲ့ရပြီး	-10.6374
သေနတ်	-10.6378
▁လောကီ	-10.6378
နှလုံး	-10.6378
▁ရွေး	-10.6381
လာရောက်	-10.6381
ကုန်းရွာ	-10.6384
စစ်မှုထမ်း	-10.6386
နှံ့	-10.6391
▁ဓာတ်တော်	-10.6392
▁people	-10.6395
▁ချီးကျူး	-10.6395
▁မှူးမတ်	-10.6396
▁အစဉ်အလာ	-10.64
အိမ်တော်	-10.6402
▁အဖိုးတန်	-10.6402
▁အရည်အသွေး	-10.6404
တောင်ခြေ	-10.6404
နိကာယ	-10.6405
သွပ်	-10.6405
▁ညီတော်	-10.6412
▁ကားလမ်း	-10.6416
သို့ပြန်	-10.6417
wan	-10.6419
▁အတွဲ	-10.6423
ကွ	-10.6427
သဘောတရား	-10.6428
701501	-10.6428
▁၁၉၃၈	-10.643
ထော	-10.643
▁ကမာ	-10.6431
▁ဆီးချို	-10.6434
ထရွန်	-10.6435
ကုန်သွယ်မှု	-10.6436
▁အိမ်ရှေ့	-10.644
ကိုလည်းကောင်း	-10.6442
400	-10.6447
ရုတ်	-10.645
နမ်	-10.6454
မဟုတ်ချေ။	-10.6457
ထားကြ	-10.6458
701502	-10.6459
လှုပ်ရှားမှုများ	-10.6461
▁အနောက်ပိုင်း	-10.6466
၇ဝ	-10.6467
စာအုပ်များ	-10.6474
ငှက်မျိုး	-10.6476
ခဲ့ပြန်သည်။	-10.6478
ခပ်	-10.6479
ညှပ်	-10.6479
▁ပရိနိဗ္ဗာန်	-10.6479
by	-10.648
▁ပေါက်ကွဲ	-10.6481
▁ဖွဲ့စည်းထား	-10.6481
war	-10.6482
▁ဘုရားကျောင်း	-10.6488
▁ထိုရဟန်း	-10.649
၀၅	-10.6492
အေးချမ်း	-10.6493
အပူချိန်	-10.6499
▁ကွန်ရက်	-10.6499
အလုပ်သမား	-10.6501
အပြောင်းအလဲ	-10.6507
ခဲ့သေးသည်။	-10.651
▁စစ်အစိုးရ	-10.6511
▁အတ္ထုပ္ပတ္တိ	-10.6513
▁ရောစပ်	-10.6514
▁အချက်အလက်များ	-10.6518
တစ်ရွာ	-10.6528
သုံးဦး	-10.6534
▁စေတနာ	-10.6537
▁ဘုရားသခင်	-10.6542
လေးစား	-10.6548
ရပေမည်။	-10.6555
cho	-10.6559
▁ခေါ်သော	-10.6559
▁မြစ်ကြီးနား	-10.6563
▁ပြစ်မှု	-10.657
သတ်ဖြတ်	-10.6571
တစ်လျှောက်တွင်	-10.6575
▁ပါဝင်ပြီး	-10.6578
▁ပြည်တွင်းစစ်	-10.6578
နိုင်ချေ။	-10.6584
ကွန်မြူနစ်	-10.6584
▁you	-10.6585
စထ	-10.6587
ယီ	-10.6591
▁မိတ္ထီလာ	-10.6591
▁ပျောက်ကင်း	-10.6592
▁ဒီလို	-10.6593
ထွက်၍	-10.6601
▁စက်မှုလုပ်ငန်း	-10.6602
pha	-10.6605
ner	-10.6605
▁အရုပ်	-10.6606
တာဝန်များကို	-10.661
လာ၏။	-10.661
▁ဆက်လက်၍	-10.6612
▁ဦးတင်	-10.6613
▁တောင်သူလယ်သမား	-10.6619
▁ပျံလွန်တော်မူ	-10.6619
▁ဟောကြား	-10.6619
နမူနာ	-10.662
စိပ်	-10.6625
▁ကြည်ညို	-10.6631
ပျံ့	-10.6631
▁အမွှေး	-10.6632
eu	-10.6636
=77	-10.6639
ပြီဟု	-10.664
တစ်ဦးဖြစ်	-10.6641
▁အမှတ်အသား	-10.6646
ညီအစ်ကို	-10.6648
▁ပါရမီ	-10.6651
တွေ့ဆုံ	-10.6654
ထိန်းချုပ်	-10.6658
ham	-10.6659
▁အနောက်မြောက်	-10.6664
=46	-10.6669
▁ရှိသေးသည်။	-10.6673
▁ဝူ	-10.6674
▁death	-10.6676
အရေးပါ	-10.6678
ani	-10.668
ဇယ်	-10.668
အပေါင်းတို့	-10.668
ပြီးသော်	-10.6682
ပဏ္ဍိတ	-10.6687
▁ငယ်စဉ်	-10.6688
ခါဝါ	-10.6689
ပျစ်	-10.6689
သင်္ကေတ	-10.669
အမျိုးမျိုးကို	-10.6691
▁ယူဆကြသည်။	-10.6692
van	-10.6703
ကရိယာ	-10.6705
တောင့်တင်း	-10.6707
▁မြဝတီ	-10.6707
လိုင်စင်	-10.6712
ဘုန်းကြီးကျောင်း	-10.6713
▁မြေး	-10.6724
▁အင်္ဂလိပ်စာ	-10.6724
▁အတွေ့အကြုံ	-10.6733
ဍ	-10.6733
အားလျော်စွာ	-10.6733
ယှက်	-10.6734
▁မအောင်မြင်	-10.6737
▁အသုံးပြုခြင်း	-10.674
▁အနောက်နိုင်ငံ	-10.6748
=87	-10.6751
▁ဆုံးမ	-10.6752
ဟော့	-10.6755
ရသော်လည်း	-10.676
မြန်မာ့	-10.676
▁၈။	-10.6761
ah	-10.6765
▁၁၉၈၇	-10.6766
▁ရေကန်	-10.6776
ဇွန်း	-10.6777
အသင်း၏	-10.6779
▁စစ်သား	-10.6781
နိုင်မည့်	-10.6784
hon	-10.6784
▁မြေပုံ	-10.6786
ဗီဒီယို	-10.679
▁ပအိုဝ်း	-10.679
သုဉ်း	-10.6793
▁နမ့်	-10.6794
ဟူ၍လည်းကောင်း	-10.6795
မရှိပါ။	-10.68
▁national	-10.6801
▁စက်မှုလက်မှု	-10.6801
ကျဲ	-10.6801
▁ဆန္ဒပြ	-10.6803
▁ရှားပါး	-10.6803
နိုင်စေရန်	-10.6804
ဥတု	-10.6806
ကမ်းပါး	-10.6811
▁အစီရင်ခံစာ	-10.6815
ကြုံတွေ့	-10.6816
သင်္ဂါယနာ	-10.6819
သိုလှောင်	-10.682
တဲ့အခါ	-10.682
ure	-10.6821
န္တိ	-10.6823
ရဘူတာ	-10.6825
ev	-10.6834
▁အဘယ်ကြောင့်ဆို	-10.6839
စည်ပင်	-10.684
sco	-10.6844
အချက်အလက်	-10.6845
ဈ	-10.6847
▁ယင်းအား	-10.6847
▁လှည့်ပတ်	-10.6849
▁အဖြစ်အပျက်	-10.6849
▁ပဲခူးရိုးမ	-10.6849
▁၂၀၂၁	-10.6852
▁ပြန်၍	-10.6863
▁သမဝါယမ	-10.6864
အာဏာကို	-10.6865
▁မြန်မာစာပေ	-10.6866
ဗီးယား	-10.6873
▁အကယ်ဒမီ	-10.6874
▁group	-10.6877
▁ရွှေကျင်	-10.6881
▁တစ်လ	-10.6882
▁အရှိန်	-10.6882
▁ဟူသည်မှာ	-10.6885
ရသေး	-10.6885
dia	-10.6886
ရှိတဲ့	-10.6888
ရသေ့	-10.6889
အခြေစိုက်	-10.689
▁ပြုလုပ်ခဲ့သည်။	-10.6892
ဖြေရှင်း	-10.6893
ကြွယ်	-10.6894
ရေးဌာန	-10.6895
နေကြောင်း	-10.6898
▁ဘိက္ခု	-10.6898
▁အတ္တ	-10.6899
မြို့တည်	-10.6903
▁လူတို့သည်	-10.6904
ဂေး	-10.6905
ဒမ်	-10.6906
အလယ်တွင်	-10.6906
▁ကွဲပြားခြားနား	-10.6907
▁တဖန်	-10.6907
ley	-10.6908
▁ဥပဒေပြု	-10.6909
cer	-10.6909
▁သံတမန်	-10.6913
▁ပထဝီ	-10.6916
gan	-10.6916
▁အပေါင်း	-10.6918
▁အနော်ရထာမင်း	-10.6918
လူမျိုးများသည်	-10.692
▁yar	-10.6921
ခိဘူတာ	-10.6922
ပြုလုပ်ခြင်း	-10.693
▁တရားမဝင်	-10.6936
▁နှမ်း	-10.6936
act	-10.6938
မျိုးနွယ်	-10.694
ထံ၌	-10.6942
ထုတ်လုပ်ရေး	-10.6946
လှပေသည်။	-10.6949
▁တတိယမြောက်	-10.6952
▁သာသနာရေး	-10.6955
ကြပါတယ်။	-10.6957
ပင်လယ်ကွေ့	-10.6957
စ္ဆာ	-10.6958
▁လူဝီ	-10.6958
▁အတိတ်	-10.6964
▁ခရုပတ်ပုံစံ	-10.6965
▁ခြင်္သေ့	-10.6967
ဂမုန်း	-10.6968
ကျေနပ်	-10.697
▁can	-10.6973
▁ကောင်းမှု	-10.6974
▁စက်တင်ဘာလတွင်	-10.6977
ချဲ့ထွင်	-10.6977
သတည်း။	-10.6977
=72	-10.6981
▁အန်း	-10.6982
ယယ်	-10.6984
▁လက်ဖက်	-10.6986
▁အပေါက်	-10.6986
▁တောင်ကိုရီးယား	-10.6994
ကြိုင်	-10.6998
▁ကြေးနန်း	-10.7001
▁ဗဟုသုတ	-10.7002
ရာဒေသ	-10.7003
▁ဘုရားရှိခိုး	-10.7005
ိန္န	-10.701
=59	-10.7018
အမွေအနှစ်	-10.7021
▁အမှန်တကယ်	-10.7023
▁အခမဲ့	-10.7023
ယူဇနာ	-10.7024
▁သရုပ်ဖော်	-10.7024
ဗိုလ်ချုပ်	-10.7025
အချက်များ	-10.7027
ight	-10.7029
ခဲ့ကြ၏။	-10.7032
▁လှံ	-10.7034
ဂါဝါ	-10.7034
ုပ္	-10.7042
လမု	-10.7042
ဂျပန်	-10.7047
▁အီဂျစ်နိုင်ငံ	-10.7049
ငြား	-10.705
ဖြစ်တဲ့	-10.7054
▁အသံလွှင့်	-10.7056
ဟီး	-10.706
နှက်	-10.7063
နိသျ	-10.7063
▁ခြေထောက်	-10.7064
▁မက္ကဆီကို	-10.7065
ကဲ့	-10.7065
▁ရက်လုပ်	-10.7066
ညံ	-10.7067
qui	-10.7068
အရည်	-10.7071
အစုံ	-10.7072
top	-10.7074
▁bro	-10.7075
▁ကြီးကျယ်	-10.709
▁မတ်လတွင်	-10.7096
nes	-10.7097
အများစုသည်	-10.7098
ရေးဆိုင်ရာ	-10.71
န္နီ	-10.7102
▁၂၀ဝ	-10.7104
ကိစ္စများ	-10.7107
ရခြင်းမှာ	-10.7109
ငလျင်	-10.7111
သင်္ခါရ	-10.7113
ထိခိုက်	-10.7113
▁မွန်ဂို	-10.7113
▁အသိုက်	-10.7114
ဗန်း	-10.7119
ရှည်လျား	-10.7122
ဆောင်ရွက်မှု	-10.7126
ဗိ	-10.713
ဧည့်သည်	-10.7131
မျက်စိ	-10.7138
စွ	-10.7139
အစိုးရ၏	-10.714
ငါးရာ	-10.7142
▁sin	-10.7142
ကြည်လင်	-10.7142
▁ဟောင်ကောင်	-10.7142
သညာ	-10.7143
ဝန်အဖြစ်	-10.7144
ထက်မြက်	-10.7145
▁တိုးတက်မှု	-10.7146
တြာ	-10.7147
လျူ	-10.7152
ထန်း	-10.7153
ဒေသမှ	-10.7154
ညံ့	-10.7155
▁kha	-10.7156
တစ်ဦးအဖြစ်	-10.716
သွားသောအခါ	-10.7162
▁အမည်ကို	-10.7162
အရွက်	-10.7167
▁မျက်လုံး	-10.7171
▁မျိုးချစ်	-10.7171
သင်္ကြန်	-10.7172
▁လယ်ယာစိုက်ပျိုး	-10.7173
အာဏာပိုင်	-10.7173
ညွန်	-10.7174
▁ဖတ်ရှု	-10.7174
နေတတ်	-10.7177
ture	-10.7179
ris	-10.7179
ငတ်	-10.718
ဘက်၌	-10.7181
ထားသူ	-10.7182
ဟဲ	-10.7184
ဟား	-10.7191
ဖွဲ	-10.7193
ဂျီး	-10.7194
အာဖရိက	-10.7194
ကြရလေသည်။	-10.7196
ဗျိုင်း	-10.7202
▁စာနယ်ဇင်း	-10.7202
ဗိုင်းရပ်စ်	-10.7202
ချိုင့်ဝှမ်း	-10.7202
မည်ဖြစ်ကြောင်း	-10.7202
▁တောင်းပန်	-10.7204
701503	-10.7205
ug	-10.7207
▁ယင်းတို့သည်	-10.7209
မိယ	-10.7209
▁မြေပြန့်	-10.7211
ဆက်စပ်	-10.7211
သည့်အချိန်	-10.7218
=64	-10.7219
▁နောင်တော်	-10.7231
▁အရွယ်တွင်	-10.7231
▁ရှေးဦး	-10.7231
▁အာဆီယံ	-10.7232
▁ဘိုးတော်ဘုရား	-10.7232
▁java	-10.7232
▁ဆင်ဖြူရှင်	-10.7233
အကျယ်	-10.7239
ရွာမရွာ	-10.7239
ကြသောကြောင့်	-10.7241
သက်ဝင်	-10.7243
ပို၍	-10.7244
▁လက်ဆောင်	-10.7245
တော့၏။	-10.7245
▁ကျွန်တော်တို့	-10.7254
ဘီစီ	-10.7257
▁သဘောတူညီ	-10.7261
▁ထေရဝါဒ	-10.7262
အလို့ငှာ	-10.7262
သိက္ခာ	-10.7262
▁space	-10.7262
▁အဖြေ	-10.7264
▁ပြောင်းရွေ့	-10.7266
ဘာသာပြန်	-10.7267
ေါ	-10.7268
နှင့်ဆိုင်သော	-10.727
မယ့်	-10.7271
▁အင်းစိန်	-10.7273
▁ခေါ်ယူ	-10.7274
▁ညီမျှ	-10.7275
တာရှည်	-10.7276
▁အနံ	-10.7277
နှီးမြှုပ်နှံမှု	-10.7277
ဟိုင်	-10.7283
သို့ရောက်ရှိ	-10.7286
awng	-10.7291
▁ဆောင်ရွက်သည်။	-10.7295
---	-10.7305
▁သစ်တောများ	-10.7305
=73	-10.7307
တောရ	-10.731
မမှန်	-10.7311
မျာ	-10.7313
▁အချစ်	-10.7314
med	-10.7315
ပါပြီ	-10.7323
▁မိန်းကလေး	-10.7325
စေလွှတ်	-10.7326
ဆည်း	-10.7326
▁ကြီးပွား	-10.733
ii	-10.7332
pr	-10.7334
ကျဆုံး	-10.7337
=95	-10.7337
တတ်သူ	-10.7342
▁လက်ပန်	-10.7343
lic	-10.7345
ဖုံ	-10.7346
▁ကာတာ	-10.7353
ရှိသည်ကို	-10.7354
ခါနီး	-10.7354
ကြဲ	-10.7359
သိမ်းသွင်း	-10.7359
စားသုံး	-10.7362
▁ရောဂါပိုး	-10.7363
ကစ်	-10.7367
=66	-10.7371
▁အခြေပြု	-10.7373
ဥက္က	-10.7374
▁ကျွန်မ	-10.7374
▁ကူးပြောင်း	-10.7374
နေရသည်။	-10.7375
hla	-10.7376
▁သာသနာ့	-10.7376
▁စတုရန်း	-10.7378
▁နိုင်ငံရေးပါတီ	-10.738
တော့မည်	-10.7381
ပျောက်ကွယ်	-10.7382
အာနိသင်	-10.7383
▁အစောဆုံး	-10.7383
မြို့အနီး	-10.7384
▁ဒဂုံ	-10.7387
သီဆို	-10.7388
လိုက်နာ	-10.739
ဟင်	-10.7391
ပါမောက္ခ	-10.7391
▁တွေ့နိုင်သည်။	-10.7395
▁အရေးပေါ်	-10.7395
▁ယခုတိုင်	-10.74
▁မတူညီ	-10.74
စရိုက်	-10.74
ကျော်စွာ	-10.7407
▁အသုံးများ	-10.741
နှစ်လုံး	-10.7413
▁တန်ဆောင်မုန်း	-10.7414
▁သရေခေတ္တရာ	-10.7414
ဖူးမြော်	-10.7414
▁အသက်ရှူ	-10.7419
ပြန်လေသည်။	-10.7429
အယ်လ်	-10.7429
းမား	-10.7433
▁asia	-10.7435
ချော်	-10.7436
ခြင်းတို့ကြောင့်	-10.7437
မုခ်	-10.7437
ဟာရ	-10.7443
ally	-10.7447
▁အကောင်	-10.7451
▁ပစ်ခတ်	-10.7451
▁တရားသူကြီး	-10.7451
▁ပေါင်းစည်း	-10.7457
ခေါ	-10.746
သန့်ရှင်း	-10.7461
တမျိုး	-10.7463
ဈေးနှုန်း	-10.747
▁သီပေါ	-10.7471
ဖောင်ဒေးရှင်း	-10.7475
ခန့်သာ	-10.7475
▁သပိတ်မှောက်	-10.7476
ဆန့်	-10.7478
▁ဗုဒ္ဓသာသနာ	-10.7479
တရားရုံး	-10.7485
▁ကွယ်လွန်သွား	-10.7488
ဓာတု	-10.749
off	-10.7491
able	-10.7492
ို့ဗမာအစည်းအရုံး	-10.7493
ဖမ်းဆီး	-10.7496
စိမ်	-10.7498
▁ဖွားမြင်ခဲ့သည်။	-10.7499
▁မှတ်ယူ	-10.7506
▁အနားယူ	-10.7508
ည့်	-10.7509
ခိုင်မြဲ	-10.7512
ျူး	-10.7512
အစောပိုင်း	-10.7512
▁တပ်ဆင်ထား	-10.7512
ကိုက်ညီ	-10.7514
နိပါတ်	-10.7515
▁kaw	-10.7516
▁မြင်းခြံ	-10.7516
ကမ်းရိုးတန်း	-10.7521
▁နိုင်ငံခြားရေး	-10.7522
▁အခွံ	-10.7523
၄၀၀	-10.7524
အရသာ	-10.7524
းဦးကျော်လှ	-10.7536
သာဝက	-10.7538
tv	-10.7541
▁အရေးယူ	-10.7541
▁မိုးညှင်း	-10.7541
▁လိုက်လံ	-10.7542
▁ရှင်းလင်းချက်	-10.7543
▁str	-10.7547
▁ခေတ်စား	-10.7551
၌မူ	-10.7553
▁လျှပ်စစ်ဓာတ်အား	-10.7555
▁တရားတော်	-10.7564
တည်းဟူသော	-10.7566
▁စေ့စပ်	-10.7569
▁တာဝန်ခံ	-10.7579
▁သင်ကြားပေး	-10.7581
ပုံပြင်များ	-10.7582
ပုဂံ	-10.7586
အကောင်းဆုံး	-10.7587
သုဓမ္မ	-10.7589
မြင့်မြတ်	-10.7589
ဖွယ်ကောင်း	-10.759
အပြစ်	-10.7593
ဂါး	-10.7593
နံရံ	-10.7596
="66	-10.7599
တန်ခိုး	-10.7602
▁ရုပ်ပုံ	-10.7603
ချက်ဖြင့်	-10.7604
လှသဖြင့်	-10.7604
ဗေး	-10.7604
အစိတ်အပိုင်း	-10.7604
▁လွှမ်းမိုးမှု	-10.7608
ဘုရားရှင်	-10.7614
နယ	-10.7619
မည့်သူ	-10.7621
သေချာ	-10.7629
အတောအတွင်း	-10.763
tch	-10.7631
▁အလောင်းမင်းတရား	-10.7631
မှူးအဖြစ်	-10.7632
ဂျန်	-10.7632
ပါဝင်ပြီး	-10.7634
▁၁၉၄၄	-10.7637
ဖင်	-10.7647
တင်မောင်	-10.765
ဆွမ်း	-10.7657
▁အရိပ်	-10.7662
ဖိုလ်	-10.7662
လျဉ်း	-10.7663
▁တိဗက်	-10.7663
▁ဦးစိန်	-10.7665
ပို့ဆောင်ရေး	-10.7667
▁၎င်းတို့မှာ	-10.7667
▁လာဘ်	-10.7668
▁တီးခတ်	-10.7668
▁ညောင်ရမ်း	-10.7668
ဂျမ်း	-10.7673
▁အတူတူ	-10.7675
သူတွေ	-10.768
ရာနေရာ	-10.7682
ative	-10.7683
မြှင့်	-10.7683
▁အငြိမ့်	-10.7685
ပျံသန်း	-10.7686
ပညာရှင်များက	-10.7689
ရိက္ခာ	-10.7693
မောင်နှမ	-10.7694
▁ထို့အတူ	-10.7694
ခဲ့သူဖြစ်သည်။	-10.7696
ပေးနိုင်သည်။	-10.7698
ချီတက်	-10.7699
ဝိသေသ	-10.77
ase	-10.7703
ရွတ်ဆို	-10.7706
ပေါ်လာ	-10.7708
ရာထူးကို	-10.7712
▁မူလတန်း	-10.7713
▁post	-10.7714
list	-10.7716
အရှေ့ဘက်	-10.7718
ရာတွင်လည်း	-10.7718
ပြည့်ဝ	-10.772
အဝတ်	-10.7722
kin	-10.7723
သဲကန္တာရ	-10.7725
ဗွန်	-10.7725
▁မီးတောင်	-10.7728
▁ဦးဖိုး	-10.7729
▁(2)	-10.7731
▁ကျောက်ဆည်	-10.7733
▁အခါတွင်	-10.7739
ပင်လယ်အော်	-10.7745
ဿာ	-10.775
ထင်ရှားသော	-10.7753
▁ပြန်ရောက်	-10.7753
သုံးနှုန်း	-10.7757
တည်တံ့	-10.7757
=51	-10.7757
▁were	-10.7757
▁စာပေဗိမာန်	-10.7759
▁၁၉၃၇	-10.7762
▁သိမြင်	-10.7778
▁စလင်း	-10.7785
အင်ပိုင်ယာ	-10.7788
ဂျေား	-10.779
ကတိုး	-10.7791
နှေး	-10.7791
ယိုင်	-10.7793
▁ခရစ်ယာန်ဘာသာ	-10.7793
ထားသဖြင့်	-10.7793
မှတ်သား	-10.7794
တစ်ဝက်	-10.7799
▁စွန့်ပစ်	-10.7803
သန္ဓေ	-10.7819
ပရိယတ္တိ	-10.782
▁ဆွတ်ခူး	-10.782
=69	-10.7821
တစ်ဦးက	-10.7822
မေတ္တာ	-10.7822
bit	-10.7823
▁(1)	-10.7825
ယိ	-10.783
ကုန်းတန်း	-10.7833
▁သတ္တမ	-10.7833
120	-10.7834
ပါပဲ။	-10.7838
▁၎င်းတို့သည်	-10.784
▁ကျန်သေး	-10.784
ေးရှင်း	-10.7846
ဒါယက	-10.7848
lam	-10.785
ညစ်ညမ်း	-10.7852
ကိုလိုက်၍	-10.7855
▁ထောင်ဒဏ်	-10.7858
ဖြန့်ဖြူး	-10.7858
▁ပိုလန်	-10.786
ပေါင်းစပ်	-10.7863
▁ဓနု	-10.7867
=65	-10.7868
▁အောက်ခြေ	-10.7869
မှတစ်ပါး	-10.787
▁pre	-10.7871
▁ရုပ်သံ	-10.7872
#	-10.7884
▁ပျဉ်းမနား	-10.7884
▁ရုရှားနိုင်ငံ	-10.7887
▁အနိုင်ရရှိ	-10.7888
ထုံးတမ်း	-10.789
▁ထင်မြင်	-10.7891
ဖိုင်	-10.7902
တပ်များကို	-10.7904
▁၉။	-10.7905
ထောင်း	-10.7907
လေးခု	-10.7915
ပတိ	-10.7916
ဖျော့	-10.7916
▁အစားအသောက်	-10.7916
▁အွန်လိုင်း	-10.7916
▁ဆုတ်ခွာ	-10.7916
▁အဝါရောင်	-10.7916
▁ဖက်ဒရယ်	-10.7917
ဖောင်	-10.7918
စာမေးပွဲ	-10.792
ပညာသင်	-10.7921
▁၁၉၃၅	-10.7922
နိုင်ခဲ့ပြီး	-10.7924
▁သဲဖြူ	-10.7931
အပ်နှံ	-10.7932
phy	-10.7934
▁အရှေ့တောင်	-10.7934
▁ဥက္ကဋ္ဌအဖြစ်	-10.7936
▁ပိတ်ပင်	-10.7937
▁ဦးဆောင်သော	-10.7941
သေတ္တာ	-10.7945
အရှေ့ပိုင်း	-10.7947
▁ကျန်စစ်သား	-10.7948
အာဇာနည်	-10.7948
ဆင်းတုတော်	-10.7949
▁ကယ်ဆယ်	-10.7949
▁တစ်နိုင်ငံလုံး	-10.795
▁အဆောက်အအုံများ	-10.7951
မှန်ကန်	-10.7952
သိန်းဖေ	-10.796
=84	-10.7965
▁အခြေခံပညာ	-10.7967
ပုံနှိပ်တိုက်	-10.7972
▁ဖြစ်နိုင်သည်။	-10.7972
ဖြည့်စွက်	-10.7981
၀၄	-10.7988
▁ထုလုပ်	-10.7988
လူသား	-10.7992
▁အစ်ကို	-10.7996
အသုံးချ	-10.7996
▁ပြောကြားခဲ့သည်။	-10.7996
▁မတွေ့ရ	-10.8
ဆယ့်နှစ်	-10.8001
အစည်းအရုံး	-10.8002
ဒေသရှိ	-10.8002
ရပ်တည်	-10.8005
ဖြန်	-10.8007
အချက်အလက်များကို	-10.8007
▁အမရပူရ	-10.8009
ဇာတ	-10.8009
▁sha	-10.8011
မဇ္ဈိမ	-10.8013
▁heavy	-10.8013
ခဲယဉ်း	-10.8013
▁မုတ္တမ	-10.8014
စနစ်ဖြင့်	-10.8015
▁အုန်းပင်	-10.8015
လေ။	-10.802
ဇာတ်ကောင်	-10.802
ခဲ့ကြရာ	-10.8021
တစ်ခါ	-10.8032
ဘူမိ	-10.8041
လာစေရန်	-10.8041
▁ခန့်မှန်းခြေ	-10.8051
▁မြို့ရွာ	-10.8051
မီဒီယာ	-10.8055
▁အကြောင်းရင်း	-10.8062
ကြီးမားသော	-10.8064
န္ဒာ	-10.8081
လိုအပ်ချက်	-10.8086
▁ကျောင်းအုပ်	-10.8089
ပေါ်မူတည်	-10.8089
ဂျာမနီ	-10.8091
▁ဆိုသူက	-10.8092
သမင်	-10.8096
မွေးမြူ	-10.8099
cha	-10.8106
ကမ္မဋ္ဌာန်း	-10.8111
africa	-10.8111
▁ခြိမ်းခြောက်	-10.8111
▁ကူကီး	-10.8112
ရှီးမား	-10.8113
▁၂၀၁၉	-10.8114
▁တရုတ်ပြည်သူ့	-10.8117
မည်၏။	-10.8117
▁ရန်ကုန်မြို့၌	-10.8127
ပညာရှိ	-10.813
ကြူး	-10.8133
▁ရေးဖွဲ့	-10.8136
ဖျောက်	-10.8144
▁windows	-10.8144
▁အလုပ်အကိုင်	-10.8144
▁ဒေါင့်ကြီး	-10.8149
လေ့လာမှု	-10.8149
မြန်း	-10.8152
▁နည်းဥပဒေ	-10.8153
ခေါ်ဆောင်	-10.8154
ဒဏ်ကို	-10.8155
rus	-10.8155
ည်	-10.8156
တန်ချိန်	-10.8157
▁နိုင်ငံရေးသမား	-10.8158
ွစ်	-10.8159
အယူအဆ	-10.8161
အပြည့်	-10.8163
▁စပိန်နိုင်ငံ	-10.8166
ပေးခြင်းဖြင့်	-10.817
နှစ်ရပ်	-10.8171
ဒေါင်	-10.8174
သဟာယ	-10.8179
▁မိမိကိုယ်ကို	-10.8179
▁ဆက်တိုက်	-10.8182
သလဲ	-10.8188
မျိုးကွဲ	-10.8191
တပ်ပေါင်းစု	-10.8193
အဋ္ဌကထာ	-10.8196
ခဲ့ပြီ	-10.8196
တရပ်	-10.8197
ငှ	-10.8199
သင်ပုန်း	-10.8205
သာသန	-10.8206
မိန့်ခွန်း	-10.8211
▁ငယ်ရွယ်	-10.8211
▁မြောင်းမြ	-10.8213
တစ်ဦးတစ်ယောက်	-10.8217
ဟိုက်	-10.8217
လိုက်လျှင်	-10.822
ဝယ်ယူ	-10.8221
အသင်းကြီး	-10.8221
▁အဘိ	-10.8221
ငွေကြေး	-10.8222
▁ကျောင်းဆရာ	-10.8223
▁အကြံပြု	-10.8223
သုံ	-10.8224
▁ဖွဲ့ဆို	-10.8225
နတ်သမီး	-10.8225
စုစုပေါင်း	-10.8231
ပေါက်ရောက်	-10.8233
သဘောထား	-10.8233
အဖြစ်လည်းကောင်း	-10.8239
ထားရှိသည်။	-10.8242
နိတ်	-10.8243
▁ရေနွေးငွေ့	-10.8244
▁ကိုလိုနီခေတ်	-10.8246
ရရှိရန်	-10.8248
အင်န်	-10.8248
ခွန်း	-10.825
ရဲတပ်ဖွဲ့	-10.8251
ဖြစ်နေသည်။	-10.8257
ren	-10.826
စန္ဒာ	-10.8265
▁ကြားခံ	-10.8267
ပထမဆုံး	-10.8268
europe	-10.8277
အယ်လ်ဘမ်	-10.8277
▁လမ်းပန်းဆက်သွယ်	-10.8278
▁ရုပ်ရှင်ကား	-10.8278
▁ကေအင်န်ယူပါတီ	-10.828
▁ရုပ်သိမ်း	-10.8284
ကျကျ	-10.8285
တစ်ဦး၏	-10.8286
စိတ်ဓာတ်	-10.8287
အရွေးခံ	-10.8292
▁အီရန်နိုင်ငံ	-10.8295
အလေးချိန်	-10.8301
▁ပစ္စ	-10.8302
▁ကျောက်တုံး	-10.8303
▁တစ်ကိုယ်	-10.8303
▁မဖြစ်နိုင်	-10.8305
701504	-10.8305
ဟံ	-10.8308
နေကြသော	-10.831
▁ဆရာမ	-10.8314
code	-10.8315
▁ပတ်သက်သော	-10.8317
နေလေသည်။	-10.8326
တည်ရာ	-10.8334
စဉ်းစား	-10.8336
တလုပ်	-10.834
▁ဒဂုန်	-10.8344
ခိုလှုံ	-10.8344
▁ဘရာဇီး	-10.8344
▁လွှမ်းခြုံဧရိယာ	-10.8344
ွင်	-10.8345
▁ဗဒုံမင်း	-10.8346
▁မင်းဘူး	-10.8347
၆ဝ	-10.8348
▁ပထမဆုံးအကြိမ်	-10.8349
ကြပြီးလျှင်	-10.8353
qu	-10.8353
▁လျော့နည်း	-10.8357
▁ကမ္ဘာကျော်	-10.836
ated	-10.8369
ဝန်ရာထူး	-10.8371
▁အသက်ရှင်	-10.8373
▁ဖုံးလွှမ်း	-10.8378
▁အဆိုပြု	-10.838
ov	-10.8381
ier	-10.8383
▁အစရှိသည့်	-10.8385
▁ပန်းချီဆရာ	-10.8394
▁ပေါ်ပေါက်ခဲ့	-10.8398
▁လယ်တီ	-10.8403
ဝတ်စုံ	-10.8407
ကထာ	-10.8414
▁အကြောင်းပြု၍	-10.8419
ကွတ်	-10.8426
ဒဿန	-10.8435
eng	-10.8442
ဝေဒနာ	-10.8442
ကုဋေ	-10.8445
▁မြေထဲပင်လယ်	-10.8445
ကွန်ယက်	-10.8446
နိုင်ငံများနှင့်	-10.8447
▁အချိန်ကာလ	-10.8448
နိုင်ခွင့်	-10.8452
▁ပုံမှန်အားဖြင့်	-10.8455
ဂရိ	-10.8462
ထစ်	-10.8464
mir	-10.8464
လီးယား	-10.8465
ညီညွတ်	-10.8468
▁မိုးကောင်း	-10.8468
ကြသူများ	-10.8469
▁အမျိုးမျိုးသော	-10.8469
ဂျ်	-10.847
ကျစ်	-10.8472
ချဲ့	-10.8474
ခက်ခဲ	-10.8476
ဘက်ကမ်း	-10.8477
အနှံ့အပြား	-10.8479
ဆရာဝန်	-10.8479
စံတော်ချိန်	-10.848
ration	-10.848
▁ခင်ပွန်း	-10.848
▁တောင်အာဖရိက	-10.8485
ယွင်း	-10.8487
စေရန်အတွက်	-10.8492
သေးချေ။	-10.8497
▁ရက်နေ့မှ	-10.8501
သန်စွမ်း	-10.8502
▁စာဖတ်	-10.8506
mal	-10.8508
cul	-10.8511
▁အိုင်ယာလန်	-10.8513
▁အမည်ရင်းမှာ	-10.8514
လုံခြုံရေး	-10.8515
ဖျော်ဖြေ	-10.8516
လျှောက်ထား	-10.8517
▁ကုန်စည်	-10.852
▁col	-10.8523
ဖလှယ်	-10.8523
▁ဟောတော်မူ	-10.8525
▁အရှေ့မြောက်ဘက်	-10.8527
▁အမတ်ကြီး	-10.8532
လက်ထက်က	-10.8538
▁သမိုင်းဝင်	-10.8538
▁သုံးနှစ်	-10.854
xi	-10.8541
လိုဏ်ဂူ	-10.8548
အိုဆာကာ	-10.8548
ရိန်း	-10.8554
gl	-10.8555
စကီး	-10.8558
▁၁၉၃၀	-10.8559
▁အမိန့်တော်	-10.8561
မှီး	-10.8566
form	-10.8572
▁အထင်	-10.858
ဒွါရ	-10.8582
▁အကျွန်ုပ်	-10.8582
▁သီရိလင်္ကာ	-10.8583
ထက်ပို၍	-10.8585
အာနန္ဒာ	-10.8588
လာသည်ကို	-10.8592
▁ထိုခေတ်က	-10.8596
▁nat	-10.8597
▁သတိပြု	-10.8597
ပဲ။	-10.8607
▁ကွမ်	-10.8613
ဆေးရုံကြီး	-10.8614
▁မြန်မာလူမျိုး	-10.8617
▁ရှေးအကျဆုံး	-10.8618
နွန်	-10.8619
တချို့	-10.8622
▁အသျှင်	-10.8623
နေရာမှာ	-10.8624
တာဝန်ယူ	-10.8625
▁လျှော့ချ	-10.8625
၁၀၀	-10.8629
ကျည်း	-10.8629
=60	-10.8635
တည်ရှိရာ	-10.8638
ဆင်းသက်	-10.8638
▁အပူပိုင်း	-10.864
ient	-10.8643
lla	-10.8648
▁myo	-10.8648
ခြားနား	-10.865
▁ပြည်ထဲရေး	-10.8651
▁အံ့ဩ	-10.8651
ဝိတ်	-10.8652
▁သဘာဝပတ်ဝန်းကျင်	-10.8653
▁ငရုတ်	-10.8653
အကြီးအကဲ	-10.866
အပိုင်းအခြား	-10.8662
▁ရန်ကုန်သို့	-10.8665
သပြေ	-10.8668
နိုင်သောကြောင့်	-10.8672
low	-10.8674
စင်တာ	-10.8679
▁စတု	-10.8679
အရေးကြီး	-10.868
microsoft	-10.8686
နူးညံ့	-10.8686
▁မေးခွန်း	-10.8687
▁ထိုနေ့	-10.8688
▁ပြည်သူများ	-10.8689
▁နှစ်အရွယ်တွင်	-10.8693
ပြောင်းရွှေ့	-10.8696
စီရင်စု	-10.8702
ပူရ	-10.8706
ထရစ်	-10.8709
ဆိုလို	-10.8715
ကြိယာ	-10.8721
▁ကွမ်းခြံကုန်း	-10.8721
နေသောကြောင့်	-10.8723
▁၁၉၆ဝ	-10.8724
ပေါင်းချုပ်	-10.8728
ရှိသည့်အနက်	-10.873
poli	-10.8732
▁မဟုတ်ပါ။	-10.8733
တိုးမြှင့်	-10.8735
▁တောခို	-10.8738
အဆင့်အတန်း	-10.874
pen	-10.8752
▁နယူးယောက်	-10.8752
▁လိမ္မော်	-10.8756
သုတေသီ	-10.8756
▁အစိမ်းရောင်	-10.8756
အသီးအသီး	-10.8756
▁၁၉၃၁	-10.8761
ပလာ	-10.8772
ness	-10.8772
ji	-10.8774
▁ကာကွယ်ဆေး	-10.8775
▁ပြည်သူတို့	-10.8785
ပြက်	-10.8786
▁ဖော်ပြခဲ့သည်။	-10.8787
ရည်ရွယ်ချက်	-10.8789
ဘိသိက်	-10.8791
ငုတ်	-10.8794
ဟမ်	-10.8794
▁သတိပေး	-10.8796
နာဂါ	-10.8797
▁ပုဂံမင်း	-10.8806
ဧကရာဇ်	-10.8808
ကြပြန်သည်။	-10.8811
azi	-10.8817
နိုင်ငံများသို့	-10.8822
မိုးရေချိန်	-10.8826
ချီးမြှောက်	-10.8827
ရေနံ	-10.8831
ရှီး	-10.8839
ထုတ်ယူ	-10.8843
▁ဟာသ	-10.8849
မိခင်	-10.8849
▁ရွှေပြည်	-10.8853
ရောက်ရှိလာ	-10.8855
မျို	-10.8855
▁သံချို	-10.8856
တင်ပို့	-10.8857
သင်္ချိုင်း	-10.8861
ကြွေးကြော်	-10.8862
▁တပေါင်းလ	-10.8864
ဇူး	-10.8866
ဇီးဖြူ	-10.8872
ညီညာ	-10.8872
မှတ်တမ်းများ	-10.8873
မဟုတ်။	-10.8874
▁၂၀၂၀	-10.8879
▁အလုပ်သမားများ	-10.8884
တစ်ခုစီ	-10.8887
အခင်း	-10.8888
▁၁၉၂၀	-10.889
▁ဂုဏ်ထူးဆောင်	-10.8897
ဒုံးပျံ	-10.8899
=90	-10.8899
▁ကျောက်ဖြူ	-10.8906
▁sub	-10.8907
united	-10.891
မရှိ။	-10.8912
▁lay	-10.8914
လောင်ကျွမ်း	-10.8914
ပါတ်	-10.8917
▁ဖမ်းယူ	-10.892
နိဂုံး	-10.8931
အသိုင်းအဝိုင်း	-10.8932
နစ်နာ	-10.8932
အစုအဝေး	-10.8932
▁ကင်ညာ	-10.8936
ကန့်လန့်	-10.8936
▁တစ်ခုတည်းသော	-10.8937
▁ရဟန်းတို့သည်	-10.8939
နှစ်ဆယ်	-10.8941
▁ဦးချစ်	-10.8948
▁လွယ်ကူစွာ	-10.895
လုပ်ငန်းရှင်	-10.895
ပဋိ	-10.8952
▁အကြင်	-10.8956
ဗို့	-10.8957
နံပါတ်	-10.8958
▁ဆို၏။	-10.896
men	-10.8965
▁ပင်းယ	-10.8969
ရှစ်ပါး	-10.8973
▁၁၉၄၀	-10.8975
တောင်းဆို	-10.8979
▁inter	-10.8981
▁ဆိုနိုင်သည်။	-10.8983
ခံနေရ	-10.8984
တစ်ဖန်	-10.8989
▁ရှိခိုး	-10.8999
▁အတ္တလန္တိတ်	-10.9004
စကားပုံတစ်ခု	-10.9004
ဝင်ရိုးစွန်း	-10.9004
▁အမေရိကတိုက်	-10.9005
▁ရုပ်ရှင်ဇာတ်ကား	-10.9008
▁တို့ပါဝင်သည်။	-10.9014
cap	-10.9019
▁အရှေ့တောင်ဘက်	-10.902
▁ဘယ်လို	-10.9024
▁ဒေသတွင်း	-10.9024
တန်ဆောင်း	-10.9032
ရေတပ်	-10.904
အေဂျင်စီ	-10.904
▁ဝေသာလီ	-10.904
▁ပြန်ကြားရေး	-10.904
qua	-10.9045
▁ခြေလျင်	-10.9049
ထယ်	-10.9057
သူဌေး	-10.907
ကြသည်ကို	-10.9071
▁ဗီတာမင်	-10.9076
တဝိုက်	-10.9076
▁station	-10.9077
▁ဖော်ပြပါ	-10.9077
ဇာတ်တော်	-10.9078
ဒေါက်တာ	-10.9079
▁ဂေါ့	-10.9079
▁ထွက်ပေါ်လာ	-10.9079
ဟောပြော	-10.9081
▁ထိုအချိန်မှစ၍	-10.9081
ခန့်မှန်း	-10.9081
▁ရောက်သွား	-10.9083
▁သေးငယ်သော	-10.9085
ထေ	-10.9089
တြီ	-10.9093
မတိုင်မီက	-10.9093
▁ဗြိတိန်နိုင်ငံ	-10.9096
ခရစ်ယာန်	-10.9108
အမြောက်အမြား	-10.9108
ကစ၍	-10.911
ပဒေသာ	-10.9112
ပွင့်လင်း	-10.9115
ica	-10.9119
▁ဝန်ခံ	-10.9119
count	-10.9127
ဇာတ်လမ်းတွဲ	-10.9128
သူများအတွက်	-10.9133
သလော	-10.9133
ညောင်ပင်	-10.9135
နန္ဒာ	-10.9137
ဂုဏ်သတ္တိ	-10.9141
ွေး	-10.9146
ရက်ထပ်နှစ်ဖြစ်	-10.9146
ဂျော့	-10.9147
▁ဒိန်းမတ်	-10.9149
▁အပြင်းအထန်	-10.9149
▁အဝတ်အစား	-10.915
▁သတ်မှတ်ထားသော	-10.9165
ာန်	-10.9168
ဘွဲ့ဖြင့်	-10.9177
ပြူ	-10.9181
=89	-10.9182
ငြိမ်သက်	-10.9182
ဟောက်	-10.9184
▁ကိုယ်ဝန်ဆောင်	-10.9185
ကိုလိုနီ	-10.9187
ဆည်းကပ်	-10.9188
စကားပြော	-10.9202
ship	-10.9207
ဖောက်ပြန်	-10.9208
အစွဲ	-10.921
▁အိန္ဒိယပြည်	-10.9215
▁တွေ့နိုင်	-10.9216
ထိမ်း	-10.9217
လက်ရွေးစင်	-10.9222
▁အလုံးစုံ	-10.9222
တိုးချဲ့	-10.9226
ရဲဘော်	-10.9227
▁သီဟိုဠ်ကျွန်း	-10.9227
သေန	-10.9231
၆၀၀	-10.9234
သွတ်	-10.9235
နိုဘူတာ	-10.9238
500	-10.9244
ငွေစက္ကူ	-10.9252
ကျောင်းသားများ	-10.9255
ပိဋက	-10.9256
တျာ	-10.9259
▁ဟာရှယ်	-10.926
တို့ကလည်း	-10.9261
ပုတီး	-10.9262
▁စဝ်	-10.9267
မ္ဘ	-10.9271
နေတတ်သည်။	-10.9271
▁သိရှိရသည်။	-10.9277
ဘယ	-10.9279
▁၁၀၀၀	-10.9286
မှန်သမျှ	-10.9288
cla	-10.9288
▁ကုန်သွယ်	-10.929
ဧတဒဂ်	-10.9295
သလား	-10.9302
▁ဖခင်ဖြစ်သူ	-10.9302
▁၁၉၄၃	-10.9303
▁pyin	-10.9305
▁ရေးသားပြုစု	-10.9305
▁တေးဂီတ	-10.9307
ဟူသမျှ	-10.9308
▁အိမ်တွင်း	-10.9309
ဂွန်း	-10.9309
ဒိုက်	-10.931
ထားသည်မှာ	-10.932
ဒွန်	-10.9323
▁ဆင်ဆာ	-10.9323
▁ဆိုလေသည်။	-10.9324
ရှုပ်	-10.9325
တြိဂံ	-10.9332
▁ကယားပြည်နယ်	-10.9332
နည်	-10.9334
တာဝန်ထမ်းဆောင်	-10.9336
လိယ	-10.9338
နှစ်ဘက်	-10.9341
▁ထင်ရှားသည့်	-10.9341
▁ထူးခြားချက်	-10.9343
ker	-10.9343
▁star	-10.9349
တလင်း	-10.9349
▁ဒါကြောင့်	-10.9354
ဒေသများ၌	-10.9358
ဝတ္တရား	-10.937
အရောင်းအဝယ်	-10.937
▁ရွှံ့	-10.937
▁အကျိုးသက်ရောက်	-10.937
▁သနား	-10.937
စက္ခု	-10.9371
▁ဘူတာရုံ	-10.9373
ဆက်ဆံမှု	-10.9377
အမျိုးအစားများ	-10.9378
ပညတ်	-10.938
idae	-10.9381
▁မီးခိုး	-10.9383
ုတ္တိ	-10.9387
=74	-10.9389
ထင်ရှားကျော်ကြား	-10.9391
▁မြို့နယ်တစ်ခု	-10.9395
▁ဝါဆို	-10.9397
▁ကုန်းမြေ	-10.9397
လပြည့်နေ့	-10.9398
ပြည့်ရှင်	-10.9398
မွဲ	-10.9406
▁အပြည့်အဝ	-10.9407
သိမ်မွေ့	-10.9407
▁ကျိုင်းတုံ	-10.9407
▁အကူအညီဖြင့်	-10.9408
လေ့ရှိပြီး	-10.9408
ဉ	-10.9408
▁ပြင်းထန်စွာ	-10.9408
ဇူ	-10.9411
သူနာပြု	-10.9412
ပုတ္တ	-10.9413
ပုန်ကန်	-10.9419
ray	-10.9421
▁ထိပ်တန်း	-10.9426
▁စောင့်ကြည့်	-10.9429
▁ကလောင်အမည်	-10.9431
တို့အကြား	-10.9434
နိုင်ရေးအတွက်	-10.9434
▁ဉာဏ်တော်	-10.9436
ခမောင်း	-10.9441
▁nan	-10.9444
▁စာဆိုတော်	-10.9453
ဥမင်	-10.9463
တို့ကဲ့သို့	-10.9467
pan	-10.9467
mm	-10.9469
ထားသော်လည်း	-10.9471
▁အနည်းငယ်မျှ	-10.9471
နီယာ	-10.9474
▁အနောက်မြောက်ဘက်	-10.9479
▁မွေးစား	-10.9479
ဓိဋ္ဌာန်	-10.9482
▁တွေ့မြင်နိုင်	-10.9484
▁hpa	-10.9487
▁မွန်ပြည်နယ်	-10.9489
အထွေထွေ	-10.9498
ဒါရိုက်တာ	-10.9498
မျောက်	-10.9501
▁ဒဏ်ရာရ	-10.9504
အသင်းတော်	-10.9509
▁ငယ်စဉ်ကပင်	-10.9517
ချွန်း	-10.9517
▁music	-10.952
▁အထင်ရှားဆုံး	-10.952
▁စန္ဒရား	-10.9521
ပြသခဲ့သည်။	-10.9523
ခုခံ	-10.9524
=83	-10.9531
▁ယင်းတို့မှာ	-10.9535
=98	-10.9538
▁ထန်းပင်	-10.955
ခဲ့ကြရသည်။	-10.9553
stan	-10.956
▁နေမျိုး	-10.9562
ari	-10.9563
▁ကြီးပြင်း	-10.9567
ညွှန်ကြား	-10.957
▁ထိစပ်	-10.9573
အရပ်ဒေသ	-10.9575
နိုင်ပါတယ်။	-10.9578
စာကြည့်တိုက်	-10.9578
အုပ်ချုပ်ပုံ	-10.9579
နေအိမ်	-10.9582
အချိန်အထိ	-10.9582
အနောက်ဘက်	-10.9584
ကြူ	-10.959
▁နဂ	-10.9593
လေသည်၊	-10.9594
သေနာပတိ	-10.9596
▁မှီခို	-10.9596
▁ဇော်ဂျီ	-10.9599
▁နယ်ခြား	-10.9605
▁အရေးကြီးသော	-10.9615
▁သယ်ယူ	-10.9617
▁သံလွင်	-10.9632
နှင့်စပ်လျဉ်း၍	-10.9634
ကုန်ကျစရိတ်	-10.9634
ကျိပ်	-10.9634
▁မှားယွင်း	-10.9634
▁ywar	-10.9634
▁ဗုဒ္ဓဘာသာဝင်	-10.9634
နှစ်သားအရွယ်	-10.9634
▁အရင်းရှင်	-10.9635
ကြည်ညို	-10.9637
▁ထူးခြားသော	-10.9642
နုံး	-10.9647
လိမ့်မယ်	-10.9658
▁လောက၌	-10.9661
နိုင်ငံများ၏	-10.9663
ညှိုး	-10.9672
▁ဖိနှိပ်	-10.9673
▁၁၉၇ဝ	-10.9676
▁ကရင်အမျိုးသား	-10.9679
မှအပ	-10.968
ဒွန်း	-10.9682
▁သောက်သုံး	-10.9685
ပါဠိ	-10.9687
ပေါက်ကွဲမှု	-10.9687
tter	-10.9691
ခစား	-10.9691
▁စွန့်စား	-10.9695
ဗိုလ်ချုပ်ကြီး	-10.9698
အမျိုးမျိုးဖြင့်	-10.97
လက်နက်များ	-10.9705
စသည်ဖြင့်	-10.9707
▁စကော့တလန်	-10.971
▁အိမ်နီးချင်း	-10.971
မတွေ့	-10.9715
ပြည်တွင်း	-10.9717
ကျင့်ဝတ်	-10.9717
ရုံမက	-10.9719
ာယတန	-10.9722
ချိုင့်	-10.9726
ဖြစ်စေရန်	-10.9728
mit	-10.9741
နိယ	-10.9742
ဂွန်	-10.9745
ငန်	-10.9747
▁အတူတကွ	-10.9749
▁မဏိပူရ	-10.9749
▁မနော	-10.975
နှင့်ပတ်သက်ပြီး	-10.9751
▁ရပ်ဆိုင်း	-10.9753
▁ဆွဲဆောင်	-10.9762
လှည့်လည်	-10.9764
▁လူတစ်ယောက်	-10.9765
▁ခွဲဝေ	-10.9768
▁ဘုရားလောင်း	-10.9774
စန္ဒ	-10.9777
ဒေါက်	-10.9785
file	-10.9787
▁ကိလေသာ	-10.9788
▁server	-10.9788
▁china	-10.9788
▁မိတ်ဆက်	-10.9789
▁ချက်ပြုတ်	-10.9791
pt	-10.9793
▁၁၉၂၃	-10.9798
ပုဆိုး	-10.9805
▁ဦးစံ	-10.9807
စာမျက်နှာ	-10.9808
press	-10.9809
mat	-10.981
▁ဓာတ်ဆီ	-10.9812
ထပ်မံ	-10.9822
▁မိကျောင်း	-10.9826
ချို့တဲ့	-10.9827
=92	-10.9827
ရေလက်ကြား	-10.9829
ဇမ်	-10.9832
နယ်နိမိတ်	-10.984
တိုးတက်လာ	-10.9846
▁သံလွင်မြစ်	-10.9846
▁အိမ်ခြေ	-10.9847
▁မသိရ	-10.9853
ဝါသနာ	-10.9863
▁pla	-10.9865
▁သိကြားမင်း	-10.9866
ပေါ်လစီ	-10.9866
▁မျိုးရင်း	-10.9868
လျောင်း	-10.9869
ကျင့်ကြံ	-10.987
▁အကျယ်အဝန်းမှာ	-10.9874
base	-10.9874
▁အကွာတွင်	-10.9876
ညောင်း	-10.9879
ဂန်း	-10.9884
llow	-10.9887
ထွက်ခွာ	-10.9889
▁ပေါက်ရောက်သည်။	-10.9902
ဟိတ်	-10.9903
▁ငြင်းပယ်	-10.9905
▁trans	-10.9907
▁မြောက်အမေရိက	-10.9908
▁ဂြိုဟ်တု	-10.9908
ဂုရု	-10.9911
ဝဋ	-10.9912
wet	-10.9914
▁တစ်ကမ္ဘာလုံး	-10.9914
ယူနစ်	-10.9915
▁သာစည်	-10.9917
▁အဓိကထား	-10.992
တွန့်	-10.9923
▁ဖြတ်ကျော်	-10.993
ဇုံ	-10.9934
▁တယော	-10.9934
စုံလင်	-10.9939
▁ရက်နေ့အထိ	-10.994
ရှပ်	-10.9941
လုပ်ငန်းများတွင်	-10.9941
အုပ်စိုး	-10.9944
အချမ်းသာဆုံး	-10.9946
ပိဋကတ်	-10.9948
မြင်းဝန်	-10.995
▁နာဇီ	-10.9951
▁တိုင်းရင်း	-10.9955
▁လက်ခံကျင်းပ	-10.9955
ငါးဆယ်	-10.9956
သုံးယောက်	-10.9957
ရာအရပ်	-10.9957
▁ကိုယ်ဝန်	-10.9958
ပုစ္ဆာ	-10.9962
▁ရဟန်းတော်များ	-10.9962
ဒိန်	-10.9963
လှည်း	-10.9966
=80	-10.9983
သန္တာ	-10.9986
အမူအရာ	-10.9988
▁ချင်းပြည်နယ်	-10.9989
ခဲ့ရ၏။	-10.999
▁လုပ်ဆောင်ချက်	-10.9994
▁အစာအိမ်	-10.9998
▁စကော့	-10.9999
လေ့ရှိကြ	-11
ပညာသင်ကြား	-11.0002
ဂုဏ်ရည်	-11.0002
▁၁၉၁၈	-11.0007
▁ရန်ကုန်တိုင်း	-11.0016
ထူးချွန်	-11.0016
ဆော့ဖ်ဝဲ	-11.0023
ဇိုင်း	-11.0024
▁ဖုံးအုပ်	-11.0024
ရှိုး	-11.0027
ပုဏ္ဏား	-11.003
ဘန်း	-11.0037
▁တည်ဆောက်ထား	-11.004
clo	-11.0043
ဂင်	-11.0044
=57	-11.0058
▁တူညီသော	-11.0059
▁ချစ်ကြည်ရေး	-11.0064
▁အနောက်တောင်ဘက်	-11.0067
▁ကယ်တင်	-11.0067
▁(3)	-11.0067
▁သက်ဆိုင်သော	-11.007
punk	-11.0071
တော်မူလေသည်။	-11.0077
ဆမ်	-11.0078
▁aung	-11.0082
တစ်ခုဖြစ်သော	-11.0083
ပြိုင်ပွဲတွင်	-11.0085
တစ်စီး	-11.0099
▁တခါတရံ	-11.0103
▁အီရတ်	-11.0107
▁art	-11.0111
ဖြစ်၏၊	-11.0111
▁ထုတ်လွှတ်	-11.0112
▁နှစ်ကြိမ်	-11.0113
ပျံ့နှံ့	-11.0113
ကြရ၏။	-11.0116
ဓူ	-11.0119
မော်ကွန်း	-11.012
▁လုပ်ငန်းစဉ်	-11.012
▁not	-11.0133
ကျက်စား	-11.0135
▁ဘီယာ	-11.0137
▁ဟိမဝန္တာ	-11.0144
ကညင်	-11.0146
pon	-11.0146
▁အထောက်အထားများ	-11.0146
▁မိဖုရားကြီး	-11.0147
ဂတိ	-11.0161
▁အလယ်တန်း	-11.0176
ညှစ်	-11.0184
▁ညွှန်ကြားချက်	-11.0184
fc	-11.0187
▁ဆင်စွယ်	-11.0193
▁၁၉၂၄	-11.0194
▁လူသားတို့	-11.0195
ဟင်းလျာ	-11.0197
ကုမာရ	-11.0202
▁burma	-11.0204
▁အာသံ	-11.0211
စရိယ	-11.0218
▁နောက်ဆက်တွဲ	-11.0224
▁အောင်ပွဲ	-11.0227
သင့်ကြောင်း	-11.0228
▁ဆံတော်	-11.0229
တပ်ဖွဲ့များ	-11.0231
graph	-11.0238
▁ရခိုင်ပြည်	-11.0242
▁မြန်မာဘုရင်	-11.0244
ဒီဇိုင်း	-11.0244
▁စစ်ဘက်	-11.0248
ပုဂ္ဂလ	-11.0248
▁ကရင်နီ	-11.0249
▁အလယ်ခေတ်	-11.0253
ော့ဗ်	-11.0255
▁အဖွဲ့ဝင်နိုင်ငံ	-11.0256
ချက်များအရ	-11.0258
▁ကာကွယ်ပေး	-11.0258
▁အရှေ့တိုင်း	-11.0261
▁သာဝတ္ထိ	-11.0265
ပုပ္ဖိယထေရ်	-11.0266
▁ပင့်ဆောင်	-11.0266
▁၁၉၃၂	-11.0271
ထုတ်လွှင့်	-11.0272
ပိုင်နက်	-11.0272
▁ပါဠိဘာသာ	-11.0277
▁အပူပိုင်းဒေသ	-11.028
ler	-11.028
ကြွက်	-11.0283
▁ယုံကြည်မှု	-11.0284
တစ်သိန်း	-11.0284
ဆိပ်ကမ်းမြို့	-11.0293
ရှိုင်း	-11.0297
tain	-11.0299
▁အရွက်များ	-11.0304
▁which	-11.0306
▁ဒတ်ချ်	-11.0306
▁သုံးခွ	-11.0308
ဗု	-11.0308
မှလွဲ၍	-11.0309
▁ဆုတံဆိပ်	-11.0311
▁ငြင်းဆို	-11.0311
▁ဆူပူ	-11.0314
=106	-11.0314
အာကာသ	-11.0317
▁နားထောင်	-11.0318
▁သေဒဏ်	-11.032
ဏိ	-11.0321
စဉ်အခါက	-11.0321
▁thit	-11.0333
▁တစ်ပတ်	-11.0343
▁ပြဆို	-11.0344
သင်တန်းကျောင်း	-11.0346
မန်နေဂျာ	-11.0347
▁ဇင်းမယ်	-11.0347
▁ချင်းတွင်းမြစ်	-11.0348
ပုံတစ်ပုံ	-11.0349
▁ပုံနှိပ်ထုတ်ဝေ	-11.0349
ဒရို	-11.0353
▁cup	-11.0354
ပေါ့ပါး	-11.0364
=88	-11.0367
▁ဓနိ	-11.0367
ဖော်ပြထား	-11.0371
တတိယ	-11.0374
ဖလင်	-11.0381
ဂီရိ	-11.0382
ဗိုင်	-11.0386
မြစ်ကမ်း	-11.0386
▁ကေအင်န်ဒီအို	-11.0388
▁school	-11.0388
▁နှာခေါင်း	-11.0388
▁သန်လျင်	-11.0388
▁zone	-11.0389
▁ပယ်ဖျက်	-11.0391
▁အိုင်ဖုန်း	-11.0392
▁အေဝမ်း	-11.0394
▁ဗိုလ်မှူးချုပ်	-11.0397
ရင်ပြင်	-11.0397
ရက်စက်	-11.0397
ဆေ	-11.0399
▁year	-11.04
ဖွန်	-11.04
▁ကလေးသူငယ်များ	-11.0401
ဆန်းစစ်	-11.0401
▁ထိုအပင်	-11.0402
bill	-11.0408
သိရှိရ	-11.0409
ထွား	-11.0416
အရပ်သို့	-11.0417
ခရီးသွား	-11.042
ခရို	-11.0423
စက္ကူ	-11.0425
ဥပုသ်	-11.0429
▁ပြောက်ကျား	-11.0429
▁အောင်နိုင်	-11.0431
▁pauk	-11.0434
light	-11.0435
▁ယုံကြည်ကြသည်။	-11.0443
အိမ်ထောင်	-11.0444
ရေးကိစ္စ	-11.0452
ဘွဲ့တံဆိပ်တော်	-11.0457
▁မူတည်	-11.0459
▁air	-11.0462
commonsdelinker	-11.0471
စည်းလုံးညီညွတ်	-11.0473
ကျော့	-11.0476
မြက်	-11.0482
ဧပြီ	-11.0485
▁ဆက်စပ်နေ	-11.0486
ချောင်းဖျားရွာ	-11.0487
စည်းမျဉ်း	-11.0487
ခင်မင်	-11.049
701505	-11.049
နိုင်သမျှ	-11.0491
လက်ရုံး	-11.0501
မေးမြန်း	-11.0502
▁သက္ကတ	-11.0505
▁ပြင်သစ်တို့	-11.0505
▁နတ်ပြည်	-11.0505
▁မီးသတ်	-11.0508
▁service	-11.0512
သင်္ဃန်း	-11.0513
မြက်ခင်း	-11.0513
run	-11.0514
▁ယင်းနောက်	-11.0517
အရောက်တွင်	-11.0523
ခြင်းငှာ	-11.0525
▁စတင်ဖွဲ့စည်း	-11.0529
ပြည်ထောင်	-11.0535
▁အတွင်းပိုင်း	-11.0539
▁မိန့်တော်မူ	-11.054
ဝတ်ဆင်	-11.0547
တစ်ဦးဖြစ်သူ	-11.0548
▁ဘုရားဖူး	-11.055
မျိုးရင်းတွင်	-11.0551
ဋ္ဌာန	-11.0552
စိုစွတ်	-11.0554
ညွှတ်	-11.0554
ဂန္ထဝင်	-11.0554
▁ဘကြီးတော်	-11.0555
မွေးဝမ်းကျောင်း	-11.0556
▁ကွာဝေးသည်။	-11.0557
နှိုက်	-11.0561
▁၁၅၀	-11.0562
သံစဉ်	-11.0566
▁၁၉၂၅	-11.0568
အဆိုတော်	-11.0568
ပစ္စယာ	-11.0576
ငှာ	-11.058
ရေယာဉ်	-11.0581
non	-11.0585
hol	-11.0585
ကုဒ်	-11.0588
▁၁၉၁၉	-11.0588
နက္ခတ်	-11.059
▁formula	-11.0596
▁ဘီလျံ	-11.0596
▁ဟစ်တလာ	-11.0596
▁အခိုင်အမာ	-11.0596
ဖြစ်တယ်။	-11.0599
ပေါက်ဖွား	-11.0602
လွှတ်တော်အမတ်	-11.0605
မြွေ	-11.0606
▁အသက်အရွယ်	-11.0607
▁အနုပညာရှင်များ	-11.0608
ရာသီဥတု	-11.0612
▁၁၉၁၇	-11.0614
▁မလေးရှားနိုင်ငံ	-11.0615
▁အာဏာရှင်	-11.0626
စိုးရိမ်	-11.0634
ခန္ဓာကိုယ်	-11.0638
▁company	-11.0639
▁islands	-11.0639
▁ကာလကတ္တား	-11.0639
▁တပင်ရွှေထီး	-11.0639
ကွပ်ကဲမှု	-11.0639
တွက်ချက်	-11.0641
တစ်ပိုင်း	-11.0643
ဘွန်း	-11.0645
▁အကြောင်းအရာများ	-11.0646
ဂျား	-11.0652
ထမ်းဆောင်	-11.0656
နှစ်အကြာ	-11.0656
▁၁၈၈၅	-11.0657
▁အိမ်ထောင်စု	-11.0661
ဇတ်	-11.0668
သီတာ	-11.0673
ကသိုဏ်း	-11.0681
▁ရံဖန်ရံခါ	-11.0681
▁ဝီလီယံ	-11.0681
▁ဟိုက်ဒရိုဂျင်	-11.0681
▁အငြိမ်းစားယူ	-11.0681
အော့	-11.0681
လိဂ်	-11.0685
ခ်ျ	-11.0688
ရုပ်ပွားတော်	-11.0688
ရိဘူတာ	-11.0697
book	-11.0706
▁သုည	-11.0707
မြိုက်	-11.0711
▁thi	-11.072
ဗောဓိ	-11.0723
ကုန်းပြင်မြင့်	-11.0724
▁ပကတိ	-11.0724
▁တစ်ခုနှင့်တစ်ခု	-11.0725
▁ရှင်သာမဏေ	-11.0725
နယ်ချဲ့	-11.0728
▁တွေ့ရလေသည်။	-11.0728
▁fu	-11.0728
နှင့်တူသော	-11.073
▁ဟောကြားတော်မူ	-11.0731
▁၁၉၃၄	-11.0733
phil	-11.0734
သီကုံး	-11.0734
ဒီပနီ	-11.0735
ဆုံးဖြတ်ချက်	-11.0738
▁လူ့အဖွဲ့အစည်း	-11.074
▁မင်းတုန်း	-11.074
ပါမည်။	-11.0742
▁ဖွဲ့စည်းထားသည်။	-11.0742
ဋ္ဌိ	-11.0742
သူတို့အား	-11.0746
▁အိမ်ရှေ့မင်း	-11.0754
▁မကျေနပ်	-11.0759
▁လက်ကိုင်	-11.0766
jpg	-11.0766
▁ဘုရင်မင်းမြတ်	-11.0766
ဘာဝနာ	-11.0767
ဟူ၏။	-11.0769
သက်ဆိုင်	-11.0771
ထေရီ	-11.0773
န္တီ	-11.0775
နောက်ဆုံး	-11.0783
လက်အောက်သို့	-11.0786
သာသနာပြု	-11.0792
အနိမ့်	-11.0803
အခေါ်အဝေါ်	-11.0809
ano	-11.0809
အက်ဒွပ်	-11.0813
▁တန်ဆာဆင်	-11.0813
▁မြို့သစ်	-11.082
သမ္ပ	-11.0825
▁ဆောက်လုပ်ရေး	-11.0826
=94	-11.0826
▁နဂို	-11.0828
ဟောကြား	-11.0834
စေတတ်သော	-11.0842
နွံ	-11.0845
မြို့တော်ဝန်	-11.0846
=56	-11.0852
▁ဒစ်ဂျစ်တယ်	-11.0852
▁မန်ချူး	-11.0853
▁ဥပစာ	-11.0854
ခြင်းခံခဲ့ရသည်။	-11.0856
မြှောင်	-11.0859
▁စုဝေး	-11.0861
ကျယ်ဝန်း	-11.0863
အကျဆုံး	-11.0863
ဟိတ	-11.0865
right	-11.0869
▁တွေ့ရ၏။	-11.0869
▁ညောင်ဦး	-11.087
▁အားကိုး	-11.0876
ကျန်ရစ်	-11.0892
▁ကမ္ဘာတစ်ဝန်း	-11.0896
▁ဖီဂျီ	-11.0896
sl	-11.0896
▁ပြင်းထန်သော	-11.0896
▁လိပ်ပြာ	-11.09
side	-11.0903
▁ဂျပန်ခေတ်	-11.0915
▁တပ်သား	-11.0917
အဆင့်ဆင့်	-11.0918
user	-11.0929
ဗူ	-11.093
ဂူဘုရား	-11.0934
▁ရေတံခွန်	-11.0936
အရင်းအနှီး	-11.0939
▁engine	-11.0939
▁အင်မတန်	-11.0939
ဂျော်	-11.0939
စောင့်ရှောက်မှု	-11.0939
▁အမဲလိုက်	-11.094
▁ဇွဲ	-11.0943
▁၁၉၅ဝ	-11.0944
▁၁၉၂၈	-11.0949
ပါလီမန်	-11.0951
bot	-11.0956
ဣန္ဒ	-11.0959
ဆိုရှယ်လစ်	-11.096
ဆင်ခြင်	-11.097
သူတို့က	-11.0975
လုပ်ကြံ	-11.098
▁ထိမ်းမြား	-11.0983
▁တပို့တွဲလ	-11.0983
ဖော်ပြချက်	-11.0984
ယိုယွင်း	-11.0984
▁ရှေးမြန်မာ	-11.0987
▁၁၉၂၇	-11.0992
ပုံနှိပ်	-11.0994
lun	-11.0995
အောက်တိုဘာ	-11.0997
▁၁၉၁၁	-11.1002
လွတ်လပ်ခွင့်	-11.1012
▁သီတင်းကျွတ်	-11.1021
ဇောတိ	-11.1026
▁ချီးမွမ်း	-11.1027
▁ဖင်လန်	-11.1027
တောင်အမေရိကတိုက်	-11.1027
▁ထောပတ်	-11.1027
ထောက်လှမ်းရေး	-11.1027
ကိုယ်ပိုင်	-11.1028
▁high	-11.1037
▁ကြွရောက်	-11.1038
လုလင်	-11.1039
ကြသေးသည်။	-11.104
▁တရားဥပဒေ	-11.1049
▁ပန်းပွင့်	-11.1052
▁သားဖြစ်သူ	-11.1054
ဆယ်ပါး	-11.106
လျော	-11.1067
ငြိမ်ဝပ်ပိပြား	-11.1071
လွိုင်ကော်	-11.1071
▁ကနဦး	-11.1071
ဝဲလ်	-11.1071
▁သားကောင်	-11.1072
▁ရိုက်နှိပ်	-11.1072
▁မဲပေး	-11.1081
ပဉ္စ	-11.1083
ကျိန်	-11.1086
▁သာယာကုန်း	-11.109
ဖွားမြင်	-11.1101
▁မူတည်၍	-11.1105
မီးရထား	-11.1106
၂၀၁၀	-11.1106
မဖြစ်မီ	-11.1106
▁အထက	-11.1109
စုပ်	-11.111
▁ညွှန်ပြ	-11.1114
▁ယူနက်စကို	-11.1115
ရဲဘော်သုံးကျိပ်	-11.1115
ဝိညာဉ်	-11.1115
▁သံသယ	-11.1116
လွတ်မြောက်	-11.1121
ဆန်းကြယ်	-11.1126
မိုတို	-11.113
ဂယ်လက်ဆီဖြစ်ပြီး	-11.113
ပြိုကျ	-11.1134
သက်သေ	-11.1138
နှင်းဆီ	-11.114
▁ဓာတ်ပြား	-11.1141
▁kyaukta	-11.1142
▁ကျော်လွန်	-11.1142
ခပ်သိမ်း	-11.1143
▁ဖွင့်ဆို	-11.1149
ခိုင်ခံ့	-11.1151
ကြီးနေဝင်း	-11.1158
▁မဒညတ	-11.1159
ကွန်ဖရင့်	-11.1159
▁award	-11.1159
ဖေါင်	-11.1161
ထက်ပို	-11.1162
▁မေရီ	-11.1164
ဥတ္တမ	-11.1165
▁သူရဲ	-11.1175
ပီပီ	-11.1181
စိုက်ပျိုးကြသည်။	-11.1184
ဂင်း	-11.1186
နိုင်လောက်အောင်	-11.1196
=82	-11.1202
လောင်ဂျီတွဒ်	-11.1204
▁alternative	-11.1204
▁ပြင်ဦးလွင်	-11.1204
▁module	-11.1204
▁တောင်တွင်းကြီး	-11.1204
အဆက်အနွယ်	-11.1204
ရေးဦးစီးချုပ်	-11.1209
▁၁၉၂၉	-11.1213
▁၁၉၂၂	-11.1217
american	-11.1223
မော်လမြိုင်မြို့	-11.1224
သူရိယ	-11.1225
▁အမျိုးသားဒီမိုက	-11.1225
ရေစီအဖွဲ့ချုပ်	-11.1227
▁ရွှေတိဂုံ	-11.1229
ကုန်သွယ်ရေး	-11.1231
▁ကျနော်တို့	-11.1234
အထိမ်းအမှတ်	-11.1236
▁သံတွဲ	-11.1238
အထောက်အကူပြု	-11.1245
ဆိုသလို	-11.1247
မြင့်မြင့်	-11.1248
▁ရှောင်ကြဉ်	-11.1249
သင်္ဂဟ	-11.1251
တစ်သက်	-11.1253
မျှော်စင်	-11.1258
▁သစ်စေး	-11.1259
ပွေး	-11.1262
kg	-11.1263
သတ္တုရိုင်း	-11.1265
▁ကျယ်ပြန့်စွာ	-11.127
▁ရုပ်သေး	-11.1274
▁လက်မခန့်	-11.1274
ဖဝါး	-11.128
▁နယုန်လ	-11.1288
▁hardcore	-11.1294
▁နယူးဇီလန်	-11.1294
▁ပဋိသန္ဓေ	-11.1294
▁also	-11.1295
▁ထောင်စု	-11.1296
အမှတ်တံဆိပ်	-11.1297
ဃောသ	-11.1299
▁အက်ဒ	-11.1309
ရဟန်းတို့	-11.1315
▁ဖြတ်သန်းသွား	-11.1319
▁တောင်ကြီးမြို့	-11.1331
ဂိုဏ်းဝင်	-11.1332
ရွဲ	-11.1336
နက်နဲ	-11.1336
အုပ်ချုပ်ရေးမှူး	-11.1336
နတ်သား	-11.1338
ညှဉ်း	-11.1339
▁ကိုလံဘီယာ	-11.1339
▁ကရာတေး	-11.1339
အပြည့်အစုံ	-11.1339
▁ကဝမြို့နယ်	-11.1341
ပိဿာ	-11.1341
▁ရပ်တန့်	-11.1341
ဗဟိုဌာန	-11.1341
ညွှန်	-11.1343
စီးတီး	-11.1346
▁ဆင်ယင်	-11.135
▁အမြင့်ပေ	-11.1353
ဖော်စပ်	-11.1357
မပါဘဲ	-11.136
မြန်နှုန်း	-11.1366
▁တွေ့မြင်ရ	-11.1376
▁ဆင်းရဲသား	-11.1381
တည်ဆောက်ပုံ	-11.1383
▁computer	-11.1385
▁အဂ္ဂမဟာ	-11.1385
ကျက်သရေ	-11.1386
▁စေတီပုထိုး	-11.1386
တည့်တည့်	-11.1386
ဒီမိုကရက်တစ်ပါတီ	-11.1389
▁တိုးပွားလာ	-11.1391
▁ကျောရိုး	-11.1397
ပေပြီ။	-11.1398
▁ကြားဖြတ်	-11.1398
အကျဉ်းထောင်	-11.1404
=86	-11.1405
▁အဘယ်ကြောင့်	-11.1408
ရှားပါး	-11.1409
ဠာ	-11.141
▁kyun	-11.141
ရှေးဟောင်းသုတေသန	-11.1412
ဂျယ်	-11.1415
ဇူလိုင်	-11.1422
▁တင်ဆက်	-11.1422
အညစ်အကြေး	-11.143
▁အဆင်ပြေ	-11.1431
ရိုင်းတိရစ္ဆာန်	-11.1433
▁ဆိုသူမှ	-11.1437
work	-11.1438
fran	-11.1447
put	-11.145
မျူ	-11.145
အသျှင်ဘုရား	-11.1452
▁တရုတ်လူမျိုး	-11.1465
▁အပြာရောင်	-11.1476
▁ကျုပ်	-11.148
▁ထန်းတပင်	-11.1482
▁အမရပူရမြို့	-11.1482
န္ထ	-11.1491
စီအီး	-11.1494
aff	-11.1498
▁ဆေးလိပ်	-11.15
=62	-11.15
▁တစ်ဦးချင်း	-11.1513
=75	-11.1522
▁ဆပ်ပြာ	-11.1522
▁တည်းဖြတ်	-11.1524
အင်အားစုများ	-11.1527
နိုင်စွမ်းရှိ	-11.1527
▁ပုံဖော်	-11.1544
နိယာမ	-11.1548
▁စက်ဝိုင်း	-11.1549
ရည်ရွယ်	-11.1549
▁hta	-11.1563
rock	-11.1563
▁nga	-11.1563
အဖြစ်အပျက်	-11.1567
▁ထိန်းသိမ်းထား	-11.1567
ညှိနှိုင်း	-11.1568
▁တစ်စတစ်စ	-11.1568
▁ဘဒ္ဒန္တ	-11.1568
▁ဖိတ်ခေါ်	-11.1569
▁လည်ပင်း	-11.157
ဗိုလ်မှူးကြီး	-11.1571
▁ရှေးရိုး	-11.1572
သွားလာနိုင်	-11.1573
▁ကသည်း	-11.1574
နိဗ္ဗာန်	-11.1574
vol	-11.1576
▁ဝတ္ထုရှည်	-11.1591
ငါ့	-11.1595
ခဲ့စဉ်က	-11.1602
စိတ်ဝင်စား	-11.1607
▁သုံးကြိမ်	-11.161
ရှဉ့်	-11.1615
ဖေါက်	-11.1615
အဆုံးအဖြတ်	-11.1615
မပေါ်မီ	-11.1616
daung	-11.1624
▁အင်္ဂလိပ်အစိုးရ	-11.1624
မြိတ်	-11.163
▁this	-11.1631
▁မျိုးစေ့	-11.1633
ွီး	-11.1634
အမြင့်ဆုံး	-11.1643
▁အသိအမှတ်	-11.1644
▁ဗီယက်နမ်နိုင်ငံ	-11.1655
မျက်နှာသွင်ပြင်	-11.1662
ကက်သလစ်	-11.1662
ပါရာဇိက	-11.1662
▁မိုက်ကယ်	-11.1662
▁အသေးစား	-11.1662
▁လူနေမှု	-11.1663
▁ဩစတြီးယား	-11.1664
နန်းစံ	-11.168
သည်ရှိသော်	-11.1686
temp	-11.1697
▁its	-11.1699
naung	-11.1704
ယှ	-11.1704
▁program	-11.1709
football	-11.1709
▁ဘာလူစကိုနီ	-11.1709
speci	-11.1709
▁ဒေါ်မြ	-11.171
ဂစ်တာ	-11.171
လက်ျာ	-11.171
တစ်ပြည်လုံး	-11.1711
▁စစ်ပြီးခေတ်	-11.1712
▁ဆိုရပေမည်။	-11.1714
▁ဇာတ်ညွှန်း	-11.1714
▁ရေနံချောင်း	-11.1715
▁မြို့တွင်း	-11.1716
မေးနီးယား	-11.1716
ရုံသာမက	-11.1721
ကျင့်စဉ်	-11.1733
▁ကိုယ်ထည်	-11.1736
▁roll	-11.1737
tech	-11.1754
ပိန္နဲ	-11.1756
နိဒါန်း	-11.1756
▁ရှုမဝ	-11.1756
ပျင်း	-11.1761
▁၁၉၃၃	-11.1763
▁data	-11.1764
mine	-11.1765
င္	-11.1768
ရွာသစ်ရွာ	-11.1768
မှန်မှန်	-11.1777
ပြည်ထောင်စုသမ္မတ	-11.1801
ကိုယ်စားပြု	-11.1803
နှောင့်ယှက်	-11.1803
မြွှာ	-11.1803
မအဲဘူတာ	-11.1804
မြှေး	-11.1804
▁ပညတ်တော်မူရ	-11.1805
▁အသုံးမပြု	-11.1805
တိုက်ဖျက်ရေး	-11.1805
▁ပျောက်၏။	-11.1807
▁သုတ်သင်	-11.1807
▁သဲကုန်း	-11.1811
ဟိဂရှိ	-11.1814
အကျယ်အဝန်း	-11.1814
လာသည်နှင့်အမျှ	-11.1815
မျှား	-11.1817
ယာမဘူတာ	-11.1818
▁ရာဇဝတ်မှု	-11.1821
ဆွယ်	-11.1839
မွှေ	-11.1842
တွဲဖက်	-11.1844
ငွေရေးကြေးရေး	-11.1851
သရဖူ	-11.1851
▁တနင်္လာ	-11.1851
▁မြေဆီလွှာ	-11.1851
▁အပန်းဖြေ	-11.1851
▁လျှပ်စီး	-11.1851
▁ကယ်လ	-11.1855
▁ဂျာမန်တို့	-11.1858
▁ဂလက်ဆီဖြစ်ပြီး	-11.1859
▁တစ်ခုအပါအဝင်	-11.1864
▁အနက်ရောင်	-11.1867
▁ရေတွင်းကုန်း	-11.1868
လျှား	-11.1871
ဂျူး	-11.1874
pyaw	-11.1875
ရုပ်သံလိုင်း	-11.1876
▁ပုဂံပြည်	-11.1876
ဖျံ	-11.1876
ဗော်လ	-11.1877
မရှိပဲ	-11.1885
▁နက်ဗျူလာ	-11.1899
▁မဟာယာန	-11.1899
ပိုးသတ်ဆေး	-11.1899
သဒ္ဓမ္မ	-11.1899
▁နှုတ်ခမ်း	-11.1901
▁စူဠ	-11.1908
▁စတင်ဖွင့်လှစ်	-11.1911
▁ရက်ကန်း	-11.1914
ဆွန်း	-11.1914
▁ပြောင်းလဲသွား	-11.1915
ဂျူ	-11.1917
နသိက္ခာပုဒ်	-11.1922
▁ရေချိုး	-11.1938
▁အင်းဝခေတ်	-11.1938
▁အနိစ္စ	-11.1943
▁ဝိတိုရိယ	-11.1947
▁အဓိပ္ပာယ်ရ	-11.1947
▁သဖန်း	-11.1947
ဂန္ဒီ	-11.1947
သုတ္တန်	-11.1947
▁မအူပင်	-11.1947
▁open	-11.195
▁နည်းစနစ်	-11.195
▁သာသနာပိုင်	-11.1959
▁ညောင်ဝိုင်း	-11.1962
ပထဝီ	-11.1966
တွေးခေါ်	-11.1967
▁စာပေဆု	-11.1968
ကမ်းနား	-11.1972
▁ပါဝင်ဆောင်ရွက်	-11.1994
kwin	-11.1996
▁sound	-11.1996
▁nam	-11.1996
▁၂ဝဝဝ	-11.1997
▁၁၉၂၁	-11.2007
▁သာယာဝတီမင်း	-11.2025
ille	-11.2032
ဖြတ်သန်း	-11.2033
▁championship	-11.2044
▁စကြဝတေးမင်း	-11.2044
▁အီလက်ထရွန်းနစ်	-11.2044
▁ဘဲဥပုံ	-11.2045
ology	-11.2057
▁လွှ	-11.2057
▁လိပ်စာ	-11.2068
အယ်ဒီတာ	-11.2068
▁ဘရူနိုင်း	-11.2071
▁ပရိတ်	-11.2072
▁part	-11.2076
now	-11.2079
မွှား	-11.2084
ပစ်လိုက်	-11.2089
ရပ်ဝန်း	-11.2092
▁အရိယာ	-11.2092
အဓိကရုဏ်း	-11.2092
▁လက်ဝှေ့	-11.2097
▁ဇီဝဗေဒ	-11.2097
ဓော	-11.2099
သုံးဆင့်	-11.21
▁ဆိုက်ရောက်	-11.21
▁မိန့်တော်မူ၏။	-11.2102
မခံနိုင်	-11.2106
▁hop	-11.2107
မြတ်စွာဘုရားရှင်	-11.2107
ဇ္ဈ	-11.211
စုံစမ်း	-11.212
အသုံးဝင်	-11.2121
ဒွေး	-11.2123
▁ကုန်းဘောင်	-11.2128
▁တရားစီရင်ရေး	-11.2142
အင်ဒီ	-11.2146
▁yae	-11.2153
▁အလယ်ဗဟို	-11.216
▁၁၉၁၄	-11.2162
▁paing	-11.2168
ပိတ်ဆို့	-11.2172
▁ထောက်ပံ့ပေး	-11.2175
▁မော်တော်ကားလမ်း	-11.218
လှချေ။	-11.2187
▁ရာဇာဓိရာဇ်	-11.2191
▁အကျိုးကျေးဇူး	-11.2194
▁တယ်လီ	-11.2194
internet	-11.2196
မည်ဆိုလျှင်	-11.2196
ပျိုးထောင်	-11.2198
▁paung	-11.2199
အရှည်ဆုံး	-11.2201
▁htan	-11.2202
ိုင်းစစ်ဌာနချုပ်	-11.2204
▁တည်မြဲ	-11.2205
လွှဲအပ်	-11.2206
board	-11.2208
▁ညောင်ရွှေ	-11.2214
ဒီဇင်ဘာ	-11.2224
အကြံပေး	-11.2224
chan	-11.2227
အိမ်တန်းရွာ	-11.2227
▁plan	-11.2239
▁folk	-11.224
▁ပုရပိုက်	-11.224
▁အင်ကြင်း	-11.224
တွား	-11.2241
▁ကျင်လည်	-11.2244
▁အနန္တ	-11.2247
▁ထိုးဖောက်	-11.2248
▁yan	-11.225
▁နှုတ်သီး	-11.2251
ဇေယျာ	-11.226
လုပွဲ	-11.226
ကင်းမဲ့	-11.2265
▁ကဗျာဆရာ	-11.2267
ဗီယက်နမ်	-11.2276
စက်တင်ဘာ	-11.2276
လက်နက်ကိုင်	-11.2281
▁တနင်္သာရီတိုင်း	-11.2283
▁ဖုန	-11.2284
▁ယေဘုယျ	-11.2286
▁ရှုံးနိမ့်	-11.229
ကြိုက်နှစ်သက်	-11.2292
အိဇုမိ	-11.2296
▁ရာဇဝတ်	-11.2296
ဆန္ဒပြပွဲ	-11.2304
▁ဒုတိယဥက္ကဋ္ဌ	-11.2305
▁မူလတန်းကျောင်း	-11.2306
မဟုတ်ပဲ	-11.2308
▁ကြီးမှူး	-11.2317
▁၁၉၁၂	-11.232
▁သရက်တော	-11.2323
ကစားပွဲ	-11.2331
▁တကွ	-11.2333
မှေးမှိန်	-11.234
▁ယခုလက်ရှိ	-11.234
▁လားရှိုး	-11.234
ရှုတ်ချ	-11.2341
အစဉ်အဆက်	-11.2341
▁ကမ်းလှမ်း	-11.2343
▁ခရစ်ယန်	-11.2346
▁ကဗျာအမျိုးအစား	-11.2347
သုဒဿန	-11.235
▁sun	-11.2354
▁ထိပ်ဆုံး	-11.2364
▁ရုံတင်	-11.238
▁သိုးမွေး	-11.238
ြန်မာ့ဆိုရှယ်လစ်	-11.2381
ပဒုမ	-11.2389
▁စင်တီမီတာ	-11.239
▁မော်တော်ယာဉ်	-11.239
▁ဤသိက္ခာပုဒ်ကို	-11.239
▁ထူးဆန်း	-11.2391
ခိုင်လုံ	-11.2393
▁ဦးစားပေး	-11.2394
▁သဗ္ဗ	-11.2395
ပျူ	-11.2399
မနုဿ	-11.2401
ဂျုံ	-11.2405
ဒုစရိုက်	-11.2405
ခံထားရ	-11.2406
▁သတ္တဝါတို့	-11.2413
▁but	-11.2413
တီးဝိုင်းများသည်	-11.2422
ုဒ္ဓ	-11.2426
ဇန်နဝါရီ	-11.2435
ဖေဖော်ဝါရီ	-11.2435
▁ဘူမိဗေဒ	-11.2441
ပါရမီ	-11.2441
▁ဆည်မြောင်း	-11.2442
တေဇ	-11.2445
ဖိလစ်	-11.2446
▁မိုင်းမော	-11.2446
▁ပုသိမ်မြို့	-11.2446
01600	-11.2448
▁သတင်းစာဆရာ	-11.2471
ပြူး	-11.2482
ပလတ်စတစ်	-11.2491
သောင်းကျန်းမှု	-11.2492
ller	-11.2499
▁အလှူခံ	-11.2501
▁အယ်ဒီတာချုပ်	-11.2502
mark	-11.2504
ကြံစည်	-11.2505
သူကြွယ်	-11.2505
▁၁၈၈၆	-11.2507
▁သားမွေး	-11.2515
ပေတည်း။	-11.2518
▁နာကျင်	-11.2527
လိုက်လျော	-11.2538
နိုဝင်ဘာ	-11.2542
▁free	-11.2543
type	-11.2546
▁နယူးယောက်မြို့	-11.255
ဏှ	-11.2556
▁ပြည်ပြေး	-11.2557
▁kyon	-11.2559
▁အကူအညီပေး	-11.2567
701506	-11.2576
စစ်မျက်နှာ	-11.2582
order	-11.2583
ဘောလုံးပြိုင်ပွဲ	-11.2585
ဒီပလိုမာ	-11.2594
ပရိယာယ်	-11.2594
▁guitar	-11.2594
▁ရမည်းသင်း	-11.2594
နရပတိ	-11.2594
▁သာဓက	-11.2594
white	-11.2594
▁ဧည့်	-11.2594
▁တည်ထားကိုးကွယ်	-11.2595
▁days	-11.2596
▁ဗဟိုဌာနချုပ်	-11.2597
ဘုန်းတော်ကြီး	-11.26
ဟောင်	-11.2606
▁ကော်ဖီ	-11.2607
အချိန်အခါ	-11.2611
ပုဗ္ဗ	-11.2612
▁မြို့ပေါ်	-11.2619
electro	-11.2645
ဆိမ့်	-11.2645
အေးချမ်းသာယာရေး	-11.2645
▁အကျိုးအမြတ်	-11.2645
▁ပြစ်ဒဏ်	-11.2646
▁မြောက်လတ္တီတွဒ်	-11.2646
ition	-11.2646
န္တု	-11.2648
ဩဂုတ်	-11.265
နျူ	-11.2651
▁သဗ္ဗေ	-11.2661
▁စကားပြေ	-11.2669
▁ပင်လုံ	-11.2686
ပေသေးသည်။	-11.2688
ဒဿနိကဗေဒ	-11.2697
နှစ်ခြိုက်	-11.2697
မည်ဆိုပါက	-11.2698
▁မိစ္ဆာ	-11.2699
▁ပတ်သက်ပြီး	-11.2702
▁city	-11.2703
သဘောတူညီချက်	-11.2705
▁လမ်းလျှောက်	-11.2708
တေးသံ	-11.2718
ကိုယ်ပိုင်အုပ်ခ	-11.2743
▁mainstream	-11.2749
သ္မ	-11.2754
▁ပုစွန်	-11.2755
house	-11.2758
နှိမ်နင်း	-11.2761
▁maung	-11.2765
နက်ရှိုင်း	-11.2768
▁အဲဒါ	-11.2772
ဝှေ့	-11.2797
သိဒ္ဓိ	-11.2802
,000	-11.2802
▁two	-11.2802
မိုက္ကရို	-11.2802
▁ဆဋ္ဌမ	-11.2802
လှစွာသော	-11.2803
မတိုင်ခင်	-11.2803
▁၁၉၂ဝ	-11.2809
▁ရှင်းပြ	-11.281
▁who	-11.281
▁၁၉၂၆	-11.2814
ကောလိပ်ကျောင်း	-11.2818
▁မျိုးပွား	-11.2823
back	-11.2827
▁ဘွဲ့တံဆိပ်	-11.2827
၂၀၁၁	-11.2831
▁ဆန့်ကျင်ဘက်	-11.2831
ငုပ်	-11.2846
၀ဝ၀	-11.2851
စုံတွဲ	-11.2853
▁google	-11.2854
▁သဘာပတိ	-11.2854
▁ဟင်းသီးဟင်းရွက်	-11.2854
ချူပ်	-11.2854
▁သွတ်သွင်း	-11.2854
အရာရှိချုပ်	-11.2856
▁လွန်ခဲ့သည့်	-11.2865
လှည်းဆိပ်	-11.2867
နေရာချထား	-11.2871
အတည်ပြု	-11.2873
ဟုလည်းခေါ်	-11.2873
လွန်ကဲ	-11.2876
▁စင်ကာပူနိုင်ငံ	-11.2887
rich	-11.2888
ပုဏ္ဏ	-11.2892
ယောက်အနက်	-11.2898
ဗန္ဓ	-11.29
▁မိုဘိုင်း	-11.2907
▁တိုင်းသူပြည်သား	-11.2907
▁ဘင်္ဂလားဒေ့ရှ်	-11.2907
▁မြစ်ဖျားခံ	-11.2907
▁ဖျာပုံ	-11.2908
▁ချွေး	-11.2909
လျော်ကြေး	-11.291
▁လေးထောင့်	-11.2925
ခုံရုံး	-11.2926
အတွေးအခေါ်	-11.2927
ရှေ	-11.2936
▁ပညာသင်ယူ	-11.2938
▁ခွဲထုတ်	-11.2938
▁ထွက်ခွာသွား	-11.2958
▁mawlamyine	-11.296
▁ဂျီဒီပီ	-11.296
▁အတော်အတန်	-11.2963
▁seik	-11.2966
▁တတိယအကြိမ်	-11.2967
ဉာ	-11.2972
▁မရှိခဲ့ပေ။	-11.2972
▁နယ်သာလန်နိုင်ငံ	-11.2977
ငြိ	-11.2981
▁သင်္ဘောဆိပ်	-11.2997
ခြင်းငှါ	-11.3014
yangon	-11.3017
▁yin	-11.3017
▁ဆီးရီးယား	-11.3018
▁လက်ဖက်ရည်	-11.302
အခြင်းအရာ	-11.3027
ဗေဒါ	-11.3031
▁ပြာသိုလ	-11.3042
ချိန်မှစ၍	-11.3052
▁software	-11.3067
▁သဘာ၀	-11.3067
တစ်နေရာ	-11.3068
▁ဖိတ်ကြား	-11.3068
အာရ်	-11.3072
▁ရဟန်းသံဃာ	-11.3072
round	-11.3075
▁ဝိဇ္ဇာဘွဲ့	-11.3081
ကပ္ပလီ	-11.3081
▁ကြီးစိုး	-11.3084
▁lel	-11.3087
ရွာဟောင်းရွာ	-11.3101
လကျာ်	-11.3122
▁အောက်စဖို့	-11.3122
▁နက္ခတ္တဗေဒ	-11.3122
▁ကွာရှင်း	-11.3122
struct	-11.3127
▁ငါးဖမ်း	-11.3128
မိုင်အကွာ	-11.3129
ကတ္တရာ	-11.3138
▁မြေမျက်နှာပြင်	-11.3139
ာဘိဝံသ	-11.3142
ကြမ္မာ	-11.3143
အစ္စလာမ်	-11.3153
ထူးချွန်ဆု	-11.3162
▁သိသိသာသာ	-11.3176
ထိတ်လန့်	-11.3176
▁တစ်နည်းအားဖြင့်	-11.3176
လီမိတက်	-11.3176
▁တယ်လီဖုန်း	-11.3176
▁(4)	-11.318
အမှိုက်	-11.3196
▁အနိစ္စရောက်	-11.3207
▁တို့ဗမာ	-11.3207
ဇောင်း	-11.3208
ကလျာဏ	-11.3208
အရွယ်အစား	-11.3214
၈၀၀	-11.3218
▁ငယ်မည်မှာ	-11.3231
▁စတာလင်	-11.3231
▁အချုပ်အခြာအာဏာ	-11.3232
▁အစချီ	-11.3247
▁လွှဲပြောင်းပေး	-11.3255
ကိုင်းရွာ	-11.3262
စကြဝဠာ	-11.3268
ဓမ္မရာဇာ	-11.3271
▁naruto	-11.3285
▁ဖာရင်ဟိုက်	-11.3285
စွက်ဖက်	-11.3286
field	-11.3286
တို့လူစု	-11.3286
▁မနီလာ	-11.3287
▁မိုးရာသီ	-11.3301
မင်္ဂလ	-11.3319
ပြေပြစ်	-11.3324
စိုက်ခင်း	-11.3334
ရဋ္ဌသာရ	-11.3341
▁ခန္တီး	-11.3341
ယန္တရား	-11.3341
▁ဗုံးကြဲ	-11.3341
▁ပဓာန	-11.3341
▁နော်ဝေး	-11.3341
လျှ	-11.3341
▁အထောက်အကူ	-11.3346
▁over	-11.3348
▁တေးသီချင်း	-11.3354
▁သူကိုယ်တိုင်	-11.3359
ဂိလာန	-11.3362
ဗြိတိသျှ	-11.3385
ဗြာဟ္မဏ	-11.3396
▁တစ်ချိန်တည်း	-11.3396
▁ကိုးကန့်	-11.3396
▁zay	-11.3397
▁မန်ကျည်း	-11.3397
ချို့ယွင်း	-11.3398
▁သတင်းမီဒီယာ	-11.3399
ကြိမ်တိုင်တိုင်	-11.34
ဆွာ	-11.3401
▁ဖြေကြား	-11.341
ွဲ့	-11.341
ဆွဲငင်	-11.341
▁ဟွန်	-11.3416
ဘုတ်အဖွဲ့	-11.3422
▁ရပ်စဲ	-11.3424
ရှဲ	-11.3435
အစဉ်အလာ	-11.3444
▁ခွင့်ပြုချက်	-11.3452
william	-11.3452
▁အင်ဆူလင်	-11.3452
▁အလယ်တန်းကျောင်း	-11.3452
▁မြင့်တက်လာ	-11.3455
▁အသိဉာဏ်	-11.3456
▁ကမ္ဘာ့အမွေအနှစ်	-11.3456
▁အာရုံစိုက်	-11.3457
▁အစ္စလာမ်ဘာသာ	-11.3458
▁ရှုမြင်	-11.3459
▁ကြိုဆို	-11.3461
▁ခေတ်ပြိုင်	-11.3466
▁တံငါ	-11.3474
▁ဗာရာဏသီ	-11.3508
▁ထိရောက်စွာ	-11.3508
▁ကမ္ဘာ့ဖလား	-11.3517
အလောင်းစည်သူမင်း	-11.3517
▁ဝါဆိုလ	-11.3538
▁ကလေးသူငယ်	-11.3551
ဇ္ဈာ	-11.356
ညဉ့်	-11.3563
ပဋိပက္ခ	-11.3563
မှတ်ပုံတင်	-11.3563
▁ဗိဿနိုး	-11.3565
▁အာဂျင်တီးနား	-11.3565
▁အီကွေတာ	-11.3565
source	-11.3565
ညွှန့်	-11.3565
▁ဝါဂွမ်း	-11.3565
▁ယေရှု	-11.3565
▁အပြီးသတ်	-11.3567
▁မော်ဒယ်	-11.3568
▁ဘန်ကောက်မြို့	-11.3576
ဝိဟာရ	-11.3613
▁ပါစိတ္တိယံ။	-11.3622
▁ယူအေအီး	-11.3622
▁ဥပါသကာ	-11.3622
▁အဆက်မပြတ်	-11.3622
အတွေ့အကြုံ	-11.3622
▁ဝိုင်းဝန်း	-11.3622
russia	-11.3625
▁ကဗျာလင်္ကာ	-11.3626
ဗားရှင်း	-11.3632
▁အားကစားသမား	-11.3678
▁နက္ခတာရာ	-11.3679
▁အလားအလာ	-11.3679
မဏ္ဍိုင်	-11.3679
▁single	-11.3679
▁အကျုံးဝင်	-11.3679
▁ပိတောက်	-11.368
▁တင်ပို့ရောင်းချ	-11.368
▁ဖုဂျိ	-11.3681
ဟူသောအမည်	-11.3697
▁his	-11.3735
▁လတ်တလော	-11.3736
▁အထင်အရှား	-11.3736
▁label	-11.3736
မွေ့လျော်	-11.3736
▁နွားနို့	-11.3739
▁ပေါင်းစပ်ထား	-11.374
အမှတ်အသား	-11.3745
င်းနှီးမြှုပ်နှံ	-11.3758
▁ငှက်ဖျားရောဂါ	-11.3761
▁ကျနော်	-11.3763
အတတ်သင်	-11.3771
play	-11.3772
ဗျူ	-11.3772
▁အမှတ်တရ	-11.3777
▁အကောင်အထည်	-11.3789
▁အနိမ့်ဆုံး	-11.3795
စာရိတ္တ	-11.3796
ဘေးမဲ့တော	-11.3799
▁ရောဂါလက္ခဏာ	-11.3803
ဂီတသမား	-11.3803
ngapu	-11.3804
မှစတင်၍	-11.3805
ခွါ	-11.3844
▁ဘီအိုင်အေ	-11.3852
▁လျှပ်စစ်သံလိုက်	-11.3852
▁ကျဉ်းမြောင်း	-11.3852
▁အပတ်စဉ်	-11.3853
မိဖုရားခေါင်ကြီး	-11.3853
▁other	-11.3855
▁မူပိုင်ခွင့်	-11.3856
▁party	-11.3857
ငေါ	-11.3879
▁shan	-11.3879
▁လောင်းကစား	-11.3888
▁name	-11.389
ရစ္စတို	-11.389
head	-11.3903
▁billboard	-11.3911
▁တရားစွဲဆို	-11.3911
▁မိုက်ခရို	-11.3911
အတန်ကြာ	-11.3912
စော်ကား	-11.3913
▁အစရှိသည်တို့	-11.3913
▁ယင်းတို့အနက်	-11.3915
အီဂျစ်	-11.393
မဂ္ဂင်	-11.3932
▁တွေ့ကြုံ	-11.3944
▁အာရုံကြော	-11.3944
701507	-11.3953
ဦ	-11.396
▁အသိပညာ	-11.3963
▁thin	-11.3965
padaung	-11.3968
သယံဇာတ	-11.3969
အနှောင့်အယှက်	-11.3969
▁ဗျာဒိတ်	-11.397
▁မြေလွတ်၊	-11.397
▁စနေနေ့	-11.3971
▁republic	-11.3971
▁တာဝန်ပေးအပ်	-11.3973
▁မဟာဗောဓိ	-11.3974
ငြမ်း	-11.3976
▁ဘက်တီးရီးယား	-11.4029
government	-11.4029
▁ပစိဖိတ်သမုဒ္ဒရာ	-11.4029
▁ပဏာမ	-11.4029
နှစ်သစ်ကူး	-11.403
▁ဒေတာများ	-11.4032
▁သဘာဝဓာတ်ငွေ့	-11.4033
▁ထပ်ဆင့်	-11.4036
▁တွေ့ဆုံဆွေးနွေး	-11.4059
▁bri	-11.4072
▁daily	-11.4088
▁တယ်လီစကုပ်	-11.4088
mission	-11.4088
▁သည်းခြေ	-11.4088
[1	-11.4111
အညာစု	-11.4136
soyuz	-11.4148
မည်ထင်သော	-11.4149
▁ကောက်ညှင်း	-11.4151
▁အရည်ပျော်	-11.4153
▁ဖွံ့ဖြိုးဆဲ	-11.4154
▁ရောင်စုံ	-11.4156
နန်းမတော်	-11.4158
မျိုးရင်းဝင်	-11.4195
ဖွင့်ဆိုချက်	-11.4202
▁မတော်တဆ	-11.4208
ဓမ္မာစရိယ	-11.4208
▁ထာဝရ	-11.4208
▁ဖီဖာ	-11.4209
ရိုင်ဖယ်	-11.4209
▁ဗုဒ္ဓအယူဝါဒ	-11.4212
▁သင်ကြားပို့ချ	-11.4213
honeb	-11.4227
▁လီနင်	-11.4235
တေဇော	-11.4236
ရူပဗေဒ	-11.4246
ပါကစ္စတန်နိုင်ငံ	-11.4269
▁တာဝတိံသာ	-11.4269
▁ဗိုလ်သက်ထွန်း	-11.4269
စည်ပင်သာယာရေး	-11.4269
▁ကျွန်တော့်	-11.4269
နိဿယ	-11.4269
▁kyaung	-11.4272
ညှော	-11.4273
▁အမှီပြု	-11.4275
နှယ်	-11.4276
ငြိမ့်	-11.4286
အသိအမှတ်ပြု	-11.4306
ပုပ္ဖိယ	-11.4329
▁တနင်္ဂနွေနေ့	-11.433
▁နပိုလီယန်	-11.433
▁များမကြာမီ	-11.433
▁အင်ဒရိုမီဒါ	-11.433
နှိမ့်	-11.433
သရဏဂုံ	-11.433
▁အဝတ်အထည်	-11.433
ဘရောက်ဆာ	-11.433
▁အသုဘ	-11.433
▁မိန့်ကြား	-11.433
▁စုပ်ယူ	-11.4331
ခြယ်လှယ်	-11.4331
▁ဝီရိယ	-11.4332
▁ဒါပေမယ့်	-11.4332
▁ပြည်သူ့ရဲဘော်	-11.4332
▁ဝါဒဖြန့်	-11.4355
ညံ့ဖျင်း	-11.4391
▁ဂမ်ဘီယာ	-11.4391
▁ဂျော်ဂျီယာ	-11.4391
▁ပရဟိတ	-11.4391
▁christian	-11.4391
▁ဆဗ္ဗဂ္ဂီရဟန်း	-11.4392
▁အလွန်အမင်း	-11.4392
▁ကျွဲနွား	-11.4393
▁ညွန့်ပေါင်း	-11.4394
ိုဝ်း	-11.4397
ွပ်ကဲမှုဌာနချုပ်	-11.4416
▁communi	-11.4453
▁district	-11.4453
▁စင်္ကာပူ	-11.4453
▁နဂါးငွေ့တန်း	-11.4453
▁အလေ့အကျင့်	-11.4453
မြင်းမိုရ်	-11.4453
ဘောဂဗေဒ	-11.4453
ထို့အတွက်ကြောင့်	-11.4453
▁ပညာဆည်းပူး	-11.4458
▁anti	-11.4496
အက်တမ်	-11.4501
အစောင့်အရှောက်	-11.4515
မဟာဗန္ဓုလ	-11.4515
▁pyay	-11.4515
▁မိုက်ခရိုဆော့ဖ်	-11.4515
▁အီတာလျံ	-11.4515
▁၁၉၈ဝ	-11.4515
▁ပထမဦးစွာ	-11.4515
▁အရှေ့အလယ်ပိုင်း	-11.4519
down	-11.4521
tical	-11.4527
tell	-11.4554
းနီးယန်း	-11.4569
▁unit	-11.4573
ြောက်အမေရိကတိုက်	-11.4577
burmese	-11.4578
အမိန့်ကြော်ငြာစာ	-11.4578
▁number	-11.4578
ဘန့်ဘွေး	-11.4578
▁နို့တိုက်သတ္တဝါ	-11.4578
▁အလှအပ	-11.4578
ဒြဗ်စင်	-11.4579
self	-11.458
ဆုပေးပွဲ	-11.4582
အနိုင်ရ	-11.4596
▁နယ်သာလန်	-11.4621
ဝိနိစ္ဆယ	-11.464
▁စာရွက်စာတမ်း	-11.464
▁အောက်ဖော်ပြပါ	-11.4641
▁အညိုရောင်	-11.4641
အကြောင်းပြချက်	-11.465
ရုပ်ကလာပ်	-11.4661
gree	-11.4661
ular	-11.4664
ာလင်္ကာရ	-11.4692
ဘွန်	-11.4694
အခက်အခဲ	-11.4699
လယ်ယာမြေ	-11.4699
စေတနာ	-11.47
▁အစီရင်ခံ	-11.47
ဒြဗ်	-11.4702
public	-11.4702
ပစ္စယေန	-11.4704
အဏုမြူ	-11.4704
▁ကင်းဝန်မင်းကြီး	-11.4704
▁ဤကာကွယ်ဆေး	-11.4704
aungmya	-11.4704
ချွတ်ယွင်း	-11.4704
အရိုက်အရာ	-11.4705
တော်မမူ	-11.4706
ဗျူရို	-11.4707
▁အရှေ့အာရှ	-11.4709
ချောင်းဝရွာ	-11.4719
▁အံ့ဖွယ်	-11.4723
ကြံ့ခိုင်	-11.4749
▁ဘန်ကောက်	-11.4756
ဖွံဖြိုး	-11.4767
▁japan	-11.4768
နဝဒေး	-11.477
ဗြူ	-11.4784
media	-11.482
▁ကြာအင်းဆိပ်ကြီး	-11.4832
▁တွံတေး	-11.4832
အမွှေးအကြိုင်	-11.4832
▁website	-11.4832
▁မြောက်ကိုရီးယား	-11.4832
▁ဗမာ့လွတ်လပ်ရေး	-11.4833
ကြိမ်ချောင်းကြီး	-11.4834
▁မှန်ဘီလူး	-11.4834
အင်တာနက်	-11.4834
▁ထုတ်ပြန်ကြေညာ	-11.4834
ဧည့်ခံ	-11.4855
▁မည်ကဲ့သို့	-11.4877
▁class	-11.4893
ရင်းနှီးမြုပ်နှံ	-11.4896
▁science	-11.4896
▁တစ်စိတ်တစ်ဒေသ	-11.4896
▁အလုပ်အမှုဆောင်	-11.4896
▁ဂျိမ်းစ်	-11.4896
▁ဝံသာနု	-11.4896
ဂျိုးဇက်	-11.4896
ဆန္ဒခံယူပွဲ	-11.4896
တစ်စိတ်တစ်ပိုင်း	-11.4896
▁ကွပ်မျက်	-11.4896
▁ချိပ်	-11.4897
▁ဖွဲ့နွဲ့	-11.4898
အကယ်ဒမီ	-11.4902
ပိုမိုကောင်းမွန်	-11.4924
▁သိသာထင်ရှား	-11.4937
kingdom	-11.4961
▁ပုပ်ရဟန်းမင်း	-11.4961
▁အဘယ့်ကြောင့်	-11.4961
▁development	-11.4961
▁york	-11.4961
အဓိပတိ	-11.4961
▁သံပရာ	-11.4962
▁ဝဲဒေါင့်	-11.4963
▁union	-11.4963
ဈာပန	-11.5006
▁college	-11.5026
▁three	-11.5026
▁စင်တောရိ	-11.5026
▁ယဟူဒီ	-11.5026
japanese	-11.5026
ချောမွေ့	-11.5026
မော်လီကျူး	-11.5026
▁နိုဘယ်ဆု	-11.5027
▁project	-11.5027
▁ဒပ်ချ	-11.5027
▁ဆိုးကျိုး	-11.5027
▁မကျီးကုန်း	-11.5031
electric	-11.5092
▁association	-11.5092
▁network	-11.5092
ရေငုပ်သင်္ဘော	-11.5092
▁ဂိုရှယ်	-11.5092
▁ဂရုစိုက်	-11.5092
သံအမတ်ကြီး	-11.5093
▁ပစ္စယော။	-11.5093
▁အဋ္ဌမ	-11.5103
blue	-11.5158
▁မူးယစ်ဆေးဝါး	-11.5158
ပိရမစ်	-11.5158
ခင်ဗျား	-11.5158
အက်တလီ	-11.5159
▁နက္ခတ္တပညာရှင်	-11.516
▁စိတ်ကူးယဉ်	-11.516
▁ဆင့်ကဲ	-11.5169
▁ဖြုတ်ချ	-11.5189
စင်တီဂရိတ်	-11.5225
▁ဩစတေးလျ	-11.5225
▁ရေအားလျှပ်စစ်	-11.5225
▁မှော်ဘီ	-11.5225
▁နော်မန်	-11.5226
▁ခက်ဆစ်	-11.5226
အသွားအလာ	-11.5226
▁ထိုအချိန်ဇုန်	-11.5227
ဘေ့စ်	-11.5227
▁သည်းခံ	-11.5231
point	-11.5238
▁hlaing	-11.5293
▁‘‘	-11.5293
▁ရွေ့ပြောင်း	-11.5293
▁သွန်းလုပ်	-11.5294
701508	-11.5299
▁ရွှေတိဂုံစေတီ	-11.5322
ကမ္ဘာလုံးဆိုင်ရာ	-11.5344
ဆဗ္ဗဂ္ဂီ	-11.5359
english	-11.536
သံယောဇဉ်	-11.536
▁british	-11.536
▁object	-11.536
social	-11.536
george	-11.5363
ဝှန်	-11.5375
▁အဘက်ဘက်	-11.5382
ရန်မလို	-11.5386
▁ဝါခေါင်လ	-11.5393
အထွတ်အထိပ်	-11.5428
▁ဝံပုလွေ	-11.5428
▁ရှီအာ	-11.5428
▁ဗမာ့တပ်မတော်	-11.543
▁စူပါ	-11.5435
စားနပ်ရိက္ခာ	-11.5496
ပျော့ပျောင်း	-11.5496
▁ကရဏီယာ	-11.5496
▁ကြို့ပင်	-11.5496
▁ကော့ကရိတ်	-11.5496
▁ဟားခါး	-11.5496
▁ရွတ်ဖတ်	-11.5497
▁blues	-11.5497
▁တစ်နှစ်ပတ်လုံး	-11.5499
▁ဗိုင်း	-11.5504
အစားအစာ	-11.5525
အရှိဆုံး	-11.556
နှိမ်	-11.5564
လုပ်ထုံးလုပ်နည်း	-11.5565
▁သဗ္ဗညု	-11.5565
▁ပွဲဦးထွက်	-11.5565
ခန့်ညား	-11.5566
▁အအိချိခရိုင်	-11.5567
စိန္တာ	-11.5567
▁အမှတ်လက္ခဏာဖြစ်	-11.5573
▁ဆွစ်ဇာလန်	-11.5606
စက်မှုလက်မှု	-11.5609
ဘုရားရှိခိုး	-11.5609
ကြာသပတေး	-11.5633
▁chinese	-11.5635
▁ဒေတာရင်းမြစ်	-11.5635
▁ပန့်ခ်	-11.5635
ကြက်တူရွေး	-11.5635
▁စစ်ပြေငြိမ်း	-11.5635
▁အလယ်အလတ်	-11.5635
သတ္ထု	-11.5635
▁အချိုးအစား	-11.5635
ယ်ကျယ်ပြန့်ပြန့်	-11.5635
နှိမ်နှင်း	-11.5635
မချိဘူတာ	-11.5635
▁အမည်နာမ	-11.5636
မိုင်ခန့်အကွာ	-11.5636
▁utc	-11.5637
oxy	-11.5649
အရည်အသွေး	-11.5683
ချွဲ	-11.569
အကန့်အသတ်	-11.5705
▁မန်ချက်စတာ	-11.5705
▁မူးယစ်	-11.5705
▁နှေးကွေး	-11.5705
နှင့်ပတ်သက်သော	-11.5711
အိန္ဒိယကျွန်းစု	-11.5723
ဝိဇယ	-11.5727
ဆွစ်ဇာလန်နိုင်ငံ	-11.5734
ဗဟုသုတ	-11.5757
ရွှေ့ပြောင်း	-11.5757
ocene	-11.5769
▁ကောက်ပဲသီးနှံ	-11.5775
▁ဂျီစီဘီအေ	-11.5775
▁ဒြပ်ဆွဲအား	-11.5775
▁ဦးအုန်းမောင်	-11.5775
စတုဂံ	-11.5775
▁ဗိုလ်တထောင်	-11.5775
▁အတိအလင်း	-11.5775
ဓာတ်ခွဲခန်း	-11.5775
လက်ခုပ်	-11.5776
▁ကျိုတို	-11.5776
▁ဒြပ်ပေါင်း	-11.5784
▁ရှေးနှစ်ပေါင်း	-11.5803
▁အနတ္တ	-11.5805
▁ပေါ်ထွန်းလာ	-11.582
ဗိသုကာ	-11.5831
လျှို့ဝှက်	-11.5831
စတူဒီယို	-11.5846
ဝှေး	-11.5846
▁ခွဲခြမ်းစိတ်ဖြာ	-11.5846
▁အပြိုင်အဆိုင်	-11.5846
▁စဉ့်ကူးမင်း	-11.5846
▁ငြင်းခုံ	-11.5846
ဗေးနီးယား	-11.5847
ဆန္ဒပြမှု	-11.5869
တော်တော်များများ	-11.5883
▁နတ်တော်လ	-11.5884
ကြော်ငြာ	-11.5906
▁အကိုင်းအခက်	-11.5917
▁ဇန္နဝါရီလ	-11.5917
▁launch	-11.5917
▁ပြည်တော်သာ	-11.5918
အတော်ကြာ	-11.5919
▁ဝန်းသို	-11.5927
▁ပရိုတွန်	-11.595
ဝဇီရ	-11.5984
သံတူကြောင်းကွဲ	-11.5989
▁ဆုတောင်းပြည့်	-11.5989
▁နနွင်း	-11.5989
▁လစ်ဘရယ်	-11.5989
▁ဒေါက်တာဘမော်	-11.5989
www	-11.599
▁ဘိလပ်	-11.599
ျက်နှာချင်းဆိုင်	-11.5992
ကြို့ကုန်း	-11.5993
▁စစ်တောင်းမြစ်	-11.6003
▁ပျောက်ကွယ်သွား	-11.6006
ရောဂါကာကွယ်ဆေး	-11.603
တိုးတက်ရေးပါတီ	-11.6033
ပရိုဂရမ်	-11.6059
digital	-11.6062
▁ပုဇွန်တောင်	-11.6062
▁ကနောင်မင်းသား	-11.6062
▁ဆော့ဖ်ဝဲလ်	-11.6062
▁မှန်းဆ	-11.6063
တန်ဆာပလာ	-11.6063
▁လေးအိမ်တန်း	-11.6102
နက္ခတ္တ	-11.6134
ဒိုင်အောက်ဆိုက်	-11.6135
▁ကွာလာလမ်ပူ	-11.6135
▁ဂုံညင်းတန်း	-11.6135
အပျက်အစီး	-11.6135
▁တိမ်းရှောင်	-11.6135
▁စူးစမ်းရှာဖွေ	-11.6135
▁ငြင်းဆန်	-11.6135
▁ဖက်ဆစ်ဂျပန်	-11.6136
ject	-11.6141
▁ညာဘက်	-11.6197
▁council	-11.6208
▁ယူနိုက်တက်ကင်းဒ	-11.6208
▁နရပတိစည်သူ	-11.6208
▁ဟားဗတ်	-11.6208
▁အကဲဖြတ်	-11.6208
james	-11.6208
▁control	-11.6209
johann	-11.6209
▁ဂုံမင်း	-11.621
ဟင်နရီ	-11.6213
အထောက်အပံ့	-11.6213
အကောင်အထည်ဖော်	-11.6213
▁အသီးအနှံ	-11.6229
▁radio	-11.623
တပင်ရွာ	-11.6276
▁ကုရ်အာန်	-11.6282
▁သောတာပန်	-11.6282
▁လူရွှင်တော်	-11.6283
▁မြေလပ်နှင့်	-11.6283
▁နှင်ထုတ်	-11.6283
တွင်းထွက်ပစ္စည်း	-11.6286
သန်းခေါင်စာရင်း	-11.6291
▁ပေါက်ဖွားလာ	-11.6306
▁park	-11.6312
▁နယ်နမိတ်	-11.6357
ဇနီးမောင်နှံ	-11.6357
▁second	-11.6357
▁ရေပန်းစား	-11.6357
နားမလည်	-11.6358
သာမဏေ	-11.6367
▁လျို	-11.6368
ဓိုရ်	-11.6428
ငှက်ပျော	-11.6431
▁http	-11.6432
အလွန်အကျွံ	-11.6432
▁ဗွိုင်ယေဂျာ	-11.6432
▁ယူနီကုဒ်	-11.6432
mathematic	-11.6432
▁forbes	-11.6432
▁အထက်ဖော်ပြပါ	-11.6432
ပရောဂျက်	-11.6432
▁ပညာတော်သင်	-11.6432
▁harris	-11.6432
christ	-11.6433
ဓိပ္ပာယ်ဖွင့်ဆို	-11.6472
▁မီးပုံးပျံ	-11.6508
အကျပ်အတည်း	-11.6508
အင်ဒိုချိုင်းနား	-11.6508
▁ညောင်လေးပင်	-11.6508
▁အထင်ကရ	-11.6508
ပြည်သူပြည်သား	-11.651
သင်ခန်းစာ	-11.6511
ရေစီးကြောင်း	-11.6512
သိင်္ခ	-11.6514
ပန်းထိမ်	-11.657
▁အလုပ်လက်မဲ့	-11.6584
▁ပလူတို	-11.6584
▁မာရ်နတ်	-11.6584
လူသိများ	-11.6602
posit	-11.6654
နှောင့်နှေး	-11.6661
▁cluster	-11.6661
▁မင်းရဲကျော်စွာ	-11.6661
▁ပူအိုက်	-11.6661
▁အထက်မြန်မာပြည်	-11.6661
ပရိက္ခရာ	-11.6661
▁ခတ္တိယ	-11.6661
▁institute	-11.6663
နှင့်သက်ဆိုင်သော	-11.6663
တက္ကသိုလ်ဝင်တန်း	-11.6664
▁ပါရစ်မြို့	-11.6738
ဂုချိဘူတာ	-11.6739
မြူနီစီပယ်	-11.6739
▁design	-11.6739
▁အထည်အလိပ်	-11.6739
ငြားအံ့၊	-11.6739
▁gold	-11.6739
ပလွေ	-11.6748
nld	-11.6752
▁နိုင်းမြစ်	-11.6765
▁မဆလ	-11.6769
သယ်ယူပို့ဆောင်	-11.6773
ကလိုရို	-11.6776
စေတသိက်	-11.6817
ပူဇကထေရ်	-11.6817
▁တိတိကျကျ	-11.6817
▁ပါလက်စတိုင်း	-11.6817
▁အဇာတသတ်မင်း	-11.6817
▁စိတ်ကြွဆေး	-11.6817
▁ဓမ္မာနံ	-11.6817
▁ကမ္ဘာလှည့်ခရီး	-11.6817
▁khin	-11.6818
▁ဂျင်မီ	-11.6818
▁ပဌမ	-11.6819
ဗောဇ္ဈင်	-11.682
great	-11.6821
▁ဤဘဒ္ဒကမ္ဘာ	-11.6896
▁ကြက်သွန်နီ	-11.6896
ပြင်းပြင်းထန်ထန်	-11.6896
အဓိပ္ပါယ်	-11.6896
▁ဝိုင်အမ်ဘီအေ	-11.6896
▁after	-11.6896
▁ဒါပေမဲ့	-11.6896
▁တပြိုင်နက်	-11.6896
▁တကယ့်	-11.6896
အိမ်စောင့်အစိုးရ	-11.6897
▁သန္ဓေသား	-11.6897
တိုက်တိုင်းအောင်	-11.6898
ရက်ထပ်နှစ်	-11.6903
သျှောင်	-11.6907
ျုပ်ခွင့်ရဒေသ	-11.6944
▁ပလေးစတေရှင်	-11.6975
▁မီလီမီတာ	-11.6975
▁ကြည့်မြင်တိုင်	-11.6975
ချမ်းမြေ့	-11.6975
daunt	-11.6975
▁စီးကရက်	-11.6975
▁အထပ်ထပ်	-11.6975
0130207015	-11.6976
▁တကမ္ဘာလုံး	-11.6976
အဆိုပြုချက်	-11.7011
▁ကြွင်းကျန်	-11.7018
▁လက်နက်ခဲယမ်း	-11.7055
ပရိဗိုဇ်	-11.7055
ဝိသုဒ္ဓိ	-11.7055
▁ကောဇာသက္ကရာဇ်	-11.7055
▁ပဲရယ်လ်မန်	-11.7055
စ်သောင်းလေးထောင်	-11.7055
▁ဝေလငါး	-11.7055
▁ဖုခုရှီးမား	-11.7055
ဆင်ခြေဖုံး	-11.7055
▁ဆေးဖက်ဝင်	-11.7055
အအိဇု	-11.7055
▁တစ်ဦးနှင့်တစ်ဦး	-11.7055
ကူးတို့ဆိပ်	-11.7059
national	-11.7101
701509	-11.7118
လက္ခဏ	-11.7134
ခြိမ်း	-11.7136
▁ကြက်သွန်ဖြူ	-11.7136
▁သိဒ္ဓတ္ထ	-11.7136
▁နိုက်ထရိုဂျင်	-11.7136
▁earth	-11.7136
▁ဗဟန်း	-11.7136
လက်ပံတောင်းတောင်	-11.7136
▁ဦးနေဝင်း	-11.7136
ဘရှိဘူတာ	-11.7136
▁center	-11.714
operation	-11.7143
မည်သို့ပင်ဖြစ်စေ	-11.7144
နှစ်တိုင်တိုင်	-11.7144
product	-11.7145
ပယောဂ	-11.7188
မြန်တပ်မဌာနချုပ်	-11.7217
တစ္ဆေ	-11.7217
▁နယူတန်	-11.7217
▁လုပ်ငန်းဆောင်တာ	-11.7217
robert	-11.7218
ဝိစာရ	-11.7229
ကီလိုမီတာ	-11.726
လှိမ့်	-11.7299
ဘောဇဉ်	-11.7299
ညှို့	-11.7299
သန္တာန်၌	-11.7299
▁အပျော်တမ်း	-11.7299
script	-11.73
▁tds	-11.73
▁လက်မှုပညာ	-11.7307
အဆက်အသွယ်	-11.7366
အတားအဆီး	-11.7382
▁gothic	-11.7382
▁ရဟတ်ယာဉ်	-11.7382
▁ဟန်ဂေရီနိုင်ငံ	-11.7382
နိရောဓ	-11.7382
▁အဖမ်းခံရ	-11.7384
▁အသတ်ခံရ	-11.7389
ဗ္ဘ	-11.7392
မိန့်တော်မူ၏	-11.7395
ာသဝ	-11.7398
မင်းများလက်ထက်	-11.7451
ဟယ်ရီပေါ်တာ	-11.7465
traditional	-11.7465
ဉာာဏ်	-11.7465
တစိတ်တပိုင်း	-11.7465
▁magazine	-11.7465
▁ဗန္ဓုလ	-11.7465
▁အခကြေးငွေ	-11.7465
ယုဒသန်	-11.7465
▁ဇေတဝန်ကျောင်း	-11.7465
အင်ဒီးယန်း	-11.7465
▁ယူကရိန်း	-11.7465
▁ချောမွတ်	-11.7465
▁green	-11.7475
mount	-11.7496
သုမန	-11.7508
ခြင်္သေ့	-11.7543
သီတင်းသုံး	-11.7543
ဟံသာဝတီ	-11.7543
ဖြစ်ရုပ်ကြွင်း	-11.7549
အင်တာဗျူး	-11.7549
▁ဩစတြေးလီးယား	-11.7549
နှိုးဆော်	-11.7549
▁process	-11.7549
▁ထုလ္လနန္ဒာ	-11.7549
▁ဝတ်စားဆင်ယင်	-11.7549
သုံ့ပန်း	-11.7549
▁ရှန်ဟိုင်း	-11.7549
▁သိပ္ပံနည်းကျ	-11.7549
▁မည်သို့ပင်ဆိုစေ	-11.7549
သံတော်ဆင့်	-11.755
▁စူးစမ်းလေ့လာ	-11.755
သုန္ဒရ	-11.7568
ဗုဒ္ဓရုပ်ပွား	-11.7607
▁ဂရိတ်ဗြိတိန်	-11.7634
▁ကြက်ခြေနီ	-11.7634
▁ဝေဠု	-11.7634
wood	-11.7634
▁နိုင်ငံရပ်ခြား	-11.7634
▁အကြွင်းမဲ့	-11.7634
view	-11.7634
▁royal	-11.7634
ဆင်နွဲ	-11.7719
▁ကမ္ပည်း	-11.7719
▁ချန်ကေရှိတ်	-11.7719
▁ရည်ညွန်း	-11.7719
▁အလက်ဇန္ဒ	-11.7719
▁အလျင်အမြန်	-11.7719
ခြေမြန်တပ်ရင်း	-11.7719
▁major	-11.7719
▁ကိုယ်ကျင့်တရား	-11.7719
ပုလွေ	-11.7719
francis	-11.7719
▁ကင်ဆာရောဂါ	-11.772
▁ယခုထက်တိုင်	-11.772
▁ကြာသပတေးနေ့	-11.7721
▁indie	-11.7722
သော်ငြားလည်း	-11.773
ဆိုရသော်	-11.7767
ကမ္ဘာထက်တွင်	-11.7802
▁အချုပ်အခြာ	-11.7804
▁region	-11.7805
မြုတေ	-11.7805
▁jazz	-11.7805
▁mrauk	-11.7805
▁ဆိုးရော့စ်	-11.7805
▁ရွှေစည်းခုံ	-11.7805
▁မင်းညီမင်းသား	-11.7805
▁ရှင်စောပု	-11.7805
▁ဂွေးတောက်	-11.7806
တျူ	-11.7806
မြို့သူမြို့သား	-11.781
အင်္ဂလန်	-11.7813
ဏ္ဌ	-11.7841
ခြားရေးဝန်ကြီး	-11.7849
▁ရက်သတ္တပတ်	-11.7892
ပရိုတက်စတင့်	-11.7892
present	-11.7892
ောင်းဝယ်ဖောက်ကား	-11.7892
▁ပလက်ဝ	-11.7893
ဣ	-11.7894
မက္ကဆီကိုနိုင်ငံ	-11.7943
စာဖြူစုရွာ	-11.7945
michael	-11.798
▁shenzhen	-11.798
▁သနပ်ခါး	-11.798
▁ဗုဒ္ဓဟူးနေ့	-11.798
▁အတော်အသင့်	-11.798
▁ပိဋကတ်သုံးပုံ	-11.798
ပစ္စယော	-11.7982
မြစ်ဝကျွန်းပေါ်	-11.7999
စာသင်တိုက်	-11.8002
စင်္က	-11.8009
▁မကြာသေး	-11.8013
▁operat	-11.8061
australia	-11.8068
▁ပရိဘောဂ	-11.8068
▁သာဓု	-11.8068
▁ဆူနာမီ	-11.8068
▁အောက်မြန်မာပြည်	-11.8069
ကျောက်ပန်းတောင်း	-11.8069
အစီရင်ခံစာ	-11.8091
ရန်ကုန်မြို့သို့	-11.8109
သည်နှင့်အမျှ	-11.8135
▁ကျွနု်ပ်တို့	-11.8158
▁ဆန်ဖရန်စစ္စကို	-11.8158
▁သမားရိုးကျ	-11.8158
▁shey	-11.8158
▁ပူတာအို	-11.8158
▁သူတော်ကောင်း	-11.8158
တောင်ကြားလမ်း	-11.8159
▁ပါရီမြို့	-11.8166
စီမံခန့်ခွဲ	-11.8168
▁မိနမိ	-11.8185
‘	-11.9499
<	-13.1797
၎	-13.1797
