<unk>	0
<s>	0
</s>	0
.	-3.12066
▁de	-3.12681
,	-3.7052
▁vun	-3.94414
n	-3.99405
▁in	-4.05981
▁	-4.12638
▁dat	-4.2356
▁un	-4.27259
s	-4.29014
en	-4.43713
"	-4.4556
="	-4.54448
’	-4.63454
t	-4.65628
▁en	-4.68754
▁is	-4.69973
e	-4.72194
-	-4.89993
▁to	-5.00864
▁an	-5.08243
doc	-5.1047
>	-5.10953
▁he	-5.15139
▁as	-5.21221
▁hett	-5.22934
▁mit	-5.31896
▁(	-5.35606
▁den	-5.39557
▁weer	-5.44145
▁%	-5.46401
er	-5.48737
▁bi	-5.54341
#	-5.57403
▁ok	-5.57899
▁#	-5.60675
▁ut	-5.6182
▁"	-5.64333
▁hebbt	-5.65344
/	-5.66278
▁se	-5.68435
▁sünd	-5.75298
▁op	-5.75666
org	-5.75781
)	-5.77087
nds	-5.78218
?	-5.78858
▁id	-5.7906
▁<	-5.79924
wiki	-5.80005
wikipedia	-5.80105
▁cate	-5.80159
http	-5.80192
://	-5.80192
gories	-5.80249
▁url	-5.80263
curid	-5.80268
▁title	-5.80268
▁</	-5.80614
▁sien	-5.84273
▁för	-5.90228
▁sik	-5.96656
▁na	-6.14333
▁warrt	-6.16849
=	-6.22696
▁worrn	-6.22723
▁noch	-6.25911
▁inwahners	-6.27436
▁1	-6.2792
▁nich	-6.29865
▁up	-6.32074
d	-6.32829
▁dor	-6.32971
▁so	-6.3321
▁minschen	-6.39784
▁oder	-6.42391
:	-6.44185
▁von	-6.47968
▁man	-6.49264
▁een	-6.55449
▁’	-6.56423
▁denn	-6.57271
▁„	-6.58383
'	-6.61566
▁maakt	-6.6173
▁af	-6.62605
▁ünner	-6.64713
▁dör	-6.66165
a	-6.66666
▁vör	-6.69288
▁över	-6.71199
▁county	-6.72726
▁2000	-6.74336
k	-6.75066
▁annere	-6.75883
▁wurrn	-6.76092
▁bit	-6.81465
m	-6.82938
“	-6.84727
▁wat	-6.84867
o	-6.85821
▁us	-6.87052
▁ver	-6.87376
in	-6.8925
▁harr	-6.91986
▁lüüd	-6.93757
r	-6.94109
ung	-6.95656
▁kreis	-6.96223
▁be	-6.96304
sch	-6.96445
de	-6.97342
st	-7.02014
▁üm	-7.02284
▁johr	-7.02352
▁van	-7.03204
h	-7.03859
▁al	-7.0733
▁aver	-7.08629
g	-7.11116
f	-7.12437
l	-7.13921
▁gifft	-7.13925
▁wurr	-7.16552
▁nah	-7.16735
i	-7.16899
b	-7.1711
=1	-7.20647
▁afsluss	-7.20762
▁leven	-7.20808
y	-7.20959
▁all	-7.21473
▁zensus	-7.21931
▁nakamen	-7.22624
▁km	-7.22725
▁mehr	-7.23051
▁inkamen	-7.2306
▁disse	-7.23618
▁kann	-7.23853
;	-7.26267
stand	-7.26744
p	-7.2717
▁tiet	-7.28145
c	-7.29385
▁spraak	-7.33607
▁siet	-7.33874
▁stadt	-7.34468
▁rebeet	-7.35258
te	-7.37303
▁weern	-7.37354
ten	-7.38876
▁her	-7.39354
▁arbeit	-7.39402
▁ehr	-7.39483
▁naam	-7.40118
an	-7.40722
sche	-7.41525
▁wedder	-7.41875
▁em	-7.42044
▁historie	-7.42173
▁b	-7.42301
▁twee	-7.42381
▁film	-7.42465
us	-7.42472
▁a	-7.42484
▁harrn	-7.42588
▁1.	-7.43234
▁deel	-7.43789
▁buten	-7.44432
to	-7.45148
▁blots	-7.45207
▁johren	-7.45935
▁boren	-7.46206
▁liggt	-7.46265
▁k	-7.46289
▁usa	-7.47074
▁wenn	-7.47774
be	-7.48278
land	-7.48843
▁land	-7.49434
2.	-7.50128
▁sitt	-7.52425
▁je	-7.53455
z	-7.54608
▁grünnt	-7.54911
▁wo	-7.55021
▁nu	-7.55468
der	-7.56153
▁snackt	-7.56672
).	-7.56746
al	-7.56901
el	-7.56933
▁aber	-7.58669
den	-7.58732
▁universität	-7.60796
▁verwalten	-7.61302
▁sück	-7.61633
ig	-7.64655
▁v	-7.65903
▁um	-7.65983
ch	-7.66158
ge	-7.66171
le	-7.66909
ver	-7.67055
ers	-7.67533
▁bet	-7.6843
▁eerst	-7.68434
▁later	-7.68528
▁warrn	-7.68563
▁kommun	-7.69851
▁–	-7.70116
w	-7.7018
is	-7.71123
mografie	-7.71356
on	-7.72017
▁m	-7.72254
▁engelsch	-7.72273
ke	-7.72389
ken	-7.73003
▁ansehn	-7.73825
▁2	-7.74472
▁(*	-7.74483
um	-7.75146
▁kopp	-7.75616
▁gegen	-7.75691
lich	-7.75901
▁bruukt	-7.76302
ter	-7.7682
▁s	-7.7701
▁veel	-7.77342
▁eilannen	-7.77558
▁hele	-7.779
▁nee	-7.78092
bo	-7.78251
▁stammt	-7.78804
▁gruppen	-7.78828
▁höört	-7.80294
▁keem	-7.8098
dollar	-7.81033
▁dorbi	-7.81347
▁eerste	-7.81386
▁höger	-7.81453
▁witte	-7.81521
▁ne	-7.82179
▁swarte	-7.82636
bundsstaat	-7.8298
v	-7.83497
▁angeven	-7.84057
),	-7.85162
▁dree	-7.85807
▁groot	-7.86546
ra	-7.87317
ar	-7.87398
▁oort	-7.87854
▁indianers	-7.87952
▁afstamm	-7.88072
afsluss	-7.88715
▁inwahnertall	-7.88734
▁sülven	-7.88793
▁asien	-7.89049
▁torekent	-7.89654
▁bachelor	-7.90241
▁d	-7.9053
▁g	-7.90712
▁tohuus	-7.90822
▁highschool	-7.91333
sgrenz	-7.91459
ut	-7.91629
▁vöröllern	-7.91646
▁gemeen	-7.91701
▁siene	-7.91771
▁vörfohren	-7.91908
▁2010)	-7.91973
▁latienamerika	-7.91982
▁armoot	-7.92214
▁hör	-7.92393
0	-7.9241
county	-7.9264
▁betekent	-7.92705
▁deit	-7.92736
")	-7.92754
▁re	-7.92781
▁mol	-7.92965
▁eersten	-7.93417
2	-7.93498
)"	-7.93804
it	-7.94117
es	-7.94749
na	-7.95539
ma	-7.96432
▁und	-7.96525
ur	-7.96683
▁sch	-7.96776
5	-7.96956
▁3	-7.97313
▁hefft	-7.98549
▁annern	-7.98606
▁düsse	-7.99148
▁la	-7.99999
gen	-8.00078
▁keen	-8.00529
4	-8.0145
▁wegen	-8.01463
ing	-8.01465
▁st	-8.01724
ste	-8.02189
▁lang	-8.02727
or	-8.02875
▁ene	-8.03563
▁weg	-8.03963
la	-8.04176
▁of	-8.04224
ünnerscheedliche	-8.04699
▁torüch	-8.05472
the	-8.0564
▁pazifik	-8.05705
▁kummt	-8.06278
re	-8.06403
▁johrhunnert	-8.06618
sten	-8.06733
▁water	-8.07011
▁ge	-8.07532
au	-8.08006
▁f	-8.08163
▁geev	-8.08171
se	-8.08907
ö	-8.08973
▁dormit	-8.09562
▁bekannt	-8.09715
ä	-8.10421
schen	-8.1068
▁bo	-8.10684
u	-8.12109
▁landkreis	-8.12656
▁c	-8.12669
ia	-8.13216
ta	-8.13238
▁†	-8.13352
▁(1	-8.13477
isch	-8.13565
▁faken	-8.13733
mann	-8.13974
eert	-8.14091
▁speel	-8.14246
bi	-8.14861
▁mai	-8.1533
▁t	-8.1565
ul	-8.1594
3	-8.15959
▁p	-8.17388
▁januar	-8.17771
▁bispeel	-8.18303
▁düütschland	-8.18886
6	-8.18909
man	-8.19148
ro	-8.19159
▁veer	-8.19229
ie	-8.20841
op	-8.21186
▁the	-8.21208
▁amt	-8.21542
8	-8.21684
7	-8.21798
▁geiht	-8.21825
=5	-8.22536
▁2.	-8.2256
‘	-8.23097
▁i	-8.23218
ck	-8.23237
un	-8.25364
▁ha	-8.25816
▁grote	-8.25909
▁twüschen	-8.26109
▁rut	-8.27415
ven	-8.27689
▁kregen	-8.27712
▁tosamen	-8.28259
il	-8.28302
▁anner	-8.28433
ger	-8.28482
ton	-8.28849
▁speelt	-8.28882
▁juli	-8.29026
▁w	-8.29476
▁for	-8.29503
son	-8.29518
▁doot	-8.29609
▁geven	-8.29796
▁chr	-8.30432
th	-8.30457
ka	-8.30493
▁dorto	-8.30674
▁wiel	-8.30874
▁kamen	-8.30976
▁o	-8.31378
▁allen	-8.31459
▁düütsch	-8.31485
▁märz	-8.31824
et	-8.32133
▁4	-8.32627
▁bannig	-8.33102
▁unner	-8.33261
▁binnen	-8.33319
▁dezember	-8.3353
3"	-8.33877
▁wiest	-8.35131
▁l	-8.35258
▁hüm	-8.35289
▁free	-8.35415
▁sülvst	-8.35443
x	-8.36257
▁egen	-8.37261
▁toeerst	-8.37323
▁kreeg	-8.37421
▁e	-8.37507
gel	-8.37968
▁ra	-8.38676
▁august	-8.38713
as	-8.38719
▁see	-8.38835
▁er	-8.3895
▁dorüm	-8.3929
▁grund	-8.39434
ok	-8.39622
li	-8.39623
8"	-8.39672
▁woll	-8.40353
▁september	-8.4058
▁dood	-8.40634
▁kunn	-8.40958
▁november	-8.41127
▁vunwegen	-8.41146
▁steiht	-8.41248
go	-8.41396
▁februar	-8.41592
▁welt	-8.41649
ko	-8.4174
me	-8.41837
ag	-8.41872
no	-8.41902
▁krieg	-8.41991
▁maken	-8.42327
▁sehn	-8.43268
▁hen	-8.43731
▁le	-8.43793
1"	-8.44189
▁oktober	-8.44218
▁5	-8.44337
os	-8.44419
1	-8.44744
▁ween	-8.44756
af	-8.44845
▁mal	-8.44911
ek	-8.45004
di	-8.45051
▁ganz	-8.45057
ium	-8.45115
▁die	-8.45255
▁ar	-8.45888
▁anfang	-8.46307
▁tied	-8.46692
em	-8.46817
ba	-8.47058
▁künnt	-8.47266
ot	-8.47303
▁beiden	-8.47561
▁heet	-8.47621
ü	-8.47958
▁düütsche	-8.47974
ad	-8.47997
▁partei	-8.48046
▁april	-8.4879
j	-8.48809
9"	-8.4885
▁dag	-8.48946
▁tohopen	-8.48995
▁jemehr	-8.4919
9	-8.49218
2"	-8.49485
▁jümmer	-8.49552
at	-8.49926
▁noorden	-8.50218
ho	-8.50365
co	-8.50493
▁kinner	-8.50573
6"	-8.50754
▁ro	-8.50766
▁schall	-8.50784
▁nömmt	-8.51064
mo	-8.51237
▁wesen	-8.51698
▁stood	-8.51916
ir	-8.51992
▁oosten	-8.52048
▁noord	-8.52234
▁("	-8.52308
he	-8.52437
▁10	-8.52852
▁bremen	-8.53351
vi	-8.53377
▁3.	-8.53448
▁wieter	-8.53655
▁li	-8.53901
ik	-8.54007
ber	-8.54843
▁kark	-8.54983
▁könig	-8.55589
kark	-8.55614
ine	-8.55721
▁der	-8.55927
▁söhn	-8.55978
hr	-8.56223
ien	-8.56261
ler	-8.56558
ster	-8.56765
▁jem	-8.56773
▁seggt	-8.57029
▁juni	-8.57366
am	-8.57473
cht	-8.5753
▁du	-8.57685
ca	-8.58141
mer	-8.58156
▁süden	-8.58167
▁new	-8.58422
▁huus	-8.58821
▁dr	-8.58897
ff	-8.58897
▁achter	-8.59214
▁westen	-8.59282
▁do	-8.59728
eeren	-8.59821
▁pa	-8.59848
ol	-8.59874
▁school	-8.59928
7"	-8.59981
▁4.	-8.60219
4"	-8.6022
▁19.	-8.60229
ve	-8.60408
é	-8.60471
▁meist	-8.60486
▁wunnen	-8.6064
▁leevt	-8.60737
lo	-8.60771
▁me	-8.60966
▁dörp	-8.61269
dörp	-8.61391
▁su	-8.62016
ga	-8.62073
▁billt	-8.62103
▁titel	-8.62296
▁güng	-8.62387
▁6	-8.62545
ren	-8.62964
ll	-8.63107
▁maand	-8.63192
▁rull	-8.63217
▁ho	-8.6351
▁vele	-8.63664
▁hooch	-8.63875
ert	-8.6436
▁düütschen	-8.6451
▁riek	-8.64573
ige	-8.64768
pen	-8.64951
▁ahn	-8.6498
tiet	-8.65038
▁ruchweg	-8.65548
▁musik	-8.6565
▁sa	-8.65657
we	-8.65721
▁goot	-8.65915
▁ma	-8.65946
ry	-8.66018
zi	-8.6627
ör	-8.6628
▁vi	-8.66554
ische	-8.66824
▁lütt	-8.66966
▁form	-8.67134
▁hamborg	-8.67456
da	-8.67535
▁reeg	-8.6758
si	-8.68002
▁17.	-8.68087
up	-8.68112
▁hier	-8.68154
sp	-8.68243
|	-8.68329
▁oost	-8.68397
▁eer	-8.6851
▁16.	-8.68554
▁groten	-8.68726
▁2006	-8.68733
▁15.	-8.68972
▁europa	-8.69094
her	-8.69248
▁pro	-8.6948
huus	-8.70175
▁weltkrieg	-8.70346
▁west	-8.70466
▁no	-8.70817
▁di	-8.70864
▁nöömt	-8.70947
atschoon	-8.71046
ti	-8.71317
tz	-8.7143
▁samtgemeen	-8.71535
▁weren	-8.71636
▁co	-8.71723
▁2004	-8.71952
]]	-8.7229
ha	-8.72308
mm	-8.72448
▁bar	-8.72624
▁neddersassen	-8.72927
id	-8.72952
▁h	-8.73215
ist	-8.74005
▁will	-8.74014
wa	-8.74327
▁fro	-8.74465
ell	-8.7447
ben	-8.74488
igen	-8.74508
gahn	-8.74656
▁5.	-8.74665
▁dorvun	-8.74751
▁ko	-8.74837
▁wurrd	-8.75209
▁blood	-8.75315
ungen	-8.75609
▁gau	-8.75667
▁jüst	-8.75674
.000	-8.75832
om	-8.75851
▁wapen	-8.76038
▁wark	-8.76047
ze	-8.76283
▁kultur	-8.7659
je	-8.76632
sa	-8.7667
▁20.	-8.76707
do	-8.77071
ard	-8.77112
▁u	-8.7716
▁mar	-8.77303
ph	-8.77308
▁lu	-8.77453
▁band	-8.77625
ja	-8.77812
–	-8.78001
▁7	-8.7801
men	-8.78085
▁[[	-8.78108
▁ka	-8.78336
▁14.	-8.78735
so	-8.78824
ak	-8.79311
▁also	-8.79461
▁18.	-8.79519
po	-8.79784
▁6.	-8.79988
▁wiet	-8.80142
borg	-8.80201
▁8	-8.80534
▁we	-8.80787
▁mutt	-8.80837
▁platt	-8.81153
pa	-8.81229
rie	-8.81256
▁da	-8.81295
stadt	-8.81506
per	-8.81674
▁familie	-8.81961
▁weert	-8.82079
mar	-8.8213
speel	-8.82165
im	-8.82445
▁18	-8.82563
▁ta	-8.82656
▁schreven	-8.83001
▁po	-8.83085
oort	-8.83163
▁anners	-8.83315
▁platz	-8.83672
ker	-8.84049
▁wi	-8.84462
feld	-8.84604
▁licht	-8.84618
liche	-8.84631
▁barg	-8.84814
5"	-8.84888
▁wull	-8.84916
▁grupp	-8.8499
du	-8.85068
▁berlin	-8.85206
▁john	-8.85339
▁dorför	-8.85498
see	-8.85623
▁hööft	-8.85672
end	-8.85831
ed	-8.86408
▁bloß	-8.86495
pe	-8.86593
“.	-8.8671
▁dicht	-8.86772
ius	-8.86826
▁jazz	-8.86838
▁lüde	-8.87052
▁gröttste	-8.87232
▁15	-8.87292
▁13.	-8.87306
mal	-8.87402
ismus	-8.87437
▁york	-8.87474
▁fröher	-8.87491
▁lo	-8.87803
▁laten	-8.87899
dag	-8.87914
▁pi	-8.87966
▁tomeist	-8.87968
▁ole	-8.88042
▁gahn	-8.88199
▁wie	-8.88383
▁8.	-8.88624
▁dö	-8.88646
dal	-8.88774
▁ünnerscheedlich	-8.88929
▁pe	-8.89079
▁nix	-8.89194
20	-8.89456
▁7.	-8.89642
▁ca	-8.89749
▁ru	-8.89935
▁spood	-8.90127
gg	-8.90243
▁9.	-8.90365
▁dit	-8.90415
kel	-8.90425
recht	-8.90801
▁süüd	-8.91069
▁poor	-8.91092
▁2005	-8.9132
▁föhrt	-8.91452
ht	-8.91549
▁middel	-8.91685
▁bedüden	-8.91814
kt	-8.91828
▁fast	-8.9187
va	-8.91987
fall	-8.92482
mp	-8.92745
▁fa	-8.92979
▁sünn	-8.93137
ß	-8.93368
▁12	-8.93369
▁staat	-8.93717
bu	-8.93744
▁völ	-8.93865
▁tosommen	-8.9398
mi	-8.94028
▁10.	-8.94163
▁opdeckt	-8.94425
▁geld	-8.94652
“)	-8.94704
wi	-8.94742
del	-8.94783
ri	-8.94883
▁los	-8.94888
dat	-8.95153
ly	-8.95398
▁20	-8.95414
▁11.	-8.95979
tor	-8.96174
är	-8.96396
▁acht	-8.96477
dt	-8.96565
▁sett	-8.96604
▁doch	-8.96651
▁boot	-8.96675
▁dorna	-8.9675
▁hebben	-8.96754
ow	-8.96833
teken	-8.96908
hollen	-8.97182
▁am	-8.97464
▁kilometer	-8.97534
▁geografie	-8.97565
▁norwegen	-8.97834
schoon	-8.98006
mol	-8.98022
lu	-8.98198
▁lütte	-8.98243
ic	-8.98281
▁sünners	-8.98295
▁ehre	-8.98587
▁liddmaat	-8.98641
▁vundaag	-8.99049
▁spraken	-8.99153
▁go	-8.99632
riek	-8.99639
▁ri	-9.00006
heit	-9.0008
ier	-9.0023
wark	-9.00817
film	-9.00878
▁gemeend	-9.01038
“,	-9.01278
▁16	-9.01315
▁12.	-9.01335
ci	-9.01444
hen	-9.01458
tel	-9.0152
▁funnen	-9.0154
ley	-9.01813
▁9	-9.01951
▁mi	-9.01968
ich	-9.01998
▁2007	-9.02039
schop	-9.02173
▁kon	-9.02258
ce	-9.02423
▁ja	-9.02443
▁frankriek	-9.02491
▁sp	-9.02622
isten	-9.02678
▁11	-9.02833
▁verscheden	-9.02869
0"	-9.03677
barg	-9.03947
▁ganze	-9.03995
▁steen	-9.04051
les	-9.04116
▁söss	-9.0423
▁jo	-9.04467
▁stellt	-9.0452
deel	-9.04544
pi	-9.04579
berg	-9.04683
sel	-9.04763
▁blangen	-9.04813
▁book	-9.04857
keit	-9.05007
▁wieder	-9.05036
▁eiland	-9.05099
system	-9.05317
woneem	-9.05784
die	-9.05831
▁kaiser	-9.05894
lt	-9.05987
ssen	-9.06136
▁spelen	-9.0623
▁gellt	-9.0631
▁wählt	-9.06473
weg	-9.06474
▁gung	-9.06732
gt	-9.0678
▁plattdüütsche	-9.06814
▁teemlich	-9.06969
▁mo	-9.07045
▁scholen	-9.07382
▁grenz	-9.0739
▁künn	-9.07536
▁karken	-9.07623
▁dar	-9.07801
▁14	-9.07801
▁länner	-9.07996
tro	-9.08785
▁internatschonal	-9.08882
▁woort	-9.08949
▁sweden	-9.092
gang	-9.09298
eren	-9.09575
tig	-9.09636
ion	-9.09649
ach	-9.09707
fe	-9.09756
grupp	-9.09809
ischen	-9.09934
kamen	-9.09947
▁offiziell	-9.10016
▁dissen	-9.10294
▁kunst	-9.10323
▁politik	-9.10585
▁paris	-9.10659
wer	-9.1069
spraak	-9.10702
▁tall	-9.10703
▁paul	-9.1072
sk	-9.10884
▁2008	-9.11064
▁natschonal	-9.11167
▁ii	-9.11332
▁or	-9.11605
▁beid	-9.11887
bb	-9.12116
pp	-9.12128
▁over	-9.12169
pries	-9.12446
pel	-9.12602
hl	-9.12604
▁kort	-9.12765
gi	-9.12905
▁ste	-9.13075
▁ke	-9.13194
▁meest	-9.13396
▁luft	-9.13399
▁hüüt	-9.1342
schap	-9.13448
fer	-9.13674
▁13	-9.13754
bahn	-9.13817
▁insett	-9.13934
ft	-9.14434
io	-9.14958
▁good	-9.15116
▁ga	-9.15301
▁eegen	-9.1563
kommun	-9.15769
▁wa	-9.15855
="13	-9.15865
▁hööftstadt	-9.16183
▁böver	-9.16262
▁millionen	-9.16468
▁hu	-9.16469
che	-9.16471
▁1990	-9.16611
▁100	-9.16812
▁1970	-9.16821
eg	-9.16893
zen	-9.17151
▁städer	-9.17351
▁dornah	-9.17511
▁meter	-9.17531
▁mann	-9.17599
ant	-9.176
dd	-9.1763
ep	-9.17783
▁bild	-9.17883
▁rom	-9.17946
ation	-9.18059
nahmen	-9.18091
▁geschicht	-9.18116
▁präsident	-9.18129
▁z	-9.18287
▁wunn	-9.18646
school	-9.18691
▁21.	-9.18791
▁lett	-9.19
res	-9.19124
▁vor	-9.19165
▁daag	-9.1917
ale	-9.19304
="14	-9.19342
vör	-9.19407
chen	-9.19429
▁recht	-9.19433
sett	-9.19439
tsch	-9.19461
▁fall	-9.19463
▁schriever	-9.19555
▁gröttsten	-9.19565
ham	-9.19579
▁karl	-9.19838
▁ab	-9.19843
amp	-9.20042
▁weertschop	-9.20211
19	-9.20267
▁bu	-9.2046
▁cuxhoben	-9.2067
▁1972	-9.20748
tra	-9.20886
ku	-9.2091
war	-9.21014
▁beten	-9.21051
ling	-9.21111
steen	-9.21174
geven	-9.21233
▁si	-9.2134
▁j	-9.21395
rü	-9.216
bor	-9.21812
nehmen	-9.21912
▁besteiht	-9.22011
▁har	-9.22016
▁ein	-9.22047
vel	-9.22365
vun	-9.22468
min	-9.22534
ologie	-9.22712
ina	-9.22756
▁finnen	-9.22764
▁verkehr	-9.22849
lin	-9.22998
▁1960	-9.23063
▁17	-9.23146
▁gor	-9.23158
all	-9.23162
mit	-9.23506
▁hand	-9.23531
iv	-9.2361
▁ni	-9.23796
="11	-9.23868
▁ju	-9.2403
und	-9.24055
▁and	-9.24154
▁ti	-9.24294
delen	-9.24419
▁ba	-9.24435
="15	-9.24458
="12	-9.24604
gu	-9.24672
▁mehrere	-9.24699
holt	-9.24817
▁tweeten	-9.24957
▁2006)	-9.2511
▁mu	-9.25154
▁gi	-9.25236
ppen	-9.25399
bel	-9.25467
▁ehren	-9.25556
▁kiek	-9.25581
▁tüschen	-9.25607
▁verbinnen	-9.2581
▁nau	-9.25832
stoff	-9.26006
ana	-9.26028
▁2009	-9.26164
▁el	-9.26277
▁löppt	-9.26282
nes	-9.26403
▁allerhand	-9.26616
bar	-9.26724
jo	-9.26764
dom	-9.26777
▁scholl	-9.26798
lichen	-9.26838
los	-9.26916
▁sport	-9.26927
▁1980	-9.2712
heim	-9.27212
▁begreep	-9.27292
ki	-9.27311
▁hüdigendags	-9.2741
dig	-9.2744
▁22.	-9.27444
▁wenig	-9.27451
▁makt	-9.27478
▁fe	-9.27547
uk	-9.2765
len	-9.27677
▁vadder	-9.27715
▁vereen	-9.27857
▁schauspeler	-9.27904
▁best	-9.27951
od	-9.27969
ni	-9.27994
tall	-9.27996
▁eenige	-9.28016
ud	-9.28104
▁tellt	-9.28277
▁düchtig	-9.2833
▁energie	-9.2837
sta	-9.2862
▁im	-9.28675
▁kriegen	-9.28682
▁bunds	-9.28742
▁hart	-9.28783
fl	-9.28853
▁sunnerlich	-9.28878
▁johann	-9.29054
▁auto	-9.29257
dr	-9.29317
▁moor	-9.29465
▁bra	-9.29604
▁religion	-9.2971
rebeet	-9.29807
22	-9.29825
▁druck	-9.29925
tied	-9.29938
▁dormols	-9.30075
▁cha	-9.30099
lö	-9.30112
weert	-9.30419
▁autobahn	-9.30459
▁23.	-9.30507
▁plattdüütsch	-9.30674
öög	-9.30717
▁meisten	-9.30725
▁natur	-9.30758
▁r	-9.3082
▁bre	-9.30863
▁1974	-9.30981
aal	-9.31067
▁filmen	-9.31211
▁(„	-9.31247
▁speelbaas	-9.31612
▁nadem	-9.31703
▁fi	-9.31728
▁dochter	-9.31785
▁bahn	-9.31824
32	-9.31926
ill	-9.32019
richt	-9.32202
ac	-9.32208
▁butendem	-9.3226
▁tweete	-9.32275
amerikaansch	-9.32287
▁sogor	-9.32358
▁gold	-9.3237
▁ex	-9.32462
▁sund	-9.32524
(	-9.32591
▁steed	-9.32614
▁31.	-9.3268
▁peter	-9.32844
▁lü	-9.32892
form	-9.33002
ap	-9.33023
▁per	-9.33035
pt	-9.3304
by	-9.33062
▁gott	-9.3315
▁eerd	-9.33199
▁theater	-9.33244
iz	-9.33313
krieg	-9.33357
▁nehm	-9.33422
hu	-9.33477
▁nedderlannen	-9.33521
stellt	-9.33599
▁vörher	-9.33789
200	-9.34174
▁rein	-9.34179
ab	-9.34269
▁gas	-9.34625
▁teken	-9.34828
ian	-9.34984
▁lehr	-9.34989
mark	-9.35037
▁süüdwesten	-9.35116
ität	-9.35149
▁just	-9.35203
▁storven	-9.35228
ere	-9.3532
▁london	-9.35356
▁ve	-9.35375
▁franzöösch	-9.35407
▁ruum	-9.35574
▁steern	-9.3569
▁evangeelsch	-9.35754
▁te	-9.35896
▁liekers	-9.35924
▁tostännig	-9.36012
▁dordör	-9.36093
ev	-9.36259
86	-9.36466
▁deep	-9.36623
▁volks	-9.36849
ott	-9.36851
▁tra	-9.36959
▁mor	-9.37014
bild	-9.37077
▁süüdoosten	-9.37092
dy	-9.3723
▁wahl	-9.37289
▁leev	-9.37321
bert	-9.37322
▁noordoosten	-9.37362
hi	-9.37456
▁stroom	-9.37536
ass	-9.37549
ah	-9.37609
▁bahnhoff	-9.37775
est	-9.37861
▁2010	-9.37863
▁lief	-9.37865
▁tri	-9.37961
▁fung	-9.37985
ring	-9.37986
fa	-9.38008
▁fo	-9.38033
▁fre	-9.38088
▁mööglich	-9.38168
▁verschedene	-9.38201
▁gro	-9.38561
ju	-9.38573
▁besünners	-9.38582
cken	-9.38587
▁gu	-9.38704
▁moder	-9.38766
orden	-9.38836
▁staht	-9.39008
▁region	-9.39046
spelen	-9.39111
mon	-9.39126
egen	-9.39186
maken	-9.39302
▁2003	-9.39499
▁schipp	-9.39577
▁öller	-9.39593
="17	-9.39699
▁provinz	-9.39712
▁warken	-9.39788
▁noordwesten	-9.39814
satz	-9.39864
▁pu	-9.39925
▁ehrn	-9.39979
ür	-9.40202
husen	-9.40207
▁28.	-9.40208
rä	-9.40237
▁finnt	-9.40239
▁blot	-9.40425
▁könnt	-9.40517
▁dorgegen	-9.40565
▁system	-9.40794
▁2011	-9.40946
▁vers	-9.41047
▁alltohoop	-9.41076
▁was	-9.41177
▁holt	-9.41222
▁roman	-9.41223
▁24.	-9.4127
arbeit	-9.41339
bau	-9.41449
▁eh	-9.41546
á	-9.41616
37	-9.41623
39	-9.41645
▁kap	-9.41753
00	-9.41794
▁mc	-9.41796
▁bleev	-9.41807
▁wietere	-9.41901
su	-9.42064
middel	-9.42077
▁fief	-9.42153
ron	-9.42163
▁bremervöör	-9.42203
▁wohrschienlich	-9.42318
water	-9.42319
naam	-9.42328
▁direkt	-9.42348
rk	-9.42353
▁stark	-9.42359
rat	-9.42366
tten	-9.42467
tu	-9.4247
▁kar	-9.42513
▁italien	-9.42526
▁utteken	-9.42585
▁25.	-9.4274
nanner	-9.42747
▁macht	-9.42875
▁wöör	-9.4301
ün	-9.43086
▁kien	-9.43179
▁karn	-9.43182
burg	-9.43312
▁27.	-9.43347
="16	-9.43401
▁tegen	-9.43572
▁gra	-9.43612
82	-9.43626
aten	-9.43717
▁striet	-9.43717
▁baas	-9.43745
▁düütlich	-9.43952
meester	-9.44221
▁2001	-9.44295
wies	-9.44429
leggt	-9.4444
▁beter	-9.4444
▁30	-9.44613
▁ber	-9.44635
▁anfungen	-9.44643
nis	-9.44794
▁witt	-9.44809
▁ran	-9.44818
ett	-9.44828
▁maanden	-9.44865
46	-9.45006
ru	-9.45063
▁fiev	-9.4509
▁oolt	-9.45139
▁avers	-9.45248
▁königriek	-9.45255
schonen	-9.45346
▁winnen	-9.45437
▁min	-9.4549
mu	-9.45559
21	-9.45592
="10	-9.45605
▁50	-9.45606
▁robert	-9.45687
▁1945	-9.45692
kreis	-9.45783
tion	-9.45806
ug	-9.45851
▁immer	-9.46013
▁2002	-9.46017
▁ännert	-9.46118
▁bur	-9.46155
igkeit	-9.46174
slag	-9.46311
straat	-9.46391
maakt	-9.46417
▁wies	-9.46437
▁hans	-9.46513
▁wobi	-9.46574
▁rin	-9.46589
▁album	-9.46873
geschicht	-9.46937
▁ben	-9.47043
elle	-9.47259
▁nahdem	-9.4734
▁26.	-9.47653
▁lange	-9.47655
=10	-9.47656
nd	-9.47734
▁opletzt	-9.4774
lang	-9.47803
▁bröcht	-9.47807
▁fröh	-9.47842
▁blie	-9.47882
▁verscheeden	-9.47891
av	-9.48032
▁hollen	-9.48038
▁präägt	-9.4804
▁vertellt	-9.48054
▁1950	-9.48067
que	-9.4811
▁eenfach	-9.4827
▁stamm	-9.48304
iden	-9.48437
▁beteken	-9.48439
▁pl	-9.48595
▁stück	-9.48677
▁düt	-9.48834
▁sünnere	-9.48973
hm	-9.49141
▁jede	-9.49154
▁richt	-9.4926
▁neben	-9.49347
▁verbunnen	-9.49423
cker	-9.49547
ünner	-9.49554
▁kümmt	-9.49557
▁doon	-9.49684
▁sta	-9.49714
fin	-9.4972
23	-9.49888
▁versöcht	-9.49906
tri	-9.5
▁johre	-9.50001
vo	-9.50109
▁wind	-9.50125
▁mark	-9.50139
maand	-9.50169
▁hi	-9.5021
▁tostannen	-9.50528
▁öörd	-9.50531
▁politiker	-9.50599
▁1885	-9.50645
öl	-9.50792
rö	-9.50799
▁stünn	-9.50817
fi	-9.50909
▁ki	-9.50961
pl	-9.51002
▁30.	-9.51142
raat	-9.51192
▁nord	-9.51195
ty	-9.51256
▁meent	-9.51302
%	-9.51378
▁apen	-9.51534
▁top	-9.51617
▁leed	-9.51674
kla	-9.51705
setten	-9.51719
▁schach	-9.51747
▁con	-9.5175
47	-9.51861
▁harrt	-9.51956
laten	-9.52057
▁neeg	-9.52194
▁friedrich	-9.522
▁men	-9.52296
yl	-9.52378
tin	-9.52403
26	-9.52407
hoff	-9.52448
▁rüm	-9.52544
▁football	-9.52547
amt	-9.52579
▁saken	-9.52581
pro	-9.52643
▁kriggt	-9.52653
▁rodenborg	-9.52659
▁hö	-9.52665
▁0	-9.527
▁car	-9.52711
▁gröttere	-9.52718
wo	-9.52782
▁borg	-9.5279
rad	-9.52803
▁ofschoons	-9.52828
▁lands	-9.52866
▁arm	-9.52999
▁börgermeester	-9.5302
rich	-9.53144
▁england	-9.53155
▁teihn	-9.53253
siet	-9.53284
▁nie	-9.53334
ub	-9.53365
▁pries	-9.53421
nee	-9.53461
▁biller	-9.53472
▁ku	-9.53499
▁baven	-9.53543
treden	-9.53564
ord	-9.53568
▁vader	-9.53575
▁franzöösche	-9.53587
▁sand	-9.53615
tik	-9.53631
▁ö	-9.53723
▁schüll	-9.53766
▁muss	-9.53806
▁düssen	-9.53823
▁tu	-9.5383
▁gliek	-9.53839
ó	-9.5392
reeg	-9.5393
west	-9.54153
▁konn	-9.5427
log	-9.54344
▁sinn	-9.54493
▁lütten	-9.54689
lien	-9.54773
▁klass	-9.54795
ø	-9.54811
dor	-9.54871
ding	-9.5491
▁40	-9.54935
even	-9.54941
ef	-9.54946
▁staats	-9.55116
▁eenig	-9.55149
▁pre	-9.55251
▁au	-9.55255
▁29.	-9.55273
▁entstahn	-9.55368
▁san	-9.55408
▁inföhrt	-9.55415
punkt	-9.55422
▁gar	-9.55588
▁1932	-9.5572
▁ring	-9.55815
ang	-9.56034
ica	-9.56057
▁scha	-9.56102
▁bleven	-9.56162
moor	-9.56164
itz	-9.56261
brook	-9.5627
▁seggen	-9.56323
▁hoff	-9.56392
▁kaspel	-9.5652
▁1998	-9.56546
ville	-9.56659
▁°	-9.56753
▁kaamt	-9.56788
▁at	-9.57047
▁zu	-9.57171
gr	-9.57189
▁straat	-9.57275
▁suerstoff	-9.57324
rit	-9.57398
▁tour	-9.5743
▁nicht	-9.57462
▁1994	-9.57524
ys	-9.57539
▁wichtig	-9.57559
laag	-9.57571
old	-9.57597
beck	-9.57606
▁börger	-9.57616
▁farv	-9.57675
▁vull	-9.57751
if	-9.57896
ip	-9.57914
▁tohoop	-9.58006
▁twuschen	-9.58151
▁1977	-9.58181
▁pass	-9.5822
▁leeg	-9.58232
▁wiels	-9.58261
▁korte	-9.5849
speler	-9.58605
▁sieg	-9.58634
▁rutkamen	-9.58693
▁planten	-9.58754
▁help	-9.58786
▁0,02	-9.58851
▁cor	-9.58892
▁aktiv	-9.5894
▁bestimmt	-9.58987
▁insel	-9.59086
▁element	-9.59122
▁stoff	-9.59323
▁jesus	-9.59332
vers	-9.59375
▁kört	-9.59496
▁25	-9.59594
▁1991	-9.59691
stück	-9.5972
▁wor	-9.59768
▁tohöört	-9.59819
▁familiennaam	-9.59832
▁temperatur	-9.59992
▁war	-9.60007
▁literatur	-9.60033
kon	-9.60035
▁alleen	-9.60246
▁lin	-9.60255
par	-9.6029
▁star	-9.60295
▁gaht	-9.6033
▁ober	-9.60388
▁rad	-9.6057
stellen	-9.6061
▁plattdüütschen	-9.60662
▁tweet	-9.60762
▁letzte	-9.60859
▁george	-9.61057
▁wien	-9.61119
akt	-9.61189
▁drapen	-9.61362
ood	-9.61485
drag	-9.61526
▁richtig	-9.61651
eck	-9.61734
▁beide	-9.61751
▁wilhelm	-9.61773
val	-9.61788
ny	-9.61829
tisch	-9.61835
▁lüttje	-9.6195
reken	-9.62061
▁old	-9.62079
▁es	-9.62214
▁minsch	-9.62283
▁0,8	-9.62291
oor	-9.62417
▁feld	-9.62488
▁ger	-9.62488
▁grenzt	-9.62519
amerikaanschen	-9.6252
▁britisch	-9.62591
="18	-9.62601
▁ost	-9.62634
▁jahr	-9.62687
enanner	-9.62839
▁swoor	-9.62914
▁art	-9.62918
í	-9.63093
one	-9.63105
han	-9.63119
▁höör	-9.63121
▁begäng	-9.63144
▁kritik	-9.63233
▁red	-9.63256
▁kor	-9.63307
llen	-9.63315
▁lehn	-9.63473
lü	-9.63576
band	-9.63819
▁krüüz	-9.63828
eree	-9.63854
mb	-9.64048
25	-9.64123
▁vörsitter	-9.64168
and	-9.64265
▁grötter	-9.64385
kan	-9.64455
▁bruuk	-9.64462
▁jupiter	-9.64497
▁egenschoppen	-9.64516
▁hall	-9.64563
▁eu	-9.64567
▁gen	-9.64625
mat	-9.64727
▁liddmaten	-9.64744
formula	-9.64794
▁studeert	-9.6484
tur	-9.64857
▁list	-9.6488
▁1996	-9.64886
ix	-9.64904
oost	-9.64935
▁richard	-9.65033
▁folg	-9.65059
▁olen	-9.65127
steed	-9.65311
ros	-9.65312
▁spd	-9.65376
▁1992	-9.65421
▁gö	-9.65511
="19	-9.65524
▁grootbritannien	-9.65572
36	-9.65636
▁mer	-9.65636
▁midden	-9.6573
▁naams	-9.65935
ay	-9.65958
▁jummers	-9.66107
▁hüüd	-9.66209
▁dröff	-9.66296
▁mudder	-9.66299
druck	-9.66315
▁planeten	-9.66328
▁greeksche	-9.66438
▁vergeven	-9.66448
▁münchen	-9.66468
▁militär	-9.66499
ator	-9.66505
▁volk	-9.66602
oh	-9.66668
üm	-9.66678
▁nipp	-9.66678
cher	-9.66691
▁sal	-9.66702
gas	-9.66708
▁cdu	-9.66725
▁bito	-9.66885
▁flach	-9.66923
sdörp	-9.66933
ment	-9.66981
chi	-9.67013
▁heimat	-9.67017
▁half	-9.67023
▁kemen	-9.67047
▁sassen	-9.67239
▁laat	-9.6728
▁ook	-9.67286
▁ad	-9.67329
gra	-9.6733
luthersch	-9.67376
▁straten	-9.67425
▁bas	-9.67447
▁hoge	-9.67557
zo	-9.67624
port	-9.67634
ps	-9.67671
dra	-9.67813
boot	-9.67844
tal	-9.67863
▁dorünner	-9.67955
▁rund	-9.67999
▁feernseh	-9.68027
platz	-9.68046
▁university	-9.68107
▁wessel	-9.68304
▁jan	-9.68353
▁city	-9.68487
▁kamt	-9.68505
▁negen	-9.68559
▁hemm	-9.68602
▁dreiht	-9.68682
▁0,01	-9.687
▁republiek	-9.687
▁russland	-9.68707
schon	-9.68728
loop	-9.68729
▁gre	-9.68734
24	-9.68951
▁für	-9.69061
▁jung	-9.691
▁metall	-9.69174
anz	-9.69231
▁müss	-9.6936
▁iesen	-9.69385
föhrt	-9.69394
▁elementen	-9.69488
ford	-9.69498
▁rest	-9.69541
▁geest	-9.69556
▁gesett	-9.69558
ble	-9.69597
▁astronom	-9.69747
▁afstand	-9.69789
▁'	-9.69851
▁pla	-9.6986
stein	-9.69928
▁1969	-9.69995
rr	-9.70031
har	-9.70064
▁ball	-9.70125
▁y	-9.70127
▁1995	-9.70173
▁uttekent	-9.70218
▁met	-9.70238
ex	-9.70248
ya	-9.70301
eten	-9.70319
▁oostfreesland	-9.70347
▁ak	-9.70374
lä	-9.70381
brügg	-9.70428
▁0,03	-9.70528
verband	-9.70659
▁bargt	-9.70709
lager	-9.70711
▁bü	-9.70777
iseert	-9.70862
▁allgemeen	-9.70957
▁kriegs	-9.70978
08	-9.71017
▁infrastruktur	-9.7109
▁masse	-9.71113
gh	-9.71115
▁1999	-9.71131
hy	-9.7126
hang	-9.71319
▁1968	-9.71319
iten	-9.71374
▁markt	-9.71449
▁et	-9.71525
▁inholt	-9.71533
▁dorstellt	-9.71536
nahm	-9.71656
▁schreev	-9.71659
▁verloren	-9.7169
▁weniger	-9.7177
▁cheemsch	-9.71822
ou	-9.72151
xi	-9.72181
ng	-9.72214
▁allens	-9.72226
▁statt	-9.72237
▁th	-9.72268
▁franz	-9.72445
▁karriere	-9.72471
ari	-9.7248
0.000	-9.72481
▁schölers	-9.72596
▁&	-9.72689
las	-9.72724
▁mag	-9.7273
beek	-9.72773
ib	-9.72798
▁däänmark	-9.72807
ruum	-9.7287
▁böverflach	-9.72981
herr	-9.73022
▁stell	-9.73036
▁bedreven	-9.73037
free	-9.73093
▁liek	-9.73105
▁euro	-9.73177
mel	-9.73281
brocht	-9.73359
över	-9.73381
▁loopbahn	-9.73481
▁grünnen	-9.73559
51	-9.73564
▁verdrag	-9.73683
els	-9.73738
▁ies	-9.73892
▁steerns	-9.73896
▁ankeken	-9.73916
föhren	-9.74101
▁fl	-9.74155
trecken	-9.74179
nie	-9.74218
▁1963	-9.74392
▁vörkamen	-9.74398
▁dal	-9.74451
="20	-9.74512
raad	-9.74585
▁industrie	-9.74713
▁lee	-9.74779
rt	-9.7481
kl	-9.74875
▁raat	-9.74904
ick	-9.74945
staat	-9.74946
▁heinrich	-9.7498
fang	-9.75117
▁dä	-9.75265
onen	-9.75277
bro	-9.75296
▁stil	-9.7532
▁nahmen	-9.75345
lie	-9.75443
▁andeel	-9.75456
bund	-9.75468
▁bringen	-9.75473
▁bremer	-9.7557
atschonen	-9.75629
▁60	-9.75703
▁domään	-9.75708
▁etwa	-9.75757
▁1993	-9.75773
alis	-9.76003
wen	-9.76041
ionen	-9.76062
▁parlament	-9.76158
▁paar	-9.76165
▁dokter	-9.76399
▁elv	-9.76494
▁ph	-9.76528
▁1940	-9.7654
▁hannel	-9.7655
▁1989	-9.76574
art	-9.76598
▁anti	-9.76746
domään	-9.76748
▁öber	-9.76802
_	-9.76829
▁fle	-9.76867
▁wer	-9.76871
▁nächste	-9.76875
▁hal	-9.76881
▁1986	-9.76973
▁röömsche	-9.77065
don	-9.77082
▁hü	-9.77172
reg	-9.77322
▁beropen	-9.77388
▁martin	-9.77391
▁entwickelt	-9.77394
elt	-9.77407
▁david	-9.77537
40	-9.77549
▁stra	-9.77732
▁1973	-9.77767
▁1971	-9.77773
ini	-9.77829
]	-9.77926
▁hell	-9.77999
▁bro	-9.78019
▁hitchcock	-9.78144
▁flagg	-9.78269
fohrt	-9.78296
▁1997	-9.78389
änner	-9.78418
warken	-9.78423
▁19	-9.78445
▁delen	-9.78517
▁gemenen	-9.78553
▁ob	-9.78555
ey	-9.78599
ool	-9.78618
▁sy	-9.78841
▁on	-9.78842
za	-9.7885
▁solt	-9.78924
sam	-9.78964
▁james	-9.78972
sport	-9.79055
▁natürlich	-9.79165
▁1976	-9.79211
▁dorop	-9.79215
enz	-9.79232
▁liggen	-9.79438
▁wal	-9.79557
plevel	-9.79577
wand	-9.7963
▁langs	-9.79658
bre	-9.79698
▁ur	-9.79737
▁mannslüüd	-9.79787
▁1978	-9.79832
▁asteroid	-9.79836
▁slacht	-9.79837
ld	-9.79857
▁mus	-9.79864
▁rechts	-9.79974
▁döen	-9.80045
▁ward	-9.80053
▁week	-9.80062
▁minner	-9.80127
musik	-9.80146
09	-9.80148
▁1965	-9.80222
▁1964	-9.80224
▁1962	-9.80232
▁dü	-9.80246
▁landschop	-9.80251
▁grött	-9.80299
▁deelwies	-9.8032
▁par	-9.8036
▁normalerwies	-9.80405
▁uptreden	-9.80428
tern	-9.80447
▁övernahmen	-9.80627
wor	-9.80658
°	-9.80708
▁sull	-9.80719
▁1975	-9.80854
▁1982	-9.80862
▁laag	-9.80892
scha	-9.80925
▁x	-9.80967
ies	-9.81017
stüer	-9.8108
stellung	-9.81131
ino	-9.81153
ööt	-9.81192
▁vörslahn	-9.81338
▁fullen	-9.81363
▁1987	-9.81483
ms	-9.81487
▁carl	-9.81514
▁root	-9.81551
▁armee	-9.81639
▁wohr	-9.81669
="21	-9.8167
q	-9.8181
istisch	-9.81907
▁stahn	-9.81927
▁küst	-9.81993
▁institut	-9.82025
politik	-9.82028
fr	-9.8203
pol	-9.82045
mie	-9.82052
▁1930	-9.82114
pu	-9.82124
▁ed	-9.8213
▁glieke	-9.82258
33	-9.82299
▁fraag	-9.82355
▁öllern	-9.82383
▁ei	-9.82421
▁stimm	-9.82444
▁bru	-9.82608
zentrum	-9.82624
▁weet	-9.82732
▁oold	-9.82754
stre	-9.82774
▁heid	-9.82783
▁möss	-9.82828
deenst	-9.82848
▁schi	-9.82972
folg	-9.82993
▁geern	-9.82998
cke	-9.82998
leven	-9.83002
▁folgen	-9.83014
tan	-9.83079
qui	-9.83132
och	-9.83134
28	-9.83149
").	-9.83163
▁regen	-9.83249
sicht	-9.83346
age	-9.8343
▁kom	-9.83442
▁ol	-9.83522
▁vullstännig	-9.83572
▁1966	-9.83602
▁general	-9.83611
▁ünnerscheed	-9.83676
▁nacht	-9.83697
iker	-9.83707
="22	-9.83751
▁kunnen	-9.83787
lle	-9.83792
zy	-9.83856
▁born	-9.83945
▁letzten	-9.8395
▁sie	-9.83988
dder	-9.84111
▁hannelt	-9.84187
▁sied	-9.84228
▁bezirk	-9.84313
▁russ	-9.84348
▁maria	-9.84399
▁rebeden	-9.84428
▁nödig	-9.84432
gl	-9.84435
▁studeer	-9.84451
ola	-9.84475
▁jümmers	-9.84508
▁private	-9.84549
▁böker	-9.84566
ive	-9.84568
▁georg	-9.8475
kiek	-9.84823
▁fru	-9.84825
▁truppen	-9.84876
▁punkt	-9.84902
dorf	-9.84995
▁mon	-9.8504
▁kol	-9.85056
▁das	-9.85092
-1	-9.8512
▁winter	-9.85139
▁rock	-9.85185
wahl	-9.85268
ide	-9.85277
▁johannes	-9.85395
▁90	-9.85398
book	-9.85411
▁profi	-9.85464
gan	-9.85669
▁1979	-9.85779
▁nedder	-9.85878
▁tau	-9.85883
▁söven	-9.86006
▁chi	-9.86037
▁wall	-9.86061
mes	-9.86075
▁klöör	-9.8612
▁1988	-9.86293
▁seker	-9.86312
mus	-9.86362
▁2012	-9.86406
▁bischop	-9.86422
scheed	-9.86451
▁post	-9.8646
▁dom	-9.86608
▁graf	-9.86609
leg	-9.86629
▁1944	-9.8665
▁bal	-9.86749
holsteen	-9.86765
▁glieks	-9.86816
▁hitler	-9.86851
▁plaan	-9.86855
55	-9.86892
best	-9.86912
bra	-9.86937
▁kind	-9.86995
▁1967	-9.87094
▁wesselt	-9.87186
▁ag	-9.872
lopen	-9.87208
å	-9.87229
▁neemlich	-9.87281
pla	-9.87286
▁verde	-9.87399
▁hä	-9.87471
▁ünnersöken	-9.87601
▁opnahmen	-9.87682
▁aart	-9.87683
rop	-9.87788
▁wester	-9.87846
▁jeden	-9.87886
lagen	-9.87926
▁scott	-9.87958
▁regeeren	-9.87961
breken	-9.87973
richten	-9.8805
öös	-9.88109
▁sein	-9.8821
▁vo	-9.88237
br	-9.88378
wan	-9.88399
▁1949	-9.88435
▁william	-9.88577
41	-9.88683
▁0,9	-9.88735
ris	-9.88865
▁1985	-9.88888
▁anto	-9.89041
▁oscar	-9.89055
og	-9.89067
▁thomas	-9.89076
▁neven	-9.89097
▁schrift	-9.89121
▁iii	-9.89126
▁privat	-9.89177
500	-9.89186
bin	-9.89266
▁sozial	-9.89291
▁neu	-9.893
kamp	-9.894
ai	-9.89516
▁rebeed	-9.8957
▁atom	-9.89619
ei	-9.89641
lat	-9.89646
▁hin	-9.8966
▁nomineert	-9.89758
kar	-9.89772
deelen	-9.89833
▁hüdige	-9.89968
ull	-9.89982
▁kristall	-9.89998
oli	-9.90045
ellen	-9.90087
gar	-9.90146
ong	-9.90198
nehm	-9.90224
haft	-9.90294
fre	-9.90315
rek	-9.90338
▁eenmol	-9.90345
kommen	-9.90419
list	-9.90423
▁fu	-9.90598
▁kur	-9.90661
▁tallriek	-9.90664
▁sülvern	-9.90674
▁hektar	-9.90675
amerikaansche	-9.90729
oll	-9.90729
▁herr	-9.90749
fallen	-9.90821
tschoon	-9.90843
nommen	-9.90865
ani	-9.90868
dre	-9.90918
▁dan	-9.90938
▁sc	-9.90958
▁spoodriek	-9.9102
lee	-9.91109
▁beschreven	-9.91222
▁annahmen	-9.9125
"),	-9.91346
▁tre	-9.91362
▁sto	-9.91373
hard	-9.91449
▁hööch	-9.91468
▁sülver	-9.91469
▁lehrt	-9.91538
▁japan	-9.91609
▁kra	-9.91624
▁michael	-9.91685
klass	-9.91693
car	-9.91754
▁produkschoon	-9.91764
vereen	-9.91774
ara	-9.91785
▁bargen	-9.918
▁weten	-9.91844
▁rand	-9.91851
▁1984	-9.91875
10"	-9.92173
▁tee	-9.9218
▁dialekt	-9.92206
▁besöcht	-9.92221
▁ludwig	-9.92224
▁eenzige	-9.92261
▁waterstoff	-9.92273
aat	-9.92287
wiesen	-9.92301
▁deelken	-9.92317
▁1961	-9.92338
▁1983	-9.92341
▁sam	-9.92345
strahlen	-9.92458
ea	-9.92462
▁hannober	-9.92534
▁98	-9.92552
uß	-9.92634
▁düörpm	-9.92767
schicht	-9.92797
▁grundlaag	-9.928
▁gal	-9.92857
="23	-9.92864
▁öösterriek	-9.92887
▁24	-9.9303
▁gemeensam	-9.93049
uv	-9.93243
oni	-9.93276
▁hard	-9.93298
▁arbeiten	-9.93347
▁medizin	-9.93377
▁brocht	-9.93416
ira	-9.93421
▁blifft	-9.93426
hannel	-9.9352
▁wil	-9.93681
▁künnen	-9.93686
star	-9.93706
zellen	-9.93815
▁geist	-9.93834
▁1956	-9.93997
▁stu	-9.94004
▁my	-9.94039
alen	-9.94084
▁tö	-9.94102
▁letzt	-9.94225
▁olympisch	-9.94226
▁cas	-9.94245
wessel	-9.94289
süür	-9.9429
▁gericht	-9.9441
▁stunn	-9.94474
▁lau	-9.94538
▁1933	-9.94672
▁sk	-9.94703
▁grundschool	-9.94714
norm	-9.94742
▁italieensch	-9.94798
mmen	-9.948
▁dreih	-9.94858
kämp	-9.94884
oxid	-9.9494
▁material	-9.94993
▁geslecht	-9.94997
igt	-9.9506
leggen	-9.95066
▁hanse	-9.95107
▁cr	-9.95187
tha	-9.95347
äl	-9.95388
▁1959	-9.95436
▁künstler	-9.95512
mmel	-9.95563
▁filmpriesen	-9.9563
▁meen	-9.95752
▁glieken	-9.958
15"	-9.9582
▁tennis	-9.95868
▁grundscholen	-9.95877
▁sünner	-9.96019
last	-9.96033
38	-9.96067
▁1920	-9.9613
▁rieks	-9.96141
▁1957	-9.96152
ath	-9.96157
tische	-9.96318
▁kathoolschen	-9.96321
▁bau	-9.96356
▁polizei	-9.96357
gle	-9.96376
ball	-9.96388
▁organ	-9.96401
kum	-9.96421
▁kamp	-9.9647
▁vördem	-9.96482
▁ä	-9.9651
▁afrika	-9.96557
▁hatt	-9.96613
▁herut	-9.96668
▁polen	-9.96692
▁fallt	-9.9675
▁ren	-9.96764
▁jöögd	-9.96845
▁fastleggt	-9.96867
▁gesamt	-9.96935
12"	-9.96985
uch	-9.97033
geb	-9.97045
ax	-9.97079
▁spanien	-9.9709
▁charles	-9.97099
maker	-9.97203
▁kl	-9.97243
▁mission	-9.973
▁wittmund	-9.9734
metall	-9.97341
▁1939	-9.97381
▁22	-9.97485
gemeen	-9.97486
ice	-9.97499
▁ze	-9.97553
▁don	-9.97624
▁entwickeln	-9.97702
nett	-9.97718
&	-9.97733
▁wiesen	-9.97794
▁snacken	-9.97843
of	-9.97883
▁mööt	-9.97885
ance	-9.97887
▁mank	-9.979
▁21	-9.97928
ost	-9.97939
▁park	-9.98012
▁elk	-9.98033
▁0,04	-9.98049
▁kommen	-9.98127
▁sütt	-9.9813
▁upnahmen	-9.98166
hal	-9.98202
▁verloop	-9.98216
▁deenst	-9.98236
schuul	-9.98266
▁joseph	-9.98293
▁fründ	-9.98324
iti	-9.98326
▁cal	-9.9833
gaav	-9.98393
minister	-9.98413
tüüch	-9.98438
▁meester	-9.98637
ika	-9.98651
▁gröön	-9.98691
▁but	-9.9873
rig	-9.98748
▁verfall	-9.98783
som	-9.98788
fro	-9.98817
▁ollnborg	-9.98823
▁wahn	-9.9891
▁alle	-9.99002
▁togliek	-9.99029
38"	-9.99105
bröcht	-9.99142
▁broder	-9.99144
▁max	-9.9915
▁fangt	-9.99176
▁kalifornien	-9.99239
van	-9.99254
programm	-9.99255
häng	-9.99287
▁1981	-9.99364
▁sm	-9.99378
▁tieden	-9.99427
▁speler	-9.99478
▁sleswig	-9.99574
▁dreihbook	-9.9958
▁daal	-9.99597
▁rü	-9.99605
stroom	-9.99656
▁leben	-9.99705
ogen	-9.99708
▁dull	-9.99792
▁verheiraadt	-9.99826
aansch	-9.99906
ille	-9.99913
▁texas	-9.99949
ins	-10
schreven	-10
illa	-10.001
▁zi	-10.0013
dem	-10.0019
aansche	-10.002
▁twieg	-10.0032
▁bewegen	-10.0037
▁mat	-10.0041
meter	-10.0049
▁stünnen	-10.0052
sülv	-10.0058
▁paapst	-10.0058
▁doodbleven	-10.0059
40"	-10.006
▁70	-10.0063
fo	-10.0065
schoppen	-10.0066
▁kö	-10.0078
▁sla	-10.0079
▁seet	-10.0081
▁gene	-10.0087
schaft	-10.0091
bach	-10.0093
▁26	-10.0096
kin	-10.0097
27	-10.0098
ropen	-10.0098
▁süd	-10.0105
produkt	-10.0106
▁73	-10.0108
▁pri	-10.0108
▁olendörp	-10.0113
cy	-10.0114
▁junge	-10.0119
▁klima	-10.0119
länner	-10.012
▁haven	-10.0128
welt	-10.0128
▁oor	-10.0129
▁tro	-10.0139
▁1946	-10.0141
▁tweten	-10.0141
▁[	-10.0142
kraft	-10.0149
tzen	-10.0152
02	-10.0153
noord	-10.0156
ish	-10.0158
sass	-10.0158
▁text	-10.0159
tim	-10.016
▁bedeeligt	-10.0161
▁senat	-10.0162
ock	-10.0162
con	-10.0171
▁schriev	-10.0176
col	-10.0178
öör	-10.0193
spraken	-10.0196
▁saak	-10.0197
ein	-10.0199
▁föhren	-10.021
▁himmelpoorten	-10.0211
▁füng	-10.0212
="53	-10.0212
▁kloor	-10.0217
▁befaat	-10.0227
az	-10.0228
▁läng	-10.0229
▁hogen	-10.023
▁hol	-10.0233
gruppen	-10.0236
grund	-10.0238
▁bundsstraat	-10.024
▁1948	-10.0242
▁kle	-10.0242
▁*	-10.0244
▁maat	-10.0244
▁prä	-10.0252
anner	-10.0255
▁struktur	-10.026
▁dia	-10.026
▁1958	-10.027
▁spitz	-10.0274
slahn	-10.0276
low	-10.0276
45"	-10.0281
▁97	-10.029
▁mineral	-10.0291
▁gemeende	-10.0304
ahn	-10.0306
50	-10.0316
yo	-10.0318
▁1938	-10.032
36"	-10.0321
▁kr	-10.0325
▁papeer	-10.0329
cl	-10.0329
steern	-10.0329
▁stadtdeel	-10.0335
▁asteroiden	-10.0335
▁rö	-10.034
aar	-10.0344
▁door	-10.0344
▁award	-10.0346
daal	-10.0346
por	-10.0348
▁lager	-10.0351
zer	-10.0355
ree	-10.036
tje	-10.0361
▁35	-10.0365
è	-10.0367
wirken	-10.0371
▁produzeert	-10.0373
bal	-10.0376
born	-10.0377
09"	-10.0384
▁bekannte	-10.0399
▁80	-10.0403
75"	-10.0405
des	-10.0406
▁besunners	-10.0408
▁priesen	-10.0411
▁0,6	-10.0412
▁rahmen	-10.0421
▁enkelte	-10.0424
▁passeert	-10.043
iger	-10.0437
tagen	-10.0438
▁pal	-10.0439
48"	-10.0439
▁cu	-10.0441
▁trans	-10.0442
▁bevör	-10.0443
tre	-10.0444
▁woans	-10.0448
▁ännern	-10.0451
leeg	-10.0454
ano	-10.0455
▁inricht	-10.0459
▁mö	-10.0463
▁hälft	-10.0465
partei	-10.0474
▁lien	-10.0475
▁fröhere	-10.0476
carolina	-10.0477
verbinnen	-10.0479
▁bruken	-10.0479
14"	-10.0483
teert	-10.0494
eth	-10.0496
▁schull	-10.0501
▁översett	-10.0501
▁plaant	-10.0505
71"	-10.051
▁mel	-10.0513
daag	-10.0518
san	-10.0518
fen	-10.0521
ox	-10.0521
▁froonslüüd	-10.0527
▁1954	-10.0531
▁slecht	-10.0555
▁maal	-10.0562
▁27	-10.0565
schipp	-10.057
anne	-10.0573
▁antike	-10.0576
▁grand	-10.0583
▁washington	-10.0587
▁chemie	-10.0593
▁ap	-10.0602
87"	-10.0622
▁wichtige	-10.0624
▁röömsch	-10.0627
▁union	-10.0634
filmen	-10.0639
▁mitünner	-10.064
▁kun	-10.0642
▁mac	-10.0644
▁eenzig	-10.0646
ingen	-10.0654
▁23	-10.0656
99"	-10.067
▁politisch	-10.0672
▁holen	-10.068
▁loop	-10.0682
60"	-10.0684
▁wiedere	-10.0686
rick	-10.0687
2)	-10.07
▁meten	-10.0701
ym	-10.0703
wie	-10.0714
▁deerten	-10.072
▁leit	-10.072
oos	-10.0722
07"	-10.0727
▁gast	-10.073
▁port	-10.0734
▁heel	-10.0734
▁saison	-10.0737
▁inwahner	-10.0741
sion	-10.0747
verkehr	-10.0748
41"	-10.0755
för	-10.0755
50"	-10.076
17"	-10.0763
fach	-10.0763
▁bri	-10.0766
togen	-10.0769
kant	-10.0771
ran	-10.078
▁bill	-10.078
sc	-10.0781
ski	-10.0783
="24	-10.0795
▁toletzt	-10.0797
▁hillig	-10.0799
▁virginia	-10.08
▁nimmt	-10.0803
▁mont	-10.0804
▁rode	-10.0808
▁kan	-10.0815
▁reis	-10.0817
▁hoochdüütsche	-10.0819
▁gymnasium	-10.0819
anti	-10.0821
▁nöömte	-10.0821
▁weltwiet	-10.0826
▁eerstmals	-10.0827
▁kopper	-10.0833
dan	-10.0833
inner	-10.0833
▁meer	-10.0834
ssel	-10.0834
▁teel	-10.0838
▁vörnaam	-10.0848
▁bringt	-10.0852
▁wetenschop	-10.0852
▁1947	-10.0857
stra	-10.0858
park	-10.0864
▁fack	-10.0872
▁"„	-10.0886
▁zentrum	-10.0891
gie	-10.0896
=33	-10.091
▁1952	-10.0911
95"	-10.0913
34"	-10.0915
din	-10.0915
scher	-10.0923
03	-10.0927
▁louis	-10.0936
▁christian	-10.0938
▁otto	-10.094
wä	-10.0947
ew	-10.0955
64"	-10.0958
11"	-10.0961
30"	-10.0962
43"	-10.0965
ahr	-10.0966
▁96	-10.0969
23"	-10.0969
16"	-10.0977
pri	-10.0981
▁kennt	-10.0981
▁os	-10.0981
rull	-10.0987
▁wagner	-10.099
spreken	-10.0991
▁davis	-10.0991
▁slahn	-10.0993
ov	-10.0994
▁elektronen	-10.1009
wisch	-10.1015
▁1955	-10.1023
field	-10.1023
▁qu	-10.1024
▁kraft	-10.1039
▁1941	-10.1048
▁vergliek	-10.1051
are	-10.106
▁gellen	-10.1062
35"	-10.1062
ali	-10.1063
29"	-10.1072
▁unafhängig	-10.1073
ministerium	-10.1088
31"	-10.109
▁studio	-10.1095
▁besten	-10.1098
das	-10.1107
hus	-10.1107
ät	-10.1111
92"	-10.1116
▁arbeid	-10.1118
sie	-10.1118
▁gr	-10.1121
▁32	-10.1123
▁naveröörd	-10.1131
rm	-10.1134
▁planet	-10.1135
▁500	-10.1137
▁programm	-10.114
ööv	-10.1149
▁besett	-10.1151
ita	-10.1153
▁völker	-10.1155
ette	-10.1155
ria	-10.1162
▁1943	-10.1162
85"	-10.1163
▁gri	-10.1169
▁fohr	-10.1171
ohn	-10.1177
▁hülp	-10.1177
▁dorut	-10.1178
istische	-10.1179
witt	-10.1179
67"	-10.118
diek	-10.118
▁200	-10.1181
▁opdecken	-10.1188
▁heten	-10.1189
öller	-10.1197
▁klooster	-10.1202
▁radio	-10.1203
▁funk	-10.1214
▁spe	-10.1214
tog	-10.1216
▁middelöller	-10.1217
▁angreep	-10.1223
▁dörmeter	-10.123
▁weken	-10.1234
weeg	-10.1243
▁glieker	-10.1247
▁leste	-10.1248
▁vörbi	-10.1248
▁stand	-10.125
▁massen	-10.125
96"	-10.1252
▁wieldat	-10.1252
44"	-10.1256
pin	-10.1258
▁grünnd	-10.126
▁upnommen	-10.1267
▁leggt	-10.1267
▁musiker	-10.1268
▁vulkan	-10.1273
▁ges	-10.1275
ama	-10.1279
nu	-10.129
▁hitt	-10.1291
▁verb	-10.1293
bus	-10.1296
51"	-10.1298
▁bodden	-10.1302
▁appel	-10.1303
▁1935	-10.1307
66"	-10.1307
▁china	-10.1307
▁nett	-10.1311
▁hüütige	-10.1312
zw	-10.1315
lan	-10.1319
▁europääsche	-10.1322
pool	-10.1323
▁stimmen	-10.1323
▁strahlen	-10.1324
lau	-10.1327
innen	-10.1327
▁studium	-10.1331
ula	-10.1335
▁noog	-10.1336
▁maler	-10.1339
sitt	-10.1348
▁bor	-10.1351
▁wichtigsten	-10.1355
52"	-10.1359
▁nor	-10.1361
▁bloot	-10.1362
binnen	-10.1364
▁eenzel	-10.1364
schrift	-10.1368
54"	-10.1384
atom	-10.1385
42"	-10.1388
▁klenner	-10.1389
73"	-10.1389
▁süüden	-10.139
▁tyypsch	-10.1401
▁can	-10.1402
ii	-10.1411
▁sub	-10.1438
▁rullen	-10.144
rien	-10.1445
oder	-10.1451
söken	-10.1453
▁bestahn	-10.1455
▁bestännig	-10.1455
▁eenheit	-10.1464
▁auf	-10.1468
lig	-10.1469
ade	-10.147
▁fund	-10.1487
▁folgt	-10.1489
▁kü	-10.149
ack	-10.1505
▁opstunns	-10.1505
tus	-10.1508
loh	-10.1509
▁arbeidt	-10.1517
65"	-10.1518
licht	-10.152
▁leet	-10.1535
com	-10.1543
000	-10.1547
▁moderne	-10.1559
▁2013	-10.1566
▁afgeven	-10.1568
sluten	-10.157
▁pat	-10.1573
inger	-10.1574
▁mil	-10.1576
▁kennen	-10.1576
▁sin	-10.1576
lingen	-10.1576
▁brun	-10.1588
wal	-10.1588
▁olle	-10.1591
▁pol	-10.1592
▁konzert	-10.1592
▁1953	-10.1599
▁fleger	-10.1612
▁mars	-10.1613
düütsch	-10.1614
technik	-10.1615
▁swemm	-10.1617
reis	-10.1619
▁schafft	-10.1623
▁sülvig	-10.1625
wesen	-10.1628
ners	-10.1629
▁buxthu	-10.1634
69"	-10.1637
▁singer	-10.164
▁grönen	-10.1641
▁bl	-10.1642
kur	-10.1644
▁mä	-10.1644
bl	-10.1651
▁arv	-10.1658
geiht	-10.1661
▁norweegsche	-10.1677
▁swor	-10.1679
▁stoffen	-10.1682
▁bond	-10.1682
▁soldaten	-10.1683
▁dorstellen	-10.1685
▁syn	-10.1686
▁formen	-10.169
▁insatz	-10.1692
80"	-10.1696
▁beste	-10.1698
▁freden	-10.1699
rom	-10.1701
sieg	-10.1701
arbeid	-10.1705
▁swa	-10.1707
erung	-10.171
malig	-10.1712
▁lopen	-10.1723
▁süüdlich	-10.1723
▁end	-10.1727
▁ter	-10.1731
regen	-10.1733
gesett	-10.1737
▁fröhe	-10.1738
▁verköfft	-10.1745
="26	-10.1746
iff	-10.1749
bargen	-10.175
▁1937	-10.175
rum	-10.1758
▁hüüs	-10.1763
▁kolonie	-10.1763
▁schön	-10.1774
▁bedriev	-10.1775
▁33	-10.1777
▁produkt	-10.1778
▁angeles	-10.1778
ges	-10.1779
▁utnahm	-10.1782
süüd	-10.1796
▁normal	-10.1817
fu	-10.1824
ting	-10.1828
▁gesundheit	-10.1834
▁1936	-10.1835
▁dorhen	-10.1837
gaven	-10.1838
▁theorie	-10.1838
18"	-10.1846
▁mannschap	-10.1849
ald	-10.1862
▁tosätzlich	-10.1864
▁verwandt	-10.1865
▁dichter	-10.1866
▁tosamenhang	-10.1868
ddel	-10.1869
wig	-10.1872
▁regel	-10.1876
rin	-10.188
▁bass	-10.1883
gericht	-10.1886
▁leegt	-10.1889
andeel	-10.189
▁harsfeld	-10.1895
sy	-10.1895
12	-10.1899
stil	-10.1899
▁pra	-10.19
▁phil	-10.1906
▁schu	-10.1907
▁reg	-10.1918
stru	-10.1923
▁twischen	-10.1926
▁arteria	-10.1933
▁instrument	-10.1936
▁bel	-10.1946
▁bad	-10.1949
familie	-10.1952
▁schrieven	-10.1957
ckel	-10.1958
▁museum	-10.1959
fest	-10.1963
▁dann	-10.1964
▁36	-10.1971
red	-10.1977
▁albert	-10.1978
▁helen	-10.1979
iseeren	-10.1985
▁duer	-10.1989
▁sö	-10.199
wiest	-10.1991
aden	-10.1992
▁kiel	-10.2004
70"	-10.2008
▁jungen	-10.201
▁wahlen	-10.2013
museum	-10.2014
▁dick	-10.2015
faten	-10.2016
eer	-10.2017
▁legen	-10.2017
mont	-10.2017
wanner	-10.2023
▁langen	-10.2023
disch	-10.2024
dro	-10.2027
▁foot	-10.2027
00"	-10.2029
dräger	-10.203
mor	-10.2034
way	-10.2038
liga	-10.2039
▁schoolmeester	-10.2052
▁1951	-10.2054
cia	-10.2054
▁verstahn	-10.2057
▁fort	-10.2058
▁infloot	-10.2063
▁hören	-10.2075
▁indeelt	-10.2075
="25	-10.2084
▁orden	-10.2084
inter	-10.2085
▁wu	-10.2085
250	-10.2086
▁anleggt	-10.2088
yr	-10.21
▁pan	-10.2102
▁rh	-10.2102
ise	-10.2109
▁eerdbeven	-10.2111
▁finanz	-10.2114
▁physik	-10.2121
▁nedderlannsch	-10.2125
▁reform	-10.2127
▁köln	-10.2142
leev	-10.2143
ré	-10.2154
falls	-10.2156
well	-10.2159
arm	-10.2165
▁graff	-10.2165
oo	-10.2174
root	-10.2178
▁hööchste	-10.2182
▁verfaten	-10.2184
rik	-10.2185
▁0,5	-10.2192
pre	-10.22
57"	-10.2202
▁dorin	-10.2203
bas	-10.2206
▁dubbel	-10.2209
▁bö	-10.2215
rüüm	-10.2227
sack	-10.2229
▁()	-10.223
▁leer	-10.223
▁lüttjere	-10.2235
▁bokmål	-10.2236
▁nöördlich	-10.2236
rebeden	-10.2237
amen	-10.2238
fel	-10.2238
▁innahmen	-10.2238
▁standard	-10.2238
oog	-10.2239
04"	-10.2239
nik	-10.2244
ons	-10.2246
hall	-10.2249
▁frank	-10.2252
▁bund	-10.2255
▁problem	-10.2257
wenn	-10.2263
▁norden	-10.2268
rett	-10.2269
ning	-10.227
▁utto	-10.2271
bü	-10.2276
anten	-10.2279
lüde	-10.228
lüüd	-10.2285
▁mögelk	-10.2286
aw	-10.2289
▁brook	-10.2289
▁tätig	-10.229
ida	-10.229
grenz	-10.2293
▁tallen	-10.2294
bossel	-10.2294
▁gewalt	-10.2294
hör	-10.2298
▁heiraadt	-10.23
▁uganda	-10.23
dakota	-10.23
▁utsehn	-10.23
westfalen	-10.2301
seggt	-10.2301
tar	-10.2304
▁verwaltungs	-10.2304
▁cm	-10.2305
▁athen	-10.2308
▁bald	-10.2311
▁engelsche	-10.2313
▁keemen	-10.2315
bru	-10.2317
öp	-10.232
stell	-10.2321
ahl	-10.2323
att	-10.2324
hel	-10.2329
dam	-10.2339
thal	-10.2344
▁arbeits	-10.2345
horst	-10.2345
="28	-10.2347
▁todem	-10.2356
off	-10.236
▁bab	-10.2364
▁iesenbahn	-10.2365
▁sük	-10.2367
▁zeven	-10.2369
ink	-10.2375
▁ünnernehmen	-10.2378
▁blau	-10.2387
▁politische	-10.239
ral	-10.2392
▁kre	-10.2393
▁westfalen	-10.2394
▁fla	-10.2396
anda	-10.2402
▁pop	-10.2402
▁48	-10.2412
deert	-10.2416
▁elektro	-10.2421
kandidat	-10.2428
▁hangt	-10.243
▁val	-10.2433
▁hinrich	-10.2434
▁övernehm	-10.2435
▁sparta	-10.2439
▁fra	-10.2441
▁karkengemeen	-10.2451
▁breed	-10.2452
▁experiment	-10.2452
▁bibel	-10.2453
pat	-10.2463
▁düster	-10.2466
▁ü	-10.2472
qu	-10.2475
oonsch	-10.2482
▁sl	-10.2484
teihn	-10.2487
tschonen	-10.249
▁france	-10.2493
▁bundsdag	-10.2495
▁sorgt	-10.2498
ric	-10.2503
▁enkelten	-10.2514
▁klor	-10.2515
▁zentral	-10.252
▁original	-10.2525
theater	-10.2533
hand	-10.2535
kal	-10.2539
90	-10.2542
fohrer	-10.2545
▁bayern	-10.2558
ial	-10.256
▁oorts	-10.2562
▁süster	-10.2564
▁sha	-10.2568
▁testament	-10.259
eern	-10.2594
▁bedr	-10.2598
for	-10.2598
▁kuum	-10.2599
▁swing	-10.2603
cal	-10.2603
▁alexander	-10.2608
▁präsidenten	-10.2612
▁zell	-10.2612
hop	-10.2613
▁fien	-10.2613
uck	-10.2613
10	-10.2615
qua	-10.2617
gäng	-10.2617
rück	-10.262
▁picasso	-10.2623
▁1929	-10.2624
wümm	-10.2624
▁bla	-10.2624
schup	-10.263
▁spa	-10.263
▁ooster	-10.2631
▁ägypten	-10.2632
▁welke	-10.2634
▁roh	-10.2634
▁ban	-10.2641
▁midd	-10.2643
▁nöömten	-10.2647
▁black	-10.2659
jan	-10.2662
oloog	-10.2663
▁hill	-10.2665
▁technik	-10.2666
ehn	-10.2666
kieken	-10.2671
201	-10.2673
▁reckt	-10.2676
▁bang	-10.2676
="27	-10.2679
börger	-10.2685
▁neptun	-10.2689
3)	-10.2691
▁mio	-10.2692
▁1942	-10.2694
stoffen	-10.2694
▁rück	-10.2695
▁mannschop	-10.2704
dör	-10.2706
▁kant	-10.2713
bri	-10.2721
▁buterdem	-10.2722
▁trüch	-10.2722
▁sowjetunion	-10.2722
▁regelmatig	-10.2722
▁28	-10.2722
13	-10.2726
meesterschap	-10.2729
rup	-10.2734
heid	-10.2735
▁komponist	-10.274
▁sil	-10.2742
titel	-10.2743
▁hoochdüütsch	-10.2745
▁para	-10.2751
▁bull	-10.2751
▁angel	-10.2752
▁mönster	-10.2755
fak	-10.2759
▁familien	-10.2762
greeksch	-10.2763
+	-10.2764
arterie	-10.2769
▁vörgäng	-10.2776
gever	-10.278
▁doran	-10.2785
▁feernsehreeg	-10.279
damm	-10.279
▁bericht	-10.2795
föhrer	-10.2795
part	-10.2802
üüt	-10.2804
chel	-10.2809
600	-10.2812
lock	-10.2818
oc	-10.282
▁versöök	-10.2823
29	-10.2828
stieg	-10.2831
▁löpt	-10.2834
new	-10.2834
▁swiez	-10.2836
johr	-10.2838
▁75	-10.2847
700	-10.2854
▁1852	-10.2858
stänn	-10.2861
äng	-10.2862
▁öllere	-10.2867
hö	-10.2881
orp	-10.2885
▁doröver	-10.2887
▁gegner	-10.2889
atur	-10.2892
tonehmen	-10.2892
▁amts	-10.2893
lit	-10.2899
lei	-10.2903
▁hy	-10.291
braken	-10.2911
fletig	-10.2912
▁fc	-10.2914
▁ya	-10.2915
steden	-10.2917
zell	-10.2921
▁berg	-10.2925
▁leder	-10.2926
kers	-10.2929
▁witten	-10.2939
45	-10.2939
my	-10.294
hor	-10.2941
▁warr	-10.2943
▁gerichtsbezirk	-10.2957
wind	-10.2959
sto	-10.2959
▁binnere	-10.296
▁tru	-10.2961
▁glas	-10.2964
▁va	-10.2964
ney	-10.2965
dlich	-10.2965
199	-10.2969
▁swaart	-10.297
physik	-10.2973
riep	-10.2974
ehren	-10.298
pper	-10.2986
eu	-10.2986
▁feernsehn	-10.299
▁philipp	-10.2991
▁1934	-10.2995
enberg	-10.3001
▁tele	-10.3002
▁sun	-10.3003
▁besitt	-10.3005
spann	-10.3007
met	-10.3013
▁bank	-10.3014
▁werser	-10.3017
▁win	-10.3018
▁füer	-10.3019
▁amerikaansch	-10.3024
▁bott	-10.3027
pan	-10.3031
▁sü	-10.3031
▁lösen	-10.3033
▁les	-10.3033
leef	-10.3036
rio	-10.304
▁schaden	-10.304
stött	-10.3041
von	-10.3044
▁hermann	-10.3046
▁kuntakt	-10.3059
▁horborg	-10.306
▁rünner	-10.3062
▁karkhoff	-10.3063
bröök	-10.3064
ate	-10.3068
▁masch	-10.307
oid	-10.3078
mö	-10.3079
100	-10.3084
▁dis	-10.3085
4)	-10.3088
▁hunnert	-10.3089
▁loomst	-10.3093
▁füürwehr	-10.3093
markt	-10.3099
düü	-10.31
▁rennen	-10.31
hem	-10.3101
haben	-10.3102
halt	-10.3102
schien	-10.3107
ütt	-10.311
böker	-10.3111
▁national	-10.3115
fred	-10.3119
▁floog	-10.3121
smeten	-10.3124
▁hannels	-10.3126
▁köönt	-10.3128
▁egene	-10.3132
▁kamera	-10.3142
▁wedderstand	-10.3145
▁linke	-10.3149
▁char	-10.3149
▁sieten	-10.3156
▁ernst	-10.3165
nig	-10.3168
platt	-10.3188
▁gang	-10.319
lex	-10.3192
▁koppel	-10.3192
▁sol	-10.3194
▁haben	-10.3196
▁inter	-10.321
▁verkehrt	-10.3218
▁truck	-10.3226
▁enne	-10.3231
▁dörper	-10.3231
▁hölp	-10.3232
▁grekenland	-10.3234
▁start	-10.3235
▁1924	-10.3235
▁toon	-10.324
▁walter	-10.3242
▁jean	-10.3247
▁95	-10.3247
lly	-10.3248
▁artikel	-10.3248
▁luc	-10.3249
meer	-10.3251
▁turnier	-10.3255
▁latiensch	-10.3256
▁spi	-10.3257
▁ram	-10.3258
leid	-10.3266
▁international	-10.3267
▁venus	-10.3269
sand	-10.3269
▁hüdigen	-10.327
freesch	-10.327
elli	-10.3278
30	-10.3283
wert	-10.3295
▁perfesser	-10.3297
▁buern	-10.3299
eln	-10.3299
▁hadeln	-10.3302
▁nobelpries	-10.3308
▁1927	-10.3309
stännig	-10.332
▁hau	-10.3321
▁eben	-10.3322
▁vondaag	-10.3322
ssa	-10.3323
▁nawies	-10.3326
▁verlaten	-10.3326
▁sellschop	-10.3329
▁funn	-10.3331
stedt	-10.3335
arch	-10.3338
▁gedicht	-10.334
rang	-10.3341
▁bunnen	-10.3342
biller	-10.3352
▁45	-10.3355
karn	-10.3355
bezirk	-10.3356
könig	-10.3356
▁drüdde	-10.3357
▁bedüüd	-10.336
billn	-10.3361
▁+	-10.3363
edi	-10.3372
▁spr	-10.3374
münt	-10.3376
wei	-10.3377
▁1814	-10.3378
▁1810	-10.3379
ada	-10.3384
ativ	-10.3391
shi	-10.3392
öörd	-10.3393
▁freewillige	-10.3408
▁gloven	-10.3411
▁harry	-10.3413
eder	-10.3413
▁himmel	-10.3415
93	-10.3427
sehn	-10.3427
strahl	-10.3429
▁kal	-10.3442
press	-10.3443
▁napoleon	-10.3444
▁sömmer	-10.3444
▁not	-10.3446
▁club	-10.3449
▁haupt	-10.3451
mas	-10.3461
ec	-10.3462
eur	-10.3463
ue	-10.3464
dden	-10.3466
eerten	-10.3468
▁swart	-10.3479
let	-10.3481
ole	-10.3487
uer	-10.35
▁christen	-10.3503
▁knapp	-10.3515
vt	-10.3516
eerte	-10.3517
▁ehe	-10.3523
▁links	-10.3524
▁bus	-10.3529
42	-10.3534
▁sünnerlich	-10.3535
sassisch	-10.3536
▁stan	-10.3545
kregen	-10.3551
▁mathematik	-10.3551
ummer	-10.3555
vull	-10.356
▁huut	-10.3561
deckt	-10.3562
ement	-10.3569
wannel	-10.3575
35	-10.3577
▁bes	-10.358
fäll	-10.3581
▁verfohren	-10.3582
ace	-10.3587
▁0,05	-10.3588
▁aus	-10.3588
kr	-10.3596
▁wörr	-10.3596
▁warf	-10.3599
▁reakschoon	-10.3601
▁afto	-10.3605
,04	-10.3607
hof	-10.3608
▁grenzen	-10.3617
keken	-10.3618
griepen	-10.3622
wehr	-10.3627
▁1859	-10.3629
▁fier	-10.3638
maat	-10.3644
ters	-10.3647
schau	-10.365
öhl	-10.3651
trucken	-10.3651
▁gefohr	-10.3651
▁off	-10.3653
wussen	-10.3654
▁slott	-10.3656
rock	-10.3657
▁belgien	-10.366
kop	-10.3661
▁hemmoor	-10.3661
▁amerika	-10.3664
▁fran	-10.3666
uss	-10.3666
,41	-10.3669
karken	-10.3669
▁regeerung	-10.3672
stiegen	-10.3672
▁herstellt	-10.3677
bad	-10.368
▁rechte	-10.3682
▁kreisstraat	-10.3683
ater	-10.3685
▁landschap	-10.3686
leistung	-10.3695
▁kumplett	-10.3697
stad	-10.3697
▁beslaten	-10.3698
▁bahnlien	-10.3699
▁wahnt	-10.3704
▁monet	-10.371
▁fest	-10.3711
▁köst	-10.3711
▁swe	-10.3722
▁mehrheit	-10.3725
▁afsnitt	-10.3728
mannschap	-10.3735
▁even	-10.3738
kanal	-10.3742
▁natrium	-10.3743
▁arbeiden	-10.3743
boet	-10.3743
▁firma	-10.3744
fack	-10.3746
fra	-10.3751
▁by	-10.376
bit	-10.3761
bagen	-10.3761
char	-10.3765
▁nehmen	-10.3767
▁suldaten	-10.377
▁klöten	-10.377
börgermeester	-10.377
▁klo	-10.377
pha	-10.3772
▁bob	-10.3773
dicht	-10.3777
lösen	-10.3781
cc	-10.3786
▁ünnen	-10.3787
▁zellen	-10.3787
,01	-10.3789
gro	-10.3791
▁partner	-10.3795
hä	-10.3797
▁marine	-10.3799
kö	-10.3802
▁ansicht	-10.3804
▁bröer	-10.3807
▁helligkeit	-10.3808
dol	-10.3809
="30	-10.3809
▁gollen	-10.381
stimm	-10.3812
▁oog	-10.3826
wetenschap	-10.3827
blatt	-10.3835
▁körper	-10.3838
▁greeksch	-10.384
▁che	-10.3841
ordnung	-10.3852
▁adel	-10.3854
▁stäe	-10.3854
▁1928	-10.3862
yon	-10.3863
▁iv	-10.387
iel	-10.3872
reten	-10.3877
▁ollen	-10.3878
kunft	-10.3881
cha	-10.3883
▁karkenkreis	-10.3884
▁preußen	-10.3884
hagen	-10.3887
▁twei	-10.3887
anlagen	-10.3888
isse	-10.3896
▁folgend	-10.3896
sprung	-10.3899
rey	-10.3904
="29	-10.3907
ence	-10.3909
worth	-10.3913
▁slag	-10.3914
300	-10.3914
cu	-10.3915
busch	-10.3916
▁krankheit	-10.3919
▁satz	-10.392
masse	-10.3922
▁bestimmen	-10.3928
▁hor	-10.3928
lik	-10.3929
lütt	-10.3932
▁eng	-10.3938
▁eth	-10.3939
▁tha	-10.3945
▁39	-10.3946
ite	-10.3949
inisterpräsident	-10.395
schriever	-10.3952
ua	-10.3954
▁bewegt	-10.3956
▁fritz	-10.3957
küst	-10.3958
▁bundsliga	-10.3964
▁keden	-10.3969
bul	-10.397
▁big	-10.3972
immer	-10.3973
iers	-10.3977
krüüz	-10.3983
▁latiensche	-10.3984
▁scho	-10.3986
nynorsk	-10.3993
▁glöövt	-10.3993
▁bremerhoben	-10.3994
▁mööglichkeit	-10.3997
▁jack	-10.4007
▁herstellen	-10.4007
ester	-10.401
▁ansluss	-10.4015
macht	-10.4024
stimmen	-10.4028
▁eine	-10.4032
▁wirken	-10.4032
▁temperaturen	-10.4033
▁söben	-10.4033
▁achtergrund	-10.4034
);	-10.4035
▁uranus	-10.4036
▁verdeelt	-10.4039
▁noordsee	-10.4041
ast	-10.4048
▁kanton	-10.4048
▁lütter	-10.4056
▁kohl	-10.4056
▁fischer	-10.4062
▁29	-10.4062
▁0,7	-10.4065
▁hööftrull	-10.4066
▁figuren	-10.4072
▁spring	-10.4074
reich	-10.4079
schu	-10.408
▁modern	-10.4081
▁sing	-10.4086
boren	-10.409
▁beg	-10.409
▁stenen	-10.4091
▁stellen	-10.4096
ske	-10.41
▁hannen	-10.4105
▁hollywood	-10.4107
stu	-10.4111
rel	-10.4111
ßen	-10.4111
▁sv	-10.4115
▁lesen	-10.4117
▁hil	-10.4121
stäe	-10.4125
rennen	-10.4125
▁1000	-10.4126
tes	-10.4127
400	-10.4139
kamer	-10.414
theorie	-10.414
stahn	-10.4142
▁grode	-10.4142
▁hit	-10.4144
▁jones	-10.4149
oloogsche	-10.4154
▁wild	-10.4154
▁german	-10.4155
▁berliner	-10.4157
▁oorkunnen	-10.4158
blick	-10.4159
klär	-10.4163
lk	-10.4167
▁glo	-10.4169
sied	-10.4173
▁wichtigste	-10.4174
▁com	-10.4176
▁personen	-10.4178
röhr	-10.4179
2-	-10.4182
▁örgel	-10.4184
▁ce	-10.4187
vor	-10.4195
eenheit	-10.42
tallen	-10.4204
▁schauspelersche	-10.4205
▁sall	-10.4207
haven	-10.4209
graf	-10.4216
▁gegend	-10.4217
▁flo	-10.4221
▁strööm	-10.4228
▁koop	-10.4231
▁projekt	-10.4237
▁twüschentiet	-10.4237
wegen	-10.4237
mini	-10.4242
vik	-10.4243
wacht	-10.4245
▁arsen	-10.4247
wald	-10.4255
hydro	-10.4256
grad	-10.4258
▁chicago	-10.426
▁geel	-10.4261
▁1811	-10.4262
▁veele	-10.4263
öök	-10.4263
▁freeheit	-10.427
hollt	-10.4274
▁platten	-10.4277
▁krank	-10.4286
▁schollen	-10.4292
row	-10.4292
,14	-10.4294
▁dröög	-10.4305
apen	-10.4313
!	-10.4316
träe	-10.4317
smann	-10.4317
▁air	-10.4321
▁jungs	-10.4322
ital	-10.4325
mos	-10.4327
▁river	-10.4335
▁oorsprünglich	-10.4338
▁swi	-10.4339
cus	-10.434
▁egentlich	-10.4343
▁figur	-10.4358
▁38	-10.4358
▁poly	-10.4365
▁fäll	-10.4366
ander	-10.4368
▁geo	-10.4368
,25	-10.4369
temperatur	-10.4376
▁wüllt	-10.4377
▁kennteken	-10.4378
▁köhl	-10.4385
wiel	-10.4394
▁mess	-10.4395
tehn	-10.4398
▁sitten	-10.4401
,03	-10.4405
▁wullen	-10.4408
▁idee	-10.4409
▁300	-10.441
▁nafolger	-10.4417
▁nawiest	-10.4422
broken	-10.4424
kunst	-10.4429
▁37	-10.4431
roop	-10.4435
▁34	-10.4438
196	-10.444
▁betekend	-10.4441
▁hörrt	-10.4441
▁ümto	-10.4443
pra	-10.4446
,02	-10.4449
▁geschichte	-10.4451
enburg	-10.4452
▁sonnern	-10.4456
▁entsteiht	-10.4456
▁1912	-10.4457
▁möök	-10.4461
brüch	-10.4461
▁niege	-10.4464
tritt	-10.4465
bree	-10.4466
▁klock	-10.4466
blo	-10.4467
winkel	-10.4468
▁orchester	-10.4473
▁br	-10.4474
grött	-10.4477
erin	-10.4481
190	-10.4494
▁rechten	-10.4494
▁frömd	-10.4495
▁immun	-10.4496
▁col	-10.4497
vol	-10.4498
kopp	-10.45
▁billn	-10.4502
nich	-10.4506
▁verenen	-10.4506
▁minister	-10.4509
▁warms	-10.4511
wick	-10.4523
ona	-10.4523
▁boom	-10.4524
▁fiert	-10.4529
,17	-10.4532
,07	-10.4533
üll	-10.4536
▁regeren	-10.4538
historie	-10.4538
▁philosophie	-10.4538
▁za	-10.454
▁oortsdeel	-10.4546
huut	-10.4549
ermoor	-10.4552
fohren	-10.4555
▁avend	-10.4567
ura	-10.4569
drapen	-10.4574
▁naver	-10.4575
lööp	-10.4576
▁viez	-10.4577
▁lännerdomään	-10.4577
▁nütt	-10.4578
▁beroop	-10.4584
ure	-10.4586
stiet	-10.4587
▁med	-10.4598
▁schaap	-10.4601
▁ledd	-10.4613
seker	-10.4613
staff	-10.4614
▁charakter	-10.4615
▁sekerheit	-10.4617
wood	-10.4618
▁1914	-10.4619
▁leo	-10.4623
▁deent	-10.4625
▁team	-10.4627
hit	-10.4632
ez	-10.4645
▁grötten	-10.4646
twieg	-10.4648
▁hann	-10.4648
,16	-10.4653
▁bedüüt	-10.4655
,15	-10.4656
▁domääns	-10.4656
▁mak	-10.4659
,13	-10.4661
▁rutgeven	-10.4664
▁eten	-10.4668
,75	-10.467
180	-10.4675
gal	-10.4677
▁sicht	-10.4679
▁tw	-10.4683
toorn	-10.4695
▁fardig	-10.4695
▁rei	-10.4696
▁landsstraat	-10.4698
▁medien	-10.4699
▁flütt	-10.4699
▁wör	-10.47
▁baseert	-10.4702
wassen	-10.4708
johrig	-10.4708
▁lä	-10.471
▁kategorie	-10.4714
▁hörrn	-10.472
▁roden	-10.4726
lett	-10.473
▁geb	-10.4732
,34	-10.4735
";	-10.4736
▁unbannig	-10.4736
▁million	-10.474
zu	-10.4742
tiv	-10.4744
oscar	-10.4744
straten	-10.4747
kle	-10.475
▁henry	-10.4756
▁nächsten	-10.4756
▁kas	-10.4757
▁kro	-10.4759
▁nahfolger	-10.4765
▁marie	-10.4773
nebraska	-10.4776
▁kanada	-10.4777
▁starke	-10.4777
liddmaat	-10.4783
▁eenheiten	-10.4784
▁gegenöver	-10.4786
▁lüttere	-10.4788
geev	-10.4789
ji	-10.48
ois	-10.4801
▁grünn	-10.4801
ppt	-10.4802
line	-10.4802
▁bay	-10.4808
schi	-10.4815
,18	-10.4816
▁klaveer	-10.4817
▁villich	-10.4818
▁breef	-10.4819
eb	-10.482
körper	-10.4824
▁blieven	-10.4824
▁green	-10.483
mals	-10.483
▁högere	-10.4831
bank	-10.4836
▁hörr	-10.4837
wett	-10.4837
buch	-10.4843
▁king	-10.4846
pass	-10.4848
get	-10.485
▁jahren	-10.4852
▁dt	-10.4854
drääg	-10.4858
▁alltohopen	-10.4858
▁afslaten	-10.4859
▁1931	-10.4859
▁1926	-10.486
▁atmosphäär	-10.486
afrika	-10.4864
▁chlor	-10.4866
möhlen	-10.4869
wohl	-10.4871
stamm	-10.4873
▁afsehn	-10.4874
hol	-10.4876
197	-10.4878
ött	-10.4882
▁effekt	-10.4882
▁worr	-10.4885
tld	-10.489
▁sekunn	-10.4892
uur	-10.4892
,05	-10.4893
▁graaf	-10.4894
europa	-10.4895
äh	-10.4896
▁statistik	-10.4899
▁abitur	-10.4899
▁sporen	-10.49
tuusch	-10.4902
▁71	-10.4905
▁sw	-10.4906
▁vörgang	-10.4908
▁ogen	-10.491
▁diek	-10.4913
holen	-10.4923
olo	-10.4925
▁afhangig	-10.4928
sätz	-10.4933
▁inseln	-10.4934
▁rüch	-10.4937
rand	-10.4937
▁sponser	-10.4941
▁klaus	-10.4941
▁blues	-10.4943
▁dialekten	-10.4944
abel	-10.4946
industrie	-10.4949
▁ehmalge	-10.4958
cho	-10.4958
appel	-10.4974
▁been	-10.4974
▁frankfort	-10.4982
▁sülms	-10.4983
kat	-10.4983
hausen	-10.4985
▁kru	-10.4992
▁modell	-10.4995
▁ünnerscheedt	-10.4999
sky	-10.5
reed	-10.5002
▁länger	-10.5004
iesen	-10.5005
olen	-10.5006
194	-10.501
ünd	-10.5011
eller	-10.5015
eiland	-10.5015
cent	-10.5017
,42	-10.502
kummt	-10.5021
reform	-10.5021
▁science	-10.5024
cctld	-10.5024
▁beschrieven	-10.503
bil	-10.5032
▁römers	-10.5032
▁mitmaakt	-10.5037
,09	-10.5038
="31	-10.504
▁dormals	-10.5043
,65	-10.5063
kunn	-10.5064
führt	-10.5064
▁israel	-10.5067
▁wassen	-10.5071
kultur	-10.5079
▁person	-10.5081
mund	-10.5089
▁tokiekers	-10.5089
stat	-10.509
▁peerd	-10.5092
spiel	-10.5097
▁spaansch	-10.5098
ati	-10.5101
▁lock	-10.5105
▁vundeswegen	-10.5108
▁sommer	-10.5109
▁ümloopbahn	-10.5114
wiet	-10.5115
▁geologie	-10.512
▁1919	-10.5124
phon	-10.5127
awa	-10.5128
region	-10.513
▁well	-10.5133
▁christoph	-10.5138
▁versch	-10.5139
▁far	-10.5139
▁dorvan	-10.514
“).	-10.5153
▁erfolg	-10.5156
1)	-10.5164
▁tostand	-10.5177
▁flu	-10.5177
▁warm	-10.5182
frank	-10.5183
▁gitarr	-10.5183
▁entwicklung	-10.5185
▁0,17	-10.5194
▁rutbröcht	-10.5197
jer	-10.5199
ipp	-10.5199
▁mos	-10.5203
eih	-10.5206
aasch	-10.5207
aak	-10.521
▁rekent	-10.521
▁welk	-10.5213
asien	-10.5218
▁öllste	-10.522
cla	-10.5222
“"	-10.5224
▁gift	-10.5227
▁kamer	-10.5227
▁ohn	-10.523
▁frei	-10.523
witz	-10.5232
,28	-10.5232
,11	-10.5233
▁ööstlich	-10.5235
▁süms	-10.5236
▁produzent	-10.5236
▁1921	-10.5237
▁deiht	-10.5237
▁mitspeelt	-10.5237
▁vertreder	-10.5238
▁slaven	-10.5239
lehn	-10.5241
▁kriegt	-10.5244
▁plan	-10.5244
tru	-10.5245
▁alfred	-10.5245
öven	-10.5247
misch	-10.5253
▁tokamen	-10.5254
sort	-10.5259
grün	-10.5264
schoons	-10.5264
▁slaten	-10.5266
pf	-10.5273
▁lieke	-10.5277
▁szenen	-10.528
▁dorophen	-10.528
▁schöler	-10.5282
lon	-10.5286
oper	-10.5292
▁mythologie	-10.5294
▁sort	-10.5298
▁kohlenstoff	-10.5301
sberg	-10.531
radi	-10.531
▁sieden	-10.5313
▁0,20	-10.5319
▁bottervagel	-10.532
▁ünnersöcht	-10.5321
▁afslooten	-10.5321
wart	-10.5321
,38	-10.5323
▁sünnsystem	-10.5326
▁övergang	-10.5329
iowa	-10.5329
▁43	-10.5329
veel	-10.533
typ	-10.5331
hüüs	-10.5333
▁polar	-10.5338
11	-10.5339
▁toorn	-10.5342
▁peer	-10.5345
▁thema	-10.5346
sluss	-10.5346
▁flögel	-10.5346
▁eck	-10.5348
▁positschoon	-10.5349
▁miss	-10.535
▁henn	-10.5352
▁golden	-10.5353
koop	-10.5356
neen	-10.5356
▁sprake	-10.5356
▁gew	-10.5358
="56	-10.5359
▁mill	-10.5361
,08	-10.5362
▁verheiraat	-10.5364
▁woold	-10.5364
▁0,15	-10.5364
▁auerk	-10.5364
yer	-10.5365
▁0,18	-10.5365
,44	-10.5367
▁sietdem	-10.5375
▁latere	-10.5377
▁wasst	-10.5377
▁1900	-10.5379
▁setten	-10.5381
,45	-10.5383
ober	-10.5383
▁tar	-10.5384
ob	-10.5388
▁uran	-10.5389
▁reageert	-10.5392
dow	-10.5402
kanzler	-10.5406
▁bedutt	-10.5407
▁edward	-10.5407
▁aarden	-10.5408
▁1923	-10.5409
▁brenn	-10.5411
erie	-10.5412
ersche	-10.5417
▁expeditschoon	-10.5417
▁hoch	-10.5417
flach	-10.5422
turnier	-10.5423
▁schild	-10.5423
mil	-10.5424
figur	-10.5424
präsident	-10.5427
ori	-10.5429
▁bewies	-10.543
▁herkamen	-10.5433
▁arch	-10.5436
,64	-10.5443
mond	-10.5446
▁rhien	-10.5446
▁smölt	-10.5447
▁smith	-10.545
▁2014	-10.5452
▁bröder	-10.5455
▁veern	-10.5455
▁1918	-10.5456
▁regeln	-10.5457
trocken	-10.5457
▁royal	-10.5457
▁beobacht	-10.5459
▁vol	-10.546
jen	-10.546
5)	-10.5461
,27	-10.5464
beer	-10.5465
leider	-10.5466
schä	-10.5466
lipp	-10.5466
universität	-10.5467
▁erst	-10.5471
amerikaner	-10.5472
sellschop	-10.548
sv	-10.5484
▁küsten	-10.5485
):	-10.5486
tau	-10.5486
▁königs	-10.5488
▁stammen	-10.5488
gard	-10.5492
▁1925	-10.5496
▁gemeenreform	-10.5498
▁faststellt	-10.5498
▁space	-10.5501
,29	-10.5503
▁krankheiten	-10.5503
insel	-10.5507
▁31	-10.5514
forschen	-10.5518
eil	-10.5519
▁prinz	-10.5522
▁you	-10.5523
▁holl	-10.5526
,35	-10.5528
▁twete	-10.5529
elektr	-10.5535
▁materie	-10.5538
▁1910	-10.5539
▁1909	-10.5539
tucht	-10.5547
verfohren	-10.5547
elk	-10.5549
zar	-10.555
▁mü	-10.5551
effekt	-10.5557
warf	-10.5557
▁ruh	-10.556
▁kino	-10.5562
dar	-10.5569
chtig	-10.5569
kor	-10.5569
▁tostanne	-10.557
▁starker	-10.5571
ßel	-10.5576
runn	-10.5578
▁tonächst	-10.5582
▁college	-10.5582
▁saturn	-10.5582
▁noordrhien	-10.5583
▁mengden	-10.5585
▁schüllt	-10.5585
▁il	-10.5585
▁sankt	-10.5588
▁kroon	-10.559
,37	-10.5595
▁anfangs	-10.5596
hööft	-10.56
▁regeer	-10.56
flagg	-10.5601
▁verlag	-10.5614
▁hunnen	-10.5621
▁ungefähr	-10.5626
knütt	-10.5629
aatsche	-10.5631
▁var	-10.5633
hart	-10.5641
mudd	-10.5642
▁transport	-10.5642
▁bundsland	-10.5646
▁rot	-10.5648
▁46	-10.5652
▁42	-10.5655
wp	-10.5658
▁ganzen	-10.5662
bia	-10.5667
dacht	-10.5668
▁aluminium	-10.5671
▁arzbischop	-10.5671
▁volksbank	-10.5672
▁gull	-10.5672
läng	-10.5672
boom	-10.5673
▁elektron	-10.5674
▁cla	-10.5675
▁fangen	-10.5675
wöör	-10.5682
▁hollt	-10.5684
▁baut	-10.5684
▁willem	-10.5685
lum	-10.5686
▁rosen	-10.569
▁vöran	-10.5691
ül	-10.5692
▁opdeelt	-10.5694
üster	-10.5701
halv	-10.5708
,48	-10.5713
▁deerter	-10.5717
sburg	-10.5717
spröök	-10.5721
pul	-10.5722
▁ünnerstütt	-10.5731
362	-10.5733
▁deerns	-10.5733
▁tahl	-10.5741
▁hull	-10.5741
▁ski	-10.5742
▁ddr	-10.575
,78	-10.5758
container	-10.576
▁liszt	-10.576
▁darte	-10.5767
bla	-10.5768
▁sex	-10.577
bringen	-10.5778
▁0,07	-10.578
back	-10.5782
,50	-10.5783
▁bern	-10.5783
stick	-10.5785
▁ehmalg	-10.5786
ringen	-10.5787
ky	-10.5789
▁str	-10.579
▁foorts	-10.5791
solt	-10.5793
▁bud	-10.5794
▁55	-10.5795
▁spoor	-10.5798
▁song	-10.5801
,69	-10.5802
▁münnt	-10.5803
▁perzent	-10.5805
▁anwennen	-10.5806
hüser	-10.5808
▁sün	-10.581
laden	-10.5815
▁langsom	-10.5815
▁jü	-10.5815
▁north	-10.5819
▁straaf	-10.5822
leed	-10.5823
weltmeesterschap	-10.5826
texas	-10.5828
statschoon	-10.5829
▁mineralen	-10.5831
▁bonn	-10.5839
düütsche	-10.584
anstalt	-10.5844
loog	-10.5845
▁jemehrn	-10.5848
▁utdruck	-10.5851
▁94	-10.5858
lis	-10.5864
▁wir	-10.5865
,10	-10.5866
pho	-10.5869
▁tünn	-10.5873
▁kometen	-10.5875
planten	-10.5878
sdag	-10.5878
▁melk	-10.5882
schalt	-10.5885
▁ümsett	-10.5887
▁leg	-10.5892
▁gode	-10.5893
▁bowark	-10.5894
commonsdelinker	-10.5896
produkschonen	-10.5896
▁ökelnaam	-10.5896
▁0,06	-10.5897
▁prim	-10.5898
▁ridder	-10.5899
vert	-10.5901
98	-10.5901
cle	-10.5903
rus	-10.5904
▁forschung	-10.5905
▁beer	-10.5905
▁hotel	-10.5905
▁fri	-10.5905
▁150	-10.5908
sloot	-10.5916
oorden	-10.5916
bruuk	-10.5918
▁henwies	-10.5919
mitt	-10.5919
▁opfohrt	-10.5922
senner	-10.5924
vis	-10.5924
▁2,5	-10.5924
wat	-10.5926
laat	-10.5935
para	-10.5936
▁misch	-10.5938
bülg	-10.594
▁bundsdagswahl	-10.5942
▁gemarken	-10.5942
▁afleidt	-10.5942
▁wohrhaftig	-10.5942
▁intresse	-10.5942
ella	-10.5946
▁pluto	-10.5947
▁meesten	-10.5947
gliek	-10.595
▁steden	-10.5951
▁tüügt	-10.5952
▁oxid	-10.5958
170	-10.5959
kirch	-10.596
gramm	-10.5961
rundfohrt	-10.5967
struktur	-10.5967
▁opbo	-10.597
▁eg	-10.5973
▁landdag	-10.5973
▁indianer	-10.5974
▁organisatschoon	-10.5975
▁köfft	-10.5981
,26	-10.5985
tum	-10.5986
▁fronslüüd	-10.5987
▁adolf	-10.5987
▁minuuten	-10.5988
▁besünner	-10.599
tischen	-10.5992
dis	-10.6003
sborg	-10.6003
▁regeert	-10.6005
ward	-10.6009
esse	-10.6011
▁bregen	-10.6012
▁hai	-10.6014
▁single	-10.6016
▁cap	-10.6022
lucht	-10.6024
nah	-10.603
▁stücken	-10.6033
▁1907	-10.6034
▁rotatschoon	-10.6035
blöer	-10.6036
▁0,21	-10.6038
▁sick	-10.6038
krebs	-10.6039
helm	-10.6044
▁turn	-10.6045
snitt	-10.6047
spekt	-10.605
▁oorden	-10.6051
▁high	-10.6052
▁pers	-10.6053
▁partie	-10.6054
▁kapell	-10.6058
▁ünnerricht	-10.6074
▁veerte	-10.6074
▁santa	-10.6076
0)	-10.6077
▁ümgegend	-10.608
▁bülgen	-10.6081
▁qui	-10.609
▁johnson	-10.6095
▁vörsehn	-10.6096
rier	-10.6103
130	-10.6104
▁symbol	-10.6105
▁400	-10.611
chron	-10.6111
keem	-10.6112
litz	-10.6115
▁ever	-10.6119
anlaag	-10.6119
▁unafhängigkeit	-10.6128
▁sul	-10.613
▁1908	-10.6135
192	-10.615
▁faste	-10.6156
rb	-10.6168
bö	-10.6171
▁finn	-10.6173
▁denkmaal	-10.6173
▁heiraat	-10.6173
▁brand	-10.6173
▁0,08	-10.6174
▁hagen	-10.6174
▁nafolgen	-10.6175
▁düppel	-10.6175
oma	-10.618
▁fame	-10.6186
▁ümwelt	-10.6189
,12	-10.619
,58	-10.6191
more	-10.6197
slam	-10.6201
▁führt	-10.6208
▁opdrag	-10.6214
▁real	-10.6215
ico	-10.6216
▁bat	-10.622
▁shackleton	-10.622
▁0,19	-10.6221
,54	-10.6221
wing	-10.6223
soort	-10.6226
▁lehrer	-10.6228
▁0,25	-10.6228
▁gla	-10.6231
dia	-10.6232
,22	-10.6236
mehr	-10.624
zeitung	-10.6246
▁44	-10.6246
▁ruch	-10.6246
▁düer	-10.6247
▁amenne	-10.6249
dokter	-10.6252
▁fruen	-10.6253
▁wenige	-10.6253
▁danz	-10.6255
▁live	-10.6255
▁oper	-10.6262
▁noh	-10.6262
▁kop	-10.6263
,31	-10.6264
▁sir	-10.6264
cleaner	-10.6267
sneden	-10.6268
▁deren	-10.6268
äus	-10.6269
▁glück	-10.627
elen	-10.6274
▁schrievwies	-10.6279
▁fisch	-10.628
▁kg	-10.6284
▁staten	-10.6287
▁mari	-10.6288
▁christliche	-10.6292
drama	-10.6297
,57	-10.6297
forscher	-10.6299
▁orgel	-10.6299
wohr	-10.6299
cr	-10.63
▁kommunale	-10.6301
,62	-10.6304
skala	-10.6305
▁beobachten	-10.6305
▁kontroll	-10.6307
sper	-10.6312
▁formel	-10.6313
▁74	-10.6314
nieder	-10.6314
mehrdüdig	-10.6315
▁händel	-10.6315
unner	-10.6315
▁afkaat	-10.6315
▁saint	-10.6316
▁schottland	-10.6317
hau	-10.6319
▁nickel	-10.6321
volk	-10.6321
lia	-10.6325
▁vertellen	-10.6326
▁atomen	-10.6326
schapen	-10.6328
▁studien	-10.6332
▁41	-10.6335
stan	-10.6339
vest	-10.6341
hei	-10.6348
but	-10.6352
▁dörsnitt	-10.6356
lichkeit	-10.6358
energie	-10.636
oolt	-10.6362
▁afkört	-10.6362
greep	-10.6364
▁matt	-10.6367
,97	-10.6371
mä	-10.6371
▁0,14	-10.6371
stenen	-10.6372
▁groden	-10.6373
▁histoorsche	-10.6376
▁kump	-10.6378
▁she	-10.6378
▁0,13	-10.6379
110	-10.6381
,74	-10.6381
hü	-10.6389
lut	-10.6389
kräft	-10.6396
christ	-10.6397
natschonal	-10.6398
▁jeed	-10.6398
▁enige	-10.6398
gä	-10.64
▁anna	-10.6403
▁"(	-10.6406
▁nehr	-10.6406
▁wichtigen	-10.641
▁aflehnt	-10.641
▁schrifft	-10.641
▁charlie	-10.6411
▁orient	-10.6411
▁hamborger	-10.6413
▁0,16	-10.6414
▁faten	-10.6417
ima	-10.6417
ular	-10.6421
▁mono	-10.6423
half	-10.6424
lio	-10.6434
▁achtern	-10.6436
▁farven	-10.6438
ative	-10.6439
tahl	-10.6443
fohr	-10.6443
istischen	-10.6444
,61	-10.6451
ary	-10.646
,87	-10.6462
fried	-10.6466
▁piel	-10.6466
øy	-10.6471
▁vertreden	-10.6489
▁roor	-10.6491
160	-10.6495
lers	-10.6497
▁scheep	-10.6497
aria	-10.6501
▁65	-10.6504
fru	-10.6504
▁defineert	-10.6507
▁gerhard	-10.6508
▁osten	-10.6508
▁plant	-10.6523
▁maak	-10.6525
▁georgia	-10.6525
▁aa	-10.6527
▁komp	-10.6533
▁ferdinand	-10.6534
▁49	-10.6535
wien	-10.6536
▁schriften	-10.6539
▁konnen	-10.6539
▁lever	-10.6548
▁parish	-10.6554
▁shuttle	-10.6555
▁traditschoon	-10.6555
▁schröder	-10.6555
tour	-10.6555
bell	-10.6557
▁böverste	-10.6559
,21	-10.6559
,79	-10.656
arkansas	-10.656
▁gegensatz	-10.657
▁mm	-10.657
210	-10.6571
▁gran	-10.6572
,96	-10.6573
▁oostfreesch	-10.6573
▁schuul	-10.6575
drägen	-10.6579
▁92	-10.6579
cm	-10.6583
195	-10.6585
▁führen	-10.6586
360	-10.6592
georgia	-10.6593
,66	-10.6602
spegel	-10.6603
▁ozean	-10.6604
▁1911	-10.6604
mengde	-10.6605
▁tohören	-10.6605
▁1922	-10.6614
▁epi	-10.6615
drocht	-10.6616
sha	-10.6618
,46	-10.6627
▁woorn	-10.6629
▁staaten	-10.663
▁brannenborg	-10.6632
▁fragen	-10.6633
191	-10.6633
189	-10.6634
▁münn	-10.6635
ante	-10.6639
,88	-10.664
hoochdüütsch	-10.6644
gy	-10.6644
▁weener	-10.6646
,76	-10.6648
▁kenn	-10.6648
140	-10.6651
▁definitschoon	-10.6653
▁twölf	-10.6653
▁jacob	-10.6653
▁grooten	-10.6656
psych	-10.6656
▁kaiserriek	-10.6659
▁bei	-10.6659
▁angrepen	-10.6659
▁joe	-10.666
,06	-10.6661
▁wanner	-10.6661
▁solo	-10.6662
ata	-10.6665
▁parteien	-10.6669
,90	-10.6672
kap	-10.6673
oden	-10.6675
arbeiten	-10.6682
▁homo	-10.6685
uff	-10.6687
▁serie	-10.6687
ständig	-10.6687
laad	-10.6688
var	-10.6688
240	-10.6689
,92	-10.669
krankheit	-10.6692
▁tur	-10.6695
zoon	-10.6696
▁hawaii	-10.6702
orbital	-10.6702
dree	-10.6702
sozialismus	-10.6703
▁organiseert	-10.6703
▁forschers	-10.6704
▁0,27	-10.6705
▁47	-10.6708
▁anne	-10.671
▁regeern	-10.6712
▁gestalt	-10.6715
,40	-10.6719
▁blatt	-10.6719
horn	-10.6723
ike	-10.6726
,95	-10.6727
,59	-10.6733
▁platen	-10.6733
▁tü	-10.6734
lev	-10.6734
arv	-10.6734
album	-10.6743
▁kir	-10.6744
▁bither	-10.6747
,49	-10.6748
▁jüngere	-10.6748
,99	-10.6753
▁footballspeler	-10.6754
kata	-10.6754
▁opwiest	-10.6755
▁love	-10.6756
▁föhl	-10.6757
31	-10.6757
▁früend	-10.6758
kanaal	-10.6761
▁sh	-10.6764
vörsitter	-10.6767
▁spaansche	-10.6768
▁stört	-10.6773
▁verfaat	-10.6778
▁deelt	-10.678
▁magma	-10.6784
leben	-10.6787
▁distrikt	-10.6792
rei	-10.6793
▁nasa	-10.6795
230	-10.6801
▁allerdings	-10.6801
▁insgesamt	-10.6801
▁stickstoff	-10.6801
▁harvst	-10.6801
▁kau	-10.6814
europääsch	-10.6815
▁deelstreck	-10.6817
ux	-10.6818
lyn	-10.682
marsch	-10.6825
▁christ	-10.6828
wetenschoppen	-10.6831
▁mot	-10.6834
▁phaas	-10.6837
▁dokument	-10.6837
maal	-10.684
schauspeler	-10.6844
▁franzosen	-10.685
,67	-10.6851
▁architekt	-10.6851
neutrino	-10.6851
▁jeweil	-10.6851
oy	-10.6851
▁young	-10.6852
▁0,26	-10.6853
wy	-10.6857
▁0,23	-10.6859
▁elektrische	-10.686
▁ünnerscheden	-10.6863
▁tohopensett	-10.6869
▁technisch	-10.687
deck	-10.6871
▁reck	-10.6874
rain	-10.6877
ala	-10.6878
▁indruck	-10.6882
▁fakener	-10.6883
▁föhr	-10.6885
▁geheem	-10.6885
▁moord	-10.6888
führen	-10.6891
▁schickt	-10.6891
▁reed	-10.69
▁während	-10.6901
▁leipzig	-10.6901
liek	-10.6902
▁helium	-10.6902
hoorn	-10.6904
▁trek	-10.6904
▁1917	-10.6907
▁mehrsten	-10.6909
landkreis	-10.6914
▁briten	-10.6916
▁middlere	-10.6918
495	-10.6923
▁mary	-10.693
▁punkten	-10.6931
dler	-10.6931
▁fil	-10.6939
7)	-10.6939
▁dörsett	-10.6941
,53	-10.6941
virginia	-10.6946
lehr	-10.6946
pokal	-10.6948
führung	-10.6949
▁relativ	-10.6951
wisconsin	-10.6952
▁oterndörp	-10.6952
▁hannover	-10.6952
▁1913	-10.6959
▁flücht	-10.6961
▁fallen	-10.6961
,33	-10.6962
formatschoon	-10.6964
▁bol	-10.6968
▁westlich	-10.6969
rode	-10.6973
proov	-10.6978
▁runn	-10.6979
höhl	-10.6986
▁sur	-10.6988
▁back	-10.6991
▁proto	-10.6995
▁indien	-10.6997
▁neen	-10.6997
,91	-10.6999
fööt	-10.7
▁0,10	-10.7005
▁jünger	-10.7006
▁gründ	-10.7009
isotop	-10.701
▁beek	-10.7012
▁weh	-10.7015
treeden	-10.7019
▁stahl	-10.7019
werk	-10.702
gold	-10.7024
▁hamm	-10.7024
▁hoor	-10.7025
▁wolf	-10.7029
over	-10.7031
groot	-10.7031
scheep	-10.7032
cro	-10.7033
hund	-10.7033
▁apenlich	-10.7035
▁hoog	-10.7042
kategorie	-10.7049
▁swore	-10.705
cur	-10.7052
▁bookstaven	-10.7054
▁sülvstännig	-10.7054
▁insekten	-10.7054
▁oll	-10.7055
▁prägt	-10.7056
▁lübeck	-10.7057
▁wohrheit	-10.7057
lam	-10.7057
poor	-10.7061
▁feern	-10.7062
▁wohn	-10.7062
,30	-10.7063
▁tog	-10.7064
▁1850	-10.7064
ström	-10.7065
russ	-10.7066
▁storm	-10.7066
▁iesland	-10.7069
165	-10.7069
deutsch	-10.7072
formen	-10.7081
▁wood	-10.7089
leest	-10.7092
▁republik	-10.7093
▁führ	-10.7093
iro	-10.7093
▁streck	-10.7095
chem	-10.7097
jö	-10.7098
geschäft	-10.7098
▁goden	-10.7101
111	-10.7104
▁premierminister	-10.7105
▁tomindst	-10.7105
▁brown	-10.7106
lann	-10.711
▁bedüüden	-10.711
▁snelligkeit	-10.7115
▁rang	-10.7119
ios	-10.7119
feller	-10.7121
▁sar	-10.7122
vil	-10.713
▁0,22	-10.713
link	-10.7132
,36	-10.7135
hoop	-10.7137
publi	-10.714
löper	-10.7147
▁cho	-10.7149
▁deelen	-10.7152
▁möglich	-10.7155
rhythm	-10.7157
6)	-10.7157
john	-10.7159
fjord	-10.7159
▁dünn	-10.7159
▁0,11	-10.7163
,24	-10.7171
▁morgen	-10.7178
krater	-10.7188
▁99	-10.7191
188	-10.7196
stone	-10.7196
▁antreden	-10.7201
,93	-10.7202
▁akademie	-10.7205
▁weil	-10.7206
▁atlantik	-10.7208
▁brasilien	-10.7208
▁amsterdam	-10.7208
▁alkohol	-10.7208
▁dormank	-10.7209
teleskop	-10.7209
▁methoden	-10.721
▁jackson	-10.7212
▁web	-10.7212
night	-10.7213
▁söcht	-10.7215
113	-10.7216
▁fluor	-10.7219
▁holland	-10.7221
nacht	-10.7222
▁werder	-10.7223
106	-10.7223
▁wohl	-10.7231
▁93	-10.7234
rid	-10.7237
demokraatsch	-10.7241
blue	-10.7243
stiftung	-10.7244
gegen	-10.7252
ehrt	-10.7253
▁spelers	-10.7254
▁schrievers	-10.726
afsnidd	-10.7261
modell	-10.7261
büttel	-10.7261
▁hornborg	-10.7262
▁oosterholt	-10.7262
funk	-10.7263
▁tourismus	-10.7265
ppel	-10.7266
▁bundsautobahn	-10.7273
▁russisch	-10.7278
▁funkschoon	-10.7286
musiker	-10.7287
▁duert	-10.729
hüll	-10.729
,47	-10.7291
,98	-10.7293
▁anton	-10.7303
▁fasten	-10.7307
,68	-10.7312
▁australien	-10.7313
▁bevölkerung	-10.7313
▁helmut	-10.7313
▁radrennfohrer	-10.7313
▁zdf	-10.7313
▁noordkorea	-10.7314
gne	-10.7315
,63	-10.7315
▁0,12	-10.7316
▁löst	-10.7318
,73	-10.7323
▁drüdden	-10.7325
▁music	-10.7325
äre	-10.7325
app	-10.7327
wapen	-10.7333
1-	-10.7333
▁schütt	-10.7333
▁fohrt	-10.7342
▁hip	-10.7354
▁besetten	-10.7354
▁jöödsche	-10.7357
ierung	-10.7359
▁mass	-10.7359
198	-10.736
,56	-10.7363
▁phosphor	-10.7365
▁fdp	-10.7366
▁staffel	-10.7366
▁wayne	-10.7366
tyyp	-10.7367
kennt	-10.7368
▁1905	-10.7375
▁klassische	-10.7382
▁upstellt	-10.7385
avi	-10.7388
107	-10.7394
▁hals	-10.7397
▁höörn	-10.7398
,85	-10.7406
▁woor	-10.7406
▁mir	-10.7408
ual	-10.7411
,43	-10.7414
histo	-10.7416
düütschland	-10.7418
▁resultat	-10.7418
▁verapenlicht	-10.7418
▁moskau	-10.7418
▁tonichten	-10.7418
▁temlich	-10.7418
geist	-10.7419
▁eegentlich	-10.7419
▁geboort	-10.742
ello	-10.742
▁verkloren	-10.7423
berger	-10.7424
wü	-10.7424
▁franken	-10.7424
▁gelung	-10.7425
▁verlaaten	-10.7428
▁schwe	-10.7432
▁ich	-10.7432
▁sau	-10.7433
▁fohren	-10.7438
▁togange	-10.7442
▁dacht	-10.7443
▁borns	-10.7448
▁show	-10.7448
▁missouri	-10.7458
▁torecht	-10.7461
▁germaansche	-10.7462
▁simon	-10.7464
,77	-10.7469
▁süüdafrika	-10.7469
▁cra	-10.7469
förmig	-10.7471
▁finanziell	-10.7472
veer	-10.7472
▁protest	-10.7473
▁merkur	-10.7473
,71	-10.7473
▁thi	-10.7474
▁wahlkreis	-10.7475
▁1848	-10.748
▁gru	-10.748
farv	-10.7484
▁noot	-10.7489
ographie	-10.7493
stohl	-10.7494
▁wied	-10.7498
481	-10.7499
▁kansas	-10.7501
118	-10.7506
langen	-10.7514
,60	-10.7514
städer	-10.7516
▁instellt	-10.7517
270	-10.7518
nedderdüütsch	-10.7526
▁hööftgördel	-10.7526
▁daniel	-10.7526
smölt	-10.7528
bööm	-10.7528
▁sylt	-10.7529
▁sich	-10.7537
▁gele	-10.7545
▁müssen	-10.7546
verdrag	-10.7548
▁periood	-10.7549
,94	-10.755
logen	-10.7551
ér	-10.7552
legeeren	-10.7559
neu	-10.7561
mag	-10.7563
▁qua	-10.7564
▁illinois	-10.7565
post	-10.7569
erwies	-10.7572
▁veeh	-10.7573
▁bronze	-10.7579
weltranglist	-10.7579
▁belgisch	-10.7579
▁henri	-10.7579
▁fein	-10.758
▁königin	-10.7581
tüüg	-10.7582
achten	-10.7584
▁togang	-10.7586
etsche	-10.7587
▁theologie	-10.7592
▁festival	-10.7593
▁kräft	-10.7595
▁updeelt	-10.7595
kro	-10.7597
▁51	-10.7605
108	-10.7607
▁somit	-10.7608
ij	-10.7609
▁utbillen	-10.761
▁problemen	-10.7618
,89	-10.7619
▁kim	-10.7624
toon	-10.7625
370	-10.7627
,70	-10.7631
▁ämter	-10.7633
▁vermisst	-10.7633
löpig	-10.7634
▁wesselwirken	-10.7634
▁befehl	-10.7637
kult	-10.7638
▁christus	-10.7639
▁bundsminister	-10.7644
▁wur	-10.7653
▁begleit	-10.7655
tom	-10.7658
▁schuld	-10.766
▁mund	-10.7664
▁still	-10.7668
kri	-10.767
▁speelfilm	-10.7674
bek	-10.7684
▁foto	-10.7684
▁verf	-10.7685
slääg	-10.7687
▁bestaht	-10.7687
▁victor	-10.7689
▁winner	-10.7693
▁ohio	-10.7695
takt	-10.7698
bewegen	-10.7702
afrikaansch	-10.7705
492	-10.771
▁dorvör	-10.7719
scheden	-10.7719
▁mössen	-10.772
▁schmidt	-10.7725
▁fähr	-10.7726
▁verlor	-10.7733
116	-10.7737
▁schauspeel	-10.7739
378	-10.7739
,72	-10.774
▁tominnst	-10.7742
▁2016	-10.7742
▁behanneln	-10.7742
▁stad	-10.7743
▁sim	-10.7745
▁drogen	-10.7746
uf	-10.7747
▁vandage	-10.7752
singer	-10.7756
▁natschonale	-10.7757
▁kerk	-10.7761
▁kathoolsche	-10.7762
101	-10.7764
,80	-10.7775
▁ünnerstütten	-10.7777
▁ji	-10.7781
kleed	-10.7782
,52	-10.7787
börg	-10.7792
▁brandt	-10.7795
▁persönlich	-10.7796
,32	-10.7796
▁armstrong	-10.7797
▁oplööst	-10.7797
therapie	-10.7797
▁ölven	-10.7797
▁gregoriaanschen	-10.7797
wall	-10.78
▁titan	-10.7801
▁kongress	-10.7801
▁0,28	-10.7804
▁waar	-10.7804
▁astronomie	-10.7805
▁däänsch	-10.7806
▁grau	-10.781
ähr	-10.781
▁0,4	-10.7814
dä	-10.7819
▁breden	-10.7822
sinn	-10.7825
▁cou	-10.7829
▁kreegen	-10.7831
idae	-10.7838
grepen	-10.7839
prä	-10.7844
▁bekannten	-10.7846
▁roll	-10.7846
wulf	-10.7848
▁scharp	-10.7853
▁bisdom	-10.7855
_1	-10.786
▁über	-10.786
rø	-10.7861
issen	-10.7862
seggen	-10.7862
▁mur	-10.7863
▁kam	-10.7865
▁full	-10.7878
dreven	-10.7879
▁bereken	-10.7883
▁bio	-10.7883
rein	-10.7892
▁akt	-10.7898
leitung	-10.7898
medaille	-10.7906
sekretär	-10.7907
▁zittens	-10.7908
▁verleden	-10.7908
▁besöök	-10.7908
▁lichter	-10.7909
▁tohuse	-10.7909
▁av	-10.7912
▁weltruum	-10.7914
enborg	-10.7916
kentucky	-10.7917
gymnasium	-10.7917
gifft	-10.7918
▁alben	-10.7926
▁leh	-10.7927
109	-10.7933
▁sä	-10.7935
▁objekt	-10.7944
,84	-10.7947
▁splitt	-10.7956
▁knaken	-10.7963
dank	-10.7964
▁wolfgang	-10.7965
mai	-10.7972
184	-10.7973
▁tallrieke	-10.7973
▁anders	-10.7974
▁mexiko	-10.7975
▁ünnerdeelt	-10.7976
▁0,24	-10.7982
trupp	-10.7982
loos	-10.7996
▁stein	-10.7997
▁sammelt	-10.7999
▁mischen	-10.8008
szene	-10.8008
▁jagd	-10.8012
▁schauspelerin	-10.8019
▁adenauer	-10.802
reakschonen	-10.802
▁frünnen	-10.8021
▁korea	-10.8022
▁stören	-10.8023
▁methan	-10.8026
iter	-10.8028
hai	-10.8028
metri	-10.8028
hamborg	-10.8039
▁lüü	-10.8048
450	-10.8055
toog	-10.8056
ohl	-10.8056
▁wol	-10.8059
▁ion	-10.806
▁opboot	-10.8063
▁engel	-10.8064
,55	-10.8065
büro	-10.8076
▁heckthusen	-10.8076
▁midderwielen	-10.8076
▁calcium	-10.8076
▁sürsen	-10.8076
▁dorneben	-10.8076
▁frederik	-10.8076
▁utöövt	-10.8077
▁0,09	-10.8077
fort	-10.8078
▁wertschaps	-10.8079
▁objekten	-10.8084
▁1906	-10.8084
▁nil	-10.8085
▁söök	-10.8086
anger	-10.8087
signal	-10.8089
grünner	-10.809
▁ungarn	-10.8091
486	-10.8092
▁mr	-10.8098
▁camp	-10.8103
via	-10.8106
▁basis	-10.8108
pott	-10.8112
serie	-10.8112
▁bord	-10.8112
▁jürgen	-10.8119
▁buurn	-10.8121
▁ankieken	-10.8123
▁gewicht	-10.8124
plant	-10.8127
▁apollo	-10.8133
▁reekner	-10.8133
▁würklich	-10.8133
▁jakob	-10.8133
▁0,30	-10.8134
▁sond	-10.8136
▁nummer	-10.8138
▁warn	-10.8141
▁py	-10.8142
▁williams	-10.8144
zeert	-10.8144
▁beverst	-10.8146
▁maxim	-10.8148
105	-10.8149
komplex	-10.815
engelsch	-10.8151
▁gemeenden	-10.8151
▁steve	-10.8152
mehrst	-10.8167
▁lannen	-10.8169
glo	-10.8169
ologisch	-10.8169
▁lann	-10.8169
▁texten	-10.817
183	-10.8172
▁88	-10.8173
inus	-10.818
318	-10.8181
▁halle	-10.8181
far	-10.8182
▁katt	-10.8184
ilia	-10.8185
▁normale	-10.8187
▁hinnern	-10.8187
▁vörbild	-10.8187
▁publizeert	-10.819
▁jöden	-10.819
wettstriet	-10.819
▁ümwannelt	-10.819
guinea	-10.8191
▁bundsrepubliek	-10.8191
▁tohoopleggt	-10.8193
▁1873	-10.8197
▁1915	-10.8197
▁1904	-10.8198
▁jedet	-10.8201
▁mieg	-10.8212
kör	-10.8213
laaten	-10.8215
ington	-10.8215
zz	-10.8216
▁essen	-10.8221
sluutend	-10.8222
▁laaten	-10.8222
door	-10.8224
▁physikaalsch	-10.8224
grenzen	-10.8226
moder	-10.8231
▁meteor	-10.8235
eerd	-10.8235
▁beers	-10.8237
sey	-10.8238
führer	-10.8239
128	-10.8239
kret	-10.8243
town	-10.8243
▁anklaag	-10.8248
▁kuntreien	-10.8248
▁journalist	-10.8249
158	-10.825
▁meet	-10.8251
▁usw	-10.8251
▁bueree	-10.8252
▁stro	-10.8253
▁pr	-10.8255
▁nach	-10.8256
▁lücht	-10.8257
▁genau	-10.826
illinois	-10.8263
missouri	-10.8263
haftig	-10.8268
house	-10.8268
ark	-10.8269
▁86	-10.8271
▁mod	-10.8272
öört	-10.8272
ped	-10.8275
▁nedderdüütsche	-10.8281
roll	-10.8284
reservat	-10.8287
▁sat	-10.8296
heinz	-10.8298
ratschoon	-10.83
▁optreden	-10.8303
▁överdragen	-10.8306
städ	-10.8306
▁studenten	-10.8306
maschien	-10.8307
▁lieden	-10.8308
fabrik	-10.8309
▁fresen	-10.8314
bab	-10.8315
▁dusend	-10.8316
▁dragen	-10.8316
institut	-10.832
dur	-10.8321
▁91	-10.8324
▁main	-10.8325
fraag	-10.8325
▁sind	-10.8328
▁regional	-10.8349
▁eier	-10.8353
▁kil	-10.8355
demokrat	-10.8362
▁betog	-10.8362
▁columbia	-10.8364
▁portugal	-10.8364
▁gustav	-10.8364
▁pierre	-10.8364
▁beatles	-10.8364
▁kommt	-10.8365
▁64	-10.8366
206	-10.8366
▁anslaten	-10.8367
▁1880	-10.8371
202	-10.8373
wang	-10.8373
▁1901	-10.8374
▁tournee	-10.8377
▁ries	-10.838
üss	-10.8384
▁musikers	-10.8388
▁fatt	-10.839
▁afsluut	-10.839
▁weltmeester	-10.8395
▁swiezer	-10.8398
320	-10.84
▁lüttjen	-10.8402
bass	-10.8404
iko	-10.8406
gott	-10.8407
▁verlust	-10.8413
▁verkehrs	-10.8413
▁gun	-10.8418
▁berühmt	-10.8422
▁nedderelvbahn	-10.8422
▁gedanken	-10.8422
▁fletigkeit	-10.8422
▁wersermünn	-10.8422
▁spannung	-10.8423
rem	-10.8424
▁volksschool	-10.8427
sozialistisch	-10.8432
wür	-10.8437
produkschoon	-10.8439
mba	-10.8441
chlorid	-10.8444
238	-10.8444
king	-10.8444
▁kalk	-10.8449
▁cy	-10.8462
▁echte	-10.847
izi	-10.8471
▁bou	-10.8471
▁bispelen	-10.8472
schaven	-10.8476
▁gliektietig	-10.8481
▁terror	-10.8481
117	-10.8483
▁samt	-10.8486
stü	-10.8487
▁rum	-10.849
▁hilligen	-10.8491
▁aff	-10.8491
gate	-10.8491
statt	-10.8496
▁praat	-10.85
▁cheemsche	-10.8501
▁straaten	-10.8502
woold	-10.8503
▁drang	-10.8504
hütt	-10.8507
chester	-10.8512
379	-10.8515
fähr	-10.8517
holm	-10.8523
▁lieken	-10.8524
▁boet	-10.8524
floog	-10.8528
▁sess	-10.853
uz	-10.8538
gefäähr	-10.854
▁utlöst	-10.8541
▁swevel	-10.8541
▁poolsche	-10.8542
▁frie	-10.8543
▁zink	-10.8544
lim	-10.8545
funnen	-10.8546
text	-10.855
rohr	-10.8551
▁csu	-10.8553
gio	-10.8556
▁doden	-10.8556
out	-10.8556
▁tosamenarbeit	-10.8558
kuhl	-10.8561
▁influss	-10.8567
127	-10.8567
▁ik	-10.8568
▁ci	-10.8573
208	-10.8576
494	-10.8579
▁richter	-10.8579
▁coll	-10.8579
▁middleren	-10.858
▁dorup	-10.8581
luut	-10.8585
▁riep	-10.8589
▁horn	-10.8589
258	-10.8598
▁rudolf	-10.86
▁ähnlich	-10.86
▁ruumsond	-10.86
▁krankenhuus	-10.8601
▁0,31	-10.8601
▁werner	-10.8603
▁updrag	-10.8603
▁mikro	-10.8604
▁gresig	-10.8605
▁1902	-10.8609
jimmy	-10.8615
weertschop	-10.8625
▁acker	-10.8626
peter	-10.8629
290	-10.8629
▁jod	-10.8635
wu	-10.8637
365	-10.8646
▁god	-10.8651
chan	-10.8653
spenn	-10.8655
▁stunnen	-10.8657
evangeli	-10.8658
▁direkter	-10.8658
▁ankamen	-10.8659
lüü	-10.8659
▁stuttgart	-10.8659
▁äquater	-10.8659
▁publikum	-10.8659
▁schuult	-10.866
plaaster	-10.866
▁interesse	-10.866
▁versorgt	-10.8661
handlung	-10.8662
▁uteneen	-10.8662
900	-10.8662
▁1851	-10.8663
▁bildung	-10.8666
▁wiederhen	-10.8668
tieden	-10.867
johrige	-10.8671
▁52	-10.8673
▁front	-10.8676
▁find	-10.8678
▁roger	-10.8686
▁eenmal	-10.8689
233	-10.8691
▁freesett	-10.8691
will	-10.8692
▁motiv	-10.8692
brenn	-10.8692
▁aten	-10.8693
irisch	-10.8694
▁däänsche	-10.8701
178	-10.8704
burn	-10.8709
▁amundsen	-10.872
▁künstlich	-10.872
▁ehmolige	-10.872
▁2015	-10.872
▁luut	-10.8729
vig	-10.8732
▁protein	-10.8733
bann	-10.8736
aktiv	-10.8736
lück	-10.8736
▁10.000	-10.8737
▁utdrück	-10.8739
prozess	-10.8743
▁vörut	-10.8744
▁öllers	-10.8746
▁indiana	-10.8747
▁ümloop	-10.8748
156	-10.8749
9)	-10.8751
▁scheedt	-10.8752
▁trainer	-10.8752
rott	-10.8757
ais	-10.8758
zeit	-10.8758
▁duur	-10.876
493	-10.876
▁82	-10.8761
▁ümgeven	-10.8766
▁historsch	-10.878
▁lebber	-10.878
▁würr	-10.8781
▁phasen	-10.8783
▁senator	-10.8791
▁noordwest	-10.8792
linie	-10.8795
▁öösterrieksch	-10.8795
▁bedrapen	-10.8795
274	-10.8797
358	-10.8798
öm	-10.8799
▁labor	-10.8806
350	-10.8816
▁baden	-10.8818
▁neehuus	-10.8818
gem	-10.8821
▁utland	-10.8821
▁thor	-10.8822
äär	-10.8829
▁sennen	-10.8829
▁2007)	-10.883
lage	-10.8832
▁test	-10.8834
▁hunt	-10.8841
▁koalitschoon	-10.8841
bündnis	-10.8841
▁81	-10.8845
länder	-10.8846
▁wappen	-10.8847
▁kugel	-10.885
▁bomb	-10.8851
▁pianist	-10.8854
fell	-10.8856
hoo	-10.8856
▁word	-10.886
▁steek	-10.886
▁58	-10.8866
▁themen	-10.8868
tüschen	-10.8868
gno	-10.887
▁angahn	-10.8872
491	-10.8878
▁epilepsie	-10.8878
▁strukturen	-10.8879
▁silizium	-10.8903
▁kontinent	-10.8903
baas	-10.8904
register	-10.8906
▁entstunn	-10.8907
▁wieteren	-10.8909
▁super	-10.8921
▁photo	-10.8923
▁komponeert	-10.8924
quark	-10.8927
ografie	-10.8927
lach	-10.8927
tennessee	-10.893
snackt	-10.893
▁hay	-10.8931
glieken	-10.8935
lv	-10.8935
220	-10.8936
lief	-10.8937
▁wunner	-10.8942
▁fred	-10.8948
▁strand	-10.895
▁gall	-10.8955
361	-10.896
schaap	-10.8961
▁gefährlich	-10.8964
▁zivil	-10.8965
▁kontakt	-10.8966
▁ross	-10.8969
▁fö	-10.8969
streck	-10.8971
▁freesch	-10.8971
▁1903	-10.8974
▁dörsetten	-10.8974
▁fal	-10.8981
▁möhlen	-10.8982
▁ali	-10.8983
▁insetten	-10.8984
kansas	-10.8986
▁intwüschen	-10.8989
gemeend	-10.8991
klooster	-10.8994
▁nedderlannsche	-10.8996
146	-10.8999
dorsteller	-10.9005
▁kai	-10.9009
johren	-10.9011
öff	-10.9015
typen	-10.9018
▁utklamüstert	-10.9026
▁warstood	-10.9026
▁freenbeek	-10.9027
326	-10.9027
▁dormolige	-10.9027
186	-10.9027
brand	-10.9028
▁rostock	-10.9028
▁tennisspeler	-10.9028
▁gödder	-10.9028
▁center	-10.9029
rüm	-10.9029
drückt	-10.9031
▁esens	-10.9033
▁technische	-10.9034
kreisloop	-10.9035
▁opper	-10.9044
▁85	-10.9051
söhn	-10.9056
tafel	-10.9058
uli	-10.9062
▁översicht	-10.9062
▁wehr	-10.9062
▁joden	-10.9065
amin	-10.9065
▁kategorien	-10.9066
▁lake	-10.9067
▁sluss	-10.9069
piep	-10.9071
mannschop	-10.9074
▁spin	-10.9075
▁tovör	-10.9084
▁kaak	-10.9084
▁allerwegens	-10.9089
▁gravitatschoon	-10.9089
▁lithium	-10.9089
▁volumen	-10.9089
▁veroordeelt	-10.9089
▁shi	-10.9089
▁wehrmacht	-10.9089
▁vörmolige	-10.9089
dorp	-10.909
▁islam	-10.9091
▁utdragen	-10.9091
misschoon	-10.9091
uri	-10.9091
▁platin	-10.9092
▁wald	-10.91
ity	-10.9101
▁bucht	-10.9104
▁84	-10.9104
kow	-10.9105
▁elisabeth	-10.9113
490	-10.9113
haus	-10.9114
▁1500	-10.9118
168	-10.9126
thi	-10.9129
partner	-10.9129
205	-10.9135
489	-10.9136
▁berop	-10.9136
▁giftig	-10.9136
▁sig	-10.9137
bbel	-10.9138
115	-10.9143
show	-10.9144
,83	-10.9145
181	-10.9147
wagen	-10.9152
fiction	-10.9152
slötel	-10.9152
ierz	-10.9153
lannen	-10.9155
oordeel	-10.9156
▁hartog	-10.9156
▁streek	-10.9157
▁tügen	-10.9158
▁hie	-10.9159
525	-10.9165
amerika	-10.9173
▁soziale	-10.9183
588	-10.9184
▁hund	-10.9189
▁jeder	-10.9192
aan	-10.9198
159	-10.9202
kolleg	-10.9203
flachen	-10.9206
deelken	-10.9206
golden	-10.9208
idi	-10.921
▁parallel	-10.9215
▁verbreedt	-10.9215
▁franzosentied	-10.9216
▁fudder	-10.9217
gli	-10.9217
▁internet	-10.9218
▁börgerkrieg	-10.9219
uld	-10.922
spartei	-10.9222
279	-10.9222
leit	-10.9224
▁1889	-10.9226
▁kin	-10.9228
▁buck	-10.9229
▁freesland	-10.923
▁800	-10.9236
▁utspraken	-10.9242
▁monte	-10.9252
▁weertschopplich	-10.9256
isatschoon	-10.9257
front	-10.9261
182	-10.9262
,81	-10.9267
flo	-10.9268
▁scheden	-10.9277
▁block	-10.9277
▁periodensystem	-10.9279
thriller	-10.9279
▁lümborg	-10.9279
▁striepen	-10.9279
▁döchter	-10.9279
▁wetenschopplich	-10.9279
▁behannelt	-10.9279
▁lewis	-10.9279
▁rundfunk	-10.928
una	-10.928
148	-10.928
217	-10.928
▁reformeerte	-10.9287
▁monk	-10.9288
750	-10.9289
aatsch	-10.9292
)|	-10.9294
▁broch	-10.9296
▁szeen	-10.9303
aarsch	-10.9304
791	-10.9305
▁provinzen	-10.9314
▁tennessee	-10.9315
aga	-10.9317
▁stadtrecht	-10.9328
gemeenschop	-10.9333
▁sülve	-10.9334
quart	-10.9335
▁2,6	-10.9335
193	-10.9338
▁fehler	-10.9339
lick	-10.934
differenz	-10.9343
▁wimbledon	-10.9343
▁müller	-10.9343
▁geweev	-10.9343
plätz	-10.9344
▁vagels	-10.9344
owitsch	-10.9344
▁preester	-10.9344
▁blomen	-10.9345
goldpeer	-10.9346
▁anlaag	-10.9349
▁klassisch	-10.9351
▁anslag	-10.9354
▁natuur	-10.9359
billen	-10.9361
▁filmmusik	-10.9362
▁boord	-10.9363
▁kummedie	-10.9366
▁breet	-10.9368
düütschen	-10.9368
▁hoochschool	-10.9371
▁grötteren	-10.9372
loopbahn	-10.9373
▁japaansch	-10.9374
indiana	-10.9379
▁56	-10.9384
▁ray	-10.9384
slüüd	-10.939
▁stiggt	-10.9394
▁weder	-10.9394
wir	-10.9397
▁bavenflach	-10.9401
akschoon	-10.9402
▁plicht	-10.9405
offizier	-10.9408
▁aktuell	-10.9408
mobil	-10.941
▁isotopen	-10.941
ctor	-10.9411
▁utgaav	-10.9412
▁1899	-10.9414
▁54	-10.9414
▁wilson	-10.9415
▁kalium	-10.9416
▁1916	-10.9416
▁namen	-10.9418
▁zeus	-10.9424
▁marien	-10.9424
▁chor	-10.9433
▁wichtigst	-10.9433
480	-10.9434
801	-10.9434
▁snitt	-10.9434
ohlenstoffdioxid	-10.9436
▁fraagt	-10.9438
wertschap	-10.944
dreih	-10.9446
schirm	-10.9446
▁neutronen	-10.9446
lav	-10.9453
227	-10.9457
▁bach	-10.9458
149	-10.9459
▁comp	-10.9459
diktat	-10.9459
8)	-10.9463
124	-10.9469
▁betahlen	-10.9473
▁fröhjohr	-10.9474
▁parti	-10.9475
476	-10.9476
▁61	-10.9477
uwe	-10.9478
174	-10.9482
▁gesicht	-10.9482
▁bestanddeel	-10.9483
schriften	-10.9485
wedd	-10.9489
twee	-10.949
218	-10.9492
▁redden	-10.95
177	-10.9501
voll	-10.9502
▁53	-10.951
johann	-10.9511
stört	-10.9513
swemm	-10.9517
▁ort	-10.9521
denken	-10.9522
elementen	-10.9525
▁nr	-10.9526
logie	-10.9532
▁nümms	-10.9538
▁sediment	-10.9538
▁albedo	-10.9538
▁records	-10.9538
hormon	-10.9538
magazin	-10.9538
trans	-10.9538
259	-10.9539
▁0,35	-10.9539
▁0,37	-10.9539
▁0,34	-10.954
▁herrscher	-10.954
▁rep	-10.9541
▁baben	-10.9542
▁mitarbeiter	-10.9542
▁72	-10.9546
▁oostsee	-10.9552
▁opern	-10.9557
▁leeder	-10.9558
▁eest	-10.956
▁farm	-10.9568
▁pennsylvania	-10.9569
▁unafhangig	-10.9572
▁fürst	-10.9578
477	-10.9578
▁1898	-10.9578
pack	-10.9579
michael	-10.9579
▁revolutschoon	-10.9579
▁tweemol	-10.9581
▁dorum	-10.9582
▁opgeven	-10.9584
stärk	-10.9584
582	-10.9585
▁bedüdenste	-10.9587
▁natschonen	-10.9592
lieb	-10.9593
▁frucht	-10.9601
▁throon	-10.9604
▁hawkins	-10.9604
▁populär	-10.9604
▁diplom	-10.9604
▁driggt	-10.9604
▁musikalisch	-10.9604
▁utbilln	-10.9606
▁angeiht	-10.961
▁bost	-10.961
deelt	-10.9618
187	-10.9619
▁frau	-10.9624
▁öllsten	-10.9626
▁hööchsten	-10.9628
▁araabsche	-10.963
▁daar	-10.9632
▁florida	-10.9634
▁belast	-10.9634
806	-10.9637
▁intreden	-10.9638
▁verwaltung	-10.9639
325	-10.964
projekt	-10.9644
▁lev	-10.9645
kummedie	-10.9646
stall	-10.9647
▁philosoph	-10.9647
ünnen	-10.9647
blie	-10.9649
▁verleh	-10.965
▁wand	-10.9655
▁cd	-10.9655
▁gedenk	-10.9661
▁vörstellt	-10.9666
▁exzentrizität	-10.967
▁gnarrenborg	-10.967
▁kolonial	-10.967
▁christlich	-10.967
▁hypo	-10.9671
▁fusion	-10.9671
▁duchtig	-10.9673
▁kuba	-10.9673
tosetten	-10.9682
134	-10.9683
tätigkeit	-10.969
209	-10.9692
235	-10.9694
klin	-10.9696
252	-10.9699
▁pint	-10.9701
steiht	-10.9703
krise	-10.9704
▁vereenigte	-10.9705
328	-10.9706
▁grad	-10.9707
▁tal	-10.9707
material	-10.9712
anna	-10.9715
456	-10.9716
▁tüüg	-10.9716
488	-10.9716
572	-10.9721
153	-10.9723
mili	-10.9724
wahn	-10.9727
▁reisen	-10.9728
268	-10.9733
▁89	-10.9736
▁halfweertstiet	-10.9736
▁informatschonen	-10.9736
▁neetral	-10.9737
▁flaaghaven	-10.9737
▁verwennen	-10.9737
▁ünnerwegens	-10.9737
polit	-10.9737
▁boy	-10.9737
▁quanten	-10.9738
▁status	-10.9739
utschuss	-10.974
▁aktivität	-10.974
▁starken	-10.974
▁flott	-10.9741
▁middelpunkt	-10.9742
anta	-10.9743
▁hillige	-10.9745
▁kehr	-10.9748
▁oxidatschoons	-10.9749
368	-10.9754
noorddüütschland	-10.976
▁luther	-10.9761
▁sülvs	-10.9766
▁83	-10.9767
▁68	-10.9773
▁damp	-10.9775
leiden	-10.9777
▁with	-10.978
▁prozess	-10.978
▁traditschonell	-10.978
▁alex	-10.9783
rische	-10.9783
schild	-10.9784
▁kentucky	-10.9792
▁dutt	-10.9793
warm	-10.9794
ögen	-10.9803
sparr	-10.9803
▁theodor	-10.9804
▁utbillt	-10.9804
▁action	-10.9805
▁0,29	-10.9806
▁0,32	-10.9806
▁einstein	-10.9807
329	-10.981
ido	-10.9815
▁molekül	-10.9817
goot	-10.982
schrieven	-10.9831
nevel	-10.9833
instrument	-10.9847
▁krink	-10.985
fisch	-10.9853
▁vörder	-10.9854
▁kortfilm	-10.9858
▁hessen	-10.9858
▁peri	-10.9859
reakschoon	-10.986
402	-10.9861
luft	-10.9862
▁swack	-10.9864
sund	-10.9866
bill	-10.9866
▁buur	-10.9868
▁blöten	-10.9871
▁antarktis	-10.9871
▁schaltjohr	-10.9871
▁koorn	-10.9872
▁adams	-10.9872
wetenschop	-10.9873
▁hööftdorsteller	-10.9873
234	-10.9874
▁verlöpt	-10.9877
321	-10.9877
219	-10.9883
gröttste	-10.9885
207	-10.9887
kind	-10.989
▁meyer	-10.9898
150	-10.99
255	-10.9901
▁metallen	-10.9906
▁trop	-10.9907
hans	-10.9909
▁kene	-10.9913
▁mein	-10.9914
▁kali	-10.9915
460	-10.9919
▁stift	-10.9922
▁utricht	-10.9923
liggen	-10.9926
ragen	-10.9929
125	-10.9931
▁78	-10.9934
▁agent	-10.9939
rööd	-10.9941
▁geographie	-10.9943
445	-10.9945
176	-10.9947
münn	-10.9948
▁1896	-10.9949
▁kurt	-10.9952
aire	-10.9952
avend	-10.9953
483	-10.9955
▁1890	-10.9955
498	-10.9956
119	-10.9957
lied	-10.9957
lehrer	-10.9959
▁längere	-10.996
alität	-10.996
520	-10.9963
mul	-10.9964
▁daam	-10.9969
mester	-10.9969
richtung	-10.9969
▁vermögen	-10.997
248	-10.9971
▁chile	-10.9972
▁upwussen	-10.9972
▁norm	-10.9979
▁afsicht	-10.9982
firma	-10.9987
keed	-10.9987
216	-10.9988
blood	-10.999
▁62	-10.9994
aart	-10.9998
inseln	-10.9999
harmon	-11.0005
▁magnesium	-11.0008
▁venedig	-11.0008
▁verantwoortlich	-11.0008
▁weimar	-11.0008
▁demokratie	-11.0008
tostellen	-11.0009
winnen	-11.0009
▁christendom	-11.0009
▁opgaven	-11.001
▁tegenöver	-11.001
▁bell	-11.0011
380	-11.0014
▁zoo	-11.0019
▁moot	-11.0023
▁alpha	-11.0024
▁marsch	-11.0026
▁video	-11.0028
162	-11.0029
831	-11.0031
319	-11.0033
▁tolaten	-11.0034
▁opstellt	-11.0035
▁stärk	-11.0035
▁brom	-11.0037
▁schullen	-11.0041
▁ideal	-11.0041
lop	-11.0046
▁presse	-11.0048
▁voss	-11.0055
▁makedonien	-11.0056
medizin	-11.0057
mischen	-11.006
güng	-11.0067
iii	-11.007
▁westliche	-11.0074
139	-11.0075
▁claude	-11.0077
▁utwählt	-11.0077
oregon	-11.0077
▁francisco	-11.0078
▁south	-11.008
ical	-11.0082
▁petrus	-11.0083
▁tein	-11.0085
▁pilot	-11.0086
803	-11.0087
▁globe	-11.0088
830	-11.009
▁kinos	-11.0093
woort	-11.0093
▁opgaav	-11.0095
▁buer	-11.0095
▁demokraatsche	-11.0102
▁lenin	-11.0115
▁positiv	-11.0116
schütt	-11.0118
435	-11.0119
fekt	-11.0119
484	-11.0121
347	-11.0125
▁stoop	-11.0125
festival	-11.0127
▁trucken	-11.0128
lé	-11.0128
schuven	-11.0131
▁clark	-11.0132
▁afsett	-11.0133
▁spieker	-11.0134
▁dack	-11.0139
▁emil	-11.0141
▁rod	-11.0145
▁reken	-11.0146
gewöhnlich	-11.0146
▁bruckner	-11.0146
▁1867	-11.0146
▁ohlers	-11.0146
stöten	-11.0147
▁howard	-11.0149
369	-11.015
▁buuk	-11.0152
▁temp	-11.0153
▁haar	-11.016
212	-11.0161
▁vörkummt	-11.0167
▁disk	-11.0176
▁spreker	-11.0177
wh	-11.0177
163	-11.0182
285	-11.0186
▁wel	-11.0186
uel	-11.019
tank	-11.0194
▁schutz	-11.0197
▁upkamen	-11.0198
karriere	-11.0198
arteria	-11.0198
direkter	-11.0198
politisch	-11.0199
löppt	-11.0201
▁lava	-11.0202
▁day	-11.0202
planet	-11.0203
▁miles	-11.0204
straaf	-11.0205
▁gell	-11.0207
versammeln	-11.0208
▁state	-11.021
egger	-11.0216
verteidigung	-11.0216
▁entstaht	-11.0216
▁middellannsche	-11.0216
▁methood	-11.0216
▁deefholt	-11.0216
▁ofschons	-11.0216
▁dröpt	-11.0217
516	-11.0217
▁brobargen	-11.0217
▁michigan	-11.0217
▁piet	-11.022
172	-11.022
▁å	-11.0222
▁wetenschopplers	-11.0223
▁johnny	-11.0223
225	-11.0223
506	-11.0225
ööl	-11.0227
798	-11.0228
▁manet	-11.0233
aux	-11.0235
224	-11.0238
▁afwehr	-11.0242
▁lord	-11.0242
samtgemeen	-11.0245
▁magnet	-11.0247
▁beröhmte	-11.0248
▁87	-11.025
floot	-11.0251
▁version	-11.0251
schiev	-11.0254
479	-11.0254
fluss	-11.0259
▁bestand	-11.026
▁hertog	-11.0267
expeditschoon	-11.027
freesland	-11.027
nimmt	-11.027
istik	-11.0272
▁sowjet	-11.0286
▁intressant	-11.0286
▁situatschoon	-11.0286
▁verklaart	-11.0286
voyager	-11.0286
▁söögdeerten	-11.0286
▁1866	-11.0286
▁harrison	-11.0287
▁smuck	-11.0287
▁0,33	-11.0289
▁loopt	-11.029
▁orion	-11.0295
▁tütt	-11.0298
▁steken	-11.03
fri	-11.0301
▁blauen	-11.0305
322	-11.0312
▁graven	-11.0313
390	-11.0317
▁sara	-11.0318
▁umto	-11.0318
▁oortschop	-11.0319
▁tag	-11.0321
▁siedlung	-11.0325
▁joachim	-11.0327
republiek	-11.0341
jazz	-11.0344
204	-11.0346
359	-11.0346
period	-11.0347
▁geföhl	-11.0348
▁tellen	-11.035
!"	-11.0351
▁meideborg	-11.0357
▁arthur	-11.0357
▁verwennt	-11.0358
▁irland	-11.0358
▁orgaansche	-11.0359
echte	-11.036
föögt	-11.036
▁boven	-11.0362
*	-11.0366
▁wert	-11.0373
▁inspeelt	-11.0376
weiß	-11.0377
höört	-11.0381
355	-11.0387
▁tweede	-11.0388
▁giro	-11.0389
stark	-11.0394
584	-11.0395
▁tyyp	-11.0396
372	-11.0409
bundsliga	-11.0414
▁herrschop	-11.0424
ulu	-11.0426
▁bakterien	-11.0429
▁heidelbarg	-11.0429
▁kommerziell	-11.0429
▁quecksülver	-11.0429
▁verklort	-11.0429
▁jörk	-11.0429
▁alphabet	-11.0429
▁süüdamerika	-11.0429
slagader	-11.0429
▁wuddel	-11.043
262	-11.043
440	-11.0434
▁gut	-11.0436
▁worüm	-11.0437
171	-11.0437
▁1876	-11.044
▁petr	-11.0441
▁120	-11.0441
germaansch	-11.0441
▁1893	-11.0442
mächte	-11.0444
▁bundes	-11.0449
▁floot	-11.0454
trakt	-11.0456
phil	-11.0458
▁röver	-11.0461
minsch	-11.0462
▁63	-11.0466
▁gröne	-11.0469
▁utfunnen	-11.0473
▁norman	-11.0477
▁eta	-11.0479
ridge	-11.0481
snelligkeit	-11.0487
forschung	-11.0487
graven	-11.0488
135	-11.049
öhr	-11.0498
▁narichten	-11.0499
▁amateur	-11.0501
▁kommunalreform	-11.0501
▁uplööst	-11.0501
▁zentraal	-11.0501
frequenz	-11.0501
▁dresden	-11.0501
▁praktisch	-11.0501
▁konstantin	-11.0501
▁bundskanzler	-11.0502
füllt	-11.0502
farven	-11.0505
▁verhollen	-11.0511
▁kath	-11.0511
mir	-11.0513
▁anfäll	-11.0515
midd	-11.0523
776	-11.0524
▁stoder	-11.0529
glas	-11.0531
▁trio	-11.0531
▁koopmann	-11.0532
269	-11.0535
slagtüüch	-11.0537
267	-11.054
ique	-11.054
▁neddersassische	-11.054
▁verglieken	-11.054
▁mei	-11.0542
816	-11.0545
▁genf	-11.055
meister	-11.0552
koreaansch	-11.0561
570	-11.0562
▁deutsche	-11.0565
blau	-11.0566
▁roland	-11.057
strööm	-11.0572
226	-11.0572
explosion	-11.0573
▁twintig	-11.0573
▁kranken	-11.0575
▁blaue	-11.0576
▁schulen	-11.0577
▁lokal	-11.0578
bildung	-11.0578
▁sungen	-11.0579
▁1895	-11.0583
▁oklahoma	-11.0596
▁eenfack	-11.0602
▁miller	-11.0607
▁künstlerisch	-11.0617
265	-11.0619
497	-11.0627
gripp	-11.0627
▁late	-11.0628
dusend	-11.0636
club	-11.0637
regel	-11.0637
▁haft	-11.0638
231	-11.0643
▁utgahn	-11.0645
▁society	-11.0646
▁atomkarn	-11.0647
458	-11.0648
103	-11.0648
▁anwennt	-11.0648
▁winterspelen	-11.0649
▁stämm	-11.0652
▁jurist	-11.0654
▁patienten	-11.0656
hild	-11.0659
buddel	-11.066
▁dreeeck	-11.0664
280	-11.0664
▁deelnommen	-11.0666
▁rau	-11.0669
rau	-11.0674
472	-11.0676
▁komponisten	-11.0689
▁57	-11.069
▁mantel	-11.0693
darm	-11.0695
179	-11.0695
427	-11.0696
802	-11.0699
249	-11.0701
▁mississippi	-11.0702
356	-11.0702
format	-11.0705
144	-11.0708
289	-11.0709
rebeed	-11.0712
446	-11.0712
ohio	-11.0713
▁rekord	-11.072
800	-11.0721
▁satelliten	-11.0721
wirkung	-11.0722
▁amtsspraak	-11.0722
▁rutfunnen	-11.0723
805	-11.073
438	-11.0732
▁laden	-11.0735
306	-11.0735
▁fett	-11.074
237	-11.0741
▁oppositschoon	-11.0744
wede	-11.0747
▁goorn	-11.0748
247	-11.075
487	-11.0752
485	-11.0753
▁lüttste	-11.0756
829	-11.0757
▁jefferson	-11.0761
▁prag	-11.0763
▁saat	-11.0764
▁afscheed	-11.0764
126	-11.0765
kümm	-11.0765
253	-11.0766
duk	-11.077
▁regie	-11.0772
▁versöch	-11.0772
bunnen	-11.0774
▁henwiesen	-11.0774
lling	-11.0776
▁minne	-11.0778
▁...	-11.0782
▁ried	-11.0782
meeten	-11.0787
miss	-11.0788
tetra	-11.0789
regeeren	-11.079
variante	-11.0791
▁chemiker	-11.0794
▁jüngste	-11.0794
▁gmbh	-11.0794
▁utbreden	-11.0794
▁entscheeden	-11.0794
▁tosammen	-11.0794
▁füerwehr	-11.0794
▁orange	-11.0795
▁basalt	-11.0795
▁0,36	-11.0795
slacht	-11.0795
▁world	-11.0796
vörpommern	-11.0798
246	-11.0801
▁1836	-11.0802
owski	-11.0805
▁1858	-11.0806
▁1881	-11.0806
▁bühnen	-11.0807
iso	-11.0807
▁weertschap	-11.0808
▁drüddel	-11.0811
weih	-11.0812
▁66	-11.0812
288	-11.0817
bur	-11.0819
▁gegenan	-11.0831
▁antwoort	-11.0832
partie	-11.0833
357	-11.0835
svörsitter	-11.0836
457	-11.0842
palz	-11.0846
drieven	-11.0851
▁olympsche	-11.0856
▁wagen	-11.0857
republik	-11.086
preußen	-11.0861
▁afdeel	-11.0864
772	-11.0866
▁inwohners	-11.0868
▁kopenhagen	-11.0868
▁tohopenfaat	-11.0868
▁milliarden	-11.0868
▁margaret	-11.0868
▁naklapp	-11.0868
▁sturven	-11.0868
▁eenheitsgemeen	-11.0868
synthees	-11.0868
▁finale	-11.0869
▁marshall	-11.0869
▁streng	-11.0872
▁tonaams	-11.0873
▁flucht	-11.0877
297	-11.0877
▁finger	-11.0879
169	-11.0879
▁sinfonie	-11.088
▁mütt	-11.088
team	-11.0882
▁2,2	-11.0886
▁verdacht	-11.0886
998	-11.0893
saxophon	-11.0895
▁enkelt	-11.0895
▁gefängnis	-11.09
▁liberal	-11.0904
▁woord	-11.0904
367	-11.0904
586	-11.0907
patri	-11.0908
▁lem	-11.0918
308	-11.0919
▁69	-11.0919
charts	-11.092
graphi	-11.092
203	-11.0921
▁utstellung	-11.0922
meten	-11.0929
▁elektrisch	-11.0931
236	-11.0932
▁bewegung	-11.0933
franzöösch	-11.0936
kritik	-11.0938
▁nic	-11.0938
drief	-11.0938
▁reist	-11.0938
emmer	-11.0942
345	-11.0943
▁beschrifft	-11.0944
▁färöer	-11.0944
▁taylor	-11.0944
▁kommunalwahl	-11.0944
ingenieur	-11.0944
▁1861	-11.0944
▁josef	-11.0944
▁bispeelswies	-11.0944
benny	-11.0944
▁bewahnt	-11.0944
▁kompositschoon	-11.0944
▁goldmedaille	-11.0945
▁klocken	-11.0946
▁utgangs	-11.0948
▁eddie	-11.0948
▁hansestadt	-11.0948
▁1855	-11.0948
▁kling	-11.0949
▁geschäfts	-11.0953
▁1871	-11.0954
▁eddel	-11.0957
▁aven	-11.0969
▁1800	-11.0971
155	-11.0971
▁jura	-11.0972
▁trick	-11.0973
termin	-11.0976
374	-11.0977
äss	-11.0978
bohn	-11.0982
kolo	-11.0982
▁konservative	-11.0983
▁upgeven	-11.0984
▁laterhen	-11.0985
415	-11.0987
stadion	-11.0988
▁leiden	-11.0989
▁ööl	-11.099
▁iowa	-11.0991
410	-11.0991
▁tietschrift	-11.0991
▁verarbeit	-11.0993
▁freesche	-11.0999
349	-11.1004
▁fehlt	-11.1005
213	-11.1007
hamm	-11.1012
▁achteran	-11.1012
besök	-11.1012
▁ehrungen	-11.1012
doon	-11.1016
ünnerricht	-11.1018
▁nürnbarg	-11.1019
▁white	-11.1019
▁föffte	-11.1019
▁bestunn	-11.102
▁pastoor	-11.102
sexuell	-11.102
▁doktertitel	-11.1021
▁trügg	-11.1023
pommer	-11.1023
▁michel	-11.1023
streek	-11.1024
▁gewarf	-11.1025
▁muskel	-11.1025
▁bruun	-11.1027
▁atomtall	-11.1027
▁hööftrullen	-11.1029
bereit	-11.103
256	-11.103
▁67	-11.1032
▁1870	-11.1033
▁slank	-11.1033
fakter	-11.1039
▁wööst	-11.1044
gol	-11.105
▁döör	-11.1051
ory	-11.1054
562	-11.1054
▁mah	-11.1056
▁flegen	-11.1056
▁boon	-11.1061
▁recken	-11.1069
524	-11.1071
frakschoon	-11.1075
▁gewinn	-11.1079
228	-11.1082
gua	-11.1083
dütsch	-11.1087
turneer	-11.1089
höör	-11.1094
day	-11.1094
daan	-11.1095
günstig	-11.1096
klarinett	-11.1096
▁apostel	-11.1096
▁düsseldörp	-11.1096
▁wetenschaplich	-11.1096
uleert	-11.1098
▁umfaat	-11.1099
▁steernbild	-11.1101
bedriev	-11.1104
▁stried	-11.1106
▁1856	-11.1106
▁justiz	-11.1109
▁summer	-11.1109
▁julius	-11.1117
seminar	-11.1119
▁minnerheiten	-11.112
▁jim	-11.1122
▁tipp	-11.1126
▁worden	-11.113
▁billen	-11.1132
▁bedingen	-11.1135
▁american	-11.1136
stock	-11.1139
▁wend	-11.1141
▁ierz	-11.1142
412	-11.1143
cord	-11.1148
▁galli	-11.1158
doom	-11.1167
stören	-11.117
▁kanaadsch	-11.1173
▁söttmer	-11.1173
▁grunneng	-11.1173
▁stockholm	-11.1173
▁portugeesch	-11.1173
schreben	-11.1173
▁tabell	-11.1175
carbonat	-11.1178
▁endspeel	-11.1178
▁insichten	-11.118
▁schient	-11.118
▁77	-11.1181
▁schick	-11.1187
▁wiener	-11.1191
301	-11.1196
▁hööftling	-11.1197
rakete	-11.1197
449	-11.1198
▁rutgahn	-11.12
▁lungen	-11.1203
437	-11.1205
▁59	-11.121
526	-11.1212
▁stadtrebeet	-11.1213
▁sweedsch	-11.1221
▁79	-11.1222
793	-11.1226
▁eher	-11.1227
▁hauptmann	-11.1236
444	-11.1236
778	-11.1239
▁entstunnen	-11.1244
kristall	-11.1245
homo	-11.1248
▁nsdap	-11.125
▁schöllt	-11.125
▁wiehnachts	-11.125
▁gefahr	-11.125
▁vanadium	-11.125
▁klören	-11.125
▁wikinger	-11.125
▁överleevt	-11.125
syndrom	-11.1251
▁verfolgt	-11.1251
▁prinzip	-11.1251
215	-11.1252
interpret	-11.1253
▁folk	-11.1255
▁circ	-11.1256
▁fakter	-11.1257
wolf	-11.1259
▁amtstiet	-11.126
▁2005)	-11.1261
▁riet	-11.1262
502	-11.1273
143	-11.1276
▁ümbröcht	-11.1278
▁stock	-11.1282
▁rosa	-11.1287
▁herbert	-11.1287
schach	-11.1289
585	-11.1293
▁historiker	-11.1297
loov	-11.1298
260	-11.1298
558	-11.1306
▁palm	-11.1308
▁vörjohr	-11.1308
808	-11.1309
129	-11.1322
266	-11.1325
389	-11.1325
136	-11.1326
bibliothek	-11.1328
konzentratschoon	-11.1328
▁verkloort	-11.1328
▁1860	-11.1328
▁calvin	-11.1328
▁prozent	-11.1328
▁schienbor	-11.1328
fossil	-11.1329
apparat	-11.1329
sulfid	-11.133
hööch	-11.1332
foot	-11.1334
▁kassel	-11.1335
138	-11.1336
▁1857	-11.1336
▁verdreven	-11.1343
164	-11.1344
▁plasma	-11.1346
ööm	-11.1349
föhr	-11.1349
studium	-11.1352
cop	-11.136
303	-11.136
▁tietpunkt	-11.1362
▁elementar	-11.1376
session	-11.1382
▁strecken	-11.1384
lux	-11.1384
▁anstiegen	-11.1387
223	-11.1391
▁eenheitlich	-11.1392
▁may	-11.1393
graaf	-11.1394
▁schätzt	-11.1398
▁time	-11.1401
▁oord	-11.1404
583	-11.1405
konkurrenz	-11.1407
redakteur	-11.1407
▁verbinnt	-11.1407
bewusst	-11.1407
▁allgemene	-11.1407
suffix	-11.1407
▁viezpräsident	-11.1407
▁jahrhunnert	-11.1408
▁steinitz	-11.1408
▁oortsdelen	-11.141
▁opkamen	-11.1411
▁vagel	-11.1412
vadder	-11.1412
▁smack	-11.1413
▁colorado	-11.1416
scholen	-11.1417
▁begraven	-11.1417
777	-11.1418
thromb	-11.1419
▁1892	-11.142
robert	-11.1423
▁japaansche	-11.1427
313	-11.1427
▁scheepe	-11.1431
▁human	-11.1437
▁befre	-11.1437
▁physikaalsche	-11.144
▁0,42	-11.1441
▁pisa	-11.1441
▁hervör	-11.1451
▁teu	-11.1451
173	-11.1453
▁möhl	-11.1461
krimi	-11.1464
▁molekülen	-11.1469
▁schaffen	-11.1475
388	-11.1476
317	-11.1477
wedel	-11.148
▁utboot	-11.1484
versammlung	-11.1485
loot	-11.1485
▁ansiedelt	-11.1486
▁allieerten	-11.1486
▁caesar	-11.1486
▁mannslüde	-11.1486
▁vincent	-11.1486
molekül	-11.1487
ikatschoon	-11.1488
▁klaar	-11.1488
▁0,38	-11.149
▁kollegen	-11.149
▁0,40	-11.1493
▁schichten	-11.1493
▁dichtmaakt	-11.1494
▁1854	-11.1495
▁talent	-11.1496
▁erhard	-11.1497
▁1875	-11.1498
▁snack	-11.1505
650	-11.1506
145	-11.1508
archiv	-11.1513
stopen	-11.1525
817	-11.1527
phase	-11.1531
▁tweemal	-11.1533
▁eva	-11.1535
▁apentlich	-11.1536
wertung	-11.1537
bomb	-11.1539
achter	-11.1541
dörper	-11.1545
▁fleet	-11.1545
▁komet	-11.1545
mahl	-11.1546
▁alabama	-11.155
▁emden	-11.1553
▁becken	-11.1554
▁proportschoon	-11.1555
haupt	-11.1557
▁tell	-11.1558
556	-11.156
▁schenk	-11.1562
▁fehlen	-11.1564
▁habsborg	-11.1566
▁sowjeetsch	-11.1566
▁kledaasch	-11.1566
▁tschech	-11.1567
rhien	-11.1568
386	-11.157
eilannen	-11.157
▁tellur	-11.157
leiter	-11.1572
hinnern	-11.1572
▁1840	-11.1572
▁1846	-11.1574
▁hahn	-11.1575
▁rhienland	-11.1577
436	-11.1577
501	-11.158
391	-11.1582
kritisch	-11.1587
ään	-11.1591
▁carter	-11.1593
▁master	-11.1594
▁bedüüdend	-11.1598
▁künnig	-11.1603
▁koll	-11.1604
406	-11.1604
286	-11.1609
angreep	-11.161
lenk	-11.161
▁beröhmt	-11.1611
▁ehrenbörger	-11.1627
nukle	-11.1631
dynamik	-11.1631
reedschoppen	-11.1636
lapp	-11.1638
439	-11.1641
▁achterna	-11.1643
hou	-11.1645
▁utwahl	-11.1647
▁ruhrrebeet	-11.1647
▁jersey	-11.1647
▁speziell	-11.1647
▁drochters	-11.1647
jäger	-11.1647
▁realschool	-11.1649
▁brü	-11.165
konzert	-11.1651
▁theaterstück	-11.1651
▁76	-11.1652
453	-11.1657
807	-11.1657
222	-11.1657
▁tempel	-11.1659
spitz	-11.166
▁begrepen	-11.1661
330	-11.1662
illo	-11.1664
428	-11.1666
339	-11.1671
wiek	-11.1672
union	-11.1673
ruh	-11.1676
▁dode	-11.1677
333	-11.1684
276	-11.1685
▁wuss	-11.1686
505	-11.1689
rieten	-11.1689
▁driev	-11.1695
gau	-11.1696
▁passeer	-11.1706
▁vörstellen	-11.1707
▁dröge	-11.171
175	-11.1712
▁bröch	-11.1714
676	-11.1716
305	-11.1716
577	-11.1717
scheten	-11.1718
740	-11.1725
zonen	-11.1725
▁bomben	-11.1726
▁gouverneur	-11.1728
▁santiago	-11.1728
technologie	-11.1728
▁dwungen	-11.1728
▁extrem	-11.1728
kommando	-11.1728
▁1864	-11.1728
▁2017	-11.1729
▁dreiharbeiten	-11.1729
▁smöltpunkt	-11.173
▁wähler	-11.173
▁wirkt	-11.1731
▁mahler	-11.1731
▁drütt	-11.1733
akademie	-11.1734
segment	-11.1734
▁touristen	-11.1735
▁null	-11.1735
211	-11.1738
▁1887	-11.1739
grünnen	-11.1739
▁groff	-11.174
559	-11.1742
▁1883	-11.1744
bodden	-11.1744
prop	-11.1745
reuter	-11.1747
▁100.000	-11.1749
trium	-11.1751
▁kathoolsch	-11.1751
▁königlich	-11.1759
261	-11.1762
media	-11.1765
▁europäisch	-11.1767
384	-11.1768
fast	-11.1769
142	-11.1773
382	-11.1777
340	-11.1783
ologische	-11.1786
dioxid	-11.1786
jung	-11.1791
550	-11.1792
elv	-11.1793
▁maya	-11.1796
cz	-11.1797
▁sammlung	-11.18
ierte	-11.1801
496	-11.1802
▁neuro	-11.1803
511	-11.1803
790	-11.1803
▁wahnung	-11.1804
▁tv	-11.1805
549	-11.1809
▁wettkamp	-11.181
▁telefon	-11.181
▁trikot	-11.181
553	-11.1811
▁överall	-11.1814
▁1845	-11.1814
▁protonen	-11.1814
▁tinn	-11.1821
▁minnesota	-11.1821
788	-11.1822
▁1862	-11.1823
bremen	-11.1824
363	-11.1832
530	-11.1833
dräg	-11.1836
▁grant	-11.1836
▁flaag	-11.1837
▁nerven	-11.1838
▁antigen	-11.1839
▁fix	-11.1841
▁bavenh	-11.1841
hum	-11.1842
▁fehl	-11.1846
▁kosten	-11.185
▁rood	-11.185
▁verdeenst	-11.1852
323	-11.1868
797	-11.1874
779	-11.1875
102	-11.1876
▁falk	-11.1879
▁antikörpers	-11.1883
785	-11.1885
▁lester	-11.1888
▁verbreker	-11.1893
tofinnen	-11.1893
▁böhn	-11.1893
blöden	-11.1894
▁steernwacht	-11.1895
167	-11.1895
▁leistungen	-11.1897
272	-11.1901
▁ful	-11.1903
eerst	-11.1904
tournee	-11.1905
804	-11.1905
spezialist	-11.1909
▁iran	-11.1916
▁sammel	-11.1917
paläo	-11.1919
verlag	-11.1919
stünn	-11.1923
▁treckt	-11.1925
▁greken	-11.1927
▁eerstmol	-11.1935
▁willi	-11.1936
siedeln	-11.194
▁johan	-11.1942
411	-11.1943
▁tietwies	-11.1947
ophil	-11.1948
154	-11.1948
!“	-11.1949
299	-11.1949
▁histoorsch	-11.1951
▁aust	-11.196
▁fern	-11.1967
▁orleans	-11.1976
leutnant	-11.1976
▁silikat	-11.1976
hunnert	-11.1976
▁evangelium	-11.1976
▁negativ	-11.1976
▁musikaalsch	-11.1977
tunnel	-11.1977
wur	-11.1977
▁wurd	-11.1978
▁wirklich	-11.1978
▁selten	-11.1983
▁tat	-11.1983
▁rieksdag	-11.1985
▁tolest	-11.1986
0,52	-11.1988
▁1891	-11.199
air	-11.1992
▁filmrull	-11.1994
▁gröönland	-11.1995
angel	-11.2001
▁befaten	-11.2002
▁erhollen	-11.2004
232	-11.2004
282	-11.2007
verbännen	-11.2007
442	-11.2007
▁massachusetts	-11.2009
▁alpen	-11.201
443	-11.202
böver	-11.2028
401	-11.203
789	-11.2035
▁maschinen	-11.2045
976	-11.2049
794	-11.205
▁afordenten	-11.206
sphäär	-11.206
▁xenon	-11.206
▁befind	-11.2061
▁lasker	-11.2061
▁urkunn	-11.2061
▁sach	-11.2062
▁stewart	-11.2063
▁meenung	-11.2075
▁fiend	-11.2075
method	-11.2077
▁kreisstadt	-11.208
▁maleree	-11.2085
508	-11.2088
521	-11.2088
278	-11.21
▁eid	-11.21
▁duller	-11.21
346	-11.2102
302	-11.2104
▁0,58	-11.2105
ornen	-11.2111
jöödsch	-11.2111
▁penn	-11.2118
dé	-11.2118
▁brau	-11.212
▁mg	-11.2123
berlin	-11.2128
fatt	-11.2133
▁sellschopp	-11.2134
576	-11.2136
other	-11.2138
falt	-11.2139
▁egenstännige	-11.214
▁lind	-11.2141
▁afsolute	-11.2145
▁können	-11.2145
▁mount	-11.2145
▁betahlt	-11.2145
födder	-11.2147
▁blievt	-11.2147
▁andreas	-11.2147
▁evans	-11.2148
▁körter	-11.2151
▁füür	-11.2157
▁handwark	-11.2157
bewegung	-11.2157
verwalten	-11.2158
364	-11.2159
▁1874	-11.2159
▁böörd	-11.216
▁lor	-11.2163
▁cri	-11.2171
▁duke	-11.2172
gast	-11.2173
482	-11.2176
▁altar	-11.2177
▁beend	-11.2177
liber	-11.2177
lever	-11.2178
▁markus	-11.2178
mell	-11.2179
499	-11.2182
▁roy	-11.2186
152	-11.2189
342	-11.2192
309	-11.2195
▁schiller	-11.2198
161	-11.2203
▁dörföhrt	-11.2204
▁nö	-11.2206
461	-11.2209
▁physiker	-11.2215
▁militärisch	-11.2215
▁meh	-11.2223
▁ossenbrügge	-11.223
▁utstorven	-11.223
▁vietnam	-11.223
▁jugend	-11.2231
drüsen	-11.2231
▁muslim	-11.2232
▁schaaten	-11.2235
▁tohoopgahn	-11.2239
▁willy	-11.224
gewicht	-11.2244
füer	-11.2246
▁domini	-11.2247
▁norweegsch	-11.2248
ordig	-11.225
▁ersett	-11.226
▁versöken	-11.2261
474	-11.2261
▁klang	-11.2268
157	-11.2271
469	-11.2278
245	-11.228
▁klei	-11.2285
284	-11.2288
saken	-11.2301
251	-11.2303
gaht	-11.2311
▁faat	-11.2313
▁haa	-11.2313
disziplin	-11.2317
▁dwargplanet	-11.2317
▁orchestra	-11.2317
▁vergleken	-11.2317
▁brittsche	-11.2317
▁risiko	-11.2317
▁ümfaat	-11.2317
▁belize	-11.2317
▁coleman	-11.2317
▁neutral	-11.2317
anholt	-11.2321
▁felsen	-11.2322
▁toog	-11.2322
▁0,46	-11.2323
radikal	-11.2323
▁löw	-11.2328
▁1897	-11.233
tostand	-11.233
▁vörbereit	-11.2331
792	-11.2337
plicht	-11.2339
331	-11.2341
398	-11.2342
468	-11.2345
295	-11.2348
639	-11.2348
▁wannelt	-11.2349
▁elo	-11.2349
▁billy	-11.235
drunk	-11.2351
kort	-11.2352
sozialisten	-11.2365
185	-11.2369
mé	-11.2379
schü	-11.2386
grote	-11.2388
▁utforschen	-11.2389
▁fakensten	-11.2391
neddersassisch	-11.2392
▁afwater	-11.2399
531	-11.2401
ansgar	-11.2402
▁jerusalem	-11.2404
▁himmelskörper	-11.2404
▁middeloller	-11.2404
▁mingus	-11.2404
▁gebort	-11.2404
▁begrenzt	-11.2404
▁alkanen	-11.2404
504	-11.2404
▁noordamerika	-11.2405
smieten	-11.2405
▁astronauten	-11.2405
shire	-11.2408
▁hööchst	-11.241
▁överhaupt	-11.2417
▁1865	-11.2418
schiller	-11.2423
▁stor	-11.2427
691	-11.2427
hoben	-11.2431
▁0,43	-11.2434
walk	-11.2435
▁gegendeel	-11.2442
real	-11.2443
672	-11.2448
294	-11.2454
▁oorkunn	-11.2461
994	-11.2463
540	-11.2463
990	-11.2477
▁brian	-11.2482
705	-11.2482
jumfer	-11.2489
▁landdagswahl	-11.2491
ref	-11.2491
▁thermo	-11.2491
▁ruumfohrt	-11.2492
sulfat	-11.2492
komitee	-11.2492
uw	-11.2492
▁eems	-11.2492
▁heelmiddel	-11.2494
239	-11.2497
italia	-11.2497
▁0,47	-11.2497
willig	-11.25
▁1894	-11.2504
▁1888	-11.251
alabama	-11.251
gitarr	-11.251
rund	-11.2519
▁revel	-11.2519
749	-11.2521
▁blei	-11.2524
662	-11.2524
sloten	-11.2526
0,63	-11.2529
▁mainz	-11.2536
166	-11.2537
528	-11.2537
opper	-11.2544
verfall	-11.2546
▁allns	-11.2547
507	-11.2555
431	-11.2561
nomen	-11.2563
▁stütt	-11.2565
782	-11.2572
353	-11.2572
774	-11.2573
▁regionale	-11.2574
560	-11.2575
▁psycho	-11.2576
728	-11.258
▁polizist	-11.258
▁advent	-11.258
▁heeßel	-11.2581
▁utstrahlt	-11.2581
▁bunns	-11.2581
▁anpasst	-11.2582
▁trennt	-11.2582
▁trech	-11.2584
▁hoolt	-11.2584
▁plack	-11.2584
koppel	-11.2585
reakter	-11.2586
kru	-11.2588
▁carol	-11.2588
▁interna	-11.2591
147	-11.2592
▁claus	-11.2596
▁1879	-11.2596
▁tosommenarbeit	-11.2597
581	-11.2597
keden	-11.2598
▁kongo	-11.2602
514	-11.2606
▁minschliche	-11.2611
verein	-11.2611
529	-11.2613
▁britsche	-11.2613
upnahmen	-11.2614
▁1872	-11.2619
▁frisch	-11.2628
510	-11.2629
araabsch	-11.2633
riff	-11.2634
ordige	-11.2639
▁1868	-11.2641
298	-11.2644
▁öölm	-11.2644
störm	-11.2645
block	-11.2648
▁butenminister	-11.265
▁sichtbor	-11.2654
tschonal	-11.2656
381	-11.2659
515	-11.266
bury	-11.2664
ometrie	-11.2667
335	-11.2667
journal	-11.2667
alkali	-11.2667
▁shakespeare	-11.2669
▁zürich	-11.2669
▁creek	-11.2669
▁golf	-11.267
▁slutt	-11.267
meier	-11.2672
▁filmproduzent	-11.2673
▁hochtiet	-11.2673
795	-11.2675
958	-11.2677
gemein	-11.2677
▁1837	-11.2678
rico	-11.2679
▁fli	-11.268
▁bedrief	-11.268
▁längste	-11.2685
rhein	-11.2687
▁nableven	-11.2689
mississippi	-11.2691
mission	-11.2691
studio	-11.2691
franz	-11.2695
648	-11.2697
557	-11.2698
▁granit	-11.27
lüttje	-11.271
▁besunner	-11.2713
433	-11.2714
komm	-11.2717
▁timm	-11.2718
karl	-11.2721
▁mehrtall	-11.2723
hooch	-11.2726
▁extra	-11.2732
▁minnerheit	-11.2736
▁afrikaansche	-11.2737
▁shaw	-11.2738
express	-11.274
974	-11.2743
▁alldag	-11.275
454	-11.2751
▁villa	-11.2753
▁francis	-11.2757
▁mccartney	-11.2759
▁pjöngjang	-11.2759
▁tohoopslaten	-11.2759
▁0,39	-11.2759
▁major	-11.2759
▁verännert	-11.276
▁ohnsorg	-11.276
▁franklin	-11.2763
▁wüss	-11.2764
hillig	-11.2765
ijk	-11.2769
121	-11.2773
137	-11.2779
▁gemeenraat	-11.2781
▁verlööft	-11.2784
werser	-11.2788
▁vördeel	-11.2789
nöömt	-11.279
▁erricht	-11.2791
658	-11.2793
533	-11.2794
478	-11.2797
395	-11.2802
413	-11.2804
▁0,53	-11.2805
pyr	-11.2806
▁uut	-11.2812
462	-11.2813
287	-11.2814
683	-11.2814
404	-11.2816
405	-11.2822
▁övereen	-11.2825
▁zum	-11.2826
281	-11.2827
▁franzöös	-11.2836
melk	-11.2837
▁utwiet	-11.2844
708	-11.2848
▁louisiana	-11.285
▁tämlich	-11.285
▁oorsaak	-11.285
▁kompositschonen	-11.2851
▁wingst	-11.2851
▁gliekgewicht	-11.2851
▁gottfried	-11.2852
olith	-11.2854
▁mächtig	-11.2854
▁strei	-11.2854
▁buteren	-11.2857
120	-11.2858
307	-11.2862
660	-11.2863
475	-11.2864
zitat	-11.2864
▁dorachter	-11.2871
419	-11.2874
organisatschoon	-11.2875
▁down	-11.2876
paul	-11.2877
601	-11.288
▁bokel	-11.2885
283	-11.2885
▁kinofilm	-11.2886
▁eli	-11.2888
▁peru	-11.289
▁juan	-11.2899
▁chrom	-11.29
334	-11.2913
978	-11.2913
kapell	-11.2915
▁schaten	-11.2915
244	-11.2917
809	-11.2917
▁vörlaag	-11.2919
▁nächst	-11.2923
▁ingelsch	-11.293
▁sunner	-11.2932
gördel	-11.2941
territori	-11.2942
▁sizilien	-11.2942
▁kumbarg	-11.2942
▁obbens	-11.2942
▁andrew	-11.2942
▁bildhauer	-11.2942
▁kried	-11.2942
▁anboden	-11.2943
▁fuchtig	-11.2944
▁gemeensome	-11.2945
▁pastor	-11.2947
▁operatschoon	-11.2947
▁füll	-11.2948
▁trotz	-11.2948
▁gebruuk	-11.2948
klöör	-11.2958
▁schrieversche	-11.2959
▁barry	-11.2965
▁auk	-11.2968
▁0,51	-11.2971
▁0,54	-11.2974
phaas	-11.2975
weltmeester	-11.2979
327	-11.2979
▁jr	-11.2981
▁newton	-11.2983
310	-11.2991
426	-11.2992
▁nixon	-11.2994
421	-11.3
▁ägypt	-11.3009
▁düüt	-11.3009
fil	-11.3019
332	-11.3021
▁ferr	-11.3025
besitter	-11.3026
held	-11.3027
üter	-11.3032
▁aktuelle	-11.3034
württemberg	-11.3034
▁engagement	-11.3034
▁ensemble	-11.3034
▁lexikon	-11.3034
▁serbien	-11.3034
▁binnerhal	-11.3036
▁typisch	-11.3037
▁zucker	-11.3039
▁0,48	-11.3041
968	-11.3043
▁barock	-11.3043
▁transporteert	-11.3043
holz	-11.3052
oordig	-11.3055
gröön	-11.3063
▁binnenstadt	-11.3064
642	-11.3064
▁natschoon	-11.3069
296	-11.3069
459	-11.3073
888	-11.3076
▁beat	-11.308
▁radioaktiv	-11.3089
▁aflopen	-11.3091
roman	-11.3091
▁eric	-11.3091
kathoolsche	-11.3093
▁fau	-11.3097
▁kontinental	-11.3102
▁mao	-11.3103
▁sül	-11.3107
417	-11.3112
659	-11.3116
770	-11.3119
959	-11.3121
beteken	-11.3123
präsent	-11.3126
▁utlösen	-11.3126
▁beethoven	-11.3128
▁vulkaansch	-11.3128
▁digital	-11.3128
▁impuls	-11.3128
▁tokio	-11.3129
▁klööt	-11.313
würdig	-11.3133
429	-11.3134
▁halogen	-11.3135
375	-11.3135
▁boston	-11.3136
rügg	-11.3141
▁christi	-11.3141
753	-11.3141
▁fotograf	-11.3142
pulver	-11.3143
▁siedlers	-11.3143
522	-11.3144
stööt	-11.3147
▁act	-11.3158
kolonie	-11.316
schutz	-11.3163
krink	-11.3163
▁sweedsche	-11.3164
997	-11.3164
574	-11.3167
780	-11.3188
hell	-11.3193
701	-11.3199
kruut	-11.3199
348	-11.32
▁böse	-11.3206
▁snee	-11.3208
▁sworer	-11.321
büdel	-11.3221
▁argentinien	-11.3222
▁besiedelt	-11.3222
▁grammatik	-11.3222
▁hööftsächlich	-11.3222
▁tatsächlich	-11.3222
▁prince	-11.3222
positschoon	-11.3223
▁stefan	-11.3223
▁donald	-11.3224
▁wokeen	-11.3225
moni	-11.3225
rip	-11.3228
▁verdeent	-11.3228
fund	-11.3234
▁0,66	-11.3235
▁vörlöper	-11.3245
▁ndr	-11.3247
sennen	-11.325
schütz	-11.3252
▁hüüdig	-11.3256
böverflach	-11.3258
prinz	-11.3259
275	-11.3263
214	-11.3265
273	-11.3273
▁kumm	-11.3275
568	-11.3275
▁biografie	-11.3283
lena	-11.3292
gatt	-11.3292
312	-11.3293
medi	-11.3295
▁koh	-11.33
fur	-11.3302
784	-11.3305
▁tostann	-11.3306
509	-11.3306
▁süüdwest	-11.3308
vader	-11.331
0,60	-11.3313
▁natüürlich	-11.3317
▁verbetert	-11.3317
▁inheemsche	-11.3317
▁embryo	-11.3318
▁ellington	-11.3318
▁övertüügt	-11.3318
▁samuel	-11.3318
psalm	-11.3319
▁oorsprung	-11.3319
▁stabil	-11.3319
▁leevwesen	-11.332
regiment	-11.332
nuklid	-11.3321
▁gips	-11.3324
skupp	-11.3324
▁1821	-11.3327
▁wodör	-11.3333
fahrt	-11.3336
979	-11.3341
▁graafschop	-11.3344
512	-11.3347
august	-11.3352
432	-11.336
reckt	-11.3365
kaamt	-11.3367
376	-11.3375
956	-11.3382
799	-11.3385
678	-11.3386
131	-11.3386
lech	-11.3389
▁süüdkorea	-11.3393
▁entwickel	-11.3395
397	-11.3398
▁box	-11.3399
597	-11.3401
▁nahber	-11.3401
441	-11.3403
brill	-11.3412
▁vertell	-11.3412
▁academy	-11.3414
▁berlusconi	-11.3414
▁nördlich	-11.3414
ifizeert	-11.3414
wickelt	-11.3414
▁brahms	-11.3415
▁zur	-11.3415
▁kinnergoorn	-11.3415
▁olympia	-11.3415
▁pommern	-11.3417
▁akraat	-11.3418
603	-11.3419
▁humor	-11.342
151	-11.3425
▁klapp	-11.3426
▁reformatschoon	-11.3426
▁1886	-11.3427
263	-11.3428
383	-11.3429
▁force	-11.344
666	-11.3443
387	-11.3447
▁0,69	-11.3449
717	-11.345
mineral	-11.3453
national	-11.3453
422	-11.3458
wunner	-11.3459
waterstoff	-11.3464
▁junior	-11.3466
519	-11.347
▁schott	-11.3472
▁haag	-11.3475
377	-11.3478
▁upschreven	-11.3483
only	-11.3487
133	-11.3489
botter	-11.349
316	-11.3495
utgaav	-11.3499
242	-11.3506
681	-11.3507
▁arzbisdom	-11.3511
▁bestätigt	-11.3511
▁endgültig	-11.3511
sprakig	-11.3511
▁namibia	-11.3511
▁anbacksel	-11.3511
▁lennon	-11.3511
▁lööst	-11.3511
▁afornte	-11.3511
sülbige	-11.3512
▁uttuuscht	-11.3512
▁kaakpunkt	-11.3512
togeven	-11.3512
627	-11.3513
▁bidragen	-11.3514
▁ruumschipp	-11.3514
▁quarks	-11.3514
▁party	-11.3515
▁vulkanismus	-11.3516
sichtig	-11.352
▁mask	-11.352
▁hassel	-11.352
▁hoya	-11.3521
veranstalten	-11.3522
▁1853	-11.3524
▁umstänn	-11.3525
▁franco	-11.3541
▁dörsnittlich	-11.355
borkeit	-11.3552
▁bohr	-11.3558
408	-11.3558
▁gemeente	-11.356
566	-11.3562
▁övernommen	-11.3562
243	-11.3563
668	-11.3568
527	-11.3571
haalt	-11.358
konvent	-11.3581
element	-11.3581
tobringen	-11.3589
▁dave	-11.3598
schränk	-11.3605
armee	-11.3606
768	-11.3608
katastroph	-11.3609
▁fehmarn	-11.3609
▁vermoodt	-11.3609
▁harvard	-11.3609
▁slagtüüchspeler	-11.3609
▁glöven	-11.3609
▁bispill	-11.3609
▁drinken	-11.3609
bürger	-11.361
▁halfinsel	-11.3611
▁middeleuropa	-11.3612
▁1869	-11.3613
▁nieg	-11.3615
999	-11.3615
890	-11.3618
455	-11.3618
winner	-11.3618
boson	-11.362
694	-11.3626
587	-11.3626
unter	-11.3631
schapp	-11.3632
229	-11.3633
▁1882	-11.3634
▁aaft	-11.3636
▁basie	-11.3636
▁singersche	-11.3641
277	-11.3641
flögel	-11.3649
striet	-11.365
cel	-11.3651
▁torüchgahn	-11.3652
781	-11.3657
▁mike	-11.366
▁0,55	-11.3663
code	-11.3666
748	-11.3667
▁versett	-11.3668
▁belegg	-11.3671
▁fastland	-11.3673
▁komponeer	-11.3673
373	-11.3678
utter	-11.3679
▁verlööf	-11.3681
poten	-11.3694
bleven	-11.3694
beamte	-11.3694
▁dach	-11.3707
▁douglas	-11.3708
▁hämoglobin	-11.3708
▁mekelnborg	-11.3708
▁company	-11.3708
▁wischhoben	-11.3708
▁jamaika	-11.3708
653	-11.3708
▁hinnert	-11.3708
▁brüssel	-11.3708
▁levensmiddel	-11.3708
▁olenwoold	-11.3709
▁insatzgruppen	-11.3709
▁utscheeden	-11.371
▁schachspeler	-11.3712
579	-11.3716
▁0,71	-11.3716
▁0,76	-11.3717
▁0,56	-11.3718
▁grundlagen	-11.3718
▁0,68	-11.3721
▁1820	-11.3725
543	-11.3726
▁1813	-11.3726
352	-11.3729
▁sorgen	-11.373
407	-11.373
▁musical	-11.3731
503	-11.3733
pump	-11.3735
578	-11.3738
▁3000	-11.375
stoop	-11.3751
gravi	-11.3756
304	-11.3757
▁inselgrupp	-11.376
430	-11.3762
▁baron	-11.3763
590	-11.3763
▁0,44	-11.3766
834	-11.3771
dorff	-11.3772
878	-11.3789
420	-11.3791
marie	-11.3798
697	-11.3806
blööd	-11.3808
konflikt	-11.3808
▁gillespie	-11.3808
▁kabinett	-11.3808
spezifisch	-11.3808
▁stephan	-11.3808
▁wulken	-11.381
▁enzym	-11.3812
bloom	-11.3812
▁liter	-11.3815
▁elm	-11.3815
▁1843	-11.3818
141	-11.3822
▁1884	-11.3825
▁earl	-11.3827
722	-11.3829
▁nedderlandsche	-11.3838
643	-11.385
▁dreemol	-11.3851
▁tokieker	-11.3855
afsnitt	-11.3857
yne	-11.3862
315	-11.3862
▁stadtdelen	-11.3864
▁mood	-11.3868
▁great	-11.3869
625	-11.3872
765	-11.3876
991	-11.3878
▁mehrmol	-11.3888
883	-11.3889
▁polk	-11.3898
▁ammoniak	-11.3909
▁hüdtodag	-11.3909
▁utbreedt	-11.3909
▁leopold	-11.3909
983	-11.3909
▁verboden	-11.391
▁united	-11.391
385	-11.3912
▁universum	-11.3913
▁hööv	-11.3916
769	-11.3917
▁faststellen	-11.3917
mechaansch	-11.3917
▁konrad	-11.3917
744	-11.3918
▁versteken	-11.392
669	-11.3924
▁1849	-11.3925
▁soltau	-11.3925
light	-11.3926
▁tücht	-11.3928
0,79	-11.3935
759	-11.3937
▁dörführt	-11.394
ände	-11.3943
366	-11.3943
132	-11.3945
heet	-11.3946
241	-11.3947
688	-11.3949
561	-11.3953
latiensch	-11.3954
siedlung	-11.3955
snacken	-11.3956
▁kies	-11.396
▁wecke	-11.3968
311	-11.3973
122	-11.3973
nedderlandsch	-11.3982
517	-11.3982
677	-11.3984
tellig	-11.3987
▁kein	-11.3988
zig	-11.3992
▁bedüüdenst	-11.3997
720	-11.4
▁musikgrupp	-11.4005
▁wiss	-11.4005
787	-11.4008
396	-11.4009
▁gregor	-11.4011
▁jacques	-11.4011
▁verbetern	-11.4011
▁wünsch	-11.4011
392	-11.4011
▁dvd	-11.4011
mechanik	-11.4011
▁finster	-11.4011
927	-11.4012
▁juristeree	-11.4012
▁wertschaplich	-11.4012
▁tofreden	-11.4013
▁2018	-11.4014
▁jumfern	-11.4014
▁volksgruppen	-11.4014
▁gehör	-11.4015
für	-11.4017
synchroonsnacker	-11.4024
▁platon	-11.4025
dou	-11.4027
434	-11.4033
drüüs	-11.4041
418	-11.4042
293	-11.4044
▁wales	-11.4048
▁1,8	-11.4052
▁sonst	-11.4054
575	-11.4061
trainer	-11.4065
▁feend	-11.4069
337	-11.4074
▁apentliche	-11.4086
▁erich	-11.4089
879	-11.409
üük	-11.4093
757	-11.4097
447	-11.4103
▁rore	-11.4105
513	-11.4106
izität	-11.4111
▁improvis	-11.4114
▁iesflinklöper	-11.4114
▁osmaansche	-11.4114
▁slaveree	-11.4114
▁böhmen	-11.4114
▁bloodkörpers	-11.4114
▁nindörp	-11.4114
▁verhanneln	-11.4115
▁utsütt	-11.4115
▁flecken	-11.4119
▁eestland	-11.4123
▁finnland	-11.4126
▁0,93	-11.4128
567	-11.4129
lob	-11.413
104	-11.4135
diagramm	-11.4138
689	-11.4141
serva	-11.4146
▁barium	-11.4146
613	-11.4149
▁radioaktive	-11.4157
▁sowat	-11.4158
▁geno	-11.4159
424	-11.4161
chlor	-11.4164
minst	-11.4167
984	-11.4169
725	-11.417
▁verlang	-11.4172
969	-11.4173
schickt	-11.4174
756	-11.4176
normandie	-11.4192
▁festung	-11.4193
▁drö	-11.4196
▁müch	-11.4199
▁patient	-11.4204
730	-11.4212
▁kardinal	-11.4218
▁törkie	-11.4218
▁vigelien	-11.4218
▁alaska	-11.4218
▁mulsen	-11.4218
▁vörkamt	-11.4218
▁intensiv	-11.4218
dömer	-11.4218
vigelett	-11.4219
▁sülvermedaille	-11.4219
▁bernhard	-11.4219
gerichtshoff	-11.4219
▁beschäftigt	-11.422
störp	-11.422
▁ladung	-11.422
▁stammzellen	-11.4222
▁radsport	-11.4222
vergiften	-11.4222
▁ebenso	-11.4224
▁wuster	-11.4225
655	-11.4228
465	-11.4233
▁clay	-11.4235
786	-11.4237
▁0,85	-11.424
fällig	-11.4246
▁kritikers	-11.425
123	-11.4252
448	-11.4255
mittel	-11.4256
völker	-11.4271
bedingen	-11.4271
turneren	-11.4271
▁1824	-11.4271
antwoort	-11.4273
help	-11.4273
roos	-11.4279
zentri	-11.4282
lotte	-11.4302
polis	-11.4302
547	-11.4305
763	-11.4306
545	-11.4311
555	-11.4311
715	-11.4316
▁dreemal	-11.4318
773	-11.432
▁quadrat	-11.432
satellit	-11.4322
▁[...]	-11.4323
▁austraalsch	-11.4323
▁eerdmantel	-11.4323
▁konzentreer	-11.4323
▁renaissance	-11.4323
▁schützenvereen	-11.4323
▁westgötland	-11.4323
▁zentimeter	-11.4323
▁madrid	-11.4323
borussia	-11.4323
▁charlotte	-11.4324
713	-11.4324
▁physiologie	-11.4324
mei	-11.4324
937	-11.4325
▁feernsehregen	-11.4326
▁basbeek	-11.4327
▁kindheit	-11.4329
padd	-11.4333
▁1823	-11.4333
▁swacke	-11.4334
989	-11.4336
▁kent	-11.4336
sellschap	-11.4337
▁braak	-11.4337
▁utteknung	-11.4338
▁starven	-11.434
▁grunn	-11.4341
jesu	-11.4346
count	-11.4348
max	-11.4349
holler	-11.4355
kinner	-11.4371
technisch	-11.4377
cuxhoben	-11.4378
▁landweertschop	-11.4378
papeer	-11.4381
fleet	-11.439
▁spoodriekste	-11.4392
605	-11.4396
324	-11.4398
542	-11.4399
403	-11.4401
977	-11.4402
fleger	-11.4403
466	-11.4418
▁schill	-11.4424
▁hamilton	-11.443
magnitude	-11.443
▁chaplin	-11.443
▁kreeft	-11.443
bläder	-11.443
▁nevendorsteller	-11.4431
▁vörrut	-11.4431
▁verbaden	-11.4432
▁hööchpunkt	-11.4433
▁apenlichkeit	-11.4434
▁mitarbeider	-11.4434
▁süüdpool	-11.4435
▁schalke	-11.4435
▁chemisch	-11.4436
borough	-11.4438
▁neren	-11.444
▁oslo	-11.4442
plaan	-11.4443
▁vista	-11.4447
uit	-11.4448
598	-11.4459
haber	-11.446
▁traditschonelle	-11.4472
▁schottsch	-11.4477
▁20.000	-11.448
901	-11.448
344	-11.4481
matig	-11.4484
▁beet	-11.4485
pennsylvania	-11.4487
946	-11.449
strand	-11.449
sendung	-11.4492
354	-11.4493
▁mackers	-11.4495
▁bovenh	-11.4497
758	-11.4497
872	-11.4498
chemie	-11.4501
gift	-11.4501
452	-11.4503
artikel	-11.4507
rahm	-11.4515
336	-11.4523
rönn	-11.4529
▁mick	-11.4531
573	-11.4531
870	-11.4532
▁metallsch	-11.4534
670	-11.4536
département	-11.4537
revolution	-11.4537
wyoming	-11.4537
▁befinnt	-11.4537
▁eerdköst	-11.4537
▁eisenhower	-11.4537
▁konstantinopel	-11.4537
▁lüüchtkraft	-11.4537
▁sebastian	-11.4537
▁stellvertreden	-11.4537
▁cameron	-11.4537
▁bekannst	-11.4537
▁nörden	-11.4537
jöhrig	-11.4537
basuun	-11.4538
690	-11.4538
▁fernseh	-11.4538
▁findörp	-11.4538
▁mööglicherwies	-11.4539
▁duersom	-11.4539
mord	-11.454
▁tonehmend	-11.4542
▁mau	-11.4542
gesetz	-11.4543
▁1841	-11.4544
▁0,49	-11.4544
▁1833	-11.4545
▁carlos	-11.4556
741	-11.4568
▁freetiet	-11.4576
▁5.000	-11.4577
▁afbraken	-11.458
▁goodman	-11.4581
köpp	-11.4585
996	-11.4595
vermögen	-11.4596
florida	-11.4596
aktion	-11.4599
637	-11.4601
▁knee	-11.4606
kassen	-11.461
slaw	-11.4612
953	-11.4614
796	-11.4628
766	-11.4631
▁bühn	-11.4632
fluorid	-11.4638
▁univers	-11.4642
holl	-11.4645
▁insbesünner	-11.4646
▁kutenhult	-11.4646
▁gauguin	-11.4646
dimension	-11.4646
▁gabriel	-11.4646
▁alternativ	-11.4646
▁spektrum	-11.4646
▁neiht	-11.4646
▁tähn	-11.4646
▁öörtliche	-11.4647
▁ümstreden	-11.4647
▁dubbelsteern	-11.4647
▁nedderslag	-11.465
▁1835	-11.465
▁slooten	-11.4651
▁winnt	-11.4652
klinik	-11.4653
▁wesentlich	-11.4654
▁sudan	-11.4655
▁kameramann	-11.4655
veranstaltung	-11.4656
762	-11.4658
▁ritt	-11.4659
563	-11.4659
vá	-11.4663
afordnete	-11.4664
▁1878	-11.4667
709	-11.4685
425	-11.4686
767	-11.4687
399	-11.4691
679	-11.4696
▁rohstoff	-11.4702
periood	-11.4707
spreker	-11.4708
transport	-11.4709
▁freu	-11.4713
960	-11.4714
recken	-11.4714
magnet	-11.4715
▁medic	-11.4718
680	-11.4723
686	-11.4727
treck	-11.4728
257	-11.4734
stää	-11.4735
371	-11.4736
ordnet	-11.474
685	-11.4741
291	-11.4746
fragen	-11.4749
947	-11.4751
▁bedriggt	-11.4756
▁bützfleet	-11.4756
▁froenslüde	-11.4756
▁göttingen	-11.4756
▁kronenborg	-11.4756
▁galilei	-11.4756
▁utneihn	-11.4756
▁foddert	-11.4756
▁verlaren	-11.4756
▁reserve	-11.4756
kraftwark	-11.4756
▁ulrich	-11.4756
▁schildfoot	-11.4756
▁epoch	-11.4756
▁verswunnen	-11.4757
▁patrick	-11.4758
962	-11.4758
konstant	-11.4762
▁winsen	-11.4762
drift	-11.4762
▁fedder	-11.4766
674	-11.4767
liev	-11.4767
▁1815	-11.477
▁dramati	-11.4771
▁1818	-11.4772
721	-11.4773
genossen	-11.478
▁gill	-11.4786
737	-11.4794
905	-11.481
pakt	-11.4812
343	-11.482
544	-11.482
wulk	-11.4821
snieden	-11.4824
fullen	-11.4824
verhältnis	-11.4832
564	-11.4833
good	-11.4835
faaten	-11.4856
▁arrangeur	-11.4867
▁konzept	-11.4867
▁episoden	-11.4867
▁madison	-11.4867
chromosom	-11.4867
▁flensborg	-11.4867
▁ödp	-11.4867
▁eastwood	-11.4867
▁assistent	-11.4867
▁oplöst	-11.4868
▁argon	-11.4868
▁tweetgröttste	-11.4868
▁lichtjohren	-11.487
954	-11.487
▁bernard	-11.4871
972	-11.4872
▁sportvereen	-11.4872
▁chef	-11.4872
▁gordon	-11.4873
▁atomteken	-11.4873
oxy	-11.4876
341	-11.4877
orchester	-11.4877
blanc	-11.4877
▁zirk	-11.4877
▁0,78	-11.4878
gleem	-11.4879
armeensch	-11.4879
552	-11.4885
rasse	-11.4888
▁eugen	-11.489
▁east	-11.4892
987	-11.4896
684	-11.4897
414	-11.4898
▁marion	-11.49
▁langsam	-11.4906
743	-11.4911
▁slo	-11.4913
271	-11.4914
992	-11.4916
blaas	-11.4917
693	-11.4921
618	-11.4924
541	-11.4926
nedder	-11.4933
feernseh	-11.4934
†	-11.4936
▁luthersche	-11.4939
416	-11.494
▁britsch	-11.4945
mayer	-11.4951
884	-11.4953
473	-11.4961
hold	-11.4965
▁0,72	-11.4972
bühne	-11.4974
blome	-11.4978
ploidie	-11.4979
zoikum	-11.4979
▁cambridge	-11.4979
▁mennoniten	-11.4979
▁rumänien	-11.4979
▁bourne	-11.4979
▁vagina	-11.4979
▁anfäng	-11.4979
▁beleevt	-11.498
▁günt	-11.498
▁rolf	-11.498
▁french	-11.498
338	-11.4982
▁honor	-11.4982
▁jazzmusiker	-11.4982
▁1825	-11.4988
krüz	-11.4993
874	-11.4996
▁1877	-11.4997
656	-11.5002
▁freegeven	-11.5002
761	-11.5005
▁verkoop	-11.5007
▁böös	-11.5011
963	-11.5011
movie	-11.502
719	-11.5021
451	-11.5022
claudi	-11.5022
▁harle	-11.5025
▁ziel	-11.5027
dosis	-11.5029
röömsch	-11.503
▁swatt	-11.5033
112	-11.5035
▁gül	-11.5043
471	-11.5046
wilhelm	-11.5049
liddmaten	-11.505
746	-11.505
▁upgave	-11.5051
liberale	-11.5053
magneetsch	-11.5056
griff	-11.5058
schuld	-11.5058
254	-11.506
571	-11.5063
design	-11.5064
grand	-11.5073
889	-11.5077
971	-11.5081
düker	-11.509
montgomery	-11.5093
professor	-11.5093
▁gröpel	-11.5093
▁interview	-11.5093
▁pettiford	-11.5093
▁hinnerk	-11.5093
▁snaaksch	-11.5093
kommissar	-11.5093
▁neapel	-11.5093
▁vermoden	-11.5093
▁utfinnen	-11.5093
▁arnold	-11.5093
▁durch	-11.5093
▁ümwanneln	-11.5093
▁besehrt	-11.5094
epithel	-11.5094
▁florenz	-11.5095
▁evangelien	-11.5097
735	-11.5097
▁thorium	-11.5097
▁bundslänner	-11.5097
961	-11.5099
▁1827	-11.51
2003	-11.5101
öcht	-11.5101
▁gesund	-11.5102
985	-11.5103
▁0,61	-11.5104
▁heute	-11.5113
▁exil	-11.5115
702	-11.5118
▁küll	-11.5121
beed	-11.5121
frünn	-11.5121
▁immen	-11.5124
▁drei	-11.5124
742	-11.5124
▁radon	-11.5139
senat	-11.5143
663	-11.5144
▁partikels	-11.5159
▁long	-11.5161
geslecht	-11.5164
mythologie	-11.5165
goorn	-11.5165
fröh	-11.5166
▁boor	-11.5175
▁woru	-11.5176
▁unnerscheedlich	-11.5176
▁amenn	-11.5179
919	-11.5179
oorsch	-11.5181
644	-11.5182
sucht	-11.5186
839	-11.5194
szeen	-11.5197
▁diskuteert	-11.5208
▁phoenix	-11.5208
▁kennenlehrt	-11.5208
▁ukraine	-11.5208
▁nelson	-11.5208
▁ruupen	-11.5208
▁street	-11.5208
▁barthol	-11.5209
▁blööt	-11.521
993	-11.5213
▁kritische	-11.5213
spreek	-11.5213
▁fischeree	-11.5215
▁helden	-11.5217
▁landwertschap	-11.5218
▁0,70	-11.522
▁textil	-11.5221
▁1863	-11.5225
▁bestünn	-11.5231
▁1839	-11.5238
▁homer	-11.5245
▁paster	-11.5246
high	-11.5248
▁föddert	-11.5248
865	-11.5248
▁bekannteste	-11.5248
▁esdörp	-11.5249
springen	-11.5249
▁unnerscheed	-11.5253
922	-11.5256
mächt	-11.5257
▁fruchtbor	-11.5259
▁nick	-11.5263
636	-11.5264
409	-11.527
264	-11.527
710	-11.5278
problem	-11.528
buxthu	-11.5283
football	-11.5283
löpt	-11.5285
funkschoon	-11.5286
tellt	-11.5287
stift	-11.5288
858	-11.5289
ünnernehmen	-11.529
2001	-11.5293
begreep	-11.5296
783	-11.5299
775	-11.53
rezepter	-11.5312
astronaut	-11.5322
fläämsch	-11.5324
▁afschafft	-11.5324
▁quintett	-11.5324
▁äthiopien	-11.5324
▁dwangs	-11.5324
▁wrangel	-11.5324
▁schlecht	-11.5324
▁bebop	-11.5325
▁oliver	-11.5325
gambit	-11.5325
▁eerdööl	-11.5326
▁nienich	-11.5327
▁syrien	-11.5327
▁kammer	-11.5329
546	-11.5333
▁schimp	-11.5333
▁henkregen	-11.5335
hersteller	-11.5336
981	-11.5337
▁frömme	-11.5337
630	-11.534
elementardeelken	-11.5341
▁pont	-11.5341
▁tang	-11.5341
606	-11.5343
523	-11.5344
kood	-11.5345
▁hugo	-11.5348
▁debüt	-11.5351
881	-11.5356
714	-11.5367
round	-11.5377
▁geoloogsch	-11.5379
▁arger	-11.538
division	-11.5382
654	-11.5384
661	-11.5385
▁vereenigt	-11.5385
▁krist	-11.5389
ruck	-11.5392
580	-11.5397
virus	-11.5401
kenny	-11.5404
723	-11.5406
▁medizinisch	-11.5407
518	-11.5407
▁ihre	-11.541
bruun	-11.5411
712	-11.5412
meyer	-11.5412
ööf	-11.5414
632	-11.5418
738	-11.5424
641	-11.5428
755	-11.5428
771	-11.543
891	-11.5437
949	-11.5437
▁bekanntste	-11.5441
westfäälsch	-11.5442
▁aflööst	-11.5442
▁anerkannt	-11.5442
▁bookstaav	-11.5442
▁cadmium	-11.5442
▁ernannt	-11.5442
▁nikolaus	-11.5442
▁oorntlich	-11.5442
▁verdeffenderen	-11.5442
▁frederick	-11.5442
▁westgoten	-11.5442
▁momang	-11.5442
organisatschonen	-11.5442
▁jetzt	-11.5443
sequenz	-11.5443
▁genre	-11.5443
▁idaho	-11.5443
▁tohöörn	-11.5444
▁potter	-11.5444
▁möglichkeit	-11.5445
▁integr	-11.5445
regime	-11.5446
chineesch	-11.5449
▁marcel	-11.5449
hööftartikel	-11.545
chil	-11.5453
▁0,77	-11.5453
▁patent	-11.5457
▁flamm	-11.5458
linda	-11.5459
▁solke	-11.5459
▁eernst	-11.5461
prüfung	-11.5463
589	-11.5463
kommission	-11.5464
▁melodie	-11.5479
spektr	-11.5481
▁salon	-11.5481
882	-11.5481
utwahl	-11.5486
▁costa	-11.549
urlaub	-11.55
628	-11.5506
wööst	-11.5522
▁maur	-11.553
▁frö	-11.5536
707	-11.5547
551	-11.5552
695	-11.5559
synthesizer	-11.5561
▁direktemang	-11.5561
▁pubertät	-11.5561
▁weblenken	-11.5561
gesellschaft	-11.5561
▁little	-11.5561
position	-11.5561
▁kriminal	-11.5561
▁piraten	-11.5561
▁schwarz	-11.5561
▁mookt	-11.5561
gräver	-11.5561
▁höchste	-11.5561
▁bülgenläng	-11.5562
mouth	-11.5562
▁desülvige	-11.5563
▁hyper	-11.5567
▁swaar	-11.5567
868	-11.5568
▁vööl	-11.5569
atrix	-11.5573
602	-11.5577
▁1844	-11.5579
plattdüütsch	-11.5582
▁wiethen	-11.5584
▁dür	-11.5609
711	-11.5619
▁nahfolge	-11.562
982	-11.5627
löslich	-11.5635
saxophonist	-11.5638
oklahoma	-11.5644
▁clar	-11.5664
966	-11.5673
▁bolivien	-11.5681
▁lichtathletik	-11.5681
▁staatsexamen	-11.5681
▁systematik	-11.5681
▁vörhannen	-11.5681
kombinatschoon	-11.5681
▁beinfloot	-11.5681
▁doodschaten	-11.5681
▁karlsruhe	-11.5681
▁breslau	-11.5681
▁leonard	-11.5681
▁afwieken	-11.5682
▁qualität	-11.5682
▁multi	-11.5682
▁persönlichkeit	-11.5684
▁stoffwessel	-11.5685
▁antonio	-11.5685
▁utrüst	-11.5686
673	-11.5686
975	-11.5686
▁handball	-11.5686
modul	-11.5688
▁jahn	-11.5688
955	-11.5697
müüs	-11.5697
849	-11.5699
988	-11.57
mack	-11.5703
675	-11.5705
▁edgar	-11.5705
682	-11.5707
kerk	-11.5725
764	-11.5727
_2	-11.5728
729	-11.5733
687	-11.5741
538	-11.5746
brock	-11.5751
945	-11.5752
[	-11.5767
video	-11.5769
394	-11.5779
▁noorddüütsche	-11.5789
▁harlingerland	-11.5803
▁kilogramm	-11.5803
▁luxemborg	-11.5803
▁eduard	-11.5803
▁utprägt	-11.5803
▁drööft	-11.5803
▁kennedy	-11.5803
▁lambert	-11.5803
▁armenien	-11.5803
▁öberndörp	-11.5804
rumäänsch	-11.5804
▁eddelgas	-11.5804
▁kampala	-11.5805
▁ernest	-11.5805
▁utwannert	-11.5805
▁utnütt	-11.5806
▁vokal	-11.5806
▁märt	-11.5807
lösung	-11.5807
▁westküst	-11.5809
▁trallen	-11.581
▁logan	-11.5812
statschonen	-11.5817
▁egenstännig	-11.5819
▁rutbrocht	-11.582
rump	-11.5821
▁baker	-11.5828
fraktschoon	-11.5836
jahr	-11.5836
▁fels	-11.5836
wossen	-11.5838
649	-11.5842
twüschen	-11.5845
▁kahl	-11.585
▁fair	-11.5853
534	-11.5856
877	-11.5857
876	-11.5864
▁sportler	-11.5869
814	-11.5874
hoochschool	-11.5894
▁feernsehfilm	-11.5903
italien	-11.5905
704	-11.5919
▁watermöhl	-11.5923
▁bioloogsch	-11.5927
▁autobahndreeeck	-11.5927
▁bloodfatten	-11.5927
▁sheriff	-11.5927
▁afbrennt	-11.5927
▁blind	-11.5928
▁hartogdom	-11.5929
▁unafhangigkeit	-11.5929
▁bundspräsident	-11.5929
münster	-11.5931
▁dweer	-11.5934
▁jarre	-11.5941
▁2019	-11.5941
▁düüdlich	-11.5944
▁keller	-11.5947
699	-11.595
nemmen	-11.5956
615	-11.5957
314	-11.5977
▁2,8	-11.5981
head	-11.5986
konservativ	-11.5993
hafen	-11.6
kloren	-11.6004
stände	-11.6005
washington	-11.6019
gestalt	-11.6019
[[	-11.6019
▁britis	-11.6022
647	-11.6029
atta	-11.6037
698	-11.6037
▁eenzigst	-11.6038
prüf	-11.604
706	-11.6042
667	-11.6048
0,80	-11.6049
▁redukschoon	-11.6052
▁johrteihnten	-11.6052
membran	-11.6052
▁kobalt	-11.6052
▁sprengel	-11.6052
▁kaptein	-11.6052
▁draff	-11.6052
▁bronzemedaille	-11.6052
mäßig	-11.6052
▁europäers	-11.6053
▁deelnehmer	-11.6053
▁generatschoon	-11.6053
▁opdecker	-11.6053
▁ruumfähr	-11.6054
▁knakenmark	-11.6054
flegen	-11.6056
▁reinhard	-11.6057
▁dööp	-11.6058
▁export	-11.6058
▁leefste	-11.6058
733	-11.6059
▁wusten	-11.6066
935	-11.6067
index	-11.6079
▁story	-11.6079
▁faststoff	-11.6085
957	-11.6085
554	-11.6087
752	-11.6096
▁vereente	-11.6114
633	-11.6118
▁physi	-11.6123
726	-11.6124
▁bunt	-11.6127
703	-11.6134
932	-11.6139
bundsautobahn	-11.6147
kaiser	-11.6151
tostännen	-11.6153
732	-11.6154
höben	-11.6158
profi	-11.6161
470	-11.6164
467	-11.617
0,91	-11.617
▁ganymed	-11.6178
▁filiaal	-11.6178
▁halffinale	-11.6178
▁osmium	-11.6178
▁tosamenfaat	-11.6178
▁befinnen	-11.6178
▁geversdörp	-11.6178
▁unnerwegens	-11.6178
▁baptist	-11.6178
▁törf	-11.6178
▁monroe	-11.6179
▁josé	-11.6179
▁tokumst	-11.6179
▁oolland	-11.6179
▁swevelsüür	-11.6179
▁kohlenstoffatom	-11.618
▁disney	-11.618
▁temelk	-11.618
▁utscheedt	-11.6181
▁nömen	-11.6181
▁immunsystem	-11.6182
kunzert	-11.6184
▁apenmaakt	-11.6185
▁damals	-11.6185
▁zement	-11.6186
▁hööftreeg	-11.619
▁1847	-11.619
▁robin	-11.6191
▁angriep	-11.6193
▁laadt	-11.6194
970	-11.6196
▁personal	-11.6196
künn	-11.6196
tokriegen	-11.6197
898	-11.6199
▁fahr	-11.62
724	-11.6206
hexa	-11.6208
875	-11.6208
tüch	-11.6211
897	-11.6213
▁boris	-11.6218
–18	-11.6221
sprütt	-11.6229
928	-11.6236
ozyten	-11.624
▁hillge	-11.624
straße	-11.6241
612	-11.6262
593	-11.6266
611	-11.6276
släge	-11.6277
vörgäng	-11.628
624	-11.6281
motiv	-11.6289
▁fed	-11.6302
▁bronswiek	-11.6307
ilhéu	-11.6307
pleistozän	-11.6307
▁archäologie	-11.6307
▁benjamin	-11.6307
▁bulgarien	-11.6307
▁california	-11.6307
▁hölderlin	-11.6307
▁mekelborg	-11.6307
▁skandinavien	-11.6307
▁brunswiek	-11.6307
▁connery	-11.6307
▁atelier	-11.6307
gressiv	-11.6307
▁albrecht	-11.6307
▁osmanen	-11.6307
wähl	-11.6307
wännig	-11.6307
▁geestmünn	-11.6308
▁stattfunnen	-11.6308
▁günther	-11.6309
▁panzer	-11.6309
▁breefmark	-11.6309
▁wörtel	-11.6311
athlet	-11.6313
▁mennig	-11.6313
▁scheet	-11.6319
▁mönk	-11.632
863	-11.6327
950	-11.6332
▁rutstellt	-11.6332
▁nerv	-11.6335
düvel	-11.6338
▁verbrennen	-11.6339
storm	-11.6343
▁kenia	-11.6344
sammeln	-11.6345
862	-11.6352
610	-11.6368
664	-11.6369
393	-11.6406
mexiko	-11.6409
protein	-11.6409
literatur	-11.6409
▁04	-11.641
▁partnerschop	-11.6413
930	-11.6421
▁astronoomsche	-11.6436
▁lööw	-11.6436
▁residenz	-11.6436
▁vakuum	-11.6436
▁frankfurt	-11.6436
▁orbiter	-11.6436
▁johrteint	-11.6436
▁schallplatten	-11.6437
▁höllt	-11.6437
▁ümstännen	-11.6437
▁republikaner	-11.6437
▁navy	-11.6437
sprook	-11.6437
▁enercon	-11.6439
▁behörden	-11.6439
▁warschau	-11.6439
062	-11.6439
▁comic	-11.6441
986	-11.6442
▁mitwarkt	-11.6443
▁tostannenkamen	-11.6446
verdeenstkrüüz	-11.6447
569	-11.6453
▁aspekt	-11.6454
▁penis	-11.6454
614	-11.6455
piano	-11.6456
▁adria	-11.6462
535	-11.6462
▁orthodoxe	-11.6463
statue	-11.6464
verhältnisse	-11.6477
chick	-11.6486
▁söd	-11.6516
5,5	-11.6524
850	-11.6541
▁produzeer	-11.6542
pianist	-11.6542
cheemsch	-11.6543
general	-11.6543
schriev	-11.6544
operation	-11.6545
351	-11.6549
646	-11.6558
▁düüd	-11.6563
potential	-11.6568
▁arizona	-11.6568
▁beschreev	-11.6568
▁giovanni	-11.6568
▁willemshaven	-11.6568
▁hampton	-11.6568
▁henderson	-11.6568
▁nahderhen	-11.6568
▁sturben	-11.6568
▁avengers	-11.6568
▁wolfram	-11.6568
▁stephen	-11.6568
▁överhoopt	-11.6568
vergaav	-11.6569
751	-11.6571
▁bundswehr	-11.6571
▁antonius	-11.6572
▁varianten	-11.6573
▁marcus	-11.6573
▁nazis	-11.6575
▁0,00	-11.658
623	-11.6582
631	-11.6597
▁small	-11.6598
952	-11.6599
621	-11.6603
▁somali	-11.6609
kroog	-11.6629
harp	-11.6639
vision	-11.6645
818	-11.6646
▁etappe	-11.6656
▁vergliekbor	-11.6659
▁1,00	-11.6661
077	-11.6666
692	-11.6667
roov	-11.6668
tüge	-11.6675
nobelpries	-11.6677
893	-11.6686
premier	-11.6695
727	-11.6699
▁broadway	-11.6701
▁peloponnes	-11.6701
▁repräsentanten	-11.6701
▁ribbentrop	-11.6701
▁tansania	-11.6701
▁uruguay	-11.6701
▁törksche	-11.6701
▁schädel	-11.6701
▁burgund	-11.6701
fayette	-11.6701
▁baukem	-11.6701
▁lukas	-11.6702
▁isoleert	-11.6703
813	-11.6704
▁petersborg	-11.6704
▁[]	-11.6704
plateau	-11.6705
▁röök	-11.6705
▁mannlüüd	-11.6707
▁organismus	-11.6709
▁schauspeleree	-11.671
▁russell	-11.6712
▁morgan	-11.6713
059	-11.6725
izzy	-11.6727
894	-11.673
423	-11.6736
▁pau	-11.6752
608	-11.6753
980	-11.6763
plantagen	-11.677
760	-11.6778
859	-11.6779
spalt	-11.6779
906	-11.6786
939	-11.6793
734	-11.6804
mööglich	-11.6807
908	-11.6811
heinrich	-11.6814
nömmt	-11.6814
▁studie	-11.6818
üpp	-11.683
hollig	-11.6833
▁church	-11.6836
▁endgüllig	-11.6836
▁matthias	-11.6836
▁normolerwiese	-11.6836
wettstried	-11.6837
▁eyck	-11.6837
▁goethe	-11.6837
▁domols	-11.6837
methyl	-11.6837
▁kristalliseert	-11.684
▁irak	-11.684
▁utslaten	-11.6841
▁lüttgere	-11.6842
ière	-11.6845
▁droog	-11.6845
▁polietsche	-11.6845
088	-11.6847
▁lars	-11.6855
hawk	-11.6864
853	-11.6866
tumor	-11.6869
904	-11.687
student	-11.6889
▁dvu	-11.6892
0,83	-11.6893
kranz	-11.6921
856	-11.6927
faden	-11.6937
▁liebe	-11.6947
komponist	-11.6953
gröne	-11.6953
inwahner	-11.6954
füür	-11.6954
tosamen	-11.6954
hööftstadt	-11.6958
sandra	-11.6959
ungarn	-11.6963
snackers	-11.6966
▁röntgen	-11.6973
▁eendüdig	-11.6973
▁leukämie	-11.6973
▁molekular	-11.6973
▁restaurant	-11.6973
sekundär	-11.6973
▁spaaß	-11.6973
▁widmet	-11.6973
▁landweertschap	-11.6973
▁mountain	-11.6974
▁annerwegens	-11.6974
▁geburt	-11.6974
▁predigt	-11.6974
▁fuust	-11.6974
▁sophie	-11.6974
▁ungaarsch	-11.6974
▁dunkel	-11.6974
▁afstrahlt	-11.6975
▁unesco	-11.6975
▁jodendom	-11.6976
quartier	-11.6977
536	-11.6977
▁1842	-11.6979
töön	-11.6984
▁rezept	-11.6988
▁dänen	-11.6989
635	-11.6996
schuuv	-11.6999
▁amtssprake	-11.7032
himmel	-11.7056
▁tarms	-11.7066
951	-11.7067
619	-11.7075
phys	-11.7075
645	-11.7081
▁spezial	-11.7085
früend	-11.7093
minnesota	-11.7094
▁hoov	-11.7094
pilot	-11.7095
klima	-11.7096
sunnerlich	-11.7096
dubbel	-11.7097
speelbaas	-11.7097
▁wahlkamp	-11.7112
▁builefeld	-11.7112
▁dramaturg	-11.7112
▁monarkie	-11.7112
▁service	-11.7112
▁utlööst	-11.7112
▁sleiht	-11.7112
▁schüttenvereen	-11.7112
▁hulpen	-11.7112
▁jordan	-11.7112
▁öldste	-11.7112
▁ehrenamtlich	-11.7112
▁erkennen	-11.7112
vaagdie	-11.7112
▁quartett	-11.7112
▁deutschland	-11.7113
▁pension	-11.7113
kuntrei	-11.7113
▁wandalen	-11.7114
▁wunsch	-11.7114
▁sojus	-11.7115
▁jeedeen	-11.7116
▁daagblatt	-11.7116
palast	-11.7116
verfolgung	-11.7117
▁balkan	-11.7117
▁levensjohr	-11.712
▁nömm	-11.7121
▁carme	-11.7128
▁glatt	-11.7131
▁hebrääsche	-11.7132
▁blank	-11.7137
▁krumm	-11.716
agentur	-11.7168
001	-11.7176
north	-11.7184
0,0	-11.7197
sprake	-11.7199
religion	-11.7203
kraam	-11.7204
offiziell	-11.7236
parlament	-11.7236
colorado	-11.7237
künstler	-11.7237
friedrich	-11.7239
indien	-11.7243
948	-11.7247
▁barcelona	-11.7253
▁gemälde	-11.7253
▁musculus	-11.7253
▁philadelphia	-11.7253
▁reduzeert	-11.7253
▁spermien	-11.7253
▁upsternaatsch	-11.7253
▁sioux	-11.7253
hydroxid	-11.7253
▁lidmaat	-11.7253
konferenz	-11.7253
▁fökener	-11.7253
▁twalf	-11.7253
▁meckels	-11.7253
▁ronald	-11.7253
▁döörsnitt	-11.7254
▁utsöcht	-11.7254
hlenstoffmonoxid	-11.7254
▁herschel	-11.7254
▁perfekt	-11.7255
▁funktschoon	-11.7256
▁freiburg	-11.7256
▁doruphen	-11.7256
gebiet	-11.7257
quadratkilometer	-11.7258
▁wöörbook	-11.7258
▁valley	-11.7259
▁oostfreeske	-11.7259
▁westfreesch	-11.726
▁moment	-11.7263
▁anordent	-11.7263
▁stunt	-11.7264
▁fläc	-11.7273
weltmeesterschop	-11.7282
stried	-11.7288
565	-11.7306
739	-11.7325
▁swerin	-11.7338
973	-11.7351
665	-11.7355
616	-11.7364
0,94	-11.7378
bröder	-11.7382
731	-11.7384
finanz	-11.7388
kosmonaut	-11.7396
▁freudenthal	-11.7396
diminutiv	-11.7396
▁anerkennung	-11.7396
▁australian	-11.7396
▁bandleader	-11.7396
▁offensive	-11.7396
▁utforscht	-11.7396
▁visselhöövd	-11.7396
▁morisot	-11.7396
▁quarz	-11.7396
▁kladder	-11.7396
nclude	-11.7396
▁slump	-11.7396
▁verbrennt	-11.7396
▁violin	-11.7397
▁spekul	-11.7397
weltcup	-11.7397
▁tommy	-11.7397
▁maateenheit	-11.7398
▁meteoriten	-11.7398
▁entlaaten	-11.7398
▁niewohl	-11.7399
plastik	-11.7401
▁swoorpunkt	-11.7402
▁wohrnehmen	-11.7403
▁sünnerheit	-11.7404
▁warktüüch	-11.7405
▁brukt	-11.7407
saamsch	-11.7412
696	-11.7434
604	-11.7462
964	-11.7463
jewit	-11.7465
▁befunn	-11.748
spraakwetenschop	-11.7489
903	-11.7496
548	-11.7497
kranke	-11.7502
651	-11.7504
slaan	-11.7523
▁fünn	-11.7525
kongress	-11.7529
vertreder	-11.7529
wunnen	-11.7529
stämm	-11.753
trøndelag	-11.7541
▁picture	-11.7541
▁rheiderland	-11.7541
▁twiefel	-11.7541
▁gelegenheit	-11.7541
▁partisanen	-11.7541
▁utnannersetten	-11.7541
▁identität	-11.7541
▁samniten	-11.7541
▁datsülvige	-11.7541
▁porträt	-11.7541
▁konzil	-11.7541
▁ünnernehmer	-11.7542
niveau	-11.7542
▁begeevnissen	-11.7542
▁lernt	-11.7542
▁berader	-11.7542
▁sliem	-11.7543
▁nevenrull	-11.7544
konzern	-11.7545
sammler	-11.7545
▁demokraten	-11.7546
▁antillen	-11.7546
▁powell	-11.7548
büddel	-11.7548
▁antimon	-11.7549
072	-11.755
▁kämpen	-11.7555
995	-11.7556
629	-11.7578
▁reageer	-11.7594
spöölt	-11.7616
944	-11.7618
594	-11.7631
895	-11.765
sozial	-11.7659
▁synchroon	-11.7669
meesterschoppen	-11.7669
befehl	-11.7678
louis	-11.7678
fehler	-11.7678
kunzentratschoon	-11.7688
▁erythrozyten	-11.7688
▁augsborg	-11.7688
▁rhesus	-11.7688
▁rückkehr	-11.7688
▁wismut	-11.7688
▁murray	-11.7688
▁verlängert	-11.7688
zeremonie	-11.7688
▁sotoseggen	-11.7688
▁neeseeland	-11.7688
▁stüür	-11.7688
▁contest	-11.7688
▁libyen	-11.7688
infekschoon	-11.7688
zentren	-11.7689
gelehrten	-11.7689
▁haydn	-11.7689
▁vergeten	-11.7689
ääs	-11.7689
▁verännern	-11.7689
▁bundsregeeren	-11.769
▁fardigstellt	-11.7691
▁stickt	-11.7693
▁verscheel	-11.7694
▁beamten	-11.7694
wetenschapler	-11.7701
880	-11.7708
▁enkeld	-11.7719
savann	-11.7723
609	-11.7733
▁nööm	-11.7736
wetenschoppler	-11.7749
▁latien	-11.7758
quant	-11.776
916	-11.7775
drücken	-11.7787
ögel	-11.7797
teknungen	-11.7817
atmosphäär	-11.783
vulkan	-11.783
neddersassen	-11.783
▁binngeweev	-11.7837
▁kröön	-11.7837
▁potsdam	-11.7837
▁springrieder	-11.7837
▁carotis	-11.7837
▁episood	-11.7837
▁historisch	-11.7838
▁beslooten	-11.7838
bedingungen	-11.7838
wirtschaft	-11.7838
▁stormfloot	-11.7838
▁brickt	-11.7838
▁klauen	-11.7838
▁bayerische	-11.7838
▁kevin	-11.7838
aceae	-11.7838
▁radioaktivität	-11.7839
▁generalsekretär	-11.7839
▁websteed	-11.7839
▁generalstaff	-11.7839
▁staatspräsident	-11.784
▁backsteen	-11.784
▁rainer	-11.7841
887	-11.7841
▁argent	-11.7842
▁morris	-11.7847
höker	-11.785
gemeenschap	-11.7852
716	-11.7854
atlantis	-11.786
934	-11.7863
▁kuhs	-11.7902
591	-11.7907
076	-11.7924
902	-11.7925
kannedat	-11.7929
815	-11.7935
andrea	-11.7935
918	-11.7937
▁sprint	-11.7937
754	-11.7958
indianer	-11.7982
düppel	-11.7983
mück	-11.7984
634	-11.7985
connecticut	-11.7989
▁ankünnigt	-11.7989
▁militäärsch	-11.7989
▁otterbarg	-11.7989
▁symptom	-11.7989
▁hafnium	-11.7989
▁karibische	-11.7989
▁brothers	-11.7989
▁grundsätzlich	-11.7989
▁departement	-11.7989
▁algerien	-11.7989
▁seattle	-11.7989
▁männlich	-11.7989
▁övertügen	-11.7989
▁överresten	-11.7989
▁schritt	-11.7989
▁dortmund	-11.7989
▁germanistik	-11.7989
▁drepen	-11.799
▁buddy	-11.7992
▁magnetfeld	-11.7992
▁sonny	-11.7993
▁borbeck	-11.7993
▁tenor	-11.7993
▁verdun	-11.7993
▁zwei	-11.7995
▁gäst	-11.7997
▁klint	-11.7999
▁kommunikatschoo	-11.8002
913	-11.8004
bladd	-11.8007
direktor	-11.8017
▁snell	-11.8018
folk	-11.8025
„	-11.8053
▁reedschop	-11.807
810	-11.8075
▁schepe	-11.8088
▁analog	-11.8089
089	-11.8097
orthodox	-11.8111
056	-11.8113
hebrääsch	-11.812
745	-11.813
produzent	-11.8131
freeske	-11.8138
michigan	-11.8139
bremerhoben	-11.814
▁olymp	-11.814
behörde	-11.814
zyklus	-11.8143
▁düvelsmoor	-11.8143
▁ekliptik	-11.8143
▁jugoslawien	-11.8143
▁marschalck	-11.8143
▁roosevelt	-11.8143
▁stauffenberg	-11.8143
▁thrombozyten	-11.8143
▁sidney	-11.8143
▁beslutt	-11.8143
▁lakota	-11.8143
▁wellenlien	-11.8143
gothenborg	-11.8143
▁litauen	-11.8143
▁törken	-11.8143
▁speelbasen	-11.8143
resonanz	-11.8143
▁aflöst	-11.8143
▁dfb	-11.8143
sprüng	-11.8143
▁eurovision	-11.8143
▁diné	-11.8144
fähigkeit	-11.8144
▁horror	-11.8146
▁nienborg	-11.8146
▁präsenteer	-11.8149
▁antikörper	-11.8163
671	-11.8168
▁besöch	-11.8195
▁oostfrees	-11.824
965	-11.8252
657	-11.8275
klöten	-11.8298
geweev	-11.8298
polizei	-11.8299
astronom	-11.8299
dynastie	-11.8299
erkrankung	-11.8299
▁kolumbus	-11.8299
▁millimeter	-11.8299
▁nämlich	-11.8299
▁research	-11.8299
gäälsch	-11.8299
▁duisborg	-11.8299
▁kurförst	-11.8299
▁quartär	-11.8299
dynaamsch	-11.8299
▁thermisch	-11.8299
▁spektralklass	-11.8299
▁unglück	-11.83
dionys	-11.83
▁kpd	-11.83
▁vernicht	-11.83
▁vördergrund	-11.83
▁wahlperiood	-11.83
▁afgrenzt	-11.83
▁wählen	-11.8301
▁gasförmig	-11.8302
892	-11.8309
plural	-11.8309
hymne	-11.831
stuuf	-11.8312
049	-11.8313
springer	-11.8319
dochter	-11.8321
1986	-11.8329
▁0,1	-11.8344
596	-11.8362
müer	-11.8403
607	-11.8411
942	-11.842
▁afslute	-11.8449
▁spektral	-11.8458
chirurgie	-11.8458
phosphat	-11.8458
▁dschibuti	-11.8458
▁mathemaatsch	-11.8458
▁octavian	-11.8458
▁phänomen	-11.8458
▁rutherford	-11.8458
▁technology	-11.8458
▁wright	-11.8458
▁ümgangsspraak	-11.8458
▁galaxien	-11.8458
▁plautdietsch	-11.8458
▁steffi	-11.8458
turschuulrebeed	-11.8458
▁korinth	-11.8458
▁ländlich	-11.8458
▁theatre	-11.8458
director	-11.8458
vermodens	-11.8458
▁nederland	-11.8458
▁erinnert	-11.8458
▁hamburg	-11.8458
entsorgung	-11.8458
arabien	-11.8458
▁duukt	-11.8458
▁geboortsdag	-11.8458
▁sør	-11.8459
▁protestanten	-11.8459
▁gliekmatig	-11.8459
▁hammoh	-11.846
▁bilütten	-11.846
paapst	-11.846
jupiter	-11.846
▁schadden	-11.8461
▁hunger	-11.8461
▁btw	-11.8461
▁inschränkt	-11.8463
pathie	-11.8473
feind	-11.8488
registr	-11.8505
trompeter	-11.8514
▁koreaansche	-11.8516
718	-11.8518
korps	-11.8521
▁beginn	-11.8521
ough	-11.8572
▁0,2	-11.86
967	-11.8603
▁anthony	-11.8619
▁aristoteles	-11.8619
▁fantasy	-11.8619
▁muskogee	-11.8619
scharmbeek	-11.8619
björn	-11.8619
▁kohlensüür	-11.8619
▁richmond	-11.8619
▁vermodt	-11.8619
▁fibrin	-11.8619
offizeer	-11.8619
▁kredit	-11.862
▁dwars	-11.862
▁grööt	-11.8622
nedderlannsch	-11.8623
himmelpoorten	-11.8624
▁premiere	-11.8628
873	-11.8633
058	-11.8657
938	-11.8687
aero	-11.8711
915	-11.8755
mühl	-11.8757
▁hoppe	-11.8763
▁cleveland	-11.8783
▁hastings	-11.8783
▁holiday	-11.8783
▁patterbuorn	-11.8783
▁theoretisch	-11.8783
▁unbekannte	-11.8783
▁uppsala	-11.8783
▁hubble	-11.8783
▁slesien	-11.8783
verbindung	-11.8783
▁steernhopen	-11.8783
destillatschoon	-11.8783
wärts	-11.8783
▁brutto	-11.8783
▁minuten	-11.8783
▁seismische	-11.8784
▁axel	-11.8784
▁erwin	-11.8784
▁floogtüüch	-11.8785
▁nehrmiddel	-11.8786
vereenigung	-11.8786
admiral	-11.8787
lorenz	-11.8787
▁klaut	-11.8789
william	-11.879
reformeerte	-11.8804
595	-11.8847
nervensystem	-11.8881
8–1	-11.8893
▁chöttingen	-11.895
▁hampshire	-11.895
▁illustr	-11.895
▁metcalf	-11.895
▁törkei	-11.895
▁emanuel	-11.895
▁organismen	-11.895
▁swasiland	-11.895
▁gibson	-11.895
▁barbara	-11.895
▁besatten	-11.895
▁felix	-11.895
▁gegensietig	-11.895
▁lyrik	-11.895
▁freisler	-11.895
▁inverstahn	-11.895
▁puerto	-11.895
▁npd	-11.895
▁spezialiseert	-11.895
▁oorsaken	-11.895
▁gesamtwertung	-11.8951
▁logik	-11.8951
▁opduken	-11.8951
▁eads	-11.8951
▁roovt	-11.8953
▁fermi	-11.8959
▁geograafsch	-11.8965
metamorph	-11.8981
stüttpunkt	-11.8997
063	-11.9012
schullig	-11.9074
896	-11.9111
muskulatur	-11.9119
▁alexandria	-11.9119
▁klitoris	-11.9119
▁kunzentreert	-11.9119
▁scheeßl	-11.9119
▁sönndag	-11.9119
▁tunesien	-11.9119
▁vuelta	-11.9119
verteidiger	-11.9119
▁elizabeth	-11.9119
▁gambia	-11.9119
▁indirekt	-11.9119
▁islaamsche	-11.9119
▁metaphysik	-11.9119
▁prominent	-11.9119
▁willehad	-11.9119
globulin	-11.9119
▁bargstieger	-11.9119
▁taxeert	-11.9119
▁waldemar	-11.9119
▁wiesbaden	-11.9119
▁invasion	-11.9119
▁plutonium	-11.9119
▁pioneer	-11.9119
händler	-11.9119
▁överlevert	-11.912
▁raymond	-11.912
monument	-11.9121
▁pingst	-11.9122
spiegel	-11.9123
▁entwed	-11.9124
▁pyrit	-11.9125
kampagne	-11.9128
▁religiöse	-11.913
hüüd	-11.9132
carbon	-11.9138
spangen	-11.9139
verbot	-11.9163
061	-11.9204
▁byzanz	-11.9291
▁eintracht	-11.9291
▁hugenotten	-11.9291
▁indonesien	-11.9291
▁popularität	-11.9291
▁professionell	-11.9291
▁rotterdam	-11.9291
▁schnitger	-11.9291
▁theoreetsch	-11.9291
▁värmland	-11.9291
▁albanien	-11.9291
▁gelsenkiärken	-11.9291
▁klammer	-11.9291
▁mccain	-11.9291
wandlüse	-11.9291
▁empire	-11.9291
▁kandideer	-11.9291
▁oxford	-11.9291
▁doping	-11.9292
▁folter	-11.9292
greve	-11.9292
reflex	-11.9293
initiative	-11.9293
▁bbc	-11.9294
anthrop	-11.9295
krypto	-11.9295
batterie	-11.9298
mööglichst	-11.9328
omorph	-11.934
▁republikaansch	-11.9352
943	-11.9382
917	-11.9413
katalysater	-11.9467
verständnis	-11.9467
▁afköhlen	-11.9467
▁arapaho	-11.9467
▁föffteihn	-11.9467
▁grootweurn	-11.9467
▁heinbockel	-11.9467
▁jonathan	-11.9467
▁karibik	-11.9467
▁katharina	-11.9467
▁nazareth	-11.9467
▁nedderlännsch	-11.9467
▁pakistan	-11.9467
▁samtgemenen	-11.9467
▁süderelv	-11.9467
feldmarschall	-11.9467
▁absolveer	-11.9467
▁dirigent	-11.9467
kapitän	-11.9467
▁bomlitz	-11.9467
▁rutfinnen	-11.9467
▁twölv	-11.9467
▁wulfsborg	-11.9467
different	-11.9467
▁cabral	-11.9467
▁istanbul	-11.9467
▁miguel	-11.9467
lothringen	-11.9467
nicolai	-11.9467
league	-11.9467
tüffel	-11.9467
▁dröövt	-11.9467
▁gleih	-11.9467
▁anduern	-11.9467
▁gefangen	-11.9467
▁jerry	-11.9467
▁maurice	-11.9468
▁schöpp	-11.9468
▁eestnische	-11.9468
▁magnus	-11.9468
perzess	-11.9469
biärg	-11.9469
melodi	-11.9478
▁apple	-11.948
tuffel	-11.9483
schätzt	-11.9486
▁lymph	-11.9551
053	-11.9555
848	-11.9594
brugge	-11.9605
amorph	-11.9617
gedächtnis	-11.9645
kathedraal	-11.9645
observatorium	-11.9645
varietät	-11.9645
▁columbus	-11.9645
▁dörtigjohrige	-11.9645
▁erwähnt	-11.9645
▁fitzgerald	-11.9645
▁gebüüd	-11.9645
▁gewerkschaft	-11.9645
▁navergemenen	-11.9645
▁ritzbüttel	-11.9645
▁zypern	-11.9645
▁hämatit	-11.9645
▁scheitert	-11.9645
▁umfangriek	-11.9645
▁wolsbuddel	-11.9645
▁befrucht	-11.9645
▁lenglen	-11.9645
▁tarrasch	-11.9645
königslutter	-11.9645
▁generation	-11.9645
▁hendrik	-11.9645
▁pearl	-11.9646
▁skelett	-11.9646
▁lionel	-11.9646
▁utermatig	-11.9646
▁earth	-11.9646
▁ozon	-11.9646
▁knick	-11.9647
▁bedüd	-11.9647
▁konsul	-11.9652
▁serge	-11.9652
stöck	-11.9665
geföhl	-11.9668
joseph	-11.9668
hunnen	-11.9668
sammlung	-11.9672
fienföhligkeit	-11.9674
5,0	-11.9766
▁traditschon	-11.9818
schanze	-11.9826
keyboard	-11.9827
▁association	-11.9827
▁clemens	-11.9827
▁unregelmatig	-11.9827
▁bahnhööv	-11.9827
▁protestantsche	-11.9827
▁vörliggt	-11.9827
pyramid	-11.9827
▁dokumentarfilm	-11.9827
▁kultuur	-11.9827
▁nevada	-11.9827
▁theresia	-11.9827
▁gediegen	-11.9827
▁houston	-11.9827
▁literarisch	-11.9827
▁legendär	-11.9827
▁utstarven	-11.9827
▁heisenberg	-11.9827
▁jörg	-11.9827
▁pharma	-11.9827
▁utsaag	-11.9827
▁unbestännig	-11.9828
bööd	-11.9828
währung	-11.9828
▁afstimmt	-11.9828
hydrid	-11.9828
▁draht	-11.9828
▁ippens	-11.9829
first	-11.9838
köfft	-11.9843
▁empiri	-11.9852
däänsch	-11.9852
proportschoon	-11.9853
zentral	-11.9854
jagd	-11.9855
schaffen	-11.9855
düer	-11.9869
854	-11.9871
ograafsche	-11.9875
route	-11.9885
slott	-11.9887
▁stinst	-11.9913
871	-11.9938
fähig	-12.0012
modifikatschonen	-12.0012
▁helmstidde	-12.0012
▁kommandant	-12.0012
▁lloyd	-12.0012
▁mittelsnohn	-12.0012
▁mulligan	-12.0012
▁promoveer	-12.0012
▁quechua	-12.0012
▁stralsund	-12.0012
concelho	-12.0012
containerscheepe	-12.0012
▁sampras	-12.0012
▁armeniers	-12.0012
▁saarland	-12.0013
▁stettin	-12.0013
▁castle	-12.0013
▁toledo	-12.0013
▁bryan	-12.0013
hydrat	-12.0014
▁bedreev	-12.0014
▁opfallig	-12.0016
wieldes	-12.0016
885	-12.0021
kontroll	-12.0042
perfesser	-12.0042
geheemnis	-12.0072
portugees	-12.02
minuut	-12.02
▁aymara	-12.0201
▁abraham	-12.0201
▁afköhlt	-12.0201
▁budapest	-12.0201
▁düünbeudel	-12.0201
▁föfftig	-12.0201
▁heevschruver	-12.0201
▁medikament	-12.0201
▁orgasmus	-12.0201
▁twievel	-12.0201
▁eldridge	-12.0201
▁sydney	-12.0201
▁unbedingt	-12.0201
▁nymph	-12.0201
▁seismologi	-12.0201
▁country	-12.0201
swellkörper	-12.0201
▁westersood	-12.0201
organisation	-12.0201
▁erovert	-12.0201
▁tüsken	-12.0201
▁bewohren	-12.0202
▁dream	-12.0202
▁ngc	-12.0202
spieker	-12.0234
entwicklung	-12.0234
verlust	-12.0235
hinrich	-12.0235
saison	-12.0235
gewalt	-12.0236
844	-12.0279
lymphozyt	-12.0302
ünnericht	-12.0312
<	-13.4549
