<unk>	0
<s>	0
</s>	0
▁de	-2.98678
.	-3.19422
▁van	-3.63848
,	-3.68248
▁in	-3.86448
▁	-3.86593
▁het	-3.86876
▁en	-3.9959
▁een	-4.07424
s	-4.38125
e	-4.58857
en	-4.8029
▁op	-4.90411
▁is	-4.91183
▁zijn	-4.96739
-	-4.98644
"	-5.03097
▁met	-5.07271
▁te	-5.20303
▁voor	-5.22384
▁"	-5.27655
▁(	-5.27876
▁die	-5.28239
▁dat	-5.36719
▁door	-5.37456
▁als	-5.4591
▁aan	-5.46449
##	-5.53076
▁werd	-5.5371
▁was	-5.65518
▁ook	-5.66033
)	-5.66092
▁hij	-5.70205
d	-5.7041
▁uit	-5.73624
▁er	-5.80963
▁tot	-5.8484
▁bij	-5.88167
="	-5.88309
▁om	-5.90413
t	-5.9117
n	-5.94885
:	-5.95026
▁wordt	-5.96139
▁niet	-5.96709
▁deze	-5.97857
de	-5.98851
▁worden	-5.99206
▁of	-5.99974
'	-6.1082
▁naar	-6.16836
▁maar	-6.2158
▁dit	-6.26886
doc	-6.30999
▁over	-6.321
>	-6.32656
▁zich	-6.35194
▁onder	-6.37661
▁na	-6.39376
▁dan	-6.4507
▁andere	-6.50457
▁ze	-6.51684
/	-6.5601
▁jaar	-6.56658
▁meer	-6.58016
▁heeft	-6.59921
er	-6.65402
▁nog	-6.68063
▁eerste	-6.71154
a	-6.71461
).	-6.73825
▁werden	-6.76116
▁veel	-6.77038
▁kan	-6.77288
▁ge	-6.7845
▁al	-6.79395
▁zo	-6.84705
▁waren	-6.87537
▁hun	-6.87544
▁tussen	-6.88162
▁'	-6.90218
▁hebben	-6.90374
▁grote	-6.91451
▁twee	-6.92266
▁had	-6.92397
▁eeuw	-6.92725
▁ver	-6.93531
org	-6.94124
?	-6.94507
),	-6.94766
▁zoals	-6.95421
;	-6.96555
▁id	-6.98423
nl	-6.99103
wikipedia	-6.99303
▁categorie	-6.99852
o	-6.99974
wiki	-7.00208
curi	-7.00356
▁url	-7.01449
://	-7.01753
https	-7.01799
▁<	-7.0184
title	-7.01936
▁</	-7.02108
k	-7.03608
▁zou	-7.05598
▁waar	-7.07062
▁wel	-7.07071
▁men	-7.0817
▁haar	-7.11178
ing	-7.11296
▁geen	-7.1136
▁kunnen	-7.14186
▁af	-7.15231
r	-7.15249
▁-	-7.18927
in	-7.19525
▁echter	-7.21776
",	-7.23747
▁be	-7.23801
▁stad	-7.24638
▁zij	-7.24794
▁tegen	-7.25006
m	-7.25387
c	-7.25845
▁alle	-7.26851
▁tijd	-7.26914
i	-7.2801
▁aantal	-7.28674
te	-7.29102
▁1	-7.29497
f	-7.30484
▁nieuwe	-7.31677
ge	-7.31797
▁deel	-7.31826
▁tijdens	-7.31832
▁v	-7.32248
▁land	-7.33299
se	-7.35672
▁gebruikt	-7.37319
▁nederland	-7.37456
▁plaats	-7.37641
".	-7.40925
den	-7.41872
▁jaren	-7.42129
ten	-7.42254
▁omdat	-7.44761
▁verschillende	-7.45051
▁tweede	-7.45405
▁wat	-7.45582
▁volgens	-7.46423
▁later	-7.46437
p	-7.47987
▁toen	-7.48193
▁naam	-7.48411
▁drie	-7.49335
▁vaak	-7.49717
l	-7.49971
▁hem	-7.50661
▁staat	-7.50795
▁ten	-7.51292
le	-7.5331
▁binnen	-7.53333
g	-7.54678
re	-7.55521
▁water	-7.56097
▁kwam	-7.57518
=	-7.58048
▁sinds	-7.58822
▁vooral	-7.591
▁genoemd	-7.60919
▁weer	-7.60965
heid	-7.61157
b	-7.61456
▁vanaf	-7.6171
▁hoe	-7.62029
▁bekend	-7.63213
v	-7.63308
▁enkele	-7.64326
y	-7.64631
▁alleen	-7.64776
▁groot	-7.64865
al	-7.65268
us	-7.65514
el	-7.66036
ste	-7.683
▁16	-7.68392
▁verder	-7.69016
▁samen	-7.69032
▁–	-7.69251
h	-7.69619
▁a	-7.71486
▁per	-7.72615
uit	-7.72722
▁toe	-7.73089
▁rond	-7.73287
▁terug	-7.73359
▁wereld	-7.73513
▁werk	-7.73945
▁leven	-7.75934
u	-7.7603
▁15	-7.76335
ver	-7.77602
▁eigen	-7.78136
ers	-7.79003
▁bijvoorbeeld	-7.79516
▁nederlandse	-7.80664
▁laatste	-7.81745
▁waarbij	-7.82676
▁2	-7.83319
on	-7.83503
▁zelf	-7.83549
▁17	-7.8367
▁grootste	-7.83934
▁steeds	-7.84432
")	-7.84504
▁mensen	-7.84584
▁ongeveer	-7.84966
▁maken	-7.85119
▁3	-7.8547
▁kon	-7.86514
es	-7.87807
na	-7.88242
▁18	-7.88485
▁komt	-7.88638
▁dus	-7.88655
w	-7.88796
▁nu	-7.89084
▁periode	-7.8953
z	-7.90553
ig	-7.91289
ne	-7.91866
▁komen	-7.92637
wel	-7.92934
▁vier	-7.93037
▁mogelijk	-7.93356
▁waarin	-7.9361
▁("	-7.93653
ische	-7.93705
be	-7.93723
▁daar	-7.9431
▁zeer	-7.95211
▁gebied	-7.97415
▁kreeg	-7.97653
▁dag	-7.9812
▁4	-7.98425
▁taal	-7.98444
▁elkaar	-7.98786
▁b	-7.98883
▁bestaat	-7.9904
▁d	-7.99268
▁the	-7.99825
▁partij	-8.00348
▁gebruik	-8.01087
ma	-8.01088
▁staten	-8.01464
▁begin	-8.0238
▁ging	-8.03575
▁landen	-8.04353
▁koning	-8.05435
st	-8.05517
▁eerst	-8.05586
▁ter	-8.06028
▁vorm	-8.06109
▁oorlog	-8.06295
op	-8.06652
je	-8.06741
▁via	-8.06932
la	-8.07404
▁duitse	-8.075
▁zuid	-8.07559
is	-8.07853
▁hadden	-8.08151
▁zee	-8.08781
▁pas	-8.08855
▁20	-8.08859
▁hier	-8.09212
▁één	-8.09653
der	-8.09773
chr	-8.10394
▁belangrijke	-8.11271
▁meeste	-8.11395
▁noord	-8.12026
▁rijk	-8.12071
eren	-8.12576
▁kerk	-8.12628
ie	-8.12695
ve	-8.13184
▁on	-8.13498
▁10	-8.13721
▁bevolking	-8.14255
▁ligt	-8.14678
▁meestal	-8.15164
▁oude	-8.15468
▁mee	-8.15473
man	-8.16158
▁sommige	-8.16181
▁5	-8.16214
▁soms	-8.1653
ken	-8.16784
▁miljoen	-8.16799
▁14	-8.17192
▁geschiedenis	-8.17344
▁soorten	-8.17725
▁naast	-8.17774
land	-8.1794
▁m	-8.17945
▁waardoor	-8.17964
▁vormen	-8.17986
2	-8.18337
▁muziek	-8.18634
▁i	-8.18842
▁vele	-8.19025
▁groep	-8.19271
▁formula	-8.19673
▁gemaakt	-8.20222
▁rol	-8.20486
ia	-8.20501
▁goed	-8.20955
▁f	-8.21502
▁zelfs	-8.22287
ch	-8.22799
▁moet	-8.23147
▁gemeente	-8.23222
▁minder	-8.23341
as	-8.23481
▁zowel	-8.23518
aan	-8.23631
▁maakte	-8.23693
▁k	-8.23779
▁re	-8.24036
▁gaan	-8.24084
ta	-8.24156
▁bestaan	-8.24156
▁belangrijkste	-8.24333
▁zonder	-8.24424
▁6	-8.24518
▁slechts	-8.2455
▁c	-8.24629
▁verenigde	-8.25383
▁europese	-8.25507
▁daarnaast	-8.25518
▁kleine	-8.25706
▁waarvan	-8.25847
▁eind	-8.26542
ter	-8.26641
▁belgië	-8.27557
▁beide	-8.27571
▁franse	-8.27744
▁sterk	-8.27967
▁europa	-8.28088
an	-8.28142
▁mei	-8.28418
gen	-8.29071
▁buiten	-8.29294
▁8	-8.29621
▁boven	-8.2974
▁7	-8.30001
▁(19	-8.30019
▁dood	-8.30078
▁ont	-8.30237
▁hoofd	-8.30479
▁terwijl	-8.30655
▁la	-8.30809
▁gaat	-8.31255
the	-8.31289
▁ontstaan	-8.3133
j	-8.31751
▁der	-8.3238
▁moest	-8.32899
▁werken	-8.32928
it	-8.33527
um	-8.34232
▁zouden	-8.34391
▁januari	-8.34448
or	-8.34454
▁weg	-8.34472
▁einde	-8.34649
▁basis	-8.35008
▁enige	-8.3515
ro	-8.35151
▁dagen	-8.35221
▁onderzoek	-8.35567
▁12	-8.35822
▁snel	-8.36118
▁zien	-8.36194
▁man	-8.36233
▁duitsland	-8.36541
▁aarde	-8.36821
▁vrij	-8.36908
▁frankrijk	-8.37833
▁uiteindelijk	-8.38209
▁leger	-8.38244
ke	-8.38464
ster	-8.38536
▁19	-8.38703
▁nieuw	-8.38783
▁talen	-8.39092
▁meest	-8.39827
▁oktober	-8.39841
▁her	-8.39978
▁gezien	-8.40349
ar	-8.40427
▁licht	-8.4049
atie	-8.40598
isch	-8.40675
et	-8.41099
ca	-8.41286
▁boek	-8.4162
pen	-8.41739
me	-8.41804
▁invloed	-8.42132
▁vijf	-8.42208
▁provincie	-8.42443
eerde	-8.42757
▁net	-8.42859
▁begon	-8.42921
ul	-8.43047
▁christelijke	-8.43099
of	-8.43397
▁achter	-8.434
to	-8.43832
ur	-8.44691
▁zal	-8.45001
▁we	-8.45024
▁daarna	-8.45053
x	-8.46242
da	-8.46451
▁kunst	-8.46641
▁lang	-8.46692
▁juni	-8.47161
▁volgende	-8.47207
▁9	-8.47418
▁inwoners	-8.47735
▁huidige	-8.4776
▁ca	-8.47854
nen	-8.47961
▁altijd	-8.47964
▁daarom	-8.48114
▁amerikaanse	-8.48156
▁g	-8.48346
ven	-8.48384
▁regering	-8.48413
▁13	-8.48904
▁staan	-8.49024
▁politieke	-8.49167
▁bleef	-8.49286
▁nam	-8.4938
sch	-8.49513
▁steden	-8.49536
▁derde	-8.49685
lo	-8.49806
▁west	-8.50193
▁midden	-8.50487
▁le	-8.50491
no	-8.50494
▁hoge	-8.50524
▁sa	-8.50633
▁bepaalde	-8.52055
▁woord	-8.52624
▁september	-8.52792
▁god	-8.52816
ige	-8.53164
jes	-8.53434
ut	-8.53472
▁p	-8.53496
ra	-8.53623
▁zoon	-8.5382
▁vanwege	-8.53959
▁juli	-8.54065
▁december	-8.54469
▁name	-8.54553
os	-8.54719
len	-8.54982
▁o	-8.55284
▁co	-8.553
▁algemeen	-8.55422
▁wereldoorlog	-8.55438
▁keer	-8.55571
co	-8.55704
het	-8.56149
▁lange	-8.56221
▁hoog	-8.56252
mo	-8.56292
▁gaf	-8.56292
▁ontwikkeling	-8.56329
▁11	-8.57197
▁november	-8.57401
▁toch	-8.57435
ton	-8.57485
▁leden	-8.57499
▁wanneer	-8.57507
▁vinden	-8.57519
▁kwamen	-8.57532
▁meter	-8.57612
▁april	-8.57726
di	-8.57735
▁daarmee	-8.57799
▁dezelfde	-8.5785
ingen	-8.57888
▁maart	-8.58225
sen	-8.58267
▁h	-8.59032
▁macht	-8.59076
▁geven	-8.59192
▁bijna	-8.59286
▁vader	-8.59866
1	-8.60121
do	-8.60205
▁n	-8.60236
▁hand	-8.60263
▁grond	-8.60308
▁nederlands	-8.6041
▁film	-8.60728
▁sp	-8.60968
▁album	-8.61202
▁wil	-8.61219
th	-8.61659
▁moderne	-8.61861
▁bekende	-8.62296
ri	-8.62321
baar	-8.62386
▁lucht	-8.62451
va	-8.62714
é	-8.62852
▁eerder	-8.62943
▁diverse	-8.63014
▁gevolg	-8.63246
▁soort	-8.63327
▁natuur	-8.63561
▁vond	-8.63743
3	-8.63924
▁familie	-8.63933
▁w	-8.64031
▁sch	-8.64116
▁wilde	-8.64146
▁geweest	-8.64269
▁konden	-8.64331
per	-8.64656
▁hen	-8.64754
▁oost	-8.64785
▁vervolgens	-8.65055
voor	-8.65359
▁geheel	-8.6537
▁t	-8.6539
il	-8.6544
▁waaronder	-8.65532
▁km	-8.66105
▁doordat	-8.66257
isme	-8.66383
▁augustus	-8.66493
▁moeten	-8.66685
▁laten	-8.66748
▁weinig	-8.66775
▁zodat	-8.66886
▁delen	-8.669
▁hele	-8.67391
▁noorden	-8.67567
ci	-8.67827
’	-8.6783
▁kinderen	-8.67974
nadat	-8.68004
▁koninkrijk	-8.68436
ha	-8.68528
▁stond	-8.68606
▁mens	-8.68658
go	-8.6969
▁schreef	-8.69742
ende	-8.69957
vi	-8.70004
▁kamer	-8.7001
▁sint	-8.70164
▁spelen	-8.70357
▁internationale	-8.70361
om	-8.70454
▁ma	-8.70579
▁wet	-8.71215
aal	-8.71228
▁ii	-8.71365
▁keizer	-8.71468
▁oud	-8.71545
men	-8.71562
zen	-8.71663
▁middel	-8.71765
▁opnieuw	-8.72004
▁februari	-8.72361
▁gebieden	-8.72755
4	-8.73021
em	-8.73484
▁zuiden	-8.73579
▁geschreven	-8.73583
▁voorbeeld	-8.73721
▁langs	-8.73955
▁jaartelling	-8.74319
▁liet	-8.7444
▁huis	-8.74597
▁druk	-8.74621
ad	-8.74622
▁elk	-8.7464
▁doen	-8.74999
▁nodig	-8.75274
eerd	-8.75383
▁wie	-8.7555
▁waarschijnlijk	-8.75665
dat	-8.75823
▁daarbij	-8.75897
af	-8.76165
tie	-8.76456
ze	-8.76562
▁energie	-8.76685
▁geval	-8.77001
▁heel	-8.77223
▁ander	-8.7763
▁zon	-8.7777
▁president	-8.77907
▁amsterdam	-8.78319
▁jan	-8.78686
▁duidelijk	-8.7875
▁leiden	-8.78868
▁nemen	-8.79009
at	-8.79124
▁nationale	-8.79197
▁dieren	-8.793
▁vrouwen	-8.79592
▁beschouwd	-8.7996
▁maakt	-8.80225
▁cultuur	-8.80243
ale	-8.80429
ka	-8.80994
ga	-8.81054
▁moment	-8.81073
▁politiek	-8.8123
▁beeld	-8.81266
▁vast	-8.8161
▁eiland	-8.81764
van	-8.82059
ek	-8.82302
kel	-8.8232
▁mede	-8.8248
▁iets	-8.82481
ti	-8.82683
▁economische	-8.82685
ck	-8.82763
▁elke	-8.82819
▁con	-8.82864
▁romeinse	-8.83118
▁waarmee	-8.83119
▁ontstond	-8.83442
amp	-8.83573
▁even	-8.8378
▁voorkomen	-8.83856
au	-8.83969
gel	-8.84255
▁voornamelijk	-8.84269
▁britse	-8.843
▁centrum	-8.84316
ja	-8.84328
ion	-8.84361
▁manier	-8.84408
ant	-8.84434
▁tevens	-8.8445
▁bouw	-8.84603
▁tegenwoordig	-8.8472
▁grens	-8.84875
▁klein	-8.85008
▁belangrijk	-8.85104
ed	-8.85117
▁ra	-8.85408
▁namen	-8.85512
▁universiteit	-8.8567
ium	-8.85735
▁onderwijs	-8.85846
|	-8.85973
▁strijd	-8.86125
▁vrijwel	-8.86517
▁l	-8.86543
▁westen	-8.86659
ba	-8.86787
▁ex	-8.86797
tijd	-8.86835
▁nummer	-8.87184
durende	-8.872
▁nooit	-8.87629
▁systeem	-8.87671
▁rivier	-8.878
▁sovjet	-8.87825
▁parijs	-8.88066
▁betekent	-8.88121
wetenschappelijk	-8.88137
bo	-8.8818
▁karel	-8.88348
▁lijst	-8.88615
▁ruimte	-8.88879
▁lid	-8.89016
ist	-8.89058
▁republiek	-8.89297
=2	-8.89302
weg	-8.89318
▁houden	-8.89552
tische	-8.89736
▁moeder	-8.90044
▁liggen	-8.90164
▁hitler	-8.90222
▁plaatsen	-8.90243
▁willem	-8.90321
▁school	-8.90499
▁kennis	-8.90532
am	-8.90538
▁ruim	-8.90691
▁21	-8.90716
▁massa	-8.91203
▁daarvan	-8.91267
▁zogenaamd	-8.91438
▁meerdere	-8.91442
sel	-8.91491
lijk	-8.91597
▁di	-8.92018
▁gelijk	-8.92563
stad	-8.92593
ling	-8.92687
ik	-8.92816
▁mag	-8.92859
▁je	-8.92865
▁mo	-8.9287
▁blijven	-8.92893
▁gebouwd	-8.92955
▁2006	-8.92988
ce	-8.93159
▁oosten	-8.93427
▁goede	-8.93435
werk	-8.93694
▁krijgen	-8.93911
ly	-8.93941
▁vrouw	-8.93985
▁term	-8.9399
ië	-8.94066
▁kleur	-8.94431
▁j	-8.9458
▁minister	-8.947
aat	-8.94757
▁israël	-8.94918
50	-8.94941
(	-8.95
▁st	-8.95156
▁namelijk	-8.95529
▁doel	-8.95559
▁bovendien	-8.956
▁kent	-8.9578
▁gevonden	-8.95809
▁hierdoor	-8.95823
-19	-8.96057
▁30	-8.96065
huis	-8.96375
▁ha	-8.96383
▁gehouden	-8.96608
▁leidde	-8.97051
▁elementen	-8.97075
▁du	-8.97256
ag	-8.97269
▁won	-8.97498
▁zes	-8.9756
▁geworden	-8.97637
▁geboren	-8.97638
▁griekse	-8.97664
▁recht	-8.97805
tje	-8.97842
▁relatief	-8.97896
▁2007	-8.97913
▁slag	-8.97931
▁bepaald	-8.98046
▁25	-8.98096
▁waarop	-8.98173
ine	-8.98186
id	-8.9819
▁anders	-8.98203
▁onafhankelijk	-8.98231
▁belang	-8.98283
▁lo	-8.98324
heden	-8.98361
pa	-8.9855
▁mar	-8.98608
▁pro	-8.98643
sa	-8.98771
een	-8.98775
ius	-8.98835
▁geeft	-8.98908
▁regio	-8.98997
▁top	-8.9906
ho	-8.99133
un	-8.99226
▁sport	-8.99244
mer	-8.99297
gebied	-8.99457
▁direct	-8.99539
▁deed	-8.99639
he	-8.99648
ot	-8.99674
▁gesproken	-8.99724
met	-8.9973
5	-8.99802
▁korte	-8.99871
▁belgische	-8.99919
▁bracht	-9.00078
▁to	-9.00215
▁kort	-9.00241
▁si	-9.00315
▁volgen	-9.00326
val	-9.00448
son	-9.00496
▁zeven	-9.0073
▁literatuur	-9.00946
ni	-9.0096
▁leiding	-9.00993
▁hiervan	-9.01097
▁kern	-9.01181
▁paus	-9.01208
▁gebaseerd	-9.01342
▁latere	-9.016
▁afstand	-9.01772
▁hoofdstad	-9.02269
▁aanvankelijk	-9.02339
▁vlaanderen	-9.0237
po	-9.02372
▁temperatuur	-9.02376
▁helft	-9.02418
▁2002	-9.02474
▁hierbij	-9.02894
▁gegeven	-9.02967
end	-9.0297
▁tien	-9.03032
ker	-9.03248
▁uur	-9.03338
▁frans	-9.03375
▁stijl	-9.03496
▁grotere	-9.03526
▁geld	-9.03658
66	-9.03705
▁voorbeelden	-9.03713
▁ar	-9.03832
▁daardoor	-9.0404
▁productie	-9.04047
▁volledig	-9.04062
ler	-9.04152
▁leeftijd	-9.04236
▁groepen	-9.0428
▁bleek	-9.0437
▁verkiezingen	-9.04404
▁succes	-9.04421
▁park	-9.04522
▁troepen	-9.04602
ber	-9.04616
▁groter	-9.0462
▁totaal	-9.04664
▁bestond	-9.04737
▁2010	-9.04746
▁so	-9.0486
▁euro	-9.0504
▁hoogste	-9.05091
▁functie	-9.05168
▁r	-9.05228
20	-9.0536
▁he	-9.05422
elijk	-9.05437
elijke	-9.05503
▁as	-9.05713
▁(18	-9.05721
ën	-9.05785
▁partijen	-9.05793
▁economie	-9.05817
▁zaken	-9.06012
ir	-9.06068
▁jonge	-9.06118
▁woorden	-9.06221
▁lichaam	-9.06255
▁engeland	-9.06332
▁an	-9.06485
▁raad	-9.06501
tal	-9.06702
▁officiële	-9.06702
▁zwarte	-9.06846
▁ervan	-9.06873
con	-9.06989
0	-9.06993
▁bevindt	-9.07195
▁gevormd	-9.07248
sche	-9.07357
▁geldt	-9.07467
7	-9.07603
▁titel	-9.07719
▁oudste	-9.07962
▁afhankelijk	-9.08001
▁planten	-9.08299
▁positie	-9.08354
&	-9.08376
▁speelde	-9.08586
ü	-9.08589
▁onderdeel	-9.08613
▁stand	-9.08724
over	-9.08925
▁gebruiken	-9.0895
▁vormt	-9.09018
▁hetzelfde	-9.09215
▁band	-9.0931
▁maan	-9.0946
jarige	-9.09468
▁militaire	-9.09489
▁spanje	-9.0963
berg	-9.09708
▁italië	-9.09766
").	-9.09768
▁waarde	-9.09785
4"	-9.09823
▁auto	-9.09898
▁erg	-9.09912
▁new	-9.09918
6	-9.10004
meer	-9.10445
bel	-9.10471
▁brengen	-9.10501
we	-9.10529
19	-9.10647
8	-9.10722
▁2000	-9.10801
▁val	-9.10952
▁zeggen	-9.10968
ij	-9.11035
▁voedsel	-9.11174
▁2005	-9.11236
▁boeken	-9.11294
▁mannen	-9.11369
▁me	-9.11381
▁gekozen	-9.11589
▁parlement	-9.11589
▁ka	-9.11605
▁beweging	-9.11733
▁voort	-9.11872
▁2008	-9.11913
kken	-9.12161
▁element	-9.12164
unie	-9.12185
▁organisatie	-9.12528
groep	-9.12575
bare	-9.126
▁landbouw	-9.12684
▁zin	-9.12686
ger	-9.12793
▁go	-9.12852
▁maanden	-9.12882
schap	-9.13064
▁paar	-9.13349
▁joden	-9.13398
3"	-9.13573
▁volgde	-9.1362
▁2012	-9.13756
▁loop	-9.13828
2"	-9.14054
▁klassieke	-9.14069
▁tekst	-9.14302
zie	-9.14368
mon	-9.14414
als	-9.14436
▁anti	-9.14495
▁gedaan	-9.14631
▁bloed	-9.14695
▁proces	-9.14695
▁richting	-9.14708
▁and	-9.14759
▁opgericht	-9.14799
isten	-9.15121
▁enkel	-9.15148
▁2011	-9.15167
10	-9.15195
eert	-9.15253
▁z	-9.15438
▁am	-9.15646
=1	-9.15779
▁pe	-9.1579
▁bal	-9.15823
▁hart	-9.15899
▁eveneens	-9.15924
40	-9.15931
▁rest	-9.16003
▁vlak	-9.16158
▁pa	-9.16177
▁gebruikte	-9.16213
▁gebracht	-9.1634
▁laat	-9.16472
▁acht	-9.16501
▁ta	-9.16518
30	-9.16526
▁spaanse	-9.16599
▁2009	-9.16609
▁gemeenten	-9.16683
▁rode	-9.17119
im	-9.17201
▁betekenis	-9.17205
▁22	-9.17212
▁ontwikkeld	-9.17382
▁informatie	-9.17501
▁gelegen	-9.17514
▁zeker	-9.176
▁john	-9.17634
ica	-9.1765
▁bron	-9.17707
▁24	-9.17814
▁eigenschappen	-9.17866
▁gevallen	-9.17947
▁vlaamse	-9.18016
▁hoogte	-9.18164
▁gas	-9.18184
1"	-9.18327
7"	-9.18418
▁waarna	-9.18458
▁markt	-9.18505
▁programma	-9.18528
▁verenigd	-9.18626
ren	-9.18688
▁omgeving	-9.18694
▁se	-9.18791
▁bijzonder	-9.18793
▁verscheen	-9.18836
recht	-9.1893
6"	-9.18963
▁vroeg	-9.19079
9"	-9.19088
ko	-9.19179
▁opgenomen	-9.19183
▁anderen	-9.19188
▁personen	-9.19285
▁beter	-9.19293
▁san	-9.19446
▁ziekte	-9.19577
15	-9.19661
▁algemene	-9.19716
▁kilometer	-9.19749
▁kabinet	-9.19846
▁punt	-9.19902
▁brussel	-9.19907
▁ru	-9.19944
▁centraal	-9.20461
17	-9.2066
▁po	-9.20734
ook	-9.20829
▁oorspronkelijk	-9.2085
▁hoger	-9.21078
taal	-9.21237
▁lag	-9.21237
8"	-9.21327
▁stads	-9.21386
▁reeds	-9.2142
▁pre	-9.21434
mar	-9.21479
▁zichzelf	-9.21485
▁verbonden	-9.21511
si	-9.21651
▁ba	-9.21729
▁voormalige	-9.21742
punt	-9.21794
tra	-9.21806
▁kregen	-9.21836
▁for	-9.22046
▁100	-9.22176
▁rijn	-9.22183
les	-9.22216
hi	-9.22284
▁stelde	-9.22299
▁radio	-9.22387
▁car	-9.22398
▁bevat	-9.22431
▁dienst	-9.22522
▁bestuur	-9.22553
▁behoren	-9.22667
▁kust	-9.22722
▁jaarlijks	-9.22734
ner	-9.22811
▁wist	-9.22914
▁bestaande	-9.2294
▁open	-9.23039
▁historische	-9.23061
▁vervangen	-9.23086
5"	-9.23116
▁u	-9.23162
▁berg	-9.23181
▁rome	-9.23213
▁hierna	-9.23335
▁aanwezig	-9.23397
▁ni	-9.23615
programma	-9.23749
▁handen	-9.23781
zo	-9.2403
▁afkomstig	-9.24137
▁sterke	-9.24223
▁tegenstelling	-9.24259
ac	-9.2429
▁getallen	-9.24358
▁theorie	-9.24364
li	-9.24396
▁engelse	-9.24495
eel	-9.24606
▁laag	-9.24677
▁nationaal	-9.24722
▁middeleeuwen	-9.24773
bi	-9.2496
vo	-9.25104
▁volk	-9.25227
▁vroege	-9.25242
min	-9.25261
▁grotendeels	-9.25344
▁sprake	-9.25384
▁versie	-9.25435
gt	-9.25542
▁verhaal	-9.25607
mi	-9.25695
=3	-9.25779
80	-9.25814
▁verschillen	-9.2592
ering	-9.25975
▁wetenschap	-9.26117
ai	-9.26121
▁nederlanden	-9.26609
▁orde	-9.2667
▁mate	-9.26742
▁viel	-9.26773
▁museum	-9.26881
▁huwelijk	-9.26908
▁oog	-9.26914
▁hof	-9.27008
▁do	-9.27027
▁gehele	-9.27241
▁kant	-9.27333
lijn	-9.2734
▁ieder	-9.27361
bu	-9.27414
▁min	-9.27516
▁feit	-9.27592
amerika	-9.27629
tjes	-9.27652
18	-9.27738
▁regelmatig	-9.27957
slag	-9.27975
▁handel	-9.28066
▁reden	-9.28087
▁dochter	-9.28089
▁hiermee	-9.28103
▁sociale	-9.28105
▁china	-9.28131
▁klimaat	-9.28267
age	-9.28398
▁vol	-9.2841
ic	-9.2853
io	-9.28552
▁ro	-9.2864
art	-9.28735
▁begonnen	-9.28746
▁egypte	-9.28813
▁2003	-9.28877
▁getal	-9.29159
▁ondanks	-9.29286
▁bar	-9.29455
▁2014	-9.29483
▁engels	-9.29567
▁vi	-9.29587
70	-9.29657
▁stellen	-9.2979
▁lijn	-9.30005
▁verband	-9.30064
eur	-9.30089
▁heet	-9.30154
▁moesten	-9.30215
▁rusland	-9.30267
▁kracht	-9.30319
▁foto	-9.30369
25	-9.30385
▁2004	-9.30509
▁volgt	-9.30521
aire	-9.30533
▁tri	-9.30618
▁2018	-9.30693
▁standaard	-9.30739
▁vindt	-9.30788
sh	-9.3081
ex	-9.30847
kerk	-9.30885
▁studie	-9.30892
lang	-9.3096
▁valt	-9.30998
="8	-9.31065
dig	-9.3112
bouw	-9.31229
lt	-9.31231
="6	-9.31233
▁oorsprong	-9.31241
istische	-9.31346
so	-9.3144
▁steun	-9.31466
kt	-9.31559
sta	-9.31624
▁londen	-9.31712
▁haag	-9.31756
60	-9.31769
▁hulp	-9.31851
▁unie	-9.31894
▁ga	-9.3192
jo	-9.31994
▁verloren	-9.32003
▁wijze	-9.32152
)"	-9.32152
▁gingen	-9.3229
straat	-9.32597
▁oceaan	-9.32599
▁besloot	-9.32625
▁los	-9.32651
▁joodse	-9.32663
▁2013	-9.32796
▁dergelijke	-9.328
dy	-9.32945
0.000	-9.33029
▁vrije	-9.33035
br	-9.33174
water	-9.33289
▁veld	-9.33302
▁=	-9.3335
▁grondwet	-9.33435
▁russische	-9.33509
▁&	-9.33571
85	-9.33575
ef	-9.33608
▁2019	-9.33739
▁plan	-9.3384
pe	-9.33913
▁23	-9.34047
▁lokale	-9.34171
▁gespeeld	-9.34183
▁stuk	-9.34221
ser	-9.34233
▁kalender	-9.34253
ll	-9.34296
▁rechts	-9.34437
▁antwerpen	-9.34443
▁beste	-9.3448
16	-9.34493
▁niveau	-9.34558
▁materiaal	-9.34598
▁stof	-9.34662
▁verschil	-9.3467
▁vaste	-9.34675
▁persoon	-9.34766
▁groei	-9.34802
▁afge	-9.3484
▁vis	-9.34913
ring	-9.34924
▁zag	-9.3496
="7	-9.34984
sp	-9.34998
afrika	-9.35085
▁overheid	-9.35168
▁brand	-9.35173
▁oorspronkelijke	-9.35234
onder	-9.35243
▁uitgevoerd	-9.35304
▁actief	-9.35459
▁jo	-9.35534
▁opstand	-9.35646
▁neemt	-9.35747
▁staats	-9.3578
bij	-9.35827
dag	-9.35956
spel	-9.36133
▁li	-9.36192
▁gevestigd	-9.36222
▁jeugd	-9.36222
vorm	-9.36269
▁verdeeld	-9.36384
ip	-9.36417
dra	-9.3647
▁leer	-9.36568
ak	-9.36648
58	-9.36721
▁ontwikkelde	-9.36731
▁centrale	-9.36767
9	-9.36784
europa	-9.36869
▁bos	-9.36986
45	-9.37072
▁trad	-9.37081
plaats	-9.37212
za	-9.37307
▁genomen	-9.37325
▁paul	-9.37442
air	-9.37446
▁natuurlijke	-9.37494
▁prijs	-9.3782
▁aangezien	-9.37832
die	-9.37851
rijk	-9.37852
▁fa	-9.37875
▁no	-9.37923
▁2015	-9.38029
▁iii	-9.3811
kant	-9.38115
staat	-9.38261
▁internationaal	-9.3832
▁beschreven	-9.38488
▁vertegenwoordig	-9.38512
ry	-9.38641
▁inmiddels	-9.38661
▁juist	-9.38766
tisch	-9.38779
ert	-9.38873
▁oostenrijk	-9.39062
29	-9.39088
▁computer	-9.39094
27	-9.3914
▁vallen	-9.39177
▁eu	-9.39198
▁verhalen	-9.39201
▁polen	-9.3938
▁geboorte	-9.39533
▁welke	-9.39534
ings	-9.39554
▁opdracht	-9.39589
á	-9.39637
▁ad	-9.39846
▁reactie	-9.39936
ö	-9.40119
▁kleinere	-9.40186
12	-9.40305
▁hiervoor	-9.40359
▁holland	-9.40384
35	-9.40396
▁ho	-9.40461
▁circa	-9.40512
▁speelt	-9.40526
▁kop	-9.40534
▁groningen	-9.40601
▁totale	-9.40661
▁punten	-9.4068
systeem	-9.40722
tri	-9.40759
▁gemeenschap	-9.40964
▁50	-9.40979
▁vierde	-9.41109
▁0	-9.4114
▁neer	-9.41174
▁el	-9.4118
▁schrijven	-9.41223
▁witte	-9.41275
▁eilanden	-9.41314
▁zetten	-9.41337
▁dicht	-9.41633
pro	-9.41965
net	-9.42059
▁indeling	-9.4207
0"	-9.42083
▁york	-9.4214
▁lage	-9.42167
▁2001	-9.42188
▁vervoer	-9.42267
="4	-9.4229
wet	-9.42312
▁onderscheiden	-9.42389
theorie	-9.42439
▁goud	-9.42449
73	-9.42455
▁lu	-9.42478
▁problemen	-9.42501
▁seizoen	-9.42679
43	-9.42791
ting	-9.42799
49	-9.42805
▁lijkt	-9.42829
00	-9.42856
verantwoordelijk	-9.42867
▁zetels	-9.43086
▁publiek	-9.43412
pel	-9.43644
▁hogere	-9.43717
ty	-9.43815
aar	-9.44263
▁ab	-9.44318
▁x	-9.44327
burg	-9.44346
ard	-9.44437
▁bo	-9.44438
24	-9.44443
▁daarvoor	-9.44445
▁katholieke	-9.44471
▁oppervlakte	-9.44483
▁voeren	-9.44514
▁hoeveelheid	-9.44627
▁officieel	-9.44678
naam	-9.44713
▁28	-9.44739
▁handels	-9.44832
▁bedrijven	-9.44863
▁ton	-9.44893
▁revolutie	-9.44917
▁opzichte	-9.45027
▁blijft	-9.45063
▁procent	-9.45068
lu	-9.45115
▁johannes	-9.45263
pi	-9.45361
▁ne	-9.45425
▁serie	-9.45484
▁vraag	-9.45518
fa	-9.45581
64	-9.45623
iteit	-9.45654
▁werkte	-9.45793
▁langer	-9.45804
▁japan	-9.45866
▁wit	-9.4588
▁kritiek	-9.45891
▁geplaatst	-9.45893
▁hout	-9.459
▁aangeduid	-9.45937
54	-9.46073
▁moeilijk	-9.46119
tu	-9.46208
▁single	-9.46307
▁jezus	-9.46466
▁status	-9.46513
="3	-9.4658
eg	-9.46587
▁reeks	-9.46653
▁bas	-9.46706
handel	-9.4682
▁napoleon	-9.46821
▁spreekt	-9.46836
▁duits	-9.46916
ix	-9.46985
▁station	-9.46992
▁blijkt	-9.47
▁goden	-9.47037
▁type	-9.47047
="5	-9.4714
57	-9.47141
44	-9.47199
▁2016	-9.47279
56	-9.47346
▁post	-9.47361
▁relatie	-9.47368
▁vrede	-9.4738
77	-9.47386
11	-9.47403
gang	-9.47434
deel	-9.47452
▁bronnen	-9.47524
▁overleed	-9.47533
▁vogels	-9.47555
82	-9.47565
76	-9.4772
▁aard	-9.47784
75	-9.47857
▁college	-9.47876
▁rij	-9.47889
▁toegepast	-9.47895
▁uitge	-9.48067
mp	-9.48083
▁eenheid	-9.48092
▁buitenlandse	-9.48118
▁utrecht	-9.48175
52	-9.48178
41	-9.48194
▁da	-9.48329
▁dna	-9.48453
▁insecten	-9.4855
▁hield	-9.48576
▁noordelijke	-9.4863
rs	-9.48634
▁duitsers	-9.4869
▁kenmerken	-9.48882
51	-9.49066
lin	-9.49119
▁bekendste	-9.49141
▁stemmen	-9.49143
▁groeide	-9.49318
▁meerderheid	-9.49337
90	-9.49345
▁zomer	-9.49357
_1	-9.49357
▁dr	-9.49476
▁ontdekt	-9.49651
▁göring	-9.49702
uk	-9.49728
▁lengte	-9.49741
=9	-9.49798
mel	-9.49811
▁von	-9.49834
88	-9.49863
▁spel	-9.49871
▁ooit	-9.49887
ding	-9.4992
71	-9.49928
▁27	-9.49969
▁maas	-9.49974
▁veroorzaakt	-9.50108
▁artikel	-9.5012
▁sub	-9.50136
74	-9.50211
▁elektronen	-9.50239
▁rooms	-9.50275
▁ku	-9.50288
▁behoort	-9.50434
▁structuur	-9.5054
63	-9.50558
▁symbool	-9.50588
▁iemand	-9.50619
▁kans	-9.5063
89	-9.50673
▁snelheid	-9.5068
▁daarop	-9.5087
▁telt	-9.50876
▁contact	-9.50919
▁bevinden	-9.50988
▁ben	-9.51058
▁ko	-9.51061
68	-9.51064
▁geleid	-9.51083
▁karakter	-9.51103
▁miljard	-9.51173
86	-9.51181
▁traditie	-9.51233
▁steen	-9.5131
tel	-9.51362
65	-9.51416
59	-9.5151
▁ontstaat	-9.51573
▁extra	-9.5158
ation	-9.5159
62	-9.51629
▁ja	-9.51676
▁26	-9.51699
▁alles	-9.51713
▁zie	-9.51737
rie	-9.51902
▁2020	-9.51966
▁2017	-9.51974
leg	-9.51979
▁haven	-9.52139
21	-9.52211
ä	-9.5227
▁onge	-9.52287
79	-9.52312
▁verdrag	-9.52338
▁westerse	-9.52344
▁bedoeld	-9.5248
stelling	-9.5248
▁tra	-9.52506
▁gesteld	-9.52655
che	-9.52758
▁nacht	-9.5278
▁zuidelijke	-9.52788
if	-9.52796
ol	-9.52825
her	-9.52894
ap	-9.52898
ts	-9.52975
13	-9.53012
78	-9.53045
▁trok	-9.53071
ang	-9.53223
▁industrie	-9.53411
▁burgemeester	-9.53529
▁golf	-9.53598
schrift	-9.53761
▁loopt	-9.5388
▁onderscheid	-9.54045
▁politie	-9.54251
22	-9.54411
del	-9.54525
▁‘	-9.54552
wa	-9.54575
',	-9.54597
vin	-9.5478
▁kleuren	-9.5499
▁kennen	-9.55152
ari	-9.55228
▁tegenover	-9.55607
▁kind	-9.55608
▁praktijk	-9.55659
▁behalve	-9.55715
nam	-9.55768
toe	-9.55782
▁maastricht	-9.55812
▁bu	-9.55825
▁ervoor	-9.55889
▁geleden	-9.56055
▁uitgebreid	-9.56068
▁bezit	-9.56089
▁zweden	-9.56138
uw	-9.56176
83	-9.56205
▁gedrag	-9.56225
▁religieuze	-9.56236
▁nazi	-9.56299
▁overigens	-9.56316
▁gemiddelde	-9.56382
▁optreden	-9.56384
▁menselijke	-9.56405
▁italiaanse	-9.56421
99	-9.56477
▁broer	-9.56516
ron	-9.56629
▁koningin	-9.56845
▁samenwerking	-9.56873
▁traditionele	-9.56894
▁combinatie	-9.56964
▁want	-9.5708
▁1990	-9.57116
od	-9.5724
▁krijgt	-9.57288
▁half	-9.57347
▁aandacht	-9.57363
stelsel	-9.57404
▁geluid	-9.57471
ct	-9.57476
ele	-9.57621
▁iedere	-9.57652
ier	-9.57755
▁religie	-9.57852
▁beperkt	-9.57897
61	-9.58057
pt	-9.58071
▁bereikt	-9.58107
▁bi	-9.58126
69	-9.58203
▁heilige	-9.58207
67	-9.58236
loos	-9.58314
▁situatie	-9.58386
▁graf	-9.58477
▁spin	-9.58495
kwam	-9.58506
▁wind	-9.58638
tre	-9.58654
▁week	-9.58684
▁definitie	-9.58726
▁beelden	-9.58769
▁ke	-9.58772
wijk	-9.58797
don	-9.5886
▁teksten	-9.5887
laag	-9.58985
▁gent	-9.58993
▁opvolger	-9.59077
▁behulp	-9.59086
gaan	-9.59124
▁zuurstof	-9.59243
84	-9.59364
ï	-9.59503
ologie	-9.59636
▁dankzij	-9.59681
ment	-9.59691
▁voorzien	-9.59762
▁dorp	-9.59774
▁media	-9.59778
▁ronde	-9.59888
23	-9.59898
▁voorzitter	-9.59932
▁start	-9.59938
81	-9.59999
▁ijs	-9.60005
_	-9.60073
55	-9.60122
▁club	-9.60252
▁levens	-9.60272
iet	-9.60334
gas	-9.60343
="9	-9.60394
oorlog	-9.60409
gra	-9.60477
▁verschenen	-9.60493
▁prins	-9.60501
▁31	-9.60623
har	-9.60805
▁weten	-9.60818
▁ogen	-9.60853
▁oranje	-9.60899
▁georganiseerd	-9.60899
▁allerlei	-9.60901
▁afrika	-9.60923
zijde	-9.6094
26	-9.60964
raad	-9.61004
▁best	-9.61012
▁opleiding	-9.61029
veld	-9.61038
▁40	-9.61056
▁volks	-9.61278
▁betreft	-9.61308
▁speciale	-9.61312
▁cel	-9.6134
▁cd	-9.61444
▁idee	-9.61492
▁baan	-9.61587
95	-9.61597
▁begrip	-9.61605
kracht	-9.61752
▁aanzienlijk	-9.61824
▁noemde	-9.61871
▁gedeelte	-9.61908
ff	-9.61972
▁aanval	-9.62117
zi	-9.62155
ley	-9.62158
▁gu	-9.62242
87	-9.62601
mb	-9.62645
▁vs	-9.62652
▁filosofie	-9.62755
▁29	-9.62759
ach	-9.62854
▁schaal	-9.62916
▁begint	-9.62965
▁populair	-9.63048
▁verloor	-9.63172
▁kruis	-9.63203
uren	-9.63336
▁roman	-9.63358
▁zware	-9.63383
▁sindsdien	-9.63397
32	-9.63405
▁rechten	-9.63409
▁2021	-9.63461
tes	-9.63502
▁schepen	-9.63546
▁raakte	-9.63587
▁verbinding	-9.63599
leden	-9.63773
ina	-9.63778
ich	-9.6381
▁zichtbaar	-9.63823
▁gesloten	-9.63833
oc	-9.63912
42	-9.6395
▁1945	-9.64041
king	-9.64156
▁berlijn	-9.64195
▁maakten	-9.64199
▁or	-9.64256
▁qua	-9.64259
33	-9.64283
▁su	-9.64292
▁overige	-9.64372
▁pop	-9.64376
”	-9.64645
36	-9.64682
ther	-9.64711
▁verleden	-9.64745
ki	-9.64789
▁gouden	-9.64811
è	-9.64906
ders	-9.65008
▁benoemd	-9.65011
▁methode	-9.65016
du	-9.65036
▁theater	-9.65122
▁bewijs	-9.65291
▁y	-9.65321
37	-9.65335
▁com	-9.65336
48	-9.65427
ging	-9.65427
ny	-9.65469
▁daarin	-9.65486
▁spreken	-9.6549
▁genoeg	-9.65497
wo	-9.65598
▁verkocht	-9.65611
▁gevolgd	-9.65612
▁thema	-9.65623
▁nabij	-9.65672
▁voetbal	-9.65694
lijke	-9.65719
namen	-9.65725
▁overlijden	-9.65751
▁tempel	-9.6579
waar	-9.65797
leven	-9.65854
▁geest	-9.65877
cy	-9.65954
tor	-9.66012
▁im	-9.66068
▁vroeger	-9.66086
komen	-9.66088
▁constantijn	-9.66253
▁maand	-9.66292
▁openbaar	-9.66315
vol	-9.66333
72	-9.6634
▁wereldwijd	-9.66415
rij	-9.66453
▁stoffen	-9.66477
▁schrijver	-9.66516
▁provincies	-9.66552
ab	-9.66599
▁winter	-9.66643
ft	-9.66653
91	-9.66681
han	-9.66728
▁christendom	-9.6679
▁mor	-9.66827
▁chemische	-9.66844
achtige	-9.66851
14	-9.66962
up	-9.67105
▁weken	-9.67107
▁fase	-9.67121
▁diens	-9.67163
fi	-9.67172
▁toon	-9.67208
▁eeuwen	-9.67213
01	-9.67225
▁regels	-9.67237
ó	-9.67255
▁toepassingen	-9.67329
▁tour	-9.67434
▁india	-9.67494
▁lager	-9.67501
markt	-9.6753
ici	-9.67546
92	-9.67596
28	-9.67603
▁bijbel	-9.67687
▁bewaard	-9.67709
muziek	-9.67756
▁bodem	-9.67834
delen	-9.67854
▁ri	-9.6786
▁christus	-9.67889
▁eigenlijk	-9.67982
▁gekomen	-9.68096
und	-9.68111
▁1994	-9.68119
▁probleem	-9.68193
▁mars	-9.68413
ving	-9.68455
▁ik	-9.68492
▁betrokken	-9.68501
▁doorgaans	-9.68531
▁toegevoegd	-9.68762
▁gebeurtenissen	-9.68767
▁geloof	-9.68781
▁gericht	-9.68914
▁koninklijke	-9.6912
▁oudere	-9.69203
▁uitgebracht	-9.69343
▁principe	-9.69359
▁trekken	-9.69392
▁2022	-9.6946
▁wegens	-9.69475
tion	-9.69567
jaar	-9.69572
▁maria	-9.69613
▁mis	-9.69621
tan	-9.69671
▁vuur	-9.69695
96	-9.69753
stra	-9.6978
▁windows	-9.6987
▁nauwelijks	-9.6987
▁probeerde	-9.69982
▁david	-9.69995
▁latijn	-9.70013
gi	-9.70163
▁milieu	-9.70243
est	-9.70255
ys	-9.70322
▁bleven	-9.70358
97	-9.70467
38	-9.70488
▁software	-9.70567
▁1995	-9.70607
druk	-9.70623
▁stem	-9.7065
▁kerken	-9.70659
▁ster	-9.70671
▁afgeleid	-9.70706
fe	-9.70712
▁80	-9.70813
geven	-9.70816
▁pi	-9.70822
pp	-9.70845
▁wonen	-9.70879
▁ontstonden	-9.70898
band	-9.70935
▁spinnen	-9.71036
▁albert	-9.71104
ph	-9.71214
ani	-9.7122
▁metaal	-9.7122
▁sterren	-9.71276
▁fi	-9.7134
▁para	-9.71387
zet	-9.71441
▁heen	-9.71488
▁wedstrijd	-9.71498
39	-9.71519
▁cha	-9.71578
53	-9.7158
]	-9.71661
vat	-9.71683
ju	-9.71684
ham	-9.71719
98	-9.71733
▁gi	-9.71741
▁besloten	-9.71902
wij	-9.71903
▁plek	-9.71904
▁westelijke	-9.7192
ov	-9.71937
▁televisie	-9.71956
tha	-9.71994
▁uitzondering	-9.72006
▁product	-9.72027
▁reis	-9.72089
▁bepalen	-9.72128
ssen	-9.72139
▁ti	-9.72313
▁internet	-9.72336
stand	-9.72407
▁gregoriaanse	-9.72428
▁gemeenteraad	-9.72491
47	-9.72544
▁mi	-9.72565
▁doden	-9.72568
▁60	-9.72587
zoals	-9.72598
▁rivieren	-9.72644
▁peter	-9.72659
▁voldoende	-9.72689
▁klooster	-9.72746
nie	-9.7277
▁bereiken	-9.7281
93	-9.72812
ris	-9.72871
▁mil	-9.72896
▁oorlogs	-9.72924
▁beïnvloed	-9.7293
q	-9.72984
ya	-9.73008
34	-9.73067
▁effect	-9.73128
▁beleid	-9.73144
▁lopen	-9.73197
prijs	-9.7321
lingen	-9.73238
nes	-9.73414
▁gemiddeld	-9.73528
▁haarlem	-9.73569
▁toepassing	-9.7363
▁th	-9.73684
–	-9.73783
▁verzameling	-9.73816
▁gerekend	-9.73852
▁culturele	-9.73924
▁respectievelijk	-9.74052
fer	-9.74185
▁zullen	-9.7421
▁negen	-9.7422
▁openbare	-9.7424
qu	-9.74244
▁super	-9.7432
iden	-9.74344
holland	-9.74345
▁zit	-9.74455
▁vlaams	-9.74477
▁vogel	-9.74547
dan	-9.74645
▁hendrik	-9.74676
▁ideeën	-9.7469
▁groen	-9.74751
▁aangenomen	-9.74758
▁doet	-9.7482
park	-9.74849
▁bezig	-9.7486
▁model	-9.74862
school	-9.7498
▁ontdekking	-9.7501
door	-9.7503
▁vrijheid	-9.75031
▁zilver	-9.75207
▁olie	-9.75246
▁houdt	-9.75303
▁resultaat	-9.75319
▁wapen	-9.75361
bijvoorbeeld	-9.75435
▁fo	-9.75474
▁verspreid	-9.75576
▁gepubliceerd	-9.75618
▁hard	-9.75628
▁verlaten	-9.75657
ont	-9.75705
▁bouwen	-9.75787
▁gewonnen	-9.75855
▁regel	-9.75905
▁aanleiding	-9.7593
▁kinder	-9.75934
arm	-9.75953
▁zorgde	-9.75993
▁mocht	-9.75997
▁vonden	-9.76044
nt	-9.76044
▁veelal	-9.76089
bal	-9.76102
vel	-9.76251
_2	-9.76262
av	-9.76296
centrum	-9.76392
generaal	-9.76402
iek	-9.76459
ana	-9.76541
beweging	-9.76569
▁gehad	-9.76594
▁zand	-9.7661
▁limburg	-9.76672
▁mogelijke	-9.76682
▁stelt	-9.76688
▁bevatten	-9.76782
tr	-9.76797
▁beschikbaar	-9.76809
▁stierf	-9.76822
▁wetten	-9.76832
▁dier	-9.76863
▁formule	-9.76968
▁gebleven	-9.7705
erende	-9.77056
▁buurt	-9.77059
bert	-9.77063
▁ontving	-9.77077
▁bedrijf	-9.77174
94	-9.77357
▁ger	-9.77432
▁grootte	-9.77462
▁zwaar	-9.77621
zin	-9.7767
▁waterstof	-9.7778
niet	-9.7784
form	-9.77968
▁financiële	-9.78014
▁romeinen	-9.78015
▁kunstenaars	-9.78129
▁turkije	-9.7813
▁carrière	-9.78237
▁verzet	-9.78296
igheid	-9.78308
nu	-9.78347
▁chinese	-9.78445
▁stam	-9.78497
ator	-9.78649
▁zwart	-9.78661
▁elektrische	-9.78727
kunst	-9.78868
▁studenten	-9.7893
aars	-9.78954
ini	-9.79037
▁specifieke	-9.7914
▁twaalf	-9.79228
▁1998	-9.79258
pre	-9.79342
ok	-9.79364
▁straling	-9.79375
▁bank	-9.79395
boek	-9.79445
gene	-9.79467
▁bezocht	-9.79725
▁samenleving	-9.79747
▁denken	-9.79762
▁rotterdam	-9.79772
▁bra	-9.79797
fo	-9.79803
▁aanwezigheid	-9.79812
▁bio	-9.79818
sie	-9.79844
▁ouders	-9.79844
31	-9.80066
loze	-9.80114
▁latijnse	-9.80131
▁hoek	-9.80136
▁hierin	-9.8014
▁trans	-9.80206
▁werking	-9.80211
ois	-9.80216
▁overwinning	-9.80285
▁alfabet	-9.80304
bar	-9.80355
ide	-9.80384
▁schrift	-9.80415
lie	-9.80526
▁cor	-9.80589
▁echte	-9.80635
▁finale	-9.80654
▁dichter	-9.80675
▁gebeurt	-9.80728
▁stammen	-9.80748
▁stroom	-9.80869
▁luxemburg	-9.80887
zee	-9.80899
▁70	-9.80914
top	-9.80992
▁oudheid	-9.81115
▁gegevens	-9.81117
zetten	-9.81161
▁rand	-9.81184
▁arnhem	-9.81216
▁scholen	-9.81266
▁opge	-9.81437
▁willen	-9.81491
gan	-9.81524
▁liefde	-9.81567
▁hemel	-9.81691
ien	-9.81696
▁1999	-9.81747
▁gezag	-9.81754
industrie	-9.81827
▁gra	-9.81868
nummer	-9.81924
ski	-9.81933
▁ontwikkelen	-9.81974
dom	-9.82016
vis	-9.82086
▁behaalde	-9.82154
▁geslacht	-9.82165
▁leider	-9.82225
rt	-9.82227
▁zorgen	-9.82268
▁wijk	-9.8229
hof	-9.82319
ies	-9.82381
▁gezin	-9.82402
cor	-9.82501
▁rust	-9.82567
▁opera	-9.82638
▁vormde	-9.82682
▁slotte	-9.82775
▁teken	-9.82795
▁mond	-9.82848
▁rijks	-9.82884
▁islam	-9.82892
▁volledige	-9.82905
▁tijden	-9.82918
▁mu	-9.82941
▁streek	-9.83028
periode	-9.83106
▁bijzondere	-9.8314
beeld	-9.83157
▁genaamd	-9.83323
▁rondom	-9.83377
▁eten	-9.83402
▁kende	-9.8345
ben	-9.83506
▁et	-9.83539
▁bereikte	-9.83542
▁lama	-9.83585
▁zitten	-9.83687
09	-9.83694
licht	-9.83698
▁niets	-9.83703
▁burgers	-9.83717
▁vermeld	-9.83759
▁tonen	-9.83782
▁terecht	-9.83784
▁at	-9.83862
hu	-9.83939
dam	-9.83958
brabant	-9.8399
▁denemarken	-9.84008
▁geproduceerd	-9.84008
ou	-9.8402
▁twintigste	-9.84055
ru	-9.84165
partij	-9.84275
▁zette	-9.84279
nis	-9.8431
▁dragen	-9.84326
rom	-9.84412
gebieden	-9.84462
▁instrument	-9.84476
▁toenmalige	-9.84507
▁ed	-9.84538
▁horen	-9.84734
▁enorme	-9.84736
▁gevolgen	-9.84741
▁atmosfeer	-9.84783
par	-9.848
▁iedereen	-9.84845
▁lagen	-9.84919
▁ouder	-9.8499
▁ontvangen	-9.85046
▁betrekking	-9.85048
▁1980	-9.85085
▁ontwerp	-9.85086
yl	-9.85129
stel	-9.85164
kers	-9.85223
brand	-9.85233
▁gang	-9.85251
▁minuten	-9.85304
▁publiceerde	-9.85349
ec	-9.85358
▁brug	-9.85406
▁fe	-9.85479
▁isotopen	-9.8551
▁verval	-9.85515
46	-9.85519
▁fiets	-9.85565
treden	-9.85724
soorten	-9.85757
▁mogelijkheid	-9.85904
▁jean	-9.85942
▁iv	-9.85965
▁twintig	-9.85978
▁naties	-9.86022
-18	-9.86031
▁discussie	-9.86089
▁canada	-9.86092
▁zonne	-9.86099
gh	-9.86122
▁gebouwen	-9.86125
▁hor	-9.86142
▁gebouw	-9.86239
▁arabische	-9.86264
ung	-9.86311
▁kasteel	-9.86355
▁regional	-9.86369
▁1960	-9.86392
▁papier	-9.86533
▁vlucht	-9.86539
▁onze	-9.86615
richting	-9.86633
▁grondgebied	-9.8669
stroom	-9.86712
▁dient	-9.86714
lijst	-9.86728
▁omstandigheden	-9.86743
▁vergelijking	-9.86838
igen	-9.86844
▁amerika	-9.86865
▁lodewijk	-9.8688
europese	-9.86926
zelfde	-9.8697
▁voet	-9.86986
▁schrikkeljaar	-9.87146
ijn	-9.87218
pl	-9.87261
▁beginnen	-9.87305
▁conflict	-9.87367
▁aangetroffen	-9.87411
▁1996	-9.87439
08	-9.87462
wer	-9.87507
▁tal	-9.87537
▁vóór	-9.87678
▁liep	-9.87692
▁verplicht	-9.87712
▁°	-9.87745
▁mark	-9.87774
-16	-9.87821
▁caesar	-9.87829
▁pri	-9.87855
▁ser	-9.87903
▁kleiner	-9.87944
▁huid	-9.87971
▁planeet	-9.88005
let	-9.88009
▁brief	-9.88071
▁landschap	-9.88119
▁verwant	-9.88131
lam	-9.88158
vers	-9.88216
▁britten	-9.88226
▁opkomst	-9.88345
erd	-9.88474
▁keerde	-9.88496
▁producten	-9.88525
▁ber	-9.88556
dieren	-9.88582
▁fu	-9.88613
kar	-9.8863
▁echt	-9.88636
katholieke	-9.888
▁kra	-9.88872
▁spelers	-9.88874
▁rechter	-9.88932
▁leggen	-9.88966
▁schrijvers	-9.88969
▁jeruzalem	-9.89024
▁egyptische	-9.8906
▁indien	-9.89066
▁schade	-9.89113
▁(1	-9.8919
▁(16	-9.89213
▁stonden	-9.89283
▁soldaten	-9.8929
zw	-9.89342
▁iran	-9.89343
win	-9.89549
▁helemaal	-9.89582
▁hol	-9.89665
▁plannen	-9.89669
▁onderwerp	-9.89673
rit	-9.8975
▁boeren	-9.89758
ges	-9.8981
▁james	-9.89856
▁project	-9.89915
▁rood	-9.89922
▁ingevoerd	-9.89947
▁australië	-9.90061
▁nummers	-9.90071
res	-9.90096
▁koolstof	-9.90112
▁1993	-9.90138
hal	-9.90294
▁achtergrond	-9.90432
▁gewest	-9.90494
▁ju	-9.90538
cu	-9.90544
▁ijzer	-9.90634
▁geopend	-9.90662
macht	-9.90708
gebruik	-9.90742
maal	-9.9077
▁groene	-9.90785
▁strip	-9.90908
▁gezet	-9.90914
02	-9.91115
▁klank	-9.91155
05	-9.9118
▁zetel	-9.91229
▁warmte	-9.91275
▁cm	-9.9128
▁atoom	-9.91357
staan	-9.9147
▁vereniging	-9.91486
▁diep	-9.915
▁vermoedelijk	-9.91529
▁auteur	-9.91558
▁vijfde	-9.91642
pas	-9.91663
ian	-9.91844
▁industriële	-9.91869
aren	-9.91917
▁koper	-9.91993
▁beurt	-9.92002
▁bre	-9.92027
▁precies	-9.92044
▁lagere	-9.92072
▁(20	-9.92081
▁thuis	-9.92096
tiek	-9.92136
productie	-9.92284
▁techniek	-9.92303
▁toestand	-9.92329
▁letter	-9.92375
ple	-9.92414
tus	-9.92442
▁stichting	-9.92462
cha	-9.92522
▁kaart	-9.92532
wereld	-9.92581
▁1970	-9.92647
▁kar	-9.92653
▁wal	-9.92657
í	-9.92658
▁godsdienst	-9.92773
▁verklaring	-9.9283
▁verdwenen	-9.92885
▁hu	-9.93005
▁evolutie	-9.93038
▁veroordeeld	-9.93167
middel	-9.93205
sk	-9.9332
▁wiskunde	-9.93321
▁geleidelijk	-9.93422
▁coalitie	-9.93449
bos	-9.93458
chi	-9.9359
▁cl	-9.93607
nemen	-9.93665
ologisch	-9.93711
▁noordzee	-9.93763
▁har	-9.93766
werken	-9.93846
tur	-9.93897
06	-9.93905
▁1000	-9.93931
categorie	-9.93931
▁bond	-9.94062
▁pen	-9.94114
▁kamp	-9.94211
▁hierop	-9.94214
▁generaal	-9.94216
▁inter	-9.94283
▁kwaliteit	-9.94298
eeuwse	-9.94305
▁links	-9.94402
▁functies	-9.94407
spraak	-9.94411
▁zei	-9.94447
▁geweld	-9.94498
ans	-9.94586
▁vermoord	-9.94617
▁bed	-9.94642
▁specht	-9.94843
▁verboden	-9.94932
07	-9.95176
ieten	-9.95245
▁ag	-9.95294
▁oprichting	-9.9539
▁1950	-9.95408
voornaamste	-9.95469
▁richtte	-9.95513
eerden	-9.95534
▁beroep	-9.95631
▁pan	-9.95681
▁verhouding	-9.957
ud	-9.95749
oren	-9.95781
▁graaf	-9.9588
rac	-9.95945
sten	-9.95946
mans	-9.95985
▁pla	-9.96
vallen	-9.96031
▁plant	-9.96033
▁toren	-9.96218
▁fl	-9.96242
sverkiezingen	-9.96302
▁omstreeks	-9.96321
▁voorkeur	-9.96322
brug	-9.96325
▁winnen	-9.96329
▁onbe	-9.96354
▁1940	-9.9637
▁mythologie	-9.96383
▁grenzen	-9.96388
▁oplossing	-9.96407
▁test	-9.96447
organisatie	-9.96536
hoofd	-9.9654
▁overleden	-9.9657
▁erop	-9.96573
▁wiskundige	-9.96578
dijk	-9.96681
iën	-9.96714
olympische	-9.96748
▁straf	-9.96834
▁brugge	-9.96847
ice	-9.9686
▁charles	-9.9691
▁islamitische	-9.96933
▁werkelijkheid	-9.96955
▁leidt	-9.96976
▁fort	-9.97005
lui	-9.97019
▁verklaarde	-9.97023
zel	-9.97042
communistische	-9.97062
lig	-9.97125
▁schilder	-9.97171
▁fransen	-9.97187
▁rechtstreeks	-9.97196
▁uitspraak	-9.97235
▁legde	-9.97237
▁europees	-9.97252
bb	-9.97261
car	-9.9732
bri	-9.97334
▁behandeling	-9.9734
▁hertog	-9.97383
oli	-9.9743
ah	-9.97445
▁anderzijds	-9.9749
▁aangelegd	-9.97504
▁keren	-9.97512
talen	-9.97568
▁overzicht	-9.97591
aliteit	-9.97666
▁stukken	-9.97703
cr	-9.97714
▁sporen	-9.97717
▁munt	-9.97742
▁economisch	-9.97746
▁code	-9.97752
▁gal	-9.97786
▁geschikt	-9.97835
▁sal	-9.97916
▁werkt	-9.97935
bus	-9.97986
▁pvda	-9.97995
que	-9.98174
▁micro	-9.98195
and	-9.98253
▁straat	-9.98258
ui	-9.98261
▁halve	-9.98297
▁premier	-9.98317
▁vliegtuig	-9.98318
▁boom	-9.9833
elle	-9.98392
beek	-9.98405
▁1992	-9.98409
▁george	-9.98415
▁overgenomen	-9.98421
▁mogen	-9.98466
▁(3	-9.9847
code	-9.98506
dr	-9.98515
-20	-9.98519
cul	-9.98576
▁zorgt	-9.98613
▁koffie	-9.98646
▁risico	-9.98675
▁federale	-9.9868
trekken	-9.98685
sport	-9.98685
▁vertaald	-9.98688
▁activiteiten	-9.9874
▁leek	-9.98747
▁verklaard	-9.98851
ps	-9.98885
gu	-9.98932
▁immers	-9.98978
▁bro	-9.99052
▁weerstand	-9.99069
▁ei	-9.99076
▁renaissance	-9.99123
▁veranderde	-9.99149
▁mol	-9.99155
▁sta	-9.99166
mat	-9.99188
hand	-9.99248
▁paarden	-9.99271
elen	-9.99275
naar	-9.99304
▁zoogdieren	-9.99372
▁my	-9.99489
▁slecht	-9.99508
steen	-9.9952
▁oorzaak	-9.99574
ey	-9.99581
▁gen	-9.99587
▁commissie	-9.9968
dienst	-9.99702
grens	-9.99816
▁haalde	-9.99882
▁louis	-9.99946
▁veiligheid	-9.99968
▁speciaal	-10.0018
▁biografie	-10.0018
▁robert	-10.002
pan	-10.0021
▁1944	-10.0022
▁(2	-10.0024
pers	-10.0025
huizen	-10.0026
▁+	-10.0028
lopen	-10.0029
▁wenen	-10.0032
port	-10.0032
ano	-10.0034
▁ofwel	-10.0034
▁overgang	-10.0035
ji	-10.0038
ub	-10.0039
▁koude	-10.0042
▁par	-10.0043
gemaakt	-10.0044
groepen	-10.0045
▁directe	-10.0057
loop	-10.0058
▁gold	-10.0061
▁dubbel	-10.0064
▁avond	-10.0065
▁deeltjes	-10.0068
▁fran	-10.007
oor	-10.0073
▁eindhoven	-10.008
▁sha	-10.0082
▁oostelijke	-10.01
▁vers	-10.01
ez	-10.0102
teken	-10.0105
▁noemt	-10.0109
▁vastgelegd	-10.011
▁spoor	-10.0112
▁maatschappij	-10.0115
▁controle	-10.0117
▁lijken	-10.0117
ure	-10.012
achtig	-10.0122
steden	-10.0123
gar	-10.0126
▁ridder	-10.0139
▁can	-10.0145
▁bezoek	-10.0146
hel	-10.0147
▁wo	-10.0151
▁bergen	-10.0155
▁rock	-10.0156
▁web	-10.0157
▁oppervlak	-10.0158
▁historisch	-10.0159
▁ingezet	-10.0162
▁grieken	-10.0167
gin	-10.0175
▁verwoest	-10.0179
▁kwart	-10.0184
▁blad	-10.0187
▁wilden	-10.0192
mann	-10.0194
▁tennis	-10.0195
▁late	-10.02
▁1989	-10.0205
▁metalen	-10.0207
ief	-10.021
yn	-10.0211
proces	-10.0213
raden	-10.0217
grafie	-10.022
bor	-10.0228
▁literaire	-10.0229
▁kn	-10.0231
▁gekregen	-10.0232
▁jong	-10.0235
▁1997	-10.0235
▁stelling	-10.024
kamer	-10.024
▁trouwde	-10.0249
▁persoonlijke	-10.0249
▁geluids	-10.0265
▁nauw	-10.0291
▁vak	-10.0297
isatie	-10.0309
▁films	-10.0315
▁mening	-10.0316
▁os	-10.032
▁neo	-10.0325
▁1991	-10.0328
▁hieronder	-10.0331
▁war	-10.0334
▁benaming	-10.0338
▁letters	-10.034
▁buitenland	-10.0343
zijn	-10.0348
tocht	-10.0349
meter	-10.0349
▁concept	-10.0353
stein	-10.0357
▁langzaam	-10.0357
vaart	-10.0358
-1	-10.0367
▁erkend	-10.0368
tte	-10.0381
▁90	-10.0384
▁instantie	-10.0388
▁donau	-10.0389
tru	-10.0397
haven	-10.0398
nd	-10.0398
vlaanderen	-10.04
zer	-10.0401
03	-10.0408
▁omvat	-10.0413
▁kla	-10.0413
ban	-10.0414
ong	-10.0414
▁mon	-10.0416
▁richard	-10.0419
▁betekende	-10.0419
my	-10.0421
laat	-10.0426
▁poging	-10.0432
even	-10.0434
▁communicatie	-10.0434
hoek	-10.0434
▁art	-10.0436
istisch	-10.0445
log	-10.0446
▁christenen	-10.0447
▁tegelijkertijd	-10.0451
▁2023	-10.0455
▁vorming	-10.0459
▁vormden	-10.0466
▁halen	-10.0468
▁kader	-10.0469
▁wegen	-10.0478
com	-10.0487
erde	-10.0495
▁kanaal	-10.0499
▁grieks	-10.0504
▁museeuw	-10.0514
▁zestig	-10.0515
▁dom	-10.0518
▁ss	-10.0518
blad	-10.0521
▁bus	-10.0524
▁vielen	-10.0531
plaatsen	-10.0536
▁duizenden	-10.0536
▁kosten	-10.0541
mmer	-10.0541
gekomen	-10.0545
▁analyse	-10.0546
▁goederen	-10.0547
ë	-10.0558
▁aparte	-10.0559
▁bezetting	-10.0562
▁verre	-10.0562
▁front	-10.0569
▁bor	-10.0576
▁telefoon	-10.0578
▁destijds	-10.0578
▁ring	-10.0582
▁klasse	-10.0585
▁definitief	-10.0588
▁sluiten	-10.0589
▁griekenland	-10.059
▁operatie	-10.0591
gr	-10.0593
ran	-10.0593
iërs	-10.0595
ria	-10.0597
gaat	-10.0598
▁gedeeltelijk	-10.06
▁populaire	-10.0606
▁concert	-10.0608
▁uitsluitend	-10.061
geheten	-10.0616
▁mat	-10.0619
leiding	-10.062
▁tu	-10.0625
▁verspreiding	-10.0631
▁zijde	-10.0632
▁cijfers	-10.0633
vul	-10.0634
landen	-10.0634
▁vastgesteld	-10.0643
▁irak	-10.0644
stijl	-10.0649
vormen	-10.0651
▁schip	-10.0658
hout	-10.0658
verkeer	-10.0663
▁dienen	-10.0665
▁beroemde	-10.0673
▁toegekend	-10.0674
hoe	-10.0675
▁voordeel	-10.0676
▁dollar	-10.0676
▁aangepast	-10.0681
▁arts	-10.0684
wi	-10.0688
▁besluit	-10.0697
▁japanse	-10.0704
▁troon	-10.0711
▁william	-10.0712
▁inge	-10.0713
▁israëlische	-10.0718
geschreven	-10.0718
▁stalin	-10.0718
▁telde	-10.072
▁uitbreiding	-10.0739
bra	-10.0745
▁samenstelling	-10.0747
▁voorkomt	-10.075
▁deels	-10.0755
korea	-10.0757
soort	-10.0765
kte	-10.0767
▁paleis	-10.077
▁noemen	-10.0772
▁gesticht	-10.0774
tica	-10.0774
▁volwassen	-10.0775
ijs	-10.0776
lon	-10.0778
▁team	-10.0783
▁ol	-10.0788
zij	-10.079
▁militair	-10.079
qui	-10.0804
▁leopold	-10.0804
▁terugkeer	-10.0806
▁1939	-10.0808
▁duur	-10.0814
▁sprak	-10.0819
▁godin	-10.0819
▁bewoners	-10.0823
▁germaanse	-10.0825
▁lichaams	-10.0836
▁elektron	-10.0837
▁darwin	-10.0837
▁bieden	-10.0839
-2	-10.0839
out	-10.0847
zon	-10.0848
▁hoogtepunt	-10.0853
▁sloot	-10.0856
▁object	-10.0856
jan	-10.0862
cellen	-10.0863
▁meteen	-10.0865
▁international	-10.0868
▁bedraagt	-10.087
▁saint	-10.0878
west	-10.0878
▁bot	-10.088
▁nederlanders	-10.0881
▁vliegen	-10.0886
▁broed	-10.0894
wapen	-10.0899
▁onderverdeeld	-10.0903
▁veranderen	-10.0903
▁(17	-10.0903
▁poolse	-10.0912
▁au	-10.0913
▁stil	-10.0917
▁azië	-10.092
▁binnenstad	-10.092
leer	-10.0924
aten	-10.0931
zuid	-10.0933
▁sc	-10.0936
▁vvd	-10.0937
plein	-10.094
vorming	-10.0949
▁bru	-10.095
baan	-10.095
▁levende	-10.0958
brengen	-10.096
▁burgeroorlog	-10.097
waarde	-10.0971
▁vermogen	-10.0974
▁brazilië	-10.0984
bie	-10.0988
▁motor	-10.099
▁ban	-10.0993
▁bescherming	-10.1004
▁som	-10.1006
ei	-10.1008
▁sneller	-10.1018
▁redenen	-10.1021
▁transport	-10.1024
+	-10.1027
poort	-10.1035
▁einstein	-10.1036
▁daarentegen	-10.1036
▁thomas	-10.1036
▁kiezen	-10.1036
zelf	-10.1046
▁speler	-10.1048
positie	-10.1055
▁verbindingen	-10.1055
▁complexe	-10.1057
▁woon	-10.1065
▁dertig	-10.1067
▁paard	-10.1074
▁1982	-10.1074
▁gelden	-10.1076
uil	-10.1081
tig	-10.1083
oxide	-10.109
kanaal	-10.1092
▁beschrijving	-10.1093
▁wijzen	-10.1096
roe	-10.1097
▁eenvoudig	-10.1099
▁alpen	-10.1099
▁testament	-10.1103
▁bestand	-10.1104
wegen	-10.1104
titel	-10.1107
▁dorpen	-10.1107
din	-10.1108
▁sociaal	-10.111
▁snelle	-10.1113
▁bisschop	-10.1121
▁tak	-10.1123
grond	-10.1123
▁cda	-10.1124
▁suriname	-10.1137
▁provinciale	-10.1137
▁toekomst	-10.1138
llen	-10.1147
ath	-10.1155
▁atomen	-10.1157
wal	-10.1161
ero	-10.1161
▁waaruit	-10.1162
▁mijn	-10.1164
els	-10.1167
▁droog	-10.1169
▁piano	-10.1172
klasse	-10.1174
▁zwitserland	-10.1183
▁brak	-10.1185
▁ierland	-10.1185
▁koers	-10.119
ning	-10.1193
▁ziet	-10.1193
iti	-10.1198
▁pal	-10.1202
▁world	-10.1205
▁noodzakelijk	-10.1205
▁microsoft	-10.1205
▁freud	-10.1205
▁voorstel	-10.1208
▁gelegd	-10.1209
▁gewone	-10.1212
▁sol	-10.1213
▁poly	-10.1222
▁verslagen	-10.1223
los	-10.1225
▁aanleg	-10.1227
ita	-10.1232
▁auteurs	-10.1232
▁honderd	-10.1236
▁turkse	-10.1239
▁tientallen	-10.124
goed	-10.1242
▁taak	-10.1243
dorp	-10.1243
▁gebeurde	-10.1245
ique	-10.1248
onderzoek	-10.1248
ere	-10.1251
▁actie	-10.1254
▁2,	-10.1255
▁inclusief	-10.1257
▁dialect	-10.126
▁terrein	-10.1262
▁arbeiders	-10.1265
▁500	-10.1269
orde	-10.1273
▁bevestigd	-10.1273
▁traditioneel	-10.1273
▁vroegere	-10.1279
▁netwerk	-10.1281
▁vaker	-10.1288
way	-10.1294
zien	-10.1299
bank	-10.1301
▁ingedeeld	-10.1302
▁duurde	-10.131
kamp	-10.1326
iv	-10.1328
▁mer	-10.1333
iger	-10.1336
2)	-10.1341
▁200	-10.1343
ula	-10.135
▁belasting	-10.135
▁ontdekte	-10.1352
ox	-10.1353
alisme	-10.1353
▁moord	-10.1355
▁trein	-10.1366
▁opening	-10.1373
rus	-10.1375
▁inhoud	-10.1377
▁1973	-10.1381
▁negentiende	-10.1382
▁ministerie	-10.1402
▁uitvoering	-10.1404
▁gast	-10.1405
▁stroming	-10.1406
assi	-10.1407
▁em	-10.1408
▁br	-10.141
rad	-10.1413
▁zegt	-10.1414
lis	-10.1418
gegeven	-10.142
▁bach	-10.1425
▁mm	-10.1426
▁bewegen	-10.1429
▁afgebeeld	-10.1448
groei	-10.145
nik	-10.1453
su	-10.1468
stof	-10.1474
▁organisaties	-10.1477
▁individuele	-10.1482
▁live	-10.1483
▁waargenomen	-10.1484
cultuur	-10.1484
▁begraven	-10.1485
pr	-10.1488
▁pol	-10.149
▁complex	-10.1494
leggen	-10.1502
▁(15	-10.1502
ns	-10.1505
▁droeg	-10.1508
cl	-10.1513
▁enerzijds	-10.1516
iseren	-10.152
pri	-10.1524
▁overeen	-10.1529
▁dialecten	-10.1529
one	-10.1534
▁vertaling	-10.1534
▁rug	-10.1535
aanse	-10.1535
▁breed	-10.1535
▁boeddhisme	-10.1535
▁produceren	-10.1542
▁moslims	-10.1546
rei	-10.1549
▁speel	-10.1551
▁vergelijkbaar	-10.1552
▁weigerde	-10.1552
▁metro	-10.1553
rol	-10.1562
zuur	-10.1564
dia	-10.1567
▁ram	-10.1567
▁objecten	-10.1568
▁verdediging	-10.1574
500	-10.158
kunde	-10.1583
▁bestuurlijke	-10.1584
▁bol	-10.1584
▁newton	-10.1593
god	-10.1593
bro	-10.1605
▁meet	-10.1607
▁leren	-10.1611
▁sche	-10.1618
▁gewoon	-10.1619
geld	-10.1621
▁aanvaard	-10.1623
familie	-10.1626
▁venus	-10.1628
▁verkeer	-10.1634
▁ur	-10.1638
▁stenen	-10.1639
▁gouverneur	-10.164
▁vlees	-10.1642
▁gemakkelijk	-10.1643
bron	-10.1644
▁eenheden	-10.1646
▁editie	-10.1652
▁voorwerp	-10.1654
▁vragen	-10.1654
woord	-10.1655
gaande	-10.1658
▁pu	-10.166
▁mel	-10.1661
▁vissen	-10.1663
▁dagelijks	-10.1663
▁pot	-10.1665
▁jazz	-10.1665
▁komst	-10.1667
▁juiste	-10.1669
pot	-10.1672
voering	-10.1676
▁joseph	-10.1676
mont	-10.168
▁componist	-10.1681
▁hel	-10.1685
cus	-10.1687
▁publieke	-10.169
gon	-10.1694
▁normaal	-10.1695
▁praag	-10.1695
▁wa	-10.1696
▁stroomt	-10.1696
gem	-10.1696
toon	-10.1698
teren	-10.1701
▁erin	-10.1701
▁toernooi	-10.1704
▁sommigen	-10.1709
plan	-10.1719
anti	-10.1724
▁groeien	-10.1727
▁variant	-10.1728
waarts	-10.173
▁bewind	-10.1735
▁allemaal	-10.1739
▁hongarije	-10.1739
▁frequentie	-10.1741
lit	-10.1745
cent	-10.1745
▁trek	-10.1748
▁verandering	-10.1749
▁don	-10.176
▁vleugels	-10.1762
▁kevers	-10.1763
▁hi	-10.1765
▁rijden	-10.1769
▁wedstrijden	-10.1775
duitsland	-10.1777
▁zout	-10.178
▁voerde	-10.1786
▁leverde	-10.1791
mu	-10.1803
▁varianten	-10.1811
▁zoek	-10.1815
▁aandeel	-10.1815
▁martin	-10.1817
▁heer	-10.182
hr	-10.1833
▁defensie	-10.1838
▁geografie	-10.1838
▁zeventig	-10.1839
gebouw	-10.184
▁amerikanen	-10.1841
▁riep	-10.1841
▁bezoekers	-10.1843
▁menselijk	-10.1844
▁toegang	-10.1847
▁ci	-10.185
▁stap	-10.1853
▁winkel	-10.1861
▁feite	-10.1863
▁brede	-10.1873
bed	-10.1874
▁ontwikkelingen	-10.1883
▁zweedse	-10.1884
sing	-10.1884
▁commerciële	-10.1885
▁keuze	-10.1886
▁malen	-10.1889
▁organismen	-10.1895
grote	-10.1897
verbindingen	-10.1903
▁ministers	-10.1905
lid	-10.1905
▁verklaren	-10.1911
cel	-10.1911
▁carl	-10.1915
▁1977	-10.1915
▁maal	-10.1919
ama	-10.1924
▁gelegenheid	-10.1924
▁poten	-10.193
str	-10.1936
ringen	-10.1936
▁mari	-10.1936
bon	-10.1945
▁gezegd	-10.1948
▁gewicht	-10.1954
▁voorgesteld	-10.1958
geschiedenis	-10.1967
dus	-10.197
▁pra	-10.1971
ade	-10.1971
▁tro	-10.1971
▁negatieve	-10.1973
▁linker	-10.1975
▁lezen	-10.1978
dor	-10.1978
▁('	-10.1979
▁trokken	-10.198
ooi	-10.1983
▁ajax	-10.1984
▁roemenië	-10.1984
▁lijnen	-10.1985
▁zaak	-10.1987
▁protestantse	-10.1987
▁gebruikelijk	-10.1997
▁veranderd	-10.1999
brittannië	-10.2021
▁natuurkunde	-10.2023
lia	-10.2026
hit	-10.2026
eenheid	-10.2033
▁cellen	-10.2037
▁manieren	-10.2039
iz	-10.2039
▁absolute	-10.2039
▁blok	-10.204
straling	-10.204
mal	-10.2049
▁voorkomende	-10.2053
▁hoeveelheden	-10.2058
gg	-10.206
▁tachtig	-10.206
▁bier	-10.2064
tuur	-10.2064
▁gedwongen	-10.207
rum	-10.2071
▁rijke	-10.2072
▁verlies	-10.2072
idae	-10.2073
las	-10.2074
▁onmogelijk	-10.2076
▁beschikt	-10.2081
▁cal	-10.2086
lijnen	-10.2094
▁uitgezonden	-10.2095
ost	-10.2096
▁gezicht	-10.2104
▁congres	-10.2104
▁bevel	-10.2106
ast	-10.211
▁johan	-10.211
▁stikstof	-10.2115
tis	-10.212
▁bewust	-10.2121
fen	-10.2124
▁vijftig	-10.2124
▁machine	-10.2125
▁jaartal	-10.2126
▁vergadering	-10.2127
kom	-10.2131
▁decennia	-10.2133
▁belangstelling	-10.2135
▁prof	-10.2136
og	-10.2145
maat	-10.2156
▁pers	-10.216
▁genoemde	-10.2161
▁huizen	-10.2165
▁architectuur	-10.2169
▁geregeld	-10.217
▁uiteen	-10.2172
▁1967	-10.2174
▁fractie	-10.2179
▁mont	-10.218
▁rots	-10.2192
▁[	-10.2195
▁rekening	-10.2196
lar	-10.22
lan	-10.2202
stuk	-10.2205
▁volgden	-10.2211
▁syrië	-10.2211
▁zoveel	-10.2212
▁1986	-10.2212
▁draagt	-10.2215
▁sto	-10.2221
sus	-10.2222
azië	-10.2228
▁vliegtuigen	-10.2238
old	-10.224
▁democratie	-10.2245
▁gedefinieerd	-10.2245
ros	-10.2248
▁kroon	-10.2251
▁slechte	-10.2251
▁cap	-10.2254
bol	-10.2255
▁slachtoffers	-10.226
▁zorg	-10.2263
▁geallieerden	-10.2264
graaf	-10.2267
wellicht	-10.227
▁verhuisde	-10.2275
▁fout	-10.2279
▁sterker	-10.2282
▁wetenschappers	-10.2282
lei	-10.2291
amerikaanse	-10.2291
xi	-10.2296
niveau	-10.2298
ré	-10.2299
▁interpretatie	-10.2301
▁adel	-10.2306
▁luchthaven	-10.2313
▁uitgegeven	-10.232
▁ons	-10.232
▁mohammed	-10.2321
▁verkozen	-10.2321
▁eindigde	-10.2322
▁musea	-10.2322
▁festival	-10.2325
▁you	-10.2327
▁zondag	-10.2335
▁succesvolle	-10.2347
▁/	-10.2348
▁nadruk	-10.235
▁marx	-10.2353
▁alexander	-10.236
▁velen	-10.236
▁hetgeen	-10.2361
▁fer	-10.2364
▁vertrek	-10.2364
iswaar	-10.2365
zeeland	-10.237
chem	-10.2375
lim	-10.2376
massa	-10.2383
by	-10.2383
▁diende	-10.2383
▁technische	-10.2395
▁gek	-10.2398
▁mogelijkheden	-10.2407
houden	-10.2407
▁arm	-10.2413
▁ware	-10.2417
▁ac	-10.2421
▁kies	-10.2425
▁instellingen	-10.2429
mes	-10.243
iseerd	-10.2435
▁vernoemd	-10.2436
▁les	-10.2438
▁bedacht	-10.2439
▁aantallen	-10.2446
▁schilderijen	-10.245
▁orkest	-10.2452
▁nest	-10.2452
▁feest	-10.2457
▁stelsel	-10.2457
vrouw	-10.246
kh	-10.2462
▁nieuws	-10.2468
politiek	-10.2469
▁droge	-10.247
▁volgorde	-10.2474
▁zodanig	-10.2475
type	-10.2483
heer	-10.2484
▁uitgesproken	-10.2487
▁voorbij	-10.249
post	-10.249
dt	-10.249
lus	-10.249
▁otto	-10.2495
hang	-10.2497
▁afkomst	-10.25
neu	-10.25
▁virus	-10.2503
film	-10.2505
stan	-10.2507
▁voortdurend	-10.2509
cc	-10.2511
▁zuur	-10.2511
▁bon	-10.2516
▁vertrok	-10.2516
vrij	-10.2518
isering	-10.2525
▁jacht	-10.2526
▁set	-10.2529
▁honderden	-10.2529
boeken	-10.2552
▁uitvinding	-10.2552
can	-10.2556
▁ven	-10.2557
anse	-10.2559
station	-10.2561
plant	-10.2569
▁zoeken	-10.258
ons	-10.2582
▁termijn	-10.2584
▁resultaten	-10.2584
▁gouda	-10.2585
▁mal	-10.259
mate	-10.2591
▁hoop	-10.2596
▁1978	-10.2596
cho	-10.26
▁vriend	-10.2602
▁biologische	-10.2602
▁wijn	-10.2604
az	-10.2604
▁chi	-10.2612
leider	-10.2616
tsj	-10.2621
▁prijzen	-10.2627
▁delft	-10.2632
▁schelde	-10.2635
▁1988	-10.2636
▁veranderingen	-10.2642
▁middelen	-10.2642
pho	-10.2644
sluiting	-10.2647
▁universiteiten	-10.2647
2.	-10.2647
ay	-10.265
▁onafhankelijke	-10.2654
spanning	-10.2657
▁natuurlijk	-10.266
kundige	-10.2662
▁feitelijk	-10.2663
volk	-10.2667
▁gekenmerkt	-10.267
▁mozart	-10.267
▁1968	-10.2675
▁termen	-10.2676
▁verzoek	-10.2682
')	-10.2685
▁planeten	-10.2688
rechten	-10.2694
▁gat	-10.271
▁keulen	-10.271
▁1975	-10.2715
line	-10.2717
▁java	-10.2718
▁partner	-10.2721
▁vlinders	-10.2728
streek	-10.2728
ieve	-10.2731
toren	-10.2735
▁vrouwelijke	-10.2738
som	-10.2742
ib	-10.2743
matig	-10.2748
▁regen	-10.2749
feest	-10.2749
▁biedt	-10.2749
pu	-10.2751
▁1983	-10.2754
▁heden	-10.2755
▁wk	-10.2756
▁1918	-10.2761
▁tibet	-10.2764
▁middeleeuwse	-10.2765
ola	-10.2766
▁persoonlijk	-10.2767
ili	-10.277
name	-10.278
▁voorheen	-10.278
▁positieve	-10.2782
punten	-10.2784
hard	-10.2787
▁ziekenhuis	-10.2788
▁beneden	-10.2789
▁processen	-10.2792
▁--	-10.2792
iers	-10.2793
minstens	-10.2798
▁succesvol	-10.28
▁hans	-10.28
▁slaagde	-10.2802
▁gebrek	-10.2807
▁behouden	-10.2813
sc	-10.2815
▁kro	-10.2816
mand	-10.2824
ura	-10.2826
▁frederik	-10.2829
▁opgevolgd	-10.2829
▁verkregen	-10.2829
▁verscheidene	-10.2829
▁jakob	-10.2829
▁zwavelzuur	-10.2829
▁dacht	-10.2831
▁woonde	-10.2833
schoten	-10.2834
▁modern	-10.2835
inter	-10.2836
mond	-10.2839
▁toenemende	-10.2841
▁mono	-10.2847
▁luther	-10.2852
gehouden	-10.2854
▁hit	-10.2855
ight	-10.2857
gelegd	-10.2861
▁jacob	-10.2865
▁tegelijk	-10.287
kin	-10.2881
▁kor	-10.2895
lied	-10.2896
▁beschermen	-10.29
president	-10.2904
▁35	-10.2906
▁es	-10.2909
▁schiereiland	-10.291
▁ijssel	-10.2912
▁populatie	-10.2915
▁onderling	-10.2915
komt	-10.2918
▁star	-10.2927
▁bl	-10.293
▁veilig	-10.2932
acht	-10.2943
gegaan	-10.2945
ora	-10.2949
▁tram	-10.2954
ino	-10.2954
▁lente	-10.2955
▁noordelijk	-10.2967
▁rapport	-10.2967
▁constant	-10.2967
dis	-10.2968
▁michael	-10.297
▁scheiding	-10.2975
▁gevaar	-10.2975
▁bezet	-10.2977
▁gele	-10.2985
▁dinosauriërs	-10.2985
▁interne	-10.2986
▁bloei	-10.2987
▁protest	-10.2987
▁collectie	-10.2987
rang	-10.2988
▁vn	-10.299
▁bouterse	-10.2991
▁enigszins	-10.2991
▁gulden	-10.2991
▁zulk	-10.2991
▁schiphol	-10.2991
▁bedekt	-10.2991
▁toneel	-10.2992
▁1979	-10.2996
▁1941	-10.2996
▁1985	-10.2997
▁zuster	-10.3
▁smaak	-10.3005
▁kok	-10.301
fase	-10.3018
▁jongen	-10.3021
5%	-10.3022
▁afzonderlijke	-10.3025
chen	-10.3026
▁verwijst	-10.3032
▁mozes	-10.3032
▁gemeten	-10.3032
▁1987	-10.3036
▁char	-10.3039
▁ges	-10.3041
pos	-10.3042
tar	-10.3051
zing	-10.3051
cher	-10.3064
tak	-10.3065
▁kandidaat	-10.3066
▁lot	-10.3066
▁vo	-10.3067
▁zuidelijk	-10.3068
fic	-10.3069
▁passen	-10.3072
▁ali	-10.3074
low	-10.3079
▁slot	-10.3097
houder	-10.3098
gy	-10.3102
rik	-10.3103
▁aanvallen	-10.3104
▁verwacht	-10.3109
vormige	-10.3111
▁geïntroduceerd	-10.3114
▁export	-10.3116
meester	-10.3117
▁luik	-10.3118
▁1948	-10.3118
▁franco	-10.3119
▁1976	-10.3119
cal	-10.3122
▁nader	-10.3124
mus	-10.3128
▁pieter	-10.3131
ill	-10.3131
alai	-10.3135
baarheid	-10.3135
▁waarden	-10.3142
tol	-10.3146
complex	-10.3154
▁nijmegen	-10.3155
000	-10.3157
▁stuurde	-10.316
▁overal	-10.3164
anc	-10.3171
▁richten	-10.3182
gesteld	-10.3183
plaatselijke	-10.3185
▁tom	-10.3188
▁vorst	-10.319
▁onderzocht	-10.3197
roep	-10.3198
effect	-10.3198
▁betreffende	-10.3203
▁1900	-10.3204
gezet	-10.3204
weer	-10.3206
mis	-10.321
▁gehoor	-10.321
inus	-10.3211
gat	-10.3215
▁bereid	-10.3224
▁bek	-10.3224
▁vlieg	-10.3233
▁verovering	-10.3238
▁saksen	-10.3239
fabriek	-10.3243
ille	-10.3246
▁aangegeven	-10.3247
▁uitgedrukt	-10.3251
ux	-10.3253
noord	-10.3255
▁spelling	-10.3256
ith	-10.3257
▁bush	-10.327
▁onderdelen	-10.3271
▁landelijke	-10.3273
pol	-10.3276
engels	-10.3277
▁gescheiden	-10.328
▁ontworpen	-10.328
▁vandaag	-10.328
▁zelden	-10.328
uch	-10.3281
wisseling	-10.3282
mos	-10.3284
▁gaven	-10.3286
vereniging	-10.3287
ow	-10.33
ada	-10.3301
▁homo	-10.3304
▁letterlijk	-10.3304
▁moleculen	-10.3305
nieuw	-10.3307
▁bad	-10.3309
▁wij	-10.3311
▁onderzoekers	-10.3311
genoot	-10.3314
▁trouw	-10.3323
):	-10.3327
▁kwa	-10.3327
▁platen	-10.3329
▁tijdelijk	-10.333
▁koningen	-10.333
bit	-10.3335
▁maatregelen	-10.3337
ais	-10.3341
middelen	-10.3356
▁burger	-10.336
▁crisis	-10.336
▁gezondheid	-10.3368
maken	-10.3378
▁hedendaagse	-10.338
▁bet	-10.3381
%)	-10.3389
ii	-10.339
for	-10.3391
▁voorloper	-10.3393
▁dans	-10.3402
▁golflengte	-10.3407
aard	-10.3408
▁gewoonlijk	-10.3409
▁1972	-10.3411
▁1920	-10.3415
techniek	-10.3418
plo	-10.342
▁wijken	-10.3423
▁continent	-10.3425
▁koran	-10.3426
tz	-10.3428
route	-10.343
▁lading	-10.3431
▁californië	-10.3433
▁harde	-10.3443
▁monument	-10.3445
chan	-10.3447
▁initiatief	-10.3449
reis	-10.345
ric	-10.3451
iële	-10.3451
▁uiterlijk	-10.3451
▁prinses	-10.3452
▁kal	-10.3453
▁1971	-10.3455
regel	-10.3459
tuig	-10.3463
▁indo	-10.3466
▁vloeistof	-10.3481
▁geraakt	-10.3482
▁concilie	-10.3492
▁moskou	-10.3492
▁opgeheven	-10.3492
▁portugal	-10.3492
▁kwik	-10.3493
▁zang	-10.3494
▁medische	-10.3494
▁koos	-10.3497
▁voormalig	-10.3498
our	-10.3499
kop	-10.3502
act	-10.3504
▁cuba	-10.3509
▁leveren	-10.3509
▁wonder	-10.3516
ruimte	-10.3523
actie	-10.3527
tic	-10.3529
▁beperkte	-10.3531
▁omvang	-10.3534
▁generatie	-10.3534
▁veroorzaken	-10.3535
▁geschriften	-10.3535
▁arbeids	-10.3536
▁1969	-10.354
▁1974	-10.354
mor	-10.3542
sme	-10.3544
▁eenvoudige	-10.3556
▁anna	-10.3557
ctor	-10.3557
lij	-10.3558
ters	-10.3559
▁elf	-10.3562
uur	-10.3563
alis	-10.3566
▁madonna	-10.3578
▁beschrijft	-10.3578
▁psv	-10.3578
▁middellandse	-10.3579
▁keuken	-10.358
rat	-10.359
▁dal	-10.3592
eer	-10.3592
jaren	-10.3592
▁schilders	-10.3593
ance	-10.3594
gue	-10.3596
▁vijftien	-10.3597
▁gevangen	-10.36
▁positief	-10.3602
yo	-10.3603
▁us	-10.3604
▁1930	-10.3607
molen	-10.3616
▁karl	-10.3619
▁uitgestorven	-10.3621
▁ligging	-10.3621
▁verplaatst	-10.3622
▁behandeld	-10.3622
▁national	-10.3629
▁diensten	-10.363
▁zelfstandig	-10.3632
▁concentratie	-10.3634
eu	-10.3638
▁beheer	-10.3652
▁dijk	-10.3653
nor	-10.3657
▁reken	-10.3658
duc	-10.3665
int	-10.3665
▁stations	-10.3666
▁1981	-10.367
▁pat	-10.3673
▁last	-10.3673
▁jongeren	-10.3674
▁kaarten	-10.3679
▁tabel	-10.3679
ette	-10.368
▁actieve	-10.3682
▁oer	-10.3693
ern	-10.3699
sign	-10.3704
ali	-10.3709
ico	-10.3709
vest	-10.3712
▁bacteriën	-10.3716
tot	-10.3719
▁toerisme	-10.3731
▁munten	-10.3742
▁opgesteld	-10.3742
▁zat	-10.3743
▁democratische	-10.3744
▁exemplaren	-10.3752
▁toegestaan	-10.3752
▁verwijderd	-10.3752
▁studeerde	-10.3752
kan	-10.3752
mm	-10.3754
▁zuiver	-10.3755
▁parken	-10.3757
cia	-10.3758
eiland	-10.3761
▁zagen	-10.3762
▁voorwerpen	-10.3765
model	-10.377
ida	-10.3786
▁versterkt	-10.3792
▁akkoord	-10.3793
▁za	-10.3795
▁onderwerpen	-10.3795
▁bepaalt	-10.3796
▁fortuyn	-10.3796
▁waarom	-10.3798
▁machts	-10.3809
▁ondertussen	-10.3809
▁ros	-10.3811
▁mest	-10.3812
ties	-10.3815
eld	-10.3817
zeg	-10.3818
▁dam	-10.3819
dal	-10.3821
boom	-10.3821
▁muur	-10.3825
san	-10.3829
lagen	-10.3838
▁stro	-10.384
▁prooi	-10.384
▁onmiddellijk	-10.3841
▁zwaartekracht	-10.3841
▁dynastie	-10.3841
▁jackson	-10.3841
▁kolonie	-10.3842
▁binding	-10.3844
ville	-10.3844
▁kleding	-10.3845
rand	-10.3845
maar	-10.3849
ble	-10.3851
▁voren	-10.3854
▁gar	-10.3858
▁spoorlijn	-10.3859
▁it	-10.386
▁factoren	-10.3862
▁ki	-10.3864
▁kom	-10.3865
▁blauw	-10.3868
▁vestiging	-10.3869
▁hebreeuwse	-10.3871
▁levert	-10.3871
meenschappelijke	-10.3875
▁hangt	-10.3886
▁opper	-10.3888
▁vrienden	-10.3889
▁ernstige	-10.389
▁beiden	-10.3892
▁afstanden	-10.3893
▁vliegveld	-10.3893
▁opgebouwd	-10.3893
fra	-10.3895
▁tegenstander	-10.3898
▁paulus	-10.3899
museum	-10.39
uc	-10.3902
▁behoorde	-10.3903
▁leerlingen	-10.3906
eus	-10.391
▁opvattingen	-10.3911
▁afbeelding	-10.3914
▁col	-10.3914
maker	-10.3915
▁gl	-10.3918
▁ziek	-10.3923
▁vin	-10.3925
logisch	-10.3926
vrucht	-10.3927
▁verliezen	-10.393
▁negentig	-10.393
▁ontslag	-10.3934
cla	-10.3935
▁publicatie	-10.394
producten	-10.3951
▁beschermd	-10.3952
▁opvallend	-10.3955
▁taken	-10.396
wacht	-10.3965
▁benadering	-10.3974
▁descartes	-10.3974
▁russisch	-10.3976
▁architect	-10.3977
▁theorieën	-10.3978
duits	-10.3979
fin	-10.3983
▁brachten	-10.3988
▁verliet	-10.399
bla	-10.3998
eilanden	-10.3999
kern	-10.3999
▁verloop	-10.4007
▁technologie	-10.4009
▁antwoord	-10.4012
▁blauwe	-10.4012
▁krant	-10.4017
▁hemingway	-10.402
▁toeristen	-10.402
▁uitvoeren	-10.402
▁gedood	-10.4023
▁minste	-10.4025
▁volle	-10.4026
▁banden	-10.4026
merk	-10.403
onderhandelingen	-10.4033
teerd	-10.4037
bedrijf	-10.4038
▁priester	-10.4039
lli	-10.4044
▁hop	-10.4045
all	-10.4054
daal	-10.4057
▁constructie	-10.406
test	-10.4061
▁uitdrukking	-10.4065
▁gevierd	-10.4065
misschien	-10.4065
▁seks	-10.4067
▁natuurkundige	-10.4068
▁bewijzen	-10.4071
structuur	-10.4076
▁1917	-10.4076
▁strand	-10.4088
groen	-10.4089
▁albums	-10.409
spelen	-10.4095
▁ontmoette	-10.4099
loo	-10.4104
stoffen	-10.4106
▁delfzijl	-10.411
▁voortplanting	-10.411
▁ramp	-10.411
▁senaat	-10.411
phil	-10.4114
tin	-10.4115
▁1984	-10.4115
▁recente	-10.4121
▁cre	-10.4122
▁woestijn	-10.4123
▁afrikaanse	-10.4131
▁oostenrijkse	-10.4131
▁tr	-10.4135
komende	-10.4135
▁rit	-10.4135
▁verdeling	-10.414
functie	-10.4145
▁elektro	-10.4146
▁koe	-10.4148
▁indruk	-10.4151
▁aangetoond	-10.4156
▁formele	-10.4156
trek	-10.4157
▁francisco	-10.4157
▁originele	-10.4157
▁mineralen	-10.4159
▁vereist	-10.4161
▁uitgebreide	-10.4166
▁epi	-10.4176
▁1500	-10.4177
werp	-10.4179
vlakte	-10.4179
schilder	-10.4182
stukken	-10.4185
kon	-10.4188
ore	-10.4194
▁graden	-10.4198
▁mac	-10.42
▁locatie	-10.4201
▁archeologisch	-10.4202
▁aanduiding	-10.4202
▁vesting	-10.4202
▁maximaal	-10.4202
▁brieven	-10.4209
▁sam	-10.421
▁dia	-10.4214
▁specifiek	-10.4215
▁bin	-10.4219
▁mochten	-10.4221
▁bericht	-10.4225
▁navo	-10.4236
versie	-10.4237
▁gods	-10.4242
▁getroffen	-10.4248
▁eenmaal	-10.425
▁zelfmoord	-10.425
▁fel	-10.4255
▁verkoop	-10.4256
▁volkeren	-10.4258
▁aller	-10.4258
icus	-10.4261
snelheid	-10.4271
album	-10.4272
▁directeur	-10.4272
▁gram	-10.4273
▁pogingen	-10.4275
▁400	-10.4279
▁evenwicht	-10.4284
▁materialen	-10.4286
▁zanger	-10.4287
▁pet	-10.4291
▁materie	-10.4292
▁chr	-10.4292
▁privé	-10.4294
▁feyenoord	-10.4294
▁chan	-10.4296
▁legende	-10.4296
▁elders	-10.4296
ces	-10.4303
▁borst	-10.4309
▁grand	-10.4316
vloei	-10.4329
leger	-10.4331
ellen	-10.4335
▁brabant	-10.4336
zar	-10.4338
▁vermenigvuldig	-10.4341
▁atlantische	-10.4341
kundig	-10.4342
▁luchtvaart	-10.4343
▁bedroeg	-10.4344
▁eieren	-10.4346
▁1949	-10.4347
tatie	-10.4347
▁zu	-10.4349
hon	-10.435
▁zevende	-10.435
▁campagne	-10.4351
▁draaien	-10.4352
▁contract	-10.436
ku	-10.4363
▁winst	-10.4365
▁oorlogen	-10.4366
aties	-10.4366
▁gegaan	-10.4368
▁wol	-10.4375
▁vluchten	-10.4378
strijd	-10.4379
vogels	-10.4384
▁families	-10.4385
▁vlag	-10.4386
▁perzische	-10.4388
▁gebruikgemaakt	-10.4392
▁inzicht	-10.4398
5.000	-10.44
▁kerst	-10.4402
▁psychologie	-10.4403
▁digitale	-10.4405
ech	-10.4406
▁veroverde	-10.4411
netwerk	-10.4412
cker	-10.4417
ara	-10.4419
doen	-10.4423
▁lied	-10.4426
▁orgel	-10.443
▁ingesteld	-10.4433
▁identiteit	-10.4434
▁nederlaag	-10.4435
▁gewijd	-10.4435
▁normale	-10.4435
▁russen	-10.4436
maatschappij	-10.4438
▁lood	-10.4439
▁lijden	-10.4439
▁glas	-10.4443
▁storm	-10.4443
▁patiënt	-10.4448
▁kamerverkiezing	-10.4449
▁toonde	-10.4452
gio	-10.4455
hy	-10.4457
▁mythe	-10.4459
▁effecten	-10.446
duizend	-10.4462
▁bla	-10.4462
▁cirkel	-10.447
bil	-10.4473
▁verblijf	-10.4474
wan	-10.4476
▁monumenten	-10.4477
▁long	-10.4479
▁treden	-10.448
duitse	-10.448
▁periodiek	-10.4481
▁verschijnen	-10.4482
▁fusie	-10.4488
▁not	-10.449
▁kas	-10.4491
▁nobelprijs	-10.4492
▁totdat	-10.4496
▁alsnog	-10.4498
▁ir	-10.4504
ram	-10.4505
zorg	-10.4507
▁visie	-10.451
dro	-10.4512
ng	-10.4518
▁johann	-10.4518
mie	-10.4529
▁vergeleken	-10.4529
▁athena	-10.4529
▁diamant	-10.4529
▁vernietigd	-10.453
▁finland	-10.453
▁frank	-10.4532
▁duurt	-10.4533
▁beschrijven	-10.4533
loog	-10.4538
▁zeus	-10.4538
ket	-10.4544
▁eerdere	-10.4544
▁aldus	-10.4545
▁eer	-10.4545
stenen	-10.4549
▁beleg	-10.4553
2%	-10.4556
▁houten	-10.456
▁dateert	-10.4561
▁regime	-10.4571
pat	-10.4572
eenheden	-10.4572
▁suiker	-10.4573
▁minderheid	-10.4574
▁tentoonstelling	-10.4575
▁plaat	-10.4576
▁context	-10.4576
▁daadwerkelijk	-10.4576
▁twijfel	-10.4576
▁krijt	-10.4577
▁vorige	-10.4577
▁atoomnummer	-10.4577
▁flink	-10.4579
kijk	-10.458
▁solo	-10.4583
stellen	-10.4589
slaan	-10.4593
▁bomen	-10.4597
▁pad	-10.4601
▁geheim	-10.4608
ificatie	-10.4613
▁volume	-10.4614
riet	-10.4618
▁belgisch	-10.462
▁tijdperk	-10.4624
▁lidstaten	-10.4624
▁formeel	-10.4624
▁culturen	-10.4625
▁aruba	-10.4625
▁verbond	-10.4627
▁noordoosten	-10.4629
▁nicolaas	-10.4631
▁overheids	-10.4631
wind	-10.4636
press	-10.4636
▁filips	-10.4641
zone	-10.4641
▁dor	-10.4642
▁vrouwtje	-10.4646
2,	-10.4648
°	-10.4648
▁royal	-10.4652
▁veen	-10.4654
▁krachten	-10.4656
roman	-10.466
slagen	-10.4661
opleiding	-10.4661
lem	-10.4662
▁voc	-10.4666
polder	-10.4666
▁verschijnsel	-10.4669
▁zocht	-10.4672
▁bewoond	-10.4673
pon	-10.4673
pop	-10.4673
▁sector	-10.4674
▁gestuurd	-10.4676
▁afdeling	-10.4677
▁000	-10.4681
hoven	-10.4682
hol	-10.4693
▁stra	-10.4695
bin	-10.4696
▁kat	-10.47
hen	-10.4702
vervoer	-10.4708
▁tv	-10.4709
▁gezamenlijk	-10.4715
▁muzikal	-10.4721
tunnel	-10.4721
▁factor	-10.4721
▁spaans	-10.4727
▁hypothese	-10.4729
vir	-10.4733
▁uni	-10.4735
▁son	-10.4738
▁wapens	-10.4739
);	-10.474
dit	-10.4743
sto	-10.4745
▁musical	-10.4747
▁elektromagnet	-10.4747
▁duidelijke	-10.4748
▁slaven	-10.4749
▁heette	-10.4757
plicht	-10.4761
▁hersen	-10.4761
▁odysseus	-10.4769
▁ottomaans	-10.4769
▁selectie	-10.4769
▁wezen	-10.4771
▁eisen	-10.4772
▁helpen	-10.4773
▁plato	-10.4779
▁sloeg	-10.478
▁speelden	-10.4786
▁un	-10.4786
oud	-10.479
bat	-10.4799
▁state	-10.48
gers	-10.4801
voer	-10.4801
▁32	-10.4804
▁duizend	-10.4804
energie	-10.4805
team	-10.4806
▁onver	-10.4807
▁geneeskunde	-10.4808
▁ce	-10.4817
▁treedt	-10.4818
▁vluchtelingen	-10.4818
▁1914	-10.4823
▁winters	-10.4824
▁warmond	-10.4829
▁ploeg	-10.4829
mmen	-10.483
heim	-10.4831
9%	-10.4832
▁modellen	-10.4836
▁zwe	-10.4837
▁socialistische	-10.4843
regio	-10.4847
▁zelfstandige	-10.4849
▁dis	-10.4851
groot	-10.4851
▁index	-10.4852
▁wereldwijde	-10.4854
▁aanzien	-10.4855
hoorn	-10.4861
▁bestonden	-10.4864
▁wetgeving	-10.4864
serie	-10.4866
▁alternatieve	-10.4867
▁aldaar	-10.4867
▁invasie	-10.4867
▁150	-10.4867
▁schotland	-10.487
▁bel	-10.4871
▁toegeschreven	-10.4874
▁nood	-10.4874
isse	-10.4876
▁byzantijnse	-10.4878
▁mislukte	-10.4879
▁hoorn	-10.488
▁ob	-10.4881
▁sm	-10.4884
▁gro	-10.4894
ool	-10.4895
▁race	-10.4896
zu	-10.4902
cijfer	-10.4906
last	-10.4915
▁alcohol	-10.4916
hoofdzakelijk	-10.4916
▁geïnspireerd	-10.4916
▁beschreef	-10.4919
_3	-10.4919
▁ambt	-10.4921
%	-10.4922
▁record	-10.4925
▁oppositie	-10.4927
▁roem	-10.493
▁veroverd	-10.4931
▁gevraagd	-10.4937
▁august	-10.4945
▁bell	-10.4949
▁love	-10.4951
▁tradities	-10.4953
▁burgerlijk	-10.4959
vermogen	-10.496
▁rekenen	-10.496
▁gre	-10.4961
▁mus	-10.4963
▁eth	-10.4963
▁verandert	-10.4966
▁inheemse	-10.4967
▁staart	-10.4967
▁tuin	-10.497
▁zuidoosten	-10.4972
komst	-10.4974
rel	-10.4981
▁ch	-10.4981
▁koninklijk	-10.4984
▁zwavel	-10.4987
▁etnische	-10.4989
stal	-10.4993
▁human	-10.4993
▁symbolen	-10.4994
▁mannelijke	-10.4995
schat	-10.5
pal	-10.5002
▁eventue	-10.5006
▁aspecten	-10.501
▁inderdaad	-10.5016
▁genre	-10.5017
▁inkomsten	-10.5017
▁duiden	-10.5018
▁werkelijk	-10.5019
▁gepaard	-10.5023
▁1919	-10.5025
▁oostzee	-10.5025
▁tanks	-10.5028
▁vet	-10.5036
vv	-10.5038
▁cro	-10.504
▁diepte	-10.5044
red	-10.5048
wijze	-10.5052
▁activiteit	-10.506
script	-10.5061
▁route	-10.5063
▁figuur	-10.5065
▁gespecialiseerd	-10.5066
▁münchen	-10.5066
▁bevoegdheden	-10.5066
▁300	-10.5068
aak	-10.5069
▁keizerrijk	-10.5071
▁weergegeven	-10.5073
▁stabiele	-10.5084
▁simon	-10.5084
▁zonen	-10.5085
▁golven	-10.509
▁reizen	-10.5093
neem	-10.5108
▁fr	-10.5111
▁prince	-10.5111
ort	-10.5113
▁str	-10.5113
▁columbus	-10.5116
▁stravinsky	-10.5116
▁bezienswaardig	-10.5116
▁tre	-10.5122
▁juliana	-10.5123
▁q	-10.5123
▁document	-10.5129
tekening	-10.5129
▁bernard	-10.5132
▁aanwijzingen	-10.5142
▁vervolg	-10.5145
ska	-10.5147
stap	-10.5152
▁marine	-10.5152
broek	-10.5161
▁arbeid	-10.5162
▁scherp	-10.5162
▁slo	-10.5162
▁halveringstijd	-10.5166
achtigen	-10.5166
▁scheikundig	-10.5166
▁stoppen	-10.5166
▁interesse	-10.5166
▁ierse	-10.5167
▁aanhang	-10.5168
▁toestemming	-10.5169
▁genetische	-10.5172
▁technieken	-10.5175
▁zuidwesten	-10.5175
▁tafel	-10.518
kruis	-10.5182
▁beschaving	-10.5189
▁slaan	-10.5189
ets	-10.5198
abel	-10.5199
▁bouwde	-10.5201
▁sil	-10.5201
rijn	-10.5202
stort	-10.5204
motor	-10.5205
nder	-10.5209
▁woonden	-10.5209
systemen	-10.5213
▁variëren	-10.5217
▁impuls	-10.5217
▁correct	-10.5217
▁toont	-10.5218
och	-10.5219
▁aardgas	-10.5219
kust	-10.5221
▁ruil	-10.5226
▁liber	-10.5228
▁kwestie	-10.5231
▁mannetje	-10.5233
▁virussen	-10.5234
til	-10.5235
diensten	-10.5236
▁bou	-10.5238
▁stadion	-10.5242
archi	-10.5242
rou	-10.5242
▁redelijk	-10.5253
eling	-10.5254
iaanse	-10.5256
waard	-10.526
▁tol	-10.5262
ante	-10.5262
▁onderzoeken	-10.5265
loge	-10.5269
▁bruin	-10.527
▁opvatting	-10.5275
golf	-10.5282
▁wens	-10.5287
="14	-10.5288
▁schatting	-10.529
zicht	-10.5293
▁kunstenaar	-10.5293
wit	-10.5295
dier	-10.53
▁schot	-10.5301
ink	-10.5307
▁hal	-10.5309
oog	-10.5309
▁meester	-10.531
ira	-10.5311
▁gewerkt	-10.5312
▁auschwitz	-10.5319
▁constantinopel	-10.5319
▁staatshoofd	-10.5321
▁donker	-10.5322
▁hall	-10.5324
▁systemen	-10.5324
▁1953	-10.5325
▁sterven	-10.5325
▁1961	-10.5325
▁1962	-10.5326
sha	-10.5328
enburg	-10.5328
▁boe	-10.5332
reeks	-10.5334
▁raken	-10.5335
wand	-10.5337
▁ijsland	-10.5338
▁regerings	-10.5341
scha	-10.5341
▁zak	-10.5343
▁vestigden	-10.5344
▁anton	-10.5351
▁advies	-10.5351
borg	-10.5361
ob	-10.5364
ax	-10.5364
▁ph	-10.5369
▁invoering	-10.5369
▁graafschap	-10.5371
▁mexico	-10.5371
▁brengt	-10.5371
▁45	-10.5371
▁wisten	-10.5372
▁pruisen	-10.5373
▁wees	-10.5373
geboren	-10.5374
▁aanhangers	-10.5375
plaat	-10.5377
sy	-10.5381
▁temperaturen	-10.5388
▁psycho	-10.5389
▁stabiel	-10.539
ör	-10.539
▁heren	-10.539
▁mij	-10.5391
nederland	-10.5391
club	-10.5392
▁geallieerde	-10.5397
▁fossiele	-10.5397
▁instituut	-10.54
▁warm	-10.5404
▁breuk	-10.5405
achter	-10.5407
▁leefde	-10.5407
kie	-10.5408
▁zone	-10.5409
▁herman	-10.5409
▁seksuele	-10.5419
3)	-10.5419
▁geïsoleerd	-10.5423
▁millennium	-10.5423
▁bedoeling	-10.5423
▁website	-10.5423
▁vocht	-10.5424
kap	-10.5424
gebracht	-10.5425
fr	-10.5427
▁nul	-10.5435
▁bibliotheek	-10.5435
▁wetenschappen	-10.5438
▁bood	-10.5451
▁priemgetallen	-10.5452
▁dingen	-10.5464
olie	-10.5467
▁cultureel	-10.5475
▁academie	-10.5476
▁pijl	-10.5476
▁hongaarse	-10.5477
ane	-10.5477
▁1946	-10.5479
▁gri	-10.5481
▁lichte	-10.5483
▁geleverd	-10.5484
▁stemming	-10.5487
uri	-10.5488
▁ervaren	-10.5496
▁zet	-10.5497
▁weet	-10.5499
▁lieten	-10.5503
methode	-10.5503
▁opzicht	-10.5508
▁kranten	-10.5518
▁grondslag	-10.5518
▁gecombineerd	-10.5527
▁poëzie	-10.5527
▁plaatsvinden	-10.5527
▁veertig	-10.5528
▁pierre	-10.5528
zaam	-10.5529
▁helium	-10.5529
▁singles	-10.5531
zame	-10.5535
▁zus	-10.5538
nus	-10.5539
logie	-10.554
▁betalen	-10.5541
non	-10.5541
bond	-10.5542
▁henri	-10.5543
dagen	-10.5543
▁bes	-10.5547
staande	-10.5552
varia	-10.5553
sis	-10.5557
▁nauwkeurig	-10.5559
▁leed	-10.5559
▁langere	-10.5561
▁leerde	-10.5562
▁bewegingen	-10.5571
py	-10.5576
▁deense	-10.5576
▁invloeden	-10.5577
▁eigendom	-10.5578
▁vertoont	-10.558
▁waarnemer	-10.558
▁groenlinks	-10.558
▁verwerkt	-10.5581
▁studio	-10.5581
grieks	-10.5581
gebergte	-10.5584
▁neder	-10.5585
crisis	-10.5585
▁1936	-10.5586
▁1963	-10.5586
▁tweemaal	-10.5598
▁inzet	-10.56
▁negatief	-10.5607
talige	-10.561
▁tin	-10.5611
off	-10.5615
▁mannetjes	-10.5617
▁erkende	-10.5617
▁uitvoer	-10.5617
▁patiënten	-10.5618
▁dubbele	-10.5618
▁graven	-10.562
▁betaald	-10.5627
▁noordwesten	-10.5628
▁percentage	-10.5629
koning	-10.5631
▁verdween	-10.5633
▁geloven	-10.5633
heffing	-10.5633
▁vertonen	-10.5633
▁verkeers	-10.5634
koop	-10.564
histori	-10.5643
▁hond	-10.5648
romeinse	-10.5649
aria	-10.5657
▁bossen	-10.5661
▁dichtheid	-10.5668
▁spiegel	-10.5672
deling	-10.5673
leving	-10.5673
▁tijdschrift	-10.5677
3%	-10.5678
▁ballingschap	-10.5686
▁veelvuldig	-10.5686
▁verjaardag	-10.5686
▁waarnemingen	-10.5689
gehalte	-10.5689
▁vijand	-10.5691
auto	-10.5691
gor	-10.5691
▁city	-10.5692
▁samengesteld	-10.5696
▁1966	-10.5697
keten	-10.5698
▁bur	-10.5707
vor	-10.5712
▁alsmede	-10.5713
rend	-10.5716
▁miljoenen	-10.5718
▁mc	-10.5719
▁zesde	-10.572
verbinding	-10.5721
tegen	-10.5722
oosten	-10.573
▁noorwegen	-10.5739
▁shakespeare	-10.5739
▁plaatsvond	-10.574
▁bruggen	-10.574
▁1947	-10.5745
▁bonte	-10.575
▁hotel	-10.5753
tia	-10.5753
▁fijn	-10.5754
▁music	-10.576
▁red	-10.5763
▁betere	-10.5771
▁olympisch	-10.5773
▁jongere	-10.5775
ua	-10.5781
▁versies	-10.5782
wat	-10.5783
▁theo	-10.5784
▁journalist	-10.5787
▁maat	-10.5789
▁constante	-10.5789
▁centimeter	-10.5793
▁populariteit	-10.5793
▁verbleef	-10.5793
▁zwolle	-10.5793
▁dordrecht	-10.5793
▁steeg	-10.5794
rivier	-10.5796
▁mensenrechten	-10.5799
zaal	-10.58
▁xii	-10.5802
▁vasteland	-10.5804
ectie	-10.5806
▁religies	-10.581
▁erkenning	-10.5815
wille	-10.5816
▁hollandse	-10.5818
▁leefden	-10.5823
▁beker	-10.5826
▁leo	-10.5826
ray	-10.5832
▁kampioen	-10.5834
hl	-10.5837
trekking	-10.5838
rd	-10.5842
200	-10.5843
snede	-10.5843
▁onduidelijk	-10.5847
▁proberen	-10.5847
▁keltische	-10.5847
▁artiesten	-10.5848
▁luchtmacht	-10.5851
▁pascal	-10.5852
▁kortrijk	-10.5852
▁1958	-10.5855
▁sj	-10.5856
verandering	-10.5856
▁schoon	-10.586
▁onderstaande	-10.5865
▁laagste	-10.5866
▁telken	-10.5866
▁instrumenten	-10.587
▁seconden	-10.5871
▁liberale	-10.5875
eigen	-10.5876
▁eiwitten	-10.5876
diep	-10.5877
▁onderlinge	-10.5877
▁reserve	-10.5878
▁bijdrage	-10.5881
wiel	-10.5884
alle	-10.5889
▁tegenstanders	-10.5892
oloog	-10.5892
veer	-10.5895
▁afghanistan	-10.5902
▁uranium	-10.5902
▁relaties	-10.5904
▁opmerkelijke	-10.5905
▁1964	-10.5909
▁zaad	-10.5913
▁boer	-10.5914
▁overeenkomsten	-10.592
doende	-10.592
▁resten	-10.5923
▁syn	-10.5924
polit	-10.5924
▁port	-10.5925
rot	-10.5925
kleur	-10.5926
gal	-10.5926
trans	-10.5926
verdrag	-10.5927
▁afval	-10.5929
▁vestigde	-10.593
▁reacties	-10.5931
▁gelijke	-10.5944
▁franken	-10.5945
▁typische	-10.5948
-17	-10.5948
▁bak	-10.5952
▁data	-10.5952
▁debat	-10.5954
▁winschoten	-10.5956
▁duitstalige	-10.5957
phy	-10.5959
▁conflicten	-10.5959
▁onderzoeks	-10.5962
▁1942	-10.5962
▁behoefte	-10.5963
▁zeeland	-10.5965
▁geschat	-10.5969
▁voorjaar	-10.5979
haus	-10.5982
▁continu	-10.5985
▁filosoof	-10.5986
▁bestuurs	-10.5988
▁ertoe	-10.5991
wijzen	-10.5995
temperatuur	-10.5997
2-	-10.6003
▁amsterdamse	-10.6003
nia	-10.6005
▁friedrich	-10.6011
▁armoede	-10.6011
▁opgelost	-10.6011
▁steenkool	-10.6012
▁talrijke	-10.6012
lier	-10.6017
▁act	-10.6019
▁ham	-10.6019
fran	-10.6022
▁echtgenote	-10.6023
▁ernstig	-10.6023
▁geo	-10.6028
ls	-10.6031
▁kunsten	-10.6033
▁pius	-10.6034
▁neutronen	-10.6035
ata	-10.6038
▁broers	-10.604
▁bevond	-10.6041
ae	-10.6048
▁che	-10.6054
▁methoden	-10.6055
▁han	-10.6058
▁conclusie	-10.6066
▁collega	-10.6066
▁streven	-10.6067
▁herkomst	-10.6069
▁neerslag	-10.607
▁1933	-10.6072
▁1956	-10.6073
▁typisch	-10.6075
▁stappen	-10.6076
schal	-10.6077
ima	-10.608
materiaal	-10.6081
erij	-10.6081
rode	-10.6083
anten	-10.6084
▁sla	-10.6086
▁tele	-10.6095
▁gebruikers	-10.6097
mol	-10.6102
▁dode	-10.6104
gevallen	-10.6104
▁houding	-10.6105
taan	-10.6105
▁verschilt	-10.6105
▁tekens	-10.611
para	-10.6111
fu	-10.6115
▁wester	-10.6119
▁concerten	-10.6121
▁introduceerde	-10.6122
▁rembrandt	-10.6122
▁aangewezen	-10.6122
▁veroveren	-10.6122
▁athene	-10.6124
▁ijstijd	-10.6126
pir	-10.613
▁daaruit	-10.613
▁theologie	-10.6132
▁herstel	-10.6133
▁beroeps	-10.6135
▁anne	-10.614
front	-10.614
heren	-10.6143
▁wan	-10.6144
was	-10.6145
schepen	-10.6149
▁melk	-10.6154
▁documenten	-10.6156
foto	-10.6157
bas	-10.6161
▁sleutel	-10.6166
▁gebonden	-10.6166
▁computers	-10.6167
beleid	-10.6171
▁ya	-10.6172
kru	-10.6176
▁interview	-10.6178
▁jupiter	-10.6178
▁vervaardigd	-10.6178
▁verkrijgen	-10.6178
▁oorzaken	-10.6178
▁overwegend	-10.6178
▁tikal	-10.6178
▁schilderkunst	-10.6179
▁richt	-10.6179
ford	-10.6185
▁meende	-10.6187
▁fal	-10.6187
▁boog	-10.619
rijke	-10.619
–19	-10.6197
▁oor	-10.62
▁bedreigd	-10.6206
▁golden	-10.6216
▁video	-10.6218
▁bekendheid	-10.622
▁mengsel	-10.6221
▁ziel	-10.6225
▁manifest	-10.6225
▁pic	-10.6228
▁praktische	-10.623
▁dateren	-10.6232
▁aristoteles	-10.6234
▁justitie	-10.6234
▁moeite	-10.6234
▁verondersteld	-10.6234
▁fokker	-10.6234
▁kalium	-10.6236
▁enorm	-10.6249
▁plat	-10.6252
▁tournee	-10.6257
▁datum	-10.626
▁ren	-10.6266
▁verschijning	-10.6269
▁vondsten	-10.6269
aliseerd	-10.6272
geslagen	-10.6277
▁zover	-10.6278
▁gras	-10.6284
▁binnenlandse	-10.6284
project	-10.6287
▁aangeboden	-10.6291
▁octrooi	-10.6291
▁vernieuwing	-10.6291
▁sneeuw	-10.6291
▁hersteld	-10.6291
▁verzorgd	-10.6292
▁figuren	-10.6296
▁1938	-10.6296
▁plekken	-10.6299
lau	-10.63
▁wild	-10.6301
▁woningen	-10.6304
▁kg	-10.6306
[	-10.6309
▁belgen	-10.631
mbo	-10.6314
drukken	-10.6315
▁daaropvolgend	-10.6316
▁intussen	-10.6317
▁stromen	-10.6319
sin	-10.6319
▁schrijft	-10.632
▁vooraf	-10.6321
▁leerling	-10.6322
▁gevoel	-10.6325
▁heelal	-10.6331
▁aangebracht	-10.6337
flu	-10.6342
open	-10.6342
einde	-10.6347
▁ferdinand	-10.6347
▁oekraïne	-10.6347
▁reagan	-10.6347
▁hoogleraar	-10.6348
▁lukte	-10.6349
▁ontbreken	-10.6349
▁zogenoemd	-10.635
centrale	-10.6354
var	-10.6354
▁afgelopen	-10.6354
tram	-10.6357
▁leeft	-10.636
▁aangesloten	-10.6361
fiets	-10.6367
▁stromingen	-10.6368
sz	-10.6372
▁wijd	-10.6373
▁korea	-10.6375
▁zwak	-10.638
lucht	-10.6382
▁mes	-10.6383
▁begeleid	-10.6383
▁pool	-10.6385
▁sn	-10.6385
ulatie	-10.6396
▁tel	-10.6397
▁offer	-10.64
▁wilhelm	-10.6404
▁strategisch	-10.6404
▁ondersteunen	-10.6405
▁hertogdom	-10.6406
▁mobiele	-10.6406
▁getrouwd	-10.6407
▁werkzaam	-10.6408
▁infectie	-10.6411
";	-10.6416
mers	-10.6416
getrokken	-10.6417
elijkheid	-10.642
scherm	-10.6425
bureau	-10.6426
▁marie	-10.6426
▁gevoelig	-10.6427
oost	-10.6427
▁spoorweg	-10.6432
arts	-10.6433
▁(14	-10.6438
vast	-10.6439
▁makkelijk	-10.6447
▁polder	-10.6453
sum	-10.6458
▁hiv	-10.646
aw	-10.6461
▁grammatica	-10.6462
▁talloze	-10.6463
▁afgesloten	-10.6464
▁jodendom	-10.6464
▁angst	-10.6467
▁vel	-10.6469
▁1959	-10.6469
▁1943	-10.647
▁verwijzen	-10.6472
bestuur	-10.6476
▁geslachts	-10.6479
orthodoxe	-10.648
terrein	-10.6484
▁bijeen	-10.6484
ras	-10.6487
ezel	-10.6487
▁hoofdrol	-10.6491
ld	-10.6491
▁bevrijd	-10.6493
tim	-10.6493
maak	-10.6498
▁babylon	-10.6499
lant	-10.65
illa	-10.65
eck	-10.6507
▁toegankelijk	-10.6507
▁gewijzigd	-10.652
▁spanjaarden	-10.652
▁gelijknamig	-10.652
▁diameter	-10.652
▁ondersteund	-10.6521
▁kijken	-10.6522
▁belangen	-10.6524
cum	-10.6528
▁ion	-10.653
era	-10.6531
hor	-10.6536
▁professionele	-10.6539
▁resolutie	-10.6544
▁satelliet	-10.6547
houding	-10.6547
ori	-10.6553
▁onbekend	-10.6555
toernooi	-10.6556
oord	-10.6563
▁streken	-10.6565
toestand	-10.657
vier	-10.6571
▁kandidaten	-10.6576
▁inkomen	-10.6576
▁caligula	-10.6578
▁extreem	-10.6578
▁koloniën	-10.6578
▁vaticaan	-10.6578
▁vergelijkbare	-10.6578
▁automatisch	-10.6578
▁sho	-10.6578
▁gratis	-10.6579
▁zonnestelsel	-10.6579
▁franstalige	-10.658
▁blijken	-10.658
▁ziekten	-10.6581
▁overgeleverd	-10.6584
letter	-10.6585
ish	-10.6589
▁daartoe	-10.6589
oma	-10.659
▁klaar	-10.6592
▁afrikaans	-10.6594
▁krim	-10.6598
sur	-10.6601
▁lever	-10.6603
vleugel	-10.6603
▁ball	-10.6608
▁zink	-10.661
▁bay	-10.6615
gere	-10.6618
▁bijnaam	-10.6625
▁afbeeldingen	-10.6626
▁sterkte	-10.6626
put	-10.6628
▁opbouw	-10.6629
▁beroemd	-10.6631
gericht	-10.6633
▁beethoven	-10.6636
▁huygens	-10.6636
▁immigranten	-10.6636
▁samuel	-10.6636
▁voorlopig	-10.6636
▁voelde	-10.6637
▁vloot	-10.6644
▁mtoe	-10.6646
▁hoeft	-10.665
▁jozef	-10.6663
kaart	-10.6669
▁werkwoord	-10.667
▁brits	-10.6671
▁departement	-10.6672
▁ingang	-10.6673
lies	-10.6679
assen	-10.6682
later	-10.6682
▁dagelijkse	-10.6687
▁beatrix	-10.6695
▁kondigde	-10.6696
▁drukken	-10.6696
▁filosofische	-10.6696
▁weleens	-10.6696
▁bord	-10.6698
▁venlo	-10.6703
kas	-10.6704
gever	-10.6704
dic	-10.6705
▁bloemen	-10.6713
▁heuvel	-10.6714
▁vervolging	-10.6715
▁verschijnselen	-10.6717
▁gevoerd	-10.6718
rm	-10.6723
▁militairen	-10.6732
schaal	-10.6738
▁tropische	-10.674
astro	-10.6743
▁overleven	-10.6745
oppervlak	-10.675
sondanks	-10.6754
▁oneindig	-10.6754
▁gedacht	-10.6755
▁gerard	-10.6756
▁angeles	-10.6758
▁jung	-10.6758
▁voorwaarden	-10.676
▁1951	-10.6762
bracht	-10.6764
hind	-10.6771
▁danken	-10.6774
▁camp	-10.6777
▁kloosters	-10.6777
▁plein	-10.6777
▁artikelen	-10.678
▁verwachting	-10.6781
▁medaille	-10.6782
program	-10.6782
▁staal	-10.6785
▁kerkelijke	-10.6785
▁opname	-10.6788
ell	-10.6797
ym	-10.6799
▁hy	-10.68
▁titels	-10.68
ky	-10.6804
▁spanning	-10.6807
bl	-10.6807
▁bedreiging	-10.6814
▁overgebleven	-10.6814
▁plotseling	-10.6814
▁missie	-10.6815
▁brandstof	-10.6815
▁rechtbank	-10.6816
▁alsook	-10.682
▁versloeg	-10.682
▁koop	-10.6822
▁max	-10.6823
mit	-10.6823
▁uitgeroepen	-10.6826
lla	-10.6828
▁geel	-10.6828
▁gemeentelijk	-10.6829
bergen	-10.6831
▁sprekers	-10.6832
verdeling	-10.6833
nederlands	-10.6834
▁contacten	-10.6837
▁evenwel	-10.6837
▁zingen	-10.6839
ronde	-10.684
tussen	-10.6844
▁kaap	-10.6847
▁voldoen	-10.685
stem	-10.6852
centra	-10.6854
edel	-10.6858
gie	-10.687
▁tar	-10.6873
▁vestigen	-10.6874
▁beschouwen	-10.6874
▁gesteund	-10.6874
▁platteland	-10.6877
▁waarheid	-10.6879
get	-10.6879
via	-10.6881
nederlandse	-10.6895
stoten	-10.6897
▁bevrijding	-10.6902
▁hielden	-10.6904
richt	-10.6908
▁voortgezet	-10.691
partijen	-10.6911
▁warme	-10.6911
▁schilderij	-10.6916
speler	-10.6919
▁vorsten	-10.6931
▁waal	-10.6932
▁geleerden	-10.6932
foon	-10.6933
daagse	-10.6933
▁grootschalige	-10.6934
▁passagiers	-10.6934
▁critici	-10.6934
▁historici	-10.6934
▁overtuigd	-10.6935
▁kathedraal	-10.6936
▁rang	-10.6938
jarig	-10.6938
houdende	-10.694
▁hus	-10.6941
▁1954	-10.6942
ella	-10.6945
▁bezat	-10.6945
▁geur	-10.6948
▁air	-10.695
vader	-10.695
graven	-10.6955
atoom	-10.6973
▁vleugel	-10.6973
▁resulteerde	-10.6974
brugge	-10.6975
enne	-10.6976
ati	-10.698
▁steken	-10.6981
dar	-10.6983
▁camera	-10.699
▁friesland	-10.6993
▁cu	-10.6993
▁migratie	-10.6995
▁symptomen	-10.6995
▁verdedigen	-10.6995
▁bleken	-10.6995
▁roermond	-10.6995
▁simpel	-10.6995
▁secretaris	-10.6996
▁kunstmatig	-10.6998
sol	-10.7
▁1952	-10.7002
▁leiders	-10.7004
▁inval	-10.7004
ander	-10.7005
gl	-10.7013
▁reed	-10.7015
ruim	-10.7017
▁anno	-10.7017
▁lees	-10.7018
▁arrondissement	-10.7021
▁overeenkomst	-10.7026
schip	-10.7028
stromen	-10.7029
▁mak	-10.7029
ami	-10.7029
▁verlichting	-10.7032
▁verschillend	-10.7033
▁uiterst	-10.7033
mun	-10.7042
▁veer	-10.7043
winning	-10.7044
lessen	-10.7048
▁hieruit	-10.7055
▁amersfoort	-10.7056
▁washington	-10.7056
▁herkennen	-10.7056
fysica	-10.7056
iale	-10.7056
lex	-10.7056
▁viool	-10.7057
aux	-10.7057
▁schuld	-10.7061
▁herstellen	-10.7061
▁bevatte	-10.7061
▁1934	-10.7062
▁sloten	-10.7062
▁werkten	-10.7067
▁vergroot	-10.7068
bio	-10.707
▁koloniale	-10.7077
trop	-10.7082
▁gemeenschappen	-10.7083
▁hebreeuws	-10.7084
kwartier	-10.7086
gemeenschap	-10.7091
economie	-10.7094
▁hersenen	-10.7097
▁denk	-10.7099
▁rod	-10.71
▁philips	-10.7101
ido	-10.7106
▁var	-10.711
syrische	-10.7111
▁stamt	-10.7111
schi	-10.7116
esturingssysteem	-10.7117
▁halverwege	-10.7117
▁onvoldoende	-10.7117
▁varieert	-10.7117
▁betrof	-10.7117
▁oefen	-10.7119
▁lucas	-10.7119
▁boodschap	-10.7122
▁begrippen	-10.7124
▁straal	-10.713
▁doop	-10.713
▁componisten	-10.7134
▁nor	-10.7134
▁geacht	-10.7134
▁voorafgaand	-10.7134
▁waarnemen	-10.7135
▁opgeslagen	-10.7136
▁vergelijken	-10.7138
zaken	-10.7141
▁jarenlang	-10.7141
hoor	-10.7144
▁congo	-10.7145
▁voorwaarde	-10.7146
▁kleinste	-10.7148
laten	-10.7149
▁voltooid	-10.7153
regels	-10.7156
▁omgekeerd	-10.7157
genoten	-10.7158
▁bat	-10.716
▁schaats	-10.716
voet	-10.7163
rk	-10.7164
mir	-10.7165
room	-10.7169
▁arabisch	-10.717
▁probeer	-10.7171
▁hits	-10.7173
▁expeditie	-10.7179
▁galilei	-10.7179
▁himmler	-10.7179
▁verdwijnen	-10.7179
▁beatles	-10.7179
▁profeet	-10.7179
▁vertrouwen	-10.7179
▁elite	-10.7185
▁rechters	-10.7194
▁pagina	-10.7195
▁ervaring	-10.7196
▁voorbereiding	-10.7197
▁leen	-10.7197
▁chili	-10.7198
▁geestelijke	-10.7207
gre	-10.7208
▁achtste	-10.7219
▁rem	-10.7228
▁krui	-10.7232
▁reg	-10.7235
col	-10.7236
▁stadium	-10.7237
▁gif	-10.7239
weeg	-10.7239
▁donkere	-10.724
▁scheepvaart	-10.7241
▁hoort	-10.7242
lp	-10.7243
▁neef	-10.7245
opbrengst	-10.7246
▁ballet	-10.7247
▁33	-10.725
verhalen	-10.7254
▁bart	-10.7259
thy	-10.7261
▁proto	-10.7262
▁omhoog	-10.7265
▁aluminium	-10.7265
schrijving	-10.7266
lening	-10.7266
honderd	-10.7275
▁mythen	-10.7275
1%	-10.7276
sma	-10.7278
vertegenwoordigd	-10.7281
doel	-10.7282
geslacht	-10.7285
▁ingenomen	-10.7286
-15	-10.7287
yt	-10.7288
▁verslag	-10.7291
▁reve	-10.7293
von	-10.73
scholen	-10.7303
▁himalaya	-10.7303
▁oftewel	-10.7304
▁vermoeden	-10.7306
▁graag	-10.7306
▁jury	-10.7307
klo	-10.7309
▁estland	-10.7309
▁1955	-10.731
▁1922	-10.7311
▁koel	-10.7315
nederlandstalige	-10.7318
▁ana	-10.7324
▁merk	-10.7325
▁weefsel	-10.7325
oni	-10.7337
▁taalkundig	-10.7337
▁seconde	-10.7341
▁bureau	-10.7342
zig	-10.7344
▁36	-10.7344
hield	-10.7345
universiteit	-10.7349
▁volken	-10.736
ouw	-10.736
▁gewesten	-10.7363
▁efficiënt	-10.7366
▁niemand	-10.7366
war	-10.7367
▁fruit	-10.7369
▁amstel	-10.7369
examen	-10.7369
▁molecuul	-10.7371
▁belg	-10.7375
▁toename	-10.7377
essen	-10.7377
▁experimenten	-10.7379
ture	-10.7382
ick	-10.7388
▁neanderthaler	-10.7388
▁10.000	-10.7395
▁bevonden	-10.7396
▁procedure	-10.7398
mil	-10.7398
▁naakt	-10.7405
voorzitter	-10.7406
▁pap	-10.7407
char	-10.7411
nier	-10.7413
▁wijst	-10.7418
organisaties	-10.7422
bet	-10.7423
aanval	-10.7427
#	-10.7429
▁allen	-10.7435
▁1937	-10.7436
▁toestel	-10.7437
▁keizerlijke	-10.7437
7%	-10.7438
▁ontwerpen	-10.7438
▁1929	-10.7438
ney	-10.744
basis	-10.744
▁non	-10.7449
▁conservatieve	-10.7451
talig	-10.7451
▁rh	-10.7453
▁nederzetting	-10.7457
▁tibetaanse	-10.7457
vr	-10.7464
▁multi	-10.747
▁zoet	-10.7473
gelaten	-10.7475
▁wagen	-10.7476
▁uitgang	-10.7482
ate	-10.7483
maatschappelijke	-10.7486
▁orgaan	-10.7489
elaar	-10.749
▁heilig	-10.7491
▁smelt	-10.7492
▁(10	-10.7493
▁palestina	-10.7493
▁zaterdag	-10.7493
▁apollo	-10.7493
▁complete	-10.7493
▁longkanker	-10.7493
boerderij	-10.7495
▁hoorde	-10.7503
▁typen	-10.7515
▁spanningen	-10.7519
▁fossielen	-10.7526
stroming	-10.7526
▁duren	-10.7528
onderwijs	-10.753
▁comp	-10.7534
▁38	-10.7542
rick	-10.7545
▁groeiende	-10.7546
▁getuigen	-10.7555
▁organiseerde	-10.7557
▁regent	-10.7558
▁lens	-10.756
▁opmars	-10.7562
▁gezamenlijke	-10.7564
▁moslim	-10.7568
▁raakten	-10.757
ement	-10.7571
▁gebruikelijke	-10.7572
▁noch	-10.7574
▁kenmerkend	-10.7574
-6	-10.7579
▁laboratorium	-10.7584
ér	-10.7589
▁gebergte	-10.7591
▁brigade	-10.7595
▁wandel	-10.7595
tum	-10.7598
vig	-10.76
▁lastig	-10.7603
▁vrouwtjes	-10.7607
▁geografische	-10.7608
been	-10.7609
▁show	-10.7618
▁gehaald	-10.7622
▁wagner	-10.7622
▁catalaans	-10.7622
▁intellectuele	-10.7622
▁divisie	-10.7623
▁1965	-10.763
beelden	-10.763
▁bedrijfs	-10.7631
▁domein	-10.7634
▁cer	-10.7636
kort	-10.7642
qua	-10.7647
ziekte	-10.765
▁ple	-10.7651
rry	-10.7651
▁vijanden	-10.7655
▁34	-10.7662
nacht	-10.7671
▁cup	-10.7671
▁piramide	-10.7676
▁leeuw	-10.7683
rok	-10.7685
▁helder	-10.7685
▁auteursrecht	-10.7686
byte	-10.7686
▁vic	-10.769
▁streng	-10.7692
zoon	-10.7693
▁individu	-10.7693
▁rob	-10.7694
▁1928	-10.7694
▁scha	-10.7695
stam	-10.7697
▁oxide	-10.7699
eventuele	-10.7701
▁time	-10.7707
▁dominante	-10.7708
▁belastingen	-10.7712
eind	-10.7713
▁bom	-10.7714
▁vee	-10.7716
▁geï	-10.7724
▁omgezet	-10.7726
▁verwante	-10.7726
onne	-10.7728
vloed	-10.7729
▁medium	-10.773
typ	-10.773
▁mas	-10.7737
▁losse	-10.7743
afstand	-10.7747
▁organiseren	-10.7752
▁plaatsgevonden	-10.7752
▁wimbledon	-10.7752
▁kepler	-10.7752
indië	-10.7752
▁gegeten	-10.7752
▁meetkunde	-10.7753
▁verricht	-10.7756
▁handelen	-10.7759
lik	-10.7759
▁mega	-10.7759
▁italiaans	-10.776
▁zeventiende	-10.7761
-14	-10.7766
▁hierover	-10.7769
▁doek	-10.7769
▁oosters	-10.7775
▁voedings	-10.7776
▁aanwezige	-10.7777
▁omloop	-10.7777
new	-10.7778
▁onbekende	-10.7779
▁zender	-10.778
▁gedragen	-10.7783
koe	-10.7783
▁recreatie	-10.779
ary	-10.7795
akker	-10.7797
▁meren	-10.7803
lage	-10.7806
minister	-10.7808
liet	-10.7813
▁laser	-10.7814
▁mechelen	-10.7818
▁uitspraken	-10.7818
▁montreal	-10.7818
▁dwars	-10.7818
▁lijsttrekker	-10.7819
▁oscar	-10.7819
▁rein	-10.7823
▁elektriciteit	-10.7824
vogel	-10.783
▁horus	-10.7832
trap	-10.7834
nische	-10.7835
laan	-10.7838
▁kim	-10.7842
▁afgezet	-10.7843
▁onderscheidt	-10.7844
▁communisme	-10.7844
reactie	-10.7845
nomen	-10.7846
▁georg	-10.7847
▁michel	-10.785
▁geheugen	-10.7851
▁harmonie	-10.7857
geen	-10.7859
▁ernst	-10.7863
eurs	-10.7869
problemen	-10.7876
limburg	-10.7877
regering	-10.7877
klimaat	-10.7877
,5%	-10.7879
▁snavel	-10.7884
machine	-10.7885
▁aardappel	-10.7885
▁ontmoeting	-10.7885
▁mos	-10.7887
week	-10.7887
▁gedichten	-10.7889
gebouwd	-10.7892
▁tiende	-10.7896
▁amerikaans	-10.7898
▁kernen	-10.7898
wetenschappen	-10.7898
▁konings	-10.7899
▁schakel	-10.79
▁heb	-10.7902
yan	-10.7903
▁far	-10.7905
kr	-10.7916
bes	-10.7917
dos	-10.7919
fort	-10.7919
▁breder	-10.7919
▁meningitis	-10.792
▁geë	-10.7922
_4	-10.7922
▁geheime	-10.7923
tief	-10.7923
▁evenementen	-10.7927
cur	-10.7927
▁shi	-10.7928
▁wijziging	-10.7931
▁inca	-10.794
vlak	-10.7944
▁eiwit	-10.7945
beheer	-10.7947
▁chloor	-10.7949
▁boudewijn	-10.7951
▁verbeteren	-10.7951
▁berekend	-10.7951
logen	-10.7954
▁breken	-10.7955
▁bewezen	-10.7957
▁experiment	-10.7957
▁speer	-10.7958
▁winnaar	-10.796
▁stadhouder	-10.7962
▁abba	-10.798
▁kap	-10.7984
▁bestuurd	-10.7986
chemie	-10.7992
▁duik	-10.7992
▁medi	-10.7993
german	-10.7993
▁omroep	-10.7995
ogen	-10.7995
▁vakgebied	-10.8002
festival	-10.801
▁trouwen	-10.8014
▁semi	-10.8018
▁slavische	-10.8019
▁levensloop	-10.8019
▁andré	-10.802
▁signaal	-10.802
▁black	-10.802
8%	-10.8021
▁graan	-10.8025
ontwikkeling	-10.8026
▁gekleurd	-10.8029
erts	-10.803
▁800	-10.803
▁luc	-10.8034
▁roken	-10.8034
▁ritme	-10.8035
schillen	-10.8035
appen	-10.8036
▁eigenschap	-10.8038
▁filosofen	-10.8039
elect	-10.8039
▁ak	-10.804
▁zuivere	-10.8043
rekening	-10.8044
heen	-10.8045
▁tong	-10.8051
veen	-10.8051
raam	-10.8053
oy	-10.8057
eten	-10.8059
▁bedrag	-10.807
▁publicaties	-10.8071
▁delta	-10.8072
moed	-10.8076
hul	-10.8077
▁deelname	-10.8079
literatuur	-10.8082
▁gedrukt	-10.8083
▁gekoppeld	-10.8085
▁league	-10.8085
▁etymologie	-10.8086
▁geluk	-10.8086
▁formatie	-10.8086
▁almere	-10.8086
▁comité	-10.8088
rail	-10.8094
▁tekort	-10.8094
▁spectrum	-10.8095
▁1935	-10.8095
▁overlevering	-10.8097
▁wall	-10.8102
▁recent	-10.8107
hem	-10.8107
▁deelnemers	-10.8108
▁uitgaven	-10.8111
▁65	-10.8112
▁vredes	-10.8116
▁dagblad	-10.8121
hoff	-10.8122
▁ij	-10.8123
▁verbod	-10.8124
▁molen	-10.8131
▁personeel	-10.8147
spin	-10.8147
▁natrium	-10.8151
▁verbindt	-10.8153
▁verschijnt	-10.8153
▁amateur	-10.8153
▁drenthe	-10.8154
▁beslist	-10.8154
▁abdij	-10.8155
▁kunstschilder	-10.8157
▁oordeel	-10.8159
▁spring	-10.816
velden	-10.8161
▁1957	-10.8162
▁1924	-10.8163
▁blanke	-10.8163
▁1848	-10.8165
▁cent	-10.8167
▁studies	-10.8171
▁buis	-10.8175
▁teams	-10.8178
▁afscheid	-10.8183
well	-10.8185
▁biologie	-10.8186
▁startte	-10.8192
▁oostelijk	-10.8194
▁cyclo	-10.8195
▁mensheid	-10.8198
▁ontwikkelden	-10.8203
voudig	-10.8203
▁boot	-10.8203
▁zangeres	-10.821
▁klassen	-10.8212
ón	-10.8212
▁bataljon	-10.8212
tina	-10.8212
▁stedelijke	-10.8214
▁gevangenen	-10.8215
▁trap	-10.8217
▁financieel	-10.8222
▁hezbollah	-10.8222
▁leibniz	-10.8222
▁reageren	-10.8222
▁hooft	-10.8222
▁stevig	-10.8222
▁claus	-10.8222
▁goddelijke	-10.8223
▁nationaliteit	-10.8223
▁wh	-10.823
▁schaak	-10.8233
▁relatieve	-10.8234
▁beschouwde	-10.8234
▁dekker	-10.8235
▁100.000	-10.8235
trok	-10.8238
▁kre	-10.8238
▁diepe	-10.8239
▁tekenen	-10.8241
oïde	-10.8248
▁personages	-10.8248
▁%	-10.8251
▁parallel	-10.8254
lov	-10.8256
▁kost	-10.8257
lieve	-10.8258
4%	-10.8259
án	-10.826
▁behoud	-10.826
▁doorbraak	-10.8261
star	-10.8269
▁marc	-10.827
▁aanslag	-10.827
▁gedeeld	-10.8281
▁zuidwest	-10.8286
▁cat	-10.8289
gli	-10.8289
▁geassocieerd	-10.8291
▁kennedy	-10.8291
▁lubbers	-10.8291
verschuiving	-10.8291
▁ochtend	-10.8291
▁verbetering	-10.8291
▁farao	-10.8291
▁vernietigen	-10.8292
troepen	-10.8292
gordel	-10.8292
▁kwaad	-10.8294
uiteraard	-10.8294
▁chemie	-10.8296
té	-10.8296
▁1923	-10.8299
zinnig	-10.8299
▁1927	-10.8301
▁allereerst	-10.8301
grafische	-10.8305
werking	-10.8307
▁1921	-10.831
▁reisde	-10.8313
schoen	-10.8314
teerde	-10.8317
▁opvallende	-10.8322
▁organische	-10.8328
▁christelijk	-10.8329
▁bezoeken	-10.8329
▁verbranding	-10.8331
▁ras	-10.8331
wiens	-10.8333
▁getrokken	-10.8341
▁cho	-10.8342
▁tellen	-10.8343
lip	-10.8349
icum	-10.8351
▁3000	-10.8356
▁bloem	-10.8358
▁calcium	-10.836
▁cavalerie	-10.836
▁expliciet	-10.836
▁oeuvre	-10.836
▁referendum	-10.836
▁zeldzaam	-10.836
▁gebeuren	-10.836
▁palestijnse	-10.8361
quin	-10.8361
liep	-10.8362
vak	-10.8363
▁zuiderzee	-10.8365
lust	-10.8366
▁luister	-10.8367
pakket	-10.8368
▁jos	-10.8369
missie	-10.8373
▁definitieve	-10.8373
▁naamwoord	-10.8374
▁verslaan	-10.8375
▁hongaars	-10.8376
vergelijking	-10.8378
▁daalde	-10.8379
▁schilderde	-10.8379
blok	-10.838
▁dur	-10.8383
▁structuren	-10.8385
▁capaciteit	-10.8394
▁monetair	-10.8394
norm	-10.8394
fan	-10.8397
▁by	-10.841
▁rijst	-10.841
▁groenland	-10.8416
▁villa	-10.8417
▁beslissing	-10.8419
▁permanente	-10.842
uv	-10.8429
▁getijden	-10.8429
▁alliantie	-10.843
▁elizabeth	-10.843
▁precieze	-10.843
▁schizofrenie	-10.843
▁maurits	-10.843
▁herfst	-10.843
gekocht	-10.843
scène	-10.843
▁aids	-10.8431
▁verlengd	-10.8431
▁straten	-10.8431
seizoen	-10.8434
▁toekomstige	-10.8434
▁indianen	-10.8438
▁middelbare	-10.844
▁clubs	-10.8441
▁wacht	-10.8444
uma	-10.8445
▁game	-10.8446
▁districten	-10.845
gist	-10.8458
plat	-10.8459
▁peper	-10.8463
▁central	-10.8469
graad	-10.847
woorden	-10.8472
▁klei	-10.8479
▁nasa	-10.848
▁voorstelling	-10.8482
▁astronomie	-10.8483
▁inzichten	-10.8484
▁trekt	-10.8485
gronden	-10.8485
▁grenst	-10.8486
▁beurs	-10.8487
▁gereformeerde	-10.8493
ann	-10.8495
▁zitting	-10.8498
bepaling	-10.8499
▁astronomisch	-10.8501
▁logaritme	-10.8501
▁verkreeg	-10.8501
▁externe	-10.8501
▁ontleend	-10.8501
▁omstreden	-10.8502
▁communisten	-10.8502
▁gevuld	-10.8502
▁toegenomen	-10.8503
▁vandaar	-10.8505
chloride	-10.8506
wolk	-10.8508
geleid	-10.851
▁vld	-10.851
▁wis	-10.8513
▁kamers	-10.8519
planten	-10.8525
▁etc	-10.8526
▁zekerheid	-10.8527
spoor	-10.8528
raken	-10.8529
baai	-10.8529
uni	-10.853
paar	-10.8531
leren	-10.8532
▁bundel	-10.8536
▁gesteente	-10.8537
▁beschikking	-10.8539
▁dun	-10.854
lev	-10.8544
▁tocht	-10.8556
▁gevaarlijk	-10.856
▁koppel	-10.8563
▁plo	-10.8564
▁kam	-10.857
▁abraham	-10.8572
▁alternatief	-10.8572
▁kolonisten	-10.8572
▁osiris	-10.8572
▁toevoeging	-10.8572
▁werknemers	-10.8572
▁kenmerk	-10.8575
akkoord	-10.8577
college	-10.8578
▁vertrokken	-10.8583
are	-10.8589
breken	-10.859
▁dikke	-10.8593
▁winkels	-10.8593
hoog	-10.8593
▁gassen	-10.8594
dans	-10.8596
▁39	-10.8598
pit	-10.8602
iaal	-10.8605
▁onderhoud	-10.8606
▁evenaar	-10.8607
▁voert	-10.861
▁tibetaans	-10.8612
▁bestudeerd	-10.8615
frans	-10.8615
▁gezocht	-10.8616
▁250	-10.8616
rag	-10.8617
gemeente	-10.8617
▁strenge	-10.8621
▁bijdragen	-10.8627
fried	-10.8629
▁dalen	-10.8629
▁liedjes	-10.8631
ön	-10.8633
dien	-10.8634
wijken	-10.8636
▁stelden	-10.864
▁been	-10.8641
rak	-10.8641
▁optie	-10.8642
▁terugkeren	-10.8643
▁bestuderen	-10.8643
▁toxicologie	-10.8643
▁begraafplaats	-10.8643
▁mineraal	-10.8643
iër	-10.8649
kw	-10.8649
▁wolken	-10.865
▁frankische	-10.865
▁katholiek	-10.8651
ence	-10.8651
▁veiligheids	-10.8652
▁oom	-10.8652
▁wortel	-10.8653
▁jongste	-10.8654
binnen	-10.8654
▁zwangerschap	-10.8655
▁alchemie	-10.8655
▁voorstellen	-10.8656
ticus	-10.866
▁religieus	-10.866
▁nadien	-10.8661
▁1830	-10.8664
vissen	-10.8664
▁nedersaksisch	-10.8671
▁toets	-10.8673
▁ondersteuning	-10.8673
heem	-10.8674
▁geringe	-10.8675
▁heide	-10.8683
▁uitgave	-10.8683
bot	-10.8692
kov	-10.8693
▁uitmaken	-10.8698
▁service	-10.8699
▁hoeven	-10.8699
▁bang	-10.8706
side	-10.8706
▁indische	-10.8711
▁bisdom	-10.8713
kring	-10.8714
▁fundamentele	-10.8715
▁introductie	-10.8715
▁jozua	-10.8715
▁strategie	-10.8715
▁toegewezen	-10.8715
▁uitgereikt	-10.8715
▁grondlegger	-10.8715
▁erfgoed	-10.8715
ël	-10.8717
▁trachtte	-10.8717
▁israëlieten	-10.8718
▁barok	-10.8719
▁lezer	-10.8721
uwe	-10.8722
uze	-10.8724
▁verwezen	-10.8725
▁120	-10.8725
▁nakomelingen	-10.8729
anus	-10.8733
gewerkt	-10.8735
rop	-10.8735
▁schijf	-10.8743
rechtvaardig	-10.8744
▁deelstaat	-10.8746
▁aphrodite	-10.875
▁dar	-10.8755
▁apart	-10.8758
▁draad	-10.8764
wissel	-10.8764
▁wolf	-10.8775
▁giftig	-10.8777
▁mur	-10.8779
▁hervormingen	-10.8782
light	-10.8783
▁esperanto	-10.8787
▁zutphen	-10.8787
▁produceerde	-10.8787
▁florence	-10.8788
gave	-10.8788
▁aangesteld	-10.8788
▁weert	-10.8788
▁natie	-10.8789
▁kampen	-10.8789
gestoken	-10.8791
▁lezing	-10.8792
raketten	-10.8798
▁haren	-10.8798
ploeg	-10.8799
▁wedero	-10.8799
hat	-10.8801
zender	-10.8806
tiv	-10.8806
▁win	-10.8807
▁neu	-10.8811
verhaal	-10.8812
▁vroegste	-10.8813
mail	-10.8814
oom	-10.8817
▁infrastructuur	-10.8818
▁getekend	-10.882
▁woont	-10.882
▁conferentie	-10.8824
clus	-10.8824
▁gebruikten	-10.8824
▁monarchie	-10.8824
▁1-	-10.8826
▁linkse	-10.8827
▁bevolkingsgroep	-10.883
▁behoorden	-10.883
shi	-10.8834
▁organisme	-10.8835
voeren	-10.8838
▁rot	-10.8839
▁mad	-10.884
▁rap	-10.8842
wezen	-10.8842
vooral	-10.8843
▁veroorzaakte	-10.8844
lieden	-10.8845
▁general	-10.8846
▁let	-10.8846
▁jacques	-10.8847
ala	-10.8849
▁gevolge	-10.885
getal	-10.8851
▁commissaris	-10.8853
▁continenten	-10.8856
▁prominente	-10.8856
▁opmerkelijk	-10.8856
▁neus	-10.8857
▁kristal	-10.8859
▁vacuüm	-10.886
petersburg	-10.8861
▁overeenstemming	-10.8861
▁zeeuws	-10.8861
arium	-10.8861
waai	-10.8862
▁gangbare	-10.8864
▁lichtsnelheid	-10.8864
▁schedel	-10.8865
▁enschede	-10.8866
▁zeeniveau	-10.8867
▁rente	-10.8868
rink	-10.8871
▁stukje	-10.8874
ity	-10.8874
▁westelijk	-10.888
▁dik	-10.8881
▁eg	-10.8882
▁cri	-10.8885
▁sel	-10.8886
boven	-10.8887
▁nature	-10.8897
▁1932	-10.89
▁cast	-10.8903
oprichter	-10.8908
▁uitgever	-10.8908
▁protonen	-10.891
skerk	-10.891
▁longen	-10.8914
wil	-10.8914
▁handelingen	-10.8914
▁componenten	-10.892
product	-10.8921
▁julia	-10.8931
terreinen	-10.8932
▁toestellen	-10.8933
▁achterlijf	-10.8934
▁gehanteerd	-10.8934
▁radioactieve	-10.8935
▁drama	-10.8935
▁methaan	-10.8935
▁vooruitgang	-10.8935
▁stoom	-10.8937
▁ruimtevaart	-10.8937
▁alfred	-10.8939
fel	-10.8939
verenigingen	-10.8939
wedstrijd	-10.8942
▁besteed	-10.8943
kor	-10.8946
▁las	-10.8948
pra	-10.8948
▁larven	-10.8951
bodem	-10.8951
▁1815	-10.8954
verschillen	-10.8955
hop	-10.8955
reken	-10.8955
▁award	-10.896
▁vooruit	-10.8961
lok	-10.8962
▁tank	-10.8965
▁elementair	-10.8966
▁pruisisch	-10.8973
▁koor	-10.8975
jer	-10.8976
▁breedte	-10.8977
▁75	-10.8977
uff	-10.8979
▁drank	-10.8981
lands	-10.8981
▁vereerd	-10.8986
▁brusselse	-10.8992
bogen	-10.8992
poten	-10.8994
zand	-10.8994
▁strafrecht	-10.8997
▁ker	-10.8997
▁arafat	-10.9008
▁navolging	-10.9008
▁vrijmetselarij	-10.9008
▁classificatie	-10.9008
▁melodie	-10.9008
▁heinrich	-10.9008
▁christenunie	-10.9009
▁lokaal	-10.9009
▁texel	-10.901
songfestival	-10.901
▁vallei	-10.9011
wijn	-10.9015
▁hess	-10.9017
▁tijde	-10.902
▁legt	-10.9022
field	-10.9022
▁leeg	-10.9023
sleutel	-10.9024
pie	-10.9025
bord	-10.9026
▁1870	-10.9027
oude	-10.9027
show	-10.9027
▁benoemde	-10.9029
gebonden	-10.903
100	-10.9032
mutatie	-10.9033
bronnen	-10.9034
▁leidden	-10.9039
▁voegde	-10.904
rich	-10.904
▁heerschappij	-10.9041
cri	-10.9047
1,	-10.9049
▁day	-10.9049
schot	-10.9049
mijnen	-10.9049
ijver	-10.9051
samen	-10.9056
▁bern	-10.9058
▁katholieken	-10.9058
▁seizoenen	-10.9066
▁visserij	-10.9068
▁rassen	-10.9069
wetenschap	-10.9069
pes	-10.9072
▁(4	-10.9075
sfeer	-10.9076
stok	-10.9078
▁tor	-10.9079
▁pur	-10.9082
▁byzantium	-10.9083
▁hectare	-10.9083
▁astrologie	-10.9083
▁verwierf	-10.9083
▁organen	-10.9083
▁vloeibaar	-10.9083
artiest	-10.9083
▁isaac	-10.9085
▁ondergrond	-10.9086
▁neuro	-10.9087
protocol	-10.9088
▁leefgebied	-10.9089
▁aanslagen	-10.909
▁nijl	-10.9092
hn	-10.9098
▁geslachten	-10.9099
▁diploma	-10.9102
bedrijven	-10.9104
▁vikingen	-10.9108
virus	-10.9108
▁verf	-10.911
▁aar	-10.9113
▁magnetisch	-10.9116
▁onderscheiding	-10.9118
▁cijfer	-10.9119
▁pink	-10.9119
▁verbeterd	-10.912
ios	-10.9121
▁uitzonderingen	-10.9124
gro	-10.9124
="13	-10.9124
▁past	-10.9124
under	-10.9125
kool	-10.9126
mannen	-10.9129
▁afloop	-10.913
best	-10.9134
ijnen	-10.9135
▁indirect	-10.9139
▁berichten	-10.914
▁kalk	-10.9142
oven	-10.9143
▁middag	-10.9145
ijen	-10.9148
▁verbrand	-10.9154
streken	-10.9154
app	-10.9156
ret	-10.9156
varen	-10.9157
nagenoeg	-10.9158
▁achilles	-10.9158
▁bevorderen	-10.9158
▁magnesium	-10.9158
▁portugese	-10.9158
▁versterking	-10.9158
▁verzwakt	-10.9158
▁klm	-10.9158
▁betekenen	-10.9158
▁training	-10.9158
▁lpf	-10.9158
▁staatsgreep	-10.9159
maakt	-10.9159
▁smalle	-10.9159
▁sim	-10.9161
▁zwitserse	-10.9162
▁gedicht	-10.9162
▁dol	-10.9163
▁isotoop	-10.9163
spreek	-10.9168
▁tim	-10.9169
▁perm	-10.9173
feld	-10.9174
▁banen	-10.9177
▁noemden	-10.9178
klank	-10.9182
▁slachtoffer	-10.9185
rijden	-10.9188
ile	-10.9191
row	-10.9192
verzameling	-10.9195
▁beweerde	-10.9199
▁eiste	-10.9199
▁zond	-10.9202
▁hieraan	-10.9203
schouw	-10.9203
▁est	-10.9204
tom	-10.9207
▁stellingen	-10.9213
▁zuidoost	-10.9215
tti	-10.9216
▁oever	-10.9223
gam	-10.9223
▁verbinden	-10.9223
▁fabriek	-10.9224
cke	-10.9224
▁welk	-10.9227
▁sun	-10.9227
▁composities	-10.9232
▁gebleken	-10.9234
▁versterken	-10.9234
▁leuven	-10.9234
▁gezondheidszorg	-10.9234
▁relativiteits	-10.9234
▁ideologie	-10.9234
verbruik	-10.9234
lf	-10.9236
▁halfrond	-10.9236
▁romans	-10.9236
▁kanker	-10.9237
▁vermelding	-10.9238
▁tekende	-10.9239
orum	-10.9239
▁zong	-10.924
zur	-10.9241
bussen	-10.9252
afhankelijk	-10.9252
stabiel	-10.9255
bewust	-10.9256
▁kol	-10.9256
▁voegen	-10.926
▁magnetische	-10.9263
▁plus	-10.9265
vrijheid	-10.9265
▁zilveren	-10.9267
▁huur	-10.9268
▁base	-10.9271
dek	-10.9275
▁gaten	-10.9279
▁belangrijker	-10.9283
▁klap	-10.9285
moedig	-10.9289
▁vakbonden	-10.929
christ	-10.9292
6%	-10.9295
▁langste	-10.9297
▁diezelfde	-10.9301
▁proef	-10.9305
▁acteur	-10.9306
artikel	-10.9307
therapie	-10.931
▁beschikken	-10.931
▁benoeming	-10.931
▁beweegt	-10.931
▁waarneming	-10.9311
▁sym	-10.9312
▁pijn	-10.9312
▁eeuwenlang	-10.9314
rische	-10.9316
▁overleg	-10.9319
▁opeenvolgende	-10.9319
▁1916	-10.9321
▁island	-10.9324
ball	-10.9324
▁wim	-10.9327
▁jedi	-10.9329
verklaring	-10.9332
verschil	-10.9334
▁genen	-10.9335
▁schijn	-10.9339
▁stuw	-10.934
▁verstaan	-10.934
▁verwantschap	-10.9345
vraag	-10.9346
▁dochters	-10.9347
▁draait	-10.9357
oh	-10.9361
▁thee	-10.9362
sector	-10.9362
pool	-10.9362
volle	-10.9362
▁wortels	-10.9364
link	-10.9366
▁mode	-10.9371
▁boord	-10.9373
▁aanbod	-10.9375
▁compositie	-10.9376
▁wei	-10.9382
vision	-10.9383
▁verwijzing	-10.9383
motoren	-10.9383
▁"(	-10.9386
▁kring	-10.9387
▁reageert	-10.9387
▁society	-10.9387
▁taxonomie	-10.9387
▁dimensie	-10.9387
installatie	-10.9387
▁entropie	-10.9387
▁uitzonderlijk	-10.9387
▁vergroten	-10.9387
▁beieren	-10.9387
▁maximale	-10.9388
▁deeltje	-10.9388
▁concurrentie	-10.9389
▁thans	-10.9389
▁overleefd	-10.9389
▁ondertekend	-10.9391
▁brood	-10.9392
wedstrijden	-10.9392
bak	-10.9393
▁afgenomen	-10.9393
gir	-10.9395
▁bladeren	-10.9395
▁toetsen	-10.9398
▁47	-10.9398
▁angel	-10.9399
ladder	-10.9399
▁legers	-10.9405
kes	-10.9405
▁minderheden	-10.9406
veilig	-10.9408
frankrijk	-10.9412
▁bezitten	-10.9412
afrikaanse	-10.9413
▁sin	-10.9413
uiven	-10.9413
▁vertelt	-10.9415
lé	-10.9416
▁kir	-10.9419
ianus	-10.9422
▁bevoegdheid	-10.9422
speel	-10.9422
spannen	-10.9424
▁thi	-10.9426
▁kromme	-10.9427
▁zestiende	-10.9427
▁huwelijks	-10.9432
relatie	-10.9435
▁monniken	-10.9436
mijn	-10.9437
▁perfect	-10.9438
▁herb	-10.944
paard	-10.9447
▁ontwikkelings	-10.9451
wier	-10.9451
ito	-10.9457
▁html	-10.9457
▁competitie	-10.946
▁vermoed	-10.9461
▁gebeurtenis	-10.9462
▁artillerie	-10.9464
▁lijf	-10.9465
▁baby	-10.9466
▁oudsh	-10.9466
▁king	-10.9467
▁onrust	-10.9467
▁betrekkingen	-10.9473
▁vervolgd	-10.9476
▁run	-10.9477
▁rede	-10.9481
▁noordoost	-10.9482
▁wijzigingen	-10.9482
▁geleen	-10.9482
▁successen	-10.9485
ese	-10.9488
▁landelijk	-10.9488
horn	-10.9489
▁overgebracht	-10.9492
▁ruime	-10.9494
▁variatie	-10.9495
▁blind	-10.95
▁flora	-10.9503
▁zestien	-10.9503
="23	-10.9504
▁kopen	-10.9506
still	-10.9512
▁armen	-10.9513
▁principes	-10.9514
steken	-10.9517
delta	-10.9518
▁politicus	-10.9518
▁wachten	-10.9518
▁talent	-10.9526
▁oproep	-10.9527
▁ay	-10.9529
▁friese	-10.9531
▁gereed	-10.9532
▁schil	-10.9541
langebaanschaats	-10.9543
▁creëren	-10.9543
▁enzovoort	-10.9543
▁sediment	-10.9543
gedraaid	-10.9543
▁indonesië	-10.9543
▁studeren	-10.9543
▁overgedragen	-10.9543
▁eindigt	-10.9543
▁demografie	-10.9543
▁afgeschaft	-10.9543
▁nabijgelegen	-10.9543
▁atoomkern	-10.9543
▁echtgenoot	-10.9544
▁thora	-10.9544
▁parlementaire	-10.9548
itz	-10.9548
▁rotatie	-10.9549
▁gerechtelijk	-10.9549
▁graad	-10.9552
▁darm	-10.9552
▁fil	-10.9555
drijven	-10.9556
▁veldtocht	-10.9559
▁wales	-10.9559
▁paas	-10.956
▁latijns	-10.9562
bah	-10.9564
bach	-10.9568
etten	-10.9568
▁ken	-10.9571
afdeling	-10.9573
▁gekend	-10.9576
▁invoer	-10.9578
▁uiterste	-10.958
wagen	-10.9583
elli	-10.9584
▁uitslag	-10.9585
▁namens	-10.9588
▁master	-10.9591
="20	-10.9592
ines	-10.9592
▁cra	-10.9598
▁mindere	-10.9599
="24	-10.96
▁woning	-10.9604
▁williams	-10.9609
haar	-10.9609
▁kool	-10.9609
▁uitmaakt	-10.9613
▁hecht	-10.9616
▁cornelis	-10.9621
▁eduard	-10.9621
▁geaccepteerd	-10.9621
▁dreigde	-10.9621
▁naamgeving	-10.9621
▁saddam	-10.9621
▁respect	-10.9621
▁winterspelen	-10.9622
▁bewerkt	-10.9623
▁helling	-10.9623
stralen	-10.9625
sky	-10.9629
▁stedelijk	-10.9631
▁omschreven	-10.9632
▁wetboek	-10.9633
▁jongens	-10.9638
▁martel	-10.9639
rem	-10.9639
▁welvaart	-10.9643
▁wand	-10.9643
▁swa	-10.9644
▁felle	-10.9647
mechanisme	-10.9651
breuk	-10.9651
▁has	-10.9653
="28	-10.9654
▁merken	-10.9656
▁theoretische	-10.9657
woud	-10.9659
boot	-10.9664
▁cyclus	-10.9667
rutte	-10.9673
▁bouwwerken	-10.9675
▁maleis	-10.9675
4)	-10.9677
jar	-10.9687
stoot	-10.9687
mark	-10.9688
morf	-10.9689
loper	-10.9689
▁regeren	-10.9691
▁keizers	-10.9696
▁enig	-10.9697
▁nationalisme	-10.9697
oet	-10.9697
akte	-10.9698
wold	-10.9699
▁begrijpen	-10.9701
▁reputatie	-10.9701
▁parochie	-10.9701
▁statistiek	-10.9701
▁beperken	-10.9701
▁gelderland	-10.9701
▁adolf	-10.9701
▁interactie	-10.9703
▁troje	-10.9707
▁pest	-10.9708
gezond	-10.9711
▁5000	-10.9713
▁1915	-10.9714
▁stemde	-10.9714
▁system	-10.9716
kra	-10.9717
▁stor	-10.9717
nevel	-10.9718
▁strikt	-10.9719
stations	-10.972
▁600	-10.9721
erden	-10.9721
▁getij	-10.9722
germaanse	-10.9724
▁omliggende	-10.9724
houdt	-10.9725
▁telescoop	-10.9732
waaronder	-10.9736
cyclus	-10.9739
="26	-10.974
nationalistische	-10.9745
films	-10.9746
▁rechte	-10.9746
gno	-10.9747
▁free	-10.9749
▁extreme	-10.975
▁verdragen	-10.9754
▁daaraan	-10.9755
ming	-10.9755
mei	-10.9756
kampioenschappen	-10.9761
▁samenhang	-10.9762
▁omvatte	-10.9762
stadt	-10.9764
▁datering	-10.9767
▁klim	-10.9768
▁wissel	-10.9768
▁nauwe	-10.9772
▁opende	-10.9774
▁ev	-10.9778
leef	-10.9779
ffer	-10.9779
▁roos	-10.9781
▁verworven	-10.9781
▁vloeibare	-10.9781
▁collins	-10.9781
▁exacte	-10.9781
▁import	-10.9782
▁1908	-10.9788
▁sturen	-10.979
hydr	-10.9792
▁1925	-10.9793
▁fouten	-10.9793
banen	-10.9794
▁verspreidde	-10.9794
▁noten	-10.9796
▁main	-10.9796
▁gooi	-10.9796
flo	-10.9798
atomen	-10.9799
euze	-10.9799
▁draai	-10.98
fil	-10.9801
▁toeristische	-10.9802
eters	-10.9805
legging	-10.9805
▁academische	-10.9809
▁river	-10.981
▁turken	-10.9813
scan	-10.9814
▁zweeds	-10.9814
rust	-10.9817
deeltjes	-10.982
▁vasten	-10.9821
▁(7	-10.9821
overgang	-10.9821
▁sea	-10.9824
▁records	-10.9825
▁producent	-10.9828
▁verspreiden	-10.9829
bestand	-10.983
tekens	-10.9832
▁mr	-10.9836
spreken	-10.9836
▁julius	-10.9836
▁eb	-10.9838
▁artis	-10.9849
▁space	-10.9851
rechts	-10.9853
▁dak	-10.9853
▁stapte	-10.9855
▁dunne	-10.9855
▁greep	-10.986
configuratie	-10.9861
▁bijbehorend	-10.9861
▁catalonië	-10.9861
▁hasselt	-10.9861
▁heraclitus	-10.9861
▁immigratie	-10.9861
▁plaatsvindt	-10.9861
▁zeldzame	-10.9861
▁functioneren	-10.9862
▁iraanse	-10.9862
▁hamlet	-10.9862
▁merendeel	-10.9862
▁aziatische	-10.9862
▁aardolie	-10.9862
▁experimentele	-10.9864
▁1905	-10.9868
▁berust	-10.9869
▁elektronische	-10.9871
▁behield	-10.9871
zetel	-10.9872
braak	-10.9872
zy	-10.9872
▁1912	-10.9873
▁riet	-10.9873
▁permanent	-10.9873
▁grijs	-10.9876
▁pijp	-10.9879
▁meervoud	-10.9886
▁uitstoot	-10.9886
▁muren	-10.9886
gelegen	-10.9889
schrijven	-10.989
storm	-10.9891
slav	-10.9895
avond	-10.9896
begrip	-10.9897
▁bezette	-10.9899
▁voorts	-10.99
tour	-10.9902
sberg	-10.9904
rusland	-10.9904
▁donald	-10.9916
zag	-10.9919
▁openlijk	-10.9919
▁haags	-10.9921
▁chemisch	-10.9922
▁categorieën	-10.9925
▁fysieke	-10.9927
▁verhoudingen	-10.9928
▁gedachte	-10.9929
ical	-10.9933
poot	-10.9937
▁erfelijk	-10.9938
stond	-10.9938
▁aandelen	-10.9941
▁priemgetal	-10.9941
▁skelet	-10.9941
▁koolstofdioxide	-10.9943
▁litouwen	-10.9943
▁reguliere	-10.9943
▁wapenstilstand	-10.9943
▁unesco	-10.9943
▁claim	-10.9943
▁bezittingen	-10.9943
▁drugs	-10.9943
▁logica	-10.9943
▁decimale	-10.9943
omtrent	-10.9943
▁samengevoegd	-10.9944
▁gelre	-10.9944
▁ambitie	-10.9946
▁all	-10.9946
▁enz	-10.9947
▁aansluiting	-10.9948
rug	-10.9949
▁bestemming	-10.9949
▁toezicht	-10.995
▁wier	-10.995
waarden	-10.9952
▁gevangenis	-10.9955
▁hiertoe	-10.9956
▁mantel	-10.9956
schrijver	-10.9957
toria	-10.9959
burger	-10.9966
ée	-10.9968
alia	-10.9974
▁verkiezings	-10.9978
worm	-10.9979
computer	-10.9981
vergadering	-10.9982
tuin	-10.9982
ologen	-10.9983
▁apo	-10.9991
▁wezens	-10.9992
▁voorbereid	-10.9996
krans	-10.9996
▁juridische	-11.0001
▁zwem	-11.0006
aba	-11.0009
lezen	-11.001
▁enzym	-11.0011
latijn	-11.0011
▁aankomst	-11.0013
illy	-11.0018
▁kanton	-11.0019
▁financiën	-11.0025
▁impressionist	-11.0025
▁pythagoras	-11.0025
▁kafka	-11.0025
▁madrid	-11.0025
▁minuut	-11.0025
▁hazes	-11.0025
▁minimaal	-11.0025
ministr	-11.0027
▁werkloosheid	-11.0027
tenzij	-11.0028
▁unix	-11.003
▁1931	-11.0032
▁meisjes	-11.0033
▁moedertaal	-11.0033
ionen	-11.0033
▁cello	-11.0035
▁feesten	-11.0037
▁jura	-11.0041
▁vierkante	-11.0045
rijp	-11.0053
orden	-11.0054
town	-11.0056
munt	-11.0056
▁banken	-11.006
concentratiekamp	-11.006
dio	-11.0065
srecht	-11.0065
golven	-11.0066
volt	-11.0066
omstandigheden	-11.0067
▁regeling	-11.007
verhouding	-11.0071
zanger	-11.0072
▁tan	-11.0075
▁range	-11.0076
leu	-11.0078
▁meng	-11.008
▁lidmaatschap	-11.0082
gevangen	-11.0084
▁federatie	-11.0087
▁protestanten	-11.0094
▁radicale	-11.0096
▁herhaald	-11.0097
▁55	-11.0102
▁infanterie	-11.0103
▁dwerg	-11.0105
▁beschadigd	-11.0107
▁verdreven	-11.0107
▁evenredig	-11.0107
subsidie	-11.0107
▁uiteenlopende	-11.0108
▁kwijt	-11.0108
▁motorfiets	-11.0108
▁smith	-11.011
bul	-11.0111
▁afgebroken	-11.0111
▁harry	-11.0111
▁coup	-11.0112
▁hugo	-11.0112
goud	-11.0113
3.000	-11.0114
denk	-11.0114
▁bronzen	-11.0118
▁1911	-11.0118
ics	-11.0118
▁rijkdom	-11.0118
face	-11.0119
▁bekendgemaakt	-11.0121
▁kocht	-11.0123
duur	-11.0124
▁1890	-11.0124
▁testen	-11.0128
▁fins	-11.0129
▁20.000	-11.0129
zend	-11.013
▁zorgden	-11.013
▁rollen	-11.0132
▁klok	-11.0134
▁zwakke	-11.0135
▁sporten	-11.0138
▁roer	-11.0138
kleed	-11.0143
▁ontmoet	-11.0144
▁gebed	-11.0145
breking	-11.0147
belasting	-11.0149
staand	-11.0151
rock	-11.0153
kal	-11.0157
▁besluiten	-11.0162
verse	-11.0163
ory	-11.0167
▁loopbaan	-11.0171
sim	-11.0178
lib	-11.0179
▁brussels	-11.0181
▁paren	-11.0182
agon	-11.0184
▁41	-11.0186
makers	-11.0187
▁veldslag	-11.0188
membraan	-11.0191
▁autonome	-11.0191
▁decennium	-11.0191
▁geconcentreerd	-11.0191
▁interessant	-11.0191
▁overijssel	-11.0191
▁vermeende	-11.0191
▁gustav	-11.0191
▁arthur	-11.0191
reële	-11.0192
▁exact	-11.0193
▁voorstander	-11.0193
comp	-11.0195
▁43	-11.0196
▁(12	-11.0197
tekeningen	-11.0204
▁poort	-11.0209
▁logo	-11.021
▁individuen	-11.0211
▁1850	-11.022
▁indiase	-11.022
▁leon	-11.0221
▁inname	-11.0222
▁spoorwegen	-11.0227
meestal	-11.0235
▁eed	-11.0235
adem	-11.0236
▁gevechten	-11.0236
gerekend	-11.0237
continent	-11.0238
snel	-11.0238
concert	-11.0239
▁gebruiker	-11.0241
▁kwantum	-11.0244
national	-11.0247
▁achteruit	-11.025
ika	-11.025
element	-11.0253
lief	-11.0255
blo	-11.0259
▁raakt	-11.026
teelt	-11.0268
ère	-11.0269
boe	-11.027
moon	-11.0272
▁vlinder	-11.0272
▁mata	-11.0273
▁autonomie	-11.0275
▁diagnose	-11.0275
▁ontwierp	-11.0275
▁pakistan	-11.0275
▁historicus	-11.0275
▁mulisch	-11.0275
▁thermodynamica	-11.0275
▁boeddhistische	-11.0275
▁reuzen	-11.0275
▁gelijktijdig	-11.0275
▁reageerde	-11.0275
science	-11.0275
▁varkens	-11.0275
▁instelling	-11.0276
▁dirk	-11.0277
nitraat	-11.0277
▁davis	-11.0277
▁belast	-11.0278
▁schilderen	-11.0279
unk	-11.028
▁toegelaten	-11.028
voorziening	-11.028
▁verliep	-11.0287
▁takken	-11.0289
▁1910	-11.029
▁sar	-11.029
▁omringend	-11.0293
▁district	-11.0295
▁dichters	-11.0298
▁bereik	-11.03
▁palm	-11.0303
6.000	-11.0305
ches	-11.0307
offer	-11.0308
gaf	-11.031
mens	-11.0312
▁verkiezing	-11.0312
▁(5	-11.0318
▁meteor	-11.0318
▁voorgaande	-11.0318
cd	-11.032
heilig	-11.0321
meren	-11.0325
wie	-11.0325
3.	-11.0327
server	-11.0329
▁alfa	-11.033
▁stichtte	-11.0333
▁cit	-11.0334
▁concentraties	-11.0334
▁havens	-11.0336
zz	-11.0339
▁lichamen	-11.0339
vrije	-11.0339
▁krachtige	-11.034
gotisch	-11.0341
ao	-11.0344
oei	-11.0345
lers	-11.0345
roy	-11.0347
▁bok	-11.0348
▁binnenland	-11.0348
lopende	-11.0353
▁isis	-11.0354
gingen	-11.0354
▁verleend	-11.0355
sels	-11.0356
function	-11.0359
rog	-11.0359
▁begrafenis	-11.0359
▁executie	-11.0359
▁gearresteerd	-11.0359
▁gewenste	-11.0359
▁geïnteresseerd	-11.0359
▁herinnering	-11.0359
▁hoofdstedelijk	-11.0359
▁kardinaal	-11.0359
▁venetië	-11.0359
▁hoofdstuk	-11.0362
▁krijgs	-11.0362
▁grondstoffen	-11.0363
republikeinse	-11.0365
▁verkopen	-11.0366
tius	-11.0366
▁verzamel	-11.0366
▁scoorde	-11.0367
▁1926	-11.0369
▁schotse	-11.0373
▁schapen	-11.0376
▁socio	-11.0376
▁center	-11.0378
▁1880	-11.0382
▁achttiende	-11.0383
▁wieler	-11.0384
▁verst	-11.0384
▁opslag	-11.0385
▁fonds	-11.039
▁nogal	-11.0392
▁voorouders	-11.0392
▁bereikbaar	-11.0394
–1	-11.0395
schild	-11.0399
▁notatie	-11.0399
▁wereldkampioen	-11.0399
nium	-11.0402
▁flor	-11.0403
kens	-11.0404
▁mid	-11.0404
tron	-11.0407
klein	-11.0407
▁middelste	-11.0408
thal	-11.0408
▁uitstekend	-11.0408
▁tekeningen	-11.041
roll	-11.0411
duin	-11.0412
zan	-11.0413
drie	-11.0416
blauw	-11.0423
stij	-11.0425
▁dergelijk	-11.0428
▁opgelegd	-11.0431
▁adam	-11.0435
order	-11.044
▁café	-11.044
▁zenuw	-11.0445
▁compleet	-11.0445
▁spirituele	-11.0445
variëteit	-11.0445
▁gepresenteerd	-11.0445
▁overtuiging	-11.0445
▁lennon	-11.0445
▁bondgenoten	-11.0445
affaire	-11.0446
verkochte	-11.0446
socialisme	-11.0446
▁schild	-11.0446
▁vernieuwd	-11.0447
▁argument	-11.0449
horst	-11.045
▁pomp	-11.045
▁geladen	-11.0454
oire	-11.0454
eeuw	-11.0455
▁contrast	-11.0457
▁posities	-11.0457
grafisch	-11.0458
▁roger	-11.0458
▁steunde	-11.0458
▁weinige	-11.0459
mag	-11.0459
list	-11.0462
phi	-11.0467
▁behaald	-11.0468
nieuwe	-11.0469
▁vertalingen	-11.0471
▁finse	-11.0472
alhoe	-11.0481
part	-11.0481
onia	-11.0483
▁programmeertaal	-11.0484
▁oceanen	-11.0485
▁proza	-11.0485
▁american	-11.0488
▁beperkingen	-11.0489
ato	-11.0489
▁appel	-11.0493
▁mits	-11.0494
▁ongeluk	-11.05
▁lake	-11.0501
ractievoorzitter	-11.0501
trouw	-11.0501
▁hermann	-11.0502
▁ondergaan	-11.0504
▁stijgen	-11.0506
tech	-11.0506
dracht	-11.0506
gelegenheden	-11.051
▁wethouders	-11.0514
spelers	-11.0514
▁just	-11.0515
zak	-11.0517
▁balkenende	-11.0519
▁vriendschap	-11.0519
zonder	-11.052
▁varen	-11.0523
duct	-11.0524
▁wettelijke	-11.0525
kaarten	-11.0527
pad	-11.0528
▁bescheiden	-11.0531
▁aangevuld	-11.0531
▁dikwijls	-11.0531
▁dwong	-11.0531
▁promotie	-11.0531
▁territorium	-11.0531
▁dictator	-11.0531
▁afkorting	-11.0531
ademhaling	-11.0531
▁synoniem	-11.0531
▁bijeenkomst	-11.0531
▁wilhelmina	-11.0532
sleep	-11.0532
▁fauna	-11.0534
▁hierboven	-11.0535
erijen	-11.0535
▁inwonertal	-11.0537
▁37	-11.0537
▁liepen	-11.0538
▁kenden	-11.0544
▁piet	-11.0545
tine	-11.0545
waal	-11.0547
▁doper	-11.0556
▁acties	-11.0558
▁zoom	-11.0558
▁koud	-11.0561
moeder	-11.0562
▁rat	-11.0565
ruis	-11.0567
dame	-11.0567
▁daling	-11.0568
▁ambtenaren	-11.0569
▁parti	-11.0574
osa	-11.0575
▁standbeeld	-11.0577
olo	-11.0578
▁hari	-11.0579
▁liter	-11.0579
dubbel	-11.0583
klassieke	-11.0587
▁nachts	-11.0587
▁eet	-11.0588
▁neanderthalers	-11.0588
tank	-11.0591
▁gewoonte	-11.0591
▁locaties	-11.0595
▁verlopen	-11.0596
▁arch	-11.0602
▁circuit	-11.0602
▁trompet	-11.0602
▁verzameld	-11.0606
gif	-11.0607
▁gegroeid	-11.0607
▁bevolkings	-11.0609
orkest	-11.0613
▁opgerichte	-11.0613
niklaas	-11.0618
▁agglomeratie	-11.0618
▁argentinië	-11.0618
▁beschuldigd	-11.0618
▁canadese	-11.0618
▁ingenieur	-11.0618
▁linnaeus	-11.0618
▁socrates	-11.0618
▁verdedigd	-11.0618
▁reptielen	-11.0618
▁verzamelen	-11.0619
▁podium	-11.0619
▁44	-11.062
▁beetje	-11.062
▁reizigers	-11.062
▁maximum	-11.062
▁letland	-11.0622
▁robot	-11.0622
▁ideale	-11.0624
verwerking	-11.0624
▁heiligen	-11.0625
▁gemengd	-11.0629
▁buur	-11.0629
▁depressie	-11.063
-0	-11.0631
bad	-11.0633
▁voeding	-11.0635
box	-11.0635
kwantummechanica	-11.0636
jong	-11.0639
koel	-11.064
▁onderhouden	-11.064
cep	-11.0643
▁opgedeeld	-11.0644
▁gymnasium	-11.0645
▁mechanische	-11.0651
▁textiel	-11.0654
▁vervallen	-11.0654
▁nederlandstalig	-11.0662
iro	-11.0665
▁regeerde	-11.0666
glo	-11.0667
▁scherm	-11.0672
▁klassiek	-11.0675
▁uitkomst	-11.0675
▁dertien	-11.0683
▁najaar	-11.0684
▁misbruik	-11.069
▁tempels	-11.069
uck	-11.069
▁betaling	-11.0692
300	-11.0695
▁lidwoord	-11.0695
▁az	-11.0695
▁lind	-11.0699
▁spier	-11.0699
werf	-11.0702
▁hervorming	-11.0704
▁scheikunde	-11.0706
▁sinterklaas	-11.0706
▁verwarring	-11.0706
▁verwijderen	-11.0706
▁diplomatieke	-11.0706
▁scandinavië	-11.0706
▁gerealiseerd	-11.0706
▁racisme	-11.0706
▁mandela	-11.0706
denken	-11.0706
▁bob	-11.0707
▁bewustzijn	-11.0707
▁rum	-11.0707
▁slaap	-11.0707
kli	-11.0708
▁register	-11.0709
▁bovenstaande	-11.071
▁aardbeving	-11.0713
▁henry	-11.0715
singel	-11.0715
melo	-11.0717
▁wonnen	-11.0726
▁portret	-11.0727
▁koningschap	-11.0728
klier	-11.0731
commissie	-11.0732
▁versch	-11.0734
▁keten	-11.0734
▁hera	-11.0738
▁monding	-11.0739
▁48	-11.0739
iviteit	-11.0741
escu	-11.0744
▁uniek	-11.0747
-3	-11.0748
▁heersers	-11.0753
▁algoritme	-11.0755
▁mountains	-11.0758
elementen	-11.0759
principe	-11.0764
▁ditmaal	-11.0766
▁aanvoer	-11.0778
dicht	-11.0782
▁pools	-11.0785
mede	-11.0787
▁ep	-11.0787
wy	-11.0789
day	-11.0792
▁aminozuren	-11.0794
▁diabetes	-11.0794
▁fenomeen	-11.0794
▁mussolini	-11.0794
▁première	-11.0794
▁trabzon	-11.0794
▁basketbal	-11.0794
▁politici	-11.0794
▁drinken	-11.0794
▁verborgen	-11.0794
▁documentaire	-11.0796
▁romantiek	-11.0796
▁aardoppervlak	-11.08
▁malta	-11.0801
▁aqua	-11.0802
▁pyr	-11.0804
▁maatschappelijk	-11.0804
▁bill	-11.0805
▁that	-11.0805
▁petro	-11.0806
godin	-11.0811
▁voetbalclub	-11.0811
pieters	-11.0811
▁levend	-11.0813
▁pand	-11.0814
▁wad	-11.0818
▁hoopte	-11.0823
▁artistieke	-11.0828
▁db	-11.0834
ain	-11.0834
▁wijs	-11.0838
▁verbeterde	-11.0838
lecht	-11.0842
▁schat	-11.0843
▁0,0	-11.0846
rechter	-11.0846
▁verdachte	-11.085
fonds	-11.0852
▁seksueel	-11.0852
▁stadhuis	-11.0854
sterkte	-11.0855
▁(6	-11.0857
drong	-11.0863
▁beloofde	-11.0864
pijn	-11.0865
beke	-11.0865
▁pil	-11.0869
twee	-11.0869
noot	-11.0871
▁toenemen	-11.0874
wetten	-11.0875
▁one	-11.0876
▁gedachten	-11.0877
vergelijk	-11.0879
,3%	-11.0879
▁abstracte	-11.0883
▁advocaat	-11.0883
▁primitieve	-11.0883
▁reformatie	-11.0883
▁werkgelegenheid	-11.0883
▁london	-11.0884
▁kilogram	-11.0884
▁diversiteit	-11.0884
▁afgewezen	-11.0885
▁fysische	-11.0885
▁effectief	-11.0885
▁inzake	-11.0886
▁plu	-11.0886
▁vertoond	-11.0887
▁laken	-11.0888
▁nobel	-11.0889
aarde	-11.0891
▁scherpe	-11.0892
▁geldig	-11.0894
▁voorzieningen	-11.0894
▁noordwest	-11.0896
,1%	-11.09
▁groeit	-11.0902
alistische	-11.0905
▁nederzettingen	-11.0909
▁1800	-11.0909
▁faculteit	-11.0909
kv	-11.0914
▁public	-11.0926
▁nederlander	-11.0927
making	-11.0927
ramp	-11.0929
gedreven	-11.0931
▁sax	-11.094
atio	-11.0942
▁motie	-11.0942
patroon	-11.0946
▁por	-11.0948
▁achttien	-11.0949
▁tam	-11.0953
▁officier	-11.0954
ledig	-11.0957
="21	-11.0957
nov	-11.0957
▁geslagen	-11.0961
▁she	-11.0964
▁beslag	-11.0968
▁vrijwillig	-11.097
masker	-11.097
▁benadrukt	-11.0974
▁beëindigd	-11.0974
▁expansie	-11.0974
▁gecreëerd	-11.0974
▁gepleegd	-11.0974
▁teruggevonden	-11.0974
▁bourgondië	-11.0974
▁hadrianus	-11.0974
▁nuttig	-11.0974
▁uitgangspunt	-11.0974
▁gödel	-11.0974
▁tabak	-11.0975
bewegingen	-11.0975
▁punk	-11.0976
twist	-11.0977
▁maya	-11.0977
▁zomers	-11.0979
▁weergave	-11.098
▁algen	-11.0981
▁gewond	-11.0983
▁aandoening	-11.0983
▁marcus	-11.0983
kind	-11.0983
▁1913	-11.0985
▁gezonde	-11.0986
▁dorps	-11.0986
▁lichter	-11.0987
▁personage	-11.099
hall	-11.0995
▁schol	-11.0996
▁patroon	-11.1001
1)	-11.1002
▁klinkers	-11.1002
class	-11.1003
▁stroomgebied	-11.1004
mix	-11.1005
▁bil	-11.1007
▁kantoor	-11.1008
alisatie	-11.1009
arr	-11.1011
▁hoogst	-11.1011
kast	-11.1012
zones	-11.1013
▁macro	-11.1015
▁verdelen	-11.1015
gul	-11.1019
liggende	-11.1025
▁mary	-11.1028
▁dodelijk	-11.1029
▁mechanisme	-11.103
▁verloopt	-11.1033
▁lossen	-11.1033
partner	-11.104
▁projecten	-11.1041
stone	-11.1041
▁aangevallen	-11.1044
kosten	-11.1044
card	-11.1051
vecht	-11.1053
factor	-11.1053
▁incident	-11.1053
▁gezelschap	-11.106
▁sciencefiction	-11.1064
▁cauchy	-11.1064
▁geïntegreerd	-11.1064
▁ludwig	-11.1064
▁ontsnappen	-11.1064
▁optreedt	-11.1064
▁poseidon	-11.1064
▁saturnus	-11.1064
▁duivel	-11.1064
▁verklaart	-11.1064
▁verminderen	-11.1065
▁hielp	-11.1065
▁bolivia	-11.1065
▁sinaï	-11.1065
time	-11.1065
▁overtuigen	-11.1065
▁stuur	-11.1066
ïsche	-11.1067
▁etappe	-11.1067
▁eitjes	-11.1067
▁verhoogde	-11.107
▁eigenaar	-11.107
momenteel	-11.1072
▁boter	-11.1072
▁taalfamilie	-11.1073
▁aspect	-11.1075
▁explosie	-11.1076
▁1795	-11.1082
▁hot	-11.1086
▁nek	-11.1087
▁consumenten	-11.1088
▁canon	-11.109
▁rotor	-11.1094
▁span	-11.1094
kapel	-11.1097
hij	-11.1102
▁ensor	-11.1102
▁rec	-11.1106
▁verstand	-11.1106
▁philipp	-11.1111
enberg	-11.1112
▁oogst	-11.1112
rond	-11.1113
▁uitvoerende	-11.1119
▁waarover	-11.1129
▁weder	-11.1131
pagina	-11.1132
bundel	-11.1132
italië	-11.1133
congres	-11.1134
kampioenschap	-11.1134
bloem	-11.1135
="12	-11.1136
="10	-11.1138
set	-11.1142
▁up	-11.1143
▁vertelde	-11.1144
▁equivalent	-11.1147
blazen	-11.1147
▁schepping	-11.115
▁buitenste	-11.1151
uli	-11.1152
fabrikant	-11.1155
▁onderneming	-11.1155
▁barcelona	-11.1156
▁goedgekeurd	-11.1156
▁kapitein	-11.1156
▁vietnam	-11.1156
▁alexandrië	-11.1156
▁intensieve	-11.1156
demonstratie	-11.1156
▁getiteld	-11.1156
▁erkennen	-11.1156
buis	-11.1157
▁gestegen	-11.1157
▁theodor	-11.1158
▁koste	-11.1159
▁machten	-11.116
datum	-11.1161
▁enigma	-11.1162
▁ondiep	-11.1162
▁cobra	-11.1162
▁schrik	-11.1162
▁sumer	-11.1162
banden	-11.1164
▁1901	-11.1166
▁1904	-11.1166
tafel	-11.1168
▁script	-11.117
vocht	-11.1172
▁1814	-11.1172
▁paste	-11.1174
onnen	-11.1176
▁beleids	-11.1179
ulus	-11.1183
▁salon	-11.1186
▁vreemde	-11.119
▁700	-11.119
sdichtheid	-11.1191
instrumenten	-11.1192
▁grootheden	-11.1196
▁fc	-11.1198
▁gene	-11.1198
rood	-11.12
▁overstromingen	-11.1201
▁boy	-11.1203
wallen	-11.1204
▁out	-11.1205
▁primaire	-11.1208
▁mau	-11.121
▁hing	-11.1213
stemming	-11.1217
▁filip	-11.1219
hai	-11.1224
grenzen	-11.1224
="11	-11.1224
▁luid	-11.1225
theater	-11.1227
formule	-11.1227
ontwerp	-11.1229
▁architecten	-11.1231
▁stoel	-11.1233
vuur	-11.1234
▁generaties	-11.1241
▁processor	-11.1247
▁linie	-11.1247
▁und	-11.1247
▁gil	-11.1248
▁geregistreerd	-11.1249
▁reclame	-11.1249
▁wetsvoorstel	-11.1249
▁eyck	-11.1249
▁gauss	-11.1249
▁mount	-11.1249
▁hollywood	-11.125
▁petrus	-11.125
▁adellijke	-11.1251
▁christen	-11.1251
▁scheiden	-11.1251
▁engelstalige	-11.1251
▁bbc	-11.1251
▁leraar	-11.1252
▁vertrekken	-11.1253
vormig	-11.1253
▁spoedig	-11.1253
▁bevriend	-11.1254
▁stadsdeel	-11.1254
▁ruimtelijke	-11.1255
▁gestart	-11.1256
▁1906	-11.1256
▁zaal	-11.1257
gelopen	-11.1257
tering	-11.1258
▁gestemd	-11.1262
▁verteld	-11.1262
▁kringen	-11.1263
far	-11.1263
dragen	-11.1265
ares	-11.1265
▁schok	-11.1265
▁gelezen	-11.1266
zout	-11.127
▁feiten	-11.127
media	-11.1271
▁kapel	-11.1272
turen	-11.1272
wak	-11.1281
▁bijbelse	-11.1281
▁romeins	-11.1281
▁house	-11.1282
▁vrijdag	-11.1285
▁afgeleide	-11.1287
▁paris	-11.1291
eff	-11.1293
▁aannemen	-11.1293
,7%	-11.1296
▁zwemmen	-11.1296
natur	-11.1296
broeder	-11.1296
▁technisch	-11.1297
▁tand	-11.1301
▁röntgen	-11.1305
technieken	-11.1308
specialist	-11.1313
▁autoriteit	-11.1313
sloeg	-11.1314
▁ae	-11.1316
▁doelpunt	-11.1317
▁veertien	-11.1317
graf	-11.1319
▁apen	-11.132
▁ap	-11.1322
ongeveer	-11.1322
▁eli	-11.1324
▁adem	-11.1324
uth	-11.1324
variant	-11.1325
▁ever	-11.1327
moord	-11.1327
blijven	-11.1329
▁manen	-11.133
▁moeilijker	-11.1332
▁impressionisme	-11.1334
bau	-11.1334
▁genetisch	-11.1335
▁dij	-11.1335
pin	-11.1339
oefening	-11.1339
▁bloot	-11.1341
biliteit	-11.1342
ontsteking	-11.1342
lengte	-11.1342
▁arabieren	-11.1342
▁carnaval	-11.1342
▁fascisme	-11.1342
▁sanskriet	-11.1342
▁wallonië	-11.1342
▁fosfor	-11.1342
management	-11.1342
▁berekenen	-11.1342
exodus	-11.1342
▁professor	-11.1342
▁sperma	-11.1342
▁stabiliteit	-11.1343
▁edward	-11.1343
moskee	-11.1343
▁verbouwd	-11.1344
▁ny	-11.1346
▁fin	-11.1348
plooi	-11.1349
▁bisschoppen	-11.1349
▁bewoning	-11.1349
▁juda	-11.1351
▁sab	-11.1351
▁slaat	-11.1353
▁hirs	-11.1354
▁planetoïden	-11.1354
winter	-11.1354
▁voorouder	-11.1356
eisen	-11.1357
▁zijden	-11.1358
▁buik	-11.1364
▁verplaatsen	-11.1372
▁snelweg	-11.1373
rijder	-11.1378
▁optredens	-11.1382
term	-11.1389
work	-11.1389
▁burgemeesters	-11.139
▁watson	-11.1394
▁schattingen	-11.1397
="22	-11.1399
▁berekeningen	-11.1401
▁len	-11.1406
▁afdelingen	-11.1409
▁traject	-11.1413
provincie	-11.1418
gewone	-11.1419
gewicht	-11.142
christelijke	-11.142
▁maagd	-11.1423
hoge	-11.1424
▁bod	-11.1427
▁verhoogd	-11.1431
versnelling	-11.1432
▁historie	-11.1433
▁gesprek	-11.1434
▁placebo	-11.1437
▁aartsbisschop	-11.1437
▁amnesty	-11.1437
▁gelanceerd	-11.1437
▁mercurius	-11.1437
▁vermijden	-11.1437
▁volgelingen	-11.1437
uitbarsting	-11.1437
▁tijdstip	-11.1437
▁loon	-11.1437
▁getoond	-11.1437
▁who	-11.1438
▁beslaat	-11.1438
▁afwezigheid	-11.1439
▁balkan	-11.1439
pionier	-11.144
▁hoofdkwartier	-11.144
▁uitgeverij	-11.1443
waan	-11.1446
klep	-11.1446
▁eco	-11.1447
▁tempo	-11.1448
▁kortweg	-11.1448
▁stijging	-11.1452
▁arena	-11.1454
▁botten	-11.1455
▁pim	-11.1457
▁georges	-11.1463
tempel	-11.1464
▁luidt	-11.1464
▁roland	-11.1465
meting	-11.1469
▁plaatste	-11.1471
landschap	-11.1474
▁acc	-11.1475
▁commando	-11.1484
krachten	-11.1486
aï	-11.1488
steek	-11.1488
▁ingericht	-11.1489
▁horeca	-11.1495
▁stu	-11.1497
lever	-11.1497
▁romeo	-11.1499
▁fietsen	-11.1501
moer	-11.1503
ijl	-11.1504
vb	-11.1509
wood	-11.1517
▁commandant	-11.1521
▁bands	-11.1524
▁machines	-11.1526
▁treinen	-11.1527
▁vuurwerk	-11.1528
▁ijzeren	-11.1528
▁kolom	-11.1529
▁ambacht	-11.1529
▁francis	-11.153
vervuiling	-11.153
▁aardkorst	-11.1532
▁restauratie	-11.1532
▁rudolf	-11.1532
▁slovenië	-11.1532
▁uitgestrekt	-11.1532
columbia	-11.1532
▁gezongen	-11.1532
▁schonk	-11.1532
▁supernova	-11.1532
▁presenteerde	-11.1532
-10	-11.1534
▁alchemist	-11.1534
▁stadsrechten	-11.1535
vita	-11.1537
▁luchtdruk	-11.154
▁geloofde	-11.1542
ott	-11.1547
back	-11.1547
staf	-11.1548
▁protestant	-11.1549
holte	-11.1552
▁dringen	-11.1554
▁maag	-11.1561
▁unieke	-11.1562
▁app	-11.1563
schappen	-11.1563
▁vinger	-11.1576
▁hals	-11.1579
hou	-11.158
kruid	-11.158
blokken	-11.1585
▁mit	-11.1588
straf	-11.1589
eugen	-11.159
▁overheden	-11.1593
▁sluit	-11.1599
pec	-11.1599
▁heerser	-11.1599
▁orthodoxe	-11.1602
▁bez	-11.1603
▁strafbaar	-11.1604
▁sfeer	-11.1604
▁nr	-11.1604
▁burcht	-11.161
▁voer	-11.1613
▁stille	-11.1617
pont	-11.162
▁nadeel	-11.1622
gram	-11.1624
▁anatolië	-11.1628
▁beoefend	-11.1628
▁gestorven	-11.1628
▁sicilië	-11.1628
▁university	-11.1628
sulfaat	-11.1628
▁assistent	-11.1629
▁sprint	-11.1629
▁lenzen	-11.163
▁popmuziek	-11.1631
▁expositie	-11.1632
▁hoofdletter	-11.1632
▁inspiratie	-11.1632
▁vervuld	-11.1632
▁queen	-11.1634
▁behalen	-11.1634
▁taalgebied	-11.1637
▁doe	-11.1639
▁persoonlijkheid	-11.164
▁hangen	-11.1645
▁green	-11.1645
▁omgeven	-11.1649
▁kaas	-11.1649
ïsme	-11.1663
▁smal	-11.1665
▁lek	-11.1667
cycl	-11.167
zang	-11.1671
▁10%	-11.1675
▁audio	-11.1675
pil	-11.1685
▁geologische	-11.1689
▁radi	-11.1693
▁keur	-11.1696
▁regisseur	-11.1697
kennis	-11.1697
▁revolutionaire	-11.1698
▁norm	-11.1699
▁priesters	-11.1702
▁dienden	-11.1702
yu	-11.1703
▁bestuurder	-11.1703
▁kenmerkt	-11.1704
▁stopte	-11.1705
bid	-11.1712
geluid	-11.1713
▁seth	-11.1714
aap	-11.1722
▁afspraken	-11.1725
▁copernicus	-11.1725
▁katalysator	-11.1725
▁onjuist	-11.1725
▁gecontroleerd	-11.1725
▁berucht	-11.1725
▁verticale	-11.1725
▁turner	-11.1725
▁vertellen	-11.1725
▁uitvinder	-11.1725
▁senator	-11.1725
▁postzegel	-11.1726
▁raket	-11.1726
▁objectief	-11.1726
▁blues	-11.1728
▁ijslands	-11.1729
▁continentale	-11.1729
▁maaltijd	-11.1729
▁sterft	-11.1729
▁gering	-11.1733
▁mijnbouw	-11.1733
▁hogeschool	-11.1733
lijden	-11.1734
ër	-11.1734
▁opgeleid	-11.1736
▁centra	-11.1737
▁avi	-11.1739
▁joe	-11.174
▁beslissingen	-11.174
▁home	-11.1742
▁voorstellingen	-11.1745
▁north	-11.1745
winnaar	-11.1745
▁definities	-11.1748
oever	-11.1749
▁1600	-11.1749
una	-11.1751
▁held	-11.1756
syn	-11.1758
▁beschikte	-11.1761
▁schone	-11.1762
sprekende	-11.1764
swet	-11.1765
▁compagnie	-11.177
▁breidde	-11.177
▁schrijf	-11.1771
▁mach	-11.1778
▁stel	-11.1778
▁part	-11.1778
▁gelovigen	-11.1782
▁hyper	-11.1784
▁franz	-11.1788
▁artsen	-11.1789
,8%	-11.179
korps	-11.1798
▁welsh	-11.1798
ward	-11.1799
▁geloofs	-11.1802
▁gebeurd	-11.1806
software	-11.1806
slot	-11.1814
dalen	-11.1819
▁platform	-11.1821
▁joods	-11.1822
▁servië	-11.1822
▁medisch	-11.1823
▁vluchtte	-11.1823
▁axioma	-11.1823
▁opgewekt	-11.1823
▁halfgeleider	-11.1823
▁roemeense	-11.1825
▁diersoorten	-11.1825
tele	-11.1825
▁bacterie	-11.1826
▁huisarts	-11.1826
▁uyl	-11.1827
▁invloedrijke	-11.1828
▁liever	-11.1828
gewisseld	-11.1829
niettemin	-11.1829
▁doelstelling	-11.183
▁gallië	-11.1831
zakken	-11.1832
▁trend	-11.1833
▁perioden	-11.1833
▁bruto	-11.1834
▁morgen	-11.1836
▁kritische	-11.1837
▁ionen	-11.1837
▁1909	-11.1837
▁fan	-11.1839
defini	-11.1842
▁kruistocht	-11.1843
▁dante	-11.1848
▁opgravingen	-11.1849
▁onderverdeling	-11.1851
▁ervaringen	-11.1854
▁drong	-11.1855
spiegel	-11.1855
▁karakteristieke	-11.1858
▁gebroken	-11.1858
▁richtingen	-11.1861
▁volksver	-11.1864
▁aardse	-11.1865
cross	-11.1866
▁get	-11.1867
dingen	-11.1868
▁budget	-11.1868
▁...	-11.1872
▁with	-11.1874
gier	-11.1875
▁lap	-11.1876
▁isaak	-11.1877
▁opnemen	-11.188
vloer	-11.1881
▁cop	-11.1882
anisme	-11.1883
400	-11.1884
ijk	-11.1885
beat	-11.1887
cp	-11.1887
▁omgekeerde	-11.1888
▁verantwoord	-11.1889
▁klinker	-11.1891
breng	-11.1891
▁tegenwoordige	-11.1895
▁consul	-11.1896
▁staande	-11.1896
▁voorganger	-11.1897
lijsten	-11.1899
boog	-11.19
▁spechten	-11.1905
droeg	-11.191
analyse	-11.1913
object	-11.1913
gespeeld	-11.1915
woning	-11.1915
▁grot	-11.1918
▁gevechts	-11.192
▁herdenking	-11.1922
▁antarctica	-11.1922
▁heydrich	-11.1922
▁iraakse	-11.1922
▁manuscript	-11.1922
▁michaël	-11.1922
▁uitgevonden	-11.1922
▁voortzetting	-11.1922
▁bohemen	-11.1922
▁vitamine	-11.1922
▁claudius	-11.1922
obligatie	-11.1922
▁bridge	-11.1922
kazerne	-11.1922
▁bijgedragen	-11.1922
▁laurent	-11.1923
▁nucleaire	-11.1923
▁doodstraf	-11.1925
++	-11.1925
▁doctor	-11.1926
▁hanze	-11.1926
▁naald	-11.1928
▁grotten	-11.1928
▁monster	-11.193
basiliek	-11.1932
▁baltische	-11.1933
point	-11.1938
▁kilometers	-11.1942
▁will	-11.1942
▁statistische	-11.1945
sub	-11.1947
▁geroepen	-11.195
▁omvatten	-11.195
▁aangevoerd	-11.195
bia	-11.1952
▁cultus	-11.1957
▁42	-11.1958
▁parijse	-11.1959
▁disco	-11.1959
sluit	-11.1963
▁vraagt	-11.1965
▁uitgewerkt	-11.1967
▁velden	-11.1968
pet	-11.1969
reg	-11.197
drager	-11.1972
▁renners	-11.1972
vliegtuigen	-11.1973
max	-11.1975
chor	-11.1978
▁mist	-11.198
geloof	-11.1985
held	-11.1989
="30	-11.1994
▁scheeps	-11.1995
▁opgezet	-11.1996
trein	-11.2
8.000	-11.2003
lach	-11.2004
▁lie	-11.2005
▁geliefd	-11.201
eep	-11.2011
4.000	-11.2012
stoel	-11.2012
▁gezondheids	-11.2013
tag	-11.2013
▁moorden	-11.2015
steun	-11.2015
gestuurd	-11.2015
klooster	-11.2015
traditie	-11.2015
▁tsjecho	-11.2017
▁contra	-11.2018
▁sco	-11.2019
ouder	-11.2019
▁genesis	-11.2022
rif	-11.2022
stammen	-11.2022
▁commercieel	-11.2022
▁criteria	-11.2022
▁universele	-11.2022
▁bondsrepubliek	-11.2022
▁overeenkomt	-11.2023
▁fermat	-11.2023
▁schreven	-11.2024
▁haaien	-11.2024
▁stierven	-11.2024
▁gibb	-11.2024
▁meegenomen	-11.2025
staaf	-11.2025
▁tijdelijke	-11.2026
▁hinder	-11.2026
sluiten	-11.2027
▁heerlen	-11.2028
▁wieringen	-11.2029
▁rené	-11.2029
▁waterschappen	-11.203
▁damp	-11.203
gur	-11.2032
▁omringd	-11.2033
ouds	-11.2034
pping	-11.2035
▁regeringen	-11.2035
▁grof	-11.2036
sluis	-11.204
▁uitgesloten	-11.204
▁kostte	-11.2041
▁marcel	-11.2041
straal	-11.2042
handelaar	-11.2046
zal	-11.2046
▁spraak	-11.205
▁jon	-11.2052
▁component	-11.2053
▁beeldhouwer	-11.2054
▁silicium	-11.2055
▁sex	-11.2058
▁vlek	-11.2059
ctu	-11.2059
▁verkeerde	-11.2062
▁song	-11.2079
▁liga	-11.2079
atief	-11.2079
huid	-11.2083
uiken	-11.2088
▁vandalen	-11.209
▁staking	-11.2094
bomen	-11.2096
▁maarten	-11.21
ière	-11.2107
▁vaar	-11.2107
▁gemeen	-11.2109
fragment	-11.2121
▁aangekondigd	-11.2123
▁tsjechië	-11.2123
▁opgemerkt	-11.2123
▁namibië	-11.2123
▁eén	-11.2123
▁ontstane	-11.2123
▁riemann	-11.2123
transformatie	-11.2123
▁hemellichamen	-11.2123
▁plateau	-11.2124
▁nepal	-11.2125
▁zaten	-11.2126
bloed	-11.2127
▁geslaagd	-11.2129
▁getaltheorie	-11.2129
▁vos	-11.213
▁antieke	-11.2131
pact	-11.2131
▁gnu	-11.2133
miss	-11.2134
▁materieel	-11.2134
▁emil	-11.2134
▁eindigen	-11.2135
▁langdurige	-11.2135
▁taalgebruik	-11.2136
▁(=	-11.214
▁brabantse	-11.214
colo	-11.2141
▁france	-11.2142
▁fries	-11.2143
▁pin	-11.2145
▁inwendige	-11.2147
▁boden	-11.2149
▁milaan	-11.2154
▁natural	-11.2155
▁vochtig	-11.2158
▁gesteenten	-11.2161
▁arist	-11.2165
-200	-11.2166
▁piek	-11.2168
▁sterrenbeeld	-11.2169
ack	-11.217
▁verving	-11.217
▁uren	-11.2172
▁zeil	-11.218
▁gevormde	-11.218
gesproken	-11.2181
schade	-11.2186
tamelijk	-11.2188
▁meso	-11.2193
lood	-11.2194
nijverheid	-11.2196
▁lenin	-11.2212
ergens	-11.2218
register	-11.2222
▁hoeveel	-11.2224
▁bestudeert	-11.2225
▁eoceen	-11.2225
▁gedetailleerd	-11.2225
▁hongaren	-11.2225
▁onregelmatig	-11.2225
▁ooievaar	-11.2225
▁perspectief	-11.2225
▁referentie	-11.2225
▁geformuleerd	-11.2225
▁meubel	-11.2225
▁astrid	-11.2225
▁linux	-11.2225
▁agrarisch	-11.2225
▁expressie	-11.2225
▁millimeter	-11.2225
▁stevin	-11.2226
▁nigeria	-11.2226
silezië	-11.2226
▁octaaf	-11.2227
▁regiment	-11.2227
bewerking	-11.2227
▁ouderdom	-11.2227
▁melkweg	-11.2228
▁opgevat	-11.2228
pur	-11.2228
▁essentieel	-11.2229
chten	-11.2231
luizen	-11.2232
▁prix	-11.2233
,2%	-11.2236
▁korps	-11.224
▁sur	-11.224
zaak	-11.2242
▁1867	-11.2245
▁neven	-11.2247
mantel	-11.2248
wich	-11.2249
▁gastheer	-11.225
600	-11.2252
▁engelsen	-11.2253
▁voorspellen	-11.2254
▁dertiende	-11.2255
▁leken	-11.2256
ionele	-11.2261
instrument	-11.2271
▁verdacht	-11.2273
▁pak	-11.2275
▁volwassenen	-11.2276
head	-11.2276
▁kei	-11.2284
veel	-11.2285
rede	-11.229
▁consumptie	-11.229
▁atp	-11.2294
2.000	-11.2295
wald	-11.2299
▁vissers	-11.2301
▁geschiedschrijv	-11.2304
▁doeleinden	-11.2305
▁oplossingen	-11.2306
▁beheerd	-11.2312
▁hydro	-11.2312
▁nassau	-11.2314
▁noorse	-11.2317
▁gunstige	-11.2319
▁print	-11.2325
▁discipline	-11.2326
verre	-11.2326
▁dé	-11.2326
dynastie	-11.2328
alexander	-11.2328
filosofie	-11.2328
▁administratieve	-11.2328
▁dirigent	-11.2328
▁minimum	-11.2328
▁sweelinck	-11.2328
▁gitaar	-11.2328
▁snoek	-11.2328
▁treffen	-11.2328
▁vakantie	-11.2328
▁atelier	-11.2328
▁genoteerd	-11.2328
schaats	-11.2328
▁gesloopt	-11.2329
▁begrensd	-11.2329
▁onverwacht	-11.2329
▁apostel	-11.2329
▁fri	-11.233
▁gerrit	-11.2331
▁motieven	-11.2331
fysiologie	-11.2331
▁ibn	-11.2331
▁klachten	-11.2332
appel	-11.2332
▁verdiend	-11.2332
▁vruchten	-11.2332
hin	-11.2334
operatie	-11.2334
schil	-11.2334
▁én	-11.2336
▁sluis	-11.2336
▁gunstig	-11.2337
▁ondergrondse	-11.2339
▁hil	-11.2342
▁stok	-11.2343
lock	-11.235
▁geleerd	-11.2355
▁welzijn	-11.2357
▁bakker	-11.2357
▁standpunt	-11.236
tochten	-11.236
▁beer	-11.2363
present	-11.2363
▁woud	-11.2364
ziekten	-11.2372
▁brouwerij	-11.2372
eën	-11.2373
plas	-11.2375
▁groeperingen	-11.2379
▁ballen	-11.2387
visie	-11.2387
▁hein	-11.2396
psi	-11.2396
scherp	-11.2399
ïne	-11.2404
▁bezetten	-11.2407
▁strikte	-11.241
,4%	-11.241
▁voerden	-11.2411
▁officieren	-11.2423
ml	-11.2426
▁kansen	-11.2426
▁ooster	-11.2432
fosfaat	-11.2432
▁dreiging	-11.2432
▁medicijnen	-11.2432
▁verheven	-11.2432
▁uitsterven	-11.2433
▁drastisch	-11.2433
▁ronald	-11.2433
▁honger	-11.2433
greep	-11.2433
▁hemellichaam	-11.2433
▁airport	-11.2433
muizen	-11.2433
zucht	-11.2434
▁afwijkingen	-11.2434
▁verouderd	-11.2434
▁ambassadeur	-11.2434
▁laden	-11.2434
kabinet	-11.2435
kwaliteit	-11.2435
▁germanen	-11.2435
▁zeespiegel	-11.2436
▁behoeve	-11.2436
fla	-11.2436
▁gogh	-11.2437
▁gauw	-11.2438
-4	-11.2439
tegenwoordigers	-11.244
▁1903	-11.244
▁praktisch	-11.2441
▁planck	-11.2442
▁middelpunt	-11.2445
▁presidentschap	-11.2445
staart	-11.2446
▁bir	-11.2447
▁fluit	-11.2449
▁tanden	-11.2454
vliet	-11.2454
▁schets	-11.2455
▁1860	-11.2458
▁aero	-11.2462
▁situaties	-11.2462
▁oevers	-11.2462
▁46	-11.2469
▁wiel	-11.2472
▁voorspeld	-11.248
▁minst	-11.248
▁liberalen	-11.2483
regen	-11.2488
▁splitsing	-11.2492
▁draag	-11.2493
▁medici	-11.2495
▁symbolische	-11.2495
▁machtige	-11.2497
▁laatst	-11.2504
▁are	-11.2506
▁limburgs	-11.2507
orale	-11.2507
▁eindelijk	-11.2507
haai	-11.2508
oda	-11.2509
▁nm	-11.2513
▁verenigingen	-11.2514
▁beval	-11.2515
vet	-11.2525
▁grave	-11.2535
▁anc	-11.2535
kevers	-11.2536
knoop	-11.2537
▁symfonie	-11.2538
▁dokkum	-11.2538
▁dublin	-11.2538
▁radioactief	-11.2538
▁opvolging	-11.2538
▁vernietiging	-11.2538
▁regionaal	-11.2538
▁openbaring	-11.2538
▁heersende	-11.2538
▁normandië	-11.2538
▁veeteelt	-11.2538
▁bioscoop	-11.2538
▁röntgenstraling	-11.2538
▁ideologisch	-11.2538
▁volksrepubliek	-11.2538
▁kanalen	-11.2538
▁besmetting	-11.2538
▁romaanse	-11.2539
▁medewerkers	-11.254
▁richtten	-11.254
vallei	-11.254
batterij	-11.254
ova	-11.2541
tentoonstelling	-11.2542
paleis	-11.2542
▁breda	-11.2546
ario	-11.2551
▁controleren	-11.2552
▁verkort	-11.2554
▁rustig	-11.2555
▁zouten	-11.2555
clubs	-11.2561
▁propaganda	-11.2568
,6%	-11.2571
▁licentie	-11.2575
▁doelen	-11.2578
drecht	-11.2579
ition	-11.2583
▁ontdekkingen	-11.2584
▁overdracht	-11.2586
▁site	-11.2586
▁kopie	-11.2595
▁geologie	-11.2599
inger	-11.2599
inck	-11.26
ness	-11.2602
▁gevoegd	-11.2604
adres	-11.2605
polis	-11.2606
vluchten	-11.2606
▁acteurs	-11.2607
dir	-11.2608
▁turks	-11.2609
▁nova	-11.2612
wei	-11.2617
▁back	-11.2622
gedrukt	-11.2626
▁bovenste	-11.2629
▁legden	-11.2633
rib	-11.2638
ilias	-11.2642
tien	-11.2643
▁algerije	-11.2644
▁arriveerde	-11.2644
▁bidsprinkhanen	-11.2644
▁eredivisie	-11.2644
▁exponent	-11.2644
▁maurice	-11.2644
▁nsdap	-11.2644
▁ontvangt	-11.2644
▁uitgeoefend	-11.2644
▁geregeerd	-11.2644
▁weduwe	-11.2644
▁codice	-11.2644
▁verdrongen	-11.2644
▁imago	-11.2644
klarinet	-11.2644
piloot	-11.2644
▁tezamen	-11.2644
▁belofte	-11.2645
arabië	-11.2645
▁tevoren	-11.2645
▁platina	-11.2646
arc	-11.2647
▁dubbelspel	-11.2647
▁tachtigjarige	-11.2647
persoon	-11.2648
sessie	-11.265
studie	-11.2651
second	-11.2652
friesland	-11.2653
kat	-11.2653
fries	-11.2655
▁emma	-11.2655
▁walter	-11.2656
▁waardering	-11.2657
rain	-11.2658
▁benodigde	-11.2661
vlucht	-11.2663
▁andersom	-11.2665
opstand	-11.2671
▁gouwe	-11.2676
▁20%	-11.2677
▁hiërarchie	-11.2677
▁droegen	-11.2679
▁mini	-11.2681
agent	-11.2681
▁integratie	-11.2682
verband	-11.2687
▁rozen	-11.2687
sproces	-11.2687
▁neutraal	-11.2693
▁alan	-11.2695
▁heerst	-11.2696
leiders	-11.2699
▁degelijk	-11.2701
▁student	-11.2703
▁eva	-11.2704
hur	-11.2709
poging	-11.2709
▁emi	-11.2719
▁intrede	-11.272
▁liggende	-11.2724
step	-11.2727
uz	-11.2728
▁gla	-11.273
ock	-11.2731
▁trof	-11.2731
▁chal	-11.2732
▁gerelateerd	-11.2733
').	-11.2735
tallig	-11.2735
bv	-11.2737
▁zeventien	-11.2738
▁pantser	-11.2747
▁server	-11.275
▁nucle	-11.2751
▁browser	-11.2752
▁controverse	-11.2752
▁gedomineerd	-11.2752
▁geprobeerd	-11.2752
▁libanon	-11.2752
▁thailand	-11.2752
▁transistor	-11.2752
▁videoclip	-11.2752
▁wetgevende	-11.2752
▁beschouwt	-11.2752
▁heftig	-11.2752
▁aanraking	-11.2752
▁bevolkingsgroei	-11.2752
▁blootstelling	-11.2752
▁twaalfde	-11.2754
▁vruchtbaarheid	-11.2754
▁volkstelling	-11.2757
▁babylonische	-11.2758
▁liederen	-11.2759
▁achterhoek	-11.2759
carrière	-11.276
bescherming	-11.276
camera	-11.276
hing	-11.2761
▁verward	-11.2763
voorheen	-11.2763
winkel	-11.2765
▁blog	-11.2767
▁mieren	-11.2767
▁keu	-11.2767
verlies	-11.2768
▁ordening	-11.2769
oem	-11.277
lab	-11.2771
werkingsverband	-11.2771
regime	-11.2772
rim	-11.2776
▁staf	-11.2777
vanaf	-11.2779
▁afgerond	-11.278
▁verhit	-11.2782
▁lichamelijke	-11.2784
special	-11.2784
▁heerste	-11.2785
▁wisselen	-11.2788
▁waterschap	-11.2788
condens	-11.2789
▁roof	-11.279
anna	-11.279
gedrag	-11.279
▁mou	-11.2792
▁rna	-11.2792
▁beslissende	-11.2794
doek	-11.2796
▁pseudo	-11.2797
▁els	-11.2798
▁verzamelingen	-11.2801
▁parachute	-11.2801
▁ara	-11.2803
▁communistisch	-11.2804
▁maxim	-11.2805
ijt	-11.2807
ole	-11.2808
▁helm	-11.2809
▁zachte	-11.2812
▁ontvanger	-11.2813
ijzer	-11.2814
mogelijkheden	-11.2821
▁geb	-11.2829
▁afgekort	-11.2831
▁willekeurig	-11.2832
bladen	-11.2833
▁arc	-11.2834
att	-11.2836
itische	-11.2836
▁verlieten	-11.2839
▁vii	-11.2839
▁fluor	-11.284
ques	-11.2841
gard	-11.2847
▁normen	-11.2848
▁particuliere	-11.2854
▁bul	-11.2856
geert	-11.2857
▁aantrekkelijk	-11.286
▁faeröer	-11.286
▁foundation	-11.286
▁galileo	-11.286
▁hoessein	-11.286
▁kaukasus	-11.286
▁kroatië	-11.286
▁ondergeschikt	-11.286
▁stimuleren	-11.286
▁vegetatie	-11.286
▁vulkaan	-11.286
▁actrice	-11.286
▁relevant	-11.286
▁perzië	-11.286
▁stijgt	-11.286
▁sultan	-11.2861
▁webpagina	-11.2861
▁rtl	-11.2861
▁innovatie	-11.2861
▁afzetting	-11.2861
▁fragmenten	-11.2862
▁opmerking	-11.2862
linie	-11.2863
▁gevangenschap	-11.2863
▁broncode	-11.2864
▁ruiter	-11.2865
▁christian	-11.2865
▁roepen	-11.2865
▁rijksdag	-11.2866
▁wettelijk	-11.2867
▁toenmalig	-11.2868
▁helderheid	-11.2869
▁grootvader	-11.2869
zuiver	-11.2871
oudgrieks	-11.2871
vragen	-11.2871
hagen	-11.2872
▁octa	-11.2875
▁rocky	-11.2877
staatssecretaris	-11.288
▁invallen	-11.288
▁oudst	-11.2885
eerbaar	-11.2886
▁vakbond	-11.289
▁veertiende	-11.289
▁warmer	-11.2891
▁vreemd	-11.2892
▁geneesmiddelen	-11.2892
prijzen	-11.2893
▁doorgevoerd	-11.2894
▁iers	-11.2895
▁divers	-11.2896
▁ondergebracht	-11.2896
▁woonplaats	-11.29
achi	-11.2906
▁gemakkelijker	-11.2906
dict	-11.2906
▁hill	-11.2906
atom	-11.2907
▁klimt	-11.2909
▁beweerd	-11.2912
struik	-11.2915
▁chu	-11.2915
plasma	-11.292
▁aanpak	-11.2922
▁benamingen	-11.2925
▁borg	-11.2932
esj	-11.2933
straten	-11.2934
▁beginsel	-11.2937
maatschappijen	-11.294
lio	-11.2955
▁job	-11.2956
▁langdurig	-11.2957
▁verklaringen	-11.296
▁ondergang	-11.2965
▁roze	-11.2967
▁vechten	-11.2968
▁henin	-11.2968
liefhebber	-11.297
▁bretagne	-11.297
▁chinezen	-11.297
▁geïnterpreteerd	-11.297
▁gyatso	-11.297
▁luitenant	-11.297
▁verbannen	-11.297
▁sgp	-11.297
▁afmetingen	-11.297
▁altaar	-11.297
▁toevallig	-11.2971
▁kometen	-11.2971
▁europeanen	-11.2972
▁bestemd	-11.2972
▁dommel	-11.2973
asso	-11.2973
▁disc	-11.2973
aangrenzende	-11.2976
getallen	-11.2976
▁elektrisch	-11.2977
slowakije	-11.2977
▁kilo	-11.2978
▁melding	-11.2978
levering	-11.2978
▁negende	-11.298
▁gematigd	-11.2981
▁voeten	-11.2981
ermee	-11.2981
aert	-11.2982
document	-11.2982
kolonie	-11.2983
stemmen	-11.2984
schen	-11.2984
streep	-11.2988
▁dominee	-11.2989
▁driehoek	-11.299
▁pauselijk	-11.2991
▁40%	-11.2991
▁heldere	-11.2999
▁sociaaldemocrat	-11.3001
▁feestdag	-11.3002
▁hulpmiddel	-11.3003
▁bekendstaat	-11.3003
▁koreaanse	-11.3008
kade	-11.301
▁soortgelijke	-11.3011
▁market	-11.3014
homo	-11.3016
▁begroting	-11.3016
▁uitbreken	-11.3021
▁bekeerd	-11.3021
▁play	-11.3021
▁karper	-11.3023
▁intern	-11.3025
dragers	-11.3025
long	-11.3026
▁schenk	-11.3033
gevoelig	-11.3043
▁oostende	-11.305
structure	-11.3055
▁apparaat	-11.3057
hua	-11.3057
ikt	-11.3057
▁standpunten	-11.306
▁kanten	-11.306
▁kri	-11.3065
▁degenen	-11.3066
aga	-11.3068
▁metingen	-11.3068
sint	-11.307
▁waalse	-11.3071
▁origin	-11.3078
bevolking	-11.308
▁vermogens	-11.308
▁bekritiseerd	-11.3081
▁bulgarije	-11.3081
▁reliëf	-11.3081
▁slavernij	-11.3081
▁houston	-11.3081
▁conventie	-11.3081
barrière	-11.3081
▁oudenaarde	-11.3081
▁bemanning	-11.3081
▁herkenbaar	-11.3082
▁bernhard	-11.3082
▁versneld	-11.3083
▁onderdrukt	-11.3083
▁woordenschat	-11.3084
strip	-11.3088
▁romantische	-11.3089
▁literair	-11.3092
germaans	-11.3093
slagader	-11.3094
▁tho	-11.3095
monument	-11.3095
▁nederduits	-11.3097
nassau	-11.3097
grijze	-11.3097
balkenende	-11.3097
buurt	-11.3098
▁landschappen	-11.3098
wortel	-11.3099
▁harder	-11.3099
▁vloed	-11.31
jager	-11.3101
▁baard	-11.3101
republiek	-11.3101
bier	-11.3103
▁groente	-11.3105
▁bondgenoot	-11.3106
boten	-11.3108
▁geschied	-11.3108
balk	-11.3115
woog	-11.3116
▁vecht	-11.3116
▁doch	-11.3122
▁distributie	-11.3123
bai	-11.3124
olen	-11.3125
▁(9	-11.3126
üs	-11.3127
bekken	-11.3129
magnetisch	-11.3132
▁kiezers	-11.3134
fout	-11.3134
recept	-11.3136
orgaan	-11.3137
▁bekken	-11.3144
▁more	-11.3146
▁manager	-11.315
echte	-11.315
▁monte	-11.3152
▁dansen	-11.3155
▁favoriete	-11.3156
itter	-11.3163
ín	-11.317
laden	-11.3172
▁fre	-11.3178
▁autoriteiten	-11.3179
▁christ	-11.3183
▁(11	-11.3184
ping	-11.3185
▁republikein	-11.3186
▁prestaties	-11.3189
7.000	-11.3191
▁toneelstuk	-11.3192
▁vracht	-11.3194
homoseksualiteit	-11.3194
▁expressionisme	-11.3194
▁pensioen	-11.3194
▁verscheidenheid	-11.3194
▁wekelijks	-11.3194
▁behoorlijk	-11.3194
▁gestopt	-11.3194
▁wraak	-11.3194
▁dwingen	-11.3194
▁prehistorie	-11.3194
▁schoot	-11.3194
▁geboden	-11.3194
▁hindoeïsme	-11.3194
▁betrouwbaar	-11.3194
▁identiek	-11.3194
torium	-11.3194
▁hardware	-11.3194
▁duurzame	-11.3195
▁bestrijden	-11.3195
lager	-11.3195
▁cbs	-11.3195
▁voorspelling	-11.3195
▁koepel	-11.3196
▁adres	-11.3196
▁derhalve	-11.3196
▁bohr	-11.3196
▁begrepen	-11.32
this	-11.3203
▁patent	-11.3204
▁schoonheid	-11.3204
▁kruiden	-11.3208
typen	-11.3209
▁kabel	-11.321
rollen	-11.3211
▁toespraak	-11.3211
▁uitgeschakeld	-11.3212
symbool	-11.3212
controle	-11.3213
▁1885	-11.3221
berlijn	-11.3222
▁1200	-11.3226
kleurig	-11.3235
ár	-11.3235
tallen	-11.3237
▁meldde	-11.3238
▁adviseur	-11.3238
▁willy	-11.3239
▁beschrijvingen	-11.324
▁hevige	-11.324
▁goten	-11.3251
teller	-11.3255
▁grondig	-11.3258
▁1,5	-11.3269
processen	-11.3271
▁eems	-11.3272
▁sectoren	-11.3274
staten	-11.3281
▁natte	-11.3284
▁cur	-11.3292
▁goedkoper	-11.3306
snijden	-11.3306
▁jordaan	-11.3307
▁greenpeace	-11.3307
▁produceert	-11.3307
▁soundtrack	-11.3307
▁spectaculair	-11.3307
▁wederzijds	-11.3307
▁vooraanstaande	-11.3307
matteüs	-11.3307
▁verhogen	-11.3307
▁archeologen	-11.3307
▁gedaald	-11.3307
▁oplossen	-11.3307
▁bekeken	-11.3308
▁trilling	-11.3308
▁toonladder	-11.3308
▁hum	-11.3308
▁uitgerust	-11.3308
▁south	-11.3309
▁helden	-11.3312
▁humor	-11.3312
▁fruitvlieg	-11.3312
▁kamerlid	-11.3313
▁patrick	-11.3313
▁handhaven	-11.3314
▁combinaties	-11.3316
▁bali	-11.3318
▁zozeer	-11.3318
▁noors	-11.332
▁geluiden	-11.332
schuif	-11.3321
▁verminderde	-11.3322
oxy	-11.3323
awa	-11.3323
▁rook	-11.3324
maand	-11.3324
▁stereo	-11.3324
▁schaduw	-11.3326
situatie	-11.3329
▁dames	-11.3329
▁afwijkende	-11.333
modern	-11.3332
▁uitleg	-11.3332
hoogte	-11.3333
▁beschermde	-11.3337
▁edelen	-11.3339
▁1840	-11.334
frequentie	-11.3341
▁tracht	-11.3342
▁bocht	-11.3344
schaft	-11.3349
▁lege	-11.3359
▁schuldig	-11.3359
▁voordelen	-11.3366
▁tijdschriften	-11.3368
▁rio	-11.3368
schakeling	-11.3368
▁schadelijke	-11.3372
bellen	-11.3372
▁werkgevers	-11.3372
▁synthese	-11.3372
vaardigheid	-11.3376
▁box	-11.3378
▁cru	-11.3379
▁sky	-11.338
▁fabrieken	-11.338
▁mg	-11.3382
▁mot	-11.3383
vorst	-11.3385
▁meisje	-11.3387
▁voorzag	-11.3387
▁sir	-11.3388
▁verzen	-11.3392
▁larve	-11.3396
swijziging	-11.3401
▁vaart	-11.3402
▁landgoed	-11.3402
guard	-11.3402
ava	-11.3404
▁streep	-11.3405
hell	-11.3405
▁(0,	-11.3406
reus	-11.3409
▁gematigde	-11.3412
▁zacht	-11.3414
▁oudgrieks	-11.3415
▁joegoslavië	-11.3422
▁kolonisatie	-11.3422
▁ontbreekt	-11.3422
▁rutherford	-11.3422
▁egyptenaren	-11.3422
▁geholpen	-11.3422
▁klinkt	-11.3422
▁vervanging	-11.3422
▁duidt	-11.3422
▁inflatie	-11.3422
▁nikkel	-11.3422
▁supporters	-11.3423
paren	-11.3423
▁garros	-11.3423
▁minimal	-11.3423
church	-11.3423
▁bediend	-11.3424
▁ideaal	-11.3424
▁daalt	-11.3424
▁deelnemen	-11.3425
proeven	-11.3425
▁brandstoffen	-11.3425
▁90%	-11.343
▁pha	-11.3431
▁afgesproken	-11.3431
▁droom	-11.3431
▁betwist	-11.3431
▁gepland	-11.3436
terminal	-11.3436
▁jolie	-11.3438
▁socialisten	-11.3441
▁krachtig	-11.3445
▁lou	-11.3445
▁1879	-11.3446
▁geliefde	-11.3446
▁vuil	-11.3446
isotopen	-11.3446
▁trias	-11.3447
▁gevaarlijke	-11.3447
standaard	-11.3448
kanker	-11.3449
radio	-11.3459
▁boor	-11.3462
lith	-11.3462
▁aex	-11.3462
▁vertalen	-11.3462
zeker	-11.3465
warm	-11.3465
mund	-11.3467
▁rijp	-11.3468
koor	-11.3471
ieën	-11.3471
▁blik	-11.3473
hond	-11.3478
pak	-11.3479
▁natuurgebieden	-11.3479
▁schel	-11.3481
▁bibliotheken	-11.3483
▁fred	-11.3483
ides	-11.3485
▁may	-11.3492
▁binden	-11.3497
▁zwaard	-11.3498
▁rik	-11.3499
▁filter	-11.35
▁khan	-11.3502
giet	-11.3503
itair	-11.3504
▁regelen	-11.3504
▁kw	-11.3505
▁gun	-11.3506
▁andrea	-11.3514
ware	-11.3515
ular	-11.3517
uf	-11.3519
▁deens	-11.352
▁toeval	-11.3525
▁vaccin	-11.3531
▁gij	-11.3531
ado	-11.3534
▁henk	-11.3537
▁getuige	-11.3537
▁genocide	-11.3539
▁betrekkelijk	-11.3539
▁ethiopië	-11.3539
▁gedoopt	-11.3539
▁google	-11.3539
▁jiddisch	-11.3539
▁kapitaal	-11.3539
▁kwalificatie	-11.3539
▁mesopotamië	-11.3539
▁streefde	-11.3539
▁tsjechische	-11.3539
▁uitoefenen	-11.3539
▁ardennen	-11.3539
▁doesburg	-11.3539
▁naargelang	-11.3539
▁gebarentaal	-11.3539
▁grammy	-11.354
▁eurovisie	-11.354
▁group	-11.354
▁court	-11.354
▁volkslied	-11.3541
▁high	-11.3542
▁korter	-11.3543
ious	-11.3544
▁reikt	-11.3545
▁schuil	-11.3545
▁wijsheid	-11.3545
iana	-11.3547
▁1907	-11.3548
factoren	-11.355
getrouw	-11.355
lank	-11.3557
arrest	-11.356
▁duck	-11.3561
▁veroverden	-11.3561
▁versterkte	-11.3562
▁mala	-11.3564
apparaat	-11.3565
▁40.000	-11.3565
▁bestuurlijk	-11.3565
technologie	-11.3565
twintig	-11.3567
▁voorgangers	-11.3569
▁gerechten	-11.3573
vlakken	-11.3575
geest	-11.3577
▁2,5	-11.3577
thema	-11.358
toestanden	-11.3582
▁noodzaak	-11.3588
▁coll	-11.3592
tioneel	-11.3593
▁gereden	-11.3597
verbod	-11.3597
▁beïnvloeden	-11.3599
▁overschot	-11.3601
▁oxidatie	-11.3602
nominatie	-11.3603
▁rijen	-11.3603
▁schulden	-11.3605
▁pier	-11.3605
▁indië	-11.3615
▁force	-11.3616
instellingen	-11.3617
▁link	-11.362
650	-11.3629
▁toernooien	-11.3634
sgeschiedenis	-11.3635
board	-11.3638
▁kusten	-11.3639
arius	-11.3639
▁onthoud	-11.3641
neming	-11.3643
tax	-11.3644
▁staken	-11.3646
sorganen	-11.365
▁pc	-11.365
absorptie	-11.3656
detective	-11.3656
▁combineren	-11.3656
▁confrontatie	-11.3656
▁garnizoen	-11.3656
▁ijshockey	-11.3656
▁tacitus	-11.3656
▁taliban	-11.3656
▁uitgenodigd	-11.3656
▁vulkanen	-11.3656
dimension	-11.3656
▁andorra	-11.3656
▁wijzigen	-11.3656
▁essay	-11.3656
reglement	-11.3656
▁erfenis	-11.3656
▁naoorlogse	-11.3656
▁details	-11.3656
▁verdieping	-11.3656
▁realiseren	-11.3657
▁vector	-11.3657
▁stoffelijk	-11.3657
▁maxwell	-11.3657
geblazen	-11.3657
vaarder	-11.3657
▁televisieserie	-11.3658
▁horizontale	-11.3658
▁strijdkrachten	-11.3658
episode	-11.3659
▁effectieve	-11.366
deutsch	-11.366
▁botsing	-11.3662
dum	-11.3662
symmetrie	-11.3662
flat	-11.3662
▁priem	-11.3664
▁(13	-11.3666
▁jones	-11.3667
▁5%	-11.3667
▁broeden	-11.3668
strook	-11.367
lijm	-11.3672
gaard	-11.3675
▁seculiere	-11.3679
veling	-11.3679
vangst	-11.368
▁zeewater	-11.3681
▁dankt	-11.3684
cirkel	-11.3686
indische	-11.3686
bommen	-11.3691
boer	-11.3692
▁stichtten	-11.3693
▁spraken	-11.3693
▁bast	-11.3694
▁opzet	-11.3702
▁1.0	-11.3704
▁fasen	-11.3705
▁kanaän	-11.3712
saks	-11.3715
▁moleculaire	-11.3717
▁lip	-11.3717
▁bescherm	-11.3727
▁word	-11.3727
tekst	-11.3727
projecten	-11.3734
hart	-11.3736
▁eric	-11.374
▁dru	-11.3743
anda	-11.3754
▁geschikte	-11.3755
▁noorder	-11.3757
thé	-11.376
▁slowakije	-11.3762
spring	-11.3762
▁slagen	-11.3764
▁elektriciteits	-11.3764
▁duo	-11.3765
mac	-11.3766
had	-11.3768
▁wint	-11.3769
tain	-11.3771
▁harp	-11.3774
▁gesplitst	-11.3775
▁olifanten	-11.3775
▁portugezen	-11.3775
▁progressieve	-11.3775
▁pseudoniem	-11.3775
▁chinees	-11.3775
▁logistiek	-11.3775
▁ruwweg	-11.3775
▁vervullen	-11.3775
epidemie	-11.3775
▁pleegde	-11.3775
▁gelukkig	-11.3775
▁roofdieren	-11.3776
web	-11.3776
▁vries	-11.3776
▁liefst	-11.3777
▁nij	-11.3777
▁fotografie	-11.3779
▁westkust	-11.378
▁zuidpool	-11.378
800	-11.378
▁zoektocht	-11.3781
dacht	-11.3781
▁finales	-11.3782
▁vergelijkingen	-11.3786
streng	-11.3789
▁1896	-11.3795
koppeling	-11.3797
▁onderliggende	-11.3797
wick	-11.3799
▁bouwden	-11.3799
▁110	-11.3799
▁split	-11.38
öl	-11.38
▁wereldlijke	-11.3801
▁eis	-11.3801
comm	-11.3802
landse	-11.3803
▁zure	-11.3807
stadion	-11.3807
▁afnemen	-11.3808
locatie	-11.3809
voc	-11.381
▁life	-11.3811
zwart	-11.3813
▁cura	-11.3816
▁geestelijk	-11.3816
▁wiskundigen	-11.3817
beurs	-11.3817
▁sprong	-11.3821
▁brouw	-11.3822
aantal	-11.3824
trokken	-11.3826
zeer	-11.3832
▁volwaardig	-11.3834
regeling	-11.3838
▁scala	-11.3839
▁jam	-11.3843
vakken	-11.3844
grafen	-11.3847
krant	-11.3848
▁hevig	-11.3849
▁peru	-11.385
▁afleveringen	-11.3851
opname	-11.3851
▁dominant	-11.3854
▁lok	-11.3859
_5	-11.386
spreidingsgebied	-11.3864
▁vliegende	-11.3874
▁1895	-11.3875
▁vlieger	-11.3876
▁ceremonie	-11.3879
▁thor	-11.3882
▁kampioenschap	-11.3884
▁eenvoudiger	-11.3893
afwijking	-11.3895
▁bachelor	-11.3896
▁bataafs	-11.3896
▁beschikbare	-11.3896
▁consensus	-11.3896
▁enthousiast	-11.3896
▁giovanni	-11.3896
▁roosevelt	-11.3896
▁universum	-11.3896
▁autosnelweg	-11.3896
▁componeerde	-11.3896
▁materiële	-11.3896
▁python	-11.3896
▁stephen	-11.3896
▁tienduizenden	-11.3896
▁celsius	-11.3896
▁street	-11.3896
▁aanmerking	-11.3896
▁japanners	-11.3896
▁bewering	-11.3896
▁bezighoudt	-11.3897
▁zomerspelen	-11.3898
▁bazel	-11.39
▁primaten	-11.39
▁accent	-11.3901
nauw	-11.3901
oniem	-11.3903
▁champions	-11.3903
▁schaars	-11.3904
▁coureur	-11.3904
▁online	-11.3905
▁mooi	-11.391
▁ingrijpend	-11.3911
▁beroemdste	-11.3911
▁reich	-11.3914
▁afzonderlijk	-11.3915
▁eredienst	-11.3917
▁ross	-11.3921
▁maandag	-11.3923
▁achteraf	-11.3926
record	-11.3931
sinds	-11.3933
▁vulkanische	-11.3934
▁doorgegeven	-11.3936
▁schaatsen	-11.3936
▁aanpassing	-11.3936
▁verwerken	-11.3939
ficeerd	-11.394
gracht	-11.3942
▁gentse	-11.3942
▁real	-11.3942
democra	-11.3945
verwant	-11.3947
key	-11.3949
▁kolen	-11.3953
rh	-11.3954
▁afvoer	-11.3954
▁rituelen	-11.396
vriendelijk	-11.3964
▁cover	-11.3964
sporen	-11.3965
▁elbe	-11.3967
gemeenten	-11.3969
▁variaties	-11.3969
plassen	-11.3973
▁bewerkingen	-11.3977
ensis	-11.3989
base	-11.3991
▁draaide	-11.3995
▁eraan	-11.3995
▁big	-11.3997
muur	-11.3998
▁kolonies	-11.3998
genomen	-11.4005
▁ron	-11.4005
osaurus	-11.4016
▁keerden	-11.4016
▁oplopen	-11.4017
▁aardewerk	-11.4018
▁warschau	-11.4018
▁boeddha	-11.4018
▁leipzig	-11.4018
▁spontaan	-11.4018
▁intensiteit	-11.4018
▁ongebruikelijk	-11.4018
▁schimmels	-11.4018
▁gezorgd	-11.4018
▁theologische	-11.4018
▁synode	-11.4018
kolonel	-11.4018
▁archief	-11.4018
▁toonhoogte	-11.4018
▁muzikanten	-11.4019
▁corruptie	-11.4019
▁focus	-11.402
▁kleinzoon	-11.402
▁afgezien	-11.4021
▁kartel	-11.4021
▁julianus	-11.4022
▁vermeldt	-11.4022
▁orden	-11.4022
▁haast	-11.4023
▁vrijwilligers	-11.4024
▁verleende	-11.4024
▁ernest	-11.4024
poeder	-11.4025
guyana	-11.4027
▁stier	-11.4028
▁familieleden	-11.4028
teur	-11.4032
▁leidse	-11.4032
▁redden	-11.4034
▁vloog	-11.4035
▁musici	-11.4036
▁bereikten	-11.4037
▁omvangrijke	-11.4037
▁1891	-11.4039
kol	-11.4039
▁herhaaldelijk	-11.404
▁1884	-11.4041
european	-11.4042
▁hoefde	-11.4044
aagt	-11.4045
▁hardy	-11.4047
eerste	-11.4049
jood	-11.4054
▁resterend	-11.4054
officier	-11.4055
grepen	-11.4056
court	-11.4057
▁opvoeding	-11.4057
▁insect	-11.4062
▁discriminatie	-11.4064
▁corn	-11.4067
▁lamp	-11.4068
▁asse	-11.4069
katholiek	-11.4073
▁fans	-11.4076
▁systematisch	-11.4081
verschijnselen	-11.4086
ison	-11.4086
▁erik	-11.4094
▁leeuwen	-11.4096
▁tekenaar	-11.4097
▁matig	-11.4102
▁verering	-11.4103
bok	-11.4103
4,5	-11.4108
▁gru	-11.4114
groeve	-11.4118
tam	-11.412
kok	-11.412
bolwerk	-11.4123
functies	-11.4123
hey	-11.4127
▁integraal	-11.4131
▁aardbevingen	-11.4131
▁apparatuur	-11.4132
gids	-11.4133
▁bevoegd	-11.4135
▁moeras	-11.4139
segment	-11.414
span	-11.4141
katholicisme	-11.4141
▁alvorens	-11.4141
▁batavia	-11.4141
▁italianen	-11.4141
▁omgevormd	-11.4141
▁synagoge	-11.4141
▁hindenburg	-11.4141
▁infrarood	-11.4141
▁sittard	-11.4141
▁verwerven	-11.4141
▁orakel	-11.4141
▁white	-11.4141
▁preventie	-11.4141
▁kelvin	-11.4141
▁update	-11.4142
▁opleveren	-11.4142
▁ruïne	-11.4142
▁gelijkenis	-11.4143
stoornissen	-11.4144
▁kaapstad	-11.4144
▁spits	-11.4144
▁herkend	-11.4146
▁ingewikkelde	-11.4147
ift	-11.4148
▁zonlicht	-11.4149
▁publiceren	-11.4149
▁blij	-11.4151
▁gebruikmaken	-11.4151
▁kozen	-11.4152
tegenwoordig	-11.4154
arbeiders	-11.4154
lys	-11.4159
▁nieuwbouw	-11.416
▁schelp	-11.4162
▁1886	-11.4167
▁detail	-11.4168
▁luidspreker	-11.4169
▁geert	-11.4175
▁serieus	-11.4176
▁luchthavens	-11.4176
5)	-11.4178
▁beheerst	-11.4179
▁aangeeft	-11.4183
praktijk	-11.4183
papier	-11.4184
▁30%	-11.4187
▁daden	-11.4189
mur	-11.4193
▁opgeleverd	-11.4193
▁zeeën	-11.4194
▁have	-11.4198
▁bewerking	-11.42
▁begeleiding	-11.4202
▁frequenties	-11.4203
▁belegerd	-11.4206
sterren	-11.4208
▁gui	-11.4208
▁braken	-11.4211
▁list	-11.4222
▁ondersoorten	-11.4223
▁peil	-11.4227
▁santa	-11.4228
▁halle	-11.4231
halen	-11.4232
▁uitwisseling	-11.4238
▁onderging	-11.4241
21)	-11.4244
▁benen	-11.4245
▁hindoes	-11.4249
tip	-11.425
▁ingrijpen	-11.425
▁gemengde	-11.4251
▁uitzending	-11.4258
▁essentie	-11.4261
leiden	-11.4261
▁corona	-11.4264
▁soeverein	-11.4265
chromosoom	-11.4266
▁annexatie	-11.4266
▁cambridge	-11.4266
▁exemplaar	-11.4266
▁harrison	-11.4266
▁manchester	-11.4266
▁significant	-11.4266
▁zeppelin	-11.4266
▁oxford	-11.4266
volleybal	-11.4266
drempel	-11.4266
▁waits	-11.4266
▁demografische	-11.4266
geschoven	-11.4266
▁dvd	-11.4267
▁constitutione	-11.4267
▁klinisch	-11.4267
▁vloeistoffen	-11.4267
▁baarlo	-11.4268
▁verlenen	-11.4268
▁evenveel	-11.4268
▁vertrouwd	-11.4268
▁hoofdkantoor	-11.4268
▁mondeling	-11.4269
teksten	-11.4269
▁ontvangst	-11.4269
▁nergens	-11.4269
▁verlaagd	-11.4271
vlo	-11.4273
▁curie	-11.4279
▁hoofdplaats	-11.4281
▁daniel	-11.4282
▁graz	-11.4286
▁fysiek	-11.429
▁hitte	-11.4291
▁slang	-11.4292
splan	-11.4302
▁overblijfselen	-11.4302
▁bedragen	-11.431
nationaal	-11.4311
▁vil	-11.4311
keizer	-11.4311
brussel	-11.4311
ongeluk	-11.4312
kleine	-11.4313
▁garde	-11.4315
rassen	-11.4322
▁leef	-11.4328
▁tramlijn	-11.433
▁territorial	-11.4335
vliegen	-11.4341
▁willekeurige	-11.4343
▁overeenkomstig	-11.435
▁samba	-11.4351
cap	-11.4359
▁grootheid	-11.4359
now	-11.436
▁vervoerd	-11.436
▁perl	-11.4372
▁sara	-11.4375
▁vlakke	-11.4388
▁absoluut	-11.4393
▁atletiek	-11.4393
▁attractie	-11.4393
▁bonaparte	-11.4393
▁dictatuur	-11.4393
▁dionysos	-11.4393
▁illustratie	-11.4393
▁neptunus	-11.4393
▁palestijnen	-11.4393
▁signalen	-11.4393
▁benoemen	-11.4393
▁earring	-11.4393
▁eenduidig	-11.4393
▁hobby	-11.4393
▁beschuldiging	-11.4393
jesaja	-11.4393
▁behandelen	-11.4393
▁nogmaals	-11.4393
▁soevereiniteit	-11.4393
pommeren	-11.4393
▁vreemdelingen	-11.4394
▁snaren	-11.4394
▁heiligdom	-11.4394
▁uniform	-11.4394
▁geschilderd	-11.4395
geworpen	-11.4395
▁scheidde	-11.4395
▁welvarend	-11.4395
0%	-11.4395
▁hulst	-11.4395
▁bezorgd	-11.4395
▁belegering	-11.4396
▁bepalingen	-11.4396
▁nationalisten	-11.4396
▁dierlijke	-11.4397
▁fifa	-11.4397
▁turing	-11.4398
quet	-11.44
▁ozon	-11.44
▁campus	-11.4403
▁realisme	-11.4405
▁boete	-11.4405
▁hei	-11.4407
▁schema	-11.4407
▁microscoop	-11.4408
▁achternaam	-11.4409
▁giftige	-11.4412
fir	-11.4414
▁stern	-11.4415
▁vandaan	-11.4416
▁stortte	-11.4416
geeft	-11.4416
▁boekje	-11.4417
metrie	-11.4424
▁cook	-11.443
▁kever	-11.443
▁bestrijding	-11.4433
▁tweeling	-11.4439
scommissie	-11.4439
▁viering	-11.444
▁monnik	-11.4441
transport	-11.4442
gedeelte	-11.4444
buren	-11.4448
gevaar	-11.445
▁steunen	-11.4451
wording	-11.4454
▁bloeddruk	-11.4457
▁denkt	-11.4458
▁kunstwerken	-11.4458
▁uitmaakte	-11.4464
▁orthodox	-11.4465
▁gewassen	-11.4471
▁teelt	-11.4479
veda	-11.448
▁stak	-11.4481
▁kiest	-11.4483
goede	-11.4484
▁feestdagen	-11.4487
18)	-11.4489
idi	-11.4492
▁trams	-11.4497
dynamische	-11.4498
sulfide	-11.4499
▁trivia	-11.4502
▁haak	-11.4504
rose	-11.4511
▁kara	-11.4516
▁vreesde	-11.4516
maan	-11.4518
bacteri	-11.4518
social	-11.452
▁enzymen	-11.452
▁mosterd	-11.452
▁proton	-11.452
perzisch	-11.452
▁saoedi	-11.4521
telescopen	-11.4521
▁archimedes	-11.4521
▁bevorderd	-11.4521
▁cézanne	-11.4521
▁flevoland	-11.4521
▁geïnstalleerd	-11.4521
▁kwetsbaar	-11.4521
▁lancering	-11.4521
▁magnitude	-11.4521
▁mechanica	-11.4521
▁neutrale	-11.4521
▁omwenteling	-11.4521
▁sigmund	-11.4521
leverancier	-11.4521
▁ongewenst	-11.4521
▁organist	-11.4521
▁mogendheden	-11.4521
▁soldaat	-11.4521
▁kunstmest	-11.4521
▁haydn	-11.4521
▁onderworpen	-11.4521
▁sedert	-11.4521
▁gevangenisstraf	-11.4521
▁brown	-11.4521
▁gedateerd	-11.4521
▁leenwoorden	-11.4521
▁homerus	-11.4521
buizen	-11.4522
▁redactie	-11.4522
▁strekt	-11.4522
▁honderdduizend	-11.4522
▁wolfgang	-11.4522
▁druppel	-11.4523
▁producenten	-11.4523
▁dienstplicht	-11.4524
▁troef	-11.4524
▁voortgekomen	-11.4526
▁verkenning	-11.4527
leng	-11.453
frey	-11.453
ett	-11.4531
▁ruzie	-11.4531
▁hamburg	-11.4535
dol	-11.4535
jaarlijkse	-11.4535
fractie	-11.4535
▁pakken	-11.4536
▁balans	-11.4536
nota	-11.4536
▁agent	-11.4536
▁tuinbouw	-11.4537
▁kaak	-11.4537
▁producer	-11.4539
▁gunste	-11.454
▁robin	-11.4542
▁abel	-11.4543
▁wood	-11.4548
▁geografisch	-11.4548
ontwikkelaar	-11.4551
▁theoretisch	-11.4555
▁romp	-11.4561
knop	-11.4562
treinen	-11.4564
▁besmet	-11.4566
scheiding	-11.4566
▁investeringen	-11.4568
▁molens	-11.4568
▁gehoord	-11.4569
▁ringen	-11.4571
ontwikkel	-11.4571
gewassen	-11.4572
producent	-11.4572
▁bonn	-11.4572
kenmerken	-11.4573
▁50.000	-11.4577
▁aflevering	-11.4579
▁beleefde	-11.4579
moleculen	-11.4581
▁berekening	-11.4583
handelingen	-11.4585
▁monarch	-11.4586
▁bouwwerk	-11.4587
lap	-11.4589
chip	-11.4592
▁uitkwam	-11.4599
09)	-11.4599
▁tuinen	-11.4607
achtereenvolgens	-11.4608
▁democratisch	-11.4608
2000	-11.4609
atr	-11.461
▁zwaardere	-11.4611
▁zuider	-11.4611
kans	-11.4614
▁onderweg	-11.4614
▁bezetter	-11.4616
mensen	-11.4616
▁130	-11.4618
▁blue	-11.4621
▁vergroting	-11.4625
aq	-11.4625
▁aanvang	-11.4626
▁paleo	-11.4636
zegel	-11.4637
▁evenement	-11.464
▁afwijken	-11.4641
illus	-11.4642
▁dijken	-11.4643
▁roy	-11.4644
bezit	-11.4645
▁fame	-11.4648
activiteiten	-11.4649
pier	-11.465
hertogenbosch	-11.4651
▁surinaams	-11.4651
secundaire	-11.4651
▁association	-11.4651
▁bagdad	-11.4651
▁besproken	-11.4651
▁christiaan	-11.4651
▁hongersnood	-11.4651
▁ontsnapt	-11.4651
▁pelgrim	-11.4651
▁zorgvuldig	-11.4651
▁barnsteen	-11.4651
▁althans	-11.4651
▁tilburg	-11.4651
▁synthetisch	-11.4651
▁dusdanig	-11.4651
▁gebaren	-11.4651
▁gewaardeerd	-11.4651
▁ontbrak	-11.4651
gewricht	-11.4651
▁verenigen	-11.4651
▁zichtbare	-11.4651
▁stamboom	-11.4652
▁sluizen	-11.4654
▁plantage	-11.4655
▁besturen	-11.4656
▁prestatie	-11.4656
▁oplosbaar	-11.4658
▁stempel	-11.4659
graden	-11.4659
▁1902	-11.4662
▁mineur	-11.4663
bezoek	-11.4663
▁parma	-11.4665
iii	-11.4666
▁levenswijze	-11.4669
links	-11.467
▁vermelden	-11.4671
▁1898	-11.4673
format	-11.4673
▁samenwerken	-11.4673
▁wilson	-11.4673
vlieg	-11.4674
machines	-11.4674
▁50%	-11.4675
grun	-11.4678
▁verreden	-11.4678
▁verdun	-11.4679
▁sterkste	-11.4681
▁spellen	-11.4681
▁nabijheid	-11.4681
▁verrichten	-11.4682
▁concurrent	-11.4683
▁ijsvogel	-11.4686
▁aftreden	-11.469
▁asperge	-11.4693
▁optrad	-11.4698
▁carter	-11.4699
▁swap	-11.4699
▁kortere	-11.4705
constante	-11.4706
▁his	-11.471
▁opgeroepen	-11.4711
waardige	-11.4712
▁psalmen	-11.4714
verbond	-11.4719
acteur	-11.4722
imo	-11.4723
cio	-11.4726
▁kijkers	-11.473
servi	-11.4735
▁werkzaamheden	-11.4736
thon	-11.4736
bé	-11.4737
▁fris	-11.4742
▁mé	-11.4744
hab	-11.4747
▁aangetrokken	-11.4749
economische	-11.475
▁brit	-11.475
▁adams	-11.4754
▁tweeën	-11.4761
▁verminderd	-11.4765
netten	-11.4767
gast	-11.477
bruin	-11.477
music	-11.4773
▁bereiden	-11.4775
▁abd	-11.4775
▁glad	-11.4778
▁betaalde	-11.4778
bombardement	-11.4781
▁hiërogliefen	-11.4782
boulevard	-11.4782
getwijfeld	-11.4782
▁appingedam	-11.4782
▁commentaar	-11.4782
▁fantasie	-11.4782
▁gedeputeerde	-11.4782
▁koeweit	-11.4782
▁ptolemaeus	-11.4782
▁spaceshuttle	-11.4782
▁veroordeling	-11.4782
▁weerszijden	-11.4782
▁programmeren	-11.4782
▁ziekenhuizen	-11.4782
▁differentiaal	-11.4782
▁ingediend	-11.4782
trekkingskracht	-11.4782
▁edelgas	-11.4782
▁opwarming	-11.4782
potentiaal	-11.4782
▁neiging	-11.4782
potentiële	-11.4782
▁bovengenoemde	-11.4782
▁splijt	-11.4783
▁gevangengenomen	-11.4783
▁mooie	-11.4783
▁bevolkt	-11.4783
▁cpn	-11.4783
▁bombardementen	-11.4784
▁evangelie	-11.4784
▁isoleren	-11.4785
▁breiden	-11.4785
verzekering	-11.4786
▁beantwoord	-11.4786
▁80%	-11.4787
▁wielen	-11.4788
▁vrees	-11.4788
action	-11.4789
▁verwijzingen	-11.4789
▁versierd	-11.4791
▁portretten	-11.4792
▁clip	-11.4792
▁merkte	-11.4792
▁wouter	-11.4793
krater	-11.4793
bundes	-11.4794
▁gracht	-11.4794
▁zwanger	-11.4795
▁daad	-11.4795
▁uitkomen	-11.4795
▁tijdgenoten	-11.4797
bru	-11.4798
▁ares	-11.4799
academi	-11.48
▁gotische	-11.4801
▁ddr	-11.4802
bakken	-11.4804
▁grafische	-11.4804
▁jr	-11.4804
▁1887	-11.4807
▁zinnen	-11.4807
▁voertuigen	-11.4808
▁populairste	-11.4813
bourg	-11.4815
▁verzamelde	-11.4821
waarschijnlijk	-11.4826
▁oplage	-11.4827
kwantumgetal	-11.483
genees	-11.4832
▁locke	-11.4833
▁carol	-11.4833
bewoners	-11.4841
▁landings	-11.4841
hebben	-11.4841
instituut	-11.4842
dood	-11.4843
index	-11.4843
gewoon	-11.4843
▁massaal	-11.4845
▁grap	-11.4846
▁compiler	-11.4846
xa	-11.485
▁schadelijk	-11.4851
leeuw	-11.4853
▁opstellen	-11.4856
frankisch	-11.4859
kritisch	-11.4866
count	-11.4866
sticht	-11.4866
site	-11.4872
▁vingers	-11.4873
▁finn	-11.4873
▁900	-11.4876
tennis	-11.4878
▁doorheen	-11.4881
osauria	-11.4885
▁doorgaan	-11.4885
▁call	-11.4887
glas	-11.4887
peil	-11.489
▁cilinder	-11.4892
▁beken	-11.4901
▁terugtrekken	-11.4903
▁winnaars	-11.4903
▁samengestelde	-11.4905
▁stadje	-11.4906
▁patronen	-11.4906
methoden	-11.4908
zion	-11.4909
▁stapel	-11.4912
restaurant	-11.4913
▁ambassade	-11.4914
führer	-11.4916
registratie	-11.4916
▁encyclopedie	-11.4916
▁geannexeerd	-11.4916
▁gecomponeerd	-11.4916
▁overheersing	-11.4916
▁shuttle	-11.4916
▁verdwijnt	-11.4916
▁gabriel	-11.4916
▁oprukken	-11.4916
▁caribisch	-11.4916
▁klinken	-11.4916
▁mtv	-11.4916
▁herdenkings	-11.4916
▁vergeten	-11.4916
▁nelson	-11.4917
▁origineel	-11.4917
▁herindeling	-11.4918
vruchtbare	-11.4919
▁schouder	-11.492
▁lord	-11.492
▁traag	-11.4925
▁gangbaar	-11.4925
british	-11.4926
▁radon	-11.4926
▁hoofdstukken	-11.4928
▁evenmin	-11.4929
▁heuvels	-11.4934
▁opnames	-11.4934
▁union	-11.4936
▁nulpunt	-11.4936
erfelijke	-11.4938
▁formaat	-11.4941
ikken	-11.4941
▁1871	-11.4943
▁deelgemeenten	-11.4944
▁aanstelling	-11.495
halve	-11.4954
bom	-11.4959
▁wetenschapper	-11.496
▁platte	-11.4961
▁schijnt	-11.4963
▁haat	-11.4963
▁toeschouwers	-11.4964
▁rupsen	-11.4968
▁gewapende	-11.4971
maj	-11.4971
sloot	-11.4973
▁kast	-11.4978
vlees	-11.4978
kalender	-11.4978
evenement	-11.498
▁bedreigde	-11.4982
▁opgevoerd	-11.4983
▁gevecht	-11.4989
reizen	-11.4991
▁sier	-11.4992
▁grachten	-11.5001
▁betaal	-11.5001
▁ploegen	-11.5006
▁awards	-11.5009
historische	-11.501
▁binnenlands	-11.5022
▁down	-11.5033
vliegtuig	-11.5035
▁monet	-11.5036
krab	-11.5046
▁slangen	-11.5048
poë	-11.5048
roemeens	-11.5051
▁gevarieerd	-11.5051
sgewijs	-11.5051
▁avonturen	-11.5051
▁floyd	-11.5051
▁fungeert	-11.5051
▁multatuli	-11.5051
▁muzikaal	-11.5051
▁toonaangevend	-11.5051
▁versailles	-11.5051
▁representatie	-11.5051
▁scandinavische	-11.5051
▁ontdekken	-11.5051
▁beschouwing	-11.5051
▁saksische	-11.5051
biljet	-11.5051
carboon	-11.5051
▁gaandeweg	-11.5051
▁waterdamp	-11.5051
▁enclave	-11.5051
pigment	-11.5051
▁psychoanalyse	-11.5051
▁huwde	-11.5051
▁genoom	-11.5052
▁vincent	-11.5052
▁verdubbeld	-11.5052
▁journalistiek	-11.5052
▁australische	-11.5052
▁uiteenvallen	-11.5053
▁voelen	-11.5053
▁individueel	-11.5053
▁restanten	-11.5054
▁manschappen	-11.5054
▁elektronica	-11.5055
▁vx	-11.5055
▁interval	-11.5055
▁bitter	-11.5056
heidense	-11.5056
▁mali	-11.5058
▁bewaren	-11.5058
▁kurt	-11.5058
stream	-11.5059
▁inwoneraantal	-11.5063
pé	-11.5064
▁taalkunde	-11.5064
▁bruid	-11.5064
dorf	-11.5068
▁overdag	-11.5071
vlaamse	-11.5078
▁1875	-11.508
▁disciplines	-11.5081
▁tropisch	-11.5085
evolutionaire	-11.5089
▁dader	-11.509
actieve	-11.5091
arabisch	-11.5096
▁aken	-11.5096
arische	-11.5102
fabrieken	-11.5102
▁bestudeerde	-11.5105
schreef	-11.511
pic	-11.5112
▁spirit	-11.5116
overeenkomst	-11.5116
inclusief	-11.5117
public	-11.5118
trekker	-11.5118
puls	-11.5127
pia	-11.5133
▁verhoging	-11.5137
pje	-11.514
probeerden	-11.514
▁verkeerd	-11.514
istiek	-11.5145
vaak	-11.5146
▁dorpje	-11.5151
▁overlap	-11.5154
▁pb	-11.5154
lich	-11.5159
pac	-11.5162
donk	-11.5164
ogram	-11.5167
frequent	-11.5172
▁geplande	-11.5172
▁ondernemingen	-11.5173
▁aandoeningen	-11.5174
▁ontwikkelt	-11.5174
activiteit	-11.5175
▁baron	-11.518
▁schieten	-11.5182
▁communi	-11.5185
▁clo	-11.5187
chromosomen	-11.5188
▁geïdentificeerd	-11.5188
▁manhattan	-11.5188
▁minogue	-11.5188
▁portugees	-11.5188
▁promoveerde	-11.5188
▁residentie	-11.5188
▁scheidsrechter	-11.5188
▁sjabbat	-11.5188
▁vespasianus	-11.5188
▁ecologische	-11.5188
▁postuum	-11.5188
▁functionele	-11.5188
▁gekweekt	-11.5188
▁overheersen	-11.5188
▁verwarren	-11.5188
▁klingon	-11.5188
▁rubber	-11.5188
▁knooppunt	-11.5188
▁verdienen	-11.5188
▁database	-11.5188
spreuk	-11.5188
▁ogenblik	-11.5188
▁azteken	-11.5189
▁profeten	-11.5189
▁luxe	-11.5189
▁serieuze	-11.519
▁turf	-11.519
▁uitbrak	-11.519
▁array	-11.5191
▁wereldbeker	-11.5191
▁kenmerkende	-11.5192
▁planning	-11.5192
▁habsburgse	-11.5193
▁genade	-11.5195
▁lift	-11.5199
▁juan	-11.5201
▁puur	-11.5203
toernooien	-11.5203
▁jagen	-11.5208
▁tast	-11.5208
mill	-11.5212
▁tegenstand	-11.5214
▁driemaal	-11.5215
▁pala	-11.5218
▁sv	-11.5218
▁afleggen	-11.5218
▁kustlijn	-11.5221
▁nero	-11.5221
▁rif	-11.5221
▁viii	-11.5222
▁offensief	-11.5224
▁arme	-11.5228
▁concludeerde	-11.523
▁houtman	-11.5234
dronk	-11.5236
reserve	-11.5239
liber	-11.524
▁aanloop	-11.5241
▁gestaan	-11.5246
franse	-11.5246
meenschappelijk	-11.5253
▁bovenaan	-11.5255
▁herstelde	-11.5255
buiten	-11.5257
conferentie	-11.5257
▁gronings	-11.5257
procedure	-11.5257
socialistische	-11.5258
communicatie	-11.5259
uitgave	-11.527
▁bie	-11.527
▁kou	-11.5271
▁maten	-11.5273
▁aanpassingen	-11.528
▁enkelspel	-11.5285
kenner	-11.5288
stichting	-11.5295
▁oss	-11.5296
vlaams	-11.5297
▁consequent	-11.5297
rant	-11.5308
▁huisvest	-11.5312
▁overgaan	-11.5312
▁estisch	-11.5314
▁sr	-11.5318
kleuren	-11.5322
▁vierkant	-11.5324
vrijmetselaar	-11.5326
roubaix	-11.5327
▁alzheimer	-11.5327
▁antoine	-11.5327
▁antwerpse	-11.5327
▁caïro	-11.5327
▁communiceren	-11.5327
▁geweigerd	-11.5327
▁geëxecuteerd	-11.5327
▁justinianus	-11.5327
▁münster	-11.5327
▁naburig	-11.5327
▁radicaal	-11.5327
▁vermengd	-11.5327
▁vergezeld	-11.5327
▁artemis	-11.5327
▁rendement	-11.5327
▁informatica	-11.5327
▁tmf	-11.5327
▁sanctie	-11.5327
▁gewervelde	-11.5328
▁bruikbaar	-11.5328
▁erosie	-11.5328
▁prikkel	-11.5329
▁dierentuin	-11.5329
▁burgerij	-11.5331
▁onzeker	-11.5332
▁1100	-11.5336
kaap	-11.5336
▁provincieraad	-11.5339
▁snaar	-11.5341
▁ontkend	-11.5341
▁gevlucht	-11.5342
▁plantaardig	-11.5344
▁eeuwige	-11.5345
▁beheerste	-11.5347
▁elfde	-11.5348
cim	-11.5348
▁zaden	-11.5349
russische	-11.5349
▁collectief	-11.535
gigant	-11.535
▁wereldbeeld	-11.5351
▁afgevaardigden	-11.5353
▁gegraven	-11.5353
▁1899	-11.5354
▁afweer	-11.5354
▁your	-11.5356
india	-11.5358
bora	-11.5358
▁gelijkwaardig	-11.5361
dok	-11.5362
▁grootst	-11.5367
sverwachting	-11.5372
▁lineaire	-11.5373
▁zoekt	-11.5375
▁korst	-11.5378
▁opgepakt	-11.5383
▁voltooide	-11.5384
▁kritisch	-11.5386
▁utrechtse	-11.5386
▁tweetalig	-11.539
▁handig	-11.5391
iya	-11.5392
▁aangedreven	-11.5393
▁systematische	-11.5395
capaciteit	-11.54
amsterdam	-11.5401
international	-11.5401
aj	-11.5401
gemiddelde	-11.5403
▁vijftiende	-11.5409
▁facto	-11.541
▁bever	-11.5412
▁trainer	-11.5416
▁dance	-11.5421
▁godheid	-11.5428
▁haf	-11.543
▁johanna	-11.543
kopen	-11.543
▁bondgenootschap	-11.5438
rennen	-11.5439
▁opgelopen	-11.5443
▁klu	-11.5445
▁grandslam	-11.5446
paul	-11.5447
slavisch	-11.5447
▁great	-11.5452
gezette	-11.5454
▁argumenten	-11.546
▁fondsen	-11.5464
instructie	-11.5464
metaal	-11.5464
stoornis	-11.5465
medewerker	-11.5466
vriend	-11.5466
luftwaffe	-11.5468
verontreiniging	-11.5468
▁boedapest	-11.5468
▁creëerde	-11.5468
▁geschonken	-11.5468
▁kathedralen	-11.5468
▁roeselare	-11.5468
▁twente	-11.5468
▁uitnodiging	-11.5468
alexandr	-11.5468
guinea	-11.5468
▁sneuvelde	-11.5468
▁claude	-11.5468
▁urbanus	-11.5468
kuifje	-11.5468
▁bekijken	-11.5468
▁kroonprins	-11.5468
▁kerkgenootschap	-11.5468
▁toetsenbord	-11.5468
▁nimf	-11.5468
▁entwistle	-11.5468
boycot	-11.5468
▁vorstendom	-11.5469
▁trommel	-11.547
▁kelten	-11.547
▁windmolen	-11.547
▁kalief	-11.5471
▁duinen	-11.5471
▁instructies	-11.5471
▁ibm	-11.5471
▁monumentale	-11.5473
▁niels	-11.5473
break	-11.5474
▁valley	-11.5475
▁snij	-11.5476
▁adria	-11.5476
▁deelstaten	-11.5476
▁apartheid	-11.5477
▁hoover	-11.5477
▁bun	-11.548
democratisch	-11.5485
▁bits	-11.5487
▁170	-11.5488
▁fotonen	-11.549
▁rijnland	-11.549
▁200.000	-11.5496
▁1859	-11.5496
▁1882	-11.5498
▁industrieel	-11.5504
▁technologische	-11.5505
sept	-11.5506
▁hervormde	-11.5506
▁zegen	-11.5512
▁verlaat	-11.5512
▁geruchten	-11.5512
woon	-11.5516
bou	-11.5518
▁nick	-11.5522
delige	-11.5527
▁zijrivieren	-11.5528
▁afro	-11.553
heuvel	-11.5537
concerten	-11.5538
indeling	-11.5538
▁ruwe	-11.5542
voetbal	-11.5545
▁inhoudelijk	-11.5546
▁dick	-11.5546
levisieprogramma	-11.5547
▁enkelvoud	-11.5548
spectra	-11.5549
▁knie	-11.5552
oxidatietoestand	-11.5553
brief	-11.5554
litz	-11.556
▁karakteristiek	-11.5561
waren	-11.5564
iu	-11.5565
▁salt	-11.5567
▁power	-11.5572
duiker	-11.5574
platen	-11.558
▁voordien	-11.5583
▁medeklinkers	-11.5583
▁cour	-11.5587
thu	-11.5595
▁duet	-11.5597
▁wierp	-11.5599
draad	-11.56
gesneden	-11.5605
wall	-11.5606
mobiel	-11.5606
▁toulouse	-11.561
▁cyprus	-11.561
▁genomineerd	-11.561
▁gewelddadige	-11.561
▁kobalt	-11.561
▁monteverdi	-11.561
▁oligoceen	-11.561
▁organiseert	-11.561
▁wellington	-11.561
▁plastic	-11.561
▁komeet	-11.561
▁tevreden	-11.5611
▁presentatie	-11.5611
boezem	-11.5611
▁vindplaats	-11.5611
▁vogelspinnen	-11.5611
▁sparta	-11.5612
▁deventer	-11.5614
▁genieten	-11.5614
▁stichten	-11.5614
▁harmonische	-11.5614
▁josé	-11.5614
vergoeding	-11.5615
▁chris	-11.5615
strand	-11.5617
▁particulier	-11.5619
▁125	-11.5621
urban	-11.5623
▁wettig	-11.5624
▁chaos	-11.5624
gaelisch	-11.5624
▁familienaam	-11.5625
▁panden	-11.5632
▁1894	-11.5633
▁praten	-11.5635
otter	-11.5638
▁ponti	-11.5643
▁marien	-11.5643
▁juridisch	-11.5652
▁stijgende	-11.5653
▁cycli	-11.5658
wang	-11.566
magne	-11.5662
technisch	-11.5663
heel	-11.5665
▁roel	-11.5666
2008	-11.5667
fol	-11.5667
griff	-11.5672
weense	-11.5674
▁buurlanden	-11.5676
▁haring	-11.5677
▁kabinetten	-11.5677
▁antoni	-11.5678
oriëntatie	-11.5678
▁lutherse	-11.568
▁apparaten	-11.5683
▁hz	-11.5685
▁kha	-11.5685
verslag	-11.5685
marie	-11.5687
huwelijk	-11.5692
vlinder	-11.5692
lichaam	-11.5692
combinatie	-11.5692
probleem	-11.5693
concentratie	-11.5693
roos	-11.5693
▁kerkelijk	-11.5696
▁bour	-11.5697
biologie	-11.5699
▁sap	-11.5706
▁thuisland	-11.5714
ulf	-11.5714
getekend	-11.5715
filter	-11.5718
erwijs	-11.5722
eerbare	-11.5723
▁cult	-11.5725
▁haalt	-11.5726
▁leverden	-11.5732
17)	-11.5733
_18	-11.5753
krijg	-11.5753
atmosferische	-11.5755
▁anatomie	-11.5755
▁bourgondische	-11.5755
▁gerangschikt	-11.5755
▁gereduceerd	-11.5755
▁hellenistische	-11.5755
▁lissabon	-11.5755
▁mioceen	-11.5755
▁onvolledig	-11.5755
▁psyche	-11.5755
nouveau	-11.5755
▁positron	-11.5755
trombone	-11.5755
▁friezen	-11.5755
▁kempen	-11.5755
▁united	-11.5755
▁opstandelingen	-11.5755
▁redacteur	-11.5756
▁iberisch	-11.5756
oculair	-11.5756
▁frame	-11.5756
▁vtm	-11.5757
▁gevoelens	-11.5758
▁stadsbestuur	-11.5758
▁binaire	-11.5758
▁ultra	-11.5758
▁rijdt	-11.5759
▁gevel	-11.5759
▁fictie	-11.576
▁woede	-11.5761
▁inspanningen	-11.5762
▁genootschap	-11.5762
▁schriftelijke	-11.5762
▁tijger	-11.5765
▁victor	-11.5767
▁kogel	-11.5767
▁docent	-11.5768
▁1300	-11.5768
▁temse	-11.5772
▁vlies	-11.5773
▁4000	-11.5777
▁1831	-11.5778
▁1878	-11.5785
▁1889	-11.5785
▁1888	-11.5786
▁landskampioen	-11.5787
▁betekenissen	-11.5789
▁psychische	-11.5791
▁verhuisd	-11.5792
▁partijleider	-11.5794
2016	-11.5794
▁verlicht	-11.5797
otto	-11.5799
hyp	-11.5803
▁kath	-11.5807
body	-11.5811
▁luidde	-11.5812
atus	-11.5815
▁besef	-11.5816
▁verliefd	-11.5819
▁antennes	-11.5829
magnetisme	-11.5839
religie	-11.5842
rapport	-11.5842
gevraagd	-11.5846
tournee	-11.585
start	-11.5859
ierland	-11.5861
▁verliest	-11.5862
▁beginselen	-11.5866
natuurlijk	-11.5875
▁geleerde	-11.5877
▁springen	-11.5878
▁morel	-11.5887
pm	-11.5901
▁replica	-11.5902
industrialisatie	-11.5902
koolwaterstoffen	-11.5902
penicilline	-11.5902
▁diaghilev	-11.5902
▁empedocles	-11.5902
▁goedkeuring	-11.5902
▁hilversum	-11.5902
▁scheemda	-11.5902
▁sjiieten	-11.5902
▁specialisatie	-11.5902
▁specerij	-11.5902
▁laatstgenoemde	-11.5902
▁kosmos	-11.5902
▁uefa	-11.5902
▁vazal	-11.5902
▁verwierp	-11.5902
geschenk	-11.5903
▁gekroond	-11.5903
▁tegenhanger	-11.5903
▁wisselwerking	-11.5903
▁drents	-11.5903
▁blootgesteld	-11.5903
▁echtpaar	-11.5903
▁opgedragen	-11.5904
▁staatsburger	-11.5904
▁rijksmuseum	-11.5904
▁braille	-11.5904
▁tervuren	-11.5905
▁restaurants	-11.5905
▁fraai	-11.5905
▁daarbuiten	-11.5906
▁soera	-11.5907
▁constantius	-11.5907
▁global	-11.5907
▁vonnis	-11.5908
▁hiernaast	-11.5909
cry	-11.591
▁opinie	-11.591
▁timmer	-11.591
▁100%	-11.5912
indo	-11.5913
▁reiger	-11.5917
▁jack	-11.5919
▁buitenlanders	-11.5923
▁geboorteplaats	-11.5924
▁basil	-11.5924
voorbeeld	-11.593
▁1883	-11.5931
▁1876	-11.5934
▁amerikaan	-11.5934
▁ontvlucht	-11.5936
▁label	-11.5937
▁alweer	-11.5943
erkenning	-11.5951
▁spieren	-11.5957
nova	-11.5958
medio	-11.596
▁realistische	-11.5961
liefde	-11.5962
hartig	-11.5972
pauze	-11.5976
▁keel	-11.5976
arab	-11.5978
2007	-11.598
▁abt	-11.5981
▁zwaarder	-11.5984
rach	-11.5986
tabel	-11.5992
▁beslissen	-11.5993
schijf	-11.5993
telescoop	-11.5993
vroeg	-11.5993
micro	-11.5994
hier	-11.5997
vlek	-11.6001
▁verdienste	-11.6001
▁bijgezet	-11.6003
waarvan	-11.6004
▁lob	-11.6011
▁europe	-11.6019
amba	-11.6022
klassieker	-11.6026
gevoerd	-11.6031
▁jonger	-11.6032
▁blaas	-11.6036
▁vondst	-11.6039
weide	-11.6041
▁victoria	-11.6045
▁horizon	-11.6048
extinctie	-11.6052
▁aangetast	-11.6052
▁academy	-11.6052
▁angelsaksisch	-11.6052
▁bevelhebber	-11.6052
▁bolkestein	-11.6052
▁compromis	-11.6052
▁essentiële	-11.6052
▁geconstateerd	-11.6052
▁geplunderd	-11.6052
▁henegouwen	-11.6052
▁holocaust	-11.6052
▁klavecimbel	-11.6052
▁ontsnapping	-11.6052
▁pleistoceen	-11.6052
▁reïncarnatie	-11.6052
▁semantiek	-11.6052
▁statuut	-11.6052
▁stockholm	-11.6052
▁visuele	-11.6052
▁wederopbouw	-11.6052
▁mekka	-11.6052
▁dogma	-11.6052
▁terreur	-11.6052
▁beoogde	-11.6052
misdaden	-11.6052
▁verstoord	-11.6052
▁lettergreep	-11.6052
glaciale	-11.6052
▁gedroogd	-11.6052
▁troonrede	-11.6052
▁guy	-11.6053
▁crucia	-11.6053
▁stichter	-11.6053
▁toneelstukken	-11.6057
▁intervallen	-11.6057
elektronen	-11.6057
▁mooiste	-11.6058
▁decoratie	-11.606
▁score	-11.6061
poly	-11.6063
loon	-11.6064
▁holle	-11.6066
voorraad	-11.6067
▁1897	-11.6077
tweede	-11.6078
700	-11.6082
▁1874	-11.6083
odont	-11.6084
▁forum	-11.6086
0°	-11.609
▁major	-11.6091
▁milli	-11.6091
sprong	-11.6091
▁ondernomen	-11.6091
dichtheid	-11.6098
▁terts	-11.6104
▁biologisch	-11.6106
ello	-11.6108
▁basic	-11.611
▁mri	-11.6124
▁uitwerking	-11.6126
volgende	-11.6127
▁grijpen	-11.6132
georiënteerde	-11.6134
▁sem	-11.6137
▁rela	-11.614
▁marco	-11.6144
dochter	-11.6148
personen	-11.6148
psycho	-11.6148
▁hypo	-11.6153
gun	-11.6155
tibet	-11.6156
▁toonder	-11.6158
super	-11.6159
otherm	-11.617
▁luxemburgs	-11.6175
klap	-11.618
▁olymp	-11.6182
rub	-11.6182
▁gewonden	-11.6188
▁elftal	-11.6191
▁zwitser	-11.6193
fossiel	-11.6199
▁afschaffing	-11.6203
▁antibiotica	-11.6203
▁beëindigen	-11.6203
▁federaal	-11.6203
▁gerestaureerd	-11.6203
▁suggereert	-11.6203
▁verpleeg	-11.6203
▁anderhalf	-11.6203
▁associatie	-11.6203
▁benelux	-11.6203
▁cafeïne	-11.6203
▁dinsdag	-11.6203
▁tragedie	-11.6203
▁evangelische	-11.6203
▁evangeliën	-11.6203
▁kosmisch	-11.6203
▁benzine	-11.6203
▁gehucht	-11.6203
▁kieuw	-11.6203
▁informele	-11.6203
▁ghana	-11.6203
▁lewis	-11.6203
▁keurvorst	-11.6203
▁zondvloed	-11.6204
▁volkenbond	-11.6204
▁trojaan	-11.6204
▁voedingsstoffen	-11.6204
▁verlangen	-11.6204
▁geweten	-11.6204
▁telegraaf	-11.6204
▁prenten	-11.6205
▁straffen	-11.6206
▁rietveld	-11.6207
▁stuitte	-11.6207
▁achtergelaten	-11.6208
beenderen	-11.6209
▁plegen	-11.6209
▁nederlandsche	-11.621
▁etheen	-11.6212
smok	-11.6214
kam	-11.6214
▁ongelijk	-11.6218
▁toedoen	-11.6218
▁cao	-11.6219
▁weekblad	-11.6223
▁25%	-11.6224
▁60%	-11.6228
echt	-11.6228
▁oversteek	-11.6232
▁vriendin	-11.6233
▁1813	-11.6234
ative	-11.6246
▁daarover	-11.6249
▁rebellen	-11.6249
bouwers	-11.6249
rechtelijk	-11.625
circulatie	-11.625
▁voorsprong	-11.6258
ballon	-11.6259
▁vijandig	-11.6261
dun	-11.6265
horen	-11.6272
▁aanwijzing	-11.6276
holt	-11.628
▁mut	-11.6282
pedi	-11.6283
worst	-11.6284
▁seine	-11.6285
▁recenter	-11.6285
nitz	-11.6286
gebroken	-11.6295
natuur	-11.6296
licentie	-11.6303
▁15%	-11.6304
kantoor	-11.6304
lak	-11.6318
▁huishoud	-11.632
house	-11.632
▁350	-11.6325
▁kruistochten	-11.6331
etta	-11.6332
▁wenste	-11.6335
▁dikte	-11.6336
▁chrom	-11.6336
raai	-11.6338
structuren	-11.6339
▁2500	-11.6341
▁woordenboek	-11.6344
gebrek	-11.6351
▁tang	-11.6353
▁diafragma	-11.6357
▁euclides	-11.6357
▁eukaryoten	-11.6357
▁fundamenteel	-11.6357
▁psychiatrisch	-11.6357
▁regelgeving	-11.6357
▁research	-11.6357
▁reservaten	-11.6357
▁septuagint	-11.6357
▁arnold	-11.6357
▁illegale	-11.6357
▁patriarch	-11.6357
▁plezier	-11.6357
▁bestempeld	-11.6357
▁fleming	-11.6357
▁afwisselend	-11.6357
▁komedie	-11.6357
▁verworpen	-11.6357
▁heineken	-11.6357
▁valuta	-11.6357
▁firma	-11.6357
▁virale	-11.6357
▁allround	-11.6357
▁verplaatsing	-11.6358
▁bbp	-11.6358
▁optellen	-11.6358
▁geschapen	-11.6358
▁margaretha	-11.6358
chari	-11.6358
▁analytische	-11.6358
▁tablet	-11.6358
▁chroom	-11.6359
▁betaalmiddel	-11.636
▁intelligentie	-11.636
uitrusting	-11.6361
▁poorten	-11.6361
▁xiv	-11.6361
▁continentaal	-11.6363
communist	-11.6364
quick	-11.6365
▁observatie	-11.6367
▁bezwaar	-11.6367
▁beheersen	-11.6368
style	-11.6369
▁pokken	-11.637
▁buitenwereld	-11.6371
▁paring	-11.6374
chus	-11.6375
▁mangaan	-11.6376
▁hindoe	-11.6379
▁70%	-11.638
▁1893	-11.6382
▁herziening	-11.6384
grand	-11.6386
zzo	-11.6388
▁daaronder	-11.6392
▁onderwezen	-11.6393
▁wethouder	-11.6394
wijdte	-11.6395
▁1400	-11.6395
▁volg	-11.6398
▁rotterdamse	-11.6405
witte	-11.6409
▁soul	-11.6411
▁raf	-11.6418
▁overgegaan	-11.6426
sbeleid	-11.6429
▁emoties	-11.6435
▁hoogland	-11.6436
opera	-11.6446
▁nel	-11.645
▁hatt	-11.6454
genaamd	-11.6455
▁ivan	-11.6456
experiment	-11.6456
weefsel	-11.6458
alfabet	-11.6461
gedwongen	-11.6462
psychologie	-11.6462
belgië	-11.6462
schoon	-11.6462
▁vergader	-11.6463
koreaanse	-11.6463
▁rey	-11.6465
hoofdstad	-11.6469
hemel	-11.6471
veiligheid	-11.6473
notatie	-11.6475
▁peer	-11.6477
▁gletsjers	-11.6478
▁zonden	-11.6481
verkiezingen	-11.6485
ijnse	-11.6486
▁homoseksuele	-11.6487
▁nk	-11.6496
▁stopt	-11.6497
gegooid	-11.6513
▁faciliteiten	-11.6513
▁geraardsbergen	-11.6513
▁lanthanide	-11.6513
▁machthebber	-11.6513
▁magazine	-11.6513
▁marijnissen	-11.6513
▁omgedoopt	-11.6513
▁pyreneeën	-11.6513
▁rivaliteit	-11.6513
▁substantie	-11.6513
▁concrete	-11.6513
▁intensief	-11.6513
▁lahaut	-11.6513
▁scenario	-11.6513
▁inspireren	-11.6513
▁kortstondig	-11.6513
▁fosgeen	-11.6513
▁vertraging	-11.6513
▁ankara	-11.6513
▁reggae	-11.6513
▁hernieuwde	-11.6513
▁bebouwing	-11.6513
gitarist	-11.6513
▁gebroeders	-11.6513
doctrine	-11.6514
▁aanvulling	-11.6514
▁onrechte	-11.6514
▁compact	-11.6515
▁gemeld	-11.6516
▁werkwijze	-11.6516
▁redding	-11.6516
▁slijm	-11.6517
▁beton	-11.6517
▁typerend	-11.6518
▁handelaren	-11.6519
▁ceau	-11.6519
▁arp	-11.652
russisch	-11.652
▁stadscentrum	-11.652
▁bloeiende	-11.6521
▁sul	-11.6523
programmeertalen	-11.6525
deugd	-11.6529
▁apple	-11.6534
gouw	-11.6535
districten	-11.6536
▁140	-11.6538
▁wijten	-11.6539
▁1839	-11.6539
plak	-11.654
▁1869	-11.6543
▁hardheid	-11.6547
▁kook	-11.6549
alisering	-11.6549
▁afleiding	-11.6552
▁fransman	-11.6553
cultus	-11.6556
▁pleitte	-11.6557
▁liedje	-11.6557
huur	-11.6557
▁lost	-11.6565
▁legeringen	-11.6566
▁verhandeling	-11.6566
▁explosieve	-11.6568
▁vaderland	-11.6569
▁opgesloten	-11.6579
▁gebergten	-11.6579
▁salaris	-11.6581
sturing	-11.6589
▁beperking	-11.659
ooster	-11.6593
table	-11.6602
▁dion	-11.6609
▁nico	-11.6609
▁onderwereld	-11.661
goddelijk	-11.6611
liter	-11.6614
lug	-11.6616
▁afname	-11.6616
letten	-11.6619
student	-11.6623
circa	-11.6623
gemeenschappen	-11.6629
▁ark	-11.6629
ranglijst	-11.6631
portret	-11.6632
▁steve	-11.6632
▁bacterië	-11.6646
opening	-11.6647
bossen	-11.665
prof	-11.6655
aziatisch	-11.6669
▁accepteren	-11.6672
▁authentiek	-11.6672
▁exclusieve	-11.6672
▁jefferson	-11.6672
▁kooldioxide	-11.6672
▁shakira	-11.6672
▁zürich	-11.6672
▁munitie	-11.6672
▁verbood	-11.6672
▁wright	-11.6672
▁correspondentie	-11.6672
▁joyce	-11.6672
▁ontlasting	-11.6672
▁vicepresident	-11.6672
▁decembermoorden	-11.6672
▁scheppen	-11.6672
tapijt	-11.6672
▁archeologie	-11.6672
ensemble	-11.6672
▁judea	-11.6672
▁vermeden	-11.6672
▁beoordeeld	-11.6672
veronderstelling	-11.6672
▁langzamerhand	-11.6672
▁tsaar	-11.6672
▁dokter	-11.6673
▁voornaamwoord	-11.6673
▁mythische	-11.6673
▁onderhandelen	-11.6673
▁duurzaam	-11.6673
▁geluidssnelheid	-11.6674
vijandelijke	-11.6674
▁voorzichtig	-11.6675
▁vaststellen	-11.6677
▁genezen	-11.6677
▁palts	-11.6678
▁middelgrote	-11.6679
loopt	-11.668
collectie	-11.6681
rhein	-11.6682
▁esa	-11.6683
uti	-11.6685
▁afgelegen	-11.6688
klok	-11.6689
jimmy	-11.6689
putten	-11.6692
goederen	-11.6694
▁bull	-11.6695
gilde	-11.6698
relderfgoedlijst	-11.6699
▁1863	-11.6704
draden	-11.6705
▁1700	-11.6708
▁deutsche	-11.6713
▁wisselende	-11.6714
▁makkelijker	-11.6714
ship	-11.6716
blik	-11.6717
voorafgegaan	-11.6718
▁formuleerde	-11.6719
▁prima	-11.672
▁101	-11.6724
▁resulteer	-11.6726
sgezind	-11.6727
▁esc	-11.6731
▁projectie	-11.6733
▁garden	-11.6738
▁komma	-11.6744
▁schiet	-11.675
▁tasman	-11.6763
ikke	-11.6772
trekkende	-11.6781
hulp	-11.6782
kwestie	-11.6788
overschot	-11.6789
modellen	-11.6794
▁aanname	-11.6799
nsverduistering	-11.6802
nog	-11.6805
schieten	-11.6813
▁roma	-11.6814
9.000	-11.6821
▁algebra	-11.6826
ful	-11.6828
▁intelligent	-11.683
muzikant	-11.6832
chirurg	-11.6833
chemicaliën	-11.6833
▁admiraal	-11.6833
▁afstamming	-11.6833
▁amfibieën	-11.6833
▁amplitude	-11.6833
▁gefinancierd	-11.6833
▁hubble	-11.6833
▁portefeuille	-11.6833
▁problematisch	-11.6833
▁professional	-11.6833
▁rügen	-11.6833
▁spontane	-11.6833
▁surrealisme	-11.6833
▁uitdrukkelijk	-11.6833
▁visigoten	-11.6833
beschadiging	-11.6833
▁intellectueel	-11.6833
▁paleoceen	-11.6833
▁paradox	-11.6833
▁psychologische	-11.6833
▁benaderd	-11.6833
▁kippen	-11.6833
▁verkrijgbaar	-11.6833
▁ontbonden	-11.6833
▁tactiek	-11.6833
▁zuilen	-11.6833
▁onenigheid	-11.6833
barometer	-11.6834
▁denkbeelden	-11.6834
mach	-11.6834
▁metropool	-11.6834
▁dalí	-11.6835
ambtenaar	-11.6835
▁intact	-11.6836
▁onvrede	-11.6836
vezels	-11.6837
▁splitst	-11.6839
▁noordpool	-11.684
schildpad	-11.6843
▁night	-11.6843
▁explosief	-11.6845
▁optimal	-11.6845
▁passie	-11.685
▁financiering	-11.6854
krachtig	-11.6856
▁westland	-11.6857
▁voorvoegsel	-11.6859
▁tweehonderd	-11.6859
▁incest	-11.6863
fluoride	-11.6864
vé	-11.6869
▁betrokkenheid	-11.687
50.000	-11.6873
04)	-11.6881
jacht	-11.6886
geroepen	-11.6886
lian	-11.6894
vrede	-11.6899
koek	-11.6901
▁dagboek	-11.6904
woestijn	-11.6905
▁belo	-11.693
▁iris	-11.693
▁plaatje	-11.6931
▁law	-11.6931
tekort	-11.6939
carbonaat	-11.6951
diploma	-11.6952
hongaars	-11.6953
hongarije	-11.6954
offensief	-11.6954
moes	-11.6955
virussen	-11.696
▁geologisch	-11.6961
play	-11.6963
joodse	-11.6964
▁financier	-11.6976
hexa	-11.6977
yot	-11.6983
odium	-11.6986
grammen	-11.6993
▁marathon	-11.6997
▁bevestigen	-11.6997
▁civiele	-11.6997
▁drinkwater	-11.6997
▁eerbetoon	-11.6997
▁herakles	-11.6997
▁marokko	-11.6997
▁moldavië	-11.6997
▁samenvoeging	-11.6997
▁vogelgriep	-11.6997
▁volksgezondheid	-11.6997
▁waarschuwing	-11.6997
gouvernement	-11.6997
▁fernand	-11.6997
▁interventie	-11.6997
▁verbroken	-11.6997
▁gestaag	-11.6997
▁leeuwarden	-11.6997
▁rabbijn	-11.6997
▁verzocht	-11.6997
▁wél	-11.6997
▁zwaartepunt	-11.6997
▁erasmus	-11.6997
▁laurel	-11.6997
▁onbewuste	-11.6997
▁plutonium	-11.6997
▁verenkleed	-11.6997
▁bezwaren	-11.6997
▁christoph	-11.6997
▁vullen	-11.6997
▁pianist	-11.6998
decreet	-11.6998
▁kooplieden	-11.6998
▁onthuld	-11.6998
citroen	-11.6998
▁slinger	-11.6998
▁kalksteen	-11.6998
▁verzekerd	-11.6999
▁hanteren	-11.6999
▁indicatie	-11.6999
▁verzamelnaam	-11.6999
activist	-11.6999
▁grondwettelijk	-11.6999
▁munteenheid	-11.6999
▁buitengewoon	-11.7
▁tegengestelde	-11.7
▁creatieve	-11.7
▁smeltpunt	-11.7002
▁golan	-11.7003
▁vrijgelaten	-11.7003
▁leefwijze	-11.7004
▁toevlucht	-11.7004
▁grondstof	-11.7006
▁hertz	-11.7007
▁beginjaren	-11.701
▁intentie	-11.701
▁aantonen	-11.7011
▁levensbeschouw	-11.7013
eërs	-11.7016
▁succesvolste	-11.7017
▁grondwater	-11.7017
▁jacobus	-11.7017
▁bovenzijde	-11.7017
▁afstammelingen	-11.7025
▁1842	-11.7027
verzamelaars	-11.7027
▁godheden	-11.7027
▁1572	-11.703
▁afgelegd	-11.703
koers	-11.7031
want	-11.7037
▁heil	-11.7038
▁30.000	-11.704
numeri	-11.7056
▁stol	-11.7056
▁gered	-11.7058
romaans	-11.7058
oogst	-11.7062
▁opereren	-11.7066
partijvoorzitter	-11.7067
▁wezenlijk	-11.7074
▁krijgsgevangen	-11.708
▁groenten	-11.7081
▁eilandje	-11.7092
▁australia	-11.7093
polaire	-11.7106
you	-11.7108
▁groepering	-11.7115
life	-11.7117
▁bewegende	-11.7119
schrijf	-11.712
bereiding	-11.7121
contract	-11.7123
bibliotheek	-11.7123
overdracht	-11.7125
▁nadelen	-11.7128
kinderen	-11.713
hoop	-11.713
status	-11.7133
breek	-11.7137
▁institute	-11.714
spaans	-11.714
ouwer	-11.7142
▁xx	-11.7145
▁emu	-11.7149
minder	-11.7164
vergiftiging	-11.7164
▁aannemelijk	-11.7164
▁aguilera	-11.7164
▁barbizon	-11.7164
▁bevordering	-11.7164
▁chicago	-11.7164
▁chronologisch	-11.7164
▁gehuwd	-11.7164
▁lockheed	-11.7164
▁misdaad	-11.7164
▁ostrogoten	-11.7164
▁overkoepelend	-11.7164
▁prestigieu	-11.7164
▁tevergeefs	-11.7164
▁toetreding	-11.7164
▁uitbreiden	-11.7164
▁clijsters	-11.7164
▁comeback	-11.7164
▁voorspoed	-11.7164
▁recessie	-11.7164
▁schutter	-11.7164
▁toorop	-11.7164
▁vormgeving	-11.7164
▁fungeren	-11.7164
▁gevoed	-11.7164
▁conditie	-11.7164
▁tolerantie	-11.7164
▁fungeerde	-11.7164
▁permeke	-11.7164
▁beeldhouwkunst	-11.7164
▁modder	-11.7164
chronische	-11.7164
▁gemalen	-11.7164
▁veluwe	-11.7164
▁disney	-11.7165
▁genetica	-11.7165
▁gelegerd	-11.7165
▁meermaals	-11.7165
chemicus	-11.7165
▁veiligheidsraad	-11.7165
▁gespeld	-11.7166
▁wierook	-11.7166
▁kompas	-11.7166
▁objectieve	-11.7167
▁levensstijl	-11.7168
▁bewees	-11.717
verordening	-11.717
▁lanceerde	-11.7171
▁resp	-11.7172
▁vrijkomt	-11.7174
▁gelug	-11.7176
▁party	-11.7177
▁passeren	-11.7178
▁verblijven	-11.7182
hispani	-11.7189
▁wantsen	-11.719
▁1892	-11.7193
▁1881	-11.7196
▁treinstation	-11.7197
▁roei	-11.7198
▁1865	-11.7198
lekken	-11.72
▁geleiding	-11.72
▁1849	-11.7201
gevoel	-11.7202
▁cave	-11.7203
hold	-11.7203
tanden	-11.7204
plannen	-11.7207
▁overgave	-11.7208
strik	-11.7209
=55	-11.721
▁deelgebieden	-11.721
▁bosch	-11.7214
▁ester	-11.7221
argent	-11.7226
▁boos	-11.7232
▁kruising	-11.7234
▁omgebouwd	-11.7239
▁vluchtten	-11.7249
▁jim	-11.7251
▁psalm	-11.7252
▁divi	-11.7261
yri	-11.7261
▁heart	-11.7265
schijnbare	-11.727
▁drum	-11.7277
▁hay	-11.7282
campagne	-11.7286
planeet	-11.7292
organismen	-11.7296
mythologie	-11.7296
één	-11.7296
directeur	-11.7296
▁overstroming	-11.7299
hum	-11.7304
schilderingen	-11.7306
active	-11.731
prent	-11.7313
_6	-11.7317
aanvallen	-11.7318
▁deelgemeente	-11.7324
▁vrouwelijk	-11.7326
vij	-11.7327
evangeli	-11.733
▁langzamer	-11.7333
psychiatrie	-11.7333
slowaaks	-11.7333
▁astronoom	-11.7333
▁cadmium	-11.7333
▁concurreren	-11.7333
▁geconfronteerd	-11.7333
▁gemenebest	-11.7333
▁michelangelo	-11.7333
▁mitochondria	-11.7333
▁montgomery	-11.7333
▁netvlies	-11.7333
▁onvermijdelijk	-11.7333
▁predikant	-11.7333
▁sympathie	-11.7333
▁tentoongesteld	-11.7333
▁terrorisme	-11.7333
▁wereldberoemd	-11.7333
▁zwaveldioxide	-11.7333
schorpioen	-11.7333
▁expressionist	-11.7333
▁sampras	-11.7333
bekwaam	-11.7333
▁bewogen	-11.7333
▁jamaica	-11.7333
▁hergé	-11.7333
▁iucn	-11.7333
▁opzettelijk	-11.7333
▁raymond	-11.7333
▁douwes	-11.7333
▁naturisten	-11.7333
▁ultraviolet	-11.7333
crypto	-11.7333
syndroom	-11.7333
▁county	-11.7333
imperial	-11.7334
▁noemer	-11.7334
▁nijlpaard	-11.7334
▁jurist	-11.7334
▁hitlijsten	-11.7334
▁vredesverdrag	-11.7334
majoor	-11.7334
▁egmond	-11.7334
▁migranten	-11.7335
▁herbouwd	-11.7335
▁young	-11.7335
▁verwondingen	-11.7335
▁stekel	-11.7335
▁uitgeput	-11.7336
▁letterkunde	-11.7336
▁koorts	-11.7336
▁hawk	-11.7336
▁kermis	-11.7336
soft	-11.7337
▁delegatie	-11.7337
▁stofwisseling	-11.7337
▁voortgebracht	-11.7337
▁schrijfster	-11.7337
▁avant	-11.7338
protocollen	-11.7338
▁flank	-11.7338
▁gallisch	-11.7339
▁folk	-11.7339
rommel	-11.734
▁trappen	-11.734
▁jules	-11.734
▁koraal	-11.7341
▁slapen	-11.7341
▁volkomen	-11.7341
▁antwoordde	-11.7341
▁verwees	-11.7342
▁bruno	-11.7344
▁conform	-11.7344
▁smit	-11.7345
▁godsdienstige	-11.7346
▁vlot	-11.7346
▁geestelijken	-11.7347
rechterlijke	-11.7348
▁east	-11.7349
▁gevoeligheid	-11.735
▁achterstand	-11.735
▁euwe	-11.7351
▁sarin	-11.7352
▁benut	-11.7354
▁1846	-11.7358
▁sinus	-11.736
▁statisch	-11.7361
▁homoseksuelen	-11.7362
▁ocean	-11.7362
nomina	-11.7363
▁machtig	-11.7364
▁oudewater	-11.7366
rico	-11.7367
▁schrijfwijze	-11.7368
▁onnes	-11.738
▁formulering	-11.7384
▁verhard	-11.7387
district	-11.7389
raadsleden	-11.7389
▁slagveld	-11.739
▁wta	-11.7395
▁symbolisch	-11.7403
▁rukte	-11.7411
▁mannelijk	-11.7411
kamertemperatuur	-11.7412
▁0,5	-11.7414
heerser	-11.7416
▁final	-11.7418
▁oder	-11.7418
▁parallelle	-11.7424
zoeken	-11.743
▁syr	-11.743
huys	-11.7436
▁overhand	-11.744
▁paal	-11.7441
▁universitair	-11.7449
besluit	-11.7451
▁spot	-11.7459
▁onzekerheid	-11.7469
gren	-11.747
discipline	-11.747
priester	-11.7471
pijp	-11.7471
voornamelijk	-11.7471
louis	-11.7472
kristal	-11.7473
augustus	-11.7474
jazz	-11.7475
gill	-11.748
▁vermeer	-11.7484
audi	-11.7485
▁kikkers	-11.7492
stadium	-11.7495
▁hippo	-11.7496
▁leie	-11.7499
keuze	-11.7502
▁aangemerkt	-11.7506
▁betrouwbare	-11.7506
▁daendels	-11.7506
▁genève	-11.7506
▁gerechtshof	-11.7506
▁korstmossen	-11.7506
▁papyrus	-11.7506
▁qaida	-11.7506
▁streeft	-11.7506
coëfficiënt	-11.7506
▁amnestie	-11.7506
▁language	-11.7506
▁vladimir	-11.7506
▁voortbestaan	-11.7506
specificatie	-11.7506
▁aanvullend	-11.7506
▁componeren	-11.7506
▁vernield	-11.7506
▁marseille	-11.7506
▁onschuldig	-11.7506
lotharingen	-11.7506
▁consistent	-11.7506
▁toeneemt	-11.7506
▁verbleven	-11.7506
▁kopenhagen	-11.7506
▁bekroond	-11.7506
▁oplevert	-11.7506
▁katoen	-11.7506
▁echtscheiding	-11.7506
▁asiel	-11.7506
▁aansprak	-11.7507
▁knvb	-11.7507
▁staatsschuld	-11.7507
▁novelle	-11.7507
▁augustinus	-11.7507
▁glucose	-11.7507
▁geteld	-11.7507
▁limiet	-11.7508
▁meetkundige	-11.7508
▁hoeksnelheid	-11.7508
▁bloeiperiode	-11.7508
▁privéleven	-11.7508
▁devoon	-11.7508
▁heroverd	-11.7508
▁goedkope	-11.7508
▁glazen	-11.7509
▁richtlijnen	-11.7509
▁volksmond	-11.7509
▁herdacht	-11.7509
▁fascistische	-11.7509
▁fictieve	-11.7509
cino	-11.7509
▁hoofddoek	-11.751
▁kristallen	-11.7511
lingua	-11.7512
▁klokken	-11.7512
▁opleverde	-11.7512
▁vaccinatie	-11.7512
▁gemeentebestuur	-11.7514
▁johnny	-11.7514
roof	-11.7517
▁barry	-11.7519
stuw	-11.7519
vertelling	-11.7521
▁moreel	-11.7522
▁dieptepunt	-11.7522
▁kudde	-11.7522
cine	-11.7525
▁hobo	-11.7529
▁gespannen	-11.7532
▁buitenkant	-11.7533
▁1798	-11.7537
loosheid	-11.7537
▁geruim	-11.7539
▁haakjes	-11.7539
▁1861	-11.7541
▁volop	-11.7543
▁logische	-11.7556
▁creatie	-11.7566
▁regie	-11.757
andries	-11.7574
geperst	-11.7583
fysisch	-11.759
lay	-11.7593
▁smet	-11.7594
root	-11.7596
▁paarse	-11.7611
bury	-11.7617
enkelvoudige	-11.7621
▁messias	-11.7624
▁christendemocra	-11.7637
hypothese	-11.765
zilver	-11.765
militair	-11.765
domein	-11.765
schaduw	-11.7652
grijs	-11.7653
finale	-11.7656
saint	-11.7658
chlor	-11.7663
▁planet	-11.7666
zaad	-11.7667
▁lint	-11.7667
2014	-11.7672
▁driekwart	-11.7678
opwekking	-11.7681
▁broeikaseffect	-11.7681
▁compilatie	-11.7681
▁definiëren	-11.7681
▁elisabeth	-11.7681
▁emotionele	-11.7681
▁failliet	-11.7681
▁gedraagt	-11.7681
▁gesuggereerd	-11.7681
▁initiatieven	-11.7681
▁neurenberg	-11.7681
▁opgevoed	-11.7681
▁quetzalcoatl	-11.7681
▁teruggekeerd	-11.7681
▁xhosa	-11.7681
▁beoordeling	-11.7681
▁geselecteerd	-11.7681
▁groninger	-11.7681
▁hawaï	-11.7681
▁spijkerschrift	-11.7681
▁conventionele	-11.7681
▁donderdag	-11.7681
▁source	-11.7681
▁terroristisch	-11.7681
▁condoom	-11.7681
▁subtropisch	-11.7681
▁verhoeven	-11.7681
▁opgeteld	-11.7681
▁geteeld	-11.7681
▁indonesisch	-11.7681
▁nikola	-11.7681
▁verzorgt	-11.7681
▁verbeelding	-11.7681
▁heffen	-11.7681
▁vervult	-11.7681
▁fagot	-11.7681
▁pilatus	-11.7681
▁year	-11.7681
▁elsschot	-11.7682
▁uitmondt	-11.7682
▁kwartfinale	-11.7682
▁gedachtegoed	-11.7682
▁krijgsmacht	-11.7682
▁uranus	-11.7682
▁bloedige	-11.7682
▁borststuk	-11.7683
▁ondervond	-11.7683
▁verhandeld	-11.7683
▁metallisch	-11.7684
gekookt	-11.7684
▁geboortecijfer	-11.7684
▁escher	-11.7685
▁moerassen	-11.7686
▁ongekend	-11.7686
▁oostkust	-11.7687
▁handvest	-11.7689
▁jagers	-11.7689
ál	-11.7691
▁tendens	-11.7691
▁gelderse	-11.7694
able	-11.7694
▁louter	-11.7694
▁kerkgebouw	-11.7696
▁mira	-11.7697
▁coach	-11.7698
▁realiteit	-11.7699
▁keys	-11.77
▁taalgrens	-11.7702
▁achterkant	-11.7705
▁martinus	-11.7705
▁dinosauriër	-11.7705
▁ioc	-11.7708
▁gevaren	-11.7709
▁15.000	-11.7712
▁mysterie	-11.7719
▁1648	-11.7719
▁tij	-11.772
▁deelnemende	-11.7721
▁weergeven	-11.7721
▁floris	-11.7725
▁1810	-11.7732
▁getest	-11.7733
geleverd	-11.7738
▁1866	-11.7739
oppervlakte	-11.7742
▁samenhangend	-11.7744
▁herberg	-11.7745
revolutie	-11.7749
fijn	-11.7749
collectieve	-11.775
jah	-11.7751
▁750	-11.7752
four	-11.7766
▁bekering	-11.7767
kirche	-11.7771
▁sens	-11.7774
▁gelijkheid	-11.7774
▁landbouwgrond	-11.7775
kai	-11.7779
▁drijvend	-11.7782
stom	-11.7782
master	-11.779
▁philip	-11.78
illon	-11.7803
fred	-11.7812
▁fau	-11.7814
▁nicol	-11.7814
▁pleit	-11.7818
▁wiskundig	-11.7818
iaans	-11.7831
europees	-11.7832
single	-11.7832
[...]
