<unk>	0
<s>	0
</s>	0
▁de	-3.07652
.	-3.28679
▁	-3.6244
▁van	-3.73105
,	-3.76755
▁in	-3.9283
▁het	-3.96274
▁en	-4.09375
s	-4.09494
▁een	-4.16678
en	-4.29963
e	-4.39041
▁op	-4.94011
▁is	-4.99687
-	-5.04864
▁zijn	-5.06148
"	-5.12149
▁met	-5.15816
▁voor	-5.27469
▁te	-5.27707
▁(	-5.34395
d	-5.36623
▁die	-5.36732
▁"	-5.37397
t	-5.42771
▁dat	-5.44217
▁door	-5.44926
▁aan	-5.47707
▁als	-5.5496
##	-5.62466
▁werd	-5.62582
n	-5.65839
de	-5.6763
)	-5.71383
▁uit	-5.72817
▁was	-5.74828
▁ook	-5.75491
▁hij	-5.79588
▁er	-5.88109
="	-5.9085
▁tot	-5.94123
▁bij	-5.96222
▁om	-5.9632
:	-6.02611
▁wordt	-6.05527
▁niet	-6.05573
▁deze	-6.07371
▁worden	-6.08592
▁of	-6.08792
▁ge	-6.12713
er	-6.17001
'	-6.17705
▁ver	-6.23979
▁naar	-6.26286
▁over	-6.2875
▁maar	-6.30293
k	-6.3223
▁onder	-6.3427
▁dit	-6.35302
▁na	-6.38888
doc	-6.39051
>	-6.42045
▁zich	-6.44308
a	-6.46535
▁dan	-6.49473
▁be	-6.55514
▁ze	-6.57491
r	-6.59133
▁andere	-6.59788
/	-6.62897
te	-6.64912
▁jaar	-6.66017
▁meer	-6.66038
ing	-6.6622
▁heeft	-6.69311
in	-6.71586
o	-6.7343
se	-6.75032
▁nog	-6.75332
f	-6.75425
m	-6.7555
▁al	-6.76538
).	-6.78457
▁kan	-6.79673
▁eerste	-6.80632
ge	-6.8192
ten	-6.83715
▁veel	-6.84595
p	-6.86325
den	-6.86651
▁werden	-6.87289
▁af	-6.89063
▁zo	-6.90561
l	-6.94545
org	-6.9654
▁waren	-6.9694
▁hun	-6.96971
▁tussen	-6.97306
▁twee	-6.97558
c	-6.98788
y	-6.99169
▁hebben	-6.99778
;	-7.00552
▁eeuw	-7.00662
▁grote	-7.00768
▁'	-7.00915
),	-7.01102
g	-7.01251
▁had	-7.01837
re	-7.02089
▁18	-7.02803
?	-7.03897
▁zoals	-7.04848
le	-7.04965
el	-7.06585
▁id	-7.07184
i	-7.07279
▁categorie	-7.0742
nl	-7.08681
wikipedia	-7.08692
curi	-7.08842
▁wel	-7.0891
▁waar	-7.0952
wiki	-7.09599
v	-7.10225
▁url	-7.10844
://	-7.11142
https	-7.11187
al	-7.11238
▁<	-7.11239
title	-7.11328
▁</	-7.11489
▁zou	-7.13893
▁men	-7.14319
▁v	-7.15116
us	-7.17017
be	-7.17193
▁1	-7.17814
b	-7.18359
u	-7.19491
▁haar	-7.20594
▁geen	-7.2348
▁kunnen	-7.23576
ste	-7.24018
ken	-7.26608
on	-7.27975
ver	-7.28584
heid	-7.29428
▁stad	-7.29803
▁zij	-7.3006
h	-7.30133
▁tegen	-7.30614
▁tijd	-7.31112
▁echter	-7.31181
",	-7.31563
▁alle	-7.31777
▁-	-7.33407
▁land	-7.34097
st	-7.34242
▁deel	-7.34282
ers	-7.3526
▁a	-7.37129
▁aantal	-7.38074
ma	-7.38748
▁re	-7.39826
▁nieuwe	-7.41209
▁tijdens	-7.41262
▁nederland	-7.4245
es	-7.42785
ische	-7.4304
▁plaats	-7.43456
▁gebruikt	-7.43862
w	-7.44381
ig	-7.45661
z	-7.4619
".	-7.47147
is	-7.49843
na	-7.51491
▁jaren	-7.51583
ne	-7.51682
ve	-7.52049
▁wat	-7.52467
▁drie	-7.53418
ro	-7.53966
op	-7.541
▁omdat	-7.54158
▁verschillende	-7.5443
▁tweede	-7.54757
▁toen	-7.55151
▁later	-7.55666
▁toe	-7.55834
▁volgens	-7.55878
la	-7.56012
eren	-7.57112
▁groot	-7.57568
▁k	-7.57587
▁naam	-7.58203
ch	-7.58285
▁hem	-7.59047
▁vaak	-7.59076
▁weer	-7.5914
ie	-7.59671
ter	-7.60427
▁water	-7.6047
▁per	-7.60556
ur	-7.60682
▁ten	-7.61081
=	-7.61165
▁binnen	-7.61529
▁staat	-7.61585
ta	-7.62599
gen	-7.64434
land	-7.64652
uit	-7.64917
▁kwam	-7.66555
aan	-7.67443
▁hoe	-7.67492
▁vooral	-7.67665
▁sinds	-7.68218
▁bekend	-7.6973
▁samen	-7.69822
▁genoemd	-7.70104
an	-7.7124
▁16	-7.7157
▁vanaf	-7.7164
▁b	-7.7202
lo	-7.72746
▁wereld	-7.72763
▁enkele	-7.73839
atie	-7.73873
ingen	-7.74305
it	-7.74897
▁alleen	-7.7501
me	-7.75075
ra	-7.751
or	-7.751
len	-7.7546
▁werk	-7.75824
▁terug	-7.76092
▁her	-7.76521
der	-7.76594
▁on	-7.78149
▁verder	-7.7856
▁–	-7.78738
je	-7.80191
ar	-7.80217
▁leven	-7.80562
▁sch	-7.80568
▁17	-7.80748
ul	-7.80804
et	-7.81061
▁3	-7.81598
▁rond	-7.82334
x	-7.82611
sch	-7.82666
ia	-7.82717
▁15	-7.83513
no	-7.84093
pen	-7.84123
tie	-7.84221
▁2	-7.84961
▁eigen	-7.85048
um	-7.86075
as	-7.86134
▁ma	-7.86147
▁f	-7.88261
ke	-7.88391
to	-7.88567
▁zelf	-7.88777
▁ont	-7.88894
▁bijvoorbeeld	-7.88977
▁d	-7.89318
ige	-7.8935
▁daar	-7.9005
▁nederlandse	-7.90153
▁la	-7.90465
▁laatste	-7.90993
il	-7.9118
▁kon	-7.91551
▁waarbij	-7.92039
isch	-7.9207
▁koning	-7.92743
man	-7.92851
é	-7.93252
▁grootste	-7.93342
")	-7.93634
do	-7.93812
▁steeds	-7.93822
▁mensen	-7.94179
ster	-7.94375
▁ongeveer	-7.94376
▁maken	-7.9477
▁periode	-7.95437
▁taal	-7.9603
at	-7.96114
▁4	-7.96945
mo	-7.96992
da	-7.97565
ij	-7.97663
▁vier	-7.9771
▁komt	-7.98176
wel	-7.98278
▁le	-7.98472
eerde	-7.98538
▁dus	-7.98719
▁nu	-7.9892
eerd	-7.98979
▁gebruik	-7.99081
chr	-8.00151
ha	-8.005
ck	-8.01179
ri	-8.01716
2	-8.01732
▁ter	-8.01976
▁partij	-8.02279
▁mogelijk	-8.02522
▁("	-8.02538
▁komen	-8.02675
▁begin	-8.02762
▁waarin	-8.03126
▁c	-8.0325
▁m	-8.03497
▁dag	-8.0379
▁zeer	-8.04271
▁the	-8.04368
j	-8.04805
ven	-8.04828
▁zee	-8.05243
the	-8.05519
th	-8.05654
ti	-8.06503
▁oorlog	-8.06601
va	-8.0669
ium	-8.06771
▁gebied	-8.06818
vi	-8.06857
▁kreeg	-8.07044
▁19	-8.07279
▁zuid	-8.07343
▁p	-8.07435
▁elkaar	-8.08183
ca	-8.0819
▁bestaat	-8.08458
▁achter	-8.08472
zen	-8.09414
▁i	-8.09452
nen	-8.10013
▁staten	-8.11103
tische	-8.11223
▁ar	-8.11585
baar	-8.11923
▁pas	-8.12211
▁vorm	-8.12213
ut	-8.12456
▁noord	-8.12507
▁hier	-8.12764
per	-8.13049
ker	-8.1318
▁ging	-8.13534
▁landen	-8.13701
▁20	-8.13901
aal	-8.14393
▁eerst	-8.14578
▁mee	-8.15505
▁ca	-8.15588
▁kerk	-8.16148
co	-8.1621
▁mo	-8.16211
ka	-8.16408
ag	-8.16492
▁via	-8.16551
▁duitse	-8.16955
▁10	-8.17091
▁belangrijke	-8.17263
▁miljoen	-8.17514
▁ha	-8.17581
▁hadden	-8.17694
▁bevolking	-8.17704
of	-8.18374
isme	-8.18706
▁één	-8.18988
ion	-8.19178
ci	-8.1939
os	-8.20199
▁ro	-8.20394
▁oude	-8.20406
▁h	-8.20419
▁g	-8.20891
▁groep	-8.20906
▁goed	-8.20921
▁meeste	-8.21026
om	-8.21067
▁ra	-8.21394
af	-8.2175
▁rijk	-8.21841
▁hoofd	-8.22217
▁sp	-8.22297
▁6	-8.22504
▁co	-8.22655
un	-8.22685
▁vrij	-8.227
▁14	-8.23093
▁sa	-8.23108
▁5	-8.23613
▁man	-8.23809
▁buiten	-8.23861
▁muziek	-8.23896
▁ligt	-8.24077
▁sterk	-8.24448
▁meestal	-8.24613
bo	-8.24704
▁eind	-8.25048
ende	-8.25181
▁minder	-8.25243
▁rol	-8.25291
elijk	-8.25341
▁sommige	-8.25484
em	-8.2552
▁soms	-8.25992
▁boven	-8.2614
ko	-8.26548
▁geschiedenis	-8.26917
▁naast	-8.27154
▁waardoor	-8.27354
▁con	-8.27381
schap	-8.27399
di	-8.2767
▁soorten	-8.27772
▁vele	-8.28177
▁vormen	-8.28206
▁7	-8.28475
ho	-8.28481
▁do	-8.28628
id	-8.28668
dig	-8.28827
▁formula	-8.29063
ton	-8.29113
ed	-8.29199
▁n	-8.29256
pa	-8.29591
ale	-8.29758
▁gemaakt	-8.2978
▁kunst	-8.30394
ba	-8.30422
▁8	-8.30434
li	-8.30624
▁w	-8.3081
ik	-8.3105
kken	-8.31124
▁gemeente	-8.31181
4	-8.31624
▁moet	-8.32053
ad	-8.32217
▁zelfs	-8.32382
son	-8.32411
▁zowel	-8.32907
we	-8.33023
▁maakte	-8.33129
▁bestaan	-8.33472
ce	-8.33598
▁zonder	-8.33716
▁belangrijkste	-8.3374
▁slechts	-8.34031
▁mei	-8.34355
▁gaan	-8.3451
▁dood	-8.34548
▁onderzoek	-8.34592
▁daarnaast	-8.34911
ren	-8.34926
▁verenigde	-8.34973
▁europese	-8.35003
▁kleine	-8.35122
▁(19	-8.35133
▁waarvan	-8.35193
▁europa	-8.3569
▁leger	-8.35987
men	-8.36221
▁zon	-8.3624
vo	-8.3656
▁beide	-8.36865
he	-8.36906
▁belgië	-8.36969
▁franse	-8.37146
▁invloed	-8.37224
po	-8.37982
ius	-8.37993
▁nieuw	-8.38053
▁oost	-8.38554
ië	-8.38748
ine	-8.38783
▁12	-8.38873
ga	-8.39117
lijk	-8.39289
sen	-8.39427
▁snel	-8.39458
▁wil	-8.39547
▁licht	-8.39639
▁terwijl	-8.40045
au	-8.40301
▁god	-8.40473
▁ex	-8.40569
▁ontstaan	-8.4073
▁gaat	-8.40768
▁boek	-8.40819
▁weg	-8.41065
▁o	-8.41084
recht	-8.41346
sa	-8.41583
▁talen	-8.41634
▁aarde	-8.41647
▁moest	-8.41777
van	-8.41797
▁juli	-8.42031
▁einde	-8.42224
▁we	-8.42925
uw	-8.4313
▁si	-8.43267
▁januari	-8.43837
voor	-8.43853
▁zouden	-8.4396
00	-8.44085
kel	-8.44116
▁werken	-8.44235
▁bo	-8.44899
▁basis	-8.44924
aar	-8.45023
▁so	-8.45355
▁dagen	-8.45611
val	-8.45617
tijd	-8.45774
▁enige	-8.45908
▁duitsland	-8.46026
▁hoog	-8.46029
▁zien	-8.46065
▁west	-8.46428
▁li	-8.46493
5	-8.46647
▁lo	-8.46772
▁provincie	-8.47007
▁frankrijk	-8.47265
ly	-8.47395
▁oktober	-8.47599
▁uiteindelijk	-8.47599
▁hoge	-8.47626
▁der	-8.47762
go	-8.47822
▁lang	-8.47822
ak	-8.47871
▁me	-8.47949
am	-8.48253
pe	-8.48259
ling	-8.48456
▁familie	-8.48466
jes	-8.48714
▁meest	-8.48743
sel	-8.48902
ze	-8.48963
▁kamer	-8.49289
ff	-8.49395
ler	-8.49412
▁ka	-8.49425
▁pa	-8.49514
▁hand	-8.49575
▁vijf	-8.49703
▁gezien	-8.49789
1	-8.49817
tal	-8.50482
stad	-8.50793
mer	-8.50913
▁net	-8.51063
▁grond	-8.51152
▁9	-8.51303
berg	-8.51358
▁regering	-8.51562
ant	-8.52287
▁jo	-8.52288
▁begon	-8.52318
▁christelijke	-8.52544
▁du	-8.52595
im	-8.52668
over	-8.52744
▁13	-8.5303
▁he	-8.53251
ek	-8.53568
ot	-8.53653
end	-8.54272
ja	-8.54302
▁se	-8.54317
▁zal	-8.54428
▁daarna	-8.54466
slag	-8.54502
eel	-8.54808
▁steden	-8.54831
▁middel	-8.54914
ni	-8.55319
▁album	-8.55539
heden	-8.55588
▁staan	-8.55783
3	-8.55926
bouw	-8.56202
ger	-8.565
▁juni	-8.56501
▁di	-8.56697
▁volgende	-8.56714
▁ontwikkeling	-8.56738
elijke	-8.56989
▁inwoners	-8.57079
▁pro	-8.57117
▁huidige	-8.57155
▁altijd	-8.57409
▁eerder	-8.57423
▁daarom	-8.57527
▁amerikaanse	-8.57662
mi	-8.57845
▁nam	-8.57892
0	-8.57968
werk	-8.58158
▁natuur	-8.5822
king	-8.58245
▁ru	-8.58385
ron	-8.58611
▁bleef	-8.58687
▁politieke	-8.58722
▁go	-8.58767
▁keer	-8.59107
▁lucht	-8.59176
ai	-8.59259
ic	-8.59265
▁woord	-8.59348
▁derde	-8.59387
▁macht	-8.59628
weg	-8.59673
▁midden	-8.59817
ll	-8.59981
io	-8.60145
▁l	-8.60447
▁hen	-8.6063
ering	-8.60734
▁wet	-8.60807
▁pe	-8.61243
ding	-8.61584
▁bepaalde	-8.61665
bi	-8.61804
▁gevolg	-8.61841
bu	-8.61943
▁ho	-8.62015
▁st	-8.62046
▁september	-8.62144
10	-8.62214
▁wie	-8.62507
▁11	-8.63015
▁toch	-8.632
▁vanwege	-8.63363
▁zoon	-8.63585
ef	-8.6369
taal	-8.63772
▁december	-8.63821
ol	-8.64272
▁lange	-8.64351
▁mar	-8.64503
tu	-8.64599
▁algemeen	-8.64741
eur	-8.64798
▁r	-8.64829
▁wereldoorlog	-8.6483
▁vader	-8.65042
▁name	-8.65085
het	-8.65186
▁doel	-8.65216
ist	-8.65352
▁maart	-8.6542
sp	-8.65489
▁gaf	-8.65638
▁vond	-8.65899
gel	-8.66069
kt	-8.66379
▁soort	-8.66526
▁no	-8.66738
▁november	-8.66752
▁gelijk	-8.6679
▁wanneer	-8.66897
▁vinden	-8.66923
50	-8.66959
▁april	-8.67115
▁daarmee	-8.67189
▁nederlands	-8.67193
▁weinig	-8.67262
▁keizer	-8.6738
▁dezelfde	-8.67584
▁leden	-8.67724
▁film	-8.67788
wa	-8.67981
za	-8.68203
▁kwamen	-8.68357
▁bijna	-8.68809
▁liet	-8.68996
min	-8.6905
▁geven	-8.69594
bare	-8.69678
▁ba	-8.69717
sta	-8.70107
▁fa	-8.70151
▁meter	-8.70219
ging	-8.70234
ën	-8.70339
▁to	-8.70423
zo	-8.70773
aat	-8.71015
▁duidelijk	-8.71126
▁ta	-8.71138
▁moderne	-8.7137
▁vast	-8.71878
▁t	-8.72103
▁diverse	-8.72194
dat	-8.72329
▁bekende	-8.72378
si	-8.72506
▁oud	-8.7266
eert	-8.72787
ts	-8.72841
▁wilde	-8.73265
▁geweest	-8.73659
▁konden	-8.73838
amp	-8.7407
ct	-8.74311
ting	-8.74444
▁vervolgens	-8.74448
▁geheel	-8.74754
eg	-8.74872
▁waaronder	-8.7501
ber	-8.75163
ü	-8.75226
con	-8.75407
tri	-8.75468
▁doordat	-8.75678
▁mi	-8.75714
▁augustus	-8.75796
bel	-8.75815
▁km	-8.75861
dag	-8.76014
gang	-8.7602
▁zodat	-8.76285
pel	-8.76296
huis	-8.76504
▁laten	-8.76642
gebied	-8.76796
nadat	-8.76882
▁moeten	-8.76888
▁beschouwd	-8.76899
pt	-8.7711
▁pre	-8.77113
▁da	-8.77118
’	-8.77219
pp	-8.77295
▁kinderen	-8.77512
ir	-8.77532
▁stond	-8.77533
ings	-8.77564
▁po	-8.77574
mp	-8.7763
▁grens	-8.77662
ner	-8.77668
meer	-8.77674
▁langs	-8.7777
▁koninkrijk	-8.77785
▁noorden	-8.78072
ook	-8.78444
▁hele	-8.78484
punt	-8.78851
tra	-8.7902
▁schreef	-8.79165
▁president	-8.79213
tur	-8.79225
▁sint	-8.79385
▁internationale	-8.79803
▁mens	-8.80167
iteit	-8.80286
ip	-8.80424
▁spelen	-8.80505
onder	-8.80528
hi	-8.80787
isten	-8.80803
ring	-8.80892
20	-8.80947
▁druk	-8.81062
6	-8.81369
▁bu	-8.81417
mon	-8.81428
▁energie	-8.81437
aire	-8.81449
▁opnieuw	-8.81501
tje	-8.81557
gr	-8.81561
▁ii	-8.81584
▁kern	-8.81611
▁februari	-8.81751
▁vi	-8.81926
▁gra	-8.82217
▁voorbeeld	-8.82692
▁bouw	-8.82824
▁recht	-8.82922
od	-8.83113
▁geschreven	-8.83117
sh	-8.83235
handel	-8.8338
uren	-8.83496
lon	-8.83661
▁jaartelling	-8.83708
ap	-8.83714
▁dieren	-8.83751
▁gebieden	-8.8383
▁elk	-8.83924
vol	-8.83953
▁mag	-8.8407
pi	-8.84161
▁zuiden	-8.84237
▁mede	-8.84488
▁as	-8.8462
▁delen	-8.84644
▁huis	-8.84652
▁nodig	-8.8469
vel	-8.84753
▁beeld	-8.84895
▁namen	-8.8493
▁klein	-8.85002
▁ander	-8.85019
▁tegenwoordig	-8.85147
mar	-8.85173
ry	-8.85177
▁waarschijnlijk	-8.85216
▁daarbij	-8.85291
tre	-8.85368
▁eiland	-8.85379
oor	-8.85419
zet	-8.85448
form	-8.85467
▁ruim	-8.85735
▁even	-8.85738
ica	-8.85808
▁jan	-8.85926
▁euro	-8.86083
▁vol	-8.86423
▁doen	-8.86532
▁heel	-8.86566
▁geval	-8.86606
▁an	-8.86666
ment	-8.8703
_	-8.87045
15	-8.87064
met	-8.87338
ac	-8.87376
▁pi	-8.87451
▁auto	-8.87462
▁j	-8.87544
▁amsterdam	-8.87683
▁vrouwen	-8.87713
▁parijs	-8.87928
▁massa	-8.87934
▁leiden	-8.88133
even	-8.88624
▁ga	-8.88646
▁bar	-8.88669
▁stads	-8.88788
▁ab	-8.88834
▁nationale	-8.88866
▁maakt	-8.89174
▁belangrijk	-8.89184
▁belang	-8.89195
tor	-8.89229
ph	-8.89308
ssen	-8.89411
▁nemen	-8.89549
▁z	-8.89644
▁cultuur	-8.89776
▁min	-8.8991
▁voort	-8.90059
▁moment	-8.90117
if	-8.90173
▁ne	-8.90243
▁je	-8.90407
▁politiek	-8.90574
sche	-8.90636
(	-8.90714
▁ko	-8.91343
ab	-8.91715
▁or	-8.91759
▁iets	-8.91905
▁am	-8.91916
air	-8.91927
▁strijd	-8.91939
▁kracht	-8.91951
▁economische	-8.91996
lijn	-8.92196
▁ontstond	-8.92312
▁rivier	-8.92314
tan	-8.92398
art	-8.92453
▁elke	-8.92484
▁waarmee	-8.9251
stelling	-8.92583
▁romeinse	-8.92626
stand	-8.92683
▁ja	-8.92744
tel	-8.92771
▁bestond	-8.92807
▁leidde	-8.92886
▁ke	-8.92913
water	-8.93282
▁manier	-8.93294
▁tien	-8.93312
▁voorkomen	-8.93344
▁rest	-8.93374
age	-8.93507
▁onderwijs	-8.9356
▁britse	-8.93652
fa	-8.93677
▁voornamelijk	-8.93689
0.000	-8.93716
▁tevens	-8.93852
▁bas	-8.93883
▁ni	-8.93985
tisch	-8.94037
▁bestuur	-8.94121
▁ruimte	-8.94151
▁centrum	-8.942
▁won	-8.94275
▁term	-8.94418
▁universiteit	-8.94627
burg	-8.94765
wet	-8.94771
▁slag	-8.95074
▁car	-8.95127
ving	-8.95236
|	-8.95363
▁titel	-8.95506
leg	-8.95545
▁bloed	-8.95822
▁vrijwel	-8.95919
▁bi	-8.95962
lin	-8.96086
est	-8.96088
▁zin	-8.96163
▁nummer	-8.96382
durende	-8.9645
▁oosten	-8.96451
▁sport	-8.96477
gra	-8.96562
▁anders	-8.96571
▁kort	-8.96695
▁vrouw	-8.96732
▁nooit	-8.97019
jo	-8.97019
▁westen	-8.97081
cul	-8.97115
▁lijst	-8.97147
kant	-8.97166
▁sovjet	-8.97215
▁liggen	-8.97393
▁fi	-8.9749
▁betekent	-8.97511
wetenschappelijk	-8.97539
▁systeem	-8.9761
▁karel	-8.97804
7	-8.97931
▁volk	-8.97958
▁el	-8.98303
17	-8.98322
=2	-8.98567
▁val	-8.98592
▁afge	-8.98642
▁republiek	-8.98816
rijk	-8.98918
▁30	-8.98923
▁teken	-8.99004
▁minister	-8.99041
▁woorden	-8.99301
▁kop	-8.99581
▁brussel	-8.99613
▁willem	-8.99613
▁hitler	-8.99617
istische	-8.99656
▁houden	-8.99672
▁moeder	-8.99694
▁kennis	-8.99707
▁pri	-8.99978
▁lid	-9.00053
▁beweging	-9.0011
plaats	-9.00334
▁school	-9.004
een	-9.00518
pro	-9.00536
▁21	-9.00602
▁daarvan	-9.00684
mel	-9.00688
▁ju	-9.00707
▁zogenaamd	-9.00821
dra	-9.00834
▁meerdere	-9.00841
▁paus	-9.00851
delen	-9.01002
rie	-9.01334
▁bal	-9.01488
ex	-9.01604
voer	-9.0175
40	-9.01804
▁ad	-9.01821
▁ki	-9.01833
14	-9.01917
lang	-9.01999
13	-9.0218
▁top	-9.02229
▁opge	-9.02264
▁eu	-9.0236
▁2006	-9.02385
spel	-9.02477
▁onge	-9.02514
▁blijven	-9.02519
▁gebouwd	-9.02712
▁plaatsen	-9.02774
zie	-9.02958
▁dr	-9.02999
▁25	-9.03135
erd	-9.03161
▁direct	-9.03166
ok	-9.03282
▁krijgen	-9.03305
▁goede	-9.03377
jarige	-9.035
gene	-9.03522
ï	-9.0355
lijke	-9.03785
▁com	-9.03815
hu	-9.04071
▁kleur	-9.04154
▁israël	-9.04178
▁band	-9.04288
▁ri	-9.04313
raad	-9.04437
▁and	-9.04679
iek	-9.04893
beeld	-9.04925
▁namelijk	-9.04957
▁tri	-9.04989
▁bovendien	-9.05002
▁positie	-9.0501
▁kent	-9.05083
▁gevonden	-9.05199
▁hierdoor	-9.05212
lu	-9.05232
so	-9.05347
als	-9.05375
-19	-9.05415
▁gevormd	-9.05525
▁literatuur	-9.05612
66	-9.05628
▁park	-9.0564
▁uitge	-9.05675
▁su	-9.05712
▁lu	-9.05741
▁waarde	-9.05755
nes	-9.05882
▁foto	-9.05893
▁geld	-9.05898
▁sta	-9.05906
▁frans	-9.06059
iden	-9.06139
▁gehouden	-9.06226
▁leiding	-9.0628
▁anti	-9.06566
ard	-9.06596
ser	-9.06637
hal	-9.06651
▁elementen	-9.06668
▁volks	-9.06777
▁beter	-9.06853
ach	-9.06988
▁korte	-9.06996
▁bepaald	-9.0702
▁geworden	-9.07027
▁griekse	-9.07131
▁geboren	-9.07147
▁raad	-9.07151
▁2007	-9.07156
▁relatief	-9.07337
les	-9.07358
▁onafhankelijk	-9.07402
ijn	-9.07552
deel	-9.07692
▁waarop	-9.07738
ft	-9.07885
▁plan	-9.07916
mb	-9.08268
▁regio	-9.08491
▁geeft	-9.08585
▁kust	-9.08591
▁har	-9.0874
▁handel	-9.08793
▁bracht	-9.09053
12	-9.09085
▁volgen	-9.09171
▁hu	-9.09193
▁succes	-9.09267
▁belgische	-9.0931
▁wist	-9.0932
▁par	-9.09335
iet	-9.09399
▁gesproken	-9.09424
▁for	-9.09518
naam	-9.09816
8	-9.10263
ier	-9.10288
▁bron	-9.10318
▁mor	-9.10387
▁opgericht	-9.10466
up	-9.10499
▁hiervan	-9.10508
komen	-9.10575
▁zeven	-9.1062
▁gebaseerd	-9.10674
groep	-9.1077
▁jonge	-9.10791
18	-9.10864
que	-9.10887
30	-9.10903
▁afstand	-9.10916
▁temperatuur	-9.10942
gaan	-9.10969
19	-9.11009
35	-9.11065
res	-9.11315
▁ontwikkeld	-9.11405
zicht	-9.11489
▁hoofdstad	-9.11514
▁aanvankelijk	-9.11692
▁kla	-9.11696
her	-9.11708
▁versie	-9.11711
▁helft	-9.11815
▁proces	-9.11818
▁militaire	-9.11855
▁2002	-9.11864
▁vlaanderen	-9.11957
▁latere	-9.12037
▁richting	-9.12191
ö	-9.12207
▁cor	-9.12209
oc	-9.12233
▁hierbij	-9.12286
che	-9.1234
ologie	-9.12401
▁gegeven	-9.1264
▁gu	-9.12769
▁zes	-9.12968
▁loop	-9.12998
▁tra	-9.1313
wij	-9.13155
▁parlement	-9.13206
▁volledig	-9.13245
▁san	-9.13278
▁aanwezig	-9.13344
70	-9.13359
▁mon	-9.1339
▁ti	-9.13422
▁daardoor	-9.13431
▁stijl	-9.1344
nt	-9.1345
▁grotere	-9.13476
ele	-9.13509
▁leeftijd	-9.13528
▁verkiezingen	-9.13537
▁productie	-9.13701
▁voorbeelden	-9.1372
▁maan	-9.13724
▁bleek	-9.1376
▁stelde	-9.14009
▁hoogste	-9.14083
▁troepen	-9.14145
▁2010	-9.14158
▁verschillen	-9.14246
▁groter	-9.14282
vers	-9.1437
▁totaal	-9.1439
unie	-9.14443
▁brand	-9.14461
á	-9.14524
▁steun	-9.14583
vat	-9.14639
▁deed	-9.14642
▁functie	-9.14686
▁uur	-9.14711
▁landbouw	-9.14928
▁kant	-9.14952
▁(18	-9.1517
▁im	-9.15245
▁zaken	-9.15271
▁lichaam	-9.1528
▁x	-9.15305
▁economie	-9.15312
▁paar	-9.15349
▁planten	-9.15359
▁groepen	-9.15457
▁new	-9.15498
▁laat	-9.15508
llen	-9.15593
▁engeland	-9.15643
▁th	-9.15648
80	-9.15678
▁vlak	-9.15712
veld	-9.15744
▁enkel	-9.15791
und	-9.15796
sie	-9.1596
▁officiële	-9.1599
▁kabinet	-9.16053
treden	-9.16067
ans	-9.161
▁dienst	-9.16171
▁kilometer	-9.16346
▁zwarte	-9.16457
▁ervan	-9.16474
▁vroeg	-9.16504
ys	-9.16548
▁partijen	-9.16576
▁bevindt	-9.16585
ari	-9.1665
▁geldt	-9.16801
▁oudste	-9.17098
&	-9.17226
ki	-9.17345
11	-9.17448
▁staats	-9.17462
▁afhankelijk	-9.17477
").	-9.17597
▁betekenis	-9.17907
▁speelde	-9.17938
▁onderdeel	-9.17991
▁stand	-9.18159
▁computer	-9.18177
ris	-9.18402
els	-9.18716
kerk	-9.18734
▁hetzelfde	-9.18837
▁rome	-9.18844
▁spanje	-9.1888
▁vormt	-9.18912
teken	-9.18941
har	-9.19011
▁huwelijk	-9.19099
lt	-9.19117
25	-9.19121
gi	-9.19185
4"	-9.19217
▁italië	-9.19229
▁john	-9.19493
▁hierna	-9.19567
uur	-9.1959
▁vo	-9.19597
elen	-9.19617
▁dochter	-9.19739
▁2000	-9.20071
▁brengen	-9.20098
▁studie	-9.20292
zw	-9.20295
▁zeggen	-9.20358
▁gebruiken	-9.2036
▁voedsel	-9.20481
▁mannen	-9.20485
▁erg	-9.20507
wer	-9.20571
▁2005	-9.20628
45	-9.2064
br	-9.20872
▁gekozen	-9.20979
gt	-9.20998
▁2008	-9.21125
▁element	-9.21246
don	-9.21363
16	-9.21463
▁hart	-9.21489
tjes	-9.21529
▁klassieke	-9.21596
bor	-9.21646
net	-9.21661
60	-9.21849
wo	-9.21862
aars	-9.22091
nis	-9.22134
licht	-9.2221
▁organisatie	-9.22232
stra	-9.22369
▁boeken	-9.224
▁oog	-9.22641
▁fo	-9.22676
▁maanden	-9.22739
▁orde	-9.22789
▁reactie	-9.22854
tha	-9.22859
▁rijn	-9.22876
▁volgde	-9.22903
▁joden	-9.2296
▁feit	-9.2303
ert	-9.23057
▁2012	-9.23157
aren	-9.23159
ina	-9.23382
ide	-9.23555
dy	-9.23613
grond	-9.23623
▁tekst	-9.23631
3"	-9.23664
▁gas	-9.23683
▁zomer	-9.23851
65	-9.23969
▁haag	-9.23972
▁gedaan	-9.24026
2"	-9.24111
ty	-9.24331
▁radio	-9.24456
maal	-9.24466
ov	-9.24505
▁2011	-9.24566
▁cha	-9.24721
vallen	-9.24965
▁acht	-9.24985
▁wal	-9.25046
▁inter	-9.25136
▁vrede	-9.25241
▁eveneens	-9.25314
▁getal	-9.255
=1	-9.25651
75	-9.25959
▁2009	-9.25993
▁veld	-9.26001
ation	-9.26015
▁spaanse	-9.2605
▁gemeenten	-9.26091
▁ku	-9.26262
nemen	-9.26444
▁single	-9.26501
▁wa	-9.26555
▁rode	-9.26563
igen	-9.26652
▁gebruikte	-9.26653
▁24	-9.26692
rij	-9.26748
▁informatie	-9.2676
▁jaarlijks	-9.2677
bb	-9.26783
▁levens	-9.26802
ringen	-9.2681
▁groei	-9.26857
▁22	-9.2686
str	-9.2687
▁zeker	-9.27
▁gebracht	-9.27054
▁eigenschappen	-9.27162
▁gelegen	-9.27217
7"	-9.27259
▁waarna	-9.27279
staat	-9.27287
▁vlaamse	-9.2733
tus	-9.27409
▁verenigd	-9.27511
lig	-9.27511
9"	-9.27514
▁rij	-9.27596
▁vis	-9.27615
kers	-9.27668
▁sub	-9.27821
▁bijzonder	-9.2792
▁hoogte	-9.27946
▁vraag	-9.28056
▁engels	-9.28058
▁hulp	-9.28094
▁gevallen	-9.28114
▁aard	-9.28153
ud	-9.28165
▁verscheen	-9.28226
▁berg	-9.28271
1"	-9.28313
nie	-9.28321
▁omgeving	-9.28343
▁programma	-9.28435
▁relatie	-9.28441
▁markt	-9.28451
▁personen	-9.28492
du	-9.28498
ator	-9.28616
6"	-9.28723
druk	-9.288
▁traditie	-9.28846
kracht	-9.28885
▁verhaal	-9.28931
▁opgenomen	-9.28945
▁algemene	-9.2903
jaar	-9.2909
leden	-9.2915
▁100	-9.29168
acht	-9.29181
werken	-9.29271
▁ziekte	-9.29356
▁rechts	-9.29398
21	-9.29512
dam	-9.29527
loop	-9.29588
ya	-9.29823
▁centraal	-9.29845
fe	-9.29895
ders	-9.29915
▁oorspronkelijk	-9.30049
▁geboorte	-9.30117
▁langer	-9.30129
▁lag	-9.30201
85	-9.3022
kte	-9.30244
▁moeilijk	-9.30254
▁hoger	-9.30322
plo	-9.30325
bri	-9.30363
bra	-9.30371
amerika	-9.3039
zel	-9.30546
▁gen	-9.30647
▁anderen	-9.30711
▁zichzelf	-9.30872
▁sal	-9.30879
▁hof	-9.30885
▁sprake	-9.30891
▁reeds	-9.30905
▁punt	-9.30996
▁verbonden	-9.31053
8"	-9.31156
▁neer	-9.31162
▁voormalige	-9.31203
▁kregen	-9.31234
▁mis	-9.31429
▁engelse	-9.31508
▁serie	-9.31537
▁seizoen	-9.31596
▁bevat	-9.31832
leven	-9.31891
▁dorp	-9.32027
▁behoren	-9.32052
dan	-9.32052
ley	-9.32083
▁trans	-9.32152
oud	-9.32214
▁historische	-9.32337
43	-9.32355
programma	-9.32407
▁vervangen	-9.32469
cent	-9.32549
▁hield	-9.32599
▁bestaande	-9.32617
win	-9.32667
▁artikel	-9.32672
cr	-9.32818
geven	-9.32862
port	-9.32876
staan	-9.32974
bij	-9.33015
toe	-9.33144
rit	-9.33169
▁contact	-9.33171
▁ster	-9.33225
▁geloof	-9.33259
ru	-9.33342
▁katholieke	-9.33435
95	-9.33444
dom	-9.33476
▁afkomstig	-9.33567
▁0	-9.33588
5"	-9.33685
▁standaard	-9.33693
▁tegenstelling	-9.33696
▁cl	-9.33755
vorm	-9.33759
▁grondwet	-9.33767
igheid	-9.3383
▁hel	-9.3383
24	-9.33853
mmen	-9.33863
▁getallen	-9.33956
▁tro	-9.34001
0%	-9.3402
▁ber	-9.341
▁middeleeuwen	-9.34163
brabant	-9.34163
lijst	-9.34171
▁nationaal	-9.34173
▁wetenschap	-9.34183
▁sterke	-9.34199
▁geslacht	-9.34203
ny	-9.34233
straat	-9.34244
waar	-9.34245
pre	-9.34274
tte	-9.34282
ast	-9.34488
32	-9.34554
▁theorie	-9.34569
▁haven	-9.3464
▁los	-9.34694
gar	-9.34711
=3	-9.34733
▁grotendeels	-9.34733
▁handen	-9.34782
▁roman	-9.34819
▁laag	-9.34944
▁vroege	-9.35244
gezet	-9.35402
systeem	-9.3545
theorie	-9.35463
ies	-9.35622
9	-9.35729
▁viel	-9.3575
▁u	-9.35992
▁religie	-9.36034
▁wit	-9.36338
▁broer	-9.36352
▁para	-9.3644
▁gehele	-9.36473
▁rijks	-9.36491
▁ieder	-9.36536
▁onderscheid	-9.36567
▁mate	-9.36596
lie	-9.36648
▁best	-9.36653
▁museum	-9.36704
▁at	-9.36781
sing	-9.36841
▁stof	-9.36859
gu	-9.36879
44	-9.36882
▁veroorzaakt	-9.37051
▁rechter	-9.371
ther	-9.3711
ym	-9.37198
▁vertegenwoordig	-9.37224
▁regelmatig	-9.3735
▁vermeld	-9.37358
▁china	-9.37375
band	-9.37406
▁hiermee	-9.37493
▁sociale	-9.37503
grafie	-9.3761
fer	-9.37723
▁klimaat	-9.37784
90	-9.37809
▁bru	-9.37836
pl	-9.37922
gas	-9.38012
tol	-9.38048
▁egypte	-9.38082
▁bos	-9.38105
▁begonnen	-9.3817
▁reden	-9.38218
▁2003	-9.38272
▁regel	-9.38367
all	-9.38502
▁opstand	-9.38503
▁verspreid	-9.38521
ning	-9.38632
▁stem	-9.38654
▁hout	-9.38663
▁ondanks	-9.38676
▁heer	-9.38693
▁2014	-9.38717
000	-9.3881
tocht	-9.38963
cha	-9.38963
▁verband	-9.39173
01	-9.39221
vis	-9.39326
▁vervoer	-9.39333
▁heet	-9.39339
hoek	-9.39488
41	-9.39511
lit	-9.39521
55	-9.39541
bal	-9.39585
▁winter	-9.39605
▁rusland	-9.3976
▁leer	-9.39842
▁nederlanden	-9.39846
▁2004	-9.39885
▁volgt	-9.39893
▁au	-9.39972
gesteld	-9.39973
)"	-9.40037
38	-9.40051
▁2018	-9.40065
lam	-9.40108
▁gedrag	-9.40163
▁vindt	-9.4018
tsj	-9.40209
▁opdracht	-9.40235
die	-9.40236
39	-9.40287
▁oorsprong	-9.40631
▁dal	-9.40788
chi	-9.40801
▁valt	-9.4081
▁stellen	-9.40823
▁lijn	-9.40909
▁londen	-9.40941
▁moesten	-9.40996
▁verdrag	-9.41027
42	-9.41057
49	-9.41205
▁unie	-9.41328
ham	-9.41375
ectie	-9.41379
▁verloren	-9.41393
▁kar	-9.41421
="6	-9.41428
▁pal	-9.41528
bro	-9.41541
ä	-9.41546
▁verkeer	-9.41549
="8	-9.41602
64	-9.4164
ctor	-9.41733
▁oceaan	-9.41853
zi	-9.41885
▁joodse	-9.41894
▁bijbel	-9.41908
ju	-9.41925
▁(20	-9.41944
▁50	-9.41981
▁besloot	-9.42007
▁dis	-9.42045
▁zilver	-9.42161
uc	-9.42171
▁nacht	-9.42172
▁ben	-9.42199
▁2013	-9.42204
▁dergelijke	-9.4223
▁goud	-9.42233
48	-9.4226
spanning	-9.4232
ë	-9.42389
zijde	-9.42397
▁vrije	-9.42476
▁spel	-9.42568
▁vaste	-9.42595
▁wijze	-9.42656
▁23	-9.42694
stel	-9.42745
▁russische	-9.42745
▁industrie	-9.42841
ich	-9.42868
▁ontwikkelde	-9.4288
▁bezit	-9.43054
▁kruis	-9.43098
72	-9.43099
ologisch	-9.43109
22	-9.43112
▁2019	-9.43132
71	-9.432
▁mu	-9.43228
lui	-9.43284
▁gingen	-9.43345
33	-9.43372
aard	-9.43529
▁lokale	-9.43559
ief	-9.43633
▁gespeeld	-9.43659
▁&	-9.43659
▁kalender	-9.43706
▁antwerpen	-9.43715
▁gal	-9.43841
58	-9.4391
afrika	-9.43933
▁materiaal	-9.44142
▁mil	-9.44201
▁verschil	-9.44201
schrift	-9.44203
par	-9.4425
vin	-9.44298
▁burgemeester	-9.44343
▁zag	-9.44373
▁niveau	-9.44405
76	-9.44406
82	-9.44421
▁stuk	-9.44424
▁club	-9.44449
23	-9.44479
▁sche	-9.44497
▁persoon	-9.44639
▁eilanden	-9.44726
ec	-9.44774
wi	-9.44837
▁bre	-9.4485
▁oorspronkelijke	-9.44872
▁actief	-9.44892
▁uitgevoerd	-9.4495
dicht	-9.45036
▁gro	-9.45073
name	-9.45131
▁neemt	-9.45141
▁tu	-9.45146
79	-9.4528
68	-9.45298
="7	-9.4537
spraak	-9.45445
▁utrecht	-9.45455
yn	-9.45483
▁gevestigd	-9.45612
▁jeugd	-9.45612
nu	-9.45689
lopen	-9.4569
europa	-9.45697
ban	-9.45752
86	-9.45753
▁verdeeld	-9.45779
cus	-9.45779
kwam	-9.45917
▁schilder	-9.45934
▁overheid	-9.45941
▁es	-9.45953
47	-9.45998
▁trad	-9.46089
ieve	-9.46121
zame	-9.46272
▁punten	-9.46298
▁dicht	-9.46342
è	-9.4637
fi	-9.464
88	-9.46402
ó	-9.46413
▁fran	-9.46481
▁centrale	-9.46509
▁speelt	-9.46566
59	-9.46584
▁paul	-9.46616
vecht	-9.46692
one	-9.4672
▁=	-9.46751
89	-9.4687
26	-9.46914
wijk	-9.46953
▁natuurlijke	-9.4698
▁publiek	-9.46997
▁noemde	-9.47064
63	-9.47066
▁y	-9.47102
mond	-9.47102
gan	-9.47147
▁aangezien	-9.47221
▁2015	-9.47274
▁week	-9.4731
▁iii	-9.47317
▁instrument	-9.4733
▁hard	-9.47387
▁optreden	-9.47387
▁open	-9.47408
▁beste	-9.47456
67	-9.47493
laag	-9.47506
rom	-9.47534
▁type	-9.47606
99	-9.47654
▁geo	-9.47667
▁internationaal	-9.4771
tin	-9.47792
ez	-9.47793
▁prijs	-9.47794
tiek	-9.4781
▁von	-9.47844
▁beschreven	-9.47872
0"	-9.4789
▁juist	-9.47969
77	-9.47974
▁toon	-9.48061
▁inmiddels	-9.48064
74	-9.48117
="3	-9.48126
▁oostenrijk	-9.4825
cy	-9.48345
29	-9.4837
▁cel	-9.48406
▁genomen	-9.48488
▁dom	-9.48545
▁wind	-9.48577
ix	-9.48595
▁bond	-9.486
nam	-9.4872
pas	-9.48722
▁verhalen	-9.48777
▁welke	-9.48938
▁kn	-9.49032
oom	-9.49072
partij	-9.4911
78	-9.49156
▁ger	-9.49165
▁benoemd	-9.49187
27	-9.49234
yl	-9.49304
▁definitie	-9.49342
▁polen	-9.49394
gebruik	-9.49416
ah	-9.4944
▁klooster	-9.49456
▁vierde	-9.4946
loos	-9.49484
kort	-9.49488
▁bot	-9.495
%	-9.49521
36	-9.49531
▁circa	-9.49684
▁hiervoor	-9.49769
▁geluid	-9.49778
▁kleinere	-9.4983
▁groningen	-9.49851
▁leider	-9.49906
tes	-9.49919
han	-9.50017
ici	-9.50051
▁holland	-9.50123
▁india	-9.50143
▁handels	-9.50179
kunde	-9.50285
mann	-9.50365
▁situatie	-9.504
▁totale	-9.50434
▁combinatie	-9.50487
hand	-9.50566
fo	-9.50655
▁vallen	-9.50675
▁werkte	-9.5068
▁schrijven	-9.50725
▁gemeenschap	-9.5075
▁witte	-9.50752
▁sto	-9.50866
▁ijs	-9.50876
wan	-9.50928
▁bezig	-9.50936
oord	-9.51043
ub	-9.51083
28	-9.51123
gh	-9.51161
▁comp	-9.51233
▁vuur	-9.51283
▁graf	-9.51297
ui	-9.51323
▁zetten	-9.51366
ps	-9.51404
▁gi	-9.51462
plan	-9.51486
▁pop	-9.51515
▁york	-9.5153
▁2001	-9.51578
▁voorzien	-9.51633
37	-9.51731
▁ogen	-9.51738
09	-9.51741
73	-9.51769
▁indeling	-9.51897
stellen	-9.51941
nd	-9.51994
▁problemen	-9.52031
98	-9.52073
eerden	-9.52164
cu	-9.522
▁steen	-9.52206
▁lijkt	-9.52246
ou	-9.52336
83	-9.52345
kleur	-9.52386
▁zetels	-9.52388
▁half	-9.52406
▁em	-9.52439
▁kra	-9.52458
▁mat	-9.5255
34	-9.52607
96	-9.52618
▁onderscheiden	-9.52693
▁lage	-9.52757
▁kenmerken	-9.5289
sk	-9.52983
▁kans	-9.5302
84	-9.53057
tuig	-9.53131
▁hi	-9.53255
▁onbe	-9.53293
ont	-9.53337
goed	-9.53351
del	-9.53368
▁voeren	-9.53378
▁pan	-9.53385
54	-9.53436
oorlog	-9.5344
rs	-9.53486
▁tempel	-9.535
▁hogere	-9.5351
5%	-9.53571
xi	-9.53628
tig	-9.53663
ara	-9.53673
▁principe	-9.53749
iseerd	-9.53783
dien	-9.53834
▁want	-9.53841
▁daarvoor	-9.53867
uze	-9.53868
▁oppervlakte	-9.53873
▁gent	-9.53921
▁officieel	-9.53929
▁hoeveelheid	-9.53941
▁bra	-9.5396
vaart	-9.53991
▁28	-9.53999
▁groen	-9.54041
boek	-9.54109
▁golf	-9.54133
▁bereikt	-9.54212
▁hit	-9.54238
69	-9.54273
av	-9.54279
▁negen	-9.5438
let	-9.54382
bert	-9.54405
▁bedrijven	-9.54422
▁blijft	-9.54451
▁geplaatst	-9.54457
▁procent	-9.54475
▁revolutie	-9.54492
▁latijn	-9.54525
cor	-9.54538
tuur	-9.54583
="4	-9.54585
ei	-9.54607
oren	-9.5461
oxide	-9.54644
▁johannes	-9.54721
achtige	-9.54739
bar	-9.54752
▁uitzondering	-9.54801
nik	-9.54813
▁pla	-9.54914
▁geleid	-9.54927
▁zit	-9.54988
cel	-9.55024
-20	-9.55092
regel	-9.55131
▁zwaar	-9.55138
dieren	-9.55146
▁kritiek	-9.55151
▁post	-9.55196
▁japan	-9.55203
87	-9.55221
▁opzichte	-9.55222
61	-9.55247
uk	-9.55288
▁aangeduid	-9.55327
lid	-9.55414
stof	-9.55421
verantwoordelijk	-9.5545
trekken	-9.55464
mmer	-9.55479
▁ijzer	-9.55504
53	-9.55505
▁super	-9.55566
graven	-9.55584
57	-9.55617
▁status	-9.55697
talen	-9.55737
dis	-9.55837
▁jezus	-9.55856
mu	-9.5586
erende	-9.55879
í	-9.56033
gevoerd	-9.56067
06	-9.56113
out	-9.56158
▁televisie	-9.56201
▁napoleon	-9.5621
▁reeks	-9.5623
▁spreekt	-9.5623
pers	-9.56356
▁blijkt	-9.56388
▁2016	-9.5643
ple	-9.56471
▁mer	-9.56488
brand	-9.56529
ns	-9.56631
▁beroep	-9.56705
▁letter	-9.56875
▁overleed	-9.56923
vrucht	-9.56925
ang	-9.57045
▁bronnen	-9.57103
▁conflict	-9.57124
og	-9.57161
56	-9.57177
proces	-9.57214
▁effect	-9.57247
bat	-9.57249
52	-9.57259
▁toegepast	-9.57281
51	-9.57281
▁populair	-9.57299
▁duits	-9.57344
gebieden	-9.57376
▁station	-9.57383
▁college	-9.57403
cur	-9.57426
▁buitenlandse	-9.57555
stelsel	-9.57583
▁vogels	-9.57679
rei	-9.57681
▁insecten	-9.5782
ay	-9.57843
lli	-9.57879
dr	-9.57963
kan	-9.58014
ooi	-9.58044
▁dna	-9.58047
▁noordelijke	-9.58066
▁duitsers	-9.58112
mis	-9.58165
▁stemmen	-9.58216
eld	-9.5823
▁ges	-9.58283
abel	-9.58379
▁afgeleid	-9.58421
tatie	-9.58434
▁prins	-9.58446
▁ontdekt	-9.58557
vul	-9.58662
▁meerderheid	-9.58727
▁bekendste	-9.58729
▁goden	-9.58814
werking	-9.58865
_1	-9.58877
62	-9.58929
81	-9.58991
▁27	-9.59026
▁heilige	-9.5904
roep	-9.59065
▁göring	-9.59091
94	-9.59092
91	-9.59105
▁ton	-9.59154
dro	-9.59157
▁ontdekking	-9.59274
▁ooit	-9.59285
dor	-9.59322
▁omvat	-9.59334
qui	-9.59335
',	-9.59435
oog	-9.5945
▁lengte	-9.59462
▁maas	-9.59561
▁uni	-9.59601
=9	-9.59637
▁rooms	-9.59704
="5	-9.59705
▁bio	-9.59801
▁behoort	-9.59824
sten	-9.5983
▁groeide	-9.59852
▁nabij	-9.59863
waard	-9.59906
▁elektronen	-9.59909
▁ed	-9.59925
▁iemand	-9.60009
ieten	-9.60041
▁vers	-9.60045
▁symbool	-9.60067
ters	-9.60075
▁gevangen	-9.60078
▁koningin	-9.60091
▁ontwerp	-9.60199
▁my	-9.60232
▁telt	-9.60324
▁karakter	-9.60378
▁bevinden	-9.60378
▁daarop	-9.604
middel	-9.60404
log	-9.60459
▁structuur	-9.60476
▁miljard	-9.60563
▁continent	-9.60598
46	-9.60606
▁beleid	-9.6064
gebracht	-9.60643
heer	-9.60661
▁voorzitter	-9.60663
woord	-9.60771
hel	-9.60818
▁formule	-9.60903
▁ontstaat	-9.60987
▁extra	-9.61024
▁project	-9.61099
▁snelheid	-9.61158
uil	-9.61214
▁2017	-9.61362
▁2020	-9.61373
▁westerse	-9.61573
▁mars	-9.61583
▁26	-9.6163
▁zie	-9.61849
▁bedoeld	-9.6187
beweging	-9.61873
▁red	-9.61898
centrum	-9.619
school	-9.61976
▁eenheid	-9.62073
qu	-9.62085
iën	-9.62206
▁zuidelijke	-9.62249
nederland	-9.62313
weer	-9.62313
schot	-9.62359
sc	-9.62382
periode	-9.62474
▁fl	-9.6259
niet	-9.62687
dienst	-9.62751
]	-9.62812
▁trok	-9.62866
▁concert	-9.62888
kop	-9.62993
▁maand	-9.63008
macht	-9.63015
▁loopt	-9.63262
▁cal	-9.63264
▁mond	-9.63385
bin	-9.63425
ong	-9.63482
▁politie	-9.63542
92	-9.6367
▁zorgde	-9.63708
▁gewest	-9.63731
ere	-9.63735
▁verwant	-9.63784
zien	-9.63886
magne	-9.63957
▁‘	-9.63988
▁woon	-9.64007
duc	-9.64057
▁fe	-9.64147
▁bank	-9.64157
laat	-9.64234
ski	-9.64245
▁gesteld	-9.64271
97	-9.64303
▁aanval	-9.64318
▁fase	-9.64332
▁beïnvloed	-9.6434
fic	-9.64356
▁gar	-9.64365
▁baan	-9.64447
▁gre	-9.64454
▁kennen	-9.64548
ric	-9.64568
stan	-9.64619
tion	-9.64637
gave	-9.6468
ille	-9.64829
wissel	-9.64886
▁tegenover	-9.64915
▁verzameling	-9.64926
zelfde	-9.64934
▁col	-9.64973
▁behalve	-9.64984
▁40	-9.65068
▁spin	-9.65086
▁kleuren	-9.65087
▁maastricht	-9.65113
▁praktijk	-9.65133
▁betrokken	-9.65151
▁dichter	-9.65153
soorten	-9.65163
▁nazi	-9.65182
muziek	-9.65218
▁uitgebreid	-9.65272
▁voetbal	-9.65329
07	-9.65355
ii	-9.65369
▁ervoor	-9.65492
▁italiaanse	-9.65502
▁religieuze	-9.65512
ian	-9.65519
▁betrekking	-9.65568
▁kind	-9.65594
▁zweden	-9.65599
▁limburg	-9.65687
▁overigens	-9.65714
▁geleden	-9.65727
▁menselijke	-9.65822
isatie	-9.66048
▁gemiddelde	-9.66113
lingen	-9.66121
actie	-9.66162
station	-9.66193
by	-9.66198
car	-9.66236
loo	-9.6628
▁traditionele	-9.66284
namen	-9.66295
▁samenwerking	-9.66332
▁sc	-9.66492
▁gold	-9.66517
▁alles	-9.6652
▁1990	-9.66522
q	-9.66596
erij	-9.66604
▁krijgt	-9.66681
▁aandacht	-9.66685
▁iedere	-9.66809
lij	-9.6681
fin	-9.66827
▁erkend	-9.66893
vocht	-9.66946
▁prof	-9.66986
▁(1	-9.67016
▁beperkt	-9.67031
93	-9.67031
bie	-9.67124
wal	-9.67229
pri	-9.67239
▁thuis	-9.67342
organisatie	-9.67473
▁stil	-9.67752
zuur	-9.68053
▁twaalf	-9.68066
ijs	-9.6809
lia	-9.68162
▁klasse	-9.68346
mus	-9.68394
▁ei	-9.68404
▁voet	-9.68451
ana	-9.68467
▁behulp	-9.68467
▁opvolger	-9.68468
▁zuurstof	-9.6847
film	-9.68487
los	-9.68637
▁vervolg	-9.68674
▁straf	-9.68687
gor	-9.68721
▁teksten	-9.68754
erde	-9.68781
red	-9.68852
spiegel	-9.68869
▁ser	-9.68931
ani	-9.68956
▁bek	-9.68985
▁start	-9.6899
▁mal	-9.69026
▁dankzij	-9.6907
▁koe	-9.69103
▁opera	-9.69203
god	-9.69272
cla	-9.69321
houden	-9.69524
▁beelden	-9.6973
▁echt	-9.69784
rik	-9.6983
sluit	-9.69841
hoe	-9.69862
dal	-9.69863
▁verschenen	-9.69881
▁kende	-9.6993
oli	-9.69938
mit	-9.6995
aliteit	-9.69976
▁29	-9.70035
ran	-9.70055
riet	-9.70064
geslagen	-9.70135
wereld	-9.70147
▁links	-9.70161
chan	-9.70188
▁media	-9.70212
▁ronde	-9.70259
zin	-9.70278
▁georganiseerd	-9.70289
▁oranje	-9.70289
▁allerlei	-9.70292
kunst	-9.70335
▁spreken	-9.70345
neu	-9.70388
naar	-9.70479
▁medi	-9.7052
las	-9.70591
wijze	-9.70638
lis	-9.70685
▁betreft	-9.70698
▁finale	-9.70699
▁speciale	-9.7071
▁opleiding	-9.70798
and	-9.70835
▁bro	-9.70877
pir	-9.70887
▁liep	-9.7091
▁zoek	-9.70953
▁afrika	-9.71008
▁idee	-9.71012
▁fiets	-9.71058
▁begrip	-9.71114
▁kamp	-9.71118
rat	-9.712
▁aanzienlijk	-9.71266
▁gele	-9.71272
02	-9.71305
▁gedeelte	-9.71326
▁sterren	-9.71346
▁not	-9.71419
▁stam	-9.71484
ties	-9.71563
▁rust	-9.71584
pan	-9.71629
▁cd	-9.71672
cijfer	-9.71686
poort	-9.71688
▁inge	-9.71729
▁br	-9.71737
genomen	-9.7191
tica	-9.71915
▁31	-9.71917
▁hol	-9.71978
▁et	-9.72041
▁80	-9.72047
su	-9.72095
korea	-9.72118
–	-9.72152
prijs	-9.72211
ros	-9.72243
▁filosofie	-9.72255
▁broed	-9.72348
bed	-9.72376
31	-9.72457
▁weten	-9.72548
▁verloor	-9.72563
03	-9.72625
▁verbinding	-9.72672
▁kinder	-9.72759
▁zware	-9.72771
▁schaal	-9.72783
▁2021	-9.72817
▁sindsdien	-9.72827
▁raakte	-9.72955
ini	-9.73001
vest	-9.73029
▁bol	-9.73159
scha	-9.73188
code	-9.73207
▁berlijn	-9.73211
▁zichtbaar	-9.73247
zer	-9.73275
▁schepen	-9.73303
▁begint	-9.73368
▁rock	-9.73375
pol	-9.7339
voering	-9.73441
▁1945	-9.73453
="9	-9.73474
▁haarlem	-9.73521
iger	-9.73547
ien	-9.73721
▁stroom	-9.73763
tr	-9.73803
leef	-9.73876
▁dier	-9.7388
▁don	-9.73963
mat	-9.73966
▁bezoek	-9.73977
hol	-9.74002
”	-9.74035
▁maria	-9.7405
▁za	-9.74064
line	-9.74236
▁rotterdam	-9.74247
▁60	-9.74265
▁oorlogs	-9.74298
▁verleden	-9.74345
▁gesloten	-9.74388
houder	-9.74408
▁qua	-9.74439
▁bewijs	-9.74466
vor	-9.74568
hof	-9.74656
▁warm	-9.74656
▁overige	-9.74657
com	-9.74689
▁theater	-9.74741
ces	-9.74824
▁thema	-9.74826
▁verhouding	-9.74877
▁luxemburg	-9.74887
▁genoeg	-9.74887
park	-9.74918
▁methode	-9.74965
▁gouden	-9.75015
hoofd	-9.75061
can	-9.75086
▁overlijden	-9.75101
iërs	-9.75125
▁maakten	-9.75164
▁verkocht	-9.75194
▁schrift	-9.75198
▁daarin	-9.75217
mal	-9.75219
ji	-9.75268
leider	-9.75303
▁mel	-9.7532
aten	-9.75346
▁gemeenteraad	-9.75366
▁rechten	-9.75424
▁duur	-9.75445
route	-9.75449
▁vroeger	-9.7551
▁constantijn	-9.75542
komst	-9.75552
▁wereldwijd	-9.75585
▁gevolgd	-9.75599
▁landschap	-9.75613
▁vogel	-9.7562
▁lopen	-9.75663
ng	-9.75665
▁geest	-9.75716
▁fu	-9.75769
▁kor	-9.75812
▁ple	-9.75826
beek	-9.75827
hou	-9.75986
▁schrijver	-9.75986
markt	-9.76007
▁doden	-9.7602
▁openbaar	-9.76057
kijk	-9.76127
werp	-9.7613
fra	-9.76174
▁christendom	-9.76179
▁gedacht	-9.76182
mm	-9.76188
▁winkel	-9.76195
plein	-9.76256
▁buurt	-9.76257
▁chemische	-9.76294
▁vergelijking	-9.76345
▁stroming	-9.76351
maken	-9.76383
▁tour	-9.7639
▁lager	-9.7658
▁bepalen	-9.76615
din	-9.76639
▁weken	-9.76681
kar	-9.76823
▁diens	-9.76893
tz	-9.76945
▁regels	-9.77004
yo	-9.77052
▁eeuwen	-9.77074
blad	-9.77135
hoorn	-9.77139
▁toepassingen	-9.77213
▁stoffen	-9.77236
▁christus	-9.77275
ow	-9.77346
▁pen	-9.77365
▁bodem	-9.77406
▁kost	-9.77416
lip	-9.77419
▁bewaard	-9.77494
▁1994	-9.77525
hang	-9.77545
ket	-9.77561
▁provincies	-9.77637
▁pu	-9.77655
▁probleem	-9.77665
▁doorgaans	-9.77721
▁mol	-9.77736
ice	-9.77794
▁eigenlijk	-9.77845
dia	-9.77847
▁vereniging	-9.77857
lan	-9.77859
▁gebeurtenissen	-9.78162
▁toegevoegd	-9.78163
▁wo	-9.78174
▁trein	-9.78365
istisch	-9.78419
pon	-9.78518
▁dagelijks	-9.78599
▁probeerde	-9.786
▁ag	-9.78617
▁koninklijke	-9.78619
▁specht	-9.78621
▁team	-9.78628
hr	-9.78745
mun	-9.78764
▁gekomen	-9.78841
▁2022	-9.78857
▁olie	-9.78864
tru	-9.78966
▁wij	-9.78971
▁uitgebracht	-9.78984
▁poly	-9.79037
▁regen	-9.79054
oever	-9.79103
plaatsen	-9.79185
▁windows	-9.79259
▁nauwelijks	-9.7926
▁david	-9.7926
▁doet	-9.79262
▁rand	-9.79277
positie	-9.79311
▁waterstof	-9.79324
▁gericht	-9.79366
▁wegens	-9.79386
alisme	-9.79435
▁nauw	-9.79466
▁dubbel	-9.79478
▁milieu	-9.79484
▁george	-9.79492
▁zwe	-9.79567
zetten	-9.79622
▁trekken	-9.79716
▁gezin	-9.7973
▁verklaring	-9.79774
▁bleven	-9.79796
▁hoek	-9.79801
arm	-9.79833
▁oudere	-9.79906
aak	-9.79908
wapen	-9.79935
▁1995	-9.79981
gy	-9.8006
▁software	-9.80082
▁componist	-9.80158
▁ac	-9.80164
▁spinnen	-9.80202
▁ci	-9.80365
fries	-9.80402
▁belasting	-9.80429
ort	-9.80453
ung	-9.80473
▁albert	-9.80554
getrokken	-9.80701
ouw	-9.80786
baarheid	-9.80864
▁oplossing	-9.80922
▁product	-9.80982
▁amerika	-9.81001
bol	-9.81038
aties	-9.8111
rt	-9.81122
08	-9.81136
▁stelling	-9.81234
▁gang	-9.81263
▁besloten	-9.81292
systemen	-9.81306
▁westelijke	-9.81345
▁mark	-9.81394
▁plek	-9.81416
▁wedstrijd	-9.81441
zoals	-9.81464
rac	-9.81507
▁ontstonden	-9.81548
▁controle	-9.81596
▁streek	-9.81659
int	-9.81668
▁metaal	-9.81693
▁gregoriaanse	-9.81748
raden	-9.81764
toren	-9.81877
▁pra	-9.81881
▁internet	-9.81953
▁william	-9.81977
▁bereiken	-9.81991
▁wonen	-9.82023
▁kro	-9.82033
▁peter	-9.82049
▁vs	-9.82072
▁national	-9.82073
▁voldoende	-9.82116
▁merk	-9.82161
vleugel	-9.82266
▁reis	-9.82302
▁verzet	-9.82398
gewerkt	-9.82452
gin	-9.82455
gekomen	-9.82481
▁toepassing	-9.82495
▁cre	-9.82506
▁gemiddeld	-9.82609
kon	-9.82654
gelegd	-9.82671
▁legde	-9.827
▁onze	-9.82743
▁vijand	-9.82894
▁bisschop	-9.829
bos	-9.82906
ure	-9.82911
▁kerken	-9.83001
zorg	-9.83103
▁constant	-9.83115
▁culturele	-9.83132
holland	-9.83134
ble	-9.83166
astro	-9.83185
▁ana	-9.83285
my	-9.83291
▁besluit	-9.83297
stijl	-9.83351
▁respectievelijk	-9.83365
▁gerekend	-9.83393
▁zonne	-9.83395
▁rivieren	-9.83425
▁heen	-9.83475
▁zullen	-9.83606
▁trek	-9.83615
ight	-9.83629
▁islam	-9.83644
▁openbare	-9.83658
olympische	-9.8376
mes	-9.83782
▁wiskundige	-9.83835
▁70	-9.83932
▁zand	-9.84038
ola	-9.84055
▁hendrik	-9.84066
▁ideeën	-9.84085
door	-9.84162
▁dam	-9.84178
ement	-9.84182
az	-9.84193
leiding	-9.84195
▁vlaams	-9.84195
bijvoorbeeld	-9.84279
zeeland	-9.84344
phil	-9.84391
▁zuiver	-9.84482
▁vrijheid	-9.84511
▁aangenomen	-9.84525
nieuw	-9.84528
▁resultaat	-9.84536
act	-9.84536
▁terecht	-9.84591
▁2,	-9.84605
▁verplicht	-9.84667
▁richtte	-9.84686
▁model	-9.84708
zijn	-9.84824
our	-9.8484
graaf	-9.84856
▁mocht	-9.84865
lank	-9.84867
stoffen	-9.84934
▁geschikt	-9.85008
▁gepubliceerd	-9.85008
isering	-9.85012
▁feest	-9.85051
wit	-9.85056
▁verlaten	-9.85137
▁gewonnen	-9.85245
generaal	-9.85252
grafische	-9.85276
gebouw	-9.85284
▁houdt	-9.8532
▁gezag	-9.85355
▁aanleiding	-9.85432
pu	-9.85451
▁kwa	-9.85454
top	-9.85489
▁plat	-9.85493
▁geweld	-9.8551
▁ik	-9.8552
ois	-9.85738
pot	-9.85744
▁scha	-9.85763
klo	-9.85784
zij	-9.85828
▁ban	-9.85851
▁wapen	-9.85892
▁wetten	-9.85906
05	-9.85922
off	-9.85947
▁gehad	-9.85966
▁stelt	-9.85992
liggende	-9.86009
stein	-9.8605
▁blok	-9.86117
gegeven	-9.86159
▁veelal	-9.86175
▁beschikbaar	-9.86199
▁stierf	-9.86199
dt	-9.86207
ero	-9.86242
▁bevatten	-9.86295
▁militair	-9.86339
▁verre	-9.8636
mor	-9.86369
▁plant	-9.864
▁gebleven	-9.86443
▁ontving	-9.86536
logie	-9.86595
cho	-9.86626
▁godsdienst	-9.86682
▁beheer	-9.86688
elle	-9.86747
▁geluids	-9.86955
breken	-9.86981
▁werkt	-9.86983
▁bouwen	-9.87013
▁mogelijke	-9.87047
▁cap	-9.87137
▁bedrijf	-9.87163
▁zwart	-9.8718
▁os	-9.87361
▁financiële	-9.87403
▁turkije	-9.87403
▁romeinen	-9.87407
▁vonden	-9.87418
▁gebruikelijk	-9.87506
nor	-9.87568
▁grootte	-9.87589
▁ouder	-9.87595
echt	-9.87597
▁chinese	-9.87646
▁benaming	-9.87648
▁kunstenaars	-9.87708
slaan	-9.8778
matig	-9.87845
wijziging	-9.87891
▁bloei	-9.87892
▁elektrische	-9.879
assi	-9.87922
inter	-9.87938
▁kaart	-9.8795
kamer	-9.87957
▁carrière	-9.87971
▁plu	-9.87974
▁neo	-9.87987
last	-9.88031
▁zitten	-9.88054
▁studenten	-9.88146
middelen	-9.88153
haven	-9.8818
▁elf	-9.8819
bestuur	-9.88192
acteur	-9.88219
wisseling	-9.88226
▁tegenstander	-9.88381
▁dia	-9.88501
▁specifieke	-9.88592
gaande	-9.88658
▁1998	-9.88668
waarts	-9.88699
zee	-9.8871
▁han	-9.88736
▁hor	-9.88847
▁huid	-9.88935
war	-9.89051
▁bezocht	-9.89115
▁samenleving	-9.89138
landen	-9.8917
▁kies	-9.89187
zing	-9.89195
lagen	-9.89257
▁aanwezigheid	-9.8926
ami	-9.89306
▁latijnse	-9.89307
▁volwassen	-9.89362
▁munt	-9.89364
cke	-9.89412
▁straling	-9.89455
▁overwinning	-9.89459
▁eenvoudig	-9.89508
▁vlucht	-9.89638
▁denken	-9.89641
▁can	-9.8965
lei	-9.89655
▁stammen	-9.89661
ges	-9.8969
▁pol	-9.89712
iseren	-9.89734
▁test	-9.89737
lus	-9.89761
▁alfabet	-9.89777
schat	-9.89781
▁keerde	-9.89805
▁jong	-9.89807
▁hierin	-9.89813
▁vlieg	-9.89839
▁tram	-9.89864
deling	-9.89866
orde	-9.89868
ouder	-9.89889
▁ouders	-9.89893
▁diep	-9.89893
dijk	-9.89922
ill	-9.89963
▁arts	-9.89964
▁beleg	-9.90069
lim	-9.90082
▁gebeurt	-9.90105
iv	-9.90144
houding	-9.90168
▁bereikte	-9.90217
sign	-9.90242
genoot	-9.90352
▁echte	-9.90391
ben	-9.90434
▁elektron	-9.90547
▁oudheid	-9.90581
▁arnhem	-9.90606
▁vertaling	-9.9061
▁liefde	-9.90613
▁protest	-9.90618
▁actie	-9.90647
industrie	-9.90694
▁tele	-9.9074
nummer	-9.90768
iers	-9.90783
▁willen	-9.90812
gemeente	-9.91018
▁bin	-9.91126
▁1999	-9.91156
hor	-9.91263
▁hemel	-9.91266
▁ring	-9.9127
bond	-9.91309
vorming	-9.91382
▁ontwikkelen	-9.91383
▁gegevens	-9.91409
▁ol	-9.91465
▁scholen	-9.91491
ora	-9.91497
pr	-9.91552
▁slot	-9.9156
wier	-9.91586
grens	-9.91596
▁afbeelding	-9.91616
▁baby	-9.91634
ili	-9.91638
steden	-9.91645
ano	-9.91703
hon	-9.91799
inus	-9.91835
vlucht	-9.91836
lar	-9.91872
kw	-9.91883
▁iv	-9.91893
▁overgang	-9.92008
▁zorgen	-9.92103
▁sm	-9.92168
▁behaalde	-9.92171
▁atoom	-9.92206
vormen	-9.92216
▁slotte	-9.92258
aanse	-9.9227
▁genaamd	-9.92376
▁verval	-9.92389
▁burgers	-9.92542
norm	-9.92545
och	-9.92563
▁vormde	-9.92589
▁strip	-9.92644
▁noordzee	-9.92661
meter	-9.92682
▁dient	-9.92747
▁volledige	-9.92757
▁naties	-9.92776
loze	-9.92814
▁rondom	-9.92846
mbo	-9.92887
roe	-9.92913
▁werking	-9.92942
▁bijzondere	-9.92948
rad	-9.92998
▁fout	-9.93019
steen	-9.93041
▁moord	-9.93126
▁dragen	-9.93146
▁wijk	-9.93151
▁vermogen	-9.93215
▁long	-9.93239
chem	-9.93268
leer	-9.93286
anti	-9.93388
▁denemarken	-9.93398
▁geproduceerd	-9.93398
▁twintigste	-9.93471
kap	-9.93527
wegen	-9.93532
▁buitenland	-9.93533
ib	-9.93588
▁eten	-9.93589
▁lama	-9.93621
▁zette	-9.93653
▁sla	-9.93827
▁you	-9.93942
▁toenmalige	-9.93949
mate	-9.93969
cl	-9.94018
▁toestand	-9.94057
▁tonen	-9.94091
motor	-9.94097
arbeid	-9.94108
chten	-9.94167
▁atmosfeer	-9.94173
snelheid	-9.94186
▁trouw	-9.94189
▁enorme	-9.94231
▁beschrijving	-9.94237
mil	-9.94284
lijnen	-9.94346
kanaal	-9.94426
▁ontvangen	-9.94433
jan	-9.94469
▁1980	-9.94501
rum	-9.9451
▁wezen	-9.94519
drukken	-9.94579
▁horen	-9.94608
▁overeen	-9.94644
▁minuten	-9.94695
▁publiceerde	-9.94696
▁zei	-9.94732
▁tal	-9.94752
-1	-9.94765
▁iedereen	-9.94937
rus	-9.94944
activiteit	-9.94981
▁isotopen	-9.95023
stroom	-9.95164
▁arabische	-9.95216
communistische	-9.95236
hield	-9.95343
vloed	-9.95347
▁mogelijkheid	-9.95421
▁jean	-9.95437
▁discussie	-9.95478
▁droeg	-9.9548
▁canada	-9.95482
▁papier	-9.95496
polder	-9.95629
neem	-9.95663
-18	-9.95664
▁pers	-9.95668
put	-9.9573
▁kasteel	-9.95744
▁ur	-9.95744
▁regional	-9.9577
europese	-9.95771
▁1960	-9.95806
icus	-9.95834
kamp	-9.95838
▁twintig	-9.95924
hit	-9.95938
▁luid	-9.95977
richting	-9.95979
▁bor	-9.96055
▁gebouwen	-9.96057
rang	-9.96085
▁grondgebied	-9.96102
bil	-9.96129
▁kom	-9.96136
▁brug	-9.96146
▁vliegen	-9.96241
_2	-9.96256
vrij	-9.96261
▁lodewijk	-9.9627
gemaakt	-9.96276
▁martin	-9.96286
▁gevolgen	-9.96295
▁omstandigheden	-9.96316
▁micro	-9.96327
sport	-9.96411
sluiting	-9.96461
▁verschijnsel	-9.9653
▁schrikkeljaar	-9.96535
vereniging	-9.9662
kundige	-9.96711
▁rug	-9.96766
▁bloem	-9.96781
▁aangetroffen	-9.96801
▁beginnen	-9.96817
▁gebouw	-9.96844
▁1996	-9.9685
anc	-9.97033
trans	-9.97061
▁vóór	-9.97068
▁caesar	-9.97068
▁planeet	-9.97069
▁brief	-9.97081
achtig	-9.97181
stuk	-9.97183
pool	-9.97302
▁lagen	-9.97304
-16	-9.97326
ott	-9.97416
gelaten	-9.97418
▁syn	-9.97421
iz	-9.97519
▁cent	-9.97575
▁gemakkelijk	-9.97603
▁britten	-9.97603
▁kleiner	-9.97622
teerd	-9.97624
▁mogen	-9.97648
▁troon	-9.9773
iti	-9.97751
ria	-9.97782
▁fr	-9.97782
▁beschikt	-9.97872
▁publicatie	-9.97875
streng	-9.97887
▁°	-9.97917
▁voerde	-9.97991
▁spelers	-9.98
▁honderd	-9.98127
▁opkomst	-9.98212
▁egyptische	-9.98296
▁schade	-9.98342
ance	-9.98346
ade	-9.98358
▁soldaten	-9.98412
▁collectie	-9.98446
▁jeruzalem	-9.98486
rk	-9.98591
▁hoop	-9.98624
▁onderwerp	-9.98661
molen	-9.9875
▁rood	-9.98777
▁plannen	-9.98777
▁iran	-9.9879
▁machine	-9.98828
▁belg	-9.98867
▁producten	-9.98873
▁hersen	-9.98878
▁schrijvers	-9.98891
▁brak	-9.9892
▁helemaal	-9.98987
hoog	-9.99034
▁opvallend	-9.99124
▁mening	-9.99133
▁(16	-9.99151
▁jongen	-9.99182
ali	-9.99207
▁slecht	-9.99215
▁australië	-9.99227
▁james	-9.99247
▁lied	-9.99307
▁leggen	-9.99347
bit	-9.99351
machine	-9.99356
west	-9.99394
▁tijden	-9.99397
▁object	-9.99424
▁koolstof	-9.995
▁bed	-9.99504
▁char	-9.99525
▁1993	-9.99544
▁achtergrond	-9.99566
▁straat	-9.99637
gem	-9.99648
mans	-9.99655
toon	-9.99701
▁boeren	-9.99702
rel	-9.99749
missie	-9.99786
▁klank	-9.9985
▁toernooi	-9.99862
richt	-9.99868
▁ir	-9.99888
cellen	-9.99896
▁geopend	-10.0006
▁tachtig	-10.0008
▁zetel	-10.0021
▁inhoud	-10.0029
▁gezamenlijk	-10.0032
▁sprak	-10.0043
▁stonden	-10.0043
▁warmte	-10.0049
▁vak	-10.0049
katholieke	-10.0052
rekening	-10.0053
▁gezondheid	-10.006
▁behoorde	-10.0061
▁nummers	-10.0063
bas	-10.0066
▁reken	-10.0072
▁indien	-10.0075
geschiedenis	-10.0077
▁vrouwtje	-10.0084
▁frequentie	-10.0088
▁auteur	-10.0089
▁architect	-10.0096
dit	-10.0097
▁vijfde	-10.0098
▁vermoedelijk	-10.0101
album	-10.0105
productie	-10.0115
▁industriële	-10.0116
wortel	-10.0116
pos	-10.0117
groepen	-10.0117
▁beurt	-10.0118
lies	-10.0125
gon	-10.013
▁geheim	-10.013
tussen	-10.0136
▁cm	-10.0138
▁tuin	-10.0142
▁precies	-10.0143
▁stichting	-10.0144
akker	-10.0146
kin	-10.0148
leggen	-10.0153
som	-10.0164
zeg	-10.0168
▁uiteen	-10.017
bureau	-10.0172
groei	-10.0173
▁sha	-10.0175
▁gezet	-10.0176
wacht	-10.018
▁lagere	-10.0181
▁persoonlijk	-10.0182
▁wegen	-10.0196
bus	-10.0199
▁ingevoerd	-10.0199
▁1970	-10.0207
vader	-10.021
▁metro	-10.0214
titel	-10.0219
ua	-10.0222
nder	-10.0226
▁evolutie	-10.0227
▁verdwenen	-10.0227
trouw	-10.0228
zend	-10.023
▁techniek	-10.0232
▁donker	-10.0232
▁groene	-10.0237
▁psycho	-10.0238
dio	-10.0243
ellen	-10.0246
▁mijn	-10.0246
▁koper	-10.0247
▁analyse	-10.0251
▁ob	-10.0253
▁veroordeeld	-10.0256
▁wiskunde	-10.0256
cri	-10.0258
type	-10.026
▁bl	-10.0272
soort	-10.0273
categorie	-10.0278
▁bon	-10.0283
▁coalitie	-10.0284
letter	-10.0288
▁geleidelijk	-10.0295
loog	-10.0301
functie	-10.0306
lov	-10.0311
script	-10.0318
▁fort	-10.0324
gif	-10.0329
trek	-10.0335
▁lichaams	-10.0337
▁1000	-10.0344
▁bericht	-10.0356
▁oppervlak	-10.0358
logen	-10.0359
ith	-10.037
▁luther	-10.0372
▁hierop	-10.0376
brug	-10.0378
▁(3	-10.0382
▁kwaliteit	-10.0383
anse	-10.0391
kool	-10.0398
▁vermoord	-10.0398
▁verboden	-10.04
eeuwse	-10.04
▁denk	-10.0413
ino	-10.0416
tic	-10.0422
▁generaal	-10.0426
hul	-10.0427
▁vriend	-10.0431
gie	-10.0431
▁concentratie	-10.0431
▁functies	-10.0434
hout	-10.045
▁individu	-10.0454
▁mont	-10.0458
old	-10.0462
▁diende	-10.0462
wand	-10.0466
▁bewegen	-10.0473
▁oprichting	-10.0476
nomen	-10.0478
tim	-10.0484
▁1950	-10.0485
▁leeuw	-10.0486
voornaamste	-10.0488
woning	-10.0501
rechten	-10.0511
▁ridder	-10.0513
diep	-10.0522
▁gat	-10.0526
dic	-10.0536
▁deeltjes	-10.0537
sverkiezingen	-10.054
techniek	-10.0542
meester	-10.0549
mos	-10.055
rand	-10.0552
zon	-10.0557
▁schoon	-10.0571
▁omstreeks	-10.0571
▁voorkeur	-10.0572
▁luchthaven	-10.0573
▁winnen	-10.0574
▁dertig	-10.0577
▁1940	-10.058
▁draai	-10.0586
▁mythologie	-10.0587
tar	-10.0592
▁islamitische	-10.06
kust	-10.0607
▁overleden	-10.0611
▁+	-10.0614
▁grenzen	-10.062
rische	-10.0629
▁generatie	-10.0629
▁behandeling	-10.0629
▁charles	-10.0631
▁linker	-10.0631
▁werkelijkheid	-10.0637
zone	-10.0637
▁leidt	-10.0643
▁brugge	-10.0654
vloei	-10.0656
▁rechtstreeks	-10.0659
▁sporen	-10.0664
strijd	-10.0668
▁art	-10.0672
▁europees	-10.0672
▁spoorweg	-10.0673
▁toets	-10.0674
klasse	-10.0674
▁anderzijds	-10.0688
▁bevond	-10.0688
▁uitspraak	-10.069
▁fer	-10.0691
▁graaf	-10.0693
▁(2	-10.0698
stromen	-10.0703
▁90	-10.0703
program	-10.0704
▁verlies	-10.0711
▁aangelegd	-10.0712
lief	-10.0712
▁pvda	-10.0717
ama	-10.0718
▁marc	-10.0721
▁activiteiten	-10.0721
▁complex	-10.0724
▁verklaarde	-10.073
▁str	-10.0732
▁verklaard	-10.0735
▁overzicht	-10.0735
▁toren	-10.0737
▁keren	-10.0738
▁premier	-10.0747
▁erop	-10.0749
lied	-10.0752
▁tak	-10.0753
▁economisch	-10.0756
wetenschappen	-10.076
▁chi	-10.0766
ander	-10.0768
▁hertog	-10.0772
▁koffie	-10.0777
grote	-10.0781
▁1992	-10.0782
baan	-10.0787
▁helder	-10.0789
app	-10.0789
▁overgenomen	-10.0803
▁leverde	-10.0805
▁risico	-10.0807
▁federale	-10.0807
▁meet	-10.0811
▁vertaald	-10.0812
▁zorgt	-10.0815
anten	-10.0816
▁weerstand	-10.0823
▁leek	-10.0826
schilder	-10.0827
▁maatschappij	-10.0828
spelen	-10.083
▁vliegtuig	-10.0833
ax	-10.0834
▁renaissance	-10.0836
▁immers	-10.0837
▁stukken	-10.0839
▁zu	-10.0864
fonds	-10.0866
▁verdediging	-10.0866
▁zoogdieren	-10.0866
▁fransen	-10.0869
▁schuld	-10.0873
▁boom	-10.0883
iële	-10.0883
eenheid	-10.0886
maat	-10.0892
▁oorzaak	-10.0896
▁louis	-10.0896
▁halve	-10.0898
▁locatie	-10.0902
dracht	-10.0906
hard	-10.0906
huizen	-10.0907
stij	-10.0908
▁blad	-10.091
▁veranderde	-10.0914
▁paarden	-10.0926
▁haalde	-10.093
▁rang	-10.0932
▁verloop	-10.094
eigen	-10.0946
▁veiligheid	-10.0947
cher	-10.0953
phi	-10.0954
▁joseph	-10.0957
▁speciaal	-10.0957
▁biografie	-10.0958
erkenning	-10.0959
▁robert	-10.0963
▁1944	-10.0963
logisch	-10.0965
▁ofwel	-10.0965
▁arm	-10.0985
▁wenen	-10.0989
▁commissie	-10.099
▁geleerd	-10.0995
geleverd	-10.1003
▁bereid	-10.1007
ita	-10.1017
▁eindhoven	-10.1019
scherm	-10.1024
bul	-10.1027
tekening	-10.1029
▁koude	-10.1032
lib	-10.1033
ox	-10.1035
▁avond	-10.104
▁historisch	-10.1046
▁oostelijke	-10.1046
▁noemt	-10.1048
▁motor	-10.105
▁vastgelegd	-10.105
▁sym	-10.1053
wolf	-10.106
schoten	-10.1066
▁code	-10.1069
▁stap	-10.1072
▁directe	-10.1073
ico	-10.1075
▁lijken	-10.1077
▁gl	-10.108
▁terrein	-10.1081
arts	-10.1083
kom	-10.1085
rijn	-10.1086
+	-10.1093
▁tennis	-10.1094
▁ingezet	-10.1097
▁kwart	-10.1098
▁films	-10.1101
▁grieken	-10.1104
▁burger	-10.1106
▁priester	-10.1109
▁verwoest	-10.1115
▁melk	-10.1118
atom	-10.1119
▁record	-10.112
▁spoor	-10.1125
▁bus	-10.1126
▁metalen	-10.1131
onnen	-10.1135
▁bergen	-10.1139
▁onbekend	-10.1142
▁1989	-10.1146
zaam	-10.1146
▁web	-10.1148
▁wilden	-10.1155
▁bla	-10.1164
▁hy	-10.1165
▁gekregen	-10.1171
itz	-10.1172
▁wijn	-10.1174
▁literaire	-10.1174
▁duurde	-10.1175
▁1997	-10.1176
▁uitvoeren	-10.1184
▁poten	-10.1189
pho	-10.1203
▁heilig	-10.1207
▁late	-10.121
niveau	-10.1217
-2	-10.122
braak	-10.1224
▁niets	-10.1229
mand	-10.1232
gever	-10.1249
stal	-10.1249
pier	-10.125
▁platen	-10.1251
▁us	-10.1254
▁persoonlijke	-10.1259
▁poging	-10.1263
▁1991	-10.1269
stukken	-10.1269
▁hieronder	-10.1275
illa	-10.1281
vlaanderen	-10.1285
link	-10.1291
schild	-10.1294
gebroken	-10.1296
▁langzaam	-10.1297
▁mari	-10.1299
ets	-10.13
iale	-10.1302
bron	-10.1315
▁hall	-10.1317
▁concept	-10.132
straling	-10.1323
▁instantie	-10.1327
uri	-10.1327
▁eth	-10.133
▁donau	-10.133
▁speel	-10.133
breuk	-10.1335
▁arch	-10.1335
▁halen	-10.1338
ann	-10.135
▁kristal	-10.1357
▁richard	-10.1358
▁christenen	-10.1358
▁betekende	-10.1359
5.000	-10.1361
ré	-10.1361
▁trouwde	-10.1366
▁letters	-10.1369
▁gehoor	-10.1371
▁communicatie	-10.1386
▁anton	-10.1388
▁stra	-10.1388
▁tegelijkertijd	-10.1389
orden	-10.1392
▁2023	-10.1395
▁zijde	-10.1415
500	-10.1416
▁tijdelijk	-10.1417
▁pat	-10.1425
elijkheid	-10.1428
▁sluiten	-10.1428
centra	-10.1429
▁kader	-10.1431
▁war	-10.1432
overeenkomst	-10.1439
fabriek	-10.1447
ath	-10.1452
▁museeuw	-10.1453
▁grieks	-10.1454
▁vormden	-10.1454
mont	-10.1455
sfeer	-10.1456
▁zestig	-10.1456
▁materie	-10.1456
▁ren	-10.146
▁nadruk	-10.146
▁mac	-10.1464
▁gram	-10.1465
rol	-10.1465
gers	-10.1466
▁goederen	-10.1467
▁verliet	-10.1471
punten	-10.1482
sleutel	-10.1485
▁bezetting	-10.1486
gebonden	-10.1498
ique	-10.1501
gevallen	-10.151
▁afdeling	-10.151
▁duizenden	-10.1511
kundig	-10.1512
rivier	-10.1515
▁telefoon	-10.1517
▁versterkt	-10.1517
▁destijds	-10.1517
▁griekenland	-10.1522
▁machts	-10.1523
geleid	-10.1523
▁cijfers	-10.1523
var	-10.1526
gaat	-10.1528
histori	-10.1536
▁definitief	-10.1539
▁front	-10.1541
▁aparte	-10.1544
verkeer	-10.1544
▁zat	-10.1546
▁succesvol	-10.1548
ori	-10.1548
▁uitsluitend	-10.1549
▁gedeeltelijk	-10.1551
▁act	-10.1555
▁vielen	-10.1559
▁operatie	-10.1561
zig	-10.1562
▁telde	-10.1563
geheten	-10.1564
wagen	-10.1571
zelf	-10.1572
geschreven	-10.1572
maker	-10.1575
▁vorming	-10.158
▁vastgesteld	-10.1584
▁irak	-10.1584
enburg	-10.1587
waarde	-10.1589
graad	-10.1591
▁verspreiding	-10.1596
▁kanaal	-10.1599
▁bier	-10.1604
komt	-10.1606
zender	-10.1609
▁populaire	-10.161
▁toegekend	-10.1613
▁aangepast	-10.1613
▁dollar	-10.1613
▁jacob	-10.1613
▁kat	-10.1614
archi	-10.1617
gegaan	-10.1622
▁scherp	-10.1635
lem	-10.1637
▁japanse	-10.1638
▁schip	-10.1639
▁kosten	-10.1653
▁bak	-10.1658
▁israëlische	-10.1664
oma	-10.1664
▁sar	-10.1669
▁beroemde	-10.167
▁[	-10.1671
▁stalin	-10.1671
wiel	-10.1671
chemie	-10.1673
▁voordeel	-10.1676
▁uitbreiding	-10.1678
▁sam	-10.1678
▁germaanse	-10.168
▁vloeistof	-10.1682
maar	-10.1689
▁kolonie	-10.169
boeken	-10.1691
2%	-10.1692
▁samenstelling	-10.1694
▁voorkomt	-10.1697
ulatie	-10.1699
▁noemen	-10.1711
streken	-10.1719
▁godin	-10.1719
▁paleis	-10.1726
▁gesticht	-10.1731
▁international	-10.1731
▁marx	-10.1732
▁leopold	-10.1743
▁sloot	-10.1745
▁terugkeer	-10.1748
ost	-10.1748
▁1939	-10.175
▁otto	-10.1751
▁geestelijk	-10.1755
zy	-10.1761
para	-10.1773
▁bewoners	-10.1775
▁darwin	-10.1776
▁nest	-10.1777
▁bieden	-10.1777
▁saint	-10.1782
azië	-10.1783
▁zout	-10.1784
▁dur	-10.1785
▁gri	-10.1787
boom	-10.1788
▁hoogtepunt	-10.1789
▁dijk	-10.1793
▁dienen	-10.1797
▁cu	-10.1799
wijken	-10.1802
doen	-10.1803
▁bedraagt	-10.1809
▁nederlanders	-10.1811
zuid	-10.1818
▁poolse	-10.1822
vormige	-10.1822
cc	-10.1822
▁acc	-10.1823
▁monument	-10.1827
daal	-10.1833
▁onderverdeeld	-10.1842
▁vijftien	-10.1842
▁veranderen	-10.1843
project	-10.1846
▁cho	-10.1854
▁nieuws	-10.1855
ijnen	-10.1856
▁(17	-10.1859
lok	-10.1862
brengen	-10.1862
▁eco	-10.1862
▁binnenstad	-10.1868
▁schatting	-10.1875
▁vvd	-10.1877
▁opper	-10.1877
200	-10.1879
bank	-10.1894
for	-10.1901
san	-10.1908
▁brazilië	-10.1908
▁burgeroorlog	-10.1909
▁transport	-10.191
assen	-10.1926
▁meteen	-10.1939
▁azië	-10.1939
ula	-10.1942
stemming	-10.1946
woud	-10.1965
▁levende	-10.1968
▁bescherming	-10.1969
▁voorstel	-10.1974
▁einstein	-10.1975
▁thomas	-10.1975
▁daarentegen	-10.1975
▁kiezen	-10.1975
vig	-10.1976
▁wester	-10.1986
anus	-10.1987
wedstrijd	-10.1988
bl	-10.1993
▁bestand	-10.1994
3%	-10.1995
▁sneller	-10.1996
▁kol	-10.2005
▁atomen	-10.2012
▁1982	-10.2015
▁ijsland	-10.2018
▁tibetaans	-10.2027
▁sociaal	-10.2029
▁bezet	-10.2033
▁gast	-10.2036
▁beschermd	-10.204
▁testament	-10.2042
mijn	-10.2047
▁snelle	-10.2048
iër	-10.2049
show	-10.2049
maatschappij	-10.2052
▁carl	-10.2054
▁java	-10.2062
▁cda	-10.2068
jaren	-10.2074
▁suriname	-10.2076
▁provinciale	-10.2076
▁ierland	-10.2076
▁droog	-10.2078
▁toekomst	-10.208
▁redenen	-10.2082
varen	-10.2085
zak	-10.2086
museum	-10.2089
▁speler	-10.2094
▁verwacht	-10.2096
▁som	-10.2102
ux	-10.2104
▁koers	-10.2105
▁alpen	-10.2106
pop	-10.2108
▁zwitserland	-10.2111
▁piano	-10.2112
▁dialect	-10.2113
▁wijzen	-10.2115
▁waaruit	-10.2116
gericht	-10.2119
onderzoek	-10.212
bon	-10.2121
▁verbindingen	-10.2128
▁sector	-10.2129
▁complexe	-10.213
▁microsoft	-10.2144
▁nauwkeurig	-10.2144
▁noodzakelijk	-10.2144
▁turkse	-10.2144
▁freud	-10.2144
▁arbeiders	-10.2144
▁paard	-10.2144
▁geï	-10.2147
vier	-10.2151
▁world	-10.2152
col	-10.2153
▁mono	-10.2156
duizend	-10.216
▁aller	-10.216
▁ziet	-10.2168
stoot	-10.2169
▁auteurs	-10.217
▁gewone	-10.217
gro	-10.2173
▁pot	-10.2175
▁aanleg	-10.2177
▁tientallen	-10.2178
▁live	-10.2185
▁modern	-10.2185
▁verslagen	-10.2186
▁theo	-10.2188
▁bewind	-10.2189
instrument	-10.2189
▁publieke	-10.2191
▁taak	-10.2193
▁gebeurde	-10.2207
▁inclusief	-10.2209
dorp	-10.221
kern	-10.2211
▁bevestigd	-10.2212
▁traditioneel	-10.2212
▁ingedeeld	-10.2212
grepen	-10.2213
reserve	-10.2216
▁solo	-10.2224
▁wens	-10.2227
tak	-10.2227
pra	-10.2228
▁dorpen	-10.223
hy	-10.223
▁kerst	-10.2236
▁vaker	-10.2239
▁gelden	-10.2244
▁500	-10.2248
▁adel	-10.2256
▁vroegere	-10.2263
model	-10.2264
doek	-10.2265
fil	-10.2272
lage	-10.2275
▁netwerk	-10.2275
▁vin	-10.2289
club	-10.229
▁che	-10.2292
▁uiterst	-10.2293
structuur	-10.2297
ray	-10.2304
atief	-10.2305
▁vermoed	-10.2309
serie	-10.2311
staande	-10.2312
▁negentiende	-10.2316
officier	-10.2316
▁beneden	-10.2316
alis	-10.2318
▁toneel	-10.232
gat	-10.2321
▁1973	-10.2322
▁slechte	-10.2341
glo	-10.2341
ney	-10.2342
ificatie	-10.2346
▁zelfstandig	-10.2346
aliseerd	-10.2351
▁slaagde	-10.2351
▁ministerie	-10.2353
▁verhuisde	-10.2356
▁zegt	-10.236
▁gelegd	-10.2361
kaart	-10.2362
geld	-10.2365
cultuur	-10.2371
▁gla	-10.2374
▁ontdekte	-10.2383
greep	-10.2388
▁afgebeeld	-10.2389
▁uitvoering	-10.2394
test	-10.2395
▁kevers	-10.2396
engels	-10.2402
national	-10.2408
▁opening	-10.2408
▁johan	-10.2416
▁gewoon	-10.2419
▁organisaties	-10.242
▁individuele	-10.2422
▁herman	-10.2422
▁waargenomen	-10.2434
hind	-10.2435
ida	-10.2443
▁vleugels	-10.2446
press	-10.2447
ae	-10.2448
▁begraven	-10.2449
▁onver	-10.2452
▁bach	-10.2452
▁ambt	-10.2455
▁boeddhisme	-10.2455
▁enerzijds	-10.2455
chen	-10.2456
kleed	-10.2457
▁produceren	-10.2457
▁200	-10.2461
lio	-10.2466
▁breed	-10.2472
gram	-10.2477
▁kas	-10.2478
sticht	-10.2487
▁vergelijkbaar	-10.2491
▁weigerde	-10.2491
▁bestuurlijke	-10.2495
sme	-10.2496
▁bet	-10.2496
▁kal	-10.2499
▁leren	-10.2499
way	-10.2501
▁bom	-10.2505
familie	-10.2508
▁moslims	-10.2513
▁win	-10.2514
cep	-10.2521
▁(15	-10.2522
▁dialecten	-10.2523
pijn	-10.2525
▁koop	-10.2526
▁sj	-10.2528
▁newton	-10.2534
▁cuba	-10.2541
plicht	-10.2541
bundel	-10.2541
zaal	-10.2546
▁ss	-10.255
▁feite	-10.2552
sus	-10.2553
lf	-10.2553
▁ven	-10.2561
▁gouverneur	-10.2561
▁editie	-10.2561
▁antwoord	-10.2561
▁aanvaard	-10.2562
▁jazz	-10.2562
▁heuvel	-10.2569
▁chris	-10.2571
▁venus	-10.2574
ionele	-10.2575
▁voorwerp	-10.2583
lp	-10.2586
basis	-10.2586
▁glas	-10.2592
▁objecten	-10.2593
▁dominant	-10.2597
2)	-10.2598
▁liberale	-10.2607
▁vragen	-10.2611
▁vlees	-10.2612
▁pool	-10.2613
mol	-10.2618
stort	-10.2621
ais	-10.2622
▁homo	-10.2622
genoten	-10.2623
cal	-10.2626
▁stenen	-10.2631
producent	-10.2633
▁normaal	-10.2633
▁variant	-10.2635
▁eer	-10.2636
▁praag	-10.2637
▁jaartal	-10.2641
ante	-10.265
▁juiste	-10.2654
keten	-10.2656
duitsland	-10.2664
▁verandering	-10.2671
▁stroomt	-10.2671
▁zorg	-10.2674
eiland	-10.2679
graf	-10.268
▁('	-10.2684
▁richt	-10.2684
▁allemaal	-10.2687
blok	-10.2688
▁hongarije	-10.269
▁ploeg	-10.269
laten	-10.2692
°	-10.2699
▁vertrek	-10.2702
▁wedstrijden	-10.2703
▁mm	-10.2708
▁sommigen	-10.2712
mens	-10.2713
▁ros	-10.2721
▁vissen	-10.2724
effect	-10.273
▁emi	-10.2735
klein	-10.2736
kring	-10.2748
wang	-10.2753
plant	-10.2757
orthodoxe	-10.2758
▁gebrek	-10.2764
▁menselijk	-10.2771
▁ball	-10.2772
eeuw	-10.2774
▁zweedse	-10.2777
▁defensie	-10.2777
▁geografie	-10.2779
▁zeventig	-10.2779
▁keuze	-10.278
edel	-10.2783
▁amerikanen	-10.2783
▁riep	-10.2786
▁bezoekers	-10.2788
offer	-10.2789
▁set	-10.279
▁tijdschrift	-10.2792
▁organismen	-10.2794
▁rijden	-10.2795
german	-10.2798
▁toegang	-10.2801
▁varianten	-10.2804
▁plaat	-10.2806
terrein	-10.2813
▁commerciële	-10.2813
▁aandeel	-10.2814
▁vlag	-10.282
verbindingen	-10.2825
gg	-10.2825
▁veroverd	-10.2837
ati	-10.2841
zoon	-10.2843
▁lezen	-10.2849
▁neanderthaler	-10.285
▁verklaren	-10.285
▁privé	-10.285
▁regerings	-10.2853
▁ijssel	-10.2855
▁1977	-10.2857
lant	-10.2863
▁veranderd	-10.2865
▁groeien	-10.2866
▁gelegenheid	-10.2869
iviteit	-10.2876
▁stations	-10.2877
▁komst	-10.2883
massa	-10.2884
▁negatieve	-10.2886
▁stedelijk	-10.2887
▁gezegd	-10.2887
von	-10.289
verdeling	-10.2899
duits	-10.2905
▁borst	-10.2906
appen	-10.291
liet	-10.2911
▁elektro	-10.2914
▁gewicht	-10.2915
▁eenheden	-10.292
▁protestantse	-10.2923
▁ajax	-10.2923
▁roemenië	-10.2923
uch	-10.2929
gno	-10.2933
▁fel	-10.2939
etten	-10.2942
ool	-10.2946
ming	-10.2952
iaanse	-10.2956
sky	-10.2959
pagina	-10.296
brittannië	-10.296
▁absolute	-10.296
▁natuurkunde	-10.2964
▁ce	-10.2965
▁voorgesteld	-10.2971
speler	-10.2976
delta	-10.2976
plat	-10.2986
ette	-10.2988
▁nederzetting	-10.2997
▁onmogelijk	-10.2997
▁omvang	-10.2997
▁hoeveelheden	-10.2998
▁bedekt	-10.2999
▁trokken	-10.2999
▁lood	-10.3009
▁grand	-10.3012
▁zaak	-10.3015
▁ministers	-10.3017
▁erin	-10.3018
▁gedwongen	-10.3022
alia	-10.3023
▁recente	-10.3025
▁star	-10.3025
▁brede	-10.3027
▁slo	-10.3028
▁voorkomende	-10.303
experiment	-10.3031
toestand	-10.3033
▁stikstof	-10.3034
▁uitgezonden	-10.3035
▁mount	-10.3037
▁vijftig	-10.3039
twist	-10.3042
▁malen	-10.3042
linie	-10.3045
ura	-10.3046
idae	-10.3051
▁bevel	-10.306
▁rots	-10.3065
▁congres	-10.3066
▁gezicht	-10.3066
▁ons	-10.307
▁decennia	-10.3071
▁architectuur	-10.3073
methode	-10.3074
low	-10.3075
oïde	-10.3076
▁mest	-10.3076
▁belangstelling	-10.3077
▁vergadering	-10.3079
tiv	-10.3086
▁voorbij	-10.3097
▁cellen	-10.3106
1%	-10.3107
diensten	-10.3108
schouw	-10.3109
▁permanent	-10.3109
volk	-10.311
▁geregeld	-10.311
▁1967	-10.3116
▁betaald	-10.3116
▁rijke	-10.3117
eind	-10.3135
▁frank	-10.3136
tief	-10.3137
▁proto	-10.3138
schrijf	-10.3139
▁bewust	-10.3146
▁zoveel	-10.3147
▁nul	-10.3147
polit	-10.3149
▁ontwikkelingen	-10.315
amerikaanse	-10.3151
analyse	-10.3153
▁1986	-10.3154
merk	-10.3154
▁draagt	-10.3158
present	-10.3159
▁kroon	-10.316
▁vliegtuigen	-10.3166
▁deels	-10.3167
leger	-10.317
▁huizen	-10.3171
▁music	-10.3173
▁volgden	-10.3174
▁heden	-10.318
▁manieren	-10.3183
function	-10.3183
▁gedefinieerd	-10.3184
▁democratie	-10.3184
▁johann	-10.3185
▁wetenschappers	-10.3188
liep	-10.3193
▁syrië	-10.3195
▁geallieerden	-10.321
▁boe	-10.3217
▁interpretatie	-10.3222
▁omgekeerd	-10.3222
▁ervaring	-10.3223
▁slachtoffers	-10.3228
▁lijnen	-10.3228
ficeerd	-10.3228
▁hetgeen	-10.3231
christ	-10.3248
boot	-10.3254
▁mohammed	-10.326
▁verkozen	-10.326
▁eindigde	-10.3261
▁musea	-10.3262
▁compositie	-10.3262
steek	-10.3263
▁technische	-10.3264
▁samengesteld	-10.3271
▁uitgegeven	-10.3278
▁mogelijkheden	-10.3279
▁zondag	-10.3281
▁zak	-10.3287
▁festival	-10.3294
itair	-10.3302
▁sol	-10.3304
7%	-10.3304
▁succesvolle	-10.3305
complex	-10.3306
vrouw	-10.3306
cyclus	-10.3306
kh	-10.331
iswaar	-10.3312
▁alexander	-10.3319
▁wei	-10.3321
cia	-10.3323
▁august	-10.3329
▁ware	-10.3336
▁prooi	-10.3339
▁velen	-10.3345
politiek	-10.3354
dus	-10.3355
onne	-10.3359
▁fractie	-10.3359
▁diensten	-10.336
▁droge	-10.3364
comp	-10.3364
lucht	-10.3372
▁journalist	-10.3375
▁vernoemd	-10.3375
▁volgorde	-10.3375
▁bedacht	-10.3377
gesloten	-10.3377
▁instellingen	-10.3377
wezen	-10.338
▁aantallen	-10.3383
▁maal	-10.339
▁genoemde	-10.3393
drong	-10.3393
▁rekening	-10.3405
duur	-10.3406
▁initiatief	-10.3414
▁zodanig	-10.3414
▁lot	-10.3415
▁ramp	-10.3416
oost	-10.3418
▁jacht	-10.342
▁schilderijen	-10.3422
▁uitgesproken	-10.3437
▁dans	-10.3438
▁afkomst	-10.344
server	-10.345
▁zestien	-10.3453
▁sterker	-10.3455
camera	-10.3456
▁voortdurend	-10.3456
▁vertrok	-10.3458
▁orkest	-10.3461
▁diepte	-10.3465
dar	-10.3469
▁termijn	-10.3473
▁uitvinding	-10.3491
▁biologische	-10.3491
patroon	-10.3492
▁arbeids	-10.3501
verdrag	-10.3506
▁gouda	-10.3518
vir	-10.3522
▁eenvoudige	-10.3524
▁vlinders	-10.353
blo	-10.3532
▁1978	-10.3538
▁beroemd	-10.354
schal	-10.3546
wellicht	-10.3547
oni	-10.3547
▁stelsel	-10.3548
▁resultaten	-10.355
▁ram	-10.3551
▁virus	-10.3552
▁begeleid	-10.3554
▁molen	-10.3568
conferentie	-10.357
▁verzoek	-10.357
▁honderden	-10.357
▁planeten	-10.357
▁delft	-10.3574
bio	-10.3576
▁1988	-10.3577
ère	-10.358
doel	-10.3582
levering	-10.3583
post	-10.3584
▁prijzen	-10.3585
▁maat	-10.3585
▁schelde	-10.3599
▁harde	-10.3602
▁gekenmerkt	-10.3609
▁mozart	-10.3609
streek	-10.3611
qua	-10.3612
▁oer	-10.3616
▁1968	-10.3617
via	-10.362
ish	-10.362
pat	-10.3623
monument	-10.3623
staten	-10.3625
hem	-10.3626
▁tibet	-10.3628
▁orgel	-10.363
▁natuurlijk	-10.363
aria	-10.3635
bla	-10.3638
▁veranderingen	-10.3639
▁zoeken	-10.3648
▁--	-10.3649
▁bedreigd	-10.3649
▁keulen	-10.3649
portret	-10.365
feest	-10.3652
▁hervorming	-10.3656
▁vrouwelijke	-10.3657
▁1975	-10.3658
rot	-10.3659
▁processen	-10.3666
▁feitelijk	-10.3666
paard	-10.3668
▁stu	-10.3669
▁onafhankelijke	-10.3673
▁muur	-10.3674
▁partner	-10.3684
room	-10.3686
▁ziekenhuis	-10.3688
▁biedt	-10.3688
ziekte	-10.369
▁middeleeuwse	-10.3691
▁krijgs	-10.3692
voet	-10.3695
▁1983	-10.3696
▁fan	-10.3696
▁1918	-10.3699
back	-10.3705
▁voorheen	-10.3711
minstens	-10.3735
▁zuur	-10.3736
▁positieve	-10.3737
▁dacht	-10.3742
▁vet	-10.3751
▁frederik	-10.3768
▁opgevolgd	-10.3768
▁verkregen	-10.3768
▁verscheidene	-10.3768
▁jakob	-10.3768
▁toenemende	-10.3768
▁zwavelzuur	-10.3769
▁uitvoer	-10.377
▁interne	-10.3773
▁slaven	-10.3777
▁kaap	-10.3778
gehouden	-10.3786
vv	-10.3786
▁flor	-10.3787
president	-10.3788
▁mc	-10.3793
achtigen	-10.3793
▁wk	-10.3793
▁universiteiten	-10.3801
▁woonde	-10.3805
▁sil	-10.3807
▁tegelijk	-10.3809
▁populatie	-10.3809
▁fusie	-10.3811
tegen	-10.3823
▁behouden	-10.3832
▁opname	-10.3848
▁schiereiland	-10.3849
▁dinosauriërs	-10.3849
adem	-10.3849
▁wol	-10.3858
ima	-10.3858
loge	-10.3859
dier	-10.3862
▁termen	-10.3869
energie	-10.3872
▁kenmerk	-10.3873
einde	-10.3875
▁onderling	-10.3883
▁franco	-10.3884
▁camp	-10.3885
▁tar	-10.3888
▁michael	-10.3889
weefsel	-10.3889
ball	-10.3907
vogel	-10.391
cycl	-10.3912
beleid	-10.3913
▁krui	-10.3916
▁noordelijk	-10.3918
▁lente	-10.3919
▁beslissing	-10.393
▁enigszins	-10.393
▁bouterse	-10.393
▁verbeterd	-10.393
▁gulden	-10.393
▁schiphol	-10.393
▁zulk	-10.3931
4%	-10.3934
▁roem	-10.3934
tournee	-10.3935
▁storm	-10.3935
▁1979	-10.3938
▁1941	-10.3938
▁1985	-10.3939
▁human	-10.3944
▁zuster	-10.3946
thy	-10.3948
▁ali	-10.395
▁rapport	-10.395
▁schijn	-10.3954
temperatuur	-10.3955
▁smaak	-10.3956
▁hans	-10.3965
▁veilig	-10.3967
▁neder	-10.3967
▁verwijst	-10.3971
▁mozes	-10.3971
▁studio	-10.3971
▁stuurde	-10.3971
▁afzonderlijke	-10.3971
▁gemeten	-10.3972
▁exact	-10.3975
▁luc	-10.3976
oosten	-10.3977
▁1987	-10.3978
▁onderzoeks	-10.3984
▁beschermen	-10.3989
▁schaats	-10.3994
▁geë	-10.3996
blik	-10.4001
▁vorst	-10.4001
morf	-10.4004
▁scheiding	-10.401
▁kandidaat	-10.4014
▁zuidelijk	-10.4016
typ	-10.4017
▁gevaar	-10.4038
▁kre	-10.404
hl	-10.4042
▁passen	-10.4047
achter	-10.4051
▁geïntroduceerd	-10.4053
▁mur	-10.4054
isse	-10.4054
▁voorstelling	-10.4058
▁export	-10.4059
koop	-10.4061
▁1976	-10.4061
▁1948	-10.4061
wille	-10.4061
▁luik	-10.4064
stap	-10.4069
▁aanvallen	-10.4069
bewerking	-10.409
▁fri	-10.4093
▁nijmegen	-10.4094
▁tafel	-10.4094
▁fins	-10.4098
▁split	-10.4102
gedrukt	-10.4111
▁zoet	-10.4121
▁karl	-10.4128
▁onderzocht	-10.4136
ward	-10.4137
▁landelijke	-10.4138
▁les	-10.4139
▁gesteente	-10.4141
▁betreffende	-10.4144
▁tre	-10.415
600	-10.4152
wil	-10.416
▁1900	-10.4161
▁waarden	-10.4171
▁moleculen	-10.4177
▁evenwicht	-10.4177
▁saksen	-10.4177
talig	-10.4177
▁verovering	-10.4178
fase	-10.4184
oven	-10.4189
▁nader	-10.4189
▁spelling	-10.4196
noord	-10.4201
▁winst	-10.4205
geroepen	-10.4207
▁aangegeven	-10.4209
▁onderdelen	-10.421
▁uitgedrukt	-10.421
ontwikkel	-10.4214
▁pieter	-10.4214
district	-10.4216
▁ontworpen	-10.4219
▁gescheiden	-10.4219
▁vandaag	-10.422
▁zelden	-10.422
▁letterlijk	-10.4223
8%	-10.4226
▁richten	-10.4226
▁nood	-10.4228
lieden	-10.4234
eilanden	-10.4235
▁middelen	-10.4237
▁gaven	-10.4237
ira	-10.4238
drijven	-10.4239
▁bush	-10.424
▁wh	-10.4258
▁impuls	-10.4261
▁maatregelen	-10.4261
▁multi	-10.4261
gam	-10.4266
diploma	-10.4266
▁zaad	-10.4268
▁klim	-10.4273
▁onderzoekers	-10.4273
komende	-10.4275
speel	-10.428
▁tabel	-10.428
verbod	-10.4286
▁epi	-10.4287
uv	-10.4298
▁makkelijk	-10.4303
mechanisme	-10.4303
behoefte	-10.4303
▁hedendaagse	-10.4303
▁voorloper	-10.4304
nederlandstalige	-10.4308
sol	-10.4311
▁lading	-10.4331
gur	-10.4336
▁zwavel	-10.4345
▁elektriciteit	-10.4346
vriend	-10.4346
▁golflengte	-10.4346
visie	-10.4348
▁gewoonlijk	-10.4349
▁graafschap	-10.4349
▁vn	-10.4353
▁1972	-10.4354
zu	-10.4355
halve	-10.4357
▁vorsten	-10.4358
▁overal	-10.436
vogels	-10.4361
▁1920	-10.4361
▁koran	-10.4362
▁prinses	-10.4366
▁californië	-10.4379
▁crisis	-10.4379
▁geraakt	-10.4388
▁medische	-10.4391
▁voormalig	-10.4392
▁uiterlijk	-10.4393
▁1971	-10.4397
ongeluk	-10.4398
maakt	-10.4416
▁meester	-10.4416
▁tom	-10.4424
trekking	-10.4425
▁moskou	-10.4431
▁opgeheven	-10.4431
▁portugal	-10.4431
▁voltooid	-10.4431
▁concilie	-10.4431
▁kwik	-10.4434
tot	-10.4437
▁anna	-10.4438
▁hersteld	-10.4441
▁koos	-10.4445
list	-10.4448
katholiek	-10.4449
▁leveren	-10.4449
▁onderhoud	-10.445
element	-10.4462
▁gevoelig	-10.4466
vlek	-10.4467
▁wonder	-10.4474
▁veroorzaken	-10.4474
▁geschriften	-10.4475
borg	-10.4477
lier	-10.4481
▁1969	-10.4482
▁1974	-10.4482
%)	-10.4487
gal	-10.4488
▁toonde	-10.4505
▁verblijf	-10.4509
▁zang	-10.4512
ick	-10.4516
▁madonna	-10.4517
▁middellandse	-10.4517
▁beschrijft	-10.4517
▁keuken	-10.4517
ruimte	-10.4518
plaatselijke	-10.4518
appel	-10.4519
▁psv	-10.4519
▁schrijft	-10.4526
▁beperkte	-10.4526
▁1930	-10.4529
heim	-10.453
weeg	-10.4535
▁swa	-10.4544
▁stro	-10.4552
public	-10.4559
kathedraal	-10.456
procedure	-10.456
▁uitgestorven	-10.456
▁ocean	-10.456
▁ligging	-10.456
▁verplaatst	-10.4563
▁behandeld	-10.4564
▁positief	-10.4564
ïne	-10.4567
▁herstel	-10.4568
▁apart	-10.4574
rick	-10.4577
vissen	-10.4589
▁actieve	-10.46
▁jongeren	-10.4608
reis	-10.461
▁1981	-10.4611
schil	-10.4623
rant	-10.4627
▁kaarten	-10.4628
fran	-10.4635
▁rit	-10.4635
▁verricht	-10.4638
discipline	-10.4647
▁toerisme	-10.4647
▁achttien	-10.4648
▁bedrag	-10.4649
▁democratische	-10.465
▁sho	-10.4656
erts	-10.4656
▁bacteriën	-10.4657
woon	-10.4659
ieën	-10.4662
vallei	-10.4663
flu	-10.4669
gedrag	-10.4679
▁pic	-10.468
▁wijken	-10.4682
▁exemplaren	-10.4691
▁verwijderd	-10.4691
▁toegestaan	-10.4691
▁studeerde	-10.4691
gemeenschap	-10.4694
indië	-10.4702
▁pad	-10.4704
▁past	-10.4709
▁minderheid	-10.471
▁kok	-10.471
▁veroverde	-10.4711
taan	-10.4715
▁veen	-10.472
ruim	-10.472
ville	-10.4725
▁gevaarlijk	-10.4732
▁bouwde	-10.4733
▁bepaalt	-10.4735
▁fortuyn	-10.4735
auto	-10.4735
▁kleding	-10.4735
▁winnaar	-10.4736
onderhandelingen	-10.4737
▁hebreeuwse	-10.4738
oppervlak	-10.4739
nov	-10.474
▁binding	-10.474
hoven	-10.4741
wood	-10.4747
▁ondertussen	-10.4763
▁q	-10.4764
▁akkoord	-10.4765
dagen	-10.4768
▁waarom	-10.4769
▁voorwerpen	-10.4769
▁factoren	-10.4772
▁jackson	-10.4779
▁zwaartekracht	-10.4779
▁onmiddellijk	-10.478
▁shi	-10.4789
▁spoorlijn	-10.4795
▁mooi	-10.4796
▁munten	-10.4797
burger	-10.4797
▁400	-10.48
▁dynastie	-10.4803
▁opgesteld	-10.4806
ffer	-10.4807
▁blauw	-10.4807
▁ontslag	-10.4808
oloog	-10.4813
▁schilders	-10.4815
▁voren	-10.4819
▁onderwerpen	-10.482
meenschappelijke	-10.4822
▁levert	-10.4822
▁zacht	-10.4825
▁vliegveld	-10.4826
honderd	-10.4827
▁hangt	-10.4828
▁overheids	-10.4828
▁bell	-10.483
▁ernstige	-10.4832
▁krant	-10.4834
tina	-10.4845
▁paulus	-10.4845
▁opgebouwd	-10.485
py	-10.485
duitse	-10.4854
▁zagen	-10.4857
verkiezing	-10.4857
rag	-10.4866
▁vestiging	-10.4866
producten	-10.4867
▁verliezen	-10.4869
▁negentig	-10.4871
▁luchtvaart	-10.4873
vlieg	-10.4877
▁beweerd	-10.488
▁leerlingen	-10.4887
▁mij	-10.4889
time	-10.4893
▁opvattingen	-10.4896
▁bad	-10.4899
▁bestuurs	-10.49
▁beker	-10.4906
groot	-10.4906
▁minste	-10.4908
▁descartes	-10.4913
▁benadering	-10.4913
▁vakbond	-10.4914
ér	-10.4915
▁theorieën	-10.4919
▁boog	-10.4921
bedrijf	-10.4922
[	-10.4923
crisis	-10.4923
▁pet	-10.4947
▁vrienden	-10.4947
▁beiden	-10.4949
boog	-10.4955
▁bernard	-10.4958
▁hemingway	-10.4958
▁gedood	-10.4959
▁toeristen	-10.4959
▁strikt	-10.4959
wat	-10.4965
kind	-10.4965
▁strand	-10.4965
▁parken	-10.4966
phy	-10.4969
▁technologie	-10.4969
cum	-10.4971
▁blauwe	-10.4982
▁ziek	-10.4983
▁voedings	-10.499
▁russisch	-10.4993
▁tr	-10.5
▁uitdrukking	-10.5004
misschien	-10.5004
▁gevierd	-10.5004
▁natuurkundige	-10.5009
▁seks	-10.5013
▁bur	-10.5014
▁bewijzen	-10.5017
▁1917	-10.5018
voudig	-10.502
bepaling	-10.5021
6%	-10.5021
broek	-10.5026
▁taken	-10.5027
rust	-10.5036
▁afstanden	-10.504
▁delfzijl	-10.5049
▁voortplanting	-10.5049
▁senaat	-10.505
▁1984	-10.5057
▁last	-10.5065
stok	-10.5067
▁woestijn	-10.5077
▁constructie	-10.5078
▁oostenrijkse	-10.5087
▁aangetoond	-10.5095
▁mineralen	-10.5095
▁brieven	-10.5095
▁formele	-10.5095
▁francisco	-10.5097
▁originele	-10.5098
ël	-10.5103
▁vereist	-10.5107
fiets	-10.5113
▁ontmoette	-10.5115
▁graden	-10.5116
groen	-10.5117
▁afrikaanse	-10.5119
aux	-10.5126
▁state	-10.5131
▁1500	-10.5139
▁archeologisch	-10.5141
▁brachten	-10.5141
▁smelt	-10.5142
rijp	-10.5142
▁maximaal	-10.5142
▁vesting	-10.5143
▁uitgebreide	-10.5149
▁fabriek	-10.515
stroming	-10.5151
gevangen	-10.5152
▁specifiek	-10.5153
▁aanduiding	-10.5153
▁gebergte	-10.5154
▁banden	-10.5156
▁zevende	-10.5157
kwartier	-10.5157
voorzitter	-10.5161
▁directeur	-10.5165
netwerk	-10.5168
hebreeuws	-10.5184
▁getroffen	-10.5187
▁materialen	-10.5187
▁zelfmoord	-10.5187
▁giftig	-10.5187
▁tanks	-10.5197
trein	-10.5198
▁verteld	-10.5201
▁verkoop	-10.5209
versie	-10.521
▁volkeren	-10.5212
plaat	-10.5213
part	-10.5215
gio	-10.5215
slav	-10.5217
lening	-10.5225
▁atlantische	-10.5233
▁feyenoord	-10.5233
▁volle	-10.5234
sprong	-10.5236
▁verhoogd	-10.5238
▁elders	-10.5239
▁legende	-10.524
▁gil	-10.5248
vlakte	-10.5263
straf	-10.5264
▁mochten	-10.5267
▁verdeling	-10.5267
▁lichte	-10.527
▁vermenigvuldig	-10.528
capaciteit	-10.528
▁bedroeg	-10.528
▁lijden	-10.528
▁psychologie	-10.528
▁1949	-10.5289
▁pogingen	-10.5292
▁tim	-10.5292
▁eieren	-10.5293
▁olymp	-10.5294
▁losse	-10.5302
▁indruk	-10.5308
virus	-10.5316
▁navo	-10.5323
▁digitale	-10.5326
▁mislukte	-10.5326
▁bestudeerd	-10.5326
▁perzische	-10.5328
mantel	-10.5328
▁kamerverkiezing	-10.5328
▁campagne	-10.533
▁gebruikgemaakt	-10.5332
▁patiënt	-10.5334
▁zanger	-10.5335
▁contract	-10.5352
oei	-10.5357
▁vluchten	-10.5357
spin	-10.5365
germaans	-10.537
▁identiteit	-10.5373
▁normale	-10.5373
fysica	-10.5374
▁alsnog	-10.5374
▁nederlaag	-10.5374
▁gewijd	-10.5376
ido	-10.5377
▁russen	-10.5383
▁eigendom	-10.5388
▁mythe	-10.5394
ör	-10.5395
▁marie	-10.54
▁cro	-10.5405
houdt	-10.5408
reactie	-10.5418
▁kandidaten	-10.542
▁periodiek	-10.542
▁verschijning	-10.542
▁verschijnen	-10.542
▁klinker	-10.5421
▁dertien	-10.5422
register	-10.5423
▁hop	-10.5426
syrische	-10.5429
▁cirkel	-10.543
staf	-10.543
pal	-10.5436
▁totdat	-10.5444
▁eenmaal	-10.5454
gegroeid	-10.5456
gezond	-10.5459
format	-10.546
bad	-10.5461
gevaar	-10.5462
gue	-10.5464
▁bevoegd	-10.5466
▁verbond	-10.5466
molecuul	-10.5468
▁vergeleken	-10.5468
▁vernietigd	-10.5468
▁athena	-10.5468
▁suiker	-10.5468
▁diamant	-10.5468
▁finland	-10.5468
▁variatie	-10.5468
▁beschrijven	-10.5476
zinnig	-10.5477
▁aldus	-10.5486
eenheden	-10.5497
zz	-10.5508
winning	-10.5513
▁context	-10.5515
▁daadwerkelijk	-10.5515
▁twijfel	-10.5515
▁krijt	-10.5516
▁vorige	-10.5516
▁verdacht	-10.5516
▁tijdperk	-10.5516
▁atoomnummer	-10.5516
▁gegaan	-10.5517
▁lidstaten	-10.5517
▁volume	-10.5518
▁monumenten	-10.552
▁flink	-10.5522
▁award	-10.5523
cker	-10.553
▁duurt	-10.5531
▁rob	-10.5531
ticus	-10.5534
▁draaien	-10.5538
▁tentoonstelling	-10.5538
▁belgisch	-10.5541
▁boer	-10.555
wind	-10.5554
opleiding	-10.5555
▁spring	-10.5556
▁regime	-10.5559
ical	-10.5559
▁formeel	-10.5564
▁aruba	-10.5564
▁culturen	-10.5565
▁royal	-10.5566
▁eisen	-10.5576
▁bezette	-10.5578
leving	-10.5581
broeder	-10.5582
▁bomen	-10.5583
▁effecten	-10.5584
▁nicolaas	-10.5584
ella	-10.5585
ianus	-10.5591
scholen	-10.5592
▁dateert	-10.5592
talige	-10.5595
stoel	-10.5596
samen	-10.5596
▁noordoosten	-10.5601
▁bewoond	-10.5612
▁uniek	-10.5613
▁elektromagnet	-10.5614
▁wettelijk	-10.5615
vervoer	-10.5622
gebouwd	-10.5624
▁filips	-10.564
▁gestuurd	-10.5641
▁zeus	-10.5644
zag	-10.5647
word	-10.5649
bataljon	-10.566
▁muzikal	-10.566
tunnel	-10.566
▁visie	-10.5663
akte	-10.5671
roman	-10.5678
▁hypothese	-10.5683
vliegtuig	-10.5691
frans	-10.5694
mir	-10.5697
▁musical	-10.5698
▁factor	-10.5707
structure	-10.5707
▁geneeskunde	-10.5708
▁odysseus	-10.5708
▁verwijzing	-10.5708
fragment	-10.5708
▁ottomaans	-10.5708
▁prince	-10.5708
balkenende	-10.5708
▁selectie	-10.5708
schijf	-10.571
▁houten	-10.5711
▁socialistische	-10.5712
regio	-10.5715
▁wapens	-10.5715
▁tand	-10.5717
▁modellen	-10.5718
▁helpen	-10.5723
▁index	-10.5723
agent	-10.5726
▁tv	-10.5729
▁ingesteld	-10.5729
▁chan	-10.5733
▁anne	-10.5744
spreken	-10.5745
▁uitmaakt	-10.5748
▁sloeg	-10.5751
▁wetgeving	-10.5757
▁treedt	-10.5757
▁vluchtelingen	-10.5757
▁speelden	-10.5768
▁1914	-10.5771
▁veer	-10.5775
wijzen	-10.5776
▁warmond	-10.5783
concert	-10.5786
▁armen	-10.5789
toernooi	-10.579
▁alternatieve	-10.5806
▁byzantijnse	-10.5806
▁parallel	-10.5806
▁schotland	-10.5806
▁invasie	-10.5806
▁aldaar	-10.5807
▁spaans	-10.5811
tekst	-10.5811
▁heette	-10.5811
▁staart	-10.5814
▁toegeschreven	-10.5814
heem	-10.5819
▁aanzien	-10.583
▁vaar	-10.5831
▁zocht	-10.5831
▁voc	-10.5836
▁duizend	-10.5841
vermogen	-10.5842
▁wereldwijde	-10.5843
hongaars	-10.585
spectrum	-10.5855
▁alcohol	-10.5855
▁fysiek	-10.5855
▁geïnspireerd	-10.5855
▁herhaald	-10.5855
hoofdzakelijk	-10.5855
▁beschreef	-10.5861
▁zelfstandige	-10.5862
▁300	-10.5872
▁150	-10.5876
▁eventue	-10.5878
▁lind	-10.5879
▁gevraagd	-10.5894
grafisch	-10.5895
▁bedrijfs	-10.5895
▁koninklijk	-10.5899
▁nobelprijs	-10.5905
▁symbolen	-10.5905
therapie	-10.5905
▁etnische	-10.5905
▁verandert	-10.5905
▁mannelijke	-10.5905
▁stichtte	-10.5905
trop	-10.5905
▁inheemse	-10.5906
ada	-10.591
▁oppositie	-10.5914
stenen	-10.5917
schepen	-10.5917
▁veiligheids	-10.593
▁wis	-10.5931
▁burgerlijk	-10.5943
▁geb	-10.5946
▁inderdaad	-10.5955
▁figuur	-10.5955
▁reizen	-10.5955
▁inkomsten	-10.5961
lau	-10.5963
▁duiden	-10.5964
▁1919	-10.5968
▁gevangenis	-10.5973
▁oostzee	-10.5974
▁zuidoosten	-10.5975
▁aspecten	-10.5978
▁gepaard	-10.5982
▁race	-10.5995
lach	-10.6
▁gespecialiseerd	-10.6005
▁münchen	-10.6005
▁bevoegdheden	-10.6007
▁verleend	-10.6012
▁keizerrijk	-10.6013
▁weergegeven	-10.6015
▁simon	-10.6019
warm	-10.602
▁stabiele	-10.6031
▁bou	-10.6032
▁genre	-10.6033
▁sco	-10.6039
kruis	-10.6042
hoor	-10.6045
▁rekenen	-10.6048
zar	-10.605
korps	-10.6052
▁columbus	-10.6055
▁stravinsky	-10.6055
▁continu	-10.6055
▁bezienswaardig	-10.6055
▁veertien	-10.6055
lé	-10.6061
▁juliana	-10.6061
byte	-10.6061
▁ierse	-10.6065
▁document	-10.6088
▁plato	-10.6091
▁technieken	-10.6097
▁gebruikers	-10.6098
▁aanwijzingen	-10.6099
gracht	-10.6102
foon	-10.6105
▁beschaving	-10.6105
▁halveringstijd	-10.6105
▁scheikundig	-10.6105
▁stoppen	-10.6105
▁interesse	-10.6106
bru	-10.6107
3)	-10.6109
roll	-10.611
▁virussen	-10.6112
▁golven	-10.6112
▁toestemming	-10.6113
▁genetische	-10.6123
▁opvatting	-10.6125
pact	-10.6127
stam	-10.6127
▁marine	-10.6129
raam	-10.6131
▁stadion	-10.6133
pil	-10.614
▁kunstenaar	-10.6144
▁zone	-10.6145
foto	-10.6146
▁mannetje	-10.6146
▁aanhang	-10.6146
▁zuidwesten	-10.6153
factor	-10.6153
golf	-10.6154
▁variëren	-10.6156
federatie	-10.6156
▁organisch	-10.6156
▁correct	-10.6157
▁aardgas	-10.616
▁liber	-10.6165
bom	-10.6169
▁straal	-10.6176
▁woonden	-10.6179
sluis	-10.6182
▁kwestie	-10.6188
▁ruil	-10.619
persoon	-10.6202
▁max	-10.6203
▁krim	-10.6209
reeks	-10.6222
▁love	-10.6227
team	-10.6229
class	-10.6233
week	-10.6242
▁bescherm	-10.6243
ford	-10.6249
▁toont	-10.625
commissie	-10.6256
▁aardbeving	-10.6258
▁auschwitz	-10.6258
▁constantinopel	-10.6258
▁gemengd	-10.6258
▁pruisen	-10.6258
veilig	-10.6259
bewust	-10.626
▁staatshoofd	-10.6261
▁redelijk	-10.6261
▁advies	-10.6262
▁1962	-10.6267
▁1953	-10.6268
▁1961	-10.6268
geboren	-10.6269
▁sterven	-10.6273
▁kenmerkend	-10.6281
▁mus	-10.6282
="14	-10.6289
▁vestigden	-10.6291
▁bruin	-10.6293
▁wees	-10.6297
▁congo	-10.6301
▁noch	-10.6304
9%	-10.6308
▁mexico	-10.631
▁temperaturen	-10.631
▁gunstig	-10.631
▁brengt	-10.6311
▁hongaarse	-10.6315
ruis	-10.6316
▁werkelijk	-10.6317
▁aanhangers	-10.6317
▁kalk	-10.6318
blazen	-10.632
lecht	-10.6323
▁geallieerde	-10.6327
▁fossiele	-10.6328
▁leefde	-10.6329
▁trap	-10.6337
moeder	-10.6353
▁stabiel	-10.6358
▁instituut	-10.636
telescoop	-10.6362
▁millennium	-10.6362
▁vrijwillig	-10.6362
▁geïsoleerd	-10.6362
▁verzameld	-10.6362
▁website	-10.6362
▁nijl	-10.6362
▁bedoeling	-10.6362
▁priemgetallen	-10.6365
▁bod	-10.6378
protocol	-10.638
▁dingen	-10.638
▁adam	-10.6383
▁neus	-10.6388
▁bibliotheek	-10.6391
▁cast	-10.6394
box	-10.6399
▁seksuele	-10.6402
teelt	-10.6405
▁cultureel	-10.6414
▁pierre	-10.6414
▁pijl	-10.6415
▁academie	-10.6417
▁1946	-10.6423
▁koor	-10.6428
▁binnenland	-10.6429
▁grondslag	-10.6431
grieks	-10.6435
▁opzicht	-10.6448
elect	-10.6454
boven	-10.6457
▁ervaren	-10.6459
▁weet	-10.6463
well	-10.6465
▁gecombineerd	-10.6466
▁poëzie	-10.6466
vaccin	-10.6466
▁plaatsvinden	-10.6466
▁veertig	-10.6467
▁zenuw	-10.6468
▁drama	-10.647
gebergte	-10.647
▁zesde	-10.6473
▁bood	-10.6477
▁helium	-10.6478
gelegen	-10.6504
▁betalen	-10.6512
ition	-10.6513
▁kranten	-10.6518
▁negatief	-10.6519
▁percentage	-10.6519
▁langdurig	-10.6519
▁groenlinks	-10.6519
▁waarnemer	-10.6519
▁vertoont	-10.6519
romeinse	-10.6522
▁verwerkt	-10.6522
▁1936	-10.6529
▁1963	-10.6529
democra	-10.6541
▁dichtheid	-10.6542
wich	-10.6544
▁hond	-10.6545
▁bossen	-10.6549
verbinding	-10.6552
▁leed	-10.6554
▁tweemaal	-10.6557
▁verdween	-10.6572
ön	-10.6572
▁geloven	-10.6573
rry	-10.6573
heffing	-10.6574
▁vertonen	-10.6575
▁contra	-10.6575
▁mannetjes	-10.6582
rich	-10.6585
varia	-10.6589
gesproken	-10.6602
koning	-10.6604
▁bay	-10.6608
▁patiënten	-10.6616
schrijver	-10.6618
slowakije	-10.6625
▁argument	-10.6625
▁ballingschap	-10.6625
▁veelvuldig	-10.6625
▁verjaardag	-10.6625
▁prominent	-10.6625
spannen	-10.6627
▁alsmede	-10.6627
star	-10.6629
▁henri	-10.6633
▁city	-10.6636
▁noordwesten	-10.6637
gehalte	-10.664
▁1966	-10.664
▁xii	-10.6643
kru	-10.6645
▁fijn	-10.6646
planten	-10.6655
volle	-10.6657
▁waarnemingen	-10.6665
▁bijdrage	-10.6671
▁leerde	-10.6676
▁noorwegen	-10.6678
▁shakespeare	-10.6678
▁plaatsvond	-10.6679
nassau	-10.668
▁geliefd	-10.6684
▁voorganger	-10.6685
▁1947	-10.6689
▁jongere	-10.6689
▁hotel	-10.6689
▁kampioen	-10.669
▁historici	-10.6691
▁deense	-10.6697
▁bruggen	-10.67
afstand	-10.6701
▁hoofdrol	-10.6702
ares	-10.6702
▁dubbele	-10.6704
▁bonte	-10.6707
char	-10.671
olie	-10.6714
kampioenschap	-10.6716
iaal	-10.6724
aanval	-10.6729
▁centimeter	-10.6732
▁dordrecht	-10.6732
▁populariteit	-10.6732
▁zwolle	-10.6732
▁verbleef	-10.6732
▁stijgen	-10.6732
▁steeg	-10.6734
schaft	-10.6736
rou	-10.6739
▁mensenrechten	-10.6739
verandering	-10.6741
duin	-10.6743
spoor	-10.6747
▁stoom	-10.6747
▁vasteland	-10.675
▁standpunt	-10.6752
rink	-10.6756
gun	-10.6757
▁leefden	-10.6769
▁zover	-10.6776
▁hollandse	-10.6777
knop	-10.6783
▁onduidelijk	-10.6786
isotoop	-10.6786
▁proberen	-10.6786
▁keltische	-10.6787
vlinder	-10.6788
▁artiesten	-10.6789
▁telken	-10.6789
▁noors	-10.679
▁pascal	-10.6791
▁luchtmacht	-10.6792
▁overeenkomsten	-10.6792
▁kortrijk	-10.6793
▁eiwitten	-10.6795
▁1958	-10.6797
▁onderstaande	-10.6815
▁laagste	-10.6815
▁seconden	-10.6819
drager	-10.6828
social	-10.6829
▁afghanistan	-10.6841
▁uranium	-10.6841
seksueel	-10.6841
▁aandoening	-10.6842
▁breedte	-10.6844
▁onderlinge	-10.6846
▁1964	-10.6852
▁opmerkelijke	-10.6857
▁vestigde	-10.686
lik	-10.6874
▁vee	-10.6877
▁filosoof	-10.6895
gedreven	-10.6895
▁winschoten	-10.6896
▁duitstalige	-10.6896
▁1942	-10.6907
dir	-10.6907
▁onderneming	-10.6907
▁typische	-10.6909
án	-10.6919
▁methoden	-10.6932
getal	-10.6933
doende	-10.6939
▁afval	-10.694
▁spier	-10.6944
▁geschat	-10.6945
▁neutronen	-10.695
▁friedrich	-10.695
▁armoede	-10.695
▁talrijke	-10.695
▁opgelost	-10.6951
▁steenkool	-10.6952
▁zus	-10.6956
▁ernstig	-10.696
▁ertoe	-10.6961
▁stappen	-10.6961
▁samenhang	-10.6962
materiaal	-10.6965
▁echtgenote	-10.6968
pijp	-10.6969
▁amsterdamse	-10.6979
fla	-10.6982
schaal	-10.6984
▁wedero	-10.6984
▁rein	-10.6988
▁typisch	-10.6992
▁voorjaar	-10.6993
▁leo	-10.7
snede	-10.7003
▁franken	-10.7004
commissaris	-10.7005
▁conclusie	-10.7005
▁toegankelijk	-10.7005
▁collega	-10.7005
▁bisdom	-10.7006
▁streven	-10.7008
▁vergelijken	-10.7011
hop	-10.7012
▁neerslag	-10.7013
▁1956	-10.7015
▁herkomst	-10.7016
▁1933	-10.7016
▁lever	-10.7017
front	-10.7024
▁bord	-10.7028
▁pius	-10.7031
bogen	-10.7035
twee	-10.7038
under	-10.7039
hydr	-10.7049
adres	-10.7056
▁introduceerde	-10.7061
▁rembrandt	-10.7061
▁beperking	-10.7061
▁aangewezen	-10.7061
rechtvaardig	-10.7061
▁veroveren	-10.7063
▁athene	-10.7067
▁ijstijd	-10.7068
▁afscheid	-10.7071
▁theologie	-10.7078
▁zwak	-10.7083
▁daaruit	-10.7084
tram	-10.7091
▁dik	-10.7096
▁verschilt	-10.7103
ergens	-10.7106
▁machtig	-10.7109
metrie	-10.7115
▁interview	-10.7117
▁jupiter	-10.7117
▁oorzaken	-10.7117
▁vervaardigd	-10.7117
▁habsburg	-10.7117
▁mengsel	-10.7117
▁tikal	-10.7117
▁verkrijgen	-10.7117
▁overwegend	-10.7117
▁video	-10.7118
▁schilderkunst	-10.7119
▁vinger	-10.712
elaar	-10.7122
heilig	-10.7125
hin	-10.7128
▁proef	-10.7134
rijden	-10.7141
–19	-10.7149
oudgrieks	-10.7151
▁documenten	-10.7156
▁leerling	-10.7161
peil	-10.7164
gist	-10.717
▁aristoteles	-10.7173
▁justitie	-10.7173
▁verondersteld	-10.7173
▁moeite	-10.7173
▁essentie	-10.7173
▁fokker	-10.7173
streep	-10.7173
tegenwoordig	-10.7174
▁enorm	-10.7174
later	-10.7176
▁praktische	-10.7178
▁kalium	-10.7179
▁gematigd	-10.718
▁vondsten	-10.7181
▁binnenlandse	-10.7188
dict	-10.7188
beheer	-10.7197
▁bekendheid	-10.72
count	-10.7202
▁woningen	-10.7207
ky	-10.7208
brugge	-10.721
▁she	-10.7226
▁ziel	-10.7227
▁hindoe	-10.7229
▁aangeboden	-10.7229
▁octrooi	-10.7229
▁sneeuw	-10.7229
▁gewond	-10.723
▁vernieuwing	-10.723
▁verzorgd	-10.7234
▁1938	-10.7241
clus	-10.7249
lieve	-10.725
▁plekken	-10.7254
▁daaropvolgend	-10.7255
▁meende	-10.7268
uma	-10.727
fort	-10.727
centrale	-10.7272
technisch	-10.728
special	-10.7281
apparaat	-10.7286
▁ferdinand	-10.7286
▁hoogleraar	-10.7286
▁oekraïne	-10.7286
▁herdenking	-10.7286
▁reagan	-10.7286
▁leeft	-10.7288
▁zogenoemd	-10.7289
▁heelal	-10.729
▁lukte	-10.7292
▁ontbreken	-10.7295
▁werkzaam	-10.7299
▁afgelopen	-10.7301
▁paas	-10.7326
▁zuidoost	-10.733
▁system	-10.7341
▁bloot	-10.7342
▁wilhelm	-10.7343
▁strategisch	-10.7343
competitie	-10.7343
▁ondersteunen	-10.7343
▁getrouwd	-10.7345
▁hertogdom	-10.7345
▁mobiele	-10.7346
▁aangesloten	-10.7348
▁aangebracht	-10.7357
▁mega	-10.7368
lug	-10.7375
▁grammatica	-10.7401
european	-10.7401
▁talloze	-10.7402
ambacht	-10.7402
▁jodendom	-10.7405
▁angst	-10.7408
▁1959	-10.7412
▁1943	-10.7414
▁afgesloten	-10.7416
▁bevrijd	-10.7421
▁bill	-10.7423
▁verwijzen	-10.7425
blijven	-10.7429
natur	-10.7439
vormig	-10.7442
waai	-10.7448
▁ziekten	-10.7449
▁kg	-10.7451
▁infanterie	-10.7459
▁satelliet	-10.7459
▁gewijzigd	-10.7459
▁professionele	-10.7459
▁resolutie	-10.7459
▁spanjaarden	-10.7459
▁ondersteund	-10.7459
▁gelijknamig	-10.7459
▁diameter	-10.746
▁ruimtevaart	-10.7464
▁kijken	-10.747
▁brandstof	-10.7471
▁werkwoord	-10.7472
yan	-10.7489
▁vic	-10.7495
haus	-10.7499
schrijving	-10.7502
▁brits	-10.7511
rif	-10.7512
▁afrikaans	-10.7513
▁caligula	-10.7517
▁extreem	-10.7517
▁karakteristiek	-10.7517
▁koloniën	-10.7517
▁vaticaan	-10.7517
▁willekeurig	-10.7517
▁vergelijkbare	-10.7517
▁vloot	-10.7517
▁automatisch	-10.7517
▁gratis	-10.7517
▁sur	-10.7517
▁blijken	-10.7518
▁zonnestelsel	-10.7519
verhalen	-10.7519
bereik	-10.7519
▁franstalige	-10.752
▁hevig	-10.7524
democratisch	-10.7529
▁hiv	-10.7532
▁daartoe	-10.7533
▁verantwoord	-10.7534
light	-10.755
▁overgeleverd	-10.7553
modern	-10.7554
▁ambassade	-10.7575
▁huygens	-10.7575
▁immigranten	-10.7575
▁beethoven	-10.7575
▁samuel	-10.7575
▁voorlopig	-10.7575
▁departement	-10.7575
▁jozef	-10.7575
▁voelde	-10.7581
jarig	-10.7582
▁mtoe	-10.7592
oniem	-10.7594
uiven	-10.7596
50.000	-10.7599
▁hoeft	-10.7602
dubbel	-10.7605
gelopen	-10.7606
▁bijnaam	-10.761
▁heb	-10.7622
▁beatrix	-10.7634
▁filosofische	-10.7635
▁kondigde	-10.7636
▁weleens	-10.7636
eugen	-10.7652
▁kerkelijke	-10.7662
sector	-10.7663
bracht	-10.7668
▁venlo	-10.767
▁voorwaarden	-10.767
bevolking	-10.7671
rug	-10.7676
▁tropische	-10.7688
daagse	-10.7693
sondanks	-10.7693
▁medaille	-10.7693
▁grootschalige	-10.7693
▁oneindig	-10.7693
▁verbranding	-10.7694
▁besmet	-10.7694
ministr	-10.7695
trok	-10.7695
_3	-10.7696
▁heerst	-10.7697
▁gerard	-10.7698
▁angeles	-10.7699
▁jung	-10.7702
▁ontmoeting	-10.7704
▁1951	-10.7704
strook	-10.7705
▁overleven	-10.7714
rail	-10.7718
court	-10.7718
▁feestdag	-10.7723
maak	-10.7725
roy	-10.7744
▁cult	-10.7744
▁noordwest	-10.7746
▁bedreiging	-10.7753
▁overgebleven	-10.7753
▁plotseling	-10.7753
▁sprekers	-10.7753
▁rechtbank	-10.7756
snel	-10.7762
▁versloeg	-10.7765
▁evenwel	-10.7777
▁pand	-10.7778
tioneel	-10.778
▁voldoen	-10.7781
▁steken	-10.7782
▁zwakke	-10.7799
▁thor	-10.7799
▁uitgeroepen	-10.78
▁staal	-10.7804
bot	-10.7811
▁schilderij	-10.7812
▁platteland	-10.7813
▁vestigen	-10.7813
▁gesteund	-10.7813
▁beschouwen	-10.7813
▁thi	-10.7816
▁kruistocht	-10.7816
▁voortgezet	-10.7819
▁verwachting	-10.7821
▁verkiezings	-10.7823
▁getijden	-10.7824
zaak	-10.7828
▁zingen	-10.7828
houdende	-10.7836
wetenschap	-10.7842
hall	-10.7843
wijn	-10.785
▁bevrijding	-10.7854
▁critici	-10.7873
▁passagiers	-10.7873
▁prestatie	-10.7873
▁overtuigd	-10.7877
atoom	-10.7877
▁bezat	-10.7877
▁schakel	-10.7882
schip	-10.7883
▁1954	-10.7884
medewerker	-10.7886
▁detail	-10.7888
troepen	-10.79
▁heide	-10.7902
▁wijd	-10.7905
verklaring	-10.7916
▁cer	-10.7916
elektro	-10.7917
fried	-10.7917
▁origin	-10.7929
▁symptomen	-10.7934
▁migratie	-10.7934
▁beloofd	-10.7934
▁roermond	-10.7934
▁verdedigen	-10.7934
▁simpel	-10.7934
evangeli	-10.7934
▁verlichting	-10.7934
▁bleken	-10.7934
▁boodschap	-10.7937
▁secretaris	-10.7937
▁fal	-10.794
▁kunstmatig	-10.794
vangst	-10.7942
verhaal	-10.7943
▁resulteerde	-10.7944
▁1952	-10.7944
vast	-10.7947
▁gemeenschappen	-10.7949
▁zink	-10.7952
▁oefen	-10.7963
▁anno	-10.7965
economie	-10.7978
▁probeer	-10.7984
▁omloop	-10.7988
▁reed	-10.7991
▁amersfoort	-10.7995
▁koloniale	-10.7995
▁washington	-10.7995
▁verminderd	-10.7995
▁herkennen	-10.7995
▁primair	-10.7995
▁viool	-10.7997
▁hieruit	-10.8003
▁1934	-10.8006
▁lucas	-10.8007
▁herstellen	-10.8016
▁bevatte	-10.8019
▁zwem	-10.8019
zand	-10.802
▁vergroot	-10.8021
▁hoort	-10.8036
▁recent	-10.8037
esturingssysteem	-10.8056
▁halverwege	-10.8056
▁onvoldoende	-10.8056
▁varieert	-10.8056
▁ingrijpen	-10.8056
▁betrof	-10.8056
gestemd	-10.8057
▁voorafgaand	-10.8057
café	-10.8058
face	-10.8062
held	-10.8066
▁begrippen	-10.8068
▁pomp	-10.8071
▁gemeentelijk	-10.8077
▁bang	-10.8081
▁jarenlang	-10.8089
▁waarnemen	-10.8095
▁voorwaarde	-10.8101
–1	-10.8103
▁stamt	-10.8108
▁kleinste	-10.8109
stoten	-10.8115
▁expeditie	-10.8118
▁galilei	-10.8118
▁himmler	-10.8118
▁particulier	-10.8118
▁verdwijnen	-10.8118
▁beatles	-10.8118
▁profeet	-10.8118
▁vertrouwen	-10.8118
▁gesprek	-10.8118
geeft	-10.8119
▁elite	-10.812
▁doop	-10.8122
lessen	-10.8122
▁hyper	-10.8124
▁artis	-10.8125
ary	-10.8129
orkest	-10.8131
institut	-10.8135
▁chili	-10.8141
fractie	-10.8145
▁geacht	-10.8156
geslacht	-10.8162
▁stadium	-10.8163
▁voorbereiding	-10.8165
klassieke	-10.8168
▁achtste	-10.8177
▁ballet	-10.8178
▁schadelijk	-10.8179
▁aluminium	-10.818
▁scheepvaart	-10.818
fabrikant	-10.818
▁natrium	-10.818
opbrengst	-10.8184
▁jury	-10.8188
▁neef	-10.8195
▁mythen	-10.8226
▁verslag	-10.8229
▁radi	-10.823
universiteit	-10.8232
▁stor	-10.8236
▁omhoog	-10.8238
▁beslissen	-10.8242
▁himalaya	-10.8242
licentie	-10.8243
▁oftewel	-10.8243
▁estland	-10.8243
▁getuigen	-10.8243
▁experimenten	-10.8248
▁gepland	-10.8253
▁1922	-10.8255
▁1955	-10.8255
▁graag	-10.8263
▁seconde	-10.8273
maatschappelijke	-10.8286
▁cra	-10.8287
onderwijs	-10.8296
golven	-10.8296
moedig	-10.8299
frequent	-10.8305
▁efficiënt	-10.8305
▁soeverein	-10.8305
▁niemand	-10.8305
biljet	-10.8305
▁amstel	-10.8312
examen	-10.8313
ïsche	-10.8315
▁fruit	-10.8317
▁orgaan	-10.8319
▁toestel	-10.8324
▁taalkundig	-10.833
▁toename	-10.8334
scheiding	-10.8342
▁hoofdstuk	-10.8343
▁10.000	-10.8358
▁revolutionair	-10.8364
#	-10.8368
▁calcium	-10.8368
american	-10.8368
▁wijst	-10.8369
▁1937	-10.838
▁1929	-10.8381
▁meervoud	-10.8382
▁typen	-10.8384
▁keizerlijke	-10.8385
▁filip	-10.8398
▁conservatieve	-10.84
▁naakt	-10.8409
100	-10.8421
spring	-10.8426
▁longkanker	-10.8432
▁palestina	-10.8432
▁zaterdag	-10.8432
▁apollo	-10.8432
boerderij	-10.8432
▁complete	-10.8433
quin	-10.8439
▁wandel	-10.844
▁dru	-10.8445
singel	-10.8453
▁moslim	-10.8456
▁fossielen	-10.8477
▁brigade	-10.8496
▁laboratorium	-10.8496
▁organiseerde	-10.8496
gezelschap	-10.8497
gewassen	-10.8497
student	-10.8498
▁opmars	-10.8505
▁groeiende	-10.8509
▁lens	-10.8515
▁general	-10.852
▁lees	-10.8548
▁cit	-10.8555
▁lastig	-10.8557
lengte	-10.856
circuit	-10.8561
▁gehaald	-10.8561
▁wagner	-10.8561
lidmaatschap	-10.8561
▁aanpassing	-10.8561
▁catalaans	-10.8561
▁intellectuele	-10.8561
trompet	-10.8562
koreaanse	-10.8563
▁divisie	-10.8564
▁schol	-10.8571
▁breder	-10.8572
▁auteursrecht	-10.8573
▁raakten	-10.8576
▁1965	-10.8576
krijg	-10.8581
mei	-10.8599
▁afgezet	-10.8616
misbruik	-10.8626
▁symbolisch	-10.8626
▁vrees	-10.8627
▁hoorde	-10.8631
schuld	-10.8635
▁medium	-10.8638
▁1928	-10.8638
icum	-10.8646
▁zeventiende	-10.8647
▁cup	-10.865
legging	-10.8652
jager	-10.866
▁villa	-10.8664
▁duik	-10.8684
component	-10.8688
equivalent	-10.8691
▁organiseren	-10.8691
▁plaatsgevonden	-10.8691
▁recreatie	-10.8691
▁wimbledon	-10.8691
▁kepler	-10.8691
▁harmonie	-10.8691
▁gegeten	-10.8692
▁systematisch	-10.8693
minister	-10.8693
twintig	-10.8693
▁meetkunde	-10.8693
▁laser	-10.8695
▁chu	-10.8697
feld	-10.8697
▁amerikaans	-10.8702
▁hierover	-10.8722
bach	-10.8727
eventuele	-10.873
vlak	-10.8754
bombardement	-10.8757
impressionisme	-10.8757
▁lijsttrekker	-10.8757
▁uitspraken	-10.8757
▁geheugen	-10.8757
▁mechelen	-10.8757
▁montreal	-10.8757
stoornis	-10.8757
▁communisme	-10.8757
▁michel	-10.8757
▁dwars	-10.8758
▁oscar	-10.8759
problemen	-10.876
klimaat	-10.876
regering	-10.8761
▁semi	-10.8764
limburg	-10.8764
niettemin	-10.8764
geert	-10.8775
▁wieler	-10.8778
▁horus	-10.8784
▁ernst	-10.8802
▁snavel	-10.8823
▁meningitis	-10.8823
▁aardappel	-10.8825
▁evenementen	-10.8827
▁voert	-10.883
mund	-10.8862
illy	-10.8869
schillen	-10.8875
▁eiwit	-10.888
▁boudewijn	-10.889
▁gereformeerde	-10.889
▁verbeteren	-10.889
▁berekend	-10.889
▁signaal	-10.889
▁abba	-10.8896
festival	-10.8897
hertog	-10.89
▁speer	-10.8901
evenement	-10.8903
▁stadhouder	-10.8912
▁bewezen	-10.8915
▁ritme	-10.8919
▁regent	-10.892
arium	-10.8932
▁vakgebied	-10.8936
ontwikkeling	-10.8956
▁toneelstuk	-10.8956
▁filosofen	-10.8957
▁comité	-10.8957
▁slavische	-10.8957
▁andré	-10.896
▁levensloop	-10.8962
▁deelname	-10.8962
▁black	-10.8964
literatuur	-10.8966
▁dagblad	-10.8967
▁omroep	-10.8985
zur	-10.8985
▁graan	-10.8995
horst	-10.9001
▁eigenschap	-10.9006
lijm	-10.9017
slot	-10.9022
▁inspiratie	-10.9024
▁deelnemers	-10.9024
▁gekoppeld	-10.9024
▁league	-10.9024
commandant	-10.9024
▁oordeel	-10.9025
▁uitgaven	-10.9025
reflect	-10.9026
▁etymologie	-10.9026
▁almere	-10.9026
▁geluk	-10.9026
▁kim	-10.9028
▁formatie	-10.9028
gli	-10.9031
▁tong	-10.9033
▁biologie	-10.9034
▁zangeres	-10.9042
▁1935	-10.9043
▁naamwoord	-10.9043
▁gru	-10.9045
wold	-10.9054
relatie	-10.9056
▁overlevering	-10.9057
▁roken	-10.906
vuur	-10.908
verschil	-10.9083
▁personages	-10.9092
▁verbindt	-10.9092
▁verschijnt	-10.9092
▁amateur	-10.9092
▁drenthe	-10.9093
▁beslist	-10.9093
constante	-10.9095
▁kunstschilder	-10.9098
▁1957	-10.9105
vlaams	-10.9105
gevoelig	-10.9105
▁1924	-10.9107
klep	-10.9117
▁blanke	-10.9122
▁1848	-10.9132
▁oostelijk	-10.9152
▁mensheid	-10.9154
▁dol	-10.9155
▁financieel	-10.9161
▁hezbollah	-10.9161
▁leibniz	-10.9161
▁reageren	-10.9161
▁hooft	-10.9161
▁stevig	-10.9162
▁claus	-10.9162
▁goddelijke	-10.9162
▁nationaliteit	-10.9166
▁nicol	-10.9169
▁gedeeld	-10.917
ijver	-10.9171
▁zuidwest	-10.9173
▁cyclo	-10.918
▁100.000	-10.9182
▁relatieve	-10.9189
▁schaak	-10.9199
▁dekker	-10.9202
▁passie	-10.9214
▁250	-10.9221
verschuiving	-10.923
▁geassocieerd	-10.923
▁kennedy	-10.923
▁lubbers	-10.923
▁verbetering	-10.923
▁vernietigen	-10.923
▁ochtend	-10.923
▁allereerst	-10.923
▁farao	-10.923
▁incident	-10.923
schaduw	-10.9231
▁structuren	-10.9231
biliteit	-10.9233
gordel	-10.9233
▁startte	-10.9233
▁districten	-10.9236
▁kwaad	-10.9237
uiteraard	-10.9241
vraag	-10.9242
▁1927	-10.9243
▁1923	-10.9243
▁christelijk	-10.9245
▁1921	-10.9246
▁zwaarder	-10.9253
▁behoud	-10.9257
▁straten	-10.9259
▁neuro	-10.9277
vergelijking	-10.9293
▁francis	-10.9297
voegsel	-10.9299
▁cavalerie	-10.9299
▁expliciet	-10.9299
▁oeuvre	-10.9299
▁palestijnse	-10.9299
▁referendum	-10.9299
▁zeldzaam	-10.9299
muzikant	-10.9299
▁gebeuren	-10.93
▁zuiderzee	-10.93
▁monetair	-10.93
pakket	-10.93
ontsteking	-10.93
▁luister	-10.93
▁central	-10.9302
seizoen	-10.9318
▁trachtte	-10.9318
avond	-10.9319
▁groenland	-10.9321
▁3000	-10.9323
▁definitieve	-10.9325
schoen	-10.9328
▁deelnemen	-10.9336
bloed	-10.934
▁daalde	-10.9341
orum	-10.9343
zanger	-10.9348
▁verslaan	-10.9356
2.000	-10.9365
▁alliantie	-10.9369
▁elizabeth	-10.9369
▁maurits	-10.9369
▁precieze	-10.9369
▁schizofrenie	-10.9369
restaurant	-10.9369
gekocht	-10.9369
▁verlengd	-10.9369
scène	-10.937
▁herfst	-10.937
moskee	-10.937
▁aids	-10.9371
▁toekomstige	-10.9377
vertegenwoordigd	-10.9381
moed	-10.9384
▁indianen	-10.9385
zuiver	-10.9385
▁middelbare	-10.9388
academi	-10.9392
buiten	-10.9394
alai	-10.9396
kritisch	-10.9413
▁beheerst	-10.9416
▁koppel	-10.9428
kast	-10.9433
▁rijst	-10.9439
vervuiling	-10.944
▁astronomisch	-10.944
▁logaritme	-10.944
▁verkreeg	-10.944
instructie	-10.944
▁externe	-10.944
▁ontleend	-10.9441
▁vld	-10.9442
▁omstreden	-10.9442
▁communisten	-10.9443
▁gevuld	-10.9446
chloride	-10.9453
▁peper	-10.9453
▁vandaar	-10.9454
▁toegenomen	-10.9457
grenzen	-10.9457
trap	-10.946
akkoord	-10.9462
college	-10.9462
wiens	-10.9471
▁terugkeren	-10.9474
▁reisde	-10.9475
▁zekerheid	-10.9476
town	-10.9482
▁klei	-10.9485
▁leon	-10.9487
▁etc	-10.9492
alistische	-10.9498
▁game	-10.9508
▁alternatief	-10.9511
▁kolonisten	-10.9511
▁toevoeging	-10.9511
▁abraham	-10.9511
▁osiris	-10.9511
algoritme	-10.9511
▁werknemers	-10.9511
vaarder	-10.9513
▁socialist	-10.9514
▁liedjes	-10.9516
▁evenaar	-10.9531
life	-10.9542
▁vertrokken	-10.9542
bronnen	-10.9546
binnen	-10.955
▁gassen	-10.9556
▁bijdragen	-10.9557
oire	-10.9564
comm	-10.9567
dronk	-10.9577
▁symfonie	-10.9582
geschakeld	-10.9582
▁bestuderen	-10.9582
▁nedersaksisch	-10.9582
▁ondersteuning	-10.9582
▁service	-10.9582
▁toxicologie	-10.9582
▁zwangerschap	-10.9582
▁begraafplaats	-10.9582
▁schepping	-10.9582
▁mineraal	-10.9582
▁grijs	-10.9583
maand	-10.9594
▁frankische	-10.9595
▁wolken	-10.9601
jood	-10.9603
▁jongste	-10.9604
▁alchemie	-10.9608
standaard	-10.9615
▁draad	-10.9617
wolk	-10.962
▁religieus	-10.9621
burcht	-10.9622
baai	-10.9632
▁1830	-10.964
still	-10.9645
▁fundamentele	-10.9654
▁introductie	-10.9654
▁nakomelingen	-10.9654
▁strategie	-10.9654
▁uitgereikt	-10.9654
▁grondlegger	-10.9654
▁jozua	-10.9654
▁toegewezen	-10.9654
▁scheeps	-10.9654
▁erfgoed	-10.9654
raketten	-10.9654
▁israëlieten	-10.9659
▁strafrecht	-10.9662
▁barok	-10.9664
blue	-10.9669
▁lezer	-10.9669
▁verwezen	-10.9691
▁deelstaat	-10.9692
ploeg	-10.9696
▁dikke	-10.9699
elektrisch	-10.9723
regisseur	-10.9726
▁esperanto	-10.9726
▁zutphen	-10.9726
▁infrastructuur	-10.9726
▁produceerde	-10.9726
▁florence	-10.9726
▁dwerg	-10.9727
bestrijding	-10.9731
▁bevolkingsgroep	-10.9733
gestoken	-10.9738
▁moeras	-10.9738
▁lezing	-10.974
product	-10.9748
▁handelingen	-10.9758
▁stukje	-10.976
▁organisme	-10.9765
▁nature	-10.9766
▁vroegste	-10.9772
▁vreemd	-10.9774
▁opmerkelijk	-10.9778
▁monarchie	-10.9787
▁vacuüm	-10.9799
petersburg	-10.98
▁voegde	-10.98
▁overeenstemming	-10.9801
▁componenten	-10.9803
▁gangbare	-10.9805
▁lichtsnelheid	-10.9806
▁protonen	-10.9807
▁zeeniveau	-10.9807
collect	-10.9808
winter	-10.9808
▁schedel	-10.9813
▁zeeuws	-10.9813
▁1932	-10.9815
▁toestellen	-10.9827
mutatie	-10.9829
bodem	-10.9833
order	-10.9836
▁westelijk	-10.9838
▁kwantum	-10.9841
verschillen	-10.9843
russisch	-10.9845
▁paleo	-10.9867
▁radioactieve	-10.9873
▁achterlijf	-10.9873
▁gehanteerd	-10.9873
▁psalm	-10.9873
▁alfred	-10.9873
▁pruisisch	-10.9873
▁vooruitgang	-10.9873
▁drank	-10.9874
▁methaan	-10.9875
▁rente	-10.9878
▁servië	-10.9878
▁besteed	-10.9888
▁enschede	-10.9889
asso	-10.989
oprichter	-10.9895
▁larven	-10.9896
illus	-10.9899
▁rassen	-10.9901
deutsch	-10.9911
board	-10.9918
▁haak	-10.9921
voorziening	-10.9944
nier	-10.9944
verduistering	-10.9947
▁christenunie	-10.9947
▁heerschappij	-10.9947
▁heinrich	-10.9947
▁vrijmetselarij	-10.9947
▁classificatie	-10.9947
songfestival	-10.9947
▁arafat	-10.9947
▁navolging	-10.9947
▁visserij	-10.9947
▁melodie	-10.9947
▁lokaal	-10.9947
▁smalle	-10.9949
▁texel	-10.995
▁legt	-10.9979
field	-10.9994
▁leeg	-10.9996
bedrijven	-10.9999
▁korter	-11.0001
trokken	-11.0003
▁clo	-11.0007
offensief	-11.0022
▁byzantium	-11.0022
▁indirect	-11.0022
▁ingewikkeld	-11.0022
▁hectare	-11.0022
▁astrologie	-11.0022
▁verwierf	-11.0022
▁middag	-11.0022
▁organen	-11.0022
▁vloeibaar	-11.0022
▁vikingen	-11.0022
▁leefgebied	-11.0023
▁isaac	-11.0023
▁pink	-11.0025
artiest	-11.003
▁verwantschap	-11.0032
▁verwond	-11.0032
agon	-11.0034
point	-11.0038
▁elementair	-11.0046
verzameling	-11.0062
zang	-11.0071
▁hess	-11.0078
▁meteor	-11.008
lust	-11.008
▁slachtoffer	-11.0082
▁fred	-11.0094
microscoop	-11.0097
▁bevorderen	-11.0097
▁portugese	-11.0097
nagenoeg	-11.0097
▁magnesium	-11.0097
▁achilles	-11.0097
▁versterking	-11.0097
▁verbinden	-11.0097
▁verzwakt	-11.0097
▁klm	-11.0097
▁training	-11.0098
▁lpf	-11.0098
▁betekenen	-11.0098
tempel	-11.0099
▁staatsgreep	-11.0099
klier	-11.0099
▁zwitserse	-11.0104
spreek	-11.0113
afhankelijk	-11.0135
▁voorbereid	-11.0136
stabiel	-11.014
▁huur	-11.0148
vrijheid	-11.0159
▁relativiteits	-11.0173
▁gezondheidszorg	-11.0173
▁gebleken	-11.0173
▁halfrond	-11.0173
▁leuven	-11.0173
verbruik	-11.0173
▁versterken	-11.0173
▁voegen	-11.0173
▁ideologie	-11.0174
ladder	-11.0174
artikel	-11.0188
▁waarneming	-11.02
waarschijnlijk	-11.0217
psycho	-11.022
document	-11.022
▁koud	-11.0225
▁pyr	-11.0228
▁stuw	-11.0229
▁vluchtte	-11.023
schieten	-11.0241
▁benoeming	-11.0249
▁beschikken	-11.0249
▁opeenvolgende	-11.0249
▁beweegt	-11.0249
▁gastheer	-11.0251
staatssecretaris	-11.0252
▁eeuwenlang	-11.0254
▁aanbod	-11.0255
▁blind	-11.0264
▁1916	-11.0268
▁jedi	-11.0276
overschot	-11.0286
recept	-11.0287
frankrijk	-11.0296
▁wim	-11.0298
afrikaanse	-11.0298
▁friese	-11.0306
defini	-11.0309
▁roos	-11.032
spits	-11.0321
▁concurrentie	-11.0326
▁society	-11.0326
▁taxonomie	-11.0326
▁uitzonderlijk	-11.0326
▁dimensie	-11.0326
▁reageert	-11.0326
installatie	-11.0326
▁entropie	-11.0326
▁vergroten	-11.0326
▁mosterd	-11.0326
▁beieren	-11.0328
▁maximale	-11.0329
formaat	-11.0329
▁perfect	-11.033
▁brood	-11.0332
▁thans	-11.0334
kampioenschappen	-11.0336
▁overleefd	-11.0336
▁ondertekend	-11.0337
▁bladeren	-11.0341
▁wachten	-11.0342
vision	-11.0344
gelegenheden	-11.0346
second	-11.0348
▁angel	-11.0353
▁noordoost	-11.0354
▁minderheden	-11.0357
▁afgenomen	-11.0366
record	-11.038
ologen	-11.038
▁onderscheiding	-11.0384
▁run	-11.0396
▁gebeurtenis	-11.0399
▁artillerie	-11.0403
▁politicus	-11.0403
▁vertelt	-11.0404
▁lijf	-11.0405
▁onrust	-11.0411
▁eiste	-11.0419
▁oudsh	-11.0424
▁darm	-11.0429
▁successen	-11.0437
bussen	-11.0439
carrière	-11.0455
▁free	-11.0456
▁textiel	-11.0462
afdeling	-11.0465
▁kromme	-11.0475
consumptie	-11.0482
langebaanschaats	-11.0482
▁creëren	-11.0482
▁enzovoort	-11.0482
▁jordaan	-11.0482
▁sediment	-11.0482
▁indonesië	-11.0482
gedraaid	-11.0482
▁studeren	-11.0482
▁eindigt	-11.0482
▁overgedragen	-11.0482
▁demografie	-11.0482
▁nabijgelegen	-11.0483
▁atoomkern	-11.0483
▁afgeschaft	-11.0483
▁echtgenoot	-11.0483
▁antropo	-11.0484
▁gerechtelijk	-11.0484
▁interactie	-11.0486
▁veldtocht	-11.0487
▁vierkante	-11.0489
▁theoretische	-11.0491
▁parlementaire	-11.0492
▁rotatie	-11.0494
▁gekend	-11.0508
plasma	-11.0509
balans	-11.0527
theater	-11.0537
▁wales	-11.0539
▁flora	-11.0553
▁cornelis	-11.056
▁geaccepteerd	-11.056
▁omschreven	-11.056
▁eduard	-11.056
▁intelligent	-11.056
▁respect	-11.056
▁dreigde	-11.056
▁naamgeving	-11.056
▁saddam	-11.056
druppel	-11.056
▁maleis	-11.0561
▁winterspelen	-11.0563
▁regeren	-11.0565
▁bewerkt	-11.0567
▁fictie	-11.0568
▁bouwwerken	-11.0569
▁dunne	-11.0571
▁wetboek	-11.0574
▁thora	-11.0591
▁martel	-11.0593
▁dominee	-11.0604
▁eigenaar	-11.0608
waaronder	-11.0626
▁helling	-11.0629
▁felle	-11.0638
apparatuur	-11.064
▁begrijpen	-11.064
▁statistiek	-11.064
▁parochie	-11.064
▁reputatie	-11.064
▁adolf	-11.064
▁gelderland	-11.064
▁beperken	-11.064
▁hydro	-11.0643
gepakt	-11.0644
▁tang	-11.0647
▁troje	-11.0663
▁hecht	-11.0665
▁1915	-11.0667
▁5000	-11.067
wetenschapper	-11.069
▁getij	-11.0702
deeltjes	-11.0707
gevoegd	-11.071
stralen	-11.0717
overgang	-11.0718
▁verworven	-11.072
ceremonie	-11.072
▁philipp	-11.072
▁academische	-11.072
▁collins	-11.072
▁toeristische	-11.072
▁vloeibare	-11.072
▁buurland	-11.072
versnelling	-11.072
▁turken	-11.0722
▁space	-11.0722
▁import	-11.0726
▁ozon	-11.0727
▁1908	-11.0731
▁1925	-11.074
nationalistische	-11.0744
work	-11.0745
▁sturen	-11.0745
uitzending	-11.0756
▁gooi	-11.076
▁pur	-11.0765
schrijven	-11.0767
begrip	-11.0782
storm	-11.0788
mix	-11.0791
rusland	-11.0798
configuratie	-11.08
▁bijbehorend	-11.08
▁catalonië	-11.08
▁hasselt	-11.08
▁heraclitus	-11.08
▁immigratie	-11.08
▁plaatsvindt	-11.08
▁zeldzame	-11.08
voertuigen	-11.08
▁hamlet	-11.08
▁merendeel	-11.08
▁experimentele	-11.0801
▁skelet	-11.0801
▁aardolie	-11.0802
▁iraanse	-11.0802
▁functioneren	-11.0802
▁aziatische	-11.0803
▁1905	-11.0811
▁elektronische	-11.0819
▁1912	-11.0823
▁berust	-11.0828
▁chemisch	-11.0839
stond	-11.0839
media	-11.084
computer	-11.0863
vergadering	-11.0865
latijn	-11.0866
▁priemgetal	-11.0877
▁financier	-11.0882
▁juridische	-11.0882
▁koolstofdioxide	-11.0882
▁litouwen	-11.0882
▁reguliere	-11.0882
▁unesco	-11.0882
▁wapenstilstand	-11.0882
▁ambitie	-11.0882
▁vracht	-11.0882
▁homoseksuele	-11.0882
▁bezittingen	-11.0882
▁claim	-11.0882
▁drugs	-11.0882
▁logica	-11.0882
▁meisjes	-11.0882
▁decimale	-11.0882
omtrent	-11.0883
▁gelre	-11.0886
▁samengevoegd	-11.0886
ïsme	-11.0888
▁hiertoe	-11.09
▁klassiek	-11.0902
meeuw	-11.0906
▁ontmoet	-11.0913
▁maxim	-11.0915
▁bestemming	-11.0917
▁toezicht	-11.0918
verkochte	-11.0928
ough	-11.093
▁erfelijk	-11.0931
worm	-11.0937
omstandigheden	-11.0949
▁oxidatie	-11.0951
▁financiën	-11.0964
▁impressionist	-11.0964
▁lichamelijk	-11.0964
▁pythagoras	-11.0964
▁madrid	-11.0964
▁minimaal	-11.0964
▁minuut	-11.0964
▁werkloosheid	-11.0964
▁langzamer	-11.0964
▁kafka	-11.0964
▁hazes	-11.0964
▁huisvest	-11.0964
▁radicale	-11.0964
▁protestanten	-11.0965
▁openlijk	-11.0969
verhouding	-11.0972
▁1931	-11.0976
▁moedertaal	-11.0978
rutte	-11.0979
▁unix	-11.0981
▁cello	-11.0987
▁coup	-11.0988
tenzij	-11.0996
haar	-11.0998
getallen	-11.1002
▁jura	-11.1004
▁wereldkampioen	-11.1009
▁parti	-11.1011
gigant	-11.1012
torium	-11.1016
concentratiekamp	-11.1016
belasting	-11.103
republiek	-11.1033
krans	-11.1044
▁beschadigd	-11.1046
▁verdreven	-11.1046
▁uiteenlopende	-11.1046
subsidie	-11.1046
▁evenredig	-11.1046
▁horeca	-11.1046
▁motorfiets	-11.1047
▁kwijt	-11.1047
▁smith	-11.1048
▁loopbaan	-11.1049
voogd	-11.1058
▁veldslag	-11.106
▁bekendgemaakt	-11.106
▁harry	-11.1062
▁hugo	-11.1062
▁rijkdom	-11.1067
▁1911	-11.1068
▁bronzen	-11.1069
mobilis	-11.1078
▁stapte	-11.108
continent	-11.1114
▁kocht	-11.1118
gerekend	-11.112
meestal	-11.112
▁raakt	-11.1125
georiënteerd	-11.113
membraan	-11.113
▁decennium	-11.113
▁geconcentreerd	-11.113
▁interessant	-11.113
▁vernietiging	-11.113
▁observa	-11.113
▁autonome	-11.113
▁overijssel	-11.113
▁arthur	-11.113
▁vermeende	-11.113
▁gustav	-11.113
ractievoorzitter	-11.1131
patronen	-11.1131
neming	-11.1132
reële	-11.1136
▁voorstander	-11.1136
3.000	-11.1146
▁canon	-11.1163
▁logo	-11.1173
poot	-11.1195
▁behaald	-11.1196
breking	-11.12
▁woede	-11.1201
nevel	-11.1206
producer	-11.1213
▁autonomie	-11.1214
▁diagnose	-11.1214
▁pakistan	-11.1214
▁thermodynamica	-11.1214
▁varkens	-11.1214
▁ontwierp	-11.1214
▁historicus	-11.1214
▁boeddhistische	-11.1214
▁mulisch	-11.1214
▁gelijktijdig	-11.1214
▁reuzen	-11.1214
science	-11.1214
▁reageerde	-11.1214
▁breidde	-11.1215
nitraat	-11.1218
▁bereikbaar	-11.1219
▁dirk	-11.1222
▁davis	-11.1223
▁toegelaten	-11.123
bah	-11.1232
tracht	-11.1255
▁socio	-11.1258
▁omringend	-11.1264
waag	-11.1278
blauw	-11.1297
▁begrafenis	-11.1298
▁executie	-11.1298
▁gearresteerd	-11.1298
▁geïnteresseerd	-11.1298
▁herinnering	-11.1298
▁hoofdstedelijk	-11.1298
▁kardinaal	-11.1298
▁venetië	-11.1298
▁gewenste	-11.1298
▁bemanning	-11.1299
▁rituele	-11.1299
▁uitstekend	-11.1299
segment	-11.1299
knoop	-11.13
▁verkopen	-11.13
▁regeerde	-11.1301
▁grondstoffen	-11.1306
▁1926	-11.1314
▁scoorde	-11.1325
▁besef	-11.1326
▁dergelijk	-11.1345
▁bour	-11.1347
▁carol	-11.1363
▁horizon	-11.1381
variëteit	-11.1384
▁spirituele	-11.1384
▁compleet	-11.1384
▁lennon	-11.1384
▁gepresenteerd	-11.1384
▁overtuiging	-11.1385
▁geladen	-11.1385
hexa	-11.1385
▁bondgenoten	-11.1386
affaire	-11.1387
socialisme	-11.1388
6.000	-11.1392
▁vriendschap	-11.1392
▁vernieuwd	-11.1394
pieters	-11.1395
▁proza	-11.1409
▁contrast	-11.1412
▁hypo	-11.1416
republikeinse	-11.1432
▁roger	-11.144
▁röntgen	-11.147
ademhaling	-11.147
▁aangevuld	-11.147
▁dikwijls	-11.147
▁inwonertal	-11.147
▁territorium	-11.147
▁dwong	-11.147
▁bescheiden	-11.147
▁bijeenkomst	-11.147
▁promotie	-11.147
▁ambtenaren	-11.147
▁dictator	-11.147
▁fauna	-11.147
vergroting	-11.147
▁afkorting	-11.147
▁synoniem	-11.1471
▁wilhelmina	-11.1471
sleep	-11.1473
▁hierboven	-11.1475
▁standbeeld	-11.1479
▁petro	-11.1498
down	-11.1501
masker	-11.153
▁overblijfsel	-11.1557
kwantummechanica	-11.1557
▁agglomeratie	-11.1557
▁argentinië	-11.1557
▁beschuldigd	-11.1557
▁canadese	-11.1557
▁linnaeus	-11.1557
▁reizigers	-11.1557
▁reptielen	-11.1557
▁socrates	-11.1557
▁ingenieur	-11.1557
niklaas	-11.1557
▁opgedeeld	-11.1557
▁verdedigd	-11.1557
▁podium	-11.1557
▁hippo	-11.1557
cilinder	-11.1557
▁letland	-11.1558
900	-11.156
▁maximum	-11.1561
▁beetje	-11.1561
gesneden	-11.1562
jong	-11.1563
▁lidwoord	-11.1563
▁robot	-11.1569
▁aqua	-11.1569
▁ideale	-11.1574
▁depressie	-11.1575
▁agressie	-11.1645
▁diplomatieke	-11.1645
▁sinterklaas	-11.1645
▁verwijderen	-11.1645
▁vulkanisch	-11.1645
▁scandinavië	-11.1645
▁scheikunde	-11.1645
▁verwarring	-11.1645
▁gerealiseerd	-11.1645
▁racisme	-11.1645
▁mandela	-11.1645
▁bewustzijn	-11.1646
griff	-11.1648
principe	-11.1648
▁slaap	-11.1651
▁bovenstaande	-11.1651
▁henry	-11.1664
regime	-11.1665
pont	-11.1666
gotisch	-11.1667
vergelijk	-11.1678
orthodox	-11.1691
atio	-11.1728
▁aminozuren	-11.1733
▁diabetes	-11.1733
▁fenomeen	-11.1733
▁mussolini	-11.1733
▁première	-11.1733
▁trabzon	-11.1733
▁artistieke	-11.1733
▁basketbal	-11.1733
▁politici	-11.1733
▁drinken	-11.1733
▁verborgen	-11.1734
▁fascist	-11.1734
▁voetbalclub	-11.1735
▁aardoppervlak	-11.1735
▁documentaire	-11.1736
▁romantiek	-11.1738
▁grijp	-11.174
▁maya	-11.1766
▁gewoonte	-11.1774
alhoe	-11.179
kruid	-11.1797
▁abstracte	-11.1822
▁advocaat	-11.1822
▁diversiteit	-11.1822
▁kilogram	-11.1822
▁primitieve	-11.1822
▁faculteit	-11.1822
▁werkgelegenheid	-11.1822
▁fysische	-11.1822
▁reformatie	-11.1822
nijverheid	-11.1823
sulfide	-11.1823
▁london	-11.1823
verschijnsel	-11.1824
▁afgewezen	-11.1825
▁huishoud	-11.1826
▁effectief	-11.1827
▁inzake	-11.1829
omgeving	-11.1831
▁vertoond	-11.1833
▁0,0	-11.1837
enkelspel	-11.1861
theoretisch	-11.1902
▁beëindigd	-11.1913
▁bourgondië	-11.1913
▁expansie	-11.1913
▁gecreëerd	-11.1913
▁gepleegd	-11.1913
▁gödel	-11.1913
▁teruggevonden	-11.1913
▁tsjecho	-11.1913
▁uitgangspunt	-11.1913
▁benadrukt	-11.1913
▁hadrianus	-11.1913
▁tabak	-11.1913
▁nuttig	-11.1913
epidemie	-11.1913
▁punk	-11.1913
provincia	-11.1913
▁stopte	-11.1921
▁dodelijk	-11.1923
vroeg	-11.1924
partner	-11.1928
poeder	-11.1932
▁maatschappelijk	-11.1939
▁stroomgebied	-11.1944
kosten	-11.1946
▁aspect	-11.1961
▁macro	-11.2
▁consumenten	-11.2003
▁gerelateerd	-11.2003
▁geïntegreerd	-11.2003
▁ludwig	-11.2003
▁ontsnappen	-11.2003
▁optreedt	-11.2003
▁poseidon	-11.2003
▁saturnus	-11.2003
▁sciencefiction	-11.2003
▁verklaart	-11.2003
▁verminderen	-11.2003
▁cauchy	-11.2003
▁sinaï	-11.2003
▁duivel	-11.2003
▁bolivia	-11.2004
▁hielp	-11.2004
▁gerucht	-11.2004
▁objectief	-11.2006
▁overtuigen	-11.2007
▁etappe	-11.2008
▁eitjes	-11.2008
gir	-11.201
▁taalfamilie	-11.2013
economisch	-11.2017
congres	-11.2017
italië	-11.2018
bloem	-11.2019
▁meldde	-11.2025
vlakken	-11.204
numeri	-11.2049
▁rotor	-11.2079
▁barcelona	-11.2095
▁goedgekeurd	-11.2095
▁kapitein	-11.2095
▁alexandrië	-11.2095
▁1904	-11.2095
▁pantser	-11.2095
▁vietnam	-11.2095
demonstratie	-11.2095
▁intensieve	-11.2095
▁getiteld	-11.2095
▁overstromingen	-11.2096
▁erkennen	-11.2096
▁leraar	-11.2097
▁gestegen	-11.2098
▁theodor	-11.2099
▁enigma	-11.21
▁antenne	-11.2104
▁sumer	-11.2114
formule	-11.2122
communist	-11.2124
▁score	-11.2136
ontwerp	-11.2136
▁gezonde	-11.2155
▁adria	-11.2167
▁institute	-11.2185
sloeg	-11.2187
▁geregistreerd	-11.2188
▁hollywood	-11.2188
▁spoedig	-11.2188
▁reclame	-11.2188
▁wetsvoorstel	-11.2188
▁eyck	-11.2188
▁geldig	-11.2188
▁gestart	-11.2188
▁petrus	-11.2189
▁gauss	-11.2189
▁engelstalige	-11.2191
▁adellijke	-11.2191
▁zwemmen	-11.2195
▁bbc	-11.2195
▁scheiden	-11.2196
geschenk	-11.2198
▁ruimtelijke	-11.22
ongeveer	-11.2207
variant	-11.2211
▁romeins	-11.2238
▁genetisch	-11.2251
▁nucle	-11.2279
eërs	-11.228
▁arabieren	-11.2281
▁fascisme	-11.2281
▁planetoïden	-11.2281
▁professor	-11.2281
▁sanskriet	-11.2281
▁wallonië	-11.2281
▁carnaval	-11.2281
▁berekenen	-11.2281
▁fosfor	-11.2281
management	-11.2281
exodus	-11.2282
▁sperma	-11.2282
▁stabiliteit	-11.2283
▁edward	-11.2283
momenteel	-11.2292
▁verbouwd	-11.2292
plooi	-11.2295
▁gereed	-11.2298
provincie	-11.2302
gewicht	-11.2303
instellingen	-11.2305
gewone	-11.2306
christelijke	-11.2308
▁hirs	-11.2319
▁kritische	-11.2324
werkzaamheden	-11.2369
▁amnesty	-11.2376
▁placebo	-11.2376
▁aartsbisschop	-11.2376
▁afwezigheid	-11.2376
▁gelanceerd	-11.2376
▁vermijden	-11.2376
▁volgelingen	-11.2376
▁mercurius	-11.2376
▁tijdstip	-11.2376
▁uitgeverij	-11.2376
uitbarsting	-11.2376
▁beslaat	-11.2377
▁getoond	-11.2377
▁hoofdkwartier	-11.2381
▁blues	-11.2381
▁balkan	-11.2382
pionier	-11.2386
▁kolom	-11.2391
bezit	-11.2399
▁arena	-11.2419
oefening	-11.2426
▁draag	-11.2444
achtereenvolgens	-11.2471
▁aardkorst	-11.2471
▁restauratie	-11.2471
▁rudolf	-11.2471
▁slovenië	-11.2471
▁supernova	-11.2471
▁uitgestrekt	-11.2471
columbia	-11.2471
▁gezongen	-11.2471
▁emotie	-11.2471
▁tasman	-11.2472
▁schonk	-11.2472
▁presenteerde	-11.2473
▁alchemist	-11.2474
▁stadsrechten	-11.2476
▁hervormd	-11.2476
specialist	-11.2479
▁audio	-11.248
▁beleefd	-11.2484
▁historie	-11.2487
chlor	-11.2503
schelde	-11.2507
▁anatolië	-11.2567
▁gestorven	-11.2567
▁sicilië	-11.2567
▁university	-11.2567
▁beoefend	-11.2567
sulfaat	-11.2567
▁assistent	-11.2567
▁toeschouwer	-11.2567
▁sprint	-11.2568
verhoging	-11.2569
▁geologische	-11.2569
▁behalen	-11.2569
▁lenzen	-11.2571
▁popmuziek	-11.2571
▁lineair	-11.2578
▁vervuld	-11.2584
geluid	-11.2599
▁afspraken	-11.2664
▁copernicus	-11.2664
▁katalysator	-11.2664
▁postzegel	-11.2664
▁onjuist	-11.2664
▁gecontroleerd	-11.2664
▁berucht	-11.2664
▁verticale	-11.2664
▁uitvinder	-11.2664
▁turner	-11.2665
▁vertellen	-11.2665
▁senator	-11.2665
▁maaltijd	-11.267
▁mijnbouw	-11.2671
▁ruiter	-11.2672
▁north	-11.2673
▁gebeurd	-11.268
software	-11.2697
▁joods	-11.2743
mill	-11.2744
▁axioma	-11.2762
▁budget	-11.2762
▁halfgeleider	-11.2762
▁opgewekt	-11.2762
▁invloedrijke	-11.2764
▁consul	-11.2764
▁roemeense	-11.2764
▁liever	-11.2765
▁diersoorten	-11.2766
▁realistisch	-11.2766
▁bacterie	-11.2767
▁huisarts	-11.2767
▁uyl	-11.2769
▁gallië	-11.2769
▁trend	-11.2773
object	-11.2797
gewisseld	-11.2798
constructie	-11.2798
vloer	-11.2799
gespeeld	-11.2802
breng	-11.2857
▁antarctica	-11.2861
▁claudius	-11.2861
▁heydrich	-11.2861
▁iraakse	-11.2861
▁manuscript	-11.2861
▁medeklinker	-11.2861
▁michaël	-11.2861
▁uitgevonden	-11.2861
▁voortzetting	-11.2861
▁vitamine	-11.2861
▁statistische	-11.2861
▁bohemen	-11.2861
basiliek	-11.2861
▁renners	-11.2861
obligatie	-11.2861
▁bridge	-11.2861
▁grotten	-11.2861
▁laurent	-11.2861
kazerne	-11.2862
▁bijgedragen	-11.2862
▁nucleaire	-11.2863
++	-11.2864
▁doodstraf	-11.2866
▁hanze	-11.2872
▁naald	-11.2875
geloof	-11.2883
soep	-11.2884
cross	-11.2887
traditie	-11.2897
gestuurd	-11.29
hebben	-11.2901
klooster	-11.2948
discriminatie	-11.2961
▁beeldhouwer	-11.2961
▁commercieel	-11.2961
▁criteria	-11.2961
▁silicium	-11.2961
▁universele	-11.2961
▁stierven	-11.2961
▁bondsrepubliek	-11.2961
▁waterschappen	-11.2961
▁haaien	-11.2962
▁overeenkomt	-11.2963
▁fermat	-11.2964
▁gibb	-11.2967
▁rebell	-11.2968
vreemde	-11.2969
▁hinder	-11.2971
▁dinosaur	-11.2976
religie	-11.3
▁omringd	-11.3044
▁gemeen	-11.3045
▁aangekondigd	-11.3062
▁hemellichamen	-11.3062
▁inwendige	-11.3062
▁tsjechië	-11.3062
▁opgemerkt	-11.3062
▁kapital	-11.3062
▁namibië	-11.3062
▁riemann	-11.3062
▁ontstane	-11.3062
▁eén	-11.3062
▁geslaagd	-11.3063
▁plateau	-11.3063
tamelijk	-11.3065
▁nepal	-11.3067
▁classic	-11.3068
▁sterrenbeeld	-11.3068
▁antieke	-11.3081
▁natural	-11.3087
eerbaar	-11.3095
4.000	-11.3119
▁geschied	-11.3136
▁hoeveel	-11.3156
aziatisch	-11.3161
▁bestudeert	-11.3164
▁gedetailleerd	-11.3164
▁hongaren	-11.3164
▁millimeter	-11.3164
▁onregelmatig	-11.3164
▁ooievaar	-11.3164
▁perspectief	-11.3164
▁referentie	-11.3164
crypto	-11.3164
▁eoceen	-11.3164
▁geformuleerd	-11.3164
▁meubel	-11.3164
▁linux	-11.3164
▁astrid	-11.3164
▁expressie	-11.3164
▁agrarisch	-11.3164
▁voorspellen	-11.3164
▁stevin	-11.3166
▁nigeria	-11.3166
silezië	-11.3166
▁octaaf	-11.3167
▁regiment	-11.3168
▁ouderdom	-11.3168
▁geschiedschrijv	-11.3193
metrische	-11.3205
dynastie	-11.3212
alexander	-11.3212
kabinet	-11.3212
natuurlijk	-11.3212
filosofie	-11.3212
schaats	-11.3216
operatie	-11.3219
▁vissers	-11.3231
scherp	-11.3243
fysiologie	-11.3267
▁administratieve	-11.3267
▁brouwerij	-11.3267
▁sweelinck	-11.3267
▁technologisch	-11.3267
▁dirigent	-11.3267
▁minimum	-11.3267
▁vakantie	-11.3267
▁snoek	-11.3267
▁genoteerd	-11.3267
▁gesloopt	-11.3267
▁gitaar	-11.3267
▁apostel	-11.3267
▁atelier	-11.3267
▁treffen	-11.3267
▁onverwacht	-11.3269
▁begrensd	-11.3269
▁gerrit	-11.3274
▁ibn	-11.3276
▁verdiend	-11.3295
contract	-11.3319
rapport	-11.3319
kwaliteit	-11.3321
▁steve	-11.3334
▁praktisch	-11.3362
▁medicijnen	-11.3371
fosfaat	-11.3371
▁dreiging	-11.3371
▁ronald	-11.3372
▁airport	-11.3372
▁verheven	-11.3372
▁uitsterven	-11.3372
▁hemellichaam	-11.3372
▁drastisch	-11.3372
▁honger	-11.3373
muizen	-11.3373
zucht	-11.3374
▁afwijkingen	-11.3374
struik	-11.3384
▁verouderd	-11.3385
tentoonstelling	-11.3426
paleis	-11.3427
▁voorspeld	-11.3449
▁ponti	-11.3455
8.000	-11.347
▁bioscoop	-11.3477
▁dokkum	-11.3477
▁propaganda	-11.3477
▁radioactief	-11.3477
▁dublin	-11.3477
▁normandië	-11.3477
▁romaanse	-11.3477
▁opvolging	-11.3477
▁regionaal	-11.3477
batterij	-11.3477
▁openbaring	-11.3477
▁veeteelt	-11.3477
▁heersende	-11.3477
▁röntgenstraling	-11.3477
▁ideologisch	-11.3478
▁volksrepubliek	-11.3478
▁besmetting	-11.348
studie	-11.3539
▁nsdap	-11.3583
apparaten	-11.3583
▁algerije	-11.3583
▁arriveerde	-11.3583
▁benodigde	-11.3583
▁bidsprinkhanen	-11.3583
▁eredivisie	-11.3583
▁exponent	-11.3583
▁hiërarchie	-11.3583
▁neutraal	-11.3583
▁ontvangt	-11.3583
▁uitgeoefend	-11.3583
▁geregeerd	-11.3583
▁maurice	-11.3583
▁weduwe	-11.3583
klarinet	-11.3583
▁belofte	-11.3583
▁codice	-11.3583
▁imago	-11.3583
▁verdrongen	-11.3584
piloot	-11.3584
▁tezamen	-11.3584
▁tevoren	-11.3587
▁rogge	-11.3596
sessie	-11.3601
bescherming	-11.3645
voorheen	-11.3645
vlees	-11.3645
dynamische	-11.3691
▁browser	-11.3691
▁controverse	-11.3691
▁gedomineerd	-11.3691
▁geprobeerd	-11.3691
▁pseudo	-11.3691
▁psychisch	-11.3691
▁videoclip	-11.3691
▁libanon	-11.3691
▁thailand	-11.3691
▁transistor	-11.3691
▁wetgevende	-11.3691
werkingsverband	-11.3691
glucos	-11.3691
▁beschouwt	-11.3691
▁bevolkingsgroei	-11.3691
▁aanraking	-11.3691
▁heftig	-11.3691
▁afgerond	-11.3692
▁blootstelling	-11.3693
▁ijskap	-11.3698
armeens	-11.3718
vragen	-11.3756
▁fluor	-11.3757
▁zeventien	-11.3764
▁toenmalig	-11.3785
▁aantrekkelijk	-11.3799
▁faeröer	-11.3799
▁foundation	-11.3799
▁galileo	-11.3799
▁kanaän	-11.3799
▁kaukasus	-11.3799
▁kroatië	-11.3799
▁ondergeschikt	-11.3799
▁stimuleren	-11.3799
▁vegetatie	-11.3799
▁vulkaan	-11.3799
▁hoessein	-11.3799
▁relevant	-11.3799
▁afzetting	-11.3799
▁actrice	-11.3799
▁sultan	-11.3799
▁perzië	-11.3799
▁stijgt	-11.3799
▁christian	-11.38
▁webpagina	-11.38
▁innovatie	-11.3801
▁rtl	-11.3801
▁opmerking	-11.3803
ondernemer	-11.3807
sgezind	-11.3812
condens	-11.382
▁octa	-11.3836
prijzen	-11.3859
kolonie	-11.3868
breek	-11.3904
bacteri	-11.3906
▁begroting	-11.3909
liefhebber	-11.3909
vrijmetselaar	-11.3909
▁bretagne	-11.3909
▁geïnterpreteerd	-11.3909
▁gyatso	-11.3909
▁luitenant	-11.3909
progress	-11.3909
▁chinezen	-11.3909
▁toevallig	-11.3909
▁soortgelijke	-11.3909
▁afmetingen	-11.3909
▁verbannen	-11.3909
▁sgp	-11.3909
▁kometen	-11.391
▁altaar	-11.391
▁bestemd	-11.3912
aangrenzende	-11.3918
▁sociaaldemocrat	-11.3951
▁republikein	-11.3958
architect	-11.3982
buurt	-11.3984
▁literair	-11.4008
▁bekritiseerd	-11.402
▁bulgarije	-11.402
▁reliëf	-11.402
▁slavernij	-11.402
▁bernhard	-11.402
barrière	-11.402
▁houston	-11.402
chirurg	-11.402
▁conventie	-11.402
▁oudenaarde	-11.402
▁mandaat	-11.4021
▁manager	-11.4021
▁herkenbaar	-11.4022
grijze	-11.4024
▁onderdrukt	-11.4026
▁versneld	-11.4026
▁folk	-11.403
▁nederduits	-11.4036
volgende	-11.4037
slagader	-11.404
controle	-11.4095
symbool	-11.4097
▁pensioen	-11.4133
homoseksualiteit	-11.4133
▁adviseur	-11.4133
▁expressionisme	-11.4133
▁verscheidenheid	-11.4133
▁wekelijks	-11.4133
fontein	-11.4133
snijden	-11.4133
▁behoorlijk	-11.4133
▁hardware	-11.4133
▁prehistorie	-11.4133
▁wraak	-11.4133
▁gestopt	-11.4133
▁schoot	-11.4133
▁dwingen	-11.4133
▁hindoeïsme	-11.4133
▁geboden	-11.4133
▁identiek	-11.4134
▁eems	-11.4134
▁voorspelling	-11.4134
▁betrouwbaar	-11.4134
▁bestrijden	-11.4135
▁cbs	-11.4137
erfelijke	-11.414
▁patent	-11.4158
quark	-11.4202
situatie	-11.4213
vijf	-11.4214
evolutionaire	-11.4226
argent	-11.423
▁greenpeace	-11.4246
▁produceert	-11.4246
▁soundtrack	-11.4246
▁spectaculair	-11.4246
▁wederzijds	-11.4246
matteüs	-11.4246
▁archeologen	-11.4246
▁vooraanstaande	-11.4246
▁verhogen	-11.4246
▁werkgevers	-11.4247
▁gedaald	-11.4247
▁zozeer	-11.4247
▁fruitvlieg	-11.4247
▁oplossen	-11.4247
▁trilling	-11.4247
▁bekeken	-11.4247
▁toonladder	-11.4247
▁patrick	-11.4247
▁filter	-11.4248
schuif	-11.4254
7.000	-11.426
▁stereo	-11.4274
▁larve	-11.4327
isotopen	-11.4331
▁bibliotheken	-11.4361
▁joegoslavië	-11.4361
▁kolonisatie	-11.4361
▁rutherford	-11.4361
▁supporters	-11.4361
▁ontbreekt	-11.4361
▁egyptenaren	-11.4361
▁geholpen	-11.4361
▁vervanging	-11.4361
▁klinkt	-11.4361
▁inflatie	-11.4361
▁duidt	-11.4361
▁nikkel	-11.4362
▁minimal	-11.4362
▁andrea	-11.4363
▁ideaal	-11.4365
▁bediend	-11.437
technologie	-11.445
revolutie	-11.445
▁bocht	-11.4454
frey	-11.4476
▁betrekkelijk	-11.4477
▁ethiopië	-11.4477
▁gebarentaal	-11.4477
▁gedoopt	-11.4477
▁genocide	-11.4477
▁jiddisch	-11.4477
▁kapitaal	-11.4477
▁kwalificatie	-11.4477
▁mesopotamië	-11.4477
▁tsjechische	-11.4477
▁uitoefenen	-11.4477
▁streefde	-11.4478
▁google	-11.4478
▁doesburg	-11.4478
▁ardennen	-11.4478
▁naargelang	-11.4478
▁asiel	-11.4478
▁wijsheid	-11.4478
▁reikt	-11.4496
▁noodzaak	-11.4518
heuvel	-11.457
cirkel	-11.457
micro	-11.4586
sorganen	-11.4587
vaardigheid	-11.4595
absorptie	-11.4595
detective	-11.4595
reglement	-11.4595
▁combineren	-11.4595
▁confrontatie	-11.4595
▁garnizoen	-11.4595
▁ijshockey	-11.4595
▁seculiere	-11.4595
▁tacitus	-11.4595
▁uitgenodigd	-11.4595
▁vulkanen	-11.4595
▁taliban	-11.4595
▁andorra	-11.4595
▁wijzigen	-11.4595
dimension	-11.4595
▁realiseren	-11.4595
▁erfenis	-11.4595
tapijt	-11.4595
▁naoorlogse	-11.4595
▁strijdkrachten	-11.4595
▁essay	-11.4595
interpreter	-11.4595
▁omvangrijke	-11.4596
▁maxwell	-11.4596
▁verdieping	-11.4596
▁stoffelijk	-11.4596
▁horizontale	-11.4599
episode	-11.46
locatie	-11.4698
schakeling	-11.4712
▁gesplitst	-11.4714
▁logistiek	-11.4714
▁olifanten	-11.4714
▁portugezen	-11.4714
▁pseudoniem	-11.4714
▁chinees	-11.4714
▁progressieve	-11.4714
▁ruwweg	-11.4714
▁vervullen	-11.4714
▁volwaardig	-11.4714
▁gelukkig	-11.4714
▁pleegde	-11.4715
▁vries	-11.4717
▁liefst	-11.4722
4,5	-11.4736
spreidingsgebied	-11.4782
sinds	-11.4818
verwant	-11.4825
▁scala	-11.483
▁afzonderlijk	-11.4832
afwijking	-11.4834
▁autosnelweg	-11.4835
▁bataafs	-11.4835
▁beschikbare	-11.4835
▁champions	-11.4835
▁consensus	-11.4835
▁enthousiast	-11.4835
▁giovanni	-11.4835
▁python	-11.4835
▁roosevelt	-11.4835
▁universum	-11.4835
▁bachelor	-11.4835
▁materiële	-11.4835
▁coureur	-11.4835
▁stephen	-11.4835
▁tienduizenden	-11.4835
▁componeerde	-11.4835
▁primaten	-11.4835
▁celsius	-11.4835
▁aanmerking	-11.4835
▁japanners	-11.4835
▁bedevaart	-11.4835
▁street	-11.4835
▁bewering	-11.4838
koppeling	-11.4876
active	-11.4889
osaurus	-11.4955
▁warschau	-11.4957
▁afstammeling	-11.4957
▁boeddha	-11.4957
▁leipzig	-11.4957
▁spontaan	-11.4957
▁schimmels	-11.4957
▁intensiteit	-11.4957
▁ongebruikelijk	-11.4957
▁theologische	-11.4957
▁gezorgd	-11.4957
guyana	-11.4957
▁synode	-11.4957
▁ernest	-11.4969
▁hoefde	-11.5022
osauria	-11.5062
▁communi	-11.5063
praktijk	-11.5067
secretari	-11.5068
campagne	-11.5069
▁infrarood	-11.508
katholicisme	-11.508
▁batavia	-11.508
▁italianen	-11.508
▁omgevormd	-11.508
▁sittard	-11.508
▁synagoge	-11.508
▁alvorens	-11.508
▁hindenburg	-11.508
▁opleveren	-11.508
▁verwerven	-11.508
▁update	-11.508
▁white	-11.508
▁orakel	-11.508
▁preventie	-11.5081
▁kelvin	-11.5081
▁publiceren	-11.5081
▁herkend	-11.511
expert	-11.5151
nationaal	-11.5195
brussel	-11.5195
keizer	-11.5196
chromosoom	-11.5205
▁cambridge	-11.5205
▁exemplaar	-11.5205
▁significant	-11.5205
▁zeppelin	-11.5205
▁annexatie	-11.5205
▁hoofdkantoor	-11.5205
▁manchester	-11.5205
▁harrison	-11.5205
▁oxford	-11.5205
drempel	-11.5205
▁evenveel	-11.5205
volleybal	-11.5205
▁waits	-11.5206
▁demografische	-11.5206
▁constitutione	-11.5207
▁dvd	-11.5207
▁klinisch	-11.5208
▁resterend	-11.5216
▁vertrouwd	-11.5218
▁verlaagd	-11.5218
▁daniel	-11.5237
gedeelte	-11.5331
▁absoluut	-11.5332
▁benoemen	-11.5332
▁beschuldiging	-11.5332
▁bonaparte	-11.5332
▁dictatuur	-11.5332
▁dionysos	-11.5332
▁illustratie	-11.5332
▁neptunus	-11.5332
▁palestijnen	-11.5332
geworpen	-11.5332
▁atletiek	-11.5332
▁attractie	-11.5332
▁eenduidig	-11.5332
▁earring	-11.5332
▁hobby	-11.5332
▁vreemdelingen	-11.5332
▁krediet	-11.5332
jesaja	-11.5332
boezem	-11.5332
pommeren	-11.5334
▁welvarend	-11.5337
▁geschilderd	-11.5338
▁bezorgd	-11.5339
▁hulst	-11.534
▁scheidde	-11.534
kwantumgetal	-11.5387
▁corona	-11.5401
bourg	-11.5416
bezoek	-11.5454
kenmerken	-11.5458
▁omwenteling	-11.546
telescopen	-11.546
▁archimedes	-11.546
▁bevorderd	-11.546
▁cézanne	-11.546
▁flevoland	-11.546
▁geïnstalleerd	-11.546
▁haydn	-11.546
▁magnitude	-11.546
▁mechanica	-11.546
▁neutrale	-11.546
▁onderworpen	-11.546
▁positron	-11.546
theïstisch	-11.546
▁kwetsbaar	-11.546
▁lancering	-11.546
▁saoedi	-11.546
▁sigmund	-11.546
leverancier	-11.546
▁ongewenst	-11.546
▁organist	-11.546
▁soldaat	-11.546
▁mogendheden	-11.546
▁kunstmest	-11.546
▁brown	-11.546
▁sedert	-11.546
▁gedateerd	-11.5461
perzisch	-11.5461
buizen	-11.5462
▁gunste	-11.5463
▁aanvang	-11.5463
▁strekt	-11.5464
▁monarch	-11.5484
hertogenbosch	-11.559
secundaire	-11.559
▁association	-11.559
▁bagdad	-11.559
▁besproken	-11.559
▁broeikasgas	-11.559
▁christiaan	-11.559
▁hongersnood	-11.559
▁ontsnapt	-11.559
▁surinaams	-11.559
▁zorgvuldig	-11.559
▁tilburg	-11.559
▁barnsteen	-11.559
▁althans	-11.559
▁dusdanig	-11.559
▁synthetisch	-11.559
▁ontbrak	-11.559
▁gewaardeerd	-11.5591
gewricht	-11.5591
▁gewapende	-11.5593
▁oplosbaar	-11.5604
▁asperge	-11.5623
▁differentiaal	-11.5721
▁hiërogliefen	-11.5721
▁spaceshuttle	-11.5721
boulevard	-11.5721
getwijfeld	-11.5721
▁appingedam	-11.5721
▁commentaar	-11.5721
▁gedeputeerde	-11.5721
▁programmeren	-11.5721
▁ptolemaeus	-11.5721
▁weerszijden	-11.5721
▁fantasie	-11.5721
▁onzekerheid	-11.5721
▁beantwoord	-11.5721
▁veroordeling	-11.5721
▁ziekenhuizen	-11.5721
▁koeweit	-11.5721
trekkingskracht	-11.5721
verzekering	-11.5721
▁edelgas	-11.5721
potentiaal	-11.5721
▁bovengenoemde	-11.5721
▁ingediend	-11.5722
potentiële	-11.5722
▁duister	-11.5722
▁opwarming	-11.5722
▁neiging	-11.5722
▁splijt	-11.5722
▁wouter	-11.5722
▁cpn	-11.5723
▁bevolkt	-11.5724
instituut	-11.5725
bewoners	-11.5725
kristal	-11.5725
bundes	-11.5726
vertaling	-11.5727
▁isoleren	-11.5727
▁frame	-11.5728
▁versierd	-11.5739
▁conservati	-11.5788
▁syr	-11.584
frankisch	-11.5845
▁encyclopedie	-11.5855
führer	-11.5855
oekraïens	-11.5855
registratie	-11.5855
▁geannexeerd	-11.5855
▁gecomponeerd	-11.5855
▁shuttle	-11.5855
▁verdwijnt	-11.5855
▁overheersing	-11.5855
▁herindeling	-11.5855
▁gabriel	-11.5855
british	-11.5855
▁nelson	-11.5855
▁caribisch	-11.5855
▁oprukken	-11.5855
▁klinken	-11.5855
kalender	-11.5863
vestiging	-11.5871
schreef	-11.5987
constitu	-11.5988
▁avonturen	-11.599
▁australische	-11.599
▁floyd	-11.599
▁gevarieerd	-11.599
▁inwoneraantal	-11.599
▁multatuli	-11.599
▁muzikaal	-11.599
▁toonaangevend	-11.599
▁versailles	-11.599
▁fungeert	-11.599
▁saksische	-11.599
▁scandinavische	-11.599
▁manschappen	-11.599
sgewijs	-11.599
▁representatie	-11.599
roemeens	-11.599
▁ontdekken	-11.599
▁gaandeweg	-11.599
▁waterdamp	-11.599
carboon	-11.599
pigment	-11.5992
▁huwde	-11.5993
▁verdubbeld	-11.5994
inclusief	-11.6001
▁tropisch	-11.6002
stream	-11.6012
aagt	-11.6057
▁spirit	-11.6058
▁scheidsrechter	-11.6127
chromosomen	-11.6127
▁concludeerde	-11.6127
▁gekweekt	-11.6127
▁geïdentificeerd	-11.6127
▁levensbeschouw	-11.6127
▁manhattan	-11.6127
▁portugees	-11.6127
▁promoveerde	-11.6127
▁residentie	-11.6127
▁sjabbat	-11.6127
▁vespasianus	-11.6127
▁database	-11.6127
▁minogue	-11.6127
▁postuum	-11.6127
▁ecologische	-11.6127
▁verwarren	-11.6127
▁klingon	-11.6127
▁wereldbeker	-11.6127
▁functionele	-11.6127
▁knooppunt	-11.6127
▁azteken	-11.6127
▁rubber	-11.6127
spreuk	-11.6128
▁corpor	-11.6129
▁uitbrak	-11.6131
lichaam	-11.6142
communicatie	-11.6142
meenschappelijk	-11.6178
groeve	-11.6178
roubaix	-11.6266
▁alzheimer	-11.6266
▁antwerpse	-11.6266
▁geweigerd	-11.6266
▁geëxecuteerd	-11.6266
▁justinianus	-11.6266
▁münster	-11.6266
carbonaat	-11.6266
▁vergezeld	-11.6266
▁antoine	-11.6266
▁caïro	-11.6266
▁communiceren	-11.6266
▁vermengd	-11.6266
▁radicaal	-11.6266
▁gewervelde	-11.6266
▁naburig	-11.6266
▁prikkel	-11.6266
▁rendement	-11.6266
▁plantaardig	-11.6266
▁artemis	-11.6266
▁informatica	-11.6266
vergunning	-11.6266
▁gelijkwaardig	-11.6266
▁schutter	-11.6266
▁tmf	-11.6266
▁bruikbaar	-11.6266
▁ketting	-11.6266
▁sanctie	-11.6266
▁erosie	-11.6269
amsterdam	-11.6285
gemiddelde	-11.6287
oxidatietoestand	-11.6287
▁consequent	-11.6292
gilde	-11.6372
randslamtoernooi	-11.6406
verontreiniging	-11.6406
▁boedapest	-11.6406
▁creëerde	-11.6406
▁geschonken	-11.6406
▁kathedralen	-11.6406
▁kerkgenootschap	-11.6406
▁kroonprins	-11.6406
▁roeselare	-11.6406
▁twente	-11.6406
▁uitnodiging	-11.6406
▁urbanus	-11.6406
boycot	-11.6406
▁sneuvelde	-11.6406
alexandr	-11.6407
▁trommel	-11.6407
guinea	-11.6407
spectra	-11.6407
▁claude	-11.6407
kuifje	-11.6407
▁nimf	-11.6407
citroen	-11.641
▁facto	-11.647
sverwachting	-11.6543
mobiel	-11.6545
▁cyprus	-11.6549
▁genomineerd	-11.6549
▁monteverdi	-11.6549
▁oligoceen	-11.6549
▁organiseert	-11.6549
▁pythagore	-11.6549
▁tevreden	-11.6549
▁toulouse	-11.6549
▁vogelspinnen	-11.6549
▁harmonische	-11.6549
oriëntatie	-11.6549
▁wellington	-11.6549
▁plastic	-11.6549
▁kobalt	-11.6549
▁komeet	-11.655
▁vindplaats	-11.655
▁sparta	-11.6554
vergoeding	-11.6569
concentratie	-11.6577
probleem	-11.6577
combinatie	-11.6577
verblijf	-11.6582
gaelisch	-11.6594
duiker	-11.6642
atmosferische	-11.6694
▁anatomie	-11.6694
▁bourgondische	-11.6694
▁gerangschikt	-11.6694
▁gereduceerd	-11.6694
▁lissabon	-11.6694
▁mioceen	-11.6694
▁onvolledig	-11.6694
nouveau	-11.6694
▁hellenistische	-11.6694
▁psyche	-11.6694
▁opstandelingen	-11.6694
▁friezen	-11.6694
▁tijger	-11.6694
trombone	-11.6695
▁genootschap	-11.6695
▁kempen	-11.6695
▁iberisch	-11.6695
▁major	-11.6696
oculair	-11.6698
levisieprogramma	-11.6703
telefon	-11.6716
seksuele	-11.6726
concept	-11.6728
break	-11.6731
gevraagd	-11.6734
huwelijk	-11.6745
magnetisme	-11.6833
▁goedkeuring	-11.6841
industrialisatie	-11.6841
koolwaterstoffen	-11.6841
▁akkad	-11.6841
▁diaghilev	-11.6841
▁empedocles	-11.6841
▁gekroond	-11.6841
▁hilversum	-11.6841
▁laatstgenoemde	-11.6841
▁scheemda	-11.6841
▁sjiieten	-11.6841
▁specerij	-11.6841
▁replica	-11.6841
▁specialisatie	-11.6841
▁global	-11.6841
▁vazal	-11.6842
▁uefa	-11.6842
▁tegenhanger	-11.6842
▁verwierp	-11.6842
probeerden	-11.6871
extinctie	-11.6991
▁academy	-11.6991
▁angelsaksisch	-11.6991
▁bevelhebber	-11.6991
▁bolkestein	-11.6991
▁compromis	-11.6991
▁essentiële	-11.6991
▁geconstateerd	-11.6991
▁gedroogd	-11.6991
▁geplunderd	-11.6991
▁henegouwen	-11.6991
▁holocaust	-11.6991
▁klavecimbel	-11.6991
▁ontsnapping	-11.6991
▁reïncarnatie	-11.6991
‘	-12.0971
<	-12.9787
