<unk>	0
<s>	0
</s>	0
▁de	-3.04309
.	-3.25357
▁van	-3.69799
,	-3.73642
▁	-3.76374
▁in	-3.90935
▁het	-3.92996
▁en	-4.05691
▁een	-4.13386
s	-4.16871
en	-4.45939
e	-4.46875
▁op	-4.9186
▁is	-4.96097
▁zijn	-5.02701
-	-5.03495
"	-5.07701
▁met	-5.12928
▁voor	-5.2502
▁te	-5.25291
▁(	-5.31875
▁"	-5.33507
▁die	-5.33921
▁dat	-5.41643
▁door	-5.42313
d	-5.43883
▁aan	-5.46795
▁als	-5.52208
t	-5.58394
##	-5.59159
▁werd	-5.59565
)	-5.70324
▁was	-5.71305
▁ook	-5.71611
▁uit	-5.73308
▁hij	-5.75929
de	-5.76439
n	-5.81172
▁er	-5.85231
▁tot	-5.90966
="	-5.91388
▁bij	-5.93883
▁om	-5.94549
:	-6.00539
▁niet	-6.02114
▁wordt	-6.02212
▁deze	-6.04022
▁worden	-6.05274
▁of	-6.05643
'	-6.16216
▁naar	-6.22659
▁maar	-6.26895
er	-6.27524
▁over	-6.27923
▁ge	-6.30532
▁dit	-6.32749
▁onder	-6.34894
doc	-6.36058
>	-6.38212
▁na	-6.40865
▁zich	-6.40935
▁dan	-6.4757
▁ver	-6.50736
a	-6.5329
▁ze	-6.55525
▁andere	-6.56392
/	-6.61896
▁jaar	-6.62167
k	-6.62301
▁meer	-6.6251
▁heeft	-6.65951
▁t	-6.66502
r	-6.71774
▁nog	-6.7231
▁al	-6.76051
).	-6.76291
▁be	-6.76915
▁eerste	-6.77399
▁kan	-6.79133
ing	-6.79786
te	-6.80391
▁veel	-6.82026
▁werden	-6.83056
in	-6.85236
▁zo	-6.88408
o	-6.91428
ten	-6.91568
▁waren	-6.92785
▁hun	-6.9341
f	-6.93847
▁af	-6.9402
▁tussen	-6.94074
ge	-6.94213
▁twee	-6.94437
se	-6.94957
den	-6.9527
▁hebben	-6.96576
▁'	-6.96725
org	-6.96869
▁grote	-6.96998
▁eeuw	-6.97428
▁had	-6.97972
),	-6.98907
m	-6.98964
?	-7.00065
;	-7.00356
▁zoals	-7.01624
le	-7.03343
▁id	-7.03635
curi	-7.0492
nl	-7.04957
wikipedia	-7.05078
▁categorie	-7.05415
wiki	-7.05818
▁url	-7.0701
://	-7.07308
https	-7.07369
▁<	-7.07405
▁</	-7.07657
l	-7.08621
▁wel	-7.08713
▁waar	-7.09495
p	-7.09587
▁zou	-7.10634
▁men	-7.11031
c	-7.11206
▁18	-7.11673
g	-7.1192
itle	-7.13929
i	-7.14125
▁v	-7.15127
re	-7.16296
▁haar	-7.17563
▁1	-7.18351
▁geen	-7.1903
▁kunnen	-7.20464
y	-7.20877
us	-7.2488
▁-	-7.26344
▁zij	-7.26512
v	-7.2755
▁tijd	-7.27566
▁echter	-7.27637
▁stad	-7.28136
",	-7.28527
al	-7.29109
▁tegen	-7.29497
▁alle	-7.29531
be	-7.30946
▁deel	-7.32178
heid	-7.33359
▁land	-7.33543
▁aantal	-7.3453
b	-7.3546
▁nieuwe	-7.37718
ste	-7.38489
▁tijdens	-7.38584
▁nederland	-7.39355
▁plaats	-7.40364
▁gebruikt	-7.40602
=	-7.43243
el	-7.43967
st	-7.44
".	-7.44333
ig	-7.45864
ers	-7.46119
ma	-7.47628
▁a	-7.47741
▁jaren	-7.47743
h	-7.48774
ver	-7.49825
▁omdat	-7.50949
▁verschillende	-7.51303
▁wat	-7.51635
▁re	-7.51827
▁later	-7.51927
▁tweede	-7.5214
u	-7.52348
▁volgens	-7.52558
es	-7.5397
▁toen	-7.54059
on	-7.54182
▁naam	-7.54266
▁drie	-7.54277
▁hem	-7.54939
▁vaak	-7.55588
▁water	-7.57534
▁binnen	-7.58034
▁ten	-7.58105
▁staat	-7.58406
▁weer	-7.58482
z	-7.59373
w	-7.59695
ne	-7.60039
▁toe	-7.60538
▁groot	-7.61533
na	-7.62433
▁kwam	-7.63476
ken	-7.63759
▁vooral	-7.65451
▁sinds	-7.65857
▁hoe	-7.66542
▁genoemd	-7.66593
op	-7.67513
▁vanaf	-7.6754
▁per	-7.68633
▁bekend	-7.68837
▁samen	-7.69321
ische	-7.69501
▁enkele	-7.69765
▁wereld	-7.70052
▁alleen	-7.70644
▁k	-7.70677
ve	-7.70729
ch	-7.70786
▁terug	-7.7212
uit	-7.72133
▁16	-7.72514
▁verder	-7.74997
▁werk	-7.75129
gen	-7.75506
lo	-7.76039
▁–	-7.76669
an	-7.76689
land	-7.77804
▁rond	-7.78475
▁3	-7.79529
ta	-7.79905
▁b	-7.79905
ie	-7.80125
ro	-7.80737
▁17	-7.81094
▁on	-7.81411
▁15	-7.81412
▁eigen	-7.81458
la	-7.8149
▁f	-7.81851
▁leven	-7.82527
eren	-7.84489
▁zelf	-7.8467
▁bijvoorbeeld	-7.85915
ingen	-7.86147
▁2	-7.86792
▁laatste	-7.8699
▁nederlandse	-7.87529
ter	-7.87691
▁kon	-7.88276
▁d	-7.88594
▁waarbij	-7.89201
is	-7.89737
ul	-7.89754
▁grootste	-7.90036
▁steeds	-7.90467
▁mensen	-7.90526
")	-7.90596
▁daar	-7.90751
aan	-7.90761
▁ongeveer	-7.90836
der	-7.90976
▁maken	-7.91394
▁periode	-7.92345
▁nu	-7.92929
▁vier	-7.93524
it	-7.94111
wel	-7.94125
atie	-7.94169
no	-7.94185
▁komt	-7.94566
man	-7.9458
▁4	-7.94911
▁dus	-7.95402
▁the	-7.95906
et	-7.96685
ia	-7.97499
▁la	-7.97506
▁("	-7.9868
as	-7.99075
▁mogelijk	-7.99173
▁komen	-7.99513
je	-7.99519
▁waarin	-7.99616
▁gebruik	-7.9963
▁c	-7.99778
len	-7.9988
or	-8.00062
▁zeer	-8.00114
▁dag	-8.00239
▁taal	-8.00505
pen	-8.01008
▁ont	-8.01986
ige	-8.02331
▁partij	-8.0241
me	-8.02687
▁ter	-8.03386
▁gebied	-8.03809
▁kreeg	-8.03894
sch	-8.04118
▁her	-8.04521
▁elkaar	-8.04991
▁begin	-8.05161
▁bestaat	-8.05175
chr	-8.05308
▁zee	-8.05922
tie	-8.05949
▁m	-8.06057
2	-8.07421
▁zuid	-8.07438
x	-8.07616
ke	-8.07845
eerde	-8.079
▁pas	-8.08067
▁staten	-8.08083
um	-8.08275
ri	-8.08462
▁noord	-8.0879
▁kerk	-8.09436
ra	-8.10013
▁ging	-8.10167
▁koning	-8.10221
▁landen	-8.10294
▁g	-8.11095
▁vorm	-8.11325
▁oorlog	-8.11334
▁eerst	-8.11538
to	-8.11905
▁i	-8.12259
ster	-8.12379
▁20	-8.12518
▁sch	-8.12664
▁via	-8.13262
isch	-8.13339
▁10	-8.13832
▁duitse	-8.13979
▁hadden	-8.1405
ar	-8.14146
▁bevolking	-8.14481
é	-8.14724
j	-8.14836
ur	-8.15034
▁mee	-8.15055
ium	-8.1521
▁hier	-8.15212
il	-8.15473
▁één	-8.15481
da	-8.15673
▁achter	-8.15674
di	-8.16022
▁p	-8.1607
▁oude	-8.17302
▁belangrijke	-8.17431
nen	-8.175
the	-8.17561
▁meeste	-8.17612
ca	-8.18159
▁rijk	-8.18204
vi	-8.18595
ck	-8.18931
ha	-8.19326
▁14	-8.19733
▁ligt	-8.20023
▁man	-8.2015
ion	-8.20648
mo	-8.21023
▁meestal	-8.21199
▁sommige	-8.21325
baar	-8.21469
▁muziek	-8.21612
▁minder	-8.21664
ven	-8.2199
▁buiten	-8.22229
▁boven	-8.22237
▁5	-8.22245
▁soms	-8.22296
▁groep	-8.22492
▁miljoen	-8.2289
▁7	-8.23054
▁le	-8.23367
▁ca	-8.23398
▁naast	-8.23608
▁6	-8.23642
▁geschiedenis	-8.23667
▁soorten	-8.23895
▁vele	-8.24115
co	-8.24178
▁goed	-8.24457
▁waardoor	-8.24504
▁hoofd	-8.24559
▁vormen	-8.24615
eerd	-8.24618
at	-8.24879
isme	-8.24961
ti	-8.25006
of	-8.25552
▁co	-8.25563
▁gemaakt	-8.25779
▁formula	-8.26373
▁vrij	-8.26641
do	-8.2682
▁rol	-8.2693
▁gemeente	-8.27104
os	-8.27327
▁moet	-8.28255
▁zelfs	-8.2859
▁eind	-8.28718
▁ma	-8.29302
▁sterk	-8.29327
▁zowel	-8.29469
▁maakte	-8.29678
▁mo	-8.29872
▁sa	-8.29947
▁belangrijkste	-8.29979
▁bestaan	-8.30085
ag	-8.3039
ij	-8.30422
▁slechts	-8.30461
▁zonder	-8.30728
▁gaan	-8.30806
▁kleine	-8.31361
▁waarvan	-8.31465
ut	-8.31564
▁daarnaast	-8.31626
▁verenigde	-8.31652
men	-8.322
▁(19	-8.32476
▁europa	-8.32487
▁leger	-8.32526
va	-8.32675
▁europese	-8.32828
▁w	-8.336
▁beide	-8.33827
▁dood	-8.3387
▁franse	-8.34113
▁8	-8.3422
▁nieuw	-8.34641
▁belgië	-8.347
▁mei	-8.34942
▁n	-8.35156
▁kunst	-8.35448
▁snel	-8.35454
ton	-8.35485
▁licht	-8.36167
ende	-8.36313
▁ra	-8.36723
▁boek	-8.36749
▁terwijl	-8.36989
▁gaat	-8.37088
▁weg	-8.37137
em	-8.3725
per	-8.37331
▁ontstaan	-8.37335
▁12	-8.37375
▁aarde	-8.37443
zen	-8.37453
th	-8.37458
▁sp	-8.38274
id	-8.38345
ci	-8.3844
▁moest	-8.38501
bo	-8.38817
▁einde	-8.38859
▁ar	-8.39241
▁talen	-8.39305
▁januari	-8.39987
▁werken	-8.40151
▁zouden	-8.40185
ka	-8.40191
▁19	-8.40216
sen	-8.40449
ad	-8.41075
▁basis	-8.41476
mer	-8.41657
▁dagen	-8.41885
▁enige	-8.41895
aal	-8.42021
▁onderzoek	-8.42108
▁zien	-8.42274
li	-8.42473
▁duitsland	-8.42997
▁we	-8.43055
au	-8.43382
▁net	-8.43551
ed	-8.43556
▁uiteindelijk	-8.43612
▁frankrijk	-8.44043
▁provincie	-8.44438
▁invloed	-8.44569
1	-8.447
▁oktober	-8.44991
▁o	-8.453
▁meest	-8.45574
▁h	-8.45595
ik	-8.45631
jes	-8.45652
tische	-8.45835
▁con	-8.45859
val	-8.45864
▁ha	-8.46018
▁gezien	-8.46195
▁der	-8.46289
▁god	-8.46997
▁vijf	-8.47199
00	-8.47569
ant	-8.47861
▁grond	-8.47925
▁begon	-8.48183
4	-8.48205
go	-8.48398
▁regering	-8.48504
▁christelijke	-8.48938
▁west	-8.49012
voor	-8.49381
▁lang	-8.49529
▁hoog	-8.49568
▁zal	-8.49633
tijd	-8.49769
▁13	-8.50064
af	-8.50125
▁wil	-8.50656
▁staan	-8.50888
ho	-8.51116
▁steden	-8.51361
▁hoge	-8.51482
om	-8.51488
▁daarna	-8.51647
ce	-8.5178
elijk	-8.5183
kken	-8.5185
▁kamer	-8.52041
ine	-8.52042
we	-8.52054
5	-8.52061
ic	-8.52087
▁du	-8.52466
▁volgende	-8.52766
ko	-8.52786
▁altijd	-8.52958
3	-8.52993
▁ex	-8.53036
▁ontwikkeling	-8.53225
▁9	-8.53523
▁amerikaanse	-8.53681
ren	-8.53715
ië	-8.53788
▁inwoners	-8.53943
over	-8.54002
▁daarom	-8.54124
▁juni	-8.54228
end	-8.54364
▁nam	-8.54476
▁huidige	-8.54492
▁hand	-8.54714
▁oost	-8.55369
ef	-8.55437
recht	-8.55446
▁bleef	-8.55484
▁macht	-8.55535
▁hen	-8.55876
lijk	-8.5624
▁politieke	-8.56333
▁derde	-8.56379
▁keer	-8.56453
▁midden	-8.56495
ol	-8.56748
kel	-8.57513
▁l	-8.57639
ly	-8.57817
▁woord	-8.57897
stad	-8.5806
het	-8.58095
ba	-8.58208
▁bepaalde	-8.58376
▁wet	-8.58676
▁toch	-8.58697
▁gevolg	-8.58862
▁ro	-8.59052
▁september	-8.59773
ot	-8.59846
▁december	-8.5994
ze	-8.59964
▁11	-8.59983
▁zoon	-8.60116
ker	-8.60223
ale	-8.60498
▁vanwege	-8.6053
sel	-8.60603
▁name	-8.60696
▁vader	-8.60886
▁ko	-8.61
▁algemeen	-8.61004
▁juli	-8.61045
▁natuur	-8.61074
pa	-8.61275
▁maart	-8.6142
am	-8.61898
▁wereldoorlog	-8.62011
▁so	-8.62336
pe	-8.62356
▁gaf	-8.62375
ga	-8.62385
▁vond	-8.6244
▁lange	-8.62472
▁soort	-8.62786
▁lucht	-8.62813
▁vinden	-8.63002
werk	-8.63066
▁film	-8.63167
▁keizer	-8.63253
▁daarmee	-8.63436
▁ru	-8.63461
▁weinig	-8.63508
▁april	-8.6358
▁nederlands	-8.63587
ius	-8.63671
mi	-8.63681
▁november	-8.63726
gel	-8.63973
▁kwamen	-8.64039
im	-8.64237
▁familie	-8.64336
▁wanneer	-8.64383
▁dezelfde	-8.64397
▁si	-8.64423
ler	-8.64485
▁bijna	-8.64879
tal	-8.64893
son	-8.65088
ger	-8.65258
▁leden	-8.65268
sa	-8.65434
▁jo	-8.65446
▁geven	-8.65707
0	-8.65839
min	-8.6609
he	-8.66298
▁se	-8.6646
▁meter	-8.66474
ja	-8.66925
elijke	-8.67025
▁album	-8.67027
ni	-8.67745
▁moderne	-8.68106
▁diverse	-8.68117
7	-8.68346
▁middel	-8.68417
vo	-8.68499
bi	-8.68527
▁vast	-8.68529
▁bekende	-8.68565
ling	-8.68731
▁pro	-8.68968
▁oud	-8.6917
ff	-8.69256
▁geweest	-8.69341
▁wilde	-8.69429
▁do	-8.69553
▁eerder	-8.69835
▁wie	-8.7011
▁di	-8.70167
bu	-8.70315
io	-8.70347
▁konden	-8.70423
▁r	-8.70837
van	-8.71022
ek	-8.7111
▁pa	-8.71333
▁km	-8.71452
▁vervolgens	-8.71602
taal	-8.71859
weg	-8.72119
▁geheel	-8.72153
▁waaronder	-8.72215
▁laten	-8.72482
▁doordat	-8.72645
▁zodat	-8.72725
ist	-8.72775
schap	-8.72858
wa	-8.73129
’	-8.73268
▁augustus	-8.7352
aat	-8.73553
▁me	-8.73608
heden	-8.73809
▁noorden	-8.73867
nadat	-8.7402
▁moeten	-8.74037
ën	-8.74261
▁stond	-8.74604
▁beschouwd	-8.7464
▁sint	-8.74671
ding	-8.74692
▁hele	-8.74755
▁kinderen	-8.74865
▁pe	-8.74989
amp	-8.75083
▁koninkrijk	-8.75454
▁mens	-8.75645
▁schreef	-8.76164
▁spelen	-8.76499
▁opnieuw	-8.76751
aire	-8.76785
▁go	-8.77162
▁ii	-8.77313
▁ander	-8.77715
▁lo	-8.77838
▁internationale	-8.77966
▁doel	-8.7801
hi	-8.78078
eert	-8.78112
▁kern	-8.78195
meer	-8.78201
10	-8.78204
▁druk	-8.78316
▁bouw	-8.78372
po	-8.78392
▁delen	-8.7861
▁februari	-8.78614
▁energie	-8.7884
pi	-8.7906
▁voorbeeld	-8.79186
▁po	-8.792
▁gebieden	-8.79541
▁geschreven	-8.79649
▁zuiden	-8.79706
▁liet	-8.79787
▁he	-8.79788
un	-8.79791
▁eiland	-8.79813
▁langs	-8.79848
50	-8.7998
▁vi	-8.80067
▁jaartelling	-8.80147
▁elk	-8.80309
▁beeld	-8.80403
berg	-8.80412
▁waarschijnlijk	-8.8058
▁huis	-8.80603
ak	-8.80826
▁namen	-8.80843
▁mede	-8.80981
dat	-8.81102
▁tegenwoordig	-8.81192
kt	-8.81239
ü	-8.81268
▁zon	-8.81366
▁doen	-8.8172
▁daarbij	-8.81726
sp	-8.81985
bouw	-8.82045
bare	-8.82159
sh	-8.82344
▁heel	-8.8241
▁nodig	-8.82469
met	-8.82765
▁jan	-8.8301
▁mar	-8.83061
▁li	-8.83213
▁geval	-8.83251
▁j	-8.83261
▁duidelijk	-8.83365
▁even	-8.83754
eur	-8.83952
▁recht	-8.84025
▁president	-8.84145
▁z	-8.84269
▁massa	-8.84409
▁leiden	-8.84551
ip	-8.84581
ging	-8.84673
mon	-8.84869
▁mag	-8.84872
▁je	-8.85337
▁amsterdam	-8.85465
▁cultuur	-8.85673
▁ni	-8.85694
▁moment	-8.85762
▁ruim	-8.85915
▁parijs	-8.86073
con	-8.86089
▁bo	-8.86146
▁maakt	-8.86165
▁min	-8.8624
▁nemen	-8.86283
gebied	-8.86458
aar	-8.86525
▁vrouwen	-8.86592
▁gelijk	-8.86608
▁grens	-8.86663
▁st	-8.86759
▁dieren	-8.86766
tu	-8.868
ner	-8.87031
▁nationale	-8.87274
za	-8.87587
▁strijd	-8.87686
(	-8.87723
▁politiek	-8.8793
huis	-8.87942
▁iets	-8.87944
▁elke	-8.8852
▁waarmee	-8.88745
▁romeinse	-8.88794
▁da	-8.88814
▁bas	-8.88917
▁auto	-8.89056
▁ontstond	-8.89096
▁economische	-8.89323
▁rivier	-8.8939
▁belangrijk	-8.89558
ering	-8.89858
ir	-8.89942
▁voorkomen	-8.89994
▁ruimte	-8.90079
si	-8.90105
▁am	-8.90134
▁ga	-8.90256
▁tevens	-8.90364
▁ho	-8.90369
▁centrum	-8.9037
▁voornamelijk	-8.90382
▁manier	-8.90939
ber	-8.90954
▁oosten	-8.9102
▁onderwijs	-8.9108
▁britse	-8.91201
▁klein	-8.91238
▁fa	-8.91273
|	-8.913
▁voort	-8.91436
▁mi	-8.91712
ron	-8.9205
tri	-8.9205
▁liggen	-8.92159
iteit	-8.92286
▁westen	-8.92509
eg	-8.92509
▁nooit	-8.92652
▁vrijwel	-8.92818
▁universiteit	-8.92822
tra	-8.92999
▁slag	-8.93064
▁term	-8.93118
od	-8.93132
eel	-8.93134
▁as	-8.93162
durende	-8.9318
▁sport	-8.93296
ook	-8.93484
▁betekent	-8.93727
king	-8.93769
ings	-8.93858
▁vrouw	-8.93999
zo	-8.94033
▁nummer	-8.94262
▁karel	-8.94277
tje	-8.94303
▁systeem	-8.94391
▁30	-8.94415
bel	-8.94467
kant	-8.94732
wetenschappelijk	-8.9474
6	-8.94741
▁val	-8.95093
dag	-8.95674
che	-8.95698
▁moeder	-8.95743
▁lijst	-8.95774
vol	-8.95891
▁houden	-8.95921
ry	-8.95991
water	-8.96089
▁republiek	-8.96092
=2	-8.96298
▁zogenaamd	-8.96322
▁vol	-8.96523
▁ne	-8.96525
▁willem	-8.96527
▁minister	-8.96537
▁kennis	-8.96559
uw	-8.96603
punt	-8.96788
▁daarvan	-8.9687
▁sovjet	-8.96923
▁lid	-8.96988
▁plaatsen	-8.97113
form	-8.97125
ts	-8.97185
▁hitler	-8.97234
▁school	-8.97418
▁meerdere	-8.97448
lu	-8.9746
onder	-8.97538
▁euro	-8.97794
gang	-8.97868
▁zin	-8.97942
20	-8.98302
▁car	-8.98497
▁goede	-8.98674
▁21	-8.98691
▁top	-8.98818
0.000	-8.98904
▁blijven	-8.98977
▁2006	-8.99095
▁gebouwd	-8.99212
▁direct	-8.99225
jo	-8.99265
▁no	-8.99428
▁krijgen	-8.99705
▁el	-8.99739
mar	-8.99806
▁ka	-8.99864
ll	-8.99879
▁25	-9.00316
▁stads	-9.00698
▁to	-9.01017
▁anders	-9.01174
▁band	-9.01224
▁san	-9.01266
▁bovendien	-9.01289
▁anti	-9.01383
▁israël	-9.01443
ac	-9.01807
▁gevonden	-9.01916
▁hierdoor	-9.01929
▁paus	-9.02059
stand	-9.02272
▁positie	-9.02323
▁literatuur	-9.02383
▁frans	-9.025
▁namelijk	-9.02513
40	-9.02558
sche	-9.02649
▁gevormd	-9.02778
▁park	-9.02781
▁griekse	-9.02847
▁kent	-9.02849
▁kleur	-9.02851
zie	-9.02868
▁geworden	-9.02881
ina	-9.0293
▁pre	-9.02958
lijn	-9.03028
▁ke	-9.03082
▁leiding	-9.03158
▁gehouden	-9.03164
▁tien	-9.03226
▁leidde	-9.03227
▁geboren	-9.03258
▁belang	-9.03317
66	-9.03344
▁korte	-9.03529
▁onafhankelijk	-9.03543
▁elementen	-9.03659
ica	-9.03718
isten	-9.03744
▁2007	-9.03764
▁relatief	-9.03913
cul	-9.03935
▁bepaald	-9.03995
▁kust	-9.04014
vel	-9.04361
▁geeft	-9.04373
▁kort	-9.04435
8	-9.04443
▁ba	-9.04459
▁regio	-9.04475
▁waarop	-9.04507
-19	-9.04671
_	-9.04824
mp	-9.04936
▁bloed	-9.05161
▁bracht	-9.05219
▁an	-9.05336
▁won	-9.05388
▁belgische	-9.05544
▁ta	-9.058
12	-9.05817
▁afge	-9.05936
▁gebaseerd	-9.06054
een	-9.06163
▁gesproken	-9.06195
▁volgen	-9.06587
lin	-9.06594
▁ontwikkeld	-9.0663
komen	-9.06703
▁woorden	-9.06934
▁handel	-9.07009
pro	-9.0701
▁bar	-9.07045
▁afstand	-9.07049
oc	-9.07067
sta	-9.07189
▁latere	-9.07233
▁hoofdstad	-9.0744
▁opgericht	-9.0753
▁zeven	-9.07549
19	-9.07575
▁bal	-9.076
▁hiervan	-9.07665
▁temperatuur	-9.07816
▁aanvankelijk	-9.07962
▁helft	-9.07972
▁richting	-9.07992
▁jonge	-9.08308
ai	-9.0834
▁loop	-9.08355
▁aanwezig	-9.08464
▁2002	-9.08479
▁proces	-9.08588
raad	-9.08654
▁zes	-9.08671
▁parlement	-9.09013
uren	-9.09021
oor	-9.09065
▁gegeven	-9.092
ser	-9.09239
▁hierbij	-9.09239
har	-9.09367
▁succes	-9.09389
slag	-9.09405
▁vlaanderen	-9.0959
▁stijl	-9.09592
▁kracht	-9.09685
▁volledig	-9.09703
pt	-9.09787
istische	-9.09887
30	-9.1
▁deed	-9.10005
▁bestond	-9.10044
▁raad	-9.10087
groep	-9.10102
▁troepen	-9.1012
▁bleek	-9.10254
ving	-9.10378
▁2010	-9.10411
▁verkiezingen	-9.10497
▁daardoor	-9.10505
▁uur	-9.10569
▁grotere	-9.10578
▁geld	-9.1065
▁voorbeelden	-9.1066
mel	-9.11029
jarige	-9.11074
▁waarde	-9.11146
▁brussel	-9.1117
▁groter	-9.11194
▁ja	-9.1123
▁productie	-9.11249
▁landbouw	-9.11274
▁totaal	-9.11285
▁leeftijd	-9.11307
▁planten	-9.11336
▁laat	-9.11374
▁lu	-9.11464
▁lichaam	-9.11489
ting	-9.11616
▁zaken	-9.11632
▁engeland	-9.11662
if	-9.11699
▁steun	-9.11751
ondanks	-9.11773
▁kilometer	-9.11773
ft	-9.11799
▁groepen	-9.11814
▁maan	-9.11927
▁hoogste	-9.11941
gaan	-9.11961
rie	-9.12064
▁vlak	-9.12191
15	-9.12248
▁har	-9.12293
▁bevindt	-9.12363
▁x	-9.12378
▁economie	-9.12446
gt	-9.12528
▁zwarte	-9.12633
▁paar	-9.12785
▁enkel	-9.12809
▁functie	-9.12838
ap	-9.12842
▁ervan	-9.12931
11	-9.13103
▁officiële	-9.13188
▁(18	-9.13241
▁bi	-9.13272
▁ad	-9.13323
pp	-9.13343
▁titel	-9.13409
17	-9.13418
▁geldt	-9.13485
ï	-9.13687
gene	-9.13855
▁afhankelijk	-9.14037
▁oudste	-9.14052
iet	-9.14141
").	-9.14145
▁eu	-9.1439
ier	-9.14474
air	-9.14482
▁partijen	-9.14515
ex	-9.14567
plaats	-9.14582
25	-9.146
▁vormt	-9.14849
▁erg	-9.1492
▁speelde	-9.14958
▁kant	-9.14989
deel	-9.15034
delen	-9.15057
▁onderdeel	-9.15061
▁italië	-9.15078
▁betekenis	-9.15124
▁stand	-9.1523
unie	-9.15231
▁kop	-9.15323
ment	-9.15402
pel	-9.15482
á	-9.15524
wet	-9.15562
▁plan	-9.15587
tor	-9.15588
16	-9.15627
handel	-9.15653
▁staats	-9.1574
▁militaire	-9.15743
▁hetzelfde	-9.15794
▁and	-9.15836
kerk	-9.1584
▁2005	-9.1588
▁2000	-9.16055
▁dr	-9.16117
lijke	-9.16138
▁huwelijk	-9.16172
▁zeggen	-9.16227
▁brengen	-9.16346
▁new	-9.16464
ert	-9.16482
▁hierna	-9.1653
les	-9.16594
▁gebruiken	-9.16605
lon	-9.16623
▁dochter	-9.16661
▁spanje	-9.16728
dra	-9.1679
▁par	-9.16813
▁john	-9.16844
ach	-9.16853
▁foto	-9.16914
▁beweging	-9.16943
2"	-9.17044
▁voedsel	-9.17091
▁studie	-9.17114
&	-9.17139
▁hart	-9.17332
45	-9.17454
▁rijn	-9.17468
stelling	-9.17474
▁bron	-9.17577
▁rest	-9.17664
ssen	-9.17687
▁mor	-9.17884
▁klassieke	-9.1791
▁boeken	-9.18013
▁oog	-9.18141
net	-9.18145
▁2008	-9.18236
▁for	-9.18284
naam	-9.18297
▁mannen	-9.1832
▁gekozen	-9.1834
▁ab	-9.18363
▁element	-9.18471
▁feit	-9.18614
▁kabinet	-9.18869
ring	-9.18979
als	-9.19063
▁organisatie	-9.19234
▁im	-9.19303
burg	-9.19373
▁brand	-9.19386
▁maanden	-9.1947
▁joden	-9.19648
rijk	-9.19727
▁vroeg	-9.19872
art	-9.19885
▁verhaal	-9.19971
▁gas	-9.20018
▁volgde	-9.20072
▁tri	-9.20182
▁2012	-9.20279
du	-9.20332
▁gedaan	-9.20377
▁tekst	-9.20464
▁onge	-9.20528
▁2011	-9.20533
tisch	-9.20637
4"	-9.20671
est	-9.20803
spel	-9.20856
▁radio	-9.21258
▁gu	-9.2144
▁haag	-9.21458
▁eveneens	-9.21664
sie	-9.21691
▁hel	-9.21883
even	-9.21963
acht	-9.22036
▁spaanse	-9.2212
▁pi	-9.22277
▁berg	-9.22423
▁2009	-9.22468
▁gebracht	-9.22548
▁gemeenten	-9.22718
▁rode	-9.22784
▁acht	-9.22941
60	-9.22989
▁zeker	-9.23058
▁cl	-9.23207
tur	-9.23214
▁gelegen	-9.23225
75	-9.23288
gra	-9.23365
▁24	-9.23367
▁informatie	-9.23369
ologie	-9.23384
▁ziekte	-9.2348
=1	-9.23528
▁22	-9.236
▁groei	-9.23675
lang	-9.23689
▁gebruikte	-9.23726
▁volks	-9.23797
▁vraag	-9.23932
tre	-9.23952
▁bijzonder	-9.23987
▁eigenschappen	-9.24053
▁programma	-9.24076
65	-9.2421
▁vlaamse	-9.24292
▁waarna	-9.24295
▁hoogte	-9.24391
▁verscheen	-9.24574
und	-9.24718
▁engels	-9.2478
▁markt	-9.24945
▁gevallen	-9.2504
tjes	-9.25076
▁beter	-9.25083
▁omgeving	-9.25174
hu	-9.25243
▁inter	-9.25256
so	-9.25285
▁rechts	-9.25326
▁opgenomen	-9.25498
▁sta	-9.25591
▁personen	-9.25597
ris	-9.25618
85	-9.25698
ide	-9.25717
rom	-9.25839
▁100	-9.2587
erd	-9.25913
▁hof	-9.25923
▁reeds	-9.26115
21	-9.26143
3"	-9.26171
▁lag	-9.26181
▁zichzelf	-9.26252
▁veld	-9.26253
▁algemene	-9.26319
▁geboorte	-9.26455
▁centraal	-9.26455
▁oorspronkelijk	-9.26459
▁kregen	-9.26466
▁rij	-9.26537
▁moeilijk	-9.26591
▁verenigd	-9.26643
▁neer	-9.26716
▁hoger	-9.26816
kracht	-9.26896
▁punt	-9.27314
her	-9.27317
▁verbonden	-9.27335
▁bevat	-9.27428
▁sprake	-9.27535
▁anderen	-9.27678
amerika	-9.27719
▁engelse	-9.27737
▁bu	-9.27767
▁dienst	-9.27812
▁historische	-9.27928
▁behoren	-9.27967
▁sub	-9.28005
tel	-9.28164
▁rome	-9.28196
▁dorp	-9.28343
▁wist	-9.28351
70	-9.28431
ard	-9.28481
werken	-9.28548
80	-9.28555
ph	-9.28658
▁jaarlijks	-9.28777
▁stelde	-9.28784
▁orde	-9.29004
br	-9.29034
▁cha	-9.29034
▁voormalige	-9.29036
tan	-9.29204
▁standaard	-9.29262
▁versie	-9.29286
▁bestuur	-9.29338
▁tra	-9.2951
▁or	-9.29574
wo	-9.29591
ijn	-9.29627
▁vervangen	-9.29642
bij	-9.29648
▁bestaande	-9.29701
uur	-9.29703
▁tegenstelling	-9.29718
bro	-9.2979
43	-9.29825
▁sterke	-9.29837
▁afkomstig	-9.2989
13	-9.29953
ys	-9.3006
programma	-9.30202
vorm	-9.30238
▁getallen	-9.30251
9"	-9.30251
▁vrede	-9.30274
▁haven	-9.30322
ation	-9.30324
▁laag	-9.30469
▁seizoen	-9.30518
plo	-9.30528
9	-9.3069
7"	-9.30697
iden	-9.30739
▁handen	-9.30745
▁theorie	-9.3083
1"	-9.3086
▁su	-9.30861
iek	-9.30922
▁zomer	-9.30954
dy	-9.30978
lt	-9.31042
▁vroege	-9.31057
▁middeleeuwen	-9.31058
▁volk	-9.31127
▁th	-9.31203
▁u	-9.31302
▁geloof	-9.31393
6"	-9.31563
▁opge	-9.31839
ö	-9.31879
nes	-9.31903
▁grotendeels	-9.31918
▁verschillen	-9.31963
▁cor	-9.32076
▁mate	-9.32139
straat	-9.32146
ct	-9.32206
▁wetenschap	-9.32405
▁stof	-9.3245
▁gehele	-9.325
fa	-9.32506
8"	-9.3274
▁vertegenwoordig	-9.32744
oe	-9.3287
18	-9.3304
▁nationaal	-9.33053
nie	-9.33087
=3	-9.33118
▁bos	-9.33186
▁los	-9.33192
ov	-9.33237
▁verhalen	-9.33265
nt	-9.33286
▁regel	-9.33387
age	-9.33413
zet	-9.33487
▁regelmatig	-9.3352
▁uitge	-9.33645
kers	-9.33696
▁2003	-9.33698
▁veroorzaakt	-9.33808
▁2014	-9.33832
▁museum	-9.33854
toe	-9.33871
▁reden	-9.33962
▁viel	-9.33963
gr	-9.33991
▁leer	-9.34025
ny	-9.34035
▁hiermee	-9.34104
▁sociale	-9.34108
44	-9.34129
▁egypte	-9.34255
geven	-9.34266
▁2004	-9.34421
hal	-9.34423
▁ieder	-9.34424
▁com	-9.34433
▁verspreid	-9.34557
▁verband	-9.34711
▁klimaat	-9.34774
ele	-9.34786
▁nederlanden	-9.348
wer	-9.34803
▁opstand	-9.3482
▁begonnen	-9.34917
ari	-9.3519
vin	-9.35306
up	-9.35459
▁china	-9.35463
tiek	-9.35515
ab	-9.35519
▁vervoer	-9.35542
▁hout	-9.35559
▁fi	-9.35591
▁vis	-9.35646
ley	-9.35707
▁vindt	-9.35884
▁moesten	-9.35934
don	-9.35986
▁lijn	-9.35988
▁getal	-9.3603
96	-9.36067
tus	-9.36077
hel	-9.36183
▁volgt	-9.36201
▁oorsprong	-9.36335
5"	-9.3644
▁stellen	-9.36548
▁levens	-9.36586
22	-9.36637
▁heet	-9.36637
▁serie	-9.36688
ning	-9.36693
▁opdracht	-9.36708
leg	-9.36952
chi	-9.36966
55	-9.37074
)"	-9.37212
▁rusland	-9.37217
95	-9.37267
41	-9.37373
gas	-9.37376
▁valt	-9.37434
ator	-9.37498
ies	-9.37538
▁hulp	-9.37641
ud	-9.37669
▁verloren	-9.37698
▁2018	-9.37729
licht	-9.37771
die	-9.37883
▁londen	-9.38007
▁besloot	-9.38016
zijde	-9.3807
lie	-9.38138
▁(20	-9.3815
▁oceaan	-9.38156
▁unie	-9.38183
▁verdrag	-9.38208
nemen	-9.38256
38	-9.38271
▁joodse	-9.38488
▁dergelijke	-9.38518
zw	-9.38566
35	-9.38581
39	-9.38632
▁2013	-9.3865
▁zilver	-9.38671
▁nacht	-9.38718
▁vrije	-9.38758
▁2019	-9.38812
ju	-9.38823
ym	-9.38829
98	-9.38861
▁spel	-9.38877
▁stuk	-9.38948
ok	-9.39031
▁50	-9.39042
▁wijze	-9.3913
▁tit	-9.39163
▁beste	-9.39304
▁ri	-9.39312
ang	-9.39453
▁antwerpen	-9.39545
▁ku	-9.39555
48	-9.39614
="8	-9.39644
▁vaste	-9.39657
▁goud	-9.39701
▁lokale	-9.39701
82	-9.3974
▁oorspronkelijke	-9.39812
="6	-9.3982
▁industrie	-9.39881
cha	-9.40156
▁paul	-9.4017
▁gingen	-9.40212
▁grondwet	-9.40213
▁verschil	-9.40407
staat	-9.40477
▁eilanden	-9.40492
els	-9.405
="7	-9.40507
systeem	-9.40524
▁russische	-9.40576
49	-9.4065
42	-9.40672
▁zag	-9.40757
▁ju	-9.40759
▁23	-9.40775
fe	-9.40817
64	-9.40838
afrika	-9.40841
47	-9.40881
71	-9.4101
▁persoon	-9.41012
beeld	-9.41058
▁kalender	-9.41067
▁ontwikkelde	-9.41091
77	-9.41126
▁niveau	-9.41171
94	-9.414
▁computer	-9.41439
lijst	-9.4146
▁materiaal	-9.41464
▁uitgevoerd	-9.4148
▁0	-9.41689
▁dicht	-9.41697
76	-9.41806
88	-9.41819
86	-9.41935
▁gespeeld	-9.41946
▁overheid	-9.42087
del	-9.42126
58	-9.42149
kwam	-9.42166
▁jeugd	-9.42223
▁burgemeester	-9.42254
vecht	-9.4226
wij	-9.4234
vis	-9.42345
27	-9.42376
▁actief	-9.42447
europa	-9.42473
▁punten	-9.42476
▁gevestigd	-9.42542
▁utrecht	-9.42544
▁graf	-9.42556
99	-9.42561
▁&	-9.42641
nis	-9.42694
spraak	-9.42699
ä	-9.42703
▁neemt	-9.42707
ans	-9.42769
lam	-9.42865
▁trad	-9.42904
▁club	-9.42994
▁mu	-9.43102
▁iii	-9.43158
ast	-9.43166
▁beschreven	-9.43185
▁verdeeld	-9.43189
ief	-9.43215
33	-9.43267
gan	-9.43348
▁genomen	-9.43422
67	-9.43431
–	-9.43447
han	-9.43504
▁type	-9.43508
▁von	-9.43511
▁vo	-9.43687
▁ben	-9.43723
▁optreden	-9.43745
▁natuurlijke	-9.43882
▁aard	-9.43956
▁=	-9.43962
mb	-9.43986
▁roman	-9.44061
▁publiek	-9.44131
▁hard	-9.44147
▁para	-9.44236
▁inmiddels	-9.44344
▁2015	-9.44361
▁oostenrijk	-9.44387
lit	-9.44409
79	-9.44468
63	-9.44513
36	-9.44551
68	-9.44561
29	-9.44588
fin	-9.44811
▁juist	-9.4482
▁open	-9.44854
aren	-9.44906
pl	-9.44915
97	-9.44957
▁stem	-9.45075
cy	-9.45089
av	-9.45092
59	-9.45119
treden	-9.45145
91	-9.45296
▁aangezien	-9.45303
89	-9.45375
ix	-9.45401
pre	-9.4545
ki	-9.45579
▁centrale	-9.45617
▁fo	-9.45622
▁speelt	-9.45644
▁reeks	-9.45689
92	-9.45731
▁kruis	-9.45746
▁reactie	-9.45834
="3	-9.45848
vat	-9.45939
stel	-9.45984
▁witte	-9.46023
▁polen	-9.46102
▁groningen	-9.46129
▁prijs	-9.46161
▁welke	-9.46246
fer	-9.46267
▁benoemd	-9.46295
74	-9.46296
▁situatie	-9.46303
▁definitie	-9.46314
gar	-9.46408
83	-9.46441
▁internationaal	-9.46463
▁hiervoor	-9.46537
▁handels	-9.46632
▁totale	-9.46653
▁combinatie	-9.4672
▁vallen	-9.46748
▁schrijven	-9.46775
▁circa	-9.46871
win	-9.4689
▁kleinere	-9.46891
▁wit	-9.46909
veld	-9.4694
▁katholieke	-9.47061
37	-9.47068
93	-9.47086
leden	-9.47159
▁au	-9.47213
gi	-9.47327
▁gemeenschap	-9.47437
▁holland	-9.47529
▁pop	-9.47542
▁vierde	-9.47552
84	-9.47559
▁kn	-9.47586
ah	-9.47595
▁2001	-9.47676
▁indeling	-9.4772
▁zetten	-9.47762
igheid	-9.47808
com	-9.47845
teken	-9.47861
78	-9.4789
90	-9.48048
▁york	-9.48141
▁lijkt	-9.48332
▁onderscheiden	-9.48391
laag	-9.48433
▁kans	-9.4855
▁problemen	-9.48746
mm	-9.48782
▁28	-9.48988
87	-9.49002
voer	-9.49016
5%	-9.49062
▁steen	-9.4923
34	-9.4925
▁zetels	-9.49253
▁geluid	-9.49411
theorie	-9.49415
▁heilige	-9.49455
▁blijft	-9.49505
▁lage	-9.4951
leven	-9.49557
ec	-9.49601
tte	-9.49728
▁daarvoor	-9.49777
▁groen	-9.4984
ders	-9.49857
▁tempel	-9.49918
▁principe	-9.49955
73	-9.50059
wijk	-9.50085
vallen	-9.50088
▁hogere	-9.50128
achtige	-9.50257
boek	-9.50279
▁officieel	-9.50347
▁voeren	-9.50378
▁zwaar	-9.5038
▁ster	-9.50429
stra	-9.50433
▁kenmerken	-9.50455
▁golf	-9.50458
▁oppervlakte	-9.50496
▁jezus	-9.5054
▁latijn	-9.50566
_1	-9.50655
▁langer	-9.50712
▁geplaatst	-9.50717
▁hoeveelheid	-9.50725
▁johannes	-9.50781
▁post	-9.50798
61	-9.50873
ya	-9.50906
▁werkte	-9.51038
▁gent	-9.51121
▁bru	-9.51131
▁revolutie	-9.5122
tes	-9.5123
ei	-9.51338
24	-9.51344
57	-9.51416
goed	-9.51522
-20	-9.51558
▁pan	-9.51581
▁want	-9.51657
69	-9.51727
54	-9.51787
▁bedrijven	-9.51818
▁japan	-9.51833
▁geleid	-9.51843
▁trans	-9.51889
▁opzichte	-9.51907
dan	-9.51912
▁bereikt	-9.51949
▁procent	-9.51951
jaar	-9.51971
loos	-9.52082
▁gen	-9.52112
▁kritiek	-9.52115
ty	-9.52139
iv	-9.52245
▁cel	-9.52287
▁aangeduid	-9.5229
verantwoordelijk	-9.52327
▁negen	-9.52371
res	-9.52624
="4	-9.52638
ologische	-9.5268
bal	-9.52723
par	-9.52764
▁2016	-9.52864
0"	-9.52893
kunde	-9.52956
▁blijkt	-9.52999
▁uitzondering	-9.52999
▁es	-9.53009
bb	-9.53025
que	-9.53043
waar	-9.53068
53	-9.53101
▁ijzer	-9.53209
▁single	-9.53236
stof	-9.53299
iseerd	-9.53343
zi	-9.53349
▁spreekt	-9.53375
▁rooms	-9.53391
kte	-9.53529
56	-9.53577
▁at	-9.53587
▁duits	-9.5365
ub	-9.53669
▁overleed	-9.53713
▁status	-9.53725
▁hu	-9.5376
▁populair	-9.53817
hand	-9.53848
▁relatie	-9.53868
▁ed	-9.53954
▁station	-9.53961
▁bronnen	-9.53988
sing	-9.54018
14	-9.54035
loop	-9.5409
▁hield	-9.54146
dr	-9.54188
▁gal	-9.54293
▁afgeleid	-9.54298
staan	-9.54358
▁ton	-9.54407
stelsel	-9.5448
tin	-9.54488
▁napoleon	-9.54611
52	-9.54612
▁noordelijke	-9.54627
▁bijbel	-9.54628
▁goden	-9.54628
▁ontdekt	-9.54705
▁buitenlandse	-9.54872
▁insecten	-9.54965
▁toegepast	-9.54978
bert	-9.55161
▁ooit	-9.55163
▁vermeld	-9.55171
▁27	-9.55207
▁vogels	-9.55228
▁duitsers	-9.55255
fi	-9.55294
▁my	-9.55299
ou	-9.55375
▁stemmen	-9.55386
ieve	-9.55456
81	-9.55552
51	-9.55614
▁week	-9.55656
▁dna	-9.55667
í	-9.55701
▁göring	-9.55701
cr	-9.5574
▁college	-9.55753
▁bekendste	-9.55811
ru	-9.55819
rs	-9.55827
▁karakter	-9.55884
▁wind	-9.55926
tha	-9.55933
dam	-9.55982
▁contact	-9.56035
ici	-9.56052
01	-9.56158
▁lengte	-9.56175
rij	-9.56393
▁zie	-9.56434
▁bevinden	-9.56435
maal	-9.56474
oorlog	-9.56553
ban	-9.56609
▁formule	-9.56709
ringen	-9.56717
▁traditie	-9.56781
▁behoort	-9.56803
▁iemand	-9.56804
▁groeide	-9.56805
▁nabij	-9.56836
gezet	-9.56874
46	-9.56926
▁structuur	-9.56926
▁maas	-9.56985
▁meerderheid	-9.56989
macht	-9.56991
istisch	-9.56996
',	-9.57003
▁eenheid	-9.57065
oxide	-9.57066
fo	-9.57069
▁artikel	-9.57324
▁elektronen	-9.57336
▁koningin	-9.57364
▁symbool	-9.57377
62	-9.57514
="5	-9.57542
▁bedoeld	-9.57546
▁ki	-9.57565
▁mil	-9.57571
▁2017	-9.57591
uk	-9.5765
▁kleuren	-9.57692
▁extra	-9.57833
grond	-9.57851
schot	-9.57921
▁snelheid	-9.57922
▁26	-9.57955
▁ontstaat	-9.57957
▁half	-9.57988
▁beleid	-9.5803
▁zuidelijke	-9.58053
▁daarop	-9.58072
▁telt	-9.58083
tig	-9.58121
▁veiligheid	-9.58135
▁westerse	-9.58222
▁project	-9.58284
▁voorzitter	-9.58376
▁40	-9.58436
▁pri	-9.58482
ich	-9.58532
weer	-9.58605
▁fase	-9.58647
▁rechter	-9.58682
▁et	-9.58819
centrum	-9.59002
▁maand	-9.59103
qu	-9.59169
beweging	-9.59191
talen	-9.59262
igen	-9.59354
▁toon	-9.59377
▁loopt	-9.59415
▁miljard	-9.59423
▁trok	-9.59547
▁prins	-9.59548
▁gesteld	-9.59625
▁bio	-9.59664
name	-9.59702
periode	-9.59775
▁onderscheid	-9.59786
ski	-9.59864
▁kra	-9.59918
▁spin	-9.59921
▁alles	-9.59979
▁geslacht	-9.59993
tocht	-9.60069
ay	-9.60189
▁overigens	-9.60197
▁baan	-9.60208
by	-9.60317
▁tegenover	-9.60372
]	-9.60375
▁religieuze	-9.60375
▁politie	-9.60386
tr	-9.60496
▁ontdekking	-9.60539
▁60	-9.60587
▁verzameling	-9.60701
aars	-9.60741
▁ijs	-9.60884
▁betrokken	-9.60981
▁heer	-9.61065
mis	-9.611
▁praktijk	-9.61116
▁ogen	-9.6113
▁behalve	-9.61177
elen	-9.61236
▁uitgebreid	-9.61329
▁nazi	-9.61351
scha	-9.61452
act	-9.6149
sk	-9.61577
▁bezig	-9.61583
▁ervoor	-9.61653
ont	-9.61656
▁broer	-9.61736
nam	-9.61917
▁maastricht	-9.61918
soorten	-9.61923
▁kennen	-9.61926
▁‘	-9.61956
▁2020	-9.61975
pas	-9.62029
▁onbe	-9.62045
▁kind	-9.6208
▁traditionele	-9.62113
yl	-9.62136
ui	-9.62167
▁gemiddelde	-9.62209
▁geleden	-9.62213
▁dichter	-9.62242
film	-9.62308
▁verschenen	-9.62314
▁aandacht	-9.62315
▁voetbal	-9.62507
▁1990	-9.62529
▁betrekking	-9.62555
▁italiaanse	-9.62649
▁beïnvloed	-9.62698
▁voet	-9.62885
è	-9.62898
▁religie	-9.629
▁aanval	-9.62916
▁mis	-9.62937
▁iedere	-9.63059
▁ei	-9.63084
out	-9.63109
▁beperkt	-9.63124
▁gedrag	-9.63138
▁bezit	-9.6315
▁sc	-9.63238
ieten	-9.63272
▁menselijke	-9.63276
▁dis	-9.63342
eerden	-9.63381
26	-9.63532
muziek	-9.63536
lig	-9.63601
▁beelden	-9.63632
abel	-9.63659
▁bank	-9.63675
▁krijgt	-9.63685
rit	-9.63791
mit	-9.63899
▁zweden	-9.63964
▁limburg	-9.63974
cel	-9.63995
ties	-9.64002
q	-9.64192
ham	-9.64517
▁tu	-9.64521
▁not	-9.64566
namen	-9.64577
▁voorzien	-9.64592
▁kar	-9.64613
mond	-9.64696
bar	-9.64724
▁pu	-9.64727
▁thuis	-9.64772
lingen	-9.64849
str	-9.64952
ps	-9.64954
▁india	-9.65096
▁gi	-9.65166
bat	-9.6519
▁teken	-9.65264
▁samenwerking	-9.6527
▁opvolger	-9.65279
houden	-9.65331
▁links	-9.65337
▁twaalf	-9.65479
▁teksten	-9.65484
vers	-9.65519
▁afrika	-9.65606
▁wo	-9.65661
▁behulp	-9.65681
▁mars	-9.65772
32	-9.65803
erende	-9.65843
▁allerlei	-9.65885
▁zuurstof	-9.65887
nu	-9.6603
▁dankzij	-9.66085
las	-9.66164
▁pla	-9.66179
mann	-9.66208
23	-9.66231
▁start	-9.66242
ez	-9.66246
▁speciale	-9.66298
wi	-9.66327
druk	-9.66368
▁best	-9.66424
ooi	-9.66443
▁begrip	-9.66446
▁pen	-9.66474
▁georganiseerd	-9.66491
bri	-9.66519
▁hi	-9.66525
▁letter	-9.66567
dom	-9.66568
plan	-9.66632
▁inge	-9.66668
▁idee	-9.66749
▁liep	-9.66777
car	-9.66835
▁ci	-9.66901
wereld	-9.67043
▁vuur	-9.67047
▁media	-9.67126
▁noemde	-9.67212
▁fr	-9.6731
bed	-9.6734
▁wa	-9.67343
▁31	-9.67374
▁gedeelte	-9.67489
▁betreft	-9.67514
▁oranje	-9.67514
▁fiets	-9.67524
rei	-9.676
rac	-9.67835
▁opleiding	-9.67865
▁kla	-9.67865
▁mat	-9.67873
▁sterren	-9.67875
▁29	-9.67933
="9	-9.67934
ijs	-9.68004
ini	-9.68018
▁kinder	-9.68041
▁aanzienlijk	-9.68074
▁schepen	-9.68085
▁cd	-9.68121
▁sindsdien	-9.6817
prijs	-9.68254
middel	-9.68274
▁ronde	-9.68281
heer	-9.68373
▁schilder	-9.68395
zee	-9.68574
bie	-9.68584
▁y	-9.68609
fic	-9.68693
▁finale	-9.68756
▁hol	-9.68773
ii	-9.6881
▁verbinding	-9.68906
▁verleden	-9.68944
▁zware	-9.68963
▁80	-9.6901
▁maria	-9.69043
▁schaal	-9.69153
▁berlijn	-9.69194
▁wal	-9.69294
tuur	-9.69295
ther	-9.69308
▁begint	-9.69361
▁televisie	-9.69413
▁filosofie	-9.69436
▁kamp	-9.69452
hol	-9.6972
▁weten	-9.69741
▁stroom	-9.6975
▁verloor	-9.69802
ó	-9.69848
▁bewijs	-9.70015
sten	-9.7014
▁oorlogs	-9.70151
hof	-9.70175
ana	-9.70239
ji	-9.70262
31	-9.70346
oren	-9.70393
▁raakte	-9.70435
▁zichtbaar	-9.70467
cent	-9.70498
pan	-9.70501
▁geest	-9.7052
▁sal	-9.70575
gu	-9.70598
mat	-9.70651
▁eeuwen	-9.70656
▁qua	-9.70661
09	-9.70701
bin	-9.70818
▁theater	-9.70839
▁daarin	-9.70862
vang	-9.70901
▁gouden	-9.70949
▁maakten	-9.70961
”	-9.71071
▁constantijn	-9.71077
▁verhouding	-9.71087
aard	-9.71162
02	-9.71184
▁em	-9.71199
▁thema	-9.71216
llen	-9.7122
▁gesloten	-9.71252
trekken	-9.71259
▁genoeg	-9.71284
▁mol	-9.71304
▁1945	-9.71322
ere	-9.71392
▁overige	-9.7142
ns	-9.7143
▁effect	-9.7144
▁methode	-9.71444
▁winter	-9.71501
proces	-9.71507
▁gevolgd	-9.71689
▁christus	-9.71714
hoofd	-9.71751
28	-9.71828
▁rechten	-9.71923
▁70	-9.72022
▁diens	-9.72027
▁spreken	-9.72045
▁vogel	-9.72131
▁christendom	-9.72144
aten	-9.72187
stan	-9.72187
▁luxemburg	-9.72357
▁rotterdam	-9.72357
ian	-9.72396
lli	-9.72434
amb	-9.72501
▁wereldwijd	-9.72503
ow	-9.7255
gon	-9.72555
▁winkel	-9.72615
▁verkocht	-9.72684
▁schrijver	-9.72698
iën	-9.72757
▁openbaar	-9.7278
▁vroeger	-9.72785
uil	-9.72837
alisme	-9.7284
▁ple	-9.72853
ien	-9.729
▁probleem	-9.72919
▁trein	-9.72942
▁bra	-9.72963
▁lager	-9.72965
▁ag	-9.73073
houder	-9.73122
leider	-9.73195
▁vergelijking	-9.73296
▁verkeer	-9.73345
▁provincies	-9.73379
ric	-9.73403
▁weken	-9.73413
aak	-9.73414
▁bepalen	-9.73443
can	-9.73489
sc	-9.73639
markt	-9.73657
▁chemische	-9.73751
▁buurt	-9.7377
▁hoek	-9.73775
los	-9.73915
▁bodem	-9.73923
oever	-9.73924
roep	-9.74044
▁overlijden	-9.74141
▁2021	-9.74146
ros	-9.74155
▁schrift	-9.74274
gebieden	-9.74288
▁toepassingen	-9.74308
▁eigenlijk	-9.74317
▁regen	-9.74336
▁bewaard	-9.74375
▁kor	-9.74396
▁stoffen	-9.7454
woord	-9.74552
▁doet	-9.74666
war	-9.74667
▁regels	-9.74749
laat	-9.74754
▁windows	-9.74759
park	-9.74763
dieren	-9.74765
▁olie	-9.74769
▁super	-9.74806
▁gekomen	-9.74943
▁doorgaans	-9.74993
▁vereniging	-9.75097
▁comp	-9.75116
▁probeerde	-9.75157
wal	-9.75198
▁gebeurtenissen	-9.75214
▁trekken	-9.7523
▁1994	-9.75234
let	-9.75263
vaart	-9.75403
▁toegevoegd	-9.75438
tion	-9.75494
ran	-9.75561
▁oudere	-9.75584
▁(1	-9.75638
▁fe	-9.75647
niet	-9.75667
▁specht	-9.75667
stellen	-9.75749
06	-9.75762
▁gang	-9.75809
neu	-9.75845
▁milieu	-9.7587
▁david	-9.7587
▁stelling	-9.75875
▁bleven	-9.75934
▁waterstof	-9.75935
▁gericht	-9.75976
▁tour	-9.7602
▁rijks	-9.76137
▁uitgebracht	-9.76172
▁amerika	-9.76215
▁opera	-9.76218
▁nauwelijks	-9.76318
▁vs	-9.76392
zetten	-9.76399
cor	-9.76509
▁reis	-9.76553
▁wegens	-9.76571
▁spinnen	-9.76595
ket	-9.76597
▁albert	-9.767
▁ber	-9.76725
kort	-9.76746
line	-9.76756
▁besloten	-9.76768
▁software	-9.76848
qui	-9.76864
ois	-9.76898
dia	-9.769
cur	-9.76953
stijl	-9.7696
▁doden	-9.76964
▁koninklijke	-9.76979
▁team	-9.77003
cus	-9.77052
kunst	-9.77166
▁verzet	-9.77216
▁rand	-9.77228
▁oplossing	-9.77264
▁ontstonden	-9.7728
bor	-9.77386
▁product	-9.7741
tica	-9.77418
▁za	-9.77422
zin	-9.77445
getrokken	-9.77476
▁peter	-9.77508
band	-9.77511
tru	-9.77593
cijfer	-9.77638
▁george	-9.77705
zoals	-9.77896
▁kerken	-9.78018
▁verklaring	-9.78079
▁bereiken	-9.7814
▁wedstrijd	-9.78147
▁westelijke	-9.78161
▁1995	-9.78164
int	-9.78231
▁bre	-9.78306
zuur	-9.78317
▁nauw	-9.78419
▁gregoriaanse	-9.78437
zien	-9.78458
rum	-9.78499
bos	-9.78529
hou	-9.78553
▁wonen	-9.78555
▁gro	-9.78623
▁gra	-9.7868
▁klooster	-9.78745
▁gezin	-9.78765
▁respectievelijk	-9.78818
▁leider	-9.78904
▁plek	-9.78913
▁metaal	-9.78918
▁lopen	-9.78931
hoek	-9.78942
▁voldoende	-9.78944
▁cal	-9.78951
▁continent	-9.78981
▁wij	-9.79022
▁william	-9.79048
▁cre	-9.79066
ung	-9.7914
▁streek	-9.79199
gelegd	-9.79224
▁mark	-9.79257
uc	-9.79259
▁gemiddeld	-9.79311
▁bond	-9.79334
xi	-9.79469
▁zullen	-9.79516
zon	-9.79545
▁haarlem	-9.79583
og	-9.797
mu	-9.79712
▁islam	-9.79713
▁os	-9.7973
▁toepassing	-9.79753
▁heen	-9.79755
▁wapen	-9.79786
▁zand	-9.79791
▁gemeenteraad	-9.79831
ice	-9.7986
▁internet	-9.79868
▁instrument	-9.799
▁zonne	-9.79988
bijvoorbeeld	-9.79992
▁pal	-9.80032
08	-9.80061
one	-9.80074
▁vlaams	-9.8009
▁culturele	-9.80208
▁model	-9.80354
▁richtte	-9.80444
▁geweld	-9.80447
▁rivieren	-9.80515
▁mer	-9.80538
▁aangenomen	-9.80567
partij	-9.80623
door	-9.80632
▁terecht	-9.80683
teren	-9.80694
▁ideeën	-9.80695
▁kost	-9.80736
▁strip	-9.8075
holland	-9.80756
wit	-9.80802
▁ban	-9.80815
▁resultaat	-9.80868
▁wiskundige	-9.80914
gebouw	-9.80926
▁ik	-9.80936
toren	-9.80939
▁ur	-9.80944
iger	-9.80952
▁mon	-9.81137
▁hendrik	-9.81146
▁gepubliceerd	-9.81147
▁mocht	-9.81173
▁openbare	-9.81194
▁besluit	-9.81207
▁verplicht	-9.81219
▁aanleiding	-9.81324
ara	-9.81365
▁gar	-9.81413
▁zit	-9.81417
school	-9.81448
▁vrijheid	-9.81463
wapen	-9.81531
beek	-9.81563
gegeven	-9.81584
▁geschikt	-9.81619
▁godsdienst	-9.81641
▁stelt	-9.81641
ple	-9.81655
▁2022	-9.81666
pri	-9.81667
▁gezag	-9.81712
▁broed	-9.81753
▁verre	-9.81812
▁gerekend	-9.81816
▁stierf	-9.81874
▁feest	-9.81901
ble	-9.81929
▁verlaten	-9.81938
lip	-9.81944
▁ring	-9.82009
brand	-9.82013
05	-9.8202
isering	-9.82118
dro	-9.82218
chem	-9.82245
vaar	-9.82265
tz	-9.82279
▁houdt	-9.82309
▁gehad	-9.82336
▁wetten	-9.82359
dienst	-9.82389
and	-9.82396
▁zorgde	-9.82476
landen	-9.82505
nc	-9.82506
▁veelal	-9.8251
iërs	-9.82535
▁gebleven	-9.8257
tuig	-9.82642
breken	-9.8272
oom	-9.8274
▁gewonnen	-9.82809
▁bouwen	-9.82848
stein	-9.82895
arm	-9.82902
▁sto	-9.82932
▁echt	-9.83003
▁bevatten	-9.83109
▁ontving	-9.8312
▁zwe	-9.8323
▁bloei	-9.8329
matig	-9.83377
▁kro	-9.83433
lopen	-9.83453
▁zwart	-9.83463
▁geluids	-9.8348
▁gere	-9.83481
▁mogelijke	-9.83507
leiding	-9.83531
generaal	-9.83632
ight	-9.83659
▁carrière	-9.83759
gebracht	-9.83767
waarts	-9.83817
lus	-9.83871
▁vonden	-9.83928
din	-9.83989
▁beschikbaar	-9.84014
▁benaming	-9.84015
iers	-9.84038
ë	-9.84066
▁grootte	-9.84171
▁bedrijf	-9.84258
▁legde	-9.84291
oli	-9.84402
▁romeinen	-9.84502
▁kunstenaars	-9.84507
▁zitten	-9.84611
▁arts	-9.84673
raden	-9.84675
▁fl	-9.84688
oud	-9.84695
az	-9.8471
▁hierin	-9.84834
▁actie	-9.8484
gh	-9.84876
naar	-9.84913
wisseling	-9.84955
▁turkije	-9.84988
▁elektrische	-9.84997
gevoerd	-9.85021
▁vlucht	-9.85028
erde	-9.85089
▁aanwezigheid	-9.85129
▁stam	-9.85161
kar	-9.85163
▁specifieke	-9.85194
gaande	-9.85206
iti	-9.85227
▁chinese	-9.85234
▁keerde	-9.85243
bol	-9.85363
▁latijnse	-9.85395
▁echte	-9.854
▁straf	-9.85436
bestuur	-9.85651
▁jong	-9.85684
fen	-9.8571
▁bezocht	-9.85725
▁1998	-9.85762
gor	-9.85797
echt	-9.85822
▁straling	-9.8583
gebruik	-9.85838
aliteit	-9.85859
pu	-9.85888
▁liefde	-9.85888
▁ouder	-9.85962
▁financiële	-9.85972
lui	-9.86187
▁kaart	-9.86236
▁samenleving	-9.86244
▁eenvoudig	-9.86274
▁huid	-9.86315
yo	-9.86337
rat	-9.86402
▁vertaling	-9.86423
▁kies	-9.86428
▁col	-9.86434
dal	-9.86478
▁bin	-9.86533
oog	-9.86569
▁gele	-9.86579
gin	-9.86582
pot	-9.86619
ong	-9.86641
▁dier	-9.86672
▁gebeurt	-9.86716
▁volwassen	-9.86717
▁studenten	-9.86727
▁can	-9.8673
loze	-9.86747
▁denken	-9.86775
▁ser	-9.8681
▁hemel	-9.86812
▁stammen	-9.86821
▁vlieg	-9.86841
sign	-9.86941
ges	-9.86963
▁arnhem	-9.86966
▁werking	-9.86979
07	-9.86999
▁merk	-9.87001
ouder	-9.87016
▁test	-9.87061
▁ouders	-9.87067
▁bol	-9.87075
god	-9.87135
▁stil	-9.87313
klo	-9.87342
bra	-9.87417
_2	-9.87437
▁1999	-9.87502
▁zorgen	-9.87506
wegen	-9.87518
▁slotte	-9.87542
▁overwinning	-9.87565
▁alfabet	-9.87589
ters	-9.87663
nummer	-9.8767
zer	-9.87691
vorming	-9.87773
▁willen	-9.8786
▁oudheid	-9.87934
▁ontvangen	-9.8797
▁ontwikkelen	-9.87977
zel	-9.8808
▁scholen	-9.88104
industrie	-9.88111
▁zoek	-9.88153
bil	-9.88178
port	-9.88198
rot	-9.88234
▁gegevens	-9.88266
dt	-9.88357
cu	-9.88375
▁bijzondere	-9.88385
dijk	-9.88444
▁pra	-9.88456
▁rust	-9.88509
roe	-9.88554
hit	-9.88622
cla	-9.88624
isatie	-9.88671
▁volledige	-9.88674
▁atoom	-9.88689
▁dia	-9.88692
gemeente	-9.88705
▁bereikte	-9.88729
lem	-9.88732
▁vermogen	-9.8886
ola	-9.88884
▁long	-9.88905
▁ana	-9.88918
▁iv	-9.89007
▁genaamd	-9.89108
▁rondom	-9.89153
▁zei	-9.89193
▁enorme	-9.89259
▁fout	-9.89342
▁toestand	-9.89414
graven	-9.89419
▁kende	-9.89524
▁vormde	-9.89555
lan	-9.89597
▁fu	-9.89663
ora	-9.89667
mes	-9.89688
▁dragen	-9.89727
vlucht	-9.89789
▁behaalde	-9.89801
▁dient	-9.89828
▁buitenland	-9.89875
ano	-9.89978
▁eten	-9.90007
brabant	-9.90009
ink	-9.9001
lim	-9.90022
▁noordzee	-9.90048
▁horen	-9.90071
vormen	-9.90077
ouw	-9.90084
ey	-9.90127
wier	-9.90131
▁gebouwen	-9.90138
▁lama	-9.90144
blad	-9.90285
▁burgers	-9.90296
▁tonen	-9.90339
▁moord	-9.90524
▁toenmalige	-9.90538
▁1980	-9.90567
▁mel	-9.90623
▁hor	-9.90705
▁mogelijkheid	-9.90709
▁gre	-9.90779
▁ontwerp	-9.90783
▁denemarken	-9.90783
▁publiceerde	-9.90786
era	-9.90804
grens	-9.9084
vest	-9.90899
▁zette	-9.90919
kamer	-9.90992
▁wijk	-9.91018
▁isotopen	-9.91037
snelheid	-9.91092
▁twintigste	-9.91107
▁bor	-9.91175
werp	-9.9123
▁iedereen	-9.91312
▁beschrijving	-9.91356
meter	-9.91371
stuk	-9.91372
▁vliegen	-9.91378
▁wezen	-9.91395
tatie	-9.91418
▁br	-9.91496
▁beginnen	-9.91529
▁brug	-9.91535
▁arabische	-9.91539
▁canada	-9.91568
code	-9.9158
▁brief	-9.91592
▁leg	-9.91603
kijk	-9.91627
▁munt	-9.9164
▁grondgebied	-9.91652
▁ger	-9.91695
▁gevolgen	-9.91718
rang	-9.91823
▁atmosfeer	-9.91826
▁geproduceerd	-9.91826
▁vóór	-9.91826
▁kasteel	-9.91828
ill	-9.91879
▁mond	-9.92019
zame	-9.92048
all	-9.92077
richting	-9.92108
stroom	-9.92201
▁naties	-9.92212
katholieke	-9.92257
▁overeen	-9.9227
rik	-9.9233
anc	-9.92334
▁lagen	-9.92345
cri	-9.92346
▁discussie	-9.92352
zelfde	-9.92358
▁regional	-9.92376
log	-9.92404
bas	-9.9241
machine	-9.92413
▁kom	-9.92498
top	-9.92556
▁jean	-9.92561
▁poly	-9.92574
▁gebouw	-9.92587
put	-9.92588
▁straat	-9.92676
europese	-9.92684
▁droeg	-9.92712
▁plu	-9.92738
▁sche	-9.92767
communistische	-9.92793
▁°	-9.928
▁omstandigheden	-9.92817
vrij	-9.92831
▁mogen	-9.92844
▁schrikkeljaar	-9.9288
▁martin	-9.9293
▁verval	-9.92967
lij	-9.93097
-18	-9.93134
▁aangetroffen	-9.93146
▁lodewijk	-9.93146
▁minuten	-9.93147
ctor	-9.93183
▁1960	-9.93191
assi	-9.93256
lia	-9.9331
achtig	-9.93391
gemaakt	-9.93399
▁verwant	-9.93406
▁rock	-9.9341
▁irak	-9.93456
▁twintig	-9.93459
kan	-9.93478
pol	-9.93506
▁planeet	-9.93509
gelaten	-9.93527
▁vers	-9.93595
▁britten	-9.93679
▁caesar	-9.93679
▁voerde	-9.9379
zing	-9.93794
▁you	-9.93794
▁mal	-9.93815
zicht	-9.93854
▁conflict	-9.93855
▁kleiner	-9.93869
▁red	-9.93902
-16	-9.93961
nieuw	-9.93979
riet	-9.94047
vereniging	-9.94073
ces	-9.94075
kleur	-9.94122
03	-9.94148
kop	-9.94218
▁soldaten	-9.94241
actie	-9.94338
red	-9.9442
▁luther	-9.94499
▁helemaal	-9.94506
rand	-9.9451
▁onderwerp	-9.94588
▁opkomst	-9.94632
▁neo	-9.94673
uel	-9.94677
sur	-9.94699
▁gemakkelijk	-9.94752
▁beschikt	-9.94752
iseren	-9.94756
▁tijden	-9.94769
zend	-9.9477
▁schade	-9.94775
hoe	-9.9495
▁papier	-9.94982
▁(16	-9.95054
▁collectie	-9.95056
▁1996	-9.95063
▁machine	-9.95239
middelen	-9.95244
▁egyptische	-9.95294
▁jeruzalem	-9.95327
▁pol	-9.95328
▁achtergrond	-9.95335
icus	-9.954
categorie	-9.95428
▁mont	-9.95449
lid	-9.95494
▁gezet	-9.95498
ott	-9.95538
▁sha	-9.95556
ben	-9.95628
▁slecht	-9.95639
▁iran	-9.95659
toon	-9.95694
richt	-9.95749
verkiezing	-9.95788
▁vermoedelijk	-9.95893
▁schrijvers	-9.95895
kundige	-9.95904
regel	-9.95935
schrift	-9.95967
▁leggen	-9.9598
▁micro	-9.96065
▁boeren	-9.96093
▁elf	-9.96109
▁scha	-9.96157
dis	-9.9617
▁plannen	-9.96184
▁jongen	-9.96271
▁koolstof	-9.96385
▁wegen	-9.96403
▁fran	-9.96436
▁sprak	-9.96437
▁stonden	-9.96442
▁producten	-9.96466
▁gewest	-9.9648
bl	-9.96508
▁klasse	-9.96537
▁rood	-9.96544
leer	-9.9657
▁indien	-9.9662
▁james	-9.96696
▁onze	-9.96722
▁inhoud	-9.96725
▁ir	-9.96804
▁nummers	-9.96872
▁spelers	-9.96955
mans	-9.96959
▁1993	-9.96972
rel	-9.96977
▁warmte	-9.97019
sport	-9.97073
▁vijfde	-9.97147
wacht	-9.97173
▁geopend	-9.9722
mun	-9.97382
▁techniek	-9.97405
wortel	-9.97493
▁architect	-9.97512
▁object	-9.97525
script	-9.97526
leggen	-9.97539
▁geleidelijk	-9.97565
▁pat	-9.97579
ero	-9.9763
nder	-9.97864
ani	-9.97915
▁australië	-9.97941
werking	-9.98011
▁industriële	-9.98045
▁precies	-9.98045
▁veroordeeld	-9.98045
▁gezondheid	-9.98074
▁auteur	-9.9818
rus	-9.98224
geschiedenis	-9.98248
groei	-9.98333
productie	-9.98352
dien	-9.98375
itz	-9.98379
▁klank	-9.98391
▁cm	-9.98419
groepen	-9.98438
▁national	-9.98443
▁landschap	-9.98523
our	-9.98535
album	-9.98547
▁koper	-9.98577
▁dubbel	-9.9865
cellen	-9.98705
pos	-9.98756
▁overgang	-9.988
kamp	-9.9886
▁brak	-9.98864
▁beurt	-9.98892
▁groene	-9.98927
▁1970	-9.98931
▁ingevoerd	-9.98944
logie	-9.98977
▁analyse	-9.99038
kom	-9.99135
graaf	-9.99144
▁coalitie	-9.99167
▁stichting	-9.99169
▁wiskunde	-9.9917
ib	-9.99272
ance	-9.99364
rk	-9.99372
rekening	-9.99372
▁toernooi	-9.99392
▁reken	-9.99417
▁verdwenen	-9.99449
gekomen	-9.99452
▁str	-9.99458
▁bed	-9.99458
▁lichaams	-9.9946
▁vak	-9.99592
▁1000	-9.99631
lis	-9.99649
▁zetel	-9.99656
eeuwse	-9.99657
aanse	-9.9967
▁mijn	-9.99684
▁graaf	-9.99704
▁evolutie	-9.99732
gy	-9.99915
zeg	-10.0012
lijnen	-10.0013
▁bericht	-10.0014
▁verboden	-10.0022
functie	-10.0027
▁frequentie	-10.0028
▁oppervlak	-10.0028
▁functies	-10.0033
tekening	-10.0037
pers	-10.0038
▁ridder	-10.0059
▁diende	-10.006
▁diep	-10.0061
steden	-10.0062
haal	-10.0075
loog	-10.0075
▁plat	-10.0081
dor	-10.0086
▁hierop	-10.0088
▁+	-10.0104
▁generaal	-10.0104
hon	-10.0109
▁lagere	-10.0111
gesteld	-10.0113
▁concentratie	-10.0114
kool	-10.0114
brug	-10.0116
yn	-10.0116
▁rug	-10.0118
▁kwa	-10.0118
voornaamste	-10.0119
▁vermoord	-10.0121
▁mythologie	-10.0127
soort	-10.0137
▁gat	-10.0138
titel	-10.0138
▁beroep	-10.0142
▁(3	-10.0148
▁tal	-10.0148
▁bewegen	-10.016
mate	-10.0161
▁sn	-10.0171
▁don	-10.0173
aties	-10.0183
▁bek	-10.0185
station	-10.0186
▁generatie	-10.0189
▁bl	-10.0192
jan	-10.0194
organisatie	-10.0198
▁blad	-10.0199
▁protest	-10.0204
▁luchthaven	-10.0204
▁winnen	-10.0205
▁dertig	-10.0208
▁1950	-10.0226
▁troon	-10.0232
techniek	-10.0233
▁90	-10.0243
▁spoorweg	-10.0249
zone	-10.0251
0%	-10.0261
▁rechtstreeks	-10.0261
▁kwaliteit	-10.0263
▁overleden	-10.0265
▁linker	-10.0269
diep	-10.028
sverkiezingen	-10.0291
cher	-10.0296
▁speel	-10.0296
▁werkelijkheid	-10.0297
▁erop	-10.0304
▁deeltjes	-10.0304
▁zorgt	-10.0309
▁concert	-10.0309
▁islamitische	-10.0315
▁us	-10.0318
lar	-10.0319
▁plant	-10.0319
▁sporen	-10.032
▁omstreeks	-10.032
▁voorkeur	-10.032
▁toren	-10.032
▁grenzen	-10.0327
▁brugge	-10.0332
▁prof	-10.0333
ort	-10.0335
▁metro	-10.0339
hor	-10.034
▁maatschappij	-10.034
▁aangelegd	-10.0344
▁bus	-10.0347
▁controle	-10.0349
▁zu	-10.0355
▁leidt	-10.0364
▁arm	-10.0367
dracht	-10.0373
▁fer	-10.0376
▁premier	-10.0379
▁behandeling	-10.0379
▁charles	-10.038
▁bri	-10.0382
steen	-10.0383
baan	-10.0384
▁verlies	-10.0385
▁1940	-10.0385
▁europees	-10.0387
loo	-10.0401
▁verklaarde	-10.0404
kanaal	-10.041
▁overgenomen	-10.0415
▁activiteiten	-10.0417
▁rit	-10.0417
tic	-10.0422
▁fransen	-10.0422
▁dom	-10.043
▁chi	-10.0434
▁renaissance	-10.0438
▁uitspraak	-10.0439
stal	-10.0445
olympische	-10.0457
▁ac	-10.0458
▁code	-10.046
dicht	-10.0461
▁keren	-10.0465
▁oorzaak	-10.0468
vloei	-10.0468
ander	-10.047
▁vertaald	-10.0471
▁verklaard	-10.0472
▁hertog	-10.0477
▁bur	-10.0477
▁niets	-10.048
▁bergen	-10.0481
▁weerstand	-10.0482
erij	-10.0485
▁ti	-10.0487
▁overzicht	-10.0489
▁oprichting	-10.0491
▁vliegtuig	-10.0492
my	-10.0496
▁speciaal	-10.0497
▁federale	-10.0498
▁stukken	-10.05
▁werkt	-10.0503
ille	-10.0512
▁leverde	-10.0517
▁fort	-10.0522
▁complex	-10.0526
▁immers	-10.0528
▁halve	-10.0535
▁economisch	-10.0538
▁veranderde	-10.0539
▁boom	-10.0544
▁bezoek	-10.055
▁bisschop	-10.0554
stij	-10.0556
▁ingezet	-10.0556
▁1992	-10.0562
stukken	-10.0562
▁burger	-10.0565
▁haalde	-10.0572
▁ofwel	-10.0572
▁2,	-10.0573
▁stap	-10.0577
anse	-10.0579
klasse	-10.058
positie	-10.0582
rechten	-10.0584
▁koffie	-10.0586
▁pvda	-10.0587
▁risico	-10.0588
eenheid	-10.0589
ax	-10.0589
ua	-10.059
▁1944	-10.0592
hang	-10.0596
▁kat	-10.0598
▁ol	-10.0599
▁paarden	-10.0601
▁zoogdieren	-10.0602
▁han	-10.0602
▁neder	-10.0607
mos	-10.0624
grote	-10.0628
▁commissie	-10.0629
▁avond	-10.0629
▁motor	-10.0629
huizen	-10.0633
▁rang	-10.0639
-1	-10.0642
hard	-10.0643
▁locatie	-10.0646
inter	-10.0648
▁anderzijds	-10.0648
▁biografie	-10.0649
▁meet	-10.0656
▁gold	-10.0659
▁louis	-10.066
▁lijken	-10.0667
ico	-10.0667
vig	-10.0676
▁joseph	-10.0678
lige	-10.0678
▁bereid	-10.068
▁art	-10.068
▁vastgelegd	-10.0681
▁directe	-10.0684
+	-10.0689
▁priester	-10.069
neem	-10.0692
▁spoor	-10.0696
sis	-10.0697
▁wijn	-10.071
▁eindhoven	-10.0711
▁verwoest	-10.0713
▁robert	-10.0714
▁leek	-10.0721
schilder	-10.0728
▁duurde	-10.0729
kon	-10.073
▁wenen	-10.0734
▁oostelijke	-10.0736
▁christenen	-10.0736
▁literaire	-10.0741
▁war	-10.0741
▁terrein	-10.0748
▁(2	-10.0752
▁web	-10.0753
ino	-10.0754
▁wilden	-10.0755
▁koude	-10.0757
▁kwart	-10.0758
▁va	-10.0763
▁grieken	-10.0766
▁noemt	-10.077
duits	-10.0774
▁griekenland	-10.0774
▁elektron	-10.0777
teerd	-10.078
ng	-10.0786
ox	-10.0788
▁hal	-10.0788
▁vriend	-10.0812
spanning	-10.0819
▁pers	-10.0822
orde	-10.084
zijn	-10.0841
mont	-10.0845
doen	-10.0849
▁communicatie	-10.0851
maat	-10.0851
▁record	-10.086
▁gekregen	-10.0863
type	-10.0866
▁metalen	-10.0878
ula	-10.0884
▁persoonlijke	-10.0885
schat	-10.0887
5.000	-10.0894
su	-10.0895
▁historisch	-10.0895
▁films	-10.0898
▁hieronder	-10.0903
▁late	-10.091
waard	-10.0915
▁bot	-10.0916
▁1997	-10.0929
ali	-10.0943
▁mari	-10.0944
tis	-10.095
▁richard	-10.0956
▁instantie	-10.0957
▁betekende	-10.0957
▁goederen	-10.0958
▁1989	-10.096
lok	-10.0961
ique	-10.0964
plaatsen	-10.0965
niveau	-10.0972
straling	-10.0979
▁kristal	-10.098
▁kosten	-10.0981
▁tram	-10.0988
▁langzaam	-10.0989
▁donau	-10.099
▁geo	-10.1
baarheid	-10.1001
▁trouwde	-10.1007
▁constant	-10.1013
sfeer	-10.1021
haven	-10.1023
fra	-10.1025
▁tennis	-10.1031
▁letters	-10.1037
▁zijde	-10.1039
geslagen	-10.104
motor	-10.1042
▁grieks	-10.1043
▁omvat	-10.1048
▁1991	-10.1055
bron	-10.1059
▁erkend	-10.1066
▁poging	-10.1071
2)	-10.1074
▁kader	-10.1077
▁anton	-10.1078
rijn	-10.1079
▁vielen	-10.108
▁tegelijkertijd	-10.1082
▁bezetting	-10.1083
▁aangepast	-10.1089
▁halen	-10.1091
▁verliet	-10.1091
kundig	-10.1092
▁schip	-10.1093
▁duizenden	-10.1095
▁populaire	-10.1095
▁destijds	-10.1115
▁gehoor	-10.1116
komt	-10.1126
2%	-10.113
vlaanderen	-10.1138
▁gedeeltelijk	-10.1145
▁telefoon	-10.1146
graad	-10.1147
ath	-10.1152
geheten	-10.1158
▁mening	-10.1167
enburg	-10.1168
▁tijdelijk	-10.1171
ell	-10.1178
▁uitsluitend	-10.1178
bit	-10.118
▁zestig	-10.118
bank	-10.118
▁front	-10.1185
elle	-10.1189
▁vormden	-10.1195
gevallen	-10.1198
fabriek	-10.1203
chemie	-10.1204
▁succesvol	-10.1205
▁bier	-10.1207
▁bedraagt	-10.121
▁zat	-10.1211
▁verspreiding	-10.1219
maar	-10.1219
link	-10.122
▁som	-10.1224
geschreven	-10.1231
oost	-10.1239
rivier	-10.1239
▁operatie	-10.1243
▁cijfers	-10.1247
▁beroemde	-10.125
rijp	-10.1254
▁aparte	-10.1254
▁beheer	-10.1262
cc	-10.1266
vloed	-10.1267
▁sluiten	-10.1274
zelf	-10.1278
hy	-10.1281
▁scherp	-10.1284
▁vorming	-10.1289
tak	-10.1293
▁char	-10.1302
▁toegekend	-10.1307
▁jacob	-10.1307
▁dollar	-10.1307
norm	-10.1308
▁vastgesteld	-10.1308
oven	-10.131
▁paleis	-10.1311
nik	-10.1316
mor	-10.1318
▁samenstelling	-10.1319
boeken	-10.132
▁definitief	-10.1325
▁meteen	-10.1331
▁kanaal	-10.1331
▁schatting	-10.1339
▁sar	-10.1348
wiel	-10.1351
▁israëlische	-10.1353
▁voordeel	-10.1353
3%	-10.1353
▁dienen	-10.1354
▁concept	-10.1357
▁japanse	-10.136
▁voorkomt	-10.136
korea	-10.137
verkeer	-10.1371
▁leopold	-10.1372
wijken	-10.1372
azië	-10.1372
bus	-10.1379
▁militair	-10.1379
▁nieuws	-10.1383
▁cap	-10.1384
pho	-10.1391
gaat	-10.1393
▁hit	-10.1396
schappen	-10.14
▁onderverdeeld	-10.1404
gegaan	-10.1407
▁stalin	-10.1408
▁dal	-10.1416
deling	-10.1418
▁nederlanders	-10.1426
plein	-10.1427
▁sloot	-10.1427
▁eth	-10.1437
▁darwin	-10.1437
▁bieden	-10.1438
▁saint	-10.1442
▁otto	-10.1442
-2	-10.146
▁bewoners	-10.1461
▁binnenstad	-10.1461
inus	-10.1464
mal	-10.1465
▁uitbreiding	-10.147
▁noemen	-10.147
▁veranderen	-10.147
▁telde	-10.1471
zy	-10.1473
▁azië	-10.1473
rad	-10.1474
zuid	-10.1476
▁versterkt	-10.1476
▁gesticht	-10.1479
▁hoogtepunt	-10.1482
oord	-10.1486
▁duur	-10.1487
lei	-10.1496
▁hall	-10.1498
▁kolonie	-10.1505
▁[	-10.1508
▁monument	-10.1509
wan	-10.151
kru	-10.1511
mens	-10.153
chu	-10.153
jaren	-10.1532
▁germaanse	-10.1534
▁brazilië	-10.1536
▁testament	-10.1536
▁terugkeer	-10.154
▁(17	-10.1541
▁afdeling	-10.1546
ijnen	-10.1547
hr	-10.155
rt	-10.1558
maker	-10.1559
rol	-10.1562
▁paard	-10.1567
▁vvd	-10.1571
vier	-10.1573
▁bla	-10.1575
gro	-10.1582
brengen	-10.1583
▁sociaal	-10.1587
▁dijk	-10.1594
▁zout	-10.1598
ré	-10.1605
project	-10.1606
▁poolse	-10.1614
zorg	-10.1615
logen	-10.1618
cho	-10.1624
ade	-10.1629
ement	-10.1629
▁transport	-10.1631
kern	-10.1631
▁platen	-10.1632
hout	-10.1632
apo	-10.1633
▁turkse	-10.1636
▁thomas	-10.1636
▁vijftien	-10.1637
▁eco	-10.1637
ografie	-10.1638
▁sym	-10.1639
▁sneller	-10.1646
▁maal	-10.1646
scherm	-10.1647
▁schijn	-10.1658
som	-10.1661
▁bezet	-10.1664
▁einstein	-10.167
uch	-10.1671
▁droog	-10.1671
old	-10.1673
▁pot	-10.1673
nomen	-10.1674
pr	-10.1674
och	-10.1675
▁aller	-10.168
▁ziet	-10.1683
▁ob	-10.1692
▁carl	-10.1692
waarde	-10.1698
▁aanleg	-10.1701
geld	-10.1702
▁bestand	-10.1703
▁nauwkeurig	-10.1703
▁toekomst	-10.1704
▁atomen	-10.1706
▁alpen	-10.1707
▁1939	-10.1708
500	-10.1709
▁ijsland	-10.1711
vormige	-10.1712
▁tak	-10.1714
acteur	-10.1718
▁bescherming	-10.172
wijze	-10.172
ili	-10.1724
▁ros	-10.1724
▁koe	-10.1726
▁international	-10.1726
▁bet	-10.1728
vrucht	-10.1733
▁redenen	-10.1735
▁kiezen	-10.1737
▁burgeroorlog	-10.1738
▁speler	-10.1738
')	-10.1739
phi	-10.1742
bon	-10.1742
▁auteurs	-10.1748
▁java	-10.175
iële	-10.1752
▁gewone	-10.1752
▁snelle	-10.1754
▁nest	-10.1756
▁gelden	-10.1759
%	-10.176
▁dialect	-10.176
hul	-10.1762
▁taak	-10.1763
ith	-10.1767
rische	-10.1767
▁koers	-10.1768
▁microsoft	-10.1771
▁suriname	-10.1771
▁noodzakelijk	-10.1771
▁ingedeeld	-10.1771
▁ierland	-10.1771
▁zwitserland	-10.1772
west	-10.1773
poort	-10.1784
▁wijzen	-10.1786
gers	-10.1789
▁wens	-10.1792
▁adel	-10.1796
lank	-10.1796
▁godin	-10.1798
▁waaruit	-10.18
ante	-10.18
▁uiterst	-10.18
▁cda	-10.1803
▁500	-10.1803
▁freud	-10.1805
▁daarentegen	-10.1805
▁ss	-10.1806
▁piano	-10.1806
gericht	-10.1807
▁toneel	-10.1807
▁publieke	-10.181
▁mono	-10.1813
ologisch	-10.1815
▁marx	-10.1819
▁verwacht	-10.1819
▁live	-10.1821
▁vaker	-10.183
grepen	-10.1832
▁bevestigd	-10.1839
cl	-10.1839
▁sector	-10.184
▁woon	-10.184
▁beschermd	-10.1847
▁bewind	-10.1848
▁(15	-10.1848
heen	-10.1854
▁voorstel	-10.1856
▁netwerk	-10.1856
▁tim	-10.1859
molen	-10.1865
▁honderd	-10.1867
▁verbindingen	-10.1869
▁zelfstandig	-10.187
mijn	-10.1873
▁tientallen	-10.1874
▁complexe	-10.1876
▁levende	-10.1879
▁verslagen	-10.1884
▁dorpen	-10.1885
vul	-10.1887
dorp	-10.1891
▁solo	-10.1892
ria	-10.1894
▁gebeurde	-10.1903
▁arbeiders	-10.1911
▁dam	-10.1912
▁1982	-10.1913
onderzoek	-10.1919
chen	-10.1924
rm	-10.1925
▁kerst	-10.1926
▁vroegere	-10.194
▁gast	-10.1941
▁provinciale	-10.1942
▁gelegd	-10.1943
club	-10.1947
▁gla	-10.1948
▁ambt	-10.1949
maatschappij	-10.1953
centra	-10.1957
▁begraven	-10.1958
▁ontdekte	-10.1959
▁act	-10.1963
▁200	-10.197
▁bel	-10.1972
▁modern	-10.1974
▁beneden	-10.1977
structuur	-10.1988
meester	-10.1992
pon	-10.1993
▁traditioneel	-10.2012
officier	-10.2012
▁individuele	-10.2013
▁ministerie	-10.2013
▁afgebeeld	-10.2014
kaart	-10.2015
ita	-10.2017
cultuur	-10.2026
▁wester	-10.2028
▁onver	-10.2033
way	-10.2045
▁zuiver	-10.2048
▁leeuw	-10.2049
▁waargenomen	-10.205
▁verhuisde	-10.205
▁homo	-10.2051
▁opening	-10.2059
▁kas	-10.206
▁stroming	-10.2071
woud	-10.2073
▁negentiende	-10.2081
▁antwoord	-10.2081
▁1973	-10.2086
▁blok	-10.2089
▁sla	-10.2097
pijn	-10.2098
▁belasting	-10.2099
ux	-10.21
▁verdediging	-10.2102
▁inclusief	-10.2103
▁weigerde	-10.2117
▁world	-10.2119
bundel	-10.2126
▁zegt	-10.2126
▁sommigen	-10.2127
▁breed	-10.2128
▁kevers	-10.2133
▁uitvoering	-10.2135
ais	-10.2139
mus	-10.2141
▁slechte	-10.2146
pop	-10.215
▁feite	-10.215
kh	-10.2151
▁vergelijkbaar	-10.2152
▁produceren	-10.2153
ati	-10.2161
liggende	-10.2164
sluit	-10.2164
gg	-10.2166
▁juiste	-10.2189
▁bestuurlijke	-10.2189
tol	-10.2195
ld	-10.2197
▁bach	-10.2201
▁uiteen	-10.2201
▁moslims	-10.2202
▁pool	-10.2202
zaal	-10.2203
erts	-10.2203
kring	-10.2203
▁gelegenheid	-10.2205
▁organisaties	-10.2205
▁gouverneur	-10.2207
lagen	-10.2209
genoten	-10.2212
▁wedstrijden	-10.2213
engels	-10.2213
hoog	-10.2219
▁groeien	-10.2224
nia	-10.2225
keten	-10.2227
pool	-10.2229
▁newton	-10.2229
▁venus	-10.2232
familie	-10.2237
▁leren	-10.2243
▁gewoon	-10.2245
▁dagelijks	-10.225
rak	-10.2254
▁heuvel	-10.2256
orthodoxe	-10.2258
▁glas	-10.2258
▁normaal	-10.2259
▁aanvaard	-10.2262
▁vlees	-10.2262
model	-10.2266
▁koop	-10.2268
▁cuba	-10.2269
▁allemaal	-10.2271
vleugel	-10.2276
▁boeddhisme	-10.228
▁stra	-10.2285
▁voorwerp	-10.2286
zij	-10.2293
strijd	-10.2293
▁praag	-10.2297
▁stenen	-10.2297
eigen	-10.2298
▁amerikanen	-10.2299
▁komst	-10.2299
▁boe	-10.2302
▁trek	-10.2311
speler	-10.2315
eu	-10.2316
▁borst	-10.2319
ney	-10.2328
producent	-10.233
▁defensie	-10.233
euze	-10.2333
▁vragen	-10.2334
akker	-10.2341
▁dialecten	-10.2344
▁toegang	-10.2347
gem	-10.2348
basis	-10.2349
▁syn	-10.235
▁vissen	-10.2353
▁menselijk	-10.2353
▁brede	-10.2355
▁bes	-10.2358
▁componist	-10.2359
▁tuin	-10.236
▁verandering	-10.2365
▁vleugels	-10.2366
▁jazz	-10.2366
ool	-10.237
eiland	-10.2371
▁rijden	-10.2371
▁objecten	-10.2372
▁liberale	-10.2373
▁veroverd	-10.2389
▁bon	-10.2391
duitsland	-10.2392
▁eenheden	-10.2394
▁individu	-10.2399
▁vlag	-10.2407
for	-10.2409
▁eer	-10.2412
logisch	-10.2415
▁trokken	-10.2415
▁hongarije	-10.2416
▁geografie	-10.2422
▁aandeel	-10.2422
▁mm	-10.2423
plant	-10.243
atom	-10.2431
▁ball	-10.2433
sto	-10.2434
▁enerzijds	-10.2438
▁protestantse	-10.2438
▁zweedse	-10.2438
eeuw	-10.244
▁zeventig	-10.244
gie	-10.2441
ming	-10.2446
▁regerings	-10.2447
mol	-10.2452
▁denk	-10.2459
▁ontwikkelingen	-10.2459
▁veranderd	-10.246
▁stroomt	-10.2467
▁organismen	-10.2471
▁absolute	-10.2474
▁neanderthaler	-10.2474
▁gezegd	-10.2475
▁geregeld	-10.2476
▁1977	-10.2479
aliseerd	-10.248
▁riep	-10.2481
▁variant	-10.2481
▁('	-10.2482
lib	-10.2486
non	-10.249
sky	-10.2492
▁lied	-10.2497
▁richt	-10.2497
▁poten	-10.2503
terrein	-10.2503
ellen	-10.2504
▁gri	-10.2505
▁ce	-10.2508
▁hoeveelheden	-10.2511
▁ijssel	-10.2514
▁plaat	-10.2515
1%	-10.2516
▁bezoekers	-10.2518
▁lood	-10.2518
▁lezen	-10.2525
ons	-10.2535
verbindingen	-10.2539
ob	-10.2544
kust	-10.2546
rna	-10.2547
▁commerciële	-10.2547
▁malen	-10.2548
voering	-10.255
eters	-10.2551
program	-10.2552
▁varianten	-10.2554
▁erin	-10.2556
▁gebruikelijk	-10.2561
▁johan	-10.2565
kra	-10.2568
kin	-10.257
cal	-10.2573
▁gezicht	-10.2573
effect	-10.2573
ette	-10.2584
▁privé	-10.2584
▁editie	-10.2584
▁elektro	-10.2586
▁ministers	-10.2596
test	-10.2597
▁tijdschrift	-10.2597
lage	-10.2601
▁machts	-10.2602
▁gedwongen	-10.2602
▁gewicht	-10.2602
▁tachtig	-10.2602
▁gebrek	-10.2603
▁geï	-10.2604
▁stations	-10.2605
route	-10.2612
▁nederzetting	-10.2613
▁verklaren	-10.2621
▁roemenië	-10.2621
idae	-10.2622
▁keuze	-10.2626
200	-10.2627
uri	-10.2632
▁zaak	-10.2633
iër	-10.2637
ets	-10.2637
▁medi	-10.2638
ura	-10.264
▁voorbij	-10.2649
▁mohammed	-10.2658
▁musea	-10.2659
▁lijnen	-10.2663
schouw	-10.2672
ann	-10.2675
▁rots	-10.2676
▁ons	-10.2681
▁huizen	-10.2682
toestand	-10.2684
tim	-10.2687
▁voorgesteld	-10.2689
sus	-10.2692
▁bevel	-10.2699
▁vijftig	-10.27
▁vertrek	-10.2702
▁jaartal	-10.2705
varen	-10.2706
▁uitgegeven	-10.2712
▁congres	-10.2714
eind	-10.2715
▁recente	-10.2717
sje	-10.2722
▁uni	-10.2728
geleid	-10.273
7%	-10.2733
▁onmogelijk	-10.2733
▁manieren	-10.2734
▁betaald	-10.2735
▁belangstelling	-10.2736
▁fel	-10.2738
▁1967	-10.2738
ida	-10.2738
fu	-10.2739
▁draagt	-10.2743
▁rijke	-10.2745
sme	-10.2749
▁frank	-10.275
▁cellen	-10.2754
▁voorkomende	-10.2757
▁vliegtuigen	-10.2767
brittannië	-10.277
▁decennia	-10.277
▁negatieve	-10.277
▁uitgezonden	-10.277
▁bewust	-10.277
▁bedekt	-10.2771
▁architectuur	-10.2771
plat	-10.2774
lap	-10.2774
▁zoveel	-10.2775
▁samengesteld	-10.2776
▁omvang	-10.2778
iswaar	-10.2778
▁star	-10.2784
ska	-10.2788
▁mest	-10.2789
▁ware	-10.2789
methode	-10.2803
▁deels	-10.2803
▁interpretatie	-10.2808
▁gedefinieerd	-10.2808
▁ervaring	-10.2808
▁natuurkunde	-10.2811
innen	-10.2817
pir	-10.2817
▁gek	-10.282
▁volgden	-10.2821
▁syrië	-10.2822
steek	-10.2825
▁pieter	-10.2827
graf	-10.2829
▁geallieerden	-10.283
▁museeuw	-10.2846
▁proto	-10.2847
▁bedacht	-10.2847
▁zorg	-10.2849
cia	-10.2849
▁vergadering	-10.2856
staande	-10.2859
▁warm	-10.2861
▁johann	-10.2861
tar	-10.2864
last	-10.2868
merk	-10.2868
gever	-10.2872
amerikaanse	-10.2881
▁democratie	-10.2883
bond	-10.2884
▁ploeg	-10.2884
▁1986	-10.2889
▁kroon	-10.2893
▁pr	-10.2894
archi	-10.2899
▁wei	-10.2902
▁droge	-10.2903
▁instellingen	-10.2908
▁hetgeen	-10.291
▁nadruk	-10.2914
▁slachtoffers	-10.2919
zeeland	-10.292
▁stikstof	-10.2921
▁omgekeerd	-10.2921
▁vertrok	-10.2925
drong	-10.2926
hen	-10.2943
▁velen	-10.2955
▁schilderijen	-10.2956
▁zodanig	-10.2959
▁compositie	-10.2961
▁wetenschappers	-10.2962
cyclus	-10.2965
zaam	-10.2965
wellicht	-10.2968
▁alexander	-10.297
▁zondag	-10.2974
▁lot	-10.2976
oïde	-10.2977
▁rekening	-10.2978
▁mogelijkheden	-10.2979
▁diensten	-10.2981
lucht	-10.2982
▁virus	-10.2992
complex	-10.2997
▁molen	-10.3005
▁studio	-10.3006
▁hoop	-10.3008
▁succesvolle	-10.3009
▁uitgesproken	-10.301
vir	-10.3014
▁psycho	-10.3017
▁music	-10.3018
dus	-10.3023
slagen	-10.3024
▁les	-10.3032
▁opper	-10.3034
▁sol	-10.3035
▁vernoemd	-10.3036
▁uitvinding	-10.3036
▁verkozen	-10.3036
massa	-10.3037
▁eindigde	-10.3037
doel	-10.3044
▁festival	-10.3054
ure	-10.3055
▁genoemde	-10.3061
lik	-10.3067
▁initiatief	-10.3075
▁prooi	-10.3078
▁technische	-10.3078
grafische	-10.3079
▁1988	-10.308
▁gl	-10.3084
▁voortdurend	-10.3087
lant	-10.3089
pat	-10.3089
▁afkomst	-10.3092
▁maat	-10.3092
▁honderden	-10.3093
mand	-10.3096
gat	-10.31
stoffen	-10.3103
kw	-10.3108
patroon	-10.3114
▁biologische	-10.3116
politiek	-10.3125
▁sterker	-10.3128
▁ram	-10.313
low	-10.313
▁orkest	-10.3143
▁dans	-10.3146
gesloten	-10.3147
wezen	-10.3149
vrouw	-10.3155
punten	-10.3155
▁--	-10.3158
anten	-10.3159
▁vijand	-10.3159
mil	-10.316
post	-10.3165
▁natuurlijk	-10.3165
▁termijn	-10.3174
▁zoeken	-10.3174
▁kal	-10.3181
▁stelsel	-10.3185
▁gouda	-10.3187
▁concilie	-10.3192
ram	-10.3193
alis	-10.3196
qua	-10.3196
▁jacht	-10.3196
▁vlinders	-10.3196
▁aantallen	-10.3201
▁resultaten	-10.3202
san	-10.3204
hoorn	-10.3207
▁begeleid	-10.3208
levering	-10.3211
onne	-10.3216
▁epi	-10.3218
hield	-10.3225
▁mozart	-10.3231
▁volgorde	-10.3231
duur	-10.3231
▁delft	-10.3232
▁sj	-10.3234
▁gras	-10.324
▁eenvoudige	-10.3242
▁interne	-10.3246
illa	-10.3246
▁slaagde	-10.3259
▁ph	-10.326
staten	-10.3261
▁verzoek	-10.3265
uz	-10.3266
edel	-10.3267
▁arbeids	-10.3267
▁sil	-10.3268
kr	-10.327
conferentie	-10.327
▁keulen	-10.327
▁planeten	-10.3271
▁harde	-10.3273
▁prijzen	-10.3275
president	-10.3276
mbo	-10.3276
▁gedacht	-10.3278
klein	-10.3279
etten	-10.328
▁feitelijk	-10.328
ificatie	-10.3282
2.	-10.3282
▁zuur	-10.3282
rio	-10.3284
sluiting	-10.3293
loge	-10.3297
▁sm	-10.3301
▁tibet	-10.3309
▁tegelijk	-10.331
▁diepte	-10.331
portret	-10.3315
▁veranderingen	-10.3319
▁schoon	-10.3322
▁orgel	-10.3324
vv	-10.3335
ku	-10.3337
▁voorheen	-10.3338
orden	-10.3339
▁35	-10.3346
▁frederik	-10.3349
▁verscheidene	-10.3349
▁biedt	-10.3349
▁1978	-10.3355
▁1983	-10.3355
▁1918	-10.3355
▁oer	-10.3356
▁tre	-10.3356
ër	-10.3358
▁schelde	-10.3364
▁processen	-10.3365
▁fractie	-10.3366
wil	-10.337
▁storm	-10.3374
stap	-10.3377
▁universiteiten	-10.3383
▁luc	-10.3384
▁positieve	-10.3387
▁gekenmerkt	-10.3389
ori	-10.3395
rend	-10.3398
▁toenemende	-10.3403
▁dacht	-10.3405
▁bedreigd	-10.3429
▁enigszins	-10.3429
▁gevaar	-10.3429
▁jakob	-10.3429
▁zwavelzuur	-10.343
▁ziekenhuis	-10.3432
pra	-10.3433
▁1968	-10.3435
▁rapport	-10.3438
▁theo	-10.3438
▁cu	-10.3438
▁hans	-10.3439
iz	-10.3439
▁onderzoeks	-10.3448
▁schuld	-10.3452
▁ali	-10.3458
▁verkregen	-10.3469
▁zulk	-10.347
▁middeleeuwse	-10.3472
spelen	-10.3483
▁zak	-10.3491
denk	-10.35
▁onafhankelijke	-10.3506
▁heden	-10.3507
▁behouden	-10.3508
▁opgevolgd	-10.351
▁dinosauriërs	-10.351
ulatie	-10.3514
▁1976	-10.3515
▁woonde	-10.3518
temperatuur	-10.3521
▁zuster	-10.3523
▁uitvoer	-10.3526
▁partner	-10.3531
▁wk	-10.3533
dio	-10.354
▁bouterse	-10.355
▁mozes	-10.355
gehouden	-10.3551
▁slaven	-10.3555
▁1979	-10.3556
▁1985	-10.3557
▁1975	-10.3557
instrument	-10.3562
eling	-10.3563
▁persoonlijk	-10.3563
energie	-10.3563
▁set	-10.3565
▁muur	-10.3568
▁onderling	-10.3568
▁franco	-10.3571
ray	-10.3573
▁ven	-10.3575
rag	-10.3577
noord	-10.3579
▁camp	-10.358
tegen	-10.3585
feest	-10.3585
adem	-10.3588
open	-10.359
▁schiereiland	-10.3591
▁populatie	-10.3592
▁lente	-10.3595
▁1948	-10.3597
▁vrouwelijke	-10.3598
fase	-10.3604
▁middelen	-10.3608
▁mur	-10.361
▁termen	-10.361
▁tafel	-10.3612
▁passen	-10.3614
▁smaak	-10.3614
borg	-10.3616
▁albums	-10.3617
oma	-10.3619
▁overeenkomst	-10.3624
4%	-10.3628
tia	-10.3631
▁verbeterd	-10.3632
▁voorstelling	-10.3632
minstens	-10.3634
pier	-10.3637
streek	-10.3638
▁stuurde	-10.3641
volk	-10.3641
8%	-10.3642
lied	-10.3649
rick	-10.3649
thy	-10.365
▁slot	-10.366
▁trouw	-10.3663
▁opname	-10.3664
):	-10.3665
tank	-10.367
diensten	-10.367
▁past	-10.3671
▁afzonderlijke	-10.3671
letter	-10.3672
▁beslissing	-10.3673
▁michael	-10.3673
▁gulden	-10.3673
▁fusie	-10.3675
rou	-10.3676
▁schaats	-10.3684
assen	-10.369
achter	-10.3695
off	-10.3701
▁roem	-10.3705
duitse	-10.3705
▁noordelijk	-10.3706
▁schiphol	-10.3715
talig	-10.3716
press	-10.3717
sum	-10.3724
▁veilig	-10.3725
beleid	-10.373
▁karl	-10.3731
plaatselijke	-10.3731
lach	-10.3733
wille	-10.3736
geroepen	-10.3739
▁aanvallen	-10.374
▁scheiding	-10.3741
▁nader	-10.3748
▁portugal	-10.3755
▁ajax	-10.3755
dit	-10.3757
▁vorst	-10.376
alai	-10.376
stort	-10.3761
▁beschermen	-10.3761
▁zuidelijk	-10.3763
▁helder	-10.3764
▁bush	-10.3766
▁gaven	-10.3768
gewerkt	-10.3777
drijven	-10.3778
▁kandidaat	-10.3794
▁geïntroduceerd	-10.3797
▁zelden	-10.3798
ima	-10.3802
▁1987	-10.3802
koop	-10.3827
▁toonde	-10.3837
▁evenwicht	-10.3838
▁onderzocht	-10.3838
▁gescheiden	-10.3838
komende	-10.3839
▁koran	-10.3854
▁arch	-10.3862
speel	-10.3871
genoot	-10.3875
▁letterlijk	-10.3876
▁overal	-10.388
mechanisme	-10.388
▁vandaag	-10.3881
▁onderzoekers	-10.3882
▁winst	-10.3882
▁beleg	-10.3882
▁gesteente	-10.3884
▁split	-10.3886
▁1941	-10.3886
▁luik	-10.3889
einde	-10.3889
bla	-10.3898
▁1900	-10.3899
▁richten	-10.3903
morf	-10.3904
▁zoet	-10.3904
eilanden	-10.3905
▁californië	-10.3909
▁makkelijk	-10.3922
▁moleculen	-10.3922
▁nijmegen	-10.3922
▁ontworpen	-10.3922
▁saksen	-10.3922
▁export	-10.3925
▁uiterlijk	-10.3926
▁vn	-10.3929
▁klim	-10.393
▁betreffende	-10.3931
zu	-10.3935
▁lading	-10.3944
uv	-10.3944
duc	-10.3945
▁/	-10.3964
▁gemeten	-10.3965
elijkheid	-10.3971
▁leveren	-10.3972
▁uitgedrukt	-10.3977
ido	-10.3979
▁cho	-10.3981
▁spelling	-10.3982
lieden	-10.399
▁waarden	-10.3992
▁aangegeven	-10.3998
▁beperkte	-10.4
▁tar	-10.4001
▁vorsten	-10.4004
▁elektriciteit	-10.4007
▁opgeheven	-10.4007
▁crisis	-10.4008
▁gewoonlijk	-10.4009
▁zaad	-10.4012
alistische	-10.4015
▁medische	-10.4016
▁landelijke	-10.4018
▁un	-10.4019
grad	-10.4022
▁hedendaagse	-10.4023
▁geschriften	-10.4024
▁schrijft	-10.4032
bio	-10.4036
▁400	-10.404
▁nor	-10.4046
wang	-10.4048
▁vloeistof	-10.4049
▁1972	-10.4049
▁verovering	-10.405
oosten	-10.4052
▁1920	-10.4059
▁gevangen	-10.4061
▁voormalig	-10.4063
part	-10.4066
▁onderdelen	-10.4069
▁voorloper	-10.4077
schil	-10.4083
district	-10.4089
public	-10.4091
▁veroorzaken	-10.4092
▁voltooid	-10.4092
▁maatregelen	-10.4092
▁middellandse	-10.4092
▁verwijst	-10.4092
▁ligging	-10.4092
▁golflengte	-10.4092
▁kwik	-10.4094
▁1974	-10.4098
ruim	-10.4103
▁meester	-10.4103
▁koos	-10.4109
nederlandstalige	-10.411
▁hersteld	-10.4111
reis	-10.4112
christ	-10.4115
▁heilig	-10.412
▁wonder	-10.4125
▁onderhoud	-10.4133
▁geraakt	-10.4135
▁pet	-10.4135
▁prinses	-10.4153
▁tom	-10.4168
▁anna	-10.4172
▁sam	-10.4178
▁beschrijft	-10.4178
▁keuken	-10.4178
function	-10.4178
▁toerisme	-10.4178
▁technologie	-10.4178
▁1981	-10.4183
▁nood	-10.4184
wat	-10.4195
maakt	-10.4196
kie	-10.4198
▁zang	-10.4204
trekking	-10.4214
reeks	-10.4215
▁pic	-10.4217
ada	-10.422
heim	-10.422
▁moskou	-10.4221
polit	-10.4222
▁verplaatst	-10.4223
dos	-10.4223
▁koningen	-10.4226
element	-10.4227
▁bad	-10.4228
tief	-10.4229
elect	-10.4229
▁it	-10.423
gram	-10.4231
▁spoorlijn	-10.4238
▁krant	-10.4239
▁stu	-10.4239
▁herstel	-10.4249
museum	-10.425
fil	-10.4251
▁kaarten	-10.4253
▁madonna	-10.4265
▁wijken	-10.4265
▁behandeld	-10.4267
▁voorwerpen	-10.4276
▁tel	-10.4293
▁melk	-10.4293
▁beker	-10.4294
pac	-10.4298
▁gevaarlijk	-10.4302
▁jongeren	-10.4306
gemeenschap	-10.4306
▁fortuyn	-10.4308
▁hangt	-10.4311
▁actieve	-10.4313
indië	-10.4313
▁1969	-10.4314
mers	-10.4321
typ	-10.4323
▁minderheid	-10.4325
▁verricht	-10.4327
▁paulus	-10.4328
▁factoren	-10.4329
▁opgesteld	-10.4333
▁versch	-10.4333
▁tabel	-10.4338
maken	-10.434
honderd	-10.434
▁positief	-10.4348
▁gevoelig	-10.435
woon	-10.4351
auto	-10.4352
▁bepaalt	-10.4352
▁uitgestorven	-10.4352
6%	-10.4353
▁1971	-10.4359
▁akkoord	-10.436
col	-10.436
▁blauwe	-10.4363
ore	-10.4364
▁kleding	-10.4365
▁veroverde	-10.4371
▁graafschap	-10.4371
▁bouwde	-10.4373
ville	-10.4376
mak	-10.4377
▁konings	-10.4378
▁graden	-10.438
systemen	-10.4385
▁pad	-10.4391
▁slo	-10.4394
ira	-10.4395
▁exemplaren	-10.4396
▁ocean	-10.4396
▁toeristen	-10.4396
▁ernstige	-10.4398
▁mij	-10.4399
▁bacteriën	-10.4405
▁dynastie	-10.4406
vissen	-10.4407
ruimte	-10.4409
▁stro	-10.4409
▁ondertussen	-10.441
▁waarom	-10.4411
▁kok	-10.4416
laten	-10.4418
▁1930	-10.4424
▁veen	-10.4429
▁schilders	-10.443
▁verwijderd	-10.4441
▁zwaartekracht	-10.4441
▁cent	-10.4441
cke	-10.4443
oloog	-10.4444
vallei	-10.445
▁behoorde	-10.4455
▁geë	-10.4457
▁publicatie	-10.4463
▁zagen	-10.4467
▁opgebouwd	-10.4467
▁vrienden	-10.4474
bedrijf	-10.4476
▁gram	-10.448
▁hebreeuwse	-10.4481
▁levert	-10.4481
▁jackson	-10.4485
▁onmiddellijk	-10.4485
▁toegestaan	-10.4485
▁uitdrukking	-10.4485
▁gedood	-10.4485
▁studeerde	-10.4485
▁opvallend	-10.4486
▁flor	-10.4487
list	-10.4491
▁cat	-10.4495
▁fan	-10.4497
▁mooi	-10.4498
producten	-10.4501
▁bedrag	-10.4501
tom	-10.4502
▁voren	-10.4512
appel	-10.4513
▁vestiging	-10.4517
%)	-10.4519
oppervlak	-10.4521
▁negentig	-10.4532
▁democratische	-10.4532
▁fil	-10.4537
▁vliegveld	-10.4542
▁onderwerpen	-10.4542
▁winnaar	-10.4542
▁opvattingen	-10.4543
▁luchtvaart	-10.4547
▁afbeelding	-10.4549
▁munten	-10.455
▁russisch	-10.4553
▁tegenstander	-10.4554
▁last	-10.4566
boom	-10.4566
[	-10.4568
▁heren	-10.4573
▁descartes	-10.4574
▁benadering	-10.4574
weefsel	-10.4575
▁brieven	-10.4576
▁natuurkundige	-10.4579
magnetisch	-10.458
broek	-10.4583
dagen	-10.4588
▁ziek	-10.4588
▁boog	-10.4589
▁verkoop	-10.4591
▁bestuurs	-10.4598
▁blauw	-10.4599
server	-10.4604
kleed	-10.461
meenschappelijke	-10.4613
▁materialen	-10.4618
▁hemingway	-10.462
▁verliezen	-10.462
▁formele	-10.462
▁taken	-10.462
▁psv	-10.4621
ianus	-10.4623
▁sho	-10.4624
cep	-10.4625
▁1984	-10.4626
▁specifiek	-10.4627
▁german	-10.4627
▁bewijzen	-10.4629
aux	-10.463
▁afstanden	-10.4634
▁beiden	-10.4638
▁ontslag	-10.4642
▁rob	-10.4643
groot	-10.4649
▁ramp	-10.4659
vader	-10.4664
vlakte	-10.4664
▁gevierd	-10.4665
▁verloop	-10.4665
onderhandelingen	-10.4666
pal	-10.4666
stok	-10.4667
▁strand	-10.467
kind	-10.4671
▁indruk	-10.4671
▁parken	-10.4675
▁q	-10.4676
▁hy	-10.4676
polder	-10.4678
▁overheids	-10.4681
▁gebergte	-10.4695
trop	-10.4701
2,	-10.4705
von	-10.4707
▁strikt	-10.4711
▁senaat	-10.4711
▁giftig	-10.4711
greep	-10.4713
rode	-10.4721
▁constructie	-10.4724
boog	-10.4724
▁volle	-10.4725
fran	-10.4732
groen	-10.4732
▁campagne	-10.4748
▁minste	-10.4749
▁mochten	-10.4751
ticus	-10.4753
vlieg	-10.4754
▁aangetoond	-10.4756
▁delfzijl	-10.4756
▁voortplanting	-10.4756
misschien	-10.4756
▁smelt	-10.4757
▁vesting	-10.4758
▁banden	-10.4758
achtigen	-10.4758
▁binding	-10.476
▁1917	-10.4765
hem	-10.4771
vogels	-10.4772
▁verdeling	-10.4773
bad	-10.4773
▁brachten	-10.4778
▁zacht	-10.478
voudig	-10.4785
▁oostenrijkse	-10.4788
▁ontmoette	-10.4793
▁schot	-10.4795
▁state	-10.48
stroming	-10.48
crisis	-10.4801
▁mineralen	-10.4802
▁vernietigd	-10.4802
▁originele	-10.4803
▁leerlingen	-10.4803
▁francisco	-10.4803
▁aanduiding	-10.4806
▁theorieën	-10.4807
▁1949	-10.4808
▁atlantische	-10.4809
▁woestijn	-10.482
atief	-10.4821
▁uitvoeren	-10.4821
▁phil	-10.4822
cum	-10.4827
dar	-10.4829
);	-10.483
▁lichte	-10.4841
hoven	-10.4843
▁1500	-10.4843
spiegel	-10.4844
▁vermenigvuldig	-10.4848
▁uitgebreide	-10.485
fiets	-10.485
▁ker	-10.4851
▁elders	-10.4852
▁gebruikgemaakt	-10.4854
▁vereist	-10.4856
versie	-10.486
▁volkeren	-10.4862
600	-10.4863
▁directeur	-10.4866
ör	-10.4875
▁pogingen	-10.4879
▁draaien	-10.4891
▁getroffen	-10.4894
plaat	-10.4896
burger	-10.4896
▁verhoogd	-10.4897
cker	-10.4902
▁fabriek	-10.4904
ern	-10.4905
▁legende	-10.492
▁indo	-10.4922
▁vet	-10.4925
▁brabant	-10.4929
uwe	-10.493
wind	-10.4931
tot	-10.4931
▁bloem	-10.4932
▁materie	-10.4938
▁afrikaanse	-10.4944
stoel	-10.4952
arc	-10.4955
ares	-10.4976
gre	-10.4981
▁invasie	-10.4988
▁archeologisch	-10.4988
▁perzische	-10.4988
▁maximaal	-10.4989
sprong	-10.4989
zig	-10.4994
pil	-10.4994
▁verteld	-10.4995
ata	-10.5002
appen	-10.5005
nor	-10.5011
houding	-10.5016
▁navo	-10.5017
▁zanger	-10.5017
slaan	-10.502
ture	-10.5021
▁ren	-10.5022
▁vluchten	-10.5031
schriften	-10.5033
▁daadwerkelijk	-10.5034
▁verschijning	-10.5034
▁normale	-10.5034
▁vorige	-10.5035
▁verschijnen	-10.5035
▁zelfmoord	-10.5036
syrische	-10.5037
duizend	-10.5038
▁zocht	-10.5039
▁beschrijven	-10.5041
▁eieren	-10.5045
mantel	-10.5047
▁spring	-10.505
netwerk	-10.5055
komst	-10.5055
▁nobelprijs	-10.5056
▁mythe	-10.5059
▁musical	-10.5066
▁zevende	-10.5074
▁gran	-10.5075
sluiten	-10.5075
▁visie	-10.5076
experiment	-10.5079
gul	-10.5079
▁cirkel	-10.5081
▁twijfel	-10.5081
▁bestudeerd	-10.5082
▁award	-10.5082
▁klinker	-10.5082
zag	-10.5082
▁gewijd	-10.5083
▁wol	-10.5087
▁chan	-10.5088
▁regime	-10.509
▁alsnog	-10.509
▁totdat	-10.5091
▁mac	-10.5094
para	-10.5099
▁marie	-10.5099
national	-10.51
▁lijden	-10.5101
virus	-10.5101
reactie	-10.5103
▁bom	-10.5105
▁gegaan	-10.5112
vlies	-10.5114
gegroeid	-10.5115
▁bevoegd	-10.5127
▁verbond	-10.5127
▁feyenoord	-10.5129
▁periodiek	-10.5129
▁suiker	-10.5129
▁culturen	-10.513
▁tijdperk	-10.5134
▁draai	-10.5135
▁russen	-10.5136
▁flink	-10.5136
trek	-10.5141
▁geheim	-10.5142
▁bezette	-10.5144
staf	-10.5144
wand	-10.5146
▁gods	-10.5147
▁duurt	-10.5148
▁hop	-10.515
▁monumenten	-10.5153
▁000	-10.5164
▁bomen	-10.5167
▁houten	-10.5167
mir	-10.5173
▁spaans	-10.5175
▁kandidaten	-10.5177
▁athena	-10.5177
▁krijt	-10.5177
▁formeel	-10.5177
fysica	-10.5177
▁variatie	-10.5177
▁atoomnummer	-10.5177
register	-10.5178
▁tentoonstelling	-10.5183
zinnig	-10.5185
zz	-10.5187
gue	-10.519
▁nicolaas	-10.5192
▁warme	-10.5192
aria	-10.5193
▁treden	-10.5194
▁effecten	-10.5199
gal	-10.52
eenheden	-10.5202
▁verblijf	-10.5202
▁patiënt	-10.5205
▁factor	-10.5207
▁eisen	-10.5207
▁boer	-10.5207
hl	-10.5212
▁vrouwtje	-10.5216
▁context	-10.5224
▁identiteit	-10.5224
tunnel	-10.5224
▁ottomaans	-10.5224
▁verdacht	-10.5225
▁aruba	-10.5225
▁nederlaag	-10.5226
▁eventue	-10.5229
▁tand	-10.5229
▁bedroeg	-10.523
leving	-10.5232
▁32	-10.5233
leger	-10.5234
▁contract	-10.5234
▁meisje	-10.5239
▁dateert	-10.5239
▁aldus	-10.5241
▁gestuurd	-10.5244
▁digitale	-10.5245
▁mc	-10.5254
winning	-10.5256
▁apart	-10.5261
ffer	-10.5262
tsj	-10.5262
▁motie	-10.5264
▁eerdere	-10.5268
▁ingesteld	-10.5272
▁vergeleken	-10.5272
▁verwijzing	-10.5272
balkenende	-10.5273
▁aldaar	-10.5273
▁bewoond	-10.5273
▁inzicht	-10.5275
lp	-10.5277
roman	-10.5277
toernooi	-10.5289
word	-10.5295
▁zet	-10.5295
roy	-10.5296
vervoer	-10.5299
▁noordoosten	-10.5299
▁uniek	-10.53
▁eenmaal	-10.5305
▁oorlogen	-10.5309
antie	-10.5313
▁bak	-10.5314
▁bod	-10.5315
▁zeus	-10.5317
var	-10.5318
structure	-10.532
bataljon	-10.5321
▁vluchtelingen	-10.5321
▁families	-10.5323
▁volume	-10.5323
▁voc	-10.5323
frans	-10.5328
▁filips	-10.5342
▁stichtte	-10.5344
time	-10.5345
▁bou	-10.5352
▁wapens	-10.5359
hoor	-10.5362
▁geneeskunde	-10.5369
▁inderdaad	-10.5369
▁muzikal	-10.5369
▁odysseus	-10.5369
▁app	-10.5373
▁1914	-10.5375
▁krachten	-10.5378
gebouwd	-10.5381
▁byzantijnse	-10.5382
▁hypothese	-10.5386
tem	-10.5388
▁150	-10.5388
▁elektromagnet	-10.5392
▁sloeg	-10.5397
iaanse	-10.5399
▁gezamenlijk	-10.5401
▁hersen	-10.5402
▁armen	-10.5406
maan	-10.541
▁august	-10.5411
▁index	-10.5418
▁alternatieve	-10.5418
▁selectie	-10.5418
plicht	-10.5418
▁diamant	-10.5418
▁multi	-10.5418
▁reizen	-10.5418
▁wettelijk	-10.5421
▁schotland	-10.5423
▁heette	-10.5424
zar	-10.5425
▁modellen	-10.5425
▁aanzien	-10.5426
agent	-10.5432
▁warmond	-10.5433
scholen	-10.5434
talige	-10.5434
▁winters	-10.5435
▁georg	-10.5437
▁psychologie	-10.5442
▁duizend	-10.5443
ject	-10.5446
▁zone	-10.5449
▁mas	-10.545
dier	-10.5451
▁titels	-10.5452
▁trap	-10.5454
hind	-10.5455
isse	-10.5457
stenen	-10.546
gam	-10.5462
▁hoorn	-10.5464
phy	-10.5467
▁lidstaten	-10.5469
▁toestemming	-10.547
▁wetgeving	-10.547
▁verleend	-10.5472
▁helpen	-10.548
vliegtuig	-10.5482
▁tanks	-10.5483
▁plato	-10.5487
▁route	-10.5488
°	-10.5492
▁mus	-10.5492
akte	-10.5493
▁gevraagd	-10.5496
regio	-10.5496
lau	-10.5498
▁verschijnsel	-10.55
▁burgerlijk	-10.55
spoor	-10.5502
▁belgisch	-10.5503
▁gedachte	-10.5507
ical	-10.5513
▁bernard	-10.5515
▁geïnspireerd	-10.5516
therapie	-10.5516
ezel	-10.5517
▁royal	-10.552
▁ak	-10.5522
▁bedrijfs	-10.5526
anus	-10.5529
▁gepaard	-10.5534
kwartier	-10.554
opleiding	-10.5542
▁simon	-10.5543
serie	-10.5543
tekst	-10.5548
▁human	-10.5548
▁uitmaakt	-10.5556
trans	-10.5559
regels	-10.556
▁zwavel	-10.5565
▁treedt	-10.5566
▁verandert	-10.5566
▁inheemse	-10.5567
▁inkomsten	-10.5568
▁kamerverkiezing	-10.557
▁zuidoosten	-10.557
▁zelfstandige	-10.5572
▁rekenen	-10.5573
▁toegeschreven	-10.5574
▁wan	-10.5582
kruis	-10.5583
▁swa	-10.5585
▁oppositie	-10.5587
▁genre	-10.5595
daal	-10.5602
▁veer	-10.5615
▁vervolg	-10.5615
▁beschaving	-10.5616
▁alcohol	-10.5616
▁parallel	-10.5616
▁etnische	-10.5616
▁bevoegdheden	-10.5617
▁koninklijk	-10.5619
▁duidelijke	-10.562
▁duiden	-10.5623
▁anne	-10.5625
monument	-10.5631
▁aanhang	-10.5633
concert	-10.5634
raam	-10.564
▁air	-10.5644
9%	-10.5649
schepen	-10.5652
gebroken	-10.5657
nov	-10.5664
▁columbus	-10.5666
▁münchen	-10.5666
▁verkeers	-10.5669
▁virussen	-10.5671
▁ierse	-10.5673
▁staart	-10.5681
vor	-10.5681
heren	-10.5682
getij	-10.5686
▁stabiele	-10.5686
▁kwestie	-10.5691
▁bescherm	-10.5695
▁kranten	-10.5699
▁opvatting	-10.5701
▁socialistische	-10.5702
▁document	-10.5705
▁bestonden	-10.5713
present	-10.5714
▁300	-10.5714
▁constantinopel	-10.5716
▁symbolen	-10.5716
hoofdzakelijk	-10.5716
▁bezienswaardig	-10.5716
▁scheikundig	-10.5716
iviteit	-10.572
▁figuur	-10.5721
▁1953	-10.5722
▁juliana	-10.5724
▁sterven	-10.5725
▁1919	-10.5726
▁weergegeven	-10.5727
veren	-10.5727
▁oostzee	-10.5728
▁technieken	-10.5729
▁mislukte	-10.573
▁aspecten	-10.5732
▁zonen	-10.5744
▁gebruikers	-10.5746
ick	-10.5748
▁port	-10.5753
▁aanwijzingen	-10.5754
korps	-10.5755
byte	-10.5757
▁speelden	-10.5758
linie	-10.576
▁prince	-10.5761
▁fysiek	-10.5766
▁stravinsky	-10.5766
warm	-10.5768
team	-10.5769
▁marine	-10.5778
▁genetische	-10.578
▁wereldwijde	-10.5783
▁tv	-10.5785
▁tradities	-10.5787
persoon	-10.5789
ish	-10.5792
ition	-10.5796
▁golven	-10.5796
histori	-10.5804
astro	-10.5805
▁opzicht	-10.5813
▁mannetje	-10.5817
▁gespecialiseerd	-10.5817
▁veertien	-10.5817
▁aandoening	-10.5818
▁koor	-10.5821
▁beschreef	-10.5821
ieën	-10.5823
▁cro	-10.5824
▁keizerrijk	-10.5824
▁redelijk	-10.5836
golf	-10.5842
under	-10.5852
▁son	-10.5853
▁zuidwesten	-10.5854
▁krim	-10.5857
missie	-10.5857
▁donker	-10.5859
ford	-10.586
▁leefde	-10.5864
tius	-10.5865
▁auschwitz	-10.5868
▁continu	-10.5868
▁website	-10.5868
▁variëren	-10.5868
▁bedoeling	-10.5868
▁interesse	-10.5869
▁activiteit	-10.5869
▁staatshoofd	-10.5871
▁aardgas	-10.5871
▁max	-10.5887
▁geallieerde	-10.5889
▁grand	-10.589
▁bewegingen	-10.589
vermogen	-10.5894
factor	-10.5895
▁noch	-10.5899
="14	-10.59
▁mannelijke	-10.5901
rijke	-10.5905
▁aardbeving	-10.5919
▁gunstig	-10.5919
▁temperaturen	-10.5919
federatie	-10.592
▁pierre	-10.592
▁impuls	-10.592
▁advies	-10.5923
▁stoppen	-10.5923
veer	-10.5923
▁toont	-10.5926
▁kunstenaar	-10.5927
▁pruisen	-10.5928
foto	-10.5932
▁liber	-10.5935
▁marc	-10.5941
▁wees	-10.5945
▁invoering	-10.5945
lé	-10.5952
geboren	-10.5953
gave	-10.5956
▁computers	-10.5957
▁bruin	-10.5961
▁adam	-10.5964
▁raken	-10.5971
▁poëzie	-10.5971
▁zenuw	-10.5972
▁love	-10.5973
▁verwerkt	-10.5973
▁priemgetallen	-10.5973
▁slaan	-10.5977
▁aanhangers	-10.5977
▁1961	-10.5978
▁stop	-10.5978
boven	-10.5979
foon	-10.5981
ongeluk	-10.5985
sluis	-10.5988
▁bibliotheek	-10.5991
▁fossiele	-10.5994
▁graven	-10.5994
▁stadion	-10.5995
▁gewerkt	-10.5995
▁ruil	-10.5996
nederland	-10.5998
▁stemming	-10.5999
pyr	-10.6009
grieks	-10.6015
▁vocht	-10.6017
▁ham	-10.6018
="18	-10.6019
▁breuk	-10.6021
▁mexico	-10.6023
▁millennium	-10.6023
▁verzameld	-10.6023
▁neus	-10.6023
▁veertig	-10.6024
▁werkelijk	-10.6024
heffing	-10.6024
▁straal	-10.6028
▁1962	-10.6029
▁race	-10.603
kampioenschap	-10.6033
▁hongaarse	-10.6033
▁binnenland	-10.6035
gl	-10.6037
▁herman	-10.6038
moeder	-10.604
att	-10.604
flu	-10.6041
▁kenmerkend	-10.6048
spannen	-10.6051
▁bood	-10.6053
gebergte	-10.6053
veilig	-10.6054
▁stabiel	-10.6056
▁wisten	-10.606
▁dingen	-10.6065
▁grondslag	-10.6068
▁journalist	-10.6068
▁hond	-10.6072
▁argument	-10.6075
▁geïsoleerd	-10.6075
▁halveringstijd	-10.6075
▁brengt	-10.6075
▁pijl	-10.6076
▁drama	-10.6076
well	-10.6077
▁bay	-10.6078
▁nul	-10.6079
blok	-10.6079
▁verst	-10.608
week	-10.6082
ön	-10.6083
velden	-10.609
lla	-10.609
fries	-10.6095
raai	-10.6096
sol	-10.6102
▁vestigden	-10.6104
teelt	-10.6104
▁weet	-10.6116
▁ervaren	-10.6117
▁systemen	-10.6117
▁oor	-10.6118
▁luid	-10.612
weeg	-10.6121
room	-10.6123
gelegen	-10.6127
▁langdurig	-10.6127
▁plaatsvinden	-10.6127
▁verdween	-10.6127
▁verjaardag	-10.6127
▁gemengd	-10.6127
▁abstract	-10.6127
▁vertonen	-10.6129
▁woonden	-10.613
▁hotel	-10.6133
zoon	-10.6134
anti	-10.6136
▁helium	-10.6139
protocol	-10.6143
▁patiënten	-10.6149
▁wolf	-10.6151
roll	-10.6152
pec	-10.6155
via	-10.6155
back	-10.6156
▁dor	-10.6159
▁seksuele	-10.6161
trein	-10.6162
bogen	-10.6163
▁onderzoeken	-10.6168
▁noordwesten	-10.6176
▁shakespeare	-10.618
▁verbleef	-10.618
vaccin	-10.618
▁waarnemer	-10.618
gordel	-10.6182
▁academie	-10.6182
▁typische	-10.6185
▁dubbele	-10.6189
▁eigendom	-10.6189
▁vasteland	-10.6195
▁zesde	-10.6199
star	-10.6201
▁dichtheid	-10.6202
koning	-10.6208
▁olympisch	-10.6208
▁erkende	-10.6215
án	-10.6218
rich	-10.622
▁langere	-10.6226
slowakije	-10.6233
▁negatief	-10.6233
▁geloven	-10.6233
▁alsmede	-10.6235
aanval	-10.6236
▁1946	-10.6239
▁1936	-10.624
▁1947	-10.624
gehalte	-10.6244
▁infectie	-10.6248
▁fonds	-10.6263
commissie	-10.6268
▁reserve	-10.6274
▁voorjaar	-10.6286
telescoop	-10.6286
▁centimeter	-10.6286
▁gecombineerd	-10.6286
▁toegankelijk	-10.6286
▁mannetjes	-10.6286
▁spiegel	-10.6287
▁historici	-10.6293
▁1963	-10.6293
▁leed	-10.6294
▁jongere	-10.6294
▁city	-10.6299
▁xii	-10.63
iaal	-10.6303
▁fijn	-10.6303
▁tol	-10.6304
▁rem	-10.6306
▁hoofdrol	-10.6308
▁bossen	-10.6308
▁waarnemingen	-10.6313
▁tweemaal	-10.6314
▁let	-10.632
romeinse	-10.6322
▁hollandse	-10.6323
▁zond	-10.633
democra	-10.633
afstand	-10.6333
drager	-10.6334
▁ballingschap	-10.6339
▁cultureel	-10.6339
▁populariteit	-10.6339
▁veelvuldig	-10.6339
▁zwolle	-10.6339
▁vertoont	-10.634
▁stijgen	-10.634
▁plaatsvond	-10.634
▁percentage	-10.634
▁var	-10.6345
▁voorganger	-10.6345
▁1966	-10.6351
▁bruggen	-10.6351
▁geleverd	-10.6353
spin	-10.6355
▁bonte	-10.6358
planten	-10.6363
verbinding	-10.6372
▁lieten	-10.6374
▁zover	-10.6375
activiteit	-10.6377
▁wetenschappen	-10.6377
▁leefden	-10.638
▁onderlinge	-10.6386
varia	-10.639
▁breedte	-10.6392
▁onduidelijk	-10.6393
nassau	-10.6394
ball	-10.6395
▁artiesten	-10.6395
▁luchtmacht	-10.6398
hall	-10.6404
paard	-10.6407
bak	-10.6407
box	-10.6414
▁henri	-10.642
▁leerde	-10.6424
bom	-10.6424
▁betalen	-10.6428
▁instituut	-10.6431
verhalen	-10.6432
vlinder	-10.6441
▁wis	-10.6442
▁vervaardigd	-10.6447
isotoop	-10.6447
▁finland	-10.6448
▁steeg	-10.6448
▁verzorgd	-10.645
▁ziel	-10.6451
olie	-10.6451
▁bijdrage	-10.6452
▁neerslag	-10.6452
▁stoom	-10.6455
▁versies	-10.6457
▁behoefte	-10.6459
▁vestigde	-10.6471
▁afval	-10.6478
▁lever	-10.649
wijzen	-10.6491
nische	-10.6492
▁dalen	-10.6496
▁religies	-10.6497
stem	-10.6499
▁noorwegen	-10.6502
▁dordrecht	-10.6502
▁friedrich	-10.6502
seksueel	-10.6502
▁armoede	-10.6502
gedreven	-10.6502
▁proberen	-10.6502
▁inzet	-10.6503
▁bell	-10.6506
▁1959	-10.6509
▁telken	-10.6509
▁opmerkelijke	-10.6512
▁standpunt	-10.6517
▁kampioen	-10.6517
▁conflicten	-10.6519
▁erkenning	-10.6531
▁deense	-10.6533
trouw	-10.6534
verandering	-10.6544
materiaal	-10.6544
vocht	-10.6549
▁ziekten	-10.6551
▁leo	-10.6552
▁habsburg	-10.6556
▁interview	-10.6556
▁uranium	-10.6556
▁winschoten	-10.6556
▁conclusie	-10.6556
▁instrumenten	-10.6557
▁rein	-10.656
ami	-10.6561
▁pascal	-10.6561
▁kortrijk	-10.6562
▁gematigd	-10.6562
gif	-10.6564
▁1958	-10.6564
▁kaap	-10.6564
▁eiwitten	-10.6564
ity	-10.6565
▁vee	-10.6567
▁tekens	-10.6575
doende	-10.6579
▁methoden	-10.658
▁tegenstanders	-10.6581
▁machtig	-10.6583
▁seconden	-10.6584
rail	-10.6585
bach	-10.6585
▁geschat	-10.659
▁zus	-10.659
-17	-10.6591
rechtvaardig	-10.6593
▁relaties	-10.6594
peil	-10.6595
▁miljoenen	-10.6595
▁spier	-10.6597
kap	-10.6603
adres	-10.6605
▁poort	-10.6606
té	-10.6606
▁typisch	-10.6606
▁geliefd	-10.6609
▁pius	-10.661
▁neutronen	-10.6611
▁resolutie	-10.6611
▁opgelost	-10.6611
▁talrijke	-10.6612
▁duitstalige	-10.6612
▁bureau	-10.6612
▁noors	-10.6613
▁athene	-10.6616
▁sleutel	-10.6618
verdrag	-10.6621
uma	-10.6622
▁zeeland	-10.6624
▁figuren	-10.6625
▁documenten	-10.6629
▁beroeps	-10.6629
▁echtgenote	-10.663
vogel	-10.6634
▁laagste	-10.6637
▁onderstaande	-10.6637
wood	-10.6637
▁dik	-10.664
heilig	-10.6645
▁gevoel	-10.6651
getal	-10.6651
iale	-10.6654
bur	-10.6654
▁overeenkomsten	-10.6656
▁reacties	-10.6658
hydr	-10.6662
▁groenlinks	-10.6666
▁bisdom	-10.6667
▁ertoe	-10.6671
▁1964	-10.6674
▁1942	-10.6674
▁stappen	-10.6675
▁samenhang	-10.6675
streep	-10.6675
braak	-10.6678
pijp	-10.668
▁amsterdamse	-10.6681
▁daaruit	-10.6681
▁ernstig	-10.6685
▁daaropvolgend	-10.6694
▁betere	-10.67
▁resten	-10.6701
cycl	-10.6703
waai	-10.6708
▁golden	-10.6712
front	-10.6715
▁manifest	-10.6717
▁bevond	-10.6718
twee	-10.6718
▁concerten	-10.6721
▁rembrandt	-10.6722
▁collega	-10.6722
▁verkrijgen	-10.6722
▁overwegend	-10.6722
▁sneeuw	-10.6723
▁steenkool	-10.6723
▁streven	-10.6724
▁vergelijken	-10.6726
▁enorm	-10.6727
▁ijstijd	-10.6728
▁mensenrechten	-10.6729
▁1933	-10.673
grafie	-10.6758
bergen	-10.6766
▁constante	-10.6774
▁houding	-10.6774
▁broers	-10.6777
▁introduceerde	-10.6778
▁jupiter	-10.6778
▁verondersteld	-10.6778
▁beperking	-10.6778
▁aangewezen	-10.6778
▁mengsel	-10.6778
▁tikal	-10.6778
▁vernieuwing	-10.6778
▁video	-10.6779
▁kruistocht	-10.678
▁vondsten	-10.6785
▁1938	-10.6786
▁invloeden	-10.6788
▁onderneming	-10.679
▁bord	-10.6792
▁franken	-10.6793
▁theologie	-10.6794
lecht	-10.6796
fort	-10.6798
uiven	-10.68
▁bevrijd	-10.6801
▁zwak	-10.6801
▁vinger	-10.6807
▁leeft	-10.6811
tegenwoordig	-10.6813
▁filosoof	-10.6813
metrie	-10.6819
schaal	-10.6825
▁kre	-10.6825
special	-10.6828
▁aristoteles	-10.6834
▁oorzaken	-10.6834
▁keltische	-10.6834
▁ondersteunen	-10.6835
▁schilderkunst	-10.6836
arts	-10.6837
▁dode	-10.6837
taan	-10.6837
▁herkomst	-10.6838
▁kalium	-10.6838
kanker	-10.6839
▁ya	-10.6841
▁gebonden	-10.6841
▁dur	-10.6847
▁werkzaam	-10.6848
▁vloot	-10.6852
drukken	-10.6864
tram	-10.6865
vormig	-10.6866
aw	-10.687
oudgrieks	-10.6874
▁aangebracht	-10.6876
▁she	-10.6884
▁wilhelm	-10.6889
▁aangeboden	-10.6891
▁justitie	-10.6891
▁moeite	-10.6891
▁praktische	-10.6891
▁veroveren	-10.6892
▁lukte	-10.6895
▁geestelijke	-10.6898
rif	-10.6902
▁afgelopen	-10.6903
oude	-10.6908
later	-10.6912
▁verschilt	-10.6913
tussen	-10.6918
erijen	-10.6935
▁heelal	-10.6942
▁ferdinand	-10.6947
apparaat	-10.6947
▁herdenking	-10.6947
▁reagan	-10.6947
hop	-10.6948
▁talloze	-10.6949
▁zogenoemd	-10.695
▁1956	-10.6955
▁ontbreken	-10.6955
til	-10.6959
▁onbekend	-10.6961
▁gelijke	-10.6963
▁proef	-10.6963
▁plekken	-10.6967
alle	-10.6973
brugge	-10.6975
▁intussen	-10.6979
▁tournee	-10.698
▁ev	-10.6986
▁wedero	-10.6986
▁singles	-10.6986
pad	-10.6988
▁stromen	-10.6996
oni	-10.6999
blijven	-10.7002
technisch	-10.7003
▁bill	-10.7003
▁fokker	-10.7005
▁gewond	-10.7005
▁gelijknamig	-10.7005
▁mobiele	-10.7007
jarig	-10.7007
▁besmet	-10.7008
dict	-10.7008
▁getrouwd	-10.7008
▁zuidoost	-10.7009
▁andre	-10.7012
–19	-10.7013
▁offer	-10.7014
beheer	-10.7014
▁binnenlandse	-10.7017
▁bijeen	-10.7018
▁ooster	-10.7022
boe	-10.7023
▁bekendheid	-10.7023
▁stromingen	-10.7025
ky	-10.7027
▁diploma	-10.7027
▁kerkelijke	-10.7029
brak	-10.7031
haus	-10.7032
▁mega	-10.7035
schip	-10.7036
▁meende	-10.7037
▁wild	-10.7044
▁belg	-10.7045
▁bloemen	-10.7046
▁afscheid	-10.7047
▁verantwoord	-10.705
▁kunsten	-10.7056
▁babylon	-10.7058
▁dateren	-10.706
oep	-10.706
bureau	-10.7061
bereik	-10.7062
▁afghanistan	-10.7062
▁octrooi	-10.7062
▁professionele	-10.7062
▁willekeurig	-10.7062
▁vaticaan	-10.7062
▁ondersteund	-10.7064
▁korea	-10.7065
▁angst	-10.7069
▁datum	-10.7072
bru	-10.7073
knop	-10.7074
comp	-10.7075
bewerking	-10.7077
▁bijnaam	-10.7082
3)	-10.7084
▁hoeft	-10.7086
▁hiv	-10.7087
▁kg	-10.7088
▁paas	-10.709
▁acc	-10.7097
beelden	-10.7097
vast	-10.7102
▁congo	-10.711
▁heerst	-10.7112
▁chro	-10.7112
oy	-10.7113
kor	-10.7119
▁grammatica	-10.712
▁satelliet	-10.712
▁extreem	-10.712
▁immigranten	-10.712
▁spanjaarden	-10.712
▁voorlopig	-10.712
▁blijken	-10.712
▁weleens	-10.7121
▁hertogdom	-10.7122
▁jodendom	-10.7123
▁krijgs	-10.7123
▁seks	-10.7125
▁leerling	-10.7127
▁belgen	-10.7128
zender	-10.713
▁fal	-10.7131
centrale	-10.7132
▁afgesloten	-10.7134
▁overgeleverd	-10.7135
▁(14	-10.7152
▁beroemd	-10.7153
▁afbeeldingen	-10.7153
▁heb	-10.7154
schrijving	-10.7157
▁vooraf	-10.7164
▁arbeid	-10.717
clus	-10.7174
▁caligula	-10.7178
▁hoogleraar	-10.7178
▁symptomen	-10.7178
▁beethoven	-10.7178
▁automatisch	-10.7178
▁extrem	-10.7178
▁gratis	-10.7179
▁voelde	-10.718
▁franstalige	-10.7181
▁afrikaans	-10.7182
▁aangesloten	-10.7182
▁jung	-10.7184
arbeid	-10.7184
▁brits	-10.7184
▁1943	-10.7187
▁woningen	-10.7193
▁vervolging	-10.7194
▁voorwaarden	-10.7195
▁klaar	-10.7203
ël	-10.7206
▁hits	-10.7209
▁plein	-10.7212
_3	-10.722
wijn	-10.7225
snel	-10.723
▁hieruit	-10.7236
▁beatrix	-10.7236
▁huygens	-10.7236
▁karakteristiek	-10.7236
▁koloniën	-10.7236
▁oekraïne	-10.7236
▁beschouwen	-10.7237
▁diameter	-10.7238
▁zonnestelsel	-10.7238
▁streken	-10.724
▁hevig	-10.7242
ficeerd	-10.7242
▁disc	-10.7246
▁non	-10.7248
▁waarheid	-10.7249
▁mtoe	-10.7251
▁verwijzen	-10.7253
▁opbouw	-10.7254
▁spanning	-10.7257
ronde	-10.7265
sector	-10.7267
▁geslachts	-10.7275
maak	-10.7283
aziatische	-10.7285
▁danken	-10.7289
oniem	-10.7293
gelopen	-10.7293
▁gewijzigd	-10.7295
▁strategisch	-10.7295
competitie	-10.7295
▁militairen	-10.7295
ministr	-10.7296
▁voortgezet	-10.73
▁1951	-10.7303
▁camera	-10.7306
▁werkwoord	-10.7307
▁verschijnselen	-10.731
▁steken	-10.7312
▁discipline	-10.7314
▁levend	-10.7314
magne	-10.7315
▁evenwel	-10.7319
rry	-10.7325
bracht	-10.7328
▁missie	-10.7331
rug	-10.7332
▁zwem	-10.7337
mei	-10.7341
▁uitgeroepen	-10.7342
fried	-10.7342
▁tropische	-10.7345
▁cast	-10.7349
verdeling	-10.7353
daagse	-10.7354
▁departement	-10.7354
▁vergelijkbare	-10.7354
▁jozef	-10.7354
▁oneindig	-10.7354
▁samuel	-10.7355
▁rechtbank	-10.7357
▁angeles	-10.736
nederlandse	-10.7365
▁ruimtevaart	-10.737
▁daartoe	-10.737
▁sterkte	-10.737
▁contacten	-10.7372
▁cult	-10.7379
schild	-10.7387
▁feestdag	-10.7388
▁kloosters	-10.7391
democratisch	-10.7397
▁drukken	-10.7397
stoot	-10.7398
▁zink	-10.7398
▁polder	-10.7406
▁schakel	-10.7406
▁critici	-10.7414
▁expeditie	-10.7414
▁platteland	-10.7414
▁gesteund	-10.7414
▁filosofische	-10.7415
▁bezat	-10.7416
▁brandstof	-10.7417
▁kijken	-10.7421
▁noordwest	-10.7424
▁staal	-10.7429
▁rod	-10.7434
▁omloop	-10.7442
▁geleerd	-10.7445
▁doop	-10.7451
▁bevrijding	-10.7451
▁zwakke	-10.7456
bot	-10.7458
-15	-10.7469
▁overgebleven	-10.7474
▁plotseling	-10.7474
▁sprekers	-10.7474
▁beloofd	-10.7474
▁kondigde	-10.7474
strook	-10.7476
▁getijden	-10.7476
▁gerard	-10.7476
tering	-10.7478
▁overleven	-10.748
▁hoort	-10.7483
▁versloeg	-10.7484
50.000	-10.7486
▁dagelijkse	-10.7488
atoom	-10.7494
light	-10.7495
▁sin	-10.7496
▁(10	-10.75
▁probeer	-10.75
▁boodschap	-10.7508
steun	-10.7515
▁venlo	-10.7522
troepen	-10.7523
lessen	-10.753
▁geleerden	-10.753
wetenschap	-10.7533
▁koloniale	-10.7534
▁medaille	-10.7534
▁philips	-10.7534
▁profeet	-10.7534
▁verlichting	-10.7534
▁overtuigd	-10.7537
nederlands	-10.7542
▁1954	-10.7542
▁begrippen	-10.7544
▁gemeenschappen	-10.7547
▁schilderij	-10.7547
▁herstellen	-10.7548
▁artikelen	-10.7549
▁leiders	-10.755
stations	-10.756
ionele	-10.7567
▁oefen	-10.7568
▁wissel	-10.7569
houdende	-10.7569
▁belangen	-10.7574
▁dol	-10.7574
▁recent	-10.7574
vak	-10.7575
anim	-10.7579
face	-10.7592
▁bedreiging	-10.7595
▁passagiers	-10.7595
▁verminderd	-10.7595
▁primair	-10.7595
▁zingen	-10.7598
lier	-10.7599
▁1952	-10.7602
▁friesland	-10.7604
elektro	-10.7606
▁detail	-10.7606
▁woning	-10.7607
▁pand	-10.761
▁christen	-10.761
▁hebreeuws	-10.7614
▁gemeentelijk	-10.7615
▁anno	-10.7621
▁geur	-10.7622
▁vleugel	-10.7624
▁hielden	-10.7624
▁voldoen	-10.7627
▁cer	-10.7632
▁kleinste	-10.7636
▁arabisch	-10.7643
schrijver	-10.7652
▁amersfoort	-10.7656
▁verdwijnen	-10.7656
▁washington	-10.7656
▁roermond	-10.7656
▁herkennen	-10.7656
▁vestigen	-10.7656
▁simpel	-10.7657
▁viool	-10.7658
▁sloten	-10.7661
▁verwachting	-10.7663
▁shi	-10.7665
verklaring	-10.7669
stromen	-10.7671
ios	-10.7675
gestemd	-10.7676
▁bevatte	-10.7678
▁verslag	-10.7681
▁bui	-10.7682
▁pagina	-10.7684
▁wijd	-10.7691
▁stamt	-10.7695
dans	-10.7702
doek	-10.7703
ziekte	-10.7706
▁gezond	-10.7706
▁onvoldoende	-10.7717
esturingssysteem	-10.7717
fabrikant	-10.7717
▁ingrijpen	-10.7717
▁prestatie	-10.7717
café	-10.7718
ïsche	-10.7721
▁jury	-10.7722
▁kunstmatig	-10.7723
▁graag	-10.7724
▁alsook	-10.7725
volle	-10.7728
court	-10.774
▁geacht	-10.7745
▁gevoerd	-10.7747
rea	-10.7748
▁radi	-10.7756
▁grootschalige	-10.7757
orkest	-10.7759
▁galilei	-10.7779
▁halverwege	-10.7779
▁particulier	-10.7779
▁verdedigen	-10.7779
▁varieert	-10.7779
▁gesprek	-10.7779
▁hus	-10.7781
▁secretaris	-10.7782
▁werkten	-10.7782
opbrengst	-10.7784
▁gepland	-10.7786
▁verschillend	-10.7788
▁lucas	-10.7791
▁neef	-10.7793
100	-10.7793
heem	-10.7794
▁resulteerde	-10.7797
▁chili	-10.78
▁opgeslagen	-10.7801
fla	-10.7802
stam	-10.7803
stoten	-10.7806
geeft	-10.7808
▁sco	-10.7809
▁voorwaarde	-10.781
▁ingenomen	-10.7814
▁moslim	-10.7815
ella	-10.7819
▁omhoog	-10.7824
▁voorbereiding	-10.7825
▁reed	-10.7826
wagen	-10.7832
▁geel	-10.7832
▁wall	-10.7833
▁ballet	-10.7835
▁waal	-10.7838
▁aluminium	-10.7841
▁himalaya	-10.7841
▁himmler	-10.7841
▁mountain	-10.7841
▁betrof	-10.7841
▁vertrouwen	-10.7841
▁bleken	-10.7841
▁getuigen	-10.7841
▁experimenten	-10.7844
partijen	-10.7847
▁1934	-10.7849
▁elite	-10.7852
▁donkere	-10.7857
economie	-10.7859
klassieke	-10.7859
▁bang	-10.7862
▁correct	-10.7862
paar	-10.7867
▁jarenlang	-10.7868
trok	-10.7873
▁stadium	-10.7875
icum	-10.7876
py	-10.788
moedig	-10.7881
▁mythen	-10.7881
bellen	-10.7887
▁schadelijk	-10.7895
▁migratie	-10.7903
licentie	-10.7904
▁artis	-10.7911
onderwijs	-10.7913
zaken	-10.7917
▁fruit	-10.7917
▁pap	-10.7918
▁beginsel	-10.7959
▁streng	-10.796
▁efficiënt	-10.7966
▁beslissen	-10.7966
▁natrium	-10.7966
▁niemand	-10.7966
iro	-10.7967
▁oftewel	-10.7967
▁hyper	-10.797
examen	-10.7973
fel	-10.7975
aba	-10.7975
▁1955	-10.7976
▁1922	-10.7976
▁componisten	-10.798
▁gif	-10.7982
samen	-10.7983
▁voorafgaand	-10.7987
scheiding	-10.7987
▁bart	-10.799
▁waarnemen	-10.8001
▁seconde	-10.8002
alia	-10.8005
▁ontwerpen	-10.8006
▁filip	-10.8007
▁procedure	-10.8007
ère	-10.8015
voet	-10.8017
▁wijst	-10.8018
▁rechters	-10.8019
▁achtste	-10.8021
wedstrijden	-10.8022
▁voedings	-10.8026
▁leef	-10.8027
▁laboratorium	-10.8029
▁calcium	-10.8029
student	-10.8032
gracht	-10.8034
▁bevonden	-10.8034
▁schild	-10.8037
▁orgaan	-10.8039
singel	-10.8041
gist	-10.8044
▁keizerlijke	-10.8044
▁taalkundig	-10.8052
▁hersenen	-10.8053
▁toename	-10.8062
▁kathedraal	-10.8066
lieve	-10.8068
▁tibetaanse	-10.8069
▁volken	-10.8069
gun	-10.8071
yan	-10.8072
▁typen	-10.8089
voeren	-10.809
#	-10.8093
▁organiseerde	-10.8093
▁palestina	-10.8093
▁beatles	-10.8093
▁apollo	-10.8093
▁complete	-10.8094
▁spanningen	-10.8098
▁opmars	-10.81
▁aanvoer	-10.8102
▁gewesten	-10.8106
▁toestel	-10.811
▁vergroot	-10.8114
geslacht	-10.8115
universiteit	-10.8118
▁10.000	-10.812
▁vermoeden	-10.8125
-6	-10.8125
▁schol	-10.8126
organisaties	-10.8132
▁gebruikelijke	-10.8133
quin	-10.8146
▁brigade	-10.8157
▁symbolisch	-10.8157
american	-10.8157
▁aanpassing	-10.8157
▁catalaans	-10.8157
▁estland	-10.8158
▁divisie	-10.8159
▁1965	-10.8168
▁molecuul	-10.817
▁slang	-10.8177
gezelschap	-10.8179
liet	-10.8183
golven	-10.8184
lengte	-10.8185
▁tekenen	-10.8187
jager	-10.8187
▁fossielen	-10.8196
▁naakt	-10.8197
▁wandel	-10.8208
▁800	-10.8212
▁duren	-10.8215
feld	-10.8216
▁geografische	-10.8216
▁piramide	-10.8218
circuit	-10.8222
▁scheepvaart	-10.8222
trompet	-10.8222
▁wagner	-10.8222
▁gehaald	-10.8222
▁hoorde	-10.8222
▁longkanker	-10.8222
gewassen	-10.8223
boerderij	-10.8224
banden	-10.8225
▁groeiende	-10.8229
▁1929	-10.8231
▁roze	-10.8232
▁auteursrecht	-10.8235
▁dominante	-10.8236
krijg	-10.8239
▁free	-10.8241
▁lees	-10.8245
problemen	-10.825
minister	-10.825
lab	-10.8253
▁revolutionair	-10.8272
▁trouwen	-10.8278
▁wagen	-10.8285
▁inspiratie	-10.8287
▁plaatsgevonden	-10.8287
misbruik	-10.8287
▁dwars	-10.8287
▁medium	-10.8292
▁1937	-10.8296
▁cup	-10.8296
▁uitgang	-10.8298
▁lind	-10.8299
koreaanse	-10.8301
maatschappelijke	-10.8302
▁general	-10.8307
▁kap	-10.8309
▁vrouwtjes	-10.8314
▁conservatieve	-10.8314
▁omgezet	-10.8315
analyse	-10.8316
ory	-10.8317
tioneel	-10.8318
schuld	-10.832
▁reve	-10.8328
▁show	-10.8333
▁raakten	-10.834
▁meervoud	-10.8341
▁vijanden	-10.8349
▁onderscheidt	-10.835
equivalent	-10.8352
▁infanterie	-10.8352
▁geheugen	-10.8352
▁zaterdag	-10.8352
▁kepler	-10.8352
▁harmonie	-10.8352
biljet	-10.8352
▁domein	-10.8352
▁intellectuele	-10.8352
▁vrees	-10.8353
▁meetkunde	-10.8354
▁amstel	-10.8358
▁vic	-10.8365
▁koel	-10.8367
▁amerikaans	-10.8371
▁laser	-10.8375
pur	-10.8382
▁losse	-10.8384
klimaat	-10.8384
▁lens	-10.8388
▁afgezet	-10.8392
ontwikkeling	-10.8404
▁lastig	-10.8408
lith	-10.8411
zur	-10.8413
component	-10.8415
▁recreatie	-10.8418
▁mechanisch	-10.8418
▁mechelen	-10.8418
▁snavel	-10.8418
moskee	-10.8418
arium	-10.8419
▁gegeten	-10.8419
▁systematisch	-10.8419
▁personages	-10.8421
▁dagblad	-10.8427
▁doek	-10.8431
▁gedragen	-10.8439
▁italiaans	-10.844
▁horus	-10.844
▁belastingen	-10.8442
ary	-10.8442
schaft	-10.8448
zand	-10.8452
-14	-10.8457
gio	-10.8461
▁onbekende	-10.8468
▁meren	-10.8469
schillen	-10.8471
eventuele	-10.848
oh	-10.8481
▁voert	-10.8483
impressionisme	-10.8484
▁organiseren	-10.8484
▁uitspraken	-10.8484
▁meningitis	-10.8484
▁slavische	-10.8486
▁oosters	-10.8486
▁oscar	-10.8486
▁kwaad	-10.849
▁kapel	-10.849
▁speer	-10.8492
▁geheime	-10.8495
vlak	-10.8497
▁ontmoeting	-10.8503
▁zeventiende	-10.8504
▁hoofdstuk	-10.8509
▁hierover	-10.8513
▁kim	-10.8515
▁sim	-10.8515
limburg	-10.8522
▁semi	-10.8522
▁ernst	-10.853
waarden	-10.8539
▁heide	-10.8543
new	-10.8544
▁100.000	-10.8546
▁cit	-10.8547
ijver	-10.8547
evenement	-10.8551
▁montreal	-10.8551
lidmaatschap	-10.8551
▁berekend	-10.8551
▁goddelijke	-10.8552
▁almere	-10.8553
▁gil	-10.8553
▁evenementen	-10.8553
▁levensloop	-10.8554
▁verwante	-10.8565
▁gedrukt	-10.8566
▁naamwoord	-10.8567
▁wisselen	-10.8568
▁stadhouder	-10.8572
uni	-10.8572
▁villa	-10.8575
▁zuidwest	-10.8576
▁chu	-10.8581
▁eigenschap	-10.8581
▁gedichten	-10.8585
▁tiende	-10.8585
festival	-10.8586
wetenschappen	-10.8591
▁bestuurd	-10.8594
▁duik	-10.8595
horn	-10.8596
char	-10.8596
lex	-10.8601
▁abba	-10.8601
▁regent	-10.8602
▁zender	-10.8608
▁contra	-10.8615
▁hindoe	-10.8618
▁boudewijn	-10.8618
▁signaal	-10.8618
voorzitter	-10.8618
▁etymologie	-10.8619
▁oordeel	-10.862
biliteit	-10.8621
▁black	-10.8624
rok	-10.8625
▁vandaar	-10.8627
syn	-10.8631
▁wijziging	-10.8635
▁bewezen	-10.8638
slot	-10.8639
▁tekort	-10.8641
schrijf	-10.8645
▁overlevering	-10.865
aap	-10.8653
▁1848	-10.8653
twintig	-10.8657
vlaams	-10.8657
regering	-10.8658
▁oostelijk	-10.8665
▁roken	-10.8671
personage	-10.8682
▁comité	-10.8685
▁gereformeerde	-10.8685
▁verbeteren	-10.8685
commandant	-10.8685
▁formatie	-10.8687
▁amateur	-10.8687
▁geluk	-10.8687
▁communisme	-10.8688
hai	-10.8692
▁1928	-10.8693
▁1924	-10.8694
▁boot	-10.8698
▁omroep	-10.8698
▁delta	-10.8699
▁verbod	-10.8702
lijm	-10.8704
▁uitgaven	-10.8715
orum	-10.8716
wiens	-10.8716
klep	-10.8716
ateur	-10.8717
▁publicaties	-10.8719
show	-10.8733
zan	-10.8737
▁deelname	-10.874
▁passie	-10.874
▁vreemd	-10.8742
▁bezoeken	-10.8745
schoen	-10.8748
predi	-10.8751
▁kam	-10.8752
verschuiving	-10.8753
▁expliciet	-10.8753
▁ochtend	-10.8753
▁verbindt	-10.8753
▁deelnemers	-10.8753
2.000	-10.8754
▁drenthe	-10.8754
ontsteking	-10.8754
▁incident	-10.8754
▁aardappel	-10.8755
▁chloor	-10.8757
▁kunstschilder	-10.8759
▁gekleurd	-10.876
vuur	-10.876
halve	-10.8762
uiteraard	-10.8762
uth	-10.8766
▁spectrum	-10.877
▁indische	-10.8772
▁blanke	-10.8773
▁zwaarder	-10.8774
rijden	-10.8794
dubbel	-10.8794
▁bat	-10.8796
literatuur	-10.8796
▁getekend	-10.8796
avond	-10.8797
▁behoud	-10.8801
▁capaciteit	-10.8803
▁gevangenen	-10.8804
▁tong	-10.881
egypt	-10.882
▁terugkeren	-10.8822
▁filosofen	-10.8822
▁gekoppeld	-10.8822
▁kennedy	-10.8822
▁leibniz	-10.8822
▁zeldzaam	-10.8822
▁verbetering	-10.8822
▁hooft	-10.8822
▁farao	-10.8822
▁claus	-10.8823
▁beslist	-10.8823
▁toneelstuk	-10.8824
▁andré	-10.8824
▁abdij	-10.8829
▁cyclo	-10.883
▁1957	-10.8831
▁1935	-10.8832
verschil	-10.8839
ika	-10.8845
▁250	-10.8847
▁gezamenlijke	-10.8847
▁dekker	-10.8849
▁commun	-10.885
▁schaak	-10.8852
▁verbranding	-10.8857
▁cra	-10.8864
▁beheerst	-10.8865
zuiver	-10.8866
▁vakgebied	-10.8868
bloed	-10.8873
ón	-10.8875
▁doorbraak	-10.8877
relatie	-10.8877
▁3000	-10.8881
▁eiwit	-10.8883
kritisch	-10.8885
▁aanslag	-10.8889
lio	-10.889
▁financieel	-10.8891
▁hezbollah	-10.8891
▁lubbers	-10.8891
▁palestijnse	-10.8891
▁wimbledon	-10.8891
▁herfst	-10.8891
scène	-10.8891
ommen	-10.8891
▁personeel	-10.8892
▁lijsttrekker	-10.8892
▁stedelijke	-10.8893
▁tellen	-10.8901
▁2023	-10.8901
▁wand	-10.8906
▁wieler	-10.8908
▁breder	-10.8911
sticht	-10.8912
▁zuivere	-10.8912
▁geringe	-10.8913
▁straten	-10.8914
▁christelijk	-10.8915
verhaal	-10.8917
gur	-10.8918
▁startte	-10.8933
gedrag	-10.8935
zak	-10.8938
mark	-10.8942
▁mensheid	-10.8951
▁francis	-10.8958
jer	-10.8958
▁abraham	-10.896
▁beschikking	-10.896
▁cavalerie	-10.896
▁precieze	-10.896
▁referendum	-10.896
▁allereerst	-10.896
▁reageren	-10.896
schaduw	-10.8961
▁stevig	-10.8961
▁ontleend	-10.8961
▁aids	-10.8962
life	-10.8963
▁1921	-10.8972
▁wolken	-10.8972
▁klassen	-10.8974
wold	-10.8974
▁hongaars	-10.8975
▁koppel	-10.8977
▁relatieve	-10.8978
▁definitieve	-10.8982
▁lake	-10.8983
▁leon	-10.8984
vergelijking	-10.8985
▁%	-10.8989
▁graan	-10.8993
▁inzichten	-10.8994
▁far	-10.8996
horst	-10.8998
dronk	-10.9
▁organische	-10.9002
▁buis	-10.9006
buiten	-10.9011
illy	-10.9013
▁kenmerk	-10.9021
bepaling	-10.9029
restaurant	-10.903
voegsel	-10.903
▁astronomisch	-10.903
▁elizabeth	-10.903
▁geassocieerd	-10.903
▁gezocht	-10.903
▁nedersaksisch	-10.903
▁oeuvre	-10.903
▁schizofrenie	-10.903
▁verschijnt	-10.903
▁gebeuren	-10.903
▁zuiderzee	-10.9031
pakket	-10.9031
▁michel	-10.9031
▁structuren	-10.9031
▁nationaliteit	-10.9034
▁toegenomen	-10.9035
▁barok	-10.9037
▁zeeniveau	-10.9038
▁1927	-10.904
▁indianen	-10.9042
wolk	-10.9047
▁trachtte	-10.9051
oire	-10.9051
▁verslaan	-10.9054
▁daalde	-10.9056
▁rijst	-10.9058
▁ritme	-10.9059
▁reisde	-10.9061
▁grenst	-10.9061
▁arrondissement	-10.9065
▁diepe	-10.9065
▁etc	-10.9071
college	-10.9081
▁peper	-10.9083
▁120	-10.9086
jood	-10.9088
bronnen	-10.9088
nacht	-10.9092
▁beurs	-10.91
▁permanente	-10.9101
▁alliantie	-10.9101
▁alternatief	-10.9101
▁introductie	-10.9101
▁logaritme	-10.9101
▁nakomelingen	-10.9101
▁toevoeging	-10.9101
▁verkreeg	-10.9101
geschakeld	-10.9101
▁league	-10.9101
▁maurits	-10.9101
▁externe	-10.9101
gekocht	-10.9101
▁luister	-10.9101
▁opvallende	-10.9102
▁omstreden	-10.9102
bekken	-10.9104
▁districten	-10.9105
▁onzeker	-10.9106
▁toekomstige	-10.9108
▁zitting	-10.9108
▁biologie	-10.9108
▁uitgave	-10.9108
▁1923	-10.9109
▁central	-10.9109
chloride	-10.911
zanger	-10.911
▁lezer	-10.9111
straf	-10.9118
▁vld	-10.9119
academi	-10.9122
gevoelig	-10.9124
moed	-10.9126
▁zekerheid	-10.9136
▁toets	-10.9142
▁klei	-10.9144
blo	-10.9149
vraag	-10.915
standaard	-10.9158
▁strenge	-10.9169
▁bestuderen	-10.9172
▁kolonisten	-10.9172
▁osiris	-10.9172
▁portugese	-10.9172
▁begraafplaats	-10.9172
▁infrastructuur	-10.9172
▁ondersteuning	-10.9172
▁verlengd	-10.9172
▁florence	-10.9172
bestrijding	-10.9175
▁trekt	-10.9178
shir	-10.918
▁stelden	-10.9184
▁perm	-10.9185
▁middelbare	-10.9186
▁dikke	-10.9187
▁schel	-10.9188
▁zangeres	-10.9188
▁schilderde	-10.9192
▁groenland	-10.9192
offer	-10.9196
▁tibetaans	-10.9199
gli	-10.9203
▁deelnemen	-10.9204
broeder	-10.9205
geleverd	-10.9207
▁gassen	-10.9209
▁france	-10.9213
▁katholiek	-10.9219
grenzen	-10.9221
town	-10.9222
laan	-10.9224
▁nasa	-10.9231
▁astronomie	-10.9232
▁neuro	-10.9235
▁bijdragen	-10.9235
▁esperanto	-10.9243
▁toxicologie	-10.9243
▁vernietigen	-10.9243
▁toegewezen	-10.9243
▁saddam	-10.9243
▁service	-10.9243
▁monetair	-10.9243
▁werknemers	-10.9244
raketten	-10.9244
▁gastheer	-10.9244
▁gevuld	-10.9246
binnen	-10.925
▁schedel	-10.9252
gestoken	-10.9253
▁evenaar	-10.9257
▁alchemie	-10.9269
▁verwezen	-10.9271
▁schijf	-10.9276
▁game	-10.9285
baai	-10.9296
seizoen	-10.93
regisseur	-10.9315
▁heerschappij	-10.9315
▁jozua	-10.9315
▁symfonie	-10.9315
▁uitgereikt	-10.9315
vervuiling	-10.9315
▁mineraal	-10.9315
▁scheeps	-10.9315
tuin	-10.9321
▁gedeeld	-10.9322
▁bevolkingsgroep	-10.9322
trap	-10.9323
rica	-10.9323
▁frankische	-10.9325
▁korter	-10.9327
▁jongste	-10.9334
▁vertrokken	-10.9339
▁draad	-10.9346
▁katholieken	-10.9348
▁voorstellen	-10.9349
▁aphrodite	-10.9354
nier	-10.9357
▁organisme	-10.9357
▁nadien	-10.9362
order	-10.9363
▁1830	-10.9366
frankrijk	-10.9374
gevangen	-10.9376
control	-10.9378
elektrisch	-10.9385
▁indirect	-10.9387
▁strategie	-10.9387
▁grondlegger	-10.9388
▁psalm	-10.9388
▁grijs	-10.9388
▁voegde	-10.9388
▁verbrand	-10.9389
▁communisten	-10.939
▁liedjes	-10.9392
▁israëlieten	-10.9392
class	-10.9395
▁lezing	-10.9397
▁bern	-10.9401
zaak	-10.9404
▁haak	-10.9407
▁hervormingen	-10.9414
▁uitgever	-10.9414
▁handelingen	-10.9414
kov	-10.9417
liep	-10.942
▁aangesteld	-10.9422
▁dun	-10.9422
ruis	-10.9424
▁vroegste	-10.9424
▁kwantum	-10.9431
▁uitmaken	-10.9443
▁monarchie	-10.9443
kast	-10.9444
▁opmerkelijk	-10.9447
akkoord	-10.9448
▁aanslagen	-10.9449
▁jacques	-10.9452
product	-10.9457
▁gehanteerd	-10.946
▁zwangerschap	-10.946
▁fundamentele	-10.9461
▁overeenstemming	-10.9461
mech	-10.9463
▁woont	-10.9464
▁enschede	-10.9465
▁protonen	-10.9467
▁nature	-10.9479
wissel	-10.9479
▁toestellen	-10.9481
wedstrijd	-10.9484
▁religieus	-10.9487
▁strafrecht	-10.9488
eep	-10.9491
▁deelstaat	-10.9493
▁boord	-10.9494
▁eiste	-10.9494
▁westelijk	-10.9495
asso	-10.9499
▁behoorden	-10.951
▁1815	-10.9511
bevolking	-10.9513
_4	-10.9524
bodem	-10.9524
vooral	-10.9528
▁brusselse	-10.9532
▁vertelt	-10.9533
▁ingewikkeld	-10.9534
▁radioactieve	-10.9534
▁achterlijf	-10.9534
▁arafat	-10.9534
▁produceerde	-10.9534
▁alfred	-10.9534
▁visserij	-10.9534
▁pruisisch	-10.9534
▁vooruitgang	-10.9534
▁drank	-10.9535
▁betekenen	-10.9535
▁methaan	-10.9535
collect	-10.9536
▁texel	-10.9536
board	-10.9538
▁lichtsnelheid	-10.9541
▁moeras	-10.9544
blue	-10.9548
▁besteed	-10.9548
="20	-10.9552
▁system	-10.9563
deutsch	-10.9564
▁natie	-10.9566
lust	-10.9584
▁geestelijk	-10.9586
▁stukje	-10.9599
sleutel	-10.9599
▁byzantium	-10.9608
▁classificatie	-10.9608
▁navolging	-10.9608
russisch	-10.9608
▁lpf	-10.9609
▁christenunie	-10.9609
▁socialist	-10.9611
gebonden	-10.9612
▁servië	-10.9612
▁gangbare	-10.9613
reken	-10.9617
▁leefgebied	-10.9619
▁tekende	-10.9622
▁larven	-10.9628
▁rente	-10.9628
wich	-10.9634
ader	-10.9636
oprichter	-10.9637
▁wim	-10.9638
▁beweerde	-10.9642
▁noemden	-10.9643
▁hess	-10.965
▁1870	-10.9652
▁prominente	-10.9653
▁leidden	-10.9667
▁commissaris	-10.9682
▁nijl	-10.9683
▁vacuüm	-10.9683
▁vrijmetselarij	-10.9683
▁zutphen	-10.9683
offensief	-10.9683
▁astrologie	-10.9683
▁erfgoed	-10.9683
▁organen	-10.9683
petersburg	-10.9683
▁heinrich	-10.9683
▁melodie	-10.9683
▁componenten	-10.9686
verschillen	-10.9686
tracht	-10.9689
▁verwond	-10.9689
▁smalle	-10.9699
klank	-10.9707
klier	-10.971
trokken	-10.9719
▁julia	-10.973
▁ondergrond	-10.9742
schieten	-10.9749
▁onderscheiding	-10.9752
verzameling	-10.9753
ladder	-10.9753
afrikaanse	-10.9755
thema	-10.9757
="13	-10.9758
point	-10.9758
nagenoeg	-10.9758
▁magnesium	-10.9758
algoritme	-10.9758
▁verbinden	-10.9758
▁verzwakt	-10.9758
▁training	-10.9758
▁isaac	-10.9759
field	-10.976
▁halfrond	-10.976
▁magnetische	-10.9762
▁zwitserse	-10.9763
winter	-10.9768
▁elementair	-10.9769
▁kalk	-10.977
vulling	-10.9776
▁rassen	-10.9777
▁koud	-10.9777
▁huur	-10.9783
▁langste	-10.9787
▁leeg	-10.9789
rechter	-10.9791
mail	-10.9791
artikel	-10.9796
▁voorbereid	-10.9797
vertegenwoordigd	-10.98
▁meteor	-10.9806
zang	-10.9808
▁zestiende	-10.9808
ologen	-10.9815
▁legt	-10.9815
▁hieraan	-10.9821
stabiel	-10.983
waarschijnlijk	-10.9831
▁fred	-10.9831
▁slachtoffer	-10.9831
▁achilles	-10.9834
▁bevorderen	-10.9834
▁hectare	-10.9834
▁relativiteits	-10.9834
▁taxonomie	-10.9834
▁perfect	-10.9834
▁politicus	-10.9834
▁verwierf	-10.9834
verbruik	-10.9834
▁vloeibaar	-10.9834
▁overgedragen	-10.9834
▁staatsgreep	-10.9836
▁brood	-10.9837
▁fictie	-10.9839
▁vierkante	-10.9841
vision	-10.9841
streken	-10.9841
▁1932	-10.9843
bedrijven	-10.9843
▁vervolgd	-10.9844
▁hoeven	-10.9844
▁vluchtte	-10.9844
spreek	-10.9846
vrijheid	-10.9849
▁belangrijker	-10.9864
▁stuw	-10.9872
▁afloop	-10.9875
▁waarneming	-10.9879
lening	-10.9883
spits	-10.9883
haar	-10.9894
afhankelijk	-10.9904
▁rap	-10.9904
▁vermelding	-10.9906
bewust	-10.9908
▁benoeming	-10.991
▁opeenvolgende	-10.991
▁gebleken	-10.991
▁overleefd	-10.991
▁beweegt	-10.991
▁versterken	-10.991
▁voegen	-10.991
formaat	-10.991
▁nabijgelegen	-10.9911
songfestival	-10.9912
▁leuven	-10.9913
staatssecretaris	-10.9913
▁aanbod	-10.9915
artiest	-10.9915
bussen	-10.9916
▁gedicht	-10.9918
ploeg	-10.9921
▁afgenomen	-10.9922
▁1916	-10.9924
legging	-10.9926
▁friese	-10.9934
▁roos	-10.9935
▁zeeuws	-10.9936
arr	-10.9965
rust	-10.9972
300	-10.9984
wijziging	-10.9987
▁beschikken	-10.9987
▁concurrentie	-10.9987
▁society	-10.9987
▁reageert	-10.9987
▁gezondheidszorg	-10.9987
▁indonesië	-10.9987
▁versterking	-10.9987
▁middag	-10.9987
▁vergroten	-10.9987
▁vikingen	-10.9987
▁lijf	-10.9988
▁beieren	-10.9988
▁draait	-10.9989
zijdig	-10.9989
▁vakbonden	-10.999
▁eeuwenlang	-10.9991
recept	-10.9991
defini	-10.9992
elaar	-10.9992
▁thans	-10.9993
▁blind	-10.9993
▁bouwwerken	-10.9996
▁wachten	-10.9997
▁parlementaire	-10.9998
▁thora	-10.9998
▁pink	-10.9998
▁bladeren	-10.9999
gelegenheden	-11.0003
second	-11.0003
▁angel	-11.0008
still	-11.0012
▁flora	-11.0013
▁zestien	-11.0014
▁successen	-11.0015
bord	-11.0017
toria	-11.0023
osa	-11.0024
▁vermoed	-11.0027
▁noordoost	-11.0034
veel	-11.0034
▁toetsen	-11.0036
▁verwantschap	-11.0045
▁gekend	-11.0048
▁sir	-11.0053
▁vereerd	-11.0054
▁verstaan	-11.0059
▁monniken	-11.0059
▁gebeurtenis	-11.006
fundament	-11.0064
microscoop	-11.0064
▁artillerie	-11.0064
▁html	-11.0064
gedraaid	-11.0065
▁entropie	-11.0065
▁studeren	-11.0065
▁lokaal	-11.0065
▁turken	-11.0065
▁kromme	-11.0068
▁onrust	-11.0069
ïsme	-11.0069
▁oudsh	-11.0072
waaronder	-11.0072
▁ondertekend	-11.0073
balans	-11.0075
▁martel	-11.0087
▁minderheden	-11.0091
="23	-11.0101
▁bezitten	-11.0106
ïne	-11.0117
▁overleg	-11.0118
▁wijzigingen	-11.0123
▁overgebracht	-11.0125
▁sediment	-11.0143
▁enzovoort	-11.0143
▁jordaan	-11.0143
▁omschreven	-11.0143
▁zeldzame	-11.0143
▁dimensie	-11.0143
▁naamgeving	-11.0143
langebaanschaats	-11.0143
▁toeristische	-11.0143
druppel	-11.0143
▁uitzonderlijk	-11.0143
▁mosterd	-11.0143
▁echtgenoot	-11.0144
▁demografie	-11.0144
▁uitslag	-11.0144
▁maximale	-11.0145
carrière	-11.0147
begrip	-11.0147
▁bewerkt	-11.0147
▁rotatie	-11.0149
afdeling	-11.0152
illus	-11.0158
▁darm	-11.0167
▁welvaart	-11.0173
▁main	-11.0187
▁deeltje	-11.0192
delta	-11.0197
="24	-11.0198
▁textiel	-11.0199
▁dominant	-11.0205
torium	-11.0208
▁diezelfde	-11.0208
▁erfelijk	-11.0212
▁nicola	-11.0218
▁stedelijk	-11.0219
▁zong	-11.022
consumptie	-11.0221
▁cornelis	-11.0221
▁eduard	-11.0221
▁geaccepteerd	-11.0221
▁lichamelijk	-11.0221
▁parochie	-11.0221
▁respect	-11.0221
▁creëren	-11.0221
▁intelligent	-11.0221
▁dreigde	-11.0221
installatie	-11.0221
▁beperken	-11.0221
▁maleis	-11.0222
▁winterspelen	-11.0223
▁atoomkern	-11.0223
▁baby	-11.0225
▁regeren	-11.0225
breuk	-11.0227
wetenschapper	-11.0228
▁trof	-11.0228
▁theoretische	-11.023
▁exacte	-11.023
visie	-11.0231
▁antropo	-11.0235
▁wetboek	-11.0236
▁bronzen	-11.0236
ledig	-11.0242
stralen	-11.0245
unk	-11.0246
▁kir	-11.0247
plasma	-11.0248
▁buurland	-11.025
="28	-11.0252
▁wales	-11.0254
genomen	-11.026
▁dak	-11.0273
row	-11.0273
▁landelijk	-11.0274
hoge	-11.0277
▁bob	-11.0279
lekken	-11.0283
▁master	-11.0294
spreken	-11.03
▁begrijpen	-11.0301
▁adolf	-11.0301
▁philipp	-11.0301
▁gelderland	-11.0301
▁troje	-11.0301
▁klm	-11.0301
▁eindigt	-11.0301
gepakt	-11.0303
▁interactie	-11.0304
storm	-11.0308
theater	-11.0309
germaanse	-11.031
▁hecht	-11.0311
record	-11.0312
▁1915	-11.0316
▁sturen	-11.0317
spoel	-11.0322
▁rijkdom	-11.0323
boot	-11.034
="26	-11.0342
▁indiase	-11.0347
▁openlijk	-11.035
▁omliggende	-11.036
gevoegd	-11.0371
dragen	-11.0374
schrijven	-11.0379
ceremonie	-11.0381
▁wapenstilstand	-11.0381
▁reputatie	-11.0381
▁academische	-11.0381
▁collins	-11.0381
▁donald	-11.0381
▁bemanning	-11.0381
▁hamlet	-11.0382
▁julius	-11.0382
▁functioneren	-11.0382
▁afgeschaft	-11.0382
▁space	-11.0382
▁import	-11.0384
▁daaraan	-11.0385
slav	-11.0387
mutatie	-11.0388
▁ozon	-11.0389
▁felle	-11.0392
meeuw	-11.0394
▁berust	-11.0395
▁pest	-11.0395
deeltjes	-11.0397
▁gereed	-11.0399
overgang	-11.0406
nevel	-11.0414
▁river	-11.0435
bestand	-11.0441
▁herb	-11.0456
getallen	-11.0457
apparatuur	-11.0461
▁bijbehorend	-11.0461
▁catalonië	-11.0461
▁heraclitus	-11.0461
▁immigratie	-11.0461
▁plaatsvindt	-11.0461
▁vloeibare	-11.0461
▁permanent	-11.0461
▁skelet	-11.0462
▁ontmoet	-11.0462
▁protestanten	-11.0462
omtrent	-11.0462
▁merendeel	-11.0463
nationalistische	-11.0464
▁veldtocht	-11.0465
polis	-11.0467
▁aansluiting	-11.0468
▁1905	-11.0469
▁1908	-11.0469
▁bestemming	-11.0472
▁klassiek	-11.0472
work	-11.0474
▁5000	-11.0477
▁eli	-11.0479
▁behield	-11.0485
pont	-11.0488
kampioenschappen	-11.0499
uitzending	-11.05
grafisch	-11.05
natur	-11.0505
ractievoorzitter	-11.0506
▁chemisch	-11.0509
▁klap	-11.0513
houdt	-11.0516
krans	-11.0516
▁dunne	-11.0521
▁sun	-11.0521
media	-11.0526
lopende	-11.0529
▁omvatte	-11.0532
zetel	-11.0537
▁piet	-11.0542
configuratie	-11.0543
▁koolstofdioxide	-11.0543
▁reguliere	-11.0543
▁statistiek	-11.0543
▁minimaal	-11.0543
▁werkloosheid	-11.0543
▁reformatie	-11.0543
▁vracht	-11.0543
▁experimentele	-11.0543
▁bezittingen	-11.0543
▁huisvest	-11.0543
▁ambitie	-11.0544
▁regeerde	-11.0544
▁samengevoegd	-11.0547
▁categorieën	-11.0549
▁gevangenis	-11.0554
chor	-11.0555
meestal	-11.0557
gerekend	-11.0559
▁mau	-11.0561
ough	-11.0563
▁helling	-11.0563
rusland	-11.0569
▁gooi	-11.0575
koel	-11.0597
straal	-11.0599
donk	-11.0599
jar	-11.0609
tallen	-11.0612
▁rollen	-11.0612
▁priemgetal	-11.0621
▁hasselt	-11.0625
▁impressionist	-11.0625
▁juridische	-11.0625
▁madrid	-11.0625
▁pythagoras	-11.0625
▁verworven	-11.0625
▁kafka	-11.0625
▁vermeende	-11.0625
▁homoseksuele	-11.0625
▁drugs	-11.0625
versnelling	-11.0625
▁uiteenlopende	-11.0625
▁hazes	-11.0625
▁decimale	-11.0625
▁radicale	-11.0625
▁motorfiets	-11.0625
neming	-11.0626
▁iraanse	-11.0626
▁hydro	-11.0626
reële	-11.0629
▁unix	-11.0633
voogd	-11.0634
▁elektronische	-11.0637
▁1925	-11.064
vergadering	-11.064
▁afgebroken	-11.0641
computer	-11.0641
latijn	-11.0641
goud	-11.0645
▁cello	-11.0645
▁jura	-11.0647
tenzij	-11.0654
▁uitstoot	-11.067
▁ever	-11.0672
concentratiekamp	-11.0681
▁kanton	-11.0684
▁herhaald	-11.0688
▁oxidatie	-11.0693
lezen	-11.0695
gaard	-11.0696
▁aankomst	-11.0699
▁eed	-11.0706
▁interessant	-11.0707
▁iraakse	-11.0707
▁litouwen	-11.0707
▁minuut	-11.0707
▁arthur	-11.0707
▁evenredig	-11.0707
▁gelijktijdig	-11.0707
3.000	-11.0707
▁aardolie	-11.0709
▁kocht	-11.0709
patronen	-11.0709
▁1911	-11.0723
republiek	-11.0724
▁hiertoe	-11.0724
▁verliep	-11.0725
modern	-11.0727
▁raakt	-11.0727
▁hum	-11.0728
loper	-11.0739
▁canon	-11.0741
arth	-11.0742
historisch	-11.0746
verkochte	-11.0748
waag	-11.0774
▁paleo	-11.0776
▁parti	-11.0779
stond	-11.0784
▁achteruit	-11.079
georiënteerd	-11.0791
membraan	-11.0791
▁decennium	-11.0791
▁financier	-11.0791
▁financiën	-11.0791
▁venetië	-11.0791
▁autonome	-11.0791
▁observa	-11.0791
▁verdreven	-11.0791
▁overijssel	-11.0791
▁ontwierp	-11.0791
▁horeca	-11.0791
science	-11.0791
▁claim	-11.0791
▁gustav	-11.0791
6.000	-11.0791
▁logica	-11.0791
▁kwijt	-11.0791
▁smith	-11.0791
knoop	-11.0792
▁gerechtelijk	-11.0793
breking	-11.0796
▁hugo	-11.0801
▁harry	-11.0803
▁moedertaal	-11.0804
▁belast	-11.0805
▁bekendgemaakt	-11.0805
▁toezicht	-11.0806
continent	-11.0808
▁1912	-11.0808
omstandigheden	-11.0811
mix	-11.0818
▁takken	-11.082
verhouding	-11.0821
▁logo	-11.0821
mobilis	-11.0824
gaf	-11.0824
▁roger	-11.0826
▁maxim	-11.0826
▁zorgden	-11.0836
▁liter	-11.0847
hij	-11.0849
bah	-11.086
▁middelste	-11.0862
▁veldslag	-11.0871
▁1850	-11.0871
▁autonomie	-11.0875
▁beschadigd	-11.0875
▁diagnose	-11.0875
▁geconcentreerd	-11.0875
▁hoofdstedelijk	-11.0875
▁spirituele	-11.0875
▁territorium	-11.0875
▁historicus	-11.0875
▁gepresenteerd	-11.0875
▁mulisch	-11.0875
subsidie	-11.0875
▁varkens	-11.0875
▁reageerde	-11.0875
▁bereikbaar	-11.0879
nitraat	-11.0879
▁voorstander	-11.0881
▁vernieuwd	-11.0881
pje	-11.0882
▁davis	-11.0883
▁toegelaten	-11.0891
▁1910	-11.0897
▁eigenaar	-11.0904
▁20.000	-11.0907
▁omringend	-11.0911
▁1890	-11.0915
gotisch	-11.0916
voorziening	-11.0917
▁schapen	-11.0918
▁carol	-11.0919
▁proza	-11.0919
blauw	-11.0921
▁dergelijk	-11.0929
900	-11.093
▁hervorming	-11.094
▁stapte	-11.0942
▁alfa	-11.0945
zonder	-11.0949
▁ep	-11.0956
waal	-11.0956
▁dwerg	-11.0958
▁begrafenis	-11.0959
▁executie	-11.0959
▁geïnteresseerd	-11.0959
▁kardinaal	-11.0959
▁pakistan	-11.0959
▁compleet	-11.0959
▁gearresteerd	-11.0959
▁thermodynamica	-11.0959
basiliek	-11.0959
▁duivel	-11.0959
▁bijeenkomst	-11.096
▁uitstekend	-11.096
▁synoniem	-11.096
segment	-11.096
▁petrus	-11.096
sleep	-11.0961
▁loopbaan	-11.0963
▁dirk	-11.0965
▁1931	-11.0969
▁1926	-11.0969
▁pomp	-11.0974
▁besef	-11.0975
▁schotse	-11.0982
duct	-11.0984
▁kenden	-11.0987
▁kilo	-11.0987
▁standbeeld	-11.0997
▁center	-11.1002
rock	-11.1006
gigant	-11.1006
▁stille	-11.1007
sterkte	-11.1011
▁lenin	-11.1013
gier	-11.1022
count	-11.1022
▁daling	-11.1026
rutte	-11.1027
▁kopie	-11.1039
▁stor	-11.1039
producer	-11.1043
▁exact	-11.1044
▁agglomeratie	-11.1045
▁favoriet	-11.1045
▁herinnering	-11.1045
▁ingenieur	-11.1045
▁unesco	-11.1045
▁geladen	-11.1045
▁boeddhistische	-11.1046
flo	-11.1049
▁depressie	-11.1061
▁wereldkampioen	-11.1065
poot	-11.1069
belasting	-11.1071
▁achttiende	-11.1074
öl	-11.1091
arius	-11.1104
▁hermann	-11.1109
▁hein	-11.1115
atio	-11.1119
▁röntgen	-11.1131
▁overblijfsel	-11.1131
▁argentinië	-11.1131
▁dikwijls	-11.1131
▁verdedigd	-11.1131
▁dwong	-11.1131
▁verzamelen	-11.1131
cilinder	-11.1131
▁lennon	-11.1131
▁overtuiging	-11.1132
▁verkopen	-11.1132
▁wilhelmina	-11.1133
▁gelre	-11.1134
▁inwonertal	-11.1135
fractie	-11.1136
▁buur	-11.1137
▁bovenstaande	-11.1137
half	-11.115
▁hypo	-11.1151
down	-11.1153
▁scoorde	-11.1153
▁verlopen	-11.1157
republikeinse	-11.1161
▁kri	-11.1163
alisatie	-11.1165
tour	-11.1177
▁doper	-11.118
▁1880	-11.1182
▁dertien	-11.1187
▁dru	-11.1187
▁mata	-11.1189
▁aspect	-11.119
▁monding	-11.1195
▁vriendschap	-11.1197
▁maatschappelijk	-11.1198
▁geert	-11.1201
servi	-11.1204
▁print	-11.1206
▁najaar	-11.1214
▁horizon	-11.1215
social	-11.1215
▁emi	-11.1217
orthodox	-11.1218
kwantummechanica	-11.1218
▁beschuldigd	-11.1218
▁canadese	-11.1218
▁linnaeus	-11.1218
▁reptielen	-11.1218
▁socrates	-11.1218
▁bescheiden	-11.1218
▁gewenste	-11.1218
▁ambtenaren	-11.1218
▁dictator	-11.1218
▁fauna	-11.1218
vergroting	-11.1218
▁afkorting	-11.1218
▁reuzen	-11.1218
▁gerealiseerd	-11.1219
socialisme	-11.1221
▁slaap	-11.1221
▁hierboven	-11.1223
▁robot	-11.1228
worp	-11.1228
▁ideale	-11.123
▁eet	-11.1233
▁contrast	-11.1241
kruid	-11.1257
▁uitkomst	-11.1279
▁zoom	-11.128
▁arist	-11.1286
jong	-11.1287
griff	-11.1289
▁behaald	-11.1289
theoretisch	-11.1297
fragment	-11.1303
▁hoogst	-11.1304
niklaas	-11.1306
variëteit	-11.1306
▁agressie	-11.1306
▁fenomeen	-11.1306
▁première	-11.1306
▁verwijderen	-11.1306
▁verwarring	-11.1306
▁promotie	-11.1306
▁politici	-11.1306
▁opgedeeld	-11.1306
▁uitgangspunt	-11.1306
▁getiteld	-11.1306
▁vervallen	-11.1306
▁verborgen	-11.1306
gesneden	-11.1306
▁ideologie	-11.1307
▁bewustzijn	-11.1307
affaire	-11.1309
▁beetje	-11.1309
▁maximum	-11.1309
▁verdelen	-11.1329
▁palm	-11.1339
▁koningschap	-11.1339
principe	-11.134
italië	-11.134
▁just	-11.1356
gir	-11.1364
▁emma	-11.1368
moon	-11.137
▁leu	-11.1371
▁olymp	-11.1376
▁vertrekken	-11.138
escu	-11.1383
alhoe	-11.1386
▁vrijwillig	-11.1388
▁huishoud	-11.1389
▁ditmaal	-11.1392
▁professor	-11.1394
▁trabzon	-11.1394
▁vulkanisch	-11.1394
▁diplomatieke	-11.1394
▁basketbal	-11.1394
▁podium	-11.1394
▁racisme	-11.1394
▁vandersteen	-11.1395
▁aardoppervlak	-11.1396
▁voetbalclub	-11.1396
▁reizigers	-11.1396
▁fascist	-11.1397
▁hari	-11.1397
▁grondstoffen	-11.1399
▁romantiek	-11.1399
spring	-11.14
▁stuur	-11.1406
▁nobel	-11.1407
▁0,0	-11.1411
vergelijk	-11.1424
mill	-11.1432
▁socio	-11.144
twist	-11.1441
thé	-11.1448
▁gewoonte	-11.146
▁aqua	-11.1465
vlakken	-11.1467
▁aangevuld	-11.1483
▁aminozuren	-11.1483
▁bourgondië	-11.1483
▁geïntegreerd	-11.1483
▁primitieve	-11.1483
▁teruggevonden	-11.1483
ademhaling	-11.1483
▁diabetes	-11.1483
▁artistieke	-11.1483
▁tsjecho	-11.1483
sulfide	-11.1484
▁drinken	-11.1484
kapel	-11.1484
▁london	-11.1484
▁hielp	-11.1484
▁kilogram	-11.1484
▁toenemen	-11.1484
▁afgewezen	-11.1486
geschenk	-11.1488
▁bour	-11.1489
▁letland	-11.1491
▁bisschoppen	-11.1494
▁malta	-11.1498
▁petro	-11.1498
▁herberg	-11.1498
▁meldde	-11.1499
▁henry	-11.1501
▁maya	-11.1501
▁institute	-11.1506
fonds	-11.1514
pping	-11.1525
datum	-11.1555
▁verloopt	-11.1558
▁sciencefiction	-11.1574
▁aartsbisschop	-11.1574
▁advocaat	-11.1574
▁gepleegd	-11.1574
▁gödel	-11.1574
▁scheikunde	-11.1574
▁secundair	-11.1574
▁sinterklaas	-11.1574
▁spoedig	-11.1574
▁werkgelegenheid	-11.1574
▁reclame	-11.1574
▁volgelingen	-11.1574
▁hadrianus	-11.1574
▁margaret	-11.1574
▁nuttig	-11.1574
epidemie	-11.1574
▁mandela	-11.1574
▁gauss	-11.1575
▁fysische	-11.1575
▁bondgenoten	-11.1575
▁tabak	-11.1576
▁uitgeverij	-11.1577
▁lidwoord	-11.1579
▁wiske	-11.1579
▁vertoond	-11.1581
▁1913	-11.1588
poeder	-11.159
▁hoopte	-11.1596
▁that	-11.1597
▁wonnen	-11.16
economisch	-11.1615
omgeving	-11.1615
▁macro	-11.1625
▁beslag	-11.163
▁genetisch	-11.1641
godin	-11.1651
▁barcelona	-11.1664
▁benadrukt	-11.1664
▁consumenten	-11.1664
▁expansie	-11.1664
▁gecreëerd	-11.1664
▁goedgekeurd	-11.1664
▁kapitein	-11.1664
▁ontsnappen	-11.1664
▁saturnus	-11.1664
▁sinaï	-11.1664
▁cauchy	-11.1664
▁gerucht	-11.1665
demonstratie	-11.1665
nijverheid	-11.1665
▁bolivia	-11.1665
▁gestegen	-11.1666
▁objectief	-11.1667
▁theodor	-11.1667
▁etappe	-11.1669
▁verbouwd	-11.167
▁taalfamilie	-11.1673
▁weergave	-11.1674
▁schrik	-11.1678
▁mary	-11.1682
▁voorzieningen	-11.1686
wetten	-11.1698
provincie	-11.1708
partner	-11.1712
bloem	-11.1712
momenteel	-11.1716
▁span	-11.1717
▁rotor	-11.1718
▁grootheden	-11.1721
kosten	-11.1722
▁buik	-11.1723
making	-11.1727
▁ensor	-11.1731
▁score	-11.1731
▁stadhuis	-11.1733
werf	-11.1737
blazen	-11.1741
▁sax	-11.1742
▁lossen	-11.1746
▁bir	-11.1747
cap	-11.1754
▁beëindigd	-11.1756
▁mussolini	-11.1756
▁optreedt	-11.1756
▁poseidon	-11.1756
▁verminderen	-11.1756
▁scandinavië	-11.1756
▁verklaart	-11.1756
▁alexandrië	-11.1756
▁tijdstip	-11.1756
▁pantser	-11.1756
▁intensieve	-11.1756
▁gestart	-11.1757
▁diversiteit	-11.1757
▁overtuigen	-11.1759
▁engelstalige	-11.1759
▁documentaire	-11.1759
▁effectief	-11.176
▁punk	-11.176
▁enigma	-11.176
▁antenne	-11.1762
plooi	-11.1766
▁cobra	-11.1766
▁1904	-11.1768
▁historie	-11.1784
stemming	-11.1785
sloeg	-11.1788
▁hangen	-11.179
▁schok	-11.1794
▁jam	-11.1799
▁who	-11.1802
congres	-11.1802
ongeveer	-11.1803
vroeg	-11.1804
▁doelpunt	-11.1807
nucleaire	-11.1815
▁bijbelse	-11.1815
tafel	-11.1815
▁achttien	-11.1817
▁salon	-11.1817
moord	-11.1818
eugen	-11.1821
▁luidt	-11.1823
400	-11.1827
ontwerp	-11.1831
▁dodelijk	-11.1835
werkzaamheden	-11.1837
▁schepping	-11.1844
▁uitvoerende	-11.1847
▁faculteit	-11.1849
▁gerelateerd	-11.1849
▁ludwig	-11.1849
▁planetoïden	-11.1849
▁mount	-11.1849
▁vietnam	-11.1849
▁overstromingen	-11.1849
▁hollywood	-11.185
▁leraar	-11.185
▁adellijke	-11.1852
▁scheiden	-11.1853
▁eitjes	-11.1854
bau	-11.1854
stone	-11.1856
schutter	-11.1857
▁1906	-11.1858
▁stadsdeel	-11.1859
buis	-11.1861
▁tempo	-11.1864
▁sumer	-11.1866
▁marcus	-11.1868
▁coup	-11.1869
▁hirs	-11.1873
▁1795	-11.1874
▁gelezen	-11.1879
▁boter	-11.1879
▁kritische	-11.1885
▁geldig	-11.1888
▁mach	-11.1889
verwerking	-11.1896
gewicht	-11.1898
zakken	-11.1904
formule	-11.1906
▁adria	-11.1919
▁romeins	-11.1922
▁dij	-11.1927
▁geregistreerd	-11.1942
▁sanskriet	-11.1942
▁bewoning	-11.1942
▁commando	-11.1942
▁wetsvoorstel	-11.1942
▁fosfor	-11.1942
management	-11.1942
▁berekenen	-11.1942
▁maagd	-11.1943
▁eyck	-11.1943
exodus	-11.1943
▁sperma	-11.1943
▁traject	-11.1944
▁inzake	-11.1946
▁zwemmen	-11.1947
▁bevriend	-11.195
▁kortweg	-11.1957
munt	-11.1976
orale	-11.1984
▁1814	-11.1985
▁stopte	-11.1987
▁verplaatsen	-11.1989
enkelspel	-11.1992
pagina	-11.1993
instellingen	-11.1995
gewone	-11.1996
christelijke	-11.1998
▁draag	-11.2011
▁watson	-11.2016
▁emil	-11.2031
▁bloot	-11.2035
▁paris	-11.2036
▁amnesty	-11.2037
▁placebo	-11.2037
▁gestorven	-11.2037
▁edward	-11.2037
columbia	-11.2037
uitbarsting	-11.2037
▁tasman	-11.2038
verhoging	-11.2038
▁stabiliteit	-11.2038
▁presenteerde	-11.2038
▁getoond	-11.2038
▁balkan	-11.2041
▁hoofdkwartier	-11.2042
▁1901	-11.2048
▁gebeurd	-11.2051
masker	-11.2056
zout	-11.2057
▁slaat	-11.2059
▁stroomgebied	-11.2069
institut	-11.2094
▁dringen	-11.2095
▁ongelijk	-11.2098
this	-11.2104
schalk	-11.2104
▁romeo	-11.2106
▁taalgebied	-11.2117
achtereenvolgens	-11.2132
▁aardkorst	-11.2132
▁arabieren	-11.2132
▁restauratie	-11.2132
▁rudolf	-11.2132
▁supernova	-11.2132
▁uitgestrekt	-11.2132
▁mercurius	-11.2132
8.000	-11.2133
▁liever	-11.2134
▁beslaat	-11.2134
▁afwezigheid	-11.2135
▁popmuziek	-11.2136
▁hervormd	-11.2136
▁alchemist	-11.2136
▁stadsrechten	-11.2136
▁smal	-11.2138
▁luchtdruk	-11.214
▁ruimtelijke	-11.2143
▁loon	-11.2148
▁juda	-11.2152
▁pim	-11.2155
▁gru	-11.2157
▁boy	-11.2166
▁kabel	-11.2168
▁vrijdag	-11.2179
▁maag	-11.218
▁bonn	-11.2181
gestuurd	-11.2189
schelde	-11.2193
eisen	-11.2196
▁10%	-11.2198
breng	-11.2202
kennis	-11.2213
▁1600	-11.2216
lijden	-11.2219
4.000	-11.2222
▁gelanceerd	-11.2228
▁sicilië	-11.2228
▁slovenië	-11.2228
▁vermijden	-11.2228
sulfaat	-11.2228
▁carnaval	-11.2228
▁beleefd	-11.2228
▁emotie	-11.2228
▁senator	-11.2229
▁diersoorten	-11.2231
▁hogeschool	-11.2236
ziekten	-11.2236
specialist	-11.2237
▁persoonlijkheid	-11.2244
▁schaars	-11.225
▁vuurwerk	-11.2251
tempel	-11.2255
▁botten	-11.2262
▁jedi	-11.2262
rijder	-11.2262
▁trend	-11.2262
▁beheerd	-11.2268
▁schone	-11.2269
▁neven	-11.228
variant	-11.2293
▁aardse	-11.2297
1.000	-11.2308
▁kenmerkt	-11.231
▁seth	-11.2314
▁medisch	-11.2316
wallen	-11.2319
▁audio	-11.2324
▁anatolië	-11.2325
▁beoefend	-11.2325
▁copernicus	-11.2325
▁katalysator	-11.2325
▁postzegel	-11.2325
▁voortzetting	-11.2325
▁wallonië	-11.2325
▁hoessein	-11.2325
▁university	-11.2325
▁gezongen	-11.2325
▁berucht	-11.2325
▁mekka	-11.2325
▁verticale	-11.2325
▁vertellen	-11.2325
▁toeschouwer	-11.2325
▁bacterie	-11.2329
▁blues	-11.233
▁ruiter	-11.2331
▁maaltijd	-11.2331
▁continentale	-11.2334
▁lineair	-11.2335
▁naald	-11.2336
▁strafbaar	-11.2336
▁queen	-11.234
▁bestuurder	-11.2342
▁arena	-11.2355
rood	-11.2362
▁keur	-11.2364
▁milaan	-11.2364
voertuigen	-11.2364
oefening	-11.237
blokken	-11.2373
software	-11.2382
droeg	-11.239
▁franz	-11.239
▁roland	-11.2396
▁omringd	-11.2406
bezit	-11.242
▁home	-11.2422
▁budget	-11.2423
▁michaël	-11.2423
▁universele	-11.2423
▁assistent	-11.2423
▁axioma	-11.2423
▁fascisme	-11.2423
▁vitamine	-11.2423
▁gesloopt	-11.2423
▁halfgeleider	-11.2423
▁opgewekt	-11.2423
▁gecontroleerd	-11.2423
▁grotten	-11.2423
▁uitvinder	-11.2423
▁consul	-11.2425
▁roemeense	-11.2425
▁bridge	-11.2425
▁huisarts	-11.2426
▁mijnbouw	-11.2428
▁expositie	-11.243
▁vervuld	-11.243
gewisseld	-11.2431
pionier	-11.2432
▁sterft	-11.2433
▁1909	-11.2434
eerbaar	-11.2436
▁marcel	-11.2437
niettemin	-11.2441
▁bruto	-11.2452
▁onderverdeling	-11.2452
▁north	-11.2453
▁omvatten	-11.2454
▁kaas	-11.2459
vloer	-11.2459
geloof	-11.2472
dok	-11.2473
sprekende	-11.2476
▁volksver	-11.2483
hertog	-11.2489
object	-11.249
▁joods	-11.2512
▁antarctica	-11.2522
▁claudius	-11.2522
▁medeklinker	-11.2522
▁uitgevonden	-11.2522
▁statistische	-11.2522
▁bohemen	-11.2522
▁apostel	-11.2522
obligatie	-11.2522
▁eén	-11.2522
▁genesis	-11.2522
kazerne	-11.2522
▁bijgedragen	-11.2523
▁schonk	-11.2523
▁behalen	-11.2523
▁laurent	-11.2523
▁lenzen	-11.2524
▁medewerkers	-11.2525
++	-11.2525
▁doodstraf	-11.2526
▁bbc	-11.2528
▁opgevat	-11.2528
waardige	-11.2528
▁hoofdletter	-11.2529
▁doelstelling	-11.2535
▁monster	-11.2537
▁waterschappen	-11.2538
ière	-11.2543
▁steve	-11.255
▁willy	-11.2556
▁reich	-11.2556
▁nucle	-11.2558
▁dertiende	-11.2559
▁breidde	-11.2565
lock	-11.2566
constructie	-11.2591
religie	-11.2593
stammen	-11.2595
▁ponti	-11.2601
▁with	-11.2606
▁damp	-11.2606
faciliteiten	-11.2622
▁afspraken	-11.2622
▁criteria	-11.2622
▁heydrich	-11.2622
▁manuscript	-11.2622
▁onjuist	-11.2622
gletsjer	-11.2622
▁bondsrepubliek	-11.2622
▁aarts	-11.2623
▁overeenkomt	-11.2624
▁fermat	-11.2624
▁stierven	-11.2624
▁haaien	-11.2625
tamelijk	-11.2625
▁classic	-11.2626
▁meegenomen	-11.2626
▁gibb	-11.2626
▁hinder	-11.2629
▁kreta	-11.263
▁rené	-11.263
▁wieringen	-11.2632
▁doctor	-11.2632
▁dinosaur	-11.2635
▁én	-11.2638
▁eindigen	-11.2638
▁heerlen	-11.2641
grammen	-11.2641
wy	-11.265
▁morgen	-11.2662
klooster	-11.2662
▁grof	-11.2666
staaf	-11.2688
huid	-11.269
alexander	-11.2694
traditie	-11.2694
hebben	-11.2695
handelaar	-11.2697
▁gemeen	-11.2705
▁hoeveel	-11.2721
▁beeldhouwer	-11.2723
▁commercieel	-11.2723
▁gedetailleerd	-11.2723
▁referentie	-11.2723
▁silicium	-11.2723
▁tsjechië	-11.2723
arabië	-11.2723
▁atelier	-11.2723
▁namibië	-11.2723
▁voorspellen	-11.2723
transformatie	-11.2723
▁drastisch	-11.2723
▁plateau	-11.2724
silezië	-11.2725
colo	-11.2726
▁nepal	-11.2727
▁getaltheorie	-11.2728
▁gogh	-11.273
▁vruchten	-11.2731
cross	-11.2731
▁lamb	-11.2737
▁taalgebruik	-11.2737
▁gnu	-11.274
winnaar	-11.2743
gesproken	-11.2755
▁vochtig	-11.2755
▁sterrenbeeld	-11.2762
▁lob	-11.2771
▁piek	-11.2778
filosofie	-11.2798
gespeeld	-11.2802
▁sex	-11.2803
strip	-11.2804
operatie	-11.2821
▁eoceen	-11.2825
▁hemellichamen	-11.2825
▁hongaren	-11.2825
▁ooievaar	-11.2825
▁perspectief	-11.2825
▁sweelinck	-11.2825
▁geformuleerd	-11.2825
▁opgemerkt	-11.2825
▁meubel	-11.2825
▁astrid	-11.2825
▁openbaring	-11.2825
▁agrarisch	-11.2825
▁riemann	-11.2825
▁expressie	-11.2825
▁erkennen	-11.2826
▁kapital	-11.2826
▁stevin	-11.2826
▁nigeria	-11.2826
▁kuiper	-11.2827
zucht	-11.2828
▁regiment	-11.2828
▁geslaagd	-11.2831
luizen	-11.2832
▁1903	-11.2834
▁meso	-11.2838
▁vandalen	-11.284
▁verdiend	-11.2841
▁antieke	-11.2844
▁klee	-11.2851
metrische	-11.2856
▁geschiedschrijv	-11.2869
▁schets	-11.2871
▁song	-11.2893
geluid	-11.2906
schaats	-11.2906
▁arriveerde	-11.2928
▁bestudeert	-11.2928
▁dreiging	-11.2928
▁integratie	-11.2928
▁portugezen	-11.2928
▁gitaar	-11.2928
crypto	-11.2928
▁linux	-11.2928
▁ontstane	-11.2928
▁sprint	-11.2929
▁begrensd	-11.293
▁onverwacht	-11.293
▁octaaf	-11.293
▁afwijkingen	-11.2931
▁ouderdom	-11.2932
▁koepel	-11.2932
▁melkweg	-11.2932
▁brouwerij	-11.2936
▁gauw	-11.2944
▁edelen	-11.2964
▁natural	-11.2973
▁bakker	-11.2979
▁geschied	-11.2988
dynastie	-11.301
rapport	-11.301
natuurlijk	-11.301
kevers	-11.3018
regime	-11.3023
scherp	-11.3026
▁vernietiging	-11.3032
▁afgevaardigd	-11.3032
▁dirigent	-11.3032
▁millimeter	-11.3032
▁radioactief	-11.3032
▁dublin	-11.3032
apparaten	-11.3033
▁genoteerd	-11.3033
▁snoek	-11.3033
▁regionaal	-11.3033
▁verheven	-11.3033
▁uitsterven	-11.3033
▁heersende	-11.3033
▁vakantie	-11.3033
muizen	-11.3034
▁romaanse	-11.3034
▁besmetting	-11.3035
▁ibn	-11.3036
▁atp	-11.3038
▁uyl	-11.3038
▁humor	-11.304
staart	-11.3041
▁verouderd	-11.3043
▁materieel	-11.3046
▁ondergrondse	-11.3048
▁gallië	-11.3049
▁middelpunt	-11.305
▁presidentschap	-11.3052
▁fluit	-11.3053
▁chris	-11.3056
vliet	-11.3068
▁vissers	-11.3103
gedrukt	-11.3105
kabinet	-11.3118
▁bioscoop	-11.3138
▁dokkum	-11.3138
▁medicijnen	-11.3138
▁propaganda	-11.3138
▁vegetatie	-11.3138
▁praktisch	-11.3138
▁benodigde	-11.3138
▁technologisch	-11.3138
▁weduwe	-11.3138
▁treffen	-11.3138
▁opvolging	-11.3138
▁imago	-11.3138
▁veeteelt	-11.3138
▁röntgenstraling	-11.3138
▁honger	-11.3138
▁tezamen	-11.3139
▁behoeve	-11.3139
▁airport	-11.3139
▁volksrepubliek	-11.3139
batterij	-11.3141
▁gerrit	-11.3141
▁tachtigjarige	-11.3141
▁platina	-11.3142
▁invloedrijke	-11.3144
vanaf	-11.3146
▁breda	-11.3152
▁planck	-11.3163
▁brabantse	-11.3165
▁welzijn	-11.3167
haai	-11.3169
▁liga	-11.317
ijzer	-11.3173
▁aero	-11.3185
▁voorspeld	-11.3203
▁1,5	-11.3225
contract	-11.3226
wolf	-11.3226
camera	-11.3226
winkel	-11.3236
▁algerije	-11.3244
▁bidsprinkhanen	-11.3244
▁controverse	-11.3244
▁eredivisie	-11.3244
▁exponent	-11.3244
▁hiërarchie	-11.3244
▁minimum	-11.3244
▁neutraal	-11.3244
▁nsdap	-11.3244
▁onregelmatig	-11.3244
▁pseudo	-11.3244
▁uitgeoefend	-11.3244
reflect	-11.3244
▁soortgelijke	-11.3244
▁geregeerd	-11.3244
▁codice	-11.3244
▁ronald	-11.3244
▁normandië	-11.3244
▁hemellichaam	-11.3244
▁verdrongen	-11.3245
▁belofte	-11.3245
▁blootstelling	-11.3245
▁tevoren	-11.3246
▁dubbelspel	-11.3248
▁ordening	-11.3253
▁gouwe	-11.3255
▁staking	-11.3257
▁achterhoek	-11.3258
struik	-11.3258
▁waardering	-11.326
ilias	-11.3261
▁baltische	-11.3265
▁blog	-11.3267
▁walter	-11.3268
▁andersom	-11.327
▁roof	-11.3285
verband	-11.3289
▁beweerd	-11.3305
waan	-11.3314
▁intrede	-11.3331
tentoonstelling	-11.3336
seksualiteit	-11.3336
paleis	-11.3337
verlies	-11.3337
studie	-11.3339
condens	-11.3344
friesland	-11.3344
bacteri	-11.3348
fysiologie	-11.3352
liefhebber	-11.3352
▁aangekondigd	-11.3352
▁browser	-11.3352
▁psychisch	-11.3352
▁stimuleren	-11.3352
fosfaat	-11.3352
▁libanon	-11.3352
▁thailand	-11.3352
▁transistor	-11.3352
▁sultan	-11.3352
▁vruchtbaarheid	-11.3352
▁perzië	-11.3352
▁wetgevende	-11.3352
▁stijgt	-11.3352
▁heftig	-11.3352
▁christian	-11.3352
▁aanraking	-11.3352
piloot	-11.3352
▁europeanen	-11.3354
▁kruiden	-11.3355
poging	-11.3358
▁zeespiegel	-11.3359
▁volkstelling	-11.336
▁hanze	-11.336
▁babylonische	-11.336
▁rogge	-11.336
breek	-11.3362
▁liederen	-11.3364
▁controleren	-11.3365
sessie	-11.3366
▁great	-11.3371
▁prix	-11.3372
werkingsverband	-11.3374
armeens	-11.3374
▁rustig	-11.3377
▁woonplaats	-11.338
▁bekendstaat	-11.3383
ergens	-11.3397
▁mieren	-11.3401
prijzen	-11.3412
▁hill	-11.3422
▁zeventien	-11.3429
document	-11.3447
bescherming	-11.3447
architect	-11.3447
vragen	-11.3447
vlees	-11.3448
▁toenmalig	-11.3455
▁medici	-11.3457
▁begroting	-11.346
▁luitenant	-11.346
▁foundation	-11.346
▁galileo	-11.346
▁gedomineerd	-11.346
▁kanaän	-11.346
▁kaukasus	-11.346
▁ondergeschikt	-11.346
▁vulkaan	-11.346
▁afzetting	-11.346
▁verbannen	-11.346
▁ontvangt	-11.346
▁toevallig	-11.346
glucos	-11.346
▁bevolkingsgroei	-11.346
▁sgp	-11.3461
▁altaar	-11.3461
▁verward	-11.3462
▁fragmenten	-11.3464
▁ijskap	-11.3465
▁broncode	-11.3465
▁essentieel	-11.3465
▁rijksdag	-11.3469
▁divers	-11.3471
▁grootvader	-11.3472
teller	-11.3481
oxy	-11.3484
▁driehoek	-11.3486
▁rocky	-11.3491
stemmen	-11.3492
▁afgerond	-11.3494
▁bekeerd	-11.3504
▁20%	-11.3506
▁fluor	-11.3523
▁dominee	-11.3523
▁grave	-11.3524
▁bondgenoot	-11.3526
▁baard	-11.355
symbool	-11.356
mogelijkheden	-11.356
buurt	-11.3561
vreemde	-11.3564
voorheen	-11.3566
▁vakbond	-11.3567
▁literair	-11.3567
germaans	-11.3569
▁aantrekkelijk	-11.357
▁bulgarije	-11.357
▁faeröer	-11.357
▁geprobeerd	-11.357
▁gyatso	-11.357
▁kroatië	-11.357
▁videoclip	-11.357
▁maurice	-11.357
chirurg	-11.357
▁relevant	-11.357
▁actrice	-11.357
▁afmetingen	-11.357
klarinet	-11.357
verdediger	-11.357
▁beschouwt	-11.357
▁geboden	-11.3571
▁webpagina	-11.3571
▁groeperingen	-11.3571
▁kometen	-11.3571
▁innovatie	-11.3571
▁rtl	-11.3571
▁uitgerust	-11.3572
▁ambassadeur	-11.3572
▁opmerking	-11.3574
▁gevangenschap	-11.3574
▁dommel	-11.3575
▁folk	-11.3577
▁roepen	-11.3585
▁romantische	-11.3585
▁helderheid	-11.3588
▁octa	-11.3598
▁karper	-11.3635
▁pauselijk	-11.3638
▁republikein	-11.3643
tallig	-11.3652
nsverduistering	-11.3655
kolonie	-11.3673
vijf	-11.3674
kwaliteit	-11.3675
7.000	-11.3681
vrijmetselaar	-11.3681
▁bekritiseerd	-11.3681
▁expressionisme	-11.3681
▁geïnterpreteerd	-11.3681
▁pensioen	-11.3681
▁wederzijds	-11.3681
▁chinezen	-11.3681
▁houston	-11.3681
▁behoorlijk	-11.3681
▁wraak	-11.3681
barrière	-11.3681
▁conventie	-11.3681
▁oudenaarde	-11.3681
▁bestrijden	-11.3683
volgende	-11.3684
▁melding	-11.369
▁schuil	-11.3697
▁(0,	-11.3699
▁stereo	-11.3702
▁schenk	-11.3715
▁dames	-11.372
ondernemer	-11.3723
▁hulpmiddel	-11.3726
slagader	-11.3731
▁sociaaldemocrat	-11.3733
hexa	-11.3734
▁waalse	-11.3787
situatie	-11.3788
▁origin	-11.3789
woog	-11.3789
▁reliëf	-11.3794
▁adviseur	-11.3794
▁greenpeace	-11.3794
▁synthese	-11.3794
▁verscheidenheid	-11.3794
fontein	-11.3794
▁geholpen	-11.3794
▁gestopt	-11.3794
▁prehistorie	-11.3794
▁hardware	-11.3794
▁schoot	-11.3794
▁hindoeïsme	-11.3794
▁mandaat	-11.3794
▁identiek	-11.3795
▁voorspelling	-11.3795
▁onderdrukt	-11.3797
▁bestemd	-11.3797
▁versneld	-11.3798
▁derhalve	-11.3798
▁bediend	-11.3799
▁bohr	-11.3799
▁handhaven	-11.3801
aangrenzende	-11.3803
berlijn	-11.3803
▁schoonheid	-11.3813
grijze	-11.3816
argent	-11.3817
▁blik	-11.382
▁40%	-11.3826
▁landschappen	-11.383
ermee	-11.3831
▁cura	-11.3841
▁ideologisch	-11.3852
vorst	-11.3853
bommen	-11.3864
quark	-11.3866
evangeli	-11.3906
▁bretagne	-11.3907
▁gedoopt	-11.3907
▁produceert	-11.3907
▁pseudoniem	-11.3907
▁slavernij	-11.3907
▁spectaculair	-11.3907
matteüs	-11.3907
▁archeologen	-11.3907
▁streefde	-11.3907
▁wekelijks	-11.3907
▁egyptenaren	-11.3907
▁vooraanstaande	-11.3907
▁dwingen	-11.3907
▁gedaald	-11.3907
▁naargelang	-11.3907
▁werkgevers	-11.3908
▁trilling	-11.3908
▁synode	-11.3908
▁oplossen	-11.3908
▁fruitvlieg	-11.3908
▁herkenbaar	-11.3908
▁bernhard	-11.3908
▁stoffelijk	-11.3908
▁toonladder	-11.3908
▁schuldig	-11.3909
▁televisieserie	-11.3909
▁duurzame	-11.3909
▁bocht	-11.391
▁ideaal	-11.391
▁cbs	-11.391
▁horizontale	-11.3911
▁south	-11.3911
▁betwist	-11.3922
▁droom	-11.3923
processen	-11.3927
radio	-11.3937
ontwikkel	-11.3938
▁goedkoper	-11.3942
▁noodzaak	-11.3946
slavisch	-11.3976
▁larve	-11.3993
technologie	-11.4022
▁pelgrim	-11.4022
detective	-11.4022
▁betrekkelijk	-11.4022
▁bibliotheken	-11.4022
▁ethiopië	-11.4022
▁joegoslavië	-11.4022
▁kolonisatie	-11.4022
▁mesopotamië	-11.4022
▁rutherford	-11.4022
▁soundtrack	-11.4022
▁hippo	-11.4022
▁verhogen	-11.4022
▁vervanging	-11.4022
▁zozeer	-11.4023
▁wijsheid	-11.4023
▁maxwell	-11.4023
▁betrouwbaar	-11.4023
▁minimal	-11.4023
▁omvangrijke	-11.4023
▁volkslied	-11.4025
▁brandstoffen	-11.4027
▁group	-11.4027
nominatie	-11.4029
zwart	-11.4032
homoseksualiteit	-11.4039
▁bestuurlijk	-11.4039
▁rook	-11.4042
▁jolie	-11.4042
▁patent	-11.4047
▁2,5	-11.4051
vaarder	-11.4059
erfelijke	-11.4095
▁tekenaar	-11.4117
▁force	-11.4117
▁grap	-11.4119
▁disco	-11.4134
afwijking	-11.4138
▁garnizoen	-11.4139
▁administratieve	-11.4139
▁confrontatie	-11.4139
▁gebarentaal	-11.4139
▁genocide	-11.4139
▁jiddisch	-11.4139
▁olifanten	-11.4139
▁ontbreekt	-11.4139
▁uitoefenen	-11.4139
reglement	-11.4139
▁doesburg	-11.4139
▁google	-11.4139
▁klinkt	-11.4139
▁naoorlogse	-11.4139
▁renners	-11.4139
▁duidt	-11.4139
▁nikkel	-11.4139
▁bedevaart	-11.4139
▁bekeken	-11.4139
cirkel	-11.4141
isotopen	-11.4141
▁kamerlid	-11.4147
▁1907	-11.4149
▁afgesproken	-11.415
▁90%	-11.4152
▁wint	-11.4155
jaarlijkse	-11.4166
frey	-11.4172
arrest	-11.4186
psi	-11.4228
kleurig	-11.4228
sorganen	-11.4249
absorptie	-11.4256
▁seculiere	-11.4256
▁tsjechische	-11.4256
▁vulkanen	-11.4256
▁andorra	-11.4256
▁kapitaal	-11.4256
▁progressieve	-11.4256
▁toulouse	-11.4256
▁vervullen	-11.4256
▁realiseren	-11.4256
tapijt	-11.4256
▁essay	-11.4256
▁strijdkrachten	-11.4256
▁gelukkig	-11.4256
▁street	-11.4256
▁pleegde	-11.4257
▁vector	-11.4257
▁patrick	-11.4258
▁vries	-11.4259
▁doorsnede	-11.4261
heuvel	-11.4262
▁westkust	-11.4263
indische	-11.4263
verbod	-11.4265
▁priem	-11.4272
▁jones	-11.4273
▁high	-11.4273
vaardigheid	-11.4295
▁mist	-11.4298
guard	-11.4308
▁resterend	-11.4326
head	-11.4338
proeven	-11.4346
geblazen	-11.435
▁volwaardig	-11.4354
▁brouw	-11.4369
▁combineren	-11.4375
▁enthousiast	-11.4375
▁gesplitst	-11.4375
▁giovanni	-11.4375
▁ijshockey	-11.4375
▁kwalificatie	-11.4375
▁tacitus	-11.4375
▁universum	-11.4375
▁stephen	-11.4375
▁wijzigen	-11.4375
▁componeerde	-11.4375
▁erfenis	-11.4375
snijden	-11.4375
▁publiceren	-11.4376
▁verdieping	-11.4376
▁suske	-11.4376
interpreter	-11.4376
▁grammy	-11.4376
▁eurovisie	-11.4377
▁bewering	-11.4377
▁fotografie	-11.4377
▁daalt	-11.4378
▁zoektocht	-11.4378
▁garros	-11.4379
▁heiligdom	-11.4379
episode	-11.438
▁afzonderlijk	-11.438
▁effectieve	-11.4382
▁vrijwilligers	-11.4383
locatie	-11.4384
▁natuurgebieden	-11.4385
▁botsing	-11.4386
beurs	-11.4387
verwant	-11.439
voetbal	-11.4393
opera	-11.4447
spreidingsgebied	-11.4451
katholiek	-11.4454
wick	-11.4479
european	-11.4494
katholicisme	-11.4496
▁afstammeling	-11.4496
▁bataafs	-11.4496
▁chinees	-11.4496
▁leipzig	-11.4496
▁python	-11.4496
▁bachelor	-11.4496
▁materiële	-11.4496
▁ruwweg	-11.4496
▁scala	-11.4496
▁ardennen	-11.4496
▁primaten	-11.4496
▁inflatie	-11.4496
▁liefst	-11.4496
▁turner	-11.4496
▁roofdieren	-11.4496
▁bezighoudt	-11.4497
▁zomerspelen	-11.4499
stoornissen	-11.4499
▁woordenschat	-11.45
▁insect	-11.4504
▁gebruikmaken	-11.4505
▁zuidpool	-11.4506
verschijnselen	-11.4507
▁stier	-11.4508
▁accent	-11.4509
revolutie	-11.4512
▁beroemdste	-11.4516
▁eredienst	-11.4517
uitgave	-11.4521
frequentie	-11.4523
▁herhaaldelijk	-11.4525
650	-11.4548
koppeling	-11.46
osaurus	-11.4617
▁autosnelweg	-11.4618
▁beschikbare	-11.4618
▁boeddha	-11.4618
▁corruptie	-11.4618
▁eenduidig	-11.4618
▁logistiek	-11.4618
▁roosevelt	-11.4618
▁uitgenodigd	-11.4618
▁intensiteit	-11.4618
▁katharen	-11.4618
▁toonhoogte	-11.4618
▁celsius	-11.4618
▁orakel	-11.4618
▁gezorgd	-11.4618
kolonel	-11.4618
▁asiel	-11.4618
guyana	-11.4618
▁kleinzoon	-11.4621
▁nergens	-11.4621
▁julianus	-11.4622
▁bazel	-11.4624
▁kartel	-11.4624
▁afgezien	-11.4624
▁ernest	-11.463
▁reikt	-11.463
▁familieleden	-11.4631
▁haast	-11.4636
sporen	-11.4644
plassen	-11.4663
getrouw	-11.4677
gids	-11.4689
osauria	-11.4725
▁soeverein	-11.474
chromosoom	-11.4741
▁bagdad	-11.4741
▁consensus	-11.4741
▁infrarood	-11.4741
▁luidspreker	-11.4741
▁synagoge	-11.4741
▁alvorens	-11.4741
▁hindenburg	-11.4741
▁warschau	-11.4741
▁schimmels	-11.4741
▁ongebruikelijk	-11.4741
▁update	-11.4741
jesaja	-11.4741
▁white	-11.4741
▁japanners	-11.4741
▁preventie	-11.4741
▁gedateerd	-11.4742
▁honderdduizend	-11.4742
▁klinisch	-11.4743
bundes	-11.4744
▁geweten	-11.4744
▁ruïne	-11.4744
▁gelijkenis	-11.4744
▁monnik	-11.4752
▁zonlicht	-11.4754
▁herkend	-11.4757
chlor	-11.4758
praktijk	-11.4759
keizer	-11.4759
opname	-11.4764
schakeling	-11.4769
▁stortte	-11.4784
vriendelijk	-11.48
▁tramlijn	-11.4815
▁absoluut	-11.4866
▁attractie	-11.4866
▁avonturen	-11.4866
▁batavia	-11.4866
▁champions	-11.4866
▁significant	-11.4866
▁sittard	-11.4866
▁supporters	-11.4866
▁zeppelin	-11.4866
▁coureur	-11.4866
▁fantasie	-11.4866
▁manchester	-11.4866
▁spontaan	-11.4866
▁tienduizenden	-11.4866
▁verwerven	-11.4866
pommeren	-11.4866
▁opleveren	-11.4866
▁aanmerking	-11.4866
▁waits	-11.4866
▁sedert	-11.4867
▁gewaardeerd	-11.4867
▁soevereiniteit	-11.4867
▁gunste	-11.4868
▁vloeistoffen	-11.4868
▁evenveel	-11.4869
▁redactie	-11.4869
▁mondeling	-11.487
▁kaapstad	-11.487
▁uniform	-11.4871
▁focus	-11.4871
▁baarlo	-11.4871
▁tuinbouw	-11.4871
▁vertrouwd	-11.4871
secretari	-11.4872
▁verkenning	-11.4873
▁verlaagd	-11.4876
nationaal	-11.4886
brussel	-11.4887
sinds	-11.4888
campagne	-11.4889
▁daniel	-11.489
micro	-11.4903
streng	-11.4911
▁hoefde	-11.4926
▁samba	-11.4942
fasci	-11.4949
▁essentie	-11.4987
▁beschuldiging	-11.4993
▁christiaan	-11.4993
▁dionysos	-11.4993
▁exemplaar	-11.4993
▁flevoland	-11.4993
▁hoofdkantoor	-11.4993
▁neptunus	-11.4993
▁palestijnen	-11.4993
▁weerszijden	-11.4993
▁annexatie	-11.4993
▁cambridge	-11.4993
▁omgevormd	-11.4993
▁overheersing	-11.4993
▁hobby	-11.4993
▁earring	-11.4993
▁ongewenst	-11.4993
▁oxford	-11.4993
▁vreemdelingen	-11.4993
drempel	-11.4993
▁saoedi	-11.4993
volleybal	-11.4993
▁bovengenoemde	-11.4993
▁gevangenisstraf	-11.4993
boezem	-11.4993
▁kelvin	-11.4993
▁demografische	-11.4993
▁behandelen	-11.4994
▁welvarend	-11.4998
▁bepalingen	-11.4998
▁belegering	-11.4998
▁geschilderd	-11.4998
▁scheidde	-11.4999
▁bewerkingen	-11.4999
▁besturen	-11.5
▁fifa	-11.5001
▁geografisch	-11.5006
transport	-11.5018
gedeelte	-11.5021
bepaald	-11.5022
ontwikkelaar	-11.5025
▁bloeddruk	-11.5045
statisch	-11.5051
▁belegerd	-11.506
▁trivia	-11.5089
active	-11.511
bombardement	-11.5118
▁constitutione	-11.5121
▁omwenteling	-11.5121
▁archimedes	-11.5121
▁bonaparte	-11.5121
▁cézanne	-11.5121
▁dictatuur	-11.5121
▁haydn	-11.5121
▁italianen	-11.5121
▁magnitude	-11.5121
▁mechanica	-11.5121
▁positron	-11.5121
▁ptolemaeus	-11.5121
▁sigmund	-11.5121
▁atletiek	-11.5121
▁koeweit	-11.5121
▁kwetsbaar	-11.5121
▁organist	-11.5121
▁ontvangst	-11.5121
▁soldaat	-11.5121
▁dusdanig	-11.5121
▁troef	-11.5121
▁onderworpen	-11.5121
gewricht	-11.5122
▁dvd	-11.5122
▁verenigen	-11.5122
▁muzikanten	-11.5123
▁strekt	-11.5124
▁bombardementen	-11.5124
▁wolfgang	-11.5124
▁snaren	-11.5125
▁bezorgd	-11.5125
▁hulst	-11.5126
▁nationalisten	-11.5127
▁verlenen	-11.5127
▁turing	-11.5132
▁hamburg	-11.5138
▁levenswijze	-11.5142
vertaling	-11.5149
▁50%	-11.5154
papier	-11.5154
chari	-11.5178
▁optrad	-11.5185
dynamische	-11.5192
▁territorial	-11.5234
bourg	-11.5239
bezoek	-11.5246
dimensiona	-11.5251
▁ontsnapt	-11.5251
getwijfeld	-11.5251
oekraïens	-11.5251
telescopen	-11.5251
▁bevorderd	-11.5251
▁broeikasgas	-11.5251
▁commentaar	-11.5251
▁concludeerde	-11.5251
▁geïnstalleerd	-11.5251
▁hongersnood	-11.5251
▁illustratie	-11.5251
▁spaceshuttle	-11.5251
▁althans	-11.5251
▁gabriel	-11.5251
▁mogendheden	-11.5251
▁krediet	-11.5251
▁oprukken	-11.5251
▁kunstmest	-11.5251
▁synthetisch	-11.5251
▁brown	-11.5251
▁gaandeweg	-11.5251
▁homerus	-11.5251
▁zichtbare	-11.5252
▁nogmaals	-11.5252
▁vergeten	-11.5252
▁stamboom	-11.5252
▁gewapende	-11.5253
▁dienstplicht	-11.5253
▁evangelie	-11.5254
▁sluizen	-11.5255
▁dierlijke	-11.5257
▁voortgekomen	-11.5258
▁ontbrak	-11.5259
▁oplosbaar	-11.5261
▁stempel	-11.5264
▁ijsvogel	-11.528
▁asperge	-11.5282
constante	-11.5282
▁monarch	-11.5283
index	-11.5283
▁verdun	-11.5299
kwantumgetal	-11.5303
aagt	-11.5318
grun	-11.5321
▁conservati	-11.5326
buizen	-11.5354
▁syr	-11.5356
music	-11.5378
führer	-11.5382
▁portugees	-11.5382
boulevard	-11.5382
hertogenbosch	-11.5382
▁antwerpse	-11.5382
▁benoemen	-11.5382
▁besproken	-11.5382
▁cyprus	-11.5382
▁lancering	-11.5382
▁leenwoorden	-11.5382
▁neutrale	-11.5382
▁surinaams	-11.5382
▁urbanus	-11.5382
▁verdwijnt	-11.5382
▁veroordeling	-11.5382
▁zorgvuldig	-11.5382
▁beantwoord	-11.5382
▁barnsteen	-11.5382
▁differentiaal	-11.5382
potentiaal	-11.5383
▁opwarming	-11.5383
▁neiging	-11.5383
▁krijgsgevangen	-11.5383
▁gevangengenomen	-11.5383
▁investeringen	-11.5384
▁bevolkt	-11.5384
▁plantage	-11.5387
▁frame	-11.5388
▁isoleren	-11.5388
▁versierd	-11.5394
bewoners	-11.5417
kristal	-11.5419
nodig	-11.5433
▁locke	-11.5434
evolutionaire	-11.544
▁voertuig	-11.5463
frankisch	-11.5496
▁ogenblik	-11.5516
▁scenario	-11.5516
▁association	-11.5516
▁gecomponeerd	-11.5516
▁gedeputeerde	-11.5516
▁herindeling	-11.5516
▁hiërogliefen	-11.5516
▁programmeren	-11.5516
▁scheidsrechter	-11.5516
▁shuttle	-11.5516
▁toonaangevend	-11.5516
▁ziekenhuizen	-11.5516
verzekering	-11.5516
trekkingskracht	-11.5516
▁vincent	-11.5516
potentiële	-11.5516
▁ontdekken	-11.5516
▁splijt	-11.5516
perzisch	-11.5516
▁klinken	-11.5516
▁mtv	-11.5517
▁wouter	-11.5517
▁verdubbeld	-11.5519
▁grachten	-11.5521
▁breiden	-11.5521
vruchtbare	-11.5522
▁voelen	-11.5523
capaciteit	-11.5553
kenmerken	-11.5554
kalender	-11.5554
vestiging	-11.5562
vriend	-11.5594
bolle	-11.5611
frequent	-11.5633
04)	-11.5644
▁gevarieerd	-11.5651
▁residentie	-11.5651
registratie	-11.5651
▁appingedam	-11.5651
▁australische	-11.5651
▁floyd	-11.5651
▁fungeert	-11.5651
▁geannexeerd	-11.5651
▁lissabon	-11.5651
▁muzikaal	-11.5651
▁saksische	-11.5651
▁versailles	-11.5651
▁twente	-11.5651
leverancier	-11.5651
▁nelson	-11.5651
▁tilburg	-11.5651
▁edelgas	-11.5651
▁caribisch	-11.5651
kuifje	-11.5651
▁ecologische	-11.5651
▁ingediend	-11.5651
▁verwarren	-11.5651
british	-11.5651
roemeens	-11.5651
▁waterdamp	-11.5651
▁enclave	-11.5651
▁vazal	-11.5651
carboon	-11.5651
▁psychoanalyse	-11.5652
▁profeten	-11.5652
spreuk	-11.5652
▁cpn	-11.5652
▁verdienen	-11.5652
▁bewaren	-11.5652
▁bitter	-11.5652
pigment	-11.5652
▁libre	-11.5653
▁origineel	-11.5653
▁lord	-11.5653
▁restanten	-11.5655
▁kurt	-11.5663
heidense	-11.5664
▁nulpunt	-11.5667
▁tropisch	-11.5672
instituut	-11.5692
arabisch	-11.5701
eerbare	-11.5727
▁spirit	-11.5732
poë	-11.5754
communist	-11.5773
puls	-11.5785
medewerker	-11.5786
▁thermo	-11.5786
▁manhattan	-11.5788
▁geëxecuteerd	-11.5788
▁geïdentificeerd	-11.5788
▁informatica	-11.5788
▁levensbeschouw	-11.5788
▁sjabbat	-11.5788
▁vespasianus	-11.5788
sgewijs	-11.5788
▁prikkel	-11.5788
▁scandinavische	-11.5788
alexandr	-11.5788
▁azteken	-11.5788
▁knooppunt	-11.5788
▁klingon	-11.5788
▁journalistiek	-11.579
▁uiteenvallen	-11.5791
▁luxe	-11.5791
▁ontwikkelt	-11.5803
▁gelijkwaardig	-11.583
personen	-11.5834
international	-11.5835
socialistische	-11.5835
gilde	-11.5855
theïstisch	-11.586
▁genade	-11.5872
liefde	-11.5897
▁consequent	-11.5923
mobiel	-11.5923
instructie	-11.5923
▁alzheimer	-11.5927
▁encyclopedie	-11.5927
▁geschonken	-11.5927
▁geweigerd	-11.5927
▁justinianus	-11.5927
▁münster	-11.5927
▁radicaal	-11.5927
carbonaat	-11.5927
verontreiniging	-11.5927
▁caïro	-11.5927
▁postuum	-11.5927
▁vergezeld	-11.5927
▁vermengd	-11.5927
▁gekweekt	-11.5927
▁representatie	-11.5927
▁functionele	-11.5927
syndroom	-11.5927
▁rubber	-11.5927
▁ketting	-11.5927
▁verwierp	-11.5927
▁gewervelde	-11.5927
▁serieuze	-11.5927
boycot	-11.5928
▁corpor	-11.5928
▁tmf	-11.5928
▁victoria	-11.5928
▁huwde	-11.5928
▁dierentuin	-11.593
▁kalief	-11.593
▁turf	-11.593
▁instructies	-11.593
▁weekblad	-11.5931
▁gevoelens	-11.5931
▁genoom	-11.5932
▁individueel	-11.5932
▁elektronica	-11.5932
sverwachting	-11.5934
▁ibm	-11.5935
▁stichten	-11.5936
stream	-11.5944
oxidatietoestand	-11.5951
schreef	-11.5965
groeve	-11.5965
sloot	-11.597
seksuele	-11.5976
procedure	-11.5976
reserve	-11.5976
trekker	-11.606
▁communiceren	-11.6068
▁goedkeuring	-11.6068
▁kathedralen	-11.6068
▁kroonprins	-11.6068
▁multatuli	-11.6068
▁roeselare	-11.6068
▁tevreden	-11.6068
▁antoine	-11.6068
▁harmonische	-11.6068
▁inwoneraantal	-11.6068
▁specerij	-11.6068
▁rendement	-11.6068
▁wereldbeker	-11.6068
▁sneuvelde	-11.6068
▁database	-11.6068
spectra	-11.6068
▁claude	-11.6068
▁bruikbaar	-11.6068
▁toetsenbord	-11.6068
▁entwistle	-11.6068
▁bekijken	-11.6068
▁nimf	-11.6068
▁major	-11.6069
citroen	-11.607
▁erosie	-11.607
▁windmolen	-11.6071
▁geschapen	-11.6071
sectie	-11.608
▁ontkend	-11.6106
lichaam	-11.6121
inclusief	-11.6121
communicatie	-11.6121
amsterdam	-11.6121
gemiddelde	-11.6122
meenschappelijk	-11.6126
▁bondgenootschap	-11.6127
stoornis	-11.6206
▁ambassade	-11.6207
▁estisch	-11.6208
▁pythagore	-11.621
chromosomen	-11.621
▁boedapest	-11.621
▁creëerde	-11.621
▁genomineerd	-11.621
▁monteverdi	-11.621
▁oligoceen	-11.621
▁promoveerde	-11.621
▁tragedie	-11.621
▁vogelspinnen	-11.621
▁arnold	-11.621
▁wellington	-11.621
▁plantaardig	-11.621
guinea	-11.621
▁opstandelingen	-11.6211
▁komeet	-11.6211
▁presentatie	-11.6211
▁drents	-11.6211
▁naburig	-11.6212
smok	-11.6212
▁sparta	-11.6213
▁kelten	-11.6216
break	-11.6219
vergoeding	-11.6227
concentratie	-11.6268
probleem	-11.6268
▁facto	-11.6277
▁verliefd	-11.6297
getekend	-11.6319
duiker	-11.6327
levisieprogramma	-11.6331
atmosferische	-11.6355
▁academy	-11.6355
▁hilversum	-11.6355
▁mioceen	-11.6355
▁organiseert	-11.6355
nouveau	-11.6355
trombone	-11.6355
▁aangetast	-11.6355
▁hellenistische	-11.6355
▁psyche	-11.6355
▁friezen	-11.6355
▁harrison	-11.6355
▁replica	-11.6355
▁vindplaats	-11.6355
▁kobalt	-11.6355
▁firma	-11.6355
▁uitnodiging	-11.6355
▁keurvorst	-11.6355
▁tegenhanger	-11.6356
▁tijger	-11.6356
▁echtpaar	-11.6357
▁rijksmuseum	-11.6357
telefon	-11.6358
▁vtm	-11.6358
▁deventer	-11.6362
▁haalt	-11.6364
▁woede	-11.6372
overeenkomst	-11.6413
kathedraal	-11.6417
gevraagd	-11.6424
magnetisme	-11.648
tournee	-11.6484
weense	-11.6491
▁onvolledig	-11.6502
industrialisatie	-11.6502
koolwaterstoffen	-11.6502
▁bevelhebber	-11.6502
▁bourgondische	-11.6502
▁diaghilev	-11.6502
▁empedocles	-11.6502
▁geconstateerd	-11.6502
▁gekroond	-11.6502
▁gerangschikt	-11.6502
▁gereduceerd	-11.6502
▁reïncarnatie	-11.6502
▁scheemda	-11.6502
▁sjiieten	-11.6502
▁global	-11.6502
▁specialisatie	-11.6502
▁akkad	-11.6502
▁artemis	-11.6502
▁visuele	-11.6502
▁united	-11.6503
▁dutch	-11.6503
▁blootgesteld	-11.6503
▁wisselwerking	-11.6504
▁verhandeling	-11.6505
▁braille	-11.6506
▁opgedragen	-11.6506
oculair	-11.6506
▁decoratie	-11.6514
▁genootschap	-11.6516
gebrek	-11.6521
huwelijk	-11.6523
▁temse	-11.6533
pauze	-11.6536
combinatie	-11.6569
concept	-11.6571
verblijf	-11.6573
zoeken	-11.6595
oriëntatie	-11.6598
probeerden	-11.6625
▁anatomie	-11.6652
▁benelux	-11.6652
▁bolkestein	-11.6652
▁compromis	-11.6652
▁gedroogd	-11.6652
▁klavecimbel	-11.6652
▁magazine	-11.6652
▁ontsnapping	-11.6652
▁statuut	-11.6652
▁stockholm	-11.6652
▁wederopbouw	-11.6652
▁semantiek	-11.6652
▁verpleeg	-11.6652
▁evangelische	-11.6652
▁bestempeld	-11.6652
▁plastic	-11.6652
▁benzine	-11.6652
▁dogma	-11.6652
▁telegraaf	-11.6652
▁troonrede	-11.6652
▁kerkgenootschap	-11.6652
▁iberisch	-11.6652
▁prenten	-11.6653
▁beoogde	-11.6653
▁lettergreep	-11.6654
▁verlangen	-11.6654
uitrusting	-11.6656
▁ultra	-11.6657
▁stuitte	-11.6659
rhein	-11.666
erwijs	-11.6666
gaelisch	-11.668
gall	-11.6694
sgezind	-11.6702
psycho	-11.6723
dochter	-11.6724
erkenning	-11.6735
otherm	-11.6762
fossiel	-11.6798
extinctie	-11.6803
▁analytische	-11.6803
▁angelsaksisch	-11.6803
▁associatie	-11.6803
▁beëindigen	-11.6803
▁cafeïne	-11.6803
▁essentiële	-11.6803
▁geplunderd	-11.6803
▁gerestaureerd	-11.6803
▁laatstgenoemde	-11.6803
▁septuagint	-11.6803
▁suggereert	-11.6803
▁federaal	-11.6803
▁holocaust	-11.6803
▁jubileum	-11.6803
▁programmeur	-11.6803
▁speculatie	-11.6803
▁dinsdag	-11.6803
▁gehucht	-11.6803
▁trojaan	-11.6803
▁wright	-11.6803
▁evangeliën	-11.6803
▁fundamenteel	-11.6803
▁kosmisch	-11.6803
▁terreur	-11.6803
▁ghana	-11.6803
▁kieuw	-11.6803
▁informele	-11.6803
doctrine	-11.6804
▁gebroeders	-11.6804
▁volkenbond	-11.6804
▁zondvloed	-11.6804
▁verplaatsing	-11.6805
▁verstoord	-11.6805
▁optellen	-11.6805
▁redacteur	-11.6806
glaciale	-11.6807
▁stichter	-11.6808
beenderen	-11.6812
▁aanwijzing	-11.6841
wijdte	-11.6857
organismen	-11.6879
kwestie	-11.6879
▁vergader	-11.6885
▁litho	-11.6891
generatie	-11.6894
▁cycli	-11.6922
▁allround	-11.6957
▁antibiotica	-11.6957
▁doppler	-11.6957
▁euclides	-11.6957
▁henegouwen	-11.6957
▁michelangelo	-11.6957
▁psychiatrisch	-11.6957
▁research	-11.6957
▁reservaten	-11.6957
bombardeer	-11.6957
▁illegale	-11.6957
▁patriarch	-11.6957
▁regelgeving	-11.6957
▁substantie	-11.6957
▁verdamping	-11.6957
▁kortstondig	-11.6957
▁inspireren	-11.6957
▁verbood	-11.6957
▁afwisselend	-11.6957
▁fleming	-11.6957
▁heineken	-11.6957
▁uefa	-11.6957
▁kempen	-11.6957
9.000	-11.6957
▁virale	-11.6957
▁bezwaar	-11.6957
misdaden	-11.6958
style	-11.6978
deugd	-11.6989
genaamd	-11.7036
gedwongen	-11.7038
alfabet	-11.7038
psychologie	-11.7038
schoon	-11.7039
▁resulteer	-11.7066
▁landskampioen	-11.7081
0°	-11.7082
randslamtoernooi	-11.709
▁zwitser	-11.7098
▁0,5	-11.7103
goddelijk	-11.7108
▁crucia	-11.7113
circulatie	-11.7113
programmeertalen	-11.7113
▁afschaffing	-11.7113
▁lanthanide	-11.7113
▁machthebber	-11.7113
▁marijnissen	-11.7113
▁pyreneeën	-11.7113
▁qaida	-11.7113
▁reggae	-11.7113
▁concrete	-11.7113
▁rivaliteit	-11.7113
▁fosgeen	-11.7113
▁intensief	-11.7113
▁correspondentie	-11.7113
▁vertraging	-11.7113
▁ankara	-11.7113
gitarist	-11.7113
▁komedie	-11.7113
▁rietveld	-11.7114
▁bebouwing	-11.7114
▁verworpen	-11.7114
▁lewis	-11.7114
▁onrechte	-11.7114
▁dokter	-11.7115
▁duurzaam	-11.7115
▁salaris	-11.7117
▁gemeld	-11.712
worst	-11.7158
etymologi	-11.7168
schijf	-11.7199
circa	-11.7199
sturing	-11.7222
▁bacterië	-11.7242
▁beoordeeld	-11.7272
▁diafragma	-11.7272
▁jefferson	-11.7272
▁shakira	-11.7272
▁uitdrukkelijk	-11.7272
beschadiging	-11.7272
▁kooldioxide	-11.7272
▁munitie	-11.7272
▁mythische	-11.7272
▁sympathie	-11.7272
▁verrassing	-11.7272
▁vicepresident	-11.7272
▁plezier	-11.7272
▁archeologie	-11.7272
▁voornaamwoord	-11.7272
▁erasmus	-11.7272
jimmy	-11.7272
▁verkrijgbaar	-11.7272
▁scheppen	-11.7272
▁benaderd	-11.7272
▁tablet	-11.7272
▁valuta	-11.7272
ensemble	-11.7272
▁judea	-11.7272
▁vermeden	-11.7273
▁langzamerhand	-11.7273
▁drijf	-11.7273
▁voedingsstoffen	-11.7273
veronderstelling	-11.7273
▁kalksteen	-11.7273
▁augustinus	-11.7273
nucleotide	-11.7274
▁onderhandelen	-11.7275
▁voorzichtig	-11.7278
▁algebra	-11.7425
gevoel	-11.7429
muzikant	-11.7431
▁accepteren	-11.7433
▁admiraal	-11.7433
▁afstamming	-11.7433
▁amfibieën	-11.7433
▁amplitude	-11.7433
▁gefinancierd	-11.7433
▁istanboel	-11.7433
▁marathon	-11.7433
▁omgedoopt	-11.7433
▁portefeuille	-11.7433
▁problematisch	-11.7433
▁spontane	-11.7433
▁surrealisme	-11.7433
▁visigoten	-11.7433
▁waarschuwing	-11.7433
▁zürich	-11.7433
gegooid	-11.7433
▁bevestigen	-11.7433
▁taliban	-11.7433
▁ontlasting	-11.7433
▁psychologische	-11.7433
▁rügen	-11.7433
▁paradox	-11.7433
▁joyce	-11.7433
▁paleoceen	-11.7433
▁betaalmiddel	-11.7433
▁hergé	-11.7433
▁kippen	-11.7433
▁ontbonden	-11.7433
▁pianist	-11.7434
▁vullen	-11.7434
▁tactiek	-11.7434
barometer	-11.7434
▁denkbeelden	-11.7434
▁onthuld	-11.7435
▁bbp	-11.7435
ambtenaar	-11.7436
▁tegengestelde	-11.7438
▁optimal	-11.745
chronische	-11.7462
voorafgegaan	-11.7482
fluoride	-11.7504
relderfgoedlijst	-11.7509
federal	-11.7517
hongaars	-11.7529
romaans	-11.753
hongarije	-11.753
belgië	-11.753
vijandelijke	-11.7576
gouvernement	-11.7597
▁professional	-11.7597
▁vogelgriep	-11.7597
▁voorspoed	-11.7597
partijvoorzitter	-11.7597
roubaix	-11.7597
▁concurreren	-11.7597
▁marokko	-11.7597
▁plutonium	-11.7597
▁samenvoeging	-11.7597
▁terrorisme	-11.7597
▁verzocht	-11.7597
▁aannemelijk	-11.7597
▁buitengewoon	-11.7597
▁herakles	-11.7597
▁hubble	-11.7597
▁fernand	-11.7597
▁rabbijn	-11.7597
▁recessie	-11.7597
▁zwaartepunt	-11.7597
▁interventie	-11.7597
▁bewogen	-11.7597
▁leeuwarden	-11.7597
▁wél	-11.7597
feodale	-11.7597
▁tolerantie	-11.7597
▁verbroken	-11.7597
▁laurel	-11.7597
▁schrijfster	-11.7597
▁bewees	-11.7597
▁onenigheid	-11.7598
▁verenkleed	-11.7598
▁modder	-11.7598
decreet	-11.7598
▁slinger	-11.7599
▁gelegerd	-11.7599
activist	-11.76
▁grondwettelijk	-11.7601
▁ortho	-11.7605
vezels	-11.7606
▁leefwijze	-11.7608
▁vlot	-11.7609
woestijn	-11.7675
bibliotheek	-11.7699
diploma	-11.7699
voornamelijk	-11.7699
louis	-11.7701
één	-11.7701
spaans	-11.7718
chemicaliën	-11.7764
inspecteur	-11.7764
vergiftiging	-11.7764
verzamelaars	-11.7764
▁aguilera	-11.7764
▁barbizon	-11.7764
▁chicago	-11.7764
▁drinkwater	-11.7764
▁eiffel	-11.7764
▁exclusieve	-11.7764
▁mercator	-11.7764
▁misdaad	-11.7764
▁ostrogoten	-11.7764
▁overkoepelend	-11.7764
▁prestigieu	-11.7764
▁uitbreiden	-11.7764
▁volksgezondheid	-11.7764
▁bezwaren	-11.7764
▁gehuwd	-11.7764
▁clijsters	-11.7764
▁intellectueel	-11.7764
▁kruisvaarders	-11.7764
▁mersenne	-11.7764
▁olijf	-11.7764
▁conventionele	-11.7764
▁comeback	-11.7764
▁decembermoorden	-11.7764
▁vormgeving	-11.7764
▁christoph	-11.7764
▁1572	-11.7764
▁gestaag	-11.7764
▁onbewuste	-11.7764
▁toorop	-11.7764
▁gevoed	-11.7764
▁indicatie	-11.7764
▁conditie	-11.7764
▁fungeerde	-11.7764
▁hernieuwde	-11.7764
▁permeke	-11.7764
▁genetica	-11.7764
imperial	-11.7764
majoor	-11.7765
hispani	-11.7765
▁gemalen	-11.7765
▁novelle	-11.7766
▁herbouwd	-11.7767
systema	-11.7771
vertelling	-11.7787
planeet	-11.7868
mythologie	-11.7872
priester	-11.7872
▁universitair	-11.7911
▁langzamer	-11.7933
schorpioen	-11.7933
coëfficiënt	-11.7933
psychiatrie	-11.7933
▁aangemerkt	-11.7933
▁beeldhouwkunst	-11.7933
▁bevordering	-11.7933
▁eerbetoon	-11.7933
▁geconfronteerd	-11.7933
▁migranten	-11.7933
▁moldavië	-11.7933
▁montgomery	-11.7933
▁onvermijdelijk	-11.7933
▁privilege	-11.7933
▁tentoongesteld	-11.7933
▁zwaveldioxide	-11.7933
opwekking	-11.7933
slowaaks	-11.7933
▁astronoom	-11.7933
▁cadmium	-11.7933
▁expressionist	-11.7933
▁geselecteerd	-11.7933
▁opzettelijk	-11.7933
▁toetreding	-11.7933
▁verzekerd	-11.7933
▁jamaica	-11.7933
▁oplevert	-11.7933
▁sampras	-11.7933
gregorius	-11.7933
▁fungeren	-11.7933
▁hitlijsten	-11.7933
▁vredesverdrag	-11.7933
▁naturisten	-11.7933
▁predikant	-11.7933
▁nikola	-11.7933
▁onschuldig	-11.7933
▁douwes	-11.7934
▁veluwe	-11.7934
▁chronologisch	-11.7934
▁kastelen	-11.7934
▁nijlpaard	-11.7934
▁noemer	-11.7934
▁schrijfwijze	-11.7934
▁jurist	-11.7935
enkelvoudige	-11.7935
▁gespeld	-11.7938
▁verbreid	-11.7996
zilver	-11.8046
hypothese	-11.8047
▁goedkope	-11.8053
▁messias	-11.8097
legendarische	-11.8106
▁bekroond	-11.8106
▁daendels	-11.8106
▁gemenebest	-11.8106
▁genève	-11.8106
▁gesuggereerd	-11.8106
▁initiatieven	-11.8106
▁lockheed	-11.8106
▁opgevoed	-11.8106
▁papyrus	-11.8106
▁pluimvee	-11.8106
▁streeft	-11.8106
▁tevergeefs	-11.8106
▁ultraviolet	-11.8106
▁wereldberoemd	-11.8106
▁amnestie	-11.8106
▁vernield	-11.8106
▁voortbestaan	-11.8106
specificatie	-11.8106
▁componeren	-11.8106
▁verhoeven	-11.8106
lotharingen	-11.8106
▁toeneemt	-11.8106
▁aansprak	-11.8106
▁opleverde	-11.8106
▁verwees	-11.8106
▁county	-11.8106
▁schiep	-11.8107
▁uitmondt	-11.8107
▁limiet	-11.8109
▁ondervond	-11.8109
▁heroverd	-11.8113
▁grandslam	-11.8131
verordening	-11.8132
raadsleden	-11.8188
discipline	-11.8225
vloot	-11.8226
gezinde	-11.8251
fysisch	-11.8269
geperst	-11.828
besprekingen	-11.8281
▁broeikaseffect	-11.8281
▁definiëren	-11.8281
▁emotionele	-11.8281
▁geraardsbergen	-11.8281
▁gerechtshof	-11.8281
▁implementatie	-11.8281
▁kopenhagen	-11.8281
▁kwartfinale	-11.8281
▁neurenberg	-11.8281
▁quetzalcoatl	-11.8281
▁tiberius	-11.8281
▁beoordeling	-11.8281
▁minogue	-11.8281
▁ritueel	-11.8281
▁teruggekeerd	-11.8281
▁xhosa	-11.8281
▁aanvullend	-11.8281
▁compilatie	-11.8281
▁source	-11.8281
▁spijkerschrift	-11.8281
▁magritte	-11.8281
bekwaam	-11.8281
▁marseille	-11.8281
▁raymond	-11.8281
▁condoom	-11.8281
▁subtropisch	-11.8281
▁consistent	-11.8281
▁verbleven	-11.8281
▁indonesisch	-11.8281
▁provinciaal	-11.8281
▁vervult	-11.8282
▁verzorgt	-11.8282
▁verbeelding	-11.8282
▁elsschot	-11.8282
▁heffen	-11.8282
▁fagot	-11.8282
▁profiel	-11.8282
particip	-11.8283
wormen	-11.8283
▁geteld	-11.8284
confessio	-11.8285
▁metallisch	-11.8286
▁verhandeld	-11.8286
gekookt	-11.8287
▁gallisch	-11.8293
▁gelderse	-11.8302
andries	-11.8346
▁mannelijk	-11.8358
kirche	-11.8384
infectie	-11.8407
europees	-11.8407
militair	-11.8407
westerse	-11.8408
kleding	-11.8409
parlement	-11.841
mogelijk	-11.8411
▁driekwart	-11.845
filosofisch	-11.8457
▁aartsbisdom	-11.846
▁douglas	-11.846
▁elisabeth	-11.846
▁failliet	-11.846
▁gekoloniseerd	-11.846
▁herodotus	-11.846
▁krajicek	-11.846
▁ontevreden	-11.846
▁tegemoet	-11.846
▁terroristisch	-11.846
▁trajanus	-11.846
▁vleermuizen	-11.846
▁aangedaan	-11.846
▁betrouwbare	-11.846
▁hawaï	-11.846
▁misverstand	-11.846
▁stewart	-11.846
▁strafschop	-11.846
▁donderdag	-11.846
▁onderdrukking	-11.846
▁voldoet	-11.846
▁language	-11.846
▁groninger	-11.846
▁geteeld	-11.846
▁opgeteld	-11.846
▁makelaar	-11.846
▁ventiel	-11.846
▁6-4	-11.846
▁debuteerde	-11.846
▁blote	-11.8461
▁katoen	-11.8461
▁steppe	-11.8463
▁hawk	-11.8467
▁afkeer	-11.8472
▁ongekend	-11.8474
▁hooke	-11.8482
▁herleid	-11.8566
beginsel	-11.8592
nicolaas	-11.8592
resultaten	-11.8593
▁valentijn	-11.8642
geïnfecteerd	-11.8642
odyssee	-11.8642
▁bevindingen	-11.8642
▁bijvoeglijk	-11.8642
▁concentreren	-11.8642
▁emancipatie	-11.8642
▁flexibel	-11.8642
▁gedraagt	-11.8642
▁neutraliteit	-11.8642
▁oldambt	-11.8642
▁onbruik	-11.8642
▁pándy	-11.8642
▁sacrament	-11.8642
▁vladimir	-11.8642
▁wedergeboorte	-11.8642
▁colombia	-11.8642
▁prehistorische	-11.8642
▁knvb	-11.8642
▁embryo	-11.8642
▁opgehangen	-11.8642
▁bamboe	-11.8642
▁vermenging	-11.8642
▁finish	-11.8642
▁experimenteel	-11.8642
▁nalatenschap	-11.8642
▁wieringer	-11.8642
▁bèta	-11.8642
▁cinema	-11.8642
▁aanpassen	-11.8642
▁reflectie	-11.8643
▁daniël	-11.8643
▁stefan	-11.8643
▁domineerde	-11.8646
provincia	-11.8646
▁inwoner	-11.8662
change	-11.8751
▁misleid	-11.8765
spectrum	-11.8781
figuren	-11.8781
gepast	-11.8815
reservoir	-11.8827
▁autobiografie	-11.8827
▁bijgevolg	-11.8827
▁concessie	-11.8827
▁emigratie	-11.8827
▁eukaryoten	-11.8827
▁flavius	-11.8827
▁gehandhaafd	-11.8827
▁gestimuleerd	-11.8827
▁habitat	-11.8827
▁korstmossen	-11.8827
▁nagedachtenis	-11.8827
▁oxidator	-11.8827
▁pantserbrigade	-11.8827
▁prioriteit	-11.8827
▁provinciën	-11.8827
▁rosenmöller	-11.8827
▁schmidt	-11.8827
▁symboliek	-11.8827
coördinaten	-11.8827
▁bezichtigen	-11.8827
▁verzoening	-11.8827
▁sponsor	-11.8827
▁beloond	-11.8827
▁stèle	-11.8827
▁interieur	-11.8827
▁nadrukkelijk	-11.8827
▁toentertijd	-11.8827
▁broedparen	-11.8827
▁iucn	-11.8827
▁orkaan	-11.8827
▁dorestad	-11.8827
▁uitstrekt	-11.8827
▁vanzelfsprekend	-11.8827
▁overwicht	-11.8827
▁1872	-11.8827
▁corrosie	-11.8827
▁afghaans	-11.8827
▁verstoring	-11.8827
▁year	-11.8827
▁pesach	-11.8827
▁domineren	-11.8827
▁tegenstrijdig	-11.8828
▁brahma	-11.8828
▁overheerst	-11.883
▁visual	-11.8831
▁veelgebruikt	-11.8833
ergievoorziening	-11.8834
erzamelingenleer	-11.8896
▁schommel	-11.8935
hebreeuws	-11.8973
behoefte	-11.8973
klaar	-11.8987
▁secret	-11.899
lautrec	-11.9015
aandrijving	-11.9015
▁bernoulli	-11.9015
▁brothers	-11.9015
▁maximiliaan	-11.9015
▁ontginning	-11.9015
▁sebastian	-11.9015
▁tevoorschijn	-11.9015
▁totstandkoming	-11.9015
▁orleans	-11.9015
▁pilatus	-11.9015
krokodil	-11.9015
▁perkament	-11.9015
▁getransporteerd	-11.9016
▁company	-11.9016
▁plundering	-11.9016
▁toepassen	-11.9016
▁eminem	-11.9016
▁kennelijk	-11.9016
▁eugenius	-11.9016
▁schepper	-11.9016
▁servische	-11.9016
▁cursus	-11.9016
▁heksen	-11.9016
▁palace	-11.9016
▁veronica	-11.9016
▁arrestatie	-11.9016
▁galactisch	-11.9016
▁voldaan	-11.9016
schandaal	-11.9016
▁leraren	-11.9016
▁steile	-11.9017
▁troost	-11.9017
beurzen	-11.9019
tolerant	-11.9022
kliniek	-11.9022
pixel	-11.9025
algebraïsche	-11.9026
voedingsmiddelen	-11.9075
▁prominent	-11.9091
▁organisch	-11.9092
molecuul	-11.9169
breedte	-11.917
oplossing	-11.917
‘	-11.917
burgemeester	-11.917
studio	-11.917
applicatie	-11.9208
coöperatie	-11.9208
problematiek	-11.9208
▁anthony	-11.9208
▁apostolisch	-11.9208
▁benjamin	-11.9208
▁buskruit	-11.9208
▁geïllustreerd	-11.9208
▁guillaume	-11.9208
▁klemtoon	-11.9208
▁moeizaam	-11.9208
▁vereenvoudigd	-11.9208
▁verheijen	-11.9208
▁aanbeveling	-11.9208
▁heerlijkheid	-11.9208
▁jugendstil	-11.9208
▁lorenzo	-11.9208
▁compensatie	-11.9208
▁grasparkiet	-11.9208
plechtigheid	-11.9208
▁mclaren	-11.9208
▁astronomen	-11.9208
▁benadrukken	-11.9208
▁toelating	-11.9208
▁verfijnd	-11.9208
▁superieur	-11.9208
▁werktuigen	-11.9208
▁voelt	-11.9208
▁allebei	-11.9208
navigatie	-11.9209
verlaging	-11.9211
▁salomo	-11.9211
▁territoria	-11.9232
pruisen	-11.937
johannes	-11.937
alsnog	-11.9371
▁aggregatie	-11.9404
california	-11.9404
fabricage	-11.9404
procedé	-11.9404
▁anglicaanse	-11.9404
▁astronaut	-11.9404
▁benedictus	-11.9404
▁biodiversiteit	-11.9404
▁braziliaans	-11.9404
▁complicatie	-11.9404
▁eugène	-11.9404
▁globaal	-11.9404
▁jezuïeten	-11.9404
▁kruidnagel	-11.9404
▁lanfranc	-11.9404
▁plagiaat	-11.9404
▁protestantisme	-11.9404
▁repertoire	-11.9404
▁röhm	-11.9404
▁stonehenge	-11.9404
▁transcriptie	-11.9404
▁trolleybus	-11.9404
▁ultieme	-11.9404
▁woensdag	-11.9404
▁ncpn	-11.9404
▁spionage	-11.9404
▁verschoof	-11.9404
enterprise	-11.9404
randpuntsafstand	-11.9404
▁auckland	-11.9404
▁verrassend	-11.9404
▁vrijlating	-11.9404
koolstofmonoxide	-11.9404
▁rijksmonumenten	-11.9404
▁hanteert	-11.9404
▁halfbroer	-11.9404
▁toenadering	-11.9404
▁zintuigen	-11.9404
▁vertolkt	-11.9404
▁libane	-11.9404
▁bliksem	-11.9404
▁vervelling	-11.9404
▁kanonnen	-11.9404
▁afwatering	-11.9405
▁vernieuwend	-11.9405
▁schuin	-11.9406
▁veelvoud	-11.941
investering	-11.9411
iformes	-11.9414
▁institution	-11.9433
module	-11.9455
▁mislukt	-11.9547
bereiding	-11.9547
atlantische	-11.9574
▁afwezig	-11.9597
▁mitochondria	-11.9604
pterygota	-11.9604
sturingssystemen	-11.9604
wetsherziening	-11.9604
▁bewerkstelligen	-11.9604
▁conservatorium	-11.9604
▁geschrapt	-11.9604
▁geëvolueerd	-11.9604
▁parallax	-11.9604
▁spijsvertering	-11.9604
▁tanzania	-11.9604
▁tuberculose	-11.9604
▁waddenzee	-11.9604
▁wehrmacht	-11.9604
▁potentieel	-11.9604
▁toegediend	-11.9604
▁verslechterd	-11.9604
▁charlotte	-11.9604
▁scouting	-11.9604
▁taiwan	-11.9604
▁euromunten	-11.9604
▁tokio	-11.9604
▁autoritair	-11.9604
▁1672	-11.9604
▁insuline	-11.9604
▁verhinderd	-11.9604
▁archieven	-11.9604
▁goochel	-11.9604
zwijgen	-11.9604
▁albrecht	-11.9604
▁abortus	-11.9604
brück	-11.9605
▁titanen	-11.9605
respons	-11.9605
bevolkingsaantal	-11.9605
gevlogen	-11.9606
▁slacht	-11.9606
▁woedend	-11.9607
▁galerie	-11.9611
craft	-11.9631
▁paleontolo	-11.9657
raadslid	-11.9688
pacific	-11.9763
genoemd	-11.9772
huize	-11.9781
jeruzalem	-11.9782
contact	-11.9782
kunstenaar	-11.9785
▁bezuinig	-11.9808
metamorfose	-11.9808
opperbevelhebber	-11.9808
philosoph	-11.9808
▁ammoniak	-11.9808
▁attributen	-11.9808
▁bankbiljetten	-11.9808
▁beduidend	-11.9808
▁bestudering	-11.9808
▁controversiële	-11.9808
▁guinness	-11.9808
▁hephaistos	-11.9808
▁ketterij	-11.9808
▁knoflook	-11.9808
▁legislatuur	-11.9808
▁sassenheim	-11.9808
▁strafvordering	-11.9808
▁teotihuacan	-11.9808
▁vervaardigen	-11.9808
▁volstrekt	-11.9808
▁wrijving	-11.9808
numerieke	-11.9808
▁aanbevolen	-11.9808
▁desalniettemin	-11.9808
▁mondriaan	-11.9808
▁rationale	-11.9808
▁bewonderd	-11.9808
▁vroegmoderne	-11.9808
▁afkoeling	-11.9808
▁lahaut	-11.9808
▁overtreding	-11.9808
macedonië	-11.9808
ssamenstelling	-11.9808
▁actuele	-11.9808
sauriërs	-11.9808
concern	-11.9808
▁kwint	-11.9811
dapper	-11.9816
werelderfgoed	-11.9919
algemeen	-11.9944
abdij	-11.9995
aanduiding	-11.9995
figuur	-11.9995
tijdperk	-11.9995
soldaten	-11.9995
vergunning	-12.0014
▁verzorging	-12.0016
catalogus	-12.0016
<	-13.2595
