<unk>	0
<s>	0
</s>	0
▁de	-2.9872
.	-3.19656
▁van	-3.64004
,	-3.67656
▁	-3.81954
▁in	-3.86455
▁het	-3.8688
▁en	-3.99335
▁een	-4.07483
s	-4.33696
e	-4.5389
en	-4.77946
▁op	-4.90169
▁is	-4.91883
▁zijn	-4.97922
-	-4.9804
"	-5.03337
▁met	-5.07024
▁te	-5.20519
▁voor	-5.22817
▁"	-5.28096
▁die	-5.28545
▁(	-5.28641
▁dat	-5.3702
▁door	-5.37274
▁als	-5.45844
▁aan	-5.46582
##	-5.5309
▁werd	-5.53456
▁was	-5.65631
▁ook	-5.66533
)	-5.66586
d	-5.68913
▁hij	-5.71728
▁uit	-5.73651
▁er	-5.80925
▁tot	-5.84702
▁bij	-5.87761
▁om	-5.88964
="	-5.88972
n	-5.92529
t	-5.9284
▁wordt	-5.96734
:	-5.97238
▁niet	-5.9737
de	-5.97574
▁deze	-5.98176
▁worden	-5.99386
▁of	-5.99569
'	-6.10871
▁naar	-6.16587
▁maar	-6.22193
▁dit	-6.2714
doc	-6.32748
▁over	-6.34036
>	-6.34374
▁onder	-6.35303
▁zich	-6.35731
▁na	-6.38999
▁dan	-6.45785
▁ze	-6.50194
▁andere	-6.50974
/	-6.54286
▁jaar	-6.56593
▁meer	-6.57464
er	-6.60316
▁heeft	-6.60487
▁nog	-6.68764
▁eerste	-6.70205
).	-6.72634
a	-6.73094
▁ge	-6.7329
▁werden	-6.753
▁veel	-6.77281
▁kan	-6.77706
▁al	-6.79773
▁zo	-6.8538
▁waren	-6.87033
▁tussen	-6.87673
▁hun	-6.87967
▁'	-6.91105
▁hebben	-6.91147
▁grote	-6.91941
▁twee	-6.92048
▁had	-6.92234
▁eeuw	-6.92769
),	-6.94268
▁zoals	-6.94935
▁ver	-6.95627
?	-6.96385
;	-6.97217
o	-6.97463
org	-6.97946
▁id	-7.00118
nl	-7.00692
wikipedia	-7.00872
curi	-7.01192
▁categorie	-7.0146
ing	-7.01678
wiki	-7.01951
▁url	-7.03142
://	-7.03466
https	-7.03496
▁<	-7.03557
title	-7.03654
▁</	-7.0383
k	-7.05273
▁zou	-7.06739
▁wel	-7.08432
▁waar	-7.09121
▁men	-7.10013
▁haar	-7.11557
▁geen	-7.11849
in	-7.13656
▁kunnen	-7.14675
▁af	-7.15741
▁-	-7.20279
▁be	-7.20834
r	-7.2109
i	-7.22334
▁echter	-7.23122
",	-7.23157
▁1	-7.24802
▁stad	-7.25084
▁tijd	-7.2529
▁tegen	-7.25629
▁zij	-7.26146
c	-7.26476
▁alle	-7.28261
m	-7.28495
▁aantal	-7.29428
se	-7.29855
ge	-7.29998
f	-7.30789
▁deel	-7.31554
▁land	-7.31769
▁nieuwe	-7.32139
te	-7.32469
▁tijdens	-7.32495
▁v	-7.33719
den	-7.35761
▁nederland	-7.35873
▁plaats	-7.36998
▁gebruikt	-7.37037
ten	-7.39321
▁jaren	-7.41205
".	-7.41364
=	-7.42819
l	-7.43387
▁tweede	-7.43847
▁verschillende	-7.44819
▁wat	-7.44844
▁omdat	-7.45256
le	-7.45655
▁volgens	-7.46435
▁later	-7.46899
▁toen	-7.48616
▁naam	-7.48703
re	-7.49004
▁drie	-7.49158
▁vaak	-7.4922
▁ten	-7.49904
us	-7.51638
▁hem	-7.52264
▁staat	-7.52655
▁binnen	-7.53665
▁water	-7.55734
y	-7.57014
▁kwam	-7.57063
▁sinds	-7.57707
heid	-7.58839
▁vanaf	-7.59285
▁vooral	-7.59312
▁genoemd	-7.60707
b	-7.61304
▁weer	-7.6179
▁hoe	-7.62009
▁bekend	-7.63215
g	-7.64102
▁enkele	-7.64338
v	-7.64675
p	-7.65182
▁groot	-7.65277
▁alleen	-7.65596
uit	-7.68491
el	-7.68823
▁verder	-7.69112
▁samen	-7.69505
▁–	-7.69559
ste	-7.69711
▁16	-7.7004
▁a	-7.70405
al	-7.7219
▁toe	-7.72316
▁per	-7.72927
ver	-7.73877
▁terug	-7.73938
h	-7.74058
▁rond	-7.74196
▁wereld	-7.74294
on	-7.75689
be	-7.75797
▁werk	-7.76786
▁eigen	-7.77556
▁leven	-7.77609
▁15	-7.7774
ers	-7.78907
▁bijvoorbeeld	-7.79256
▁nederlandse	-7.7955
z	-7.79662
▁waarbij	-7.81321
▁2	-7.82049
▁laatste	-7.82089
▁3	-7.83913
▁grootste	-7.84072
▁ongeveer	-7.84198
▁zelf	-7.84199
▁steeds	-7.84364
▁mensen	-7.84556
")	-7.8517
▁18	-7.85242
▁kon	-7.85389
▁maken	-7.85965
▁17	-7.875
▁nu	-7.88388
ische	-7.89013
▁periode	-7.89428
na	-7.89603
▁dus	-7.89749
▁komt	-7.90216
es	-7.91032
▁k	-7.91141
ma	-7.92101
wel	-7.92145
▁komen	-7.9264
▁vier	-7.928
ig	-7.93857
▁("	-7.94173
st	-7.94463
▁mogelijk	-7.945
u	-7.94635
▁waarin	-7.94914
ne	-7.952
▁daar	-7.95325
▁partij	-7.97129
▁dag	-7.97374
▁gebied	-7.97494
▁4	-7.97584
▁taal	-7.97824
▁kreeg	-7.98075
▁koning	-7.98154
▁zeer	-7.98229
▁b	-7.99071
▁elkaar	-7.99129
w	-7.99198
▁gebruik	-8.00515
▁bestaat	-8.00569
▁staten	-8.00992
▁begin	-8.02809
▁landen	-8.03443
▁ging	-8.0387
▁ter	-8.04832
is	-8.05211
▁eerst	-8.05526
▁oorlog	-8.06172
▁via	-8.06235
▁the	-8.06637
chr	-8.06713
ken	-8.0684
▁zuid	-8.06984
▁d	-8.07311
▁vorm	-8.07394
▁duitse	-8.07719
land	-8.07841
je	-8.08013
▁hadden	-8.08215
la	-8.08264
▁bevolking	-8.08531
man	-8.09168
▁hier	-8.09691
▁één	-8.1025
ve	-8.10488
op	-8.10496
▁rijk	-8.10689
▁noord	-8.11221
▁belangrijke	-8.11566
▁20	-8.11648
▁zee	-8.12168
▁meeste	-8.12293
eren	-8.12937
▁10	-8.13308
▁ligt	-8.14254
ch	-8.1509
▁mee	-8.1548
▁pas	-8.15525
▁5	-8.15829
▁sommige	-8.16461
▁meestal	-8.16505
▁geschiedenis	-8.16627
▁oude	-8.16854
▁soms	-8.17067
▁on	-8.17155
ia	-8.17249
▁miljoen	-8.17458
▁waardoor	-8.17471
2	-8.1766
▁kerk	-8.17936
▁naast	-8.18241
▁soorten	-8.18568
▁vormen	-8.18643
ar	-8.1868
▁formula	-8.18961
▁gemaakt	-8.19285
▁m	-8.19956
▁groep	-8.20134
▁i	-8.20259
▁f	-8.20351
▁vele	-8.21164
aan	-8.21167
▁rol	-8.21333
▁14	-8.21619
▁goed	-8.21932
▁muziek	-8.22874
▁minder	-8.22937
ter	-8.23106
▁europese	-8.23215
▁moet	-8.23479
▁bestaan	-8.23521
▁maakte	-8.23545
▁zowel	-8.23609
▁verenigde	-8.2373
▁zelfs	-8.24049
▁gaan	-8.24649
▁zonder	-8.24676
▁daarnaast	-8.24816
ie	-8.25058
▁belgië	-8.25092
der	-8.25153
▁belangrijkste	-8.25155
▁6	-8.25306
▁slechts	-8.25449
▁kleine	-8.25974
▁waarvan	-8.26147
▁gemeente	-8.26337
▁c	-8.27446
▁mei	-8.27682
▁europa	-8.27778
▁eind	-8.2785
um	-8.28016
▁franse	-8.28039
▁beide	-8.28147
▁sterk	-8.28247
▁(19	-8.28385
▁la	-8.28401
▁re	-8.29074
▁8	-8.29628
▁boven	-8.2978
gen	-8.29853
▁buiten	-8.30177
▁terwijl	-8.30575
the	-8.30773
▁hoofd	-8.30822
▁der	-8.31021
j	-8.31311
▁gaat	-8.31464
▁ontstaan	-8.31639
▁7	-8.31799
▁ont	-8.32074
▁moest	-8.32735
▁dood	-8.33135
ta	-8.33586
▁vrij	-8.34107
▁januari	-8.34244
▁dagen	-8.34563
▁einde	-8.34616
et	-8.34848
▁onderzoek	-8.34995
▁basis	-8.35255
▁werken	-8.35579
▁enige	-8.35604
▁zouden	-8.35819
▁leger	-8.35943
▁duitsland	-8.36295
▁aarde	-8.3649
▁zien	-8.36832
▁snel	-8.37036
▁weg	-8.37302
▁uiteindelijk	-8.37397
x	-8.37614
▁frankrijk	-8.37802
▁12	-8.37831
▁19	-8.38023
▁oktober	-8.38059
▁talen	-8.3809
ke	-8.38671
▁man	-8.39496
no	-8.39782
as	-8.39787
▁meest	-8.40226
▁boek	-8.40443
▁licht	-8.40615
▁gezien	-8.40799
▁nieuw	-8.41259
▁vijf	-8.41606
▁provincie	-8.42149
▁ca	-8.42393
▁begon	-8.42498
▁achter	-8.42642
lo	-8.4266
▁net	-8.42768
▁invloed	-8.42865
me	-8.43046
▁lang	-8.43389
ur	-8.43429
▁christelijke	-8.43633
1	-8.43671
nen	-8.44462
▁her	-8.44538
ca	-8.44584
▁macht	-8.44803
ster	-8.44964
or	-8.45022
sch	-8.4503
do	-8.45086
▁daarna	-8.45097
an	-8.45568
▁steden	-8.46215
to	-8.46268
▁juni	-8.46268
▁ontwikkeling	-8.46438
▁regering	-8.46456
atie	-8.46472
pen	-8.46753
eerde	-8.46809
▁sa	-8.47076
▁le	-8.47086
▁politieke	-8.47153
da	-8.47169
▁g	-8.47326
▁huidige	-8.47442
of	-8.47466
▁zal	-8.4768
▁amerikaanse	-8.47724
▁nam	-8.47811
▁volgende	-8.47818
▁kunst	-8.4811
▁bleef	-8.48225
▁altijd	-8.48238
▁staan	-8.49019
▁daarom	-8.49119
▁inwoners	-8.49202
ul	-8.4959
▁midden	-8.49899
▁13	-8.49944
▁9	-8.49949
ven	-8.50169
▁derde	-8.50174
▁west	-8.50192
▁hoge	-8.50547
ton	-8.5063
▁p	-8.5109
len	-8.51677
▁december	-8.51834
▁bepaalde	-8.52038
it	-8.52047
▁we	-8.52249
▁september	-8.52314
▁n	-8.52637
▁co	-8.53012
▁juli	-8.53133
os	-8.5353
▁vanwege	-8.53753
ra	-8.53875
▁keer	-8.53875
▁name	-8.54423
▁wereldoorlog	-8.54729
▁zoon	-8.55159
▁woord	-8.5546
▁god	-8.55627
3	-8.55781
sen	-8.55922
isch	-8.56243
ige	-8.56259
▁algemeen	-8.56426
▁november	-8.56894
▁meter	-8.56902
▁gaf	-8.57027
ingen	-8.57186
▁daarmee	-8.57287
▁lange	-8.574
jes	-8.57444
▁april	-8.57649
▁bijna	-8.57765
▁nederlands	-8.5787
▁dezelfde	-8.58288
▁leden	-8.58508
het	-8.58518
▁toch	-8.58576
mo	-8.58769
▁kwamen	-8.58788
▁hoog	-8.58796
▁geven	-8.58858
▁vinden	-8.58903
▁maart	-8.59042
▁t	-8.59407
▁wanneer	-8.59853
▁album	-8.60398
é	-8.60435
▁eerder	-8.60585
▁film	-8.60786
isme	-8.60834
▁o	-8.60907
▁moderne	-8.60934
▁grond	-8.61015
di	-8.61131
▁lucht	-8.61322
co	-8.61464
▁gevolg	-8.61576
▁diverse	-8.61713
ri	-8.6224
voor	-8.62615
▁wil	-8.62796
▁vond	-8.62923
▁bekende	-8.62979
▁vader	-8.63065
▁oost	-8.6347
7	-8.63474
▁natuur	-8.6359
▁ma	-8.63769
▁11	-8.63843
▁konden	-8.63939
vi	-8.64004
▁hand	-8.64236
▁sp	-8.64243
baar	-8.64663
▁waaronder	-8.64664
▁geweest	-8.648
▁soort	-8.64947
▁familie	-8.65067
th	-8.65255
▁vervolgens	-8.65589
▁weinig	-8.65986
▁augustus	-8.66093
▁hele	-8.66098
▁wilde	-8.66471
▁km	-8.66536
▁geheel	-8.66539
▁doordat	-8.66551
▁noorden	-8.66561
▁kamer	-8.66908
▁laten	-8.67463
▁delen	-8.67719
nadat	-8.67724
▁hen	-8.67849
▁koninkrijk	-8.67852
▁moeten	-8.67895
ium	-8.68407
▁zodat	-8.68472
▁stond	-8.68495
▁kinderen	-8.68936
▁sch	-8.69266
▁internationale	-8.69372
va	-8.69757
▁middel	-8.69867
▁huis	-8.6992
per	-8.69978
▁spelen	-8.70046
men	-8.70208
▁mens	-8.70318
il	-8.70646
▁w	-8.70656
’	-8.70997
▁sint	-8.7108
▁schreef	-8.71464
▁keizer	-8.71519
zen	-8.71748
ed	-8.71844
▁gebieden	-8.71873
▁oud	-8.72245
▁opnieuw	-8.72478
▁zuiden	-8.72753
om	-8.72978
ende	-8.73429
▁februari	-8.73519
ion	-8.73822
▁voorbeeld	-8.74018
sel	-8.74193
▁ii	-8.74291
▁elk	-8.74389
▁langs	-8.74392
▁geschreven	-8.74509
▁jaartelling	-8.74632
▁doen	-8.74799
▁liet	-8.74816
▁wet	-8.74823
▁mo	-8.74938
▁nodig	-8.75241
▁druk	-8.75252
▁energie	-8.75357
▁h	-8.75366
ti	-8.75562
▁ar	-8.76092
▁waarschijnlijk	-8.76154
at	-8.76384
eerd	-8.76544
▁daarbij	-8.76739
ist	-8.7688
sa	-8.76969
▁wie	-8.77087
amp	-8.77361
▁president	-8.77367
4	-8.77743
▁nationale	-8.7775
ro	-8.7784
▁vrouwen	-8.77872
dat	-8.78141
▁heel	-8.78178
bo	-8.78463
▁ander	-8.78845
▁amsterdam	-8.78918
▁geval	-8.79005
▁tegenwoordig	-8.79006
ja	-8.79194
af	-8.79236
▁duidelijk	-8.79274
ci	-8.79474
▁beschouwd	-8.79508
▁zon	-8.79705
ck	-8.79726
▁ruim	-8.79969
▁nemen	-8.79981
▁leiden	-8.80106
ga	-8.8019
▁maakt	-8.80215
ha	-8.80285
ba	-8.80361
ut	-8.80434
▁cultuur	-8.80603
▁eiland	-8.80753
go	-8.81219
▁economische	-8.81268
▁dieren	-8.81288
▁parijs	-8.81382
▁jan	-8.81592
▁mede	-8.81777
weg	-8.82064
▁beeld	-8.82193
▁moment	-8.82248
▁waarmee	-8.82419
▁romeinse	-8.82456
▁politiek	-8.82457
▁ontstond	-8.82619
▁iets	-8.82622
au	-8.82688
aal	-8.82789
▁elke	-8.82826
▁ha	-8.83146
▁britse	-8.8321
▁centrum	-8.83524
▁grens	-8.83532
▁namen	-8.83805
▁even	-8.84259
▁tevens	-8.84592
▁voornamelijk	-8.84606
▁manier	-8.84719
▁voorkomen	-8.85138
tische	-8.85237
19	-8.85271
ek	-8.85377
ly	-8.85441
▁onderwijs	-8.85444
ine	-8.85472
8	-8.85575
▁belangrijk	-8.85623
▁bouw	-8.85753
▁westen	-8.85768
▁klein	-8.85794
▁lijst	-8.86035
▁vrijwel	-8.86273
am	-8.86389
▁vast	-8.86477
durende	-8.86782
tijd	-8.86857
▁systeem	-8.8686
▁republiek	-8.8698
▁je	-8.87056
▁sovjet	-8.87183
▁strijd	-8.87342
▁nooit	-8.87672
▁nummer	-8.87711
▁rivier	-8.87749
wetenschappelijk	-8.8781
lijk	-8.88139
ik	-8.88141
▁massa	-8.88176
▁con	-8.88599
▁universiteit	-8.88662
▁di	-8.88702
▁karel	-8.89085
▁l	-8.89115
▁lid	-8.89162
ale	-8.89203
tie	-8.89241
▁liggen	-8.89398
van	-8.89541
▁betekent	-8.89554
ka	-8.89591
ze	-8.89883
▁plaatsen	-8.90149
▁21	-8.9029
▁slag	-8.9043
▁ra	-8.90483
pa	-8.90668
▁meerdere	-8.90669
ling	-8.90704
-19	-8.90955
gel	-8.911
▁houden	-8.91176
▁daarvan	-8.91202
sche	-8.91336
=2	-8.91559
▁israël	-8.91634
een	-8.91697
stad	-8.92112
▁doel	-8.92131
▁hitler	-8.9219
met	-8.92346
ius	-8.92418
▁minister	-8.92502
▁ruimte	-8.92504
▁school	-8.92514
▁kennis	-8.9252
▁moeder	-8.92739
▁gelijk	-8.92802
▁oosten	-8.92891
un	-8.92955
▁an	-8.93193
▁willem	-8.93225
▁leidde	-8.93366
▁vrouw	-8.93374
em	-8.93464
▁blijven	-8.9347
▁gebouwd	-8.93516
heden	-8.93527
(	-8.93641
▁2006	-8.93753
ën	-8.94057
▁term	-8.94225
▁30	-8.94384
ler	-8.94436
5	-8.94709
▁krijgen	-8.94999
▁kleur	-8.95052
▁goede	-8.95137
▁won	-8.95322
▁top	-8.95478
▁zogenaamd	-8.95533
tal	-8.95761
▁kent	-8.95805
▁hierdoor	-8.95858
▁gehouden	-8.96042
huis	-8.96104
he	-8.96173
▁namelijk	-8.96202
▁bovendien	-8.96382
▁mag	-8.96399
▁belang	-8.96649
▁zes	-8.96735
▁gevonden	-8.96914
▁25	-8.96973
▁relatief	-8.97494
▁anders	-8.97812
▁ex	-8.97948
▁belgische	-8.97995
▁onafhankelijk	-8.97998
▁griekse	-8.98041
ker	-8.9806
▁2007	-8.98179
id	-8.98261
▁recht	-8.98262
son	-8.9835
▁park	-8.98402
▁bepaald	-8.98667
ce	-8.98667
▁regio	-8.98702
▁du	-8.98718
ni	-8.98816
werk	-8.98905
aat	-8.9893
▁bracht	-8.98982
▁pro	-8.9905
▁leiding	-8.99224
▁direct	-8.99382
▁geworden	-8.9942
ho	-8.99437
▁gesproken	-8.9954
gebied	-8.99924
▁geboren	-8.99975
▁geeft	-9.0005
▁afstand	-9.00131
▁elementen	-9.00199
▁sport	-9.00392
▁deed	-9.00473
▁volgen	-9.0052
▁verkiezingen	-9.00527
▁korte	-9.00727
tje	-9.00774
▁hoofdstad	-9.00947
▁kort	-9.01025
▁literatuur	-9.01105
ag	-9.01271
▁tien	-9.0135
▁waarop	-9.01406
▁gebaseerd	-9.0148
▁pe	-9.01649
▁kern	-9.01765
▁hiervan	-9.01799
▁helft	-9.02105
▁vlaanderen	-9.02112
▁lo	-9.02266
ij	-9.02317
▁temperatuur	-9.02329
▁to	-9.02418
▁hierbij	-9.02465
▁2002	-9.02503
▁grotere	-9.02514
▁partijen	-9.02531
▁zeven	-9.02565
▁voorbeelden	-9.02621
▁gegeven	-9.02884
▁productie	-9.03176
▁uur	-9.03178
▁latere	-9.03208
▁stijl	-9.03312
▁frans	-9.03465
66	-9.03628
▁aanvankelijk	-9.03742
▁volledig	-9.03782
▁functie	-9.03805
▁si	-9.03849
▁bleek	-9.03933
▁(18	-9.03951
ad	-9.04068
▁daardoor	-9.04181
&	-9.04308
▁troepen	-9.04308
▁z	-9.04348
ant	-9.0435
▁groter	-9.04411
▁hoogste	-9.04477
▁bestond	-9.04624
▁geld	-9.04645
▁totaal	-9.04646
▁r	-9.04758
▁so	-9.04884
▁groepen	-9.05056
▁officiële	-9.05311
▁euro	-9.05693
▁raad	-9.05951
▁zwarte	-9.06143
▁militaire	-9.06148
▁engeland	-9.06153
▁woorden	-9.06157
ko	-9.06162
▁mar	-9.06318
▁succes	-9.06435
▁lichaam	-9.06499
▁gevormd	-9.065
▁economie	-9.06551
▁as	-9.06689
▁oudste	-9.0695
▁paar	-9.07032
▁ka	-9.07092
▁jonge	-9.07099
▁kilometer	-9.07099
▁zaken	-9.07178
▁positie	-9.0734
▁planten	-9.07461
50	-9.07691
▁geldt	-9.07722
▁maan	-9.0776
mer	-9.07932
▁2010	-9.07959
▁new	-9.07993
ir	-9.08057
▁he	-9.08082
berg	-9.0812
20	-9.08139
▁bevindt	-9.08176
▁speelde	-9.08259
▁leeftijd	-9.0828
▁titel	-9.08414
kel	-9.08455
▁ervan	-9.08546
kken	-9.08573
▁onderdeel	-9.08653
▁vormt	-9.08658
▁afhankelijk	-9.08884
▁se	-9.08937
▁ga	-9.09099
▁voedsel	-9.09116
▁mannen	-9.09432
▁waarde	-9.09479
▁gebruiken	-9.09658
▁hetzelfde	-9.09726
▁ta	-9.09916
▁stand	-9.09928
▁italië	-9.10164
").	-9.10476
▁2000	-9.10518
▁val	-9.10662
▁kust	-9.10735
eert	-9.10772
▁organisatie	-9.10825
ot	-9.11152
2"	-9.11222
▁vi	-9.11223
▁2005	-9.11252
▁erg	-9.11349
unie	-9.11436
▁beweging	-9.11527
17	-9.11726
▁zeggen	-9.11731
▁brengen	-9.11778
▁opgericht	-9.11814
pe	-9.11934
▁jo	-9.12002
▁band	-9.12136
▁parlement	-9.12168
▁maanden	-9.1229
▁loop	-9.12363
▁and	-9.12409
▁gekozen	-9.12482
meer	-9.12485
isten	-9.12486
15	-9.12526
▁element	-9.1267
▁2008	-9.1269
groep	-9.12743
▁ba	-9.12948
▁klassieke	-9.13016
▁zin	-9.13254
▁ni	-9.13291
▁joden	-9.13302
▁auto	-9.13308
ic	-9.13415
po	-9.13468
▁spanje	-9.13517
▁volgde	-9.13629
▁richting	-9.13826
6	-9.14163
ak	-9.14192
▁bloed	-9.14207
als	-9.14209
▁st	-9.14212
▁proces	-9.1424
▁boeken	-9.14421
over	-9.14445
▁kabinet	-9.14479
▁gedaan	-9.14516
▁gemeenten	-9.14625
▁enkel	-9.14645
ber	-9.14802
zie	-9.14927
30	-9.15038
bare	-9.15089
40	-9.15116
▁hart	-9.15135
▁am	-9.15546
▁vlaamse	-9.15601
▁tekst	-9.15614
▁voort	-9.15633
vo	-9.15653
jarige	-9.15741
▁vlak	-9.15814
18	-9.15938
▁gebruikte	-9.16135
▁bal	-9.16183
▁2011	-9.16221
▁22	-9.16243
val	-9.16328
▁gelegen	-9.1635
▁2012	-9.16353
end	-9.16369
▁acht	-9.16377
▁gebracht	-9.16379
▁omgeving	-9.16463
zo	-9.16486
hi	-9.16517
▁john	-9.16576
▁laat	-9.16803
▁me	-9.16874
▁landbouw	-9.16899
▁algemene	-9.17191
▁ontwikkeld	-9.17195
▁hoogte	-9.17208
▁eveneens	-9.17245
▁informatie	-9.17248
4"	-9.1748
▁personen	-9.17656
ië	-9.17792
▁punt	-9.17871
▁j	-9.17897
mi	-9.1792
▁ro	-9.17924
▁steun	-9.17952
▁anderen	-9.18087
▁go	-9.18098
▁bron	-9.18148
7"	-9.18155
▁historische	-9.18189
▁lag	-9.18241
▁2009	-9.18326
ren	-9.18341
=1	-9.18361
▁beter	-9.1857
▁kregen	-9.18715
▁rode	-9.18744
elijk	-9.18765
ger	-9.18828
ica	-9.18836
▁brussel	-9.18914
▁po	-9.18944
▁verenigd	-9.18954
▁rest	-9.18966
art	-9.19062
▁hoger	-9.19095
▁verscheen	-9.19109
▁betekenis	-9.19211
▁kant	-9.19259
▁24	-9.1927
▁bijzonder	-9.19293
▁waarna	-9.19327
punt	-9.1943
▁100	-9.19499
▁zeker	-9.19516
mar	-9.19586
we	-9.19653
▁centraal	-9.19653
ef	-9.19686
▁san	-9.19787
▁vroeg	-9.19922
10	-9.19991
▁programma	-9.20143
▁radio	-9.20185
▁opgenomen	-9.20272
schap	-9.20327
3"	-9.20385
▁ad	-9.20389
▁spaanse	-9.20479
▁ziekte	-9.20683
▁eigenschappen	-9.20718
▁gevallen	-9.20825
eel	-9.20916
▁markt	-9.20987
0	-9.2128
▁pa	-9.21312
▁bestaande	-9.21431
▁u	-9.21436
▁voormalige	-9.21612
▁verbonden	-9.21655
▁oorspronkelijk	-9.21768
▁dienst	-9.21838
▁bevat	-9.21881
▁open	-9.22
▁jaarlijks	-9.22115
▁x	-9.22265
programma	-9.22333
ai	-9.22365
kt	-9.22615
▁vol	-9.22616
▁getallen	-9.22824
▁vervangen	-9.23081
▁zichzelf	-9.23153
▁car	-9.23184
con	-9.23219
▁bestuur	-9.23265
24	-9.23399
ï	-9.23559
▁li	-9.23587
▁sterke	-9.23691
▁laag	-9.23776
▁hierna	-9.23808
recht	-9.23921
▁middeleeuwen	-9.23923
▁verschillen	-9.23925
9"	-9.23939
▁reeds	-9.2394
▁sprake	-9.23975
min	-9.24074
▁stelde	-9.2412
▁berg	-9.24257
▁fa	-9.24324
▁china	-9.24387
▁gas	-9.2447
im	-9.24474
▁paus	-9.24679
▁rijn	-9.24745
▁handen	-9.24754
▁behoren	-9.24773
▁aanwezig	-9.24817
io	-9.24965
▁wist	-9.25044
▁theorie	-9.25278
1"	-9.25323
▁afkomstig	-9.25411
▁wetenschap	-9.25437
▁do	-9.25445
gt	-9.25503
▁tegenstelling	-9.25539
▁nationaal	-9.25602
sh	-9.25623
▁ho	-9.25634
▁tri	-9.25688
lijn	-9.25767
bi	-9.25929
▁vroege	-9.25933
elijke	-9.26101
▁engelse	-9.26126
amerika	-9.26187
▁grotendeels	-9.26204
aire	-9.2647
▁viel	-9.26611
les	-9.26728
▁museum	-9.26755
lt	-9.26776
▁volk	-9.26803
za	-9.26815
▁reden	-9.26854
tu	-9.26982
6"	-9.26999
12	-9.27166
▁oog	-9.27211
▁egypte	-9.27222
ip	-9.27245
8"	-9.27269
▁for	-9.27332
si	-9.27415
ü	-9.27476
▁verhaal	-9.27563
▁stads	-9.27611
▁rusland	-9.27613
▁anti	-9.27616
slag	-9.2763
▁hiermee	-9.27658
▁ieder	-9.27788
▁regelmatig	-9.27806
▁begonnen	-9.27859
mon	-9.27879
▁nederlanden	-9.28
=3	-9.28073
▁sociale	-9.281
▁gehele	-9.28106
▁klimaat	-9.28123
16	-9.28147
▁versie	-9.28214
85	-9.28269
▁engels	-9.28301
▁rome	-9.28397
▁unie	-9.28412
▁handel	-9.28428
▁huwelijk	-9.28499
ook	-9.28558
▁min	-9.28737
▁pre	-9.28752
5"	-9.28898
▁standaard	-9.29029
pro	-9.29044
▁lijn	-9.29059
60	-9.2918
▁feit	-9.29246
▁stellen	-9.29395
▁vindt	-9.29428
▁2003	-9.29461
|	-9.29576
ep	-9.29636
80	-9.29675
▁verband	-9.29682
plaats	-9.29703
ondanks	-9.29769
▁mate	-9.29811
70	-9.29883
▁orde	-9.29918
▁getal	-9.30082
25	-9.30128
tjes	-9.30188
cht	-9.30267
▁bar	-9.30299
dra	-9.30404
▁moesten	-9.30418
▁hof	-9.30438
▁veld	-9.30477
="8	-9.30488
–	-9.30592
▁afge	-9.3065
▁volgt	-9.30664
▁kracht	-9.30734
▁grondwet	-9.30819
▁valt	-9.30833
ach	-9.30946
▁2004	-9.30962
▁no	-9.311
ex	-9.31128
▁joodse	-9.31133
▁dochter	-9.31199
▁2014	-9.31255
▁2018	-9.31418
taal	-9.31442
▁vrije	-9.3145
41	-9.31554
▁goud	-9.31616
▁los	-9.31629
ner	-9.31661
▁oceaan	-9.31679
tel	-9.31951
▁rechts	-9.31953
▁&	-9.31955
mp	-9.32054
▁verloren	-9.32145
▁oorsprong	-9.32145
ts	-9.32234
▁hulp	-9.32286
▁gespeeld	-9.32342
▁russische	-9.32448
▁dergelijke	-9.32493
▁2019	-9.32499
▁antwerpen	-9.32612
br	-9.32759
▁studie	-9.32837
burg	-9.32994
▁groei	-9.33066
▁londen	-9.33087
istische	-9.33176
bouw	-9.33181
▁besloot	-9.33385
▁kalender	-9.33461
▁beste	-9.33466
▁niveau	-9.33496
▁vis	-9.33563
straat	-9.3358
▁heet	-9.33685
▁lokale	-9.33689
▁verschil	-9.33736
▁ru	-9.33742
▁stuk	-9.3375
▁haag	-9.33802
58	-9.33803
)"	-9.33811
▁23	-9.33826
ö	-9.33902
11	-9.33934
▁actief	-9.34029
▁stof	-9.34076
▁zag	-9.34146
▁centrale	-9.34166
▁overheid	-9.34211
▁gingen	-9.34296
dy	-9.34353
ering	-9.34384
▁wijze	-9.34393
▁plan	-9.34394
if	-9.34531
="6	-9.34593
▁opstand	-9.34618
tro	-9.34699
▁verdeeld	-9.34782
▁neer	-9.34828
="7	-9.35088
▁bi	-9.35096
▁brand	-9.3512
▁uitgevoerd	-9.35128
tra	-9.35153
dag	-9.35231
▁internationaal	-9.3557
77	-9.35643
onder	-9.35682
kerk	-9.35713
systeem	-9.35775
▁vaste	-9.35825
ring	-9.35864
▁ontwikkelde	-9.35957
▁persoon	-9.3602
▁computer	-9.36062
▁oorspronkelijke	-9.36063
▁gevestigd	-9.36205
▁2013	-9.36259
▁foto	-9.36318
27	-9.36562
▁bos	-9.3664
ry	-9.3668
age	-9.36692
▁natuurlijke	-9.36843
jo	-9.36996
eg	-9.36997
▁polen	-9.37019
▁=	-9.37077
▁oostenrijk	-9.37089
▁holland	-9.37129
europa	-9.3715
▁paul	-9.37204
afrika	-9.37248
staat	-9.37283
uren	-9.37295
▁punten	-9.37308
▁staats	-9.3754
▁aangezien	-9.37649
spel	-9.37702
▁leer	-9.37704
0.000	-9.37779
bij	-9.37789
▁genomen	-9.37807
▁seizoen	-9.37827
9	-9.37924
▁materiaal	-9.37954
vorm	-9.37979
pi	-9.37995
▁iii	-9.38119
▁beschreven	-9.38141
sta	-9.38146
▁kleinere	-9.38255
▁neemt	-9.38463
90	-9.38523
▁verhalen	-9.38555
rs	-9.38581
▁2015	-9.38663
▁juist	-9.38675
kant	-9.38767
▁moeilijk	-9.38812
li	-9.3885
▁prijs	-9.3886
73	-9.38906
▁eu	-9.38926
▁vertegenwoordig	-9.38976
tisch	-9.38983
▁zetels	-9.39078
▁combinatie	-9.39195
sp	-9.39196
65	-9.39256
ser	-9.39283
35	-9.39334
▁groningen	-9.39431
die	-9.39567
▁zetten	-9.39571
▁vallen	-9.39593
verantwoordelijk	-9.396
▁trad	-9.39623
▁gemeenschap	-9.39655
rijk	-9.39816
▁50	-9.39827
▁handels	-9.39918
29	-9.40067
▁totale	-9.4027
▁hiervoor	-9.40337
▁geboorte	-9.40348
naam	-9.40369
▁kop	-9.40411
▁welke	-9.4052
▁schrijven	-9.4055
_1	-9.40564
har	-9.40583
▁opdracht	-9.40602
▁jeugd	-9.40769
▁ben	-9.40821
▁vervoer	-9.40949
bel	-9.4096
▁eilanden	-9.41128
▁speelt	-9.41232
▁reactie	-9.4139
▁dicht	-9.41468
▁circa	-9.41654
▁bo	-9.41687
▁napoleon	-9.41775
deel	-9.41821
ding	-9.41867
▁0	-9.4191
▁lijkt	-9.41954
▁2001	-9.41984
▁onderscheiden	-9.42045
43	-9.42188
▁lu	-9.42208
▁geleid	-9.42265
▁inmiddels	-9.42299
▁ke	-9.42333
ari	-9.42413
▁york	-9.42452
so	-9.42653
▁vierde	-9.42833
▁officieel	-9.42926
▁lage	-9.43088
▁bas	-9.43124
▁hogere	-9.43273
▁goden	-9.43349
▁procent	-9.43479
▁revolutie	-9.43513
theorie	-9.4353
▁hoeveelheid	-9.43569
á	-9.43634
▁opzichte	-9.43786
▁witte	-9.438
▁werkte	-9.43845
tri	-9.43923
▁kenmerken	-9.4402
lu	-9.44234
▁el	-9.44252
▁28	-9.44347
▁japan	-9.4443
▁eenheid	-9.44442
45	-9.44515
▁bedrijven	-9.44527
88	-9.44546
▁publiek	-9.44565
king	-9.44592
▁reeks	-9.44703
▁problemen	-9.44746
49	-9.4484
▁voeren	-9.44855
▁type	-9.44941
▁oppervlakte	-9.45015
water	-9.45025
="4	-9.45029
▁indeling	-9.45132
71	-9.45138
▁kritiek	-9.4516
75	-9.45352
▁ab	-9.45388
▁hout	-9.45395
▁wit	-9.45496
▁ri	-9.45586
▁buitenlandse	-9.45604
gaan	-9.45627
▁status	-9.45631
▁ja	-9.45645
78	-9.4566
▁blijft	-9.45729
▁geplaatst	-9.45729
▁daarvoor	-9.45808
▁serie	-9.45824
56	-9.46022
▁single	-9.46034
▁tra	-9.46258
▁meerderheid	-9.46432
gang	-9.46512
82	-9.46554
▁station	-9.46594
▁duits	-9.46596
▁miljard	-9.46608
▁rij	-9.46653
54	-9.46751
▁bronnen	-9.46808
eur	-9.46996
95	-9.46999
ert	-9.47133
▁langer	-9.47164
▁aard	-9.4719
gr	-9.47238
▁ton	-9.47305
ana	-9.47321
▁27	-9.47325
▁uitge	-9.47426
handel	-9.47484
▁2016	-9.47533
ment	-9.47599
igen	-9.47834
▁aangeduid	-9.47854
pel	-9.4789
▁su	-9.4789
64	-9.48099
="3	-9.48141
▁katholieke	-9.48203
52	-9.48246
net	-9.48317
ation	-9.4836
ron	-9.48368
▁toegepast	-9.48396
▁extra	-9.48484
▁vogels	-9.48506
▁insecten	-9.48514
▁overleed	-9.48573
74	-9.48608
44	-9.48626
▁duitsers	-9.48654
42	-9.48716
▁vraag	-9.48734
▁spreekt	-9.4877
▁lengte	-9.48812
ll	-9.48847
▁blijkt	-9.48935
▁ooit	-9.48938
che	-9.4903
▁hield	-9.49105
fa	-9.49183
76	-9.49281
▁relatie	-9.49315
51	-9.49321
her	-9.49367
▁spel	-9.49427
▁groeide	-9.4946
▁stemmen	-9.49541
▁noordelijke	-9.496
▁göring	-9.49661
▁zomer	-9.49823
▁haven	-9.49876
00	-9.49942
wet	-9.50005
▁verdrag	-9.50103
ru	-9.50175
86	-9.50247
▁artikel	-9.50272
od	-9.5028
▁vrede	-9.50392
▁iemand	-9.50392
',	-9.5043
▁2020	-9.50438
▁maas	-9.50484
wa	-9.50485
fi	-9.50722
oc	-9.50821
="5	-9.50834
▁elektronen	-9.50854
▁snelheid	-9.5088
▁von	-9.50971
92	-9.5103
du	-9.5105
▁karakter	-9.5107
▁bevinden	-9.5113
▁burgemeester	-9.51146
▁rooms	-9.51159
leg	-9.51249
▁26	-9.51322
▁traditie	-9.51324
▁post	-9.5135
vel	-9.51352
▁da	-9.51383
▁veroorzaakt	-9.51387
air	-9.51426
▁structuur	-9.51442
▁symbool	-9.51482
▁bedoeld	-9.51501
▁ontdekt	-9.51508
0"	-9.51522
▁daarop	-9.51563
68	-9.51607
▁onge	-9.51611
▁college	-9.51825
▁bekendste	-9.51858
21	-9.51963
nt	-9.52007
93	-9.52055
59	-9.52063
▁sub	-9.52095
▁maastricht	-9.52157
79	-9.52215
▁behoort	-9.52246
▁ne	-9.52366
▁ontstaat	-9.52462
▁steen	-9.52463
▁westerse	-9.52497
bu	-9.52503
wo	-9.52518
▁loopt	-9.52531
ging	-9.52544
ä	-9.52599
ty	-9.52707
▁telt	-9.52725
▁zuidelijke	-9.52741
stelling	-9.52746
▁behalve	-9.52801
14	-9.52832
▁2017	-9.52854
▁contact	-9.52927
91	-9.53027
lang	-9.53117
▁nacht	-9.53186
▁alles	-9.53225
▁industrie	-9.53278
▁zweden	-9.534
63	-9.53557
uw	-9.53634
83	-9.53668
ologie	-9.53705
22	-9.53729
▁onderscheid	-9.53777
84	-9.53979
99	-9.54072
wijk	-9.54288
▁ku	-9.54345
nk	-9.54378
ijn	-9.54499
▁trok	-9.54502
▁gesteld	-9.5459
▁traditionele	-9.54708
▁zie	-9.54811
▁kans	-9.54858
23	-9.54889
▁bereikt	-9.54989
▁1990	-9.5512
▁ervoor	-9.55279
▁tegenover	-9.5532
57	-9.55363
▁jezus	-9.55478
96	-9.55484
▁nazi	-9.55503
tan	-9.55547
▁praktijk	-9.55601
▁ti	-9.55637
▁dna	-9.55686
▁ronde	-9.55692
toe	-9.55769
stelsel	-9.55856
ac	-9.56004
▁samenwerking	-9.56033
▁gemiddelde	-9.56369
▁geleden	-9.56407
▁religie	-9.56518
▁ijs	-9.56529
▁kind	-9.56539
▁gedrag	-9.56559
▁beperkt	-9.56575
94	-9.56618
ang	-9.5666
▁uitgebreid	-9.56786
▁voorzitter	-9.56836
▁bezit	-9.56986
61	-9.57026
▁krijgt	-9.57037
▁iedere	-9.57043
13	-9.57111
del	-9.57273
▁half	-9.57285
62	-9.57307
▁religieuze	-9.57359
▁menselijke	-9.57372
▁kennen	-9.57433
▁golf	-9.57483
laag	-9.5757
67	-9.57578
▁‘	-9.57598
▁italiaanse	-9.57755
▁definitie	-9.57803
▁optreden	-9.57808
▁dr	-9.57832
mel	-9.57875
▁want	-9.57882
▁geluid	-9.57895
▁week	-9.57958
▁start	-9.58015
ard	-9.58057
▁afrika	-9.58109
▁georganiseerd	-9.58221
fe	-9.58249
▁mor	-9.58598
▁kleuren	-9.58599
ham	-9.58643
▁voetbal	-9.58657
89	-9.58673
▁aanzienlijk	-9.58716
▁gent	-9.58749
01	-9.58751
▁overigens	-9.58824
ff	-9.59057
ici	-9.59111
▁beelden	-9.59119
fer	-9.59335
▁idee	-9.59413
ting	-9.5943
▁media	-9.59471
▁baan	-9.59577
26	-9.59727
▁wind	-9.59741
▁y	-9.59773
▁40	-9.598
loos	-9.59817
▁dankzij	-9.59822
▁opleiding	-9.5985
kracht	-9.59902
▁31	-9.59927
veld	-9.59984
vin	-9.60141
gas	-9.60178
▁teksten	-9.60254
lin	-9.60302
▁situatie	-9.60305
▁voorzien	-9.60409
vol	-9.60455
nam	-9.60568
▁aanval	-9.60582
▁zuurstof	-9.60606
tre	-9.60618
tiek	-9.60619
nes	-9.60631
▁verloor	-9.60633
▁weten	-9.60657
▁pop	-9.60711
▁dorp	-9.60734
ys	-9.60779
leden	-9.60799
▁aandacht	-9.60843
▁broer	-9.60853
ap	-9.60861
oorlog	-9.60875
69	-9.61037
81	-9.61048
▁luxemburg	-9.61148
55	-9.61182
▁noemde	-9.61182
▁cd	-9.61287
▁maakten	-9.613
▁29	-9.61302
▁2021	-9.61314
uk	-9.61369
▁oranje	-9.6145
▁verschenen	-9.6145
▁behulp	-9.61459
▁betreft	-9.61655
▁schepen	-9.61659
▁schaal	-9.61829
”	-9.61861
▁cha	-9.61954
▁vs	-9.61965
zijde	-9.62092
▁heilige	-9.6221
ol	-9.62232
_	-9.62279
dig	-9.62335
▁allerlei	-9.62482
▁zichtbaar	-9.62501
ki	-9.62523
▁begrip	-9.62586
▁qua	-9.62736
▁ogen	-9.62777
▁best	-9.62801
▁zware	-9.62896
46	-9.62936
▁club	-9.63094
▁or	-9.63102
▁speciale	-9.6311
ina	-9.63199
▁graf	-9.63281
▁raakte	-9.63304
▁geloof	-9.63309
▁populair	-9.63353
98	-9.63437
▁levens	-9.63439
▁begint	-9.63457
ving	-9.63471
lijke	-9.63519
▁opvolger	-9.63523
▁gedeelte	-9.63541
▁roman	-9.63664
▁filosofie	-9.63754
▁prins	-9.63755
▁wereldwijd	-9.63924
▁mi	-9.63924
▁verbinding	-9.63976
▁politie	-9.64015
iteit	-9.64044
raad	-9.6407
ssen	-9.6411
pl	-9.64154
aar	-9.6416
▁spin	-9.64205
ix	-9.64236
▁regels	-9.64274
▁koningin	-9.64359
▁methode	-9.64361
▁mis	-9.6439
▁tempel	-9.64392
▁kruis	-9.64451
▁gouden	-9.6446
▁theater	-9.64659
▁weken	-9.64662
▁openbaar	-9.64681
33	-9.64691
▁berlijn	-9.6478
tor	-9.64857
▁overige	-9.6489
gi	-9.64913
48	-9.64941
komen	-9.65006
▁sindsdien	-9.65016
▁pi	-9.65051
▁india	-9.65099
▁verleden	-9.651
▁verkocht	-9.65116
▁winter	-9.65144
lijst	-9.65144
rie	-9.65169
▁maand	-9.65211
▁christendom	-9.65213
▁1945	-9.65241
▁cor	-9.65266
gra	-9.65462
▁gevolgd	-9.65564
▁thema	-9.65595
▁2022	-9.65673
▁fo	-9.65793
32	-9.65851
▁fase	-9.6586
▁constantijn	-9.65969
▁benoemd	-9.65989
▁nabij	-9.66024
▁chemische	-9.6615
▁gesloten	-9.66166
▁gu	-9.66212
▁cel	-9.66235
▁bewijs	-9.66291
▁1994	-9.66309
▁schrijver	-9.66413
let	-9.6653
lingen	-9.66551
▁1995	-9.6657
37	-9.66588
schrift	-9.66631
▁provincies	-9.66692
▁bodem	-9.66745
tha	-9.66995
rij	-9.67001
▁para	-9.67019
36	-9.67043
▁doorgaans	-9.67155
▁genoeg	-9.67365
▁wedstrijd	-9.674
▁milieu	-9.67523
▁mars	-9.6761
▁volks	-9.67626
▁probeerde	-9.67632
-20	-9.67711
▁vroeger	-9.67713
▁vermeld	-9.67749
druk	-9.67773
▁oudere	-9.6789
▁toepassingen	-9.67936
▁lager	-9.68054
vers	-9.68106
▁principe	-9.68141
stand	-9.68171
▁toon	-9.68194
▁toegevoegd	-9.68239
▁windows	-9.6824
jaar	-9.68242
vat	-9.6827
▁bleven	-9.68278
▁stoffen	-9.68352
▁bijbel	-9.68372
▁spreken	-9.68379
▁probleem	-9.68389
▁ster	-9.68406
%	-9.68457
▁overlijden	-9.685
▁rechten	-9.68503
sie	-9.68528
▁eeuwen	-9.6861
▁ei	-9.68627
▁betrokken	-9.68642
97	-9.68752
achtige	-9.68764
leven	-9.68814
▁latijn	-9.68984
▁koninklijke	-9.69075
▁gericht	-9.69101
▁bewaard	-9.69163
▁sterren	-9.69191
è	-9.69196
▁uitgebracht	-9.69263
09	-9.69318
▁ko	-9.6932
▁nauwelijks	-9.69343
▁vuur	-9.69399
▁eigenlijk	-9.69408
▁gemiddeld	-9.69413
▁diens	-9.69447
band	-9.69489
▁david	-9.69489
▁plek	-9.69491
markt	-9.69591
up	-9.69603
▁wegens	-9.69645
▁et	-9.69677
▁vlaams	-9.6973
iet	-9.69812
park	-9.69829
ide	-9.69886
▁gekomen	-9.69893
28	-9.69933
▁albert	-9.701
zee	-9.70165
▁mu	-9.70225
▁gebeurtenissen	-9.70244
▁uitzondering	-9.70302
▁trekken	-9.70399
▁daarin	-9.70467
▁tour	-9.7047
pp	-9.70483
▁culturele	-9.70642
▁voldoende	-9.7078
▁60	-9.70826
▁wonen	-9.7086
lie	-9.70979
▁westelijke	-9.70988
▁christus	-9.71147
▁2023	-9.71171
ley	-9.71207
geven	-9.7128
▁beleid	-9.7135
▁doden	-9.71353
38	-9.71376
▁televisie	-9.71387
▁spinnen	-9.71415
▁heen	-9.7144
▁oorlogs	-9.71693
▁hard	-9.71794
▁gewonnen	-9.71815
ab	-9.71821
arm	-9.71878
▁bepalen	-9.71915
▁ju	-9.71921
▁product	-9.71932
▁sta	-9.71991
tes	-9.72006
▁metaal	-9.72108
34	-9.72241
▁ajax	-9.72271
▁sc	-9.72332
▁gregoriaanse	-9.72344
▁afgeleid	-9.72399
▁internet	-9.72475
▁bereiken	-9.72498
waar	-9.72535
▁toepassing	-9.72592
▁rivieren	-9.72608
▁gi	-9.72686
ier	-9.72712
▁groen	-9.72799
▁aangenomen	-9.72809
▁fi	-9.7285
▁model	-9.72921
▁ontstonden	-9.72931
prijs	-9.73011
▁stem	-9.73048
▁beïnvloed	-9.73051
generaal	-9.73091
▁resultaat	-9.73362
▁maria	-9.73368
47	-9.73397
q	-9.73444
▁reis	-9.73561
namen	-9.73629
▁gepubliceerd	-9.73652
▁verplicht	-9.737
▁peter	-9.73703
▁super	-9.73798
▁ik	-9.73974
▁utrecht	-9.74036
▁besloten	-9.74117
▁waterstof	-9.74391
53	-9.74401
▁respectievelijk	-9.74415
▁olie	-9.74464
ya	-9.74473
zi	-9.74511
▁johannes	-9.74512
▁vrijheid	-9.74521
▁effect	-9.74532
▁kerken	-9.74834
▁haarlem	-9.74893
▁verzameling	-9.74907
▁regel	-9.74909
▁lopen	-9.74967
ó	-9.74999
ft	-9.75026
▁romeinen	-9.75054
erd	-9.75073
▁openbare	-9.75084
▁plant	-9.75198
▁vogel	-9.75231
]	-9.75276
▁negen	-9.753
▁ideeën	-9.75303
▁rijks	-9.75347
▁stelt	-9.75405
▁gerekend	-9.75423
▁gemeenteraad	-9.75428
▁ontdekking	-9.75604
▁zorgde	-9.75664
ator	-9.75672
▁stam	-9.75683
▁chinese	-9.75705
school	-9.75743
▁1998	-9.75787
zet	-9.75799
▁doet	-9.75903
▁veelal	-9.75924
▁limburg	-9.75928
▁(1	-9.75973
zoals	-9.75978
▁beschikbaar	-9.75997
▁hendrik	-9.75997
▁gegevens	-9.76003
▁bezig	-9.76019
delen	-9.76029
▁software	-9.76032
▁vonden	-9.76035
▁zilver	-9.76044
39	-9.76047
dam	-9.76177
muziek	-9.76182
▁elektrische	-9.76232
▁zullen	-9.76237
▁wapen	-9.76248
cha	-9.76268
ele	-9.76296
▁zand	-9.76299
▁im	-9.76378
▁bu	-9.76492
▁formule	-9.7651
aars	-9.7652
pt	-9.76532
▁kinder	-9.7654
▁verspreid	-9.76551
▁bedrijf	-9.76706
▁samenleving	-9.76732
▁specifieke	-9.7675
beweging	-9.76836
for	-9.76837
▁mocht	-9.76865
▁gehad	-9.76984
▁wetten	-9.77007
▁mil	-9.77031
▁aanleiding	-9.77049
▁turkije	-9.77071
hand	-9.77204
▁mogelijke	-9.77299
ug	-9.77329
▁bevatten	-9.77404
▁twaalf	-9.77417
▁geschikt	-9.77431
▁gebleven	-9.77432
door	-9.77522
▁bank	-9.77575
boek	-9.77589
▁ber	-9.77653
vaart	-9.77699
▁zwaar	-9.77824
▁zwart	-9.77861
▁houdt	-9.7787
▁bouwen	-9.77882
▁burgers	-9.77923
zin	-9.77962
▁overwinning	-9.77983
▁hoek	-9.78009
bal	-9.78115
ov	-9.78176
▁hu	-9.78178
don	-9.78198
lopen	-9.7828
▁finale	-9.78328
▁werking	-9.78399
nu	-9.78405
vis	-9.78421
▁fe	-9.78439
ah	-9.78528
▁80	-9.78544
▁ontving	-9.78671
▁verzet	-9.78671
▁straling	-9.78885
ther	-9.7913
▁stammen	-9.79155
▁alfabet	-9.79239
vallen	-9.79282
dieren	-9.79485
▁oudheid	-9.79523
niet	-9.7955
centrum	-9.79659
▁dichter	-9.79764
tussen	-9.79854
▁1980	-9.79905
▁verlaten	-9.79906
zetten	-9.79983
▁dier	-9.80005
▁kar	-9.80024
▁studenten	-9.8006
▁arnhem	-9.80114
ian	-9.8031
industrie	-9.80335
▁bezocht	-9.80361
▁financiële	-9.80361
▁zitten	-9.80402
▁rand	-9.80425
▁aanwezigheid	-9.8045
_2	-9.80454
rom	-9.80461
▁behaalde	-9.80467
▁stroom	-9.80473
▁latijnse	-9.80551
▁denemarken	-9.8061
▁os	-9.80614
kunst	-9.80671
▁islam	-9.80728
▁kunstenaars	-9.8076
▁bra	-9.80834
▁gebeurt	-9.8087
▁bereikte	-9.80996
periode	-9.8103
▁hierin	-9.81048
▁grootte	-9.81059
▁ontwikkelen	-9.81112
bijvoorbeeld	-9.81184
nummer	-9.81197
▁buurt	-9.8134
▁echte	-9.81358
▁carrière	-9.81361
▁(20	-9.81557
▁kra	-9.81634
▁gezag	-9.81647
kte	-9.81663
▁leider	-9.81677
han	-9.81759
▁1960	-9.81899
ini	-9.81953
loze	-9.81963
bil	-9.82034
▁geest	-9.8215
tica	-9.82171
▁denken	-9.82171
▁scholen	-9.82293
▁arabische	-9.82306
▁volledige	-9.82395
▁1999	-9.82395
▁opge	-9.82414
▁ag	-9.82515
▁vormde	-9.82567
▁streek	-9.82616
▁geproduceerd	-9.82617
05	-9.82627
▁rotterdam	-9.82651
ju	-9.82661
▁liefde	-9.82707
▁zorgen	-9.82707
▁rondom	-9.82751
erende	-9.8279
▁gezin	-9.828
▁toenmalige	-9.82863
▁stierf	-9.82884
iv	-9.82984
▁70	-9.8331
▁willen	-9.83407
trekken	-9.83425
qu	-9.83506
▁1996	-9.83667
▁lama	-9.8369
▁grondgebied	-9.83706
▁at	-9.83726
oor	-9.83731
▁kende	-9.83791
▁terecht	-9.83799
▁ouders	-9.83833
▁trans	-9.83851
▁°	-9.83973
aten	-9.83983
▁rust	-9.83991
▁conflict	-9.84082
▁atmosfeer	-9.8415
▁naties	-9.84153
iek	-9.84172
beeld	-9.84262
brabant	-9.84294
wen	-9.843
▁vergelijking	-9.84361
▁betrekking	-9.84387
▁verval	-9.84389
▁har	-9.84465
▁gevolgen	-9.84483
▁mogelijkheid	-9.84488
dom	-9.84503
▁genaamd	-9.84538
▁hemel	-9.84574
▁ouder	-9.84612
▁bijzondere	-9.84652
▁gal	-9.84663
licht	-9.84679
▁zit	-9.84682
▁twintig	-9.84829
▁dragen	-9.84833
▁teken	-9.84854
gebieden	-9.84916
▁zette	-9.84941
▁slotte	-9.84969
▁twintigste	-9.84972
cu	-9.85034
▁mark	-9.85053
▁wijk	-9.85114
▁tonen	-9.85229
▁gang	-9.85248
▁mond	-9.85253
▁lagen	-9.85299
▁tijden	-9.85421
▁klooster	-9.85422
▁gebouw	-9.85433
▁lodewijk	-9.85445
▁canada	-9.85448
▁gra	-9.85471
▁publiceerde	-9.8549
▁vlucht	-9.85599
▁papier	-9.85679
chi	-9.8568
eerden	-9.85685
▁eten	-9.85736
▁ontwerp	-9.85766
stroom	-9.85849
holland	-9.85879
aren	-9.8588
▁brug	-9.85881
hu	-9.85896
und	-9.85923
▁amerika	-9.85934
▁gewest	-9.86024
▁vóór	-9.86041
▁iedereen	-9.86068
▁spelers	-9.86186
mb	-9.86221
ski	-9.86231
▁+	-9.86233
31	-9.86402
▁enorme	-9.86488
▁horen	-9.86511
bb	-9.86518
▁planeet	-9.8658
matig	-9.86637
▁opkomst	-9.86638
▁voet	-9.86648
▁isotopen	-9.86738
ung	-9.86743
▁minuten	-9.86758
zelfde	-9.86764
bar	-9.8688
iden	-9.86931
▁hol	-9.87013
rik	-9.87097
▁instrument	-9.87101
ok	-9.87249
▁onze	-9.87272
▁aangetroffen	-9.87287
▁schrikkeljaar	-9.87287
streeks	-9.87317
▁caesar	-9.87444
▁beginnen	-9.87449
▁omstandigheden	-9.87483
stel	-9.87544
▁soldaten	-9.87568
▁james	-9.8757
▁schrijvers	-9.87576
ont	-9.87584
▁coalitie	-9.87698
▁kleiner	-9.87743
▁schade	-9.87744
▁britten	-9.87832
macht	-9.87871
▁2024	-9.87877
nis	-9.87888
▁tal	-9.87966
▁brief	-9.87974
soorten	-9.87989
▁landschap	-9.87999
europese	-9.88054
▁verwant	-9.88058
▁dient	-9.88071
▁helemaal	-9.88104
="9	-9.88115
▁bre	-9.88278
pre	-9.88352
▁1993	-9.88389
goed	-9.88391
middel	-9.88404
▁project	-9.88432
▁ingevoerd	-9.88445
▁boeren	-9.88556
-16	-9.88594
nie	-9.88642
▁huid	-9.8865
▁zonne	-9.88655
▁niets	-9.88708
▁discussie	-9.88894
▁kasteel	-9.88898
▁gebouwen	-9.88962
▁onderwerp	-9.88964
▁liep	-9.89143
▁rechter	-9.89207
▁achtergrond	-9.89211
▁keerde	-9.89241
▁nummers	-9.89271
ders	-9.89356
ice	-9.8937
gene	-9.89408
staan	-9.89418
▁ontvangen	-9.89435
▁geslacht	-9.89444
richting	-9.89479
▁indien	-9.89481
ben	-9.89613
▁producten	-9.89649
▁1970	-9.89749
▁stonden	-9.89773
▁jean	-9.89817
wer	-9.89833
▁australië	-9.89931
▁regionale	-9.89979
▁geopend	-9.89982
▁leggen	-9.90008
▁iran	-9.90023
▁rood	-9.90079
▁zei	-9.9008
▁egyptische	-9.90117
win	-9.9013
▁code	-9.90139
▁koolstof	-9.90166
cor	-9.90176
fo	-9.90201
ich	-9.90242
▁slecht	-9.90333
▁plannen	-9.90395
▁oprichting	-9.90457
port	-9.9047
▁frequentie	-9.90491
gebruik	-9.90501
ien	-9.9062
▁koper	-9.90701
katholieke	-9.90749
and	-9.9082
06	-9.90829
▁echt	-9.90839
▁thuis	-9.90851
▁warmte	-9.90886
▁groene	-9.91053
▁ijzer	-9.91058
sten	-9.91081
ooi	-9.91147
que	-9.91217
ple	-9.91285
zw	-9.91316
▁onbe	-9.91333
▁zetel	-9.91417
▁fiets	-9.91465
brand	-9.9156
▁geleidelijk	-9.91567
▁schrift	-9.91616
▁techniek	-9.91623
▁vereniging	-9.9168
▁toestand	-9.91688
▁lagere	-9.91718
plan	-9.91736
02	-9.91854
olympische	-9.919
▁cm	-9.91906
▁noordzee	-9.91942
ay	-9.91978
uil	-9.91989
-18	-9.92026
▁wiskunde	-9.92067
ou	-9.92098
▁mal	-9.9213
▁beurt	-9.92148
▁europees	-9.92255
▁mari	-9.92264
▁letter	-9.92421
▁klank	-9.92426
▁precies	-9.92465
▁auteur	-9.9249
▁gezet	-9.92498
wereld	-9.92617
08	-9.92618
▁ger	-9.92676
▁(16	-9.92727
com	-9.92746
▁1000	-9.92803
▁opera	-9.92929
▁stichting	-9.9297
▁jeruzalem	-9.93049
▁iv	-9.93068
acht	-9.93084
▁grenzen	-9.93143
▁bond	-9.93148
▁generaal	-9.9315
maal	-9.93169
ey	-9.93181
▁vijfde	-9.93211
▁godsdienst	-9.93235
even	-9.9327
▁kaart	-9.93279
▁kwaliteit	-9.93325
ies	-9.93344
▁richtte	-9.93357
eeuwse	-9.93393
▁cl	-9.93432
▁sha	-9.93456
ud	-9.93602
communistische	-9.93694
▁pen	-9.93743
sverkiezingen	-9.9384
▁industriële	-9.93997
productie	-9.94037
▁verdwenen	-9.94158
las	-9.94165
tr	-9.94185
▁vermoedelijk	-9.94191
▁dubbel	-9.94201
▁functies	-9.9427
partij	-9.94345
▁verklaring	-9.94346
▁hierop	-9.94349
▁tu	-9.94399
▁premier	-9.94415
dijk	-9.94419
ph	-9.94491
▁islamitische	-9.94494
tur	-9.94515
▁avond	-9.94619
▁links	-9.94639
ois	-9.94644
stra	-9.94658
▁1950	-9.94694
dia	-9.94711
▁kamp	-9.94743
iers	-9.94749
par	-9.94757
▁1992	-9.94765
achtig	-9.94769
mmer	-9.94862
est	-9.94882
igheid	-9.94899
isatie	-9.94948
▁specht	-9.94971
▁bio	-9.95055
▁hor	-9.95057
▁keren	-9.95096
▁halve	-9.95241
logisch	-9.95329
▁vermoord	-9.95335
▁wal	-9.95362
▁sal	-9.95367
▁bewegen	-9.95373
werken	-9.95393
bos	-9.95478
▁pal	-9.95498
wij	-9.95504
ani	-9.95519
▁verklaarde	-9.95521
-1	-9.95562
▁aangelegd	-9.9561
▁werkelijkheid	-9.95629
▁pan	-9.95657
▁es	-9.95713
▁bro	-9.95756
▁wiskundige	-9.95851
av	-9.95852
▁verhouding	-9.95856
▁risico	-9.95866
▁rechtstreeks	-9.95894
rac	-9.96139
▁charles	-9.96177
▁geweld	-9.96179
▁1940	-9.96222
▁(3	-9.96233
▁verboden	-9.96236
▁mythologie	-9.96238
gh	-9.96352
▁hertog	-9.96369
rit	-9.96435
brug	-9.9647
▁luchthaven	-9.96478
▁haalde	-9.96502
▁fransen	-9.96539
▁brugge	-9.96686
▁toren	-9.96755
▁overgenomen	-9.96794
▁controle	-9.96823
spraak	-9.96827
categorie	-9.96917
▁evolutie	-9.96919
istisch	-9.96921
code	-9.96995
▁moord	-9.97038
▁veroordeeld	-9.97044
voornaamste	-9.97065
▁behandeling	-9.97217
dal	-9.97228
▁arm	-9.97256
ieten	-9.97281
▁fort	-9.97292
lam	-9.97294
▁munt	-9.97321
▁federale	-9.97343
naar	-9.97475
▁winnen	-9.97645
lon	-9.97649
▁can	-9.97649
▁legde	-9.97668
▁ed	-9.97753
▁erop	-9.97831
▁koffie	-9.97911
hel	-9.97911
bus	-9.97938
ris	-9.97961
▁1991	-9.97963
▁veranderde	-9.9797
▁koude	-9.97985
▁activiteiten	-9.98019
▁gold	-9.9803
organisatie	-9.9804
▁graaf	-9.98078
í	-9.98096
▁au	-9.9811
▁zorgt	-9.98164
▁vliegtuig	-9.98176
▁sporen	-9.9819
▁werkt	-9.982
▁com	-9.98202
▁anderzijds	-9.98223
leiding	-9.98261
▁beroep	-9.98288
▁leek	-9.98294
mat	-9.98404
hof	-9.9843
03	-9.98466
▁overleden	-9.98482
tte	-9.98516
▁1944	-9.98557
▁straf	-9.98623
▁george	-9.98674
gan	-9.98674
▁schilder	-9.98755
▁stukken	-9.98839
▁concept	-9.9885
▁oplossing	-9.98923
▁micro	-9.9894
▁veiligheid	-9.98941
▁commissie	-9.98984
pers	-9.98997
grens	-9.99011
▁overgang	-9.99017
▁pvda	-9.99086
dienst	-9.99114
▁vastgelegd	-9.99126
▁paarden	-9.99144
▁maatschappij	-9.99187
▁overzicht	-9.99219
▁kwart	-9.99282
▁tram	-9.99374
▁tennis	-9.9939
ps	-9.994
▁communicatie	-9.99405
▁speciaal	-9.99415
▁test	-9.99419
▁1997	-9.99446
▁1989	-9.9945
▁straat	-9.9945
steen	-9.99601
▁economisch	-9.9963
▁deeltjes	-9.99653
mans	-9.99685
▁eindhoven	-9.99731
▁leidt	-9.99789
steden	-9.99806
▁ingezet	-9.99994
▁buitenland	-10.0008
▁verklaard	-10.0009
▁zoogdieren	-10.0012
hal	-10.0012
▁renaissance	-10.0016
▁vertaald	-10.0033
▁boom	-10.0035
ox	-10.0043
loop	-10.0049
▁ofwel	-10.0051
▁strip	-10.0064
▁art	-10.0065
▁ridder	-10.0067
▁weerstand	-10.0074
bert	-10.0077
gemaakt	-10.0078
▁bed	-10.0078
▁bergen	-10.0083
meter	-10.0084
▁noemt	-10.0093
▁oostelijke	-10.0095
▁uitspraak	-10.0096
▁mol	-10.0099
▁90	-10.0102
ria	-10.0116
▁schip	-10.0118
proces	-10.0118
▁lijken	-10.0132
▁inter	-10.0132
▁wij	-10.0133
nik	-10.0145
sport	-10.015
▁immers	-10.0154
▁vers	-10.0155
lui	-10.0157
tion	-10.0166
▁historisch	-10.0168
▁atoom	-10.0169
▁oppervlak	-10.0175
▁grieken	-10.0181
vlaanderen	-10.0182
▁trouwde	-10.0182
▁gekregen	-10.0184
▁betekende	-10.0184
huizen	-10.0186
talen	-10.0188
▁directe	-10.0189
▁diep	-10.0194
yn	-10.0196
▁rock	-10.0203
▁late	-10.0203
▁geluids	-10.0207
▁persoonlijke	-10.0208
haven	-10.0208
▁literaire	-10.0214
beek	-10.0216
ijs	-10.0221
▁blad	-10.0227
▁letters	-10.0236
▁films	-10.0237
▁(2	-10.0238
houden	-10.0243
cul	-10.0245
-2	-10.0249
▁ol	-10.0251
▁mogen	-10.0257
ges	-10.0257
kamer	-10.0259
▁mening	-10.0264
ning	-10.0268
ief	-10.0269
▁front	-10.0274
leer	-10.0274
▁hieronder	-10.0283
▁wenen	-10.0293
▁museeuw	-10.0308
▁donau	-10.0309
▁analyse	-10.0313
▁war	-10.0313
▁benaming	-10.0318
▁israëlische	-10.0319
▁team	-10.0323
▁kader	-10.0325
res	-10.0336
erde	-10.0337
▁oorzaak	-10.0339
▁zestig	-10.034
▁vo	-10.0346
▁metalen	-10.0346
▁erkend	-10.0348
iti	-10.0349
▁bor	-10.0349
▁nauw	-10.0352
groepen	-10.0355
gekomen	-10.0356
pot	-10.0358
▁stelling	-10.0362
teken	-10.0362
▁wilden	-10.0364
blad	-10.0366
▁instantie	-10.037
▁biografie	-10.0371
▁fl	-10.0372
▁robert	-10.0372
rei	-10.0375
▁samenstelling	-10.0378
oren	-10.038
landen	-10.0381
▁vormden	-10.0389
▁vorming	-10.0398
▁langzaam	-10.0403
▁populaire	-10.0405
rad	-10.0406
▁th	-10.0409
▁spoor	-10.0411
stein	-10.0415
▁my	-10.0415
hout	-10.0419
▁klasse	-10.042
cy	-10.0423
▁omvat	-10.0428
▁japanse	-10.0433
▁mohammed	-10.0433
▁uitsluitend	-10.0433
▁aangepast	-10.044
bor	-10.0443
▁sluiten	-10.0445
▁poolse	-10.0447
▁vielen	-10.0457
llen	-10.0459
▁christenen	-10.0461
▁tegelijkertijd	-10.0465
els	-10.047
tocht	-10.0474
ath	-10.0475
▁kat	-10.0479
▁telefoon	-10.0481
ez	-10.0492
▁dollar	-10.0497
kers	-10.05
ran	-10.0507
▁poging	-10.051
hoek	-10.051
▁ss	-10.0513
▁grieks	-10.0522
▁verre	-10.0523
▁ser	-10.0527
▁par	-10.0527
▁destijds	-10.0528
hoofd	-10.0529
▁goederen	-10.053
▁kosten	-10.0534
▁joseph	-10.0546
▁ban	-10.0549
mann	-10.0557
ano	-10.056
west	-10.0561
lig	-10.0564
▁ros	-10.0569
▁ring	-10.0569
▁griekenland	-10.0573
▁object	-10.0577
▁bezetting	-10.0578
dan	-10.0578
ure	-10.0589
▁richard	-10.0592
5%	-10.0592
▁darwin	-10.0592
▁louis	-10.06
▁bezoek	-10.0603
▁operatie	-10.0605
▁duur	-10.0609
elle	-10.0611
▁kanaal	-10.0615
▁germaanse	-10.0619
ë	-10.0619
▁arts	-10.0622
▁jong	-10.0624
▁vastgesteld	-10.0625
▁1939	-10.0627
▁elf	-10.0627
korea	-10.0629
car	-10.0631
fabriek	-10.0634
tus	-10.0635
raden	-10.0637
▁ac	-10.0638
gu	-10.0654
▁leopold	-10.0656
▁uitbreiding	-10.0656
▁wegen	-10.0657
▁1982	-10.066
▁dom	-10.0668
treden	-10.067
lan	-10.0671
▁hoogtepunt	-10.0672
cho	-10.0677
▁dienen	-10.0687
▁toegekend	-10.0688
▁burgeroorlog	-10.0689
▁halen	-10.0692
ong	-10.0702
▁aparte	-10.0703
▁complexe	-10.0712
cellen	-10.0715
isering	-10.0716
▁gesticht	-10.0721
og	-10.0724
hoe	-10.0735
vormen	-10.0736
▁international	-10.074
▁azië	-10.0745
▁duizenden	-10.0745
▁editie	-10.0747
name	-10.0751
▁voorkeur	-10.0753
▁bus	-10.0754
▁paleis	-10.0755
baan	-10.0766
▁kolonie	-10.0767
▁volwassen	-10.0768
▁vermogen	-10.0769
▁sloot	-10.0771
▁telde	-10.0773
▁verspreiding	-10.0773
cel	-10.0777
gaat	-10.078
▁zijde	-10.0784
▁troon	-10.0786
wan	-10.0786
▁vvd	-10.0786
qui	-10.079
poort	-10.0793
▁sprak	-10.0793
▁definitief	-10.0797
wapen	-10.0802
zer	-10.0804
▁(17	-10.0806
▁ministerie	-10.0807
▁motor	-10.0814
▁droog	-10.0815
▁onderverdeeld	-10.0818
▁voordeel	-10.0826
▁speler	-10.0836
▁bewoners	-10.0838
▁gedeeltelijk	-10.0838
07	-10.0848
top	-10.085
▁voorkomt	-10.0861
ros	-10.0865
▁stalin	-10.0868
▁koers	-10.0872
▁poly	-10.0879
bra	-10.0887
wegen	-10.0888
▁nederlanders	-10.0897
▁pri	-10.0897
▁militair	-10.09
▁brazilië	-10.0901
▁meteen	-10.0901
▁inclusief	-10.0902
▁lichaams	-10.0904
▁transport	-10.0907
▁cijfers	-10.091
stijl	-10.0917
▁beroemde	-10.0919
▁irak	-10.0919
▁netwerk	-10.0932
▁beschrijving	-10.0937
iërs	-10.0941
plein	-10.0945
▁ontdekte	-10.0946
▁veranderen	-10.095
▁bedraagt	-10.0951
geschreven	-10.0957
zon	-10.0957
elen	-10.0957
▁2,	-10.0959
▁snelle	-10.0961
rol	-10.0963
▁sneller	-10.0968
▁godin	-10.0971
log	-10.0983
▁deels	-10.0984
soort	-10.0986
▁som	-10.0988
geheten	-10.099
▁verslagen	-10.0997
▁vliegen	-10.1002
zijn	-10.1003
▁duurde	-10.1006
klasse	-10.1008
▁kiezen	-10.1017
▁tientallen	-10.1017
zien	-10.1022
▁sociaal	-10.1024
kanaal	-10.1028
▁broed	-10.103
zelf	-10.1031
mor	-10.1033
▁ierland	-10.1034
ow	-10.1036
▁cda	-10.1037
▁hi	-10.1049
2%	-10.1052
▁bieden	-10.1053
▁1973	-10.1055
▁brak	-10.106
▁inge	-10.1061
sk	-10.1063
▁ur	-10.1064
eer	-10.1071
▁kn	-10.1073
▁redenen	-10.1075
nemen	-10.1076
▁concert	-10.1078
▁bescherming	-10.1086
ct	-10.1086
▁william	-10.1088
▁tak	-10.1091
▁zwitserland	-10.1096
▁waaruit	-10.1111
▁noemen	-10.1117
▁voorstel	-10.1119
▁dialecten	-10.1132
kamp	-10.1139
▁verbindingen	-10.1149
one	-10.1151
▁suriname	-10.1151
▁individuele	-10.1152
gar	-10.1152
▁martin	-10.1164
▁paard	-10.1167
gegeven	-10.1169
▁ziet	-10.1172
▁opening	-10.1173
lagen	-10.1179
▁atomen	-10.1179
▁organisaties	-10.1186
▁terrein	-10.1187
lar	-10.1188
▁bestand	-10.1192
oli	-10.1195
▁maal	-10.1197
▁binnenstad	-10.1203
brengen	-10.1205
▁wa	-10.1206
▁wijzen	-10.1208
zuid	-10.1209
▁alpen	-10.1211
waarde	-10.1215
▁microsoft	-10.1219
▁freud	-10.1219
ero	-10.1221
▁turkse	-10.1222
oxide	-10.1227
▁dertig	-10.1228
▁toernooi	-10.1239
▁mijn	-10.1242
kop	-10.1245
ans	-10.1245
▁toekomst	-10.1254
▁aanleg	-10.1255
▁waargenomen	-10.1256
▁taak	-10.1258
▁belasting	-10.126
my	-10.1263
▁metro	-10.1266
▁vaker	-10.1267
kan	-10.127
▁dialect	-10.1274
▁200	-10.1278
ji	-10.1281
▁gebeurde	-10.1282
▁gelden	-10.1285
rt	-10.1286
▁woon	-10.1287
▁actie	-10.1287
▁bevestigd	-10.1288
▁einstein	-10.1288
grond	-10.1301
▁500	-10.1302
▁levende	-10.1305
cultuur	-10.1311
functie	-10.1311
yl	-10.1312
▁eenvoudig	-10.1315
▁live	-10.1315
▁bot	-10.1317
▁negentiende	-10.1327
▁dorpen	-10.1328
cr	-10.1335
▁mer	-10.1342
▁eenheden	-10.1346
▁world	-10.1355
▁stroming	-10.1355
▁daarentegen	-10.1356
mal	-10.1359
▁publieke	-10.136
▁vroegere	-10.1367
positie	-10.1375
▁droeg	-10.1383
▁fran	-10.1386
chem	-10.1388
▁noodzakelijk	-10.1391
▁traditioneel	-10.1391
▁testament	-10.1391
by	-10.1395
zel	-10.1396
▁overeen	-10.1407
ons	-10.1411
dorp	-10.1414
')	-10.1419
▁wedstrijden	-10.1419
▁gewone	-10.1433
ban	-10.1438
▁(15	-10.1438
woord	-10.1441
▁gouverneur	-10.1443
▁vertaling	-10.1444
geld	-10.1444
▁bach	-10.1448
▁web	-10.1451
▁bezoekers	-10.1465
▁voerde	-10.1478
▁leren	-10.1486
▁vergelijkbaar	-10.1496
▁mont	-10.1497
▁toegang	-10.1504
▁menselijk	-10.1513
▁boeddhisme	-10.1515
▁ingedeeld	-10.1525
▁kevers	-10.1525
▁venus	-10.1536
▁allemaal	-10.1539
hit	-10.1541
▁vissen	-10.1542
▁hongarije	-10.1544
▁breed	-10.155
▁speel	-10.1563
▁trein	-10.1565
▁defensie	-10.1566
mont	-10.1568
zuur	-10.1568
500	-10.157
▁mm	-10.1578
roep	-10.1581
iseren	-10.1583
▁moslims	-10.1587
▁bon	-10.1591
▁zout	-10.1592
verkeer	-10.1597
▁groeien	-10.1598
duitsland	-10.1598
▁eindigde	-10.1599
▁enerzijds	-10.1601
▁provinciale	-10.1601
waarts	-10.1601
▁newton	-10.1607
grafie	-10.1612
ub	-10.1622
▁uitvoering	-10.1622
▁gemakkelijk	-10.1623
▁objecten	-10.1623
▁stenen	-10.1624
▁slechte	-10.1625
▁verandering	-10.1627
▁inhoud	-10.1632
toon	-10.1634
gebouw	-10.1635
▁uitgezonden	-10.1637
▁zeventig	-10.1638
▁amerikanen	-10.164
▁1977	-10.1642
▁verkeer	-10.1642
▁gelegd	-10.1653
▁ci	-10.1656
gaande	-10.1659
sing	-10.166
▁meet	-10.166
▁ministers	-10.1661
▁verdediging	-10.1661
▁juiste	-10.1665
▁auteurs	-10.1666
▁vak	-10.1668
▁weigerde	-10.1672
▁rijden	-10.1678
▁jazz	-10.1682
▁commerciële	-10.1683
▁vleugels	-10.1684
▁gen	-10.1684
▁blok	-10.1689
▁verlies	-10.169
▁stap	-10.1693
▁bestuurlijke	-10.1707
▁roemenië	-10.1708
▁gele	-10.171
▁stroomt	-10.171
▁brede	-10.1715
▁keuze	-10.1721
pas	-10.1728
▁lijnen	-10.1728
kar	-10.1734
bro	-10.1745
rus	-10.1747
▁fu	-10.175
lis	-10.1754
▁gewicht	-10.1756
line	-10.1769
tis	-10.177
▁zorg	-10.1772
▁chi	-10.1775
familie	-10.1775
▁natuurkunde	-10.1781
straling	-10.1783
▁zegt	-10.1783
▁begraven	-10.1784
▁em	-10.1785
▁bol	-10.1789
abel	-10.1791
laat	-10.1791
▁zweedse	-10.1794
▁leverde	-10.1806
god	-10.1806
stof	-10.1813
tin	-10.1813
▁don	-10.1813
dr	-10.1815
▁trek	-10.1815
▁dagelijks	-10.1817
▁sto	-10.1826
▁voorgesteld	-10.1828
weer	-10.1828
▁beschikt	-10.1828
▁johan	-10.1833
▁aandeel	-10.1836
▁complex	-10.184
▁poten	-10.1843
▁antwoord	-10.1849
▁absolute	-10.1852
bron	-10.1855
▁1988	-10.1857
▁pot	-10.1861
chen	-10.1869
▁negatieve	-10.1878
old	-10.1879
▁pla	-10.1883
▁feite	-10.1886
▁besluit	-10.1888
▁gedefinieerd	-10.1888
▁variant	-10.189
aard	-10.1901
▁('	-10.1907
▁sommigen	-10.1908
verbindingen	-10.1909
▁veranderd	-10.192
▁gast	-10.192
brittannië	-10.1925
▁bedacht	-10.1926
▁architectuur	-10.1926
▁normaal	-10.1926
▁afgebeeld	-10.1926
▁vragen	-10.1928
▁riep	-10.193
▁varianten	-10.1936
2.	-10.1939
▁komst	-10.1947
▁produceren	-10.1952
red	-10.1955
▁vijftig	-10.1955
▁piano	-10.1962
▁wetenschappers	-10.1964
dor	-10.1964
▁stelsel	-10.1969
hr	-10.1969
▁onmogelijk	-10.1978
▁stikstof	-10.1982
mu	-10.1983
geschiedenis	-10.1985
lijnen	-10.1988
▁gewoon	-10.199
▁vergadering	-10.1993
▁mon	-10.1994
bank	-10.2
▁zondag	-10.2011
▁carl	-10.2013
ept	-10.2019
rum	-10.2023
▁pu	-10.2023
▁lezen	-10.2028
▁honderd	-10.2032
▁rots	-10.2035
▁geregeld	-10.2035
▁rug	-10.2046
▁linker	-10.2053
▁sol	-10.2054
▁congres	-10.2055
▁ontwikkelingen	-10.2063
▁fractie	-10.2065
▁cellen	-10.2067
▁stil	-10.2067
onderzoek	-10.2073
▁verhuisde	-10.2074
▁gebruikelijk	-10.2075
▁erin	-10.2075
▁1986	-10.2077
2)	-10.2083
▁bevel	-10.2087
▁geallieerden	-10.2092
▁les	-10.2101
▁ware	-10.2104
▁draagt	-10.2105
jan	-10.2107
▁trokken	-10.2108
▁verklaren	-10.2109
▁syrië	-10.211
eenheid	-10.2116
wi	-10.2126
way	-10.2128
▁jaartal	-10.2131
los	-10.2133
wal	-10.2139
▁voorwerp	-10.2139
lus	-10.2141
▁marx	-10.2141
▁voorkomende	-10.2142
▁bewust	-10.2144
zij	-10.2145
▁decennia	-10.2147
orde	-10.2147
▁gezegd	-10.2147
▁praag	-10.2148
plaatsen	-10.215
xi	-10.215
▁zoveel	-10.2151
ib	-10.2151
vrouw	-10.2154
▁bisschop	-10.2167
▁diende	-10.2169
▁rijke	-10.2172
out	-10.2182
▁biedt	-10.2184
▁huizen	-10.2187
▁1978	-10.2189
▁bewind	-10.219
cal	-10.2191
pri	-10.2192
▁vriend	-10.2197
cus	-10.2197
▁slachtoffers	-10.2202
titel	-10.2208
▁ons	-10.2211
ny	-10.2212
▁nadruk	-10.2213
▁kroon	-10.2224
▁tachtig	-10.2224
▁vliegtuigen	-10.2224
▁1967	-10.2226
▁festival	-10.2236
▁gelegenheid	-10.2236
▁uiteen	-10.2236
▁interpretatie	-10.2241
mate	-10.2243
iën	-10.2243
▁genoemde	-10.2245
▁manieren	-10.2249
ringen	-10.225
vorming	-10.2253
heer	-10.2256
▁mat	-10.2259
▁verkozen	-10.226
niveau	-10.2263
▁volgden	-10.2265
▁schilderijen	-10.227
azië	-10.2272
▁malen	-10.2273
▁omvang	-10.2274
▁gedwongen	-10.2274
wellicht	-10.2279
▁geografie	-10.2298
▁hoeveelheden	-10.2298
▁protestantse	-10.2301
vrij	-10.2302
▁gezicht	-10.2306
som	-10.2307
su	-10.2316
din	-10.2322
▁biologische	-10.2324
▁onafhankelijke	-10.2336
▁hetgeen	-10.2336
▁volgorde	-10.2337
▁belangstelling	-10.2338
▁technische	-10.2342
spanning	-10.2346
▁sterker	-10.2348
▁jacht	-10.2353
▁verwoest	-10.2356
▁termijn	-10.2357
az	-10.2357
alisme	-10.236
▁sy	-10.2365
▁behouden	-10.237
▁rekening	-10.2371
▁gat	-10.2373
amerikaanse	-10.2374
▁1983	-10.2378
▁1985	-10.238
▁arbeiders	-10.2405
can	-10.2405
kom	-10.2406
▁instellingen	-10.2407
▁voorheen	-10.2409
▁bouterse	-10.2412
▁vernoemd	-10.2412
▁wk	-10.2415
ua	-10.2423
▁platen	-10.2423
▁veranderingen	-10.2426
▁universiteiten	-10.2427
neu	-10.2429
▁aantallen	-10.243
type	-10.243
iger	-10.2431
▁vlees	-10.2436
▁epi	-10.2443
zone	-10.2446
▁droge	-10.2446
▁uitgegeven	-10.245
▁gekenmerkt	-10.245
▁democratie	-10.245
▁prijzen	-10.2454
▁vertrek	-10.2455
gg	-10.2459
▁you	-10.246
station	-10.247
▁anton	-10.2472
cl	-10.2474
▁betaald	-10.2476
▁nest	-10.2482
gon	-10.2485
▁resultaten	-10.2487
▁schelde	-10.2497
▁rapport	-10.2508
▁succesvolle	-10.2517
▁fout	-10.2518
▁regen	-10.2522
▁musea	-10.2529
▁1987	-10.253
zeeland	-10.2534
bed	-10.2536
▁zuur	-10.2537
▁voorbij	-10.254
▁uitgesproken	-10.254
cher	-10.2541
▁termen	-10.2541
▁otto	-10.2546
post	-10.2547
▁afkomst	-10.2554
▁35	-10.2556
politiek	-10.2558
uc	-10.2561
leider	-10.2561
▁gouda	-10.2563
▁opgevolgd	-10.2567
▁neo	-10.2567
tak	-10.2567
ith	-10.2572
▁1975	-10.2572
+	-10.2575
▁honderden	-10.2578
▁mogelijkheden	-10.258
▁modern	-10.2582
▁hans	-10.2585
▁comp	-10.2587
▁adel	-10.2594
ola	-10.2596
fin	-10.2602
itz	-10.2602
tig	-10.2605
▁velen	-10.2608
▁nieuws	-10.2608
inter	-10.2609
▁alexander	-10.2611
▁1968	-10.2611
iswaar	-10.2611
ita	-10.2618
▁voortdurend	-10.2625
mes	-10.2626
cla	-10.2641
ux	-10.2641
▁positieve	-10.2643
lei	-10.2644
▁nijmegen	-10.2645
▁vertrok	-10.2647
▁woonde	-10.2648
ara	-10.2648
▁vn	-10.2654
▁stuurde	-10.2658
all	-10.2658
▁saint	-10.2658
▁partner	-10.2662
▁gebrek	-10.2664
▁vlinders	-10.2666
▁organismen	-10.2667
▁zoek	-10.2668
▁gar	-10.2678
▁afzonderlijke	-10.2679
▁wo	-10.2679
▁cap	-10.2682
▁mozart	-10.2684
▁zodanig	-10.2684
▁thomas	-10.2684
▁ziekenhuis	-10.2686
fase	-10.2686
▁zaak	-10.2688
▁1979	-10.2689
▁toenemende	-10.2696
gelegd	-10.2701
graaf	-10.2706
▁planeten	-10.271
volk	-10.2716
minstens	-10.2717
▁jacob	-10.2718
toren	-10.272
▁uitvinding	-10.2724
▁gulden	-10.2724
▁tegelijk	-10.2724
mus	-10.2728
rang	-10.2728
boeken	-10.2734
alai	-10.274
▁crisis	-10.274
▁spelling	-10.2741
mis	-10.2742
▁tibet	-10.2742
effect	-10.2746
▁pers	-10.2748
rat	-10.2751
fen	-10.2753
ui	-10.2755
rio	-10.2756
▁interne	-10.2758
kleur	-10.2762
ino	-10.2763
▁heden	-10.2763
▁frederik	-10.2763
▁geïntroduceerd	-10.2763
▁verscheidene	-10.2763
▁hoop	-10.2767
▁feest	-10.277
▁verzoek	-10.2775
▁continent	-10.2781
gehouden	-10.2782
▁beschermen	-10.2787
president	-10.2787
gesteld	-10.279
gem	-10.2791
feest	-10.2792
▁chr	-10.2795
punten	-10.2795
ieve	-10.2798
▁bedreigd	-10.2803
▁schiereiland	-10.2803
▁1948	-10.2808
ctor	-10.2809
▁feitelijk	-10.2816
▁pra	-10.2823
▁veilig	-10.2824
lim	-10.2826
hang	-10.2827
▁vrouwelijke	-10.2832
▁star	-10.2838
▁heuvel	-10.2839
▁bloei	-10.284
▁[	-10.284
▁collectie	-10.2842
▁schiphol	-10.2844
▁populatie	-10.2851
▁succesvol	-10.2852
▁zoeken	-10.2869
hard	-10.2873
▁lot	-10.2876
▁heer	-10.2877
houder	-10.2877
schoten	-10.2878
▁mel	-10.2881
▁verwijst	-10.2883
▁zwavelzuur	-10.2884
▁keulen	-10.2885
▁onderling	-10.2887
▁aanvallen	-10.289
▁dacht	-10.2892
▁persoonlijk	-10.2893
plaatselijke	-10.2902
gezet	-10.2903
complex	-10.2908
▁kandidaat	-10.2915
pu	-10.2915
idae	-10.2916
▁landelijke	-10.2917
▁lente	-10.2925
▁slot	-10.2927
▁opname	-10.2927
▁waarden	-10.2929
▁processen	-10.2929
stuk	-10.293
lid	-10.2931
▁--	-10.2936
▁middeleeuwse	-10.294
cc	-10.2944
voering	-10.2945
vleugel	-10.295
▁michael	-10.2964
▁jakob	-10.2964
gegaan	-10.2965
▁gemeten	-10.2965
▁export	-10.2966
▁hel	-10.2968
vormige	-10.2969
▁bru	-10.2971
eld	-10.2978
sc	-10.2982
groei	-10.2993
▁natuurlijk	-10.2996
▁noordelijk	-10.2996
▁zuidelijk	-10.2998
hon	-10.3002
tatie	-10.3003
▁beneden	-10.3005
aanse	-10.3005
▁dinosauriërs	-10.3006
iz	-10.3008
▁franco	-10.3009
▁1941	-10.3011
▁1918	-10.3012
▁1900	-10.3014
gere	-10.3015
lem	-10.3018
▁hedendaagse	-10.3021
▁constant	-10.3026
mos	-10.3038
▁kok	-10.3043
▁gek	-10.3043
▁enigszins	-10.3046
▁mozes	-10.3046
▁middelen	-10.3047
▁toneel	-10.3047
plant	-10.3049
▁1974	-10.3051
▁tom	-10.3062
film	-10.3079
▁prof	-10.308
▁winkel	-10.3081
▁verovering	-10.3087
▁bedekt	-10.3087
▁psv	-10.3087
▁1972	-10.309
kunde	-10.3091
▁1971	-10.3092
▁betreffende	-10.3094
▁bl	-10.3098
▁bier	-10.3103
stan	-10.3112
▁bezet	-10.3114
▁trouw	-10.3117
▁slaagde	-10.3119
▁national	-10.3119
inus	-10.3122
▁verwacht	-10.3125
▁wijn	-10.3126
▁verkregen	-10.3128
▁saksen	-10.3128
▁terugkeer	-10.3136
▁char	-10.3138
▁orkest	-10.3146
▁letterlijk	-10.3151
▁gehoor	-10.3153
▁vlieg	-10.3154
pan	-10.3154
▁lading	-10.3155
▁akkoord	-10.3158
▁hersteld	-10.3159
hor	-10.3168
▁zulk	-10.3169
▁zuster	-10.3178
loo	-10.318
gat	-10.3183
wisseling	-10.3185
▁smaak	-10.3186
ré	-10.319
▁gevaar	-10.3193
ula	-10.3195
▁jongen	-10.3198
▁gezondheid	-10.3199
ille	-10.3208
▁passen	-10.3209
▁tijdelijk	-10.3209
uur	-10.321
▁ontworpen	-10.3211
▁/	-10.3214
▁1981	-10.3216
▁1984	-10.3216
komt	-10.3216
▁kwa	-10.3219
▁aangegeven	-10.3221
▁vijftien	-10.3228
middelen	-10.3234
▁elektron	-10.3236
vereniging	-10.3246
▁elektriciteit	-10.3252
▁dijk	-10.3253
▁zelden	-10.3253
▁koos	-10.3256
▁1976	-10.3258
▁1920	-10.326
pon	-10.3262
hen	-10.3267
▁hit	-10.3271
ologische	-10.3278
▁onderdelen	-10.3286
rechten	-10.3291
sto	-10.3291
▁zu	-10.3291
gor	-10.3292
▁kwik	-10.3295
ric	-10.33
leggen	-10.3304
lli	-10.3305
rig	-10.3314
tsj	-10.3321
▁componist	-10.3324
▁scheiding	-10.3324
▁monument	-10.3332
▁gescheiden	-10.3336
▁madonna	-10.3336
▁uitgedrukt	-10.3349
▁bush	-10.3351
▁nader	-10.3353
▁koran	-10.3353
▁beheer	-10.3356
ili	-10.3364
▁californië	-10.3365
▁1930	-10.3365
▁voorloper	-10.3366
▁overal	-10.3366
▁moleculen	-10.3368
▁onderzoekers	-10.3368
▁anna	-10.3374
ld	-10.3377
▁vloeistof	-10.3378
▁beschrijft	-10.3378
▁golflengte	-10.3379
▁gewoonlijk	-10.338
▁dam	-10.3381
mm	-10.3381
▁1969	-10.3383
noord	-10.3387
▁cuba	-10.3388
stal	-10.3388
▁ali	-10.3393
▁richten	-10.3407
hol	-10.3414
▁vorst	-10.3418
maken	-10.3421
meester	-10.3421
lied	-10.3421
▁harde	-10.3421
▁initiatief	-10.3421
▁behandeld	-10.3422
▁luik	-10.3425
ada	-10.3428
ora	-10.343
▁gro	-10.3433
▁beperkte	-10.3436
▁gaven	-10.3436
engels	-10.3442
yo	-10.3442
▁leveren	-10.3443
▁sm	-10.3448
tz	-10.3449
▁oer	-10.3451
▁wijken	-10.3454
▁onderzocht	-10.3463
▁ligging	-10.3463
▁vandaag	-10.3464
dis	-10.3464
▁uiterlijk	-10.3465
▁ram	-10.3466
▁geraakt	-10.3467
▁bad	-10.3468
kin	-10.3487
▁positief	-10.3488
mmen	-10.3491
▁parken	-10.3496
▁democratische	-10.3501
▁generatie	-10.3502
rd	-10.3502
riet	-10.3505
▁portugal	-10.3506
▁medische	-10.3511
▁homo	-10.3521
ruimte	-10.3523
▁cre	-10.3526
▁factoren	-10.3532
▁opgesteld	-10.3542
▁munten	-10.3543
streek	-10.3544
▁protest	-10.3545
baarheid	-10.3547
systemen	-10.3548
▁exemplaren	-10.3549
▁moskou	-10.3549
▁verwijderd	-10.3549
▁voltooid	-10.3549
▁toerisme	-10.3549
▁machine	-10.355
▁karl	-10.3561
▁spoorlijn	-10.3566
%)	-10.3566
molen	-10.3575
genoot	-10.3584
▁indo	-10.3585
techniek	-10.3594
dus	-10.3595
jaren	-10.3598
san	-10.3603
▁concentratie	-10.3604
iële	-10.3606
▁stro	-10.3607
▁set	-10.3609
▁afstanden	-10.3613
▁kaarten	-10.3616
wacht	-10.3619
▁koningen	-10.3635
▁geschriften	-10.3636
▁middellandse	-10.3636
▁luchtvaart	-10.3638
▁mest	-10.364
maker	-10.3646
▁cal	-10.3648
▁regime	-10.365
ram	-10.3653
▁stations	-10.3655
▁ce	-10.3658
▁gevangen	-10.3658
eus	-10.3659
gy	-10.3666
indië	-10.3666
▁russisch	-10.3672
ura	-10.3675
▁actieve	-10.3676
ii	-10.3677
▁prinses	-10.3679
▁uitgestorven	-10.3679
▁veroorzaken	-10.3679
▁maatregelen	-10.368
gue	-10.3681
▁jongeren	-10.3688
richt	-10.3689
▁us	-10.3693
reis	-10.3699
▁schilders	-10.37
cia	-10.3701
▁koe	-10.3706
fra	-10.3708
lit	-10.3713
tar	-10.3719
low	-10.3721
▁verliezen	-10.3723
▁jackson	-10.3723
massa	-10.3725
▁natuurkundige	-10.3725
▁sn	-10.3729
▁reken	-10.373
▁voorwerpen	-10.3733
▁uitvoeren	-10.3736
boom	-10.3736
ax	-10.3739
▁zagen	-10.374
▁hop	-10.3742
▁diensten	-10.3744
▁eenvoudige	-10.3748
▁levert	-10.3752
war	-10.3766
▁fortuyn	-10.3766
▁archeologisch	-10.3766
▁burger	-10.3767
▁prooi	-10.3767
▁publicatie	-10.3769
duc	-10.3769
ville	-10.3771
ern	-10.3778
▁verliet	-10.3778
ance	-10.379
▁kal	-10.3794
str	-10.3798
sis	-10.3799
▁arbeids	-10.3802
▁bin	-10.3807
▁toegestaan	-10.381
▁opper	-10.3813
bedrijf	-10.3814
▁ontslag	-10.3815
▁gevoelig	-10.3817
daal	-10.3827
▁vestiging	-10.3841
tuig	-10.3848
vest	-10.3852
▁krant	-10.3853
▁bepaalt	-10.3855
▁descartes	-10.3855
▁zwaartekracht	-10.3855
▁studeerde	-10.3855
▁keuken	-10.3856
▁kleding	-10.3857
our	-10.3858
▁dynastie	-10.3858
ties	-10.3859
▁tegenstander	-10.3862
▁voormalig	-10.3863
▁opgebouwd	-10.3863
tic	-10.3864
▁vrienden	-10.3864
int	-10.3865
▁kom	-10.3865
▁bel	-10.3865
▁banden	-10.3866
▁muur	-10.3866
▁lood	-10.3867
▁leerlingen	-10.3873
▁wonder	-10.3876
▁java	-10.3885
▁afrikaanse	-10.3888
▁ramp	-10.3888
▁dans	-10.389
):	-10.3892
ellen	-10.3895
ble	-10.3896
eck	-10.3897
▁context	-10.3899
▁vesting	-10.39
eiland	-10.39
▁binding	-10.3902
▁onderwerpen	-10.3902
▁overheids	-10.3906
slagen	-10.3906
▁vliegveld	-10.3907
meenschappelijke	-10.3908
▁behoorde	-10.3917
▁dal	-10.3919
anc	-10.3928
▁last	-10.393
▁ernstige	-10.3932
spelen	-10.3936
▁versterkt	-10.3944
▁opgeheven	-10.3944
actie	-10.3944
▁molen	-10.3946
▁vereist	-10.3949
▁br	-10.3951
tho	-10.3954
▁zelfstandig	-10.3954
stukken	-10.3958
▁campagne	-10.3959
▁zuiver	-10.3963
kundige	-10.3964
▁albums	-10.3964
▁geo	-10.397
ectie	-10.397
▁hebreeuwse	-10.3978
▁bereid	-10.398
▁materialen	-10.3982
zorg	-10.3983
▁bek	-10.3987
▁toeristen	-10.3989
▁negentig	-10.3989
lia	-10.3997
▁voren	-10.4002
▁kor	-10.4003
▁pieter	-10.4013
▁brachten	-10.4014
▁zat	-10.4016
▁strand	-10.4016
▁taken	-10.4025
▁hall	-10.4027
▁locatie	-10.4028
kwam	-10.4028
▁bou	-10.4032
▁hemingway	-10.4034
▁maximaal	-10.4034
▁kamerverkiezing	-10.4035
nieuw	-10.4036
▁gedood	-10.4038
pop	-10.4039
▁1949	-10.404
museum	-10.4042
lij	-10.4044
▁blauw	-10.4059
dit	-10.4065
tol	-10.4066
▁navo	-10.4067
▁verdeling	-10.4074
netwerk	-10.4076
▁aangetoond	-10.4079
▁francisco	-10.408
▁oorlogen	-10.4083
▁beschrijven	-10.4083
snelheid	-10.4088
album	-10.4088
▁vet	-10.409
pit	-10.4094
pol	-10.4097
▁dia	-10.4099
merk	-10.4099
▁opvallend	-10.4099
enburg	-10.4105
▁long	-10.4111
▁beschermd	-10.4112
▁verloop	-10.4112
▁za	-10.4115
hollandse	-10.412
▁graden	-10.4123
▁benadering	-10.4124
▁delfzijl	-10.4124
▁onmiddellijk	-10.4124
▁waarom	-10.4125
▁verplaatst	-10.4125
▁hangt	-10.4126
tuur	-10.4128
▁originele	-10.4129
test	-10.4132
▁pol	-10.4138
model	-10.4139
polder	-10.4139
act	-10.4139
▁aanvaard	-10.4141
mie	-10.4143
▁frank	-10.4146
aliteit	-10.415
▁opvattingen	-10.4152
maatschappij	-10.4153
onderhandelingen	-10.4158
maar	-10.4158
▁theo	-10.4158
stellen	-10.416
komende	-10.416
▁eenmaal	-10.4166
▁technologie	-10.4167
pr	-10.4169
▁getroffen	-10.417
▁identiteit	-10.417
▁athena	-10.417
▁senaat	-10.417
▁gegaan	-10.4171
ool	-10.4173
▁bewijzen	-10.4176
▁architect	-10.4177
▁1917	-10.4178
▁volkeren	-10.418
▁brabant	-10.4182
▁eerdere	-10.4184
▁elektro	-10.4188
ters	-10.4191
▁not	-10.4195
vlakte	-10.4201
nor	-10.4204
grafisch	-10.4213
▁nederlaag	-10.4216
▁ijssel	-10.4219
▁atlantische	-10.422
▁ziek	-10.4222
▁beiden	-10.4227
▁periodiek	-10.4232
▁bericht	-10.4233
eling	-10.4233
aties	-10.4234
groen	-10.4235
▁mochten	-10.4237
schi	-10.4238
ante	-10.4242
▁wol	-10.4243
▁str	-10.4243
▁luther	-10.4244
▁1500	-10.4248
▁belgisch	-10.4249
▁constructie	-10.4259
▁32	-10.4261
▁minderheid	-10.4261
misschien	-10.4262
▁ple	-10.4262
▁formele	-10.4263
▁lidstaten	-10.4266
▁toonde	-10.4271
▁zevende	-10.4272
▁kerst	-10.4272
▁lijden	-10.4273
▁totdat	-10.4274
▁gre	-10.4277
▁vluchten	-10.4277
▁kas	-10.4277
▁paulus	-10.4278
▁mythe	-10.4285
hl	-10.4288
trek	-10.4294
▁kies	-10.4302
▁materie	-10.4306
▁sam	-10.4308
▁uitdrukking	-10.4308
▁etnische	-10.4308
▁ottomaans	-10.4308
▁russen	-10.431
ida	-10.4311
structuur	-10.4311
▁schotland	-10.4312
▁theorieën	-10.4313
▁lied	-10.4315
▁brieven	-10.4319
▁uitgebreide	-10.4321
duizend	-10.4322
cur	-10.4324
▁psychologie	-10.4327
▁digitale	-10.4327
bol	-10.4331
leger	-10.4331
▁winst	-10.4338
▁minste	-10.4338
▁zone	-10.4339
kern	-10.4339
▁afbeelding	-10.4341
▁ontmoette	-10.4342
versie	-10.4345
▁blauwe	-10.4349
▁dis	-10.435
▁vergeleken	-10.4355
▁diamant	-10.4355
▁it	-10.4355
▁record	-10.4356
▁mineralen	-10.4358
ais	-10.4362
▁bacteriën	-10.4362
ill	-10.4363
▁verkoop	-10.4364
▁vlag	-10.4367
▁inzicht	-10.4367
▁families	-10.4375
▁slaven	-10.4379
▁marie	-10.438
plicht	-10.4381
uri	-10.4382
▁directeur	-10.4386
oloog	-10.4394
▁privé	-10.4401
▁elders	-10.4402
▁tijdperk	-10.4403
▁legende	-10.4404
ku	-10.4405
schilder	-10.4407
▁ingesteld	-10.441
cent	-10.4413
illa	-10.4418
opleiding	-10.4423
▁oostenrijkse	-10.4425
▁race	-10.4427
▁tre	-10.4427
▁wapens	-10.4429
▁grand	-10.4429
▁vin	-10.4431
▁pogingen	-10.4431
eenheden	-10.4431
▁specifiek	-10.4435
pho	-10.4438
5.000	-10.4446
▁invasie	-10.4449
▁finland	-10.445
▁bedroeg	-10.4452
▁aanduiding	-10.4452
▁indruk	-10.4453
▁suiker	-10.4454
col	-10.4454
▁draaien	-10.4457
last	-10.4457
bit	-10.4459
▁400	-10.4459
rk	-10.4461
▁tin	-10.4462
til	-10.4462
▁priester	-10.4467
▁borst	-10.4469
▁gram	-10.447
▁glas	-10.4474
▁veroverde	-10.4475
▁bomen	-10.4475
zeg	-10.4489
▁elektromagnet	-10.4489
wind	-10.4493
▁monumenten	-10.4495
▁perzische	-10.4497
frans	-10.45
▁duurt	-10.4501
▁alsnog	-10.4502
▁eieren	-10.4504
▁aldus	-10.4509
duitse	-10.4515
▁storm	-10.4516
pos	-10.4516
▁musical	-10.4518
sign	-10.4519
▁volle	-10.452
▁eco	-10.4525
▁solo	-10.4526
duits	-10.4528
▁dateert	-10.4534
mond	-10.4535
▁twijfel	-10.4543
▁bestudeerd	-10.4543
▁vluchtelingen	-10.4543
▁selectie	-10.4543
▁gevierd	-10.4543
▁zeus	-10.4545
▁recente	-10.4549
vul	-10.4551
▁nobelprijs	-10.4554
▁cu	-10.4554
▁dor	-10.4554
▁tentoonstelling	-10.4555
ette	-10.4556
kon	-10.456
▁uitmaakt	-10.4565
▁gri	-10.4571
▁socialistische	-10.4572
▁zelfstandige	-10.4575
▁gezamenlijk	-10.4579
▁houten	-10.4581
▁pet	-10.4583
vloei	-10.4587
▁verschijnen	-10.4591
▁bewoond	-10.4591
▁culturen	-10.4592
▁zelfmoord	-10.4593
team	-10.4594
);	-10.4595
▁wereldwijde	-10.4595
register	-10.4596
▁bla	-10.4601
roy	-10.4602
▁plaat	-10.4603
sluiting	-10.461
lect	-10.4612
▁contract	-10.4617
▁effecten	-10.462
▁symbolen	-10.4621
komst	-10.4624
▁chan	-10.4624
hoven	-10.4627
▁index	-10.4628
▁noordoosten	-10.4629
▁volume	-10.463
▁000	-10.463
▁cirkel	-10.4632
teerd	-10.4634
vrucht	-10.4636
stenen	-10.4637
▁krijt	-10.4639
▁aruba	-10.4639
ces	-10.4639
▁award	-10.4641
▁tradities	-10.4641
gio	-10.4644
▁150	-10.4644
▁oppositie	-10.4646
▁gestuurd	-10.4648
▁byzantijnse	-10.465
strijd	-10.4651
▁verschijnsel	-10.4652
▁vrouwtje	-10.4655
▁gevraagd	-10.4664
▁tv	-10.4668
heim	-10.4676
gelaten	-10.4676
▁veen	-10.4679
▁duizend	-10.4683
▁state	-10.4685
▁plato	-10.4687
▁atoomnummer	-10.4687
▁royal	-10.4688
▁flink	-10.4689
▁patiënt	-10.4693
anti	-10.4694
▁nood	-10.4696
stoffen	-10.4702
2,	-10.4704
▁verbond	-10.4707
▁mislukte	-10.4714
slaan	-10.4719
▁krachten	-10.4732
▁regerings	-10.4734
▁aldaar	-10.4735
▁gewijd	-10.4736
▁factor	-10.4736
▁formeel	-10.4736
▁genetische	-10.4737
▁gebruikgemaakt	-10.474
voer	-10.4741
ali	-10.4743
ink	-10.4743
▁fusie	-10.4744
▁koninklijk	-10.4745
serie	-10.4749
▁filips	-10.4752
▁kwestie	-10.4754
geslagen	-10.4756
▁heette	-10.4766
bon	-10.4767
▁geneeskunde	-10.4774
▁verblijf	-10.4778
▁visie	-10.4779
▁ki	-10.478
▁geheim	-10.4781
▁alternatieve	-10.4783
▁geïnspireerd	-10.4783
▁odysseus	-10.4783
▁1914	-10.479
achter	-10.479
▁figuur	-10.4791
▁staart	-10.4791
▁col	-10.4798
▁duidelijke	-10.4799
▁act	-10.4799
▁evenwicht	-10.4801
▁hoorn	-10.4802
▁speelden	-10.4803
crisis	-10.4812
smelt	-10.4815
▁stadion	-10.4819
▁activiteit	-10.4825
assen	-10.4825
dagen	-10.4828
▁zanger	-10.483
▁daadwerkelijk	-10.4832
▁toegeschreven	-10.4839
▁sector	-10.484
▁sloeg	-10.4843
loge	-10.4844
▁gl	-10.4845
acc	-10.4849
▁woestijn	-10.4851
ade	-10.4851
press	-10.4851
▁son	-10.4852
▁zang	-10.4853
▁technieken	-10.4855
▁mannelijke	-10.4862
▁august	-10.4863
▁ijsland	-10.4866
▁zocht	-10.4869
▁voortplanting	-10.4872
▁genre	-10.4876
▁trap	-10.4876
▁vorige	-10.4881
▁inheemse	-10.4882
▁vernietigd	-10.4883
▁marine	-10.4883
▁helpen	-10.4884
▁1963	-10.4887
▁zuidoosten	-10.4887
▁afdeling	-10.4889
▁juliana	-10.4889
▁document	-10.4894
energie	-10.4909
vervoer	-10.4912
bin	-10.4915
ping	-10.4917
▁diepte	-10.4918
▁prince	-10.4927
▁bestuurs	-10.4927
▁wezen	-10.4929
▁wetgeving	-10.493
▁sil	-10.4931
▁oostzee	-10.494
▁beker	-10.4945
▁schatting	-10.4947
▁pad	-10.4954
achtigen	-10.4959
▁ob	-10.4959
cijfer	-10.496
▁johann	-10.4964
kust	-10.4967
▁hersen	-10.4971
archi	-10.4974
▁afval	-10.4977
hoofdzakelijk	-10.498
▁columbus	-10.498
▁bezienswaardig	-10.498
▁impuls	-10.498
▁q	-10.498
°	-10.4981
▁schot	-10.4981
▁ierse	-10.4985
▁keizerrijk	-10.4985
▁warmond	-10.4991
▁tuin	-10.4993
▁tanks	-10.4996
▁human	-10.5001
▁eisen	-10.5005
▁zwavel	-10.5006
▁beleg	-10.5009
▁golven	-10.5013
vermogen	-10.5015
nder	-10.5015
▁schu	-10.5017
▁treden	-10.5018
vv	-10.5021
▁aspecten	-10.5027
▁münchen	-10.503
▁treedt	-10.503
tunnel	-10.503
open	-10.503
▁normale	-10.5031
▁aardgas	-10.5032
▁toestemming	-10.5032
▁pruisen	-10.5034
▁weergegeven	-10.5037
▁bewegingen	-10.5041
▁love	-10.5042
▁boe	-10.5049
▁onderzoeken	-10.5049
▁ervaren	-10.505
hoorn	-10.5052
▁simon	-10.5052
▁advies	-10.5053
▁geallieerde	-10.5053
wand	-10.5065
▁300	-10.5076
▁rekenen	-10.5076
rijn	-10.5079
▁nationalisme	-10.5082
▁duiden	-10.5082
▁beschreef	-10.5083
wijze	-10.5084
▁1953	-10.5085
▁hypothese	-10.5086
▁kenmerkend	-10.5087
zicht	-10.5088
▁zuidwesten	-10.509
▁uni	-10.509
▁veroverd	-10.5091
▁nicolaas	-10.5092
▁liber	-10.5095
▁tabel	-10.5095
▁laagste	-10.5097
▁beschaving	-10.5101
▁aanwijzingen	-10.5107
▁eventue	-10.5112
neem	-10.5114
▁ven	-10.5114
tot	-10.5122
▁donker	-10.5126
zu	-10.5129
▁bruin	-10.513
▁muzikal	-10.513
▁stoppen	-10.5131
▁staatshoofd	-10.5131
alis	-10.5134
▁1919	-10.5142
▁stabiele	-10.5144
▁congo	-10.5148
▁kunstenaar	-10.5148
nederland	-10.515
bat	-10.5153
motor	-10.5158
aak	-10.5161
plaat	-10.5164
▁zwe	-10.5169
anen	-10.5172
teelt	-10.5173
▁alcohol	-10.5181
▁cultureel	-10.5181
▁interesse	-10.5181
▁website	-10.5181
▁inkomsten	-10.5182
▁bestonden	-10.5187
▁arbeid	-10.5191
▁betalen	-10.5193
▁wens	-10.5195
▁warm	-10.5204
▁ph	-10.5208
▁bouwde	-10.5209
▁herman	-10.5212
▁onver	-10.522
koop	-10.5221
golf	-10.5224
pal	-10.5225
▁ambt	-10.5227
▁inderdaad	-10.5231
▁stravinsky	-10.5231
▁verandert	-10.5231
▁correct	-10.5232
▁bevoegdheden	-10.5232
zaam	-10.5233
▁vervolg	-10.5234
ket	-10.5235
eilanden	-10.5238
▁ruil	-10.5239
▁deense	-10.5239
▁mannetje	-10.5241
▁tournee	-10.5258
oost	-10.5261
werp	-10.5268
▁aanzien	-10.5272
broek	-10.5273
▁woonden	-10.5276
▁gespecialiseerd	-10.5282
▁vermenigvuldig	-10.5282
club	-10.5282
▁groenlinks	-10.5283
stort	-10.5288
▁1961	-10.5288
▁gepaard	-10.529
▁spaans	-10.5294
▁tafel	-10.5296
kh	-10.5296
▁invoering	-10.5299
9%	-10.5302
▁heren	-10.5304
▁boog	-10.5309
app	-10.5309
▁reizen	-10.5312
▁slaan	-10.5313
="14	-10.5314
dier	-10.5316
gers	-10.532
ira	-10.5321
▁erkende	-10.5322
▁grondslag	-10.5326
▁percentage	-10.533
ska	-10.5332
▁aanhang	-10.5333
▁auschwitz	-10.5334
▁millennium	-10.5334
romeinse	-10.5334
▁pijl	-10.5335
▁kristal	-10.5335
▁wisten	-10.5336
▁1962	-10.534
▁hongaarse	-10.534
▁systemen	-10.534
▁1966	-10.5344
▁roem	-10.5346
▁av	-10.5347
▁raken	-10.5353
methode	-10.5356
_3	-10.5356
▁scha	-10.5363
ym	-10.5375
gebracht	-10.5375
▁leerde	-10.5378
nus	-10.5379
icus	-10.5383
▁toont	-10.5385
▁mexico	-10.5385
▁verjaardag	-10.5385
▁erkenning	-10.5385
mol	-10.5385
▁verwerkt	-10.5386
▁academie	-10.5386
dro	-10.5389
▁1947	-10.539
▁invloeden	-10.5395
▁bet	-10.5399
▁route	-10.5404
route	-10.541
▁fossiele	-10.5411
▁redelijk	-10.5413
▁45	-10.5415
▁zonen	-10.5416
machine	-10.5416
2-	-10.5421
▁tijdschrift	-10.5423
iale	-10.5426
box	-10.5428
▁religies	-10.5429
▁scheikundig	-10.5437
▁poëzie	-10.5437
heffing	-10.5437
talige	-10.5439
verdrag	-10.544
▁olympisch	-10.544
▁opvatting	-10.5442
▁1946	-10.5443
gehalte	-10.5445
▁stemming	-10.5448
zame	-10.545
▁tweemaal	-10.5455
▁vestigden	-10.5463
▁bell	-10.5476
▁uitvoer	-10.548
gebergte	-10.5481
▁graafschap	-10.5489
▁ballingschap	-10.5489
▁constantinopel	-10.5489
▁noorwegen	-10.5489
▁plaatsvinden	-10.5489
▁waarnemer	-10.5489
rm	-10.5491
▁mensenrechten	-10.5494
▁mono	-10.5498
▁bibliotheek	-10.5501
▁geleverd	-10.5504
▁wall	-10.5508
keten	-10.5512
▁stabiel	-10.5512
eu	-10.5512
▁maat	-10.5519
leving	-10.552
▁instituut	-10.5522
▁patiënten	-10.5527
▁dichtheid	-10.5528
▁breuk	-10.5528
oosten	-10.5532
grieks	-10.5532
▁henri	-10.5532
▁langere	-10.5533
▁inzet	-10.5534
▁verkeers	-10.5535
▁seksuele	-10.5541
▁steeg	-10.5542
▁gewerkt	-10.5544
diensten	-10.5545
▁kortrijk	-10.5546
ras	-10.5546
▁winters	-10.5548
▁tel	-10.5552
▁bood	-10.5553
▁hotel	-10.5554
▁fel	-10.5556
oog	-10.5562
▁wetenschappen	-10.5563
▁zeeland	-10.5564
▁che	-10.5565
▁priemgetallen	-10.557
▁liberale	-10.5574
▁nauwkeurig	-10.5575
koning	-10.5576
▁veertig	-10.558
▁mannetjes	-10.5584
▁bes	-10.5586
producten	-10.5586
▁port	-10.5592
▁oekraïne	-10.5594
▁vertoont	-10.5594
▁zogenoemd	-10.5597
▁luchtmacht	-10.5598
▁onderzoeks	-10.5598
▁1936	-10.56
▁wees	-10.5602
snede	-10.5605
iaanse	-10.5607
▁vijand	-10.5608
ique	-10.5614
▁singles	-10.5616
spect	-10.5621
▁nul	-10.5623
kap	-10.5625
▁bossen	-10.5626
▁onderlinge	-10.563
▁scherp	-10.5631
▁reserve	-10.5633
▁meester	-10.5635
reeks	-10.5637
aria	-10.5641
verandering	-10.5641
▁versies	-10.5644
▁lichte	-10.5646
▁plaatsvond	-10.5647
▁steenkool	-10.5647
anse	-10.5648
▁journalist	-10.5649
erij	-10.5651
▁aanhangers	-10.5651
▁sterven	-10.5652
▁dubbele	-10.5654
▁hond	-10.5655
roman	-10.5656
▁ir	-10.5656
taan	-10.5657
▁conflicten	-10.5659
▁modellen	-10.5661
▁temperaturen	-10.5665
verbinding	-10.5668
▁mij	-10.5673
▁negatief	-10.5675
ell	-10.5678
▁leed	-10.5682
▁un	-10.5686
▁mus	-10.5686
▁burgerlijk	-10.5688
▁reg	-10.5689
rivier	-10.5691
▁methoden	-10.5691
logie	-10.5692
▁bri	-10.5695
▁miljoenen	-10.5696
▁noordwesten	-10.5697
▁centimeter	-10.57
▁geïsoleerd	-10.57
▁populariteit	-10.57
▁winschoten	-10.57
▁brengt	-10.57
lp	-10.5702
mers	-10.5703
▁dingen	-10.5704
bul	-10.5704
▁pascal	-10.5705
▁waarnemingen	-10.5706
assi	-10.5707
▁schoon	-10.5712
▁stra	-10.5715
▁bonte	-10.5725
uch	-10.5727
wat	-10.5731
vor	-10.5731
▁sla	-10.5731
vogels	-10.5731
doende	-10.5732
▁zus	-10.5734
▁vocht	-10.5735
▁lieten	-10.5736
▁tol	-10.5739
▁herstel	-10.5742
▁kampioen	-10.5743
leef	-10.5744
▁keltische	-10.5754
▁betere	-10.5754
▁talrijke	-10.5754
▁constante	-10.5761
alle	-10.5762
▁vasteland	-10.5765
▁gelijke	-10.5769
wiel	-10.5772
oord	-10.5779
▁alsmede	-10.578
ort	-10.5781
toernooi	-10.5782
▁fijn	-10.5786
▁leo	-10.5786
ors	-10.5797
▁kranten	-10.5802
▁afghanistan	-10.5807
▁gecombineerd	-10.5807
▁geloven	-10.5807
▁helium	-10.581
geboren	-10.581
▁city	-10.5811
▁telken	-10.5811
▁ren	-10.5813
▁bur	-10.5813
▁samengesteld	-10.5814
klo	-10.5816
▁zet	-10.5828
auto	-10.5831
bond	-10.5833
▁vestigde	-10.5835
▁opzicht	-10.5843
beleid	-10.5844
▁zesde	-10.5848
sme	-10.5849
zaal	-10.585
▁spiegel	-10.5852
trekking	-10.5853
tim	-10.5856
▁introduceerde	-10.5861
▁shakespeare	-10.5861
▁dordrecht	-10.5862
▁athene	-10.5864
▁pierre	-10.5864
▁enorm	-10.5867
▁1942	-10.5868
▁1964	-10.5868
schepen	-10.5873
scha	-10.5873
▁behoefte	-10.5873
▁relaties	-10.5874
off	-10.5878
▁overeenkomsten	-10.5882
▁daaropvolgend	-10.5885
▁praktische	-10.5886
toestand	-10.5889
▁leefde	-10.589
▁debat	-10.5891
rijke	-10.5892
was	-10.5894
▁ertoe	-10.5896
▁bak	-10.5898
gol	-10.5902
diep	-10.5905
▁ball	-10.5906
deling	-10.5907
▁poort	-10.5911
▁tegenstanders	-10.5914
▁gods	-10.5914
▁onduidelijk	-10.5916
▁veelvuldig	-10.5916
▁verdween	-10.5916
▁jupiter	-10.5916
▁bedoeling	-10.5916
▁lever	-10.5921
▁orgel	-10.5922
▁aller	-10.5922
▁1956	-10.5923
rand	-10.5925
▁stappen	-10.5927
▁mac	-10.5928
▁verg	-10.5932
temperatuur	-10.5938
▁anno	-10.5939
▁weet	-10.5942
▁filosoof	-10.5947
▁ernstig	-10.5947
▁ya	-10.5964
▁moeite	-10.597
▁uranium	-10.597
▁armoede	-10.597
▁halveringstijd	-10.597
▁zwolle	-10.597
▁duitstalige	-10.5971
▁studio	-10.5973
gal	-10.5976
ezel	-10.5976
▁boer	-10.5983
▁dateren	-10.5988
ore	-10.5988
bie	-10.599
phy	-10.5992
▁leefden	-10.5998
▁bijdrage	-10.6
▁graven	-10.6001
houding	-10.6003
hy	-10.6006
rend	-10.6006
▁verschilt	-10.6008
regio	-10.6011
▁golden	-10.6015
getrokken	-10.6017
▁houding	-10.6024
▁sleutel	-10.6025
▁aangewezen	-10.6025
▁overwegend	-10.6026
▁tekens	-10.6027
▁instrumenten	-10.6027
▁herkomst	-10.6028
bureau	-10.6028
lla	-10.6031
▁geschat	-10.6037
▁onderstaande	-10.6042
wit	-10.6043
▁schrijft	-10.6044
roe	-10.6048
▁voorjaar	-10.605
kruis	-10.605
▁neutronen	-10.605
▁seconden	-10.6051
▁computers	-10.6057
heren	-10.6059
kundig	-10.606
▁reacties	-10.6068
▁typische	-10.6075
▁manifest	-10.6075
▁interview	-10.6081
▁rembrandt	-10.6081
▁verkrijgen	-10.6081
▁vernieuwing	-10.6081
▁veroveren	-10.6081
▁artiesten	-10.6082
▁plat	-10.6083
▁kg	-10.6084
gevallen	-10.6084
[	-10.6084
▁opmerkelijke	-10.6085
▁neerslag	-10.6085
▁1933	-10.6087
▁1959	-10.6088
▁1958	-10.6089
3%	-10.61
non	-10.6103
▁zink	-10.6104
▁zaad	-10.6105
▁vooraf	-10.6106
▁pius	-10.6107
▁ap	-10.6108
room	-10.611
ng	-10.6115
▁wild	-10.6118
-17	-10.6118
▁dode	-10.6124
▁music	-10.613
▁binnenlandse	-10.6136
▁aristoteles	-10.6136
▁verondersteld	-10.6136
▁friedrich	-10.6136
▁hoogleraar	-10.6137
▁streven	-10.6137
▁strategisch	-10.6138
▁ontbreken	-10.6138
rest	-10.6139
▁datum	-10.614
▁ijstijd	-10.614
fiets	-10.6141
▁gevoel	-10.6142
oud	-10.6142
front	-10.6144
▁1965	-10.6144
▁wei	-10.6148
▁koor	-10.6152
▁belgen	-10.6158
▁pool	-10.616
bas	-10.6164
▁melk	-10.6165
▁bevond	-10.6165
▁data	-10.6168
▁gebruikers	-10.6176
ares	-10.6179
ane	-10.6185
lucht	-10.6192
▁heb	-10.6192
▁fokker	-10.6192
▁justitie	-10.6192
▁collega	-10.6192
▁proberen	-10.6192
▁vertonen	-10.6193
▁franken	-10.6195
▁zover	-10.6196
▁meende	-10.6197
▁vondsten	-10.6198
▁1938	-10.6198
materiaal	-10.6199
▁figuren	-10.62
▁offer	-10.6209
zar	-10.6218
lau	-10.6218
▁anne	-10.6226
▁gras	-10.6228
aw	-10.6229
▁heelal	-10.6229
▁ploeg	-10.6229
▁beroeps	-10.6231
wijzen	-10.6233
▁video	-10.6234
▁mengsel	-10.6238
▁inkomen	-10.6243
▁concerten	-10.6247
partijen	-10.6247
bestuur	-10.6248
▁koloniën	-10.6248
▁sneeuw	-10.6248
▁tikal	-10.6249
▁klok	-10.6249
▁mobiele	-10.625
▁franstalige	-10.625
▁tru	-10.625
▁kalium	-10.625
▁getrouwd	-10.6251
▁typisch	-10.6254
kaart	-10.6255
▁lees	-10.6255
scherm	-10.6255
▁1943	-10.6256
▁plekken	-10.6258
▁daaruit	-10.6259
▁vloot	-10.6259
foto	-10.6274
▁aangesloten	-10.6275
list	-10.6277
▁documenten	-10.6288
▁jongere	-10.6288
▁aangebracht	-10.6295
▁leeft	-10.6298
enne	-10.6299
▁korea	-10.6301
▁cup	-10.6302
▁aangeboden	-10.6305
▁vergelijkbare	-10.6305
▁historici	-10.6305
▁oorzaken	-10.6305
▁hertogdom	-10.6306
▁verbleef	-10.6307
▁jung	-10.6308
▁werkzaam	-10.6308
▁%	-10.6309
syrische	-10.6312
ob	-10.6313
later	-10.6316
▁woningen	-10.6319
drukken	-10.6323
▁resten	-10.6323
lant	-10.6324
▁psycho	-10.6328
▁stromingen	-10.633
rou	-10.6332
▁max	-10.6333
wood	-10.6334
▁continu	-10.6335
▁richt	-10.6339
rot	-10.6345
rry	-10.6345
▁babylon	-10.6345
▁wester	-10.6346
▁belangen	-10.6346
▁begeleid	-10.6351
▁gebonden	-10.6355
▁bijnaam	-10.6355
rick	-10.6359
▁neder	-10.636
rode	-10.6361
▁octrooi	-10.6362
▁ondersteunen	-10.6362
▁verzorgd	-10.6363
▁talloze	-10.6363
▁echtgenote	-10.6371
tegen	-10.6375
▁werkten	-10.6381
▁koloniale	-10.6384
tram	-10.6386
▁staal	-10.6391
▁broers	-10.6392
arts	-10.6394
▁mas	-10.6397
▁eer	-10.6399
kru	-10.6401
▁militairen	-10.6406
";	-10.6407
maak	-10.641
▁toegankelijk	-10.6412
fr	-10.6412
▁amsterdamse	-10.6413
▁conclusie	-10.6419
▁herdenking	-10.6419
▁automatisch	-10.6419
▁kondigde	-10.6419
▁vervaardigd	-10.6419
▁opgelost	-10.6419
▁schilderkunst	-10.642
▁lukte	-10.6421
▁cy	-10.6421
speler	-10.6422
▁afgesloten	-10.6424
▁pic	-10.6435
▁fla	-10.6438
▁xii	-10.6443
▁kunsten	-10.6448
week	-10.6453
onne	-10.6458
▁bekendheid	-10.6464
▁wilhelm	-10.6475
▁beatrix	-10.6476
▁ferdinand	-10.6476
▁gewijzigd	-10.6476
▁reagan	-10.6476
▁diameter	-10.6477
▁zonnestelsel	-10.6478
▁kijken	-10.6478
▁jodendom	-10.6479
▁geslachts	-10.6484
▁past	-10.6484
▁afgelopen	-10.6486
▁verwijzen	-10.6486
▁eigendom	-10.6486
▁daartoe	-10.6487
anten	-10.6489
ilia	-10.6491
▁sprekers	-10.6505
▁oor	-10.651
▁werkwoord	-10.6511
▁34	-10.6519
schat	-10.6522
teerde	-10.6525
▁grammatica	-10.6534
▁ondersteund	-10.6535
▁kunstmatig	-10.6539
▁angst	-10.6539
▁camera	-10.654
▁polder	-10.654
▁afrikaans	-10.6544
tem	-10.6546
vast	-10.6547
▁professionele	-10.6554
▁resolutie	-10.6559
▁gene	-10.6564
gram	-10.6564
▁spoorweg	-10.6564
▁medaille	-10.6567
sj	-10.6573
▁ingang	-10.6574
tia	-10.6575
▁ziel	-10.6585
elijkheid	-10.659
grote	-10.6591
▁caligula	-10.6592
▁huygens	-10.6592
▁gelijknamig	-10.6592
tekening	-10.6595
▁38	-10.6596
▁grootschalige	-10.6599
wille	-10.66
ella	-10.66
fl	-10.6603
▁missie	-10.6603
▁drukken	-10.6605
terrein	-10.6606
▁georg	-10.6609
▁onbekend	-10.6614
▁contacten	-10.6616
schal	-10.6618
▁artikelen	-10.6624
▁migratie	-10.6624
▁gemeenschappen	-10.6624
schot	-10.6624
▁verschijning	-10.6628
▁stromen	-10.6631
▁hoofdrol	-10.6635
ouw	-10.6635
▁opbouw	-10.6637
▁afbeeldingen	-10.6638
oppervlak	-10.6641
▁bevrijd	-10.6642
vertegenwoordigd	-10.6644
▁stamt	-10.6645
▁bord	-10.6645
▁resulteerde	-10.6649
etten	-10.6649
▁bedreiging	-10.6651
▁passagiers	-10.6651
lev	-10.6652
▁platteland	-10.6652
▁angeles	-10.6654
verdeling	-10.6655
▁eiwitten	-10.6656
put	-10.6656
▁versloeg	-10.6656
vier	-10.6657
▁klaar	-10.6662
▁vervolging	-10.6663
▁rit	-10.6665
gelopen	-10.6671
▁gevoerd	-10.6674
hoor	-10.6674
▁weefsel	-10.6675
ico	-10.6679
▁satelliet	-10.6682
hind	-10.6688
astro	-10.6691
▁vel	-10.6691
schip	-10.6691
ogen	-10.6693
mit	-10.6694
▁makkelijk	-10.6695
▁gedacht	-10.6696
▁streken	-10.6697
▁titels	-10.67
lat	-10.6701
▁bureau	-10.6706
▁win	-10.6709
▁beethoven	-10.6709
▁voorlopig	-10.6709
▁beschouwen	-10.6709
▁rad	-10.671
▁1951	-10.6717
▁friesland	-10.6724
▁reve	-10.6728
▁air	-10.6728
kwartier	-10.6734
var	-10.674
▁venlo	-10.6743
kie	-10.6744
▁krim	-10.6745
ido	-10.6753
▁overleven	-10.6757
▁sterkte	-10.6759
▁eli	-10.6764
era	-10.6765
▁immigranten	-10.6769
▁vaticaan	-10.6769
▁oneindig	-10.6769
▁simpel	-10.6769
▁filosofische	-10.6769
▁fal	-10.6772
▁begrippen	-10.6775
▁bloemen	-10.6781
orthodoxe	-10.6788
houd	-10.6793
staande	-10.6797
▁jozef	-10.6797
ön	-10.6798
nationalistische	-10.6802
▁non	-10.6805
sum	-10.6806
▁probeer	-10.6807
▁bay	-10.6809
▁plein	-10.6813
plo	-10.6815
▁beroemd	-10.6817
project	-10.6824
▁himmler	-10.6828
▁spanjaarden	-10.6828
▁washington	-10.6828
▁critici	-10.6828
▁samuel	-10.6828
▁gratis	-10.6829
▁gerard	-10.683
nic	-10.6831
▁overgeleverd	-10.6834
▁1952	-10.6836
einde	-10.6839
▁hoeft	-10.6841
gericht	-10.6843
ata	-10.6847
stoten	-10.6857
▁gemeentelijk	-10.686
▁departement	-10.6863
▁ziekten	-10.6867
▁ion	-10.6868
▁koop	-10.6869
voet	-10.6873
▁dagelijkse	-10.6886
▁waal	-10.6888
▁bezat	-10.6889
▁voelde	-10.6889
houdende	-10.6892
▁sloten	-10.6892
▁formatie	-10.6893
isse	-10.6894
▁orgaan	-10.6894
▁voorwaarden	-10.6895
▁gezamenlijke	-10.6903
▁spanning	-10.6903
ulatie	-10.6904
▁nederzetting	-10.691
▁rem	-10.691
pir	-10.6911
verklaring	-10.6912
lessen	-10.6915
regel	-10.6918
▁red	-10.6918
▁warme	-10.6924
▁geel	-10.6926
▁leerling	-10.6931
▁leen	-10.6932
▁voortgezet	-10.6934
▁tropische	-10.6935
doel	-10.6936
▁secretaris	-10.6937
winning	-10.6938
nederlands	-10.6939
▁alsook	-10.6944
para	-10.6945
kijk	-10.6946
▁efficiënt	-10.6948
▁onvoldoende	-10.6948
▁plotseling	-10.6948
▁verdwijnen	-10.6948
▁vertrouwen	-10.6948
▁roermond	-10.6948
▁overtuigd	-10.6949
▁seks	-10.695
▁amstel	-10.6951
▁cer	-10.6955
▁jury	-10.6955
▁1954	-10.6956
kort	-10.6958
▁mechelen	-10.6959
▁geleerden	-10.6966
▁leiders	-10.6969
gemeenschap	-10.6971
▁intussen	-10.6977
▁opgeslagen	-10.698
▁uiterst	-10.698
▁brits	-10.6981
▁seconde	-10.6983
▁mes	-10.6985
schaal	-10.6986
▁verlichting	-10.6988
▁danken	-10.6988
genoten	-10.699
ky	-10.7
▁pr	-10.7001
▁steken	-10.7004
eind	-10.7006
haal	-10.7008
▁kandidaten	-10.7008
esturingssysteem	-10.7009
▁amersfoort	-10.7009
▁expeditie	-10.7009
▁galilei	-10.7009
▁beatles	-10.7009
▁betrof	-10.7009
ronde	-10.7015
edel	-10.7018
ets	-10.7022
▁wi	-10.7022
▁kathedraal	-10.7026
nederlandse	-10.7027
stromen	-10.7033
▁zingen	-10.7034
▁hebreeuws	-10.7035
-6	-10.7035
▁krui	-10.7036
atoom	-10.7039
ruim	-10.7039
▁rang	-10.704
▁ballet	-10.704
iseerd	-10.7043
tta	-10.7044
pha	-10.7045
▁achtste	-10.7049
ish	-10.705
tom	-10.7051
onderwijs	-10.7051
▁arabisch	-10.7056
▁overeenkomst	-10.7059
▁taalkundig	-10.7068
▁extreem	-10.707
▁overgebleven	-10.707
▁wimbledon	-10.707
fysica	-10.707
groot	-10.707
▁geur	-10.707
▁proto	-10.707
▁blijken	-10.7072
▁kro	-10.7073
▁estland	-10.7074
opbrengst	-10.7075
▁1934	-10.7076
▁schuld	-10.7077
▁bevrijding	-10.7079
▁mtoe	-10.708
dic	-10.7086
▁ervaring	-10.7086
▁voorafgaand	-10.7087
borg	-10.7088
▁evenwel	-10.7094
▁omhoog	-10.7094
▁10.000	-10.7099
▁schaats	-10.7103
▁mythen	-10.7105
▁verschillend	-10.7109
kas	-10.7112
atom	-10.7118
euze	-10.7123
▁wijd	-10.7123
aanval	-10.7124
▁vorsten	-10.7129
▁molecuul	-10.7129
▁varieert	-10.7131
▁verdedigen	-10.7131
▁gesteund	-10.7131
▁brandstof	-10.7132
bergen	-10.7134
bracht	-10.7135
hield	-10.7136
nederlandstalige	-10.7138
▁donkere	-10.7138
▁1922	-10.7139
▁phil	-10.714
▁cro	-10.714
▁stadium	-10.7141
▁uitgeroepen	-10.7143
▁hy	-10.7149
▁reed	-10.7149
verhalen	-10.7151
▁straal	-10.7152
honderd	-10.7152
▁pagina	-10.7153
▁oefen	-10.7163
▁gif	-10.7163
▁philips	-10.7167
ary	-10.7189
▁kloosters	-10.719
▁wandel	-10.719
▁halverwege	-10.7193
▁himalaya	-10.7193
▁palestina	-10.7193
▁vleugel	-10.7194
▁viool	-10.7194
▁naakt	-10.7195
▁opmars	-10.7197
▁gewesten	-10.7203
▁theologie	-10.7204
brugge	-10.7207
▁inval	-10.7213
vr	-10.7213
▁nor	-10.7218
▁belg	-10.7218
regels	-10.7231
▁hersenen	-10.7235
▁zond	-10.7236
sondanks	-10.7237
▁ingenomen	-10.7238
weeg	-10.7243
▁groeiende	-10.7246
yt	-10.7247
basis	-10.7249
▁scheepvaart	-10.7255
▁kepler	-10.7255
▁bleken	-10.7255
▁fruit	-10.7256
▁individu	-10.7257
▁hieruit	-10.7257
▁herstellen	-10.726
▁1937	-10.7262
▁seizoenen	-10.7264
▁chili	-10.7266
▁elite	-10.7266
▁vee	-10.7273
▁conservatieve	-10.7274
kw	-10.7279
▁33	-10.7282
schrijving	-10.7283
▁kleinste	-10.7285
▁hielden	-10.7293
▁veer	-10.7296
▁lens	-10.7297
▁36	-10.7297
ificatie	-10.7308
waardig	-10.7309
▁neanderthaler	-10.7309
stem	-10.7311
▁niemand	-10.7317
▁ingrijpen	-10.7317
▁vestigen	-10.7317
▁lijsttrekker	-10.7318
▁rechtbank	-10.732
nomen	-10.7328
▁show	-10.7332
bri	-10.7332
nier	-10.7337
ère	-10.7339
▁verschijnselen	-10.7339
sha	-10.734
▁var	-10.7341
▁moslim	-10.7343
▁geacht	-10.7345
▁koel	-10.7346
cli	-10.7348
▁tibetaanse	-10.7349
universiteit	-10.7353
talig	-10.7356
▁omgekeerd	-10.7356
vader	-10.7363
dos	-10.7364
▁verwante	-10.7364
ture	-10.7371
▁voldoen	-10.7371
-15	-10.7377
▁wagen	-10.7378
▁aluminium	-10.738
▁symptomen	-10.738
▁zaterdag	-10.738
té	-10.7382
examen	-10.7383
laan	-10.7383
get	-10.7383
▁waarheid	-10.7386
zinnig	-10.7386
▁plo	-10.7386
▁1955	-10.7388
▁1929	-10.7389
▁ontwerpen	-10.7392
▁jarenlang	-10.7393
▁waarnemen	-10.7396
▁pat	-10.7397
histori	-10.7401
laten	-10.7402
▁mos	-10.7406
fan	-10.7406
▁gebruikelijke	-10.7407
iseerde	-10.7408
▁hoorde	-10.7414
minister	-10.7417
▁rob	-10.7417
mbo	-10.742
ima	-10.7429
letter	-10.743
▁uitgang	-10.7433
liet	-10.7438
▁volken	-10.7443
▁amateur	-10.7444
▁apollo	-10.7444
▁gehaald	-10.7444
▁vermoeden	-10.7444
▁hoort	-10.7445
▁bevatte	-10.7449
▁toestel	-10.7456
stroming	-10.7464
▁tiende	-10.7464
▁arrondissement	-10.7471
▁nedersaksisch	-10.7473
blaas	-10.7473
▁lastig	-10.7474
zig	-10.7474
▁fossielen	-10.7477
▁geleerd	-10.7478
200	-10.7481
▁procedure	-10.7481
▁bod	-10.7486
▁bijeen	-10.7488
▁vergroot	-10.749
cycl	-10.7495
organisaties	-10.75
beelden	-10.7502
▁mc	-10.7502
▁voorbereiding	-10.7504
▁leeuw	-10.7505
▁montréal	-10.7507
▁plaatsgevonden	-10.7507
▁longkanker	-10.7508
▁oftewel	-10.7508
▁complete	-10.7508
▁wederom	-10.7508
▁weleens	-10.7509
och	-10.7509
▁verwachting	-10.7509
▁bedrijfs	-10.7509
lik	-10.7525
▁wijst	-10.7527
▁voorwaarde	-10.7528
▁ij	-10.7529
national	-10.753
▁meren	-10.7534
▁rechters	-10.7537
zaken	-10.7537
▁bevonden	-10.7538
▁geheugen	-10.7539
▁merk	-10.7542
economie	-10.7546
haus	-10.7551
▁diepe	-10.7552
ity	-10.7554
▁vrouwtjes	-10.7563
rem	-10.7568
ight	-10.7569
▁uitspraken	-10.7571
▁michel	-10.7572
▁dwars	-10.7572
▁bruggen	-10.7574
▁toename	-10.7575
▁neef	-10.7576
▁handelen	-10.7577
antie	-10.7577
3)	-10.7578
▁zeventiende	-10.7581
pat	-10.7587
uv	-10.7587
▁rh	-10.7587
ney	-10.7588
▁hits	-10.7588
50.000	-10.7591
▁startte	-10.7593
▁dominante	-10.7593
▁laboratorium	-10.7599
▁spanningen	-10.7599
▁zuivere	-10.76
▁typen	-10.7607
▁gedragen	-10.7607
▁natie	-10.761
festival	-10.761
▁brigade	-10.7611
problemen	-10.7612
▁vredes	-10.7612
▁vakgebied	-10.7614
eeuw	-10.7614
▁zoet	-10.7615
▁wijziging	-10.7616
▁ernst	-10.7618
ate	-10.762
uff	-10.762
kwamen	-10.7624
▁divisie	-10.7624
▁geografische	-10.7625
▁piramide	-10.7628
cum	-10.7629
oni	-10.7629
▁boudewijn	-10.7636
▁organiseerde	-10.7636
▁graan	-10.7642
▁keizerlijke	-10.7643
▁signaal	-10.7643
ray	-10.7644
best	-10.7645
reactie	-10.765
centrale	-10.7651
▁behoud	-10.7651
ér	-10.7654
ziekte	-10.7654
▁noch	-10.7655
▁kim	-10.7656
ick	-10.7661
mechanisme	-10.7674
char	-10.7675
raam	-10.7676
▁meetkunde	-10.7676
▁vergelijken	-10.7678
geslacht	-10.768
▁gebergte	-10.7684
beheer	-10.769
▁helder	-10.7693
▁1928	-10.7698
▁geassocieerd	-10.7701
▁herkennen	-10.7701
▁organiseren	-10.7701
▁etymologie	-10.7701
▁winnaar	-10.7715
▁raakten	-10.7717
▁roken	-10.7719
▁breder	-10.772
▁geheime	-10.7721
stam	-10.7725
been	-10.7725
trap	-10.7729
▁oosters	-10.7731
▁zender	-10.7732
▁organ	-10.7735
▁abba	-10.7736
▁vijanden	-10.7738
quin	-10.7739
att	-10.7741
▁recreatie	-10.7741
▁capaciteit	-10.7741
▁medium	-10.7743
limburg	-10.7746
banden	-10.7746
ann	-10.7746
▁omroep	-10.7751
▁schakel	-10.7753
bio	-10.7756
▁bart	-10.7756
byte	-10.7763
▁berekend	-10.7767
▁aardappel	-10.7767
boerderij	-10.7768
vig	-10.7772
▁1924	-10.7777
new	-10.7778
rekening	-10.7778
▁100.000	-10.7779
centra	-10.778
▁ritme	-10.778
▁horus	-10.7781
▁aanwezige	-10.7788
▁voedings	-10.7792
jarig	-10.7793
▁ras	-10.7793
▁omloop	-10.7793
▁communisme	-10.7795
▁time	-10.7796
lf	-10.7798
star	-10.7799
ulen	-10.78
▁oxide	-10.7802
via	-10.7806
▁klei	-10.781
regering	-10.7813
vogel	-10.7817
▁schilderij	-10.7818
▁duren	-10.7819
vecht	-10.7819
▁boot	-10.782
fort	-10.7827
▁laser	-10.7828
▁calcium	-10.7832
▁hezbollah	-10.7832
▁leibniz	-10.7832
logen	-10.7837
▁comité	-10.7839
▁italiaans	-10.7842
sur	-10.785
▁doek	-10.7855
▁bestuurd	-10.786
▁geestelijke	-10.7862
▁belastingen	-10.7863
▁bom	-10.7867
flu	-10.7868
▁onbekende	-10.7874
▁heilig	-10.7878
fran	-10.788
wijken	-10.7881
▁evenementen	-10.7882
▁65	-10.7888
typ	-10.7891
ami	-10.7893
elaar	-10.7895
▁componisten	-10.7897
▁snavel	-10.7898
▁drenthe	-10.7898
▁almere	-10.7899
▁losse	-10.7899
▁oscar	-10.79
▁verricht	-10.7903
▁1957	-10.7906
▁(14	-10.7908
▁gedichten	-10.7909
▁amerikaans	-10.7909
▁experimenten	-10.7914
▁hierover	-10.7914
▁domein	-10.7919
▁kernen	-10.7923
▁boodschap	-10.7926
▁kerkelijke	-10.793
gli	-10.7939
▁teams	-10.7942
▁tong	-10.7943
maatschappelijke	-10.7946
▁kaap	-10.7948
▁gedeeld	-10.7959
▁ontmoeting	-10.7963
▁chloor	-10.7964
▁feyenoord	-10.7965
▁wagner	-10.7965
▁klm	-10.7965
▁nationaliteit	-10.7966
▁slavische	-10.7966
▁levensloop	-10.7966
▁personeel	-10.7968
▁mega	-10.7969
▁bewezen	-10.7971
wetenschappen	-10.7972
▁dekker	-10.7976
▁overlevering	-10.7976
bl	-10.7981
veer	-10.7981
▁buis	-10.7982
▁deelnemers	-10.7988
▁far	-10.7989
▁rod	-10.7989
troepen	-10.799
lok	-10.8002
▁meningitis	-10.8003
▁allen	-10.8004
▁wortel	-10.8006
vlies	-10.8011
▁omgezet	-10.8012
gebouwd	-10.8014
norm	-10.8014
seizoen	-10.8016
▁bedrag	-10.8018
ontwikkeling	-10.8026
▁pap	-10.8029
▁sho	-10.8032
geen	-10.8032
▁kennedy	-10.8032
qua	-10.8032
▁claus	-10.8032
▁lubbers	-10.8033
,5%	-10.8034
▁graag	-10.8035
streep	-10.8036
heen	-10.8039
gl	-10.8043
▁1848	-10.8044
▁oostelijk	-10.8045
▁(10	-10.8046
▁rein	-10.805
german	-10.8054
lieve	-10.8055
vak	-10.8057
▁dur	-10.8059
▁harmonie	-10.8062
▁studies	-10.8064
lage	-10.8068
▁biologie	-10.8068
graven	-10.807
kra	-10.8072
▁kost	-10.8072
▁uitgaven	-10.8079
tina	-10.808
literatuur	-10.8086
▁beurs	-10.8087
▁dol	-10.8092
▁gevangenen	-10.8097
▁natrium	-10.8097
▁publicaties	-10.8098
▁astronomisch	-10.81
▁verbeteren	-10.81
▁reageren	-10.81
▁gebeuren	-10.81
▁lokaal	-10.8101
trop	-10.8107
▁speer	-10.8108
▁1923	-10.8108
▁experiment	-10.8108
▁aar	-10.811
▁stadhouder	-10.8112
▁schilderde	-10.8115
▁spectrum	-10.8116
▁gekleurd	-10.8116
▁tekort	-10.8117
▁marc	-10.8118
schillen	-10.8119
▁1830	-10.812
▁ji	-10.8122
▁inca	-10.8123
▁kruistocht	-10.8123
eventuele	-10.8125
pra	-10.8137
▁doorbraak	-10.8137
▁organische	-10.8141
appen	-10.8142
schrijf	-10.8142
ford	-10.8142
iaal	-10.8143
▁aanslag	-10.8144
maat	-10.8146
iër	-10.8146
▁getuigen	-10.8148
▁groenland	-10.8154
klimaat	-10.8156
binnen	-10.8158
▁syn	-10.8158
▁klassen	-10.8159
▁delta	-10.816
▁fr	-10.816
▁eth	-10.8162
▁ontwikkelden	-10.8164
bepaling	-10.8166
▁alliantie	-10.8168
▁cavalerie	-10.8168
▁verbindt	-10.8168
▁externe	-10.8168
▁hooft	-10.8168
▁stevig	-10.8168
▁palestijnse	-10.8168
▁gegeten	-10.8168
▁geluk	-10.8168
lening	-10.8172
veen	-10.8174
▁vertrokken	-10.8179
▁breken	-10.8179
▁sj	-10.818
▁cri	-10.8188
▁filosofen	-10.8191
woorden	-10.8193
▁spring	-10.8197
▁afgezet	-10.8198
▁jos	-10.8198
spin	-10.8204
tti	-10.8206
▁verbod	-10.8208
▁dagblad	-10.8208
▁afscheid	-10.8211
▁bundel	-10.8212
sfeer	-10.8212
▁beschouwde	-10.8217
▁cyclo	-10.8222
▁bataljon	-10.8228
▁luc	-10.8229
▁beheerst	-10.8234
▁permanente	-10.8234
▁deelname	-10.8234
essen	-10.8234
verschuiving	-10.8236
▁farao	-10.8236
▁andré	-10.8238
▁trouwen	-10.8239
▁christelijk	-10.824
▁schaak	-10.824
▁getrokken	-10.824
▁zuiderzee	-10.8241
▁1935	-10.8246
vlak	-10.8247
▁geë	-10.8254
schoen	-10.826
▁infrastructuur	-10.8268
▁pruisisch	-10.8277
▁veroorzaakte	-10.8278
fun	-10.8279
mil	-10.8279
voudig	-10.8281
▁game	-10.8281
pet	-10.8282
▁cent	-10.829
▁3000	-10.829
ploeg	-10.8296
▁zuidwest	-10.8298
▁tellen	-10.8301
missie	-10.8305
▁logaritme	-10.8305
▁ochtend	-10.8305
▁gezocht	-10.8305
▁erfgoed	-10.8305
▁vernietigen	-10.8306
▁gevuld	-10.8306
1%	-10.8306
rg	-10.8306
▁stedelijke	-10.8307
▁communisten	-10.8307
▁vooruit	-10.831
▁gedrukt	-10.831
▁allereerst	-10.8313
▁vld	-10.8317
hoog	-10.8317
▁relatieve	-10.8317
▁tekenen	-10.8319
spoor	-10.8323
velden	-10.8324
▁recent	-10.8325
yan	-10.8328
oïde	-10.833
wolk	-10.833
▁onderscheidt	-10.8332
thy	-10.8336
▁structuren	-10.8337
▁chemie	-10.834
▁straten	-10.8341
▁wacht	-10.8344
▁dar	-10.8346
▁central	-10.8357
meren	-10.8361
lust	-10.8365
hn	-10.8367
hul	-10.8369
▁cat	-10.8373
▁beschikking	-10.8375
▁financieel	-10.8375
▁league	-10.8375
▁statistiek	-10.8375
▁uitgereikt	-10.8375
▁verbetering	-10.8375
▁maurits	-10.8375
▁herfst	-10.8375
scène	-10.8375
▁verlengd	-10.8375
▁strategie	-10.8375
gordel	-10.8376
▁zitting	-10.8377
▁kwaad	-10.8377
▁dio	-10.8377
vergelijking	-10.8379
▁frankische	-10.8382
foon	-10.8385
▁definitieve	-10.8387
▁auteursrecht	-10.8388
▁hongaars	-10.8392
▁daalde	-10.8393
▁verbranding	-10.8393
▁optie	-10.8397
dans	-10.8399
ër	-10.84
heem	-10.8405
▁personages	-10.8407
▁(4	-10.8408
▁wis	-10.841
▁conferentie	-10.8411
▁semi	-10.8416
▁uitmaken	-10.8428
▁by	-10.843
▁berichten	-10.8431
▁inzichten	-10.8432
▁virus	-10.8435
apo	-10.8436
ologen	-10.8441
show	-10.8441
zur	-10.8443
▁getijden	-10.8444
▁alternatief	-10.8444
▁kolonisten	-10.8444
▁schizofrenie	-10.8444
▁zeldzaam	-10.8444
▁ontleend	-10.8445
▁variëren	-10.8445
▁katholiek	-10.8448
uiteraard	-10.8448
▁toekomstige	-10.8449
▁1927	-10.8455
▁voc	-10.8457
▁zwangerschap	-10.8458
▁naamwoord	-10.8461
▁strenge	-10.8462
fil	-10.8465
blok	-10.8468
▁monarchie	-10.8471
wiens	-10.8472
▁evenaar	-10.8481
▁opvallende	-10.8485
wetenschap	-10.849
▁bijdragen	-10.8499
trans	-10.85
reken	-10.85
▁beslissing	-10.8502
▁been	-10.8503
▁tocht	-10.8503
verenigingen	-10.8505
gracht	-10.8506
▁stelden	-10.8513
▁gevaarlijk	-10.8513
plas	-10.8513
▁districten	-10.8514
▁concilie	-10.8515
▁precieze	-10.8515
▁onderhoud	-10.8515
sol	-10.8516
▁luister	-10.8517
▁toegenomen	-10.8517
▁kunstschilder	-10.8518
▁stoom	-10.8519
gewerkt	-10.8519
▁winkels	-10.8525
gronden	-10.8528
ijver	-10.8529
graad	-10.8529
▁bang	-10.8531
dien	-10.8532
▁1921	-10.8533
▁nadien	-10.8533
▁eigenschap	-10.8535
▁1815	-10.8536
▁perm	-10.8539
▁zekerheid	-10.8542
well	-10.8542
▁zak	-10.8548
▁gesteente	-10.8552
▁onderscheiding	-10.8552
baai	-10.8555
▁behoorden	-10.8557
▁trekt	-10.8569
▁hoeven	-10.857
▁grenst	-10.8572
moed	-10.8577
▁gekoppeld	-10.8586
▁osiris	-10.8586
▁zutphen	-10.8586
▁verschijnt	-10.8586
▁overeenstemming	-10.8586
▁goddelijke	-10.8587
▁lezing	-10.8588
▁aangesteld	-10.8589
pakket	-10.8594
▁opeenvolgende	-10.8595
vissen	-10.8596
▁verslaan	-10.8601
jer	-10.8603
mijnen	-10.8604
▁39	-10.8605
▁religieus	-10.8606
▁werknemers	-10.8606
▁250	-10.8609
-14	-10.8613
▁etc	-10.8614
▁dalen	-10.8616
werking	-10.8616
clus	-10.8618
▁kamers	-10.8618
▁heerschappij	-10.8618
▁toets	-10.8621
▁tibetaans	-10.8622
▁leidden	-10.8627
▁dun	-10.8628
▁tor	-10.8628
light	-10.8629
voeren	-10.8631
100	-10.8635
▁kenmerk	-10.8636
▁parallel	-10.8636
trok	-10.8641
▁service	-10.8642
▁banen	-10.8651
plat	-10.8654
▁gedicht	-10.8656
▁abraham	-10.8657
▁expliciet	-10.8657
▁toegewezen	-10.8657
▁vacuüm	-10.8657
▁toestellen	-10.8661
▁lezer	-10.8663
▁zeeniveau	-10.8663
cke	-10.8663
▁kap	-10.8666
▁middelbare	-10.8667
▁villa	-10.8671
raketten	-10.8672
▁nasa	-10.8679
▁bezoeken	-10.8681
kring	-10.8682
▁elementair	-10.8689
▁ondersteuning	-10.869
orden	-10.8692
▁terugkeren	-10.8692
▁zilveren	-10.8694
wissel	-10.8694
▁haren	-10.8695
paar	-10.8695
▁rente	-10.8696
vooral	-10.8696
▁gereformeerde	-10.8697
7%	-10.8704
▁mensheid	-10.8705
nny	-10.8706
▁giftig	-10.8712
▁120	-10.8713
▁verslag	-10.8717
▁componenten	-10.8719
bogen	-10.8722
holt	-10.8726
▁handelingen	-10.8727
lieden	-10.8727
waai	-10.8729
▁bevorderen	-10.8729
▁hasselt	-10.8729
▁jozua	-10.8729
▁toxicologie	-10.8729
▁grondlegger	-10.8729
aliseerd	-10.873
▁omstreden	-10.873
▁vooruitgang	-10.873
▁oordeel	-10.873
▁zeeuws	-10.8732
bedrijven	-10.8732
▁israëlieten	-10.8733
▁zangeres	-10.8733
▁vandaar	-10.8733
chloride	-10.8734
vloed	-10.8735
▁julia	-10.8737
▁trachtte	-10.8738
▁verwezen	-10.8738
▁alchemie	-10.8739
▁vallei	-10.8739
▁kampen	-10.874
tius	-10.874
▁voorstellen	-10.8746
▁denk	-10.875
gie	-10.8751
▁vikingen	-10.8754
voorzitter	-10.8759
zender	-10.8759
raken	-10.8762
▁monetair	-10.8763
▁clubs	-10.8763
ander	-10.8765
▁aphrodite	-10.8765
▁schijf	-10.8767
gemeente	-10.8768
▁island	-10.8768
▁neus	-10.8769
vang	-10.8771
▁vakbonden	-10.8784
oprichter	-10.8788
4%	-10.8792
wedstrijd	-10.8793
▁brusselse	-10.8795
▁commissaris	-10.8798
▁bestuderen	-10.8802
▁esperanto	-10.8802
▁verkreeg	-10.8802
▁alfred	-10.8802
sleutel	-10.8802
▁ideologie	-10.8802
▁schol	-10.8804
▁indische	-10.8804
▁enschede	-10.8805
gave	-10.8806
▁bevolkingsgroep	-10.881
▁kam	-10.8811
▁jongste	-10.8812
▁weert	-10.8813
planten	-10.8817
boven	-10.8817
breken	-10.8818
-0	-10.8827
wijn	-10.8828
▁getekend	-10.8834
▁breedte	-10.884
▁1932	-10.8843
▁afloop	-10.8847
▁uitzonderingen	-10.8853
▁bescherm	-10.8855
▁astronomie	-10.8856
▁jacques	-10.8856
▁draad	-10.8857
▁voorstelling	-10.8859
wedstrijden	-10.8862
▁longen	-10.8864
▁liedjes	-10.8864
▁stukje	-10.887
poten	-10.8871
offensief	-10.8875
▁hectare	-10.8875
▁leuven	-10.8875
▁voegde	-10.8875
▁beslist	-10.8875
▁radioactieve	-10.8875
▁staatsgreep	-10.8875
▁christenunie	-10.8875
gestoken	-10.8878
▁ruimtevaart	-10.8879
▁streng	-10.888
▁uitgave	-10.8881
▁indianen	-10.8883
verschillen	-10.8885
bronnen	-10.8886
▁koppel	-10.8889
▁aanslagen	-10.889
oma	-10.889
▁1870	-10.8894
▁referendum	-10.8897
▁gassen	-10.8899
▁vroegste	-10.89
banen	-10.89
▁schijn	-10.8905
wil	-10.8909
mijn	-10.8909
srecht	-10.8911
▁tar	-10.8911
tief	-10.8912
stok	-10.8914
▁apart	-10.8915
▁bern	-10.8925
▁katholieken	-10.8927
▁nature	-10.8928
zand	-10.8929
▁wim	-10.8937
▁hervormingen	-10.8942
▁multi	-10.8942
▁westelijk	-10.8945
tum	-10.8946
▁oeuvre	-10.8948
▁portugese	-10.8948
▁toevoeging	-10.8948
▁produceerde	-10.8948
▁vloeibaar	-10.8948
▁heinrich	-10.8948
▁verst	-10.8948
artiest	-10.8948
▁nabijgelegen	-10.8949
kov	-10.8949
▁rot	-10.895
▁gangbare	-10.8951
▁zwitserse	-10.8951
▁hess	-10.8952
pont	-10.8952
bewust	-10.8953
protocol	-10.8955
▁continenten	-10.8957
▁lucas	-10.8957
field	-10.8959
rail	-10.8961
oude	-10.8961
▁wales	-10.8964
▁tank	-10.8968
▁75	-10.8975
▁benoemde	-10.8975
▁800	-10.8979
▁mad	-10.8979
▁thee	-10.8984
▁pink	-10.8985
▁kre	-10.8987
aba	-10.8988
oven	-10.899
▁reisde	-10.8991
geleid	-10.8993
vision	-10.8993
▁protonen	-10.8996
▁linkse	-10.9
stap	-10.9001
terreinen	-10.9001
ito	-10.9002
▁general	-10.9003
▁eiste	-10.9005
▁indirect	-10.9008
▁bat	-10.9011
▁47	-10.9016
▁rassen	-10.9016
▁geringe	-10.902
#	-10.9022
▁arafat	-10.9022
▁fundamentele	-10.9022
▁ingewikkeld	-10.9022
▁verzwakt	-10.9022
▁astrologie	-10.9022
▁navolging	-10.9022
▁gehanteerd	-10.9022
▁mineraal	-10.9022
▁uitzonderlijk	-10.9022
▁lpf	-10.9023
▁relativiteits	-10.9023
▁nijl	-10.9024
▁texel	-10.9024
songfestival	-10.9025
▁lichtsnelheid	-10.9026
▁barok	-10.9027
▁thi	-10.9032
▁uitgever	-10.9043
▁tim	-10.9044
schouw	-10.9046
▁camp	-10.9053
▁verbeterd	-10.9054
▁deelstaat	-10.9054
bord	-10.9056
ios	-10.9058
▁heide	-10.9061
▁woont	-10.9062
▁kalk	-10.9062
▁sun	-10.9065
▁gebruikten	-10.9068
▁las	-10.9069
fried	-10.9071
skerk	-10.9077
product	-10.9078
▁visserij	-10.9085
liep	-10.9087
="20	-10.9094
legging	-10.9094
▁paleo	-10.9096
ika	-10.9096
▁achterlijf	-10.9097
▁beschikken	-10.9097
▁introductie	-10.9097
▁magnesium	-10.9097
installatie	-10.9097
▁begraafplaats	-10.9097
▁overgedragen	-10.9097
uut	-10.9097
▁afgeschaft	-10.9097
▁methaan	-10.9098
ming	-10.9098
▁isaac	-10.9099
▁system	-10.9099
▁schedel	-10.9099
▁halfrond	-10.9099
von	-10.9099
▁parlementaire	-10.9104
▁pur	-10.9104
▁proef	-10.9104
▁bladeren	-10.9105
▁isotoop	-10.911
▁doop	-10.9114
pool	-10.9114
hin	-10.9114
▁toetsen	-10.9114
ott	-10.9115
vrijheid	-10.9115
bot	-10.9117
▁rap	-10.9121
▁zwak	-10.9121
▁plus	-10.9126
koe	-10.9126
▁huur	-10.913
▁cho	-10.9131
▁zestien	-10.9132
="13	-10.9133
moedig	-10.9135
▁klap	-10.9136
▁cijfer	-10.9141
▁organen	-10.9142
▁eiwit	-10.9144
sberg	-10.9151
mannen	-10.9154
▁welk	-10.9156
alia	-10.9161
maakt	-10.9162
▁boord	-10.9165
▁neu	-10.9165
ines	-10.9169
▁waarneming	-10.917
▁achilles	-10.9172
▁society	-10.9172
▁vrijmetselarij	-10.9172
▁training	-10.9172
mail	-10.9173
▁onrust	-10.9175
motoren	-10.9178
▁beweerde	-10.9182
afrikaanse	-10.9182
▁py	-10.9183
spreek	-10.9183
▁prominente	-10.9184
▁kring	-10.9185
lé	-10.9186
▁legt	-10.9187
gebonden	-10.9188
wagen	-10.9188
▁betrekkingen	-10.9188
ón	-10.9189
▁larven	-10.919
artikel	-10.919
virus	-10.9191
▁vermelding	-10.9194
▁noemden	-10.9195
900	-10.9197
verzameling	-10.9198
mma	-10.9198
▁magnetische	-10.9203
zoon	-10.9207
▁philipp	-10.9209
eurs	-10.921
▁belangrijker	-10.9211
▁fabriek	-10.9211
uma	-10.9214
uni	-10.9219
arium	-10.9219
wier	-10.9224
▁legers	-10.9224
wezen	-10.9225
▁zong	-10.9236
▁langste	-10.9236
varen	-10.9238
▁diezelfde	-10.9239
▁middag	-10.924
▁overleg	-10.924
▁friese	-10.924
relatie	-10.9242
▁principes	-10.9246
bussen	-10.9247
nagenoeg	-10.9248
▁byzantium	-10.9248
▁sediment	-10.9248
▁verwierf	-10.9248
▁voegen	-10.9248
▁florence	-10.9248
▁oudsh	-10.9251
▁ondergrond	-10.9253
▁smalle	-10.9256
afhankelijk	-10.9256
sim	-10.9256
▁bloem	-10.9257
olie	-10.9257
verschil	-10.926
▁sin	-10.926
▁eeuwenlang	-10.9261
▁diploma	-10.9268
▁slachtoffer	-10.927
loper	-10.9271
instrumenten	-10.9274
sector	-10.9275
▁namens	-10.9275
▁blind	-10.9276
waard	-10.9276
▁vereerd	-10.9277
erijen	-10.9277
pie	-10.9285
gezond	-10.9287
wetenschapper	-10.9287
▁hieraan	-10.9294
▁draait	-10.9295
▁wachten	-10.9302
▁master	-10.9305
wall	-10.9309
▁verbinden	-10.9311
▁rechte	-10.9317
blo	-10.9319
vir	-10.9321
▁gebeurtenis	-10.9321
▁stedelijk	-10.9323
▁drama	-10.9323
▁verwijzing	-10.9324
▁enzovoort	-10.9324
▁reageert	-10.9324
▁beweegt	-10.9324
▁profeet	-10.9324
▁leefgebied	-10.9324
verbruik	-10.9325
▁baby	-10.9326
▁drank	-10.9328
▁ondertekend	-10.9328
▁eb	-10.9328
▁afgenomen	-10.933
magnet	-10.9332
▁verwantschap	-10.9332
kha	-10.9333
under	-10.9335
klank	-10.9336
▁logo	-10.9337
▁leeg	-10.9339
▁600	-10.9341
▁graad	-10.9342
▁jedi	-10.9344
▁romans	-10.9346
▁wijzigingen	-10.9347
▁zweeds	-10.9349
vraag	-10.9349
▁verstaan	-10.9355
kampioenschappen	-10.936
▁latijns	-10.936
bach	-10.9361
▁han	-10.9362
▁verspreiden	-10.9373
▁sim	-10.9375
formaat	-10.9376
rak	-10.938
▁gevolge	-10.9382
▁vervolgd	-10.9384
▁oever	-10.9386
▁oom	-10.9388
▁gaten	-10.9391
▁verdragen	-10.9391
▁magnetisch	-10.9396
▁wand	-10.9398
▁bisdom	-10.9399
gist	-10.94
kr	-10.9401
▁adolf	-10.9401
▁vergroten	-10.9401
▁melodie	-10.9401
▁betekenen	-10.9401
▁gezondheidszorg	-10.9401
▁winterspelen	-10.9402
▁overleefd	-10.9404
▁"(	-10.9405
slav	-10.9409
germaanse	-10.941
horn	-10.9412
▁uitslag	-10.9413
▁1916	-10.9413
▁rijst	-10.9413
▁ferr	-10.9424
▁stemde	-10.9425
waarden	-10.943
▁uitstoot	-10.9435
▁theoretische	-10.9439
atomen	-10.944
▁river	-10.944
paard	-10.9441
▁zestiende	-10.9443
loog	-10.9449
▁chemisch	-10.9449
▁organisme	-10.9454
▁perfect	-10.9455
eters	-10.9457
zetel	-10.9466
▁herhaald	-10.9466
gro	-10.947
▁html	-10.9473
▁opmerkelijk	-10.9473
▁infectie	-10.9475
▁day	-10.9475
▁helling	-10.9477
▁neuro	-10.9478
▁vertelt	-10.9478
▁cornelis	-10.9479
▁creëren	-10.9479
▁gebleken	-10.9479
▁variabel	-10.9479
▁versterking	-10.9479
▁versterken	-10.9479
▁immigratie	-10.9479
ladder	-10.9479
▁classificatie	-10.9479
tuin	-10.9479
▁echtgenoot	-10.9479
▁interactie	-10.948
▁zuidoost	-10.9483
▁darm	-10.9486
onia	-10.9487
-3	-10.9488
ala	-10.9488
feld	-10.9489
▁gevangenis	-10.9489
▁flora	-10.9489
▁patri	-10.9491
▁landelijk	-10.9491
frankrijk	-10.9495
▁getij	-10.9503
▁meervoud	-10.9505
hem	-10.9507
▁base	-10.9507
3.000	-10.9509
oh	-10.9514
▁telescoop	-10.9518
delta	-10.9519
▁ev	-10.9521
uiven	-10.9521
="23	-10.9526
▁datering	-10.9526
▁geleen	-10.9526
rijden	-10.9528
offer	-10.953
▁tekende	-10.9532
▁all	-10.9534
uro	-10.9534
▁maleis	-10.9538
kes	-10.9539
▁politicus	-10.9539
ör	-10.9544
▁opende	-10.9546
▁williams	-10.9547
anus	-10.9548
rich	-10.9549
zing	-10.9552
▁deeltje	-10.9553
▁acteur	-10.9554
▁artillerie	-10.9557
configuratie	-10.9557
langebaanschaats	-10.9557
▁samengevoegd	-10.9557
▁beperken	-10.9557
▁atoomkern	-10.9558
▁minuut	-10.9558
▁maximale	-10.9558
▁thans	-10.9558
▁juridische	-10.9558
woud	-10.9558
streken	-10.9559
▁delft	-10.956
ieren	-10.9561
▁rotatie	-10.9563
▁armen	-10.9566
▁behield	-10.9566
▁schil	-10.9567
▁besteed	-10.9567
▁eindigt	-10.9568
▁eigenaar	-10.9568
▁fouten	-10.9569
▁angel	-10.957
▁nakomelingen	-10.9572
▁wolf	-10.9572
▁kopen	-10.9573
ori	-10.9573
▁nauwe	-10.9577
steken	-10.9577
omstandigheden	-10.9578
▁kool	-10.9578
▁eg	-10.9579
▁omliggende	-10.9579
▁felle	-10.958
burger	-10.9586
▁kromme	-10.9586
▁mode	-10.9587
▁sea	-10.959
houdt	-10.9592
spannen	-10.9592
ianus	-10.9593
lange	-10.9601
▁uiterste	-10.9603
▁verspreidde	-10.9609
▁invoer	-10.961
pper	-10.9612
▁stor	-10.9612
zz	-10.9613
cit	-10.9614
aarde	-10.9618
▁fysieke	-10.9623
balans	-10.9626
▁wortels	-10.9627
▁regeren	-10.9631
▁zwem	-10.9632
▁talent	-10.9633
stralen	-10.9633
ceremonie	-10.9635
▁koolstofdioxide	-10.9635
▁parochie	-10.9635
▁dreigde	-10.9635
▁naamgeving	-10.9635
petersburg	-10.9636
omtrent	-10.9636
▁soortgelijk	-10.9636
▁merendeel	-10.9637
▁concurrentie	-10.9637
▁permanent	-10.9638
▁competitie	-10.9638
▁oproep	-10.9642
▁toezicht	-10.9642
▁geslachten	-10.9642
▁moedertaal	-10.9642
storm	-10.9643
▁beieren	-10.9643
▁5000	-10.9644
▁zwakke	-10.9644
▁greep	-10.9646
▁wetboek	-10.9647
▁1925	-10.9648
drijven	-10.9648
▁paas	-10.965
▁veldtocht	-10.9652
fu	-10.9653
college	-10.9656
▁successen	-10.9656
gna	-10.9659
▁variatie	-10.9663
▁hecht	-10.9665
staand	-10.9667
▁48	-10.9675
▁court	-10.9678
alistische	-10.9678
▁stuw	-10.9679
▁sur	-10.9682
▁dochters	-10.9683
▁ak	-10.9684
beke	-10.9685
▁rechtvaardig	-10.9686
samen	-10.969
▁bouwwerken	-10.9691
zag	-10.9691
▁has	-10.9692
▁mindere	-10.9694
▁julius	-10.9698
án	-10.9699
risch	-10.97
▁hydro	-10.9701
roei	-10.9701
▁categorieën	-10.9704
_4	-10.9705
▁aansluiting	-10.9706
▁space	-10.9708
ël	-10.971
cd	-10.971
▁financiën	-10.9715
▁geaccepteerd	-10.9715
▁litouwen	-10.9715
▁benoeming	-10.9715
▁dimensie	-10.9715
gedraaid	-10.9715
▁indonesië	-10.9715
▁saddam	-10.9715
▁studeren	-10.9715
▁claim	-10.9715
▁collins	-10.9715
▁entropie	-10.9715
▁logica	-10.9715
▁drugs	-10.9715
▁lijf	-10.9715
▁aardolie	-10.9716
▁aziatische	-10.9716
▁experimentele	-10.9718
▁brood	-10.972
▁1908	-10.9721
▁1905	-10.9722
nevel	-10.9724
▁symbol	-10.9724
mark	-10.9724
▁keizers	-10.9726
wie	-10.9729
▁gooi	-10.973
tam	-10.9731
▁dak	-10.9732
leu	-10.9734
▁minderheden	-10.9735
breuk	-10.9737
akkoord	-10.9737
afdeling	-10.9739
waaronder	-10.974
▁overgebracht	-10.9742
▁welvaart	-10.9743
films	-10.9743
▁bezitten	-10.9744
▁bezette	-10.9749
bestand	-10.9751
daagse	-10.9751
▁roos	-10.9762
▁producent	-10.9767
="26	-10.9768
▁verkiezings	-10.9769
▁openlijk	-10.9769
▁draai	-10.9769
▁donald	-10.9773
tenzij	-10.9774
▁huwelijks	-10.9776
▁dunne	-10.9777
▁omvatte	-10.9777
▁welsh	-10.9777
stond	-10.9778
▁aanbod	-10.9782
bak	-10.9785
▁klim	-10.979
▁woning	-10.9792
therapie	-10.9795
▁plaatsvindt	-10.9795
▁reputatie	-10.9795
▁gelderland	-10.9795
▁gelijktijdig	-10.9795
▁demografie	-10.9795
▁troje	-10.9795
▁decimale	-10.9795
▁iraanse	-10.9795
haar	-10.9798
maatregel	-10.9799
hoff	-10.98
wold	-10.98
▁muren	-10.9801
munt	-10.9805
▁omschreven	-10.9805
phi	-10.981
▁takken	-10.981
▁omringend	-10.9811
nacht	-10.9812
oy	-10.9815
tekens	-10.9815
rutte	-10.9816
▁(7	-10.9819
▁maatschappelijk	-10.982
lost	-10.9822
▁bill	-10.9823
▁stapte	-10.9824
stations	-10.9825
overgang	-10.9825
rusland	-10.9826
▁salon	-10.9828
▁gereed	-10.9828
boot	-10.9831
▁daaraan	-10.9851
="28	-10.9854
▁historicus	-10.9855
makers	-10.9855
▁main	-10.986
sio	-10.9861
tering	-10.9864
▁dik	-10.9867
▁samenhang	-10.9869
rok	-10.9874
schrijver	-10.9874
▁ker	-10.9874
▁voorbereid	-10.9875
arr	-10.9875
▁begrijpen	-10.9875
▁heraclitus	-10.9875
▁spirituele	-10.9875
▁taxonomie	-10.9875
▁hamlet	-10.9876
▁minimaal	-10.9876
▁veiligheids	-10.9876
▁bewerkt	-10.9877
▁thora	-10.9878
ical	-10.9886
▁1911	-10.9888
schrijven	-10.9894
▁extreme	-10.9894
oei	-10.9895
▁inname	-10.9897
▁wieler	-10.9899
ile	-10.9899
computer	-10.9901
golven	-10.9906
▁gekend	-10.9907
concentratiekamp	-10.991
▁bevoegdheid	-10.9912
▁kwantum	-10.9914
▁est	-10.9919
spreken	-10.9919
▁elektronische	-10.992
▁az	-10.9926
▁artis	-10.9926
▁riet	-10.9933
lopende	-10.9934
▁federatie	-10.9939
▁loopbaan	-10.9941
▁aandelen	-10.9943
▁café	-10.9943
▁aankomst	-10.9947
▁verhoudingen	-10.9948
drie	-10.9949
▁infanterie	-10.9951
side	-10.9952
▁wissel	-10.9952
▁exacte	-10.9953
elli	-10.9953
▁argentinië	-10.9957
▁bijbehorend	-10.9957
▁eduard	-10.9957
▁pakistan	-10.9957
▁kafka	-10.9957
▁evenredig	-10.9957
▁eredivisie	-10.9957
▁uiteenlopende	-10.9957
roll	-10.9957
reële	-10.9958
ministr	-10.9959
▁veldslag	-10.9959
▁nogal	-10.996
▁zenuw	-10.9961
▁bestemming	-10.9963
▁meng	-10.9965
▁skelet	-10.9966
▁feesten	-10.9969
idi	-10.9969
▁43	-10.997
▁hiertoe	-10.997
▁1915	-10.9972
▁37	-10.9976
schema	-10.9982
continent	-10.9987
▁tekeningen	-10.9995
tron	-10.9997
6.000	-10.9998
ionen	-10.9998
▁ontmoet	-11
▁cyclus	-11
goud	-11.0001
breking	-11.0001
▁sli	-11.0001
▁gevechten	-11.0009
▁records	-11.0024
still	-11.0028
▁dwerg	-11.0037
niklaas	-11.0039
▁autonomie	-11.0039
▁beschadigd	-11.0039
▁impressionist	-11.0039
▁pythagoras	-11.0039
▁reguliere	-11.0039
▁verdreven	-11.0039
▁mulisch	-11.0039
▁toeristische	-11.0039
▁scoorde	-11.0039
patronen	-11.0039
▁vermoed	-11.004
▁gelre	-11.004
zijdig	-11.0042
▁kocht	-11.0042
▁respect	-11.0043
▁unix	-11.0044
▁hugo	-11.0044
▁range	-11.0045
▁1931	-11.0046
▁berust	-11.0047
▁regent	-11.0048
▁pijn	-11.0048
lauw	-11.0048
▁fins	-11.0048
▁coup	-11.0052
▁(12	-11.0057
▁grijs	-11.0058
▁1890	-11.0058
rijp	-11.0059
snel	-11.006
▁1880	-11.006
gelegen	-11.0061
▁noten	-11.0061
▁brussels	-11.0065
▁zorgden	-11.0065
gevangen	-11.0069
▁academische	-11.007
▁turken	-11.0073
▁rollen	-11.0074
▁besluiten	-11.0074
verhouding	-11.0075
▁merken	-11.0076
verkochte	-11.0076
card	-11.0079
▁notatie	-11.0084
▁free	-11.0084
▁primaire	-11.009
▁gebruiker	-11.009
scan	-11.0096
bla	-11.0096
▁stichtte	-11.01
▁doelpunt	-11.0106
▁vierkante	-11.0107
▁reuzen	-11.0108
▁protestanten	-11.0111
▁verzamel	-11.0115
klassieke	-11.0119
▁priemgetal	-11.0119
variëteit	-11.0121
▁hoofdstedelijk	-11.0121
▁ingenieur	-11.0121
▁wapenstilstand	-11.0121
▁ontwierp	-11.0121
▁bezittingen	-11.0121
▁ambitie	-11.0122
▁motorfiets	-11.0122
▁davis	-11.0124
▁kanker	-11.0128
▁sturen	-11.0128
▁king	-11.0129
tsen	-11.0131
▁bronzen	-11.0132
▁hoopte	-11.0133
▁voert	-11.0134
▁1912	-11.0135
▁bekendgemaakt	-11.0135
tour	-11.0136
▁jura	-11.0138
▁piet	-11.0138
gam	-11.0141
▁cast	-11.0142
▁testen	-11.015
▁kir	-11.0151
begrip	-11.0154
▁indiase	-11.0154
avond	-11.0154
latijn	-11.0155
6%	-11.0157
ao	-11.0157
rock	-11.0159
ractievoorzitter	-11.016
making	-11.0163
▁behaald	-11.0169
▁vasten	-11.0178
order	-11.018
▁lidmaatschap	-11.0182
▁achteruit	-11.0183
hydr	-11.0191
▁paren	-11.0195
▁55	-11.0196
rechts	-11.0197
stoot	-11.0202
▁wettelijke	-11.0202
▁aangevuld	-11.0205
▁compleet	-11.0205
▁sinterklaas	-11.0205
▁unesco	-11.0205
▁diplomatieke	-11.0205
▁thermodynamica	-11.0205
subsidie	-11.0205
▁synoniem	-11.0205
▁overtuiging	-11.0205
▁functioneren	-11.0205
▁letland	-11.0205
▁schilderen	-11.0205
▁grondstoffen	-11.0208
▁cello	-11.0214
trouw	-11.0215
uze	-11.0216
fictie	-11.0217
▁pools	-11.0218
adem	-11.0221
ches	-11.0222
▁kol	-11.0222
▁jongens	-11.0223
▁verbrand	-11.0223
▁center	-11.0224
duur	-11.0225
▁bereikbaar	-11.0226
▁pijp	-11.0228
gaf	-11.0228
▁territorium	-11.0232
▁db	-11.0233
▁individuen	-11.0233
oom	-11.0237
gerekend	-11.0242
mun	-11.0243
▁(5	-11.0243
▁spoorwegen	-11.0243
▁bok	-11.0244
▁hal	-11.0246
▁voorgaande	-11.0248
braak	-11.0249
▁meteor	-11.0249
wy	-11.0251
▁dichters	-11.0252
▁middelste	-11.0253
uck	-11.0256
▁nederlandstalig	-11.0256
zy	-11.0257
schild	-11.0258
▁44	-11.0263
▁wereldkampioen	-11.0264
▁binnenland	-11.0266
▁dergelijk	-11.0266
dame	-11.027
▁regeling	-11.0271
kaarten	-11.0277
▁steunde	-11.0284
▁varen	-11.0286
▁balkenende	-11.0287
▁vlinder	-11.0287
▁verworven	-11.0289
▁bescheiden	-11.0289
▁diagnose	-11.0289
▁executie	-11.0289
▁geconcentreerd	-11.0289
▁gepresenteerd	-11.0289
▁geïnteresseerd	-11.0289
▁mussolini	-11.0289
▁gewenste	-11.0289
▁boeddhistische	-11.0289
▁vloeibare	-11.0289
▁reageerde	-11.0289
▁varkens	-11.0289
▁hazes	-11.0289
▁arthur	-11.0289
▁wilhelmina	-11.029
▁vernieuwd	-11.0291
▁belast	-11.0292
poot	-11.0293
ence	-11.0293
▁gerechtelijk	-11.0295
▁exact	-11.0295
▁toegelaten	-11.0297
▁liepen	-11.0297
▁meisjes	-11.0297
▁pomp	-11.0299
▁verliep	-11.03
vrije	-11.0304
▁havens	-11.0306
kleed	-11.031
▁mantel	-11.031
▁20.000	-11.0311
▁mata	-11.0312
▁zoom	-11.0314
illy	-11.0315
ijen	-11.0319
▁haags	-11.0322
worm	-11.0324
vergadering	-11.0325
meestal	-11.0325
▁bereik	-11.0325
town	-11.0326
pil	-11.0333
▁strikt	-11.0335
scholen	-11.0335
▁banken	-11.0339
schieten	-11.0341
▁geslagen	-11.0342
▁krachtige	-11.0344
▁lichamen	-11.0346
▁wezens	-11.0347
ister	-11.0349
▁hera	-11.0352
▁najaar	-11.0354
▁concentraties	-11.0359
▁regeerde	-11.036
commissie	-11.036
▁scherm	-11.0361
ball	-11.0361
day	-11.0366
▁locaties	-11.0366
winter	-11.0367
▁sar	-11.0369
▁cra	-11.0372
▁decennium	-11.0373
▁herinnering	-11.0373
▁zeldzame	-11.0373
▁dictator	-11.0374
▁overijssel	-11.0374
ademhaling	-11.0374
▁podium	-11.0374
vaccin	-11.0374
▁verkopen	-11.0374
▁bewustzijn	-11.0374
spelers	-11.0374
▁one	-11.0375
socialisme	-11.0375
▁voorstander	-11.0376
oire	-11.0376
▁wier	-11.0377
▁smith	-11.0378
▁afgebroken	-11.0378
▁verzamelen	-11.0378
▁harry	-11.0379
▁district	-11.038
nitraat	-11.0382
republikeinse	-11.0385
▁isis	-11.0387
▁gedachte	-11.0388
krijg	-11.0395
▁fil	-11.0396
▁achttiende	-11.0398
▁commun	-11.0402
▁herb	-11.0403
belasting	-11.0412
▁acties	-11.0413
▁voorts	-11.0414
▁programmeertaal	-11.0415
▁uitstekend	-11.0417
▁fonds	-11.0418
rop	-11.042
▁beperkingen	-11.042
▁sk	-11.042
cyclus	-11.0422
gotisch	-11.0425
▁algoritme	-11.0426
▁keten	-11.0427
enberg	-11.0428
▁eed	-11.0428
verwerking	-11.043
▁lossen	-11.0431
▁palm	-11.0437
akker	-11.0437
klein	-11.044
▁aangevallen	-11.044
▁just	-11.0442
▁verf	-11.0443
▁ondergaan	-11.0445
afstand	-11.0446
▁opgelegd	-11.0448
▁radicale	-11.0457
▁begrafenis	-11.0459
▁canadese	-11.0459
▁interessant	-11.0459
▁politici	-11.0459
▁gustav	-11.0459
science	-11.0459
▁bijeenkomst	-11.0459
▁bondgenoten	-11.046
▁aids	-11.046
▁slaap	-11.046
▁reizigers	-11.0461
▁argument	-11.0461
▁vertoond	-11.0462
▁krijgs	-11.0463
▁bovenstaande	-11.0463
zak	-11.0463
▁ideale	-11.0464
▁contrast	-11.047
▁rijkdom	-11.0471
▁tempels	-11.0475
bad	-11.0475
▁schapen	-11.0476
▁wonnen	-11.0478
stij	-11.0479
▁technisch	-11.0479
▁motie	-11.0482
koel	-11.0486
▁genen	-11.0489
▁uniek	-11.0492
▁vertalingen	-11.0493
▁mechanische	-11.0493
▁finse	-11.0493
▁voorouders	-11.0494
▁hari	-11.0495
element	-11.0496
alisatie	-11.0497
duin	-11.0499
moord	-11.0499
▁oceanen	-11.0499
principe	-11.05
▁ensor	-11.05
rijder	-11.0501
lecht	-11.0501
▁compositie	-11.0502
▁american	-11.0507
▁monniken	-11.0508
▁roer	-11.0516
▁lake	-11.0517
▁stijgen	-11.0519
▁rum	-11.0521
lief	-11.0521
ado	-11.0525
zonder	-11.0533
▁spier	-11.0534
meting	-11.0541
iviteit	-11.0542
▁instelling	-11.0545
▁basketbal	-11.0545
▁beëindigd	-11.0545
▁gearresteerd	-11.0545
▁socrates	-11.0545
▁verwarring	-11.0545
▁getiteld	-11.0545
▁reptielen	-11.0546
▁abdij	-11.0547
▁hierboven	-11.0549
▁appel	-11.0549
gent	-11.0549
▁robot	-11.055
kal	-11.055
mag	-11.0551
▁bewoning	-11.0552
▁hoogst	-11.0552
▁geladen	-11.0555
▁1926	-11.0555
kke	-11.0556
▁flor	-11.0557
kwantummechanica	-11.056
▁1910	-11.056
▁schotse	-11.056
▁1814	-11.0563
▁klassiek	-11.0564
▁vermeende	-11.0565
lier	-11.0566
had	-11.0566
▁verhoogde	-11.0569
erts	-11.0571
▁1850	-11.0573
▁gymnasium	-11.0573
▁opslag	-11.0573
fonds	-11.058
▁textiel	-11.0581
▁daling	-11.0583
lap	-11.0584
▁proza	-11.0584
▁verstand	-11.0585
▁koud	-11.0586
▁sporten	-11.0588
▁composities	-11.0589
part	-11.059
gesloten	-11.0598
voorziening	-11.06
instrument	-11.0609
▁posities	-11.0609
▁gewoonte	-11.0611
polit	-11.0613
▁weinige	-11.0623
bewegingen	-11.0623
nieuwe	-11.0625
▁nachts	-11.0627
lezen	-11.0627
fonie	-11.063
▁benadrukt	-11.0632
▁beschuldigd	-11.0632
▁genocide	-11.0632
▁verwijderen	-11.0632
▁madrid	-11.0632
▁fauna	-11.0633
1.000	-11.0633
▁documentaire	-11.0634
▁theodor	-11.0634
▁hoofdstuk	-11.0634
▁werkloosheid	-11.0634
▁gemengd	-11.0635
godin	-11.064
▁henry	-11.0642
▁neanderthalers	-11.0644
▁aspect	-11.0644
stone	-11.0646
▁roger	-11.0648
chemie	-11.0654
▁1800	-11.0657
▁opgedeeld	-11.0658
▁noordwest	-11.066
▁roland	-11.0662
oet	-11.0662
▁beloofde	-11.0664
▁nek	-11.067
work	-11.0671
▁verkiezing	-11.0672
▁raakt	-11.0673
voc	-11.0674
olo	-11.0677
▁overstromingen	-11.0677
lex	-11.0686
▁stadhuis	-11.0691
▁heersers	-11.0691
▁hermann	-11.0692
escu	-11.0693
▁ongeluk	-11.0693
aj	-11.0695
▁achttien	-11.0695
▁stellingen	-11.07
▁officier	-11.0709
▁lichter	-11.0715
gelegenheden	-11.0717
glo	-11.0719
membraan	-11.072
▁scheikunde	-11.072
▁teruggevonden	-11.072
▁ambtenaren	-11.072
▁scandinavië	-11.072
▁afkorting	-11.072
▁racisme	-11.072
▁beetje	-11.0722
▁effectief	-11.0722
▁werkelijk	-11.0724
masker	-11.073
nov	-11.0731
down	-11.0732
▁schild	-11.0749
▁onderhouden	-11.0757
dicht	-11.076
▁grootheden	-11.076
mens	-11.0762
formule	-11.0766
waal	-11.0766
bundel	-11.0767
▁standbeeld	-11.0768
▁tand	-11.0769
aux	-11.077
▁opgerichte	-11.0772
sterkte	-11.0772
kosten	-11.0773
▁mountains	-11.0775
▁uitkomst	-11.078
verkiezing	-11.0781
special	-11.0784
▁eet	-11.0789
▁verlopen	-11.0794
▁gesprek	-11.0795
,3%	-11.0795
▁betaling	-11.0796
wetten	-11.0797
▁enzym	-11.0802
term	-11.0804
▁linnaeus	-11.0808
▁poseidon	-11.0808
▁saturnus	-11.0808
▁trabzon	-11.0808
▁wallonië	-11.0808
▁verminderen	-11.0808
▁nuttig	-11.0808
▁kilogram	-11.0809
tien	-11.0809
▁maximum	-11.081
▁gewond	-11.0814
routes	-11.0814
▁aardbeving	-11.0814
▁aardoppervlak	-11.0815
▁verzameld	-11.0816
▁malta	-11.0816
▁kenden	-11.0817
▁volksver	-11.082
▁voeding	-11.082
mir	-11.0823
▁erfelijk	-11.0827
▁1795	-11.0827
row	-11.0829
,1%	-11.083
▁koningschap	-11.0831
moeder	-11.0832
▁verleend	-11.0833
▁monding	-11.0841
▁verdachte	-11.0848
werf	-11.0852
elementen	-11.0855
▁ay	-11.0856
▁verbeterde	-11.086
osa	-11.0863
▁ditmaal	-11.0867
ruis	-11.0873
bestrijding	-11.0873
lach	-11.0874
noot	-11.0875
stop	-11.0885
▁trompet	-11.0885
▁toenemen	-11.0885
▁lidwoord	-11.0888
orkest	-11.0889
blijven	-11.0889
▁gegroeid	-11.089
▁vrijwillig	-11.0894
▁medi	-11.0896
▁beslag	-11.0896
▁diabetes	-11.0898
▁dikwijls	-11.0898
▁goedgekeurd	-11.0898
▁ludwig	-11.0898
▁venetië	-11.0898
▁dwong	-11.0898
▁verdedigd	-11.0898
▁hielp	-11.0898
▁lennon	-11.0898
▁afgewezen	-11.0899
▁objectief	-11.0899
▁beleids	-11.0901
▁omvatten	-11.0905
▁gestart	-11.0905
vaardig	-11.0906
▁personage	-11.0909
▁platform	-11.0911
▁buur	-11.0913
kol	-11.0913
▁0,0	-11.0914
▁voetbalclub	-11.0917
kampioenschap	-11.0919
pijn	-11.092
▁dorps	-11.0924
▁klinkers	-11.0925
▁uitvoerende	-11.0925
anta	-11.0927
denk	-11.093
technieken	-11.0938
▁vertrekken	-11.0939
drecht	-11.094
▁rat	-11.0942
steek	-11.0943
grenzen	-11.0945
ett	-11.0947
▁(6	-11.0949
▁mits	-11.0949
una	-11.095
patroon	-11.095
partner	-11.0951
fel	-11.0956
▁waarover	-11.0957
▁autoriteit	-11.0957
▁aanvoer	-11.096
hall	-11.0961
factor	-11.0962
▁groeit	-11.0962
▁traject	-11.0966
sels	-11.0975
uel	-11.0975
▁circuit	-11.0975
gir	-11.0978
="21	-11.0979
datum	-11.0979
▁manen	-11.098
▁laken	-11.098
fabrikant	-11.0986
▁lind	-11.0987
▁agglomeratie	-11.0988
▁autonome	-11.0988
▁gecreëerd	-11.0988
▁gelanceerd	-11.0988
▁optreedt	-11.0988
▁promotie	-11.0988
▁sciencefiction	-11.0988
▁werkgelegenheid	-11.0988
▁gecontroleerd	-11.0988
▁hadrianus	-11.0988
demonstratie	-11.0988
▁gerealiseerd	-11.0988
▁overtuigen	-11.0989
affaire	-11.0989
▁mid	-11.0992
sdichtheid	-11.0995
▁taalfamilie	-11.0996
▁bob	-11.0997
▁machines	-11.0998
toria	-11.0998
▁depressie	-11.1
▁france	-11.1
▁ever	-11.1005
kind	-11.1006
twee	-11.1011
▁romeins	-11.1016
time	-11.1016
▁stroomgebied	-11.1017
alhoe	-11.1018
▁scherpe	-11.1021
ramp	-11.1022
▁kantoor	-11.1023
▁nederzettingen	-11.1023
boog	-11.1024
▁out	-11.1025
raal	-11.103
▁röntgen	-11.1032
ijl	-11.1035
shir	-11.1035
kast	-11.1035
enkelspel	-11.1038
▁liter	-11.1041
▁mary	-11.1043
theater	-11.1043
rank	-11.1046
▁afdelingen	-11.1053
mix	-11.1057
▁buitenste	-11.107
▁equivalent	-11.1074
ïsche	-11.1078
zout	-11.1078
▁afspraken	-11.1079
▁carnaval	-11.1079
▁cauchy	-11.1079
▁ontsnappen	-11.1079
▁première	-11.1079
▁primitieve	-11.1079
▁reclame	-11.1079
▁alexandrië	-11.1079
▁duivel	-11.1079
▁intensieve	-11.1079
▁fascisme	-11.1079
▁gödel	-11.1079
▁gauss	-11.1079
▁assistent	-11.1079
▁fysische	-11.108
▁sprint	-11.108
▁enigma	-11.108
▁fin	-11.1081
,8%	-11.1081
▁bbc	-11.1081
▁romantiek	-11.1082
pionier	-11.1082
▁eitjes	-11.1082
▁trend	-11.1084
▁nobel	-11.1084
▁ondiep	-11.1084
▁vreemde	-11.1087
▁1904	-11.1087
▁span	-11.1088
▁voorzieningen	-11.1089
dingen	-11.1092
▁revolutionaire	-11.1093
▁gelezen	-11.1096
▁explosie	-11.1096
media	-11.11
▁consumenten	-11.1102
▁verplaatsen	-11.1103
jong	-11.1105
▁canon	-11.1107
▁portret	-11.111
schans	-11.1112
▁vrijdag	-11.1116
▁patroon	-11.1116
▁vietnam	-11.1116
▁verdelen	-11.1117
vergelijk	-11.1119
▁rotor	-11.112
▁vervallen	-11.1122
▁incident	-11.1122
vormig	-11.1124
schappen	-11.1127
gedreven	-11.1128
▁definities	-11.1132
▁levend	-11.1134
▁pand	-11.1135
▁berekeningen	-11.1137
ontwerp	-11.1138
▁schattingen	-11.1141
▁abstracte	-11.1143
regime	-11.1143
kli	-11.1143
▁orthodoxe	-11.1145
▁luid	-11.1145
▁veertien	-11.1145
blauw	-11.1148
night	-11.1148
rust	-11.1149
="10	-11.115
▁misbruik	-11.1153
horst	-11.1154
▁parti	-11.1155
hij	-11.1155
buis	-11.1156
▁wethouders	-11.1158
▁dikke	-11.1159
▁servië	-11.117
▁vernietiging	-11.117
▁aardkorst	-11.117
▁amnesty	-11.117
▁bourgondië	-11.117
▁kapitein	-11.117
▁mandela	-11.1171
▁erkennen	-11.1171
▁sinaï	-11.1171
mei	-11.1171
▁nadeel	-11.1172
▁engelstalige	-11.1173
▁processor	-11.1173
twist	-11.1173
▁etappe	-11.1173
▁hervorming	-11.1173
▁projecten	-11.1174
▁petro	-11.1176
▁cobra	-11.1176
▁inwonertal	-11.1176
▁schrik	-11.1177
▁sumer	-11.1177
▁1906	-11.1178
▁1901	-11.1181
singel	-11.1183
="12	-11.1184
▁kabel	-11.1186
▁kringen	-11.1191
▁gestemd	-11.1196
▁por	-11.1197
versnelling	-11.12
▁faculteit	-11.1202
▁ervaringen	-11.1204
300	-11.1205
flo	-11.1207
▁drinken	-11.1207
▁unieke	-11.1208
▁paris	-11.1209
trein	-11.1212
tekeningen	-11.1213
oefening	-11.1216
krachten	-11.1219
▁fietsen	-11.122
▁link	-11.122
2.000	-11.122
▁zwemmen	-11.1222
▁und	-11.1224
broeder	-11.1226
▁loon	-11.1226
pagina	-11.123
▁oogst	-11.123
italië	-11.1231
gewicht	-11.1232
▁overheden	-11.1234
drong	-11.124
▁gedachten	-11.1242
▁stuur	-11.1243
agon	-11.125
ics	-11.1253
▁adem	-11.1257
▁boter	-11.1259
swet	-11.1259
vervuiling	-11.1261
winnaar	-11.1261
▁paste	-11.1262
momenteel	-11.1263
▁advocaat	-11.1263
▁expansie	-11.1263
▁vermijden	-11.1263
▁gezongen	-11.1263
▁verklaart	-11.1263
▁volgelingen	-11.1263
▁fosfor	-11.1263
▁london	-11.1263
eisen	-11.1263
▁berekenen	-11.1263
▁uitgangspunt	-11.1263
▁gestegen	-11.1263
▁kolom	-11.1264
▁tabak	-11.1264
▁koste	-11.1265
▁reformatie	-11.1265
▁vuurwerk	-11.1266
▁spoedig	-11.1267
="11	-11.1268
▁bevriend	-11.1268
▁burgemeesters	-11.1268
▁generaties	-11.1269
▁heiligen	-11.1271
▁that	-11.1271
▁schaars	-11.1272
▁linie	-11.1272
▁slaat	-11.1273
▁hangen	-11.1278
▁swa	-11.1291
▁peper	-11.1296
tank	-11.1298
▁pil	-11.1298
▁artistieke	-11.13
christelijke	-11.1301
▁bestuurder	-11.1301
▁georges	-11.1307
orum	-11.1309
ato	-11.1311
▁ingericht	-11.1312
▁staande	-11.1318
▁heerser	-11.1319
volle	-11.132
▁geldig	-11.132
▁stopte	-11.1321
▁verloopt	-11.1323
▁optredens	-11.1323
dubbel	-11.1325
mede	-11.1325
variant	-11.1327
uth	-11.1327
aï	-11.1328
bloem	-11.1329
▁dertien	-11.1334
▁dienden	-11.1337
▁sax	-11.1338
concert	-11.1338
▁architecten	-11.134
▁moeilijker	-11.1342
▁vertelde	-11.1347
lengte	-11.1347
▁tempo	-11.1348
pier	-11.1348
rag	-11.1349
bau	-11.135
▁commandant	-11.1352
▁gezelschap	-11.1354
▁administratieve	-11.1356
▁gepleegd	-11.1356
▁sanskriet	-11.1356
▁kardinaal	-11.1356
▁mercurius	-11.1356
▁tijdstip	-11.1356
management	-11.1356
▁kwijt	-11.1356
▁emotie	-11.1357
▁diversiteit	-11.1357
▁getoond	-11.1357
▁lenzen	-11.1357
▁hollywood	-11.1357
▁overeenkomt	-11.1357
denken	-11.1358
▁stadsrechten	-11.1359
▁ijzeren	-11.1359
▁inzake	-11.1359
▁huisarts	-11.136
▁hoofdletter	-11.136
▁maaltijd	-11.136
▁heerlen	-11.1361
▁stadsdeel	-11.1362
▁naald	-11.1363
▁presenteerde	-11.1367
▁stop	-11.1369
▁planetoïden	-11.1369
▁gebeurd	-11.1371
lib	-11.1373
▁beslissingen	-11.1373
▁mak	-11.1374
▁botten	-11.1374
▁zaal	-11.1379
▁hing	-11.138
specialist	-11.138
tempel	-11.1383
▁bruto	-11.1385
▁nr	-11.1386
pad	-11.1386
▁bijbelse	-11.1391
▁home	-11.1394
aad	-11.1399
zanger	-11.14
▁bands	-11.1405
waan	-11.141
geluid	-11.1422
pin	-11.1424
blokken	-11.1426
="22	-11.1427
vocht	-11.143
▁script	-11.143
,7%	-11.1432
▁she	-11.1433
▁nederlander	-11.1435
▁mr	-11.1438
▁taalgebied	-11.1441
liggende	-11.1441
▁impressionisme	-11.1446
veda	-11.1448
egypt	-11.1449
▁norm	-11.145
▁arabieren	-11.1451
▁opgewekt	-11.1451
▁namibië	-11.1451
▁verborgen	-11.1451
▁senator	-11.1451
▁scheiden	-11.1451
▁laurent	-11.1451
moskee	-11.1452
▁gallië	-11.1453
▁verbouwd	-11.1453
▁balkan	-11.1454
▁essentieel	-11.1454
slot	-11.1456
▁behalen	-11.1457
▁algen	-11.1458
▁juda	-11.1461
▁verteld	-11.1461
▁protestant	-11.1464
rog	-11.1466
▁stijging	-11.1469
▁1913	-11.1473
▁weergave	-11.1476
ward	-11.1477
staaf	-11.1478
▁green	-11.1487
▁schone	-11.1489
▁piek	-11.1493
▁spraak	-11.1493
▁gebroken	-11.1499
▁werkelijke	-11.15
-10	-11.1501
▁plu	-11.1502
rood	-11.1505
▁dodelijk	-11.1506
▁commando	-11.151
▁romeo	-11.1511
▁gezonde	-11.1516
heilig	-11.1519
▁verhoogd	-11.152
ticus	-11.1522
syn	-11.1523
▁sab	-11.1523
▁burcht	-11.1532
max	-11.1537
▁schepping	-11.154
▁machten	-11.1543
pieters	-11.1544
▁vluchtte	-11.1544
▁bloot	-11.1545
▁beoefend	-11.1546
▁fenomeen	-11.1546
▁slovenië	-11.1546
▁uitgestrekt	-11.1546
▁placebo	-11.1546
▁christen	-11.1546
▁stabiliteit	-11.1546
▁beslaat	-11.1547
▁roemeense	-11.1548
▁adellijke	-11.1548
▁punk	-11.1548
▁hot	-11.1548
sessie	-11.155
▁hoofdkwartier	-11.155
lijden	-11.155
▁uitgeverij	-11.1552
▁wolken	-11.1558
▁kortweg	-11.1559
▁arena	-11.156
▁schok	-11.1563
▁2025	-11.1565
dragen	-11.1572
▁pim	-11.1572
▁feiten	-11.1574
▁snelweg	-11.1575
▁dij	-11.1575
▁zijden	-11.1575
▁macro	-11.1575
▁pest	-11.1577
ory	-11.158
uli	-11.1585
atief	-11.1588
rond	-11.1589
▁uitgewerkt	-11.159
-4	-11.1591
anna	-11.1591
landschap	-11.1591
tag	-11.1592
dol	-11.1598
▁watson	-11.16
▁strafbaar	-11.1602
▁breidde	-11.1602
▁public	-11.1604
tafel	-11.1609
▁regeringen	-11.1613
▁audio	-11.1616
▁ijslands	-11.1616
tentoonstelling	-11.1617
▁filip	-11.1625
vuur	-11.1626
▁sluit	-11.1628
ject	-11.1628
▁velden	-11.1629
steun	-11.163
but	-11.1632
▁ambacht	-11.1642
▁stel	-11.1642
ontsteking	-11.1642
▁commercieel	-11.1642
▁copernicus	-11.1642
▁dokkum	-11.1642
▁sicilië	-11.1642
▁agrarisch	-11.1642
▁sperma	-11.1642
kazerne	-11.1642
▁supernova	-11.1643
▁hanze	-11.1644
▁inspiratie	-11.1646
straf	-11.1648
▁mijnbouw	-11.165
▁opgezet	-11.1651
handelaar	-11.1653
▁voorouder	-11.1654
▁morgen	-11.1656
aap	-11.1657
iro	-11.1658
▁700	-11.1658
▁held	-11.1659
▁voorstellingen	-11.1661
▁kaas	-11.1662
▁buik	-11.1663
ouds	-11.1668
▁perioden	-11.167
ction	-11.1672
duct	-11.1674
beat	-11.1675
▁anatolië	-11.1678
vliegtuigen	-11.1678
▁house	-11.1679
mot	-11.1681
▁budget	-11.1689
▁gebed	-11.169
▁persoonlijkheid	-11.1692
cp	-11.1693
▁10%	-11.1696
▁boy	-11.1697
▁afgeleide	-11.1698
▁gil	-11.1699
▁seksueel	-11.1704
kennis	-11.1704
▁beschikte	-11.1705
sloeg	-11.1709
▁omgekeerde	-11.1711
▁langdurige	-11.1711
analyse	-11.1716
▁artsen	-11.1716
ongeveer	-11.1716
kabinet	-11.1717
woning	-11.1718
▁horeca	-11.1722
sprekende	-11.1726
▁joods	-11.173
▁kritische	-11.1731
klier	-11.1732
▁medisch	-11.1732
comp	-11.1734
▁geologische	-11.1734
▁kapel	-11.1736
▁pak	-11.1739
▁mount	-11.1739
faciliteiten	-11.1739
▁manuscript	-11.1739
▁opgemerkt	-11.1739
▁rudolf	-11.1739
exodus	-11.1739
▁professor	-11.1739
▁uitvinder	-11.1739
▁raket	-11.1739
▁postzegel	-11.174
▁strafrecht	-11.174
transform	-11.1741
▁afwezigheid	-11.1742
▁doodstraf	-11.1742
▁popmuziek	-11.1742
▁uyl	-11.1742
▁rené	-11.1743
gewisseld	-11.1745
▁treinen	-11.1745
▁mau	-11.1745
▁doelstelling	-11.1746
sulfaat	-11.1747
▁sfeer	-11.1747
anisme	-11.1748
▁onderneming	-11.1749
eff	-11.1749
ular	-11.1751
zend	-11.1754
400	-11.1757
spiegel	-11.176
▁north	-11.1761
▁nucleaire	-11.1763
▁aannemen	-11.1763
▁opgravingen	-11.1764
icum	-11.1767
▁apen	-11.1768
▁component	-11.1772
▁carter	-11.1778
kruid	-11.1784
▁sterrenbeeld	-11.1785
▁compagnie	-11.1786
vloer	-11.1793
▁richtingen	-11.1798
▁limburgs	-11.18
▁staking	-11.1801
▁kenmerkt	-11.1805
▁hals	-11.1806
stemming	-11.1806
8.000	-11.1806
▁back	-11.1808
▁damp	-11.181
stoel	-11.1811
▁gezondheids	-11.1811
atio	-11.1812
▁regisseur	-11.1812
gewone	-11.1817
korps	-11.1817
friesland	-11.1819
point	-11.1832
▁francis	-11.1835
▁blues	-11.1836
▁aminozuren	-11.1837
▁antarctica	-11.1837
▁axioma	-11.1837
▁geregistreerd	-11.1837
▁gestorven	-11.1837
▁minimum	-11.1837
▁universele	-11.1837
▁vitamine	-11.1837
▁berucht	-11.1837
▁turner	-11.1837
▁centra	-11.1838
back	-11.1838
▁bernard	-11.1838
▁mir	-11.1839
▁schreven	-11.1839
▁diersoorten	-11.184
▁gibb	-11.184
▁expositie	-11.1841
▁continentale	-11.1841
▁behoeve	-11.1841
▁gevormde	-11.1841
klep	-11.1842
▁invloedrijke	-11.1842
▁plaatste	-11.1843
▁gevechts	-11.1843
▁monster	-11.1844
▁ruimtelijke	-11.1844
▁vandalen	-11.1845
▁luchtdruk	-11.1846
moer	-11.1847
▁marcus	-11.1849
++	-11.1849
▁ny	-11.1852
▁ideologisch	-11.1857
600	-11.1858
▁zomers	-11.1863
▁maag	-11.1863
▁onderverdeling	-11.1867
▁fries	-11.1867
▁drong	-11.1871
▁aandoening	-11.1872
sluit	-11.1881
sproces	-11.1887
▁engelsen	-11.1887
miss	-11.1891
▁run	-11.1897
▁vlek	-11.1897
straal	-11.1904
▁voorganger	-11.1905
ouder	-11.1909
▁scheeps	-11.1911
▁stoel	-11.1912
droeg	-11.1914
gestuurd	-11.1917
provincie	-11.1917
▁smal	-11.1918
▁mini	-11.1926
▁maagd	-11.1926
▁spechten	-11.1926
fragment	-11.1934
▁claudius	-11.1936
▁heydrich	-11.1936
▁tsjechië	-11.1936
▁voortzetting	-11.1936
▁bondsrepubliek	-11.1936
▁verticale	-11.1936
▁vertellen	-11.1936
▁gesloopt	-11.1936
▁haaien	-11.1938
▁renners	-11.1938
▁vervuld	-11.1939
▁sterft	-11.194
▁hinder	-11.194
▁grotten	-11.1943
▁waterschappen	-11.1944
▁prix	-11.1944
lood	-11.1947
▁omringd	-11.1947
▁taalgebruik	-11.1949
▁sluis	-11.1949
▁gla	-11.1954
▁opnemen	-11.1955
▁statistische	-11.196
▁omgeven	-11.196
▁1860	-11.1962
▁aangevoerd	-11.1963
▁luidt	-11.1965
▁geroepen	-11.1966
▁mist	-11.1968
▁silicium	-11.1971
place	-11.1972
lip	-11.1974
oti	-11.1978
▁fc	-11.1985
▁kostte	-11.1986
▁groeperingen	-11.1986
▁pin	-11.1987
comm	-11.1988
geloof	-11.199
sky	-11.1992
▁meso	-11.1992
▁mot	-11.1993
gaven	-11.1997
▁fre	-11.1998
getal	-11.1999
bomen	-11.2002
verhaal	-11.2003
▁cop	-11.2008
unc	-11.2008
▁klinker	-11.2009
▁arch	-11.201
▁blanke	-11.2011
▁vissers	-11.2012
ack	-11.2015
object	-11.2019
▁marcel	-11.2021
vlucht	-11.2022
verlies	-11.2023
vita	-11.2024
lab	-11.2028
▁...	-11.2029
▁kansen	-11.2029
▁tsjecho	-11.2031
▁officieren	-11.2032
gelovig	-11.2035
yr	-11.2036
▁geformuleerd	-11.2036
▁hoessein	-11.2036
▁katalysator	-11.2036
▁michaël	-11.2036
▁uitgevonden	-11.2036
columbia	-11.2036
▁genoteerd	-11.2036
▁fermat	-11.2036
▁ontstane	-11.2036
▁hemellichamen	-11.2036
▁plateau	-11.2037
▁nigeria	-11.2037
▁stierven	-11.2038
▁meegenomen	-11.2039
▁university	-11.2039
▁germanen	-11.2039
▁zaten	-11.2041
▁getaltheorie	-11.2042
▁opgeleid	-11.2043
▁wieringen	-11.2043
▁én	-11.2044
▁tijdelijke	-11.2045
▁gnu	-11.2046
▁grot	-11.2049
clubs	-11.2049
▁verkort	-11.2052
▁stu	-11.2055
kool	-11.2056
▁who	-11.2057
reg	-11.206
▁rede	-11.2064
hil	-11.2068
ijk	-11.2072
▁geloofde	-11.2074
▁vraagt	-11.2075
▁criteria	-11.2076
▁cultus	-11.2077
▁zeil	-11.2077
▁contra	-11.2078
inck	-11.2079
▁situaties	-11.2082
▁dublin	-11.2082
schade	-11.2084
▁verving	-11.2084
▁gemeen	-11.209
▁isaak	-11.209
▁minst	-11.2092
ffer	-11.2093
▁mur	-11.2095
wei	-11.21
▁print	-11.2108
zakken	-11.2109
="30	-11.2109
▁ballen	-11.211
ition	-11.2111
pact	-11.2112
verre	-11.2115
▁dante	-11.2115
software	-11.2117
▁consul	-11.2118
▁natural	-11.2123
bewerking	-11.2128
▁hoeveel	-11.2136
▁aangekondigd	-11.2137
▁bestudeert	-11.2137
▁iraakse	-11.2137
▁libanon	-11.2137
▁onjuist	-11.2137
▁meubel	-11.2137
▁halfgeleider	-11.2137
▁expressie	-11.2137
▁riemann	-11.2137
▁millimeter	-11.2138
▁blootstelling	-11.2138
▁nepal	-11.2139
▁ibn	-11.2141
zal	-11.2142
▁bisschoppen	-11.2143
▁beheerd	-11.2146
▁antieke	-11.2147
▁baltische	-11.2149
formatie	-11.2151
haai	-11.2154
server	-11.2158
▁dringen	-11.2159
▁bakker	-11.2161
▁standpunt	-11.2164
hoge	-11.2166
verband	-11.2167
▁gering	-11.2168
▁laden	-11.2169
▁hulpmiddel	-11.2174
▁gesteenten	-11.2176
ness	-11.2184
▁aardse	-11.2184
▁part	-11.2186
▁liberalen	-11.219
▁franz	-11.2194
vluchten	-11.2201
tegenwoordigers	-11.2201
▁intrede	-11.2202
▁vochtig	-11.2207
▁geschiedschrijv	-11.2209
breng	-11.2212
▁seth	-11.2212
sluiten	-11.2213
▁beval	-11.2223
▁grave	-11.2225
▁adam	-11.2225
bodem	-11.2225
alexander	-11.2226
fries	-11.2229
▁doe	-11.223
▁historie	-11.2232
▁leraar	-11.2239
▁eoceen	-11.2239
▁faeröer	-11.2239
▁gedetailleerd	-11.2239
▁onregelmatig	-11.2239
▁ooievaar	-11.2239
▁radioactief	-11.2239
▁conventie	-11.2239
▁atelier	-11.2239
▁astrid	-11.2239
▁linux	-11.2239
▁sgp	-11.2239
▁niettemin	-11.224
trommel	-11.224
▁bijgedragen	-11.224
▁honger	-11.224
▁edward	-11.224
▁stevin	-11.224
▁begrensd	-11.224
▁medewerkers	-11.2242
▁bacterie	-11.2242
▁woud	-11.2242
▁broncode	-11.2243
▁vruchten	-11.2243
▁doctor	-11.2244
▁geslaagd	-11.2245
▁richtten	-11.2246
▁babylonische	-11.2246
▁planck	-11.2249
▁materieel	-11.225
basiliek	-11.225
▁walter	-11.2251
▁controleren	-11.2252
sluis	-11.2253
▁klachten	-11.2254
▁rec	-11.2256
struik	-11.2256
▁1867	-11.226
cross	-11.2263
mund	-11.2264
▁welzijn	-11.2265
▁will	-11.2267
▁overgrote	-11.2271
▁ionen	-11.2271
oever	-11.2275
▁emi	-11.2276
▁gunstige	-11.2279
▁karakteristieke	-11.228
▁sex	-11.2281
▁ontdekkingen	-11.2292
▁hein	-11.2296
▁geliefd	-11.2316
▁priesters	-11.2319
▁doelen	-11.2319
▁bezetten	-11.232
greep	-11.233
traditie	-11.2332
camera	-11.2332
filosofie	-11.2332
▁legden	-11.2334
▁autoriteiten	-11.2335
▁nassau	-11.2338
▁noorse	-11.2338
▁eindigen	-11.2339
prijzen	-11.2339
▁arriveerde	-11.2342
▁dirigent	-11.2342
▁hongaren	-11.2342
▁inwendige	-11.2342
▁referentie	-11.2342
▁snoek	-11.2342
▁geregeerd	-11.2342
▁weduwe	-11.2342
▁regionaal	-11.2342
▁bevolkingsgroei	-11.2343
dorf	-11.2343
▁schonk	-11.2343
▁hemellichaam	-11.2343
arabië	-11.2343
staart	-11.2343
silezië	-11.2343
▁liever	-11.2343
▁gelovigen	-11.2344
▁ouderdom	-11.2345
▁motieven	-11.2345
▁melkweg	-11.2345
▁thailand	-11.2345
▁zeespiegel	-11.2346
luizen	-11.2346
▁dubbelspel	-11.2347
class	-11.2347
gespeeld	-11.2349
▁brabantse	-11.2362
mantel	-11.2363
ijd	-11.2364
▁neven	-11.2365
▁song	-11.2366
▁beeldhouwer	-11.2375
▁leken	-11.2375
▁oevers	-11.2376
▁integratie	-11.2383
▁strikte	-11.239
▁adviseur	-11.239
drager	-11.2395
gesproken	-11.2397
veel	-11.2402
pur	-11.2402
▁splitsing	-11.2402
▁atp	-11.2406
▁aqua	-11.2411
▁turks	-11.2416
nijverheid	-11.2417
▁hill	-11.242
▁laatst	-11.2422
▁verkeerde	-11.2423
▁standpunten	-11.2431
▁beer	-11.2437
dynastie	-11.2438
vragen	-11.2438
▁borg	-11.244
voorheen	-11.2441
fysiologie	-11.2447
▁dreiging	-11.2447
▁vegetatie	-11.2447
▁wetgevende	-11.2447
▁ronald	-11.2447
▁uitsterven	-11.2447
piloot	-11.2447
▁bioscoop	-11.2447
▁veeteelt	-11.2447
▁verantwoord	-11.2447
▁onverwacht	-11.2447
▁airport	-11.2448
▁tevoren	-11.2448
▁octaaf	-11.2448
▁south	-11.2448
bloed	-11.2448
batterij	-11.2449
▁regiment	-11.2449
▁opgevat	-11.2449
tamelijk	-11.245
▁verdiend	-11.245
▁gogh	-11.245
▁kanalen	-11.2452
second	-11.2453
▁gauw	-11.2453
▁christian	-11.2453
▁clo	-11.2454
vanaf	-11.2455
leiders	-11.2455
▁ondergrondse	-11.2458
▁presidentschap	-11.2459
▁verenigingen	-11.2459
wich	-11.246
bladen	-11.2465
grijze	-11.247
▁maarten	-11.247
riek	-11.2475
▁hirs	-11.2475
held	-11.2476
phan	-11.2476
▁liga	-11.2477
iff	-11.2479
▁beslissende	-11.2486
▁up	-11.2486
▁sticht	-11.2487
▁gemakkelijker	-11.2487
▁with	-11.2489
▁finales	-11.2491
adres	-11.2492
kevers	-11.2493
▁intern	-11.2493
▁emil	-11.2495
ain	-11.2506
hab	-11.2513
▁vaar	-11.2517
bir	-11.2518
zang	-11.2519
▁acteurs	-11.2519
gedrukt	-11.2521
levering	-11.2525
▁geloofs	-11.2535
▁geb	-11.2536
▁bovenste	-11.2537
kat	-11.2539
▁waalse	-11.254
▁hyper	-11.2541
ergens	-11.2542
uiken	-11.2543
vallei	-11.2543
district	-11.2545
paleis	-11.2546
kwaliteit	-11.2546
▁vracht	-11.2552
fosfaat	-11.2552
▁controverse	-11.2552
▁geprobeerd	-11.2552
▁gevoegd	-11.2552
▁luitenant	-11.2552
▁drastisch	-11.2552
▁toevallig	-11.2552
▁genetisch	-11.2552
▁belofte	-11.2553
muizen	-11.2553
▁verouderd	-11.2553
▁opmerking	-11.2554
▁ambassadeur	-11.2554
knoop	-11.2554
▁vos	-11.2559
▁queen	-11.2559
opstand	-11.256
link	-11.2561
▁hogeschool	-11.2561
450	-11.2562
▁1909	-11.2563
,6%	-11.2563
▁waardering	-11.2564
▁middelpunt	-11.2565
▁stille	-11.2565
▁ooster	-11.2565
▁emma	-11.2566
▁grof	-11.2569
▁andersom	-11.2572
werkingsverband	-11.2573
waardige	-11.2576
▁korps	-11.2577
▁nm	-11.2578
▁stok	-11.2578
▁milaan	-11.2581
▁keur	-11.2582
▁propaganda	-11.2584
▁particuliere	-11.2587
▁zouten	-11.259
▁uitgesloten	-11.2591
tochten	-11.2594
▁pseudo	-11.2596
▁afwijkingen	-11.2596
▁droegen	-11.2596
▁voorspeld	-11.2598
ïsme	-11.26
▁hil	-11.2602
▁draag	-11.2609
huid	-11.2609
▁praktisch	-11.261
▁maya	-11.261
▁verdacht	-11.2611
▁lek	-11.2614
▁gunstig	-11.2614
hing	-11.2617
▁schulden	-11.2617
wald	-11.2618
▁geologie	-11.262
▁genesis	-11.2628
▁bast	-11.2629
ania	-11.2631
▁doeleinden	-11.2636
▁oplossingen	-11.2636
▁voerden	-11.264
laden	-11.2641
▁import	-11.2643
,4%	-11.2644
▁oudst	-11.2645
▁key	-11.2646
▁vulkaan	-11.2658
▁algerije	-11.2658
▁bidsprinkhanen	-11.2658
▁foundation	-11.2658
▁kroatië	-11.2658
▁videoclip	-11.2658
▁gitaar	-11.2658
▁hardware	-11.2658
▁prestaties	-11.2658
▁apostel	-11.2658
▁codice	-11.2658
▁verdieping	-11.2658
▁besmetting	-11.2659
▁afzetting	-11.2659
strip	-11.266
face	-11.2661
stammen	-11.2662
operatie	-11.2663
reglement	-11.2664
▁melding	-11.2665
▁wisselen	-11.2666
▁1903	-11.2666
▁online	-11.2667
▁schets	-11.2671
zucht	-11.2672
scherp	-11.2672
▁1600	-11.2673
▁uitgeschakeld	-11.2675
▁landschappen	-11.2675
zaak	-11.2676
bok	-11.2677
▁thai	-11.2679
▁aero	-11.268
spoel	-11.268
voertuigen	-11.2681
▁bie	-11.269
▁gouwe	-11.2691
▁roof	-11.2691
4.000	-11.2691
awa	-11.2695
▁tanden	-11.2696
linie	-11.2698
▁reliëf	-11.2698
▁20%	-11.2698
▁heerst	-11.2705
▁hiv	-11.2708
▁wiel	-11.2713
sub	-11.2716
reus	-11.2717
▁volwassenen	-11.2718
head	-11.2718
▁nova	-11.2722
ml	-11.2722
▁student	-11.2722
▁vinger	-11.2723
rische	-11.2723
rain	-11.2724
▁willekeurig	-11.2726
▁symbolische	-11.2727
▁alfa	-11.2727
▁ontvanger	-11.2729
▁server	-11.2732
▁kei	-11.2738
▁oostende	-11.2741
▁schaduw	-11.2741
üs	-11.2741
▁(9	-11.2741
▁apparaat	-11.2741
▁beginsel	-11.2742
▁henk	-11.2746
hur	-11.2748
hagen	-11.2751
▁chu	-11.2754
eerbaar	-11.2755
▁metingen	-11.2755
▁pantser	-11.2756
▁verklaringen	-11.276
▁vechten	-11.2761
vlakken	-11.2761
zuiver	-11.2763
carrière	-11.2764
sinds	-11.2765
▁browser	-11.2766
▁bulgarije	-11.2766
▁kaukasus	-11.2766
▁nsdap	-11.2766
▁perspectief	-11.2766
▁uitgeoefend	-11.2766
▁beschouwt	-11.2766
▁oudenaarde	-11.2766
▁imago	-11.2766
▁verdrongen	-11.2766
▁betrouwbaar	-11.2766
▁job	-11.2766
▁tezamen	-11.2766
▁rtl	-11.2766
▁petrus	-11.2767
▁warmer	-11.2768
▁woordenschat	-11.2768
▁patrick	-11.2768
▁disco	-11.2768
kanker	-11.2769
▁ruiter	-11.277
▁kamerlid	-11.277
▁trof	-11.2771
▁volkstelling	-11.2771
polis	-11.2772
▁achterhoek	-11.2773
arc	-11.2774
▁discipline	-11.2774
▁kilo	-11.2775
▁fluor	-11.2776
▁verward	-11.2777
▁nederduits	-11.2778
▁kruiden	-11.278
maatschappijen	-11.278
▁blog	-11.278
staf	-11.2785
▁mieren	-11.2786
▁40%	-11.2788
psi	-11.2788
▁afgerond	-11.2793
belang	-11.2795
wording	-11.2796
▁dertiende	-11.2796
▁voorspellen	-11.2797
vliet	-11.2797
▁langdurig	-11.2797
▁1840	-11.2798
▁geschied	-11.2798
gier	-11.28
▁licentie	-11.2801
▁heerste	-11.2802
woog	-11.2802
▁ondergebracht	-11.2803
balk	-11.2805
▁karper	-11.2809
regen	-11.2811
▁rozen	-11.2812
gard	-11.2813
▁parachute	-11.2818
orgaan	-11.2827
mogelijkheden	-11.2828
asso	-11.2829
ijzer	-11.2837
▁consumptie	-11.2837
▁sectoren	-11.2844
▁chal	-11.285
▁afgekort	-11.2854
▁zeventien	-11.2861
▁rustig	-11.2861
▁sir	-11.2865
vet	-11.2869
▁natte	-11.2871
▁bekritiseerd	-11.2874
▁geïnterpreteerd	-11.2874
▁slavernij	-11.2874
▁ontvangt	-11.2874
▁transistor	-11.2874
▁perzië	-11.2874
▁opvolging	-11.2874
▁exponent	-11.2875
▁eén	-11.2875
▁hindoeïsme	-11.2875
▁normandië	-11.2875
▁afmetingen	-11.2875
▁eyck	-11.2875
▁kometen	-11.2875
▁röntgenstraling	-11.2875
▁volksrepubliek	-11.2875
▁garros	-11.2876
▁strijdkrachten	-11.2876
▁vloed	-11.2877
▁gevangenschap	-11.2877
▁vruchtbaarheid	-11.2877
lock	-11.2878
▁schat	-11.2878
▁black	-11.2878
winkel	-11.288
tallen	-11.2882
▁elektrisch	-11.2882
poging	-11.2883
▁breda	-11.2883
▁negende	-11.2883
▁communistisch	-11.2885
▁anc	-11.2885
gedrag	-11.2886
▁versterkte	-11.2887
schil	-11.2891
zeker	-11.2892
▁rocky	-11.2893
▁benodigde	-11.2893
▁driehoek	-11.2894
▁helm	-11.2898
gevoelig	-11.2899
▁christ	-11.29
▁vakbond	-11.2902
▁divers	-11.2902
▁dansen	-11.2904
▁gerelateerd	-11.2906
▁waterschap	-11.2908
▁lichamelijke	-11.2908
▁voordelen	-11.2909
▁hiërarchie	-11.291
far	-11.2912
schaft	-11.2917
▁klimt	-11.2917
▁disc	-11.2921
doek	-11.2921
▁mach	-11.2922
arius	-11.2923
▁koreaanse	-11.2923
▁uitbreken	-11.2923
▁kiezers	-11.2924
1,2	-11.2926
▁goten	-11.293
ermee	-11.2931
▁neutraal	-11.2932
▁aanpak	-11.2938
▁tho	-11.2939
▁force	-11.2942
teller	-11.2943
▁voer	-11.2945
ader	-11.2946
sint	-11.2947
ionele	-11.2948
▁bridge	-11.2949
▁bewerkingen	-11.2953
kapel	-11.2953
fractie	-11.2955
structure	-11.2957
getallen	-11.2962
▁voorkwam	-11.2969
swijziging	-11.297
seksualiteit	-11.297
▁leon	-11.2972
▁rel	-11.2977
▁mit	-11.2977
▁normen	-11.2977
▁cru	-11.2979
slowakije	-11.2981
snijden	-11.2982
▁ondergang	-11.2982
▁dé	-11.2982
liefhebber	-11.2984
▁aantrekkelijk	-11.2984
▁ethiopië	-11.2984
▁gedomineerd	-11.2984
▁greenpeace	-11.2984
▁gyatso	-11.2984
▁ondergeschikt	-11.2984
▁bohemen	-11.2984
▁pensioen	-11.2984
▁sultan	-11.2984
▁treffen	-11.2984
▁stijgt	-11.2984
▁essay	-11.2984
▁heftig	-11.2984
▁verhogen	-11.2984
homo	-11.2984
▁heersende	-11.2984
▁gedaald	-11.2984
▁henin	-11.2985
▁webpagina	-11.2985
▁bernhard	-11.2985
persoon	-11.2985
▁vakantie	-11.2985
typen	-11.2985
▁voorspelling	-11.2986
▁romaanse	-11.2986
▁fragmenten	-11.2986
▁platina	-11.2986
▁koepel	-11.2986
▁gerrit	-11.2987
▁dommel	-11.2987
▁bali	-11.2987
balkenende	-11.2987
▁nationalisten	-11.2987
appel	-11.2987
▁wettelijk	-11.2988
▁toenmalig	-11.2988
studie	-11.2989
▁literair	-11.2989
aangrenzende	-11.299
▁groente	-11.2994
iva	-11.2994
▁schuil	-11.2995
const	-11.2997
▁bondgenoot	-11.2997
▁fluit	-11.3001
▁octa	-11.3001
▁ordening	-11.3003
any	-11.3006
▁geluiden	-11.3007
▁socialisten	-11.3009
▁maandag	-11.3009
▁veertiende	-11.3015
giet	-11.3021
▁verzamelingen	-11.3021
▁heldere	-11.3022
boten	-11.3029
metrie	-11.3029
▁begroting	-11.303
rim	-11.3038
▁noordoost	-11.3048
echte	-11.3053
▁bekken	-11.3054
▁hat	-11.3054
▁signalen	-11.3055
▁benamingen	-11.3058
mac	-11.3065
▁favoriete	-11.3065
4)	-11.3071
gul	-11.3078
▁kopie	-11.3078
▁cura	-11.3078
▁republikein	-11.308
▁harder	-11.3081
▁beweerd	-11.3082
never	-11.3087
▁roze	-11.309
▁zacht	-11.3094
▁baard	-11.3095
▁autosnelweg	-11.3095
▁chinezen	-11.3095
▁verscheidenheid	-11.3095
▁actrice	-11.3095
barrière	-11.3096
ades	-11.3096
▁relevant	-11.3096
▁geboden	-11.3096
▁gestopt	-11.3096
▁aanraking	-11.3096
▁herkenbaar	-11.3096
▁gebarentaal	-11.3096
▁duurzame	-11.3096
▁zomerspelen	-11.3097
document	-11.3099
nassau	-11.3101
▁staf	-11.3101
bescherming	-11.3101
▁handhaven	-11.3102
▁noors	-11.3102
rollen	-11.3102
▁patent	-11.3103
▁afgesproken	-11.3104
▁helderheid	-11.3104
▁zozeer	-11.3106
radio	-11.3106
▁schoonheid	-11.3106
▁fabrieken	-11.3114
▁voeten	-11.3117
staatssecretaris	-11.3122
ock	-11.3124
▁feestdag	-11.3127
▁edelen	-11.3127
▁verhit	-11.3127
▁doorgevoerd	-11.3129
▁fred	-11.313
▁willy	-11.313
▁lok	-11.3131
▁sky	-11.3131
ière	-11.3132
▁vertalen	-11.3132
▁overdracht	-11.3132
▁verwerken	-11.3134
▁market	-11.3134
bekken	-11.3141
▁maxim	-11.3141
▁schuldig	-11.3142
▁eindelijk	-11.3144
▁site	-11.3146
▁evenement	-11.3148
▁uitleg	-11.3152
▁kwalificatie	-11.3154
▁machtige	-11.3157
▁werkgevers	-11.3159
plassen	-11.316
kleurig	-11.316
▁hevige	-11.3164
▁zachte	-11.3167
▁els	-11.3168
–20	-11.317
▁1,5	-11.3172
bv	-11.3182
dragers	-11.3185
▁liggende	-11.3187
▁vermogens	-11.3188
▁verlieten	-11.3196
weken	-11.3197
▁aardewerk	-11.3198
▁oudgrieks	-11.3199
kade	-11.3202
standaard	-11.3207
▁archeologen	-11.3208
▁joegoslavië	-11.3208
▁maurice	-11.3208
▁medicijnen	-11.3208
▁mesopotamië	-11.3208
▁roosevelt	-11.3208
▁stimuleren	-11.3208
▁wederzijds	-11.3208
▁egyptenaren	-11.3208
▁houston	-11.3208
▁schoot	-11.3208
▁openbaring	-11.3208
▁nikkel	-11.3208
▁bolivia	-11.3208
▁wraak	-11.3208
▁innovatie	-11.3209
geblazen	-11.3209
▁toonladder	-11.3209
▁uitgerust	-11.3209
▁bestrijden	-11.3209
▁cbs	-11.3209
▁versneld	-11.321
geest	-11.321
▁europeanen	-11.321
paren	-11.321
▁bohr	-11.3211
▁tachtigjarige	-11.3211
▁kartel	-11.3212
monument	-11.3214
▁twaalfde	-11.3214
▁bocht	-11.3215
▁apartheid	-11.3216
▁romantische	-11.3216
▁bekeerd	-11.3216
technologie	-11.3216
germaans	-11.3216
isotopen	-11.3216
▁gematigd	-11.3217
itter	-11.3217
▁betwist	-11.3217
▁droom	-11.3217
▁realisme	-11.3217
guyana	-11.3219
melo	-11.322
republiek	-11.3221
homoseksualiteit	-11.3223
berlijn	-11.3225
▁toernooien	-11.3226
▁stereo	-11.3226
▁zeewater	-11.3228
bommen	-11.323
_8	-11.323
▁veroverden	-11.3233
▁dominee	-11.3237
▁woonplaats	-11.324
▁voorgangers	-11.3244
7.000	-11.3244
pyr	-11.3244
pak	-11.3246
▁vreemd	-11.3247
000	-11.325
▁duik	-11.3254
▁besmette	-11.3254
ín	-11.3255
▁schenk	-11.3256
projecten	-11.3258
recept	-11.3259
▁fasen	-11.3264
anth	-11.3266
▁natuurgebieden	-11.3268
▁kanten	-11.3279
▁manager	-11.328
▁landskampioen	-11.3281
guard	-11.3289
▁larve	-11.3295
rechter	-11.3296
▁marg	-11.3296
ref	-11.3305
hoogte	-11.331
lager	-11.331
▁landgoed	-11.3312
▁gematigde	-11.3314
bevolking	-11.3316
lio	-11.3318
span	-11.3319
▁barcelona	-11.3321
▁bataafs	-11.3321
▁elizabeth	-11.3321
▁expressionisme	-11.3321
▁soundtrack	-11.3321
▁spectaculair	-11.3321
▁tacitus	-11.3321
▁uitoefenen	-11.3321
▁rutherford	-11.3321
▁prehistorie	-11.3321
▁vervanging	-11.3321
▁verheven	-11.3322
▁bemanning	-11.3322
▁bekeken	-11.3322
church	-11.3322
▁eurovisie	-11.3322
▁grammy	-11.3322
▁liefst	-11.3323
▁group	-11.3323
▁bestemd	-11.3323
nominatie	-11.3324
▁onderdrukt	-11.3324
▁brandstoffen	-11.3324
strook	-11.3325
▁brouwerij	-11.3327
▁helden	-11.3328
▁begrepen	-11.3328
symbool	-11.3333
▁jolie	-11.3334
stadion	-11.3335
▁rook	-11.3337
▁adres	-11.3338
schakeling	-11.3339
▁play	-11.3339
▁2,5	-11.3342
▁onderliggende	-11.3342
▁keu	-11.3346
▁afnemen	-11.3348
▁vergelijkingen	-11.3351
otter	-11.3354
aantal	-11.3358
▁aex	-11.3358
▁sociaaldemocrat	-11.336
▁geneesmiddelen	-11.3361
▁schaatsen	-11.3364
vall	-11.3366
schaats	-11.3367
tekst	-11.3368
▁noodzaak	-11.3371
vb	-11.3373
sgeschiedenis	-11.3374
▁draaide	-11.3375
▁beschrijvingen	-11.338
▁blik	-11.3383
▁compiler	-11.3387
vorst	-11.339
evolutionaire	-11.339
▁form	-11.3393
▁verzen	-11.3399
processen	-11.3401
opname	-11.3403
▁eems	-11.3405
aert	-11.3412
tallig	-11.3412
▁pier	-11.3419
▁lenin	-11.3424
▁medici	-11.3425
▁binden	-11.3426
▁khan	-11.343
deutsch	-11.3431
▁wad	-11.3433
▁slowakije	-11.3434
▁deelnemen	-11.3434
▁goedkoper	-11.3436
katholicisme	-11.3436
klarinet	-11.3436
▁bretagne	-11.3436
▁galileo	-11.3436
▁produceert	-11.3436
▁programmeren	-11.3436
▁restauratie	-11.3436
symmetrie	-11.3436
▁klinkt	-11.3436
▁behoorlijk	-11.3436
▁celsius	-11.3437
▁omvangrijke	-11.3438
▁bediend	-11.3438
▁minimal	-11.3438
▁daalt	-11.3438
▁volkslied	-11.3438
▁mutatie	-11.3438
▁focus	-11.3439
cio	-11.3442
▁rijksdag	-11.3443
▁krachtig	-11.3443
▁gevaarlijke	-11.3445
▁90%	-11.3445
terminal	-11.3449
oudgrieks	-11.345
controle	-11.3451
▁zwaard	-11.3453
▁toespraak	-11.3454
▁bestuurlijk	-11.3456
▁trias	-11.3458
▁duck	-11.3459
rh	-11.3459
▁1896	-11.3459
▁afwijkende	-11.346
▁hoefde	-11.3463
▁1200	-11.3466
stadt	-11.3467
▁monte	-11.3468
▁vlieger	-11.3468
▁wetsvoorstel	-11.3469
▁kri	-11.3473
▁vecht	-11.3475
▁geliefde	-11.3475
olen	-11.3478
jager	-11.3479
▁toeschouwers	-11.348
▁distributie	-11.3482
▁schel	-11.3482
▁systematisch	-11.3483
▁mg	-11.3489
▁weder	-11.3489
maand	-11.3492
▁bibliotheken	-11.3505
▁schadelijke	-11.351
groeve	-11.3513
▁meldde	-11.3514
koor	-11.3517
13)	-11.3518
oniem	-11.3528
script	-11.3533
650	-11.3544
thal	-11.3544
itische	-11.3545
▁tracht	-11.3553
▁garnizoen	-11.3553
▁bachelor	-11.3553
▁consensus	-11.3553
▁jiddisch	-11.3553
▁kolonisatie	-11.3553
▁logistiek	-11.3553
▁ontbreekt	-11.3553
▁progressieve	-11.3553
▁python	-11.3553
▁streefde	-11.3553
▁wekelijks	-11.3553
▁ardennen	-11.3553
▁google	-11.3553
▁verbannen	-11.3553
▁dwingen	-11.3553
▁doesburg	-11.3553
▁naoorlogse	-11.3553
▁gezorgd	-11.3553
▁naargelang	-11.3553
▁identiek	-11.3553
▁bezighoudt	-11.3554
▁ideaal	-11.3554
▁dienstplicht	-11.3555
factoren	-11.3556
proeven	-11.3557
▁botsing	-11.3558
▁humor	-11.3558
▁kampioenschap	-11.3558
slepen	-11.3558
▁fruitvlieg	-11.3558
▁roepen	-11.3559
▁broeden	-11.3561
▁grootvader	-11.3562
graf	-11.3562
modern	-11.3567
cirkel	-11.3569
klooster	-11.3569
▁fans	-11.3571
▁arc	-11.3572
ficeerd	-11.3575
gur	-11.3576
▁1879	-11.3577
frequentie	-11.3579
–18	-11.358
oda	-11.3581
▁1885	-11.3584
maan	-11.3596
▁vriendschap	-11.3599
▁sprong	-11.36
bakken	-11.3605
▁bereikten	-11.3606
▁gereden	-11.3609
achi	-11.3611
▁boor	-11.3613
▁doch	-11.3623
▁tijdschriften	-11.3624
board	-11.3627
long	-11.3636
landse	-11.3637
▁verminderde	-11.3637
▁rijen	-11.3639
spreidingsgebied	-11.3641
vangst	-11.3643
predi	-11.3647
staten	-11.3653
▁pc	-11.3656
▁duo	-11.3662
hou	-11.367
▁bevorderd	-11.367
▁chinees	-11.367
▁confrontatie	-11.367
▁materiële	-11.367
▁olifanten	-11.367
▁vulkanen	-11.367
▁geholpen	-11.367
▁vooraanstaande	-11.367
▁constitutione	-11.367
▁oplossen	-11.3671
kolonel	-11.3671
▁maxwell	-11.3671
▁korter	-11.3671
▁vries	-11.3671
▁muzikanten	-11.3672
▁gelijkenis	-11.3672
▁derhalve	-11.3673
▁origineel	-11.3673
▁reikt	-11.3675
▁gun	-11.3675
▁westkust	-11.3675
▁high	-11.3678
▁liederen	-11.3678
▁1907	-11.3679
▁jones	-11.3682
officier	-11.3689
record	-11.3689
situatie	-11.369
▁eredienst	-11.369
papier	-11.3692
▁dames	-11.3699
getrouw	-11.3701
ison	-11.3702
▁bekendstaat	-11.3706
▁geert	-11.3713
▁wiskundigen	-11.3717
handelingen	-11.3718
800	-11.3719
vakken	-11.3719
▁aanpassing	-11.3723
▁(0,	-11.3723
itair	-11.3725
zeer	-11.3726
▁beschermde	-11.3731
hai	-11.3732
ques	-11.3732
indische	-11.3733
▁bewerking	-11.3735
▁ringen	-11.3735
bier	-11.3739
web	-11.3745
▁scala	-11.3747
vriendelijk	-11.3762
▁regelen	-11.3767
▁trainer	-11.3769
▁erik	-11.3777
▁cover	-11.3778
▁integraal	-11.3779
▁staken	-11.3787
▁toneelstuk	-11.3787
▁ambassade	-11.3787
▁noorder	-11.3789
reservaten	-11.3789
▁gesplitst	-11.3789
▁omgevormd	-11.3789
▁pseudoniem	-11.3789
▁taliban	-11.3789
▁earring	-11.3789
▁vervullen	-11.3789
▁erfenis	-11.3789
▁kelvin	-11.379
▁japanners	-11.379
▁ijshockey	-11.379
▁supporters	-11.379
spor	-11.379
▁roofdieren	-11.379
▁andrea	-11.379
▁televisieserie	-11.3791
▁snaren	-11.3791
verzekering	-11.3792
▁kaapstad	-11.3792
▁ontvangst	-11.3792
episode	-11.3792
▁fotografie	-11.3792
▁harp	-11.3793
▁agent	-11.3793
schutter	-11.3793
▁zoektocht	-11.3794
▁priem	-11.3794
▁primaten	-11.3794
▁zuidpool	-11.3794
▁gebruikmaken	-11.3799
▁vloog	-11.38
instellingen	-11.38
▁wouter	-11.3801
▁gepland	-11.3802
cap	-11.3804
▁beroemdste	-11.3804
european	-11.3806
oxy	-11.381
nationaal	-11.3811
twintig	-11.3812
▁elbe	-11.3813
fir	-11.3813
▁opzet	-11.3815
▁moleculaire	-11.3817
▁split	-11.3819
sporen	-11.3824
▁zeeën	-11.3826
▁vulkanische	-11.3829
rug	-11.3831
▁kolen	-11.3834
▁110	-11.3834
▁stichtten	-11.3836
▁belegerd	-11.3838
trokken	-11.3838
verbod	-11.3839
audi	-11.3841
▁kapitaal	-11.3842
▁spraken	-11.3844
krant	-11.3847
uf	-11.385
▁dru	-11.3851
▁vii	-11.3854
ova	-11.3858
wijzing	-11.3858
▁beïnvloeden	-11.3862
poly	-11.3862
▁zuider	-11.3862
spring	-11.3864
▁variaties	-11.3868
▁braken	-11.3869
▁voorzag	-11.3874
▁overschot	-11.3876
▁meisje	-11.3877
nauw	-11.388
▁resterend	-11.3882
▁intellectuele	-11.3883
▁sw	-11.3886
▁kanaän	-11.3886
lies	-11.3888
▁vliegende	-11.3889
▁rijp	-11.3892
▁leidse	-11.3897
neming	-11.3897
▁toeval	-11.3898
▁1895	-11.39
▁aardbevingen	-11.3902
bombardement	-11.3908
▁onderging	-11.3908
absorptie	-11.391
detective	-11.391
▁archimedes	-11.391
▁betrekkelijk	-11.391
▁demografische	-11.391
▁warschau	-11.391
▁andorra	-11.391
▁ruwweg	-11.391
▁tienduizenden	-11.391
▁tilburg	-11.391
▁pleegde	-11.391
▁inflatie	-11.391
▁toonhoogte	-11.3911
kanselier	-11.3911
▁intelligentie	-11.3912
geworpen	-11.3912
▁hulst	-11.3912
scot	-11.3912
▁realiseren	-11.3912
▁uitzending	-11.3913
regeling	-11.3917
▁wint	-11.3917
passage	-11.3918
▁kozen	-11.3919
makelaar	-11.392
_5	-11.3921
▁oxidatie	-11.3924
▁redden	-11.3925
▁daniel	-11.3925
▁herhaaldelijk	-11.393
▁seculiere	-11.3934
locatie	-11.3935
brussel	-11.3935
buurt	-11.3936
▁verreden	-11.3936
▁40.000	-11.3937
bia	-11.3939
▁achteraf	-11.394
▁luidspreker	-11.394
▁getuige	-11.394
wick	-11.395
leng	-11.3951
base	-11.3958
daags	-11.3967
▁real	-11.3967
roes	-11.3968
katholiek	-11.3969
thema	-11.3972
gemeenten	-11.3973
▁rituelen	-11.3977
▁kiest	-11.398
secundaire	-11.3986
▁afleveringen	-11.3991
▁verleende	-11.3998
leiden	-11.4001
▁uitwisseling	-11.4006
▁jon	-11.401
cep	-11.401
genomen	-11.4012
kok	-11.4015
▁dankt	-11.4015
▁alan	-11.4015
▁eva	-11.4017
social	-11.4026
▁moeras	-11.403
osaurus	-11.403
▁sittard	-11.4032
dimension	-11.4032
▁beschikbare	-11.4032
▁boeddha	-11.4032
▁cambridge	-11.4032
▁combineren	-11.4032
▁enthousiast	-11.4032
▁palestijnen	-11.4032
▁psalmen	-11.4032
▁significant	-11.4032
▁intensiteit	-11.4032
▁wijzigen	-11.4032
leverancier	-11.4032
▁catalaans	-11.4032
▁coureur	-11.4032
▁duidt	-11.4032
volleybal	-11.4032
▁gelukkig	-11.4032
▁telegraaf	-11.4032
▁preventie	-11.4032
▁aanmerking	-11.4032
▁gevangenisstraf	-11.4032
▁archief	-11.4032
▁nogmaals	-11.4033
pommeren	-11.4033
▁spits	-11.4033
▁horizontale	-11.4034
▁hoofdkantoor	-11.4034
▁vertrouwd	-11.4034
▁nergens	-11.4035
▁afgezien	-11.4035
▁dirk	-11.4035
▁julianus	-11.4035
▁details	-11.4038
▁thor	-11.4041
ative	-11.4046
▁achternaam	-11.4048
ledig	-11.4055
ensis	-11.4056
▁zure	-11.4056
drift	-11.4057
▁mooi	-11.4059
apparaat	-11.4059
▁big	-11.406
▁abd	-11.406
▁may	-11.4064
▁hardy	-11.4064
zan	-11.4066
▁gerechten	-11.4068
▁rebellen	-11.4069
▁180	-11.4076
ift	-11.4076
▁haat	-11.4077
▁bedragen	-11.4078
▁hevig	-11.4083
▁hum	-11.4083
eerste	-11.4083
grafen	-11.4085
▁afvoer	-11.4089
haf	-11.4089
▁bloeddruk	-11.409
▁overeenkomstig	-11.4091
▁synthese	-11.4096
▁merkte	-11.4097
halen	-11.4098
▁territorial	-11.4105
bellen	-11.4106
▁tekenaar	-11.4107
▁dominant	-11.411
▁ondersoorten	-11.4113
obi	-11.4115
▁gewassen	-11.4116
▁democratisch	-11.4119
▁peil	-11.412
▁boekje	-11.4134
▁word	-11.4136
▁jr	-11.4147
▁eenvoudiger	-11.415
speel	-11.4153
boulevard	-11.4155
▁alvorens	-11.4155
▁batavia	-11.4155
▁besproken	-11.4155
▁bonaparte	-11.4155
▁dionysos	-11.4155
▁italianen	-11.4155
▁synagoge	-11.4155
▁uitgenodigd	-11.4155
▁zeppelin	-11.4155
▁zorgvuldig	-11.4155
▁hindenburg	-11.4155
▁mogendheden	-11.4155
▁uniform	-11.4155
▁synthetisch	-11.4155
different	-11.4155
▁caribisch	-11.4155
▁ongewenst	-11.4155
▁orakel	-11.4155
▁street	-11.4155
▁leenwoorden	-11.4156
▁bewering	-11.4156
▁beleefde	-11.4156
▁verenigen	-11.4156
▁haast	-11.4156
▁kwetsbaar	-11.4156
▁vreemdelingen	-11.4156
▁accent	-11.4157
▁kleinzoon	-11.4158
stoornissen	-11.4158
▁dierlijke	-11.4159
▁schelp	-11.4159
▁effectieve	-11.4159
arbeiders	-11.416
▁herkend	-11.4161
▁winnaars	-11.4161
▁vrijwilligers	-11.4161
iii	-11.4162
▁zonlicht	-11.4163
cro	-11.4165
bundes	-11.4166
▁inwoneraantal	-11.4168
▁detail	-11.417
▁filter	-11.4172
▁afzonderlijk	-11.4173
knip	-11.4176
▁have	-11.4178
▁vandaan	-11.4178
academi	-11.4178
tain	-11.418
▁stortte	-11.4182
▁insect	-11.4182
▁giftige	-11.4186
▁72	-11.4187
▁cook	-11.4189
▁begeleiding	-11.4192
mur	-11.4193
moleculen	-11.4195
▁life	-11.4196
beurs	-11.4196
▁doorgegeven	-11.42
music	-11.4204
▁aflevering	-11.4206
▁30%	-11.4206
democra	-11.4207
medio	-11.4209
vliegen	-11.4209
blaze	-11.4209
sterren	-11.4211
21)	-11.4217
fout	-11.4219
▁kunstwerken	-11.422
bolwerk	-11.4226
rassen	-11.4227
jaarlijkse	-11.4229
▁verering	-11.4234
site	-11.4237
▁volwaardig	-11.4237
▁geestelijk	-11.4238
▁willekeurige	-11.4241
▁leeuwen	-11.4246
▁tramlijn	-11.4247
aq	-11.4258
teur	-11.4264
▁eric	-11.4268
▁grondig	-11.4272
▁bevoegd	-11.4274
teksten	-11.4278
hertogenbosch	-11.428
▁attractie	-11.428
▁caïro	-11.428
▁commentaar	-11.428
▁geïnstalleerd	-11.428
▁giovanni	-11.428
▁harrison	-11.428
▁universum	-11.428
▁atletiek	-11.428
▁barnsteen	-11.428
▁infrarood	-11.428
▁verwerven	-11.428
▁saoedi	-11.428
▁soldaat	-11.428
▁verkenning	-11.428
epidemie	-11.428
▁ongebruikelijk	-11.428
▁opleveren	-11.428
drempel	-11.428
▁waits	-11.428
▁sedert	-11.428
▁wijsheid	-11.4281
▁gedateerd	-11.4281
▁update	-11.4281
▁zichtbare	-11.4281
▁dvd	-11.4281
▁ruïne	-11.4281
▁baarlo	-11.4282
▁mondeling	-11.4283
poeder	-11.4285
▁ernest	-11.4286
▁dijken	-11.429
zegel	-11.4294
▁stak	-11.4295
▁levenswijze	-11.4296
▁corona	-11.4298
▁gunste	-11.4298
thé	-11.4302
▁lamp	-11.4303
▁peru	-11.4303
▁vermeldt	-11.4306
ontwikkelaar	-11.4307
▁sterkste	-11.4308
▁bouwden	-11.431
keizer	-11.4315
▁vervoerd	-11.432
zwart	-11.4321
▁aangeeft	-11.4322
▁discriminatie	-11.433
▁samba	-11.4334
oem	-11.4337
▁opgevoerd	-11.434
defini	-11.4342
aka	-11.4343
▁garde	-11.4344
▁denkt	-11.4345
gif	-11.4347
celli	-11.4348
ieën	-11.435
▁stern	-11.4351
▁uitbarsting	-11.4352
▁gekocht	-11.4353
schuif	-11.4355
bourg	-11.4356
▁opstellen	-11.4359
▁bezetter	-11.437
▁binnenlands	-11.437
▁kw	-11.4375
▁grootheid	-11.4377
quet	-11.4382
▁vergroting	-11.4386
uber	-11.4386
hell	-11.4387
stabiel	-11.4387
nota	-11.439
▁kara	-11.4391
▁graz	-11.4395
juridisch	-11.4405
▁samengestelde	-11.4406
perzisch	-11.4406
tax	-11.4406
▁appingedam	-11.4407
▁association	-11.4407
▁cézanne	-11.4407
▁dictatuur	-11.4407
▁gedoopt	-11.4407
▁kathedralen	-11.4407
▁magnitude	-11.4407
▁mobutu	-11.4407
▁portugezen	-11.4407
▁spontaan	-11.4407
▁surinaams	-11.4407
▁tsjechische	-11.4407
▁eenduidig	-11.4407
▁hobby	-11.4407
▁illustratie	-11.4407
▁edelgas	-11.4407
▁white	-11.4407
▁gewaardeerd	-11.4407
▁ontbrak	-11.4407
▁homerus	-11.4407
▁behandelen	-11.4407
▁soevereiniteit	-11.4407
▁bevolkt	-11.4408
trekker	-11.4408
▁strekt	-11.4408
▁cpn	-11.4408
▁heiligdom	-11.4408
▁verlenen	-11.4409
▁voelen	-11.4409
▁apparatuur	-11.4409
korrel	-11.4409
▁belegering	-11.441
▁bepalingen	-11.441
▁verlaagd	-11.4412
▁ozon	-11.4414
scheiding	-11.4415
▁gangbaar	-11.4416
tegenwoordig	-11.4416
▁keerden	-11.442
▁pakken	-11.4422
▁nieuwbouw	-11.4425
▁fysiek	-11.4427
▁carol	-11.4431
▁50%	-11.4432
▁1884	-11.4433
▁1891	-11.4433
▁130	-11.4435
▁producer	-11.4435
grepen	-11.4435
▁grafische	-11.4437
▁nabijheid	-11.4437
▁hindoes	-11.4438
producent	-11.4444
ulus	-11.4446
genesis	-11.4446
ongeluk	-11.4446
▁spellen	-11.4446
▁serieus	-11.4447
uz	-11.4448
meenschappelijk	-11.4448
▁lege	-11.4454
dynamische	-11.4455
servi	-11.4458
▁orden	-11.4461
▁kortere	-11.4463
constante	-11.4463
▁massaal	-11.4465
▁fris	-11.4468
▁bouwwerk	-11.4468
4,5	-11.4471
gilde	-11.4473
▁gewapende	-11.4474
▁eugen	-11.4474
▁perl	-11.448
▁halle	-11.4483
▁bonn	-11.4485
knop	-11.4488
▁kijkers	-11.4491
▁aanvang	-11.4492
pic	-11.4493
program	-11.4495
links	-11.4501
▁hei	-11.4501
▁blij	-11.4502
▁feestdagen	-11.4503
kno	-11.4503
▁aangetrokken	-11.4506
bruin	-11.451
shop	-11.451
▁betaal	-11.4515
koppeling	-11.4517
arab	-11.4519
krater	-11.4519
▁afwijken	-11.4526
wang	-11.4527
▁glad	-11.4532
restaurant	-11.4532
▁mosterd	-11.4535
▁pelgrim	-11.4535
chromosoom	-11.4535
▁absoluut	-11.4535
▁antoine	-11.4535
▁flevoland	-11.4535
▁hongersnood	-11.4535
▁mechanica	-11.4535
▁benoemen	-11.4535
▁stephen	-11.4535
▁kunstmest	-11.4535
▁opwarming	-11.4535
▁bekijken	-11.4535
potentiële	-11.4535
▁troef	-11.4535
geschoven	-11.4535
kleine	-11.4535
▁gebaren	-11.4535
▁stoffelijk	-11.4535
gewricht	-11.4535
▁redactie	-11.4536
▁hoofdplaats	-11.4536
▁corruptie	-11.4536
▁bezorgd	-11.4537
▁evenveel	-11.4537
▁isoleren	-11.4537
▁welvarend	-11.4537
▁sluizen	-11.4539
▁fifa	-11.454
▁voortgekomen	-11.454
▁besturen	-11.454
▁vreesde	-11.4542
▁1902	-11.4546
▁druppel	-11.4546
▁microscoop	-11.4546
▁verwijzingen	-11.4546
▁locke	-11.4547
▁steil	-11.4548
▁tuinbouw	-11.455
geeft	-11.4553
vlieg	-11.4553
gesprekken	-11.4554
▁geografisch	-11.4558
▁hitte	-11.4559
▁verzamelde	-11.456
treinen	-11.4562
▁1886	-11.4563
natur	-11.4563
▁theoretisch	-11.4563
▁slang	-11.4564
▁1871	-11.4564
ontwikkel	-11.4564
▁sr	-11.4569
▁sier	-11.4571
▁verminderd	-11.4572
▁opvoeding	-11.4572
xa	-11.4572
gewassen	-11.4576
probleem	-11.4577
transport	-11.4577
kenmerken	-11.4577
gedeelte	-11.458
▁vlakke	-11.4587
verwant	-11.4592
toernooien	-11.4593
method	-11.4594
frankisch	-11.4595
▁gru	-11.4595
▁gevecht	-11.4597
▁call	-11.4597
▁kabinetten	-11.46
▁tang	-11.4602
▁sara	-11.4604
morele	-11.4606
gast	-11.4607
▁coll	-11.4611
▁lip	-11.4612
tennis	-11.4613
▁aanpassingen	-11.4626
▁stier	-11.4626
bom	-11.4628
▁zwaardere	-11.4629
kaap	-11.464
▁schiet	-11.4642
▁blue	-11.4646
hey	-11.4655
▁mé	-11.4656
krans	-11.4656
▁tweeën	-11.4659
▁essentie	-11.466
chip	-11.4661
segment	-11.4663
evangeli	-11.4663
▁differentiaal	-11.4665
▁omwenteling	-11.4665
▁aartsbisschop	-11.4665
▁annexatie	-11.4665
▁bagdad	-11.4665
▁exemplaar	-11.4665
▁overheersing	-11.4665
▁scheidsrechter	-11.4665
▁ziekenhuizen	-11.4665
▁prestatie	-11.4665
▁scandinavische	-11.4665
▁wereldbeker	-11.4665
▁verwarren	-11.4665
▁onderworpen	-11.4665
secret	-11.4665
▁vector	-11.4665
▁huwde	-11.4665
buizen	-11.4665
▁klinisch	-11.4666
▁vergeten	-11.4666
▁honderdduizend	-11.4666
▁scheidde	-11.4668
▁bitter	-11.4669
▁uitkwam	-11.467
▁80%	-11.4671
▁wielen	-11.4672
stream	-11.4673
▁publiceren	-11.4673
▁stempel	-11.4673
▁versierd	-11.4674
▁traag	-11.4674
▁ruzie	-11.4674
▁campus	-11.4675
▁familieleden	-11.4676
▁fame	-11.4677
▁overdag	-11.4683
▁radon	-11.4683
probeerden	-11.4685
sulfide	-11.4687
reserve	-11.4688
ava	-11.4689
▁ontwikkelt	-11.4689
▁swap	-11.4689
▁afleggen	-11.4689
leeuw	-11.4696
▁ijsvogel	-11.4696
▁verrichten	-11.4697
▁overblijfselen	-11.4703
▁asperge	-11.4704
anda	-11.4704
delige	-11.4704
veilig	-11.4707
rub	-11.4707
rant	-11.4709
overeenkomst	-11.4709
▁basil	-11.471
puls	-11.4713
kenner	-11.4714
▁daden	-11.4717
deeltjes	-11.4717
▁opgeleverd	-11.4723
▁opgeroepen	-11.4723
halve	-11.4725
raakt	-11.4726
▁vingers	-11.4727
▁berekening	-11.4728
▁gronings	-11.4728
arische	-11.4732
▁adams	-11.4738
▁viering	-11.4742
▁systematische	-11.4743
▁clip	-11.4744
economische	-11.4752
▁tuinen	-11.4758
vliegtuig	-11.4761
levisieprogramma	-11.4761
▁santa	-11.4764
▁tweeling	-11.4768
ballon	-11.4769
▁kou	-11.477
achtereenvolgens	-11.4773
▁grap	-11.4777
▁cilinder	-11.4778
▁mooie	-11.4787
▁vrees	-11.479
▁stapel	-11.4791
▁gemengde	-11.4792
▁platte	-11.4794
medewerker	-11.4794
▁soeverein	-11.4796
▁beschuldiging	-11.4797
▁hiërogliefen	-11.4797
▁christiaan	-11.4797
▁encyclopedie	-11.4797
▁federaal	-11.4797
▁manchester	-11.4797
▁ptolemaeus	-11.4797
▁sigmund	-11.4797
▁versailles	-11.4797
▁neutrale	-11.4797
▁althans	-11.4797
▁plantaardig	-11.4797
▁sneuvelde	-11.4797
jesaja	-11.4797
▁knooppunt	-11.4797
▁brown	-11.4797
▁waterdamp	-11.4797
▁hamburg	-11.4797
▁verdubbeld	-11.4798
▁wolfgang	-11.4798
▁vloeistoffen	-11.4798
▁bombardementen	-11.4798
vruchtbare	-11.4799
▁manschappen	-11.48
▁schouder	-11.4801
▁producenten	-11.4804
british	-11.4805
▁portretten	-11.4806
profiel	-11.4807
ritueel	-11.481
▁synode	-11.4811
▁parma	-11.4812
▁verdun	-11.4812
▁reich	-11.4812
▁1887	-11.4813
▁union	-11.4817
▁samenwerken	-11.4819
▁robin	-11.482
▁1898	-11.4821
▁zinnen	-11.4822
▁1875	-11.4826
▁serge	-11.4827
▁vuil	-11.4828
▁aanstelling	-11.4829
heuvel	-11.4834
2000	-11.4835
stichting	-11.4845
praktijk	-11.4845
amsterdam	-11.4845
international	-11.4846
instituut	-11.4846
boer	-11.4847
index	-11.4847
▁aanloop	-11.4847
▁investeringen	-11.4848
glas	-11.485
▁rupsen	-11.485
▁oplage	-11.4853
▁lutherse	-11.4853
▁concludeerde	-11.4856
▁gui	-11.4856
acteur	-11.4858
iya	-11.4867
historische	-11.4874
▁orthodox	-11.4886
▁verhoging	-11.4887
vlek	-11.4888
lich	-11.49
osauria	-11.49
graden	-11.4902
solid	-11.4902
▁esa	-11.4904
▁bereiden	-11.491
slavisch	-11.4915
poë	-11.4917
actieve	-11.4918
▁jam	-11.4919
▁kroniek	-11.4922
vlo	-11.4923
vá	-11.4925
▁zwanger	-11.4929
roubaix	-11.493
▁afgevaardigden	-11.493
▁bolkestein	-11.493
▁gevarieerd	-11.493
▁koeweit	-11.493
▁multatuli	-11.493
▁ontsnapt	-11.493
▁sjabbat	-11.493
▁toonaangevend	-11.493
▁verdwijnt	-11.493
▁weerszijden	-11.493
▁oxford	-11.493
▁ecologische	-11.493
▁ingediend	-11.493
▁dusdanig	-11.493
▁rubber	-11.493
potentiaal	-11.493
▁beschouwing	-11.493
▁bovengenoemde	-11.493
▁splijt	-11.493
▁psychoanalyse	-11.493
▁mtv	-11.493
▁bruikbaar	-11.4931
▁journalistiek	-11.4931
▁australische	-11.4932
▁stamboom	-11.4932
▁braille	-11.4932
▁uiteenvallen	-11.4932
▁interval	-11.4933
▁beantwoord	-11.4934
▁global	-11.4935
ethyl	-11.4935
heidense	-11.4935
▁mineur	-11.4941
▁uitkomen	-11.4943
soep	-11.4944
cri	-11.4945
▁ddr	-11.4945
vlaamse	-11.4945
▁nulpunt	-11.495
▁kaak	-11.4953
woon	-11.4956
liber	-11.4957
▁deelgemeenten	-11.4959
step	-11.4959
▁consequent	-11.496
▁populairste	-11.496
▁concurrent	-11.4965
▁verlaat	-11.4966
▁partijleider	-11.4969
▁stijgende	-11.497
ár	-11.497
▁dick	-11.4971
pé	-11.4972
▁korst	-11.4974
schreef	-11.4975
verschijnselen	-11.4978
▁lineaire	-11.4979
pm	-11.4981
capaciteit	-11.4982
vlees	-11.4982
▁gehoord	-11.4985
▁ploegen	-11.4998
▁overlap	-11.4999
centr	-11.5005
buren	-11.5009
scommissie	-11.5012
▁monarch	-11.5015
▁dorpje	-11.5019
renner	-11.5022
▁werkzaamheden	-11.5022
▁voertuig	-11.5024
cim	-11.5025
▁finn	-11.5025
mensen	-11.5026
thu	-11.5031
▁bever	-11.5055
▁slangen	-11.5061
activiteiten	-11.5063
function	-11.5065
roemeens	-11.5065
▁jordaan	-11.5065
▁floyd	-11.5065
getwijfeld	-11.5065
luftwaffe	-11.5065
▁communiceren	-11.5065
▁geannexeerd	-11.5065
▁justinianus	-11.5065
▁lancering	-11.5065
▁leipzig	-11.5065
▁medeklinkers	-11.5065
▁portugees	-11.5065
▁vespasianus	-11.5065
▁oprukken	-11.5065
▁informatica	-11.5065
kuifje	-11.5065
▁klinken	-11.5065
carboon	-11.5065
▁enclave	-11.5065
▁gevangengenomen	-11.5065
▁toetsenbord	-11.5065
spreuk	-11.5065
▁gewervelde	-11.5066
▁vincent	-11.5066
▁erosie	-11.5066
▁kelten	-11.5067
▁herindeling	-11.5067
▁windmolen	-11.5067
▁individueel	-11.5067
▁gevoelens	-11.5068
▁antwerpse	-11.5068
ventiel	-11.5068
▁planning	-11.5069
▁lord	-11.507
▁onzeker	-11.507
▁habsburgse	-11.5071
▁landings	-11.5071
▁kogel	-11.5074
▁theologische	-11.5075
▁taalkunde	-11.5077
oxidatietoestand	-11.5078
▁evenmin	-11.5079
▁puur	-11.508
▁daad	-11.508
▁vx	-11.5082
▁gotische	-11.5084
▁tast	-11.5085
▁jagen	-11.5086
▁zaden	-11.5087
▁terugtrekken	-11.5088
bezoek	-11.509
▁tropisch	-11.5094
hua	-11.5096
▁disciplines	-11.5096
heel	-11.5098
▁voorsprong	-11.5112
buiten	-11.512
procedure	-11.512
socialistische	-11.5122
public	-11.5122
▁schadelijk	-11.5126
▁gestaan	-11.5126
bru	-11.5129
gezette	-11.5144
▁besmet	-11.515
vaak	-11.5153
bewoners	-11.516
genees	-11.5163
bezit	-11.5166
▁doorheen	-11.5166
gids	-11.5174
▁wierp	-11.5179
▁1100	-11.5182
▁ondernemingen	-11.5183
duiker	-11.5183
systema	-11.5186
democratisch	-11.5186
▁woordenboek	-11.5187
▁geplande	-11.5188
▁bondgenootschap	-11.5188
▁law	-11.5191
▁great	-11.5192
▁fri	-11.5195
▁radicaal	-11.5202
▁zaïre	-11.5202
▁euclides	-11.5202
▁geïdentificeerd	-11.5202
▁minogue	-11.5202
▁neptunus	-11.5202
▁regelgeving	-11.5202
▁roeselare	-11.5202
▁functionele	-11.5202
▁representatie	-11.5202
trekkingskracht	-11.5202
▁ontdekken	-11.5202
▁kroonprins	-11.5202
▁altaar	-11.5202
misdaden	-11.5202
▁kerkgenootschap	-11.5202
▁dader	-11.5203
▁saksische	-11.5203
carbonaat	-11.5203
▁uitbrak	-11.5204
▁beken	-11.5204
▁array	-11.5205
▁constantius	-11.5206
▁eukaryoten	-11.5207
▁burgerij	-11.5207
▁oplosbaar	-11.5208
▁virussen	-11.5208
▁proton	-11.5214
▁lift	-11.5214
▁hoofdstukken	-11.5215
▁ontkend	-11.5216
▁familienaam	-11.5217
▁holle	-11.5221
▁collectief	-11.5225
▁nero	-11.5229
▁1889	-11.5229
▁driemaal	-11.5229
▁1859	-11.5231
▁tweetalig	-11.5237
▁kustlijn	-11.5239
▁technologische	-11.524
action	-11.5245
gevaar	-11.5248
▁optrad	-11.5248
▁verkeerd	-11.5249
▁houtman	-11.525
sverwachting	-11.525
netten	-11.5256
gaard	-11.5257
gekocht	-11.5261
lichaam	-11.5262
hebben	-11.5262
voetbal	-11.5264
▁buurlanden	-11.5265
dood	-11.5267
▁baron	-11.5268
colo	-11.5268
▁kast	-11.527
▁apparaten	-11.5272
▁duel	-11.5274
reizen	-11.5274
dict	-11.5275
grun	-11.5276
▁knie	-11.5279
kritisch	-11.5283
peil	-11.5285
▁vijftiende	-11.5288
▁kritisch	-11.5292
platen	-11.5296
strand	-11.5298
count	-11.5298
minder	-11.5301
▁grandslam	-11.5303
▁dikte	-11.5307
roos	-11.5311
▁stadje	-11.5319
activiteit	-11.532
frequent	-11.5327
illus	-11.5334
▁huisvest	-11.5337
mobiel	-11.5337
instructie	-11.5338
biljet	-11.5341
registratie	-11.5341
sgewijs	-11.5341
verontreiniging	-11.5341
▁avonturen	-11.5341
▁dinsdag	-11.5341
▁fungeert	-11.5341
▁genomineerd	-11.5341
▁gerangschikt	-11.5341
▁geëxecuteerd	-11.5341
▁michelangelo	-11.5341
▁leeuwarden	-11.5341
▁rendement	-11.5341
▁mekka	-11.5341
▁angelsaksisch	-11.5341
▁neiging	-11.5341
▁klingon	-11.5341
▁tmf	-11.5341
▁tevreden	-11.5341
▁beoogde	-11.5341
▁vindplaats	-11.5341
▁hellenistische	-11.5341
▁ogenblik	-11.5341
▁crucia	-11.5342
▁serieuze	-11.5342
▁dierentuin	-11.5344
▁instructies	-11.5344
▁restaurants	-11.5344
▁duinen	-11.5345
▁woede	-11.5345
▁ibm	-11.5345
vergoeding	-11.5346
▁kurt	-11.5347
▁inspanningen	-11.5347
▁genootschap	-11.5348
▁bewaren	-11.5348
▁tijger	-11.535
▁pauselijk	-11.535
▁wettig	-11.5352
▁provincieraad	-11.5352
cultur	-11.5354
hond	-11.5355
gaelisch	-11.5355
▁snaar	-11.5357
▁socio	-11.5361
▁musici	-11.5361
▁zoekt	-11.5363
▁panden	-11.5363
▁wereldbeeld	-11.5365
▁your	-11.5366
▁trivia	-11.5366
▁tegenstand	-11.5368
▁1899	-11.5369
communist	-11.5375
▁psychische	-11.5377
▁enkelvoud	-11.5386
▁aken	-11.539
▁estisch	-11.5392
▁nick	-11.5392
pauze	-11.5395
▁staatkundig	-11.5398
sloot	-11.5399
oriëntatie	-11.54
congres	-11.5401
▁zijrivieren	-11.5403
▁maten	-11.5404
inclusief	-11.5404
kalender	-11.5405
waarschijnlijk	-11.5409
brief	-11.5411
ikke	-11.5411
start	-11.5416
atus	-11.5419
bril	-11.5421
▁karakteristiek	-11.5426
▁seine	-11.5428
▁thuisland	-11.5442
▁roma	-11.5444
hut	-11.5445
▁verliest	-11.5445
aliseren	-11.5449
▁pb	-11.5451
draad	-11.5453
metaal	-11.5462
ziekten	-11.5463
gesneden	-11.5476
stoornis	-11.5479
bacteri	-11.5479
▁fondsen	-11.5481
▁overgaan	-11.5482
nouveau	-11.5482
▁alzheimer	-11.5482
▁boedapest	-11.5482
▁creëerde	-11.5482
▁gecomponeerd	-11.5482
▁geweigerd	-11.5482
▁münster	-11.5482
▁promoveerde	-11.5482
▁schimmels	-11.5482
▁spaceshuttle	-11.5482
▁stockholm	-11.5482
▁vermengd	-11.5482
▁artemis	-11.5482
guinea	-11.5482
blackadder	-11.5482
▁kempen	-11.5482
▁nimf	-11.5482
▁entwistle	-11.5482
boycot	-11.5482
▁azteken	-11.5483
trui	-11.5483
▁onvolledig	-11.5483
▁prikkel	-11.5484
▁evangelie	-11.5484
▁restanten	-11.5484
▁binaire	-11.5485
▁kalief	-11.5485
▁elektronica	-11.5485
▁josé	-11.5486
industrialisatie	-11.549
▁hoover	-11.5493
▁docent	-11.5494
▁juan	-11.5496
▁chaos	-11.5497
▁tijdgenoten	-11.5498
▁temse	-11.5499
▁weekblad	-11.55
▁1831	-11.5503
▁adria	-11.5503
▁besef	-11.5505
eerbare	-11.5509
▁200.000	-11.551
▁1894	-11.551
▁beton	-11.5512
▁wereldlijke	-11.5512
▁1882	-11.5513
▁aftreden	-11.5516
donk	-11.5517
mill	-11.5518
▁victor	-11.5519
▁alweer	-11.5527
cine	-11.5527
2007	-11.553
etter	-11.5534
▁luidde	-11.5538
▁elfde	-11.554
▁opgepakt	-11.554
arabisch	-11.5543
▁duet	-11.5543
▁marco	-11.5545
conferentie	-11.5549
schijf	-11.5549
concentratie	-11.5549
court	-11.555
▁bovenaan	-11.5552
maj	-11.5553
gevraagd	-11.5553
tournee	-11.5556
0%	-11.5564
bury	-11.5566
georiënteerde	-11.5566
methoden	-11.5568
ierland	-11.557
▁sv	-11.557
bou	-11.5577
▁facto	-11.5579
▁salt	-11.5579
vlaams	-11.5588
▁monet	-11.5588
▁dj	-11.5591
vulling	-11.5593
▁beginselen	-11.5594
▁lou	-11.5596
marie	-11.56
erwijs	-11.5607
▁power	-11.5613
▁realistische	-11.5614
▁gewonden	-11.5616
▁argumenten	-11.562
▁horizon	-11.5622
therapeut	-11.5625
▁champions	-11.5625
▁hilversum	-11.5625
▁specerij	-11.5625
▁veroordeling	-11.5625
▁associatie	-11.5625
▁cyprus	-11.5625
▁geschonken	-11.5625
▁kobalt	-11.5625
▁monteverdi	-11.5625
▁muzikaal	-11.5625
▁organiseert	-11.5625
▁positron	-11.5625
▁componeerde	-11.5625
monopolie	-11.5625
▁nelson	-11.5625
▁wellington	-11.5625
▁residentie	-11.5625
▁overheersen	-11.5625
▁opstandelingen	-11.5625
▁vazal	-11.5625
boezem	-11.5625
▁hervormde	-11.5625
▁gaandeweg	-11.5625
pigment	-11.5625
▁vogelspinnen	-11.5625
▁bbp	-11.5625
▁goedkeuring	-11.5626
▁vorstendom	-11.5626
vriend	-11.5627
▁geschilderd	-11.5627
waren	-11.563
▁niels	-11.5631
what	-11.5632
▁valley	-11.5632
▁decoratie	-11.5632
▁timmer	-11.5633
▁deelstaten	-11.5633
▁jack	-11.5642
russische	-11.5643
▁mali	-11.5645
▁buitenlanders	-11.5645
▁fotonen	-11.5646
▁praten	-11.5649
▁eeuwige	-11.5649
▁rijnland	-11.565
▁gegraven	-11.565
▁daaronder	-11.5657
▁1888	-11.5657
▁gevel	-11.5658
▁125	-11.566
ambi	-11.5662
break	-11.5663
huwelijk	-11.5664
▁daarover	-11.5665
pedi	-11.5665
▁geruchten	-11.567
▁vijandig	-11.5677
▁schijnt	-11.5677
scriptie	-11.5681
mechanismen	-11.5684
gebroken	-11.5688
genaamd	-11.5689
▁brit	-11.5691
▁haring	-11.5691
▁aangedreven	-11.5691
▁schriftelijke	-11.5693
▁ruwe	-11.5693
griff	-11.5694
voorraad	-11.5695
vlinder	-11.5696
wortel	-11.5696
telescoop	-11.5696
▁hz	-11.5698
gewoon	-11.5701
▁grijpen	-11.5701
dok	-11.5702
▁afro	-11.5703
▁recenter	-11.5719
▁particulier	-11.5721
▁dance	-11.5723
natuurlijk	-11.5729
rennen	-11.5733
linker	-11.5736
urban	-11.5745
▁score	-11.5745
▁europe	-11.5747
hyp	-11.575
grand	-11.5755
2008	-11.576
▁roel	-11.5766
▁afschaffing	-11.5769
▁diafragma	-11.5769
▁gereduceerd	-11.5769
▁holocaust	-11.5769
▁mioceen	-11.5769
▁oligoceen	-11.5769
▁psyche	-11.5769
▁shuttle	-11.5769
▁uitnodiging	-11.5769
▁wederopbouw	-11.5769
▁aangetast	-11.5769
▁postuum	-11.5769
▁plastic	-11.577
▁laatstgenoemde	-11.577
▁united	-11.577
▁claude	-11.577
▁komeet	-11.577
▁verwierp	-11.577
▁ghana	-11.577
▁verdienen	-11.577
▁blootgesteld	-11.577
▁verstoord	-11.577
▁gedroogd	-11.577
koek	-11.577
▁toedoen	-11.577
▁vtm	-11.5771
▁rijksmuseum	-11.5771
▁presentatie	-11.5772
▁sparta	-11.5772
▁breiden	-11.5773
▁handig	-11.5773
▁harmonische	-11.5773
▁soera	-11.5774
▁monumentale	-11.5774
▁turing	-11.5775
▁buitenwereld	-11.5783
▁genade	-11.5783
▁gevlucht	-11.5787
▁170	-11.5787
▁geboorteplaats	-11.5789
▁70%	-11.5791
witte	-11.5795
▁wilson	-11.5795
▁1874	-11.5801
▁1878	-11.5802
▁industrieel	-11.5806
▁snij	-11.581
volgende	-11.5811
▁gelijkwaardig	-11.5812
▁verliefd	-11.5814
concerten	-11.5826
▁vierkant	-11.5827
▁grootst	-11.583
▁monnik	-11.5835
indeling	-11.584
▁spieren	-11.5841
valent	-11.5841
combinatie	-11.5845
religie	-11.5846
rapport	-11.5846
▁antennes	-11.585
tibet	-11.585
▁onrechte	-11.5853
biologie	-11.5854
super	-11.5855
sgezind	-11.5872
▁godheid	-11.5875
body	-11.5879
▁aandoeningen	-11.5894
▁leverden	-11.5897
hartig	-11.5907
▁vondst	-11.5908
▁enzymen	-11.5909
▁algebra	-11.591
muzikant	-11.5915
▁reïncarnatie	-11.5917
atmosferische	-11.5917
chromosomen	-11.5917
penicilline	-11.5917
▁bourgondische	-11.5917
▁compromis	-11.5917
▁diaghilev	-11.5917
▁empedocles	-11.5917
▁gedeputeerde	-11.5917
▁geplunderd	-11.5917
▁lissabon	-11.5917
▁scheemda	-11.5917
▁tragedie	-11.5917
▁zürich	-11.5917
▁friezen	-11.5917
▁trojaan	-11.5917
▁kosmos	-11.5917
alexandr	-11.5917
▁evangelische	-11.5917
▁valuta	-11.5917
▁terreur	-11.5917
▁urbanus	-11.5917
▁tegenhanger	-11.5917
doctrine	-11.5917
▁redacteur	-11.5917
▁wisselwerking	-11.5917
▁database	-11.5917
▁drents	-11.5917
▁volkenbond	-11.5917
▁rijdt	-11.5917
glaciale	-11.5917
▁geschapen	-11.5918
consistent	-11.5918
▁compact	-11.5919
▁genieten	-11.592
▁grachten	-11.592
700	-11.5921
▁toneelstukken	-11.5922
▁intervallen	-11.5922
▁continentaal	-11.5922
▁opinie	-11.5924
maarschalk	-11.5925
voorbeeld	-11.5928
▁reiger	-11.593
▁100%	-11.593
▁4000	-11.593
▁bits	-11.594
▁1813	-11.5946
varia	-11.5951
▁inhoudelijk	-11.5951
▁betekenissen	-11.5951
▁ondernomen	-11.5958
▁major	-11.5961
sbeleid	-11.5967
▁gentse	-11.5978
▁haalt	-11.598
weense	-11.598
natuur	-11.5988
▁zwaarder	-11.5992
contract	-11.5998
▁raf	-11.6002
veiligheid	-11.6003
▁guy	-11.6003
waarvan	-11.6007
▁beslissen	-11.601
▁toonder	-11.6011
bé	-11.6017
▁hindoe	-11.6029
structuren	-11.6033
▁voordien	-11.6037
▁homoseksuele	-11.6039
▁lob	-11.604
chus	-11.6059
fijn	-11.6059
fol	-11.6065
▁verpleeg	-11.6066
extinctie	-11.6066
koolwaterstoffen	-11.6066
▁antibiotica	-11.6066
▁bevelhebber	-11.6066
▁donderdag	-11.6066
▁geconstateerd	-11.6066
▁gewelddadige	-11.6066
▁henegouwen	-11.6066
▁korstmossen	-11.6066
▁marijnissen	-11.6066
▁naburig	-11.6066
▁programmeur	-11.6066
▁rivaliteit	-11.6066
▁rügen	-11.6066
▁semantiek	-11.6066
▁toulouse	-11.6066
▁arnold	-11.6066
▁vergezeld	-11.6066
▁lewis	-11.6066
▁iberisch	-11.6066
▁knvb	-11.6066
▁lettergreep	-11.6067
▁verlangen	-11.6067
▁optellen	-11.6067
▁condens	-11.6067
▁opgedragen	-11.6068
▁apple	-11.6068
▁hiernaast	-11.6068
▁tervuren	-11.6068
▁turf	-11.6069
▁betaalmiddel	-11.6069
▁stadsbestuur	-11.6069
▁daarbuiten	-11.607
▁stadscentrum	-11.6072
▁plegen	-11.6074
▁volg	-11.6074
erfelijke	-11.6079
▁mangaan	-11.6086
format	-11.6087
▁wethouder	-11.6092
▁1897	-11.6092
▁oversteek	-11.6096
▁1876	-11.6098
▁ivan	-11.6098
▁forum	-11.61
▁onderwezen	-11.6101
▁soul	-11.611
▁verlicht	-11.6114
▁basic	-11.6118
amba	-11.6123
▁ruth	-11.6127
indo	-11.6129
▁mri	-11.6137
hemel	-11.6138
weide	-11.6143
kwantumgetal	-11.6145
▁kerkelijk	-11.6145
mia	-11.6146
dichtheid	-11.6147
alfabet	-11.615
vreemd	-11.615
koreaanse	-11.6152
psycho	-11.6153
finale	-11.6156
▁verwoesting	-11.6172
▁paring	-11.6181
▁johanna	-11.6181
▁werkwijze	-11.6188
▁jonger	-11.6188
klap	-11.6189
▁gletsjers	-11.6189
ulf	-11.6199
fluoride	-11.6203
▁duiken	-11.6207
getekend	-11.6212
fossiel	-11.6213
▁350	-11.6214
▁1300	-11.6215
▁academy	-11.6217
▁informele	-11.6217
▁jordanië	-11.6217
▁legislatuur	-11.6217
▁marokko	-11.6217
▁psychiatrisch	-11.6217
▁sjiieten	-11.6217
▁statuut	-11.6217
▁suggereert	-11.6217
▁illegale	-11.6217
▁intensief	-11.6217
▁twente	-11.6217
▁verbroken	-11.6217
▁gabriel	-11.6217
▁joyce	-11.6217
▁kosmisch	-11.6217
▁visuele	-11.6217
▁gekweekt	-11.6217
▁bestempeld	-11.6217
▁verworpen	-11.6217
▁bebouwing	-11.6217
▁benzine	-11.6217
▁dogma	-11.6217
▁heineken	-11.6217
▁firma	-11.6217
▁onenigheid	-11.6217
elektronen	-11.6218
▁gekroond	-11.6218
veronderstelling	-11.6218
▁profeten	-11.6218
▁tsaar	-11.6218
▁tablet	-11.6218
▁frame	-11.6218
▁anderhalf	-11.6218
▁duurzaam	-11.6219
▁meetkundige	-11.6219
▁voorzichtig	-11.622
▁fraai	-11.622
▁ultra	-11.6221
▁alchemist	-11.6221
nova	-11.6221
otherm	-11.6222
▁mooiste	-11.6223
▁ceau	-11.6223
▁noordpool	-11.6223
▁etheen	-11.6225
▁beheersen	-11.6229
▁pokken	-11.623
tweede	-11.623
jimmy	-11.6231
▁ongelijk	-11.6236
▁boete	-11.624
▁lanceerde	-11.6241
▁tweehonderd	-11.6242
▁1839	-11.6242
▁1893	-11.6249
▁vriendin	-11.625
wijdte	-11.6252
▁milli	-11.6257
▁sem	-11.6276
▁pleitte	-11.6286
▁beperking	-11.6288
bora	-11.629
_11	-11.6295
▁keel	-11.6297
▁springen	-11.6304
kolonie	-11.6305
vroeg	-11.6307
micro	-11.6309
portret	-11.6309
kam	-11.6309
overschot	-11.6309
schijnbare	-11.6312
gemeenschappen	-11.6313
▁hypo	-11.6318
0°	-11.6321
notatie	-11.6323
blik	-11.6335
rauw	-11.6337
▁aanwijzing	-11.6342
loopt	-11.6344
lippen	-11.6346
▁terts	-11.6352
▁bull	-11.6355
▁area	-11.6366
▁chris	-11.6367
▁1.0	-11.6368
▁accepteren	-11.6371
▁allround	-11.6371
▁benelux	-11.6371
▁cafeïne	-11.6371
▁civiele	-11.6371
▁geraardsbergen	-11.6371
▁gerestaureerd	-11.6371
▁problematisch	-11.6371
▁professional	-11.6371
▁research	-11.6371
▁speculatie	-11.6371
▁vicepresident	-11.6371
▁concrete	-11.6371
▁fantasie	-11.6371
▁ontsnapping	-11.6371
▁specialisatie	-11.6371
▁decembermoorden	-11.6371
▁fleming	-11.6371
▁afwisselend	-11.6371
▁komedie	-11.6371
▁uefa	-11.6371
▁bezwaar	-11.6371
▁troonrede	-11.6371
▁onthuld	-11.6372
▁mythische	-11.6372
▁margaretha	-11.6372
▁analytische	-11.6373
▁prenten	-11.6373
uitrusting	-11.6374
▁rietveld	-11.6375
▁resulteer	-11.6376
beenderen	-11.6376
▁handelaren	-11.6377
▁achtergelaten	-11.6378
criticus	-11.638
style	-11.638
▁herziening	-11.6393
▁ontvlucht	-11.6393
▁optimal	-11.6397
verzamelaars	-11.6398
▁25%	-11.6401
▁label	-11.6403
▁amerikaan	-11.6403
▁1883	-11.6403
▁1863	-11.6403
ship	-11.6403
▁betrokkenheid	-11.6407
▁viii	-11.6407
sprong	-11.641
klok	-11.6411
▁projectie	-11.6411
▁wisselende	-11.6412
▁book	-11.6415
▁biologisch	-11.6422
▁gp	-11.6439
ooster	-11.644
raai	-11.6443
draden	-11.6443
hé	-11.6448
▁afname	-11.6458
weefsel	-11.6462
experiment	-11.6463
technisch	-11.6466
gedwongen	-11.6466
hongarije	-11.6466
psychologie	-11.6466
kwestie	-11.6467
gouw	-11.6469
ambt	-11.648
▁nadelen	-11.6485
zaad	-11.6485
atr	-11.6495
chor	-11.6497
▁15%	-11.6497
gebrek	-11.6514
▁verdienste	-11.6515
▁manhattan	-11.6516
gevoerd	-11.6526
table	-11.6527
▁beoordeeld	-11.6527
▁essentiële	-11.6527
▁fernand	-11.6527
▁fundamenteel	-11.6527
▁lanthanide	-11.6527
▁magazine	-11.6527
▁surrealisme	-11.6527
▁vogelgriep	-11.6527
▁lahaut	-11.6527
▁fosgeen	-11.6527
▁verkrijgbaar	-11.6527
▁kieuw	-11.6527
▁smeltpunt	-11.6528
▁dorestad	-11.6528
▁keurvorst	-11.6528
▁gebroeders	-11.6528
barometer	-11.6528
▁amazon	-11.6528
▁voedingsstoffen	-11.6528
▁geweten	-11.6528
▁echtpaar	-11.6529
▁gastheer	-11.6529
▁passages	-11.6531
▁stuitte	-11.6531
▁middelgrote	-11.6532
▁belo	-11.6533
▁bloeiende	-11.6535
schildpad	-11.6535
programmeertalen	-11.6539
rhein	-11.6541
straten	-11.6542
tanden	-11.6545
▁bun	-11.655
assad	-11.6554
▁60%	-11.6556
▁1869	-11.6557
▁iris	-11.6559
gezant	-11.656
mata	-11.6564
▁kook	-11.657
▁fransman	-11.657
sturing	-11.6576
▁bosch	-11.6577
▁legeringen	-11.6581
circulatie	-11.6582
woestijn	-11.6587
▁komma	-11.6588
▁opereren	-11.6592
▁hoogland	-11.6592
▁gebergten	-11.6595
▁140	-11.6595
▁salaris	-11.6597
geperst	-11.6598
worst	-11.6602
cultus	-11.6619
student	-11.6627
hongaars	-11.6627
dochter	-11.6628
hoofdstad	-11.6634
▁bijgezet	-11.6638
flat	-11.6639
▁vergader	-11.6639
plannen	-11.6641
bekend	-11.6641
house	-11.6645
▁2500	-11.6647
otto	-11.6648
▁prima	-11.6649
ruk	-11.6654
vijandelijke	-11.6655
bossen	-11.6657
▁terugkeerde	-11.6659
▁institute	-11.6661
paul	-11.6676
▁vaderland	-11.6679
aziatisch	-11.6683
hockey	-11.6685
collectie	-11.6686
führer	-11.6686
chemicaliën	-11.6686
▁amfibieën	-11.6686
▁astronoom	-11.6686
▁beëindigen	-11.6686
▁exclusieve	-11.6686
▁jefferson	-11.6686
▁munitie	-11.6686
▁omgedoopt	-11.6686
▁patriarch	-11.6686
▁septuagint	-11.6686
▁streeft	-11.6686
▁uitbreiden	-11.6686
▁volksgezondheid	-11.6686
▁archeologie	-11.6686
▁ontlasting	-11.6686
▁shakira	-11.6686
▁spontane	-11.6686
▁verbood	-11.6686
▁gehucht	-11.6686
▁kortstondig	-11.6686
▁plezier	-11.6686
▁predikant	-11.6686
▁ankara	-11.6686
▁eilandje	-11.6686
▁hanteren	-11.6686
▁christoph	-11.6686
▁drinkwater	-11.6687
▁jurist	-11.6687
▁voornaamwoord	-11.6687
▁meermaals	-11.6687
▁wright	-11.6687
this	-11.6688
▁geluidssnelheid	-11.6688
▁grondwettelijk	-11.6688
▁observatie	-11.669
▁deventer	-11.669
▁fasci	-11.6691
▁vaststellen	-11.6691
verordening	-11.6692
opening	-11.6693
▁xiv	-11.6693
▁vrijgelaten	-11.6694
▁financiering	-11.6695
▁barry	-11.6699
partijvoorzitter	-11.6701
▁dieptepunt	-11.6702
▁dagboek	-11.6709
jacht	-11.6713
▁hamm	-11.6719
▁wenste	-11.6721
▁deutsche	-11.6723
▁makkelijker	-11.6724
▁liedje	-11.6727
▁krijgsgevangen	-11.6727
▁aanvulling	-11.6734
▁explosieve	-11.6738
▁stichten	-11.674
▁vas	-11.6745
bouwers	-11.6745
▁garden	-11.6752
▁arp	-11.6755
▁overgegaan	-11.6757
▁dion	-11.6761
▁uitwerking	-11.6763
polaire	-11.6768
▁verhandeling	-11.677
pand	-11.6773
grammen	-11.6773
plak	-11.6773
tekort	-11.6776
liefde	-11.6779
goddelijk	-11.678
▁pleit	-11.6783
▁onderwereld	-11.6787
▁australia	-11.6787
▁groenten	-11.6788
beck	-11.6791
directeur	-11.6792
kantoor	-11.6794
augustus	-11.6795
waterstof	-11.6795
vrede	-11.6795
nsverduistering	-11.68
aanvallen	-11.6805
schijn	-11.6809
▁overstroming	-11.6809
▁novi	-11.681
tique	-11.6817
▁bacterië	-11.6821
▁resp	-11.6823
▁olymp	-11.6836
chari	-11.6837
▁financier	-11.6838
▁verhuisd	-11.6846
gegooid	-11.6847
trombone	-11.6847
▁amplitude	-11.6847
▁bevordering	-11.6847
▁eerbetoon	-11.6847
▁geconfronteerd	-11.6847
▁hawaï	-11.6847
▁hubble	-11.6847
▁kooldioxide	-11.6847
▁tentoongesteld	-11.6847
▁virginia	-11.6847
▁vladimir	-11.6847
▁inspireren	-11.6847
tapijt	-11.6847
▁paleoceen	-11.6847
▁erasmus	-11.6847
lotharingen	-11.6847
▁hernieuwde	-11.6847
▁ontbonden	-11.6847
▁tactiek	-11.6848
▁bèta	-11.6848
▁opleverde	-11.6848
▁vullen	-11.6848
▁beeldhouwkunst	-11.6848
▁kopenhagen	-11.6848
▁zondvloed	-11.6848
▁kalksteen	-11.6849
activist	-11.6849
alisering	-11.6849
▁dalí	-11.6849
▁wierook	-11.6849
▁straffen	-11.685
▁onvrede	-11.685
vezels	-11.6851
▁gigantisch	-11.6853
▁slapen	-11.6854
koers	-11.6856
quick	-11.6856
▁vrijkomt	-11.6857
goederen	-11.6857
▁beginjaren	-11.686
▁kerkgebouw	-11.686
▁afgelegen	-11.6863
▁achterstand	-11.6864
▁verblijven	-11.6865
▁taalgrens	-11.6866
love	-11.6867
▁succesvolste	-11.6867
▁voorvoegsel	-11.6871
▁hardheid	-11.6885
▁incest	-11.6888
parlementair	-11.6889
hier	-11.6891
voorafgegaan	-11.6893
▁final	-11.6899
verslag	-11.69
▁rotterdamse	-11.69
▁geologisch	-11.6905
▁landbouwgrond	-11.6917
oogst	-11.692
magnetisch	-11.6922
▁vluchtten	-11.6934
▁centre	-11.6934
campagne	-11.6934
▁tasman	-11.6946
organen	-11.6948
spaans	-11.695
planeet	-11.6954
vaardigheid	-11.6955
overdracht	-11.6957
licentie	-11.6957
schoon	-11.6958
warm	-11.6967
gill	-11.6968
hexa	-11.6969
culair	-11.6973
▁rey	-11.6981
you	-11.6983
▁steve	-11.6984
▁poli	-11.6989
▁spirit	-11.6993
phil	-11.6999
stuw	-11.7002
▁luxe	-11.7004
▁splitst	-11.7006
▁plutonium	-11.7011
▁admiraal	-11.7011
▁afstamming	-11.7011
▁bevestigen	-11.7011
▁cadmium	-11.7011
▁chicago	-11.7011
▁gefinancierd	-11.7011
▁gerechtshof	-11.7011
▁groninger	-11.7011
▁machthebber	-11.7011
▁neurenberg	-11.7011
▁onvermijdelijk	-11.7011
▁scheppen	-11.7011
▁substantie	-11.7011
▁waarschuwing	-11.7011
▁zwaveldioxide	-11.7011
▁comeback	-11.7011
▁vertraging	-11.7011
▁gestaag	-11.7011
▁raymond	-11.7011
▁veluwe	-11.7011
▁kippen	-11.7011
▁gevoed	-11.7011
▁laurel	-11.7011
▁servische	-11.7011
▁tolerantie	-11.7011
syndroom	-11.7011
▁slijm	-11.7011
gitarist	-11.7011
▁vermeden	-11.7012
▁judea	-11.7012
▁bekroond	-11.7012
decreet	-11.7012
▁kwartfinale	-11.7012
▁langzamerhand	-11.7012
▁dokter	-11.7012
▁denkbeelden	-11.7012
▁universitaire	-11.7012
▁metropool	-11.7012
citroen	-11.7012
▁slinger	-11.7013
▁gallisch	-11.7013
▁verzamelnaam	-11.7013
rechtelijke	-11.7013
▁kompas	-11.7013
▁enkelvoudige	-11.7014
▁1572	-11.7014
▁tegengestelde	-11.7015
▁voorschriften	-11.7015
▁escher	-11.7015
▁classic	-11.7015
▁typerend	-11.7016
▁netvlies	-11.7017
▁formuleerde	-11.7018
technic	-11.7019
russisch	-11.7019
▁golan	-11.7019
▁hertz	-11.702
▁explosief	-11.7024
▁passeren	-11.7026
visie	-11.7029
▁passie	-11.703
putten	-11.7032
▁treinstation	-11.704
▁afstammelingen	-11.7044
him	-11.7044
▁afgelegd	-11.7044
▁1892	-11.7046
▁wijten	-11.7046
ranglijst	-11.7049
▁1400	-11.705
▁30.000	-11.7054
▁onnes	-11.7061
▁parallelle	-11.7061
▁750	-11.7061
romaans	-11.7061
▁87	-11.7066
9.000	-11.707
rente	-11.707
collectieve	-11.7075
rico	-11.708
▁boos	-11.7085
▁floris	-11.7121
▁groepering	-11.7125
discipline	-11.7126
domein	-11.7128
één	-11.7128
liter	-11.7128
kinderen	-11.7134
▁ether	-11.7136
status	-11.7137
▁drum	-11.7138
▁victoria	-11.7139
▁westland	-11.7141
hö	-11.7154
▁intelligent	-11.7175
▁langzamer	-11.7178
▁misdaad	-11.7178
crypto	-11.7178
exploitatie	-11.7178
gouvernement	-11.7178
psychiatrie	-11.7178
vergiftiging	-11.7178
▁barbizon	-11.7178
▁broeikaseffect	-11.7178
▁genève	-11.7178
▁geselecteerd	-11.7178
▁habitat	-11.7178
▁herakles	-11.7178
▁lockheed	-11.7178
▁moldavië	-11.7178
▁ostrogoten	-11.7178
▁samenvoeging	-11.7178
▁strafschop	-11.7178
▁toetreding	-11.7178
▁visigoten	-11.7178
▁clijsters	-11.7178
▁correspondentie	-11.7178
▁fungeren	-11.7178
▁psychologische	-11.7178
▁toorop	-11.7178
▁wél	-11.7178
▁opzettelijk	-11.7178
▁zwaartepunt	-11.7178
▁toeneemt	-11.7178
▁onbewuste	-11.7178
▁benaderd	-11.7178
▁county	-11.7178
▁permeke	-11.7178
▁verenkleed	-11.7178
▁modder	-11.7178
▁kooplieden	-11.7179
▁asiel	-11.7179
▁egmond	-11.7179
▁katoen	-11.7179
▁disney	-11.7179
▁chroom	-11.7179
▁migranten	-11.7179
▁veiligheidsraad	-11.7179
▁limiet	-11.718
▁staatsburger	-11.718
biliteit	-11.718
▁privéleven	-11.718
▁gemeld	-11.7181
▁redding	-11.7181
▁richtlijnen	-11.7181
▁metallisch	-11.7181
▁levensstijl	-11.7182
104	-11.7183
▁handvest	-11.7185
codon	-11.7185
▁jules	-11.7186
▁grondstof	-11.7186
▁gelug	-11.7189
geroepen	-11.719
▁aantonen	-11.7193
▁benut	-11.7194
▁grondwater	-11.7196
▁bovenzijde	-11.7198
▁jacobus	-11.7201
geleverd	-11.7205
▁wantsen	-11.7205
▁homoseksuelen	-11.7208
▁kruising	-11.721
▁deelnemende	-11.7216
huur	-11.7222
▁afleiding	-11.7222
able	-11.7223
▁rukte	-11.723
=55	-11.7231
▁slagveld	-11.7236
▁regie	-11.7241
▁spot	-11.7242
zoeken	-11.7249
▁omgebouwd	-11.7253
master	-11.7255
gevoel	-11.726
▁vocal	-11.7261
relderfgoedlijst	-11.7263
▁drijvend	-11.7275
▁emu	-11.7276
cyto	-11.7283
diploma	-11.7298
kathedraal	-11.73
circa	-11.73
belgië	-11.73
lement	-11.7304
iaans	-11.7305
breek	-11.7308
saint	-11.7308
besluit	-11.7312
odont	-11.7315
optreden	-11.7318
streng	-11.7322
▁negentien	-11.7323
stadium	-11.7328
▁deelgemeente	-11.7337
illo	-11.7343
gestemd	-11.7343
beschadiging	-11.7348
coëfficiënt	-11.7348
deuteronomium	-11.7348
schorpioen	-11.7348
▁aguilera	-11.7348
▁betrouwbare	-11.7348
▁concurreren	-11.7348
▁expressionist	-11.7348
▁failliet	-11.7348
▁initiatieven	-11.7348
▁mitochondria	-11.7348
▁montgomery	-11.7348
▁overkoepelend	-11.7348
▁sympathie	-11.7348
▁terrorisme	-11.7348
▁aangemerkt	-11.7348
▁douwes	-11.7348
▁interventie	-11.7348
▁sampras	-11.7348
▁voorspoed	-11.7348
▁hitlijsten	-11.7348
▁vormgeving	-11.7348
▁language	-11.7348
▁evangeliën	-11.7348
▁iucn	-11.7348
▁naturisten	-11.7348
▁ultraviolet	-11.7348
▁fungeerde	-11.7348
▁embryo	-11.7348
▁verbeelding	-11.7348
▁indonesisch	-11.7348
▁noemer	-11.7348
▁leefwijze	-11.7348
chronische	-11.7348
▁nijlpaard	-11.7348
▁finish	-11.7348
▁gemalen	-11.7348
▁echtscheiding	-11.7348
▁aansprak	-11.7348
▁staatsschuld	-11.7348
▁vliegbasis	-11.7348
▁schrijfwijze	-11.7348
▁stefan	-11.7348
▁gelegerd	-11.7349
▁fascistische	-11.7349
▁geteld	-11.7349
▁verzekerd	-11.7349
chemicus	-11.7349
▁glucose	-11.7349
▁indicatie	-11.7349
▁onderhandelen	-11.7349
▁stekel	-11.7349
▁letterkunde	-11.735
ambtenaar	-11.735
▁munteenheid	-11.735
▁hoeksnelheid	-11.735
▁heroverd	-11.735
▁uitgeput	-11.735
▁bloeiperiode	-11.735
▁objectieve	-11.735
▁geboortecijfer	-11.735
▁kermis	-11.7351
▁hoofddoek	-11.7351
▁voortgebracht	-11.7352
▁ongekend	-11.7353
▁oostkust	-11.7354
▁koraal	-11.7354
▁bewees	-11.7355
algebraïsche	-11.7355
▁volkomen	-11.7356
▁verwees	-11.7357
▁partijbestuur	-11.7358
▁euwe	-11.7359
gigant	-11.7359
▁strijk	-11.7361
▁vlot	-11.7361
▁kudde	-11.7364
▁palts	-11.7366
▁sarin	-11.7367
150	-11.737
▁gespannen	-11.7374
metro	-11.7374
▁oudewater	-11.7376
▁sinus	-11.7377
▁romp	-11.7379
▁1798	-11.7379
▁godheden	-11.7379
▁1861	-11.7384
▁1849	-11.7386
oppervlakte	-11.7387
hulp	-11.7389
▁0,5	-11.7389
klu	-11.7389
▁trilling	-11.7394
▁avant	-11.7395
▁deelgebieden	-11.7395
▁wta	-11.7399
stemmen	-11.74
prent	-11.74
▁1866	-11.7405
▁vrouwelijk	-11.7409
secundair	-11.7412
▁primair	-11.7413
▁brun	-11.7414
halt	-11.7416
▁oder	-11.7419
ité	-11.7421
▁wezenlijk	-11.7426
boord	-11.744
▁heart	-11.7443
▁paal	-11.7444
pijp	-11.7475
joodse	-11.7475
voornamelijk	-11.7476
kristal	-11.7477
agno	-11.7478
jazz	-11.7479
verval	-11.7484
life	-11.7493
▁planet	-11.7499
▁kikkers	-11.7503
aves	-11.7507
muur	-11.7512
four	-11.7512
▁amor	-11.7518
▁tij	-11.7519
problematiek	-11.752
specificatie	-11.752
▁aanvullend	-11.752
▁amnestie	-11.752
▁daendels	-11.752
▁definiëren	-11.752
▁implementatie	-11.752
▁papyrus	-11.752
▁portefeuille	-11.752
▁qaida	-11.752
▁reflectie	-11.752
▁rosenmöller	-11.752
▁tevergeefs	-11.752
▁trajanus	-11.752
▁uitdrukkelijk	-11.752
▁onderdrukking	-11.752
▁spijkerschrift	-11.752
▁vernield	-11.752
▁voortbestaan	-11.752
▁rabbijn	-11.752
▁conditie	-11.752
▁eminem	-11.752
▁hergé	-11.752
▁marseille	-11.752
▁verhoeven	-11.752
▁geteeld	-11.752
▁herdacht	-11.752
▁opgeteld	-11.752
▁nalatenschap	-11.752
▁haakjes	-11.752
▁schrijfster	-11.752
▁provinciaal	-11.752
imperial	-11.752
▁ijskap	-11.752
▁vredesverdrag	-11.7521
majoor	-11.7521
▁novelle	-11.7521
▁gedachtegoed	-11.7521
▁uranus	-11.7521
▁herbouwd	-11.7521
▁levensduur	-11.7521
▁verhandeld	-11.7522
▁gespeld	-11.7522
▁hawk	-11.7523
▁franklin	-11.7523
▁veelgebruikt	-11.7524
▁debuteerde	-11.7525
▁vonnis	-11.7526
▁gedraagt	-11.7526
▁toevlucht	-11.7528
▁genezen	-11.7528
rechterlijke	-11.7529
▁smit	-11.753
▁levensbeschouw	-11.7531
▁realiteit	-11.7531
▁gelderse	-11.7532
rund	-11.7534
▁louter	-11.7536
arctisch	-11.7537
vertelling	-11.7539
▁1700	-11.7544
▁buitenkant	-11.7547
stock	-11.7548
full	-11.7551
loosheid	-11.7551
▁samenhangend	-11.7554
▁geestes	-11.7555
▁scoren	-11.7556
▁formulering	-11.757
andries	-11.7585
▁leie	-11.7589
transactie	-11.7592
heerser	-11.7595
kamertemperatuur	-11.7597
▁mannelijk	-11.7598
▁logische	-11.7603
ieder	-11.7604
▁gelijkheid	-11.7613
▁heil	-11.7614
tegenwoordiging	-11.7615
▁ocean	-11.763
numeri	-11.7635
▁notie	-11.7644
huys	-11.7645
bibliotheek	-11.7654
nicolaas	-11.7654
militair	-11.7654
mythologie	-11.7654
louis	-11.7654
spectrum	-11.7655
▁onzekerheid	-11.7656
moes	-11.766
▁kist	-11.7669
▁revolutionair	-11.767
▁thermo	-11.768
▁dinosauriër	-11.7691
keuze	-11.7691
▁bloedige	-11.7692
lung	-11.7692
filosofisch	-11.7693
▁verdamping	-11.7694
_6	-11.7695
▁autobiografie	-11.7695
▁beoordeling	-11.7695
▁emotionele	-11.7695
▁gemenebest	-11.7695
▁gesuggereerd	-11.7695
▁krajicek	-11.7695
▁prestigieuze	-11.7695
▁wereldberoemd	-11.7695
catharina	-11.7695
▁benadrukken	-11.7695
▁flexibel	-11.7695
▁gehuwd	-11.7695
▁plundering	-11.7695
▁verzocht	-11.7695
▁conventionele	-11.7695
▁chronologisch	-11.7695
▁vervult	-11.7695
▁heffen	-11.7695
▁pilatus	-11.7696
▁fagot	-11.7696
▁year	-11.7696
▁uitmondt	-11.7696
▁bretons	-11.7696
▁elsschot	-11.7696
opera	-11.7696
iformes	-11.7696
▁regenboog	-11.7696
▁goedkope	-11.7696
▁krijgsmacht	-11.7696
▁borststuk	-11.7697
▁prehistorische	-11.7697
krachtig	-11.7697
▁verfijnd	-11.7697
▁domineerde	-11.7698
▁polaris	-11.7698
▁volksmond	-11.7698
▁buitengewoon	-11.7698
grijs	-11.77
protocollen	-11.77
▁openlucht	-11.7701
▁east	-11.7701
▁blazen	-11.7702
▁steppe	-11.7703
▁geestelijken	-11.7704
▁godsdienstige	-11.7708
▁hooke	-11.7708
▁muziekstijl	-11.771
▁verantwoording	-11.7711
▁levi	-11.7712
▁bruno	-11.7715
▁owen	-11.772
▁herbergt	-11.7721
▁gevaren	-11.7724
▁afzet	-11.7729
▁1881	-11.773
▁geruim	-11.7731
cino	-11.7737
▁gered	-11.7743
▁onderhield	-11.7746
▁ester	-11.7759
strateg	-11.7763
revolutie	-11.7764
▁dü	-11.7764
▁creatie	-11.7769
▁cult	-11.7769
▁weber	-11.7769
▁plaatje	-11.7781
richtlijn	-11.7782
fysisch	-11.7783
▁overgave	-11.7784
change	-11.7785
▁overnemen	-11.7788
▁smet	-11.7802
root	-11.7813
▁natuurgebied	-11.7819
▁pond	-11.782
soft	-11.7823
▁wiskundig	-11.7823
sequentie	-11.7834
evenement	-11.7834
mogelijk	-11.7835
behoefte	-11.7835
vijf	-11.7836
organismen	-11.7836
europees	-11.7836
brieven	-11.7837
zilver	-11.784
gekleurd	-11.784
chlor	-11.7842
▁noordwestelijk	-11.7845
schilderingen	-11.7846
beide	-11.785
▁lint	-11.7853
▁hippo	-11.7859
▁overstap	-11.7867
▁variërend	-11.7872
▁driekwart	-11.7872
brouwer	-11.7873
▁ontevreden	-11.7874
applicatie	-11.7874
coördinaten	-11.7874
odyssee	-11.7874
slowaaks	-11.7874
▁aannemelijk	-11.7874
▁bankbiljetten	-11.7874
▁bevindingen	-11.7874
▁biodiversiteit	-11.7874
▁compensatie	-11.7874
▁eugène	-11.7874
▁gekoloniseerd	-11.7874
▁gestimuleerd	-11.7874
▁istanboel	-11.7874
▁prioriteit	-11.7874
▁pyreneeën	-11.7874
▁quetzalcoatl	-11.7874
▁stewart	-11.7874
▁tegemoet	-11.7874
▁tiberius	-11.7874
▁vleermuizen	-11.7874
▁oldambt	-11.7874
▁terroristisch	-11.7874
▁valentijn	-11.7874
▁voldoet	-11.7874
▁condoom	-11.7874
▁onschuldig	-11.7874
▁oplevert	-11.7874
▁bamboe	-11.7874
▁subtropisch	-11.7874
▁verzorgt	-11.7874
▁fictieve	-11.7874
▁opdrachtgever	-11.7874
▁vaccinatie	-11.7874
▁domineren	-11.7874
▁wieringer	-11.7874
▁aandringen	-11.7875
▁kastelen	-11.7875
▁nederrijn	-11.7875
▁studioalbum	-11.7875
▁kruisboog	-11.7875
▁young	-11.7875
▁arseen	-11.7876
▁ondervond	-11.7876
▁reconstructie	-11.7876
▁thorium	-11.7876
▁vraagstukken	-11.7877
▁creatieve	-11.7877
▁dramatische	-11.7878
tolerant	-11.7878
▁moerassen	-11.7879
overzeese	-11.7879
▁6-4	-11.7879
▁interim	-11.7881
▁jagers	-11.7881
abba	-11.7882
▁energieniveau	-11.7882
▁motto	-11.7882
▁grafiek	-11.7883
▁soap	-11.7884
▁versu	-11.7885
▁behandelt	-11.7887
▁6000	-11.7887
▁intentie	-11.7889
▁teruggebracht	-11.7889
▁kaartspel	-11.789
▁woest	-11.789
▁touw	-11.7893
chromati	-11.7893
▁achterkant	-11.7898
▁swing	-11.7902
▁gewezen	-11.7903
ptera	-11.7904
▁1846	-11.7907
▁15.000	-11.7907
▁nicol	-11.7911
▁weergeven	-11.7914
▁joop	-11.7918
▁verwachtte	-11.7921
▁nauwkeuriger	-11.7922
▁herberg	-11.7923
=53	-11.7923
drop	-11.7929
▁verhard	-11.7931
wees	-11.7935
kantoren	-11.7941
▁zwaarst	-11.7944
georiënteerd	-11.7948
▁natura	-11.7949
▁gö	-11.7949
▁symbolisch	-11.7952
lith	-11.7962
▁jim	-11.7964
▁aanvaardde	-11.7965
▁hir	-11.7976
▁eem	-11.7979
grootte	-11.7985
gepakt	-11.7985
▁lamb	-11.7992
ctus	-11.8
▁latin	-11.8019
component	-11.802
hebreeuws	-11.802
sprekers	-11.8021
westerse	-11.8021
stijging	-11.8022
vloot	-11.8022
ault	-11.8026
klaar	-11.8028
▁universit	-11.8055
▁kapital	-11.8055
boeddhist	-11.8056
▁colombia	-11.8056
▁concentreren	-11.8056
▁douglas	-11.8056
▁hegemonie	-11.8056
▁moeizaam	-11.8056
▁neutraliteit	-11.8056
▁opgevoed	-11.8056
▁orleans	-11.8056
▁pándy	-11.8056
▁telescopen	-11.8056
▁teruggekeerd	-11.8056
▁woensdag	-11.8056
▁magritte	-11.8056
▁sponsor	-11.8056
▁verbleven	-11.8056
feodale	-11.8056
▁overwicht	-11.8056
▁cinema	-11.8056
▁afghaans	-11.8056
▁galactisch	-11.8056
▁voeden	-11.8056
▁westerkwartier	-11.8057
▁emigratie	-11.8057
▁delphi	-11.8057
particip	-11.8057
provincia	-11.8058
gekookt	-11.8058
▁eindig	-11.8058
▁rockies	-11.8059
▁ortho	-11.8059
▁delegatie	-11.8059
▁afsplitsing	-11.806
▁loodrecht	-11.806
▁johnny	-11.8061
▁afkeer	-11.8062
▁emissie	-11.8062
▁6-3	-11.8063
▁grondtoon	-11.8065
▁tendens	-11.8067
▁onthoofd	-11.807
▁carlos	-11.8072
▁oneven	-11.8072
speelde	-11.8073
▁grassen	-11.8074
idols	-11.8078
▁verdrijven	-11.8078
▁cassi	-11.8082
▁1806	-11.8084
▁ioc	-11.8086
▁bruna	-11.8087
▁knol	-11.8091
polymeren	-11.8093
▁doven	-11.8093
imagin	-11.8093
▁1842	-11.8094
▁intellectuelen	-11.8097
▁steven	-11.8102
▁blanken	-11.8105
▁1810	-11.8108
▁getest	-11.8109
▁mysterie	-11.8111
196	-11.8113
▁machtig	-11.8118
koppen	-11.8126
fusie	-11.8129
▁verbreid	-11.8143
ïne	-11.8147
▁zeegebied	-11.8147
▁meervoudig	-11.8159
▁buurland	-11.8164
carbon	-11.8164
geleen	-11.8175
▁messias	-11.8176
standaardiseerd	-11.818
▁socialist	-11.818
▁kunstwerk	-11.8193
▁gott	-11.8198
china	-11.8207
isotoop	-11.8209
priester	-11.8209
beginsel	-11.821
[...]
