<unk>	0
<s>	0
</s>	0
▁de	-3.21043
s	-3.30088
.	-3.43224
,	-3.6094
'	-3.63146
▁la	-3.90576
▁e	-4.1876
▁	-4.22534
▁d	-4.33781
▁lo	-4.3946
="	-4.42065
"	-4.43971
▁l	-4.44881
▁en	-4.56128
▁a	-4.56356
doc	-4.92469
>	-4.92539
a	-5.02162
▁per	-5.03304
d	-5.05503
▁que	-5.16944
▁es	-5.17967
▁(	-5.21151
▁"	-5.24695
▁un	-5.30866
t	-5.37433
-	-5.3765
▁una	-5.43835
oc	-5.49111
▁del	-5.51776
/	-5.52779
|	-5.54314
)	-5.58621
?	-5.59009
org	-5.59278
▁id	-5.60004
curi	-5.60833
wiki	-5.60846
▁<	-5.61457
http	-5.61514
://	-5.61529
wikipedia	-5.61768
▁categories	-5.61847
▁title	-5.61853
▁url	-5.61853
▁</	-5.62254
▁dins	-5.6251
▁son	-5.63454
▁##	-5.66502
▁se	-5.73777
▁lei	-5.76013
e	-5.85818
r	-5.87122
▁qu	-5.89578
n	-5.89916
▁las	-5.94428
▁dau	-5.97239
i	-6.07264
o	-6.14471
▁au	-6.20876
es	-6.21048
▁al	-6.25869
▁los	-6.26688
▁o	-6.26951
▁mai	-6.27106
▁foguèt	-6.29869
▁s	-6.30358
comuna	-6.33808
un	-6.36721
en	-6.37867
c	-6.41456
▁sa	-6.43679
▁dei	-6.46329
▁amb	-6.47191
▁pas	-6.50608
▁coma	-6.54572
;	-6.54706
ar	-6.55583
as	-6.56932
▁region	-6.57707
l	-6.58021
an	-6.59556
’	-6.60977
▁comuna	-6.63036
",	-6.65093
u	-6.66331
▁dels	-6.69683
▁entre	-6.69694
▁i	-6.73365
▁nom	-6.77418
▁sus	-6.77453
).	-6.77926
da	-6.80022
la	-6.80533
▁francés	-6.82872
at	-6.83004
ei	-6.83963
▁tanben	-6.86157
▁:	-6.87231
▁le	-6.87506
▁departament	-6.89176
▁sègle	-6.92735
),	-6.93189
▁deu	-6.95937
ment	-6.96339
:	-6.98487
m	-6.98733
▁leis	-6.99381
una	-6.99877
▁nòrd	-7.00751
▁èra	-7.00843
al	-7.02321
on	-7.10089
▁pus	-7.10182
in	-7.11194
y	-7.11574
de	-7.13452
h	-7.15863
▁("	-7.17002
▁fòrça	-7.17138
=	-7.17283
au	-7.17777
èt	-7.20132
&	-7.21211
▁.	-7.21606
▁sud	-7.25347
b	-7.26075
us	-7.28111
▁re	-7.28757
ta	-7.29775
▁«	-7.29897
▁país	-7.30199
▁ua	-7.30837
▁an	-7.30871
▁cap	-7.32119
▁qui	-7.33141
ada	-7.35716
br	-7.35762
is	-7.36234
▁situada	-7.36385
le	-7.3647
p	-7.36681
▁pasmens	-7.37309
re	-7.38591
▁vila	-7.3895
ia	-7.4096
▁après	-7.41494
▁n	-7.42358
lo	-7.42835
va	-7.43028
na	-7.43191
it	-7.4329
▁francesa	-7.4414
gt	-7.45132
lt	-7.45864
▁et	-7.46323
2	-7.46921
ca	-7.47648
▁deis	-7.48114
▁du	-7.48925
er	-7.49198
▁mar	-7.49554
que	-7.49834
▁fin	-7.50663
▁guèrra	-7.51237
ament	-7.51926
▁m	-7.52536
nt	-7.52929
▁à	-7.53243
te	-7.53399
▁li	-7.53463
▁-	-7.53731
g	-7.54368
▁aquela	-7.57102
▁part	-7.57711
▁aquò	-7.57865
▁ne	-7.59585
▁mas	-7.60178
▁dens	-7.61726
èron	-7.62069
k	-7.63705
ir	-7.64395
f	-7.64506
z	-7.64584
5	-7.65567
▁ans	-7.66759
èra	-7.66988
ne	-7.68072
▁par	-7.68236
et	-7.68813
ron	-7.68975
▁frança	-7.69372
ma	-7.69517
ch	-7.70268
v	-7.70506
▁foguèron	-7.71236
èr	-7.71874
ri	-7.71983
▁#	-7.72406
▁sant	-7.72862
)"	-7.73685
6	-7.74143
▁fa	-7.7467
ra	-7.75345
é	-7.75956
▁con	-7.76034
▁durant	-7.7608
▁car	-7.76832
vi	-7.77942
▁ò	-7.78353
estat	-7.78355
ent	-7.78396
▁dos	-7.78598
▁geografia	-7.78692
=1	-7.78795
▁in	-7.80502
▁12	-7.8067
▁fins	-7.80871
ts	-7.81401
▁»	-7.81697
▁pauc	-7.81995
4	-7.82307
acion	-7.83493
or	-7.83578
naissença	-7.83632
▁•	-7.83715
ant	-7.84157
3	-7.844
▁partida	-7.84529
▁latin	-7.84643
▁est	-7.85187
▁17	-7.85249
▁tolosa	-7.86517
▁15	-7.86831
▁les	-7.87584
▁com	-7.88123
el	-7.88502
▁estats	-7.88524
ac	-7.8866
▁ho	-7.89644
▁segon	-7.89893
ro	-7.90326
▁16	-7.91396
▁periòde	-7.92334
▁vi	-7.92718
èst	-7.93114
è	-7.93268
▁istòria	-7.93852
▁dab	-7.94156
cion	-7.94216
▁b	-7.94382
me	-7.94769
▁sei	-7.9477
▁km	-7.94939
▁sent	-7.95118
▁pòt	-7.95248
ul	-7.95591
]]	-7.9597
um	-7.96394
ci	-7.96457
isme	-7.96543
▁partir	-7.96667
ga	-7.96693
▁populacion	-7.97945
▁pel	-7.98425
to	-7.98552
ba	-7.98605
▁comunas	-7.99163
▁tot	-7.99951
ce	-7.99991
▁lenga	-8.00436
ina	-8.01622
▁causa	-8.02145
▁politica	-8.02589
▁[[	-8.02711
ic	-8.02729
▁1	-8.02934
")	-8.03118
occitània	-8.03397
das	-8.03582
qu	-8.03631
▁occitan	-8.03675
co	-8.03858
▁[	-8.03871
▁mont	-8.03871
▁co	-8.04778
▁çò	-8.05274
ur	-8.05605
▁donc	-8.05898
ter	-8.06144
à	-8.06213
x	-8.06519
di	-8.06894
▁tres	-8.07107
▁poder	-8.07595
▁ven	-8.07925
ti	-8.07927
▁ai	-8.08601
és	-8.08945
▁13	-8.08969
▁important	-8.09228
▁bas	-8.09774
ats	-8.10455
j	-8.10815
▁cas	-8.10963
▁&	-8.11428
▁pre	-8.11454
mar	-8.11473
▁ansin	-8.11496
▁18	-8.12358
ha	-8.12643
itat	-8.12712
▁plan	-8.1283
▁11	-8.13288
ís	-8.13344
▁ma	-8.13399
ut	-8.13571
▁aquel	-8.13648
▁si	-8.14082
▁govèrn	-8.14114
mont	-8.14876
▁v	-8.15497
▁c	-8.15644
▁era	-8.15704
▁sos	-8.16144
li	-8.16431
ge	-8.17118
▁g	-8.17427
origina	-8.17956
▁p	-8.1824
car	-8.18317
▁venguèt	-8.1841
ò	-8.1867
ala	-8.18996
adas	-8.19271
▁pro	-8.19282
▁"-	-8.19451
▁aqueu	-8.19527
▁pendent	-8.20042
▁grand	-8.20333
oèst	-8.20571
▁sens	-8.2075
▁importanta	-8.21957
▁deus	-8.22259
aiga	-8.22411
▁ambé	-8.22576
▁14	-8.22832
▁màger	-8.23124
▁10	-8.23153
▁glèisa	-8.2319
▁3	-8.23573
▁non	-8.23575
ire	-8.23816
7	-8.24259
▁siá	-8.24276
▁val	-8.24517
▁còntra	-8.24547
▁eth	-8.25023
▁ont	-8.25108
ida	-8.25839
▁dempuèi	-8.25889
▁mòrt	-8.26178
empèri	-8.26276
go	-8.2646
▁ren	-8.26472
▁2	-8.26507
mo	-8.26622
▁estat	-8.26856
▁temps	-8.26979
▁sistèma	-8.27132
▁èran	-8.2719
▁doas	-8.27448
son	-8.275
▁mei	-8.27557
▁abitants	-8.27712
▁pr	-8.27947
▁man	-8.28492
▁president	-8.28557
do	-8.28696
▁aquitània	-8.2901
per	-8.29042
ista	-8.29221
▁primièr	-8.30392
▁èsser	-8.30923
man	-8.30942
▁exemple	-8.31006
▁capitala	-8.31102
▁canton	-8.31211
▁nombre	-8.31652
▁territòri	-8.31686
aisne	-8.32062
▁forma	-8.32186
▁mes	-8.32499
▁toponimia	-8.32851
il	-8.32943
▁quand	-8.33851
▁familha	-8.3407
ton	-8.34543
▁vèrs	-8.34558
pa	-8.34562
w	-8.34567
guèron	-8.35171
decès	-8.35936
▁centre	-8.36742
qui	-8.37071
illa	-8.37278
▁província	-8.37367
▁annadas	-8.37381
con	-8.37799
▁ja	-8.37852
▁va	-8.38057
est	-8.38115
cha	-8.38347
▁començament	-8.3854
nom	-8.38923
▁4	-8.38958
be	-8.39071
▁aquelei	-8.39097
▁vilatge	-8.39549
pi	-8.39611
▁segonda	-8.3978
gi	-8.40403
▁republica	-8.40739
em	-8.40854
▁cal	-8.41145
▁di	-8.41371
▁puei	-8.41662
ol	-8.41884
ius	-8.4266
ó	-8.42848
ja	-8.42889
▁po	-8.43068
▁situat	-8.43556
am	-8.43722
▁calais	-8.43822
tz	-8.43874
]	-8.43991
▁vida	-8.43999
▁grop	-8.44277
▁vesinas	-8.44278
▁granda	-8.44396
▁ben	-8.44518
▁bo	-8.44637
id	-8.44708
ara	-8.45394
im	-8.45567
pe	-8.45569
ard	-8.45614
▁sovent	-8.45726
▁permet	-8.45751
▁k	-8.46192
van	-8.46419
▁f	-8.46451
18	-8.46475
os	-8.466
í	-8.46741
▁lor	-8.4715
no	-8.47461
1	-8.4844
ing	-8.48953
atge	-8.49326
▁regions	-8.49336
▁còp	-8.49829
ian	-8.49845
se	-8.50036
-19	-8.5046
▁pi	-8.50557
▁mi	-8.50978
fa	-8.51107
ni	-8.5119
▁village	-8.51698
art	-8.51809
▁roman	-8.51915
▁encara	-8.5245
▁lengas	-8.52462
▁7	-8.52528
▁units	-8.52634
▁nobel	-8.52922
▁desvolopament	-8.53301
▁5	-8.53848
ve	-8.5402
▁premier	-8.54035
▁r	-8.54106
▁│	-8.54214
▁permetèt	-8.54295
▁ancianas	-8.54497
▁;	-8.54593
ten	-8.54681
▁ii	-8.54719
ion	-8.55255
▁ciutat	-8.55489
aire	-8.55533
par	-8.55546
ï	-8.55686
▁une	-8.56255
▁luòc	-8.56388
▁occitana	-8.56855
▁9	-8.57211
èu	-8.57211
▁ce	-8.57369
▁nauta	-8.57475
istòria	-8.57793
don	-8.58119
ua	-8.58127
ica	-8.58165
▁sieu	-8.5822
mon	-8.58392
val	-8.58396
ari	-8.58515
▁6	-8.58595
▁rei	-8.58743
▁t	-8.58987
les	-8.59253
tor	-8.59288
ós	-8.59379
tic	-8.59436
ka	-8.5946
▁generalament	-8.59521
▁mens	-8.59529
th	-8.59637
ex	-8.59742
▁gasconha	-8.59753
▁ca	-8.5981
tre	-8.5997
▁plaça	-8.6057
á	-8.60825
▁(18	-8.6095
▁sur	-8.61152
òme	-8.61185
▁dans	-8.61527
▁soa	-8.61765
▁formacion	-8.61862
bi	-8.61867
20	-8.62262
▁ni	-8.62633
▁me	-8.6267
▁pels	-8.62992
che	-8.63429
▁sufixe	-8.63558
lu	-8.63827
▁(19	-8.63924
▁novèla	-8.63932
lin	-8.63971
▁ra	-8.64052
▁cre	-8.64058
èsser	-8.64155
▁prèmi	-8.64222
ç	-8.64399
▁ba	-8.64717
▁te	-8.64836
▁mau	-8.6504
mi	-8.65178
▁corrent	-8.65268
eu	-8.65393
▁gràcias	-8.65545
▁aviá	-8.65568
▁on	-8.65642
tra	-8.66081
▁mo	-8.66353
▁pòdon	-8.66473
ava	-8.66749
▁importantas	-8.66762
▁y	-8.66776
▁ar	-8.66963
var	-8.67065
ana	-8.67533
▁reiaume	-8.67866
▁xix	-8.67867
50	-8.67883
▁far	-8.68326
ora	-8.68547
▁be	-8.68574
▁mon	-8.68895
▁tèrra	-8.68993
tar	-8.69162
▁8	-8.69386
▁abans	-8.69604
▁na	-8.69785
▁cha	-8.69876
min	-8.70021
ièr	-8.70024
▁musica	-8.70188
ig	-8.70268
...	-8.70413
▁contra	-8.70417
▁rèi	-8.70432
▁sul	-8.70616
▁mejana	-8.70676
pas	-8.70728
▁mondiala	-8.71126
▁pòble	-8.71457
mor	-8.71563
▁politic	-8.71899
▁tre	-8.72306
8	-8.72404
òl	-8.72426
ès	-8.72443
mer	-8.72456
ier	-8.72523
▁partit	-8.7253
0	-8.72535
sent	-8.72537
▁aquesta	-8.72675
aur	-8.72766
aquela	-8.72866
èl	-8.73084
cor	-8.73117
aus	-8.73126
iá	-8.73273
▁dordonha	-8.73403
las	-8.73405
▁ministre	-8.73455
guèt	-8.73723
ag	-8.73756
▁pa	-8.73844
ée	-8.73895
ver	-8.73926
▁dinastia	-8.73934
▁cada	-8.74012
60	-8.74234
▁domeni	-8.74304
▁"*	-8.744
saint	-8.7464
tes	-8.74949
▁còps	-8.75039
▁j	-8.75146
ber	-8.7529
entorn	-8.75545
▁prononciacion	-8.7567
tu	-8.75817
ita	-8.75993
▁premiera	-8.76103
ab	-8.7611
▁h	-8.76116
▁gu	-8.7628
vila	-8.76358
ça	-8.76558
▁aguèt	-8.76683
om	-8.76724
▁mot	-8.76881
armada	-8.77294
▁sen	-8.77302
▁basa	-8.77596
▁commune	-8.77734
▁enfin	-8.78166
▁mond	-8.78171
▁tu	-8.78302
▁fi	-8.78358
9	-8.78868
▁cultura	-8.78893
▁el	-8.79016
▁joan	-8.79055
▁particular	-8.79123
▁comunautat	-8.79141
▁trabalh	-8.79275
▁municipalitat	-8.79311
▁ju	-8.79314
ie	-8.79322
hi	-8.79396
▁camp	-8.79797
▁als	-8.79897
osa	-8.79962
▁parís	-8.79995
▁dempuei	-8.8029
sion	-8.80635
▁entraïnèt	-8.80905
▁bi	-8.80944
▁produccion	-8.81218
▁so	-8.81244
▁tri	-8.81417
▁z	-8.81734
▁tra	-8.81799
▁garona	-8.8186
▁tròba	-8.81875
op	-8.82764
▁sol	-8.82879
▁fòrmas	-8.82969
▁ac	-8.82988
▁ro	-8.83141
▁movement	-8.83301
eg	-8.8332
der	-8.83339
po	-8.83401
▁ta	-8.83521
▁avc	-8.83623
ai	-8.83707
gar	-8.84138
izacion	-8.84202
▁junh	-8.8421
▁biais	-8.84485
▁ais	-8.84486
▁quatre	-8.84492
bo	-8.84575
▁milions	-8.84615
gen	-8.84696
america	-8.84985
cas	-8.85134
▁anciana	-8.85145
economia	-8.85609
▁peu	-8.85693
za	-8.85795
▁no	-8.85799
▁qualques	-8.86055
iguèt	-8.86304
▁març	-8.86326
ec	-8.86488
gu	-8.86531
ven	-8.86621
he	-8.86779
▁ròtle	-8.8678
▁perigòrd	-8.86834
ish	-8.87022
eta	-8.87163
▁conegut	-8.87346
▁mal	-8.87455
▁ex	-8.87813
▁especialament	-8.87979
▁rapidament	-8.88171
èc	-8.88213
▁guiana	-8.88315
▁provença	-8.88322
▁fach	-8.8842
èn	-8.88442
fi	-8.88467
istas	-8.88578
▁generau	-8.88584
òr	-8.88693
▁puèi	-8.88794
era	-8.89003
ré	-8.89199
ix	-8.8952
ry	-8.8969
▁drech	-8.89991
▁divèrsei	-8.90088
ura	-8.90501
▁sal	-8.90549
▁tard	-8.90578
si	-8.90601
land	-8.90757
▁xx	-8.90916
▁pirenèus	-8.91221
▁probablament	-8.91373
▁situacion	-8.91444
ine	-8.9186
▁tota	-8.91969
escrivan	-8.92213
▁il	-8.9266
ble	-8.92685
▁lengadòc	-8.92879
▁gra	-8.93046
▁primièra	-8.93068
▁american	-8.93124
esa	-8.93874
▁plusors	-8.93968
des	-8.93994
▁cu	-8.94109
▁mès	-8.94193
▁or	-8.9428
espanha	-8.94321
▁bar	-8.94469
▁»,	-8.94572
com	-8.94701
ze	-8.94882
ser	-8.94912
▁ancian	-8.95071
mes	-8.9527
▁saint	-8.95523
ure	-8.95673
heim	-8.95697
ck	-8.957
men	-8.95769
▁ha	-8.96051
ologia	-8.96266
du	-8.96433
▁navarra	-8.96503
▁totjorn	-8.96512
▁administrada	-8.96586
uda	-8.96733
▁superfícia	-8.96835
▁jos	-8.96973
can	-8.9704
▁aqueste	-8.97259
▁dera	-8.97294
▁segond	-8.97317
▁deth	-8.97379
alsàcia	-8.97512
tat	-8.97627
▁aprèp	-8.97746
▁revolucion	-8.97773
éncia	-8.97923
bre	-8.9803
sta	-8.98085
▁entà	-8.9811
cl	-8.98529
▁importants	-8.98603
▁societat	-8.98745
▁bu	-8.98753
▁certanei	-8.9884
ins	-8.99107
▁sota	-8.99486
edat	-9.00418
union	-9.00514
▁solament	-9.00777
io	-9.00891
▁fe	-9.0097
▁doncas	-9.01437
issa	-9.01476
▁mor	-9.01506
25	-9.01577
▁ver	-9.01629
occitan	-9.01753
▁preséncia	-9.02058
los	-9.02087
▁meteis	-9.02201
▁can	-9.02223
▁ri	-9.02225
▁lista	-9.0228
lh	-9.02293
▁cor	-9.02361
▁riu	-9.02464
▁capitèt	-9.0249
▁men	-9.02559
▁emb	-9.02602
▁gironda	-9.02669
tion	-9.02713
har	-9.02863
▁dé	-9.03113
▁gal	-9.03122
▁data	-9.03367
▁».	-9.03448
▁sembla	-9.03622
55	-9.0367
▁ga	-9.03807
▁conquista	-9.03863
▁ab	-9.04193
▁go	-9.04332
lon	-9.04443
▁seis	-9.04592
▁iii	-9.04786
▁negre	-9.04893
tin	-9.05077
▁to	-9.05117
▁20	-9.05309
▁dich	-9.0542
▁batalha	-9.05592
▁literatura	-9.05724
▁istorica	-9.05969
tiu	-9.06026
▁jo	-9.06028
▁païses	-9.0608
▁pe	-9.06161
enc	-9.06373
president	-9.06388
▁comp	-9.06426
han	-9.06504
30	-9.06549
70	-9.06585
ho	-9.06645
▁res	-9.07014
mat	-9.07354
efèct	-9.07475
ü	-9.07663
▁ci	-9.07742
00	-9.07746
40	-9.07908
tica	-9.08187
▁massa	-9.08216
▁crisi	-9.08401
cal	-9.0877
▁su	-9.08884
gas	-9.08918
aparicion	-9.08954
▁bastida	-9.08962
ves	-9.08995
▁nacionala	-9.09011
▁pont	-9.09059
▁faguèt	-9.09109
▁euròpa	-9.09187
▁principalament	-9.09265
▁costat	-9.09511
48	-9.09573
bu	-9.09605
ot	-9.09768
▁gascona	-9.09876
▁italian	-9.09884
sur	-9.09892
▁he	-9.09936
▁china	-9.10247
▁xviii	-9.10375
▁ten	-9.10467
gue	-9.10522
(	-9.10569
▁julhet	-9.10572
òbra	-9.10617
isson	-9.10722
bar	-9.10869
ocean	-9.10922
▁novela	-9.11046
44	-9.11195
ang	-9.11227
▁gers	-9.11309
▁cort	-9.11369
òs	-9.1143
▁comencèt	-9.11539
19	-9.1176
amor	-9.118
vo	-9.11811
▁posicion	-9.11878
▁rèsta	-9.11913
ue	-9.12012
ans	-9.12023
ap	-9.12094
▁presenta	-9.12162
▁pu	-9.12175
ud	-9.12186
▁—	-9.12426
▁creacion	-9.12761
▁tarn	-9.12959
alas	-9.13004
fénié	-9.13276
▁regime	-9.13277
ille	-9.13366
32	-9.13394
▁uèi	-9.13445
tas	-9.13495
▁tractat	-9.13589
▁gran	-9.13764
euròpa	-9.13819
gon	-9.13838
47	-9.13876
ou	-9.13911
ancian	-9.14058
▁san	-9.14251
▁succès	-9.14263
din	-9.14364
▁decembre	-9.14561
▁ara	-9.14561
▁mitat	-9.14567
dor	-9.14601
▁alemand	-9.14946
ador	-9.15014
53	-9.151
ng	-9.15129
amp	-9.15139
aut	-9.15343
▁situa	-9.15345
▁espècias	-9.15397
lenga	-9.15426
▁pan	-9.15569
rat	-9.15741
▁setembre	-9.15862
▁ardenas	-9.15956
▁novembre	-9.16064
▁pòu	-9.16106
▁principala	-9.16121
90	-9.16271
39	-9.16332
10	-9.16349
chi	-9.16367
▁general	-9.16419
tiva	-9.16517
amb	-9.16532
bla	-9.16831
lista	-9.16898
80	-9.17074
efiech	-9.17128
▁tor	-9.17248
iana	-9.17294
ença	-9.17309
▁torn	-9.17376
▁damb	-9.17403
▁compren	-9.17664
▁boyrie	-9.17795
▁linha	-9.17877
ko	-9.17944
iv	-9.17951
▁economica	-9.18021
ban	-9.18108
existéncia	-9.18242
autrei	-9.18384
▁òbra	-9.18496
bert	-9.18498
ren	-9.18503
▁xiii	-9.1861
▁formula	-9.18624
▁espanhòla	-9.18647
africa	-9.18723
▁sector	-9.18795
▁via	-9.18833
▁min	-9.18874
▁victòria	-9.19035
▁centrala	-9.19137
▁clima	-9.19181
43	-9.19238
▁autre	-9.19272
ad	-9.19283
▁europèa	-9.19291
if	-9.19349
isse	-9.19475
▁sub	-9.19557
▁cau	-9.19609
▁long	-9.19671
▁pour	-9.1971
ation	-9.19727
às	-9.1975
56	-9.19895
▁har	-9.2003
té	-9.2004
▁comte	-9.20085
▁iv	-9.2028
▁é	-9.20427
port	-9.20507
ois	-9.20618
▁vilas	-9.20662
▁aver	-9.20729
rà	-9.20805
▁bon	-9.20821
▁lemosin	-9.20914
▁dire	-9.20946
personalitat	-9.21032
42	-9.21041
▁fer	-9.21251
▁òme	-9.21336
cap	-9.21441
independéncia	-9.2152
▁foncion	-9.21528
rac	-9.21541
organizacion	-9.21626
▁castèl	-9.21736
▁camin	-9.2177
▁militar	-9.21853
▁contraròtle	-9.21991
▁nòva	-9.22036
▁etc	-9.22069
▁totes	-9.22197
vent	-9.22416
ques	-9.22482
▁civila	-9.22487
court	-9.22655
▁autres	-9.22666
▁maugrat	-9.22743
emp	-9.22744
vin	-9.22786
ger	-9.22828
bon	-9.22844
▁paire	-9.22918
ement	-9.22919
33	-9.23079
▁lu	-9.2313
elle	-9.23367
▁haut	-9.23468
uc	-9.2349
tan	-9.23565
▁ban	-9.23622
▁membres	-9.23627
tri	-9.2374
bra	-9.23777
sse	-9.23788
ària	-9.23821
▁economia	-9.23851
41	-9.23942
▁bel	-9.23961
▁xi	-9.24014
ón	-9.24036
▁relativament	-9.24064
tur	-9.24073
mapa	-9.24185
fe	-9.2419
autres	-9.24254
òc	-9.24314
▁cors	-9.24353
▁seriá	-9.24359
▁format	-9.24506
▁30	-9.24589
▁genièr	-9.24611
ges	-9.24674
▁considerat	-9.24736
nh	-9.24821
ay	-9.24962
63	-9.25082
bor	-9.25125
▁onte	-9.2515
gal	-9.25217
del	-9.25275
27	-9.25436
autor	-9.25472
pro	-9.25481
▁tipe	-9.25486
mé	-9.25531
▁mejan	-9.25657
ju	-9.25686
35	-9.25695
omonimia	-9.25702
▁pes	-9.25738
rin	-9.25846
▁dauzat	-9.25875
ires	-9.26203
52	-9.26214
bas	-9.26321
ist	-9.26443
▁enter	-9.26495
via	-9.26528
aquel	-9.26708
ric	-9.26901
▁veire	-9.27213
65	-9.27287
▁personas	-9.27294
▁inter	-9.27422
▁rus	-9.27487
ria	-9.27489
°	-9.27496
...)	-9.27551
▁près	-9.27577
enta	-9.2766
bat	-9.27911
▁cinc	-9.27954
▁fòrças	-9.27967
29	-9.28092
ke	-9.28173
bal	-9.28194
▁tèrme	-9.28224
64	-9.28311
▁sègles	-9.28315
sac	-9.2845
avan	-9.28686
avairon	-9.28978
▁pen	-9.29011
col	-9.29032
▁principalas	-9.29059
ança	-9.29067
let	-9.29086
▁bl	-9.29101
ena	-9.29259
▁hu	-9.29332
▁van	-9.29412
▁teoria	-9.29423
met	-9.29477
▁bal	-9.29478
▁jean	-9.29505
▁gi	-9.29693
mas	-9.2971
hon	-9.29746
lar	-9.29826
iva	-9.29928
▁tant	-9.29982
▁demorèt	-9.30071
iers	-9.30077
len	-9.30113
▁for	-9.30154
▁continent	-9.30259
ip	-9.30347
▁gascon	-9.30388
ret	-9.30433
▁unit	-9.30516
arra	-9.30551
▁cent	-9.30561
òrdre	-9.30583
hu	-9.30607
99	-9.30614
▁gas	-9.30704
cu	-9.30715
▁procès	-9.30826
▁pau	-9.30917
▁religion	-9.30943
ville	-9.31219
den	-9.31224
▁direccion	-9.3143
fer	-9.31719
▁venir	-9.31817
▁monde	-9.31851
95	-9.31915
▁anglés	-9.31983
▁fòrma	-9.3203
ais	-9.32216
cul	-9.32288
ya	-9.32428
▁autrei	-9.32647
iu	-9.32841
ob	-9.33038
▁passa	-9.33073
▁division	-9.33086
54	-9.33171
▁cr	-9.33261
▁aperaquí	-9.33304
zi	-9.33379
▁vau	-9.33453
cy	-9.33483
▁nu	-9.33504
▁xvii	-9.33505
▁avans	-9.33606
ru	-9.33617
49	-9.33712
▁ré	-9.33762
universitat	-9.33824
23	-9.34026
▁ti	-9.3409
▁major	-9.3416
▁nivèu	-9.34165
epòca	-9.34187
▁ei	-9.342
▁av	-9.34468
▁col	-9.34543
|*	-9.34598
37	-9.3461
▁fisica	-9.34705
cre	-9.3481
esp	-9.34863
▁gen	-9.3487
24	-9.34887
▁fan	-9.3511
èla	-9.35353
eish	-9.35365
▁constitucion	-9.35421
▁lòc	-9.35516
▁còrs	-9.35519
▁subretot	-9.35575
▁òbras	-9.35603
ú	-9.35668
▁moment	-9.357
▁x	-9.35707
▁tal	-9.35719
pin	-9.35778
dia	-9.35869
aqueu	-9.35926
gut	-9.35929
▁conselh	-9.36031
▁còsta	-9.36035
▁totei	-9.36051
▁plus	-9.36112
▁reg	-9.36133
▁elegit	-9.36244
▁ka	-9.36246
ssa	-9.36267
èus	-9.36277
▁filh	-9.3648
▁met	-9.36524
influéncia	-9.36547
▁finala	-9.36548
ccion	-9.36784
▁do	-9.36802
▁deguèt	-9.36836
▁militara	-9.36923
ner	-9.3696
fin	-9.37067
▁illas	-9.37162
▁–	-9.37182
agost	-9.37222
▁trans	-9.37231
▁jorn	-9.37386
▁catalan	-9.37404
▁ru	-9.37443
ez	-9.37467
▁èst	-9.37591
▁comèrci	-9.37611
59	-9.37814
entre	-9.37819
▁carrièra	-9.37879
▁xvi	-9.37939
wa	-9.37954
▁public	-9.37957
▁benlèu	-9.37993
▁bearn	-9.38081
▁lanas	-9.38103
▁navèra	-9.38113
idae	-9.38152
▁britanic	-9.38413
▁25	-9.38435
"),	-9.38454
98	-9.38494
▁punt	-9.38501
▁comtat	-9.38505
▁evolucion	-9.38548
▁recebèt	-9.38618
▁nord	-9.38636
cus	-9.38717
▁mer	-9.38739
▁vent	-9.38802
▁conflicte	-9.38804
▁santa	-9.38857
▁practica	-9.38871
acum	-9.3895
ll	-9.38982
▁vin	-9.39038
22	-9.39104
▁relacions	-9.39117
34	-9.39148
▁territòris	-9.39255
▁bat	-9.39355
▁principaus	-9.39399
26	-9.39423
▁subre	-9.39554
68	-9.39783
▁pòrt	-9.39906
▁dicha	-9.40047
▁nòtas	-9.40151
▁cambi	-9.40249
bri	-9.40271
▁creat	-9.40338
tge	-9.40372
▁existís	-9.40448
gui	-9.40459
▁tropas	-9.40468
▁alara	-9.40574
▁reialme	-9.40587
▁gar	-9.40684
▁roma	-9.4069
▁the	-9.40876
nat	-9.40881
].	-9.40949
38	-9.41008
▁temperatura	-9.41078
▁hi	-9.4119
ed	-9.41403
ux	-9.41423
ors	-9.41477
nes	-9.41535
ics	-9.41603
iguèron	-9.41641
ali	-9.41737
▁totala	-9.4174
▁coneguda	-9.41746
21	-9.4177
_	-9.41846
ple	-9.41904
▁russia	-9.4193
aquelei	-9.41966
ilha	-9.41978
▁formar	-9.42003
eur	-9.42015
ns	-9.42036
pu	-9.42076
▁dona	-9.42214
▁ber	-9.42438
▁occidentala	-9.42518
▁epòca	-9.42727
▁site	-9.4282
▁sensa	-9.42847
▁totas	-9.42856
▁administrativa	-9.42886
▁escrivan	-9.42996
▁limit	-9.43143
▁combat	-9.43176
cia	-9.43213
▁sas	-9.43282
72	-9.43408
▁ret	-9.43477
jo	-9.43508
and	-9.43563
▁uei	-9.43567
45	-9.43654
iz	-9.43723
▁sonque	-9.43778
sant	-9.43788
▁ponch	-9.43828
gra	-9.43907
▁martin	-9.44079
▁franc	-9.44086
ff	-9.44159
▁vol	-9.4419
").	-9.44288
ira	-9.44336
46	-9.44469
cer	-9.4447
▁tornar	-9.44579
▁lors	-9.44684
▁loís	-9.45012
tro	-9.45401
▁pòbles	-9.45683
èa	-9.45685
izada	-9.45697
▁diferents	-9.45897
cions	-9.45922
ris	-9.45965
▁fil	-9.4607
83	-9.46175
▁grèc	-9.46264
▁rep	-9.46322
71	-9.46367
79"	-9.46484
berg	-9.46506
▁├─	-9.46512
13"	-9.46629
07	-9.46757
▁vo	-9.46828
▁presa	-9.46851
▁pòrta	-9.46965
▁internacionala	-9.47037
...).	-9.47126
11	-9.47158
iment	-9.47248
▁lòng	-9.47278
▁aires	-9.47283
sson	-9.47313
39"	-9.47337
òt	-9.47368
aris	-9.47382
nd	-9.47464
28"	-9.4747
54"	-9.47479
▁bénédicte	-9.47613
43"	-9.47684
▁influéncia	-9.47688
69"	-9.47778
▁art	-9.47864
ula	-9.48016
age	-9.48064
73"	-9.48065
unitat	-9.48075
agricultura	-9.48168
pres	-9.48299
58"	-9.48335
zo	-9.48349
dre	-9.48379
▁antica	-9.48393
▁regim	-9.48473
▁brasil	-9.48513
▁xiv	-9.48611
▁emp	-9.48631
53"	-9.48654
80"	-9.48665
68"	-9.48683
▁utilizat	-9.4872
ièrs	-9.48742
21"	-9.48757
▁w	-9.48787
29"	-9.48862
▁maria	-9.4889
lan	-9.48962
81"	-9.49043
▁u	-9.49096
▁títol	-9.49147
▁pal	-9.49216
ov	-9.49232
33"	-9.49243
▁construccion	-9.49293
stra	-9.49316
ique	-9.49397
09	-9.49545
res	-9.49654
gan	-9.49732
lé	-9.49756
òla	-9.49791
▁mentre	-9.49817
▁lengadociana	-9.49859
69	-9.4986
78"	-9.49941
sol	-9.49972
pt	-9.50002
59"	-9.50051
ieu	-9.5008
▁fo	-9.50122
▁nauts	-9.50266
prenguèt	-9.50302
46"	-9.50335
▁orientala	-9.50357
ny	-9.50385
44"	-9.5044
▁tèrras	-9.50469
▁fòrt	-9.50492
▁persona	-9.50496
)|	-9.50516
23"	-9.50534
03"	-9.50544
60"	-9.50546
▁quimia	-9.50587
nça	-9.50601
75"	-9.50659
une	-9.50696
47"	-9.50772
▁còr	-9.50821
cle	-9.50866
aquitània	-9.50992
57"	-9.50996
25"	-9.51123
rè	-9.51183
85"	-9.51252
▁dieu	-9.51298
24"	-9.5136
48"	-9.51365
emperaire	-9.5143
▁quasi	-9.51473
49"	-9.51473
▁patz	-9.51528
her	-9.51544
74"	-9.5156
42"	-9.51564
88"	-9.5164
76"	-9.51699
05	-9.51813
08	-9.5183
▁talha	-9.51998
▁rason	-9.52003
itàlia	-9.52014
41"	-9.52021
31	-9.52137
70"	-9.52177
67"	-9.52212
▁natura	-9.52247
04	-9.52255
14"	-9.52303
36	-9.52324
▁pat	-9.52349
anta	-9.52365
▁riba	-9.52369
56"	-9.52392
22"	-9.52403
▁definicion	-9.52433
▁22	-9.5244
51"	-9.52449
45"	-9.52454
its	-9.52468
27"	-9.52471
72"	-9.52524
▁canal	-9.52525
q	-9.52577
▁montanha	-9.52585
34"	-9.52589
71"	-9.5264
77"	-9.52723
55"	-9.52732
83"	-9.52744
30"	-9.52768
▁populara	-9.52818
▁catalonha	-9.52871
93"	-9.52888
▁pla	-9.52898
89"	-9.52909
asia	-9.53009
ièra	-9.5305
20"	-9.53165
▁tan	-9.53165
66"	-9.53217
84"	-9.53228
▁pè	-9.5324
annada	-9.53252
50"	-9.53302
26"	-9.53363
▁pren	-9.53368
▁bra	-9.53428
riá	-9.5343
63"	-9.53432
40"	-9.5349
37"	-9.53569
ilh	-9.53601
▁gaireben	-9.53608
62"	-9.53613
esca	-9.53683
08"	-9.53725
▁quauquei	-9.53749
16"	-9.53945
▁1790	-9.53957
▁classa	-9.53987
35"	-9.54059
64"	-9.54175
87"	-9.54194
for	-9.54201
▁natural	-9.54202
06"	-9.54266
▁senhor	-9.54266
96"	-9.54269
rre	-9.54525
78	-9.54626
▁chi	-9.54725
92	-9.54784
11"	-9.54791
▁color	-9.54811
02"	-9.54843
né	-9.54854
▁cam	-9.54925
86"	-9.54931
10"	-9.54959
15	-9.55033
izat	-9.55091
▁comença	-9.5512
36"	-9.55133
▁meteissa	-9.55145
ini	-9.55187
▁famós	-9.55232
ran	-9.55297
65"	-9.55322
▁pichon	-9.55323
82"	-9.55328
▁movements	-9.55334
ians	-9.55398
eleccion	-9.55402
▁xii	-9.55412
01"	-9.55414
81	-9.55421
ki	-9.55514
▁ensemble	-9.55518
ib	-9.55519
octobre	-9.55531
28	-9.55546
▁blanc	-9.55609
09"	-9.55626
▁principau	-9.55658
92"	-9.55673
61	-9.55681
▁nomenat	-9.55681
▁alora	-9.55862
▁estructura	-9.55907
86	-9.55973
▁mètres	-9.56017
▁(17	-9.56032
▁economic	-9.56086
▁itàlia	-9.56115
▁medecina	-9.56132
17"	-9.56133
75	-9.56171
07"	-9.56185
▁font	-9.56192
79	-9.56236
▁sola	-9.56256
vèrs	-9.56386
62	-9.56475
66	-9.56529
ient	-9.56643
▁fut	-9.56665
ler	-9.5667
61"	-9.56722
▁superficia	-9.56737
88	-9.56749
▁oficiala	-9.56787
òta	-9.56859
▁teatre	-9.56889
▁flor	-9.56906
evolucion	-9.56955
▁ve	-9.57029
▁revènge	-9.5704
52"	-9.57123
▁planeta	-9.57187
▁her	-9.57236
32"	-9.5724
04"	-9.57291
▁declin	-9.57373
05"	-9.57455
cut	-9.57516
12"	-9.57689
15"	-9.57737
12	-9.57743
▁ko	-9.57749
▁romana	-9.57752
19"	-9.57755
ère	-9.57775
▁bor	-9.57784
▁tornarmai	-9.57811
▁trobar	-9.5783
▁jorns	-9.57858
▁guèrras	-9.58083
▁var	-9.58095
antiquitat	-9.58265
▁aqueth	-9.58332
ostal	-9.58332
ariá	-9.58363
▁aital	-9.58463
38"	-9.58503
èran	-9.58554
▁2000	-9.58636
▁poissança	-9.58674
tier	-9.58705
▁1990	-9.58754
95"	-9.58772
província	-9.58842
nic	-9.58845
▁ves	-9.58887
▁prèp	-9.58895
cr	-9.58971
bol	-9.58994
▁picardia	-9.59037
58	-9.59064
85	-9.5911
▁mena	-9.59121
▁classificacion	-9.59211
▁combats	-9.59214
94"	-9.59291
97	-9.59314
▁atlantics	-9.59374
31"	-9.5938
acions	-9.59405
▁significa	-9.59427
57	-9.59473
aquesta	-9.59474
▁rota	-9.59475
;/	-9.59647
▁jol	-9.59673
90"	-9.59767
▁britanica	-9.59791
ey	-9.59941
▁of	-9.59996
▁lutz	-9.60018
▁grands	-9.60103
tura	-9.60124
▁pèire	-9.60143
99"	-9.60158
▁peninsula	-9.60203
aquò	-9.6027
▁quartièr	-9.60279
able	-9.60286
▁vinhana	-9.60291
izar	-9.603
▁ville	-9.60328
▁membre	-9.6035
▁mesura	-9.60394
prèmi	-9.60429
▁nivèl	-9.60444
acabèt	-9.6049
▁scientific	-9.60516
dit	-9.60585
pon	-9.60591
▁cant	-9.60628
▁1960	-9.60637
▁wa	-9.60669
▁corresa	-9.60681
ell	-9.60693
▁sin	-9.60759
13	-9.60781
guer	-9.60839
▁matèria	-9.60917
▁ras	-9.6098
▁!	-9.61032
estudi	-9.61044
▁ge	-9.61055
sh	-9.6106
18"	-9.6112
▁mort	-9.61148
▁present	-9.61152
98"	-9.61225
▁~	-9.61235
lia	-9.61242
▁espanhòl	-9.61245
je	-9.61273
▁fis	-9.61273
▁alemanda	-9.6128
87	-9.61324
jar	-9.61396
▁cont	-9.61402
▁grafia	-9.61527
enca	-9.61559
ben	-9.61563
ev	-9.61579
96	-9.617
til	-9.61752
ub	-9.61868
67	-9.61941
▁buenos	-9.61955
▁modèrna	-9.61999
tèt	-9.62046
▁bassa	-9.62079
▁duas	-9.62154
▁ou	-9.6216
▁majoritat	-9.62228
▁autor	-9.62294
▁grana	-9.62308
97"	-9.62451
archi	-9.6251
ras	-9.62626
▁parallèl	-9.62671
energia	-9.62689
▁autra	-9.62747
91"	-9.62838
tant	-9.62889
▁diferentas	-9.62906
▁bri	-9.63032
▁am	-9.63056
▁modèl	-9.63104
▁atal	-9.63117
▁aqueles	-9.63145
bach	-9.63153
fre	-9.63169
ensemble	-9.63169
ros	-9.6323
sen	-9.6336
▁fu	-9.63394
▁contunh	-9.634
▁populacions	-9.63445
non	-9.6354
▁autonòma	-9.63543
cat	-9.63636
▁john	-9.63674
▁barcelona	-9.63749
gr	-9.6375
arribada	-9.63787
▁1970	-9.63839
▁sovietica	-9.6387
▁valor	-9.64007
up	-9.64017
▁ath	-9.64151
▁mag	-9.64158
▁maire	-9.64203
▁er	-9.64283
lis	-9.64383
mai	-9.64479
▁eleccions	-9.64514
▁rec	-9.64577
willer	-9.64687
▁quilomètres	-9.64732
▁actuala	-9.64827
ino	-9.64836
▁element	-9.64893
▁elements	-9.6501
▁auta	-9.65149
▁mitan	-9.65282
cant	-9.65353
▁passatge	-9.65396
▁gaire	-9.65422
▁seu	-9.65423
▁urban	-9.65447
bel	-9.65504
▁21	-9.65529
▁demanda	-9.65549
▁nòu	-9.65676
â	-9.65775
▁gentilici	-9.65776
▁pichona	-9.65845
▁└─	-9.65942
fu	-9.65949
duc	-9.66096
▁ges	-9.66131
▁argentina	-9.66169
ly	-9.66246
▁genre	-9.66246
17	-9.6643
òu	-9.66438
octòbre	-9.66442
"&	-9.66461
▁conoguè	-9.6648
▁hè	-9.66516
pla	-9.6664
▁projècte	-9.66651
▁jamai	-9.66807
▁2009	-9.66842
eux	-9.6685
76	-9.669
▁and	-9.66938
▁xv	-9.66944
laureat	-9.66998
abriu	-9.66999
▁desfacha	-9.67113
▁rèine	-9.67115
▁basco	-9.67123
cho	-9.67151
▁fòra	-9.67154
▁2005	-9.67168
kh	-9.67183
▁estada	-9.67202
▁naut	-9.67242
▁br	-9.67254
▁cinèma	-9.67281
▁bèth	-9.67303
▁caps	-9.67393
aceae	-9.67429
ions	-9.67431
▁mediterranèa	-9.6745
▁partie	-9.67528
▁bastit	-9.67684
▁zòna	-9.67729
essa	-9.67844
inas	-9.67885
▁permetent	-9.67929
▁grops	-9.68023
ajuda	-9.68031
▁fau	-9.68033
escòla	-9.68037
▁para	-9.68062
pr	-9.68214
igny	-9.68219
gat	-9.68244
ama	-9.68273
▁avián	-9.68314
pol	-9.68324
▁st	-9.68409
▁lucha	-9.68432
rit	-9.68456
pan	-9.68508
pre	-9.68533
▁sostèn	-9.68696
mic	-9.68706
mand	-9.68708
94	-9.68712
▁organizacion	-9.68735
vé	-9.68915
tel	-9.68979
mp	-9.69034
▁empèri	-9.69104
autre	-9.69123
▁resisténcia	-9.69164
▁fusion	-9.69177
▁question	-9.69185
lat	-9.69222
abril	-9.69497
▁condicions	-9.69518
ado	-9.69558
arn	-9.69569
▁espanha	-9.69599
▁alemanha	-9.69632
▁japon	-9.69643
▁segur	-9.69734
oli	-9.69757
▁venguèron	-9.69791
mu	-9.69851
▁crosada	-9.69911
▁parlar	-9.69988
▁atau	-9.70006
ola	-9.70083
▁2004	-9.70146
objècte	-9.70157
▁òmes	-9.70221
▁2008	-9.70237
of	-9.70293
gues	-9.70355
▁cat	-9.70442
▁alavetz	-9.70471
▁papa	-9.70475
▁sieus	-9.70514
rie	-9.70523
▁febrièr	-9.70535
avi	-9.70551
▁istoric	-9.70569
▁malgrat	-9.70709
tal	-9.71055
dors	-9.71086
estacion	-9.71089
▁amassa	-9.71135
▁24	-9.71159
▁26	-9.71177
ê	-9.71201
▁majora	-9.71423
▁demòra	-9.71493
▁armadas	-9.71516
jan	-9.71541
▁constitu	-9.7156
tte	-9.71565
93	-9.7159
▁proprietat	-9.7166
▁correspond	-9.71663
onne	-9.71714
▁polonha	-9.71761
▁mission	-9.71762
▁egalament	-9.718
▁pres	-9.71831
ús	-9.71873
▁passè	-9.71879
▁23	-9.7188
▁finalament	-9.71937
categoria	-9.71937
▁londres	-9.71937
▁defensa	-9.71939
▁representa	-9.71989
▁27	-9.72021
▁otoman	-9.72115
▁ataca	-9.72153
orient	-9.72176
▁independent	-9.72178
▁mol	-9.72241
▁designa	-9.72264
iera	-9.72274
ak	-9.72389
▁dont	-9.7239
▁carcin	-9.72456
my	-9.72496
çon	-9.72624
▁biografia	-9.72648
▁mat	-9.7277
▁prince	-9.72975
▁chinés	-9.73007
aires	-9.73026
òlt	-9.73104
▁fondada	-9.73122
▁pression	-9.732
ance	-9.73231
aragon	-9.73242
enh	-9.73244
gre	-9.73251
▁lemosina	-9.73268
far	-9.73299
autras	-9.73433
▁religiós	-9.73433
16	-9.73455
="14	-9.73592
mb	-9.73667
▁vengut	-9.73699
-12	-9.73704
01	-9.74007
▁possible	-9.74078
▁char	-9.74119
idas	-9.74155
▁primièrs	-9.74278
pel	-9.74308
▁version	-9.74352
="19	-9.74405
vel	-9.74412
▁pol	-9.74438
eria	-9.74444
▁conten	-9.74522
▁compausa	-9.74557
▁parlament	-9.74606
▁fois	-9.74613
▁quantitat	-9.74621
▁seguida	-9.74622
tòri	-9.74654
▁divèrsas	-9.74675
▁mé	-9.7468
▁libre	-9.74692
▁pin	-9.74779
▁ch	-9.7482
▁simbòl	-9.74931
▁club	-9.74955
▁vir	-9.74973
lle	-9.74981
▁fenomèn	-9.75008
▁louis	-9.75101
▁mantun	-9.75113
▁dia	-9.75168
▁moriguèt	-9.75196
òm	-9.75289
▁bòsc	-9.75298
bil	-9.75323
▁fait	-9.75343
▁classica	-9.7538
èrs	-9.75389
▁puish	-9.75424
▁gre	-9.75463
aud	-9.75474
assegurar	-9.75511
▁estimada	-9.75532
industria	-9.75558
▁avec	-9.75745
▁contrari	-9.75889
alemanha	-9.7594
tius	-9.75945
▁ger	-9.75954
▁darrièr	-9.75957
▁jove	-9.7606
▁quan	-9.76087
▁castèth	-9.76249
▁creada	-9.7627
▁composicion	-9.76279
▁gard	-9.76303
-17	-9.76365
ona	-9.76371
▁armada	-9.76445
▁|	-9.76474
▁fondacion	-9.76501
▁pò	-9.76659
00"	-9.76689
▁generalitat	-9.76691
▁comun	-9.76717
▁vien	-9.76847
▁duc	-9.76903
▁ram	-9.76957
ong	-9.77018
▁uman	-9.77032
="15	-9.77036
91	-9.77105
▁vii	-9.77145
ö	-9.77192
bur	-9.77241
89	-9.77241
ach	-9.77248
▁19	-9.77264
ign	-9.77283
nu	-9.77447
islam	-9.7748
▁províncias	-9.77494
mal	-9.77589
▁1980	-9.77605
airal	-9.77607
altitud	-9.77616
▁peir	-9.77676
▁sch	-9.77677
▁nacional	-9.77716
="18	-9.77722
▁disparicion	-9.77752
quin	-9.77846
vis	-9.77878
ano	-9.78026
▁ros	-9.78049
▁verd	-9.78063
▁gallés	-9.78127
▁fre	-9.78184
=31	-9.78193
▁vòl	-9.78297
mè	-9.78319
▁roergue	-9.7842
ches	-9.78442
▁im	-9.78476
camp	-9.78484
▁fr	-9.78605
ale	-9.78709
ér	-9.78721
etat	-9.78772
03	-9.78779
▁professor	-9.7888
▁trabalhs	-9.78891
▁filha	-9.78893
▁anti	-9.78894
erau	-9.7898
▁obtenguèt	-9.79071
▁arre	-9.79282
ji	-9.79442
▁europèus	-9.79445
ité	-9.7945
az	-9.79482
▁descubèrta	-9.79501
cin	-9.79501
▁mos	-9.79512
▁perque	-9.79618
▁cro	-9.79626
▁donat	-9.79711
▁origina	-9.79738
als	-9.79742
▁nau	-9.79748
51	-9.79886
▁ap	-9.79914
▁dificultats	-9.79957
▁alemannisch	-9.80022
clar	-9.80114
estructura	-9.80117
▁principal	-9.80217
ão	-9.80246
▁mus	-9.80278
▁superior	-9.8034
▁nos	-9.80446
="17	-9.80567
▁2010	-9.80656
ific	-9.80858
èm	-9.80877
fo	-9.80894
▁central	-9.80905
▁environ	-9.80921
▁figura	-9.80985
▁manca	-9.81024
74	-9.81027
nor	-9.81096
▁pré	-9.81107
▁compausat	-9.81125
▁varia	-9.81158
int	-9.8116
▁cette	-9.8122
▁poguèt	-9.81242
▁cab	-9.81315
fond	-9.81325
▁garda	-9.81338
the	-9.81421
▁occitània	-9.81474
▁egipte	-9.81493
▁plana	-9.815
▁compta	-9.81562
pp	-9.81628
▁realitat	-9.81644
▁=	-9.81674
▁novèlas	-9.81716
ili	-9.81743
▁nasquèt	-9.81763
sir	-9.81766
-15	-9.81806
14	-9.81833
▁dis	-9.81935
dra	-9.81991
▁not	-9.82004
là	-9.82008
ici	-9.82139
▁bur	-9.82207
fic	-9.82315
▁proteccion	-9.82346
gh	-9.824
ain	-9.82429
▁jc	-9.82444
▁davant	-9.8252
▁sala	-9.82599
▁diocèsi	-9.82602
argent	-9.82614
▁rem	-9.82663
▁don	-9.82736
▁vers	-9.82792
acte	-9.82809
▁nov	-9.82846
▁ancians	-9.82864
▁pèira	-9.82915
abla	-9.82917
▁nuclèu	-9.82935
▁guerre	-9.82938
net	-9.82944
nas	-9.83048
▁serà	-9.83079
▁caractèr	-9.83132
guda	-9.83209
san	-9.83289
▁intèrna	-9.83336
▁grècia	-9.83417
▁mu	-9.83418
dura	-9.83422
icas	-9.8344
sin	-9.83469
▁italiana	-9.83482
▁marca	-9.83487
▁forman	-9.83512
quèt	-9.83526
dar	-9.83545
rada	-9.83579
▁charles	-9.83614
▁imp	-9.83633
▁marc	-9.83661
▁menaça	-9.83681
82	-9.8373
▁senhors	-9.8382
▁institucions	-9.83835
▁mur	-9.83853
▁fiu	-9.83873
▁principat	-9.83925
▁generala	-9.83962
77	-9.84035
nia	-9.84097
▁parròquia	-9.84124
▁centrau	-9.84125
eurs	-9.84155
2.	-9.84187
activitat	-9.84288
▁femna	-9.84324
▁été	-9.8437
hen	-9.84419
▁ter	-9.84565
elha	-9.8465
ons	-9.84684
▁tecnicas	-9.84693
84	-9.84703
▁caracteristicas	-9.84723
▁fèrre	-9.8474
▁nascut	-9.84781
▁lauragués	-9.84819
cé	-9.84872
internet	-9.84895
aver	-9.84931
▁carles	-9.84963
▁indian	-9.84973
▁28	-9.84996
▁zònas	-9.85005
▁fort	-9.85115
▁diferéncia	-9.85126
we	-9.8514
▁bre	-9.85187
wi	-9.852
▁serv	-9.85228
▁vallée	-9.85328
▁programa	-9.85339
▁rai	-9.85513
▁novèu	-9.8557
trò	-9.85602
▁sustot	-9.85608
▁musulmans	-9.85609
▁sor	-9.85614
▁champanha	-9.85735
cher	-9.85741
nhac	-9.85799
▁elle	-9.858
▁carga	-9.86129
erie	-9.8624
▁resultat	-9.8642
vre	-9.86569
iran	-9.86599
06	-9.86604
▁basc	-9.86614
elli	-9.86661
▁dur	-9.86746
ô	-9.86751
▁japonés	-9.8679
▁1945	-9.86798
án	-9.86804
▁gau	-9.86896
tics	-9.86992
▁ditz	-9.87033
▁2006	-9.87046
accion	-9.87064
ián	-9.87083
▁autras	-9.87135
▁citat	-9.87144
▁argentin	-9.87187
primièr	-9.87237
tres	-9.87356
onda	-9.87408
▁cou	-9.87432
-20	-9.87477
arc	-9.87478
stru	-9.87496
rou	-9.875
▁fòrta	-9.87508
bus	-9.87532
dé	-9.87575
grad	-9.87648
▁considerada	-9.87703
explica	-9.87755
▁tròp	-9.87784
vers	-9.87924
▁aux	-9.87945
▁2007	-9.88037
og	-9.88044
▁tradicion	-9.88134
ificacion	-9.88177
ski	-9.88191
administracion	-9.8823
▁nacionau	-9.88267
▁alemands	-9.88267
▁darrier	-9.88378
▁hon	-9.88378
▁retorn	-9.88413
tada	-9.88514
▁formas	-9.88535
grafia	-9.88681
ien	-9.8872
73	-9.88733
su	-9.88756
ker	-9.88762
▁campanha	-9.88781
▁ix	-9.88805
▁melhor	-9.88815
▁sciéncias	-9.88842
autra	-9.88848
estend	-9.88855
▁atestat	-9.88878
▁proprietats	-9.88939
]].	-9.88956
▁pic	-9.88983
tors	-9.89041
▁port	-9.89061
anciana	-9.89076
pic	-9.89122
▁pri	-9.89141
gor	-9.89191
▁sou	-9.89215
▁han	-9.89256
▁corona	-9.89317
▁camps	-9.8937
▁popular	-9.89495
▁favorizè	-9.89521
▁cançon	-9.8954
▁roge	-9.89543
▁som	-9.89625
nta	-9.89641
▁jòcs	-9.8966
▁venguda	-9.89788
▁ser	-9.89827
▁germanic	-9.89835
èva	-9.89883
▁designar	-9.89909
▁bord	-9.89917
ah	-9.89927
assa	-9.90001
▁tèxtes	-9.90018
▁suu	-9.90034
▁organ	-9.90048
▁torre	-9.90074
▁produch	-9.90092
▁neu	-9.90147
▁pierre	-9.90149
ela	-9.90285
▁ur	-9.90318
▁tradicionala	-9.90362
èri	-9.90385
▁actuau	-9.90517
▁josé	-9.90619
▁mónegue	-9.90628
▁50	-9.90654
aran	-9.90692
▁pur	-9.9083
5%	-9.90878
ias	-9.90893
▁bou	-9.90899
ima	-9.90991
▁vejatz	-9.90992
bia	-9.91032
escri	-9.91035
▁temple	-9.9104
ɒ	-9.91145
estiu	-9.91175
fr	-9.91213
auta	-9.91315
▁capitèron	-9.91359
▁pacific	-9.91364
ero	-9.91371
▁just	-9.91384
ku	-9.91426
pirenèus	-9.9143
pal	-9.91534
▁nombrosas	-9.91574
▁tensions	-9.91575
▁segle	-9.91579
▁super	-9.91607
albi	-9.91635
▁tar	-9.91671
utilizacion	-9.91687
char	-9.91717
grand	-9.91775
▁tornèt	-9.91892
▁viii	-9.91979
ley	-9.92013
▁cl	-9.9202
▁mandat	-9.92025
egipte	-9.92085
▁(16	-9.92096
▁blòc	-9.9213
form	-9.92156
eja	-9.92193
▁gascoa	-9.92221
▁fònt	-9.92226
▁parla	-9.92278
aviá	-9.92279
stan	-9.92423
▁destruccion	-9.92437
▁passar	-9.92437
▁moneda	-9.92465
alitat	-9.92478
idèa	-9.92578
▁filosofia	-9.92608
but	-9.92705
▁libertat	-9.92719
▁viva	-9.92766
nha	-9.9278
gau	-9.9279
▁classic	-9.92835
▁distància	-9.92871
agne	-9.92877
▁disc	-9.92883
▁1940	-9.92916
ham	-9.9297
▁critica	-9.92988
▁premierei	-9.93096
rei	-9.93158
ín	-9.93169
▁donèt	-9.93189
leg	-9.9326
▁progrès	-9.93307
▁pròche	-9.93307
▁sièis	-9.93308
▁1920	-9.93337
▁1918	-9.93346
ont	-9.93375
▁derivat	-9.93384
▁ajuda	-9.93459
▁crotz	-9.93552
|*|	-9.93578
▁mexic	-9.93605
▁divèrses	-9.93611
▁estar	-9.93621
ies	-9.93647
▁100	-9.9366
▁longor	-9.93667
isa	-9.93671
hor	-9.93704
aux	-9.93765
▁che	-9.93885
▁romans	-9.93897
▁reforma	-9.93943
▁poèta	-9.94005
aqueste	-9.94075
-11	-9.94126
▁(15	-9.94188
qua	-9.94203
▁purmèr	-9.9423
▁prima	-9.94288
▁activitat	-9.94295
jac	-9.94303
▁solar	-9.94306
▁consequéncia	-9.94318
▁lèu	-9.94385
▁sobeiran	-9.94535
bèrt	-9.94561
mètre	-9.94575
▁caval	-9.9458
▁grèga	-9.94629
▁terren	-9.94632
▁debanèt	-9.94634
ància	-9.94645
▁petit	-9.94691
▁metal	-9.94752
informacion	-9.9478
ante	-9.94788
yo	-9.94792
▁companhiá	-9.95071
bl	-9.95088
▁viatge	-9.95096
▁gr	-9.95124
-13	-9.95175
rot	-9.95207
unes	-9.9524
▁poli	-9.95256
cent	-9.95277
▁velocitat	-9.95294
pec	-9.95408
▁annada	-9.95453
ivèrn	-9.95642
pl	-9.9565
irac	-9.95691
ctor	-9.95729
ium	-9.95731
▁marcat	-9.95734
▁civilizacion	-9.95748
▁cer	-9.95755
▁planta	-9.95784
▁dirigit	-9.95786
gel	-9.95809
lès	-9.95828
▁tipes	-9.95887
lhac	-9.95971
quet	-9.96149
▁fondat	-9.9617
▁local	-9.96182
▁chinesa	-9.9619
▁mesa	-9.96226
▁ki	-9.96229
ug	-9.96231
ye	-9.96247
▁leon	-9.96319
▁us	-9.96352
atges	-9.9643
ait	-9.96453
lic	-9.96455
▁assaiè	-9.96519
▁britanics	-9.96813
òmi	-9.96857
izèt	-9.96959
▁compositor	-9.96986
▁seguent	-9.96998
intrada	-9.97027
▁publica	-9.97038
▁existisson	-9.97079
▁successor	-9.97094
▁basada	-9.97145
dis	-9.9722
én	-9.97261
uri	-9.97313
▁relacion	-9.97338
▁frontièra	-9.97342
▁29	-9.97347
mir	-9.97356
▁dinc	-9.97463
ella	-9.9749
roman	-9.97492
vol	-9.97526
tit	-9.9753
▁solucion	-9.97549
▁mesuras	-9.97553
▁liura	-9.97581
▁oèst	-9.97601
▁1950	-9.97605
fra	-9.9781
▁principi	-9.97814
▁crear	-9.97814
ster	-9.97862
▁2002	-9.97886
▁formada	-9.97927
▁referéncia	-9.98057
▁château	-9.98128
▁estudis	-9.98179
poem	-9.98213
▁necessari	-9.98235
▁cadena	-9.98249
▁produ	-9.98295
▁2003	-9.98299
lanas	-9.98311
▁america	-9.98315
usatge	-9.98357
grop	-9.98362
▁situé	-9.9846
▁revirada	-9.98469
bles	-9.98548
institut	-9.98551
inhac	-9.9857
▁balha	-9.98607
▁capacitat	-9.98696
nis	-9.98701
▁borg	-9.98713
jat	-9.98771
▁resta	-9.98776
▁carta	-9.98823
▁umana	-9.98947
sanctus	-9.98964
▁paul	-9.98979
▁mescla	-9.99035
▁pensa	-9.99082
▁oficialament	-9.991
▁parc	-9.9917
dic	-9.99172
▁31	-9.99246
▁servici	-9.99253
emb	-9.99414
▁fra	-9.99544
="12	-9.99574
▁pair	-9.99584
cur	-9.99634
▁massís	-9.99635
our	-9.99699
▁conf	-9.99748
▁remplaçat	-9.9979
▁transpòrt	-9.99861
icion	-9.99869
òsa	-9.99893
gin	-9.99995
▁%	-9.99996
atòm	-10.0003
▁possession	-10.0009
oposicion	-10.0013
dem	-10.0015
▁òrdre	-10.0015
sit	-10.0015
uelh	-10.0023
▁dura	-10.0035
urèt	-10.0035
▁vista	-10.0036
▁locala	-10.0038
▁negra	-10.0042
eau	-10.0042
oise	-10.0043
abitants	-10.0052
ɔ	-10.0053
importància	-10.0054
▁acomencèt	-10.0056
▁possibilitat	-10.0056
▁caus	-10.0061
zy	-10.0062
issiá	-10.0068
▁colonia	-10.0077
▁varietat	-10.0079
▁prendre	-10.0082
autoritat	-10.0083
▁politics	-10.009
▁rius	-10.0094
▁montanhas	-10.0102
▁ganhè	-10.0104
▁hèra	-10.0105
▁totun	-10.0114
▁blanca	-10.0118
cast	-10.012
nar	-10.0125
▁vivent	-10.0135
▁caire	-10.0137
▁bacin	-10.0139
dan	-10.0163
ph	-10.0168
▁barri	-10.017
ā	-10.0172
="13	-10.0173
ence	-10.0177
▁dirigida	-10.0177
▁parçan	-10.019
▁rostaing	-10.0198
lus	-10.0207
▁favor	-10.0211
▁cad	-10.0221
▁nòrma	-10.0224
▁robert	-10.0225
mica	-10.0226
▁districte	-10.0233
▁reaccion	-10.0251
▁superiora	-10.0254
▁recèrca	-10.0268
▁fàcia	-10.0271
anglatèrra	-10.0295
ière	-10.0315
▁creissença	-10.0318
▁governador	-10.0318
uf	-10.032
ular	-10.0322
▁mala	-10.0323
▁utilizada	-10.0327
▁renaissença	-10.0331
▁exp	-10.0334
▁viu	-10.0334
iac	-10.0335
▁util	-10.0336
▁dom	-10.0336
ori	-10.034
adopcion	-10.0342
zac	-10.0345
▁actual	-10.0347
▁fraire	-10.0348
òra	-10.035
estil	-10.0352
▁conflictes	-10.0355
òut	-10.0356
escritura	-10.0359
▁demora	-10.0362
▁dirèctament	-10.0372
tran	-10.0379
-14	-10.0386
▁fabrica	-10.0387
ern	-10.0389
atmosfèra	-10.039
▁sèt	-10.0391
▁rioja	-10.0392
observacion	-10.0396
▁ensems	-10.0398
▁palais	-10.0398
▁grandas	-10.0403
▁scientifica	-10.0406
ill	-10.0407
gla	-10.0417
0%	-10.0418
▁cur	-10.0423
▁africa	-10.0428
▁politicas	-10.043
▁escòla	-10.043
xi	-10.043
isla	-10.044
▁senta	-10.0441
aperaquí	-10.0443
▁genier	-10.0443
▁coneis	-10.0444
ise	-10.0445
lit	-10.0447
quer	-10.0453
gent	-10.0456
ide	-10.046
alh	-10.046
▁liga	-10.0462
▁escrich	-10.0466
▁shen	-10.047
="16	-10.0471
▁índia	-10.0476
invasion	-10.0483
▁mercat	-10.049
▁crist	-10.0491
▁clar	-10.0493
guet	-10.0494
▁revòuta	-10.0495
▁2001	-10.0495
▁jòc	-10.0498
▁mars	-10.0499
▁prov	-10.0503
▁sason	-10.0507
alament	-10.0507
usa	-10.0508
▁descobèrta	-10.0509
alha	-10.051
▁concèpte	-10.0513
▁soïssa	-10.0513
▁auriá	-10.0517
▁musèu	-10.0524
riu	-10.0532
stein	-10.0533
ensenhament	-10.0533
▁volcan	-10.0534
osas	-10.0534
▁pod	-10.0538
urgèl	-10.0538
▁musician	-10.0542
uèlh	-10.056
▁sèti	-10.0563
▁hilh	-10.0564
▁1991	-10.0564
▁+	-10.0566
instrument	-10.0567
ling	-10.0568
▁comunista	-10.0574
ostau	-10.0578
▁tomba	-10.0593
▁passat	-10.0594
-10	-10.0599
ants	-10.0609
▁faciar	-10.0612
▁basat	-10.0612
cada	-10.0616
▁amor	-10.0631
▁fotbòl	-10.0636
],	-10.0641
▁autoritats	-10.0644
▁qualitat	-10.0646
▁febla	-10.0646
▁constru	-10.0651
▁ton	-10.0654
▁marquè	-10.0655
dís	-10.0658
▁afaires	-10.0663
▁1944	-10.0666
!	-10.0668
ram	-10.0673
▁ardena	-10.0674
▁franco	-10.0679
▁liure	-10.068
▁acòrd	-10.0684
а	-10.0686
tim	-10.0691
▁novèl	-10.0692
vas	-10.0694
cau	-10.0704
què	-10.0708
▁poesia	-10.0711
▁je	-10.0715
inter	-10.072
▁bona	-10.0721
▁longa	-10.0722
▁tròban	-10.0731
issent	-10.0732
▁ramon	-10.0736
arri	-10.0744
parçan	-10.0744
jon	-10.0745
▁americana	-10.0748
ico	-10.075
▁tren	-10.0754
▁barròc	-10.0757
▁napoleon	-10.0762
▁vath	-10.0763
▁unitat	-10.0765
gia	-10.0765
▁sec	-10.0769
pri	-10.0775
cro	-10.0782
ky	-10.0785
bit	-10.0796
prim	-10.0799
nov	-10.0804
one	-10.0812
ològ	-10.0814
all	-10.0816
▁sont	-10.0824
ime	-10.0824
vet	-10.0826
▁george	-10.0832
▁roja	-10.0833
▁anglesa	-10.084
▁desvolopèt	-10.0842
aost	-10.085
▁activitats	-10.0855
bò	-10.0855
lor	-10.0858
▁anglatèrra	-10.0862
▁vriulon	-10.0863
▁famosa	-10.0863
sus	-10.0871
▁lèi	-10.0876
aw	-10.0878
ore	-10.0882
▁referéncias	-10.0884
▁molin	-10.0887
▁york	-10.0889
▁darrièra	-10.089
ison	-10.0892
organisme	-10.0894
▁mari	-10.0896
▁lingüistica	-10.0902
gur	-10.0904
gua	-10.0905
mil	-10.0906
▁aigas	-10.091
uk	-10.0922
ocupacion	-10.0924
rus	-10.0924
▁futur	-10.0928
▁servicis	-10.093
▁militars	-10.093
▁vocable	-10.094
▁marcada	-10.0944
▁asia	-10.0949
nac	-10.0953
iga	-10.0954
▁atlantic	-10.0955
pat	-10.0957
omys	-10.0962
▁sia	-10.0964
▁totalament	-10.0965
▁2015	-10.0968
▁olimpics	-10.0968
part	-10.0969
▁còrdas	-10.0972
estó	-10.0978
▁bois	-10.098
▁precisa	-10.0982
gé	-10.0983
▁actualament	-10.0986
▁material	-10.0991
bourg	-10.0993
-2	-10.0995
▁modèrne	-10.0995
▁barr	-10.0999
▁naturala	-10.1004
nau	-10.1016
iza	-10.102
▁domenis	-10.1021
▁explica	-10.1029
compositor	-10.1029
▁caça	-10.103
▁fixa	-10.1034
bé	-10.1035
arre	-10.1039
▁europèu	-10.1044
▁1999	-10.1046
▁wi	-10.1047
king	-10.1048
imp	-10.1048
rena	-10.1058
▁sau	-10.106
▁internacionau	-10.1069
▁decision	-10.107
▁jan	-10.1074
▁vièlh	-10.1077
zu	-10.1083
▁poderós	-10.1084
rio	-10.1091
article	-10.1106
▁tradicionau	-10.1113
▁prestigi	-10.1121
▁sous	-10.1125
▁quitament	-10.1127
▁tour	-10.1127
▁abbaye	-10.1134
gèn	-10.1134
▁dus	-10.1135
»	-10.1135
itas	-10.1136
argentina	-10.114
▁portugal	-10.1147
▁pintura	-10.1148
▁monuments	-10.1163
▁por	-10.1178
omb	-10.1179
▁0	-10.1187
▁comme	-10.119
blòc	-10.1193
nés	-10.1194
▁felip	-10.1195
fort	-10.1197
nant	-10.1206
gro	-10.121
▁militaras	-10.121
▁donar	-10.1211
▁bro	-10.1227
ièras	-10.1237
▁associat	-10.1242
dent	-10.1251
cio	-10.1251
entraïnèron	-10.1253
vada	-10.1256
▁1930	-10.1257
estudis	-10.1257
▁orbita	-10.1272
▁industriala	-10.1276
▁compausada	-10.1276
▁formèt	-10.1279
ani	-10.1281
▁inicialament	-10.1283
▁gui	-10.1291
esplecha	-10.1296
utiliza	-10.1298
▁diu	-10.13
espaci	-10.1305
▁terrèstra	-10.1306
▁située	-10.1306
educacion	-10.1308
▁2011	-10.1313
ost	-10.1313
▁pot	-10.1322
▁republican	-10.1323
▁portugués	-10.1333
▁succession	-10.1333
▁religiosa	-10.1345
▁glo	-10.1353
èira	-10.1356
por	-10.1357
▁fisiologia	-10.1359
▁monument	-10.1361
rich	-10.1368
▁sòl	-10.137
▁travèrs	-10.1371
▁fons	-10.1372
ive	-10.1385
▁temptativa	-10.1386
▁interès	-10.1387
str	-10.1391
▁desvolopat	-10.1393
diguèt	-10.1395
▁quau	-10.1397
▁mèstre	-10.1407
▁internacional	-10.1408
▁quimica	-10.1412
▁deux	-10.1412
▁catalana	-10.1418
▁vinha	-10.1424
▁lingüisticament	-10.1425
▁parteja	-10.1426
000	-10.1429
arquitectura	-10.1432
lè	-10.1432
▁cò	-10.1436
ile	-10.1436
▁prepaus	-10.144
▁dominacion	-10.1443
▁cour	-10.1451
fen	-10.1452
▁eu	-10.1459
▁prepausa	-10.1462
adn	-10.1463
▁jaç	-10.1473
uta	-10.1475
▁limitada	-10.1483
▁russa	-10.1483
rem	-10.1489
▁catolica	-10.1495
▁fondèt	-10.1501
▁patrimòni	-10.1505
▁equipa	-10.1507
▁avant	-10.151
ents	-10.1516
ep	-10.1521
▁carbòni	-10.1521
▁devesit	-10.1523
pausa	-10.1524
▁nacions	-10.1527
▁compres	-10.1533
esti	-10.1534
elh	-10.154
emergéncia	-10.1548
▁canadà	-10.1548
èir	-10.1555
▁était	-10.1558
çò	-10.1559
▁durada	-10.1567
▁tro	-10.157
▁inclu	-10.1571
▁nou	-10.1572
ste	-10.1572
▁bourg	-10.1574
▁organizada	-10.1577
▁economicas	-10.158
issi	-10.1584
rm	-10.1585
▁clo	-10.1585
ow	-10.1589
▁gri	-10.1592
gü	-10.1594
▁th	-10.1594
▁fl	-10.1597
▁naissença	-10.16
▁ocupat	-10.1601
▁limitat	-10.1606
▁convencion	-10.1607
▁organizat	-10.161
▁trauc	-10.1611
▁naturau	-10.1612
▁occitans	-10.1615
▁menèt	-10.1626
▁larg	-10.1628
leu	-10.1629
auvèrnhe	-10.1631
α	-10.1631
▁ku	-10.1631
▁regardant	-10.1634
anda	-10.1635
▁participèt	-10.1638
▁cru	-10.1645
▁egipciana	-10.1645
arrondiment	-10.1653
ator	-10.1654
euse	-10.1655
▁malautiá	-10.1655
▁pausa	-10.1658
mos	-10.1659
▁sòn	-10.1661
▁1973	-10.1663
▁entraïnant	-10.1663
edicion	-10.1673
dir	-10.1676
tus	-10.1677
jorns	-10.1679
establir	-10.1682
▁partisans	-10.1686
▁comenge	-10.1686
▁remarca	-10.1689
▁sciéncia	-10.1691
abandon	-10.1693
▁cast	-10.1693
▁permetre	-10.1697
chas	-10.1704
▁arn	-10.1708
èi	-10.1708
▁permetiá	-10.1711
▁vasadés	-10.1714
▁probable	-10.1714
▁expedicion	-10.1721
▁pòl	-10.1721
ual	-10.1724
▁dreches	-10.1734
▁difusion	-10.1741
actor	-10.1741
▁nocion	-10.1743
hau	-10.1747
tè	-10.1747
▁sim	-10.175
assemblada	-10.1765
▁importància	-10.1772
▁corèa	-10.1772
▁ocupa	-10.1774
ek	-10.1775
▁culte	-10.1778
▁largament	-10.1779
▁cost	-10.178
▁carbon	-10.1781
▁juan	-10.1788
rr	-10.1789
▁solelh	-10.1803
▁creèt	-10.1803
establiment	-10.1803
ers	-10.1805
▁copa	-10.1816
▁mil	-10.182
associacion	-10.1824
gir	-10.1825
▁activa	-10.183
▁espècia	-10.1836
▁social	-10.1838
▁000	-10.1852
église	-10.1853
estats	-10.1861
▁ag	-10.187
▁bru	-10.1874
illy	-10.1876
▁siás	-10.1878
arma	-10.1881
hy	-10.1882
▁egipcian	-10.1883
▁seré	-10.189
arriu	-10.1898
mol	-10.1899
ata	-10.19
eng	-10.19
▁orient	-10.1919
vier	-10.1934
fon	-10.1938
▁soudats	-10.1938
ef	-10.1939
▁micro	-10.1941
▁enfants	-10.1949
▁troba	-10.1954
▁celtic	-10.1965
▁simple	-10.1967
▁darrèr	-10.1969
estanh	-10.197
▁estil	-10.1971
▁ambe	-10.1971
çac	-10.1974
▁baisha	-10.1979
pont	-10.1985
▁culturala	-10.1986
▁mencion	-10.1991
ange	-10.1991
▁sociala	-10.1991
éc	-10.1995
œ	-10.1995
▁congrès	-10.1995
▁ressorsas	-10.1995
▁restauracion	-10.1995
▁bla	-10.2003
▁metòde	-10.2005
▁cel	-10.2005
▁socialista	-10.2007
lac	-10.2012
▁bastir	-10.202
▁novèus	-10.2022
expansion	-10.2023
ə	-10.2023
mandèt	-10.2025
▁sang	-10.2026
▁france	-10.2028
▁indica	-10.2032
ave	-10.2037
òn	-10.2043
▁prim	-10.2044
ɛ	-10.2049
▁aliats	-10.2051
afondrament	-10.2052
▁ligat	-10.2054
vic	-10.2056
aups	-10.2062
udas	-10.2067
▁lille	-10.2072
▁40	-10.2074
▁(14	-10.2076
▁subjècte	-10.2081
▁boca	-10.209
long	-10.2091
▁valencian	-10.2093
itz	-10.2095
▁fai	-10.2096
▁personalitat	-10.211
▁babilònia	-10.211
blas	-10.2133
▁august	-10.2144
rai	-10.215
▁destinat	-10.2151
cop	-10.2161
▁rica	-10.2162
î	-10.2167
▁sociau	-10.2168
▁veguèt	-10.2171
▁varianta	-10.2174
▁ròca	-10.2175
▁mondial	-10.2177
▁decid	-10.2181
ografic	-10.2182
▁feble	-10.2185
▁frequent	-10.219
▁trouve	-10.2191
univèrs	-10.2199
ticas	-10.2202
uts	-10.2212
ràn	-10.2219
▁vos	-10.2219
tis	-10.2221
vir	-10.2221
2"	-10.2223
acadèmia	-10.2226
▁tòca	-10.2226
▁drecha	-10.2227
▁tur	-10.2228
▁vira	-10.2233
▁luòcs	-10.2239
ché	-10.2242
▁latinizacion	-10.2243
fec	-10.2246
▁actor	-10.2248
▁necessita	-10.2255
ë	-10.2255
▁nombroses	-10.2255
▁marselha	-10.2256
▁liquid	-10.2257
▁sign	-10.2258
▁autors	-10.2261
▁mac	-10.2267
▁aquelas	-10.227
lada	-10.2289
by	-10.2289
▁rend	-10.2292
eri	-10.2306
mia	-10.2306
▁bastiment	-10.231
▁dispausa	-10.2315
hr	-10.2315
▁article	-10.232
▁vend	-10.2321
eus	-10.2339
▁realizat	-10.234
▁legenda	-10.2343
▁carcinòla	-10.2345
▁règlas	-10.2345
▁quadre	-10.2345
lam	-10.2346
pè	-10.2356
cel	-10.2359
tir	-10.2371
▁protegir	-10.2373
▁fuòc	-10.2375
▁enric	-10.2375
aira	-10.2378
estar	-10.2381
▁front	-10.2386
▁independenta	-10.2387
▁representacion	-10.2392
nada	-10.2392
gri	-10.2393
òri	-10.2396
▁agricòla	-10.2397
èx	-10.2405
▁1914	-10.2407
▁sistèmas	-10.241
ines	-10.241
bul	-10.2413
▁mapa	-10.2413
òna	-10.2417
alisme	-10.2417
▁unic	-10.2419
▁representant	-10.2422
gòr	-10.2426
▁afluent	-10.2426
▁purmèra	-10.2426
òdi	-10.2431
▁repression	-10.2432
▁1989	-10.2436
òp	-10.2437
▁calcul	-10.2439
▁crestians	-10.2442
▁puis	-10.2447
mest	-10.2453
▁ligams	-10.2458
▁similara	-10.2461
abséncia	-10.2465
èth	-10.2466
▁sauv	-10.2472
▁glaç	-10.2472
▁nazi	-10.2474
gada	-10.2478
-3	-10.2482
franc	-10.2485
▁calendièr	-10.2487
▁dètz	-10.2489
▁nòstra	-10.2492
▁decèsses	-10.2492
▁oficiau	-10.2493
▁belgica	-10.2493
anglés	-10.2499
▁debuta	-10.2509
wan	-10.2514
▁objectiu	-10.2519
lhas	-10.252
alfabet	-10.2521
▁lin	-10.2527
▁drechs	-10.2532
▁desvolopar	-10.2532
▁ob	-10.2538
gers	-10.2538
▁pròpri	-10.2542
ial	-10.2542
villa	-10.256
guè	-10.2561
▁tèn	-10.2562
▁tresena	-10.2565
lement	-10.2568
eth	-10.2572
zar	-10.2577
▁despiech	-10.2582
▁monarquia	-10.2582
▁2014	-10.2586
ice	-10.259
ulacion	-10.26
▁partits	-10.2602
▁tresen	-10.2617
qué	-10.2618
graf	-10.2621
tari	-10.2622
apond	-10.2622
▁transformacion	-10.2623
von	-10.263
▁viena	-10.264
▁seigneur	-10.264
expression	-10.2643
lei	-10.2643
▁tennis	-10.2645
ller	-10.2647
▁ròse	-10.2649
▁aups	-10.2663
▁crestiana	-10.2668
▁cònsol	-10.2674
▁habitants	-10.2676
▁pichons	-10.2679
▁puslèu	-10.2679
▁terra	-10.268
estrech	-10.2681
bir	-10.2683
nheim	-10.2685
ast	-10.2686
pet	-10.269
▁nucleara	-10.2694
▁instrument	-10.2696
ié	-10.2697
▁trapa	-10.2698
▁tir	-10.2706
bes	-10.2707
▁taus	-10.271
mel	-10.2711
▁umans	-10.2711
▁amic	-10.2712
▁comarca	-10.2712
▁independéncia	-10.2717
▁(12	-10.2724
▁principis	-10.273
▁destinada	-10.273
▁mart	-10.2732
▁fla	-10.2736
▁sua	-10.274
▁1939	-10.2742
fil	-10.2747
▁regional	-10.275
▁foncionament	-10.2751
tanet	-10.2754
af	-10.2755
▁cop	-10.2757
reg	-10.2759
▁fond	-10.2764
▁indi	-10.2765
▁descripcion	-10.2766
▁1997	-10.2769
▁fabricacion	-10.277
▁revista	-10.2771
gli	-10.2771
▁peus	-10.2773
▁maison	-10.2775
▁arm	-10.2778
▁tom	-10.2778
fòn	-10.2779
-16	-10.2782
▁arabi	-10.2784
▁reina	-10.2789
▁acid	-10.2789
▁bau	-10.2791
▁wal	-10.2804
▁proto	-10.282
quia	-10.2822
▁1998	-10.2832
vision	-10.2835
▁rou	-10.2837
▁grande	-10.2839
▁letras	-10.284
▁op	-10.2847
▁rod	-10.2848
sses	-10.2854
vr	-10.286
azur	-10.2861
assegura	-10.2862
▁comunicacion	-10.2862
▁beau	-10.2863
▁dessenh	-10.2865
▁cri	-10.2867
▁filosòf	-10.2868
▁mira	-10.2873
obtenir	-10.2875
▁cèrt	-10.2875
aquí	-10.2879
▁mòstra	-10.2881
▁deriva	-10.2881
igne	-10.2881
▁plantas	-10.2882
▁concentra	-10.2884
▁jogaire	-10.2887
▁coneissença	-10.289
▁paraula	-10.2892
aga	-10.2894
▁pib	-10.2904
1"	-10.2908
▁tièra	-10.2909
ette	-10.291
èbre	-10.2913
▁term	-10.2913
▁castelhan	-10.2915
▁cicle	-10.2924
▁1995	-10.2925
anha	-10.2926
vern	-10.2928
▁sètge	-10.2928
▁daissa	-10.2932
tau	-10.2933
▁coneguts	-10.2937
iti	-10.294
ilhac	-10.294
▁travers	-10.2944
▁apareguèt	-10.2947
▁obligat	-10.2952
▁fluvi	-10.2952
udi	-10.2955
installacion	-10.2955
▁frequenta	-10.2959
▁manten	-10.2961
aude	-10.2964
ouest	-10.297
▁reiau	-10.2971
▁tà	-10.2972
▁coire	-10.2973
estatut	-10.2976
bos	-10.298
indi	-10.2983
chin	-10.2984
▁medish	-10.2993
'[[	-10.2995
▁volum	-10.2997
▁tracta	-10.2998
▁tèxte	-10.3009
▁zona	-10.301
encia	-10.3014
▁petròli	-10.3015
▁confronta	-10.3016
cos	-10.3021
▁romaine	-10.3028
▁montpelhièr	-10.3028
▁mejans	-10.303
comp	-10.3041
gran	-10.3047
▁compausats	-10.3048
▁desèrt	-10.3049
▁prenguèron	-10.3052
▁1972	-10.3054
▁unicament	-10.3061
▁tecnica	-10.3062
xe	-10.3069
region	-10.307
▁fusta	-10.3079
▁1993	-10.3083
▁von	-10.3086
▁colonias	-10.3091
-9	-10.3093
àrias	-10.3095
índia	-10.3096
ées	-10.31
tour	-10.3106
dos	-10.3108
▁occidentau	-10.3111
tam	-10.3111
▁realizar	-10.3112
▁occitanas	-10.3115
▁limits	-10.3119
jò	-10.3125
▁khan	-10.3126
▁tradu	-10.3127
abbaye	-10.3127
▁estatut	-10.313
▁champ	-10.3132
uro	-10.3132
flu	-10.3137
interès	-10.314
";	-10.3142
▁miquèu	-10.3142
▁sé	-10.3143
▁atestacions	-10.3146
uch	-10.3148
ables	-10.3152
▁etapa	-10.3153
ets	-10.3154
▁antic	-10.3158
▁reiala	-10.3158
▁presidents	-10.3158
▁colon	-10.3161
▁dou	-10.3162
▁fal	-10.3165
▁transforma	-10.3165
▁conquistar	-10.3165
▁canon	-10.3169
▁faraon	-10.3176
cra	-10.3185
▁marin	-10.3186
▁basses	-10.3188
▁saber	-10.3189
mit	-10.3206
▁contunièt	-10.3207
▁formèron	-10.3207
▁respect	-10.3207
▁similar	-10.3208
▁1994	-10.3211
▁estudi	-10.3211
▁1946	-10.3216
▁1870	-10.322
vida	-10.3224
▁ric	-10.3229
ich	-10.3229
▁document	-10.3232
▁òm	-10.3234
▁senescauciá	-10.3239
▁léger	-10.3239
cit	-10.324
▁1936	-10.3249
5"	-10.3251
yn	-10.3255
comencèron	-10.3258
aqueth	-10.3258
hol	-10.3259
▁ligada	-10.3264
lav	-10.3268
и	-10.3271
mm	-10.3273
▁1917	-10.3275
▁1992	-10.3276
dom	-10.3278
▁generacion	-10.3279
▁veg	-10.328
▁pèças	-10.3283
ert	-10.3286
▁causas	-10.3297
▁multi	-10.33
▁villa	-10.33
▁washington	-10.3304
▁sèrra	-10.3304
▁(2	-10.3305
bot	-10.3307
▁joseph	-10.3309
▁regularament	-10.3314
▁sucre	-10.3316
▁seria	-10.3322
▁profiech	-10.3336
▁quauques	-10.3338
▁2012	-10.3342
▁1948	-10.3344
ianas	-10.3347
▁raimon	-10.3348
mus	-10.3357
▁mecanisme	-10.3369
efièch	-10.3369
▁bordèu	-10.3372
ty	-10.3373
="11	-10.3376
▁arquitectura	-10.3379
▁1947	-10.3381
▁jusqu	-10.3382
▁mobil	-10.3383
▁norma	-10.3383
vit	-10.3386
▁luna	-10.3386
▁entièr	-10.3388
ik	-10.3391
▁essent	-10.3394
▁nomenada	-10.3396
▁qual	-10.3397
▁realizada	-10.3397
burg	-10.3401
idrogèn	-10.3403
hard	-10.3403
▁caud	-10.3404
▁fuguèt	-10.3405
cip	-10.3405
ok	-10.3415
▁consequéncias	-10.3415
▁~)"	-10.3415
▁confi	-10.3418
arg	-10.3421
▁trompeta	-10.3435
▁fruch	-10.3436
▁mondiau	-10.3436
▁mantenir	-10.344
▁sil	-10.3442
tot	-10.3447
▁dit	-10.345
▁usatge	-10.3452
▁torna	-10.3459
▁precedent	-10.3466
irlanda	-10.3468
eret	-10.3469
▁1996	-10.3472
▁terre	-10.3472
dou	-10.3473
▁tr	-10.3473
▁rock	-10.3474
▁1975	-10.3475
espècias	-10.3476
▁pròpria	-10.3479
▁vita	-10.3484
▁real	-10.3484
jorn	-10.3489
pierre	-10.3491
▁comunistas	-10.3491
▁cos	-10.3497
▁guilhèm	-10.3501
▁concepcion	-10.3501
uit	-10.3509
fontaine	-10.3516
▁cambiament	-10.3517
▁quimic	-10.3521
▁originari	-10.3525
▁adoptèt	-10.3534
▁justícia	-10.3534
▁ardennes	-10.3535
▁contacte	-10.3535
▁supausa	-10.3539
▁arts	-10.3541
▁cantaire	-10.3541
▁accion	-10.3542
▁unidas	-10.3545
mul	-10.355
oxid	-10.3558
▁provençala	-10.3564
▁vietnam	-10.3567
▁mètge	-10.3567
▁miègjorn	-10.3568
="10	-10.3568
lem	-10.357
▁chau	-10.357
▁relèu	-10.3572
▁grèva	-10.3573
▁forala	-10.3576
▁anna	-10.3584
▁utilizats	-10.3601
▁cesar	-10.3601
èls	-10.3603
ivas	-10.3607
ax	-10.361
oni	-10.3615
▁domina	-10.3619
▁vei	-10.3622
▁semi	-10.3623
ensems	-10.3626
nascut	-10.3628
▁produchs	-10.363
▁lengadocian	-10.3633
▁recèrcas	-10.3637
▁(1	-10.3638
▁tractament	-10.3644
assi	-10.3646
▁disciplina	-10.3668
▁siria	-10.3668
▁gaston	-10.3676
▁(20	-10.3679
istica	-10.3686
▁inf	-10.3692
▁suber	-10.3692
▁tau	-10.3699
▁strasbourg	-10.3702
▁albert	-10.3703
luc	-10.3706
▁pl	-10.371
▁matematicas	-10.3711
▁entraïna	-10.3717
▁post	-10.3732
▁deputats	-10.3733
▁...	-10.3734
▁roergassa	-10.3736
▁flume	-10.3736
acid	-10.3736
▁bòrd	-10.3737
▁aiga	-10.3737
exili	-10.3738
interess	-10.3741
lev	-10.3741
▁aumenta	-10.376
gl	-10.3765
abadiá	-10.377
▁compte	-10.3778
pré	-10.3779
log	-10.3779
▁nomena	-10.3785
ritz	-10.3795
▁espaci	-10.38
▁première	-10.3805
▁periòdes	-10.3806
pra	-10.3807
=40	-10.3811
▁simon	-10.3814
endre	-10.3815
▁estatsunidenca	-10.3823
▁edat	-10.3827
▁faire	-10.3829
▁medievala	-10.3832
ocupèt	-10.3839
dés	-10.3842
▁2016	-10.3844
annadas	-10.3844
▁fasiá	-10.3846
▁espanhòu	-10.3847
▁unei	-10.3849
▁q	-10.385
pendant	-10.3854
▁crestian	-10.3855
▁ministres	-10.3856
-1	-10.3856
▁remonta	-10.3865
▁foncions	-10.3867
▁bien	-10.3868
▁premiers	-10.387
lier	-10.3871
pé	-10.3872
tí	-10.3872
▁conseu	-10.3874
▁pensada	-10.3875
▁1964	-10.3882
▁localas	-10.3882
▁modifica	-10.3891
american	-10.3895
▁melhorar	-10.3896
enç	-10.3898
▁respèct	-10.3899
diocèsi	-10.3902
nus	-10.3907
▁adoptat	-10.3907
▁colonizacion	-10.3908
▁corrents	-10.391
▁sta	-10.3911
▁torisme	-10.3919
▁densitat	-10.392
▁climatic	-10.3922
chy	-10.3926
▁despart	-10.3927
▁arab	-10.393
gna	-10.393
uga	-10.3931
4"	-10.3938
8"	-10.3938
zin	-10.394
▁propietat	-10.3942
▁setmana	-10.3942
adversari	-10.3942
▁maridatge	-10.3944
esco	-10.3952
▁suls	-10.3955
▁corre	-10.396
▁baron	-10.3962
▁còs	-10.3968
▁bé	-10.3969
▁barra	-10.3972
▁joga	-10.3973
▁rar	-10.3975
▁proprietari	-10.3976
▁litorau	-10.3976
olo	-10.3977
▁flòta	-10.3977
▁tira	-10.398
▁risc	-10.3983
▁liame	-10.3987
▁has	-10.3987
▁familhas	-10.3991
pau	-10.3991
gèr	-10.3996
ense	-10.4
▁problema	-10.4002
7"	-10.4004
▁aspècte	-10.4006
literatura	-10.4008
▁seguents	-10.4009
▁branca	-10.4011
▁permèton	-10.4011
mou	-10.4014
▁freja	-10.4019
▁60	-10.4024
▁certaneis	-10.4024
▁mètro	-10.4031
▁visita	-10.4038
▁chile	-10.404
▁proteïnas	-10.4041
▁dança	-10.4046
hat	-10.405
▁aumentacion	-10.4052
▁1968	-10.4054
▁ste	-10.4058
ía	-10.4062
▁ple	-10.4062
▁reformas	-10.4062
▁deviá	-10.4069
▁gallo	-10.4072
gno	-10.4072
ifòrme	-10.4076
cep	-10.408
▁caracterizat	-10.4081
lio	-10.4082
▁decidiguèt	-10.4083
▁trobador	-10.4084
▁peró	-10.4088
▁estudièt	-10.409
▁tai	-10.4097
eses	-10.4099
ort	-10.41
▁metau	-10.4107
▁mis	-10.4111
rid	-10.4116
▁proximitat	-10.4116
▁precipitacions	-10.4117
▁vadó	-10.4118
▁traduccion	-10.4118
▁destria	-10.4119
▁pron	-10.4119
6"	-10.4119
kin	-10.412
▁eveniments	-10.412
▁meses	-10.4125
▁medi	-10.4131
▁cita	-10.4135
cens	-10.4138
▁culturas	-10.4141
▁administracion	-10.4148
▁miliards	-10.4152
▁polonés	-10.4152
▁prat	-10.4152
aumentacion	-10.4154
▁eissida	-10.4157
▁arc	-10.4158
▁auto	-10.4161
▁soas	-10.4165
nava	-10.4165
9"	-10.417
▁provençau	-10.4173
▁conserva	-10.4175
▁aplicacion	-10.4179
fòr	-10.4181
▁distincion	-10.4187
▁necessària	-10.4187
▁publicacion	-10.4188
utilizar	-10.4188
▁installat	-10.4188
▁reco	-10.4199
assai	-10.4199
▁principals	-10.4205
▁sòu	-10.4205
▁arron	-10.4209
▁armas	-10.4218
operacion	-10.4222
▁presidéncia	-10.4223
trach	-10.4226
▁federacion	-10.4227
▁1974	-10.4227
urss	-10.4228
oul	-10.423
aba	-10.4231
▁coll	-10.4238
▁vist	-10.4239
▁capèla	-10.4242
▁seuva	-10.4243
inae	-10.4249
▁besonh	-10.4254
▁longtemps	-10.4258
▁mesopotamia	-10.4258
ا	-10.4258
▁femenin	-10.4259
▁caracteriza	-10.4259
eqüator	-10.4259
▁conce	-10.4261
▁idèas	-10.4262
▁1919	-10.4265
▁respècte	-10.4266
eli	-10.4269
inici	-10.4272
eva	-10.4277
▁utiliza	-10.4277
òde	-10.4278
...),	-10.4283
▁filme	-10.4284
▁nèu	-10.4286
elements	-10.4289
nos	-10.4301
▁conservat	-10.4301
martin	-10.4305
▁1956	-10.4306
▁moleculas	-10.4307
▁pom	-10.4313
▁red	-10.4319
forma	-10.4323
▁locaus	-10.4325
▁mans	-10.4329
▁hordé	-10.433
▁austrian	-10.4331
▁avocat	-10.4331
borg	-10.4332
mur	-10.4334
lim	-10.4335
▁cuba	-10.4335
▁solid	-10.4336
cou	-10.4337
▁ièr	-10.4341
▁devath	-10.4347
▁radi	-10.4359
class	-10.4364
▁golf	-10.4366
▁vòte	-10.4367
aliança	-10.4371
▁françois	-10.4371
▁sovietic	-10.4372
▁comtes	-10.4377
▁màgers	-10.4381
▁contre	-10.4386
▁nan	-10.439
▁àustria	-10.4392
dy	-10.4399
▁jupitèr	-10.4403
▁apareguèron	-10.4403
còsta	-10.4406
fòrt	-10.4406
table	-10.4407
▁gròssa	-10.4408
▁placa	-10.4421
▁william	-10.4423
▁teoric	-10.443
▁mostra	-10.4431
▁ali	-10.4432
▁latina	-10.4434
▁coalicion	-10.4439
▁pròcha	-10.4439
▁definir	-10.444
capitala	-10.4442
venir	-10.4443
rup	-10.4443
▁levat	-10.4444
opo	-10.4448
▁brun	-10.4448
mis	-10.4453
▁objèctes	-10.4464
▁cli	-10.4465
nier	-10.4475
ther	-10.4475
▁negociacions	-10.4476
▁converti	-10.4477
▁1941	-10.4484
estadi	-10.4484
ologica	-10.4487
ami	-10.4488
▁apareis	-10.4495
▁produsi	-10.4495
èp	-10.4503
ières	-10.4505
▁aliança	-10.4512
▁devesida	-10.4513
kar	-10.4514
▁rasons	-10.4515
objectiu	-10.4516
escriu	-10.4524
▁1949	-10.4526
ral	-10.4532
pus	-10.4534
▁provesi	-10.454
país	-10.4541
▁representava	-10.4543
▁coloniau	-10.4545
▁bèl	-10.4549
о	-10.4549
▁1929	-10.4556
▁concentracion	-10.4557
▁ocupada	-10.4559
▁ligam	-10.4559
▁james	-10.4561
▁altitud	-10.4562
▁compl	-10.4563
arabi	-10.4564
xii	-10.4569
▁fondator	-10.4572
▁tuat	-10.4575
▁carri	-10.4576
▁liber	-10.4579
euil	-10.458
emi	-10.458
▁mèste	-10.4581
▁vestigis	-10.4586
▁literària	-10.4586
▁aràbia	-10.4586
▁cerv	-10.4593
▁1976	-10.4594
▁vit	-10.4595
▁»)	-10.4597
▁fri	-10.4602
▁bèla	-10.4602
element	-10.4612
cò	-10.4615
elles	-10.4616
▁seguentas	-10.4619
pòrt	-10.4621
references	-10.4623
archipèla	-10.4623
▁colomb	-10.4624
marc	-10.4625
▁ciutats	-10.4626
▁1986	-10.4632
▁frontiera	-10.4632
illo	-10.4634
otto	-10.464
dur	-10.4641
▁conta	-10.4649
▁gardar	-10.465
▁za	-10.466
▁demografia	-10.466
▁refusa	-10.4662
dus	-10.4665
gironda	-10.4667
linha	-10.467
▁anar	-10.468
▁caracteristica	-10.4681
▁regionala	-10.4686
▁democratica	-10.4688
vau	-10.4689
▁rom	-10.4691
▁baish	-10.4693
▁biscaia	-10.4697
▁poblada	-10.4697
▁manuel	-10.4698
▁mel	-10.4698
poli	-10.4698
▁depend	-10.4698
▁progressiva	-10.4698
sègle	-10.4704
▁favorable	-10.4704
departament	-10.4704
coma	-10.4704
▁soleu	-10.4709
▁rapida	-10.4711
▁estacion	-10.4712
lant	-10.4715
avantatge	-10.4719
▁zo	-10.472
òma	-10.4721
▁conegudas	-10.4722
estaca	-10.4726
km	-10.4727
▁arqueologic	-10.4735
▁cellulas	-10.4735
òts	-10.4735
▁govern	-10.4735
▁transicion	-10.4736
▁linhas	-10.4744
▁problemas	-10.4745
rait	-10.4747
▁bens	-10.475
▁aquera	-10.4752
▁primièras	-10.4758
▁neo	-10.4759
▁sha	-10.4759
▁carlos	-10.4759
ocupar	-10.4761
▁partidas	-10.4762
prov	-10.4767
rod	-10.477
▁suècia	-10.4772
arièja	-10.4774
phi	-10.4774
▁rapòrt	-10.4775
▁mamifèrs	-10.4777
anti	-10.4785
▁director	-10.4786
▁river	-10.4786
▁religiosas	-10.4793
jos	-10.4794
▁escrit	-10.4798
▁modern	-10.4804
aco	-10.4806
▁département	-10.4809
▁particularament	-10.4809
▁aprofichè	-10.481
▁terrèstre	-10.481
▁particulas	-10.481
oses	-10.4812
▁demorèron	-10.4813
roma	-10.4821
▁patron	-10.4823
▁podiá	-10.4823
0"	-10.4825
▁lònga	-10.4827
òli	-10.4831
▁cara	-10.4838
nch	-10.4838
▁exist	-10.4839
maur	-10.4839
ofici	-10.484
hem	-10.4842
▁intr	-10.4844
escu	-10.4846
▁famille	-10.4848
▁atomic	-10.4852
gun	-10.4857
▁castelha	-10.4859
▁francs	-10.4863
▁comunitat	-10.4865
▁gor	-10.4868
▁cul	-10.4868
▁reiaumes	-10.4869
▁taula	-10.4878
ole	-10.4881
▁emperaire	-10.4884
▁carcassona	-10.4886
▁siècle	-10.4886
▁tuc	-10.4892
▁canta	-10.4895
ània	-10.4897
▁route	-10.4904
▁ostal	-10.4905
aplicacion	-10.4905
▁doble	-10.4906
▁redu	-10.4906
bast	-10.4907
cian	-10.4914
▁definit	-10.4918
▁reng	-10.4918
▁culturau	-10.4919
▁victor	-10.492
occident	-10.4923
▁adoptada	-10.4924
▁venceire	-10.4924
▁personatge	-10.4926
▁coneish	-10.4928
▁ya	-10.4928
▁associacion	-10.493
▁pargue	-10.4933
▁1959	-10.4934
▁tèma	-10.494
carcin	-10.494
▁grècs	-10.4941
rum	-10.4943
lles	-10.4945
▁sense	-10.4954
▁teniá	-10.4954
▁bus	-10.4956
▁temp	-10.4957
▁lèis	-10.4959
▁cassini	-10.4963
àn	-10.4964
▁1967	-10.4969
▁dialèctes	-10.4975
gard	-10.4982
▁fenomèns	-10.4996
▁marina	-10.4998
▁magnetic	-10.5001
▁sodan	-10.5005
▁documents	-10.501
▁jacques	-10.501
etz	-10.5013
▁revi	-10.5024
▁animals	-10.5024
▁aperten	-10.5025
ères	-10.503
▁introdu	-10.5031
▁fasa	-10.5033
efècte	-10.5033
▁feli	-10.5035
▁cadun	-10.5038
▁malaisada	-10.504
▁libres	-10.5041
▁poders	-10.5041
armanhac	-10.5048
extrèm	-10.5048
ologic	-10.5049
het	-10.505
àustria	-10.5051
cançon	-10.5054
esperit	-10.5056
contra	-10.5057
▁defend	-10.5063
mann	-10.5066
▁desvolopada	-10.5066
▁prom	-10.5069
para	-10.5073
▁suc	-10.5074
installar	-10.5076
▁eficaç	-10.5078
▁decenni	-10.5078
▁imperiala	-10.5078
▁díser	-10.5079
▁vision	-10.508
▁romanica	-10.5087
▁carn	-10.5092
▁molecula	-10.5099
bis	-10.5105
▁gla	-10.5106
▁vice	-10.5106
intrèt	-10.5119
▁franceses	-10.5119
▁200	-10.512
ienne	-10.5121
▁frema	-10.5121
▁1962	-10.5122
èstre	-10.5126
▁grope	-10.5127
▁1943	-10.513
▁vesins	-10.513
▁oposicion	-10.5136
▁emplegat	-10.5136
▁objècte	-10.5136
òsi	-10.514
gres	-10.5141
▁fran	-10.5142
lica	-10.5143
▁henri	-10.5145
ònia	-10.5148
terra	-10.5154
▁frederic	-10.5156
▁cho	-10.5163
▁turc	-10.5164
▁plata	-10.5167
▁lengatge	-10.5167
▁bio	-10.517
▁comunautats	-10.5176
▁proven	-10.5176
▁publicat	-10.5179
▁comerciala	-10.5182
▁candidat	-10.5183
▁trop	-10.5188
▁territoire	-10.5195
tament	-10.52
▁senat	-10.5201
▁1982	-10.5205
rom	-10.5209
interior	-10.5209
▁presentan	-10.5214
èli	-10.5219
▁corr	-10.5223
▁ces	-10.5229
ucraïna	-10.5235
illi	-10.5235
▁sovietics	-10.5236
▁servir	-10.5237
▁reüni	-10.5238
eira	-10.5242
▁agricòlas	-10.5243
▁capable	-10.5244
après	-10.5244
▁rotacion	-10.5248
▁(3	-10.525
▁colons	-10.5251
▁vòu	-10.5255
▁brasilièr	-10.5255
▁pala	-10.5257
uz	-10.5257
▁seguenta	-10.5258
▁cauna	-10.5262
acòrd	-10.5262
izats	-10.5268
▁marchands	-10.5268
excepcion	-10.5269
uruguai	-10.5274
ensis	-10.5275
oxigèn	-10.5275
▁cristianisme	-10.5275
▁mantenement	-10.5276
▁divi	-10.5278
▁hen	-10.5278
▁semblan	-10.5279
mens	-10.5281
▁simplament	-10.5284
▁doç	-10.5295
▁lieu	-10.5303
▁tele	-10.5305
▁condicion	-10.5309
acaba	-10.5313
▁pèrda	-10.5313
▁danemarc	-10.5314
▁endavant	-10.5314
▁dialect	-10.5314
▁sostengut	-10.5315
bilitat	-10.5319
▁xxi	-10.532
▁facha	-10.5321
ivitat	-10.533
▁forn	-10.5346
▁possibla	-10.5354
▁febrier	-10.5354
▁poiriá	-10.5355
▁crompa	-10.5355
▁onor	-10.5355
▁tèsta	-10.5356
▁sortida	-10.5358
esta	-10.5363
tent	-10.5363
▁vai	-10.5363
▁còdi	-10.5365
volu	-10.5367
▁catedrala	-10.537
lie	-10.5371
nòrd	-10.5372
▁1789	-10.5372
artista	-10.5374
▁parlada	-10.5381
▁mono	-10.5386
còr	-10.5389
▁bos	-10.5394
▁juridic	-10.5394
▁comencè	-10.5395
rica	-10.5396
hal	-10.5399
▁seguir	-10.5399
win	-10.54
▁banca	-10.54
▁1921	-10.5401
issèt	-10.5401
has	-10.5403
▁luc	-10.5404
▁publiquèt	-10.5406
ibla	-10.5407
▁1952	-10.5408
–	-10.5411
atz	-10.5413
▁nava	-10.5414
▁umanas	-10.5416
mag	-10.542
ussa	-10.5422
ordena	-10.5424
▁pena	-10.5425
▁(4	-10.5425
mili	-10.5429
▁grosclaude	-10.5434
▁conquistè	-10.5434
▁completa	-10.5436
▁vic	-10.5437
▁puèg	-10.5439
▁limitar	-10.5441
▁1958	-10.5443
-6	-10.5444
▁1942	-10.5445
▁revolucionari	-10.5446
▁cançons	-10.5448
tritz	-10.5454
▁comitat	-10.5477
▁david	-10.5478
▁1926	-10.5483
▁2007.	-10.5483
▁bernat	-10.5488
flòra	-10.5494
accent	-10.5496
▁projèctes	-10.5499
▁genres	-10.5505
▁ke	-10.5509
▁universitat	-10.5509
▁economics	-10.5512
sens	-10.5514
esper	-10.5515
▁colómbia	-10.5515
▁tropical	-10.5518
mau	-10.5519
▁0,	-10.552
▁hèit	-10.5521
unic	-10.5522
▁perqué	-10.5523
▁1979	-10.5523
umanitat	-10.5528
▁capabla	-10.5529
▁musulmana	-10.5534
ingen	-10.5541
▁simpla	-10.5547
▁proclamè	-10.5556
▁maquina	-10.5556
▁productor	-10.5556
▁comission	-10.5557
▁mainatge	-10.5557
ols	-10.5559
▁perdut	-10.5567
▁maritima	-10.5567
encòp	-10.5585
integracion	-10.5587
front	-10.5589
mond	-10.5595
▁tim	-10.5599
organizar	-10.5601
▁bac	-10.5603
▁calor	-10.5611
encs	-10.5615
▁vé	-10.5615
▁500	-10.5617
200	-10.5618
onica	-10.562
animal	-10.562
▁chap	-10.5621
▁shi	-10.5626
hl	-10.5631
▁bigòrra	-10.5637
▁clergat	-10.5637
▁domestic	-10.5638
▁assassinat	-10.5641
▁tin	-10.5643
▁acceptèt	-10.5643
canton	-10.5645
▁variacions	-10.565
sal	-10.5651
dau	-10.5657
▁comanda	-10.5663
tom	-10.5667
ejada	-10.5669
hof	-10.5675
▁situe	-10.568
interpretacion	-10.5684
voir	-10.5689
▁sap	-10.569
▁mut	-10.5691
▁plu	-10.5693
stro	-10.5696
▁eissits	-10.57
▁gat	-10.5705
pò	-10.5707
rain	-10.5711
gó	-10.5712
▁unica	-10.5712
individú	-10.5715
psi	-10.572
▁gestion	-10.5723
cq	-10.5724
equilibri	-10.573
inte	-10.5735
ight	-10.5735
▁actiu	-10.5737
▁pèr	-10.5738
quista	-10.5746
▁medisha	-10.575
abandonar	-10.5752
▁ancianament	-10.576
iques	-10.5761
espècia	-10.5761
▁quin	-10.5769
▁marcha	-10.5773
▁(13	-10.5774
▁cré	-10.5774
▁150	-10.5779
▁entraïnar	-10.578
▁chan	-10.5785
vert	-10.5791
mamifèr	-10.5798
pren	-10.5801
▁contèxte	-10.5803
▁proporcion	-10.5803
▁legitim	-10.5803
▁sobre	-10.5811
adura	-10.5811
▁imagin	-10.5811
▁diferentei	-10.5814
▁mou	-10.5816
cà	-10.5817
ega	-10.582
-7	-10.5823
▁compara	-10.5824
republica	-10.5828
nòva	-10.583
anne	-10.5834
trè	-10.5842
û	-10.5845
▁volontat	-10.5845
anc	-10.5851
roy	-10.5851
▁menada	-10.5855
▁nautor	-10.5858
▁dobla	-10.5858
obten	-10.5859
▁blòt	-10.586
▁considèra	-10.586
partit	-10.5865
▁europèas	-10.5867
rats	-10.5868
zan	-10.5876
enzim	-10.588
▁bizantin	-10.5883
σ	-10.5887
▁victima	-10.5887
▁tristan	-10.589
▁prop	-10.5893
▁1969	-10.5894
ogne	-10.59
cf	-10.59
puèi	-10.5906
put	-10.591
cultura	-10.5919
▁mièg	-10.5921
▁resultats	-10.5922
▁pichonas	-10.5923
ente	-10.5929
▁literari	-10.5929
▁definida	-10.593
▁definitivament	-10.5934
▁venguts	-10.5938
▁1923	-10.5938
explicacion	-10.5939
kha	-10.594
zer	-10.5941
iniciativa	-10.595
▁leur	-10.5953
avèva	-10.5955
aja	-10.5965
▁cargat	-10.5967
ppe	-10.5968
aush	-10.5972
ila	-10.5972
▁2013	-10.5975
▁liberacion	-10.5976
▁endrech	-10.5978
▁òr	-10.5978
▁clara	-10.5979
▁bot	-10.5981
▁moder	-10.5982
▁1955	-10.5984
estela	-10.5993
▁vins	-10.5998
▁metòdes	-10.6001
▁pé	-10.6007
▁citar	-10.6011
▁califat	-10.6012
▁diferent	-10.6013
▁hitler	-10.6014
▁tradicional	-10.6015
die	-10.602
▁1933	-10.6021
left	-10.6028
▁asiatic	-10.6029
▁pais	-10.6031
▁refer	-10.6038
comte	-10.6044
▁ganha	-10.605
fan	-10.6055
eliminar	-10.6057
▁tanlèu	-10.6057
▁sabent	-10.6062
gy	-10.6062
▁normalament	-10.6063
▁totalitat	-10.6066
▁1934	-10.6067
▁1932	-10.6069
jean	-10.607
▁aut	-10.607
ocasion	-10.607
bau	-10.6071
zon	-10.6073
agu	-10.6078
▁capita	-10.6078
plan	-10.6078
tièr	-10.6087
icula	-10.6089
font	-10.6096
▁juli	-10.6097
▁possedís	-10.61
▁succediguèt	-10.61
▁debanèron	-10.61
èren	-10.6102
tia	-10.6109
ïsme	-10.6117
astre	-10.6118
▁pesca	-10.6119
vor	-10.6125
▁cerca	-10.6129
▁brut	-10.613
impòst	-10.6132
aplica	-10.6144
▁diamètre	-10.6144
establi	-10.6151
▁300	-10.6154
▁fen	-10.6158
cí	-10.6158
▁obtenir	-10.6169
▁tel	-10.6172
fla	-10.6175
ongria	-10.6175
▁flam	-10.618
onia	-10.618
media	-10.6182
izèron	-10.6183
▁gròs	-10.6183
arquitècte	-10.6186
▁datan	-10.6186
▁fèsta	-10.6187
edifici	-10.6187
▁estrangiers	-10.6187
rèi	-10.619
▁pou	-10.6194
▁luis	-10.6197
▁coloniala	-10.6197
▁istoricament	-10.6201
▁problèmas	-10.6202
avó	-10.6206
▁cai	-10.6208
▁constituit	-10.6212
▁trobat	-10.6215
tum	-10.6215
▁cla	-10.6221
▁signat	-10.6224
▁2006.	-10.6232
▁ibn	-10.6232
▁trenta	-10.625
avo	-10.6257
▁liberau	-10.6271
▁muralha	-10.6274
▁fon	-10.6275
▁francisco	-10.6275
hou	-10.6278
▁direct	-10.6281
amassa	-10.6283
▁1965	-10.6283
▁naturalas	-10.6286
▁1793	-10.6287
▁modèls	-10.6289
tol	-10.6289
▁turcs	-10.6289
▁fonetica	-10.6291
ossa	-10.6297
▁sup	-10.6297
▁casuda	-10.6297
▁1900	-10.6297
yer	-10.6301
jòcs	-10.6307
▁sans	-10.631
▁arriba	-10.6311
▁municipal	-10.6314
▁antonio	-10.6314
▁vernacular	-10.6317
▁mediterranèu	-10.6317
époque	-10.6317
opausa	-10.6318
▁circulacion	-10.632
▁blancs	-10.6322
▁1985	-10.6324
egalitat	-10.6325
▁entitat	-10.6326
▁bèlga	-10.6327
▁regular	-10.6328
odor	-10.6329
▁mascle	-10.6335
▁geografica	-10.6339
▁ran	-10.6344
quentin	-10.6344
nder	-10.6348
expedicion	-10.635
▁dehens	-10.6351
▁urbana	-10.6353
fus	-10.6354
▁monastèri	-10.6361
▁1871	-10.6361
▁dessús	-10.6362
illon	-10.6365
▁aperat	-10.6366
▁desplaçament	-10.6368
ennes	-10.6371
eròi	-10.6379
▁personatges	-10.6387
▁ét	-10.6395
▁naviris	-10.6396
▁valent	-10.6397
tanben	-10.6398
▁grèvas	-10.6399
▁ostau	-10.6399
▁fes	-10.64
▁violéncia	-10.6405
▁confirma	-10.6407
▁gara	-10.6407
fel	-10.641
▁cultural	-10.641
▁mòde	-10.6412
▁reli	-10.6413
onde	-10.6417
▁elei	-10.6418
gant	-10.642
▁1951	-10.6421
▁casa	-10.6422
▁aliment	-10.6422
▁còla	-10.6424
▁aquestes	-10.6425
▁nomat	-10.6429
▁notar	-10.6429
etas	-10.643
▁mm	-10.6432
uòu	-10.6439
▁occidental	-10.644
etiopia	-10.6444
eveniment	-10.6447
▁faguèron	-10.6449
bordalés	-10.645
▁antòni	-10.6451
▁pays	-10.6451
▁opausat	-10.6451
▁sostenir	-10.6453
wer	-10.6454
▁constituís	-10.6457
▁région	-10.6458
▁1922	-10.6459
▁plen	-10.6467
▁menar	-10.6471
lig	-10.6471
▁maritim	-10.6483
fis	-10.6484
▁vèn	-10.6488
cantaira	-10.649
òbras	-10.649
▁mots	-10.6491
▁supòrt	-10.6497
iste	-10.6497
▁defendre	-10.6502
▁1978	-10.6504
▁1928	-10.6507
rent	-10.6509
etica	-10.6509
▁donadas	-10.6514
▁(«	-10.6514
▁bis	-10.6515
▁bell	-10.6515
▁tenir	-10.6518
iau	-10.652
▁quimista	-10.6523
▁determina	-10.6525
▁guipuscoa	-10.6539
gne	-10.6539
▁separacion	-10.6544
▁romania	-10.6547
▁protectorat	-10.6548
▁1981	-10.6551
▁lingüista	-10.6552
▁1938	-10.6553
acòrdi	-10.6553
▁colors	-10.6557
▁bai	-10.6562
▁cambra	-10.6564
▁religions	-10.6575
▁mit	-10.6577
▁georgia	-10.658
▁oficial	-10.6581
▁nombrós	-10.6584
invencion	-10.6585
▁peisses	-10.6585
mira	-10.659
▁aquestas	-10.6597
▁egala	-10.6598
epi	-10.6599
▁autes	-10.66
▁gener	-10.6601
▁gardèt	-10.6603
grav	-10.661
▁nil	-10.6613
sec	-10.6614
▁demorar	-10.6614
▁nòta	-10.662
▁fò	-10.6621
▁cometa	-10.6622
institucion	-10.6622
aglomeracion	-10.6622
+	-10.6622
cie	-10.6626
▁blat	-10.6626
▁utilizacion	-10.6626
▁contemporanèu	-10.6629
▁dotze	-10.663
▁realizèt	-10.663
▁malautiás	-10.6635
dieu	-10.6638
▁minas	-10.6638
▁gras	-10.6641
▁julian	-10.6645
▁sort	-10.6649
sanct	-10.6657
▁seleccion	-10.6657
▁tecnic	-10.6658
▁executiu	-10.6662
ificat	-10.6664
▁mager	-10.6664
ças	-10.6667
▁total	-10.6668
olimpic	-10.667
▁inc	-10.6671
▁fus	-10.6673
▁cellula	-10.6673
▁80	-10.6674
▁collègi	-10.6675
▁comportament	-10.6675
▁bronze	-10.6675
▁tèrç	-10.6675
▁clear	-10.6676
▁savés	-10.6677
▁complèxe	-10.6678
▁union	-10.6679
▁lion	-10.6679
omat	-10.668
▁tolosan	-10.6681
▁1954	-10.6684
▁donada	-10.6689
▁organizè	-10.6689
▁1971	-10.669
agís	-10.6693
▁ph	-10.6696
electron	-10.6696
noy	-10.6699
chat	-10.6702
▁rhin	-10.6702
lou	-10.6707
ject	-10.6709
import	-10.6711
▁vou	-10.6715
▁carl	-10.6719
▁revendica	-10.672
astronomia	-10.6721
▁competicion	-10.6721
impression	-10.6721
▁fraires	-10.6722
▁charanta	-10.6723
▁espe	-10.6726
òg	-10.6727
▁vast	-10.6727
▁milion	-10.6728
▁utilizar	-10.673
▁regla	-10.6736
vy	-10.6736
▁classas	-10.6746
hui	-10.6747
▁materiaus	-10.6752
ür	-10.6753
este	-10.6754
▁poi	-10.6759
▁inca	-10.6759
apogèu	-10.6766
adaptacion	-10.6767
▁reconquista	-10.6767
▁vescomte	-10.6767
▁vendriá	-10.6768
▁delegada	-10.6769
%	-10.677
▁estre	-10.6772
acabar	-10.6772
▁depaus	-10.6775
▁assaièron	-10.6776
▁jogar	-10.6776
▁mèi	-10.6778
mbi	-10.6779
▁geo	-10.6779
▁brancas	-10.6786
ulh	-10.6787
▁zonas	-10.679
truc	-10.6792
▁arma	-10.6792
ito	-10.6794
itària	-10.6795
▁deths	-10.6804
▁aran	-10.6805
gio	-10.6806
▁ducat	-10.6808
ordon	-10.6809
amina	-10.6811
▁chic	-10.6812
▁conferéncia	-10.6813
▁legislatiu	-10.6813
▁pagina	-10.6813
nascuda	-10.6813
▁poblat	-10.6813
▁arribèt	-10.6813
▁questions	-10.6815
▁capluòc	-10.6819
▁escriguèt	-10.682
▁45	-10.6823
▁1961	-10.6823
▁1924	-10.6824
▁marchand	-10.6825
ordi	-10.6837
ize	-10.684
▁exclu	-10.6841
▁manifestacions	-10.6842
▁hauta	-10.6845
▁sun	-10.685
mons	-10.6852
ofensiva	-10.6855
▁còde	-10.6858
▁jerusalèm	-10.6859
▁preïstòria	-10.6859
orquèstra	-10.6859
▁colleccion	-10.6859
▁refusèt	-10.6859
▁cercle	-10.6861
èit	-10.6861
edit	-10.6865
▁arabis	-10.6868
▁interiora	-10.6868
▁reich	-10.687
▁mercé	-10.687
▁participa	-10.6871
▁tolon	-10.6872
estamp	-10.6873
▁satellits	-10.6876
▁freg	-10.6877
òst	-10.6877
▁civil	-10.6884
▁oras	-10.689
òssa	-10.6893
▁arch	-10.6893
▁dirècte	-10.6893
▁viure	-10.6897
inus	-10.6898
joan	-10.6898
apelan	-10.69
▁vilatges	-10.69
ieux	-10.69
ios	-10.6904
▁bretanha	-10.6905
▁portuguesa	-10.6905
▁professional	-10.6905
▁dimension	-10.6905
▁restaurar	-10.6905
▁1733)	-10.6905
▁ruisseau	-10.6905
▁jardin	-10.6906
▁inferiora	-10.6907
▁cava	-10.6911
▁sarra	-10.6911
▁milan	-10.6913
▁societats	-10.6919
levat	-10.6921
▁partiment	-10.6924
intrar	-10.6935
jada	-10.6935
▁dieus	-10.6943
ocupa	-10.6943
prefectura	-10.6949
tru	-10.695
▁inferior	-10.6951
esfòrç	-10.6953
esqui	-10.6954
▁ròcas	-10.6954
▁2017	-10.6957
▁assemblada	-10.6958
▁1912	-10.6959
▁industrial	-10.6962
introduccion	-10.6962
otís	-10.6963
▁1935	-10.6964
▁manièra	-10.6966
▁doctor	-10.6971
essor	-10.6973
ètz	-10.6974
ataca	-10.6976
ià	-10.6976
▁prumèr	-10.6979
▁const	-10.6989
aqueles	-10.6991
▁austràlia	-10.6992
gus	-10.6997
ides	-10.6998
▁païsatge	-10.7004
▁arrondiment	-10.7008
▁fisician	-10.7009
▁particulara	-10.701
util	-10.701
▁depuis	-10.7012
▁valéncia	-10.7014
▁benda	-10.7018
▁reis	-10.7018
▁capables	-10.7019
▁dirècta	-10.7021
▁autas	-10.703
▁lach	-10.7031
leta	-10.7033
arriba	-10.7039
▁detalh	-10.7039
▁toponim	-10.704
armas	-10.7043
esclaus	-10.7045
geografia	-10.7045
ward	-10.7045
▁ham	-10.7046
▁moscòu	-10.7046
adjectiu	-10.7046
▁thomas	-10.7047
▁signatura	-10.7048
▁instruments	-10.7049
▁maxim	-10.7049
▁montfòrt	-10.7051
▁jonh	-10.7056
▁bearnés	-10.7059
▁dificultat	-10.7062
▁favoriza	-10.7065
▁regulara	-10.7068
tta	-10.7068
ème	-10.7069
trop	-10.707
hada	-10.7081
▁truca	-10.7084
▁cit	-10.7085
▁german	-10.7087
▁scientifics	-10.7089
▁mecanica	-10.7089
▁beu	-10.7091
▁diferencia	-10.7094
▁reconegut	-10.7094
▁gigant	-10.7095
▁fondamentala	-10.7096
▁collectiu	-10.7098
▁vapor	-10.7098
▁administratiu	-10.7103
▁recenta	-10.7106
▁1963	-10.7106
engatja	-10.7107
▁1953	-10.7111
▁catal	-10.7115
▁entau	-10.7115
tèc	-10.7124
lièr	-10.7127
▁originas	-10.7132
▁paure	-10.7133
très	-10.7138
▁çaquelà	-10.7141
▁guerilha	-10.7141
▁periodic	-10.7141
▁demenicion	-10.7141
▁latitud	-10.7142
▁ròc	-10.7146
▁avesque	-10.7147
▁regarda	-10.7147
▁reduccion	-10.7147
▁costum	-10.7149
▁socialas	-10.7155
▁liberal	-10.7161
▁tradicions	-10.7164
▁tornat	-10.7165
▁tèrmes	-10.7169
▁pèiras	-10.717
imne	-10.7171
▁berlin	-10.7171
▁manjar	-10.7174
▁unitats	-10.7177
idro	-10.7178
▁presents	-10.7181
▁annèxa	-10.7189
▁visigòt	-10.7189
▁guinèa	-10.7189
▁dempús	-10.7189
▁seguit	-10.719
estèla	-10.7194
▁bearnesa	-10.7195
▁aiçò	-10.7195
iens	-10.7196
▁venent	-10.7199
ég	-10.7203
▁cros	-10.7203
▁recent	-10.7205
▁nacion	-10.7205
jament	-10.7206
bai	-10.7207
▁fou	-10.7208
argeria	-10.7209
▁santat	-10.7209
aient	-10.7217
▁grèu	-10.7219
▁andre	-10.7219
▁bet	-10.7222
tria	-10.7223
▁frontieras	-10.7226
▁dòna	-10.7226
▁planetas	-10.7229
▁raionament	-10.7237
insècte	-10.7237
▁estandard	-10.7238
▁litoral	-10.7239
àcia	-10.7239
▁utilizadas	-10.7242
encastre	-10.725
riga	-10.7251
òni	-10.7255
tric	-10.7261
▁eissit	-10.7263
▁federala	-10.7265
ït	-10.7265
▁darrièrs	-10.7268
▁modèrnas	-10.7271
3%	-10.7271
▁orientau	-10.7274
▁tala	-10.7274
gny	-10.7275
arbre	-10.7276
▁temperaturas	-10.7276
▁ela	-10.7277
homo	-10.728
▁ostals	-10.728
▁electrica	-10.7284
▁numèro	-10.7285
▁madrid	-10.7286
got	-10.7296
▁vaca	-10.7296
▁1987	-10.7297
▁organica	-10.7302
▁vint	-10.7307
▁istorics	-10.7323
▁proclama	-10.7329
▁desconeguda	-10.7334
▁norvègia	-10.7334
▁leugier	-10.7334
▁pròva	-10.7334
esclavatge	-10.7335
▁concern	-10.7335
▁dirigiguèt	-10.7335
▁establit	-10.7335
▁consistís	-10.7336
▁black	-10.7336
armenia	-10.7336
camb	-10.7337
▁luchar	-10.7338
▁monge	-10.734
▁participar	-10.7343
alcòl	-10.7343
vèrn	-10.7344
oph	-10.7346
utilizan	-10.7346
▁bòn	-10.7348
▁1966	-10.7348
▁1937	-10.7351
chen	-10.7359
patri	-10.7363
▁indiana	-10.7367
jas	-10.7367
▁jun	-10.7372
axe	-10.7372
ieras	-10.7382
▁frònt	-10.7383
▁sicília	-10.7383
▁sufragi	-10.7383
▁recebut	-10.7383
▁laurenç	-10.7383
▁film	-10.7385
▁creissent	-10.7386
▁tengut	-10.7387
▁seigneurie	-10.7388
pèr	-10.7389
▁1977	-10.7391
frança	-10.7392
1%	-10.7392
▁paris	-10.7396
tenguda	-10.7396
▁arbre	-10.7397
▁causèt	-10.7399
gò	-10.7402
dèl	-10.7406
▁sultan	-10.7421
▁ved	-10.7423
armament	-10.7425
idi	-10.7427
▁representat	-10.7428
▁benefici	-10.7432
▁tecnologia	-10.7432
▁allemand	-10.7432
▁implica	-10.7433
▁tru	-10.7436
erg	-10.7436
gré	-10.7441
aument	-10.7448
▁ostil	-10.7448
get	-10.7449
▁peter	-10.745
7%	-10.7451
▁70	-10.7452
▁gallic	-10.7457
▁protestants	-10.746
▁problèma	-10.7463
▁satellit	-10.7463
velh	-10.7465
▁lui	-10.7466
jou	-10.7476
▁escricha	-10.7478
lèu	-10.7479
▁felibritge	-10.7481
▁shalòssa	-10.7481
▁bordalesa	-10.7481
▁contunia	-10.7482
▁industria	-10.7483
luòc	-10.7488
▁1925	-10.7489
▁mila	-10.749
oman	-10.7496
▁descubèrtas	-10.7497
cava	-10.7497
▁karl	-10.75
▁aparten	-10.7501
▁cèl	-10.7523
▁catalans	-10.7525
enregistra	-10.7529
▁virüs	-10.7531
▁dictatura	-10.7531
▁vegetal	-10.7531
▁responsable	-10.7536
▁recampa	-10.7537
▁catolic	-10.7538
▁1984	-10.7539
▁1988	-10.754
name	-10.7542
arrestar	-10.7542
installèt	-10.7544
mund	-10.7546
▁(11	-10.7547
ideologia	-10.7555
▁solet	-10.7556
nie	-10.7561
▁dialècte	-10.7563
▁rotas	-10.7564
▁pèça	-10.7569
▁airal	-10.7573
iraq	-10.7574
▁castell	-10.7574
▁motor	-10.7575
▁nas	-10.7577
ick	-10.7578
villers	-10.7579
▁caracterizada	-10.758
exploracion	-10.758
▁debana	-10.7581
▁caseriu	-10.7581
▁seccion	-10.7581
▁celèbre	-10.7581
▁contengut	-10.7583
▁porta	-10.7583
observa	-10.7584
▁modèrnes	-10.7588
▁dirigir	-10.7591
▁recu	-10.7591
bois	-10.7594
▁descubèrt	-10.7601
▁rio	-10.7606
▁cambrai	-10.7607
dio	-10.7611
▁complèx	-10.763
▁privat	-10.7631
▁païsans	-10.7631
▁jazz	-10.7631
unificacion	-10.7632
▁secretari	-10.7633
▁estudiar	-10.7635
eaux	-10.7636
être	-10.764
▁1983	-10.764
▁observ	-10.7645
▁poissanças	-10.7648
manha	-10.765
▁valors	-10.765
guin	-10.765
▁sultanat	-10.765
▁tròn	-10.7653
▁puja	-10.7653
▁explicar	-10.7654
▁traversat	-10.7657
off	-10.7657
▁retir	-10.7658
tenguèt	-10.7661
▁transport	-10.7661
pot	-10.7663
formatge	-10.7665
inhan	-10.7668
unei	-10.7676
▁arro	-10.7676
▁preïstoric	-10.7681
▁delamarre	-10.7681
anatolia	-10.7682
▁1911	-10.7684
▁pintre	-10.7686
austràlia	-10.7689
dins	-10.7692
▁espòrt	-10.7695
▁basca	-10.7695
▁catolics	-10.7697
ray	-10.7697
tré	-10.7698
rol	-10.7701
ño	-10.7703
▁cambièt	-10.771
▁recon	-10.7715
pha	-10.7723
▁actritz	-10.7724
▁iberica	-10.7731
▁soldats	-10.7731
▁besièrs	-10.7731
▁où	-10.7746
▁bastiments	-10.7747
▁vocala	-10.7748
▁pèrdas	-10.7753
▁demòran	-10.7758
opèra	-10.7767
illas	-10.7771
▁incendi	-10.7775
▁posterior	-10.7776
▁cambiaments	-10.7778
implant	-10.778
ʂ	-10.7781
indústria	-10.7782
▁filosofic	-10.7782
▁medievau	-10.7782
▁sintèsi	-10.7782
▁fragment	-10.7782
▁indigèna	-10.7782
▁siguec	-10.7782
▁diversitat	-10.7783
alèir	-10.7785
matica	-10.7785
▁mòrts	-10.7788
oth	-10.7792
cari	-10.7792
actritz	-10.7796
▁ipotèsi	-10.7796
gèt	-10.7801
irós	-10.7804
biologista	-10.7806
▁estudiant	-10.7808
▁perilh	-10.781
atenas	-10.7813
abat	-10.7815
▁marie	-10.7818
▁cav	-10.7826
istorian	-10.7828
▁kilomètres	-10.7833
analisi	-10.7836
▁encore	-10.7837
▁quimics	-10.7837
▁1907	-10.784
▁dintra	-10.7845
òrta	-10.7854
▁interior	-10.7856
▁hameau	-10.786
ausèl	-10.786
▁finau	-10.7867
fons	-10.7872
▁diferenta	-10.7875
▁destin	-10.7876
▁raça	-10.7877
▁ieu	-10.7877
▁identic	-10.7879
ejar	-10.7882
elèit	-10.7884
infrastructura	-10.7884
▁revenguts	-10.7884
▁lombard	-10.7884
▁califa	-10.7887
▁fief	-10.7887
▁galhac	-10.7887
andre	-10.7889
▁estatsunidencs	-10.7889
mada	-10.7889
▁metre	-10.789
▁cobèrt	-10.7892
▁fondèron	-10.7892
▁retirada	-10.7896
iaceae	-10.7897
▁escur	-10.7899
▁presidenciala	-10.79
▁trabalhar	-10.7901
guèsse	-10.7903
biologia	-10.7907
gou	-10.7908
▁1830	-10.7908
▁kar	-10.791
▁fonts	-10.7913
ña	-10.7915
▁(10	-10.7917
▁mondiale	-10.7921
▁imatge	-10.7923
▁sedan	-10.7926
▁gama	-10.7927
▁agut	-10.7927
▁garnison	-10.7936
▁provisòri	-10.7936
▁rompedura	-10.7936
▁resistir	-10.7936
▁suedés	-10.7936
▁fossil	-10.7936
lieu	-10.7941
▁1901	-10.7941
▁reaccions	-10.7942
▁artistica	-10.7942
▁rue	-10.7947
pap	-10.7947
▁albi	-10.795
*	-10.7955
aine	-10.7958
▁contunha	-10.7961
artesan	-10.7965
▁qualifica	-10.7972
▁nat	-10.7973
bet	-10.7976
▁melhora	-10.7983
▁africana	-10.7985
toria	-10.7986
▁richard	-10.7988
▁apelat	-10.7989
▁paur	-10.7994
▁michel	-10.7999
▁designat	-10.8
oïde	-10.8002
atestacion	-10.8003
▁delà	-10.8005
▁tiera	-10.8008
ander	-10.801
▁vel	-10.8013
chant	-10.8014
▁bascoat	-10.8022
ège	-10.8038
▁voie	-10.8038
▁aparegut	-10.804
▁jacme	-10.804
▁seteme	-10.804
▁separa	-10.8041
inspiracion	-10.8042
iformes	-10.8043
▁castel	-10.8046
▁realizacion	-10.8052
exemple	-10.8053
provença	-10.8055
▁fol	-10.8059
▁claus	-10.8063
cam	-10.8063
▁representar	-10.8066
▁cima	-10.8068
▁separat	-10.8071
▁fòrtament	-10.8084
hé	-10.8085
▁senescaucia	-10.8092
▁pedro	-10.8092
▁bombard	-10.8092
▁galloroman	-10.8093
▁crosats	-10.8096
▁divisions	-10.8096
▁aicí	-10.8097
prote	-10.8097
▁astor	-10.8097
equipa	-10.8102
▁musical	-10.8102
perigòrd	-10.8107
▁cm	-10.8107
erupcion	-10.8107
còp	-10.8113
ïna	-10.8126
▁lacs	-10.8136
▁basti	-10.8138
▁bran	-10.8138
▁recep	-10.8138
▁confederacion	-10.8145
▁révolution	-10.8145
▁salvador	-10.8145
▁forêt	-10.8145
▁concili	-10.8145
▁borbon	-10.8145
▁paraguai	-10.8145
▁sillaba	-10.8145
aeropòrt	-10.8145
▁considerar	-10.8145
▁pòden	-10.8148
▁we	-10.8148
èrba	-10.8149
▁jornalista	-10.8149
▁chantal	-10.8152
▁determinant	-10.8155
▁invasions	-10.8156
guèrra	-10.816
osfèra	-10.816
orbita	-10.8161
▁prepausèt	-10.8161
▁1714	-10.8164
▁jour	-10.8166
▁bern	-10.817
liber	-10.817
▁française	-10.8173
▁voliá	-10.8174
▁mia	-10.8175
▁miei	-10.8189
▁dèu	-10.8189
avança	-10.8191
▁classifica	-10.8192
▁vielh	-10.8192
▁tout	-10.8193
actual	-10.8196
conéisser	-10.8197
▁territoriala	-10.8197
▁rivière	-10.8197
▁fotografia	-10.8198
▁inspirat	-10.8199
▁localité	-10.8199
▁mineral	-10.8199
▁produrre	-10.8199
9%	-10.8199
▁podriá	-10.8199
▁mostrè	-10.82
▁participacion	-10.8203
▁japonesa	-10.8203
▁fònts	-10.8204
▁1910	-10.8207
▁nacionalista	-10.8213
▁eles	-10.8218
èsse	-10.8223
xo	-10.8223
auto	-10.8225
▁electric	-10.8226
▁hall	-10.8236
illus	-10.8242
beau	-10.8247
onor	-10.8248
ieo	-10.8248
▁passant	-10.8248
atacar	-10.8249
îlot	-10.8251
afganistan	-10.8251
entrepresa	-10.8251
escòcia	-10.8251
pit	-10.8251
▁reserva	-10.8251
hin	-10.8254
▁electronic	-10.8254
▁nais	-10.8272
▁hum	-10.8273
annexion	-10.8277
arà	-10.8278
▁filmes	-10.8285
auça	-10.8286
▁hau	-10.8299
▁circ	-10.8301
▁poderosa	-10.8301
▁complèxa	-10.8301
▁extèrnes	-10.8303
▁axe	-10.8303
▁aute	-10.8303
fro	-10.8306
▁exportacions	-10.8308
▁continu	-10.8311
2%	-10.8316
▁1890	-10.8324
ibèr	-10.8326
isti	-10.8326
aria	-10.8331
anum	-10.8332
▁resèrvas	-10.8333
huec	-10.8336
▁causse	-10.8338
lí	-10.8341
ym	-10.8343
▁podián	-10.8344
▁presentar	-10.8345
▁clav	-10.835
_1	-10.8352
▁cultiva	-10.8356
▁trèbols	-10.8358
▁apareguda	-10.8358
▁millenari	-10.8358
▁même	-10.8358
▁rugbi	-10.8358
constellacion	-10.8358
▁expansion	-10.8358
▁justifica	-10.8358
interpret	-10.8359
▁registr	-10.836
▁tè	-10.836
▁mill	-10.8367
ícia	-10.8371
▁revela	-10.8371
▁acomencèron	-10.8372
emplega	-10.8378
wald	-10.8383
▁patric	-10.8385
posit	-10.8386
▁espanhòus	-10.839
▁celle	-10.8392
▁oriental	-10.8392
▁travèrsa	-10.8394
▁preson	-10.8395
posicion	-10.8395
▁diccionari	-10.8395
▁demission	-10.8398
▁energia	-10.8406
▁progress	-10.8408
ñ	-10.841
▁democracia	-10.8412
▁nicolas	-10.8412
▁suprèm	-10.8412
▁definís	-10.8413
▁content	-10.8415
▁individús	-10.8419
▁exterior	-10.842
quimista	-10.8422
▁religa	-10.8425
endrech	-10.8427
▁medica	-10.8427
▁alexandre	-10.8428
▁400	-10.8431
▁pensar	-10.8439
espital	-10.8442
▁1880	-10.8442
éta	-10.8442
gnac	-10.8444
▁martir	-10.8447
▁revòutas	-10.8452
▁aisament	-10.8459
▁biologic	-10.8462
fran	-10.8464
histoire	-10.8466
▁desvolopèron	-10.8467
vèn	-10.8471
▁andré	-10.8471
fix	-10.8477
hir	-10.8479
▁trois	-10.8482
italian	-10.8488
batalha	-10.8489
avè	-10.8492
▁rap	-10.8495
pir	-10.8496
▁bizantins	-10.85
▁entra	-10.8501
nauta	-10.8502
▁especific	-10.8506
fri	-10.8506
▁estelas	-10.8508
▁espera	-10.8509
vath	-10.851
▁complet	-10.851
▁mercés	-10.8511
cius	-10.8515
pho	-10.8515
▁autoritari	-10.8519
arribè	-10.852
arrondissement	-10.8521
▁longitud	-10.8521
▁conversion	-10.8521
▁paquistan	-10.8521
▁jaume	-10.8521
▁conclu	-10.8521
▁carriera	-10.8523
diplom	-10.8525
▁1905	-10.8526
▁arribar	-10.8526
▁besonhs	-10.8528
▁maría	-10.853
▁divèrs	-10.8536
▁menat	-10.8538
metre	-10.8544
war	-10.8545
cial	-10.8545
▁modificacion	-10.8547
▁accès	-10.8549
cantaire	-10.855
▁feder	-10.8553
▁avançada	-10.8567
▁geologic	-10.8572
▁gàllia	-10.8576
▁legislativa	-10.8576
▁imperiau	-10.8576
adoptar	-10.8576
▁cinquen	-10.8576
enberg	-10.8578
▁morala	-10.8578
▁multiplicacion	-10.8578
▁début	-10.8579
▁caplòc	-10.8582
8%	-10.8583
▁quartier	-10.8585
espòrt	-10.8585
avián	-10.8592
▁antoni	-10.8592
▁campanhas	-10.8593
terna	-10.8593
paul	-10.8594
parti	-10.8596
urg	-10.8597
▁dependent	-10.8603
tolosa	-10.8604
▁camba	-10.8608
cidèt	-10.861
▁cana	-10.8611
▁renfòrç	-10.8612
izan	-10.8612
▁vern	-10.8616
ostilitat	-10.8617
▁ordonè	-10.8618
▁construit	-10.8618
▁vièlha	-10.8621
▁reconeguda	-10.8631
▁veïcul	-10.8631
▁ongrés	-10.8631
eve	-10.8631
urban	-10.8635
companh	-10.864
▁nomadas	-10.8642
▁pagar	-10.8645
rag	-10.8655
montanha	-10.8663
tou	-10.8666
vu	-10.8669
▁alsace	-10.8671
▁diplomatica	-10.8674
▁resulta	-10.8675
jó	-10.8678
▁carlesmanhe	-10.8687
▁residéncia	-10.8687
▁pluèja	-10.8687
▁tèrratrem	-10.8687
▁arrestat	-10.8687
▁declaracion	-10.8688
▁crè	-10.869
▁vassau	-10.869
▁braç	-10.8691
▁politician	-10.8692
segon	-10.8696
%)	-10.8697
▁genèr	-10.8699
▁1957	-10.8703
▁considera	-10.8705
▁meridionala	-10.8705
personatge	-10.8711
kov	-10.8711
▁rurala	-10.8711
osament	-10.8712
▁35	-10.8715
▁escriure	-10.8716
▁mexican	-10.8723
▁locau	-10.8724
▁força	-10.8726
▁mongòls	-10.8731
▁cir	-10.8735
▁obratge	-10.8741
▁adaptat	-10.8743
▁migracion	-10.8743
▁polonesa	-10.8743
▁celebra	-10.8743
origine	-10.8743
▁còngo	-10.8745
▁viatja	-10.8747
▁ofensiva	-10.8748
osse	-10.8748
▁1908	-10.875
▁artistas	-10.8756
▁1931	-10.8757
cup	-10.8759
▁accept	-10.8759
▁canau	-10.8761
▁comercial	-10.8761
membre	-10.8769
animau	-10.8774
▁normand	-10.8799
emisfèri	-10.8799
▁critèri	-10.8799
▁flandre	-10.8799
▁turquia	-10.8799
▁constanta	-10.88
▁sòci	-10.8801
▁dirig	-10.8803
▁redigi	-10.8804
aparelh	-10.8805
▁bernard	-10.8805
servi	-10.8807
▁captura	-10.881
▁reduch	-10.8813
▁hòrt	-10.8813
▁oceanic	-10.8814
▁representan	-10.8814
issac	-10.8816
▁julh	-10.8822
rhin	-10.8824
▁animal	-10.8824
castèl	-10.8829
▁ort	-10.8833
▁soma	-10.8834
▁turca	-10.8835
ròt	-10.8836
▁institucion	-10.8836
▁connu	-10.8837
▁turin	-10.8839
chel	-10.884
▁comptava	-10.8844
▁decret	-10.8845
▁nacionalistas	-10.885
▁escriu	-10.885
▁vertadièra	-10.8854
oxi	-10.8854
▁municipi	-10.8855
▁respectivament	-10.8855
▁heurèr	-10.8855
▁medalha	-10.8855
▁favorabla	-10.8857
▁monte	-10.8857
▁tematica	-10.8857
▁hont	-10.8859
ɛj	-10.8861
▁musulman	-10.8863
▁hé	-10.8867
▁umid	-10.8867
▁fugue	-10.8871
▁max	-10.8879
▁bauma	-10.888
accept	-10.8885
ferrand	-10.8885
▁aussi	-10.8885
▁ancienne	-10.889
gué	-10.8893
▁passe	-10.8898
500	-10.89
▁conservator	-10.8901
champ	-10.8901
aristocracia	-10.8912
▁corrupcion	-10.8912
intensitat	-10.8912
▁venècia	-10.8912
asteroïde	-10.8912
▁cosin	-10.8913
▁plate	-10.8914
▁artic	-10.8918
issián	-10.8919
▁africans	-10.8919
▁operacions	-10.892
grama	-10.8921
▁quite	-10.8928
impausar	-10.8934
bou	-10.8934
▁arri	-10.8936
▁parlamentari	-10.8937
accès	-10.894
alemand	-10.8944
▁emplega	-10.8945
icacion	-10.8946
▁noir	-10.8947
ièira	-10.8952
▁joana	-10.8954
▁valadas	-10.8955
thé	-10.8955
▁cord	-10.8963
rey	-10.8966
▁causada	-10.8967
▁experiment	-10.8969
▁tribalh	-10.8969
▁bodisme	-10.8969
important	-10.8972
▁ainsi	-10.8972
▁letra	-10.8973
▁senhoriá	-10.8976
eiretier	-10.8978
▁conservador	-10.8984
▁certan	-10.8988
▁germanica	-10.8993
▁flors	-10.8998
bell	-10.9002
▁traças	-10.9014
▁abita	-10.9015
text	-10.902
indica	-10.9022
}}	-10.9027
▁bòsques	-10.9027
▁califòrnia	-10.9027
▁finlàndia	-10.9027
ocupèron	-10.9027
▁reproduccion	-10.9027
▁sostenguda	-10.9031
▁vivon	-10.9034
▁factors	-10.9034
▁polit	-10.9037
▁negociar	-10.9039
▁nuclear	-10.9045
ello	-10.9045
▁marx	-10.9047
6%	-10.9054
▁aur	-10.9058
▁integrat	-10.9061
realizator	-10.9064
▁circula	-10.9067
▁divinitat	-10.9072
ο	-10.9084
▁versalhas	-10.9085
vian	-10.9086
▁gramatica	-10.9086
▁deceme	-10.9087
▁logica	-10.9087
obli	-10.9088
▁tribut	-10.9089
▁amai	-10.9093
▁petite	-10.9095
▁prene	-10.9105
pter	-10.9106
emission	-10.9106
▁bala	-10.9111
▁kan	-10.9114
▁darriera	-10.9119
▁land	-10.913
▁signes	-10.913
vista	-10.9134
▁mao	-10.9136
igue	-10.9137
▁permanenta	-10.9137
▁blau	-10.9139
▁jura	-10.914
aven	-10.914
▁cœur	-10.9143
▁jaciments	-10.9143
▁sempre	-10.9143
▁quelques	-10.9143
▁rarament	-10.9152
▁senhal	-10.9154
▁larga	-10.9156
▁conven	-10.9157
ignies	-10.9163
lòc	-10.9167
guen	-10.9171
▁segondari	-10.9172
egi	-10.9172
▁contribu	-10.9173
▁substàncias	-10.9176
▁conda	-10.9178
▁extra	-10.9179
azi	-10.9181
▁vertadier	-10.9186
escais	-10.9189
▁industriau	-10.9189
▁reial	-10.9197
▁memòria	-10.9201
▁neerlandés	-10.9201
▁wikipèdia	-10.9201
▁chicago	-10.9201
▁financièr	-10.9201
▁tendància	-10.9202
▁menaçada	-10.9203
▁danés	-10.9207
escala	-10.9207
▁començar	-10.9211
ència	-10.9213
▁sentiment	-10.9217
▁recentament	-10.922
▁1927	-10.9223
[[	-10.9223
▁rot	-10.9224
▁particularitat	-10.9226
▁vertat	-10.9228
entraïna	-10.9235
▁berg	-10.9236
ardenas	-10.9239
▁plat	-10.9241
òrdi	-10.9243
▁minoritat	-10.9253
▁exerc	-10.9254
▁noblesa	-10.9255
▁rd	-10.9258
execucion	-10.926
▁cratèr	-10.926
thal	-10.9261
▁plusi	-10.9263
▁poténcia	-10.9263
▁constituisson	-10.9264
▁integr	-10.9264
oire	-10.9272
▁1916	-10.9273
▁vertadiera	-10.9275
▁morí	-10.9275
hil	-10.9288
pomp	-10.929
istes	-10.9293
▁pagan	-10.9295
clair	-10.9299
▁cambiar	-10.9306
▁junta	-10.9306
▁dominat	-10.9309
escultura	-10.9312
▁marcel	-10.9318
astronòm	-10.9319
▁còmte	-10.9319
▁malaisat	-10.9319
quadr	-10.9319
▁centenau	-10.932
▁fèu	-10.9323
▁aguest	-10.9324
prene	-10.9327
òf	-10.9328
▁castèu	-10.9332
▁chu	-10.9333
▁renfòrçar	-10.9334
lici	-10.9336
wil	-10.9337
▁estatsunidenc	-10.934
▁environament	-10.934
otan	-10.934
èma	-10.9341
afi	-10.9344
▁français	-10.9359
francés	-10.9361
▁"(	-10.9362
kan	-10.937
interaccion	-10.9371
▁ciutadans	-10.9373
▁autoritat	-10.9376
▁mistral	-10.9378
▁bismarck	-10.9379
democrata	-10.9379
▁nòstre	-10.9379
▁piemont	-10.9379
▁esposa	-10.9382
angle	-10.9382
▁obrier	-10.9384
▁minoritats	-10.9388
chan	-10.9395
▁poèmas	-10.9396
alimentacion	-10.9405
erat	-10.9406
bèl	-10.9408
▁protestanta	-10.941
aboli	-10.9419
▁petita	-10.9423
ció	-10.9423
téner	-10.9428
▁israèl	-10.9429
▁1000	-10.9434
▁nívol	-10.9439
▁privilègi	-10.9439
▁trobèt	-10.9439
engenhaire	-10.9439
▁dolars	-10.9439
ár	-10.9439
▁dintre	-10.944
arro	-10.9451
▁organismes	-10.9451
▁claudi	-10.9457
ïsta	-10.9461
▁ensenha	-10.9464
avion	-10.9465
electricitat	-10.9468
rique	-10.947
▁espaciala	-10.9471
èuro	-10.9475
intervencion	-10.9476
imatge	-10.9477
onu	-10.9483
▁sho	-10.9491
▁violonista	-10.9492
▁bibliotèca	-10.9499
▁conoissença	-10.9499
▁dobte	-10.95
▁mièja	-10.95
▁difusa	-10.9501
▁plaçat	-10.9504
terian	-10.9505
▁insureccion	-10.9505
ordinator	-10.9517
▁tol	-10.9518
esfèra	-10.9519
▁sindic	-10.9519
▁caracteristic	-10.9525
house	-10.9527
ciutat	-10.9537
▁portada	-10.954
▁sosten	-10.954
▁paulo	-10.9544
agantar	-10.9547
▁supausat	-10.955
garda	-10.955
▁bour	-10.9555
▁refugi	-10.9556
▁maubeuge	-10.9559
mézières	-10.9559
▁jèsus	-10.9559
vul	-10.956
▁television	-10.956
▁individual	-10.956
▁aguent	-10.9561
▁dor	-10.9561
▁pop	-10.9561
▁seguretat	-10.9561
▁trabalhèt	-10.9563
asso	-10.9568
fé	-10.9569
▁portar	-10.9569
▁parents	-10.9574
▁album	-10.9575
▁nimes	-10.9576
vaux	-10.9577
▁african	-10.9581
▁banh	-10.9582
autes	-10.9584
▁1848	-10.9589
sible	-10.9589
latin	-10.9589
▁communal	-10.959
▁1860	-10.9591
guier	-10.9593
enfant	-10.96
4%	-10.9604
▁grava	-10.9609
▁fred	-10.9611
▁minim	-10.9612
▁trobava	-10.9614
▁bulgar	-10.9614
▁([[	-10.9614
nect	-10.9617
▁galaxias	-10.962
▁teissut	-10.962
▁cèrca	-10.9621
▁estrangiera	-10.9621
▁genetica	-10.9624
▁esquèrra	-10.9627
▁limita	-10.9628
▁descobèrt	-10.963
▁descendent	-10.9631
▁nacionalisme	-10.9632
pou	-10.9639
▁escriv	-10.9639
▁metallic	-10.9647
▁violenta	-10.9649
▁venon	-10.9652
▁matematic	-10.9653
▁ép	-10.9653
zheim	-10.9656
citat	-10.9657
▁tribús	-10.9658
òga	-10.9659
arqui	-10.9659
▁platon	-10.9665
▁campion	-10.9665
▁fasent	-10.9666
▁relativa	-10.9674
jòu	-10.9679
▁aujourd	-10.9682
▁fortalesa	-10.9682
▁cementèri	-10.9682
▁femèla	-10.9682
▁tolosenc	-10.9682
▁establida	-10.9682
▁distint	-10.9683
▁serbia	-10.9684
▁tipic	-10.9685
▁1913	-10.9685
▁localizacion	-10.9686
▁etiopian	-10.969
lly	-10.97
deu	-10.9701
▁còst	-10.9708
eff	-10.9714
▁aquí	-10.9719
kirch	-10.9725
aliment	-10.9731
▁borges	-10.9735
▁contemporanèa	-10.9743
▁gregorian	-10.9743
▁mistralenca	-10.9744
encoratja	-10.9744
unica	-10.9745
▁esclaus	-10.9746
avinhon	-10.9746
▁kg	-10.9747
ogèn	-10.975
olin	-10.9752
esse	-10.9756
hier	-10.9757
▁volcanica	-10.9758
▁rapid	-10.9762
▁mantuna	-10.9764
tero	-10.9774
▁partença	-10.9775
▁territòriala	-10.9776
balma	-10.9777
▁petr	-10.9777
▁organizar	-10.9777
▁restaca	-10.978
▁tornè	-10.9781
▁johann	-10.9784
▁permeton	-10.9786
filosòf	-10.9787
uèi	-10.9789
▁desplaça	-10.9792
spir	-10.9795
▁transferi	-10.9798
▁biologia	-10.9803
▁intellectuau	-10.9806
▁scèna	-10.9806
▁paleolitic	-10.9806
▁glacièr	-10.9806
▁nuech	-10.9806
▁possedi	-10.9806
▁demenir	-10.9807
▁aumentar	-10.9812
bour	-10.9815
ssaiar	-10.9816
▁capitani	-10.9817
▁continentala	-10.9818
▁especifica	-10.9823
▁acceptar	-10.9826
▁luec	-10.9828
▁fum	-10.9832
▁intèrnes	-10.9866
atletisme	-10.9868
▁leugièr	-10.9868
▁aparenta	-10.9868
opera	-10.9869
▁florença	-10.9872
▁1902	-10.9878
▁liberat	-10.9881
▁plena	-10.9884
érie	-10.9886
▁dominant	-10.9901
estabiliz	-10.9912
ipotèsi	-10.9914
medi	-10.9922
▁testimòni	-10.9931
afebliment	-10.9931
▁tròç	-10.9931
▁contrarotl	-10.9931
▁precís	-10.9931
▁marrida	-10.9933
▁saladin	-10.9935
▁iranian	-10.9935
▁conservacion	-10.9937
▁banc	-10.9945
essencial	-10.995
administra	-10.9953
omini	-10.9954
▁capturat	-10.9956
estima	-10.9958
feld	-10.996
glu	-10.9968
nay	-10.9969
impacte	-10.9971
existís	-10.9978
▁roi	-10.9978
▁enterin	-10.9979
▁originala	-10.9981
▁realiza	-10.999
▁sòr	-10.9991
▁entraïnat	-10.9993
aristòtel	-10.9994
▁obtenguèron	-10.9994
▁frontalier	-10.9994
▁conjuga	-10.9994
▁saunosa	-10.9995
▁sistematica	-10.9995
▁départementale	-10.9995
▁vertadièr	-10.9996
▁comerciaus	-10.9997
▁retro	-11.0001
▁aculh	-11.0002
▁aglomeracion	-11.0005
cour	-11.0006
▁associada	-11.0008
▁georg	-11.0008
▁dubèrt	-11.0011
▁1800	-11.0013
▁reünion	-11.0014
▁1840	-11.0014
▁traversé	-11.0019
▁idèa	-11.002
=51	-11.0033
▁revolucionària	-11.0036
▁terri	-11.0038
ignan	-11.0041
album	-11.0042
▁?)	-11.0043
fol	-11.0044
▁universala	-11.0047
▁giron	-11.0057
▁lituània	-11.0058
▁piramida	-11.0058
▁tecnologic	-11.0058
▁doctrina	-11.0058
▁titolat	-11.0058
▁radicau	-11.0059
▁indonesia	-11.006
▁brèva	-11.006
identificacion	-11.0061
▁compòrta	-11.0061
▁selva	-11.0061
planta	-11.0066
▁proposicion	-11.0068
▁votz	-11.0068
▁francis	-11.0072
▁liberala	-11.0072
estench	-11.0084
▁clarament	-11.0087
▁(6	-11.0088
▁violent	-11.0092
▁web	-11.0094
quier	-11.0096
▁normala	-11.0097
▁autoriza	-11.0106
▁certa	-11.0116
▁verge	-11.0117
aute	-11.012
▁bonaparte	-11.0122
▁reflexion	-11.0122
▁xavier	-11.0122
▁immediat	-11.0122
▁marròc	-11.0122
▁pagament	-11.0122
▁encausa	-11.0122
▁soissons	-11.0122
▁mitologia	-11.0124
▁lentament	-11.0125
autorota	-11.0126
▁pòste	-11.0126
▁foncionaris	-11.0127
▁defòra	-11.0127
▁restablir	-11.0128
ido	-11.0128
▁ancien	-11.0137
page	-11.0137
▁jaune	-11.014
▁fondamentau	-11.0148
qa	-11.0152
▁banda	-11.0154
▁assis	-11.0154
▁pèir	-11.0158
▁barbar	-11.0162
romaine	-11.0178
▁aragon	-11.0185
baptiste	-11.0187
▁refús	-11.0187
▁sèrbe	-11.0187
▁civiu	-11.0187
vig	-11.0188
▁corn	-11.0188
▁estela	-11.0188
▁josèp	-11.0189
atraccion	-11.019
▁distribucion	-11.019
▁pèl	-11.0192
▁sostenguèt	-11.0192
oux	-11.0192
▁sieuna	-11.0192
▁tocat	-11.0195
▁permés	-11.0202
▁musicau	-11.0203
▁peth	-11.0206
▁800	-11.0207
▁certana	-11.0209
▁sever	-11.0213
▁etimologia	-11.0214
▁anteriora	-11.0221
barr	-11.0221
▁jornal	-11.0222
]])	-11.0236
▁negoci	-11.0236
▁romain	-11.0239
▁arras	-11.0241
roll	-11.0241
▁protestant	-11.0242
▁alors	-11.0244
nonciar	-11.0249
▁australian	-11.0251
▁population	-11.0251
▁ràdio	-11.0251
▁constantin	-11.0251
▁poblament	-11.0252
▁coneguèt	-11.0252
indèx	-11.0252
▁maomet	-11.0253
▁malhum	-11.0253
▁sobeiranetat	-11.0253
installèron	-11.0253
acabèron	-11.0253
▁visible	-11.0255
▁febus	-11.0256
▁malaut	-11.0263
▁causida	-11.0268
zel	-11.027
▁remplaçada	-11.0272
▁1898	-11.0272
▁intervencion	-11.0276
▁parlat	-11.0277
laüt	-11.0283
organiza	-11.0289
▁marge	-11.0292
▁quint	-11.0295
apare	-11.0297
emplec	-11.0309
▁responsa	-11.031
▁liats	-11.0311
rosegaire	-11.0312
post	-11.0312
▁corta	-11.0315
▁constantinòble	-11.0317
▁peitau	-11.0317
▁polícia	-11.0318
▁aumentèt	-11.0318
▁ritme	-11.0318
▁hab	-11.0327
bioquimista	-11.0329
▁sui	-11.0348
issant	-11.0351
èrent	-11.0354
extremitat	-11.0354
▁quate	-11.0356
▁punta	-11.0357
▁crema	-11.0362
especializa	-11.0364
py	-11.0365
▁tonas	-11.0371
▁new	-11.0375
arquet	-11.0379
▁prússia	-11.0383
▁noveme	-11.0383
andòrra	-11.0383
▁pèrsia	-11.0383
▁moyen	-11.0383
▁necessitat	-11.0384
▁previst	-11.0386
▁avait	-11.0389
culture	-11.0393
▁1903	-11.0397
▁1801	-11.04
▁parasit	-11.0405
▁thiérache	-11.0409
▁war	-11.0409
▁west	-11.0413
▁place	-11.0414
isin	-11.0426
inspirè	-11.0427
ù	-11.0429
▁accident	-11.0431
musician	-11.0437
avesnois	-11.0438
poèta	-11.0441
alaba	-11.0443
▁abbassida	-11.0449
▁autoctòn	-11.0449
▁friedrich	-11.0449
▁racònte	-11.0449
▁remembra	-11.0449
▁règne	-11.0449
helpe	-11.0449
aubre	-11.0454
ācon	-11.0455
▁afirma	-11.0457
▁permanent	-11.0457
african	-11.0457
▁2019	-11.046
▁petro	-11.0463
▁èstre	-11.0463
▁emplec	-11.0465
▁baia	-11.0471
▁dépend	-11.0483
aspèct	-11.0484
ney	-11.0485
▁sèrv	-11.0486
▁personala	-11.0487
▁desvolopa	-11.0487
model	-11.0487
ève	-11.049
èga	-11.049
▁estrasburg	-11.0494
▁fonda	-11.0501
▁xviiiau	-11.0504
▁600	-11.0505
400	-11.0506
▁dessenhada	-11.0507
▁carre	-11.0514
explicar	-11.0514
▁reconeis	-11.0515
▁guitarra	-11.0516
▁maridèt	-11.0516
▁foguèsse	-11.0516
azòt	-11.0521
tarn	-11.0524
aventura	-11.0524
▁vigor	-11.0527
haut	-11.053
▁represa	-11.0534
▁retirar	-11.0535
▁[[19	-11.0538
ferr	-11.0547
▁forest	-11.0547
▁almens	-11.0555
uèch	-11.0556
petit	-11.0561
▁quart	-11.0569
▁critic	-11.057
▁fondar	-11.0571
abit	-11.0573
dich	-11.0579
campion	-11.0581
▁celèbra	-11.0583
ʂɛ	-11.0583
▁chèca	-11.0583
▁mantua	-11.0584
▁difusè	-11.0584
▁milh	-11.0587
▁catolicisme	-11.0587
provincia	-11.0588
▁1906	-11.0592
christ	-11.0594
▁sòrre	-11.0596
▁niça	-11.0599
duccion	-11.06
▁descriure	-11.0603
ozoa	-11.0614
▁observat	-11.0618
▁got	-11.062
▁dominada	-11.0625
▁remplaçar	-11.0629
evita	-11.0632
▁*	-11.0635
familha	-11.0639
esquèrra	-11.0642
comunautat	-11.0643
august	-11.0644
▁appar	-11.0649
▁contunièron	-11.065
▁dubertura	-11.065
▁kenya	-11.065
▁dessepara	-11.065
albigés	-11.0651
▁tendéncia	-11.0651
▁radical	-11.0654
▁verifica	-11.0656
▁barba	-11.0657
▁parlan	-11.0661
léon	-11.0662
▁clau	-11.0662
interessèt	-11.0665
▁reglament	-11.0665
▁variabla	-11.0669
▁win	-11.0669
▁dominè	-11.067
▁consist	-11.0673
▁abc	-11.0678
enric	-11.0684
bio	-11.0688
flor	-11.0694
▁luci	-11.07
▁1894	-11.0701
insureccion	-11.0711
avesque	-11.0713
▁wei	-11.0715
ando	-11.0717
eliminacion	-11.0718
▁adoptèron	-11.0718
▁narbona	-11.0718
▁superficie	-11.0718
vertebrat	-11.0718
▁israelian	-11.0719
▁turtèt	-11.072
▁culminant	-11.072
▁aperada	-11.0723
▁experiéncia	-11.0724
▁elèits	-11.0725
ço	-11.0741
▁exteriora	-11.0741
▁pintor	-11.0743
opausar	-11.0744
▁carrat	-11.0744
▁soi	-11.0746
▁còn	-11.0748
tradicionalament	-11.0758
gòl	-11.0766
▁sit	-11.0768
▁poèma	-11.0769
▁ligne	-11.0776
eissida	-11.0779
exp	-11.0781
experiéncia	-11.0781
fisician	-11.0781
▁desena	-11.0783
▁judiciari	-11.0787
▁cronica	-11.0789
▁autonòmia	-11.079
▁enfant	-11.079
▁enemics	-11.0791
princi	-11.0796
▁avesnois	-11.0798
▁rosa	-11.0802
▁facto	-11.0804
four	-11.0811
▁rivau	-11.0811
="51	-11.0813
xn	-11.0813
▁martín	-11.0815
▁qualqu	-11.0815
▁depinta	-11.0817
▁melhorament	-11.0817
▁lexic	-11.0822
just	-11.084
▁horn	-11.0844
▁gir	-11.0848
▁campana	-11.085
▁crosta	-11.085
▁hèr	-11.0855
▁boèmia	-11.0856
▁desempuish	-11.0856
▁luènh	-11.0856
environament	-11.0856
▁medòc	-11.0856
ecosistèma	-11.0857
intencion	-11.0859
▁jòga	-11.086
estabilitat	-11.0862
▁rebèl	-11.0864
uff	-11.0865
▁milhau	-11.0868
▁vesin	-11.0892
▁campionat	-11.0895
▁matematician	-11.0898
▁1895	-11.09
▁concèrt	-11.0925
▁frequéncia	-11.0925
▁rogièr	-11.0925
▁vadut	-11.0926
▁vitamina	-11.0926
▁pasteur	-11.0926
▁evesque	-11.0926
▁philippe	-11.0926
▁revendicacions	-11.0927
▁privada	-11.0927
baud	-11.0927
▁véder	-11.0928
▁prefectura	-11.0929
▁transferiment	-11.0936
▁aprofichan	-11.0941
▁facil	-11.0947
▁mandad	-11.0949
▁regionau	-11.0953
▁clan	-11.0954
▁geografic	-11.0962
phy	-11.0963
▁vert	-11.0972
hèit	-11.0972
▁original	-11.0973
▁1850	-11.0979
▁publicada	-11.0988
▁artistic	-11.0988
▁nàpols	-11.0995
▁tanzania	-11.0995
▁masculin	-11.0996
▁cinema	-11.0996
▁disp	-11.0999
▁vènus	-11.1007
▁minor	-11.1007
▁comandament	-11.1011
▁constituida	-11.1014
▁ongria	-11.1017
▁palma	-11.102
▁escala	-11.1029
▁illustra	-11.1031
▁pòrtan	-11.1033
▁navala	-11.1035
▁rural	-11.1041
▁dominanta	-11.1042
▁solida	-11.1064
▁borgonha	-11.1065
▁despuish	-11.1065
▁periferic	-11.1065
▁vilafranca	-11.1066
▁consacra	-11.1066
dorf	-11.1067
▁ambicions	-11.1067
▁rn	-11.107
▁kara	-11.1072
▁regiment	-11.1073
bearn	-11.1074
nieder	-11.1076
▁(9	-11.108
▁visit	-11.108
▁mòstran	-11.1086
▁1867	-11.1086
▁ganhar	-11.1087
▁comptar	-11.1104
▁1820	-11.1108
▁labord	-11.1109
▁iso	-11.1123
▁factor	-11.1129
▁genetic	-11.1133
▁judaïsme	-11.1136
▁empachar	-11.1136
▁fortificacions	-11.1136
─	-11.1137
▁bòrn	-11.1137
▁escambi	-11.1137
▁teologia	-11.1138
▁bodista	-11.1139
▁descobri	-11.1139
▁fuèlhas	-11.1139
▁manja	-11.1142
ròca	-11.1143
▁bulgaria	-11.1143
▁separada	-11.1144
▁pèrsa	-11.1152
▁top	-11.1161
▁annex	-11.1162
▁traversada	-11.1166
▁"«	-11.1168
▁peis	-11.1178
▁batut	-11.1181
▁hilha	-11.1183
▁rim	-11.119
▁mesurar	-11.1191
valent	-11.1193
▁anfós	-11.1194
▁parelh	-11.1195
▁determinar	-11.1201
▁especiala	-11.1202
exportacion	-11.1203
▁establiguèt	-11.1208
autonomia	-11.1208
▁sexual	-11.1208
▁abandonat	-11.1209
▁linux	-11.121
▁dioxid	-11.1213
▁chèc	-11.1213
▁1915	-11.1216
abitacion	-11.1217
▁chambra	-11.1217
▁1904	-11.1219
unesco	-11.1226
▁variats	-11.1229
▁demografica	-11.1233
▁personau	-11.1237
▁plo	-11.124
▁granja	-11.1241
▁will	-11.1242
▁angle	-11.1242
▁belle	-11.1242
▁bizantina	-11.1243
escart	-11.1248
▁extension	-11.1249
▁venda	-11.1254
▁giovanni	-11.128
estrategia	-11.128
▁precision	-11.128
▁transcripcion	-11.128
▁aténher	-11.128
assassinat	-11.1281
▁vèrbe	-11.1281
evesque	-11.1282
▁destruit	-11.1282
▁royal	-11.1282
▁henry	-11.1283
▁modernizacion	-11.1283
▁collaboracion	-11.1286
éré	-11.1288
▁celèst	-11.129
escau	-11.1293
▁1273	-11.1294
estendre	-11.1297
▁charte	-11.1298
investiment	-11.1299
▁completament	-11.1304
opausèt	-11.1309
quièr	-11.132
nou	-11.1321
drech	-11.133
▁verda	-11.1336
▁contes	-11.1338
▁reste	-11.1338
▁egiptologic	-11.1352
epidemia	-11.1352
▁panamà	-11.1352
▁espandit	-11.1352
▁especiau	-11.1352
▁transmission	-11.1353
▁obligatòri	-11.1353
▁aragonés	-11.1356
▁tèsi	-11.1359
▁pertot	-11.1366
rita	-11.137
irà	-11.1371
aumentar	-11.1376
issen	-11.1379
▁codifica	-11.1383
veire	-11.139
lez	-11.1393
▁pluma	-11.1393
aubin	-11.1403
▁reinè	-11.1404
▁demorava	-11.1408
▁conca	-11.1423
▁considerabla	-11.1424
riba	-11.1425
▁limitrophe	-11.1425
▁singular	-11.1425
▁zelanda	-11.1425
[	-11.1426
▁transformè	-11.1426
▁isolat	-11.1426
▁redurre	-11.1427
▁capitalisme	-11.1428
autonòmia	-11.1428
▁gav	-11.1429
▁gràcia	-11.1429
▁termièra	-11.1432
▁desenant	-11.1433
▁matin	-11.1435
▁portat	-11.1436
▁eslava	-11.1437
▁blason	-11.1439
▁justament	-11.1444
ignac	-11.1447
▁precisament	-11.1452
▁vielha	-11.1457
▁ensag	-11.146
▁autonòm	-11.1464
ataquèron	-11.1479
aproficha	-11.1482
escaut	-11.1487
americana	-11.1497
▁portèt	-11.1498
▁joguè	-11.1498
▁atmosferic	-11.1499
▁influenciat	-11.1499
▁pròchi	-11.1499
▁pareu	-11.1499
▁dispareguèt	-11.1499
▁terror	-11.15
▁tomàs	-11.1501
▁fisic	-11.1503
illé	-11.1503
▁(8	-11.1503
▁chemin	-11.1504
▁deputat	-11.1506
énher	-11.1507
▁jutge	-11.1508
▁localitat	-11.1511
▁preda	-11.1514
▁somme	-11.1522
▁soís	-11.153
▁lingüistic	-11.153
▁abitat	-11.154
ident	-11.1543
tèrra	-11.1543
▁1885	-11.1546
▁antoine	-11.1556
▁metropolitana	-11.1557
▁devisa	-11.1564
alizacion	-11.1571
▁charleville	-11.1573
▁glòbe	-11.1573
▁luxemborg	-11.1573
▁parròpia	-11.1573
▁protegit	-11.1573
▁michael	-11.1573
▁decisiu	-11.1573
▁mercuri	-11.1573
environ	-11.1573
▁ernest	-11.1574
▁participèron	-11.1575
quimia	-11.1575
▁dependéncia	-11.1575
▁dispers	-11.1577
▁cristal	-11.158
adri	-11.1586
▁ailà	-11.1587
▁variadas	-11.1588
▁sortit	-11.1588
entrada	-11.1589
aurelha	-11.1592
▁entraïnada	-11.1601
andro	-11.1605
▁premi	-11.1607
special	-11.1607
▁dusau	-11.1613
▁federal	-11.1623
▁bastiss	-11.1628
exposicion	-11.163
escola	-11.1638
près	-11.164
▁absoluda	-11.1647
▁peitieus	-11.1647
▁prosperitat	-11.1647
▁vegetacion	-11.1647
▁vincenç	-11.1647
▁consonanta	-11.1647
▁bataille	-11.1647
▁sequéncia	-11.1648
▁locutors	-11.1648
interprèt	-11.1648
▁berbèr	-11.1648
▁naturel	-11.1648
▁tang	-11.1649
▁murèth	-11.1649
▁cariba	-11.1652
▁sahara	-11.1652
azz	-11.1656
▁toponime	-11.1659
ción	-11.1659
enaut	-11.166
▁wo	-11.1665
▁rival	-11.1665
ilhon	-11.1667
▁1274	-11.1675
▁chant	-11.168
▁1868	-11.1681
homme	-11.1684
him	-11.1691
▁favorizar	-11.1694
▁1861	-11.1698
▁romp	-11.1705
▁gents	-11.1712
300	-11.1713
mission	-11.172
▁perspectiva	-11.1723
▁ucraïnian	-11.1723
▁competéncia	-11.1723
▁lisbona	-11.1723
▁evident	-11.1723
▁chifra	-11.1725
▁rivalitat	-11.1726
▁bruche	-11.173
castrum	-11.173
impausa	-11.1731
▁ataquè	-11.1731
castèth	-11.1732
▁cellulara	-11.1735
▁trachs	-11.1735
identitat	-11.1735
▁marcial	-11.1741
▁mongòl	-11.1744
isé	-11.1748
▁prumèra	-11.1755
omèr	-11.1755
▁diversifica	-11.176
▁atenh	-11.1761
▁more	-11.1764
▁muda	-11.1764
sembla	-11.1773
kal	-11.1778
celle	-11.1781
abilitat	-11.1781
▁thi	-11.1782
▁joen	-11.1783
▁solara	-11.1785
▁pèrd	-11.1785
▁error	-11.179
▁collabora	-11.1792
▁equivalent	-11.1795
▁ectaras	-11.1798
▁enqüèra	-11.1798
▁moçambic	-11.1798
▁andrieu	-11.1798
▁hainaut	-11.1798
▁contraròtla	-11.1798
▁plurau	-11.1798
▁maurici	-11.1799
▁croàcia	-11.1799
▁corean	-11.1802
▁acabat	-11.1804
▁nuèch	-11.1806
▁ming	-11.1808
▁vassal	-11.181
▁suscitè	-11.1811
informatica	-11.1812
▁aliat	-11.1814
▁corba	-11.1824
▁integrada	-11.183
▁annexat	-11.183
unificar	-11.1833
▁segondària	-11.1833
auré	-11.1836
▁1897	-11.1852
aranha	-11.1854
▁tend	-11.1869
▁noble	-11.187
▁mongòla	-11.187
▁détruit	-11.1875
▁gàrdia	-11.1875
▁facultat	-11.1875
▁volontari	-11.1875
espandís	-11.1875
▁simbolic	-11.1875
▁neptun	-11.1875
▁smith	-11.1875
▁calci	-11.1876
▁plural	-11.1877
▁estricta	-11.1877
▁posteriorament	-11.1883
▁consulta	-11.1885
▁avesnes	-11.1889
abadia	-11.1891
abitat	-11.1896
▁1899	-11.1902
▁anterior	-11.191
▁quilha	-11.1922
▁croat	-11.1923
▁continua	-11.1925
▁mencionat	-11.1925
carles	-11.1929
aucèl	-11.1929
▁coton	-11.1932
apera	-11.1951
▁savòia	-11.1952
▁varsòvia	-11.1952
▁veneçuèla	-11.1952
▁ajusta	-11.1952
inventari	-11.1952
▁visibla	-11.1952
▁finanças	-11.1953
▁identificat	-11.1953
▁flo	-11.1953
▁gab	-11.1954
aucourt	-11.1955
▁quinze	-11.1955
▁dreit	-11.1957
▁precedenta	-11.1962
▁rodés	-11.1964
integrar	-11.1964
▁artificiala	-11.1973
▁materiau	-11.1976
gg	-11.1977
▁johannes	-11.1978
▁cité	-11.1988
▁capitada	-11.199
▁toute	-11.1992
acompanha	-11.2011
▁financiera	-11.2016
▁iniciala	-11.202
hum	-11.2025
rosselhon	-11.2029
▁benlhèu	-11.2029
▁perseguida	-11.2029
▁revòlta	-11.2029
▁telescòpi	-11.2029
▁seguís	-11.2029
▁années	-11.2029
▁predomin	-11.2029
▁condemna	-11.2029
▁legion	-11.2031
organizèron	-11.2034
hang	-11.2034
▁recensament	-11.2036
▁entrepresas	-11.2037
▁breton	-11.204
violonista	-11.2042
israèl	-11.2042
▁neutre	-11.2048
▁democratic	-11.2048
▁gotic	-11.205
empor	-11.2054
▁divina	-11.2055
vengut	-11.2056
▁demandar	-11.2057
▁dotat	-11.2058
▁vesina	-11.2067
ciéncia	-11.2069
▁sòrt	-11.207
▁cavau	-11.2071
artés	-11.2088
▁constituent	-11.2091
▁extrèma	-11.2091
electr	-11.2101
▁catastròfa	-11.2107
▁combustible	-11.2107
▁intermediari	-11.2107
▁tostemps	-11.2107
▁universau	-11.2107
▁quebèc	-11.2108
▁textil	-11.2108
▁miliers	-11.211
▁concerto	-11.2126
▁1814	-11.2128
▁gost	-11.2129
èja	-11.2132
▁afect	-11.2141
▁forme	-11.2142
esperança	-11.2153
▁tango	-11.2155
portar	-11.2156
avançada	-11.216
▁avè	-11.2167
identificar	-11.2169
▁ferme	-11.2174
aparéisser	-11.2186
▁vaccin	-11.2186
▁provòca	-11.2186
▁vescomtat	-11.2187
▁taxon	-11.2187
field	-11.2189
evòri	-11.2189
71)	-11.2193
▁1909	-11.2195
▁generalizacion	-11.2198
▁point	-11.2202
▁diplomatic	-11.2205
▁jornada	-11.2205
dame	-11.2205
club	-11.2208
pintre	-11.2213
▁raja	-11.2216
▁1889	-11.2217
▁animala	-11.2218
▁viviá	-11.2219
▁substància	-11.2219
▁conois	-11.2224
▁raras	-11.2239
▁localament	-11.224
fleur	-11.2244
▁roche	-11.2253
cèl	-11.226
▁trou	-11.226
▁bolívia	-11.2265
escadença	-11.2265
▁brilhant	-11.2265
▁vegetau	-11.2265
empachèt	-11.2266
▁1881	-11.2267
▁genèva	-11.2269
▁exactament	-11.227
▁defunt	-11.227
▁parlamentària	-11.2273
▁normandia	-11.2274
hausen	-11.2278
▁secret	-11.2279
erosion	-11.228
▁aisada	-11.2286
▁medici	-11.2293
way	-11.23
▁resèrva	-11.2302
bak	-11.2303
▁parisenc	-11.233
▁plaçada	-11.2341
▁septentrionala	-11.2344
▁discussion	-11.2345
▁precursor	-11.2345
▁également	-11.2345
▁miguel	-11.2345
▁encargat	-11.2346
▁balcans	-11.2346
▁dificil	-11.2346
▁disposicion	-11.2346
▁lengua	-11.2346
▁germanique	-11.2348
▁geologia	-11.2352
▁discut	-11.2364
▁vue	-11.2369
▁existissiá	-11.2372
▁passion	-11.2379
▁constitucionala	-11.2385
▁1865	-11.2385
aspècte	-11.2396
gier	-11.2399
▁merit	-11.2402
▁fugi	-11.2404
▁toristica	-11.2407
▁mestre	-11.2412
▁sortir	-11.2415
▁chaple	-11.2416
pareisson	-11.2418
▁multiplica	-11.2422
▁daissè	-11.2426
▁amerindian	-11.2426
▁bartomieu	-11.2426
▁diminutiu	-11.2426
▁intervocalic	-11.2426
▁sardenha	-11.2426
▁renovela	-11.2426
▁secession	-11.2426
▁fermentacion	-11.2426
▁assirian	-11.2426
▁tunèl	-11.2426
▁corsega	-11.2428
▁bertran	-11.2429
▁pretend	-11.2434
pui	-11.2436
▁rapide	-11.2439
▁botan	-11.2451
▁nave	-11.2466
▁considèran	-11.2478
▁pati	-11.2479
▁nigèr	-11.2506
▁carolingian	-11.2507
▁suplementari	-11.2507
▁gravitacion	-11.2507
▁preparacion	-11.2507
▁neolitic	-11.2507
▁installada	-11.2508
▁apelada	-11.2509
▁tibet	-11.2509
▁renforcèt	-11.251
▁discors	-11.2511
▁anglo	-11.2512
▁desplaçar	-11.2513
▁reims	-11.2516
▁complica	-11.2516
tènon	-11.2518
▁arribat	-11.2521
▁oscar	-11.2523
▁balhè	-11.2525
▁1289	-11.2526
atlantic	-11.2528
▁aquest	-11.2533
vièla	-11.2537
▁umida	-11.2538
altitude	-11.2538
▁parièr	-11.2544
▁vendre	-11.2557
▁emplegada	-11.2559
▁vasco	-11.2573
gru	-11.2577
▁rive	-11.2583
vill	-11.2585
▁reprodu	-11.2589
explorator	-11.2589
▁palestina	-11.2589
▁academic	-11.2589
▁negativa	-11.2589
avortament	-11.2589
▁astèca	-11.2589
▁etimologic	-11.259
▁supausada	-11.2594
▁libe	-11.2597
▁islamica	-11.26
▁prigonda	-11.2601
100	-11.2606
▁1638)	-11.2606
▁hèn	-11.2607
▁rites	-11.2608
▁despend	-11.2611
▁lenin	-11.2612
general	-11.2615
▁250	-11.2622
▁còl	-11.2626
pur	-11.263
çant	-11.2631
▁cèrtas	-11.2633
▁1896	-11.2635
▁granada	-11.264
▁existent	-11.2645
ifèr	-11.2645
guilh	-11.266
▁albèrt	-11.2662
▁francesc	-11.2665
▁succedi	-11.2671
azerbaitjan	-11.2672
ecclesia	-11.2672
évêque	-11.2672
▁circonscripcion	-11.2672
▁espandida	-11.2672
▁navèth	-11.2672
▁universitari	-11.2672
▁adaptada	-11.2672
▁sélestat	-11.2672
▁sosterranh	-11.2672
▁obtengut	-11.2672
▁ribièra	-11.2672
▁saturne	-11.2672
▁essencialament	-11.2672
isotòp	-11.2672
▁comprés	-11.2673
▁majoritària	-11.2674
ificada	-11.2674
▁miquèl	-11.2675
▁combatents	-11.2675
crist	-11.2675
▁droit	-11.2678
▁informa	-11.2679
▁istorians	-11.268
▁comunica	-11.269
▁polara	-11.2691
▁frank	-11.2697
bòsc	-11.2697
▁federau	-11.2699
musica	-11.2702
▁1887	-11.2708
▁mandar	-11.2711
étend	-11.2712
▁marais	-11.2715
ologista	-11.272
liga	-11.2722
▁païs	-11.2727
▁cercar	-11.2736
▁cran	-11.2737
ecologia	-11.2742
scena	-11.275
altern	-11.2752
islàndia	-11.2755
▁bolchevic	-11.2755
▁remplacè	-11.2755
▁budget	-11.2755
▁recebre	-11.2755
▁preparar	-11.2755
▁crime	-11.2758
▁evitar	-11.2759
▁cauda	-11.2761
▁terralha	-11.2764
agantèt	-11.2768
▁meuse	-11.2773
▁convent	-11.2776
▁aganta	-11.2777
russia	-11.2778
alsace	-11.278
▁centrat	-11.278
▁donèron	-11.2781
▁1882	-11.2788
raf	-11.2791
senaus	-11.2792
▁causit	-11.2796
▁liban	-11.2807
▁quatrena	-11.2827
▁compausant	-11.2829
noncièt	-11.2834
▁chevalier	-11.2839
▁filogenetic	-11.2839
▁magnitud	-11.2839
▁mongolia	-11.2839
▁cafè	-11.2839
▁basilica	-11.2839
▁lectura	-11.2839
▁minutas	-11.2839
fosfat	-11.284
doira	-11.284
senheim	-11.2842
▁considerable	-11.2845
implantacion	-11.2848
▁comandant	-11.2851
▁retirèt	-11.2852
▁descurbiguèt	-11.2853
▁utilizant	-11.2854
▁acceptada	-11.2863
▁perdèt	-11.2864
▁1892	-11.2876
▁1862	-11.2877
▁saut	-11.289
▁garant	-11.2893
▁1863	-11.2893
ection	-11.2914
project	-11.2915
▁libia	-11.2918
▁josep	-11.292
incorpor	-11.2922
enciclopèdia	-11.2924
▁astronomic	-11.2924
▁dissolucion	-11.2924
▁haguenau	-11.2924
▁norvegian	-11.2924
▁recurrent	-11.2924
▁resòuvre	-11.2924
▁judieus	-11.2924
▁daufinat	-11.2924
▁fortificada	-11.2925
▁inspirada	-11.2925
▁concors	-11.2926
opinion	-11.2929
▁estève	-11.293
▁renfòrçament	-11.2932
libre	-11.2933
▁pòrc	-11.2936
▁110	-11.2937
▁servís	-11.2937
▁big	-11.2938
meri	-11.2941
▁polar	-11.2941
estrasburg	-11.2951
entraïnèt	-11.2952
▁1875	-11.2952
poi	-11.2962
▁traçat	-11.2973
▁700	-11.2975
strada	-11.2977
▁preferi	-11.2979
▁destrucha	-11.2988
▁martí	-11.2996
▁definitiva	-11.3008
espectacle	-11.301
▁protegida	-11.301
▁reputacion	-11.301
industrie	-11.301
▁paroisse	-11.301
▁tanhent	-11.301
▁hemna	-11.301
▁morir	-11.3011
▁dominica	-11.3012
▁estrategica	-11.3031
exil	-11.3036
vut	-11.3037
monument	-11.3038
abans	-11.3043
▁langue	-11.3045
▁baissa	-11.3048
▁valencianas	-11.3059
▁sufisenta	-11.3063
▁romanés	-11.3066
▁cargada	-11.3067
▁prigond	-11.3077
▁1714)	-11.3082
▁repren	-11.3082
radi	-11.3082
aplicar	-11.3087
auriac	-11.3091
▁concurréncia	-11.3096
▁tribunal	-11.3096
▁pilhatge	-11.3096
▁violoncèl	-11.3096
▁arribèron	-11.3096
▁molsheim	-11.3096
eiretatge	-11.3096
▁demeniguèt	-11.3096
▁iniciau	-11.3097
▁aplicada	-11.3097
▁liason	-11.31
erà	-11.3102
▁editor	-11.3107
▁popularitat	-11.3108
precia	-11.3111
▁colline	-11.3113
agenés	-11.3114
▁commun	-11.3118
inclu	-11.3128
▁1883	-11.3137
lisi	-11.314
mandèron	-11.3141
cordat	-11.3142
▁masatge	-11.3143
▁oceans	-11.3143
▁1872	-11.3148
accèpta	-11.3183
alexàndria	-11.3183
▁bíblia	-11.3183
▁gavaudan	-11.3183
▁intellectuala	-11.3183
▁estatjants	-11.3183
▁senèstra	-11.3183
▁simplifica	-11.3183
▁desservie	-11.3183
utopia	-11.3183
▁tempèsta	-11.3183
▁estenduda	-11.3183
▁julio	-11.3183
▁neglig	-11.3183
▁hrair	-11.3183
▁toxic	-11.3183
▁executat	-11.3183
▁fèr	-11.3184
▁conservatòri	-11.3185
▁chapelle	-11.3186
albania	-11.3187
riol	-11.319
▁aranés	-11.3194
▁1815	-11.3201
▁termina	-11.3203
estudiar	-11.3204
▁vocal	-11.3208
▁jules	-11.321
trau	-11.321
▁2018	-11.3214
▁1886	-11.3222
auriá	-11.323
▁teu	-11.3238
▁davala	-11.3238
▁durament	-11.3247
▁representada	-11.3261
▁distribu	-11.3266
▁primier	-11.327
▁condamnat	-11.327
▁originària	-11.327
▁proximité	-11.327
anatomia	-11.327
▁ciceron	-11.327
▁gabriel	-11.3271
▁sarnin	-11.3271
▁papier	-11.3271
▁mineraus	-11.3271
▁fragil	-11.3271
▁especializat	-11.3273
elevatge	-11.3274
▁sosfamilha	-11.3274
▁meilèu	-11.3275
▁cultivada	-11.3276
▁cacau	-11.3278
▁maximala	-11.3281
▁medieval	-11.3285
ghis	-11.3288
▁capitau	-11.3289
arròs	-11.3293
graphi	-11.3325
▁janeiro	-11.3359
▁celui	-11.3359
▁antany	-11.3359
▁testament	-11.3359
▁acabada	-11.336
▁nerviós	-11.336
▁furent	-11.336
▁redaccion	-11.3361
▁conselhièr	-11.3361
▁aeriana	-11.3361
▁sometre	-11.3361
espessor	-11.3363
▁dobèrt	-11.3364
abolicion	-11.3365
associa	-11.3365
▁cooperacion	-11.3367
▁detect	-11.3376
enbach	-11.3383
▁2020	-11.3388
▁kra	-11.3394
▁bèc	-11.3403
òste	-11.3404
comtat	-11.3408
▁roca	-11.341
laurent	-11.341
marie	-11.3418
espasa	-11.3424
bí	-11.3424
▁orala	-11.3425
nik	-11.3427
ango	-11.3429
▁relat	-11.3441
▁règla	-11.3444
▁cantar	-11.3445
▁porto	-11.3445
▁baptista	-11.3448
▁capítol	-11.3448
▁metropòli	-11.3448
▁suprimir	-11.3448
▁habsborg	-11.3448
▁confusion	-11.3448
▁absorb	-11.3448
▁troupes	-11.3448
explosion	-11.3448
▁sèina	-11.3448
▁administrative	-11.3449
▁frontière	-11.3451
▁fondamental	-11.3456
▁brica	-11.3457
▁independentista	-11.3462
▁maurice	-11.3468
▁mendre	-11.3472
▁tempora	-11.3472
▁contribucion	-11.3472
▁magma	-11.3475
▁brèu	-11.3475
▁trente	-11.3481
▁regent	-11.3482
▁portant	-11.3483
mega	-11.3483
afaire	-11.3496
▁bab	-11.3498
▁signe	-11.3509
camin	-11.351
▁indo	-11.351
schw	-11.3514
▁fasián	-11.352
enemic	-11.3523
intervenir	-11.3523
inscripcion	-11.3538
▁diplomacia	-11.3538
▁fernando	-11.3538
violoncelista	-11.3538
▁construction	-11.3538
▁decisiva	-11.3538
▁desliura	-11.3538
▁negatiu	-11.3539
▁chasteu	-11.3539
▁conclusion	-11.3541
▁jovença	-11.3542
ròba	-11.3543
agravèt	-11.3545
▁island	-11.3545
▁labrit	-11.3553
▁1385	-11.3557
▁1638	-11.3559
▁laissar	-11.3564
▁crida	-11.3564
actuala	-11.3574
extension	-11.3576
▁apc	-11.3577
mónegue	-11.3577
vèrb	-11.3579
mètro	-11.358
equipament	-11.3583
▁tirar	-11.3593
escriv	-11.3605
agulha	-11.362
▁combina	-11.3628
▁date	-11.3628
▁legislacion	-11.3629
▁pirenenc	-11.3629
▁atestada	-11.3629
▁premsa	-11.363
▁presoniers	-11.3631
▁extèrne	-11.3631
▁subsist	-11.3632
▁gojat	-11.3635
▁rauba	-11.3636
▁tocada	-11.3637
▁definitiu	-11.364
▁fondador	-11.3646
ndorf	-11.3646
...(	-11.3652
▁decim	-11.3663
▁estudiat	-11.3668
roergue	-11.3669
▁deuriá	-11.367
acord	-11.3681
▁roger	-11.3691
▁gropant	-11.3702
▁sancti	-11.3705
▁numerica	-11.3714
félix	-11.3721
▁absolut	-11.3721
▁guillaume	-11.3721
▁portugau	-11.3721
▁religioses	-11.3721
▁arthur	-11.3721
▁ongresa	-11.3721
spiritu	-11.3721
▁saudita	-11.3721
▁tunisia	-11.3721
▁abandonèt	-11.3721
▁riquesa	-11.3721
▁abandonada	-11.3722
▁borgesiá	-11.3723
▁escolan	-11.3724
▁prètz	-11.3726
▁qing	-11.3727
▁animaus	-11.373
=743	-11.3732
▁comunisme	-11.3739
▁suspen	-11.3741
▁continuament	-11.3742
kur	-11.3749
="743	-11.375
antartic	-11.3759
lengadòc	-11.3763
▁participan	-11.3763
estimacion	-11.3766
▁complèt	-11.3773
▁nòtar	-11.3778
▁1873	-11.3786
▁messa	-11.379
▁1878	-11.379
insurreccion	-11.3814
▁reconstruit	-11.3814
▁vauclusa	-11.3814
▁sambre	-11.3814
▁especialista	-11.3814
alumini	-11.3814
▁nominacion	-11.3814
▁dalfin	-11.3814
▁edward	-11.3815
▁protestantisme	-11.3819
▁pequin	-11.382
▁ciutadan	-11.3823
▁1859	-11.3835
▁ribe	-11.3837
▁calvin	-11.3838
esclat	-11.3839
▁absent	-11.3844
château	-11.3857
buenos	-11.3857
dauzat	-11.3857
▁1821	-11.3859
▁1864	-11.3864
tropic	-11.387
infinit	-11.3872
esparta	-11.3878
bastida	-11.3884
fòrma	-11.3898
▁recupera	-11.39
▁còmpte	-11.3907
▁historique	-11.3907
▁laboratòri	-11.3907
▁metallurgia	-11.3907
▁perseguir	-11.3907
▁reparticion	-11.3907
▁trípol	-11.3907
▁pollucion	-11.3907
▁gènoa	-11.3907
solfegi	-11.3907
▁militant	-11.3907
▁bandièra	-11.3907
▁cancèr	-11.3907
▁recòrd	-11.3907
èish	-11.3908
▁assosta	-11.3908
▁veitura	-11.3909
central	-11.3911
▁somalia	-11.3913
▁parcialament	-11.3914
tipe	-11.3915
▁complòt	-11.3916
▁rompre	-11.3916
▁proteïna	-11.392
bioquimia	-11.3921
▁-8	-11.3923
▁plaine	-11.3923
arreceb	-11.3927
▁presid	-11.3951
▁darrierei	-11.3957
▁considerava	-11.3964
gnies	-11.3979
▁mòt	-11.3979
▁facilitar	-11.3985
02)	-11.3991
▁temperat	-11.4001
▁bicicleta	-11.4001
▁cognomen	-11.4001
▁susceptible	-11.4001
▁defugir	-11.4001
▁poblacion	-11.4001
autoroute	-11.4002
▁assegurada	-11.4002
▁declarèt	-11.4003
▁interpretat	-11.4003
▁villatge	-11.4004
▁newton	-11.4005
ajudè	-11.4006
="744	-11.4006
▁desbarca	-11.4007
▁despassa	-11.4008
▁mestièr	-11.4008
▁soslinha	-11.401
=744	-11.4011
▁mantenguèt	-11.4011
▁felibre	-11.4014
▁excepcional	-11.4015
▁primària	-11.4019
▁macro	-11.4024
jol	-11.4028
argel	-11.4033
osten	-11.4034
▁suicid	-11.4054
▁bug	-11.4054
="784	-11.4061
▁[[18	-11.4065
bassa	-11.4067
▁fondament	-11.4076
super	-11.4077
ofil	-11.4087
▁tous	-11.4093
ortodòx	-11.4095
préfecture	-11.4097
eslovaquia	-11.4097
▁bibliografia	-11.4097
▁consomacion	-11.4097
▁denominacion	-11.4097
▁successius	-11.4097
▁tsunami	-11.4097
▁valenciennes	-11.4097
artilhariá	-11.4097
▁efectiva	-11.4097
carnivòr	-11.4097
▁preceltic	-11.4097
▁cossí	-11.4097
▁insee	-11.4097
οσ	-11.4097
▁carrèra	-11.4097
▁geometria	-11.4097
▁respond	-11.4097
=784	-11.4101
parís	-11.4102
▁vuege	-11.4102
▁significativa	-11.4103
▁devesir	-11.4103
▁comparason	-11.4103
▁nigèria	-11.4104
▁rigor	-11.4107
▁taxa	-11.4108
▁pensava	-11.411
▁1891	-11.4118
indici	-11.4125
▁pònt	-11.4127
▁administrat	-11.413
armée	-11.4132
inspira	-11.4134
▁legir	-11.4134
▁existiá	-11.4136
visquèt	-11.4142
jogaire	-11.4144
▁tèxt	-11.4144
exterior	-11.4145
▁aquitanic	-11.4146
politica	-11.415
▁divers	-11.4155
▁1845	-11.4158
▁partiguèt	-11.4161
aparar	-11.4166
▁afeblit	-11.4193
▁chocolat	-11.4193
▁guatemala	-11.4193
▁madagascar	-11.4193
▁neerlandesa	-11.4193
▁wilhelm	-11.4193
▁cerealas	-11.4193
▁1500	-11.4193
instauraci	-11.4193
▁concession	-11.4193
▁marqués	-11.4193
▁antilhas	-11.4195
▁balear	-11.4195
▁sanguin	-11.4197
mèdia	-11.4197
▁borbonés	-11.4199
▁adam	-11.4199
univers	-11.4203
▁suite	-11.4204
wood	-11.4205
▁alimentària	-11.4206
▁constata	-11.4207
▁husta	-11.4208
edicte	-11.421
▁capitalista	-11.4211
▁1858	-11.4225
▁burèu	-11.4234
▁cantal	-11.4239
▁tho	-11.424
▁jornau	-11.4244
▁cabra	-11.4247
imitacion	-11.4252
▁complèta	-11.4256
▁traça	-11.4256
▁pape	-11.4265
blanc	-11.427
orizont	-11.4285
▁salari	-11.4288
▁irlandés	-11.429
▁macedònia	-11.429
▁montanhós	-11.429
▁probabilitat	-11.429
▁professionau	-11.429
▁renforça	-11.429
▁resolucion	-11.429
avienguda	-11.429
▁resistent	-11.429
▁christian	-11.429
▁olandés	-11.429
▁appelé	-11.429
▁rethel	-11.429
▁restaurat	-11.4291
▁interessant	-11.4291
▁immens	-11.4292
▁moulin	-11.4294
▁marcant	-11.4295
▁gave	-11.4296
▁remplaça	-11.4307
anjau	-11.4308
teologian	-11.4309
hort	-11.4323
▁contracte	-11.4325
▁1630	-11.4329
▁mite	-11.4329
▁chasse	-11.433
▁1792	-11.4333
▁from	-11.4333
▁efiechs	-11.434
▁1884	-11.4346
calais	-11.4354
▁chamb	-11.4362
▁1879	-11.4367
ondra	-11.4379
aristocràcia	-11.4388
▁filipinas	-11.4388
▁impossible	-11.4388
▁predecessor	-11.4388
▁contrària	-11.4388
▁gravitat	-11.4388
inflacion	-11.4388
▁relief	-11.4389
="288	-11.4389
="286	-11.439
▁cavalariá	-11.4391
▁calcari	-11.4393
="745	-11.4399
▁maridar	-11.4401
▁1651	-11.4407
▁establa	-11.4412
fosse	-11.4414
="-8	-11.4416
appelle	-11.442
ignon	-11.4425
abord	-11.4432
="-5	-11.4435
="764	-11.4436
▁varian	-11.4447
▁1642	-11.4475
▁facilita	-11.4483
▁ulterior	-11.4487
▁bagdad	-11.4487
▁ministèri	-11.4487
=288	-11.4487
▁economista	-11.4487
▁francofòna	-11.4487
▁jutjament	-11.4487
▁bâti	-11.4487
▁vulgar	-11.4487
estúdia	-11.4487
▁saverne	-11.4487
▁daniel	-11.4487
="746	-11.4488
=745	-11.4488
="215	-11.4489
▁voisin	-11.449
▁combinason	-11.449
=764	-11.449
▁dejà	-11.449
oliva	-11.4497
▁pacte	-11.45
venguda	-11.4501
▁1874	-11.4502
impausèt	-11.4505
▁universal	-11.4506
▁frasa	-11.4507
▁debanament	-11.4508
▁arriban	-11.4521
▁1846	-11.4523
▁manifestacion	-11.4526
obliguè	-11.4526
▁acceptat	-11.4531
="497	-11.4537
ancienne	-11.455
stradivarius	-11.4554
evoca	-11.4557
="754	-11.4559
pobl	-11.4577
="778	-11.4579
="762	-11.458
arpent	-11.4584
=746	-11.4587
enregistrè	-11.4587
▁ceremonia	-11.4587
▁desconegut	-11.4587
▁pronóncia	-11.4587
▁suplementària	-11.4587
▁austriac	-11.4587
=215	-11.4587
=286	-11.4587
▁picchu	-11.4587
▁corrècta	-11.4587
▁majoritari	-11.4587
▁santiago	-11.4587
▁digestiu	-11.4587
▁manchó	-11.4587
▁santuari	-11.4587
aucupacion	-11.4587
="765	-11.4588
="287	-11.4588
="279	-11.4588
="493	-11.4588
infeccion	-11.4588
="280	-11.4589
▁vertical	-11.4589
▁1893	-11.459
=497	-11.4591
▁dernier	-11.4591
▁delegacion	-11.4591
=754	-11.4592
▁estimat	-11.4593
▁dramatic	-11.4593
▁oblid	-11.4594
▁racional	-11.4595
=778	-11.4596
=762	-11.4597
▁vertut	-11.4597
louis	-11.4606
▁metropolitan	-11.4609
▁pied	-11.4612
estèpa	-11.4613
▁adara	-11.4614
▁paleo	-11.4614
="783	-11.4625
▁comté	-11.4625
="742	-11.4635
▁1810	-11.4644
etimologia	-11.4645
▁maucontent	-11.4688
=279	-11.4688
=287	-11.4688
=765	-11.4688
cambrésis	-11.4688
▁bactèris	-11.4688
▁certitud	-11.4688
▁càmbia	-11.4688
▁montanhosa	-11.4688
▁montenegro	-11.4688
▁volvèstre	-11.4688
▁drapèu	-11.4688
▁refusèron	-11.4688
▁substitu	-11.4688
=493	-11.4688
=280	-11.4688
▁caucàs	-11.4688
▁josieus	-11.4688
="740	-11.4689
▁gustav	-11.4689
▁disney	-11.4689
="282	-11.4689
▁tanplan	-11.469
▁recerca	-11.469
=783	-11.4691
=742	-11.4691
▁gaulle	-11.4691
▁alfabetic	-11.4693
▁fraccion	-11.4695
▁clarmont	-11.47
auloron	-11.47
▁piano	-11.4701
▁recors	-11.4701
eslau	-11.4709
lette	-11.4716
▁scenari	-11.4723
ombra	-11.4727
▁notacion	-11.4737
patrimòni	-11.4749
lingüistica	-11.475
sisténcia	-11.4752
▁1866	-11.4753
escriure	-11.4753
jogador	-11.4756
="757	-11.4763
▁claude	-11.4764
sistèma	-11.4766
ortès	-11.477
▁probabla	-11.478
urani	-11.479
=282	-11.479
=740	-11.479
▁checoslovaquia	-11.479
▁irregular	-11.479
▁moldàvia	-11.479
▁reconeissença	-11.479
▁divessa	-11.479
▁efèit	-11.479
▁prumier	-11.479
▁cresença	-11.4791
espeluga	-11.4791
▁fortificat	-11.4791
="281	-11.4791
="214	-11.4792
▁reconoiss	-11.4792
george	-11.4794
=757	-11.4799
nacional	-11.4801
▁dedicat	-11.4802
mòrt	-11.4804
="766	-11.4805
▁1382	-11.4807
▁dolor	-11.4807
="755	-11.4807
▁vegèt	-11.4813
▁perduda	-11.4814
▁gabon	-11.4815
▁maz	-11.4815
acabament	-11.4815
fotograf	-11.4817
▁radiacion	-11.4823
▁meme	-11.4824
▁1857	-11.4825
▁bosc	-11.4825
▁informatic	-11.484
lemosin	-11.4853
▁1841	-11.4863
començament	-11.487
▁pinta	-11.4874
▁capital	-11.4875
▁disiá	-11.4879
▁islamic	-11.488
▁viticultura	-11.4893
=214	-11.4893
=281	-11.4893
▁leonardo	-11.4893
opausèron	-11.4893
▁papièr	-11.4893
▁electorala	-11.4893
agitacion	-11.4893
▁prèire	-11.4893
="739	-11.4894
=766	-11.4894
="473	-11.4894
▁isolada	-11.4894
=755	-11.4894
▁isaac	-11.4894
="625	-11.4894
▁sosmarin	-11.4894
="285	-11.4895
▁faccions	-11.4895
▁bomba	-11.4896
▁consumacion	-11.4897
▁pauretat	-11.4897
▁plantacions	-11.4897
▁regéncia	-11.4904
isso	-11.4907
▁delimita	-11.4907
▁tigre	-11.4908
="792	-11.4909
èvre	-11.4912
▁alimentari	-11.4912
▁transcri	-11.4914
▁enterrat	-11.4915
▁afars	-11.4916
▁determinat	-11.4916
▁1877	-11.4924
▁vallon	-11.4924
="140	-11.4932
emigracion	-11.4932
▁1791	-11.4933
ifiquèt	-11.4952
ancien	-11.496
abric	-11.4962
well	-11.4974
▁guida	-11.4986
=473	-11.4997
=625	-11.4997
=739	-11.4997
▁descubrir	-11.4997
▁portugueses	-11.4997
▁reconstruccion	-11.4997
▁reconóisser	-11.4997
=285	-11.4997
ortografia	-11.4997
▁sèrp	-11.4998
▁grafica	-11.4998
=792	-11.4998
▁feudal	-11.4999
▁somission	-11.4999
▁enregistrat	-11.5
àngel	-11.5002
weiler	-11.5003
▁progressiu	-11.5004
oidea	-11.5014
▁annexada	-11.5023
estrat	-11.5025
pòli	-11.5033
▁cortés	-11.5034
▁video	-11.5047
▁tito	-11.5063
corresa	-11.5065
juli	-11.5073
pèire	-11.508
▁protector	-11.5081
obrir	-11.5082
estalin	-11.5091
ndustrializacion	-11.5097
emplaçament	-11.51
epopèia	-11.5102
▁radioactiu	-11.5102
▁referendum	-11.5102
▁tablèu	-11.5102
▁cerdanha	-11.5102
▁colomna	-11.5102
▁contreforts	-11.5102
▁blaiés	-11.5103
▁possedissiá	-11.5103
obligacion	-11.5103
▁laütièr	-11.5103
▁collectivitat	-11.5103
▁ròda	-11.5103
▁ernèst	-11.5103
▁nombreuses	-11.5103
▁nouveau	-11.5103
actuel	-11.5103
▁domaine	-11.5104
▁plueja	-11.5104
▁enebit	-11.5104
="753	-11.5105
▁licèu	-11.5105
▁acompanhat	-11.5106
▁trebola	-11.5107
vián	-11.5108
▁foto	-11.5109
▁robèrt	-11.511
▁nadau	-11.5111
▁geometric	-11.5112
="161	-11.5114
=753	-11.5115
▁guise	-11.5123
▁platèu	-11.5123
▁1869	-11.5125
▁city	-11.5125
elector	-11.5127
▁natal	-11.513
1-18	-11.5136
estabilizar	-11.5137
▁1852	-11.5146
▁pluvi	-11.5152
▁ecologic	-11.5152
▁gland	-11.5156
▁trufa	-11.516
umiditat	-11.5161
=140	-11.5172
▁poetic	-11.5185
▁comenta	-11.5191
▁banto	-11.5196
▁testimoni	-11.5209
▁autrefois	-11.5209
▁raprochament	-11.5209
▁tailàndia	-11.5209
▁logicial	-11.5209
ornith	-11.5209
▁pichòt	-11.5209
esperanto	-11.5209
▁quaranta	-11.5209
▁mosqueta	-11.5209
▁cencha	-11.521
▁canadian	-11.521
▁diego	-11.521
aquera	-11.521
caucasenc	-11.521
▁nuèit	-11.5211
▁triangle	-11.5212
▁jordan	-11.5212
▁sacrat	-11.5212
▁vector	-11.5213
anonci	-11.5214
jiang	-11.5216
école	-11.5218
estònia	-11.522
fenolh	-11.522
▁pèsta	-11.5221
▁remplaçament	-11.5222
emirat	-11.5226
▁somés	-11.5227
▁moleculara	-11.523
▁signèt	-11.5236
▁vendut	-11.5239
="787	-11.524
▁destruch	-11.524
▁dirigent	-11.5241
▁baltica	-11.5249
▁fmi	-11.5249
▁buf	-11.525
▁acomença	-11.5255
erstein	-11.5258
="768	-11.5264
▁1851	-11.5272
▁acampa	-11.5279
espanhòl	-11.5281
bier	-11.5285
estudiè	-11.5302
avitalhament	-11.5316
▁ierarquia	-11.5316
▁jusieva	-11.5316
▁membrana	-11.5316
▁prononciat	-11.5316
▁patriarca	-11.5316
▁sintetiza	-11.5316
▁potencial	-11.5316
▁richessa	-11.5316
pseudonim	-11.5316
▁consciéncia	-11.5317
▁responsabilitat	-11.5317
▁efectiu	-11.5317
▁enclava	-11.5317
▁positiu	-11.5317
orleans	-11.5317
▁fosquè	-11.5317
empedir	-11.5317
="366	-11.5318
="289	-11.5318
▁ortodòxa	-11.5318
▁baiona	-11.5318
=787	-11.5319
▁jòrdi	-11.5319
▁uech	-11.532
alcoran	-11.532
ejaire	-11.532
=768	-11.532
▁mairala	-11.5321
▁cruesa	-11.5322
▁sensibla	-11.5324
▁pirata	-11.5325
formacion	-11.5325
▁praga	-11.5328
=759	-11.5331
▁oncle	-11.5332
▁nacionalitat	-11.5335
▁ideologic	-11.5335
=420	-11.5336
script	-11.5338
▁1794	-11.5342
▁lateral	-11.5344
▁termica	-11.5344
▁1835	-11.5345
issy	-11.5347
="759	-11.5348
▁nadal	-11.5349
atencion	-11.5351
▁plaja	-11.5355
color	-11.5355
aigu	-11.5366
=161	-11.5368
▁aquitan	-11.5369
recuelh	-11.5376
="420	-11.538
="785	-11.5382
="763	-11.5393
▁observada	-11.5393
pausèt	-11.5401
charles	-11.5402
="777	-11.5405
oste	-11.5407
▁compausè	-11.5408
paga	-11.5419
fotbolaire	-11.5425
▁propaganda	-11.5425
▁suprimida	-11.5425
▁tectonica	-11.5425
▁tribunau	-11.5425
▁sassanida	-11.5425
=289	-11.5425
▁faissista	-11.5425
▁senegal	-11.5425
="789	-11.5426
▁siberia	-11.5426
="780	-11.5426
▁gravadura	-11.5426
▁identificada	-11.5426
escasença	-11.5428
▁bocage	-11.5429
▁birmania	-11.5429
▁consum	-11.5429
▁vincent	-11.5429
=777	-11.5431
▁refòrma	-11.5433
=763	-11.5434
=785	-11.5434
▁50%	-11.5435
▁centrada	-11.5436
▁retirament	-11.5437
fuelha	-11.5441
▁hill	-11.5455
▁autreja	-11.5462
▁chef	-11.547
▁rig	-11.5485
▁electromagnetic	-11.5487
▁hugo	-11.5496
ministre	-11.5502
reialme	-11.5502
—	-11.5502
aperten	-11.5502
major	-11.5502
aparten	-11.5505
optica	-11.5507
▁régional	-11.5515
obrièr	-11.5527
=780	-11.5535
=789	-11.5535
apartheid	-11.5535
aproximativament	-11.5535
eslovènia	-11.5535
trompetista	-11.5535
▁bòsnia	-11.5535
▁giuseppe	-11.5535
▁metabolisme	-11.5535
▁rebellion	-11.5535
=366	-11.5535
▁promocion	-11.5535
▁còrdoa	-11.5535
▁perfeccion	-11.5535
▁letònia	-11.5535
▁segalar	-11.5535
="771	-11.5536
="741	-11.5536
▁centenat	-11.5536
▁penetr	-11.5537
▁actuelle	-11.5537
▁libert	-11.5538
▁chipre	-11.554
▁noste	-11.5541
▁autentic	-11.5541
▁minimum	-11.5541
▁donné	-11.5542
▁repeti	-11.5542
▁poden	-11.5548
=756	-11.555
ometria	-11.5551
ordre	-11.5555
▁serra	-11.5557
▁1361	-11.5557
="779	-11.5559
▁gram	-11.5566
actiu	-11.5567
▁1806	-11.5569
="756	-11.5573
▁zone	-11.5586
alexandre	-11.5614
lingüista	-11.5614
vejatz	-11.5614
conselh	-11.562
▁armand	-11.5622
fisica	-11.5623
▁variacion	-11.5637
ieroglif	-11.5644
=741	-11.5646
=771	-11.5646
frédéric	-11.5646
▁influenciada	-11.5646
▁limòtges	-11.5646
▁ptolemèu	-11.5646
▁pellicula	-11.5646
▁confondre	-11.5646
▁occupé	-11.5646
▁ceramica	-11.5646
▁adulte	-11.5646
▁secrèt	-11.5647
▁licéncia	-11.5647
hawaii	-11.5647
ardecha	-11.5647
▁mèca	-11.5647
▁gaulois	-11.5647
▁vallonné	-11.5648
=779	-11.5648
▁collectiva	-11.5648
▁decrèt	-11.5648
astarac	-11.5648
▁fluid	-11.5649
▁catars	-11.5651
▁aminoacids	-11.5651
▁maximum	-11.5654
▁somesa	-11.5656
▁dictator	-11.5657
=760	-11.566
▁franz	-11.5662
▁fugida	-11.5668
="760	-11.5668
▁toristic	-11.5676
▁marxista	-11.5678
▁produit	-11.5678
▁automatic	-11.568
airòl	-11.5682
▁tap	-11.5692
▁cristòl	-11.5696
▁demorè	-11.5705
continent	-11.5727
▁chausiguè	-11.5737
installa	-11.5753
▁indoeuropèa	-11.5758
▁agricole	-11.5758
▁desaparegut	-11.5758
▁lòngtemps	-11.5758
▁profèta	-11.5758
▁radioactivitat	-11.5758
▁suprimit	-11.5758
▁iraquian	-11.5758
▁repertòri	-11.5758
dramaturg	-11.5758
▁caumatge	-11.5758
▁domingo	-11.5758
▁ribèra	-11.5758
▁primitiu	-11.5759
▁vatican	-11.5759
="474	-11.576
établi	-11.576
▁jacob	-11.576
▁preced	-11.576
▁recensa	-11.5761
▁chivau	-11.5761
▁cèltas	-11.5762
aeronau	-11.5763
establí	-11.5763
germain	-11.5764
▁correspondéncia	-11.5767
▁gavida	-11.5769
="788	-11.5776
parenti	-11.5794
terio	-11.5815
economi	-11.5817
galha	-11.582
▁contèn	-11.5821
▁ideal	-11.5858
▁parlava	-11.5861
dessus	-11.5862
▁1844	-11.5866
▁maridat	-11.5867
football	-11.5872
▁constantinòple	-11.5872
▁albigeses	-11.5872
▁posséd	-11.5872
=474	-11.5872
▁chivalier	-11.5872
▁temperada	-11.5872
▁âge	-11.5872
▁contestada	-11.5873
▁atribuit	-11.5873
=788	-11.5873
▁descobriguèt	-11.5875
expulsion	-11.5875
▁neuville	-11.5877
▁decoracion	-11.5878
▁produtz	-11.5882
▁whi	-11.589
▁1876	-11.5892
inghem	-11.5905
="761	-11.5906
▁contract	-11.5913
nicourt	-11.5916
="151	-11.5916
▁ferra	-11.5922
="265	-11.594
▁estrategic	-11.5958
▁dicta	-11.5959
pliquèt	-11.5976
aminoacid	-11.5982
▁1307-1317	-11.5987
▁atlétic	-11.5987
▁bangladèsh	-11.5987
▁lududes	-11.5987
▁manuscrit	-11.5987
▁recompensa	-11.5987
elaboracion	-11.5987
▁influent	-11.5987
▁laïc	-11.5987
▁roqueta	-11.5987
▁demostrè	-11.5987
▁madeish	-11.5987
▁familial	-11.5987
▁azèri	-11.5987
="758	-11.5988
▁tempta	-11.5988
▁restanca	-11.5989
=761	-11.5989
▁rescontra	-11.5991
=265	-11.5992
amistat	-11.5995
▁rosegaires	-11.5996
=267	-11.5998
▁walter	-11.5999
▁adonc	-11.6001
▁impòsts	-11.6001
▁taur	-11.6008
▁10%	-11.6011
▁1822	-11.6015
="267	-11.6023
▁mestreja	-11.6038
genès	-11.6039
empire	-11.6043
▁1854	-11.6055
legia	-11.6058
#	-11.6072
glèisa	-11.6077
urbanizacion	-11.6083
jacques	-11.6083
▁1888	-11.6086
musèu	-11.6088
="786	-11.6092
▁anglosaxon	-11.6103
=758	-11.6103
▁coïncid	-11.6103
▁nicaragua	-11.6103
▁toscana	-11.6103
▁[...]	-11.6103
▁millenni	-11.6103
▁arpitan	-11.6103
exemplar	-11.6103
▁voltaire	-11.6103
▁pertocant	-11.6103
▁elegida	-11.6104
▁bolets	-11.6104
="772	-11.6104
▁satisf	-11.6105
▁traces	-11.6106
▁aragonesa	-11.6106
▁muisha	-11.6106
▁sortiguèt	-11.6107
▁nucleotids	-11.6108
▁miralh	-11.6109
amplor	-11.6109
▁princessa	-11.6109
▁prelatin	-11.6109
=786	-11.6111
▁regnat	-11.6112
▁80%	-11.6113
▁gaudí	-11.6113
▁financier	-11.6123
▁pilar	-11.6126
atribui	-11.6128
=151	-11.6129
adesion	-11.6143
▁predica	-11.6148
murid	-11.6154
▁1842	-11.6175
▁electro	-11.6176
planeta	-11.6208
militar	-11.6208
jordania	-11.6218
=772	-11.6221
córrer	-11.6221
▁bailliage	-11.6221
▁général	-11.6221
▁magrèb	-11.6221
▁mestritge	-11.6221
▁montsegur	-11.6221
▁namibia	-11.6221
▁rattaché	-11.6221
▁tòcatocanta	-11.6221
hollywood	-11.6221
▁primitiva	-11.6221
▁fatimida	-11.6221
▁revenge	-11.6221
▁papautat	-11.6221
▁catarisme	-11.6221
▁reversat	-11.6221
ascension	-11.6221
▁césar	-11.6221
▁circuit	-11.6222
▁trionf	-11.6222
innovacion	-11.6222
▁tretze	-11.6223
="372	-11.6223
oficiers	-11.6223
arrestacion	-11.6223
▁estrangièrs	-11.6225
fichièr	-11.6225
▁préner	-11.6226
▁cavitat	-11.6228
▁luenh	-11.6229
▁fidèl	-11.623
▁destruguè	-11.6232
▁proclamacion	-11.6232
ɔw	-11.6233
▁relatiu	-11.624
▁larsa	-11.624
acceleracion	-11.6249
▁pisa	-11.625
organizè	-11.6251
apelacion	-11.6252
="153	-11.628
="678	-11.6291
john	-11.6316
utilizava	-11.6317
▁comerciau	-11.6336
▁mérovingien	-11.634
▁batalhier	-11.634
▁eclesiastic	-11.634
▁quotidian	-11.634
▁jesuista	-11.634
espleitacion	-11.634
instabilitat	-11.634
=372	-11.634
▁inventat	-11.634
▁mantèu	-11.634
▁opausant	-11.634
▁façada	-11.634
eugène	-11.634
assegurè	-11.6342
=678	-11.6345
▁famina	-11.6347
▁jonhent	-11.6351
ermita	-11.6354
metrica	-11.6358
▁incursion	-11.6361
▁1812	-11.6363
="434	-11.6364
="163	-11.6372
finiguèt	-11.6376
="767	-11.6377
uranus	-11.6387
▁desertic	-11.6401
etime	-11.6422
avesnes	-11.6438
incursions	-11.6439
ròse	-11.6454
activité	-11.646
▁benedictin	-11.646
▁distinguir	-11.646
▁féodal	-11.646
▁orpustan	-11.646
▁fenèstra	-11.646
▁sediments	-11.6461
▁defensor	-11.6461
▁montreal	-11.6461
▁mòda	-11.6461
▁estendut	-11.6461
="738	-11.6461
▁oficièr	-11.6461
="728	-11.6461
▁angleses	-11.6462
="671	-11.6462
=434	-11.6462
="432	-11.6462
="375	-11.6462
="277	-11.6462
=767	-11.6463
▁disputa	-11.6464
▁viatgè	-11.6464
▁villé	-11.6465
afrontament	-11.6466
ajusta	-11.6468
▁procèssus	-11.6468
armonia	-11.6474
▁coneishut	-11.6475
▁electrons	-11.6476
=266	-11.6487
="166	-11.6497
ailleurs	-11.6498
qüa	-11.6513
aguesta	-11.6528
▁investi	-11.6549
escriguèt	-11.6571
nucleotid	-11.6577
=728	-11.6582
=738	-11.6582
exterminacion	-11.6582
▁banlèga	-11.6582
▁eduardo	-11.6582
▁persecucion	-11.6582
▁vocabulari	-11.6582
=375	-11.6582
=671	-11.6582
=277	-11.6582
▁costalats	-11.6582
antartida	-11.6582
atemptat	-11.6582
▁catarina	-11.6582
=432	-11.6582
▁angeles	-11.6583
="770	-11.6583
elefant	-11.6583
▁mentionné	-11.6583
▁anautit	-11.6584
="364	-11.6584
▁decidiguèron	-11.6586
▁abitualament	-11.6586
▁sensible	-11.6587
▁machu	-11.6587
▁intèrne	-11.6587
▁cession	-11.6589
▁refugiats	-11.659
▁serviguèt	-11.6591
▁terrassa	-11.6593
▁pagat	-11.66
="266	-11.6603
expuls	-11.6618
="586	-11.6625
▁gauche	-11.6627
="494	-11.663
boul	-11.6639
borgada	-11.6641
="148	-11.6643
▁descend	-11.6675
hydr	-11.6682
▁collect	-11.6688
michel	-11.6698
«	-11.6702
=364	-11.6706
=770	-11.6706
▁arcaïc	-11.6706
▁auvernhat	-11.6706
▁cambòtja	-11.6706
▁circonstàncias	-11.6706
▁communauté	-11.6706
▁ludwig	-11.6706
▁meteorologic	-11.6706
▁successivament	-11.6706
▁trajectòria	-11.6706
▁copernic	-11.6706
▁trobèron	-11.6706
▁jutjat	-11.6706
▁simboliza	-11.6706
▁consolid	-11.6706
eritrèa	-11.6706
▁pablo	-11.6706
▁bavay	-11.6706
▁bèstia	-11.6706
▁intensa	-11.6706
▁roïnas	-11.6706
▁prospèr	-11.6706
▁victoriosa	-11.6707
="733	-11.6707
▁sèxe	-11.6708
▁opausada	-11.6708
urgéncia	-11.6709
inondacion	-11.6709
=586	-11.6709
=494	-11.6709
▁comèdia	-11.671
▁reconoguè	-11.6717
angòla	-11.6722
▁mention	-11.6727
extraccion	-11.673
exercici	-11.6731
▁portava	-11.6742
▁tonic	-11.68
toponim	-11.6813
▁cristian	-11.6818
=733	-11.6831
▁distinguís	-11.6831
▁lópez	-11.6831
▁magdalena	-11.6831
▁neutralitat	-11.6831
▁procediment	-11.6831
▁septembre	-11.6831
▁toujours	-11.6831
eficacitat	-11.6831
▁saxònia	-11.6831
▁lorraine	-11.6831
▁destrurre	-11.6831
="370	-11.6833
▁quesnoy	-11.6837
▁servisson	-11.6838
▁gerais	-11.6838
andlau	-11.6839
▁prigondor	-11.6841
▁sofre	-11.6845
ncèt	-11.685
▁ricard	-11.6853
espandiguè	-11.6868
▁sufisent	-11.6878
scéncia	-11.6902
▁declarat	-11.6917
▁concentrè	-11.6921
contributor	-11.6922
arrèr	-11.6923
françois	-11.6941
vièlh	-11.6944
▁parciala	-11.6949
▁bielorussia	-11.6957
▁cineasta	-11.6957
▁combustion	-11.6957
▁découvert	-11.6957
▁eventualament	-11.6957
▁hortalessa	-11.6957
▁trencavèl	-11.6957
▁ferdinand	-11.6957
▁prevencion	-11.6957
▁tòrna	-11.6957
christophe	-11.6957
=370	-11.6958
thumb	-11.6959
▁extèrna	-11.6959
isolament	-11.6959
pareguèt	-11.6959
="433	-11.696
▁recuèlh	-11.6961
▁provocar	-11.6961
▁bastiguèt	-11.6962
▁sostenguèron	-11.6963
▁bauç	-11.6965
▁prolonga	-11.6966
▁animat	-11.6967
▁comprendre	-11.6967
="773	-11.6974
▁titan	-11.6976
="315	-11.6978
=419	-11.6991
=308	-11.6999
existir	-11.7055
="301	-11.7055
▁preferiguè	-11.7056
afirma	-11.7075
moneda	-11.7076
istoric	-11.7076
▁impossibla	-11.7086
▁palestinian	-11.7086
▁période	-11.7086
▁redreiçament	-11.7086
▁singapor	-11.7086
▁suedesa	-11.7086
▁prefondor	-11.7086
=433	-11.7086
▁dialòg	-11.7086
▁taliban	-11.7086
▁suggeri	-11.7086
▁meravilh	-11.7086
▁tambor	-11.7086
▁pròpi	-11.7086
▁produsís	-11.7086
=773	-11.7087
="371	-11.7087
▁paysage	-11.7089
▁velai	-11.709
▁contamina	-11.7093
=301	-11.7094
=776	-11.7104
▁vintena	-11.7107
="776	-11.7149
cellula	-11.7156
nòrma	-11.7158
="419	-11.7158
▁institu	-11.7163
esposè	-11.7167
▁1856	-11.7167
tèrna	-11.718
principalament	-11.7203
▁manifesta	-11.7212
="308	-11.7213
fuèlha	-11.7214
amsterdam	-11.7215
intelligéncia	-11.7215
▁catalunya	-11.7215
▁dispositiu	-11.7215
▁dissimilacion	-11.7215
▁pàmias	-11.7215
▁swahili	-11.7215
▁dimenge	-11.7216
▁reprimir	-11.7216
▁vòges	-11.7216
=371	-11.7216
▁margarida	-11.7216
▁ensuite	-11.7216
▁flandra	-11.7216
▁eslovac	-11.7216
▁consèrva	-11.7216
▁acarnada	-11.7216
envolopa	-11.7216
▁canadenc	-11.7216
="737	-11.7216
▁vocacion	-11.7216
▁pilòt	-11.7216
="735	-11.7217
▁recomanda	-11.7217
="628	-11.7217
▁demenís	-11.7217
ateïsme	-11.7218
obertura	-11.722
▁milièrs	-11.722
▁fromatge	-11.7228
▁recuperacion	-11.7228
▁contorn	-11.7231
▁regropa	-11.7231
="496	-11.7243
▁plastic	-11.7247
obténer	-11.7251
flex	-11.726
peyr	-11.7296
▁presonièr	-11.7307
europe	-11.7315
▁aperteniá	-11.7319
equilibr	-11.733
molecula	-11.7336
alpenc	-11.7347
=735	-11.7347
=737	-11.7347
guitarrista	-11.7347
▁compromés	-11.7347
▁disparegut	-11.7347
▁eqüatoriala	-11.7347
▁possède	-11.7347
▁raprochè	-11.7347
▁alexander	-11.7347
▁dakota	-11.7347
▁morfologia	-11.7347
▁bolonha	-11.7347
▁castèlnòu	-11.7347
=628	-11.7347
world	-11.7347
▁ciclista	-11.7347
illinois	-11.7347
▁pacient	-11.7347
▁sòja	-11.7347
▁sinonim	-11.7347
▁recòlta	-11.7347
▁rebutar	-11.7347
▁fossé	-11.7348
▁fecond	-11.7348
▁cabanas	-11.7348
="691	-11.7349
▁confierm	-11.7349
▁caramanh	-11.7349
=496	-11.7349
="538	-11.7349
▁chapela	-11.7349
▁jorge	-11.7349
▁trèva	-11.735
espitau	-11.7361
▁delegat	-11.7369
=302	-11.7376
="312	-11.7393
estuari	-11.7395
="302	-11.7417
▁barreja	-11.7418
▁demografic	-11.7435
bernard	-11.7472
▁2,5	-11.7476
▁sistema	-11.7479
▁développe	-11.748
▁cinquanta	-11.748
▁espròvas	-11.748
▁glòria	-11.748
▁inaugurat	-11.748
▁jurisdiccion	-11.748
▁lituanian	-11.748
▁matrimòni	-11.748
▁primordiau	-11.748
▁negòci	-11.748
=538	-11.748
=691	-11.748
actitud	-11.748
thierry	-11.748
▁emblematic	-11.748
▁carnaval	-11.7481
▁raconte	-11.7481
ulàlia	-11.7481
▁degalhs	-11.7481
apellacion	-11.7481
▁consagr	-11.7481
▁tropicau	-11.7481
="750	-11.7482
▁semble	-11.7482
="369	-11.7482
▁dividit	-11.7483
▁dèlta	-11.7484
argila	-11.7486
mòble	-11.7489
▁messatge	-11.7489
=472	-11.7493
="472	-11.7502
=457	-11.751
="781	-11.7529
receptor	-11.7533
▁pòsca	-11.7536
aussau	-11.7572
actuau	-11.7577
botanica	-11.7584
joseph	-11.7608
latinizacion	-11.7612
▁cazacstan	-11.7616
▁disponible	-11.7616
▁logiciau	-11.7616
▁zanzibar	-11.7616
academia	-11.7616
▁defensiva	-11.7616
▁escocés	-11.7616
▁nicolau	-11.7616
=369	-11.7616
▁samuel	-11.7616
▁bavièra	-11.7616
=750	-11.7616
▁positiva	-11.7616
▁cameron	-11.7616
▁marginal	-11.7616
="751	-11.7616
intestin	-11.7616
="719	-11.7617
addicion	-11.7617
▁desbarquè	-11.7617
="679	-11.7617
▁plomb	-11.7619
=781	-11.7619
▁incorporat	-11.7619
seguiguèt	-11.7622
="457	-11.7622
▁profit	-11.7623
▁consul	-11.7624
oganda	-11.7631
▁savana	-11.7632
=775	-11.7635
=469	-11.7636
="469	-11.7644
=702	-11.7646
="268	-11.7647
▁remonte	-11.7648
=695	-11.7649
=468	-11.7649
▁immobil	-11.7676
="775	-11.7678
="614	-11.7689
="702	-11.769
▁postula	-11.7729
puèg	-11.7747
dinastia	-11.7747
=719	-11.7753
=751	-11.7753
infantariá	-11.7753
▁bolívar	-11.7753
▁compostèla	-11.7753
▁malhòrca	-11.7753
▁lincoln	-11.7753
▁rafael	-11.7753
=679	-11.7753
▁lactèa	-11.7753
▁baïsa	-11.7753
▁meridian	-11.7753
▁vaissèl	-11.7753
silvània	-11.7753
▁declinason	-11.7753
▁milleni	-11.7753
="734	-11.7754
="367	-11.7754
="585	-11.7754
="657	-11.7755
="363	-11.7755
="590	-11.7755
=268	-11.7755
▁yuan	-11.7755
▁niçard	-11.7756
▁espessa	-11.7756
▁donjon	-11.7756
=614	-11.7758
▁desboca	-11.776
▁entouré	-11.7762
arrèst	-11.7779
▁tribú	-11.7805
="695	-11.7809
="468	-11.7817
▁vendrà	-11.7835
="579	-11.7865
apareish	-11.7884
indonesia	-11.7888
belgica	-11.7888
=367	-11.7891
=585	-11.7891
=734	-11.7891
lichtenberg	-11.7891
▁charleroi	-11.7891
▁hregadas	-11.7891
▁macedonian	-11.7891
▁saragossa	-11.7891
▁successivas	-11.7891
engenhariá	-11.7891
▁capitòli	-11.7891
▁crête	-11.7891
▁joventut	-11.7891
▁notamment	-11.7891
psicologia	-11.7891
▁garcía	-11.7891
=363	-11.7891
=657	-11.7891
▁omenatge	-11.7892
▁explicit	-11.7892
=590	-11.7892
▁sncf	-11.7892
▁dilhèu	-11.7892
▁dernière	-11.7892
▁engendra	-11.7892
▁venecian	-11.7892
▁innocen	-11.7892
ultima	-11.7892
▁obtenguda	-11.7893
endeman	-11.7893
="470	-11.7893
="374	-11.7894
="211	-11.7894
="284	-11.7894
▁galícia	-11.7895
▁mesoamerica	-11.7896
▁reclama	-11.7896
abrial	-11.7898
▁castras	-11.7899
=579	-11.79
aparéncia	-11.7906
=306	-11.7908
=576	-11.7913
▁assimil	-11.7925
=431	-11.7931
="576	-11.7945
="306	-11.7949
="452	-11.7982
ornament	-11.7984
proxima	-11.8031
estandard	-11.8031
catalonha	-11.8031
embrancament	-11.8032
immigracion	-11.8032
▁archéologique	-11.8032
▁calandreta	-11.8032
▁considerè	-11.8032
▁rodríguez	-11.8032
▁windows	-11.8032
▁guerrièr	-11.8032
▁potenciau	-11.8032
occupation	-11.8032
▁monetària	-11.8032
=374	-11.8032
=284	-11.8032
▁ipotetic	-11.8032
=470	-11.8032
▁cobrís	-11.8032
▁multiplas	-11.8032
=211	-11.8032
▁pigment	-11.8032
▁omonim	-11.8033
▁recruta	-11.8033
▁inquiet	-11.8033
▁sapiens	-11.8033
▁anarquista	-11.8033
▁polinesia	-11.8034
▁flux	-11.8036
=452	-11.8039
acèas	-11.8043
▁étai	-11.8065
="589	-11.8081
="431	-11.8094
="180	-11.8107
▁reconstitu	-11.8132
estanc	-11.8146
▁acceler	-11.8165
="543	-11.8169
▁necessitè	-11.8175
▁cambridge	-11.8175
▁chimpanzés	-11.8175
▁complexitat	-11.8175
▁convergéncia	-11.8175
▁formigas	-11.8175
▁intermediària	-11.8175
▁polimerasa	-11.8175
▁supression	-11.8175
▁prioritat	-11.8175
emília	-11.8175
espèctre	-11.8175
▁petersborg	-11.8175
▁portuària	-11.8175
▁sebastian	-11.8175
▁solidaritat	-11.8175
▁guilhem	-11.8175
▁titular	-11.8175
accedir	-11.8175
introdu	-11.8175
▁sierra	-11.8175
▁energetic	-11.8176
investigacion	-11.8176
▁vervins	-11.8176
▁isabel	-11.8176
▁dragon	-11.8177
="290	-11.8177
centolh	-11.8178
▁estrangièra	-11.8178
="249	-11.8179
=589	-11.8179
=543	-11.8186
=304	-11.8195
="310	-11.8211
aïs	-11.8215
=334	-11.8222
="168	-11.8224
▁efectua	-11.8234
fried	-11.8239
="791	-11.8252
="303	-11.8254
="304	-11.8268
seltz	-11.8286
="774	-11.8286
▁releva	-11.8308
dolfo	-11.8312
escrutinh	-11.832
▁inscrich	-11.832
▁resistiguèt	-11.832
▁termodinamic	-11.832
▁trajècte	-11.832
astúrias	-11.832
▁andalús	-11.832
▁mandolina	-11.832
▁rapidàment	-11.832
▁solstici	-11.832
vermandois	-11.832
▁toledo	-11.832
=290	-11.832
▁aisidament	-11.832
▁río	-11.832
▁maxwell	-11.832
▁conoís	-11.832
="769	-11.8321
="376	-11.8322
cappella	-11.8322
▁impausat	-11.8322
▁faiçon	-11.8323
britanic	-11.8323
faraon	-11.8324
▁admira	-11.8325
▁chausit	-11.8325
brasil	-11.8325
=791	-11.8326
=303	-11.8327
=774	-11.8328
▁massiva	-11.8329
town	-11.8333
escultor	-11.8336
=623	-11.8343
eresia	-11.8352
="623	-11.8353
dialècte	-11.8359
="316	-11.8371
becque	-11.8402
▁fonetic	-11.8407
="334	-11.8462
▁keynes	-11.8467
=376	-11.8467
=769	-11.8467
▁alemanic	-11.8467
▁botswana	-11.8467
▁créisser	-11.8467
▁propagacion	-11.8467
▁system	-11.8467
▁trencavel	-11.8467
▁wissembourg	-11.8467
▁bestial	-11.8467
▁motivacion	-11.8467
▁nòbla	-11.8467
instruccion	-11.8467
▁expausat	-11.8467
=249	-11.8467
▁establiguèron	-11.8467
▁mozart	-11.8467
▁praube	-11.8468
▁vencuda	-11.8468
▁jamei	-11.8468
fòrces	-11.8468
▁chausida	-11.8468
="709	-11.8468
▁expulsat	-11.8468
▁partenari	-11.8469
▁concebut	-11.8469
="661	-11.8469
="380	-11.8469
obratge	-11.8474
artèria	-11.848
aubrac	-11.8499
▁tronc	-11.85
catalan	-11.8512
▁meridional	-11.8568
▁assassin	-11.8599
=709	-11.8616
▁demostrar	-11.8616
▁meridionau	-11.8616
▁redreiçar	-11.8616
itinerari	-11.8616
▁corbièras	-11.8616
▁marshall	-11.8616
▁molhèr	-11.8616
=661	-11.8616
▁giessen	-11.8616
▁museum	-11.8616
=380	-11.8616
▁estricte	-11.8617
cancelièr	-11.8617
obsèrva	-11.8617
▁relativitat	-11.8617
▁diamant	-11.8617
▁castilhon	-11.8617
▁criminal	-11.8617
▁subrevisquèt	-11.8618
▁espós	-11.8618
="399	-11.8619
="674	-11.8619
="217	-11.8619
="618	-11.8619
="248	-11.8619
equivalent	-11.8623
tecnica	-11.8624
▁votè	-11.8634
▁multipliquè	-11.8636
naissut	-11.8637
étienne	-11.8637
=577	-11.8644
urgell	-11.8692
▁ratifica	-11.8696
="335	-11.8699
="577	-11.8711
▁philip	-11.8766
afebliguèt	-11.8768
▁brussèlas	-11.8768
▁ceremònia	-11.8768
▁gibartar	-11.8768
▁grâce	-11.8768
▁insurgents	-11.8768
▁norrigatge	-11.8768
▁protagonista	-11.8768
▁septentrionau	-11.8768
▁tòquio	-11.8768
▁fidelitat	-11.8768
▁tanpauc	-11.8768
=399	-11.8768
=674	-11.8768
=217	-11.8768
▁puntejadas	-11.8768
=618	-11.8768
=248	-11.8768
▁présence	-11.8768
▁interpretar	-11.8768
▁companhon	-11.8769
▁milícia	-11.8769
▁edoard	-11.8769
executa	-11.877
="276	-11.8771
="542	-11.8771
=335	-11.8788
▁faisai	-11.8806
=561	-11.8812
▁iniciat	-11.885
▁menacè	-11.8885
inclina	-11.8902
estrangièr	-11.8913
equinòcci	-11.8922
oligarquia	-11.8922
▁affluent	-11.8922
▁encoratjè	-11.8922
▁marselhés	-11.8922
▁topografia	-11.8922
afondrèt	-11.8922
▁vichèi	-11.8922
]]-[[	-11.8922
▁crimèa	-11.8922
▁montalban	-11.8922
▁batejat	-11.8922
▁liszt	-11.8922
▁cardinau	-11.8922
=276	-11.8922
▁fantastic	-11.8922
=542	-11.8922
▁conegó	-11.8922
▁afgan	-11.8922
▁saunós	-11.8923
▁galilei	-11.8923
="736	-11.8923
▁aqüatic	-11.8923
▁nassau	-11.8923
▁viscut	-11.8923
="722	-11.8923
="704	-11.8924
▁desplega	-11.8925
▁flanc	-11.8926
evescat	-11.8933
clerc	-11.8936
▁associ	-11.8946
▁modèrn	-11.8949
=466	-11.8956
▁imperial	-11.8985
="561	-11.8987
reprendre	-11.9019
="262	-11.9031
▁escota	-11.9033
="270	-11.9036
2004)	-11.9043
="466	-11.9073
châtel	-11.9078
exploitation	-11.9078
inquisicion	-11.9078
évêché	-11.9078
▁afeblida	-11.9078
▁atlètas	-11.9078
▁clandestin	-11.9078
▁gilgamesh	-11.9078
▁hectares	-11.9078
▁octavius	-11.9078
▁projeccion	-11.9078
▁sacrifici	-11.9078
▁zimbabwe	-11.9078
=736	-11.9078
▁discípol	-11.9078
▁gleisa	-11.9078
=722	-11.9078
=704	-11.9078
▁tutèla	-11.9078
▁quicòm	-11.9078
navegador	-11.9078
▁monopòli	-11.9078
embocadura	-11.9078
▁testifica	-11.9078
▁guerra	-11.9079
="790	-11.9079
▁vicente	-11.9079
▁monetari	-11.9079
="724	-11.908
▁omeia	-11.908
▁degradacion	-11.908
▁acompanhada	-11.908
="213	-11.908
="662	-11.9081
="216	-11.9081
="294	-11.9081
="236	-11.9081
=262	-11.9087
=270	-11.9087
assetja	-11.9091
existisson	-11.9092
idiòma	-11.91
observèt	-11.9108
="700	-11.9127
antonio	-11.9132
roïn	-11.9155
="263	-11.9156
cefal	-11.9174
automobila	-11.923
licenci	-11.923
▁goulamas	-11.9237
=724	-11.9237
indoeuropèu	-11.9237
infraroge	-11.9237
oppidum	-11.9237
▁différen	-11.9237
▁eucariòtas	-11.9237
▁lhèida	-11.9237
▁malàisia	-11.9237
▁noiridura	-11.9237
▁propriété	-11.9237
=790	-11.9237
andalosia	-11.9237
ellipsa	-11.9237
=216	-11.9237
=213	-11.9237
ambaissador	-11.9237
=662	-11.9237
=236	-11.9237
=294	-11.9237
estrasborg	-11.9237
▁ernst	-11.9237
▁nòsta	-11.9237
▁atribuida	-11.9237
▁trabalhadors	-11.9238
="749	-11.9238
aurenja	-11.9238
▁ieroglific	-11.9239
="365	-11.924
="450	-11.924
="283	-11.924
=700	-11.9241
acabè	-11.9242
afierma	-11.9242
=263	-11.9243
▁dedicada	-11.9248
=706	-11.9253
prince	-11.9256
=588	-11.9262
examen	-11.9266
articulacion	-11.9266
▁estapa	-11.9266
="706	-11.9267
enfança	-11.9273
tractat	-11.9273
=541	-11.9274
=455	-11.9276
=703	-11.9277
="588	-11.9281
=336	-11.9289
lfredo	-11.929
mòrf	-11.9299
="703	-11.9337
▁publiquè	-11.9347
="541	-11.9356
arreliga	-11.9358
="615	-11.937
="336	-11.937
ã	-11.937
="239	-11.9385
=749	-11.9398
▁géologique	-11.9398
▁seldjokid	-11.9398
▁cromosòma	-11.9398
▁elliptica	-11.9398
▁ercegovina	-11.9398
▁folclòre	-11.9398
▁mentàver	-11.9398
▁susceptibla	-11.9398
▁alternativa	-11.9398
▁heinrich	-11.9398
▁rwanda	-11.9398
▁governamentala	-11.9398
▁châtelain	-11.9398
▁ribiera	-11.9398
=450	-11.9398
=283	-11.9398
▁coronèu	-11.9398
▁percentatge	-11.9398
=365	-11.9398
▁erudit	-11.9398
▁esportiva	-11.9399
chastèl	-11.9399
▁calcaire	-11.9399
▁capitol	-11.9399
▁medicaments	-11.9399
▁endemica	-11.9399
▁braces	-11.94
▁botiga	-11.94
="633	-11.9401
="241	-11.9402
="222	-11.9402
▁avançat	-11.9403
ofrís	-11.9403
▁pretonic	-11.9403
▁dèv	-11.9405
=615	-11.9408
=239	-11.941
="455	-11.9411
▁mecanic	-11.9414
noblesa	-11.9418
aprèp	-11.9418
=673	-11.9426
="307	-11.9446
error	-11.9449
▁district	-11.9465
="673	-11.9468
annexar	-11.9481
mpausèron	-11.9523
="443	-11.9534
evaporacion	-11.9562
omosexual	-11.9562
▁accessible	-11.9562
▁connectant	-11.9562
▁marmoutier	-11.9562
▁possedeish	-11.9562
▁ribosòma	-11.9562
▁tolerància	-11.9562
▁kepler	-11.9562
▁peitavin	-11.9562
▁respiracion	-11.9562
▁variòla	-11.9562
▁josieva	-11.9562
▁iemèn	-11.9562
▁expausada	-11.9562
▁indigèns	-11.9562
▁vertadèr	-11.9562
=241	-11.9562
▁protocòl	-11.9562
=633	-11.9562
▁despuei	-11.9562
=222	-11.9562
panthera	-11.9562
▁rejonh	-11.9563
="748	-11.9563
▁sulfur	-11.9564
indoïsme	-11.9565
="291	-11.9565
▁adrian	-11.9566
amoniac	-11.9566
▁importat	-11.9566
=307	-11.9566
▁alsacien	-11.9568
=443	-11.9574
polimèr	-11.9575
esquèma	-11.9578
adreça	-11.9578
districte	-11.9583
projècte	-11.9584
incendi	-11.9584
teoria	-11.9585
alteracion	-11.9597
="453	-11.9606
▁emigra	-11.9668
▁presidencial	-11.9675
▁concert	-11.9692
▁birman	-11.9723
arpitània	-11.9729
=748	-11.9729
agglomération	-11.9729
vestfàlia	-11.9729
▁cimetière	-11.9729
▁dissabte	-11.9729
▁frejús	-11.9729
▁manchoria	-11.9729
▁medoquina	-11.9729
▁recebèron	-11.9729
artropòde	-11.9729
▁appartient	-11.9729
▁stàlin	-11.9729
▁vestiges	-11.9729
▁montastruc	-11.9729
marsupial	-11.9729
=291	-11.9729
▁finançament	-11.9729
gratacèl	-11.9729
▁multiples	-11.9729
▁__	-11.9729
▁instaurè	-11.973
otramar	-11.973
="471	-11.9731
ofèrta	-11.9731
="458	-11.9731
="395	-11.9732
="229	-11.9732
=453	-11.9732
▁dorsala	-11.9742
incident	-11.9748
infligi	-11.9751
espanhòu	-11.9753
quartièr	-11.9753
=677	-11.9762
quitèt	-11.9805
="314	-11.9835
installè	-11.9847
="677	-11.985
▁diocès	-11.9871
="311	-11.9893
=471	-11.9898
aprendissatge	-11.9898
▁août	-11.9898
▁cancelier	-11.9898
▁condamnacion	-11.9898
▁correspònd	-11.9898
▁muhammad	-11.9898
▁judieva	-11.9898
▁presidenciau	-11.9898
▁vladimir	-11.9898
▁capitulacion	-11.9898
▁genocidi	-11.9898
▁contradiccion	-11.9898
▁obligada	-11.9898
▁replegar	-11.9898
▁cirurgia	-11.9898
▁eissuch	-11.9898
=458	-11.9898
▁reculament	-11.9898
▁precòç	-11.9898
=229	-11.9898
▁viscó	-11.9898
=395	-11.9898
▁bilhet	-11.9898
▁sumerian	-11.9898
indochina	-11.9898
▁preciós	-11.9898
▁prudent	-11.9898
▁miranda	-11.9899
▁balcanic	-11.9899
▁electorau	-11.9899
▁nervi	-11.9899
="732	-11.99
="349	-11.99
="382	-11.99
="583	-11.99
="693	-11.9901
="234	-11.9901
▁septentrional	-11.9901
="384	-11.9901
="362	-11.9901
="368	-11.9902
▁sagè	-11.9904
▁automobil	-11.9906
interromp	-11.9912
▁indó	-11.9912
embrion	-11.9919
calendièr	-11.9926
=782	-11.9929
="545	-11.9938
=436	-11.996
="782	-11.9965
illustracion	-11.9983
▁ponç	-12.0021
sosdialècte	-12.0028
="264	-12.0034
="617	-12.0052
▁exacta	-12.0061
▁copenaga	-12.007
▁groenlàndia	-12.007
▁menerbés	-12.007
▁nucleïc	-12.007
▁rabastens	-12.007
▁richelieu	-12.007
▁álvar	-12.007
=732	-12.0071
▁metafisica	-12.0071
▁nebulosa	-12.0071
▁viticòla	-12.0071
parrochia	-12.0071
▁montesquiu	-12.0071
▁concrèt	-12.0071
▁jutjada	-12.0071
▁danubi	-12.0071
=384	-12.0071
=693	-12.0071
▁caspiana	-12.0071
=349	-12.0071
wolfgang	-12.0071
=382	-12.0071
=583	-12.0071
www	-12.0071
=362	-12.0071
=234	-12.0071
▁dessota	-12.0071
▁abdul	-12.0071
sociologia	-12.0071
apropria	-12.0072
▁esportiu	-12.0073
▁rabin	-12.0073
="377	-12.0073
="658	-12.0073
=545	-12.0074
="275	-12.0075
▁dissòu	-12.0077
=264	-12.0082
=617	-12.0083
optera	-12.009
gasconha	-12.0102
tradicion	-12.0105
=428	-12.0121
imitèt	-12.0129
=309	-12.0143
existeish	-12.0152
scenarista	-12.0189
▁siaguè	-12.0204
▁violon	-12.0238
quiroptèr	-12.0246
▁benefícia	-12.0246
▁promòure	-12.0246
▁raprochar	-12.0246
▁similitud	-12.0246
▁veneçuela	-12.0246
voyager	-12.0246
▁cirillic	-12.0246
estocòlme	-12.0246
▁montcornet	-12.0246
infanterie	-12.0246
=377	-12.0246
=658	-12.0246
=250	-12.0246
▁martegue	-12.0246
▁seguisson	-12.0246
=368	-12.0246
▁bièrra	-12.0246
=275	-12.0246
▁rebutat	-12.0246
▁biblic	-12.0246
▁familiar	-12.0246
omorpha	-12.0246
▁prumèir	-12.0246
gandhi	-12.0246
▁zorn	-12.0247
▁tenements	-12.0247
▁terciari	-12.0247
▁ghana	-12.0247
="594	-12.0248
="669	-12.0249
="692	-12.0249
="237	-12.025
="251	-12.025
savinhac	-12.0252
="436	-12.0259
gupta	-12.0261
afinatge	-12.0264
aluenha	-12.0265
▁1802	-12.0269
▁exigi	-12.0272
influenc	-12.0277
="428	-12.0277
anfós	-12.028
vinhana	-12.0281
=681	-12.0288
="651	-12.0298
identifica	-12.0304
="401	-12.031
iquèl	-12.0322
="584	-12.0324
▁participè	-12.0373
="608	-12.0396
="681	-12.0403
="675	-12.0411
▁fixè	-12.0421
▁diabèta	-12.0425
▁diagnostic	-12.0425
▁episcopal	-12.0425
▁magdalenian	-12.0425
▁vinhairons	-12.0425
dolphe	-12.0425
▁subreviure	-12.0425
▁tradition	-12.0425
▁tranquil	-12.0425
amnistia	-12.0425
▁auxiliar	-12.0425
▁tombèt	-12.0425
=594	-12.0425
▁recebon	-12.0425
▁olandesa	-12.0425
▁moissal	-12.0425
▁nikola	-12.0425
=251	-12.0425
▁substrat	-12.0425
antibiotic	-12.0425
=669	-12.0425
=692	-12.0425
=237	-12.0425
▁alunhat	-12.0425
▁priorat	-12.0425
extincion	-12.0425
▁finançar	-12.0425
▁talhièr	-12.0425
▁incorporada	-12.0425
▁cremona	-12.0425
="711	-12.0426
="721	-12.0426
="582	-12.0427
="221	-12.0429
=651	-12.0429
=584	-12.0431
="592	-12.0437
=675	-12.0438
▁cinq	-12.0439
=608	-12.044
=575	-12.044
=592	-12.044
="575	-12.0442
escalfa	-12.0442
ntrèron	-12.0454
=462	-12.0461
filosofia	-12.0462
afluent	-12.0462
=682	-12.0467
="492	-12.0474
▁identifi	-12.0477
=430	-12.0495
="462	-12.0507
="309	-12.0516
efectu	-12.054
assimilacion	-12.0562
="682	-12.0569
▁abitual	-12.0601
toulouse	-12.0606
▁indirècta	-12.0606
=711	-12.0606
=721	-12.0606
▁beaucoup	-12.0606
▁neandertal	-12.0606
▁segregacion	-12.0606
▁signifie	-12.0606
▁sinagòga	-12.0606
amazonas	-12.0606
▁territoriau	-12.0606
enclinason	-12.0606
▁batalhon	-12.0606
▁festival	-12.0606
▁vàder	-12.0606
▁jersei	-12.0606
▁melodia	-12.0606
▁tarascon	-12.0606
▁tèxas	-12.0606
▁perfèct	-12.0606
=582	-12.0606
esmogudas	-12.0606
francmaçon	-12.0606
=221	-12.0606
▁silenci	-12.0606
lengües	-12.0607
=205	-12.0607
enebiment	-12.0607
tiéner	-12.0607
▁apondut	-12.0607
▁iniciada	-12.0608
="387	-12.0609
="659	-12.061
="624	-12.061
=492	-12.061
modalitat	-12.0611
esclav	-12.0618
=713	-12.0624
=467	-12.0634
="713	-12.0641
divinitat	-12.0647
antoine	-12.0647
domeni	-12.0649
="591	-12.0651
exclusion	-12.068
▁correspon	-12.0695
▁dirèct	-12.0709
estrée	-12.0714
encontre	-12.0726
="467	-12.0758
exercir	-12.0774
▁tòrt	-12.0781
amassè	-12.0782
escandinàvia	-12.0792
immigrants	-12.0792
impossibilitat	-12.0792
meteorologia	-12.0792
ozbequistan	-12.0792
▁càncer	-12.0792
▁demostracion	-12.0792
▁disponibla	-12.0792
▁manufactura	-12.0792
▁michigan	-12.0792
▁miélher	-12.0792
▁municipau	-12.0792
▁punycode	-12.0792
▁rohlfs	-12.0792
œuvre	-12.0792
▁capitular	-12.0792
▁gòrjas	-12.0792
▁petroliera	-12.0792
▁reprimida	-12.0792
=387	-12.0792
▁virgili	-12.0792
egleisa	-12.0792
▁replanat	-12.0792
▁abondant	-12.0792
▁baloard	-12.0792
=624	-12.0792
=659	-12.0792
▁mazarin	-12.0792
▁ferrée	-12.0792
▁promotor	-12.0792
▁rescontrè	-12.0792
▁cameros	-12.0792
▁sarrasins	-12.0792
▁muscles	-12.0792
▁tactica	-12.0792
▁farmacia	-12.0792
="731	-12.0793
▁mutuala	-12.0793
ofrir	-12.0795
=591	-12.0795
=273	-12.0796
▁conquesta	-12.0796
▁rurau	-12.0797
=752	-12.0798
•	-12.1629
~	-12.6945
└	-13.5326
├	-13.5327
│	-13.5328
<	-13.5329
}	-13.5329
