<unk>	0
<s>	0
</s>	0
.	-3.35833
,	-3.46812
▁w	-3.6322
a	-3.99928
▁	-4.0326
y	-4.32974
▁i	-4.36642
▁z	-4.49033
▁na	-4.63257
e	-4.71564
u	-4.73275
▁do	-4.84553
m	-4.8972
▁się	-4.94108
o	-5.03047
ch	-5.04743
i	-5.04836
▁(	-5.13726
ów	-5.31462
▁po	-5.40304
c	-5.44599
em	-5.49967
j	-5.50547
ą	-5.54999
"	-5.57011
▁od	-5.57606
▁nie	-5.58771
▁jest	-5.59258
▁a	-5.60672
▁"	-5.61421
▁o	-5.63799
ę	-5.64299
▁za	-5.65461
s	-5.79192
ie	-5.79541
ł	-5.80712
▁–	-5.82542
▁##	-5.82814
w	-5.85138
li	-5.85762
na	-5.86542
z	-5.87141
)	-5.8984
:	-5.92724
▁przez	-5.95058
nie	-5.95547
t	-5.99689
d	-6.01953
ej	-6.02631
-	-6.03184
▁roku	-6.05294
go	-6.069
▁to	-6.07244
mi	-6.07544
▁„	-6.079
k	-6.08167
▁u	-6.10503
ego	-6.11723
n	-6.1394
ach	-6.16884
▁oraz	-6.18186
ne	-6.20535
).	-6.27751
ni	-6.28161
ami	-6.28305
▁że	-6.30527
="	-6.32062
▁pod	-6.3279
ć	-6.33362
p	-6.33461
ła	-6.35517
g	-6.3871
ki	-6.39556
▁przy	-6.44338
ka	-6.44361
),	-6.45294
doc	-6.45754
ych	-6.47231
>	-6.47314
▁m	-6.47692
in	-6.48635
▁r	-6.49183
▁są	-6.5212
nia	-6.52971
no	-6.60564
ny	-6.6088
ło	-6.61547
▁jako	-6.62026
▁s	-6.64323
▁prze	-6.6502
▁jego	-6.65946
b	-6.6625
”	-6.67564
/	-6.69039
▁ma	-6.70218
owe	-6.71088
owych	-6.71829
ce	-6.72684
l	-6.74266
r	-6.74298
▁jak	-6.74998
ta	-6.75249
ia	-6.75329
le	-6.75833
▁dla	-6.7596
▁tym	-6.78627
▁był	-6.80608
▁co	-6.81246
ż	-6.81675
ty	-6.82693
▁także	-6.83954
pl	-6.84055
▁lub	-6.85901
cie	-6.8969
▁ze	-6.89949
▁p	-6.93481
nych	-6.95442
po	-6.98414
▁18	-6.98693
ły	-6.997
owa	-7.00904
zy	-7.01962
ną	-7.02296
ym	-7.02346
▁jednak	-7.02448
za	-7.03216
wa	-7.03301
owy	-7.03712
cy	-7.04194
ją	-7.04635
sz	-7.06661
ek	-7.08704
ies	-7.08734
ra	-7.09525
?	-7.09583
owej	-7.10644
org	-7.11979
▁który	-7.12458
;	-7.13117
ci	-7.13503
▁które	-7.13705
▁id	-7.13875
wiki	-7.13893
wi	-7.14329
wikipedia	-7.15117
▁url	-7.15804
://	-7.16247
https	-7.16363
title	-7.16509
▁<	-7.16514
urid	-7.16573
▁categor	-7.16625
▁został	-7.16653
▁</	-7.1675
▁również	-7.17427
▁tego	-7.18128
",	-7.18766
ku	-7.18886
ś	-7.19651
=""	-7.19725
▁roz	-7.2065
▁1	-7.20755
st	-7.21499
f	-7.22447
▁formula	-7.22784
da	-7.23197
▁re	-7.24157
ro	-7.24298
owi	-7.25682
od	-7.27213
▁nad	-7.27283
▁de	-7.27736
ma	-7.28339
la	-7.29753
owego	-7.29904
om	-7.30494
ur	-7.31512
▁wieku	-7.31531
bi	-7.32763
czy	-7.33495
▁jej	-7.34235
te	-7.34855
▁ich	-7.34855
▁k	-7.35515
cz	-7.35569
ko	-7.35695
to	-7.36344
er	-7.37127
uje	-7.37366
ii	-7.37377
wy	-7.37772
▁miasta	-7.38275
dzie	-7.38736
▁też	-7.39057
▁lat	-7.39478
ow	-7.39597
▁przed	-7.42055
ca	-7.42165
nego	-7.43458
ową	-7.44106
nej	-7.44353
ska	-7.44883
rze	-7.45332
▁go	-7.45422
▁czy	-7.45912
ga	-7.46054
▁ta	-7.46207
▁2	-7.46731
▁była	-7.4685
▁latach	-7.47464
▁ten	-7.48309
de	-7.49264
”.	-7.49392
ał	-7.50225
▁te	-7.50365
wie	-7.50645
re	-7.51489
dy	-7.51596
▁było	-7.51667
▁kon	-7.52532
ków	-7.53057
▁bo	-7.53122
tu	-7.53436
je	-7.54551
by	-7.55853
▁pro	-7.55855
gi	-7.5592
owym	-7.56559
ar	-7.56984
▁być	-7.60363
▁3	-7.60596
zna	-7.60647
_	-7.6122
bo	-7.61337
▁ob	-7.61397
▁ale	-7.61557
or	-7.61825
▁były	-7.61868
▁ka	-7.62897
ści	-7.63052
▁może	-7.63308
acji	-7.63412
enia	-7.63725
ze	-7.64768
".	-7.64877
dzi	-7.65292
▁między	-7.65821
ń	-7.66249
nym	-7.66866
sa	-7.67105
owie	-7.676
jąc	-7.68484
do	-7.6884
h	-7.70211
▁można	-7.70457
▁ko	-7.70728
▁według	-7.7093
=	-7.71361
al	-7.72074
ba	-7.72431
▁która	-7.73163
▁tylko	-7.73625
enie	-7.73708
▁podczas	-7.74281
▁("	-7.74354
▁d	-7.75104
an	-7.75443
fi	-7.75552
en	-7.75832
”,	-7.75941
▁4	-7.76593
▁bez	-7.76737
▁g	-7.76803
ował	-7.77039
▁ba	-7.77308
my	-7.77508
us	-7.78413
ter	-7.7871
niu	-7.79772
▁tej	-7.79856
▁tak	-7.8019
cze	-7.80503
▁których	-7.81056
▁e	-7.81127
x	-7.81301
is	-7.81438
iem	-7.81481
▁już	-7.82214
▁in	-7.82485
one	-7.82586
▁17	-7.82596
▁ok	-7.83073
owo	-7.83289
▁b	-7.8377
mu	-7.84708
▁innych	-7.84741
▁ha	-7.85214
▁je	-7.85434
00	-7.8557
▁gdzie	-7.85693
▁polski	-7.86499
cja	-7.86693
ja	-7.87651
ować	-7.88632
sta	-7.88746
ry	-7.88945
ania	-7.89138
▁np	-7.89497
▁15	-7.89564
ką	-7.89773
pi	-7.89777
▁niż	-7.91069
▁praw	-7.91165
▁około	-7.91256
on	-7.92032
lo	-7.92175
ży	-7.92302
kę	-7.92319
–	-7.92383
owania	-7.92457
▁części	-7.928
▁czasie	-7.92861
▁została	-7.93184
sty	-7.93328
kon	-7.93351
▁gdy	-7.93512
ości	-7.9433
skiego	-7.94573
▁5	-7.94834
▁nich	-7.95021
nik	-7.95423
▁16	-7.95473
si	-7.95605
▁c	-7.95806
▁mi	-7.95961
br	-7.96529
2	-7.96561
cza	-7.96668
▁12	-7.97089
▁10	-7.97095
v	-7.97189
▁tych	-7.9725
▁pi	-7.97369
▁część	-7.97589
▁później	-7.9812
ali	-7.98368
cji	-7.98432
’	-7.99161
at	-7.9954
▁miasto	-7.99671
▁mu	-8.00002
pa	-8.00135
▁ja	-8.00257
▁której	-8.00789
ję	-8.01627
ski	-8.01765
▁on	-8.0222
▁sta	-8.0336
▁polsce	-8.035
szy	-8.03851
ość	-8.04405
▁gór	-8.04519
ię	-8.0508
▁wiele	-8.05531
▁km	-8.05552
▁ziemi	-8.05803
sze	-8.06183
▁al	-8.06393
szcz	-8.06536
▁system	-8.06863
▁ar	-8.07249
ona	-8.07324
▁ii	-8.07386
▁wojny	-8.07433
el	-8.07795
▁6	-8.08128
sza	-8.08233
▁często	-8.08259
")	-8.09053
ob	-8.09345
▁li	-8.09591
su	-8.09916
▁którym	-8.104
tów	-8.10508
im	-8.1051
os	-8.10606
▁bardzo	-8.10886
▁wielu	-8.11107
▁we	-8.11328
str	-8.12338
▁nazwa	-8.12597
acja	-8.13011
ul	-8.13748
sk	-8.14068
▁kar	-8.14163
▁pierwszy	-8.14472
praw	-8.14487
▁mo	-8.14578
ier	-8.14699
▁państwa	-8.14961
▁którego	-8.15055
lu	-8.15067
▁rząd	-8.15488
▁kraju	-8.15496
▁wraz	-8.15587
▁miejsce	-8.15752
ks	-8.15849
▁osób	-8.15918
pro	-8.16297
ność	-8.165
▁miał	-8.16774
▁język	-8.16826
czon	-8.16866
▁św	-8.17077
▁so	-8.17729
rod	-8.1796
sko	-8.18117
3	-8.18207
▁tu	-8.18454
▁naj	-8.18486
▁se	-8.18614
▁znajduje	-8.18824
▁tys	-8.19177
kiem	-8.19229
ując	-8.19695
▁spraw	-8.19755
skiej	-8.19803
ono	-8.20219
▁9	-8.20251
▁stanowi	-8.2045
ymi	-8.20566
owanie	-8.20679
▁sposób	-8.20846
wo	-8.20855
▁n	-8.20947
▁natomiast	-8.21704
▁le	-8.21846
5	-8.21875
▁mają	-8.22172
▁8	-8.22594
▁7	-8.22666
▁nauk	-8.22787
um	-8.22833
zi	-8.23184
ri	-8.23205
▁sz	-8.23596
cia	-8.23823
▁dwa	-8.24557
▁sam	-8.24575
tor	-8.24805
eń	-8.24916
▁skład	-8.2522
▁14	-8.26582
▁trzy	-8.26772
▁okresie	-8.26787
▁11	-8.26892
▁op	-8.26905
▁t	-8.27157
ź	-8.27468
▁następnie	-8.27575
ść	-8.27774
zie	-8.27798
sie	-8.27971
▁inne	-8.27982
▁gra	-8.2819
▁wpływ	-8.28332
▁sa	-8.28598
▁by	-8.2881
▁państw	-8.28837
▁ponad	-8.28875
▁da	-8.29046
niem	-8.29184
▁wyda	-8.29233
▁la	-8.29349
–19	-8.29351
▁mogą	-8.29618
▁tzw	-8.29621
un	-8.29635
ności	-8.29888
ing	-8.30191
▁13	-8.305
▁ro	-8.30558
wod	-8.30636
sy	-8.3132
we	-8.31412
▁życia	-8.32095
▁lecz	-8.32209
ol	-8.32326
▁(19	-8.32831
▁lud	-8.32841
▁l	-8.33023
ują	-8.33032
▁pa	-8.33097
że	-8.33153
ór	-8.3332
sto	-8.33466
▁su	-8.33655
owane	-8.33721
th	-8.34059
▁wśród	-8.34261
skie	-8.34431
du	-8.34758
▁oznacza	-8.34826
▁aby	-8.34837
ad	-8.35119
▁zostały	-8.35201
▁przeciw	-8.3521
▁kilka	-8.35216
ać	-8.35322
ak	-8.35366
▁tra	-8.35385
▁mieszkańców	-8.35718
▁głównie	-8.36052
▁obecnie	-8.36198
cję	-8.36257
zenia	-8.36627
es	-8.36808
tur	-8.36988
▁xx	-8.37019
sp	-8.3745
▁śmierci	-8.37541
▁dzięki	-8.37629
rzy	-8.37979
▁czyli	-8.38029
▁zaś	-8.38259
▁nawet	-8.38384
▁20	-8.38588
et	-8.38663
ó	-8.38772
▁tam	-8.39077
▁dwóch	-8.39491
rz	-8.39809
co	-8.40094
▁przykład	-8.40211
▁wszystkich	-8.40345
ha	-8.40383
▁względu	-8.40752
czną	-8.40837
wał	-8.40938
▁19	-8.41118
▁mar	-8.41285
▁języka	-8.41334
zenie	-8.41557
▁sp	-8.41578
▁większość	-8.41709
▁jeszcze	-8.4182
kami	-8.4248
anie	-8.4249
war	-8.42703
▁kor	-8.42738
▁program	-8.4287
ru	-8.43047
1	-8.43334
▁si	-8.43464
czna	-8.43492
▁jednym	-8.4351
se	-8.43815
gu	-8.43844
▁jeden	-8.43874
▁terenie	-8.43879
▁celu	-8.43887
skich	-8.43974
jących	-8.44027
fa	-8.44043
man	-8.44103
iz	-8.44635
owany	-8.44925
ator	-8.45
▁pan	-8.45004
tar	-8.45078
▁posiada	-8.45262
wia	-8.45346
▁postaci	-8.45402
wol	-8.45624
▁wszystkie	-8.45628
vi	-8.46278
▁udział	-8.46313
▁lu	-8.46333
▁ku	-8.46616
ot	-8.46624
skim	-8.46915
▁wyniku	-8.46999
▁czas	-8.47132
▁grupy	-8.47226
ską	-8.47366
ację	-8.47513
▁plan	-8.47534
eniu	-8.4783
▁powierzchni	-8.48125
▁polskiego	-8.48477
▁okres	-8.49134
▁używa	-8.49253
▁per	-8.4926
▁pas	-8.49353
0	-8.49693
▁samym	-8.49831
ok	-8.49835
▁fi	-8.49954
ając	-8.50106
▁ho	-8.50147
▁mas	-8.50446
▁nim	-8.50767
▁określa	-8.50854
ład	-8.50865
4	-8.50964
id	-8.50998
ony	-8.5115
▁samo	-8.51531
▁jedynie	-8.51596
lar	-8.51597
jący	-8.51776
ment	-8.51784
den	-8.5183
np	-8.52172
▁h	-8.52217
▁kiedy	-8.52269
▁sił	-8.52384
▁związku	-8.52729
▁raz	-8.52772
dz	-8.52998
6	-8.53062
").	-8.53178
▁poza	-8.53196
bor	-8.53265
▁di	-8.53323
▁kraj	-8.53424
▁września	-8.53598
▁takie	-8.53626
ina	-8.53896
cą	-8.54303
wiąz	-8.54348
▁pierwsze	-8.5446
▁liczba	-8.54536
▁jedno	-8.54572
bie	-8.54619
▁fa	-8.54707
▁gro	-8.54832
nika	-8.54858
▁bi	-8.54919
▁należy	-8.55167
▁zostało	-8.5521
ti	-8.55287
▁początku	-8.55703
▁bu	-8.55913
▁pomiędzy	-8.56032
▁różnych	-8.56203
▁30	-8.56262
gra	-8.56278
▁wówczas	-8.56319
me	-8.56371
pie	-8.56514
stan	-8.56707
▁ga	-8.56795
▁film	-8.57242
▁pra	-8.57468
▁przypadku	-8.57487
nu	-8.57591
▁par	-8.57618
"),	-8.57634
▁he	-8.57762
▁bardziej	-8.5797
_1	-8.58071
▁liczby	-8.58149
gen	-8.58161
ge	-8.58477
ir	-8.58757
▁którzy	-8.58781
▁star	-8.588
▁spo	-8.58963
▁polskiej	-8.5909
▁polskich	-8.59254
eni	-8.5937
▁więc	-8.59652
▁najbardziej	-8.59708
owali	-8.59845
der	-8.60032
é	-8.60147
stwa	-8.60559
zą	-8.6065
▁prawa	-8.60701
era	-8.60726
▁autor	-8.61209
ił	-8.61249
▁grudnia	-8.61365
god	-8.61429
gr	-8.61455
czne	-8.61463
▁xix	-8.61644
▁or	-8.61721
par	-8.61731
▁pr	-8.61758
▁światowej	-8.61927
mar	-8.61998
izm	-8.62066
▁v	-8.62218
▁ludności	-8.62239
jące	-8.62317
▁świecie	-8.62354
▁ci	-8.62357
▁ją	-8.62361
▁nazywa	-8.62424
lon	-8.62462
tw	-8.62506
per	-8.62602
▁pracy	-8.62826
▁im	-8.62855
ią	-8.62884
▁król	-8.62943
zo	-8.62981
onych	-8.63041
▁stan	-8.63518
▁syn	-8.63541
20	-8.63568
▁port	-8.63581
pol	-8.63799
▁armii	-8.63849
50	-8.63914
dr	-8.63943
▁poprzez	-8.64076
▁obraz	-8.6413
kry	-8.64371
▁mieście	-8.64372
czą	-8.64632
il	-8.64646
ent	-8.64715
tra	-8.64766
aty	-8.64777
▁ludzi	-8.65002
▁kom	-8.65267
▁proces	-8.6532
10	-8.65572
▁ru	-8.65588
owski	-8.65679
▁innymi	-8.65688
kowa	-8.65761
▁zarówno	-8.65807
▁strony	-8.65846
twor	-8.65978
11	-8.6598
▁sierpnia	-8.65995
fer	-8.66188
▁klasy	-8.66264
▁pre	-8.66299
zu	-8.66397
szą	-8.66433
cją	-8.66442
▁one	-8.66799
it	-8.6691
▁stał	-8.67089
cznie	-8.6718
▁pis	-8.67239
ników	-8.67315
▁danych	-8.67441
▁be	-8.67569
▁czerwca	-8.67628
ców	-8.67645
▁koniec	-8.6816
▁prawo	-8.68259
▁centrum	-8.68342
kr	-8.68381
nymi	-8.68589
ckiego	-8.68697
▁takich	-8.68841
por	-8.69078
▁rad	-8.69181
▁sobie	-8.69217
▁dwie	-8.69398
▁typu	-8.69501
daw	-8.6966
▁ak	-8.69663
▁stycznia	-8.69785
ber	-8.6982
▁ponieważ	-8.69906
▁mor	-8.70122
ck	-8.7024
▁swoje	-8.70423
▁kilku	-8.7053
ste	-8.70653
▁iii	-8.71016
icznych	-8.71021
prze	-8.71115
▁wszystkim	-8.71127
▁lata	-8.71328
ger	-8.71441
ll	-8.71593
▁prac	-8.71749
pu	-8.71752
▁województwa	-8.71886
▁byli	-8.71961
▁maja	-8.72109
tek	-8.72202
ang	-8.72231
▁ruch	-8.72295
ana	-8.7237
▁ni	-8.72478
▁lipca	-8.72508
▁kolej	-8.72527
▁gen	-8.72581
▁ponadto	-8.72588
ian	-8.72616
tr	-8.73141
▁zmian	-8.73157
▁ona	-8.73197
▁świata	-8.73201
ienia	-8.73218
▁mln	-8.73365
▁ży	-8.73522
nicy	-8.73907
owano	-8.73908
7	-8.74212
▁układ	-8.74234
śl	-8.74416
▁wobec	-8.74503
ut	-8.74606
alne	-8.7476
8	-8.74844
op	-8.74943
▁jan	-8.75025
▁typ	-8.75226
▁me	-8.75251
▁powodu	-8.75405
▁choć	-8.75518
▁względem	-8.75521
▁historia	-8.75643
▁stanu	-8.75744
13	-8.75795
▁dzieci	-8.75849
ton	-8.75942
▁transport	-8.75975
▁działania	-8.76067
iczne	-8.76069
pe	-8.76265
ler	-8.76431
rów	-8.76613
▁otrzymał	-8.7667
nię	-8.76871
▁wynosi	-8.76889
nę	-8.7689
lan	-8.76919
ić	-8.76939
▁czasu	-8.76957
kom	-8.76988
▁nowo	-8.77094
aż	-8.77352
▁dni	-8.77365
▁października	-8.77464
▁wielo	-8.77533
ien	-8.77702
▁zawiera	-8.77816
▁wcześniej	-8.78114
▁os	-8.78322
łu	-8.78769
sł	-8.78784
▁wojska	-8.78801
wal	-8.78944
▁wartości	-8.78984
ety	-8.79185
▁wojsk	-8.79316
▁przemysł	-8.79322
jon	-8.79329
▁boga	-8.79681
kach	-8.79876
▁zasad	-8.79926
▁niego	-8.80122
14	-8.80244
▁istnieje	-8.80318
ant	-8.80681
ld	-8.80681
acje	-8.80853
kra	-8.80881
17	-8.81043
▁organ	-8.8123
▁osad	-8.81482
▁f	-8.81514
nic	-8.81715
▁miała	-8.81818
ście	-8.82057
owanych	-8.82244
owymi	-8.8249
ane	-8.82576
ium	-8.82687
alnych	-8.82756
▁prób	-8.82848
ńska	-8.82864
▁miast	-8.83027
▁komputer	-8.83047
▁bar	-8.83065
land	-8.83174
▁sto	-8.83186
▁dopiero	-8.83188
wart	-8.83203
▁termin	-8.83354
▁wtedy	-8.83401
▁wykona	-8.83404
▁rok	-8.83649
▁mimo	-8.83688
▁swoich	-8.83811
▁badania	-8.83946
▁opis	-8.84026
▁lo	-8.84123
▁niektórych	-8.84231
ża	-8.84254
alny	-8.84383
zor	-8.84385
izmu	-8.84415
▁jeśli	-8.84442
sław	-8.84525
▁należą	-8.84534
▁dy	-8.84759
12	-8.84845
pis	-8.8486
▁ul	-8.849
(	-8.85019
▁roślin	-8.85357
▁x	-8.85451
ve	-8.85642
lin	-8.85789
min	-8.85822
owana	-8.85856
▁marca	-8.85893
30	-8.8596
▁uważa	-8.8597
▁powstania	-8.8621
▁podział	-8.86225
▁języku	-8.86462
▁występują	-8.86556
▁nazwy	-8.86687
usz	-8.86878
▁czym	-8.86927
oni	-8.86946
▁gu	-8.87036
son	-8.87045
cznego	-8.87161
▁znajdują	-8.87243
nt	-8.87291
so	-8.87402
▁mieszka	-8.87485
▁rozwoju	-8.87504
▁pierwszym	-8.87559
▁listopada	-8.87568
ho	-8.87691
▁tytuł	-8.87722
tyn	-8.87746
▁form	-8.87812
czu	-8.8791
▁wysp	-8.88026
wali	-8.88057
ńskiego	-8.88111
ają	-8.88205
kt	-8.88232
sku	-8.8824
leg	-8.88266
▁hu	-8.88343
▁charakter	-8.88353
mer	-8.8838
▁początkowo	-8.88397
▁kościoła	-8.88449
any	-8.88463
▁rolę	-8.88525
▁występuje	-8.88914
owała	-8.89067
kre	-8.89226
▁25	-8.89393
▁więcej	-8.89439
▁anty	-8.89516
▁walki	-8.89597
tyczne	-8.89736
▁gaz	-8.89811
pad	-8.89814
ion	-8.901
nos	-8.90102
as	-8.90134
▁her	-8.90172
bu	-8.90277
nów	-8.90311
▁pu	-8.904
letni	-8.90464
▁cen	-8.90668
▁kultur	-8.90852
cka	-8.9087
woł	-8.90906
stwo	-8.90965
di	-8.91023
▁niej	-8.91066
▁ros	-8.91077
▁gł	-8.91243
▁ani	-8.91323
fe	-8.91438
▁pomocą	-8.91445
▁grup	-8.91463
▁niektóre	-8.91686
▁vi	-8.91714
▁ty	-8.91728
▁miały	-8.9189
▁powstał	-8.91973
▁najczęściej	-8.91994
▁większości	-8.92016
▁historii	-8.92227
▁filozof	-8.92242
czny	-8.92263
▁sch	-8.92399
▁głos	-8.92434
▁działa	-8.92582
▁cał	-8.92585
▁drugiej	-8.92709
iel	-8.92753
staw	-8.92945
pr	-8.92994
owców	-8.93105
kar	-8.9335
▁człowieka	-8.93407
▁kultury	-8.93433
▁jedną	-8.93468
▁kwietnia	-8.93695
▁życie	-8.93751
dni	-8.93845
▁partii	-8.9385
▁osoby	-8.9385
▁wynika	-8.93984
be	-8.94253
▁przede	-8.94279
iu	-8.94302
ujących	-8.94362
tom	-8.94388
ner	-8.94529
▁świat	-8.94563
cych	-8.94776
ró	-8.94795
tel	-8.9481
win	-8.94888
rząd	-8.94912
▁podstawie	-8.95122
cki	-8.95135
▁gdyż	-8.95311
90	-8.95387
▁oper	-8.95415
duk	-8.95519
19	-8.95524
▁zgodnie	-8.95564
▁temat	-8.95915
▁podobnie	-8.96158
▁obszar	-8.9616
▁odpowiedni	-8.96193
▁granic	-8.96265
▁punkt	-8.96414
ic	-8.9643
▁ca	-8.96571
▁tur	-8.96574
▁rzecz	-8.96845
ng	-8.96898
ss	-8.96978
ński	-8.96985
15	-8.97022
▁aż	-8.97121
tan	-8.97163
cznych	-8.97238
▁trzech	-8.97308
▁poli	-8.97362
80	-8.97414
zki	-8.97504
głos	-8.9754
og	-8.97687
ster	-8.97691
▁kolei	-8.97787
▁znaczenie	-8.97801
pt	-8.97898
mp	-8.97954
wać	-8.97978
▁władzy	-8.98023
cyjne	-8.98077
and	-8.98172
wer	-8.98204
pełni	-8.98323
▁wody	-8.98327
▁jednocześnie	-8.98342
▁polskie	-8.9837
▁ju	-8.9845
▁chor	-8.98642
▁dnia	-8.98657
▁systemu	-8.98735
▁trzeci	-8.98769
acją	-8.9887
▁słowa	-8.99046
▁of	-8.9906
les	-8.9911
▁linii	-8.99129
form	-8.99175
yl	-8.99288
hi	-8.9939
▁cz	-8.99416
ran	-8.99515
▁którą	-8.99558
▁będzie	-8.99559
ps	-8.99591
▁zjednoczonych	-8.99613
▁różne	-8.99624
▁broni	-8.99731
▁ł	-8.99773
▁swoją	-8.99804
▁dwu	-8.99806
▁tę	-8.99845
▁projekt	-9.00063
▁władz	-9.00189
tę	-9.00234
ser	-9.00279
▁ciągu	-9.00282
tk	-9.00357
▁mniej	-9.00553
▁zawod	-9.00849
▁rozwój	-9.01204
ciąg	-9.01357
▁siły	-9.01367
szko	-9.01429
tem	-9.0147
eniem	-9.01506
▁50	-9.01511
18	-9.01512
▁jednego	-9.01538
ała	-9.01572
▁polska	-9.01673
▁wiek	-9.01699
▁no	-9.01799
▁uni	-9.01815
▁100	-9.02036
mor	-9.02248
▁funkcji	-9.02288
tki	-9.02444
9	-9.02527
cer	-9.02718
ros	-9.02939
▁wysoki	-9.0305
▁znacznie	-9.03079
▁produkcji	-9.0313
▁śląsk	-9.03141
▁pochodzi	-9.03194
ujące	-9.03195
▁wymaga	-9.03216
60	-9.03232
▁region	-9.03256
▁prawdopodobnie	-9.03299
▁zapis	-9.03305
=1	-9.03399
ron	-9.03494
fr	-9.03527
stą	-9.03557
▁model	-9.0356
ji	-9.03664
biał	-9.03675
▁000	-9.03703
▁kr	-9.0373
▁istnieją	-9.03736
▁warszawie	-9.04065
▁pie	-9.04175
▁ramach	-9.04268
▁współ	-9.04322
▁nowe	-9.04331
mieści	-9.04384
now	-9.04445
gł	-9.04487
▁ne	-9.04516
▁pe	-9.04566
ciu	-9.04785
0%	-9.04839
ologia	-9.04932
▁gre	-9.05134
▁charakterysty	-9.05146
▁gi	-9.05212
▁fl	-9.05215
leż	-9.05349
▁zmarł	-9.0541
ist	-9.06024
▁wyraz	-9.06038
cznej	-9.06178
▁stanie	-9.06233
▁ser	-9.06271
▁iż	-9.0628
▁wys	-9.06338
▁(18	-9.06377
▁lutego	-9.06408
▁języków	-9.06466
▁ustaw	-9.06586
▁teorii	-9.06659
%	-9.06761
rot	-9.06764
owskiego	-9.06875
owaniu	-9.07082
▁brytyjski	-9.07113
równa	-9.07168
▁metod	-9.07185
▁połowie	-9.07195
men	-9.07231
▁siebie	-9.07372
▁kościół	-9.07454
▁fakt	-9.07648
tą	-9.07836
ckiej	-9.08039
▁zwykle	-9.0807
▁standard	-9.08072
bl	-9.08116
▁bud	-9.08222
▁głównym	-9.08301
mon	-9.08517
gro	-9.08523
▁czego	-9.08631
▁swoim	-9.08695
▁ostatecznie	-9.08784
cu	-9.08934
pan	-9.09016
niejszy	-9.0903
lnym	-9.09031
▁hi	-9.0905
wanie	-9.09078
▁kolejne	-9.0909
▁przeciwko	-9.09279
▁organizacji	-9.09335
45	-9.09359
▁albo	-9.09411
▁oprócz	-9.09468
▁szczególnie	-9.09514
▁cesarz	-9.09518
▁mal	-9.09533
gan	-9.09552
▁problem	-9.09601
▁cha	-9.09816
wania	-9.09921
ich	-9.09921
ologii	-9.10194
▁nazwę	-9.10272
▁ciąg	-9.10295
▁en	-9.10383
▁wojnie	-9.10406
śnie	-9.1041
▁san	-9.10508
▁miało	-9.10696
ój	-9.10734
wierz	-9.10748
mierz	-9.10775
▁mag	-9.10858
▁sukces	-9.10863
▁miejsc	-9.10991
▁sport	-9.11044
▁zwłaszcza	-9.11221
▁liczb	-9.1124
▁europie	-9.11245
25	-9.11261
▁ostatni	-9.11352
▁sąd	-9.11395
▁mówi	-9.11398
▁norm	-9.11634
szych	-9.1167
▁gwiazd	-9.11678
39	-9.11686
▁znalazł	-9.11689
▁doszło	-9.11697
▁swojej	-9.11752
ały	-9.1189
szcze	-9.11929
sen	-9.12145
ew	-9.12169
▁europy	-9.12251
▁żołnierzy	-9.12434
▁sko	-9.12475
▁prawie	-9.12476
▁kl	-9.1248
▁podstaw	-9.12503
▁znaczn	-9.12503
rzę	-9.12554
▁związane	-9.126
the	-9.12715
5%	-9.12775
▁szereg	-9.12894
▁dokument	-9.12895
▁tekst	-9.12937
moc	-9.13039
tycznych	-9.13115
zja	-9.13119
▁średni	-9.13557
aniu	-9.13607
64	-9.13754
▁ruchu	-9.13761
mat	-9.13788
▁maszyn	-9.1387
kie	-9.13877
metr	-9.1389
▁bada	-9.13962
emu	-9.13966
▁francji	-9.1405
bran	-9.14081
ff	-9.14294
▁stanowią	-9.14426
▁rod	-9.1447
▁jednej	-9.14589
▁gdańsk	-9.14639
▁tysięcy	-9.14681
ano	-9.14771
▁działalność	-9.14784
dat	-9.14844
▁musi	-9.14875
33	-9.1492
nd	-9.14936
lne	-9.1504
95	-9.15042
▁and	-9.15054
▁baz	-9.15181
▁klub	-9.15231
▁grupa	-9.15352
▁pół	-9.15411
bier	-9.15458
▁gor	-9.15471
lot	-9.15635
budowa	-9.15637
▁wielkiej	-9.15669
▁prezydent	-9.15782
sh	-9.15809
▁duże	-9.15842
▁22	-9.15941
'	-9.16103
bel	-9.16139
▁pierwszych	-9.16159
38	-9.16178
bud	-9.16202
eli	-9.16237
rę	-9.16322
▁jana	-9.16375
▁cel	-9.16468
▁trakcie	-9.16502
va	-9.16512
▁liczne	-9.16568
▁izrael	-9.16695
▁rady	-9.16697
▁kop	-9.16948
▁terytorium	-9.16986
▁rodzin	-9.17092
▁dlatego	-9.17151
czyn	-9.17192
1"	-9.17243
▁reform	-9.1727
▁radio	-9.17349
zon	-9.17396
▁pol	-9.17463
▁1939	-9.17593
alnej	-9.17656
▁przestrzeni	-9.17692
bit	-9.17729
▁ki	-9.17821
▁sieci	-9.17824
ö	-9.17864
▁ang	-9.17914
▁et	-9.17966
bur	-9.18093
16	-9.18107
▁eks	-9.18203
▁samego	-9.1823
40	-9.18244
34	-9.18365
▁nr	-9.18479
▁składa	-9.18501
21	-9.18555
▁bra	-9.18578
▁brak	-9.18713
▁teatr	-9.18718
▁stron	-9.1875
▁cy	-9.18808
zone	-9.18905
48	-9.19025
]	-9.19119
▁państwo	-9.19134
zeń	-9.19288
przy	-9.19303
99	-9.19333
▁lek	-9.19353
jącego	-9.19384
▁drzew	-9.19454
▁pełni	-9.19466
▁jednostki	-9.19743
sił	-9.1975
▁the	-9.19766
▁fe	-9.19869
▁walk	-9.19882
▁fran	-9.19892
65	-9.19911
▁tworzy	-9.19976
dział	-9.20071
▁usa	-9.20119
2"	-9.20139
ret	-9.20167
szu	-9.20227
▁lit	-9.20238
▁ilości	-9.20265
nios	-9.20269
▁badań	-9.20293
for	-9.20304
res	-9.20366
▁stała	-9.20443
▁węgla	-9.20572
▁24	-9.20585
75	-9.20827
▁kobiet	-9.20849
9"	-9.20855
▁niemiec	-9.20863
▁biskup	-9.20913
ujący	-9.20984
▁atom	-9.21021
▁największe	-9.2105
zony	-9.2111
▁nauki	-9.21173
▁duch	-9.21242
3"	-9.21259
kowe	-9.21287
▁powstały	-9.21314
▁jo	-9.21322
36	-9.21388
dl	-9.21458
”)	-9.21574
▁pierwszej	-9.21642
▁du	-9.21729
ńskiej	-9.21867
iusz	-9.21912
▁radziecki	-9.21914
▁rodziny	-9.21956
▁element	-9.21992
▁układu	-9.22148
55	-9.22305
37	-9.22337
gran	-9.22394
70	-9.22396
ńskie	-9.22438
▁us	-9.22505
▁króla	-9.22539
▁znajdował	-9.22579
▁lot	-9.22607
▁szy	-9.22636
▁końca	-9.227
▁szybko	-9.2283
tal	-9.22881
ale	-9.22901
▁północnej	-9.22945
=7	-9.22963
jącej	-9.23037
izacji	-9.23131
8"	-9.23138
▁nowy	-9.23249
▁lin	-9.23266
▁energii	-9.23368
tyka	-9.23424
6"	-9.23433
▁fal	-9.23489
7"	-9.23495
▁pierwszą	-9.23508
▁obu	-9.23631
▁ląd	-9.2367
ns	-9.23704
▁sztuk	-9.23811
jącą	-9.23828
▁1945	-9.23844
▁czasem	-9.23886
ńską	-9.23893
▁znane	-9.23966
4"	-9.24015
▁ponownie	-9.24016
▁ocean	-9.24089
98	-9.241
nictwa	-9.24114
iczny	-9.24201
▁sk	-9.24231
▁polega	-9.24485
24	-9.24618
–18	-9.24684
▁każdy	-9.24694
▁polskim	-9.24699
roz	-9.24704
▁trwał	-9.24706
5"	-9.2478
▁cech	-9.24796
63	-9.2481
▁związek	-9.24866
lec	-9.24912
▁spis	-9.24968
cznym	-9.25014
lit	-9.25065
ik	-9.25291
0"	-9.25358
▁strat	-9.25391
▁rodzaju	-9.25493
ili	-9.25583
▁kształt	-9.25628
szer	-9.25657
▁najmniej	-9.25698
▁północ	-9.25725
nek	-9.25753
bar	-9.25758
▁kierunku	-9.25833
▁zmiany	-9.25893
▁czar	-9.25922
▁róż	-9.25925
▁uzyskał	-9.26005
iego	-9.26034
▁czasów	-9.26165
▁kol	-9.26293
olog	-9.26442
▁kry	-9.26463
01	-9.26536
▁wal	-9.26554
▁razem	-9.26571
lt	-9.26606
gn	-9.26692
▁el	-9.26697
▁przyczyn	-9.27128
▁stanów	-9.27137
▁zło	-9.27169
▁sal	-9.27172
dów	-9.27361
dob	-9.2742
▁elektron	-9.2746
▁21	-9.27461
22	-9.27538
▁szkoły	-9.27638
dził	-9.277
▁war	-9.27726
▁°	-9.27739
▁bądź	-9.27743
46	-9.27745
▁okresu	-9.27823
▁gospodar	-9.27823
zosta	-9.27868
▁członków	-9.27895
jącym	-9.28079
▁godzin	-9.28127
▁pewne	-9.2818
stal	-9.2839
▁krytyk	-9.2839
▁unii	-9.28395
="7	-9.28404
ten	-9.2848
▁swojego	-9.28488
▁sztuki	-9.28521
▁internet	-9.28624
▁(20	-9.28628
▁los	-9.28652
myśl	-9.28658
86	-9.28688
und	-9.28697
trze	-9.2872
68	-9.2872
szym	-9.28819
▁40	-9.28867
▁park	-9.28922
▁23	-9.28988
lla	-9.29021
usa	-9.29022
he	-9.29029
ywał	-9.29046
▁płyt	-9.291
ńskich	-9.29116
▁władze	-9.29162
▁inter	-9.29173
onego	-9.2926
żenia	-9.29313
▁użyt	-9.29353
strzel	-9.29528
▁gmin	-9.29549
▁mm	-9.29581
▁pierwsza	-9.2971
gl	-9.29839
licz	-9.29848
jsze	-9.29889
lub	-9.30045
scy	-9.30177
35	-9.30182
▁28	-9.30242
á	-9.30263
▁skupi	-9.30272
▁okręt	-9.30365
56	-9.30423
ver	-9.30472
ckich	-9.30752
▁miejscu	-9.30768
▁bro	-9.30848
nki	-9.30868
dź	-9.30934
▁południowej	-9.30947
owały	-9.31005
dze	-9.31016
▁ran	-9.31028
się	-9.3103
▁powstała	-9.31075
ō	-9.31154
▁słow	-9.31185
rzeczypospolitej	-9.31266
▁moc	-9.31266
▁staro	-9.31267
▁wysokości	-9.31285
▁syna	-9.3131
▁rzymski	-9.31312
tru	-9.31344
▁wyłącznie	-9.31414
▁sza	-9.31483
▁cykl	-9.31489
▁wokół	-9.31491
▁car	-9.31509
69	-9.31541
trzy	-9.31628
66	-9.31661
▁dział	-9.31708
zm	-9.3172
23	-9.31729
▁plac	-9.31752
▁jedyn	-9.31767
rzesz	-9.31835
▁oba	-9.31917
▁euro	-9.31941
ord	-9.31956
▁powstanie	-9.32053
▁dzielnic	-9.32099
tion	-9.32106
tt	-9.3233
62	-9.3234
chodzi	-9.32487
rak	-9.3249
▁sposob	-9.32507
▁istniał	-9.32508
▁miejscowości	-9.32512
▁dziś	-9.32515
31	-9.32522
▁obiekt	-9.32647
85	-9.32703
▁coraz	-9.32736
67	-9.32752
▁ziem	-9.32803
woj	-9.32817
▁zsrr	-9.32849
27	-9.32865
▁rządu	-9.32942
▁wyspy	-9.32984
▁pozostał	-9.32988
ograf	-9.33068
zeniu	-9.33145
▁pozwala	-9.33221
▁nowego	-9.33296
ary	-9.33309
nk	-9.33331
▁całe	-9.33391
▁rzek	-9.3344
▁31	-9.33469
▁26	-9.33543
▁stały	-9.3358
▁rozpoczął	-9.33647
▁sek	-9.33653
len	-9.33667
yn	-9.33701
kowski	-9.33779
▁liczbę	-9.33861
▁nowych	-9.33886
▁for	-9.339
89	-9.33922
▁ciała	-9.33947
▁chi	-9.34184
▁warstw	-9.34222
▁kwas	-9.34375
▁urzęd	-9.34383
▁atak	-9.34455
▁kolor	-9.34512
brze	-9.34544
▁wzrost	-9.34622
44	-9.3472
96	-9.34838
▁poziom	-9.34895
88	-9.34938
28	-9.35013
▁=	-9.35029
▁odbył	-9.35118
▁francuski	-9.35147
ke	-9.35205
▁stos	-9.35211
▁tro	-9.35237
hu	-9.35242
com	-9.3525
nion	-9.35348
09	-9.35379
czes	-9.35443
ju	-9.35449
▁dostęp	-9.3546
▁wyr	-9.35557
▁oddział	-9.35566
=2	-9.35607
▁pochodzenia	-9.35617
cent	-9.35654
▁wyróżnia	-9.35851
97	-9.35853
żni	-9.35927
ień	-9.35933
51	-9.35951
▁muzeum	-9.35969
▁pole	-9.36043
▁potrzeb	-9.36069
spir	-9.36299
53	-9.36358
61	-9.3648
▁trans	-9.36679
▁działalności	-9.36689
▁niemcy	-9.36712
▁liter	-9.36778
▁piotr	-9.36814
▁rodzi	-9.36868
59	-9.36941
▁str	-9.36983
ód	-9.37083
q	-9.37212
lnych	-9.37241
pres	-9.37291
▁księżyc	-9.37333
alnego	-9.37353
▁at	-9.37403
▁zazwyczaj	-9.37437
ńskim	-9.3746
92	-9.37484
ü	-9.37507
▁tworząc	-9.37577
ckie	-9.37611
29	-9.37625
▁podróż	-9.3763
cal	-9.37632
42	-9.37636
49	-9.37681
▁sobą	-9.37749
26	-9.37968
zachodni	-9.37986
81	-9.38003
▁list	-9.3801
con	-9.38088
▁jaki	-9.38174
▁miejsca	-9.38211
▁sy	-9.38238
ół	-9.38239
istów	-9.38315
72	-9.38317
▁er	-9.38447
▁prus	-9.3856
04	-9.38569
▁man	-9.38575
▁mat	-9.38603
▁august	-9.38605
▁mocy	-9.38633
let	-9.38642
▁zakon	-9.38811
▁tłumacz	-9.3883
▁koron	-9.38949
▁cztery	-9.38949
zbroj	-9.39037
▁min	-9.39076
▁ryb	-9.39178
▁zachowa	-9.39193
icznej	-9.39195
08	-9.39212
wan	-9.39254
kan	-9.39262
07	-9.39288
94	-9.39304
▁wielkości	-9.39449
&	-9.39515
▁fragment	-9.39555
▁kod	-9.39659
▁miesiąc	-9.39799
lną	-9.39807
91	-9.39814
▁xvi	-9.39869
▁ż	-9.39975
chroni	-9.40009
▁oddziały	-9.40017
▁książę	-9.40027
sch	-9.40057
▁zalicza	-9.40081
▁an	-9.40137
82	-9.40145
stra	-9.40199
▁długości	-9.40203
▁karol	-9.40211
rob	-9.40298
▁spad	-9.40312
▁źródła	-9.40411
▁wartość	-9.40536
▁formy	-9.40581
54	-9.40596
▁tar	-9.4062
_2	-9.40621
▁pisarz	-9.40698
alna	-9.40741
pra	-9.40758
▁wypraw	-9.40786
stów	-9.40877
▁wersji	-9.40906
▁potem	-9.4092
logi	-9.40961
kol	-9.40962
▁leg	-9.40984
▁przedstawia	-9.40997
ól	-9.41047
52	-9.41101
▁planet	-9.41118
▁mógł	-9.41151
ph	-9.41214
▁formie	-9.41347
kolwiek	-9.41398
▁art	-9.41452
pod	-9.41478
▁cały	-9.41511
▁dzieła	-9.41587
szt	-9.41636
41	-9.41657
wę	-9.41671
▁władzę	-9.41686
puszcza	-9.41873
▁jedna	-9.41873
▁dal	-9.42026
ren	-9.42035
łów	-9.42061
mieszcz	-9.4208
▁ber	-9.42082
▁nowej	-9.42196
tka	-9.42201
nica	-9.42201
▁wielkiego	-9.42203
▁prezydenta	-9.42203
="3	-9.42333
▁długi	-9.42346
▁27	-9.42381
▁przełom	-9.42437
▁las	-9.42459
ora	-9.42491
▁okrętów	-9.42574
ewski	-9.42577
ające	-9.42589
lności	-9.4262
47	-9.4266
▁obok	-9.42667
▁dr	-9.42691
▁prace	-9.42718
▁temu	-9.42796
▁pola	-9.42825
nictwo	-9.42904
▁wojen	-9.42938
▁swój	-9.43033
yjny	-9.43139
▁możliwości	-9.43149
▁właśnie	-9.43156
57	-9.4323
▁słońca	-9.43278
ura	-9.43282
rus	-9.43339
▁grecki	-9.43379
▁pomocy	-9.43426
32	-9.43434
▁fu	-9.43471
ell	-9.435
▁ad	-9.43586
▁ówczesn	-9.43658
▁jas	-9.43715
owicz	-9.43723
▁gl	-9.43845
kiewicz	-9.439
iej	-9.44018
93	-9.44034
▁2010	-9.44088
▁odpowiada	-9.44109
ckim	-9.44166
43	-9.44228
ót	-9.44387
ery	-9.44435
▁para	-9.44486
▁pierwszego	-9.44486
▁spa	-9.44544
▁rosji	-9.44596
–20	-9.4462
▁morza	-9.44638
▁xviii	-9.44696
▁ag	-9.44751
▁klimat	-9.44755
▁zachodniej	-9.44769
▁zawsze	-9.44808
dom	-9.44932
▁kur	-9.44956
poli	-9.44967
▁krajach	-9.44969
▁znak	-9.44971
port	-9.44997
▁aktor	-9.4501
▁działań	-9.45021
owiec	-9.45021
▁lew	-9.45023
nar	-9.45238
▁bru	-9.45432
ice	-9.45476
cką	-9.45508
▁generał	-9.45585
nięcie	-9.45696
76	-9.45703
▁29	-9.45798
▁pisma	-9.45825
▁funkcję	-9.45835
▁wojna	-9.45876
▁han	-9.4598
02	-9.46026
wyzna	-9.4604
zj	-9.46182
▁brytanii	-9.46355
▁kro	-9.46374
lizm	-9.46432
▁stanisław	-9.46474
gener	-9.46506
encja	-9.46603
▁ab	-9.46723
▁naczeln	-9.46784
▁ge	-9.46798
▁cu	-9.46814
58	-9.46829
▁dialekt	-9.46868
▁bank	-9.46874
czenia	-9.4689
▁epi	-9.46953
owało	-9.46995
▁andrzej	-9.47009
▁tr	-9.47013
fil	-9.47051
tera	-9.47074
net	-9.47109
tyczny	-9.47155
kryty	-9.4716
lek	-9.47323
▁rp	-9.47339
wit	-9.4739
▁meta	-9.4743
▁tor	-9.47558
ark	-9.47625
wen	-9.47628
▁scen	-9.47686
05	-9.47793
▁john	-9.47802
▁rozpoczę	-9.47857
84	-9.47929
ard	-9.47956
▁celem	-9.48045
tro	-9.48073
▁spośród	-9.4809
▁(„	-9.48099
▁por	-9.48101
03	-9.4819
▁japoński	-9.48205
pal	-9.48231
żony	-9.4824
▁forma	-9.48321
▁sejm	-9.48372
gar	-9.48391
ans	-9.48454
▁doprowadził	-9.48507
▁zbiór	-9.48523
▁kontr	-9.48556
ury	-9.48713
▁czyn	-9.4872
▁istot	-9.48729
ica	-9.48809
▁przejści	-9.48828
▁języki	-9.4883
▁dzień	-9.48878
▁środowisk	-9.489
▁cesarza	-9.48983
▁udało	-9.48989
▁materiał	-9.49004
▁obszarze	-9.49081
▁powiat	-9.49241
ań	-9.49246
alną	-9.49248
▁har	-9.49259
▁zespół	-9.49263
▁dan	-9.49286
▁1944	-9.49288
▁postęp	-9.49312
▁nadal	-9.49394
▁tygodni	-9.49401
=4	-9.4956
▁główne	-9.49564
kur	-9.49619
nicze	-9.49658
▁możliwość	-9.49666
arski	-9.4976
▁stopniu	-9.49799
▁możliwe	-9.49801
▁łaciński	-9.49896
▁rzeki	-9.49902
▁(1	-9.4997
dro	-9.49986
▁napisał	-9.50027
▁czynnik	-9.5009
▁budowa	-9.50134
▁wkrótce	-9.50206
▁wyborach	-9.50209
▁real	-9.50213
▁czasach	-9.50289
▁początk	-9.50422
+	-9.5043
▁człon	-9.50444
▁niemal	-9.50512
▁pojawił	-9.50539
▁monet	-9.50564
▁hitler	-9.50614
73	-9.50631
▁uznawan	-9.50759
▁kos	-9.50876
87	-9.5095
▁metal	-9.50968
icznym	-9.50971
▁ulic	-9.50973
▁śmierć	-9.51022
▁bezpośredni	-9.51029
="5	-9.51043
▁hel	-9.51059
▁bur	-9.51082
▁drugi	-9.51239
onej	-9.51307
byt	-9.51333
wid	-9.51404
▁pomimo	-9.51433
▁j	-9.51447
▁ant	-9.51538
▁zależności	-9.5157
▁analiz	-9.51635
lna	-9.51642
kowych	-9.5172
▁2000	-9.51731
▁stronie	-9.5174
bro	-9.51899
oną	-9.52041
▁wybra	-9.52109
▁pożar	-9.52114
▁przedsiębiorstw	-9.5212
▁bowiem	-9.52131
lnej	-9.52159
▁angielski	-9.52174
▁kult	-9.52195
▁europejskiej	-9.52273
szedł	-9.52277
▁zwyczaj	-9.52388
▁informacji	-9.52397
▁literacki	-9.52451
▁językiem	-9.52453
iny	-9.52513
▁xvii	-9.5266
▁jakie	-9.52699
ący	-9.52788
stę	-9.52812
ed	-9.52923
▁2007	-9.52991
ozy	-9.53011
▁taki	-9.53131
bry	-9.53405
▁pojawia	-9.53605
▁dane	-9.53618
▁nigdy	-9.53651
▁następujące	-9.53651
▁nastąpił	-9.53695
tych	-9.53762
▁gr	-9.53779
▁skr	-9.5378
▁krakowski	-9.53824
▁żydów	-9.53846
77	-9.5385
▁socjal	-9.53884
wane	-9.53929
niki	-9.53957
▁spor	-9.53966
▁używany	-9.54054
▁dotychczas	-9.54072
ola	-9.54098
▁pal	-9.54208
▁dzieł	-9.5421
▁opracowan	-9.54213
wad	-9.54273
▁będąc	-9.54317
gh	-9.54318
▁południowo	-9.54354
▁ofiar	-9.5437
▁antoni	-9.54383
art	-9.54389
▁powinn	-9.54392
sion	-9.54521
▁pałac	-9.54533
czni	-9.54558
rzut	-9.54585
▁samorząd	-9.54673
trakt	-9.54709
▁prowadzi	-9.54764
dal	-9.54823
▁największym	-9.54889
żu	-9.54966
wą	-9.55048
▁symbol	-9.5508
rzecz	-9.55172
▁związków	-9.55209
▁stało	-9.55246
▁-	-9.55314
▁trwa	-9.55345
▁międzynarodowy	-9.55346
▁barw	-9.55546
▁ras	-9.55546
▁niepo	-9.55561
▁wyposaż	-9.55632
▁druk	-9.55638
pp	-9.55649
71	-9.55651
▁herb	-9.55701
▁dar	-9.55727
▁większe	-9.55797
que	-9.55801
ios	-9.55886
▁krzyż	-9.55894
try	-9.55899
▁firm	-9.55903
▁królewski	-9.55941
sji	-9.55965
stwie	-9.55988
▁pogląd	-9.5604
▁fo	-9.56055
▁uwagę	-9.56062
ące	-9.56082
▁wód	-9.56092
stro	-9.56114
sti	-9.56177
naj	-9.56213
zał	-9.56225
dar	-9.56273
gt	-9.56307
▁mod	-9.56357
wolni	-9.56359
top	-9.56389
lew	-9.56408
▁równo	-9.56509
▁specja	-9.56548
▁powołan	-9.56568
▁dwor	-9.5659
="6	-9.56592
nią	-9.56642
nął	-9.56643
▁zaczął	-9.56785
▁iv	-9.56814
▁sh	-9.56926
▁opowiada	-9.56972
▁opiera	-9.56974
="4	-9.56999
▁mon	-9.57026
▁sytuacji	-9.57072
|	-9.57072
▁królestwa	-9.57113
▁dziedzin	-9.57197
kowy	-9.57281
▁wsi	-9.57355
78	-9.57358
▁warszawy	-9.57362
stru	-9.57435
żył	-9.57473
▁zakończył	-9.57508
▁kolejnych	-9.5755
ens	-9.57595
74	-9.57618
nami	-9.57639
▁pojęcie	-9.57656
▁poprzedni	-9.57679
star	-9.57739
jskiego	-9.57774
▁klas	-9.58065
▁jednostek	-9.58093
dzkie	-9.58162
▁wydał	-9.58236
▁czele	-9.58253
▁rodzaj	-9.58257
ft	-9.58263
ających	-9.58319
▁kontakt	-9.58388
▁sub	-9.58534
▁von	-9.58646
▁własności	-9.58681
▁północy	-9.58707
▁wiersz	-9.58738
▁chociaż	-9.58828
niósł	-9.58846
▁szczególn	-9.58912
▁ludność	-9.58928
las	-9.58965
▁określenie	-9.58975
▁związki	-9.59025
dia	-9.59254
owanego	-9.59258
▁tereny	-9.59259
▁kra	-9.59272
▁adam	-9.59323
▁mil	-9.59399
▁dobrze	-9.59406
▁klasztor	-9.5942
▁numer	-9.59432
▁emi	-9.59469
79	-9.59475
styczny	-9.59484
czek	-9.59527
▁częścią	-9.59552
bieg	-9.59569
▁księcia	-9.5957
▁2014	-9.5962
ham	-9.59659
▁efekt	-9.59758
wielki	-9.59806
py	-9.59809
▁zarząd	-9.59882
▁status	-9.59902
fl	-9.59935
▁kart	-9.59952
cen	-9.60003
▁mężczyzn	-9.60165
skończ	-9.60183
▁biel	-9.60194
▁myśl	-9.60211
robi	-9.60213
▁sprzed	-9.60228
pas	-9.60266
▁astronom	-9.60315
nes	-9.60343
▁maria	-9.60399
ers	-9.60428
▁zakaz	-9.60456
krotnie	-9.60456
▁kontynent	-9.60465
▁siedzibą	-9.60465
▁kandydat	-9.60465
▁&	-9.60517
83	-9.60614
▁roman	-9.60721
dą	-9.6073
▁zaczęł	-9.60734
▁człowiek	-9.60744
▁właściwości	-9.60765
▁święto	-9.60793
▁znany	-9.60927
▁nazwisk	-9.60931
▁blok	-9.60973
▁zbyt	-9.61
▁tlen	-9.6119
▁nowym	-9.61205
▁nazwą	-9.61316
▁niedo	-9.61349
▁dodatkowo	-9.61369
▁wyjaśni	-9.61369
2,	-9.61372
▁sw	-9.61372
▁kier	-9.61418
▁powiatu	-9.61449
▁zmienia	-9.61459
ienne	-9.61508
▁zajmuje	-9.6152
jan	-9.61597
zę	-9.61623
▁używane	-9.61656
▁gatunków	-9.61672
▁[	-9.61766
▁hipotez	-9.61824
▁szczyt	-9.61835
▁pt	-9.61851
▁znacz	-9.62057
▁zł	-9.62068
▁postać	-9.6216
▁ogni	-9.62182
ill	-9.62197
▁bor	-9.62246
▁józef	-9.62277
▁2006	-9.62322
▁głównych	-9.62337
▁bieg	-9.62443
06	-9.62479
czych	-9.625
▁obywatel	-9.62547
ody	-9.62553
▁powieści	-9.6259
ory	-9.62602
▁obrony	-9.6261
rad	-9.62613
▁chrześcijański	-9.62675
▁warunki	-9.62742
▁końcu	-9.6276
▁rozkaz	-9.62771
▁ogromn	-9.62965
głębi	-9.6307
▁produkt	-9.63081
▁ti	-9.63145
▁domu	-9.63151
▁różnic	-9.63246
▁nimi	-9.63246
▁programu	-9.6327
▁odrębn	-9.63357
▁gry	-9.63357
▁zdobył	-9.63358
▁dzieli	-9.63406
▁2012	-9.63407
▁faz	-9.6342
▁ple	-9.63462
óż	-9.63513
▁nor	-9.63547
▁innym	-9.63554
▁organizm	-9.63631
▁jeżeli	-9.63667
▁mono	-9.63706
▁kanał	-9.6377
▁położone	-9.63786
▁koszt	-9.63787
▁góry	-9.63837
▁zastosowanie	-9.63895
▁powszechnie	-9.63976
▁szkoła	-9.63985
▁czech	-9.6406
żona	-9.64136
▁klucz	-9.64261
▁pobliżu	-9.64288
▁stosunku	-9.64288
▁zwane	-9.64375
▁wynik	-9.64381
pen	-9.64413
ański	-9.64428
▁imperium	-9.64444
▁pamięci	-9.64444
▁szpital	-9.64444
czas	-9.64499
▁techniczn	-9.64504
▁metody	-9.64565
▁zakresie	-9.64732
▁żyd	-9.64741
▁sol	-9.64788
łem	-9.64806
yjski	-9.64966
▁post	-9.64976
▁ur	-9.64989
wers	-9.65049
set	-9.65089
▁silnik	-9.65121
kowej	-9.65123
▁2011	-9.65132
bin	-9.6515
▁zasady	-9.65154
▁wielki	-9.65215
▁komuni	-9.65234
▁partia	-9.65234
▁arab	-9.65312
▁myśli	-9.65343
▁odmian	-9.65405
▁jednakże	-9.65419
▁religii	-9.65543
▁usług	-9.65544
▁budowy	-9.65546
▁obie	-9.65555
▁zwany	-9.65615
▁mniejsze	-9.65642
zan	-9.65646
▁bezpośrednio	-9.65693
▁planety	-9.65696
▁zakłada	-9.65781
▁niemieckiej	-9.65798
jski	-9.65825
▁mur	-9.659
owska	-9.66009
▁eu	-9.66031
▁katolicki	-9.6619
usza	-9.66216
▁amerykański	-9.66259
▁protest	-9.66376
sad	-9.66415
arzy	-9.6647
▁obejmuje	-9.66494
▁miastem	-9.66495
▁okolic	-9.665
▁śród	-9.66502
encji	-9.66575
ig	-9.66658
▁stąd	-9.66662
rozum	-9.66704
▁nią	-9.66714
▁uniwersytet	-9.66738
▁małe	-9.66748
dor	-9.66752
west	-9.66758
▁zdaniem	-9.66759
▁elementy	-9.6679
▁wersja	-9.66819
▁drogi	-9.66976
▁dużą	-9.66982
▁skał	-9.67061
▁długo	-9.67094
▁pop	-9.67125
up	-9.67295
▁koncert	-9.67298
▁0,	-9.67303
dra	-9.67397
▁szlak	-9.67401
wil	-9.67427
▁gminy	-9.67448
▁central	-9.67475
koń	-9.67492
łac	-9.67575
słow	-9.6763
owskiej	-9.67634
▁2015	-9.67664
▁całym	-9.67718
wadze	-9.67787
▁musiał	-9.6779
jskiej	-9.67826
trop	-9.67889
gin	-9.67897
▁argument	-9.67939
▁mieć	-9.67964
sil	-9.68008
gór	-9.6801
▁publik	-9.68051
▁elementów	-9.68071
í	-9.68101
▁album	-9.68102
▁ram	-9.68107
▁pomoc	-9.68113
est	-9.6812
bil	-9.68139
▁podstawowe	-9.68244
▁źródło	-9.68263
▁zostali	-9.6827
nięcia	-9.68273
▁fin	-9.68279
▁obecne	-9.6829
▁osobn	-9.68333
ńców	-9.68337
▁stosuje	-9.68351
▁temperatura	-9.68353
prowadzić	-9.68382
wana	-9.68427
tus	-9.68451
amp	-9.6854
ofi	-9.68552
▁oficer	-9.68589
▁niemieckich	-9.6861
):	-9.68628
▁prowadził	-9.68648
▁fr	-9.68657
▁rozwija	-9.68735
▁urząd	-9.68741
▁as	-9.68743
kor	-9.68744
▁wytwarza	-9.68754
lik	-9.68828
▁granicy	-9.68844
▁ton	-9.68886
▁największych	-9.6889
▁wybiera	-9.68921
pierw	-9.68961
);	-9.69011
▁drugim	-9.69016
techn	-9.69025
▁tadeusz	-9.69078
▁połączon	-9.69184
▁konflikt	-9.69184
▁chemi	-9.69232
tym	-9.69314
shi	-9.69326
▁pił	-9.69334
▁upraw	-9.69375
wic	-9.69384
▁imię	-9.69403
▁korzysta	-9.69407
▁działanie	-9.69446
dan	-9.69466
▁wystaw	-9.69512
▁2008	-9.69615
▁opublikowa	-9.69618
▁trój	-9.69645
▁krakowie	-9.69904
▁dźwięk	-9.69946
▁armia	-9.69953
▁mieli	-9.70009
▁van	-9.7002
▁województwie	-9.70034
▁zostać	-9.70068
ryn	-9.70087
alnie	-9.70108
nikiem	-9.70159
ez	-9.70169
▁graf	-9.70297
▁ed	-9.70349
▁całkowicie	-9.70394
▁napęd	-9.70421
▁1918	-9.70437
▁kultura	-9.70438
▁traktowa	-9.70508
▁tradycji	-9.7056
▁teren	-9.70603
▁styl	-9.70643
onym	-9.70762
▁dużej	-9.70767
▁dawne	-9.70861
tłum	-9.70893
▁dusz	-9.70924
▁technik	-9.70948
▁fon	-9.71012
płat	-9.71055
▁zajmując	-9.71061
czyli	-9.71062
▁umieszczon	-9.71072
tami	-9.71095
burg	-9.71097
peł	-9.71143
▁wielkopolski	-9.71228
▁wyraża	-9.71243
▁polską	-9.71265
▁tryb	-9.71283
▁ło	-9.7133
don	-9.71342
pre	-9.71342
▁reszt	-9.71348
▁reakcji	-9.71393
▁świątyni	-9.71431
public	-9.71464
▁należał	-9.71499
▁bitwie	-9.71616
▁ke	-9.71621
xi	-9.71728
▁artykuł	-9.71728
▁kongres	-9.71729
▁lotnisk	-9.71736
▁kal	-9.71749
kła	-9.71749
lność	-9.71792
▁północno	-9.71819
rii	-9.71824
▁zwierząt	-9.71896
sja	-9.71975
▁straż	-9.72
▁alfabet	-9.72065
▁maksym	-9.72082
▁niemieckie	-9.721
▁zakres	-9.72109
▁premier	-9.72182
▁rys	-9.72197
▁filozofii	-9.72211
▁zatem	-9.72264
ących	-9.72303
▁łac	-9.72317
przed	-9.72409
▁znaków	-9.72414
▁przekaz	-9.72416
▁władysław	-9.72425
▁narodowego	-9.72535
▁spotyka	-9.72603
owanej	-9.72603
▁hal	-9.7261
▁polaków	-9.72651
▁akcji	-9.72673
▁pracę	-9.72702
nal	-9.72769
▁zachował	-9.72829
▁narodowy	-9.72896
▁zagra	-9.72897
▁poszczególnych	-9.72911
▁literatury	-9.72919
▁wprowadził	-9.72967
wany	-9.72981
▁lib	-9.7312
▁pia	-9.73154
▁uniwersytetu	-9.73162
▁słowo	-9.73187
▁występ	-9.73233
▁stosowany	-9.73243
▁mit	-9.73418
▁honor	-9.73451
nus	-9.73572
kowi	-9.73593
▁postaw	-9.73678
▁wschód	-9.73765
▁ojca	-9.73782
qu	-9.73802
▁krajów	-9.73855
3%	-9.73872
▁rada	-9.73911
end	-9.73949
▁rom	-9.74026
▁umożliwia	-9.74093
▁ograniczon	-9.74107
▁spowodował	-9.74119
▁stanach	-9.74121
▁samolot	-9.74151
nąć	-9.74218
▁relacj	-9.74226
▁0	-9.74277
▁rynku	-9.74281
▁historyczne	-9.74297
▁uzyska	-9.74333
▁kali	-9.74352
▁twierdz	-9.74357
▁stara	-9.74372
pit	-9.74374
kul	-9.74381
▁przedmiot	-9.74382
▁mars	-9.74388
▁oni	-9.74429
▁naturalne	-9.7443
▁rzeczywistości	-9.74452
▁blisko	-9.74453
▁wir	-9.74617
anu	-9.74675
▁leży	-9.7468
▁gal	-9.74711
int	-9.74792
▁reżyser	-9.74798
▁uczelni	-9.74798
▁każdego	-9.74822
▁2009	-9.74843
▁etap	-9.74887
▁wycofa	-9.74971
▁sum	-9.75004
owce	-9.75137
▁dotyczy	-9.75154
pół	-9.75166
▁es	-9.75189
▁not	-9.75244
▁stra	-9.7527
▁wschodniej	-9.75277
▁sojusz	-9.75346
▁ostatnie	-9.75373
▁wiatr	-9.75619
="9	-9.75628
▁ukazał	-9.75668
▁dalsze	-9.7576
▁dowód	-9.75795
dziesiąt	-9.75819
▁posiadają	-9.75921
▁masy	-9.7596
▁powoduje	-9.75996
bert	-9.76005
tycznego	-9.76026
▁przemysłu	-9.7604
▁sło	-9.76043
▁temperatury	-9.76047
▁milionów	-9.76074
▁podobny	-9.76129
▁ol	-9.76167
▁skuteczn	-9.76193
iony	-9.76296
▁pomnik	-9.76321
znaczony	-9.76347
wojen	-9.76354
▁algorytm	-9.76368
▁istnienia	-9.76369
▁zasięg	-9.76376
▁urodził	-9.76545
▁małżeństw	-9.76545
ika	-9.76594
▁gwiazdy	-9.76598
6%	-9.76601
▁podlega	-9.76606
▁będący	-9.76651
▁stosowane	-9.76666
▁istnienie	-9.76721
▁tworzą	-9.76795
yzm	-9.76877
▁linia	-9.76894
jona	-9.77074
▁religijne	-9.77075
▁pięć	-9.77079
ewicz	-9.77088
▁zamiast	-9.77105
tak	-9.77125
ologiczne	-9.77133
nosząc	-9.77137
▁miejski	-9.77204
pat	-9.77229
jskich	-9.77371
▁kam	-9.77381
▁muzyki	-9.77423
wschodni	-9.77606
▁bohater	-9.77608
▁zmieni	-9.77679
▁podobne	-9.77688
▁współcześnie	-9.77786
▁2018	-9.77836
▁2004	-9.77848
▁bal	-9.77867
▁czterech	-9.77964
rys	-9.78078
▁stanowisko	-9.78101
▁funkcje	-9.78143
▁znacząc	-9.78143
▁ameryk	-9.78189
▁rower	-9.78274
▁jezior	-9.78274
▁okręty	-9.7829
▁silnie	-9.78404
pion	-9.78432
▁posług	-9.78508
▁jednostka	-9.78508
▁tj	-9.78621
▁nsz	-9.78659
▁źródeł	-9.78682
▁pozycji	-9.78684
▁pozostałe	-9.78696
▁tomasz	-9.78719
▁dość	-9.78752
▁służby	-9.78847
vo	-9.78858
▁prędkości	-9.78862
błęd	-9.78871
▁uległ	-9.78911
7%	-9.78913
▁rejon	-9.78998
▁poznań	-9.79014
▁populacji	-9.79042
▁początek	-9.79043
anów	-9.79062
▁kana	-9.79083
▁ulega	-9.79115
żyć	-9.79121
▁razy	-9.79199
▁ciężki	-9.79223
▁bit	-9.79243
owanym	-9.79243
▁niepodległości	-9.79245
▁samej	-9.7928
▁obiektów	-9.79283
jedno	-9.79287
▁interes	-9.79287
▁wolności	-9.79288
▁poniżej	-9.79404
▁praktyk	-9.79405
rodzin	-9.79427
tlen	-9.79441
▁członkiem	-9.79443
dając	-9.79506
▁roli	-9.79542
4%	-9.79563
▁wzdłuż	-9.79586
▁stolicy	-9.79587
▁200	-9.7963
izacja	-9.79732
log	-9.79743
isty	-9.79755
▁dalej	-9.79774
▁objaw	-9.79792
tre	-9.79827
▁zapewnia	-9.7995
▁przygotowan	-9.79953
▁ben	-9.79994
▁zakład	-9.79994
▁politycznych	-9.80011
jusz	-9.80075
▁województwo	-9.80081
morski	-9.80105
▁piechoty	-9.80132
▁wyższe	-9.80133
▁zastęp	-9.80135
▁cezar	-9.80142
”).	-9.8015
▁odbywa	-9.8021
iński	-9.80273
aria	-9.80388
▁polsko	-9.80447
▁sytuacja	-9.80498
▁szkół	-9.80506
▁stopni	-9.80716
)"	-9.80784
▁fer	-9.80811
▁okrętu	-9.80841
▁dużych	-9.80863
zer	-9.80885
▁mari	-9.80886
gor	-9.80965
▁(17	-9.8101
yczna	-9.81012
▁demokratyczn	-9.8105
▁wpływem	-9.81118
bór	-9.81174
istyczne	-9.81191
="8	-9.81227
▁długość	-9.81264
czk	-9.81265
▁2019	-9.81289
▁mont	-9.81334
rab	-9.81365
stos	-9.81399
▁uwagi	-9.81421
▁pracował	-9.81421
▁akademii	-9.81425
▁wewnętrzne	-9.81443
▁itp	-9.81482
▁narodowej	-9.81484
fo	-9.81487
1%	-9.81504
▁chiński	-9.81589
*	-9.81604
▁osi	-9.8166
▁wiary	-9.81663
kla	-9.81675
val	-9.81755
▁mechanizm	-9.8179
▁odpowiedzi	-9.81798
▁2005	-9.81849
czka	-9.81881
dż	-9.8189
▁środowiska	-9.81923
gent	-9.81967
▁powyżej	-9.81976
▁far	-9.81982
wiedza	-9.82015
▁zawierają	-9.82018
▁okręg	-9.82037
kwi	-9.82039
ista	-9.82161
▁zarządza	-9.82169
▁2001	-9.8223
▁paul	-9.82257
▁nowa	-9.82267
nice	-9.82509
▁obejmując	-9.82513
▁bywa	-9.8252
▁pale	-9.82528
▁ostatnich	-9.82531
fu	-9.82531
▁ogłosił	-9.82536
▁wykład	-9.82539
▁przebiega	-9.82597
ekonomi	-9.82661
▁skrzy	-9.82736
▁pokaz	-9.82809
▁struktura	-9.82846
▁skal	-9.82852
▁administracyjny	-9.82915
tego	-9.82977
▁kat	-9.82985
yjna	-9.82989
▁regul	-9.82998
dziw	-9.83026
▁wspiera	-9.831
ep	-9.83118
▁pociąg	-9.8318
czno	-9.83268
▁wschodzie	-9.83287
▁stolicą	-9.83287
▁wojciech	-9.83287
▁przykładem	-9.83322
▁niemieckiego	-9.83378
▁wchodzi	-9.83421
▁minister	-9.83475
▁ocen	-9.83546
▁cechy	-9.83582
ycznym	-9.83606
▁najstarszy	-9.83665
▁rozwinięt	-9.83665
▁islam	-9.83666
▁god	-9.83689
arne	-9.83722
czego	-9.83749
▁aktyw	-9.83798
▁60	-9.83838
▁ster	-9.83961
▁ust	-9.84013
▁użycie	-9.84046
▁służb	-9.84084
▁1990	-9.84097
dać	-9.84144
arz	-9.84153
▁południe	-9.84183
▁zwycięstw	-9.84233
▁połowy	-9.84264
▁ulicy	-9.84381
▁teoria	-9.84427
tzw	-9.84501
prost	-9.84602
!	-9.84615
gry	-9.84616
hen	-9.84711
▁zajmował	-9.84713
owca	-9.84716
ling	-9.84795
▁azji	-9.84813
▁punktu	-9.84834
▁skali	-9.84837
▁uznał	-9.84893
▁napis	-9.84977
owskie	-9.84997
▁fre	-9.85012
▁szczególności	-9.85045
▁swego	-9.85066
nor	-9.85171
tora	-9.85177
▁skutek	-9.85271
▁symboli	-9.85365
▁kompozytor	-9.85382
▁hiszpański	-9.85465
har	-9.85577
▁powstało	-9.85704
▁większą	-9.85768
▁nagrody	-9.85769
▁józefa	-9.85773
▁główny	-9.85787
dol	-9.85808
▁2002	-9.85867
▁społeczeństwa	-9.85869
stron	-9.85911
łuż	-9.85941
gród	-9.85941
▁orbit	-9.85951
▁powrócił	-9.85969
▁komitet	-9.86055
▁prowincji	-9.86155
▁obrębie	-9.86155
sor	-9.86262
▁miesza	-9.86275
▁stu	-9.86336
▁działacz	-9.86342
▁mazowiecki	-9.86349
▁gwar	-9.86352
▁czer	-9.86356
▁wybuch	-9.86459
▁włoski	-9.86478
krę	-9.86483
▁bezpieczeństwa	-9.86507
▁cho	-9.86529
▁hiszpanii	-9.86584
▁kas	-9.8667
mal	-9.86715
▁dziedzinie	-9.86766
iusza	-9.86793
▁nomin	-9.86793
▁żelaz	-9.86829
▁struktur	-9.86853
▁biały	-9.86887
lok	-9.8693
▁życiorys	-9.86934
▁cmentarz	-9.86934
▁dotyczące	-9.86971
▁2016	-9.8698
2%	-9.87047
hor	-9.8711
▁związan	-9.87147
▁most	-9.8727
▁dochodzi	-9.87283
▁dzisiejsz	-9.87299
▁cesarstwa	-9.87326
▁woli	-9.87397
▁men	-9.87401
▁lekarz	-9.8749
▁odległości	-9.87522
▁wojewódzki	-9.87522
▁ojciec	-9.87522
▁budowę	-9.87523
▁autobus	-9.87525
▁kryzys	-9.87526
▁ono	-9.87565
▁struktury	-9.87599
▁szef	-9.87606
▁kazimierz	-9.87653
▁obr	-9.87722
▁2013	-9.87789
▁gali	-9.87845
▁rzeczy	-9.87874
▁ziemski	-9.87903
▁największą	-9.87916
▁przeciwieństw	-9.87917
▁ogół	-9.87918
▁znaczeniu	-9.87942
świat	-9.88022
yjne	-9.88075
▁drodze	-9.88114
▁odgrywa	-9.88129
▁zegar	-9.88163
jak	-9.88186
mieszk	-9.88199
▁koło	-9.882
▁bibliotek	-9.88271
not	-9.88303
ble	-9.88337
jącymi	-9.88405
▁szyb	-9.88406
▁bolesław	-9.88459
▁panowania	-9.88469
pięt	-9.88571
▁ks	-9.88589
▁uważał	-9.88614
nka	-9.88652
▁rzymu	-9.8869
ującego	-9.88705
▁fabryk	-9.88713
▁1999	-9.88753
▁kw	-9.88767
waną	-9.88853
▁projektu	-9.88875
▁chemiczne	-9.88878
wszy	-9.8903
▁gospodarka	-9.89052
▁th	-9.89101
▁rozmiar	-9.89121
▁dolarów	-9.89125
▁naucza	-9.89189
▁częściowo	-9.89198
ląd	-9.89241
tri	-9.8928
▁dramat	-9.8931
▁polityki	-9.89386
korzysta	-9.89421
▁bliski	-9.89428
▁stronnictw	-9.89435
▁poziomie	-9.89443
▁znaki	-9.89533
▁rodzaje	-9.89623
▁producent	-9.89709
▁adres	-9.89729
▁con	-9.89777
▁syr	-9.89826
cel	-9.89882
8%	-9.89899
▁polityczny	-9.89903
▁stosunkow	-9.8991
mówi	-9.89918
▁szybki	-9.9
▁trud	-9.90016
▁fort	-9.90087
syn	-9.90112
▁organizacja	-9.90128
▁mało	-9.90139
rat	-9.90304
▁chrześcijan	-9.90314
▁festiwal	-9.90314
▁odpowiedzialn	-9.90323
lny	-9.90349
▁płyn	-9.9039
cyjną	-9.90394
▁miejskie	-9.90423
▁materia	-9.90425
kową	-9.90467
cznik	-9.9047
▁stop	-9.90509
▁pochodzenie	-9.90516
▁główną	-9.90518
▁zasob	-9.90545
▁legend	-9.90548
▁brat	-9.90553
▁1989	-9.90555
▁prąd	-9.90557
▁światła	-9.9058
▁emisj	-9.90642
ius	-9.907
▁ewangeli	-9.90719
▁systemów	-9.90737
▁platon	-9.90739
▁świętego	-9.90824
kop	-9.90836
▁mis	-9.90857
▁połączenia	-9.90915
▁licząc	-9.9095
▁mark	-9.90952
▁pisał	-9.90954
▁komór	-9.90961
▁znaczenia	-9.90993
▁elektro	-9.91079
▁zdecydowan	-9.91126
▁samobójstw	-9.91126
▁akt	-9.91154
dyk	-9.91235
▁rejonie	-9.91274
wybor	-9.91282
▁wykorzystywa	-9.91311
▁stefan	-9.91333
▁zbrojne	-9.91342
▁gospodarczy	-9.91362
bal	-9.91394
▁pozostałych	-9.91421
▁śmi	-9.91465
▁lod	-9.91495
wód	-9.91514
▁oficjalnie	-9.91535
▁zwiększa	-9.91535
▁zbioru	-9.91535
dawał	-9.91543
▁nową	-9.91545
▁leżą	-9.91568
▁berlin	-9.91617
▁zestaw	-9.91633
▁sieć	-9.91744
▁obszary	-9.91869
bili	-9.91886
▁wybudowan	-9.91928
▁osiąga	-9.91945
▁pojęcia	-9.91946
nicki	-9.92026
cko	-9.92139
▁takim	-9.92218
ycznej	-9.92228
▁lotniczy	-9.92256
▁gospodarki	-9.92263
ela	-9.92309
▁republiki	-9.92329
▁obiekty	-9.92345
▁uniwersytecie	-9.92357
▁rzeźb	-9.92357
▁pojazd	-9.92357
▁rozkład	-9.9238
▁mając	-9.92495
▁granicach	-9.9251
▁twórczości	-9.92563
▁tele	-9.92583
▁1940	-9.9261
▁spełnia	-9.92624
▁pomiar	-9.92627
ycznych	-9.92631
▁2020	-9.92649
▁ameryki	-9.92698
ukraiński	-9.92752
▁danego	-9.92758
▁matki	-9.92768
▁niemiecki	-9.92768
▁kości	-9.92772
▁jedynym	-9.9283
▁ludzie	-9.92883
kal	-9.92892
▁liczył	-9.9291
skutek	-9.92941
yzmu	-9.93003
▁rzeszy	-9.93027
▁posiadał	-9.93055
▁położony	-9.93064
9%	-9.93089
owości	-9.9312
▁wynosiła	-9.93179
▁intensywn	-9.93186
▁całości	-9.93213
lud	-9.93233
▁przebieg	-9.93302
▁kierunk	-9.93371
▁wodo	-9.93376
▁nauczyciel	-9.93394
▁mieszkańcy	-9.93394
▁anglii	-9.93398
▁jon	-9.93486
her	-9.93494
kowania	-9.935
nder	-9.93606
▁paryżu	-9.93611
▁nic	-9.93654
▁lip	-9.93657
oksy	-9.93667
▁każda	-9.93706
▁dniu	-9.93738
▁1000	-9.93756
▁niektórzy	-9.93812
▁właściciel	-9.93812
▁życiu	-9.93854
berg	-9.93855
▁językach	-9.93867
▁nieco	-9.93935
▁+	-9.93935
▁charakterze	-9.93957
▁del	-9.94024
▁muzyk	-9.94071
▁bolesława	-9.94076
pos	-9.94088
▁dobre	-9.94131
▁związanych	-9.94211
▁ogólne	-9.94232
rzucił	-9.94232
▁wywodzi	-9.94233
▁studia	-9.94241
▁porusza	-9.94251
bój	-9.94252
▁bio	-9.94262
▁związany	-9.94302
▁warunkach	-9.94442
▁próby	-9.94446
▁bydgoszczy	-9.94502
han	-9.94516
▁czeski	-9.94576
lnego	-9.9464
dzieln	-9.9465
▁ośrodek	-9.94653
▁wydarzenia	-9.94654
ex	-9.94705
▁cyfr	-9.94708
▁kara	-9.94782
▁niewielkie	-9.94804
ografii	-9.94804
▁lipcu	-9.9488
rek	-9.94886
▁cyt	-9.94888
▁łącząc	-9.94902
▁regionu	-9.94939
stał	-9.9494
kowie	-9.95047
▁80	-9.95068
▁powietrza	-9.95091
▁tatr	-9.95138
dla	-9.95284
▁miesięcy	-9.95289
mann	-9.95376
czki	-9.95409
spon	-9.95449
▁mikołaj	-9.95502
▁kobiety	-9.95504
▁szwedzki	-9.95508
▁zachód	-9.9551
▁lokaln	-9.95519
▁zachodzie	-9.95537
teri	-9.95539
codice	-9.9555
▁przyczynił	-9.95641
feder	-9.95688
ością	-9.95738
pier	-9.95745
▁wybuchu	-9.95815
▁społeczeństw	-9.95817
▁łącznie	-9.95849
▁krótko	-9.95929
▁pierwotnie	-9.96143
▁profesor	-9.96143
▁wrześniu	-9.96143
tywne	-9.9616
jskie	-9.96201
▁2017	-9.96216
▁wież	-9.9622
▁historyk	-9.96238
mus	-9.96244
▁szk	-9.96259
ban	-9.96269
▁pozbawi	-9.96325
▁grudniu	-9.96358
▁wiedzy	-9.9636
▁milit	-9.96363
="10	-9.96369
▁wskazują	-9.9638
▁pochodzą	-9.96453
▁przemian	-9.96512
▁określony	-9.96572
▁czerwcu	-9.96573
▁xiv	-9.96574
▁społeczności	-9.96591
▁brz	-9.966
▁okazał	-9.96611
▁henryk	-9.96653
zol	-9.96691
▁rządów	-9.96781
▁wewnątrz	-9.96788
▁współpracy	-9.96788
▁duży	-9.96844
bog	-9.96882
▁wybrany	-9.96915
dano	-9.96958
▁zgromadzeni	-9.97004
▁wygląd	-9.97004
▁mandat	-9.97038
▁serwer	-9.97042
język	-9.97047
▁oblicze	-9.97084
yczne	-9.97106
▁mistrz	-9.97118
▁katedr	-9.97225
party	-9.97253
▁ps	-9.97259
▁krwi	-9.97287
tes	-9.97291
▁rozpoczęła	-9.97295
▁braci	-9.97408
▁określone	-9.97437
▁tru	-9.97501
fin	-9.97521
▁stalin	-9.97575
▁zróżnicowan	-9.97655
▁tutaj	-9.97658
rom	-9.9771
▁surow	-9.97754
▁maju	-9.97771
▁głosów	-9.97784
łożył	-9.97791
▁instytut	-9.97873
▁cyceron	-9.97873
▁powiązan	-9.97892
▁xv	-9.97945
▁danej	-9.97953
−	-9.98091
▁stworzył	-9.98094
▁pokład	-9.98143
ańskiej	-9.98212
▁kąt	-9.98261
ującym	-9.98266
▁kompleks	-9.9831
▁partner	-9.9831
▁konserw	-9.98312
sel	-9.98335
▁stopnia	-9.98342
lat	-9.98407
jedn	-9.98473
▁zamach	-9.98477
▁niekiedy	-9.9853
▁mogły	-9.98531
▁ślad	-9.98534
zował	-9.98536
sona	-9.98558
▁sm	-9.98583
▁warszawskiego	-9.98732
▁1919	-9.9881
tz	-9.98821
▁300	-9.98822
▁sie	-9.98837
▁sejmu	-9.98883
▁gar	-9.98901
wzgl	-9.98902
ux	-9.98917
▁chin	-9.98918
▁japonii	-9.98969
▁podstawowych	-9.99038
_3	-9.99059
▁znanych	-9.99115
stat	-9.99123
▁poświęcon	-9.9919
▁listy	-9.99199
trz	-9.99254
▁500	-9.99355
▁dotarł	-9.99403
▁dokonał	-9.99434
▁dużym	-9.99449
▁ce	-9.9946
▁1920	-9.99497
▁marcu	-9.99511
▁sar	-9.99579
lski	-9.99593
▁kadłub	-9.99633
▁konstytucji	-9.99633
▁krążownik	-9.99634
▁parlamentarn	-9.9965
▁pojawiły	-9.9965
▁island	-9.99703
▁przybył	-9.99709
▁pary	-9.99733
▁dobra	-9.99746
akt	-9.99816
jąć	-9.99848
▁windows	-9.99855
▁europejski	-9.99855
▁pozwolił	-9.9989
▁różni	-9.99909
▁idea	-9.99945
▁rozpad	-10.0002
grom	-10.0007
▁funkcja	-10.0008
tywny	-10.0016
▁morskie	-10.0019
▁rejestr	-10.0021
▁inny	-10.0027
bija	-10.0028
▁eksperyment	-10.003
▁obszaru	-10.0032
▁chlor	-10.0032
▁lenin	-10.0043
▁łączy	-10.0049
▁sond	-10.0053
▁stanisława	-10.0054
▁wprowadza	-10.0061
▁up	-10.0065
▁wypad	-10.007
▁podziału	-10.0081
▁sprawie	-10.0092
bolszewi	-10.0097
▁sław	-10.0098
▁zjawisk	-10.0102
▁dysku	-10.0102
▁rzym	-10.0105
▁dniach	-10.0108
▁staw	-10.0112
▁lublin	-10.0112
▁zdrowia	-10.012
▁członkowie	-10.0121
▁płci	-10.0121
▁największy	-10.0128
pust	-10.014
elektr	-10.0141
▁drugą	-10.0143
▁powstają	-10.0144
▁narodów	-10.0146
▁traktat	-10.0146
▁gromad	-10.0149
eb	-10.0154
▁nazwie	-10.0154
▁rozumie	-10.0162
▁środkowej	-10.0165
▁skierowan	-10.0165
▁tablic	-10.0167
▁fizyczne	-10.0167
nością	-10.0167
▁noc	-10.0173
▁położenie	-10.0175
▁kurs	-10.0176
▁prowadząc	-10.018
▁chrz	-10.018
sse	-10.0184
▁dynastii	-10.0188
▁prywatne	-10.0188
▁wzajemn	-10.0188
wied	-10.0189
▁konsul	-10.019
czycy	-10.0193
▁xiii	-10.02
zielony	-10.0204
▁pośredni	-10.0207
▁kalendarz	-10.021
▁zaangażowa	-10.021
▁nurt	-10.0213
▁alkohol	-10.0214
organ	-10.0226
▁szczegół	-10.0233
▁tworzenia	-10.0233
▁stopniowo	-10.0238
▁specjalne	-10.024
▁zaczyna	-10.0245
▁dzieło	-10.0246
mag	-10.0252
▁ochrony	-10.0256
▁wulkan	-10.0256
patr	-10.0259
▁sprzeciw	-10.026
twarz	-10.0261
▁przepis	-10.0267
▁tri	-10.0268
▁kolejowy	-10.0271
ation	-10.0273
ińskiego	-10.0277
swobod	-10.028
▁sprzedaż	-10.0286
żą	-10.0299
▁frank	-10.03
▁wschodu	-10.0302
▁zespołu	-10.0302
▁des	-10.0302
icy	-10.0303
▁bram	-10.0305
▁większy	-10.0307
▁kolejny	-10.0307
parciu	-10.0309
▁przedstawiciel	-10.0318
fra	-10.032
▁(2	-10.0325
▁ciał	-10.0327
▁stanowiąc	-10.0328
termin	-10.0329
▁wielkie	-10.033
▁druga	-10.033
▁bry	-10.0335
▁porządk	-10.0342
▁roln	-10.0342
▁rat	-10.0343
▁administr	-10.0344
▁licznych	-10.0345
▁pierścieni	-10.0348
▁chciał	-10.0348
▁prezes	-10.0348
▁swej	-10.035
▁osoba	-10.0351
ces	-10.0353
▁naukowe	-10.0358
mas	-10.0358
▁wektor	-10.036
▁początki	-10.0364
▁ska	-10.0371
ä	-10.0371
▁utrzyman	-10.0371
▁wspólnoty	-10.0373
▁własny	-10.0378
▁wodny	-10.0379
▁przyczyną	-10.0386
▁90.	-10.039
▁odpowiednio	-10.0393
▁niemczech	-10.0394
▁wciąż	-10.0394
▁1991	-10.0398
▁70	-10.0399
▁skór	-10.0401
rób	-10.0403
▁dzielnicy	-10.0409
▁morze	-10.041
▁wiadomo	-10.0413
▁tekstu	-10.0415
arnych	-10.0416
ls	-10.0416
▁motyw	-10.0418
▁mikro	-10.0421
▁austriacki	-10.0424
▁litera	-10.0426
▁terenów	-10.044
▁konstrukcji	-10.0441
▁zjednoczone	-10.0441
▁dokładnie	-10.0442
▁narzędzi	-10.0443
▁chr	-10.0449
▁podpisan	-10.0449
▁układzie	-10.0451
▁okaz	-10.0453
lor	-10.0457
▁władysława	-10.0461
▁wyjątkiem	-10.0464
▁wystąpił	-10.0464
▁zygmunt	-10.0464
▁wykonawc	-10.0465
stwem	-10.0475
▁dż	-10.0477
▁ciało	-10.0478
▁stanowiska	-10.0479
▁tyle	-10.0487
różnorodn	-10.0488
▁społecznych	-10.0488
▁całą	-10.0488
krot	-10.0488
▁roczn	-10.049
▁bitwy	-10.0496
▁wprowadzono	-10.0511
▁najważniejszych	-10.0511
▁objął	-10.0511
▁zwrot	-10.0512
▁niemców	-10.0512
▁aleksandr	-10.0517
▁wywodzą	-10.0534
▁wzgórz	-10.0534
▁jądro	-10.0536
▁najpierw	-10.0539
graf	-10.0544
▁dominują	-10.0552
met	-10.0557
▁religia	-10.0558
ańskiego	-10.0562
▁działają	-10.0566
▁terenach	-10.0566
▁mel	-10.0568
bez	-10.0569
▁brzeg	-10.0573
▁cer	-10.0574
hr	-10.0577
dek	-10.0578
▁kot	-10.0581
▁ogranicza	-10.0581
▁ograniczeni	-10.0581
▁zbiornik	-10.0581
▁meksyk	-10.0581
▁następujący	-10.0582
▁najwyższy	-10.0584
polski	-10.0585
tworzy	-10.059
des	-10.0593
ektor	-10.0598
▁południu	-10.0605
▁szeroki	-10.0605
▁bóg	-10.0605
▁przyrody	-10.0607
▁bla	-10.0609
▁woda	-10.0624
ród	-10.0627
▁metropoli	-10.0629
niczą	-10.0629
▁pło	-10.063
▁atmosfer	-10.0634
▁nazywany	-10.0638
miesz	-10.0649
▁osiedla	-10.0652
▁wielką	-10.0653
▁linie	-10.0654
kowego	-10.066
▁przedstawiciele	-10.0665
▁głównego	-10.067
▁nazywane	-10.0671
▁70.	-10.0673
▁późn	-10.0675
budowano	-10.0681
▁własne	-10.0684
▁gleb	-10.0685
king	-10.0687
▁stoczni	-10.0692
▁filmu	-10.0699
▁autonomi	-10.07
▁utworów	-10.0701
▁obecny	-10.0702
▁pen	-10.0713
▁ośrodkiem	-10.0718
▁większych	-10.0719
▁kul	-10.0722
▁nazw	-10.0722
plik	-10.0724
▁przyrodni	-10.0726
▁dysk	-10.0738
▁dziedzic	-10.0746
▁styczniu	-10.0748
▁wprowadzenie	-10.0748
▁przypomina	-10.0748
▁zachodu	-10.0748
▁szczecin	-10.0748
ruch	-10.0762
▁ostro	-10.0763
interpret	-10.077
▁odczyt	-10.0771
▁dyplom	-10.0772
▁tron	-10.0772
▁kanon	-10.0774
iana	-10.0775
▁1941	-10.0776
▁stref	-10.0779
▁wydział	-10.0781
ung	-10.0781
▁zachodnie	-10.0786
owaniem	-10.0791
▁cl	-10.0793
▁definicja	-10.0796
▁handlu	-10.0796
▁michał	-10.0799
▁sztab	-10.08
▁współczesnych	-10.0808
▁mld	-10.0809
▁daje	-10.081
grup	-10.0814
▁procesu	-10.082
▁stany	-10.082
▁źródłem	-10.082
▁zaczęt	-10.0821
▁listopadzie	-10.0821
▁zyskał	-10.0822
▁2003	-10.0829
▁fan	-10.083
▁komitetu	-10.0833
czerw	-10.0833
▁operacji	-10.0836
▁przekonan	-10.0842
▁kościele	-10.0845
▁głównej	-10.0845
▁pozytyw	-10.0852
▁mer	-10.0858
▁kup	-10.0863
▁szeroko	-10.0864
▁chrystusa	-10.0867
▁czasownik	-10.0869
▁nocy	-10.0873
▁pyta	-10.0874
▁odnosi	-10.0878
▁koni	-10.0878
widz	-10.0884
daleko	-10.0885
▁stwierdził	-10.0893
▁kru	-10.0894
▁południowy	-10.0912
▁neo	-10.0915
▁będące	-10.0915
▁jezusa	-10.0916
▁budżet	-10.0918
▁widzenia	-10.0918
▁wymiar	-10.0925
▁lokalne	-10.0929
two	-10.0935
▁kin	-10.0938
▁dyscyplin	-10.0942
▁prędkość	-10.0942
▁wojnę	-10.0943
▁jądra	-10.0946
▁krypt	-10.0947
▁księstwa	-10.0948
▁braku	-10.0953
▁80.	-10.0955
▁bogu	-10.0956
▁obsługi	-10.0961
▁stałe	-10.0968
▁starszy	-10.0969
▁zapisu	-10.0971
▁rud	-10.098
▁grupę	-10.0983
dyna	-10.099
▁powszechny	-10.0991
▁łańcuch	-10.0991
▁całkowite	-10.0991
▁działał	-10.0994
▁zjawisko	-10.0995
typ	-10.1001
▁test	-10.1003
fon	-10.1009
acyjnych	-10.101
▁przedstawicieli	-10.101
▁październiku	-10.1016
▁substancji	-10.1016
▁republika	-10.1027
▁ważnym	-10.1027
del	-10.1028
▁pełne	-10.1032
nęła	-10.1035
а	-10.104
▁sformułowa	-10.104
▁urzędu	-10.1041
▁sin	-10.1048
ówka	-10.1055
▁powyższ	-10.1055
▁warszawski	-10.1056
▁mary	-10.106
▁rozważa	-10.1065
▁spotkał	-10.1065
▁żadne	-10.1067
▁połączenie	-10.1068
▁rzymskiego	-10.1069
▁liczbie	-10.1075
▁słów	-10.1076
▁hydro	-10.1083
gami	-10.1085
ris	-10.1088
▁wybrzeża	-10.109
▁środków	-10.109
▁wielka	-10.1091
▁rozbi	-10.1096
rr	-10.1097
▁chełm	-10.1115
▁każdym	-10.1121
▁stylu	-10.1122
▁pułk	-10.1124
▁drugiego	-10.1125
▁utworzono	-10.1125
▁składając	-10.1134
▁plik	-10.1144
▁zaczęła	-10.1145
2)	-10.1145
run	-10.1149
▁foto	-10.1164
▁pojawi	-10.1164
▁przekracza	-10.1165
▁komisji	-10.1165
▁średnia	-10.1174
▁widzi	-10.1175
ecki	-10.1175
▁mające	-10.1176
▁efekty	-10.1183
▁położon	-10.1188
▁najwyższe	-10.119
▁produkcja	-10.119
▁mogła	-10.119
°	-10.1191
▁bomb	-10.1191
▁60.	-10.1199
▁rozum	-10.1201
▁nik	-10.1207
▁okręgu	-10.1207
▁atmosfery	-10.1209
▁matematyk	-10.121
▁podkreśla	-10.1215
▁przedstawion	-10.1215
▁użyciu	-10.1215
▁wymienia	-10.1217
▁wybory	-10.1218
▁następn	-10.1219
▁fra	-10.1226
▁radom	-10.1236
gat	-10.1237
▁informacje	-10.124
▁inżynier	-10.124
▁przyjął	-10.1241
▁żół	-10.1242
acyjny	-10.1254
zar	-10.1262
▁gru	-10.1263
▁czyta	-10.1265
▁dostarcza	-10.1265
▁przeniesion	-10.1265
▁korpus	-10.1266
▁drużyn	-10.1266
▁sierpniu	-10.1267
▁potrzeby	-10.127
▁ver	-10.1273
%)	-10.1277
▁innego	-10.1279
▁kolejnym	-10.1285
▁wojskowych	-10.1286
▁wysłan	-10.1288
▁(3	-10.1289
▁william	-10.1291
▁choroby	-10.1291
▁sześć	-10.1291
▁katowic	-10.1291
tekst	-10.1294
▁wielkich	-10.1295
▁zakłady	-10.1296
bul	-10.1305
▁wielkim	-10.1308
▁niezależnie	-10.1308
▁sezon	-10.1311
▁temperatur	-10.1318
▁poglądy	-10.132
▁włoch	-10.1323
▁xii	-10.1329
▁paliw	-10.133
▁silne	-10.1335
▁większej	-10.1338
wewnętrzn	-10.1338
▁zdecydował	-10.1341
▁pozostaje	-10.1342
▁inni	-10.1343
▁klęsk	-10.1344
czności	-10.1349
▁każdej	-10.136
▁formę	-10.1364
▁hol	-10.1364
▁ściśle	-10.1367
▁dróg	-10.1367
▁władcy	-10.1368
▁towarzystwa	-10.1368
▁przyjmowa	-10.1369
▁podwodnych	-10.1369
▁specjalny	-10.137
ident	-10.137
▁pięciu	-10.1393
▁doktryn	-10.1393
▁sld	-10.1393
▁utwory	-10.1394
▁prezent	-10.1395
▁poczt	-10.1397
▁firmy	-10.1397
▁wolny	-10.1397
▁2021	-10.1399
esa	-10.1415
▁komunikacji	-10.1418
▁torped	-10.1419
▁wydawan	-10.1433
▁administracyjne	-10.1439
▁uzależni	-10.1439
▁wojsko	-10.1442
▁upadku	-10.1444
▁zbrojnych	-10.1444
▁wyborcze	-10.1446
▁powierzchnię	-10.1451
archi	-10.1454
▁miano	-10.1456
▁35	-10.1459
▁nacisk	-10.1461
mianem	-10.1464
▁księstw	-10.1464
morf	-10.1464
▁egipt	-10.147
▁nagrodę	-10.147
▁pozostawał	-10.147
▁kamieni	-10.1483
owskim	-10.1495
▁przewodniczący	-10.1496
▁rozpoczyna	-10.1496
▁pierwotne	-10.1496
▁rodzina	-10.1498
▁robert	-10.15
▁wodne	-10.1501
▁polityka	-10.1502
▁tysiąc	-10.1505
▁liście	-10.1509
▁prof	-10.1515
▁służy	-10.1517
graficzne	-10.1518
▁raczej	-10.1522
▁występował	-10.1527
całej	-10.1547
▁aparat	-10.1548
▁składnik	-10.1549
▁podjął	-10.1549
ped	-10.1553
[	-10.1554
▁auto	-10.1557
▁miejskiej	-10.1558
▁parku	-10.156
▁tematy	-10.1562
▁flag	-10.1567
▁powierzchnia	-10.1571
▁sur	-10.1572
▁przyjmuje	-10.1573
▁takiej	-10.1577
▁1992	-10.1578
mobil	-10.1578
▁nakład	-10.1579
owcy	-10.1582
▁kręg	-10.1584
▁okolicach	-10.1584
▁monar	-10.1587
życz	-10.1591
mes	-10.1593
▁własnych	-10.1593
▁plemion	-10.16
pew	-10.1604
▁1946	-10.1605
▁wyżyn	-10.1606
▁książki	-10.161
▁koncepcji	-10.1626
▁popularny	-10.1638
▁systemie	-10.164
▁organizowan	-10.1646
▁silny	-10.1651
▁zakończeniu	-10.1652
▁gatunki	-10.1652
▁wspólny	-10.1652
▁stuleci	-10.1652
powiedz	-10.1653
▁opart	-10.1664
▁imienia	-10.1668
▁mierze	-10.1677
▁pokoju	-10.1678
▁new	-10.168
▁wielokrotnie	-10.1681
ującej	-10.1684
patrz	-10.1687
▁rozdziel	-10.1694
▁try	-10.1703
▁urządzenia	-10.1709
▁duża	-10.1709
▁podstawą	-10.171
▁grze	-10.1713
tycznie	-10.1717
popular	-10.1718
▁prosty	-10.1724
▁polityczne	-10.1725
ori	-10.1727
▁praktyce	-10.1731
▁sygnał	-10.1731
▁archeolog	-10.1732
▁litewski	-10.1734
▁papież	-10.1735
▁1998	-10.1737
▁2022	-10.1737
▁różnice	-10.1743
▁owoc	-10.1744
bol	-10.1749
▁imion	-10.1757
▁twórczość	-10.1758
▁zachodnich	-10.176
▁prowadzon	-10.1764
▁późniejszych	-10.1768
kryte	-10.1774
▁zastosowania	-10.1774
▁będą	-10.1777
przestrzen	-10.1778
▁wyniki	-10.1779
▁opini	-10.1782
α	-10.1784
▁oryginaln	-10.1784
▁zależy	-10.1786
▁psycho	-10.179
tyczną	-10.1793
▁cesarski	-10.1794
logiczny	-10.1795
▁okup	-10.1796
▁'	-10.1814
▁obszarów	-10.1817
▁średniowieczn	-10.1826
▁‘	-10.1827
▁psl	-10.1828
▁czci	-10.1828
▁stronę	-10.1828
▁parlament	-10.1828
▁założył	-10.183
▁ułatwi	-10.1838
▁naukowych	-10.1845
niczych	-10.1845
▁kodu	-10.1851
twierdza	-10.1851
ker	-10.1854
▁ste	-10.1861
▁decyzję	-10.1864
▁kampanii	-10.1864
▁kościoły	-10.1865
▁treści	-10.1865
▁pory	-10.1865
▁judaizm	-10.1865
▁wnętrz	-10.1867
▁pismo	-10.1867
najmniej	-10.1878
ństwo	-10.188
wrót	-10.1888
▁uznaje	-10.1892
▁dużo	-10.1892
funk	-10.1895
▁piłsudski	-10.1896
rozwiąza	-10.1897
▁siark	-10.1901
bb	-10.1902
piast	-10.1903
▁reprezentowa	-10.1918
▁czyni	-10.1919
▁krajobraz	-10.1919
▁uprawia	-10.192
▁łatwo	-10.1922
▁1942	-10.1923
▁sama	-10.1929
▁proste	-10.1929
▁anarchi	-10.193
pacyfi	-10.1938
▁katowicach	-10.1942
▁powstań	-10.1943
▁zajmują	-10.1946
▁lutym	-10.195
sco	-10.1952
▁ann	-10.1954
▁komend	-10.1955
▁zachowania	-10.1956
▁złoty	-10.1959
pada	-10.1965
•	-10.1972
▁jakim	-10.1975
relig	-10.1981
▁lasy	-10.1985
▁definicji	-10.2
▁momencie	-10.2
▁nobla	-10.2
▁siedem	-10.2
▁skutki	-10.2
▁drogow	-10.2001
▁droga	-10.2002
▁kanady	-10.2003
▁1943	-10.2004
▁aktu	-10.2011
▁wybit	-10.2011
jom	-10.2015
▁est	-10.2016
▁miejskich	-10.2017
węgl	-10.2018
▁ścian	-10.2024
▁funkcjonuje	-10.2027
▁zwraca	-10.2027
▁orient	-10.2027
bat	-10.2029
▁papier	-10.204
▁takiego	-10.2046
▁europejskich	-10.2051
▁gazet	-10.2054
▁skarb	-10.2055
▁elektryczne	-10.2055
▁filip	-10.2056
▁tward	-10.2058
▁podaje	-10.206
▁kazimierza	-10.2063
▁zatok	-10.2065
czność	-10.2066
▁start	-10.2071
▁premiera	-10.2073
cyjnych	-10.2077
yzacji	-10.2077
▁techniki	-10.2078
▁czasami	-10.2081
▁bóstw	-10.2082
▁złożony	-10.2084
▁zastosowan	-10.2088
▁32	-10.2088
▁hus	-10.21
▁powrot	-10.211
▁pełnił	-10.211
▁nizin	-10.2112
▁ph	-10.2113
▁1995	-10.2115
▁ss	-10.2117
▁strefy	-10.2122
rdz	-10.2122
▁wyd	-10.2132
▁jerzy	-10.2135
▁słońce	-10.2137
▁potrafi	-10.2137
ńca	-10.2137
▁telefon	-10.2137
owice	-10.2139
▁narodu	-10.2144
▁równik	-10.215
encje	-10.2158
▁rocznie	-10.216
▁wskaźnik	-10.2164
▁sprzęt	-10.2164
▁wieś	-10.2167
zowane	-10.2168
▁najważniejsze	-10.2168
▁parlamentu	-10.2172
▁oparty	-10.2174
▁współczesne	-10.2179
▁słyn	-10.219
▁wspomina	-10.2192
▁otwarty	-10.2192
▁przekład	-10.2198
▁strajk	-10.2198
▁późniejsze	-10.2199
▁biskupa	-10.2202
▁zjawiska	-10.221
▁term	-10.2215
▁określenia	-10.222
▁siedzibę	-10.222
▁podmiot	-10.222
▁poznania	-10.2221
▁przyniosł	-10.2225
▁granice	-10.2225
▁ex	-10.2227
▁rzymie	-10.223
▁azot	-10.2232
▁wczesne	-10.2241
▁bre	-10.2245
▁gubernator	-10.2248
▁postrzega	-10.2248
▁stacji	-10.2251
▁czemu	-10.2254
▁faktyczn	-10.2258
▁mówiąc	-10.2258
▁leon	-10.2258
▁przepływ	-10.2259
indoeuropejski	-10.2263
powiada	-10.2265
▁przykładowo	-10.2273
istycznych	-10.2275
▁stosunki	-10.2276
▁wszyscy	-10.2276
▁złożone	-10.2276
▁dziele	-10.2279
bus	-10.2282
▁fizyk	-10.2282
▁wstęp	-10.2288
ther	-10.2289
▁własnej	-10.2295
▁relacji	-10.2295
▁programowania	-10.2298
▁śląska	-10.2298
▁rzadko	-10.2304
▁założenia	-10.2304
pisać	-10.2309
atoli	-10.2317
kowskiego	-10.232
lus	-10.2325
▁kolejowe	-10.2326
anty	-10.233
robot	-10.2332
▁niezbędn	-10.2332
▁siedziba	-10.2332
▁postanowił	-10.2332
▁prl	-10.2335
▁wykonywan	-10.2336
▁temp	-10.2338
▁med	-10.234
▁ważne	-10.235
▁dru	-10.2351
▁łuk	-10.2358
▁starożytny	-10.236
▁izotop	-10.236
▁miejska	-10.236
▁pewnym	-10.2361
▁wywołan	-10.2361
niczej	-10.2365
▁cr	-10.2367
▁senator	-10.2369
▁rozpoczęto	-10.2374
▁centralny	-10.2375
▁procesor	-10.2381
▁wysoko	-10.2382
obecnie	-10.2383
edle	-10.2387
▁ludwik	-10.2391
▁wyspie	-10.2402
▁krajowej	-10.2405
▁papieża	-10.2412
▁wykonywa	-10.2412
▁seks	-10.2412
▁izb	-10.2413
mos	-10.2413
▁pomysł	-10.2417
▁zajął	-10.242
izację	-10.2423
▁zdania	-10.2427
▁opublikował	-10.2436
▁stawia	-10.2442
▁leonardo	-10.2445
▁wchodzą	-10.2445
▁codzienn	-10.2445
▁zbrodni	-10.2445
▁jednoznaczn	-10.2446
kowanie	-10.2455
▁popiera	-10.2455
▁demon	-10.2458
▁promieni	-10.2463
▁woj	-10.2466
dania	-10.2468
▁end	-10.2468
▁wspomnian	-10.2473
▁zaledwie	-10.2473
▁oddziałów	-10.248
▁wirus	-10.2492
▁przeprowadza	-10.2499
tp	-10.25
▁afryki	-10.2502
▁kapłan	-10.2502
▁geo	-10.2505
▁nu	-10.2512
▁zmienił	-10.2513
▁nosi	-10.2513
▁służą	-10.2516
▁decyzji	-10.253
▁porównaniu	-10.2531
▁pawła	-10.2531
▁zdefiniowan	-10.2531
▁metrów	-10.2533
▁bas	-10.2534
▁1997	-10.2536
▁słoneczny	-10.2539
owską	-10.2544
▁drobn	-10.2549
▁medal	-10.255
ącego	-10.2552
▁150	-10.2557
▁sakrament	-10.2559
▁zachodzi	-10.256
▁procesie	-10.2569
▁żąd	-10.2586
▁wilhelm	-10.2588
▁praktycznie	-10.2588
▁antropolog	-10.2588
sprawiedliw	-10.2589
▁przeszłości	-10.259
▁parametr	-10.2591
▁rac	-10.2591
▁rewolucji	-10.2596
▁nastąpiło	-10.2608
▁belg	-10.261
▁piłsudskiego	-10.2612
owań	-10.2615
▁dywiz	-10.2618
▁przeprowadził	-10.2623
▁jeziora	-10.2625
▁uran	-10.2626
ven	-10.2627
▁bibli	-10.2633
▁ataku	-10.2637
arny	-10.2638
iąże	-10.2645
▁edward	-10.2647
▁waha	-10.2658
stycznej	-10.266
dane	-10.266
▁oparte	-10.266
▁odbyła	-10.2661
▁grub	-10.2668
sol	-10.2672
▁większa	-10.2675
▁przypadkach	-10.2675
▁liturgi	-10.2675
▁przywilej	-10.2675
▁towarzystwo	-10.2677
▁krzyża	-10.2677
▁ilość	-10.2677
▁hiv	-10.2688
▁poziomu	-10.269
szta	-10.2692
▁londynie	-10.2699
▁alternatyw	-10.2704
▁oficjalny	-10.2704
ującą	-10.2705
▁syntez	-10.2706
▁instytucji	-10.2733
▁najlepszy	-10.2733
▁prywatny	-10.2733
▁znaleźć	-10.2733
▁tradycyjne	-10.2733
▁rozwiązania	-10.2734
▁armię	-10.2734
▁dworze	-10.2744
▁indo	-10.2749
szon	-10.275
▁stanowiły	-10.275
▁brata	-10.2756
geografi	-10.2758
▁rozciąga	-10.2766
▁kwant	-10.2767
▁administracji	-10.2769
▁1938	-10.2769
▁muzyczne	-10.2771
▁słonecznego	-10.2774
▁chłod	-10.278
▁obchod	-10.2785
▁założyciel	-10.2792
▁zwykł	-10.2793
▁naturalny	-10.2797
▁naturalnych	-10.2799
▁niemieckim	-10.2803
zobacz	-10.2817
▁cele	-10.2819
▁wykazał	-10.2823
▁młode	-10.2823
▁1921	-10.2828
stawienie	-10.2828
▁macierzy	-10.2836
owość	-10.2838
▁społeczne	-10.2846
▁twierdzenie	-10.2847
▁serii	-10.285
ken	-10.285
▁angeles	-10.2851
▁pozycję	-10.2851
▁magnetyczne	-10.2852
▁poszczególne	-10.2852
▁uchwał	-10.2852
▁odmiany	-10.2862
▁miar	-10.2865
▁wytwor	-10.2869
▁filmie	-10.2875
▁obserwacj	-10.2876
▁wynosił	-10.2877
▁kategorii	-10.2881
▁kwietniu	-10.2881
▁zewnętrzne	-10.2881
▁opuścił	-10.2881
▁rzędu	-10.2881
▁zwierzę	-10.2887
▁natura	-10.2889
▁brzmi	-10.2892
znaczenie	-10.2893
▁medi	-10.2893
▁epoki	-10.2894
▁szkole	-10.2896
▁ciemn	-10.2896
▁legion	-10.2897
▁przebywał	-10.29
słuch	-10.2906
▁więzi	-10.2911
▁front	-10.2913
▁twór	-10.2914
▁zamku	-10.2917
▁użytkownik	-10.2921
▁polityk	-10.2923
▁kg	-10.2927
daj	-10.293
▁wysz	-10.2934
put	-10.2934
dos	-10.2937
▁wszystko	-10.294
▁zbiorów	-10.294
▁wzmiank	-10.2941
▁środki	-10.2941
▁konkurs	-10.2941
▁słabo	-10.2942
▁general	-10.2944
▁wolne	-10.2948
▁analizy	-10.2957
▁przypada	-10.2965
▁operacyjny	-10.2966
▁tożsam	-10.297
▁małopolski	-10.2971
▁wyraźnie	-10.2976
▁znana	-10.2976
▁1980	-10.2979
▁doktor	-10.2979
▁próbował	-10.298
▁regionie	-10.2991
▁niszczyciel	-10.3
▁instrument	-10.3
stw	-10.3
▁obecności	-10.3001
▁1993	-10.3006
rian	-10.3011
▁politycznej	-10.3017
hol	-10.3018
▁pocisk	-10.302
▁wschodnie	-10.3023
▁najwięcej	-10.3031
▁warszawa	-10.3031
▁jaw	-10.3035
▁grunt	-10.3035
▁celów	-10.3035
▁jork	-10.3035
▁osiem	-10.3036
▁george	-10.3043
▁biegun	-10.3052
służ	-10.306
▁powstaje	-10.3061
▁specyficzn	-10.3061
▁wskazuje	-10.3061
▁krakowa	-10.3065
▁(4	-10.3071
cesar	-10.3074
▁przejaw	-10.3075
▁zamieszkują	-10.3076
▁swe	-10.3078
▁obozu	-10.3091
▁pkb	-10.3092
▁miłości	-10.3092
▁dodatkowe	-10.3092
▁atlanty	-10.3106
bec	-10.3109
▁int	-10.3114
▁elementem	-10.3123
zen	-10.3124
▁rozwiązanie	-10.3131
▁komet	-10.3133
▁zawi	-10.3138
▁xxi	-10.314
▁kierowan	-10.3143
▁badanie	-10.3145
▁architekt	-10.315
▁literaturze	-10.3152
▁polskę	-10.3152
▁wypowiedzi	-10.3152
▁liczebn	-10.3152
▁religijnych	-10.3152
giel	-10.3153
▁henryka	-10.3161
san	-10.3182
ważny	-10.3182
▁tradycyjny	-10.3183
▁mogło	-10.3183
▁jakości	-10.3184
▁chemicznych	-10.3188
▁terenu	-10.3191
cykl	-10.3192
▁północny	-10.3193
▁wojskowej	-10.3194
▁drugie	-10.3197
▁rosjan	-10.3197
▁lep	-10.3199
▁tkan	-10.3202
▁sens	-10.3208
▁wszelkie	-10.3211
▁narodowe	-10.3211
▁ludowej	-10.3213
▁chemiczny	-10.3213
▁zrealizowa	-10.3213
▁jowisz	-10.3214
▁miedzi	-10.3215
▁stopień	-10.3215
▁pozostają	-10.3215
kował	-10.3216
▁wodoru	-10.3217
ukle	-10.3219
▁popularne	-10.3225
▁kończy	-10.3227
▁formuł	-10.3227
▁marsz	-10.3229
▁zrezygnowa	-10.3244
▁warunków	-10.3244
▁sąsiedni	-10.3244
▁handlowe	-10.3244
▁wschodnich	-10.3246
▁kolonia	-10.3248
dług	-10.3256
▁sąsiad	-10.3258
▁super	-10.3258
▁problemy	-10.3259
gal	-10.326
▁świadom	-10.3261
▁chwili	-10.3267
▁zatrzyma	-10.3274
bsd	-10.3274
▁(15	-10.3274
▁inaczej	-10.3275
▁fotograf	-10.3278
▁analogi	-10.3283
▁kaplic	-10.3287
▁niebieski	-10.3289
▁krzy	-10.3292
▁aleksandra	-10.3297
dża	-10.3297
▁kil	-10.3298
▁taką	-10.3304
▁przegląd	-10.3306
▁wykorzystanie	-10.3306
▁1994	-10.3311
▁wspólne	-10.3313
▁autorstwa	-10.3316
▁rozwijał	-10.3316
gard	-10.333
▁śle	-10.3333
▁funkcjonował	-10.3337
▁zaatakowa	-10.3337
▁przerwa	-10.3339
ett	-10.3343
_4	-10.3344
sfery	-10.3348
▁muzyczny	-10.3352
▁wydany	-10.3361
listów	-10.3363
▁kant	-10.3365
▁pracowni	-10.3367
▁egzemplarz	-10.3368
▁magazyn	-10.3368
▁zupełnie	-10.3368
▁olimpijski	-10.3368
▁wojennych	-10.3372
▁podstawowym	-10.3374
▁1933	-10.3375
▁zamek	-10.3376
▁malarz	-10.3381
rol	-10.3386
▁lubelski	-10.3387
▁bunt	-10.3388
jściu	-10.3388
tun	-10.3391
▁przekazan	-10.3392
▁średnio	-10.3398
▁otrzyman	-10.3399
▁1956	-10.3405
łożenie	-10.3422
▁hiszpan	-10.3424
komuni	-10.3425
klin	-10.3425
▁kościołów	-10.3431
▁wyznacza	-10.3431
▁lekki	-10.3433
▁częst	-10.3437
▁400	-10.3442
▁liczy	-10.3443
▁staje	-10.3455
▁historycznych	-10.3458
▁idei	-10.3459
▁męski	-10.3464
▁temperaturze	-10.3468
▁koła	-10.3474
▁społecznej	-10.3474
▁przebywa	-10.3478
▁wzrostu	-10.3479
▁stanowiło	-10.3482
▁lista	-10.3484
kult	-10.3488
▁wykaz	-10.3492
▁ukończył	-10.3494
▁poznaniu	-10.3494
▁pokarm	-10.3497
▁1996	-10.35
▁żołnierze	-10.35
▁zamian	-10.3503
▁egz	-10.3505
▁opisał	-10.3509
▁wykorzystywane	-10.351
▁kto	-10.351
history	-10.3514
▁dys	-10.3514
▁ofensyw	-10.3525
▁równocześnie	-10.3525
▁homo	-10.3526
gel	-10.353
▁wzór	-10.3531
▁ziemię	-10.3536
▁1950	-10.3537
hel	-10.3539
▁demo	-10.3539
▁dawniej	-10.3554
▁kawaler	-10.3557
▁ryt	-10.3561
▁"„	-10.3562
▁rzymian	-10.3568
▁dra	-10.3569
▁biolog	-10.357
▁użytku	-10.3581
▁media	-10.3583
▁alp	-10.3586
▁aspekt	-10.3589
▁gałęzi	-10.3589
▁dwoma	-10.3589
▁mniejszości	-10.3589
▁użycia	-10.3589
▁dywizji	-10.359
▁amerykańskich	-10.3591
▁gdyni	-10.3596
ndi	-10.3597
▁proto	-10.3599
▁śpiewa	-10.3602
▁otto	-10.3603
▁błon	-10.3604
miast	-10.3604
święt	-10.3605
chłop	-10.3611
nictwie	-10.3619
▁wspólnie	-10.3621
▁wydarzeń	-10.3621
▁zagranicznych	-10.3621
▁inną	-10.3621
styczna	-10.3621
▁okazji	-10.3623
▁patron	-10.3623
▁aplikacj	-10.3624
pił	-10.3625
▁uczestniczył	-10.3625
▁wręcz	-10.3646
get	-10.3648
▁spowodowało	-10.3651
▁matka	-10.3652
▁czasopism	-10.3653
▁następuje	-10.3653
▁obecność	-10.3653
▁floty	-10.3653
▁zmniejsza	-10.3654
▁zaczęl	-10.3654
▁geografia	-10.3656
▁1975	-10.366
▁natury	-10.3666
▁zachowanie	-10.3668
▁energia	-10.3671
▁miejscach	-10.3678
▁wspólnot	-10.3682
▁czerwonej	-10.3685
▁piśmie	-10.3685
▁urządzeń	-10.3687
▁formalnie	-10.3688
▁zwalcz	-10.3688
▁matematyki	-10.3691
▁wywiad	-10.3691
▁brał	-10.3694
▁utrat	-10.3694
▁kres	-10.3695
▁nakaz	-10.3704
▁łodzi	-10.3706
▁reguły	-10.3706
▁badaczy	-10.3707
zielone	-10.371
▁wkład	-10.3715
▁drogą	-10.3717
▁johann	-10.3717
▁ptaków	-10.3718
▁mistrzostw	-10.3718
▁robotnicz	-10.3719
▁wodzie	-10.3722
▁małych	-10.3723
▁generalnego	-10.3724
▁mięs	-10.3731
▁wojennej	-10.3733
▁rozpowszechni	-10.3733
▁światło	-10.3746
▁najbliższ	-10.375
▁odrzuca	-10.375
▁obejmował	-10.375
▁posłów	-10.3751
▁bogów	-10.3752
▁(16	-10.3756
▁turysty	-10.3756
▁1968	-10.3756
▁1922	-10.3756
▁powszechne	-10.3759
▁minut	-10.376
poznan	-10.3764
red	-10.3767
system	-10.3769
▁wojskowy	-10.3771
łączy	-10.3772
▁marii	-10.3772
▁częściej	-10.3774
▁innej	-10.3779
▁rocznic	-10.378
▁broń	-10.378
wschodniej	-10.3781
sal	-10.3782
▁zasług	-10.3782
▁poparcie	-10.3782
▁plików	-10.3783
▁wyborów	-10.3784
▁węgier	-10.3786
▁pokrywa	-10.3787
▁onz	-10.3796
rdzeni	-10.3798
▁kulturze	-10.3804
mont	-10.3805
▁zakup	-10.3811
jprawdopodobniej	-10.3815
▁wystarcza	-10.3815
▁brąz	-10.3815
▁wrócił	-10.382
arstwo	-10.3821
▁ostatnim	-10.3828
▁senatu	-10.383
nięte	-10.3845
▁biało	-10.3845
▁arystoteles	-10.3847
▁materii	-10.3848
▁wyżej	-10.3848
▁zabytki	-10.3848
▁sensie	-10.3848
▁zostanie	-10.3849
▁samych	-10.3856
▁1914	-10.3858
▁święta	-10.3859
czyński	-10.3861
▁zbudowany	-10.3862
▁prowadzone	-10.3867
▁każde	-10.3869
▁narodowych	-10.3874
▁żadnych	-10.388
▁kontroli	-10.3881
▁brygad	-10.3881
▁wisły	-10.3884
▁geograficzne	-10.3884
▁etymolog	-10.3885
▁geolog	-10.3886
▁zamieszkan	-10.3886
acyjnej	-10.3888
▁przedmiotem	-10.3894
▁zajmowa	-10.3901
stein	-10.3907
▁komunistyczne	-10.3907
▁dyrektor	-10.3913
▁ośrodka	-10.3913
▁przestrzeń	-10.3913
▁udziela	-10.3914
▁olej	-10.3918
szewski	-10.3919
▁granicę	-10.3926
plat	-10.3929
▁gogh	-10.3929
wiązanie	-10.393
▁polon	-10.3932
▁zadaniem	-10.3942
▁doprowadziło	-10.3944
▁publicznej	-10.3946
▁pojedyncze	-10.3946
▁konstantynopol	-10.3946
▁przechodzi	-10.395
▁james	-10.3952
▁1967	-10.3952
▁znajdujący	-10.3956
▁współczesnej	-10.3962
▁dał	-10.3974
▁węgierski	-10.3974
▁vii	-10.3975
równoważn	-10.3978
▁zarazem	-10.3979
▁mózg	-10.3979
▁dwukrotnie	-10.3982
▁uważany	-10.3985
▁międzynarodowej	-10.3986
▁char	-10.4003
▁opozycji	-10.4012
▁zastąpion	-10.4012
▁terror	-10.4016
ille	-10.4017
▁wezwa	-10.402
▁aleksander	-10.4046
▁stadion	-10.4046
▁zostaje	-10.4046
-1	-10.4055
▁procent	-10.4061
styczną	-10.4065
▁obrad	-10.4068
▁pływa	-10.407
▁pojawiają	-10.4074
▁najstarsze	-10.4079
▁zaprojektowa	-10.4079
▁mogli	-10.408
▁kolumn	-10.4081
▁młodzieży	-10.4086
▁katowice	-10.4099
▁geometr	-10.4107
▁istotny	-10.4108
▁różnią	-10.4112
▁dzisiaj	-10.4113
▁ogłoszon	-10.4113
ńczyków	-10.4115
ameryka	-10.4119
▁dna	-10.4125
▁szkod	-10.4128
▁stwierdza	-10.413
▁pil	-10.4133
▁bitwa	-10.4135
▁szwajcar	-10.414
var	-10.414
▁platform	-10.4146
▁wszelki	-10.4149
▁budowl	-10.4159
madonn	-10.4159
▁problemów	-10.4161
yfikacji	-10.4168
▁lokalnych	-10.4173
▁rozbudow	-10.4174
▁linię	-10.4177
▁kadencji	-10.418
stąpić	-10.418
▁teorię	-10.418
▁przechowywa	-10.418
▁cierpi	-10.4182
▁francuskiej	-10.4184
▁potęg	-10.4186
▁1948	-10.4188
górski	-10.4192
▁morskich	-10.4194
▁zbiera	-10.4199
▁itd	-10.4207
▁miliona	-10.4212
▁właściwe	-10.4214
wróceni	-10.4214
▁wielkość	-10.4216
zmie	-10.4231
▁podjęt	-10.4231
▁zawierające	-10.4232
▁używana	-10.4239
▁spin	-10.4241
siad	-10.4244
▁sekretarz	-10.4248
▁utworzenie	-10.4248
▁tworzenie	-10.4248
▁radzie	-10.4256
▁1960	-10.4257
▁1930	-10.4259
▁byt	-10.4262
▁udał	-10.4265
▁skalę	-10.4279
▁austrii	-10.4282
▁krzysztof	-10.4282
▁zaproponował	-10.4282
▁szwecji	-10.4282
▁zdobywa	-10.4283
▁eksport	-10.4285
▁rezerw	-10.4288
▁ocenia	-10.4305
▁brzegu	-10.4307
▁świąt	-10.4313
▁dowództwo	-10.4316
▁fryderyk	-10.4316
telewizyjn	-10.4316
▁ogólny	-10.4316
▁inicjatywy	-10.432
▁międzynarodowe	-10.4321
▁data	-10.4322
▁wynoszą	-10.4322
▁obywateli	-10.4322
▁płac	-10.4323
▁wiadomości	-10.4324
▁konfliktu	-10.4328
▁podwodne	-10.4329
▁zajęł	-10.433
–16	-10.433
chodzących	-10.4332
▁przewodni	-10.4337
medi	-10.4339
▁republik	-10.434
▁traktatu	-10.4346
▁«	-10.4348
▁dowództwem	-10.4351
▁wykorzystuje	-10.4351
▁pierwotny	-10.4351
▁utworzone	-10.4351
▁witos	-10.4352
▁oporu	-10.4353
▁wynikiem	-10.4354
▁promieniowania	-10.4355
bron	-10.4356
▁indian	-10.4357
▁1935	-10.4358
▁operator	-10.4361
nięciu	-10.437
ńczycy	-10.4371
▁czarny	-10.4382
▁najwyższym	-10.4383
▁południa	-10.4385
▁popularność	-10.4385
▁zawartości	-10.4386
▁pewnych	-10.4386
miesięczn	-10.4387
▁marks	-10.4388
więc	-10.4389
▁politykę	-10.4392
▁przyjaciel	-10.4397
▁zasadzie	-10.44
▁nieliczn	-10.44
▁sprawia	-10.44
▁typów	-10.4409
▁rozbudowan	-10.441
▁sprzyja	-10.442
▁wyższych	-10.4421
▁christ	-10.4426
▁historyczny	-10.4426
▁1981	-10.4426
▁targ	-10.4427
▁1934	-10.4428
▁strefie	-10.443
▁dowódca	-10.4437
▁wszech	-10.4438
▁cząsteczki	-10.4455
▁uniemożliwi	-10.4455
▁apostol	-10.4455
▁własną	-10.4455
▁imprez	-10.4455
▁stracił	-10.4456
▁szkoln	-10.4456
▁wyjechał	-10.4457
▁cd	-10.4465
sus	-10.4465
▁publikacji	-10.4465
▁młodych	-10.4468
▁starsze	-10.4475
▁sektor	-10.4476
▁umożliwiając	-10.4483
sygn	-10.4487
pielgrzym	-10.4489
▁rezultat	-10.4489
▁wykształceni	-10.4489
▁kilkanaście	-10.449
▁powinien	-10.449
▁umysł	-10.449
▁jerzego	-10.449
▁powieść	-10.449
▁tzn	-10.4491
▁towarzyszy	-10.4492
▁kochan	-10.4497
▁metodą	-10.4503
▁autorem	-10.4503
wróci	-10.4507
▁przyznan	-10.4507
▁wrocław	-10.452
▁pap	-10.4521
▁dostępne	-10.4524
▁starożytne	-10.4524
▁przewidywa	-10.4525
▁ślub	-10.4525
klasyfikowa	-10.4526
▁skrót	-10.4527
▁transform	-10.4528
▁muzyka	-10.4528
▁twierdził	-10.453
▁okazało	-10.453
▁wyrok	-10.4532
▁liczbą	-10.4533
▁synem	-10.4535
▁jakub	-10.4537
▁hotel	-10.4537
▁grecji	-10.4538
wel	-10.4539
▁can	-10.4543
▁występowanie	-10.4543
▁wykorzystując	-10.4546
▁muszą	-10.4547
akademi	-10.4555
▁znanym	-10.4555
▁ameryce	-10.456
▁koncepcja	-10.456
▁popularności	-10.4561
▁galicji	-10.4566
ńsko	-10.4572
▁należało	-10.4575
▁aten	-10.4576
▁marek	-10.4579
▁logik	-10.4582
▁południowe	-10.4589
▁własnego	-10.4594
towarzysz	-10.4595
▁demografia	-10.4595
▁jesienią	-10.4595
▁utwór	-10.4595
▁podpisał	-10.4595
▁utworzył	-10.4597
▁psycholog	-10.4597
▁ponown	-10.4613
▁panowanie	-10.4617
▁alkoholu	-10.4625
▁ciśnienie	-10.463
▁świecki	-10.463
▁uniwersal	-10.463
▁dąbrow	-10.4631
▁uznanie	-10.4634
ńscy	-10.4636
▁ropy	-10.4639
▁trafił	-10.4642
▁rokiem	-10.4644
++	-10.4645
tic	-10.4646
▁dowódcy	-10.4649
▁przeciwnika	-10.4652
▁konstantyn	-10.4665
▁aksjomat	-10.4666
▁gatunku	-10.4666
▁procedur	-10.4666
▁księgi	-10.4666
▁zawartość	-10.4666
▁wydawnictw	-10.4667
▁czerwony	-10.4669
fal	-10.4669
▁zachodnio	-10.467
▁biblioteki	-10.4673
pomorskie	-10.4674
strzeż	-10.4675
▁opinii	-10.468
lskiego	-10.4682
wrócić	-10.4684
▁komórki	-10.4695
▁danym	-10.4696
▁archipelag	-10.4701
▁częstotliwości	-10.4701
▁powstawał	-10.4701
▁znaczący	-10.4707
▁turbin	-10.4708
▁mieszkał	-10.4715
▁dotyczących	-10.4716
▁zakładów	-10.4726
▁kras	-10.473
▁atomów	-10.4733
▁bydgoski	-10.4737
▁ważną	-10.4738
▁pobytu	-10.4738
▁wojskowe	-10.4743
▁służył	-10.4747
▁znajdujące	-10.4747
▁1917	-10.4748
▁pochodzące	-10.475
▁gości	-10.4754
▁publicznego	-10.4757
rit	-10.4769
▁kwadrat	-10.4773
▁podobieństw	-10.4773
▁przedstawił	-10.4773
▁richard	-10.4773
html	-10.4773
▁imieniu	-10.4775
▁odbywają	-10.478
spiesz	-10.478
▁reguł	-10.4787
▁obiektyw	-10.4795
▁histori	-10.4802
▁artylerii	-10.4809
▁igrzysk	-10.4809
▁zabytków	-10.4809
pamiętn	-10.481
qui	-10.4811
▁poeta	-10.4813
▁1937	-10.4816
▁starego	-10.4817
skorup	-10.4819
▁późniejszym	-10.4822
▁arcybiskup	-10.4845
▁złote	-10.4845
▁rakiet	-10.4845
▁rynek	-10.4846
▁żydowskiej	-10.4846
▁dodatkowy	-10.4846
▁skazan	-10.4854
▁order	-10.4859
▁bazie	-10.4862
▁obsług	-10.4864
acyjnego	-10.4864
▁następnych	-10.4868
▁symbolem	-10.4879
▁pierwiastków	-10.4881
▁hebrajski	-10.4881
▁ujawni	-10.4881
▁trzeba	-10.4881
▁serb	-10.4886
▁wydaje	-10.4893
▁edycj	-10.4897
▁akcja	-10.4906
▁krąż	-10.4907
▁pochodzący	-10.4909
▁obszarach	-10.491
▁trwając	-10.4912
▁wolno	-10.4915
▁starożytności	-10.4917
▁napoleon	-10.4917
▁przypadki	-10.4919
▁bogini	-10.492
▁wyboru	-10.492
▁żoną	-10.492
głównie	-10.4927
▁chwil	-10.4929
▁wenus	-10.4931
van	-10.4934
▁górze	-10.4939
▁uważają	-10.4942
▁żar	-10.4948
–15	-10.4953
▁anonim	-10.4954
▁przyjęcie	-10.4954
▁uczniów	-10.4954
▁pięcio	-10.4954
▁cześć	-10.4955
▁rusi	-10.4955
▁realizacji	-10.4957
▁organizmów	-10.4961
▁rodzajów	-10.4967
▁bri	-10.4967
▁walce	-10.4968
▁konrad	-10.4972
▁pozwalając	-10.498
▁lotnicze	-10.4983
acyjnym	-10.4988
ward	-10.4989
▁obowiązując	-10.499
▁organizacje	-10.499
▁natychmiast	-10.499
▁pistolet	-10.499
▁bułgar	-10.4991
▁europejskiego	-10.4991
▁czarno	-10.5005
austral	-10.501
▁niemiecka	-10.5013
▁austria	-10.5017
▁lider	-10.5017
▁świętej	-10.5023
▁zainteresowanie	-10.5026
▁ewolucji	-10.5027
▁zbiory	-10.5027
▁buddyzm	-10.5028
łożeniu	-10.5028
▁grupą	-10.5032
powodowan	-10.5033
▁produktów	-10.5035
▁materiałów	-10.5053
chodzące	-10.506
▁zlokalizowan	-10.5064
▁renesans	-10.5064
▁pacjent	-10.5064
▁dzielą	-10.5064
▁wariant	-10.5065
▁obserwacji	-10.507
▁1982	-10.5071
▁okupacji	-10.5071
▁1931	-10.5071
▁fałsz	-10.5072
▁należące	-10.5077
▁publicznych	-10.508
izowany	-10.5096
▁uczestnik	-10.5101
▁pewien	-10.5101
▁lwowsk	-10.5102
▁najważniejszym	-10.5102
▁państwowej	-10.5103
sąd	-10.5103
▁literatura	-10.5104
▁freud	-10.5104
▁londyn	-10.5107
▁bart	-10.5114
▁milion	-10.5117
ologicznych	-10.5123
▁któremu	-10.5125
▁swą	-10.5128
▁cechą	-10.5128
▁aktywności	-10.513
-19	-10.5133
▁frontu	-10.5136
▁zmniejszeni	-10.5138
▁przetrwał	-10.5138
▁figur	-10.5139
▁zmuszon	-10.514
▁1947	-10.5145
ryzm	-10.515
▁hut	-10.5153
▁rzeką	-10.5154
▁zapisywan	-10.5161
niejsza	-10.5169
▁momentu	-10.5174
▁otrzymuje	-10.5176
▁zabezpiecz	-10.5176
▁wywołał	-10.5176
▁stolica	-10.5176
▁przeważa	-10.5176
▁rzeczownik	-10.5176
ryka	-10.5177
pędza	-10.5178
▁geograficzny	-10.5179
▁istotne	-10.5179
▁mniejszych	-10.5181
▁przekazywan	-10.5186
▁terytoria	-10.5191
▁stosowanie	-10.5195
▁tren	-10.5197
▁walut	-10.5198
ńcu	-10.5201
tajemnic	-10.5208
▁szar	-10.5212
▁przeważnie	-10.5213
▁kolonii	-10.5213
▁sklep	-10.5214
▁skrajn	-10.5214
▁gęstość	-10.5215
▁stosowana	-10.5218
▁1976	-10.5219
▁1970	-10.5221
▁napływ	-10.5228
▁komor	-10.5233
▁świętych	-10.5236
▁użytkowników	-10.5238
▁opisuje	-10.5247
▁wybuchł	-10.525
▁historię	-10.525
▁funkcjonują	-10.5251
▁zewnętrzny	-10.5251
▁koalicji	-10.5251
▁matematyczne	-10.5251
▁współczynnik	-10.5251
▁zdarza	-10.5251
▁uzyskać	-10.5252
▁północnym	-10.5252
▁królestw	-10.5256
num	-10.5259
▁krain	-10.526
▁południowym	-10.526
▁gier	-10.5261
twierdzenie	-10.5265
▁rosyjskiego	-10.5268
▁wyraźn	-10.5282
▁gall	-10.5284
▁fizyki	-10.5285
▁katastrof	-10.5288
▁jehowy	-10.5289
▁odkrycie	-10.5289
▁cztero	-10.5289
▁przyjęty	-10.5289
▁ukształtowan	-10.529
▁obywatelski	-10.5292
▁przyrost	-10.5292
▁województw	-10.5293
▁sięgają	-10.5296
▁równe	-10.5301
▁włos	-10.5302
▁poddan	-10.5303
▁odbywał	-10.5312
▁krew	-10.5317
▁odporn	-10.5317
▁składają	-10.5324
▁viii	-10.5324
▁"*	-10.5326
▁afryce	-10.5326
▁ministrów	-10.5326
▁prezydenck	-10.5326
▁kwestii	-10.5326
▁ciepła	-10.5326
▁poezji	-10.5326
▁bakteri	-10.5326
▁elektryczny	-10.5328
▁ekonomiczne	-10.5336
▁barbar	-10.5339
▁średniej	-10.5349
bun	-10.5357
▁istniejące	-10.5361
▁afryka	-10.5364
▁grzbiet	-10.5364
▁osiedli	-10.5364
▁powstaniu	-10.5364
▁żywności	-10.5364
▁osiągni	-10.5366
▁masyw	-10.5367
▁fizyczny	-10.5367
▁twierdzenia	-10.5375
▁wypadku	-10.5378
▁energię	-10.5378
▁statki	-10.5388
▁krok	-10.5391
▁kalisz	-10.5393
słowiański	-10.5394
▁cząsteczek	-10.5403
intelektual	-10.5403
▁przecięt	-10.5403
▁pogrzeb	-10.5403
▁lwowie	-10.5403
▁najazd	-10.5403
▁otwarte	-10.5403
▁odkrył	-10.5406
słonecz	-10.541
▁cyn	-10.5418
ford	-10.5424
▁dziennik	-10.5424
▁wielomian	-10.5426
żołnierz	-10.5431
▁królestwo	-10.5434
▁uruchomion	-10.5441
▁opracował	-10.5441
▁reprezentują	-10.5441
▁thomas	-10.5441
▁umieszcza	-10.5449
plan	-10.5464
klas	-10.5469
▁wielko	-10.5474
▁zwierzęta	-10.5474
▁francuskiego	-10.5476
▁świadczy	-10.5479
▁prowadzenia	-10.5479
▁rekord	-10.5481
▁rosnąc	-10.5483
▁oddziaływania	-10.5483
▁wizyt	-10.5484
▁biblii	-10.5487
▁step	-10.5488
▁wolnego	-10.5515
landia	-10.5516
▁odróżnieniu	-10.5518
▁powtarza	-10.5518
▁tradycyjnie	-10.5518
▁deklaracj	-10.5518
▁wyruszył	-10.5518
▁pieśni	-10.5518
▁objęci	-10.552
▁rewolucyjn	-10.5527
▁nys	-10.553
▁swym	-10.554
▁studentów	-10.5543
▁żydzi	-10.5546
▁tramwaj	-10.5557
▁porozumienia	-10.5557
▁rozległ	-10.5558
▁(...)	-10.5558
▁wysyła	-10.5558
▁miejscowość	-10.5558
niczym	-10.5558
100	-10.5561
prowadzili	-10.5567
▁zasila	-10.5568
▁dowolny	-10.5572
▁odpowiadają	-10.5587
▁rola	-10.5588
▁gdyby	-10.5593
▁pakiet	-10.5596
▁cypr	-10.56
▁1969	-10.5603
▁1936	-10.5604
▁turystyczny	-10.5614
▁odległość	-10.5635
▁skandynaw	-10.5635
▁drogę	-10.5635
▁niezależny	-10.5635
▁studiów	-10.5635
▁stosunek	-10.5635
▁tłuszcz	-10.5635
▁dwudziest	-10.5635
▁klasyfikacji	-10.5635
▁pełno	-10.5637
zbieżn	-10.5638
▁przymus	-10.564
organizacyj	-10.5649
▁turystyka	-10.5654
▁mol	-10.5654
▁nisz	-10.5667
reprezentacj	-10.5674
▁budynku	-10.5674
▁możliwy	-10.5674
▁przyszłości	-10.5674
▁zbigniew	-10.5674
▁turystów	-10.5674
▁autostrad	-10.5674
wyższy	-10.5682
▁kopalni	-10.5684
▁trudności	-10.5698
▁dolina	-10.5701
zjednoczeni	-10.5702
▁spr	-10.5707
▁umożliwił	-10.5707
▁charakteryzuje	-10.5713
▁oficjalne	-10.5713
▁osiągnięcia	-10.5713
▁pamięć	-10.5713
▁spotkania	-10.5713
▁technologii	-10.5713
▁państwowych	-10.5714
▁dawnych	-10.5714
program	-10.5736
fen	-10.5739
fit	-10.5749
▁efekcie	-10.5753
▁najlepsze	-10.5753
▁utrudni	-10.5753
▁wbrew	-10.5753
▁pascal	-10.5761
▁wolność	-10.5761
części	-10.5761
▁realizowan	-10.5762
▁wojną	-10.5766
▁dotycząc	-10.5768
rycerz	-10.577
▁zadania	-10.577
▁budynków	-10.5792
▁chrześcijaństwa	-10.5792
▁ewentualn	-10.5792
▁microsoft	-10.5792
▁ogóle	-10.5792
▁ośrodków	-10.5792
▁budynek	-10.5792
▁kolekcj	-10.5794
▁podejmowan	-10.5794
▁1973	-10.5799
▁1949	-10.58
▁zainteresowania	-10.58
▁światowa	-10.5801
▁zawarł	-10.5802
państw	-10.5805
▁arabskie	-10.5807
▁zbudowane	-10.5808
▁komórek	-10.5809
▁zabieg	-10.5819
▁zachodnim	-10.582
▁słownik	-10.5824
▁działający	-10.5832
▁integr	-10.5832
▁neutron	-10.5832
▁trybunał	-10.5832
▁znalezion	-10.5832
▁orkiestr	-10.5832
▁wyniosła	-10.5832
▁ryzyko	-10.5832
▁ładunk	-10.5832
▁powiecie	-10.5834
▁turniej	-10.5835
▁1954	-10.5839
▁zadanie	-10.5842
▁makro	-10.5842
▁studio	-10.5852
▁angielskiego	-10.5857
niesienie	-10.5859
▁bydgoszcz	-10.5861
▁powszechnego	-10.5861
▁przeszedł	-10.587
▁sportowe	-10.5871
▁laureat	-10.5872
▁pasażerski	-10.5872
▁średniowieczu	-10.5872
▁einstein	-10.5872
▁holender	-10.5872
▁utworzenia	-10.5872
▁pzpr	-10.5872
▁jordan	-10.5873
▁przejął	-10.5874
▁mieszkańca	-10.5874
▁seksualne	-10.5875
▁niepodległość	-10.5875
▁przetwarza	-10.5876
▁piwa	-10.5882
▁konsekwencj	-10.5888
▁uznany	-10.5893
▁indywidua	-10.5895
▁konsekwencji	-10.5896
brać	-10.5901
liwość	-10.5905
▁przeniósł	-10.5907
łączenie	-10.5909
▁żadnego	-10.591
▁gimnazjum	-10.5912
▁miliard	-10.5912
▁ogólnie	-10.5913
▁trójkąt	-10.5913
▁wewnętrznych	-10.5913
▁dzieje	-10.5915
▁szuka	-10.5916
informaty	-10.5918
▁1924	-10.5921
▁cas	-10.5924
▁deszcz	-10.5926
▁czynności	-10.5928
▁turystyczne	-10.5932
enberg	-10.5939
ołowi	-10.5942
▁wspólnego	-10.5943
▁polacy	-10.5944
▁podporządkowan	-10.5949
▁dwutlenku	-10.5953
▁funkcjonowani	-10.5953
▁marynarki	-10.5953
▁szkołę	-10.5953
▁niezależne	-10.5953
▁odzyskani	-10.5953
▁kolumb	-10.5953
▁statku	-10.5953
▁dotąd	-10.5954
▁wysokość	-10.5956
hydr	-10.5959
▁rozumian	-10.597
▁składzie	-10.5981
▁święty	-10.5983
▁brytyjsk	-10.5987
▁nerw	-10.5987
▁opanowan	-10.5989
▁moraw	-10.5991
▁konstytucja	-10.5993
▁perspektyw	-10.5993
▁pluton	-10.5993
▁francuz	-10.5993
▁komercyjn	-10.5994
▁wniosek	-10.5994
▁wyznania	-10.5994
▁german	-10.5995
▁śląskiego	-10.5999
▁1926	-10.6001
▁przedstawiając	-10.6003
kocha	-10.6004
▁senat	-10.6005
▁biłgoraj	-10.6034
▁moderniz	-10.6034
▁stworzenia	-10.6034
zlikwidowan	-10.6034
▁poparcia	-10.6034
▁statków	-10.6034
▁wzięł	-10.6037
▁zagraniczne	-10.6037
▁radykaln	-10.6039
▁skąd	-10.6039
▁twierdzą	-10.6039
▁zwolenników	-10.604
▁akcent	-10.604
▁samic	-10.6041
▁sumie	-10.6047
▁operacyjne	-10.605
▁młodzież	-10.6066
▁politycznego	-10.6074
▁rzadziej	-10.6075
▁nowoczesne	-10.6075
▁chinach	-10.6076
▁tarcz	-10.6078
▁umiejętności	-10.6078
▁kwiat	-10.6081
▁1957	-10.6082
właśc	-10.6083
▁georg	-10.6085
▁książ	-10.609
▁publiczne	-10.6092
▁płaszcz	-10.6095
▁amerykańskiej	-10.6099
▁strukturę	-10.6106
▁pełny	-10.6106
▁kilometrów	-10.6116
▁wincenty	-10.6116
▁odwiedził	-10.6116
▁niewiele	-10.6117
▁elektrowni	-10.612
▁szerokości	-10.6124
▁książce	-10.6128
▁beskid	-10.6131
▁północna	-10.6142
stawić	-10.6143
▁rezerwat	-10.615
▁cook	-10.6152
▁kształci	-10.6157
▁utożsamia	-10.6157
▁budynki	-10.6157
▁reaktor	-10.6157
▁uzbrojenie	-10.6157
▁bałtyck	-10.6157
▁wodą	-10.6157
▁powłok	-10.6158
▁raport	-10.6158
▁kompani	-10.6161
▁1988	-10.6165
▁czołgów	-10.6165
▁marian	-10.6167
▁hip	-10.6172
▁amerykańskiego	-10.6175
▁sand	-10.6178
▁budowie	-10.6179
▁czołg	-10.619
▁gospodarstw	-10.6192
▁ministra	-10.6198
▁iloczyn	-10.6198
▁rozgrywa	-10.6199
▁wszechświat	-10.6199
▁artysty	-10.621
▁metry	-10.6221
▁rosyjskiej	-10.6232
▁skomplikowan	-10.624
▁krótkie	-10.624
▁likwidacj	-10.624
▁skonstruowa	-10.624
▁miarę	-10.6249
▁stanął	-10.625
▁przedział	-10.6252
▁spadek	-10.627
kategoria	-10.6281
▁nośnik	-10.6283
▁kost	-10.6283
▁teraz	-10.6284
▁dialog	-10.6285
▁1932	-10.6289
▁1923	-10.6289
▁obwod	-10.6296
▁trafi	-10.6316
▁książka	-10.6322
▁wacław	-10.6323
▁wzrasta	-10.6323
błyskawic	-10.6323
stąpienie	-10.6323
jczyków	-10.6329
▁pracowników	-10.633
▁filozoficzne	-10.6344
▁różniczk	-10.6347
▁zawarty	-10.6357
▁następnego	-10.636
▁rzymskokatolick	-10.6365
▁franciszka	-10.6365
▁odkrycia	-10.6365
▁środka	-10.6365
▁juliusz	-10.6366
▁1951	-10.6373
▁wojskowego	-10.6394
▁zaraz	-10.6401
ring	-10.6403
łączono	-10.6406
▁konstytucyjn	-10.6407
▁sosnkowski	-10.6407
▁księga	-10.6408
▁konieczności	-10.6408
▁chopin	-10.6409
▁martin	-10.641
▁prawdziwe	-10.641
▁narodowości	-10.6412
▁plam	-10.6412
wodór	-10.6416
natural	-10.6424
▁katolickiego	-10.6425
▁ogólno	-10.6449
▁doświadczenia	-10.645
▁galaktyk	-10.645
▁paweł	-10.645
▁wiosną	-10.645
▁kamienic	-10.6452
▁tworzył	-10.6452
▁twórców	-10.6452
▁hymn	-10.6455
ologię	-10.6458
▁stacja	-10.6461
▁podstawową	-10.6477
▁rozpoczęły	-10.648
wcześniej	-10.6488
▁medyczne	-10.649
▁cząstek	-10.6492
▁instytucje	-10.6492
▁wprowadzenia	-10.6492
▁zagrożenie	-10.6492
▁komisja	-10.6492
▁gospodarczej	-10.6492
▁tymczasem	-10.6492
▁automatyczn	-10.6493
▁występujące	-10.6494
▁1984	-10.6499
▁obiegu	-10.65
▁niemiecką	-10.6508
▁współczesny	-10.6514
▁statek	-10.6516
▁minima	-10.6521
▁pojedynczy	-10.6535
▁południowa	-10.6535
▁wziął	-10.6535
▁ustawodawc	-10.6535
▁cywilne	-10.6536
▁cyryl	-10.6536
▁aktywność	-10.6541
genetyczn	-10.6542
▁nosił	-10.6547
▁śr	-10.6549
▁tytan	-10.6551
▁janusz	-10.656
▁przekazał	-10.656
▁biuro	-10.6567
hit	-10.6568
▁zwolennik	-10.6572
▁najlepiej	-10.6578
▁osiągnęł	-10.6578
▁wyprodukowa	-10.6578
▁potencjaln	-10.6578
▁zastąpił	-10.6578
▁przypadków	-10.6578
▁zamieszkał	-10.6578
▁warszawskiej	-10.6578
▁adolf	-10.6578
▁komendant	-10.6581
▁przemyśle	-10.6581
]]	-10.6582
▁mieszanin	-10.6584
▁proton	-10.6594
▁niższe	-10.6595
▁dostępny	-10.6611
▁raf	-10.6614
śląsk	-10.662
▁friedrich	-10.6621
▁konferencji	-10.6621
▁przyjaciół	-10.6621
▁następująco	-10.6621
▁batalion	-10.6621
▁charakteryzują	-10.6622
▁wersje	-10.6622
▁architektury	-10.6622
▁floren	-10.6624
▁dzisiejszego	-10.6627
▁prostu	-10.6627
▁mieszko	-10.6627
▁1983	-10.6627
▁1979	-10.6627
▁szwajcarii	-10.6629
▁jod	-10.6633
samo	-10.6639
▁siat	-10.6644
▁federal	-10.6654
▁rzeczywiste	-10.6664
▁sytuację	-10.6664
▁przestał	-10.6667
▁podawan	-10.6667
▁złota	-10.6674
▁czołow	-10.668
▁oświadcz	-10.6684
związk	-10.6688
▁diag	-10.6697
▁pobiera	-10.6698
ięcia	-10.6704
▁trudno	-10.6707
▁gnieźnie	-10.6708
▁średniowiecza	-10.6708
kreślił	-10.6708
▁sześciu	-10.6708
▁chcąc	-10.6709
▁chorób	-10.6709
▁partie	-10.6709
▁charles	-10.671
▁1987	-10.6715
▁występowania	-10.6717
▁chór	-10.672
▁pracując	-10.6723
▁serca	-10.6747
muzułmański	-10.6751
▁siedziby	-10.6751
▁wieczor	-10.6752
▁otwarto	-10.6752
▁david	-10.6752
szczególn	-10.6752
▁równin	-10.6753
▁akademicki	-10.6757
▁kolegi	-10.6759
▁zawodnik	-10.6761
▁1915	-10.6764
▁budowlan	-10.6786
stępują	-10.6788
seks	-10.6788
▁hitchcock	-10.6795
▁powrocie	-10.6795
▁siedmiu	-10.6795
▁utracił	-10.6795
▁oprogramowania	-10.6795
▁hrabi	-10.6796
▁1974	-10.6802
▁przesłan	-10.6802
▁sprawił	-10.6803
▁wykorzystywany	-10.682
prowadzając	-10.6831
pisano	-10.6832
▁łódzki	-10.6839
▁zjazd	-10.684
później	-10.6841
▁szabat	-10.6842
▁ręce	-10.6843
▁newton	-10.6843
▁francis	-10.6844
▁pochodził	-10.6846
▁kujawsk	-10.6851
▁parafia	-10.6851
▁dąży	-10.6856
▁poznał	-10.6859
krwaw	-10.686
▁północnego	-10.6864
▁kuchni	-10.6866
▁wywołuj	-10.6871
pisana	-10.6881
▁otrzymywan	-10.6884
▁egipski	-10.6884
▁ojczyzn	-10.6884
▁germański	-10.6884
▁australii	-10.6884
▁mitologii	-10.6887
terapii	-10.6889
▁książek	-10.6893
▁przejęci	-10.6894
▁szwed	-10.6896
▁rejs	-10.6901
onizm	-10.6901
▁widm	-10.6907
bezpieczeństwo	-10.6928
▁zginęło	-10.6928
▁pieniądz	-10.6928
▁stowarzyszenie	-10.6928
▁włoszech	-10.6928
▁gramatyk	-10.6928
▁zakażenia	-10.6928
▁spożywa	-10.6929
–12	-10.693
▁spowodowane	-10.693
▁zwrócił	-10.6933
▁ekonomiczny	-10.6933
▁1927	-10.6937
▁1964	-10.6938
osobowe	-10.6947
▁policji	-10.6949
▁niemniej	-10.6958
król	-10.6959
▁społecznego	-10.6964
solidarności	-10.6973
▁rezultacie	-10.6973
▁współpracę	-10.6973
▁stowarzyszenia	-10.6973
▁brytania	-10.6973
▁biorąc	-10.6973
▁patent	-10.6973
▁global	-10.6974
▁chrzest	-10.6974
▁austro	-10.6974
wojewod	-10.6976
▁1952	-10.6981
▁1962	-10.6981
podwójn	-10.699
▁generalny	-10.6991
▁całość	-10.6991
▁mezo	-10.6992
▁ciecz	-10.7
▁moment	-10.7002
▁ciąż	-10.7004
▁światową	-10.7007
▁wodę	-10.7009
▁wytwórni	-10.7018
▁edukacji	-10.7018
▁widoczne	-10.7018
▁sprawiedliwości	-10.7018
▁jur	-10.7019
▁grzyb	-10.7019
▁dekret	-10.7019
▁gospodarczego	-10.702
▁epok	-10.7021
▁saturn	-10.7022
▁publiczny	-10.7043
▁rock	-10.7054
▁głęboki	-10.7063
▁imieniem	-10.7065
▁równy	-10.7066
▁wschodnio	-10.7068
który	-10.707
▁1929	-10.7071
według	-10.7073
▁hiper	-10.708
▁słowian	-10.7083
▁bogactw	-10.7094
▁jedności	-10.7106
▁wykonywania	-10.7107
▁wyróżnić	-10.7108
▁gatunek	-10.7108
▁porozumienie	-10.7108
▁okoliczności	-10.7108
▁sprawował	-10.7108
▁walcząc	-10.7109
▁indyjski	-10.711
▁wyborczy	-10.711
▁wywarł	-10.7111
▁studiował	-10.7111
▁składał	-10.7112
▁1972	-10.7116
▁podzielone	-10.7133
▁zdanie	-10.7138
▁opisując	-10.7141
▁uzyskania	-10.7148
▁absolut	-10.7153
▁kontynuował	-10.7153
▁przekształcon	-10.7153
▁uroczystości	-10.7153
▁środkowo	-10.7153
▁kwestia	-10.7153
▁finansowe	-10.7154
▁fundacj	-10.7154
▁bogart	-10.7156
skrypt	-10.7161
▁pomaga	-10.7167
▁carl	-10.7177
portugal	-10.7192
ńczyk	-10.7194
solidarność	-10.7199
▁punkcie	-10.7199
▁wzrosła	-10.7199
▁julian	-10.72
▁dystrybucj	-10.7202
trzymał	-10.7211
▁intel	-10.7213
▁olbrzymi	-10.7213
mokrat	-10.7225
▁dekad	-10.7227
ctwa	-10.7229
raża	-10.7235
▁kolejności	-10.7237
▁alfred	-10.7245
▁żeglug	-10.7245
▁spółki	-10.7245
▁interpretacji	-10.7245
▁norweski	-10.7245
▁kontrolowa	-10.7246
▁sylab	-10.7246
▁karabin	-10.7247
▁regionalne	-10.7251
▁1928	-10.7254
▁1925	-10.7256
▁format	-10.7257
żywot	-10.7263
▁sejmik	-10.7268
▁najważniejs	-10.7283
▁robotników	-10.7291
▁żaden	-10.7291
powietrz	-10.7296
▁armat	-10.7299
▁stosowania	-10.7306
▁dopływ	-10.7316
▁młody	-10.732
niezwykle	-10.7337
▁największa	-10.7337
▁właściwy	-10.7337
▁modlitw	-10.7337
▁handel	-10.7339
▁gmach	-10.7342
▁połowa	-10.7346
▁1961	-10.7346
▁centralnej	-10.7354
▁świadomości	-10.7358
klucz	-10.736
▁święte	-10.7365
▁muzea	-10.7376
definiowa	-10.7379
town	-10.7383
▁określić	-10.7384
▁pośrednictwem	-10.7384
▁rzeczywistych	-10.7384
▁zagrożenia	-10.7384
▁spędził	-10.7384
▁rozwojem	-10.7384
▁monitor	-10.7384
▁organizację	-10.7386
▁dawki	-10.7387
▁jezus	-10.7387
▁sekund	-10.7388
▁więzienia	-10.7392
▁sztuczny	-10.7404
▁basen	-10.7406
▁pęd	-10.7426
burza	-10.7428
▁całkowity	-10.7431
odniesieniu	-10.7431
▁córki	-10.7431
▁poniższ	-10.7431
▁jean	-10.7431
▁załogi	-10.7432
▁diet	-10.7435
łączenia	-10.7436
▁1963	-10.744
jechał	-10.7448
▁kraków	-10.7449
▁promieniowanie	-10.7449
▁przyznał	-10.745
▁mecz	-10.746
▁kulturalne	-10.7463
▁świec	-10.7465
▁stwierdzono	-10.7477
▁utrzymywan	-10.7477
▁holandii	-10.7477
▁ciśnienia	-10.7477
▁rolnictwa	-10.7477
▁planetoid	-10.7478
▁niemcami	-10.7478
▁protestancki	-10.7478
▁pancernik	-10.7478
▁zdolności	-10.7478
symfoni	-10.7478
▁niewoli	-10.7481
▁1916	-10.7488
▁ekran	-10.7494
▁wykazują	-10.7502
vol	-10.7503
hard	-10.7516
▁euklides	-10.7525
▁przymiotnik	-10.7525
▁kapitan	-10.7525
▁postulat	-10.7526
▁enzym	-10.7526
▁krzem	-10.7534
łączony	-10.7536
▁jud	-10.7536
▁zaleca	-10.7543
▁pochowany	-10.7545
▁twórca	-10.7545
▁doliny	-10.7547
▁zamierza	-10.7552
▁jądrowe	-10.7562
▁1900	-10.7564
▁herman	-10.7566
▁przygotowywa	-10.7572
▁przystąpił	-10.7572
▁jarosław	-10.7572
▁kontrolę	-10.7572
▁hrabstw	-10.7572
▁delegat	-10.7572
▁bernard	-10.7572
▁bergman	-10.7572
▁burmistrz	-10.7573
▁chmur	-10.7574
▁etniczny	-10.7575
▁rozryw	-10.7577
▁oblicza	-10.7578
▁obronne	-10.7578
dawania	-10.7578
▁przyjmują	-10.7581
▁apel	-10.7588
▁psychologiczn	-10.7593
▁cud	-10.7598
▁narodowo	-10.7601
▁jack	-10.7611
zdrow	-10.7612
▁ciężar	-10.762
▁fundusz	-10.762
▁objętości	-10.762
▁utrzymywał	-10.762
▁uzupełnia	-10.762
▁zapoczątkował	-10.762
▁produkcję	-10.762
▁ustanowion	-10.762
▁wreszcie	-10.762
▁zaopatrzeni	-10.762
▁tradycja	-10.762
▁reakcja	-10.762
▁założony	-10.762
▁zadań	-10.7621
▁[[	-10.7621
racibor	-10.7621
▁odmówił	-10.7623
▁niedziel	-10.7626
▁umowy	-10.7629
▁1955	-10.763
morfizm	-10.7632
▁ustala	-10.7639
▁trudne	-10.7644
▁członek	-10.765
około	-10.7659
łączyć	-10.7663
▁joseph	-10.7667
▁medycyny	-10.7667
▁zaburzenia	-10.7667
▁główna	-10.7668
▁wysłał	-10.767
▁mongol	-10.767
▁wyraził	-10.769
▁zanim	-10.7693
▁zespoły	-10.7716
▁zdrowotn	-10.7716
▁walczył	-10.7717
▁żydowskiego	-10.7719
▁wygnan	-10.7719
▁bell	-10.7722
▁1977	-10.7723
▁schemat	-10.7725
▁morzu	-10.7732
region	-10.7735
podobnie	-10.774
▁sztuczne	-10.776
▁klasyfikacja	-10.7764
▁testament	-10.7764
▁zginął	-10.7764
▁pewną	-10.7764
▁1986	-10.7774
▁marcin	-10.7774
śpiew	-10.7779
▁wschodnim	-10.778
prowadzeniu	-10.7792
▁obsługuj	-10.7798
▁stężenie	-10.7812
▁uczęszcza	-10.7812
▁zwiększy	-10.7812
▁stosunków	-10.7812
▁wsparcie	-10.7812
▁kapitał	-10.7812
▁obyczaj	-10.7812
▁konieczność	-10.7813
▁rąk	-10.7819
▁stosowano	-10.7819
▁mniejszym	-10.7824
▁konieczne	-10.7828
▁misji	-10.7829
▁żyjący	-10.783
▁afro	-10.7848
▁wybrzeże	-10.7861
▁wybrzeżu	-10.7861
▁kontekście	-10.7861
▁przestrzega	-10.7861
▁przyjęcia	-10.7861
▁zdolność	-10.7861
▁wiążą	-10.7862
▁tysiącleci	-10.7862
▁kodeks	-10.7862
▁białego	-10.7864
▁obrzęd	-10.7864
▁dunaj	-10.7867
▁poraż	-10.787
▁elit	-10.7872
▁1965	-10.7872
▁mościcki	-10.7872
kazania	-10.7879
▁odłam	-10.7879
▁farb	-10.79
▁urzędowy	-10.7906
▁habsburg	-10.791
▁konstrukcja	-10.791
▁stworzenie	-10.791
▁szacuje	-10.791
▁louis	-10.791
▁podejście	-10.7911
▁awans	-10.7912
▁odnotowan	-10.7914
▁wybór	-10.792
▁albert	-10.792
▁małż	-10.7922
pisanie	-10.7925
▁jasne	-10.7927
▁szans	-10.7929
▁rozpowszechnion	-10.7936
▁raj	-10.7939
▁szczep	-10.794
▁chrom	-10.7942
osobowy	-10.795
▁beatles	-10.7959
▁matematyczny	-10.7959
jeździe	-10.796
▁żagl	-10.796
pamiątk	-10.7961
▁powodów	-10.7962
▁kosmiczne	-10.7965
▁wykazuje	-10.7969
▁harmoni	-10.7974
▁kotlin	-10.7979
▁głębokości	-10.8009
▁obserwator	-10.8009
▁ugrupowania	-10.8009
▁rozwinął	-10.8009
▁poważne	-10.8009
▁władca	-10.8012
▁daniel	-10.8026
▁wojenny	-10.8031
▁rewolucj	-10.8042
▁słupsk	-10.8042
▁przeprowadzone	-10.8059
▁wincentego	-10.8059
▁szlachecki	-10.8059
▁utworzony	-10.8059
▁mechanik	-10.8059
▁bożej	-10.806
▁serwis	-10.806
cjusza	-10.8062
▁jazz	-10.8063
▁strzał	-10.8063
▁1971	-10.8066
▁1958	-10.8067
▁płuc	-10.807
▁polimer	-10.8071
▁prowadzą	-10.8077
katolicki	-10.8085
▁szkoleni	-10.8086
▁podjęł	-10.8093
▁rosyjskie	-10.8095
audi	-10.8108
▁definiuje	-10.8109
▁diecezji	-10.8109
▁obowiązek	-10.8109
▁podzielić	-10.8109
▁kierunek	-10.8109
▁kierownictw	-10.8109
▁socjolog	-10.8109
▁naftowej	-10.8109
▁finansowy	-10.8109
▁klient	-10.8109
▁pancerny	-10.811
▁dowodzon	-10.8113
▁dociera	-10.8115
▁maszynowy	-10.8118
▁aktywny	-10.8136
▁niepodległ	-10.815
▁university	-10.8159
▁dzierż	-10.8159
▁nowoczesny	-10.816
▁zgodził	-10.816
▁powodem	-10.8161
▁chrystus	-10.8163
rick	-10.8165
▁wodza	-10.8171
▁schron	-10.8194
nauk	-10.8196
▁smak	-10.8196
▁począwszy	-10.8209
▁zauważa	-10.8209
▁rolnictwo	-10.821
▁rozwinęł	-10.821
▁córka	-10.821
symetryczn	-10.8211
▁paryża	-10.8214
▁mocarstw	-10.822
▁niskie	-10.8224
▁ubezpiecz	-10.826
▁ignacy	-10.826
▁rosyjskim	-10.826
▁wersję	-10.8261
▁italii	-10.8261
▁redukcj	-10.8262
owatych	-10.8266
▁1978	-10.8268
▁wiązał	-10.827
▁1985	-10.827
▁datowan	-10.827
arabski	-10.8274
▁zawarci	-10.8276
▁1910	-10.8279
trans	-10.8284
▁biograf	-10.8301
▁kreacj	-10.8303
▁ideolog	-10.8304
▁odwołan	-10.8304
▁przekształca	-10.8311
▁przeprowadzono	-10.8311
▁telewizji	-10.8311
▁zewnątrz	-10.8311
▁rozporządz	-10.8311
▁rozszerza	-10.8311
▁samochodow	-10.8311
▁dokonywan	-10.8312
▁chłopów	-10.8313
▁wcześniejsze	-10.8313
▁sześcio	-10.8314
▁urządzenie	-10.8319
amerykański	-10.8327
▁dziur	-10.8329
analityczn	-10.8341
▁domaga	-10.8347
▁urban	-10.8347
▁energetyczn	-10.8363
▁irlandzki	-10.8363
▁włodzimierz	-10.8363
▁psychiatr	-10.8363
▁polityczna	-10.8363
▁liceum	-10.8363
▁książąt	-10.8363
▁wysoką	-10.8363
▁mianowany	-10.8365
▁powstańców	-10.8366
▁gnu	-10.8367
▁czwarte	-10.8368
▁biologiczne	-10.8368
heim	-10.8373
▁potężn	-10.8375
▁branż	-10.8382
chęć	-10.8383
▁powietrze	-10.8392
▁bytom	-10.8399
▁reprezentant	-10.8414
▁chrześcijaństwo	-10.8414
▁redaktor	-10.8414
▁samochodów	-10.8414
▁zorganizował	-10.8414
▁właściwie	-10.8414
▁oprogramowanie	-10.8414
▁odkryto	-10.8414
▁davis	-10.8414
▁weszła	-10.8414
▁wymiany	-10.8415
▁teologiczn	-10.8415
▁armią	-10.8416
▁puchar	-10.8416
▁posła	-10.8418
▁następnym	-10.8419
▁poważnie	-10.8423
▁bronisław	-10.8423
▁2023	-10.8425
▁artystyczne	-10.8428
dostęp	-10.8446
▁korzystając	-10.8449
▁ostrze	-10.8454
mistrz	-10.8455
▁kompilator	-10.8466
▁uwzględnia	-10.8466
▁jednostką	-10.8466
▁zdołał	-10.8466
▁komunikacyjny	-10.8466
▁majątku	-10.8466
▁władców	-10.8466
▁teorie	-10.8466
▁obrotu	-10.8466
▁pokojowe	-10.8467
▁płaszczyzn	-10.8467
▁pokonał	-10.8468
▁1953	-10.8476
miejski	-10.8479
▁dowodzeni	-10.848
▁twórcy	-10.8482
▁cywilizacji	-10.8518
▁wehrmacht	-10.8518
▁wystąpienia	-10.8518
jpopularniejszy	-10.8518
▁osobę	-10.8518
▁wydziela	-10.8518
▁uczynił	-10.8518
▁partyjn	-10.8519
▁ptaki	-10.8525
trój	-10.8534
literatur	-10.8539
▁opisywan	-10.8541
przyjaciel	-10.8553
psychiczn	-10.8559
▁działające	-10.8565
ujednoznacznieni	-10.857
▁emigracji	-10.857
▁prefekt	-10.857
▁scenariusz	-10.857
▁ogląd	-10.8571
▁utworu	-10.8572
▁służący	-10.8573
▁przewoz	-10.858
▁remont	-10.8584
yjską	-10.8585
▁lenn	-10.8591
▁każd	-10.8596
▁połączeniu	-10.8623
▁węzłów	-10.8623
▁dóbr	-10.8623
▁stężenia	-10.8623
szlachetn	-10.8623
▁pobliski	-10.8624
▁fluor	-10.8624
▁osiedle	-10.8624
▁rozmowy	-10.8626
▁polscy	-10.8628
▁lewicow	-10.8629
▁przechodzą	-10.8632
▁dodatni	-10.8642
▁zgody	-10.8646
▁ratusz	-10.8649
rydz	-10.8663
prowadzona	-10.867
▁ambasad	-10.8676
▁konfederacji	-10.8676
▁międzywojennym	-10.8676
▁wyjazd	-10.8676
▁stworzony	-10.8676
▁siedmio	-10.8676
▁komunikacja	-10.8676
▁ukończeni	-10.8676
▁artystów	-10.8676
▁teorią	-10.8676
▁szczątk	-10.8676
▁widoczny	-10.8676
▁przyszły	-10.8677
▁wiktor	-10.8677
▁indii	-10.8678
▁polityczną	-10.8679
▁przystosowan	-10.8679
▁mnich	-10.8687
ryzowa	-10.8687
lewski	-10.8707
▁macierz	-10.8711
▁słowiańskie	-10.8717
▁augustyn	-10.8721
▁elbląg	-10.8729
▁wsparcia	-10.8729
▁zaobserwowan	-10.8729
▁piosenka	-10.8729
▁podręcznik	-10.8729
▁marszałka	-10.8729
narkotyk	-10.8729
▁wstąpił	-10.8729
łożyli	-10.8731
nieśli	-10.8737
▁maciej	-10.8738
▁1905	-10.8738
▁słowacki	-10.875
ville	-10.8755
▁uczył	-10.8759
▁helen	-10.8774
wóz	-10.8777
▁osobisty	-10.8783
▁świadectw	-10.8783
▁przekształci	-10.8783
▁garnizon	-10.8783
▁grzegorz	-10.8783
▁powiedział	-10.8783
▁rozbior	-10.8784
płynął	-10.8784
▁wzorem	-10.8791
szczyźnie	-10.8809
ywano	-10.8815
▁algebra	-10.8836
▁osiągnął	-10.8836
▁potencjał	-10.8836
▁istnieć	-10.8836
▁skrzydła	-10.8836
▁dołączył	-10.8843
▁licenc	-10.8863
▁potwierdził	-10.889
▁uogólni	-10.889
▁zasadniczo	-10.889
▁udostępnia	-10.889
▁otaczając	-10.889
▁tamtejsz	-10.889
▁słabe	-10.8891
▁katalog	-10.8891
▁medyczny	-10.8899
▁widok	-10.8899
▁biura	-10.8903
▁nieudan	-10.8905
▁1912	-10.8907
płyn	-10.8917
▁interfejs	-10.8945
▁kilkunastu	-10.8945
▁wyznawców	-10.8945
▁katolicyzm	-10.8945
▁obowiązki	-10.8945
▁krawędzi	-10.8945
▁zapewne	-10.8945
▁odtąd	-10.8945
▁etniczne	-10.8948
▁przyłączon	-10.8952
▁administracja	-10.8952
▁istniejących	-10.8954
▁saint	-10.8957
▁chrztu	-10.8958
▁płock	-10.8964
▁graficzny	-10.8973
▁elektromagnety	-10.8999
▁zdjęcia	-10.8999
▁osobiste	-10.8999
▁córkę	-10.8999
▁młodszy	-10.8999
▁regularnie	-10.8999
▁dokonano	-10.9
▁jazdy	-10.9
▁połowę	-10.9
▁pomorza	-10.9
▁kwater	-10.9001
▁ustrój	-10.9001
▁płk	-10.9004
▁kilkadziesiąt	-10.9007
▁modyfikacj	-10.9009
▁1959	-10.901
▁1966	-10.901
słuszn	-10.9015
▁rybnik	-10.904
gwiazd	-10.9045
▁azerbejdżan	-10.9054
▁franciszek	-10.9054
jastrzęb	-10.9054
▁rdzenn	-10.9054
▁wejścia	-10.9055
▁przyjęła	-10.9055
▁dowódcą	-10.9061
▁daleki	-10.9061
▁wcześniejszych	-10.9064
▁młyn	-10.907
druk	-10.9076
atlantycki	-10.9083
▁napisany	-10.909
▁rozwijając	-10.9097
zależnie	-10.9105
▁irlandii	-10.911
▁aresztowani	-10.911
▁zbliża	-10.911
▁apostoł	-10.911
▁polityce	-10.911
▁miejską	-10.911
▁ekstrem	-10.911
▁stacje	-10.9111
▁emitowan	-10.9114
▁wejście	-10.9118
▁geometrii	-10.912
▁coroczn	-10.9131
▁uznane	-10.9132
▁zarejestrowan	-10.9151
▁trzem	-10.9154
▁ludzkości	-10.9165
▁południową	-10.9165
▁rachunku	-10.9165
▁wpłynęł	-10.9165
▁pseudonim	-10.9165
▁tworzone	-10.9165
▁indeks	-10.9165
▁trzydziest	-10.9167
▁liberaln	-10.9167
▁choroba	-10.9171
▁ustawion	-10.9176
▁portugalski	-10.9176
▁obsadz	-10.9178
▁białka	-10.9185
czarn	-10.9186
rozpuszczaln	-10.9186
▁pozostałości	-10.9192
▁nakazał	-10.9195
▁hierarch	-10.9212
przybliż	-10.9213
▁pozwol	-10.9214
▁brazylii	-10.9221
▁wymieniony	-10.9221
▁moskwie	-10.9221
▁zaprzesta	-10.9222
▁oddziela	-10.9222
▁lepiej	-10.9223
▁egzamin	-10.9223
▁lwów	-10.9223
▁przerw	-10.9235
▁warszawsk	-10.9246
▁wierzy	-10.9252
▁duński	-10.926
klej	-10.9265
▁towarzyszą	-10.9274
▁pierwiastki	-10.9277
▁populacja	-10.9277
▁zagadnienia	-10.9277
▁informacja	-10.9277
▁rankingu	-10.9277
▁wyrażenia	-10.9277
▁odegrał	-10.9277
▁uznania	-10.9278
▁moduł	-10.9287
▁sprowadza	-10.9289
▁kamień	-10.9289
▁ośrodki	-10.9292
szóst	-10.9304
▁dziewczyn	-10.9334
▁ożenił	-10.9334
▁autorytet	-10.9334
▁teleskop	-10.9334
▁piramid	-10.9334
▁reaktyw	-10.9334
▁najnowsz	-10.9335
▁przyjęte	-10.9335
▁wrocławiu	-10.9337
▁dogmat	-10.9346
▁specjalni	-10.9347
syryjski	-10.9353
▁kłod	-10.9357
▁wystawion	-10.9376
▁społeczno	-10.9383
▁demokracji	-10.939
▁galileusz	-10.9391
▁funkcją	-10.9391
▁włók	-10.9391
▁zdań	-10.9394
▁definiowan	-10.9397
▁promowa	-10.9398
▁obronny	-10.9401
▁dziennikarz	-10.9415
▁usuwa	-10.9421
▁wydzielon	-10.9422
▁neuro	-10.943
▁oświęcim	-10.9448
▁posiadłości	-10.9448
▁wyświetl	-10.9448
▁zwiększon	-10.9448
▁świadków	-10.9448
▁nietzsche	-10.9448
▁równolegle	-10.9448
▁samodzielnie	-10.9448
▁miłość	-10.9448
▁bożego	-10.9449
▁[]	-10.9451
▁oddziaływanie	-10.9453
▁euler	-10.9456
▁małą	-10.9458
▁karpat	-10.9462
▁jeleni	-10.9465
▁bież	-10.947
▁uczeni	-10.9471
▁potok	-10.9493
▁cząstki	-10.9505
▁egipcie	-10.9505
▁zwiększenie	-10.9505
▁prześladowan	-10.9505
▁łączności	-10.9505
bizantyński	-10.9505
▁sztuce	-10.9505
▁minerał	-10.9506
środkowy	-10.9507
średni	-10.9515
▁przypadł	-10.9516
tworzono	-10.9543
międzynarodowego	-10.9544
▁niegdyś	-10.9563
▁sokrates	-10.9563
▁zdarzeń	-10.9563
▁powołał	-10.9564
▁lewicy	-10.9566
▁wiernych	-10.9567
▁serial	-10.957
▁lepsze	-10.9574
▁gęstości	-10.9577
▁podjęci	-10.9581
▁petr	-10.9582
▁psychiczne	-10.9585
▁towarow	-10.9587
plast	-10.9588
▁praindoeuropej	-10.9588
toksyczn	-10.9614
▁przeprowadzony	-10.9618
▁artyleryjski	-10.9621
▁międzynarodowa	-10.9621
▁kapitul	-10.9621
▁biznes	-10.9621
▁osobą	-10.9621
▁tarnowie	-10.9621
▁żonę	-10.9621
▁upadek	-10.9621
▁ścisłe	-10.9621
▁słaby	-10.9622
▁wygrał	-10.9623
▁krzyżacki	-10.9624
▁cenzur	-10.9624
▁okupowan	-10.9624
kroniki	-10.9648
▁następstw	-10.9653
▁wizerunk	-10.9679
▁wyzwolenia	-10.9679
▁drewna	-10.968
▁ochrona	-10.968
▁siódm	-10.968
▁lwowa	-10.968
▁patrol	-10.9681
▁przeliczeni	-10.9682
▁zachodnią	-10.9683
▁1906	-10.9688
▁pozbawiony	-10.9688
▁społecznym	-10.9697
▁doradc	-10.9704
pływają	-10.973
▁długotrwał	-10.9738
▁upowszechni	-10.9738
▁wprowadzone	-10.9738
▁zaproponowan	-10.9738
▁pozycje	-10.9738
▁froncie	-10.9738
▁leonarda	-10.9738
▁wykonuje	-10.9738
▁wyższa	-10.9738
▁dziedzictwa	-10.9738
▁akcje	-10.9739
▁pochodne	-10.9739
▁rozkwit	-10.9739
▁czwarty	-10.9739
▁wydarzenie	-10.974
zniesiono	-10.9743
▁bied	-10.9757
korzeni	-10.9761
▁przeniesieni	-10.9767
ndry	-10.9772
▁zamiar	-10.979
prezentuje	-10.9793
▁pseudo	-10.9797
▁wałbrzych	-10.9797
▁zatytułowan	-10.9797
▁abraham	-10.9797
▁dojrzał	-10.9797
▁europejska	-10.9797
▁odsłonięt	-10.9797
▁poślubił	-10.9797
▁spożywczy	-10.9797
▁współpraca	-10.9797
▁wykształcił	-10.9797
▁otwiera	-10.9797
▁zdobyli	-10.9798
▁zobowiązan	-10.9798
▁żydowskich	-10.9798
▁partię	-10.9798
▁położenia	-10.9798
▁kariery	-10.9798
▁uznać	-10.9799
▁gęst	-10.9799
▁prawdziwy	-10.9799
▁tarnowski	-10.98
▁ruszył	-10.98
węgier	-10.98
▁sosnow	-10.98
▁podwodny	-10.9801
▁komunizm	-10.9811
▁ukrywa	-10.9811
prócz	-10.9823
▁przeszło	-10.9854
▁dyktator	-10.9857
▁koncepcję	-10.9857
▁otwarcie	-10.9857
▁piosenki	-10.9857
▁handlowych	-10.9857
▁ukrainy	-10.9857
▁lokalizacj	-10.9857
▁obóz	-10.9857
▁wiedeński	-10.9858
▁pancerne	-10.9858
▁obronie	-10.9859
sympat	-10.986
▁statut	-10.986
▁przybywa	-10.9869
▁liczni	-10.9874
▁miecz	-10.9876
społeczny	-10.9898
▁krótkim	-10.9917
▁zbiorem	-10.9917
▁zbiorze	-10.9917
▁ciepło	-10.9917
▁ujścia	-10.9917
▁ołtarz	-10.9917
▁leszka	-10.9917
▁wykorzystał	-10.9917
▁somali	-10.9918
lęg	-10.992
▁wrocławski	-10.9922
zwłaszcza	-10.9922
▁religijnym	-10.9935
niemiecki	-10.9938
szla	-10.9948
które	-10.9951
▁doświadcza	-10.9977
▁rumunii	-10.9977
▁tragedi	-10.9977
▁męża	-10.9978
▁mediolan	-10.9978
▁pojęć	-10.9979
▁filtr	-10.9979
▁opadów	-10.9979
▁zmysł	-10.9979
kandyd	-10.998
▁samodzielne	-10.9981
▁kościelne	-10.9982
▁wprowadzony	-10.9986
▁komunikat	-11.0008
▁poparł	-11.0008
przypadkow	-11.0009
szczyzny	-11.0037
▁1975–1998	-11.0038
▁koncepcje	-11.0038
▁skierniewic	-11.0038
▁konkretny	-11.0038
▁ustroju	-11.0038
▁wietnam	-11.0038
▁ojcem	-11.0038
▁zajęcia	-11.0038
▁pozycja	-11.0039
▁przeszła	-11.0039
▁zachowują	-11.0042
▁ważnych	-11.0043
▁upływ	-11.0058
▁wilk	-11.0082
▁departament	-11.0099
▁zbliżony	-11.0099
▁konstrukcyjn	-11.0099
▁prowincja	-11.0099
▁rzeczpospolita	-11.0099
▁środek	-11.0099
▁michael	-11.0099
▁opowieści	-11.0099
▁oczekiwan	-11.0099
▁osiągnięcie	-11.0099
▁wznowi	-11.0099
▁nadmiern	-11.0099
▁senior	-11.01
▁przybyci	-11.0113
▁nieznane	-11.0127
▁liniowe	-11.0127
owicach	-11.0137
▁aresztowany	-11.016
▁przynależności	-11.016
▁reakcje	-11.016
▁rękopis	-11.016
▁wyczerp	-11.016
▁marszałek	-11.016
▁powstrzyma	-11.016
▁informacyjn	-11.016
▁rękach	-11.0161
▁bogiem	-11.0161
▁osłon	-11.0162
▁jednoczesn	-11.0164
prowadził	-11.0191
▁stojąc	-11.021
▁towarzystw	-11.0215
▁posługują	-11.022
▁grudziądz	-11.0222
▁więźniów	-11.0222
▁wątpliwości	-11.0222
▁gabinet	-11.0222
▁konkretne	-11.0222
▁witold	-11.0222
▁czerwoną	-11.0222
▁kryształ	-11.0222
▁komentarz	-11.0222
▁parafii	-11.0222
▁założona	-11.0222
▁przyjęto	-11.0222
▁chmiel	-11.0222
▁weszły	-11.0222
▁opieki	-11.0223
▁flory	-11.0228
▁major	-11.0231
przewodniczącego	-11.0233
▁orbital	-11.0245
field	-11.0251
▁cieśnin	-11.0284
▁college	-11.0284
▁europejską	-11.0284
▁pierwiastka	-11.0284
▁świadczą	-11.0284
▁opóźni	-11.0284
▁decyzja	-11.0284
▁koszalin	-11.0284
▁miękk	-11.0284
▁napięcia	-11.0284
▁treść	-11.0284
▁ogólnopolski	-11.0285
▁prototyp	-11.0285
▁węgiel	-11.0286
▁zajęli	-11.0286
▁społeczność	-11.0287
▁dywizjon	-11.0287
▁objęł	-11.0296
▁pełniąc	-11.0321
▁wroga	-11.0327
▁krytykowa	-11.0328
▁inicjatyw	-11.034
▁hinduizm	-11.0346
▁odróżnia	-11.0346
▁półwyspu	-11.0346
▁wymienić	-11.0346
▁zespołów	-11.0346
▁zapewnieni	-11.0346
▁spółka	-11.0347
▁zebrał	-11.0347
▁powodował	-11.0352
▁kwaśn	-11.0353
▁kosmiczny	-11.0353
▁chłopc	-11.0362
wymiar	-11.0364
ordynac	-11.0386
▁poemat	-11.0388
▁nierówn	-11.0388
▁słoneczne	-11.0404
▁dziad	-11.0404
▁ogólnokształcąc	-11.0409
▁specyfik	-11.0409
▁odcinek	-11.041
▁debiut	-11.041
▁national	-11.041
▁dziecka	-11.041
▁aktualnie	-11.0411
▁technologiczn	-11.0412
▁artystyczny	-11.0417
▁zdrad	-11.0431
dawniej	-11.0451
▁sierp	-11.0454
▁formalne	-11.047
▁kryterium	-11.0473
▁niewielką	-11.0473
▁względnie	-11.0473
▁względów	-11.0473
▁zwolennicy	-11.0473
▁wykorzystania	-11.0473
▁grawitacyjne	-11.0473
▁rycerski	-11.0473
▁komplet	-11.0473
▁historycy	-11.0473
▁uznano	-11.0474
▁odmienne	-11.0474
▁umiera	-11.0474
▁podległ	-11.0476
▁listopad	-11.0477
kazano	-11.0478
▁opady	-11.0479
▁poetycki	-11.0482
▁przejęł	-11.0503
▁terytorialny	-11.0529
patriarch	-11.0536
▁bliżej	-11.0536
▁fortepian	-11.0536
▁international	-11.0536
▁namiestnik	-11.0536
▁komisarz	-11.0536
▁determinizm	-11.0536
▁kalibru	-11.0536
▁katolik	-11.0539
▁rzeszów	-11.0541
▁wypełnia	-11.0541
▁grobow	-11.0582
#	-11.06
▁ekspozycj	-11.06
▁patriotyczn	-11.06
▁norwegii	-11.06
▁osiągnąć	-11.06
▁otrzymali	-11.06
▁rozszerzenie	-11.06
▁własność	-11.06
▁ujęciu	-11.06
▁brytyjczyk	-11.06
▁magistra	-11.0601
▁niedługo	-11.0601
▁wczesnych	-11.0602
▁dyskusji	-11.0602
▁ożywi	-11.0602
▁wprawdzie	-11.0603
▁duchowny	-11.0604
▁urodzeni	-11.0606
▁oznaczające	-11.0647
krzyż	-11.0655
▁uczestniczy	-11.0657
lizowani	-11.0662
▁najdłuższ	-11.0665
▁powstawania	-11.0665
▁prestiż	-11.0665
▁wrażenie	-11.0665
▁przypisywan	-11.0665
▁wschodnią	-11.0667
▁bierze	-11.0668
▁nawiązał	-11.0669
▁dawny	-11.067
▁nadaje	-11.0674
▁powojenny	-11.0679
edukacyjn	-11.069
▁płynąc	-11.07
▁stolicę	-11.073
▁ustanowił	-11.073
▁wkroczył	-11.073
▁zamknięty	-11.073
▁zniszczenia	-11.073
▁adaptacj	-11.073
▁cesarstwo	-11.073
▁mikroskop	-11.073
▁reklam	-11.073
▁finansowan	-11.073
▁dystans	-11.073
▁wyrażon	-11.0733
▁dowodów	-11.0736
twórczy	-11.0737
▁obejmują	-11.0738
▁obwodnic	-11.0771
▁terytorialne	-11.0775
▁zgodne	-11.0775
obraz	-11.0789
▁brytyjczycy	-11.0795
▁dziewięć	-11.0795
▁bliźni	-11.0795
▁palestyny	-11.0795
▁spotkać	-11.0795
▁zgadza	-11.0795
▁chicago	-11.0796
▁istocie	-11.0797
▁architektura	-11.0798
▁meteor	-11.0799
▁potraw	-11.0808
▁paryski	-11.0812
▁nawiązując	-11.0814
▁małym	-11.0826
down	-11.0849
hetycki	-11.085
▁finlandii	-11.0861
▁jędrzej	-11.0861
▁osobiście	-11.0861
▁pierwiastek	-11.0861
▁przynależność	-11.0861
▁referendum	-11.0861
▁siostry	-11.0861
▁wybrzeży	-11.0861
▁dłuższy	-11.0861
▁szkocji	-11.0862
▁magnez	-11.0864
▁wtórn	-11.0864
▁koloniz	-11.0871
▁barokow	-11.0881
muzyczn	-11.0885
▁klimatyczn	-11.0886
▁fundament	-11.0889
▁śnieg	-11.089
olbrzym	-11.0907
▁podwójne	-11.091
pośród	-11.0919
administracyjnie	-11.0927
▁fermentacji	-11.0927
▁mezopotamii	-11.0927
▁obowiązuje	-11.0927
▁obserwuje	-11.0927
▁wyjścia	-11.0927
▁córką	-11.0927
▁ludzkich	-11.0927
▁odsetek	-11.0927
▁przełęcz	-11.0927
▁kosmos	-11.0929
▁powietrzu	-11.0929
▁regularne	-11.093
▁obrońc	-11.0931
▁oszacow	-11.0931
▁otworzył	-11.0934
▁aromat	-11.0943
łącznie	-11.095
▁funkcjonariusz	-11.0994
▁heinrich	-11.0994
▁kontrowersje	-11.0994
▁ostateczny	-11.0994
▁zakończenia	-11.0994
▁zapobiega	-11.0994
▁oskarżon	-11.0994
▁wiedzę	-11.0994
▁styczniow	-11.0994
▁odcinka	-11.0994
▁ozdob	-11.0995
▁bojowe	-11.0995
▁kierownik	-11.0996
▁gliwic	-11.0996
▁wyścig	-11.0996
▁genetyczne	-11.1002
▁toczył	-11.1003
▁zasiada	-11.1005
▁pokrewieństw	-11.1061
▁rekonstrukcj	-11.1061
▁ksiąg	-11.1061
▁oznaczenia	-11.1061
▁dziejach	-11.1061
▁półkuli	-11.1061
▁pierwsi	-11.1061
▁japonia	-11.1061
▁dziecko	-11.1061
▁podkarpac	-11.1062
▁osiadł	-11.1063
▁licencji	-11.1063
▁słowiańskich	-11.1063
▁sieradz	-11.1064
▁pomocniczy	-11.1071
▁ofert	-11.1087
▁atrybut	-11.1129
sąsiedztw	-11.1129
▁czechosłowacji	-11.1129
▁definicje	-11.1129
▁mężczyźni	-11.1129
▁zauważył	-11.1129
▁fosfor	-11.1129
▁publicznie	-11.1129
▁kościołem	-11.1129
▁bierzmowan	-11.1129
receptor	-11.1129
▁wyznaniowe	-11.1129
▁zmusił	-11.1129
▁pokojowy	-11.1129
▁pozostali	-11.1129
▁cywilny	-11.113
▁celtycki	-11.113
▁sanskr	-11.1135
▁zależne	-11.1141
krąg	-11.1147
▁płaski	-11.1189
▁wzniesion	-11.1191
▁mechaniczne	-11.1197
▁najwyższą	-11.1197
▁niemożliwe	-11.1197
▁przedsiębiorc	-11.1197
▁rozróżnia	-11.1197
▁tradycje	-11.1197
▁wyróżnion	-11.1197
▁edukacja	-11.1197
▁paradoks	-11.1197
▁uchwalon	-11.1197
▁soboru	-11.1197
▁wiedniu	-11.1197
▁towarów	-11.1199
▁niezgod	-11.1199
▁mięśni	-11.12
▁błędów	-11.12
▁plastyczn	-11.1203
funkcyjn	-11.1221
etanol	-11.1225
▁łask	-11.1244
▁zgrupowan	-11.1244
między	-11.1251
▁przedsięwzię	-11.1265
▁koncentracj	-11.1265
▁kończąc	-11.1265
▁najwyżej	-11.1265
▁profesjonal	-11.1265
▁zakończenie	-11.1265
▁wyrażenie	-11.1265
▁spotkanie	-11.1265
▁konwencji	-11.1265
▁kampania	-11.1265
▁hamburg	-11.1265
▁dokładne	-11.1265
▁potocznie	-11.1265
refleks	-11.1266
▁narodową	-11.1266
▁niezmienn	-11.1267
▁praktyczne	-11.1268
▁zwłok	-11.1269
▁powoli	-11.1273
3,5	-11.1279
▁przejęt	-11.1287
▁chłopi	-11.131
▁immuno	-11.132
▁ignacego	-11.1334
▁zawdzięcza	-11.1334
▁interwencji	-11.1334
▁sandomierski	-11.1334
▁rywalizacj	-11.1334
▁historycznie	-11.1334
▁zdarzenia	-11.1334
▁skutku	-11.1334
▁zabudowy	-11.1334
▁zakopane	-11.1334
▁odmienny	-11.1335
▁posłowie	-11.1335
▁kpn	-11.1336
▁wniosku	-11.1336
▁prawosławne	-11.1337
▁leśne	-11.1343
▁humanist	-11.1363
▁regulacj	-11.1376
▁doświadczenie	-11.1403
▁petersburg	-11.1403
▁wyjątkowo	-11.1403
▁zorganizowane	-11.1403
▁księdze	-11.1403
▁gniazd	-11.1404
▁przypisuje	-11.1404
▁ustalenia	-11.1404
stąpili	-11.1404
afrykański	-11.1404
▁skłonn	-11.1404
▁manewr	-11.1404
▁białoruski	-11.1404
▁wysunięt	-11.1404
▁delegacj	-11.1407
▁graniczne	-11.145
▁nieznaczn	-11.1471
▁bezrobocia	-11.1473
▁dorosłych	-11.1473
▁gwiazdozbior	-11.1473
▁negatywne	-11.1473
▁zaludnienia	-11.1473
▁doskonale	-11.1473
▁samogłoski	-11.1473
▁ucieczki	-11.1473
▁rosyjskich	-11.1474
▁odbudowy	-11.1474
▁architektoniczn	-11.1474
▁ukazują	-11.1477
wrażliw	-11.1484
▁henry	-11.1497
▁wychowan	-11.1497
▁nieznany	-11.1501
historia	-11.151
▁kujaw	-11.1527
▁chromosom	-11.1544
▁przekształcenia	-11.1544
▁zapoczątkowan	-11.1544
▁ostateczne	-11.1544
▁chojnow	-11.1544
▁wydobywa	-11.1544
▁czerwona	-11.1544
▁otrzymują	-11.1544
▁epoce	-11.1544
▁pruskiego	-11.1545
▁wielkanoc	-11.1545
▁dzielnik	-11.1546
▁narodowa	-11.1546
▁łużyc	-11.1547
▁pisząc	-11.1548
bajt	-11.1557
▁obrotow	-11.1557
▁dopuszczaln	-11.1559
awdopodobieństwo	-11.1574
▁zainteresowan	-11.1602
▁[...]	-11.1615
▁drożdż	-11.1615
▁hodowla	-11.1615
▁spektakl	-11.1615
▁utrzymuje	-11.1615
▁zatrudnion	-11.1615
▁niewielka	-11.1615
▁statystyk	-11.1615
▁strumieni	-11.1615
▁wiązań	-11.1615
▁dwór	-11.1615
▁obecna	-11.1615
▁kolagen	-11.1615
▁jaskini	-11.1626
przyjemn	-11.1632
▁ciągłe	-11.1647
zbiór	-11.1654
▁strukturaln	-11.1658
0,5	-11.1664
▁wyprowadz	-11.1666
▁otrzymać	-11.1686
▁szlachty	-11.1686
▁podzielona	-11.1686
▁galeria	-11.1686
▁unesco	-11.1686
▁kombinacj	-11.1687
▁przyjęta	-11.1687
▁zezwol	-11.1687
▁pierre	-11.1687
▁ogień	-11.1687
▁studiu	-11.1688
▁samuel	-11.1689
▁rolniczy	-11.1691
▁idealn	-11.174
wędrow	-11.1741
▁religijna	-11.1758
▁spirytus	-11.1758
▁srebra	-11.1758
▁istnieniu	-11.1758
▁rozmaity	-11.1758
▁wymawia	-11.1758
▁pułkownik	-11.1758
▁kąpiel	-11.1759
▁dominuje	-11.1759
▁odmawia	-11.1759
▁indiach	-11.1759
▁magnetyczny	-11.1759
kłopot	-11.176
▁zbudowana	-11.1761
▁bośni	-11.1768
▁przestępstw	-11.1768
▁przemieszcza	-11.1771
▁indywidualny	-11.1789
▁krzywoustego	-11.1831
▁substancje	-11.1831
▁odcinku	-11.1831
▁malarstwa	-11.1831
▁ośmiu	-11.1831
▁madryt	-11.1831
▁korzyści	-11.1831
▁dziejów	-11.1831
▁rozwiązań	-11.1831
▁obliczu	-11.1831
▁okrągł	-11.1832
reichs	-11.1848
pomorskim	-11.1859
▁krakowsk	-11.189
▁benedykt	-11.1904
▁eksploatacj	-11.1904
▁młodość	-11.1904
▁neptuna	-11.1904
▁pozostawił	-11.1904
▁zatrudnia	-11.1904
▁zbliżone	-11.1904
▁suwerenn	-11.1904
▁białorusi	-11.1904
▁zaburzeń	-11.1904
▁jednostkę	-11.1904
▁łącznej	-11.1904
▁śluz	-11.1904
puścić	-11.1904
▁utrzymują	-11.1904
▁przemocy	-11.1905
▁instalacj	-11.1905
▁olimp	-11.1906
▁przyznawan	-11.1911
▁zaprzecz	-11.1919
▁ustęp	-11.1924
malowan	-11.1927
przeciw	-11.1936
▁zerwan	-11.1958
produkują	-11.1974
szczęśliw	-11.1977
▁ciężko	-11.1977
▁dokumencie	-11.1977
▁hemingway	-11.1977
▁mołdawski	-11.1977
▁ptolemeusz	-11.1977
▁politechnik	-11.1977
▁rezolucj	-11.1977
▁wykorzystać	-11.1977
▁sprzymierz	-11.1977
▁zniszczone	-11.1977
▁koalicja	-11.1977
▁zamieszkuje	-11.1977
▁dzwon	-11.1977
łódź	-11.1977
▁uprawnienia	-11.1977
rzucone	-11.1978
▁produkowany	-11.1978
rzucony	-11.1978
▁obraca	-11.1978
▁popularna	-11.1979
▁samodzielny	-11.1979
▁zabójstw	-11.1979
religijny	-11.2027
▁bizancjum	-11.2051
▁najsłynniejsz	-11.2051
▁prawdopodobne	-11.2051
▁wspomaga	-11.2051
▁współpracował	-11.2051
▁kościuszki	-11.2051
▁narciarsk	-11.2051
▁przedziale	-11.2051
▁utworzyli	-11.2051
▁apple	-11.2051
▁informatyce	-11.2052
▁mhz	-11.2053
▁wczesnym	-11.2054
▁tureckie	-11.2078
▁wzorowan	-11.2125
▁inwestycji	-11.2126
▁protokół	-11.2126
▁zwiększenia	-11.2126
▁klaudiusz	-11.2126
▁niderland	-11.2126
▁konstelacj	-11.2126
▁opowiedział	-11.2126
▁przybliżeniu	-11.2126
▁przywódcy	-11.2126
▁przestępc	-11.2126
▁zależność	-11.2126
▁warsztat	-11.2126
▁szampan	-11.2126
▁obronę	-11.2126
▁głąb	-11.2127
▁zajęcie	-11.2127
▁marynarz	-11.2129
▁papieski	-11.2133
▁sprawdza	-11.2134
▁umarł	-11.2135
▁leśny	-11.2141
▁pewno	-11.2174
▁odstęp	-11.22
▁następcy	-11.2201
▁negatywny	-11.2201
▁upamiętnienie	-11.2201
▁wskazywał	-11.2201
▁mahomet	-11.2201
▁restauracj	-11.2201
▁zastosowań	-11.2201
▁równowagi	-11.2201
▁uruchamia	-11.2201
▁kwestie	-11.2201
▁portugalii	-11.2201
▁karierę	-11.2201
▁podobną	-11.2202
▁podporządkow	-11.2208
▁szacowan	-11.2211
▁potocki	-11.2249
▁beethoven	-11.2277
▁decyzje	-11.2277
▁pieniędzy	-11.2277
▁samoobrony	-11.2277
▁założono	-11.2277
▁zwycięski	-11.2277
▁francuska	-11.2277
▁zaliczyć	-11.2277
▁zainstalowan	-11.2277
▁oskarżeni	-11.2277
▁ustalono	-11.2277
▁komedii	-11.2277
▁dziesięcioleci	-11.2277
▁otoczenia	-11.2277
▁pokolenia	-11.2277
▁stołeczn	-11.2277
▁ogrzewa	-11.2277
▁opozycyjn	-11.2277
▁drewniany	-11.2277
▁węzła	-11.2277
▁buddyjski	-11.2277
▁licznymi	-11.2277
puszczenie	-11.2278
▁uprzedni	-11.2278
▁teodor	-11.2279
▁sugerują	-11.2281
▁produkcyjn	-11.2288
▁przeżywa	-11.2291
▁drukowan	-11.2346
▁aminokwas	-11.2353
▁auschwitz	-11.2353
▁kilkudziesięciu	-11.2353
▁konstrukcje	-11.2353
▁prekursor	-11.2353
▁utworzona	-11.2353
▁zresztą	-11.2353
▁merkurego	-11.2353
▁oktawian	-11.2353
▁termodynamiczn	-11.2353
▁otoczenie	-11.2353
▁mieczysław	-11.2353
▁dysponował	-11.2353
▁vincent	-11.2353
▁brutto	-11.2353
▁poczucie	-11.2354
▁odkryć	-11.2354
▁posąg	-11.2354
▁zanotowan	-11.2357
▁podziemne	-11.2357
▁zaufan	-11.2361
▁oddzielon	-11.2367
osfera	-11.237
podlaski	-11.239
▁hiszpańs	-11.2397
▁zbadan	-11.2408
▁dziesięć	-11.243
▁inwazji	-11.243
▁językoznawc	-11.243
▁organizacją	-11.243
▁paracetamol	-11.243
▁wizerunek	-11.243
▁zarzuca	-11.243
▁tworzeniu	-11.243
▁komunikacyjne	-11.2431
▁nagroda	-11.2431
▁badawczy	-11.2432
▁wyrzutni	-11.2432
▁biblijne	-11.2442
▁student	-11.2459
▁łączą	-11.2494
sztuczn	-11.2506
▁empiryczn	-11.2508
▁kompresji	-11.2508
▁prostokąt	-11.2508
▁zanieczyszczeni	-11.2508
▁zapewnić	-11.2508
▁znaleźli	-11.2508
american	-11.2508
▁szeroką	-11.2508
▁usytuowan	-11.2508
▁próżni	-11.2508
▁aborcji	-11.2508
▁produkowane	-11.2508
▁burgund	-11.2508
▁rytuał	-11.2508
▁multi	-11.2508
▁wpisane	-11.2509
▁wykrywa	-11.2509
▁dominował	-11.2513
▁powietrzne	-11.253
▁okoliczny	-11.2534
▁słup	-11.2536
▁dąb	-11.2541
▁umożliwi	-11.2557
kształt	-11.2565
▁amsterdam	-11.2586
▁mnogości	-11.2586
▁odniesienia	-11.2586
▁przyszłego	-11.2586
▁żywioł	-11.2586
▁rozgrywk	-11.2586
▁współczesna	-11.2586
▁dłużej	-11.2586
▁religią	-11.2586
▁dochodów	-11.2586
▁odrodzenia	-11.2586
▁london	-11.2586
▁drewniane	-11.2586
▁obozie	-11.2587
▁łacinie	-11.2587
▁żywych	-11.2587
▁błąd	-11.2588
▁nieustann	-11.2589
▁głośn	-11.2589
▁biblijny	-11.2596
▁współpracownik	-11.2602
▁organizator	-11.2616
▁klauzul	-11.2664
▁poświęcił	-11.2664
▁protokołu	-11.2664
▁włączone	-11.2664
▁nowożytne	-11.2664
▁węzeł	-11.2665
▁partią	-11.2665
▁reżim	-11.2665
▁wyznań	-11.2665
▁dostarczy	-11.2665
▁przeszły	-11.2665
▁ośmio	-11.2666
▁grzyw	-11.2667
4,5	-11.2667
▁upadł	-11.2683
▁pokonani	-11.2686
twierdzić	-11.2724
▁oświecenia	-11.2744
▁pięknych	-11.2744
▁waszyngton	-11.2744
▁zatwierdzon	-11.2744
▁zmodyfikowa	-11.2744
▁gwinei	-11.2744
▁urugwaj	-11.2744
▁stworzyć	-11.2744
▁uderzenie	-11.2744
▁rozwiązywa	-11.2744
▁federacji	-11.2744
▁podatków	-11.2744
▁york	-11.2745
tysięczn	-11.278
▁dmowski	-11.2797
▁przyłączeni	-11.2815
▁powstawanie	-11.2824
▁substancja	-11.2824
▁wikipedii	-11.2824
▁współrzędnych	-11.2824
▁wzmacnia	-11.2824
▁przywódców	-11.2824
▁komisję	-11.2824
▁tradycją	-11.2824
pomarańcz	-11.2824
▁londyński	-11.2824
▁rozpuszczalnik	-11.2824
▁oczyszcza	-11.2825
▁kryminal	-11.2825
▁polecenie	-11.2825
▁hetero	-11.2826
▁prawicow	-11.2844
▁agresji	-11.2904
▁inspektor	-11.2904
▁konstytucję	-11.2904
▁społeczną	-11.2904
▁upamiętniając	-11.2904
▁uruchomieni	-11.2904
▁całkowita	-11.2904
▁egzekucj	-11.2904
▁średniowiecze	-11.2904
▁philip	-11.2904
▁żadna	-11.2905
▁historyczna	-11.2905
▁pokrewn	-11.2905
▁daszyński	-11.2906
▁zwierzchnictw	-11.2907
▁zajęte	-11.2908
środkowe	-11.2913
jwybitniejszych	-11.2913
ustrojow	-11.2917
organizowano	-11.2954
▁esperanto	-11.2986
▁kształceni	-11.2986
▁udokumentowan	-11.2986
▁umiarkowany	-11.2986
▁horyzont	-11.2986
▁informację	-11.2986
▁rzemiosł	-11.2986
▁łatwiej	-11.2986
▁komunikację	-11.2986
▁kontrolą	-11.2986
▁uniknąć	-11.2986
▁warunek	-11.2986
▁hetman	-11.2986
▁przypadek	-11.2986
▁apollo	-11.2986
▁talent	-11.2988
▁promocj	-11.2989
0,0	-11.3006
olodzy	-11.3021
▁wstrzyma	-11.3052
łożoną	-11.3058
▁amunicji	-11.3068
▁chrystian	-11.3068
▁kompromis	-11.3068
▁międzynarodową	-11.3068
▁obowiązywał	-11.3068
▁ważniejszych	-11.3068
▁zauważyć	-11.3068
▁rozmaite	-11.3068
▁napięcie	-11.3068
▁tektoniczn	-11.3068
▁umowę	-11.3068
▁podejścia	-11.3068
▁pojemności	-11.3068
▁szczycie	-11.3068
▁kardynał	-11.3068
▁uciekł	-11.3069
▁chleb	-11.3069
▁prawosławny	-11.3069
▁kronikarz	-11.3069
▁personal	-11.3071
▁wykup	-11.3085
człowiek	-11.3141
przemysł	-11.3145
▁kampanię	-11.315
▁mojżesz	-11.315
▁muzułmanów	-11.315
▁niezwykł	-11.315
▁parlamencie	-11.315
▁półwysep	-11.315
▁społeczna	-11.315
▁ochronę	-11.315
▁teoretyczne	-11.315
▁stworzone	-11.315
▁dziennie	-11.315
▁słabsz	-11.315
▁piłkarski	-11.3151
▁uznawał	-11.3151
▁podziale	-11.3151
▁romantyzm	-11.3151
▁algier	-11.3151
▁końcowe	-11.3151
▁szersze	-11.3152
▁spręż	-11.3152
▁małżeński	-11.3153
▁spodziewa	-11.3154
▁przesuwa	-11.3158
iadkowie	-11.3162
▁odczuwa	-11.3168
rekreacyjn	-11.3191
▁fundamentaln	-11.3198
istnieją	-11.3227
▁artykule	-11.3234
▁gwałtowny	-11.3234
▁kartezjusz	-11.3234
▁następcą	-11.3234
▁uzyskując	-11.3234
▁zamordowany	-11.3234
▁zorganizowany	-11.3234
▁monachium	-11.3234
▁uzyskiwan	-11.3234
▁zaowocował	-11.3234
▁pewnością	-11.3234
▁sułtan	-11.3234
▁rozszerzon	-11.3234
▁artysta	-11.3234
▁zaznacza	-11.3234
▁sikorski	-11.3235
▁badawcze	-11.3235
▁identyczne	-11.3239
▁okupacyjn	-11.324
▁skarg	-11.3246
▁poselski	-11.3247
▁dostosowan	-11.3278
prowadzonych	-11.3283
0,1	-11.331
▁zwycięzc	-11.3318
▁leibniz	-11.3318
▁młodsze	-11.3318
▁warszawę	-11.3318
▁wspólną	-11.3318
▁znajomość	-11.3318
▁ukrainie	-11.3318
▁końcem	-11.3318
▁handlowym	-11.3318
▁szczeciński	-11.3318
▁interpretacja	-11.3318
▁jądrze	-11.3318
▁podzielił	-11.3318
▁chcieli	-11.3318
▁ciekaw	-11.3318
▁śrub	-11.3321
▁rolnicze	-11.3322
▁facto	-11.3324
awdopodobieństwa	-11.3324
▁brutaln	-11.3332
▁najniższy	-11.3402
wykształcon	-11.3402
▁limfocyt	-11.3402
▁propozycję	-11.3402
▁ładunek	-11.3402
▁świetle	-11.3402
▁powraca	-11.3402
▁zdobyć	-11.3402
▁rozprzestrzenia	-11.3403
▁dvd	-11.3403
▁kryteria	-11.3403
gospoda	-11.3408
▁połączył	-11.341
▁koszyk	-11.3418
▁hollywood	-11.3488
▁imigrantów	-11.3488
▁kontrowersyjn	-11.3488
▁odzwierciedla	-11.3488
▁prowincje	-11.3488
▁religijną	-11.3488
▁skoncentrowa	-11.3488
▁szkolnictwa	-11.3488
▁cudzoziem	-11.3488
▁enigmy	-11.3488
▁przyjaźni	-11.3488
abstrakcyjn	-11.3488
▁kadencję	-11.3488
▁zdobycie	-11.3488
▁gwardii	-11.3488
▁ukształtował	-11.3488
▁gestapo	-11.3488
▁końcowy	-11.3488
▁głowę	-11.3488
▁alergi	-11.349
▁doczekał	-11.3491
▁interpretowan	-11.3519
▁mieszczan	-11.3522
▁osmańsk	-11.3539
▁zachodzą	-11.3565
▁ehrlich	-11.3574
▁gwałtowne	-11.3574
▁jerozolimy	-11.3574
▁wygłosił	-11.3574
▁aliantów	-11.3574
▁tolkien	-11.3574
▁klawisz	-11.3574
▁zniszczony	-11.3574
▁nazistowski	-11.3574
▁uderzenia	-11.3574
▁systematycznie	-11.3574
▁melodi	-11.3578
kazywać	-11.3618
kronika	-11.3658
▁zwierzchni	-11.3659
▁homoseksualne	-11.3661
▁luksemburg	-11.3661
▁niedźwiedzi	-11.3661
▁uzyskuje	-11.3661
▁zespołem	-11.3661
▁nkwd	-11.3661
▁środku	-11.3661
▁południk	-11.3661
▁wystarczy	-11.3661
▁kościelnych	-11.3661
▁zagrzeb	-11.3661
▁ryszard	-11.3661
▁rudolf	-11.3661
▁przywódca	-11.3661
▁plemienia	-11.3661
▁wiodąc	-11.3662
▁współdziała	-11.3663
▁promieniotwórcz	-11.3668
▁ziarn	-11.3669
▁wapieni	-11.3676
▁ludźmi	-11.3684
▁logiczne	-11.37
▁zaawansowany	-11.3749
▁aglomeracji	-11.3749
▁definicję	-11.3749
▁instytucja	-11.3749
▁jagielloński	-11.3749
▁klawiatur	-11.3749
▁liechtenstein	-11.3749
▁młodości	-11.3749
▁węglowodor	-11.3749
▁zniszczył	-11.3749
▁minimum	-11.3749
▁skłonił	-11.3749
▁zamieszkiwan	-11.3749
▁równoległ	-11.3749
▁osobie	-11.3749
▁katarzyn	-11.3749
województwo	-11.375
▁koncern	-11.3751
będąc	-11.3751
▁stacjonuj	-11.3752
▁arkusz	-11.3755
▁skończony	-11.3763
▁jidysz	-11.3837
▁katalizator	-11.3837
▁konfiguracj	-11.3837
▁pośmiertn	-11.3837
▁spółgłoski	-11.3837
▁śródziemnego	-11.3837
▁leopold	-11.3837
▁powiedzieć	-11.3837
▁przewagę	-11.3837
▁mianowicie	-11.3837
▁fabularn	-11.3837
▁siostra	-11.3837
▁łomży	-11.3838
▁tymczasowy	-11.3839
▁tatrzański	-11.384
▁epizod	-11.384
▁dwunast	-11.384
▁obaleni	-11.3873
▁przemianowan	-11.3891
▁chętnie	-11.3927
▁nsdap	-11.3927
▁określona	-11.3927
▁postanowienia	-11.3927
▁sanktuarium	-11.3927
▁terytoriów	-11.3927
▁znalezieni	-11.3927
▁zniszczeniu	-11.3927
▁obniżenie	-11.3927
▁oskarża	-11.3927
▁rozmnaża	-11.3927
▁uszkodzon	-11.3927
▁poświęca	-11.3927
▁rezonans	-11.3927
▁aurelius	-11.3927
▁przeciwstawia	-11.3927
▁sanitarn	-11.3927
▁drzwi	-11.3927
▁polecenia	-11.3927
▁witamin	-11.3929
titanic	-11.393
▁ustalone	-11.393
right	-11.3944
zwyczaj	-11.3983
▁gregoriański	-11.4017
▁połączeń	-11.4017
▁recenzje	-11.4017
▁science	-11.4017
▁zamknięte	-11.4017
▁deficyt	-11.4017
▁osobom	-11.4017
▁migracji	-11.4017
▁dobrowoln	-11.4017
▁utlenia	-11.4017
▁bombardowa	-11.4017
▁zapalenie	-11.4017
▁gauss	-11.4018
▁konstruowa	-11.4022
▁uratowa	-11.4038
▁gorzow	-11.4086
▁uniwersytecki	-11.4108
wyzwolenie	-11.4108
▁nabożeństw	-11.4108
▁pierścień	-11.4108
▁pitagoras	-11.4108
▁zgromadzon	-11.4108
▁dostrzega	-11.4108
▁wyznaczył	-11.4108
▁wyższą	-11.4108
▁nożnej	-11.4108
▁eskort	-11.4108
▁udzielił	-11.4108
▁fizyce	-11.4108
deutsch	-11.4108
▁rumuński	-11.4109
«	-11.4115
▁homoseksualny	-11.4199
▁gwiazdozbiór	-11.4199
▁indonezji	-11.4199
▁oficjalną	-11.4199
▁przedstawienia	-11.4199
▁transmisji	-11.4199
▁eugeniusz	-11.4199
▁szkielet	-11.4199
▁tradycję	-11.4199
▁oddziaływań	-11.4199
▁propagowa	-11.4199
▁urodzony	-11.4199
▁samochód	-11.4199
▁alabam	-11.4199
▁teksas	-11.42
▁odkrywc	-11.42
▁poniatowski	-11.42
▁wyklucza	-11.42
zarejestrowanych	-11.4223
▁warmińsk	-11.4258
▁brazylia	-11.4292
▁dziesięciu	-11.4292
▁księciem	-11.4292
▁laboratorium	-11.4292
▁rozstrzyga	-11.4292
▁węgrzech	-11.4292
▁znajomości	-11.4292
▁mechaniczny	-11.4292
łączając	-11.4292
▁obozów	-11.4292
▁pochłania	-11.4292
▁żadnym	-11.4292
▁ustalił	-11.4293
▁uwolnieni	-11.4297
▁kościuszko	-11.4297
chrzanow	-11.4305
▁wytrzyma	-11.4307
▁nawiązywa	-11.4311
▁instrukcji	-11.4385
▁osobowości	-11.4385
▁otoczeniu	-11.4385
▁stereotyp	-11.4385
▁teodozjusz	-11.4385
▁siedlisk	-11.4385
▁uhonorowa	-11.4385
▁zintegrowan	-11.4385
▁umiarkowane	-11.4385
▁wypracowa	-11.4385
▁gruncie	-11.4385
▁chorobę	-11.4386
▁junior	-11.4386
▁trójwymiarow	-11.4386
▁ekspresow	-11.4388
▁wrogie	-11.439
▁staropolsk	-11.4399
▁manifest	-11.4476
▁konstruktor	-11.448
▁barcelona	-11.448
▁decyzją	-11.448
▁prezbiter	-11.448
▁zapotrzebowanie	-11.448
▁sprzeczności	-11.448
▁zespolone	-11.448
▁zapewnił	-11.448
▁ustalić	-11.448
▁orbicie	-11.448
▁skierował	-11.448
▁alfons	-11.448
▁czystości	-11.448
▁interakcj	-11.448
drapieżn	-11.4486
▁moskiews	-11.4491
▁przychyln	-11.4491
ojęzyczny	-11.45
kończyć	-11.454
▁kanclerz	-11.4575
▁nieregularn	-11.4575
▁uwzględnieni	-11.4575
▁zakłóc	-11.4575
▁zorganizowani	-11.4575
▁następował	-11.4575
▁nieprzerwan	-11.4575
▁bliższ	-11.4575
▁seksualnych	-11.4575
▁zniszczenie	-11.4575
▁malbork	-11.4577
▁zasadniczy	-11.4596
▁zjednoczony	-11.4607
▁najwybitniejs	-11.4661
operacyjn	-11.4665
▁cząsteczka	-11.4671
▁dysponuje	-11.4671
▁inteligencji	-11.4671
▁obowiązków	-11.4671
▁odnaleźć	-11.4671
▁pochodzeniu	-11.4671
▁przodków	-11.4671
▁kasztelan	-11.4671
▁lokomotyw	-11.4671
▁ochroną	-11.4671
▁pamięta	-11.4671
▁represji	-11.4671
▁samogłosek	-11.4671
▁sugeruje	-11.4671
▁wyszukiwa	-11.4671
▁przewidzian	-11.4671
▁czerwonego	-11.4671
▁zdominowan	-11.4671
▁utracon	-11.4671
▁nieobecn	-11.4672
▁prymityw	-11.4672
material	-11.4696
▁niespełn	-11.4707
▁notowan	-11.4723
▁archiwum	-11.4768
▁białymstoku	-11.4768
▁nacjonalizm	-11.4768
▁niezadowoleni	-11.4768
▁posiedzeniu	-11.4768
▁telewizja	-11.4768
▁uszkodzenia	-11.4768
▁wspomnienia	-11.4768
▁zdobycia	-11.4768
▁grawitacji	-11.4768
▁obojga	-11.4768
▁pojezierz	-11.4768
▁srebrny	-11.4768
▁cerkiew	-11.4768
▁widowisk	-11.4768
▁nicholson	-11.4768
▁piękne	-11.4768
▁dostateczn	-11.4769
▁mozart	-11.4769
▁wojownik	-11.4769
▁zapomni	-11.4769
▁nadzwyczajn	-11.4771
▁podziemny	-11.4772
▁nieorganiczn	-11.4775
▁zesłan	-11.4805
▁energi	-11.4809
▁cysters	-11.4848
zaakceptowan	-11.4866
▁fotosyntezy	-11.4866
▁hipotetyczn	-11.4866
▁inicjator	-11.4866
▁instytucie	-11.4866
▁ojczysty	-11.4866
▁rozróżnienie	-11.4866
▁trzęsieni	-11.4866
▁uchodźstwie	-11.4866
▁względności	-11.4866
▁wydziale	-11.4866
▁statystyczny	-11.4866
▁dążąc	-11.4866
▁ochotnicz	-11.4866
▁odebrał	-11.4866
▁preparat	-11.4867
rywając	-11.4937
▁umiejętn	-11.4958
telekomunikacyjn	-11.4965
▁możliwa	-11.4965
▁ograniczeń	-11.4965
▁paradygmat	-11.4965
▁postanowień	-11.4965
▁przypuszczalnie	-11.4965
▁spektrometr	-11.4965
▁udostępnion	-11.4965
▁założeń	-11.4965
▁gabriel	-11.4965
▁lądowisko	-11.4965
▁przyspieszenie	-11.4965
▁uchwale	-11.4966
▁pozyskan	-11.4967
▁integraln	-11.4967
▁anatolij	-11.4968
▁destylac	-11.4971
▁ułożon	-11.498
▁młodzieńc	-11.5065
▁zaadaptowa	-11.5065
▁ferdynand	-11.5065
▁laboratory	-11.5065
▁pieczęci	-11.5065
▁poszukiwania	-11.5065
▁neutrin	-11.5065
▁rzeczywiście	-11.5065
▁odbiornik	-11.5065
▁potępia	-11.5065
▁tyberiusz	-11.5065
▁uderzył	-11.5065
▁zachęca	-11.5065
▁ówcześni	-11.5066
▁multimedia	-11.5066
▁palestyński	-11.5066
▁guberni	-11.5066
▁ekspresj	-11.5066
▁ekspert	-11.5066
▁wydawnicz	-11.5073
południe	-11.5092
▁odnośni	-11.5119
▁dyspozycji	-11.5166
▁konsekwentn	-11.5166
▁konstrukcję	-11.5166
▁obojętn	-11.5166
▁ograniczył	-11.5166
▁powstawać	-11.5166
▁zmartwychwstani	-11.5166
rzucono	-11.5166
▁asembler	-11.5166
▁azjatycki	-11.5166
▁eksplozj	-11.5166
▁opracowywa	-11.5166
▁publiczności	-11.5166
▁transkrypcj	-11.5166
▁uproszczon	-11.5166
▁doskonałe	-11.5166
▁zachowuje	-11.5166
„	-12.2837
‘	-12.5775
<	-12.9496
