<unk>	0
<s>	0
</s>	0
.	-3.23802
,	-3.35688
▁w	-3.58988
a	-4.10395
▁	-4.25628
▁i	-4.261
▁z	-4.45909
y	-4.5335
▁na	-4.5599
e	-4.74744
▁się	-4.82139
▁do	-4.82459
u	-5.03933
▁(	-5.05551
m	-5.10288
o	-5.16563
ch	-5.21759
i	-5.29159
"	-5.45516
▁jest	-5.47108
▁"	-5.49406
ów	-5.51805
▁a	-5.5679
▁po	-5.5894
▁nie	-5.59363
ą	-5.60977
▁od	-5.61226
em	-5.68285
c	-5.68466
▁–	-5.7018
▁##	-5.70519
▁o	-5.72484
j	-5.72513
)	-5.79351
:	-5.81111
▁przez	-5.84501
▁za	-5.87408
▁roku	-5.9298
ę	-5.9314
-	-5.94751
▁„	-5.95604
ie	-5.9913
▁to	-5.99928
▁oraz	-6.05891
ego	-6.09905
ej	-6.12646
mi	-6.1268
li	-6.16333
).	-6.16681
go	-6.17468
▁że	-6.20369
="	-6.21809
s	-6.21931
w	-6.22676
na	-6.23225
ł	-6.24421
nie	-6.2476
z	-6.25561
ych	-6.27386
ami	-6.32154
doc	-6.33997
ach	-6.34079
),	-6.34486
>	-6.35019
▁są	-6.40049
▁pod	-6.40803
ć	-6.46805
▁jako	-6.50166
in	-6.51896
n	-6.52753
d	-6.52827
▁jego	-6.53626
▁r	-6.54141
”	-6.54799
▁u	-6.56475
t	-6.57923
ne	-6.57965
▁m	-6.58251
▁przy	-6.60463
/	-6.62731
▁dla	-6.6362
k	-6.64946
▁jak	-6.67325
▁był	-6.68689
▁tym	-6.69418
▁także	-6.71672
nia	-6.72713
p	-6.73375
ka	-6.74406
▁lub	-6.75088
▁co	-6.75415
pl	-6.79345
owe	-6.79775
ki	-6.79892
▁ze	-6.83347
ny	-6.84343
ła	-6.85247
ni	-6.85813
▁ma	-6.86637
▁jednak	-6.90153
owych	-6.92366
no	-6.95186
ies	-6.97193
?	-6.97289
ym	-6.97963
org	-6.99749
ia	-7.00164
g	-7.00298
▁które	-7.01516
wiki	-7.019
▁który	-7.02185
wikipedia	-7.02823
▁id	-7.03079
▁url	-7.03505
://	-7.03952
https	-7.04069
▁<	-7.04211
title	-7.04213
urid	-7.04263
▁categor	-7.0433
▁</	-7.04463
▁został	-7.04882
;	-7.04997
▁również	-7.05148
▁tego	-7.05698
=""	-7.0752
r	-7.07814
ce	-7.08094
b	-7.08529
",	-7.08622
▁s	-7.10282
▁formula	-7.1049
▁prze	-7.11299
l	-7.12127
ło	-7.19056
▁wieku	-7.19166
▁1	-7.19264
▁ich	-7.20272
ta	-7.20317
▁jej	-7.21835
owi	-7.21905
owa	-7.22189
owy	-7.23223
▁p	-7.24376
▁też	-7.26711
owej	-7.27531
nych	-7.27949
cie	-7.30277
ją	-7.30365
▁miasta	-7.30578
▁nad	-7.30811
om	-7.31161
za	-7.32285
▁lat	-7.33799
▁była	-7.34151
▁latach	-7.35087
le	-7.35639
ek	-7.37916
ły	-7.38177
”.	-7.38669
ną	-7.3893
▁było	-7.39183
ż	-7.39706
owego	-7.40557
▁18	-7.40738
ci	-7.41569
zy	-7.41935
▁2	-7.42177
ty	-7.42645
▁go	-7.43493
▁ten	-7.4546
▁czy	-7.45889
po	-7.46529
▁przed	-7.47005
▁być	-7.48103
▁były	-7.49277
▁ale	-7.51339
▁de	-7.52276
▁te	-7.52378
cy	-7.53266
od	-7.53613
ra	-7.53794
ową	-7.5408
▁może	-7.55058
▁roz	-7.55444
▁3	-7.55589
▁między	-7.55965
".	-7.56335
wa	-7.57219
ca	-7.57756
▁można	-7.58162
f	-7.5849
▁według	-7.58617
=	-7.59431
▁ta	-7.60873
▁która	-7.60892
sz	-7.60902
▁tylko	-7.61347
▁podczas	-7.61973
▁("	-7.62444
ś	-7.63264
wi	-7.6435
▁k	-7.64473
ma	-7.64537
”,	-7.6528
▁re	-7.66466
▁tej	-7.67301
ku	-7.68392
▁których	-7.6854
la	-7.68994
owym	-7.69186
▁już	-7.69898
st	-7.70295
te	-7.70852
▁4	-7.71461
▁innych	-7.72367
ro	-7.72679
▁gdzie	-7.73404
▁17	-7.73425
ska	-7.73914
▁polski	-7.7421
by	-7.74629
to	-7.76278
▁bo	-7.76866
▁ok	-7.76936
▁np	-7.76963
▁około	-7.78941
h	-7.79649
▁tak	-7.79795
▁została	-7.80474
▁bez	-7.80501
▁czasie	-7.80513
de	-7.81184
▁gdy	-7.81447
nej	-7.8191
re	-7.82015
wy	-7.82081
▁15	-7.8218
▁nich	-7.82561
er	-7.83005
▁niż	-7.83052
ków	-7.8317
▁części	-7.84245
▁tych	-7.8457
dy	-7.84648
▁część	-7.85334
da	-7.85372
▁16	-7.85471
ze	-7.8627
▁5	-7.86489
’	-7.86866
ko	-7.87352
▁miasto	-7.87395
▁10	-7.87454
nego	-7.87516
▁ii	-7.87801
ur	-7.88203
▁której	-7.88301
▁później	-7.88755
us	-7.89104
uje	-7.89115
▁on	-7.90017
ii	-7.90385
jąc	-7.90694
_	-7.91058
▁polsce	-7.91205
▁12	-7.91329
owie	-7.9172
mu	-7.9177
▁km	-7.92475
bo	-7.92659
▁wiele	-7.93213
wie	-7.93353
▁je	-7.93528
do	-7.94951
▁wojny	-7.95135
sa	-7.95153
▁kon	-7.95183
en	-7.95441
czy	-7.95869
")	-7.9666
dzie	-7.96689
ści	-7.97954
ga	-7.98312
▁bardzo	-7.98591
▁mu	-7.98771
▁wielu	-7.98802
ba	-7.99387
iem	-7.9949
▁g	-8.00115
cz	-8.00452
je	-8.00471
al	-8.0048
ow	-8.00483
rze	-8.00595
owo	-8.01217
my	-8.01816
▁pierwszy	-8.02224
dzi	-8.02602
▁którego	-8.02691
▁kraju	-8.02791
▁którym	-8.0291
▁wraz	-8.0332
▁osób	-8.03623
gi	-8.04313
2	-8.04533
▁miał	-8.04947
▁c	-8.05234
bi	-8.05462
▁6	-8.06374
▁ob	-8.06445
▁znajduje	-8.06529
▁tys	-8.06665
niu	-8.06946
tu	-8.07489
▁sposób	-8.08551
▁b	-8.08962
▁natomiast	-8.09409
▁często	-8.09883
owania	-8.10168
▁państwa	-8.11504
ką	-8.11508
nym	-8.12417
▁we	-8.12591
▁miejsce	-8.12843
▁okresie	-8.14433
▁d	-8.1459
enie	-8.14783
▁14	-8.14884
ń	-8.15005
▁n	-8.15138
▁następnie	-8.15248
▁inne	-8.15677
or	-8.15863
▁język	-8.15962
▁tu	-8.16063
▁mają	-8.16077
ował	-8.16173
ości	-8.16217
x	-8.16428
▁dwa	-8.16491
▁9	-8.16588
nik	-8.17015
▁tzw	-8.17255
▁mogą	-8.17321
▁11	-8.17415
ter	-8.17462
▁ponad	-8.17577
▁pro	-8.17598
ał	-8.17794
–	-8.18192
▁e	-8.18855
▁8	-8.19529
▁7	-8.19569
▁życia	-8.19785
▁św	-8.20375
▁nazwa	-8.20417
▁(19	-8.20495
sta	-8.20501
▁13	-8.20507
ymi	-8.20724
v	-8.21303
▁ha	-8.21899
▁wśród	-8.21966
fi	-8.22092
▁zostały	-8.2211
▁aby	-8.22135
im	-8.22209
acji	-8.22221
kę	-8.22635
▁mieszkańców	-8.23421
▁głównie	-8.23717
▁by	-8.23769
▁obecnie	-8.23852
pi	-8.23924
▁xx	-8.25016
▁zaś	-8.25033
▁czyli	-8.25314
▁dzięki	-8.25335
pa	-8.25697
▁nawet	-8.26119
ry	-8.26273
ość	-8.26505
–19	-8.26511
owanie	-8.26995
enia	-8.27102
ski	-8.27107
▁dwóch	-8.27196
an	-8.27568
cja	-8.27671
▁wszystkich	-8.2805
ja	-8.28164
▁względu	-8.28457
ar	-8.28762
▁20	-8.28804
▁trzy	-8.28902
cze	-8.29366
ować	-8.29389
▁większość	-8.29432
▁jeszcze	-8.29517
lo	-8.29632
ul	-8.30808
▁ziemi	-8.30835
▁jednym	-8.31215
on	-8.31284
▁celu	-8.31398
▁terenie	-8.31566
▁ko	-8.31669
▁ka	-8.32695
acja	-8.33137
▁tam	-8.33309
▁wszystkie	-8.33363
br	-8.33475
ię	-8.33633
▁in	-8.33675
▁kilka	-8.3424
one	-8.34419
▁skład	-8.34521
▁wyniku	-8.34575
▁grupy	-8.34631
▁języka	-8.3487
▁jeden	-8.34972
▁ba	-8.35157
▁rząd	-8.35395
si	-8.35401
▁powierzchni	-8.36111
▁polskiego	-8.36134
▁system	-8.36525
00	-8.36707
ali	-8.36928
3	-8.36982
▁śmierci	-8.37441
▁samym	-8.3749
zna	-8.3808
▁nim	-8.38264
os	-8.38435
np	-8.38993
▁jedynie	-8.39198
niem	-8.40386
▁związku	-8.40432
ży	-8.40634
▁takie	-8.41197
▁września	-8.41339
▁lecz	-8.41345
▁poza	-8.41447
▁postaci	-8.41664
▁praw	-8.41846
el	-8.42078
▁liczba	-8.42137
sza	-8.42257
▁pierwsze	-8.42271
kiem	-8.42473
▁zostało	-8.4257
▁należy	-8.42865
").	-8.42954
▁początku	-8.42981
▁pomiędzy	-8.43731
▁przykład	-8.43776
at	-8.43779
▁różnych	-8.439
skiej	-8.43985
▁okres	-8.4402
▁wówczas	-8.44059
es	-8.44302
zie	-8.44553
▁kiedy	-8.45144
▁przypadku	-8.45192
kon	-8.45436
▁mo	-8.45471
▁bardziej	-8.45675
▁liczby	-8.45709
▁al	-8.4645
▁którzy	-8.46515
▁sam	-8.46518
▁polskiej	-8.46683
"),	-8.46728
▁polskich	-8.46744
ują	-8.47055
▁więc	-8.47237
▁najbardziej	-8.47442
ks	-8.47696
▁oznacza	-8.47869
ona	-8.47957
▁czas	-8.48257
▁grudnia	-8.4907
▁xix	-8.49356
skiego	-8.49605
▁światowej	-8.49616
▁pracy	-8.4983
▁ludności	-8.49869
▁świecie	-8.50053
▁posiada	-8.5021
▁one	-8.50441
▁armii	-8.51558
▁poprzez	-8.51812
sty	-8.52168
▁mieście	-8.52198
▁pa	-8.52976
▁sa	-8.52995
▁strony	-8.53177
▁innymi	-8.53309
▁zarówno	-8.53556
cza	-8.53608
▁sierpnia	-8.53695
▁l	-8.54008
▁prawa	-8.54121
ską	-8.54136
▁mi	-8.54159
▁raz	-8.54473
▁ją	-8.54515
▁sz	-8.54568
ania	-8.54872
ność	-8.55193
▁danych	-8.55213
▁czerwca	-8.55333
jących	-8.55789
sk	-8.55942
▁le	-8.55976
▁ona	-8.56093
▁centrum	-8.56104
▁iii	-8.56422
▁takich	-8.56479
szcz	-8.56681
▁typu	-8.56763
sze	-8.56948
▁dwie	-8.57008
▁la	-8.57019
▁ro	-8.57328
co	-8.57402
▁stycznia	-8.5749
▁ponieważ	-8.57612
praw	-8.58067
▁prawo	-8.58159
▁swoje	-8.58234
et	-8.5858
▁wszystkim	-8.58832
▁ku	-8.58878
sy	-8.59014
▁koniec	-8.5907
▁ludzi	-8.59098
sko	-8.59157
▁byli	-8.59521
▁województwa	-8.59562
▁lata	-8.5962
▁stanowi	-8.59636
ję	-8.59936
▁maja	-8.60033
▁lipca	-8.60211
▁ponadto	-8.60259
tów	-8.60464
▁świata	-8.60544
▁kar	-8.60828
▁mln	-8.61069
4	-8.61418
czną	-8.61443
cia	-8.61796
is	-8.6188
▁jan	-8.6214
▁wobec	-8.62206
lu	-8.62692
▁naj	-8.6289
▁przeciw	-8.62957
▁stanu	-8.62984
▁historia	-8.63099
▁względem	-8.63226
ha	-8.63537
th	-8.63591
▁h	-8.6367
▁działania	-8.63717
ob	-8.6376
▁sobie	-8.64032
▁czasu	-8.6424
zi	-8.64319
▁gór	-8.64675
ri	-8.64865
▁października	-8.6517
▁da	-8.65173
pro	-8.65198
man	-8.65282
▁li	-8.65319
▁samo	-8.65514
▁kor	-8.65669
ok	-8.65704
▁wcześniej	-8.6581
że	-8.6582
▁wynosi	-8.65823
▁kilku	-8.66223
▁niego	-8.6637
é	-8.66376
▁udział	-8.66516
▁wartości	-8.66832
▁wpływ	-8.6696
per	-8.66962
wo	-8.67029
▁spraw	-8.6723
ak	-8.67514
su	-8.67552
▁im	-8.67638
▁par	-8.67755
▁istnieje	-8.68023
ności	-8.68903
▁miała	-8.69128
▁30	-8.69165
▁program	-8.69747
▁gen	-8.6995
▁t	-8.70419
owane	-8.70448
▁dopiero	-8.70893
ono	-8.71043
▁wtedy	-8.71106
▁rok	-8.71305
1	-8.71354
▁mimo	-8.71384
anie	-8.71447
▁swoich	-8.71517
▁ul	-8.71606
▁wojska	-8.71639
czna	-8.71706
▁niektórych	-8.71936
▁choć	-8.72155
20	-8.72155
▁jeśli	-8.72246
rod	-8.72718
ź	-8.72718
(	-8.73061
szy	-8.732
▁języku	-8.7357
▁marca	-8.73762
▁czym	-8.73869
▁powstania	-8.73915
▁podział	-8.73918
▁be	-8.73923
owany	-8.74124
tur	-8.74154
▁nazwy	-8.74306
▁se	-8.74881
▁stan	-8.7503
▁lu	-8.75057
ang	-8.75061
▁listopada	-8.75166
▁rozwoju	-8.75209
▁znajdują	-8.75441
▁pierwszym	-8.75455
0	-8.75806
dr	-8.75913
skim	-8.75994
id	-8.76016
se	-8.76118
▁początkowo	-8.76131
▁kościoła	-8.76154
▁rolę	-8.76228
▁di	-8.76273
un	-8.7629
um	-8.76331
ść	-8.76429
▁f	-8.76583
▁występuje	-8.76604
▁ar	-8.76637
▁walki	-8.76889
sie	-8.7709
▁więcej	-8.77111
ier	-8.77158
▁ak	-8.77537
▁ja	-8.77617
du	-8.77728
gen	-8.77761
kami	-8.77972
iu	-8.78021
gu	-8.78182
ację	-8.78448
▁miast	-8.78779
▁miały	-8.79051
▁pomocą	-8.79111
▁niektóre	-8.79391
owali	-8.79399
_1	-8.79453
ot	-8.79466
▁najczęściej	-8.79674
▁większości	-8.79721
cji	-8.79863
▁historii	-8.7988
▁dzieci	-8.80025
vi	-8.80105
gr	-8.80144
ol	-8.80268
eń	-8.80358
▁drugiej	-8.8038
skich	-8.80446
▁kultury	-8.80609
▁dni	-8.80705
▁he	-8.80737
▁człowieka	-8.80839
▁przede	-8.80969
▁jedną	-8.8117
17	-8.81177
ując	-8.81312
▁kwietnia	-8.814
▁partii	-8.81554
▁osoby	-8.81555
▁życie	-8.81559
▁aż	-8.81715
▁niej	-8.8209
we	-8.82333
▁podstawie	-8.82406
rz	-8.82462
▁v	-8.82825
▁gdyż	-8.82885
▁powodu	-8.82887
ony	-8.83008
▁ga	-8.83084
▁gra	-8.83091
▁temat	-8.83179
▁zgodnie	-8.83266
50	-8.83348
stan	-8.83454
ią	-8.83498
▁jedno	-8.83567
▁podobnie	-8.83717
owymi	-8.83924
jące	-8.84058
ent	-8.84153
▁otrzymał	-8.84257
▁mar	-8.84534
▁25	-8.84665
▁trzech	-8.85008
▁władzy	-8.85178
▁znaczenie	-8.8518
▁wody	-8.85246
▁różne	-8.85332
▁systemu	-8.85337
▁kolei	-8.85488
▁pan	-8.85504
▁proces	-8.85564
▁dnia	-8.85585
▁badania	-8.85633
kowa	-8.85694
▁su	-8.85852
▁jednocześnie	-8.86047
▁transport	-8.86152
▁polskie	-8.86382
▁państw	-8.86434
▁stał	-8.86669
▁linii	-8.86795
izm	-8.86953
bor	-8.87033
zo	-8.87159
it	-8.87243
▁którą	-8.87263
▁będzie	-8.87263
fa	-8.87265
▁zjednoczonych	-8.87309
▁swoją	-8.87509
▁ciągu	-8.87572
▁układ	-8.87698
▁siły	-8.87789
ing	-8.87802
zenia	-8.88345
ator	-8.88622
kry	-8.88737
ad	-8.88769
▁iż	-8.88877
▁rozwój	-8.88909
▁100	-8.89056
tar	-8.89228
▁jednego	-8.89263
ó	-8.89498
▁polska	-8.89541
skie	-8.8958
▁rzecz	-8.89599
sp	-8.89687
ać	-8.89768
10	-8.89812
▁funkcji	-8.89993
▁ni	-8.90083
era	-8.90229
ge	-8.90539
ana	-8.90558
▁znacznie	-8.90617
▁tę	-8.90637
▁określa	-8.90826
=1	-8.90826
▁produkcji	-8.90835
pol	-8.90948
▁prawdopodobnie	-8.9109
▁pas	-8.91359
▁ho	-8.91407
▁słowa	-8.91415
▁000	-8.91708
▁warszawie	-8.9177
▁ramach	-8.91931
▁nowe	-8.92236
ina	-8.92478
▁si	-8.92632
▁występują	-8.92763
▁projekt	-8.92828
sł	-8.92887
land	-8.92905
▁stanie	-8.93047
▁wojsk	-8.93126
▁pochodzi	-8.93137
▁of	-8.93381
tor	-8.93547
▁bar	-8.93607
18	-8.93645
30	-8.93798
▁języków	-8.93842
ck	-8.93942
▁(18	-8.94116
tr	-8.94118
▁lutego	-8.9413
wod	-8.94238
kom	-8.9425
▁teorii	-8.94364
wia	-8.94392
ian	-8.94417
fer	-8.94632
di	-8.94751
▁nowo	-8.9482
▁ani	-8.94886
▁mas	-8.94935
▁połowie	-8.94958
cję	-8.95028
▁siebie	-8.95072
por	-8.95179
▁kościół	-8.95238
op	-8.95436
ber	-8.95453
▁termin	-8.95466
zą	-8.95519
eniu	-8.95529
▁działa	-8.9569
ll	-8.95763
▁czego	-8.9582
11	-8.95831
▁obszar	-8.95842
▁x	-8.95849
▁zwykle	-8.95886
cą	-8.95947
▁świat	-8.9616
▁nazywa	-8.96188
▁swoim	-8.964
kach	-8.96459
▁ostatecznie	-8.96489
▁przemysł	-8.96698
prze	-8.9675
emu	-8.96781
▁przeciwko	-8.96902
rzy	-8.96945
▁albo	-8.97023
▁organizacji	-8.97031
▁oprócz	-8.97168
▁szczególnie	-8.97188
▁sp	-8.97316
▁boga	-8.97421
▁anty	-8.97428
25	-8.97452
il	-8.97822
zenie	-8.97835
▁nazwę	-8.9794
str	-8.97947
▁wojnie	-8.98088
▁miało	-8.98153
▁związane	-8.98176
▁należą	-8.98215
▁so	-8.98235
12	-8.98367
nt	-8.98403
ić	-8.98634
▁vi	-8.98755
▁charakter	-8.98841
▁zwłaszcza	-8.98875
▁europie	-8.9894
▁kom	-8.99246
nę	-8.99306
▁swojej	-8.99334
bu	-8.99351
jący	-8.99386
▁doszło	-8.99398
▁prawie	-8.99516
▁liczb	-8.99549
▁gwiazd	-8.99577
▁europy	-8.99952
▁roślin	-9.0007
▁powstał	-9.00123
▁istnieją	-9.00131
▁żołnierzy	-9.00135
▁sił	-9.00173
dz	-9.00235
▁ruchu	-9.00684
▁mieszka	-9.00765
ti	-9.01003
bie	-9.01029
zu	-9.01415
owski	-9.01645
▁francji	-9.01728
▁hu	-9.01929
so	-9.01968
▁per	-9.02122
▁pre	-9.02147
▁jednej	-9.02329
▁tysięcy	-9.02386
▁działalność	-9.02486
nicy	-9.02592
bit	-9.02601
15	-9.02667
cka	-9.03106
▁jana	-9.03126
▁rady	-9.03216
▁wielkiej	-9.03326
pie	-9.03356
▁wymaga	-9.03362
▁stanowią	-9.03422
▁pierwszych	-9.03588
daw	-9.03792
▁król	-9.03812
▁film	-9.03952
▁liczne	-9.04046
nu	-9.04046
▁pi	-9.04138
'	-9.04139
ton	-9.04159
▁trakcie	-9.04212
ir	-9.0446
▁grup	-9.04644
▁gro	-9.04645
▁terytorium	-9.04691
war	-9.04776
▁dlatego	-9.04837
80	-9.04838
▁22	-9.05042
▁typ	-9.05278
▁1939	-9.05283
▁sieci	-9.05372
▁przestrzeni	-9.05378
der	-9.05508
▁broni	-9.05668
1"	-9.05813
▁samego	-9.05851
par	-9.05973
czą	-9.05994
▁nr	-9.06022
ss	-9.06055
ment	-9.06169
▁składa	-9.06434
iz	-9.0651
▁mor	-9.06525
▁stała	-9.06598
]	-9.0682
ru	-9.06845
ut	-9.06867
▁port	-9.06977
owanych	-9.07037
czon	-9.07062
▁or	-9.07087
▁kolejne	-9.07166
▁syn	-9.0723
▁kultur	-9.07399
den	-9.07413
▁jednostki	-9.07448
14	-9.07482
▁nauki	-9.07545
▁usa	-9.07636
40	-9.07816
▁badań	-9.07956
pu	-9.07973
▁grupa	-9.07974
60	-9.08157
▁zmarł	-9.08221
▁węgla	-9.08271
ion	-9.08289
czne	-9.08305
the	-9.08311
▁obu	-9.08357
wol	-9.08491
dni	-9.08611
▁króla	-9.08612
▁fa	-9.08638
lt	-9.08747
▁rodziny	-9.0875
▁kobiet	-9.08795
▁powstały	-9.08806
▁standard	-9.08939
5	-9.09018
2"	-9.09095
▁pierwszej	-9.09188
”)	-9.09232
▁układu	-9.09251
ński	-9.09297
tra	-9.0933
▁24	-9.09819
9"	-9.09951
3"	-9.09979
▁końca	-9.10395
yl	-9.10438
▁klasy	-9.10487
▁form	-9.1049
▁wiek	-9.10582
leg	-9.10602
=7	-9.10652
▁północnej	-9.10669
▁tytuł	-9.10678
onych	-9.10932
▁nowy	-9.1102
nię	-9.11024
izmu	-9.11038
▁energii	-9.11058
16	-9.11106
▁pierwszą	-9.11213
▁pełni	-9.11257
▁czasem	-9.11345
▁sch	-9.11367
ńskiego	-9.11516
▁ci	-9.1152
▁1945	-9.11532
▁ponownie	-9.11704
usz	-9.11754
%	-9.12107
pt	-9.12124
▁zmiany	-9.12219
kar	-9.12227
▁polskim	-9.12262
▁mm	-9.12274
8"	-9.1228
eni	-9.1229
▁wynika	-9.12496
▁każdy	-9.125
7"	-9.12548
▁związek	-9.1257
–18	-9.12587
lar	-9.12659
4"	-9.1275
łu	-9.12822
19	-9.12892
5"	-9.12921
▁pra	-9.12973
▁rodzaju	-9.12997
▁całe	-9.1304
win	-9.13195
▁kształt	-9.13205
▁kierunku	-9.13208
ros	-9.13287
icznych	-9.13359
24	-9.13377
▁państwo	-9.13534
▁czasów	-9.13556
tan	-9.13596
▁bi	-9.13832
68	-9.13906
6"	-9.13931
▁razem	-9.1404
▁prac	-9.14062
nymi	-9.14156
alne	-9.14259
▁stanów	-9.14452
nika	-9.1459
▁obraz	-9.14682
6	-9.14689
▁op	-9.14774
▁gu	-9.14882
▁okresu	-9.14932
▁sto	-9.14956
tek	-9.15121
lon	-9.15175
ich	-9.1529
▁°	-9.15301
▁szkoły	-9.15341
me	-9.15354
▁bądź	-9.15524
▁unii	-9.15555
▁członków	-9.15566
▁ru	-9.15568
ic	-9.15628
▁me	-9.15744
▁sztuki	-9.15884
▁los	-9.15916
22	-9.16075
="7	-9.16082
▁swojego	-9.16148
▁duże	-9.16232
twor	-9.16234
56	-9.16246
ety	-9.16293
0"	-9.16409
▁władze	-9.16474
▁21	-9.16491
▁kop	-9.16594
▁wielo	-9.1664
▁uważa	-9.16688
▁plan	-9.1669
35	-9.16746
cją	-9.16938
95	-9.16949
▁głównym	-9.1701
5%	-9.17296
21	-9.17354
mar	-9.17376
▁pierwsza	-9.17415
ór	-9.17467
cznie	-9.1758
▁autor	-9.17623
▁ruch	-9.17627
ster	-9.1764
▁szereg	-9.17695
▁23	-9.17809
▁musi	-9.17839
sław	-9.17901
69	-9.17991
▁powstała	-9.18054
▁miejscu	-9.18058
▁miejsc	-9.18068
owaniu	-9.18118
lan	-9.18236
▁znalazł	-9.18284
ił	-9.18488
▁dwu	-9.18491
ście	-9.18492
▁południowej	-9.18562
ład	-9.18586
90	-9.18808
▁fakt	-9.18896
66	-9.18923
rzeczypospolitej	-9.18971
▁star	-9.18974
▁wysokości	-9.18985
▁28	-9.19096
▁wyłącznie	-9.19113
▁os	-9.19192
▁wokół	-9.19196
▁cesarz	-9.19224
▁rządu	-9.19347
ve	-9.19395
▁dział	-9.194
▁sąd	-9.19416
▁wyspy	-9.19499
ium	-9.19588
▁the	-9.19638
▁fi	-9.19645
▁powstanie	-9.19759
sto	-9.19844
27	-9.19969
alny	-9.20018
owała	-9.20022
▁lo	-9.2005
ho	-9.20108
▁dziś	-9.20214
▁miejscowości	-9.20216
▁coraz	-9.20443
28	-9.20469
▁sta	-9.20484
▁zsrr	-9.20553
▁mniej	-9.20594
▁ciała	-9.2068
pe	-9.20784
▁ty	-9.20828
▁cen	-9.20836
ając	-9.20838
99	-9.20895
▁nowego	-9.20908
▁rad	-9.20912
▁niemiec	-9.20925
pr	-9.20997
▁=	-9.21056
gan	-9.21082
▁zawiera	-9.21328
ujących	-9.21347
▁nowych	-9.21352
▁rozpoczął	-9.21352
owskiego	-9.21376
▁osad	-9.21425
▁liczbę	-9.21452
gł	-9.21509
▁ilości	-9.21525
son	-9.21611
▁car	-9.21673
roz	-9.21706
tem	-9.21706
ps	-9.2182
▁19	-9.21852
23	-9.21992
7	-9.22169
owano	-9.22209
min	-9.22308
be	-9.22318
▁brak	-9.22528
śl	-9.22648
▁znane	-9.22694
▁poziom	-9.22994
▁fl	-9.23001
szą	-9.23047
70	-9.23129
▁san	-9.23206
▁26	-9.23296
▁pochodzenia	-9.23352
ujące	-9.23374
▁władz	-9.23416
▁wyróżnia	-9.23556
▁pół	-9.23588
ran	-9.23639
=2	-9.23655
▁muzeum	-9.23674
ler	-9.23709
▁nauk	-9.23822
59	-9.23828
mor	-9.24076
jon	-9.24147
▁gre	-9.24164
26	-9.2424
▁tworząc	-9.24268
▁cał	-9.24315
ron	-9.24325
form	-9.24338
▁niemcy	-9.24397
▁40	-9.24546
aty	-9.24694
ke	-9.24698
god	-9.24815
▁prób	-9.24869
▁miejsca	-9.24878
▁31	-9.24884
29	-9.24962
hi	-9.25059
53	-9.25114
▁zazwyczaj	-9.25133
owców	-9.25359
iczne	-9.25441
38	-9.25503
▁sobą	-9.25531
▁mocy	-9.25557
13	-9.26133
kra	-9.26283
▁ju	-9.26295
lnym	-9.26358
owana	-9.26383
alnych	-9.26517
iego	-9.26615
▁cztery	-9.26654
▁oddziały	-9.26704
▁her	-9.26739
▁bu	-9.26886
any	-9.27052
ologia	-9.27113
▁wielkości	-9.27149
▁prezydent	-9.27151
▁du	-9.27162
▁pr	-9.27169
98	-9.27175
jącego	-9.27185
pis	-9.27216
iel	-9.27269
▁zapis	-9.27305
▁formy	-9.27353
51	-9.27413
55	-9.2744
81	-9.27549
&	-9.2755
ników	-9.27606
▁kraj	-9.2763
▁xvi	-9.2765
ckiego	-9.27657
▁dy	-9.27733
▁dzieła	-9.27809
nic	-9.27814
▁długości	-9.2789
▁cały	-9.2794
▁park	-9.27989
▁cel	-9.28076
▁wartość	-9.28243
▁potem	-9.28304
▁poli	-9.28343
ner	-9.28345
▁wersji	-9.28609
usa	-9.28759
ff	-9.28807
▁formie	-9.28819
_2	-9.29042
54	-9.29062
▁prus	-9.29085
kolwiek	-9.29103
▁prezydenta	-9.29114
▁władzę	-9.29136
75	-9.29275
▁prace	-9.29308
34	-9.29338
▁nowej	-9.2969
="3	-9.29745
as	-9.29827
▁gi	-9.29886
▁wielkiego	-9.29897
fe	-9.29906
▁jedna	-9.29929
▁współ	-9.30043
57	-9.30054
▁okrętów	-9.30112
▁przełom	-9.30114
▁temu	-9.30385
▁obok	-9.30447
wali	-9.30485
ant	-9.30702
▁swój	-9.30732
▁pomocy	-9.308
▁właśnie	-9.30856
▁możliwości	-9.30892
▁50	-9.30903
▁słońca	-9.30982
▁cech	-9.31075
przy	-9.31122
▁oba	-9.31128
65	-9.31135
▁opis	-9.31251
▁pu	-9.31333
cki	-9.31351
33	-9.31477
▁27	-9.31507
ger	-9.31724
▁2010	-9.3178
og	-9.31783
▁charakterysty	-9.32014
▁no	-9.32015
▁bra	-9.32023
▁pierwszego	-9.32129
▁gmin	-9.32156
58	-9.32175
▁morza	-9.32222
▁mówi	-9.32231
▁xviii	-9.32245
wer	-9.32264
▁rosji	-9.32269
▁krajach	-9.32319
ńska	-9.3235
▁zawsze	-9.3251
32	-9.32537
czu	-9.32546
85	-9.32602
▁głos	-9.32617
tt	-9.32681
▁działań	-9.32688
bar	-9.32725
▁maszyn	-9.32782
▁zachodniej	-9.32788
ser	-9.32896
cznych	-9.329
ano	-9.33008
▁-	-9.3303
01	-9.33052
76	-9.33134
–20	-9.33274
▁szybko	-9.33393
▁okręt	-9.33514
▁wojna	-9.33529
▁funkcję	-9.3354
ste	-9.33578
▁rp	-9.33578
37	-9.33592
kre	-9.33667
pod	-9.33711
39	-9.33763
▁29	-9.33802
36	-9.33844
▁dr	-9.33958
ed	-9.34003
▁brytanii	-9.3406
les	-9.34126
▁pol	-9.34252
05	-9.34256
▁stanisław	-9.34369
▁pisma	-9.34406
ö	-9.3449
duk	-9.34507
rów	-9.3451
tą	-9.34533
▁spo	-9.3468
67	-9.34782
▁norm	-9.34884
ńskiej	-9.34975
31	-9.3504
63	-9.35186
czyn	-9.35245
▁mal	-9.35457
▁celem	-9.35494
▁j	-9.35513
lub	-9.35568
▁uzyskał	-9.35753
▁spośród	-9.35785
▁kol	-9.35795
▁(„	-9.35807
▁języki	-9.35886
▁cesarza	-9.35886
▁pie	-9.36124
▁najmniej	-9.36142
▁zbiór	-9.36182
scy	-9.36191
con	-9.36236
kt	-9.36265
acje	-9.36353
acją	-9.36389
84	-9.3646
ców	-9.36632
▁udało	-9.36695
86	-9.36737
▁obszarze	-9.36761
89	-9.36786
he	-9.36845
▁dzień	-9.36856
=4	-9.36864
▁zespół	-9.36968
▁1944	-9.36977
▁nadal	-9.37005
▁rzeki	-9.37036
▁potrzeb	-9.37086
lne	-9.37281
▁stopniu	-9.3732
▁możliwość	-9.37371
▁główne	-9.37374
▁en	-9.37473
▁możliwe	-9.37506
▁region	-9.37546
▁będąc	-9.37627
ü	-9.37641
▁napisał	-9.37672
▁syna	-9.377
▁czasach	-9.37825
▁wkrótce	-9.37912
▁wyborach	-9.37912
▁tra	-9.37928
45	-9.3803
▁niemal	-9.38109
á	-9.38126
mat	-9.38128
64	-9.38221
▁kr	-9.3839
▁wydał	-9.38432
jącą	-9.38587
zki	-9.38624
▁ciąg	-9.38677
▁śmierć	-9.38827
▁kod	-9.38848
ale	-9.38898
88	-9.38964
▁wsi	-9.39065
▁kur	-9.39089
głos	-9.39137
▁pomimo	-9.39138
▁drugi	-9.39141
▁ulic	-9.39266
▁zależności	-9.39275
▁stronie	-9.39298
licz	-9.39344
▁gr	-9.39458
▁and	-9.39488
="5	-9.39532
▁lot	-9.39549
lnych	-9.39652
▁2000	-9.39681
96	-9.39767
▁przedsiębiorstw	-9.39826
▁bowiem	-9.3983
94	-9.39867
wał	-9.39928
▁europejskiej	-9.39941
lot	-9.39968
▁rod	-9.39971
▁radio	-9.39974
ō	-9.39982
gt	-9.40024
▁językiem	-9.40038
nów	-9.40046
▁informacji	-9.40102
97	-9.40149
bel	-9.40193
▁mógł	-9.40196
▁dane	-9.40266
▁gaz	-9.40281
62	-9.40297
sku	-9.40316
wal	-9.40382
▁działalności	-9.40436
▁xvii	-9.40543
73	-9.40624
▁2007	-9.40685
▁ur	-9.40687
77	-9.40713
92	-9.40848
cer	-9.40883
▁największe	-9.41023
09	-9.41053
ają	-9.41068
▁ne	-9.41195
pełni	-9.41196
▁żydów	-9.41213
▁zł	-9.41216
nion	-9.41245
▁następujące	-9.41356
▁nigdy	-9.41358
ró	-9.41371
▁pola	-9.4138
▁wysp	-9.41452
▁para	-9.41604
mer	-9.41652
▁zmian	-9.41677
va	-9.41685
ist	-9.41773
▁stało	-9.41831
▁południowo	-9.42059
▁ofiar	-9.42067
stwo	-9.42115
61	-9.42278
▁wzrost	-9.42339
▁pole	-9.42391
ńskie	-9.42435
82	-9.42616
kr	-9.42679
▁sukces	-9.42865
▁związków	-9.42911
res	-9.42953
▁pt	-9.42974
="4	-9.43126
91	-9.43231
48	-9.43239
▁przedstawia	-9.43281
gra	-9.433
szer	-9.43312
ng	-9.43383
brze	-9.4342
="6	-9.43441
lin	-9.43454
▁iv	-9.43553
▁ziem	-9.43644
▁uwagę	-9.43767
cu	-9.43836
78	-9.43934
ver	-9.44034
▁królestwa	-9.44216
▁powołan	-9.44221
▁używa	-9.44273
czny	-9.44299
aż	-9.4434
▁zaczął	-9.44488
93	-9.44513
ji	-9.44518
istów	-9.44572
▁sytuacji	-9.44777
art	-9.44797
mp	-9.44799
ard	-9.4487
▁klub	-9.4496
rzę	-9.44985
ujący	-9.44996
▁kolejnych	-9.45022
▁warszawy	-9.45068
▁model	-9.45078
bud	-9.45135
79	-9.4515
▁kolor	-9.45202
zm	-9.45285
▁północy	-9.45463
▁używane	-9.45493
ża	-9.45597
▁ki	-9.45694
cznego	-9.45711
ienia	-9.45748
▁(20	-9.45769
▁jednostek	-9.45798
74	-9.45827
06	-9.45883
▁czele	-9.45967
08	-9.45971
woł	-9.46123
jącym	-9.46153
▁ca	-9.46173
ik	-9.46181
nica	-9.46302
▁tur	-9.4631
szcze	-9.46311
▁pe	-9.46316
▁von	-9.46336
▁hi	-9.4638
wanie	-9.46396
▁chociaż	-9.46533
▁ludność	-9.46551
pad	-9.46592
▁kro	-9.46636
▁związki	-9.46697
▁określenie	-9.467
▁tereny	-9.46743
wać	-9.46791
▁dobrze	-9.46941
▁częścią	-9.47068
▁księcia	-9.47275
ren	-9.47281
▁2014	-9.47311
▁tworzy	-9.47402
▁zasad	-9.47452
tom	-9.47685
mierz	-9.47694
yn	-9.47782
▁góry	-9.47806
▁prowadzi	-9.47807
▁&	-9.47813
▁mężczyzn	-9.4787
tel	-9.47953
8	-9.47972
▁0	-9.48022
men	-9.48126
kowski	-9.48155
▁siedzibą	-9.4817
lec	-9.48175
▁znany	-9.48176
nek	-9.48247
▁zbyt	-9.48396
sen	-9.48412
▁właściwości	-9.4847
pan	-9.48608
▁forma	-9.48617
▁zaczęł	-9.48634
▁powiatu	-9.48715
▁taki	-9.48766
49	-9.48776
▁kl	-9.48911
▁cykl	-9.48952
▁nazwą	-9.49
▁dodatkowo	-9.49074
44	-9.49084
52	-9.4912
▁nowym	-9.49141
tru	-9.492
▁zajmuje	-9.49226
▁budowa	-9.4924
▁[	-9.49275
▁pal	-9.4928
ica	-9.4932
▁gatunków	-9.49377
9	-9.49463
▁programu	-9.4953
▁szczyt	-9.49532
▁gł	-9.49685
▁fo	-9.49691
▁domu	-9.49694
+	-9.49734
wę	-9.49794
▁postać	-9.49847
▁gry	-9.49849
▁drzew	-9.49895
hu	-9.49921
▁głównych	-9.49927
ep	-9.49947
ph	-9.49959
▁2006	-9.50022
83	-9.50071
ologii	-9.50124
eli	-9.50128
▁józef	-9.50172
▁źródła	-9.50208
ań	-9.50246
▁nimi	-9.50278
▁obrony	-9.50302
▁filozof	-9.50423
▁rozkaz	-9.50443
▁końcu	-9.50454
zon	-9.50652
myśl	-9.50677
eniem	-9.5069
▁izrael	-9.50693
▁metody	-9.50733
▁et	-9.50796
▁zasady	-9.50942
▁ton	-9.50957
▁innym	-9.51095
▁2012	-9.51105
▁wielki	-9.51261
▁mur	-9.51269
▁zastosowanie	-9.51284
▁polega	-9.51305
rę	-9.51321
▁jeżeli	-9.51371
bur	-9.51401
zor	-9.51488
▁powszechnie	-9.51687
▁położone	-9.51822
rus	-9.51881
▁pobliżu	-9.51993
▁stosunku	-9.51993
jącej	-9.5203
stra	-9.52047
ud	-9.52056
zone	-9.52078
▁dzielnic	-9.52079
▁imperium	-9.52149
▁pamięci	-9.52149
▁kultura	-9.52251
▁zakresie	-9.52289
▁płyt	-9.52329
sh	-9.52441
▁stron	-9.52541
▁zwany	-9.52614
szko	-9.52631
▁reform	-9.5268
▁lud	-9.52688
▁por	-9.52732
▁planety	-9.52753
▁2011	-9.52835
yt	-9.52852
alna	-9.52904
▁partia	-9.52936
▁nią	-9.5294
▁bezpośrednio	-9.53019
▁jednakże	-9.53021
47	-9.53041
▁for	-9.53085
▁stały	-9.53125
▁budowy	-9.53144
metr	-9.53172
dów	-9.53177
dat	-9.53188
03	-9.53247
▁religii	-9.53248
▁st	-9.53251
▁kal	-9.53264
▁elementy	-9.53305
▁trans	-9.53307
46	-9.53316
▁urzęd	-9.534
▁niemieckiej	-9.53413
▁planet	-9.53417
que	-9.5348
wit	-9.53505
41	-9.53516
▁książę	-9.53739
▁oni	-9.53823
▁temperatura	-9.53861
▁miastem	-9.5398
▁fal	-9.54191
▁obejmuje	-9.54199
tion	-9.54293
▁stąd	-9.54361
▁zdaniem	-9.54414
▁rodzaj	-9.54441
▁gminy	-9.54584
▁granicy	-9.54625
▁moc	-9.54675
▁drogi	-9.5468
▁dużą	-9.54683
▁wersja	-9.54691
tal	-9.5472
▁uniwersytet	-9.54724
42	-9.54739
04	-9.54771
▁prowadził	-9.54775
kie	-9.54784
cką	-9.54806
▁koncert	-9.55
▁dokument	-9.55122
87	-9.55192
▁całym	-9.55241
▁musiał	-9.55249
▁numer	-9.55265
▁elementów	-9.55322
▁bor	-9.55326
▁2015	-9.55364
72	-9.55435
▁sport	-9.55586
▁mieć	-9.55656
zja	-9.55679
▁el	-9.55725
▁powieści	-9.55783
cyjne	-9.55786
▁album	-9.55807
oni	-9.5593
ciu	-9.55931
▁spor	-9.55961
▁list	-9.55961
▁zostali	-9.55969
▁używany	-9.55988
▁stosuje	-9.55997
iej	-9.56041
ten	-9.56079
ien	-9.56113
▁urząd	-9.56119
▁niemieckich	-9.56241
ili	-9.56289
▁największych	-9.56502
▁drugim	-9.56585
▁rada	-9.56607
▁koron	-9.56688
ryn	-9.56705
owiec	-9.56759
ary	-9.56788
stwa	-9.56831
▁działanie	-9.56846
▁ser	-9.56852
▁imię	-9.56997
▁konflikt	-9.57121
alnego	-9.57183
▁największym	-9.57187
▁2008	-9.5731
len	-9.57453
02	-9.57537
43	-9.57555
▁organ	-9.5756
▁krakowie	-9.57606
▁mieli	-9.57647
▁armia	-9.57672
▁van	-9.57708
▁województwie	-9.57714
▁gor	-9.57741
▁aktor	-9.57741
▁zostać	-9.57769
);	-9.57962
izacji	-9.58041
▁min	-9.5808
í	-9.58099
▁całkowicie	-9.58099
▁1918	-9.58118
▁dużej	-9.58265
▁tradycji	-9.58265
ft	-9.5842
alną	-9.58421
wiąz	-9.58508
▁pojawił	-9.58654
▁sztuk	-9.58662
▁wal	-9.58812
nk	-9.58837
▁teren	-9.58946
▁polską	-9.58958
zony	-9.58997
▁sal	-9.59018
▁zakaz	-9.59029
▁har	-9.59034
▁kas	-9.59045
gl	-9.59072
):	-9.59083
▁reakcji	-9.59099
▁świątyni	-9.59117
▁przyczyn	-9.59171
ane	-9.59186
tw	-9.59251
▁bitwie	-9.59292
▁północno	-9.59366
▁chor	-9.59434
mon	-9.59449
ckiej	-9.5945
▁zatem	-9.59585
iusz	-9.59586
▁zwierząt	-9.59602
kowe	-9.59616
▁duch	-9.59629
com	-9.59643
▁filozofii	-9.59813
▁znaków	-9.59831
ńskim	-9.5985
▁pracę	-9.59853
gór	-9.59863
pp	-9.59906
▁ab	-9.59921
▁niemieckie	-9.59966
ju	-9.5997
▁wys	-9.60106
▁zalicza	-9.60157
▁problem	-9.60161
▁narodowego	-9.60225
▁akcji	-9.60313
wą	-9.60318
▁władysław	-9.6032
▁słowo	-9.6039
▁polaków	-9.60408
ozy	-9.60465
▁krajów	-9.60496
▁uni	-9.60509
▁gl	-9.60587
alnej	-9.60594
▁man	-9.60601
▁tygodni	-9.60607
▁poszczególnych	-9.60616
▁literatury	-9.60619
▁uniwersytetu	-9.60623
▁wprowadził	-9.6071
▁lin	-9.60888
▁masy	-9.61102
zan	-9.61189
▁wschód	-9.61469
07	-9.61477
▁ojca	-9.61479
▁stanach	-9.61575
ały	-9.61646
tyka	-9.61756
wania	-9.61769
="9	-9.61938
▁rynku	-9.61985
71	-9.62026
▁rzeczywistości	-9.62157
▁pis	-9.62184
wan	-9.62221
▁leży	-9.62237
dro	-9.62324
▁odpowiada	-9.62367
▁zwyczaj	-9.62379
▁sejm	-9.62434
jan	-9.62437
▁ocean	-9.62438
▁punkt	-9.62465
▁każdego	-9.6248
▁uczelni	-9.62503
▁zakon	-9.6253
▁2009	-9.62541
tk	-9.62621
▁ryb	-9.6267
▁wschodniej	-9.62672
▁przemysłu	-9.62722
▁pojawia	-9.6298
and	-9.63039
▁podróż	-9.6317
und	-9.63181
tycznych	-9.63187
▁temperatury	-9.63222
łac	-9.63235
ew	-9.6325
owały	-9.63315
sil	-9.63347
sion	-9.63367
ora	-9.63375
▁godzin	-9.63514
dził	-9.6357
▁powoduje	-9.63628
▁milionów	-9.63645
▁wyda	-9.63652
▁linia	-9.63762
▁myśli	-9.63787
gar	-9.63796
▁gwiazdy	-9.63827
▁stosowane	-9.63849
wana	-9.63894
tę	-9.64039
▁algorytm	-9.64074
▁istnienia	-9.64074
▁urodził	-9.6425
▁poprzedni	-9.64254
▁słow	-9.64267
▁blisko	-9.64309
▁cha	-9.64334
▁znak	-9.64417
▁istnienie	-9.64426
▁muzyki	-9.64501
tyczne	-9.64523
▁an	-9.64573
staw	-9.64575
▁pozostałe	-9.64615
▁zamiast	-9.64682
▁dość	-9.64737
▁sol	-9.64758
6%	-9.64759
pra	-9.64793
iczny	-9.64874
▁komputer	-9.64885
▁krzyż	-9.6503
ury	-9.65084
▁tj	-9.65195
▁jo	-9.65341
▁okręty	-9.65364
▁podobne	-9.65463
▁dwor	-9.65536
▁2018	-9.65543
▁2004	-9.65545
▁razy	-9.65555
▁współcześnie	-9.65581
▁czterech	-9.65669
▁powiat	-9.65675
cent	-9.65683
▁spis	-9.65762
▁służby	-9.65783
▁piotr	-9.65811
▁rower	-9.65848
▁funkcje	-9.65848
strzel	-9.65855
▁stanowisko	-9.65885
▁środowiska	-9.65899
▁tworzą	-9.6602
▁ang	-9.66039
▁nsz	-9.66115
▁styl	-9.66125
▁mod	-9.66201
▁real	-9.66231
▁ono	-9.66306
▁źródeł	-9.66387
▁pozycji	-9.66387
▁obiektów	-9.66572
▁roli	-9.66572
▁cy	-9.66719
▁myśl	-9.66747
▁populacji	-9.66747
▁początek	-9.66748
▁samej	-9.6678
pres	-9.66833
▁zawod	-9.66881
▁niepodległości	-9.66946
▁wolności	-9.66963
sch	-9.6706
▁dzieli	-9.67084
▁poniżej	-9.6711
▁członkiem	-9.67119
▁dalej	-9.67227
▁metod	-9.67262
▁wzdłuż	-9.67291
▁stolicy	-9.67292
aniu	-9.67377
▁będący	-9.67387
▁politycznych	-9.67395
▁lit	-9.67489
▁jakie	-9.67541
▁oddział	-9.67568
szym	-9.67576
▁województwo	-9.67676
szych	-9.67742
▁piechoty	-9.67837
▁wpływem	-9.67872
▁ti	-9.67914
ers	-9.67976
▁okrętu	-9.68019
▁mag	-9.68039
▁lek	-9.68066
▁klimat	-9.68191
▁sytuacja	-9.68203
▁szkół	-9.68205
▁pozwala	-9.68246
oną	-9.68287
▁własności	-9.68386
▁klucz	-9.68424
ld	-9.68431
▁dużych	-9.68485
▁polsko	-9.68489
▁mit	-9.68607
▁pracował	-9.68709
▁stopni	-9.68784
logi	-9.68822
▁upraw	-9.68902
▁struktura	-9.68924
▁długość	-9.68953
▁2019	-9.68984
▁chrześcijański	-9.68993
▁ląd	-9.69018
▁itp	-9.69035
="8	-9.69108
▁uwagi	-9.69125
▁akademii	-9.69125
▁narodowej	-9.69138
ura	-9.69186
▁200	-9.69213
iński	-9.69329
zj	-9.6934
amp	-9.69422
▁ostatnich	-9.69458
▁mechanizm	-9.69495
▁dzieł	-9.69504
gran	-9.69517
▁2005	-9.69543
▁księżyc	-9.69625
▁pojęcie	-9.69632
rząd	-9.69665
▁staro	-9.69669
▁powyżej	-9.69765
lit	-9.69791
▁lew	-9.69852
▁pięć	-9.69858
▁odbywa	-9.69888
”).	-9.69906
▁eu	-9.69907
rot	-9.6991
▁(17	-9.69922
▁sza	-9.69928
▁2001	-9.69942
▁okręg	-9.69971
▁fe	-9.69986
py	-9.70033
dom	-9.7007
stą	-9.70158
śnie	-9.70171
▁rodzin	-9.70201
▁art	-9.70203
▁ogłosił	-9.70241
▁wykład	-9.70243
▁maria	-9.70309
owce	-9.70461
kol	-9.70473
▁administracyjny	-9.70482
▁cechy	-9.70521
▁przykładem	-9.70531
▁społeczeństwa	-9.70535
▁większe	-9.70642
▁pewne	-9.70835
▁północ	-9.7086
kowych	-9.70912
sad	-9.70971
▁wschodzie	-9.70992
▁stolicą	-9.70992
▁zajmował	-9.71059
▁niemieckiego	-9.71064
▁oper	-9.71067
dor	-9.71093
)"	-9.71144
▁punktu	-9.71154
niejszy	-9.71274
▁międzynarodowy	-9.71346
ret	-9.71351
ory	-9.7147
▁roman	-9.71556
szu	-9.71567
ckich	-9.71608
tyn	-9.71639
▁ulicy	-9.71724
▁1990	-9.71766
▁południe	-9.71792
▁hal	-9.71819
▁odpowiedni	-9.71868
fr	-9.71935
▁bal	-9.7194
▁połowy	-9.71952
▁człowiek	-9.72095
▁teoria	-9.72132
▁protest	-9.7217
▁status	-9.72256
tzw	-9.72383
▁bank	-9.72384
woj	-9.72387
tro	-9.725
▁azji	-9.72515
let	-9.72521
▁uznał	-9.72527
ód	-9.72573
▁ber	-9.72582
▁zakład	-9.72588
icznym	-9.72637
▁skutek	-9.72668
▁swego	-9.72677
▁podstawowe	-9.72692
▁silnie	-9.72711
▁szczególności	-9.72716
▁osobn	-9.72756
▁most	-9.72756
łem	-9.72771
▁osi	-9.72789
tus	-9.72818
▁posiadał	-9.72819
wad	-9.72857
▁tekst	-9.72859
▁powstało	-9.72927
tka	-9.72947
2,	-9.73032
▁skali	-9.73094
czenia	-9.73202
▁niepo	-9.73213
lew	-9.73238
▁józefa	-9.73238
▁tar	-9.73285
gro	-9.73292
cen	-9.73447
▁ros	-9.73465
▁większą	-9.73473
▁nagrody	-9.73473
▁pomoc	-9.73505
▁as	-9.73532
▁2002	-9.7357
▁er	-9.73618
az	-9.73639
▁powrócił	-9.7367
trze	-9.73717
▁uważał	-9.73724
▁andrzej	-9.73758
▁august	-9.73764
ell	-9.73853
▁prowincji	-9.7386
▁akt	-9.73876
▁obrębie	-9.73886
▁komitet	-9.73991
▁woli	-9.74014
▁ostatni	-9.74141
▁bezpieczeństwa	-9.74182
▁dziedzinie	-9.74263
▁hiszpanii	-9.74263
bin	-9.74337
▁kwas	-9.74398
▁kry	-9.7449
▁życiorys	-9.74639
▁2016	-9.74687
▁struktury	-9.7474
▁trwał	-9.74765
dar	-9.74769
▁herb	-9.74799
▁lip	-9.74804
rzecz	-9.74928
▁cesarstwa	-9.75031
▁dotyczące	-9.75068
▁odległości	-9.75227
▁ojciec	-9.75227
▁budowę	-9.75227
▁pożar	-9.75402
▁koni	-9.7545
▁2013	-9.75465
▁kazimierz	-9.75548
dyna	-9.75586
▁największą	-9.75621
▁przeciwieństw	-9.75622
▁znaczeniu	-9.75631
▁obiekt	-9.75732
▁szpital	-9.75764
▁drodze	-9.75819
eb	-9.7582
▁metal	-9.75909
ani	-9.75912
▁projektu	-9.75961
3%	-9.75983
▁us	-9.75987
ice	-9.76042
▁panowania	-9.76093
▁ps	-9.76126
▁rzymu	-9.76169
▁teatr	-9.76209
▁ży	-9.76237
kor	-9.76343
▁bolesław	-9.76354
▁atom	-9.76356
▁publik	-9.76378
▁1999	-9.76432
▁gospodarka	-9.7645
▁ce	-9.76518
log	-9.7652
lności	-9.76663
▁pogląd	-9.76735
▁polityki	-9.76791
▁dolarów	-9.7682
for	-9.7684
▁częściowo	-9.76843
▁(1	-9.76844
▁znajdował	-9.76885
▁stop	-9.76945
▁ż	-9.76981
▁użyt	-9.77021
▁wiary	-9.77044
▁systemów	-9.77046
▁poziomie	-9.7705
▁nastąpił	-9.77088
▁wybuch	-9.77131
ograf	-9.77285
▁tor	-9.77349
▁war	-9.77365
▁argument	-9.77414
▁element	-9.77419
▁adres	-9.77424
▁ag	-9.77491
▁stosunkow	-9.77615
▁ad	-9.77701
▁tro	-9.77768
▁organizacja	-9.77823
shi	-9.77838
▁ras	-9.77888
dia	-9.77893
bl	-9.77931
▁trud	-9.77985
▁światła	-9.78064
▁walk	-9.78115
▁sko	-9.78207
▁główną	-9.78222
▁1989	-9.78237
▁ran	-9.78242
▁kości	-9.78248
▁czech	-9.78252
▁pochodzenie	-9.78286
▁pisał	-9.78304
▁trój	-9.78329
▁wybudowan	-9.78375
▁świętego	-9.78518
rad	-9.78544
▁połączenia	-9.78587
▁wielkopolski	-9.78607
▁obszary	-9.78641
▁znaczenia	-9.78648
▁licząc	-9.7871
▁elektron	-9.78712
up	-9.78837
▁rejonie	-9.78858
ord	-9.78908
▁obiekty	-9.78982
▁sw	-9.79057
▁nową	-9.79144
ój	-9.79163
▁mil	-9.79178
▁oficjalnie	-9.7924
▁zbioru	-9.7924
▁pozostałych	-9.79262
fo	-9.79364
▁sieć	-9.79379
słow	-9.79448
▁warunki	-9.79509
morski	-9.79597
▁pojęcia	-9.7965
▁gospodarki	-9.79679
▁niemiecki	-9.7969
▁posiadają	-9.7971
▁republiki	-9.79718
▁at	-9.7972
▁spa	-9.79727
uk	-9.79759
▁lotniczy	-9.79849
moc	-9.79864
▁0,	-9.79892
▁ameryki	-9.79938
▁związany	-9.80007
▁ludzie	-9.80008
bran	-9.80019
▁granicach	-9.80021
▁ple	-9.80042
▁uniwersytecie	-9.80062
▁matki	-9.80066
ciąg	-9.8007
▁próby	-9.8007
▁danego	-9.80104
▁dniu	-9.8015
ham	-9.80221
▁święto	-9.80263
▁twórczości	-9.80269
▁1940	-9.8029
yzm	-9.80295
ała	-9.80305
▁2020	-9.80343
iec	-9.80417
nki	-9.80422
▁skal	-9.80525
end	-9.80535
▁wynosiła	-9.80581
ola	-9.80625
lizm	-9.80632
▁językach	-9.80658
fu	-9.80665
▁rzeszy	-9.80698
trzy	-9.8072
jsze	-9.80731
▁całości	-9.80809
▁nowa	-9.80826
nął	-9.80842
▁+	-9.80879
skutek	-9.80946
▁obie	-9.80974
▁główny	-9.80981
▁skr	-9.80995
czyli	-9.81022
▁nieco	-9.81069
▁mieszkańcy	-9.81099
▁anglii	-9.81101
dano	-9.81108
▁biskup	-9.81161
ywał	-9.81237
▁każda	-9.81281
▁paryżu	-9.81314
▁zdobył	-9.81327
tki	-9.81356
iny	-9.81379
olog	-9.81404
żu	-9.81416
wany	-9.81442
▁1000	-9.81471
▁regionu	-9.81479
▁życiu	-9.81526
▁astronom	-9.81536
▁ł	-9.81541
▁niektórzy	-9.81547
▁roczn	-9.81553
▁bolesława	-9.81581
niki	-9.81585
▁zestaw	-9.81591
▁charakterze	-9.8161
▁związanych	-9.81718
▁premier	-9.81721
ckim	-9.81736
ori	-9.81776
nd	-9.81823
nictwo	-9.81825
nes	-9.8184
▁rozwija	-9.81907
ckie	-9.81912
dob	-9.81926
▁wywodzi	-9.81937
▁studia	-9.81943
▁dostęp	-9.81945
try	-9.81953
cych	-9.81991
▁fu	-9.82001
▁jedynym	-9.8202
▁tomasz	-9.82041
ig	-9.82068
▁bydgoszczy	-9.82079
czek	-9.82092
▁sk	-9.82127
icy	-9.82135
▁warunkach	-9.82148
▁łącząc	-9.82197
wierz	-9.82278
▁ośrodek	-9.82358
▁wydarzenia	-9.82359
▁cyfr	-9.82378
wen	-9.82513
▁con	-9.82543
▁lipcu	-9.82581
▁klas	-9.82629
▁kobiety	-9.82698
▁zmienia	-9.82704
rat	-9.82724
▁chin	-9.82754
▁różni	-9.82756
▁powietrza	-9.82788
zeń	-9.82827
las	-9.82861
▁miesięcy	-9.82994
lny	-9.82997
▁kot	-9.83093
▁epi	-9.83115
▁wchodzi	-9.8313
▁ram	-9.83159
▁zachodzie	-9.83172
▁ust	-9.83196
codice	-9.83237
▁wybuchu	-9.83245
▁przyczynił	-9.83256
▁rządów	-9.83266
sił	-9.83323
▁arab	-9.83341
kowej	-9.83403
▁zachód	-9.83406
▁łącznie	-9.83428
▁kontr	-9.83517
▁not	-9.83756
▁pierwotnie	-9.83848
▁wrześniu	-9.83905
▁2017	-9.83919
▁grudniu	-9.84062
▁wiedzy	-9.84063
="10	-9.84088
▁gar	-9.84161
▁kara	-9.8419
ens	-9.84195
▁czerwcu	-9.84278
▁społeczności	-9.8429
▁xiv	-9.84303
▁duży	-9.84414
▁henryk	-9.84489
▁wewnątrz	-9.84493
▁współpracy	-9.84493
▁paul	-9.84493
_3	-9.84533
▁pochodzą	-9.84543
▁60	-9.84594
▁mistrz	-9.84663
▁serwer	-9.84723
▁głosów	-9.84741
koń	-9.84741
▁rozpoczęła	-9.84767
▁pop	-9.8499
ńską	-9.85
język	-9.85045
▁lod	-9.85083
▁danej	-9.85157
▁pozostał	-9.8517
▁długo	-9.85185
nem	-9.85207
q	-9.85281
her	-9.85288
▁symbol	-9.85358
▁tutaj	-9.85379
▁poznań	-9.85496
▁interes	-9.85517
▁del	-9.85525
cznym	-9.85531
▁zarząd	-9.85592
▁stopnia	-9.8567
▁sław	-9.85694
▁bud	-9.85701
▁komór	-9.85716
▁maju	-9.85735
▁xv	-9.85764
▁dan	-9.85889
▁barw	-9.85923
▁sejmu	-9.85925
dze	-9.85954
top	-9.85965
▁kompleks	-9.86015
▁strat	-9.86129
▁wyraz	-9.86166
▁niekiedy	-9.86234
▁stworzył	-9.86235
▁mogły	-9.86235
▁wynik	-9.86328
▁warszawskiego	-9.86351
▁listy	-9.86383
onego	-9.86391
▁generał	-9.86392
▁1919	-9.86475
▁pojawiły	-9.86574
wil	-9.86585
▁znanych	-9.86626
stru	-9.86632
▁podstawowych	-9.86656
▁japonii	-9.86674
▁rom	-9.86678
▁szkoła	-9.86795
▁noc	-9.86864
lek	-9.86879
▁pary	-9.86932
cal	-9.87
▁dokonał	-9.87123
▁dalsze	-9.87148
▁1920	-9.87148
▁dobra	-9.87175
▁obszaru	-9.87176
don	-9.87213
▁konstytucji	-9.87338
gin	-9.87342
▁jednostka	-9.87343
nicze	-9.87347
▁chi	-9.8736
▁przybył	-9.8737
net	-9.87408
▁inny	-9.87447
▁skał	-9.87455
alnie	-9.87536
kowy	-9.87542
pas	-9.87555
▁windows	-9.87561
▁pałac	-9.87615
▁stara	-9.87729
▁dużym	-9.87735
▁sprawie	-9.87781
▁funkcja	-9.87783
wód	-9.87789
▁podziału	-9.87796
▁bezpośredni	-9.87825
stę	-9.87829
▁mari	-9.8786
ący	-9.87899
▁stanisława	-9.87924
▁marcu	-9.87991
▁eksperyment	-9.88006
▁euro	-9.88168
▁internet	-9.88214
kła	-9.88246
▁dniach	-9.88285
▁john	-9.88315
▁wypad	-9.88328
▁efekt	-9.88395
har	-9.88396
▁reżyser	-9.88414
lna	-9.88433
▁atak	-9.88479
yk	-9.88533
▁produkt	-9.88552
▁ke	-9.88612
▁kurs	-9.88625
▁jas	-9.88647
▁prowadząc	-9.88656
▁tekstu	-9.88703
▁warstw	-9.88764
▁liter	-9.88802
dawał	-9.88812
▁hel	-9.88861
▁zdrowia	-9.88905
▁członkowie	-9.88906
łów	-9.88933
▁bram	-9.88971
▁płci	-9.88999
▁rejon	-9.89042
dź	-9.89081
▁drugą	-9.8913
▁narodów	-9.89144
▁nazwie	-9.89168
▁es	-9.8918
▁położenie	-9.89253
poli	-9.89351
▁środkowej	-9.89357
▁tablic	-9.89363
▁traktat	-9.8939
▁kolejny	-9.89444
▁pomnik	-9.89454
▁dynastii	-9.89583
▁prywatne	-9.89583
▁kra	-9.89599
▁xiii	-9.89602
▁mono	-9.89699
▁pośredni	-9.89741
▁działał	-9.89744
▁dzieło	-9.89756
▁pisarz	-9.8988
▁kalendarz	-9.89903
▁kult	-9.89907
▁tworzenia	-9.90038
▁stopniowo	-9.90079
▁odpowiednio	-9.90088
▁wektor	-9.90129
spir	-9.90174
▁alkohol	-9.90188
▁stosowany	-9.90227
▁ochrony	-9.90266
lną	-9.90297
stro	-9.9035
▁odmian	-9.904
rzesz	-9.90415
dan	-9.90418
▁sm	-9.9045
▁mało	-9.90472
kan	-9.90504
▁artykuł	-9.90532
▁500	-9.90553
burg	-9.90622
▁odbył	-9.9064
▁antoni	-9.9066
▁dzielnicy	-9.90697
▁etap	-9.90724
▁wschodu	-9.90724
▁zespołu	-9.90724
▁300	-9.90765
▁zajmując	-9.90839
dzieln	-9.9084
▁nazywane	-9.90912
▁przedstawiciel	-9.90931
▁druga	-9.90979
dż	-9.90997
▁swej	-9.91008
zę	-9.91034
▁licznych	-9.91038
▁przebiega	-9.91056
|	-9.91148
▁pierścieni	-9.91185
▁chciał	-9.91186
▁osoba	-9.91194
▁przyczyną	-9.9123
▁wielkie	-9.91258
▁wspólnoty	-9.9126
▁(2	-9.91339
▁nazywany	-9.9134
letni	-9.91388
fl	-9.91596
▁bywa	-9.91627
▁niemczech	-9.91647
▁wciąż	-9.91647
▁różnic	-9.91657
▁1991	-9.91663
▁wytwarza	-9.91677
ole	-9.91743
▁krwi	-9.91773
▁rodzaje	-9.91832
▁adam	-9.91866
▁terenów	-9.91972
wers	-9.91985
▁tyle	-9.92036
gener	-9.9205
▁władysława	-9.92053
rii	-9.92067
▁samorząd	-9.92085
▁konstrukcji	-9.92111
▁zjednoczone	-9.92111
▁całą	-9.92117
▁narzędzi	-9.92122
▁ciało	-9.92135
▁up	-9.9214
▁układzie	-9.92175
wart	-9.92184
tera	-9.92186
polski	-9.92224
▁mont	-9.92287
▁wystąpił	-9.92345
▁wyjątkiem	-9.92382
▁filmu	-9.92407
tami	-9.92435
▁linie	-9.92586
▁mniejsze	-9.92614
▁dar	-9.92614
ród	-9.9262
▁bitwy	-9.92621
rom	-9.92655
▁inter	-9.92717
całej	-9.92721
▁społecznych	-9.92755
▁najważniejszych	-9.92813
▁objął	-9.92813
▁niemców	-9.92818
▁las	-9.92869
ris	-9.92922
▁szy	-9.92962
▁stany	-9.93079
▁najpierw	-9.93111
▁koło	-9.93114
▁ostatnie	-9.93144
eg	-9.93227
▁zakłada	-9.93245
▁rzym	-9.9327
▁religia	-9.93283
▁terenach	-9.93308
izacja	-9.93325
▁działają	-9.93337
▁dźwięk	-9.93351
▁test	-9.93365
dą	-9.93403
▁wprowadzono	-9.93442
▁następujący	-9.93521
▁90.	-9.93545
grom	-9.93556
ans	-9.93579
ista	-9.9359
▁odpowiedzi	-9.93611
▁brzeg	-9.93622
▁leg	-9.93634
przed	-9.93651
owało	-9.93703
▁południu	-9.93755
▁przyrody	-9.9376
czes	-9.938
▁cz	-9.9381
▁istot	-9.93863
sji	-9.93883
czk	-9.9402
▁post	-9.94063
▁kw	-9.94068
▁bóg	-9.94091
ika	-9.94111
▁opiera	-9.94221
▁osiedla	-9.94229
▁wielką	-9.94231
▁procesu	-9.94245
▁mat	-9.94278
▁70.	-9.94335
▁głównego	-9.94363
▁nic	-9.94386
owanego	-9.94388
▁stoczni	-9.94389
▁stanowiska	-9.94397
▁nomin	-9.94418
▁największy	-9.94423
rek	-9.94432
▁przedstawiciele	-9.94448
▁późn	-9.94458
▁większych	-9.94515
nami	-9.94554
yczna	-9.94582
ez	-9.94599
▁własne	-9.94647
▁utworów	-9.94707
▁cho	-9.94765
dać	-9.94821
▁ośrodkiem	-9.94853
▁wód	-9.94925
▁granic	-9.94958
ab	-9.95014
▁bur	-9.95028
star	-9.95044
▁autobus	-9.95057
wschodni	-9.95076
▁kolej	-9.95083
▁przypomina	-9.95185
▁styczniu	-9.95185
▁zachodu	-9.95185
▁mld	-9.95384
▁fragment	-9.95393
żni	-9.9541
niczą	-9.95435
▁1941	-9.95441
▁spotyka	-9.9548
dl	-9.95538
▁braku	-9.95548
ących	-9.95562
▁daje	-9.95574
▁współczesnych	-9.95585
▁wprowadzenie	-9.95628
▁eks	-9.95635
▁definicja	-9.95666
▁handlu	-9.95667
▁mikro	-9.95674
nięcie	-9.95677
▁komitetu	-9.95746
▁dotyczy	-9.95757
▁prędkości	-9.95781
▁księstwa	-9.95787
▁obywatel	-9.9581
qu	-9.95844
▁źródłem	-9.95908
▁listopadzie	-9.95913
▁zyskał	-9.95913
▁zaczęt	-9.95917
▁fr	-9.95945
▁operacji	-9.9595
▁bit	-9.95966
▁zwrot	-9.95972
▁2003	-9.9599
▁średnia	-9.95997
▁nocy	-9.96002
▁głównej	-9.96011
▁ustaw	-9.96075
▁wiatr	-9.96107
▁kościele	-9.96151
▁bohater	-9.96234
▁chrystusa	-9.96283
▁urzędu	-9.9635
ns	-9.96355
▁80	-9.96432
▁mające	-9.96452
rr	-9.96471
anu	-9.96543
▁naturalne	-9.96546
nią	-9.96572
wszy	-9.96603
▁stwierdził	-9.96636
waną	-9.96653
▁technik	-9.96756
▁jezusa	-9.96767
ńskich	-9.96808
▁widzenia	-9.96882
ark	-9.96899
icznej	-9.96987
▁80.	-9.97051
▁grupę	-9.97061
des	-9.97071
mówi	-9.9708
▁usług	-9.97112
▁gwar	-9.97119
▁prędkość	-9.97124
▁wojnę	-9.97136
▁jądra	-9.97149
▁nazw	-9.97157
jak	-9.97222
ley	-9.97238
▁wydawan	-9.97284
▁zjawisko	-9.97334
lla	-9.97402
▁łańcuch	-9.97615
▁przedstawicieli	-9.9766
ling	-9.97668
▁rodzina	-9.97712
żenia	-9.97725
▁hitler	-9.97852
▁październiku	-9.97862
▁substancji	-9.97862
▁ks	-9.98016
▁rzymskiego	-9.98108
а	-9.98109
▁trwa	-9.98118
▁źródło	-9.98221
▁słów	-9.98238
▁liczbie	-9.98297
ół	-9.98323
▁połączenie	-9.98338
▁spotkał	-9.98357
▁silne	-9.98411
int	-9.98463
nąć	-9.98481
▁włoski	-9.98484
▁stylu	-9.9851
berg	-9.9859
▁każdym	-9.98592
▁wybrzeża	-9.98604
▁środków	-9.98604
2)	-9.98608
▁wielka	-9.98834
▁zaczęła	-9.98842
zer	-9.9885
▁chełm	-9.98856
▁katolicki	-9.98866
▁dotychczas	-9.98868
▁utworzono	-9.98885
▁drugiego	-9.98936
▁ukazał	-9.98944
▁postęp	-9.98945
▁przekaz	-9.99024
ące	-9.99079
▁rzeczy	-9.99107
ini	-9.99119
▁ostro	-9.99217
typ	-9.99339
▁komisji	-9.99354
pal	-9.99395
pierw	-9.99402
▁angielski	-9.99414
ts	-9.9943
▁okręgu	-9.99466
kiewicz	-9.99477
▁bomb	-9.99514
ery	-9.99527
▁60.	-9.9953
▁miejskie	-9.99553
▁potrzeby	-9.99593
▁produkcja	-9.99603
▁mogła	-9.99605
pre	-9.99688
▁inni	-9.99789
▁będące	-9.99794
▁stu	-9.9982
▁wprowadza	-9.99824
▁ważnym	-9.99853
▁użyciu	-9.99854
▁wybory	-9.99863
▁wymienia	-9.99864
▁rzeźb	-9.99869
▁blok	-9.99871
▁innego	-9.9991
°	-9.99946
▁poglądy	-9.99949
▁matematyk	-9.99953
▁równo	-10.0005
szedł	-10.0006
▁informacje	-10.0011
▁przyjął	-10.0011
ble	-10.0013
▁str	-10.0015
port	-10.0016
▁powyższ	-10.0016
▁wojskowych	-10.0018
▁ge	-10.0021
▁kandydat	-10.0021
▁zakłady	-10.0026
▁firmy	-10.0027
▁opart	-10.0028
▁szybki	-10.0029
▁dostarcza	-10.0036
▁sierpniu	-10.0037
▁kolejnym	-10.0039
atu	-10.0045
▁aktyw	-10.0047
▁wielkich	-10.0049
ające	-10.006
▁włoch	-10.0061
▁choroby	-10.0061
▁william	-10.0062
czych	-10.0064
▁towarzystwa	-10.0072
▁niezależnie	-10.0076
▁formę	-10.0077
▁dysk	-10.0077
▁większej	-10.008
▁kos	-10.0102
dra	-10.0102
▁(3	-10.0109
mas	-10.0109
▁zdecydował	-10.0112
▁pozostaje	-10.0112
▁każdej	-10.0115
▁wielkim	-10.0118
▁sld	-10.0124
▁ver	-10.0125
▁niedo	-10.0129
isty	-10.0131
▁kam	-10.0133
▁podwodnych	-10.0135
▁xii	-10.0137
▁ściśle	-10.0138
▁władcy	-10.0138
▁przyjmowa	-10.0138
▁dróg	-10.0138
▁zarządza	-10.014
▁polityka	-10.0147
kowi	-10.0147
▁ocen	-10.015
tyczny	-10.0155
▁administracyjne	-10.0157
▁narodowy	-10.0157
▁pięciu	-10.0163
▁chrześcijan	-10.0163
▁sojusz	-10.0163
▁utwory	-10.0163
hr	-10.0166
▁2021	-10.0169
▁powierzchnię	-10.0174
ation	-10.0177
▁zwane	-10.0183
▁komunikacji	-10.0189
▁kanon	-10.0196
nal	-10.021
▁sama	-10.0212
▁opracowan	-10.0213
▁upadku	-10.0214
del	-10.0219
▁motyw	-10.0219
▁obejmując	-10.0221
mianem	-10.0222
2.	-10.0224
▁zbrojnych	-10.0227
stal	-10.0229
▁zapisu	-10.0232
▁torped	-10.0237
▁traktowa	-10.0238
▁sie	-10.0238
▁parku	-10.024
▁nagrodę	-10.024
▁powierzchnia	-10.0241
▁stra	-10.0243
▁szyb	-10.0244
nos	-10.0246
▁gdańsk	-10.0253
▁występował	-10.0256
▁pory	-10.0259
▁wyraża	-10.0271
▁tr	-10.0277
ita	-10.0279
▁tadeusz	-10.0282
yjny	-10.0285
kul	-10.0289
▁ówczesn	-10.0289
▁raczej	-10.0292
▁miejskiej	-10.0293
▁systemie	-10.0297
▁takiej	-10.03
▁średniowieczn	-10.03
bili	-10.0301
ria	-10.0306
▁cr	-10.0306
▁pozostawał	-10.0308
nięcia	-10.0315
▁liście	-10.0317
▁sub	-10.0318
▁podjął	-10.0318
▁własnych	-10.0323
▁okolicach	-10.033
jusz	-10.0331
▁podobny	-10.0337
▁flag	-10.0341
▁przyjmuje	-10.0344
▁1992	-10.0346
zeniu	-10.0354
[	-10.0358
▁położon	-10.037
ówka	-10.0371
▁1946	-10.0372
▁książki	-10.0374
▁ska	-10.0379
▁podpisan	-10.0389
czki	-10.0392
▁70	-10.0393
▁koncepcji	-10.0396
ińskiego	-10.0399
▁miesza	-10.0401
▁podstawą	-10.0403
▁osiąga	-10.0405
iusza	-10.0418
▁zwiększa	-10.0419
czka	-10.042
▁gatunki	-10.0423
▁zakończeniu	-10.0423
▁imienia	-10.0429
▁mierze	-10.0433
ap	-10.0443
ański	-10.0446
ä	-10.0449
▁pokoju	-10.0449
▁wielokrotnie	-10.045
stów	-10.0451
▁różnice	-10.0453
▁cl	-10.0454
sti	-10.0454
▁sh	-10.0455
▁owoc	-10.0462
onej	-10.0464
▁start	-10.0467
▁korzysta	-10.0469
naj	-10.0469
▁kanał	-10.0471
▁jakim	-10.0471
▁surow	-10.0472
ex	-10.0473
▁duża	-10.0477
▁urządzenia	-10.0477
▁karol	-10.048
▁czyn	-10.0491
▁meta	-10.0492
▁'	-10.0494
bór	-10.0495
▁sum	-10.0495
▁dawne	-10.0498
▁kodu	-10.05
▁praktyce	-10.0502
leż	-10.0502
▁polityczne	-10.0502
▁1998	-10.0504
▁wyniki	-10.0505
▁2022	-10.0508
▁zło	-10.0522
▁papież	-10.0525
▁twórczość	-10.0528
▁zastosowania	-10.0534
owskiej	-10.0536
▁dusz	-10.0538
▁seks	-10.0539
▁kontakt	-10.054
▁obszarów	-10.0542
czas	-10.0543
óż	-10.0546
▁stronę	-10.0548
▁późniejszych	-10.0548
▁zachodnich	-10.0551
▁pociąg	-10.0553
α	-10.0555
▁oryginaln	-10.0555
▁dobre	-10.0555
▁zależy	-10.0555
▁cesarski	-10.0557
ett	-10.0565
▁naukowych	-10.0568
▁założył	-10.0574
kwi	-10.0575
▁sy	-10.0575
bier	-10.0579
▁lasy	-10.0582
▁śląska	-10.0586
▁umożliwia	-10.0594
▁wieś	-10.0594
▁‘	-10.0594
jącymi	-10.0596
▁psl	-10.0597
han	-10.0605
▁zbrojne	-10.0606
▁biskupa	-10.0615
▁będą	-10.0619
▁intensywn	-10.0627
rób	-10.063
▁decyzję	-10.0635
▁kościoły	-10.0635
▁kampanii	-10.0635
▁treści	-10.0637
ycznych	-10.0637
▁ben	-10.0648
▁mając	-10.0655
▁new	-10.0659
▁pismo	-10.0661
▁uznaje	-10.0662
▁dużo	-10.0662
dania	-10.0663
▁piłsudski	-10.0666
▁mon	-10.0671
▁takim	-10.0672
nor	-10.0675
▁uprawia	-10.068
▁właściciel	-10.0681
najmniej	-10.0682
▁pełnił	-10.0688
▁krajobraz	-10.0689
▁łatwo	-10.0689
▁1942	-10.0691
▁zachowania	-10.0699
▁lekarz	-10.0699
▁katowicach	-10.0701
owości	-10.0713
gn	-10.0714
▁krótko	-10.0716
▁straż	-10.0718
▁lutym	-10.0721
byt	-10.0737
▁miejskich	-10.0737
▁leon	-10.0743
•	-10.0743
▁baz	-10.075
▁zjawiska	-10.0753
▁klasztor	-10.0756
▁god	-10.0756
▁premiera	-10.0756
ującego	-10.0762
▁ścian	-10.0766
▁roln	-10.0766
▁praktyk	-10.0767
▁definicji	-10.077
▁momencie	-10.077
▁nobla	-10.0771
▁droga	-10.0771
▁1943	-10.0772
▁europejskich	-10.0772
▁silnik	-10.078
bój	-10.0781
lud	-10.0783
▁staw	-10.0786
▁granice	-10.0789
bron	-10.0794
lność	-10.0795
owanej	-10.0796
▁funkcjonuje	-10.0797
▁techniki	-10.0799
▁takiego	-10.0801
▁papier	-10.0805
▁zwraca	-10.0806
▁kazimierza	-10.0808
▁strefy	-10.0814
▁położony	-10.082
▁tward	-10.0826
▁podaje	-10.0827
▁czasami	-10.0834
bił	-10.0835
cznej	-10.0835
▁kompozytor	-10.0836
bry	-10.0843
▁nauka	-10.0849
▁gal	-10.0851
▁skarb	-10.0855
▁nauczyciel	-10.0857
▁brat	-10.0858
▁neo	-10.0859
▁jeziora	-10.0865
▁jaki	-10.087
▁spełnia	-10.0876
▁ło	-10.0876
nikiem	-10.0879
est	-10.088
▁nizin	-10.0881
▁ste	-10.0881
▁zegar	-10.0881
▁1995	-10.0882
▁bio	-10.0883
▁bliski	-10.0884
▁lib	-10.0884
ruch	-10.0888
▁materiał	-10.0889
mieści	-10.0893
dla	-10.0894
▁filip	-10.0894
ól	-10.0899
▁kamieni	-10.09
▁mówiąc	-10.0904
▁telefon	-10.0908
▁narodu	-10.091
▁parlamentu	-10.0911
▁zajmują	-10.0912
▁wojewódzki	-10.0912
▁krytyk	-10.0915
▁jerzy	-10.0917
▁rocznie	-10.0919
▁słońce	-10.092
pen	-10.0928
▁porusza	-10.0932
▁wskaźnik	-10.0935
▁najważniejsze	-10.0936
▁ex	-10.0937
▁woj	-10.0938
bio	-10.0945
now	-10.0951
▁opublikował	-10.0955
▁wystaw	-10.0955
▁analiz	-10.0958
▁znaki	-10.0958
▁róż	-10.0959
▁otwarty	-10.0962
▁bru	-10.0963
▁przekład	-10.0964
▁strajk	-10.0965
bert	-10.0969
▁szyfr	-10.0969
▁demokratyczn	-10.097
▁relacji	-10.0972
dal	-10.0973
▁faz	-10.0978
▁określenia	-10.099
▁siedzibę	-10.099
▁poznania	-10.0991
▁rzymie	-10.0993
▁stacji	-10.0999
▁podmiot	-10.1
rob	-10.1003
usza	-10.1012
▁czemu	-10.1023
vo	-10.1026
▁przykładowo	-10.1036
▁tatr	-10.1036
▁35	-10.1036
fon	-10.1044
▁stosunki	-10.1046
▁wszyscy	-10.1046
▁dziele	-10.1047
▁pia	-10.105
▁wojsko	-10.1056
▁własnej	-10.1056
▁programowania	-10.1058
▁prl	-10.1065
ari	-10.1072
▁rzadko	-10.1074
▁założenia	-10.1074
▁złożone	-10.1083
parciu	-10.1084
yczne	-10.1088
▁kadłub	-10.109
▁ważne	-10.1091
▁wyspie	-10.1099
ces	-10.11
▁postanowił	-10.1102
▁siedziba	-10.1102
wid	-10.1104
▁int	-10.1105
▁występ	-10.1117
ada	-10.1117
▁procesor	-10.1122
▁czeski	-10.1124
▁izotop	-10.113
▁wywołan	-10.1131
▁chlor	-10.1131
▁pewnym	-10.1131
pier	-10.1133
▁rozpoczęto	-10.1133
mb	-10.1135
▁hol	-10.1137
czego	-10.1141
▁pomiar	-10.1142
▁gromad	-10.1143
▁płyn	-10.1147
▁rozkład	-10.1152
▁partner	-10.1152
▁wybrany	-10.1154
▁wysoko	-10.1155
▁krajowej	-10.1158
▁uzyska	-10.116
▁miejska	-10.1161
▁papieża	-10.1162
bez	-10.1164
arz	-10.1165
▁wynosił	-10.1167
▁wina	-10.1172
▁kierowan	-10.1176
▁oparty	-10.1177
▁wykorzystywa	-10.1178
wane	-10.1178
▁prąd	-10.1181
▁zakres	-10.1182
▁druk	-10.1185
iana	-10.1185
obecnie	-10.1187
▁zajął	-10.1188
▁oddziałów	-10.1193
▁odbyła	-10.1193
▁powstają	-10.1193
▁ster	-10.1194
▁zdania	-10.1199
nar	-10.1208
▁dramat	-10.1208
▁est	-10.1209
yjna	-10.1211
▁32	-10.1212
▁leonardo	-10.1215
▁codzienn	-10.1215
▁zbrodni	-10.1216
kur	-10.1217
▁szwedzki	-10.1222
▁przepływ	-10.1223
tz	-10.1227
▁prowadzon	-10.1229
▁wstęp	-10.1233
▁promieni	-10.1237
▁znacząc	-10.124
mus	-10.1243
▁wspomnian	-10.1244
▁zaledwie	-10.1244
yzmu	-10.1246
▁uran	-10.1249
▁tri	-10.1255
nder	-10.1257
owanym	-10.1263
▁han	-10.1265
▁men	-10.1266
▁maksym	-10.1267
czni	-10.1269
▁afryki	-10.1272
▁kapłan	-10.1273
▁procesie	-10.1278
▁zdefiniowan	-10.1282
jedno	-10.1284
tych	-10.1285
▁bre	-10.1291
▁medal	-10.1294
tego	-10.13
▁decyzji	-10.1301
▁porównaniu	-10.1301
▁pawła	-10.1301
▁elektro	-10.1302
▁metrów	-10.1302
▁1997	-10.1303
biał	-10.1309
ień	-10.1313
▁try	-10.1313
▁nastąpiło	-10.1327
▁sakrament	-10.133
pat	-10.133
gat	-10.1334
▁th	-10.1335
▁sek	-10.1337
▁objaw	-10.134
▁francuski	-10.1351
ban	-10.1352
▁mazowiecki	-10.1355
iąże	-10.1356
ius	-10.1357
▁praktycznie	-10.1359
▁rewolucji	-10.1359
▁opowiada	-10.1359
▁przeszłości	-10.136
▁kolejowy	-10.1361
tri	-10.1369
▁ol	-10.1371
▁efekty	-10.1381
▁piłsudskiego	-10.1383
▁liczył	-10.1385
▁przeprowadza	-10.139
▁przeprowadził	-10.1392
▁wybiera	-10.1395
▁poziomu	-10.1403
▁krzyża	-10.1403
▁podstaw	-10.1408
▁rozwinięt	-10.1409
▁kg	-10.1411
▁edward	-10.1417
arzy	-10.1418
▁ed	-10.1419
graf	-10.1425
▁towarzystwo	-10.1426
▁cu	-10.1427
▁des	-10.1437
%)	-10.1437
kop	-10.1442
▁przypadkach	-10.1445
▁większa	-10.1445
▁przywilej	-10.1446
▁ilość	-10.1446
▁oto	-10.145
▁hiv	-10.1453
▁londynie	-10.1454
cko	-10.1455
▁dochodzi	-10.1456
▁mars	-10.146
zka	-10.1464
ven	-10.1473
▁alternatyw	-10.1475
▁twierdzenie	-10.1475
iści	-10.1481
nicki	-10.1482
▁medi	-10.1487
▁prof	-10.1488
▁długi	-10.1491
row	-10.1494
▁przyniosł	-10.15
▁instytucji	-10.1504
▁tradycyjne	-10.1504
▁znaleźć	-10.1504
▁armię	-10.1506
arski	-10.1506
▁rozwiązania	-10.1507
▁rządy	-10.1508
▁rozwijał	-10.1511
jski	-10.1521
▁odmiany	-10.1524
▁cele	-10.1526
▁ciemn	-10.1528
▁naturalnych	-10.1534
▁administracji	-10.1534
▁1938	-10.1536
▁słonecznego	-10.1543
▁filmie	-10.1552
▁honor	-10.1554
▁stanowiły	-10.1555
▁analizy	-10.1556
gor	-10.1561
▁założyciel	-10.1563
▁taka	-10.1566
▁przebywał	-10.157
▁dziedzin	-10.1582
akt	-10.1583
▁okaz	-10.1585
▁napis	-10.1587
▁macierzy	-10.1593
ung	-10.1593
▁brata	-10.1595
▁1921	-10.1595
▁serii	-10.1602
▁firm	-10.1603
zachodni	-10.1606
▁ger	-10.1609
▁oparte	-10.1612
▁zaangażowa	-10.1612
▁scen	-10.1615
▁pozycję	-10.1622
▁poszczególne	-10.1622
▁sześć	-10.1622
▁angeles	-10.1622
▁uchwał	-10.1624
▁republika	-10.1624
▁zmiana	-10.1628
wych	-10.1634
▁ogranicza	-10.1635
owska	-10.1641
▁społeczne	-10.1642
▁orbit	-10.1643
▁brzmi	-10.1643
▁jądro	-10.1646
▁bro	-10.1649
▁kongres	-10.165
▁kategorii	-10.1651
▁kwietniu	-10.1651
▁zewnętrzne	-10.1651
▁opuścił	-10.1651
▁rzędu	-10.1651
owca	-10.1654
▁niemieckim	-10.1654
▁epoki	-10.1655
ością	-10.1656
się	-10.1673
mana	-10.1679
▁ss	-10.1681
▁zamku	-10.1683
▁kąt	-10.1684
▁okazał	-10.1689
_4	-10.1689
▁stałe	-10.1694
▁uda	-10.1698
▁fizyk	-10.1705
▁regionie	-10.1708
▁swe	-10.1709
▁tru	-10.1711
▁wszystko	-10.1711
▁zbiorów	-10.1711
▁konkurs	-10.1711
▁słabo	-10.1711
▁dominują	-10.1712
esa	-10.1715
▁góra	-10.1722
sek	-10.1724
▁przypada	-10.1725
▁znana	-10.1725
▁front	-10.1732
▁wulkan	-10.1733
▁struktur	-10.1736
▁kryzys	-10.1736
▁małopolski	-10.1742
▁wyraźnie	-10.1742
▁1980	-10.1744
▁historyczne	-10.1747
▁celów	-10.175
▁zróżnicowan	-10.1751
dek	-10.1754
▁skupi	-10.1757
niec	-10.1762
mal	-10.1765
zen	-10.1767
▁ant	-10.1769
▁próbował	-10.177
▁instrument	-10.1771
▁obecności	-10.1771
▁parlament	-10.1771
▁1993	-10.1773
▁politycznej	-10.1778
▁szkole	-10.1779
▁wymiar	-10.1779
▁problemy	-10.1781
wolni	-10.1782
jściu	-10.1787
nka	-10.1787
▁festiwal	-10.1797
▁postaw	-10.1798
▁najwięcej	-10.1801
▁oficer	-10.1819
▁warszawa	-10.182
▁xxi	-10.1821
▁elementem	-10.1823
aria	-10.1824
▁nik	-10.1826
▁stawia	-10.1827
▁specyficzn	-10.1831
▁powstaje	-10.1831
▁wskazuje	-10.1831
▁krakowa	-10.1833
";	-10.1834
owice	-10.1836
▁jakości	-10.184
ających	-10.184
patrz	-10.1841
▁george	-10.1843
jąć	-10.1844
ill	-10.1847
gami	-10.185
▁fer	-10.1854
jskiego	-10.1857
▁obozu	-10.1862
▁pkb	-10.1862
▁miłości	-10.1862
▁dodatkowe	-10.1862
▁same	-10.1864
▁wiersz	-10.1871
czerw	-10.1874
onym	-10.188
▁rozum	-10.1894
▁rozwiązanie	-10.1896
▁150	-10.1898
▁profesor	-10.1902
▁henryka	-10.1903
▁zaczyna	-10.1906
▁małe	-10.1909
▁poczt	-10.1913
▁terenu	-10.1919
ekonomi	-10.192
▁literaturze	-10.1923
▁polskę	-10.1923
▁religijnych	-10.1923
▁hus	-10.1926
▁zastęp	-10.1931
▁masa	-10.1932
▁general	-10.1943
▁wojskowej	-10.1945
▁chemicznych	-10.1947
▁kru	-10.1948
▁ludowej	-10.1949
▁frank	-10.1951
▁mogło	-10.1954
▁zachodzi	-10.1962
▁lista	-10.1965
▁(4	-10.1967
▁aleksandra	-10.1969
▁taką	-10.197
▁chemiczny	-10.197
nowa	-10.1976
▁średnio	-10.1983
▁zrealizowa	-10.1984
▁miedzi	-10.1984
▁stopień	-10.1984
▁wodoru	-10.1985
▁miejski	-10.1986
▁popularne	-10.1986
▁drugie	-10.1987
▁formuł	-10.1989
lem	-10.1991
▁mer	-10.1991
▁kończy	-10.1996
▁gali	-10.1999
▁zwykł	-10.2002
▁symboli	-10.2006
fil	-10.201
▁warunków	-10.2015
▁handlowe	-10.2015
▁pomysł	-10.2015
▁wschodnich	-10.2016
▁end	-10.2016
▁rozważa	-10.2017
▁znacz	-10.2017
▁narodowe	-10.2017
▁komuni	-10.2021
▁wyr	-10.2024
kowskiego	-10.2024
▁chwili	-10.2026
▁sąsiad	-10.2028
fra	-10.2031
osa	-10.2036
sol	-10.2038
▁atmosfery	-10.2047
▁dialekt	-10.2047
▁średni	-10.2053
▁mel	-10.2055
▁ustawy	-10.2059
iki	-10.2059
wic	-10.2061
▁cezar	-10.2064
▁inaczej	-10.2068
▁brał	-10.207
▁kaplic	-10.207
mag	-10.207
tes	-10.2072
▁sprawy	-10.2078
▁autorstwa	-10.2078
▁1994	-10.2079
▁jon	-10.208
▁graf	-10.2083
▁wież	-10.2087
▁sens	-10.2092
kowie	-10.2094
▁wszelkie	-10.2101
san	-10.2101
▁funkcjonował	-10.2107
tym	-10.2111
▁byt	-10.2112
▁przykłady	-10.2118
▁wojennych	-10.2119
ańskiej	-10.2125
▁obrazu	-10.2125
▁systemy	-10.2134
▁ziemię	-10.2136
▁malarz	-10.2138
▁magazyn	-10.2139
▁zupełnie	-10.2139
sc	-10.2139
▁1933	-10.2141
▁zamek	-10.2142
▁austriacki	-10.2145
▁odrębn	-10.2148
▁biegun	-10.2152
ios	-10.2156
▁wzrostu	-10.2156
ug	-10.2159
▁(15	-10.2167
▁1956	-10.2173
▁zbiornik	-10.2173
▁staje	-10.218
▁lekki	-10.2185
▁gdyni	-10.2192
▁historycznych	-10.2192
pin	-10.2193
▁wiadomo	-10.2196
▁wykorzystywane	-10.2197
zał	-10.2199
▁kościołów	-10.2201
▁wyznacza	-10.2201
owaniem	-10.2204
▁generała	-10.221
nęła	-10.2214
▁cm	-10.2215
cyt	-10.2216
▁rozdziel	-10.2217
▁nurt	-10.2217
▁idei	-10.222
▁rys	-10.2222
dane	-10.2226
▁stanowiło	-10.2232
▁plac	-10.2234
▁temperaturze	-10.2235
▁społecznej	-10.2236
▁obsługi	-10.224
ody	-10.2241
▁opisał	-10.2246
iony	-10.2246
▁zamian	-10.2252
▁400	-10.2254
▁zachowanie	-10.2256
▁lubelski	-10.2259
▁ukończył	-10.2264
▁poznaniu	-10.2264
▁żołnierze	-10.2266
▁pokarm	-10.2266
▁1996	-10.2266
▁dotarł	-10.2268
sona	-10.2277
▁amerykańskich	-10.2281
▁woda	-10.2284
▁kali	-10.2285
lus	-10.2289
▁pokład	-10.2295
▁ofensyw	-10.2296
▁równocześnie	-10.2296
▁wzór	-10.2297
ela	-10.2299
▁1950	-10.23
▁dawniej	-10.2302
ls	-10.2312
▁inną	-10.2313
▁kontynent	-10.2314
równa	-10.232
▁uczestniczył	-10.2322
▁szeroko	-10.2323
▁ostatnim	-10.2325
▁spowodowało	-10.233
▁"„	-10.2334
dol	-10.2334
▁użytku	-10.2335
▁nacisk	-10.2336
▁dokładnie	-10.2336
▁męski	-10.2337
▁podstawowym	-10.2345
▁bunt	-10.2347
onu	-10.2349
▁przebywa	-10.2353
▁gałęzi	-10.2359
▁aspekt	-10.2359
▁dwoma	-10.2359
▁mniejszości	-10.2359
▁użycia	-10.2359
▁dywizji	-10.236
▁wzajemn	-10.2366
▁skierowan	-10.2366
▁niebieski	-10.2368
▁pil	-10.2369
▁matka	-10.2371
▁użycie	-10.2372
nus	-10.2376
▁łodzi	-10.2379
trz	-10.2385
▁ataku	-10.2386
not	-10.2388
bro	-10.2391
▁wspólnie	-10.2391
▁wydarzeń	-10.2391
▁okazji	-10.2392
▁socjal	-10.2392
▁patron	-10.2393
▁powinn	-10.2395
▁miejscach	-10.2399
▁łączy	-10.2404
▁zagranicznych	-10.2406
▁media	-10.2411
▁wręcz	-10.2413
▁transportu	-10.2414
▁augusta	-10.2416
▁błon	-10.2416
▁kres	-10.242
▁obecność	-10.2423
▁zmniejsza	-10.2424
▁floty	-10.2424
▁1975	-10.2426
▁geografia	-10.2428
▁wskazują	-10.2429
▁innej	-10.243
▁zaczęl	-10.243
▁natury	-10.2431
▁pap	-10.2432
▁energia	-10.2435
dos	-10.2439
▁liczy	-10.2443
▁matematyki	-10.2443
▁następuje	-10.2448
▁reguły	-10.2455
▁czerwonej	-10.2456
▁()	-10.2456
▁urządzeń	-10.2457
▁formalnie	-10.2457
▁wywiad	-10.2457
▁utrat	-10.2458
▁marii	-10.2462
▁czasownik	-10.2463
▁uzależni	-10.2466
▁onz	-10.2467
▁kup	-10.2468
chan	-10.2468
▁nakaz	-10.2469
▁umieszczon	-10.2477
▁stanowiąc	-10.2478
▁wodzie	-10.2479
▁miejscem	-10.248
▁lech	-10.2482
▁przedmiot	-10.2483
▁specja	-10.2485
▁drogą	-10.2488
▁ptaków	-10.2488
▁wspólnot	-10.249
▁generalnego	-10.2492
▁światło	-10.2492
trop	-10.2493
oko	-10.2494
cel	-10.2497
▁rozumie	-10.2498
▁przemian	-10.2501
▁badaczy	-10.2502
▁koła	-10.2504
▁częściej	-10.2508
▁techniczn	-10.2508
▁wojennej	-10.2511
▁niewielkie	-10.2514
pos	-10.2517
▁najbliższ	-10.252
▁odrzuca	-10.252
▁bla	-10.252
▁małych	-10.2521
▁posłów	-10.2521
▁bogów	-10.2521
▁plików	-10.2521
termin	-10.2522
kryty	-10.2523
▁1922	-10.2523
▁1968	-10.2523
▁bry	-10.2524
▁minut	-10.2525
▁znajdujący	-10.2526
▁zdecydowan	-10.2526
ker	-10.2528
▁(16	-10.2529
▁chłod	-10.2532
▁broń	-10.2536
zbroj	-10.2537
czycy	-10.2537
▁ziemie	-10.2539
▁braci	-10.254
▁konsul	-10.2543
teri	-10.255
▁dialekty	-10.255
krotnie	-10.2551
▁poparcie	-10.2553
▁wyborów	-10.2553
▁mieszkał	-10.2557
▁rocznic	-10.2558
▁węgierski	-10.2566
▁ren	-10.2568
▁kulturze	-10.2568
wschodniej	-10.2571
▁tele	-10.2571
▁zjawisk	-10.2574
▁organizm	-10.2578
▁wkład	-10.2579
kal	-10.2581
▁senatu	-10.2585
jprawdopodobniej	-10.2585
▁geo	-10.2587
▁wrócił	-10.2587
ofi	-10.259
▁granicę	-10.259
▁narodowych	-10.259
hor	-10.259
ef	-10.2591
▁uważany	-10.2592
▁hiszpański	-10.2593
▁les	-10.2596
▁hydro	-10.2602
▁doprowadziło	-10.2604
▁samych	-10.2605
▁czyta	-10.2606
stein	-10.2606
bia	-10.2611
zol	-10.2613
▁sensie	-10.2613
▁materii	-10.2618
▁zostanie	-10.2618
▁zabytki	-10.2618
▁przedmiotem	-10.262
ującym	-10.2621
▁1914	-10.2621
▁zbudowany	-10.2622
▁mol	-10.2623
▁święta	-10.2624
▁wyżej	-10.2628
▁vii	-10.2633
▁dna	-10.2637
of	-10.2642
▁udziału	-10.2643
jona	-10.2644
tywne	-10.2646
tak	-10.265
▁żadnych	-10.2651
▁kontroli	-10.2651
▁wisły	-10.2652
syn	-10.2652
▁olej	-10.2653
▁miesiąc	-10.2653
▁obejmował	-10.2656
▁konstantyn	-10.2662
ówki	-10.2663
▁ap	-10.2667
▁dż	-10.2671
▁wojen	-10.2672
awi	-10.2676
▁sc	-10.2681
▁prowadzone	-10.2682
▁waha	-10.2682
▁dyrektor	-10.2684
▁przestrzeń	-10.2684
▁ośrodka	-10.2684
▁udziela	-10.2684
▁gogh	-10.269
▁zadaniem	-10.2701
▁miliona	-10.2704
spa	-10.2709
▁współczesnej	-10.271
▁publicznej	-10.271
▁węgier	-10.2715
▁pojedyncze	-10.2717
▁1967	-10.2719
cykl	-10.272
▁mac	-10.2722
▁pło	-10.2722
▁james	-10.2725
▁alfabet	-10.2725
▁karola	-10.2728
▁miastach	-10.2729
▁prezent	-10.2741
▁zarazem	-10.2744
▁reformy	-10.2745
▁tlen	-10.2745
▁dru	-10.2747
▁ziemia	-10.2748
▁międzynarodowej	-10.2749
▁specjalne	-10.2753
▁dwukrotnie	-10.2754
▁super	-10.2757
sem	-10.2759
▁bas	-10.276
peł	-10.2762
▁zawierają	-10.2762
rak	-10.2763
▁rozpoczyna	-10.2764
kową	-10.2766
wym	-10.2766
▁wir	-10.2767
sor	-10.2772
anów	-10.2772
bil	-10.2777
▁pojawiają	-10.278
▁zachował	-10.2781
▁księżyca	-10.2782
▁opozycji	-10.2783
▁zastąpion	-10.2783
▁sin	-10.2784
▁idea	-10.2791
▁dziedzic	-10.2791
▁naukowe	-10.2796
▁śpiewa	-10.2796
tp	-10.2799
ewicz	-10.2809
wojen	-10.281
▁ile	-10.2816
▁aleksander	-10.2816
▁zostaje	-10.2816
▁kart	-10.2817
▁katowice	-10.2817
▁stadion	-10.2817
▁królewski	-10.2818
▁procent	-10.2822
▁wycofa	-10.2822
ost	-10.2823
▁obrad	-10.2826
▁problemów	-10.2829
▁kant	-10.2831
▁młodzieży	-10.2837
▁rozpad	-10.2838
▁podkreśla	-10.2845
▁najstarsze	-10.285
▁mogli	-10.285
▁kolumn	-10.2851
mann	-10.2851
lis	-10.2851
▁wszelki	-10.2852
▁używana	-10.2862
bus	-10.2872
ńca	-10.2878
▁dzisiaj	-10.2883
▁śród	-10.2884
sco	-10.2885
▁jaką	-10.2886
▁stwierdza	-10.2886
▁rodu	-10.2889
cyjną	-10.2891
▁bitwa	-10.2893
tora	-10.2894
▁rozbi	-10.2896
▁fort	-10.2901
▁polu	-10.2903
▁spin	-10.2909
cach	-10.291
▁platform	-10.2917
ycznej	-10.2918
▁rat	-10.2921
▁szczegół	-10.2921
ip	-10.2921
▁char	-10.2922
ped	-10.2926
▁francuskiej	-10.2927
▁linię	-10.2929
▁rozbudow	-10.2932
▁lokalnych	-10.2934
gram	-10.2938
ras	-10.2946
▁my	-10.2948
▁stanowiła	-10.2949
▁znaczne	-10.2951
▁kadencji	-10.2951
▁przechowywa	-10.2951
▁teorię	-10.2951
▁potęg	-10.2952
▁1948	-10.2953
fin	-10.2955
budowa	-10.2957
▁morskich	-10.2957
▁lenin	-10.2957
▁początki	-10.2958
▁monet	-10.296
▁itd	-10.296
▁znaczący	-10.2963
▁gazu	-10.2964
▁muzyka	-10.2969
łow	-10.297
sse	-10.2971
▁międzynarodowe	-10.2972
▁data	-10.2974
▁przebieg	-10.2976
▁rozbudowan	-10.2983
wróceni	-10.2985
▁dostępne	-10.2986
▁wielkość	-10.2986
▁grecki	-10.2986
▁podjęt	-10.299
▁rud	-10.2992
!	-10.2993
▁cd	-10.2999
pada	-10.3004
▁żona	-10.3006
stos	-10.301
▁tą	-10.301
▁żeby	-10.3011
elektr	-10.3014
▁mary	-10.3015
szta	-10.3017
▁sekretarz	-10.3019
▁tworzenie	-10.3019
▁marks	-10.3019
▁obywateli	-10.3021
▁1960	-10.3022
▁1930	-10.3023
▁skalę	-10.3028
▁temp	-10.3028
▁utworzenie	-10.3033
▁rezerw	-10.3038
▁brzegu	-10.3044
▁50.	-10.3049
▁xi	-10.3049
▁konfliktu	-10.305
pust	-10.3052
łuż	-10.3053
▁austrii	-10.3053
▁krzysztof	-10.3053
▁szwecji	-10.3053
▁zaproponował	-10.3053
▁eksport	-10.3053
▁ocenia	-10.3055
▁typów	-10.3057
▁postrzega	-10.3059
put	-10.306
▁zajęł	-10.3068
▁którymi	-10.3075
ający	-10.3076
▁inicjatywy	-10.3077
▁sprawia	-10.308
▁traktatu	-10.3082
▁najwyższym	-10.3083
▁rodzi	-10.309
▁podwodne	-10.3091
▁umożliwiając	-10.3093
żą	-10.3095
▁dowództwo	-10.3097
stwem	-10.3099
,4%	-10.3099
▁przyjaciel	-10.3102
▁«	-10.3106
▁wynikiem	-10.3107
▁wiadomości	-10.3111
▁służył	-10.3112
▁różnią	-10.3115
ańskiego	-10.3116
jom	-10.3121
▁utworzone	-10.3121
▁wykorzystuje	-10.3121
▁oporu	-10.3122
▁witos	-10.3124
▁1935	-10.3124
▁indian	-10.3125
▁promieniowania	-10.3125
▁autorem	-10.3126
▁dowództwem	-10.3127
▁cyt	-10.3138
▁politykę	-10.3142
get	-10.3145
ula	-10.3151
▁operator	-10.3152
▁południa	-10.3156
▁popularność	-10.3156
▁pewnych	-10.3156
▁rzek	-10.3157
stwie	-10.3158
▁ulega	-10.316
▁zasadzie	-10.3161
▁udał	-10.3169
▁synem	-10.3173
▁strefie	-10.3177
czno	-10.318
▁izraela	-10.3181
▁zawartości	-10.3182
ram	-10.3188
▁brytyjski	-10.3189
▁metodą	-10.3191
▁wyższych	-10.3191
▁letni	-10.3192
▁1934	-10.3193
▁1981	-10.3193
▁bl	-10.3194
▁dowódca	-10.3196
-1	-10.32
▁aten	-10.3201
▁przyznan	-10.3204
▁sektor	-10.3207
–16	-10.3216
▁litery	-10.3219
▁parlamentarn	-10.3219
,7%	-10.3225
▁cząsteczki	-10.3225
▁uniemożliwi	-10.3225
▁własną	-10.3225
▁imprez	-10.3225
▁stracił	-10.3226
▁wyjechał	-10.3227
kiego	-10.3228
▁publikacji	-10.323
rt	-10.3231
▁młodych	-10.3231
▁straty	-10.3233
acyjnych	-10.3236
▁niewy	-10.3237
▁należało	-10.3242
▁q	-10.3245
▁sur	-10.3247
▁okazało	-10.3256
▁trafił	-10.3257
▁rezultat	-10.326
▁powinien	-10.326
▁kilkanaście	-10.326
▁jerzego	-10.326
▁powieść	-10.3261
▁typy	-10.3264
▁wybit	-10.3264
kla	-10.3265
▁kochan	-10.3267
▁zanik	-10.3268
ańską	-10.3273
▁wykorzystując	-10.3275
▁wyrok	-10.3277
▁obywatelski	-10.3286
▁stalin	-10.3292
▁liczbą	-10.3294
▁ślub	-10.3295
▁skrót	-10.3295
▁włos	-10.3296
▁grecji	-10.33
▁hotel	-10.33
gna	-10.3302
▁piotra	-10.3303
▁marek	-10.3304
▁muszą	-10.3306
▁występowanie	-10.3307
val	-10.3309
▁tzn	-10.3311
pisać	-10.3321
▁wyd	-10.3324
▁pri	-10.3324
met	-10.3324
▁panowanie	-10.3325
▁ameryce	-10.333
▁koncepcja	-10.333
▁galicji	-10.3332
▁szkoln	-10.3337
▁hut	-10.3339
tic	-10.3339
▁ponown	-10.335
▁twierdził	-10.3351
▁najwyższy	-10.3352
▁związana	-10.3357
▁żelaza	-10.3357
▁alkoholu	-10.3359
▁własnego	-10.3361
gh	-10.3363
▁demografia	-10.3365
▁utwór	-10.3365
▁utworzył	-10.3366
▁biblioteki	-10.337
▁jesienią	-10.3375
▁metoda	-10.338
dział	-10.3381
▁podpisał	-10.3385
nice	-10.3385
▁czyni	-10.3389
dając	-10.3392
▁opinii	-10.3394
west	-10.3396
▁rokiem	-10.3398
▁ciśnienie	-10.3401
▁uznanie	-10.3403
▁atomów	-10.3404
xi	-10.3404
▁dal	-10.3404
▁rzeka	-10.3405
▁dowódcy	-10.3405
sel	-10.3405
▁trwając	-10.3406
▁znanym	-10.3411
▁naukę	-10.3416
▁odnosi	-10.3416
++	-10.3417
▁/	-10.3425
▁świecki	-10.343
▁gatunku	-10.3436
▁księgi	-10.3436
▁procedur	-10.3436
▁wydawnictw	-10.3436
▁czerwony	-10.3437
▁zawartość	-10.3438
ującej	-10.344
▁szar	-10.3443
▁uważają	-10.3445
wrócić	-10.3448
▁czci	-10.3453
▁lokalne	-10.3454
▁komórki	-10.3454
▁praca	-10.3455
▁pion	-10.3456
▁pokaz	-10.3457
▁autorów	-10.3459
ther	-10.3462
mit	-10.3466
▁ropy	-10.3467
▁ameryk	-10.347
▁jedyn	-10.347
▁częstotliwości	-10.3472
▁istniały	-10.3473
rys	-10.3473
▁turbin	-10.3474
▁zakładów	-10.3475
stał	-10.3478
▁instytut	-10.3478
spon	-10.348
▁fragmenty	-10.3488
▁dotyczących	-10.3489
▁przeciwnika	-10.349
▁znajdujące	-10.3494
▁pochodzące	-10.3495
szt	-10.3496
▁wojskowe	-10.3502
▁napęd	-10.3505
ecki	-10.3506
▁minister	-10.3506
▁ważną	-10.3508
nis	-10.351
▁regul	-10.351
▁med	-10.3511
▁1917	-10.3512
▁wybuchł	-10.3516
▁bazie	-10.3522
niż	-10.3523
▁starego	-10.3524
▁polityczny	-10.3524
▁inżynier	-10.3524
▁publicznego	-10.3526
bsd	-10.353
▁przedstawion	-10.3531
▁obiektyw	-10.3532
żyć	-10.3536
orem	-10.3537
kiej	-10.3538
▁pobytu	-10.3538
▁pojazd	-10.3539
▁kwadrat	-10.3543
▁richard	-10.3543
▁gall	-10.3544
▁przedstawił	-10.3545
▁imieniu	-10.3545
▁pochodzący	-10.3551
qui	-10.3554
▁psycho	-10.3555
chodzących	-10.3555
▁pozwolił	-10.3557
żony	-10.3569
rna	-10.357
▁przewod	-10.3576
▁artylerii	-10.3579
▁zabytków	-10.3579
▁reguł	-10.3581
▁1937	-10.3582
▁biblioteka	-10.3585
kowania	-10.3585
▁rzymski	-10.3586
▁amerykański	-10.3588
▁litewski	-10.3591
▁nu	-10.3591
▁ciał	-10.3591
▁maszyny	-10.3592
▁krzy	-10.3593
▁poeta	-10.3596
▁obecny	-10.3597
▁autora	-10.3602
▁odbyły	-10.3604
▁lublin	-10.3604
▁*	-10.3605
acz	-10.3608
▁przeniesion	-10.3611
▁otrzymała	-10.3613
▁arcybiskup	-10.3615
▁rakiet	-10.3616
▁rynek	-10.3616
żył	-10.3617
▁komputera	-10.362
▁wydaje	-10.3623
prowadzić	-10.3624
▁następnych	-10.3627
▁danym	-10.3628
▁pozwalając	-10.3629
sal	-10.3631
▁symbolem	-10.3634
▁bydgoski	-10.3639
▁żydowskiej	-10.3641
▁rejestr	-10.3643
▁programów	-10.3646
if	-10.3651
▁pierwiastków	-10.3651
▁trzeba	-10.3652
▁hebrajski	-10.3652
▁obszarach	-10.3655
▁obchod	-10.3656
▁udziałem	-10.366
▁organizmów	-10.366
▁żar	-10.3662
▁pat	-10.3662
pot	-10.3664
▁akcja	-10.3665
▁dał	-10.3666
▁stefan	-10.3668
▁górze	-10.3674
nosząc	-10.3675
▁uznawan	-10.3678
▁istotne	-10.3685
▁doprowadziły	-10.3686
▁starożytności	-10.3688
▁wyboru	-10.3689
▁przypadki	-10.3689
lnego	-10.3689
▁bogini	-10.3689
▁żoną	-10.3689
▁berlin	-10.369
▁piśmie	-10.369
▁doprowadził	-10.3695
▁odbywają	-10.3695
▁wenus	-10.3696
▁rodzajów	-10.3707
▁walce	-10.3711
▁chwil	-10.3712
▁późniejszym	-10.3714
dyk	-10.3715
▁przekazan	-10.3717
tl	-10.3721
▁odgrywa	-10.3721
patr	-10.3721
nn	-10.3721
▁przyjęcie	-10.3724
▁uczniów	-10.3724
ero	-10.3725
▁cześć	-10.3726
▁realizacji	-10.3726
▁mis	-10.3727
głównie	-10.373
▁woł	-10.373
ix	-10.3738
▁aleksandr	-10.3738
▁materiałów	-10.3742
▁religijne	-10.3744
▁europejskiego	-10.375
▁produktów	-10.3753
▁grupą	-10.3754
▁wysłan	-10.3761
▁organizacje	-10.3761
▁pistolet	-10.3761
▁niemiecka	-10.3763
stron	-10.3767
rzut	-10.3767
▁kin	-10.3768
▁konrad	-10.3768
▁meksyk	-10.377
▁lider	-10.3771
sja	-10.3772
▁hitlera	-10.3787
▁świętej	-10.3787
▁fin	-10.3788
▁obserwacji	-10.3789
▁płyty	-10.3791
▁zainteresowanie	-10.3794
▁ewolucji	-10.3798
▁rozciąga	-10.38
▁należące	-10.38
feder	-10.38
▁radom	-10.3802
−	-10.3803
▁wodo	-10.3803
▁sprzed	-10.3805
▁budżet	-10.3807
ward	-10.3808
▁maj	-10.381
lak	-10.3812
▁wyjaśni	-10.3815
▁ari	-10.3817
▁oceanu	-10.382
▁zbiory	-10.3822
▁publicznych	-10.3823
▁wygląd	-10.3826
mobil	-10.3829
jskiej	-10.3835
▁zlokalizowan	-10.3835
▁dzielą	-10.3835
▁wariant	-10.3836
encja	-10.3836
▁okupacji	-10.3837
▁1982	-10.3837
▁map	-10.3837
▁rzeką	-10.3837
▁1931	-10.3838
▁dyscyplin	-10.3838
lok	-10.3841
rp	-10.3841
para	-10.3842
▁kan	-10.3844
▁ogromn	-10.3849
▁swą	-10.3849
▁państwowej	-10.3853
▁tematy	-10.3856
tre	-10.3857
▁połączone	-10.3857
▁(12	-10.3864
mont	-10.3865
▁krok	-10.3866
▁cechą	-10.3868
▁odczyt	-10.387
▁pewien	-10.3872
▁najważniejszym	-10.3872
▁literatura	-10.3873
▁freud	-10.3873
▁frontu	-10.3878
▁któremu	-10.3878
taj	-10.3885
-19	-10.3885
▁aktywności	-10.3886
▁nor	-10.3886
tycznego	-10.3888
▁legend	-10.3891
techn	-10.3894
krę	-10.3895
▁wyprawy	-10.3895
ycznym	-10.3897
▁nys	-10.3905
100	-10.3909
▁przetrwał	-10.3909
▁figur	-10.3909
▁1947	-10.3911
▁trwały	-10.3912
▁pł	-10.3918
▁cmentarz	-10.3919
▁momentu	-10.3925
▁łu	-10.3928
▁wzgórz	-10.3937
▁dobro	-10.3938
ologiczne	-10.3939
yjne	-10.394
1%	-10.3941
▁krain	-10.3942
▁południowym	-10.3943
▁wywołał	-10.3946
▁stolica	-10.3947
▁systemem	-10.3948
▁północnym	-10.395
▁stosowanie	-10.3951
▁równe	-10.3951
▁45	-10.3952
płat	-10.3952
▁otrzymuje	-10.3952
▁rusi	-10.3956
▁walut	-10.3957
nad	-10.3967
▁użytkowników	-10.3968
▁mniejszych	-10.3971
▁zwierzę	-10.3976
mes	-10.3978
owicz	-10.3979
▁przeważnie	-10.3984
▁sklep	-10.3984
▁kolonii	-10.3984
▁stosowana	-10.3984
▁gęstość	-10.3985
▁austria	-10.3986
▁skrajn	-10.3986
▁1976	-10.3987
▁1970	-10.3987
▁brz	-10.3989
▁modelu	-10.3989
▁historię	-10.3995
▁komor	-10.3996
▁świętych	-10.3997
▁ogół	-10.3997
run	-10.3997
▁terytoria	-10.3997
▁opisuje	-10.3997
▁dra	-10.3998
▁sportowe	-10.3998
▁sprawą	-10.4002
▁zawierające	-10.4008
▁uzyskać	-10.401
▁pływa	-10.401
▁chemi	-10.4017
▁funkcjonują	-10.4021
▁koalicji	-10.4021
▁współczynnik	-10.4021
▁der	-10.4024
▁podlega	-10.403
▁kost	-10.403
▁fizyki	-10.4031
▁kle	-10.4037
0%	-10.4038
pow	-10.4039
▁wiązania	-10.4039
▁gier	-10.4042
robi	-10.4043
▁rola	-10.4043
▁litera	-10.4044
▁pen	-10.4047
yzacji	-10.405
▁rosyjskiego	-10.4051
▁wyraźn	-10.4057
▁jehowy	-10.4059
▁odkrycie	-10.4059
▁cztero	-10.4059
▁przyjęty	-10.4059
▁viii	-10.4061
▁przyrost	-10.4061
▁"*	-10.4062
▁drzewa	-10.4064
ern	-10.4065
encji	-10.4069
tyczną	-10.407
▁średniej	-10.4076
▁krew	-10.4079
ken	-10.408
gel	-10.4081
ienne	-10.4089
owość	-10.4092
red	-10.4094
▁województw	-10.4096
▁afryce	-10.4097
▁kwestii	-10.4097
▁ministrów	-10.4097
▁ciepła	-10.4097
▁poezji	-10.4097
▁elektryczny	-10.4097
▁masyw	-10.4098
▁mandat	-10.4098
▁przekracza	-10.4101
kowanie	-10.4101
▁istniejące	-10.4102
▁zbiera	-10.4103
▁podróży	-10.4103
mos	-10.4113
ndi	-10.4115
owskim	-10.4115
▁cypr	-10.4118
gal	-10.4123
▁ham	-10.4123
▁środowisk	-10.4125
▁obr	-10.413
▁grzbiet	-10.4135
▁powstaniu	-10.4135
▁żywności	-10.4135
▁twierdzenia	-10.4136
▁historyk	-10.4136
,8%	-10.4138
▁statki	-10.414
▁filmów	-10.4141
▁osiedli	-10.4141
▁językami	-10.4142
▁wypadku	-10.4143
lat	-10.4145
▁energię	-10.4145
▁br	-10.4147
bal	-10.4151
7%	-10.4153
▁stro	-10.4153
owską	-10.4158
▁królestwo	-10.4162
ata	-10.4164
▁apostol	-10.4166
iv	-10.4167
wiec	-10.4171
▁cząsteczek	-10.4173
▁przecięt	-10.4173
▁lwowie	-10.4173
▁otwarte	-10.4173
▁najazd	-10.4173
▁pogrzeb	-10.4173
szon	-10.4173
yjski	-10.4174
▁odkrył	-10.4174
▁kultu	-10.4175
mel	-10.4176
*	-10.4181
nda	-10.4186
▁śmiercią	-10.4189
ring	-10.419
szewski	-10.4191
▁wielomian	-10.4192
rab	-10.4193
brać	-10.4204
pew	-10.4205
▁ryt	-10.4207
▁sar	-10.4208
▁opracował	-10.4211
▁uruchomion	-10.4211
▁reprezentują	-10.4211
▁thomas	-10.4211
▁francuskiego	-10.4216
▁zwierzęta	-10.4218
▁biblii	-10.4221
▁wydany	-10.4225
▁33	-10.4227
▁wydział	-10.4227
▁homo	-10.4229
▁stoi	-10.4231
lnej	-10.4236
lik	-10.4237
▁ludów	-10.4238
▁dziennik	-10.4238
▁cyceron	-10.4238
–15	-10.4239
zob	-10.4247
▁prowadzenia	-10.425
▁świadczy	-10.425
▁rekord	-10.4251
▁wizyt	-10.4251
▁mieści	-10.4252
▁oddziaływania	-10.4252
▁arm	-10.4253
▁cer	-10.4256
zbieżn	-10.4264
▁żydzi	-10.4266
▁wybra	-10.4269
▁ducha	-10.4269
prowadzili	-10.4273
,1%	-10.4281
owskie	-10.4282
ida	-10.4282
nictwa	-10.4284
cio	-10.4286
czyk	-10.4288
▁odróżnieniu	-10.4288
▁tradycyjnie	-10.4288
▁pieśni	-10.4288
▁objęci	-10.4289
▁swym	-10.429
aga	-10.4292
sum	-10.4292
▁wpływy	-10.4292
ux	-10.4294
hen	-10.4295
▁sądu	-10.4295
sia	-10.4296
▁zakończyła	-10.4301
oksy	-10.4303
▁rewolucyjn	-10.4303
▁sło	-10.4306
▁fali	-10.4306
▁studentów	-10.4308
▁dowolny	-10.4312
▁wyżyn	-10.4312
stat	-10.4313
▁platon	-10.4318
▁zakonu	-10.4319
▁latem	-10.4322
▁wyruszył	-10.4323
▁pałacu	-10.4324
▁wolnego	-10.4324
▁porozumienia	-10.4327
▁tramwaj	-10.4327
▁wysyła	-10.4328
▁rozległ	-10.4328
▁miejscowość	-10.4328
▁(...)	-10.4329
▁(5	-10.433
▁zasila	-10.4334
ryka	-10.4339
ująca	-10.434
ecz	-10.434
▁kraje	-10.4346
▁fotograf	-10.4347
▁natychmiast	-10.4347
▁zachodnie	-10.4347
▁gdyby	-10.4349
styczny	-10.4355
▁obrazów	-10.4356
▁michał	-10.4357
kat	-10.4357
▁samą	-10.4358
▁morze	-10.4362
▁małżeństwa	-10.4363
▁rzut	-10.4363
▁przygotowan	-10.4365
▁gubernator	-10.4365
▁procesów	-10.4366
▁pakiet	-10.4366
▁1936	-10.4369
▁1969	-10.437
klin	-10.4371
▁wyspa	-10.4373
zem	-10.4374
ular	-10.4378
▁powiązan	-10.4379
▁ix	-10.4383
▁30.	-10.4385
▁przymus	-10.4393
▁sprzeciw	-10.4395
▁aksjomat	-10.4397
acyjne	-10.44
▁odległość	-10.4405
▁stosunek	-10.4405
▁drogę	-10.4405
▁studiów	-10.4405
▁tłuszcz	-10.4405
▁klasyfikacji	-10.4405
▁wpływa	-10.4405
▁działający	-10.4406
▁|	-10.4411
▁turystyka	-10.4412
encje	-10.4412
kocha	-10.4417
▁sygnał	-10.4419
▁chrz	-10.4423
▁rosnąc	-10.4423
▁słownik	-10.4425
▁portu	-10.4433
▁kopalni	-10.4434
▁bazy	-10.4435
▁budynku	-10.4444
▁przyszłości	-10.4444
▁zbigniew	-10.4444
▁turystów	-10.4444
▁autostrad	-10.4444
morf	-10.4446
▁ewangeli	-10.4446
▁tworzył	-10.4448
▁państwowych	-10.445
sygn	-10.445
bol	-10.4452
▁sumie	-10.4457
▁skór	-10.4458
▁trudności	-10.446
▁uznawany	-10.4462
▁zatrzyma	-10.4472
▁dolina	-10.4473
▁dawnych	-10.4478
▁sprzedaży	-10.4482
▁charakteryzuje	-10.4484
▁oficjalne	-10.4484
▁pamięć	-10.4484
▁spotkania	-10.4484
▁technologii	-10.4484
▁składają	-10.4485
▁skuteczn	-10.4487
▁przedstawiając	-10.4495
▁cor	-10.4497
onów	-10.45
▁kier	-10.45
▁bieg	-10.451
▁stanowił	-10.451
siad	-10.4511
▁zabieg	-10.4511
interpret	-10.4517
▁siłę	-10.4519
kow	-10.452
listów	-10.4522
▁efekcie	-10.4523
▁wbrew	-10.4523
▁grunt	-10.4524
▁pascal	-10.4526
państw	-10.4527
▁wolność	-10.4528
▁marian	-10.4528
,9%	-10.4529
▁zadania	-10.4529
▁realizowan	-10.4531
▁wojną	-10.4532
▁fan	-10.454
▁pracując	-10.4542
▁jaw	-10.4542
▁nosi	-10.455
▁zapisywan	-10.4555
▁światowa	-10.4556
▁sen	-10.4557
▁bibli	-10.4559
gard	-10.4562
▁budynków	-10.4563
▁chrześcijaństwa	-10.4563
▁ewentualn	-10.4563
▁microsoft	-10.4563
▁ogóle	-10.4563
▁ośrodków	-10.4563
▁budynek	-10.4563
▁1949	-10.4566
kot	-10.4566
▁zawarł	-10.4566
▁1973	-10.4566
▁zbudowane	-10.4567
▁zainteresowania	-10.4569
lor	-10.4572
▁turystyczne	-10.4572
▁deszcz	-10.4574
▁komórek	-10.4575
▁podporządkowan	-10.4576
2%	-10.4577
▁szczecin	-10.4577
▁dotycząc	-10.4583
▁samic	-10.4593
▁plik	-10.4597
▁angielskiego	-10.4599
▁zawierał	-10.46
▁orkiestr	-10.4603
▁ryzyko	-10.4603
▁trybunał	-10.4603
▁turniej	-10.4604
logiczny	-10.4604
▁wyniosła	-10.4605
▁1954	-10.4606
▁mg	-10.4608
▁zasada	-10.4609
▁powiecie	-10.461
oza	-10.4612
▁studio	-10.4613
▁żół	-10.4615
▁przeszedł	-10.4616
▁razie	-10.4618
▁powszechnego	-10.462
▁zadanie	-10.4624
▁wysokie	-10.4627
▁konsekwencji	-10.4628
▁ślad	-10.4635
zło	-10.4639
▁średniowieczu	-10.4643
▁einstein	-10.4643
▁pzpr	-10.4643
▁laureat	-10.4643
▁jordan	-10.4643
▁przejął	-10.4643
▁mieszkańca	-10.4644
▁niepodległość	-10.4645
▁utworzenia	-10.4646
▁uznany	-10.4647
▁osiągnięcia	-10.4649
▁przeniósł	-10.4651
łączono	-10.4651
▁śląsk	-10.4652
▁punktów	-10.4656
▁drużyn	-10.4656
▁zapewnia	-10.4658
▁żadnego	-10.4658
▁rozmiar	-10.4659
▁foto	-10.4667
▁głównymi	-10.4668
kowego	-10.468
▁wchodzą	-10.468
kował	-10.4681
▁bydgoszcz	-10.4681
▁robert	-10.4681
tv	-10.4681
górski	-10.4682
▁gimnazjum	-10.4683
▁ogólnie	-10.4683
▁trójkąt	-10.4683
▁dzieje	-10.4684
▁miliard	-10.4684
▁żony	-10.4686
▁1924	-10.4687
▁czynności	-10.4688
▁potrafi	-10.4695
▁ograniczenia	-10.4698
▁początk	-10.4698
▁wspólnego	-10.4699
▁nazwiska	-10.4699
▁polacy	-10.47
▁piwa	-10.4703
▁gospodarstw	-10.4705
▁pięt	-10.4707
czności	-10.4708
▁rozpoczę	-10.4708
▁zawi	-10.4713
jskich	-10.4714
▁wewnętrznych	-10.4714
▁fra	-10.4717
▁rodzinie	-10.472
▁wyższe	-10.472
▁marynarki	-10.4723
▁niezależne	-10.4723
▁szkołę	-10.4723
▁statku	-10.4723
▁kolumb	-10.4723
▁dotąd	-10.4724
▁wysokość	-10.4726
sus	-10.4726
▁dwutlenku	-10.4726
istyczne	-10.4733
▁chodzi	-10.4733
▁biuro	-10.4734
_5	-10.4735
▁pasażerski	-10.4735
▁rozumian	-10.4735
▁nerw	-10.4736
łączenie	-10.4737
▁kolonia	-10.4739
▁krakowski	-10.474
▁składzie	-10.4742
▁opanowan	-10.4743
car	-10.4744
ide	-10.4744
▁składał	-10.4747
geografi	-10.4751
tha	-10.4755
fic	-10.4756
▁święty	-10.4759
atów	-10.4759
▁widzi	-10.4761
▁przegląd	-10.4764
▁konstytucja	-10.4764
▁perspektyw	-10.4764
▁francuz	-10.4764
▁pluton	-10.4764
▁komercyjn	-10.4764
▁wniosek	-10.4764
▁wyznania	-10.4764
▁moraw	-10.4766
▁wad	-10.4767
▁1926	-10.4767
tas	-10.4772
▁german	-10.4774
▁państwem	-10.4776
▁zasięg	-10.4777
gni	-10.4782
▁bier	-10.4782
▁andrzeja	-10.4785
▁okolic	-10.4785
▁znaczy	-10.4786
▁zwolenników	-10.4786
▁niebie	-10.4791
▁senat	-10.4791
▁śląskiego	-10.4793
▁bogu	-10.4794
▁hor	-10.4796
▁kat	-10.48
▁więzi	-10.48
▁biłgoraj	-10.4804
▁stworzenia	-10.4804
▁poparcia	-10.4804
▁statków	-10.4804
archi	-10.4805
▁wzięł	-10.4805
▁wykonawc	-10.4806
▁georg	-10.4806
▁skąd	-10.4806
▁radykaln	-10.4807
▁ds	-10.4809
▁służb	-10.4809
▁syr	-10.481
▁działaczy	-10.4815
prost	-10.482
▁wypraw	-10.4821
▁senator	-10.4826
miesz	-10.4826
nictwie	-10.4826
organ	-10.4829
▁ziemiach	-10.4831
▁biel	-10.4832
▁politycznego	-10.4838
▁chinach	-10.484
▁strukturę	-10.484
▁siedem	-10.4845
▁rzadziej	-10.4845
▁nowoczesne	-10.4845
▁umiejętności	-10.4846
▁zachodnim	-10.4846
▁targ	-10.4847
▁północna	-10.4848
▁kwiat	-10.4848
▁atmosfer	-10.4848
▁1957	-10.4849
lina	-10.4849
lice	-10.4853
▁cook	-10.4854
inter	-10.4856
▁tłumaczy	-10.4857
▁amerykańskiej	-10.4859
grup	-10.4859
owskich	-10.4859
▁stref	-10.486
▁młodzież	-10.4861
▁36	-10.4861
zowane	-10.4866
▁cała	-10.487
▁opa	-10.4873
plik	-10.4873
▁publiczne	-10.4873
nością	-10.4874
▁chemiczne	-10.4875
tywny	-10.4876
▁nosił	-10.4876
fal	-10.4881
▁wspiera	-10.4882
▁biskupów	-10.4883
000	-10.4886
▁wincenty	-10.4886
▁odwiedził	-10.4886
▁niewiele	-10.4887
▁wczesne	-10.4887
▁elektrowni	-10.4888
▁placu	-10.4888
▁sztabu	-10.489
▁szerokości	-10.4891
▁książce	-10.4891
▁beskid	-10.4892
▁kilometrów	-10.4894
▁znaczn	-10.4897
▁materiału	-10.4902
▁komend	-10.4908
▁adama	-10.491
▁wodą	-10.4911
▁cmentarzu	-10.4916
▁cas	-10.4919
4%	-10.4919
▁wolno	-10.4924
▁płaszcz	-10.4926
▁czołgów	-10.4926
▁budynki	-10.4927
▁uzbrojenie	-10.4927
▁reaktor	-10.4927
▁raport	-10.4928
▁1988	-10.493
▁amerykańskiego	-10.4931
non	-10.4932
▁budowie	-10.4935
słowiański	-10.4935
▁siark	-10.4939
▁filozoficzne	-10.4941
▁ery	-10.4943
▁rezerwat	-10.4945
▁pers	-10.4953
▁grub	-10.4955
▁pale	-10.4956
▁współczesne	-10.4956
▁fran	-10.4962
van	-10.4964
▁prawach	-10.4965
▁jod	-10.4965
▁iloczyn	-10.4969
▁rozgrywa	-10.4969
▁ministra	-10.4969
▁czołg	-10.497
list	-10.4976
gród	-10.4977
▁nazywana	-10.4978
▁zmienił	-10.4979
▁podpis	-10.4981
▁klubu	-10.4987
zielony	-10.4991
▁miarę	-10.4993
chodzi	-10.4994
▁programy	-10.4995
▁okolicy	-10.4995
▁jezior	-10.4997
▁obecne	-10.4998
▁podstawy	-10.4998
▁trzeci	-10.5002
▁obwod	-10.5005
▁bada	-10.5008
▁ogni	-10.5008
wały	-10.501
tow	-10.501
▁skomplikowan	-10.501
▁skonstruowa	-10.501
▁zachodnio	-10.5011
▁rosyjskiej	-10.5011
▁stanął	-10.5013
bija	-10.5014
▁spadek	-10.5016
▁szczególn	-10.5019
▁organizowan	-10.5019
▁kamienic	-10.5024
▁książka	-10.5024
▁znajdowały	-10.5026
ewski	-10.503
ille	-10.5031
tlen	-10.5034
▁czer	-10.5037
▁central	-10.5044
▁nośnik	-10.5052
▁teraz	-10.5053
▁dialog	-10.5054
▁1932	-10.5055
▁1923	-10.5055
▁sztuka	-10.5057
▁monety	-10.5062
wski	-10.5062
▁zakresu	-10.5064
▁przerwa	-10.5068
▁rośliny	-10.5074
▁dzielnice	-10.5076
▁proton	-10.5084
▁utożsamia	-10.5087
▁lep	-10.5088
▁zmianę	-10.5089
pom	-10.5093
▁artysty	-10.5093
▁wacław	-10.5094
▁wzrasta	-10.5094
▁należał	-10.5094
gry	-10.5095
▁mikołaj	-10.5097
▁odzyskani	-10.5101
▁odpowiedzialn	-10.5102
kim	-10.5109
,2%	-10.5111
▁pracowników	-10.5112
▁robi	-10.5112
▁korpus	-10.5113
arnych	-10.5115
ys	-10.5115
▁gdańsku	-10.5115
niósł	-10.5116
▁tkan	-10.5118
wska	-10.5128
▁samolotów	-10.5129
▁następnego	-10.513
▁łuk	-10.5131
▁rzymskokatolick	-10.5136
▁odkrycia	-10.5136
▁środka	-10.5136
▁juliusz	-10.5136
▁franciszka	-10.5136
▁1951	-10.5139
arne	-10.5143
▁wał	-10.5143
▁porządku	-10.5147
sąd	-10.5148
▁wojskowego	-10.5148
▁pochodził	-10.515
▁równa	-10.515
▁dys	-10.5152
▁islam	-10.5152
▁zaraz	-10.5157
▁hali	-10.5159
▁odwiedza	-10.516
▁powie	-10.5164
▁pił	-10.5165
▁nadał	-10.5169
▁plam	-10.5171
▁popiera	-10.5173
cznik	-10.5174
▁katolickiego	-10.5174
icki	-10.5176
▁jur	-10.5177
▁konstytucyjn	-10.5178
▁sosnkowski	-10.5178
▁punktem	-10.5178
▁konieczności	-10.5178
▁prawdziwe	-10.5179
▁chopin	-10.5179
▁martin	-10.5179
▁obrazy	-10.5179
▁narodowości	-10.518
niesienie	-10.5183
▁występujące	-10.5185
nięciu	-10.5187
▁kul	-10.5193
▁stacja	-10.5195
▁proste	-10.52
eta	-10.5204
▁dwudziest	-10.5206
▁księga	-10.5216
▁służy	-10.5218
▁kana	-10.5219
▁galaktyk	-10.522
▁paweł	-10.522
▁wiosną	-10.522
▁twórców	-10.5221
▁doświadczenia	-10.5221
▁hymn	-10.5224
▁zygmunt	-10.5225
▁rozpoczęły	-10.5227
▁podstawową	-10.5228
tis	-10.5229
▁chan	-10.5232
▁metry	-10.5232
▁trafi	-10.5234
▁raf	-10.5239
▁biało	-10.5241
▁prosty	-10.5242
▁fon	-10.5242
▁kap	-10.5244
▁wodny	-10.5245
▁lig	-10.5245
▁lotnisk	-10.5246
▁złożony	-10.5252
▁konserw	-10.5252
▁południowy	-10.5255
▁mig	-10.5255
▁wypowiedzi	-10.5259
zar	-10.526
▁cząstek	-10.5263
▁instytucje	-10.5263
▁wprowadzenia	-10.5263
▁zagrożenie	-10.5263
▁tymczasem	-10.5263
▁komisja	-10.5263
▁1984	-10.5266
styczną	-10.5266
rdzeni	-10.5269
▁kanady	-10.527
▁platona	-10.5274
▁statek	-10.5274
▁środowisko	-10.5274
▁niemiecką	-10.5274
bon	-10.5276
▁spod	-10.528
▁stanowili	-10.528
kowym	-10.528
▁napływ	-10.5284
▁tryb	-10.5284
▁gospodarczej	-10.5288
▁brytyjskich	-10.5289
▁przekazał	-10.529
wcześniej	-10.5292
szli	-10.5296
▁warstwy	-10.5296
▁obiegu	-10.5298
▁narodzin	-10.5302
▁janusz	-10.5305
▁południowa	-10.5306
▁ustawodawc	-10.5306
▁cyryl	-10.5306
▁antropolog	-10.5306
pił	-10.5307
▁aktywność	-10.5309
▁pewnego	-10.5311
▁tytan	-10.5313
czność	-10.5313
▁wziął	-10.5313
ben	-10.5316
▁wojciech	-10.5318
▁stronnictwa	-10.5322
▁zamachu	-10.5325
medi	-10.5325
▁niższe	-10.5325
▁(10	-10.5326
▁warszawskiej	-10.5328
▁mieszko	-10.5329
▁spr	-10.5333
▁starożytnych	-10.5334
▁powstałe	-10.5334
owcy	-10.5337
▁wykorzystywany	-10.5338
▁czynnik	-10.534
▁unia	-10.5341
ńscy	-10.5341
▁powtarza	-10.5343
niczej	-10.5343
łożył	-10.5343
▁siat	-10.5344
kryte	-10.5345
▁najlepiej	-10.5348
▁potencjaln	-10.5348
▁zastąpił	-10.5348
▁przypadków	-10.5348
▁zamieszkał	-10.5349
▁adolf	-10.5349
▁komendant	-10.5351
▁mieszanin	-10.5351
lera	-10.5351
gie	-10.5352
]]	-10.5353
▁aparat	-10.5354
▁stal	-10.5356
▁znajdowała	-10.536
edle	-10.5361
ident	-10.5362
▁brytyjskie	-10.5363
▁stali	-10.5364
num	-10.5364
▁johna	-10.5365
▁wszech	-10.5367
▁dzisiejszego	-10.5367
▁następne	-10.5371
▁granicą	-10.5372
dowa	-10.5383
▁obsług	-10.5384
nięte	-10.5384
▁drobn	-10.5385
▁równik	-10.5389
▁friedrich	-10.5392
▁konferencji	-10.5392
▁przyjaciół	-10.5392
▁batalion	-10.5392
▁następująco	-10.5392
▁wersje	-10.5392
▁architektury	-10.5392
▁prostu	-10.5393
▁kwant	-10.5394
▁szwajcarii	-10.5394
▁straży	-10.5394
atorów	-10.5394
▁1983	-10.5394
▁1979	-10.5395
▁katowic	-10.5396
niczych	-10.5397
▁władza	-10.5406
▁złota	-10.5407
▁federal	-10.5408
▁przestał	-10.5408
▁va	-10.5421
▁fre	-10.5421
▁gleb	-10.5422
▁johann	-10.5425
▁orient	-10.5426
▁wielko	-10.5428
▁auto	-10.543
▁mikołaja	-10.5431
wied	-10.5433
▁rzeczywiste	-10.5435
▁sytuację	-10.5435
▁czołow	-10.5438
▁wyprodukowa	-10.5446
▁budowlan	-10.5448
▁cyklu	-10.5448
▁mecz	-10.5454
nit	-10.546
▁środowisku	-10.5465
ńsko	-10.5466
▁wszedł	-10.5468
▁kto	-10.547
▁afryka	-10.5473
▁płac	-10.5476
▁sześciu	-10.5478
▁średniowiecza	-10.5478
▁chcąc	-10.5479
▁partie	-10.5479
▁chorób	-10.5479
▁charles	-10.548
▁1987	-10.5481
▁chór	-10.5482
▁występowania	-10.5483
▁łaciński	-10.5484
public	-10.5487
erzy	-10.5487
pisano	-10.5493
illa	-10.5495
▁trudno	-10.5497
wyższy	-10.5499
▁serca	-10.5501
▁klimatu	-10.5501
▁"-	-10.5505
▁kręg	-10.5505
▁grupie	-10.5507
▁złożył	-10.551
▁sezon	-10.5511
▁sprawił	-10.5512
pion	-10.5516
pół	-10.5516
▁prowadzić	-10.5517
plan	-10.5519
▁czarny	-10.5519
▁alfabetu	-10.552
▁siedziby	-10.5522
▁akademicki	-10.5523
▁david	-10.5523
bat	-10.5523
▁otwarto	-10.5524
▁opisując	-10.5526
jskie	-10.5526
▁1915	-10.5527
rit	-10.5528
▁firma	-10.5528
robot	-10.5533
▁gru	-10.5533
▁przejści	-10.5533
▁dostaw	-10.5537
▁żelaz	-10.5538
▁silny	-10.554
-3	-10.554
▁uległ	-10.5542
▁sięga	-10.5544
▁formą	-10.5549
▁bóstw	-10.555
zował	-10.5551
▁dp	-10.5552
▁marka	-10.556
two	-10.5564
▁hitchcock	-10.5566
▁powrocie	-10.5566
▁siedmiu	-10.5566
▁oprogramowania	-10.5566
▁wydanie	-10.5566
▁koszt	-10.5566
▁przesłan	-10.5568
▁1974	-10.5569
▁rozpowszechni	-10.5569
ektor	-10.557
▁zawart	-10.5571
▁katastrof	-10.5572
▁każde	-10.5574
▁ciecz	-10.5579
tycznie	-10.5579
▁zachowały	-10.5583
▁gdańska	-10.5584
nowie	-10.5589
▁człon	-10.5594
▁ciężkie	-10.5603
▁jedyny	-10.5607
▁hrabi	-10.5607
="19	-10.5608
▁dysku	-10.5609
▁łódzki	-10.561
▁zjazd	-10.561
▁ręce	-10.5612
▁zwycięstwo	-10.5612
▁poznał	-10.5614
▁parafia	-10.5617
▁środki	-10.5619
krwaw	-10.562
▁dawnej	-10.5621
▁wysokiej	-10.5621
▁newton	-10.5622
▁kuchni	-10.5624
▁wykaz	-10.5634
▁północnego	-10.5634
▁bałtyck	-10.5637
▁rejs	-10.5641
później	-10.5646
▁korony	-10.5646
▁warszawski	-10.5649
▁szlak	-10.5653
▁otrzymywan	-10.5654
▁egipski	-10.5654
▁australii	-10.5654
▁germański	-10.5655
▁morskie	-10.5655
▁spada	-10.5656
▁mitologii	-10.5656
▁widm	-10.5657
▁książek	-10.5658
▁szwed	-10.5658
łek	-10.5661
▁producent	-10.5668
▁reszt	-10.5669
▁tytułem	-10.567
▁tadeusza	-10.5671
▁państwach	-10.5677
▁dziedziny	-10.5683
rzec	-10.5684
stw	-10.5685
▁bibliotek	-10.5686
▁stowarzyszenie	-10.5699
▁zginęło	-10.5699
▁włoszech	-10.5699
▁zakażenia	-10.5699
▁usługi	-10.5701
▁zwrócił	-10.5701
▁1964	-10.5702
▁1927	-10.5703
-2	-10.5705
▁policji	-10.5705
acyjny	-10.5706
reż	-10.571
▁cal	-10.5711
▁terminu	-10.5712
▁oficerów	-10.5713
▁gramatyk	-10.5716
▁cezara	-10.5717
▁term	-10.5718
▁niemniej	-10.5723
▁geolog	-10.5727
▁sprawował	-10.5728
▁społecznego	-10.573
sl	-10.5738
▁przemyśle	-10.5741
król	-10.5742
▁rezultacie	-10.5743
▁stowarzyszenia	-10.5743
▁współpracę	-10.5743
▁brytania	-10.5743
solidarności	-10.5743
▁chrzest	-10.5744
▁austro	-10.5744
▁utracił	-10.5745
▁brytyjsk	-10.5745
▁1952	-10.5746
▁1962	-10.5747
▁patent	-10.5747
▁dostępu	-10.5747
▁egz	-10.5748
▁równy	-10.5748
▁regionalne	-10.5749
świat	-10.5752
▁całość	-10.5753
9%	-10.5756
▁dając	-10.5756
łączony	-10.5756
▁tle	-10.576
▁wodę	-10.5761
podwójn	-10.5763
▁pozostały	-10.5765
▁światową	-10.577
▁format	-10.577
pisana	-10.5773
▁moment	-10.5778
▁modele	-10.5779
set	-10.578
▁rock	-10.5781
_6	-10.5782
▁(7	-10.5783
▁zgromadzenie	-10.5783
▁zamach	-10.5785
▁świąt	-10.5785
▁global	-10.5787
▁edukacji	-10.5788
▁wytwórni	-10.5788
▁odpowiadają	-10.5788
▁sprawiedliwości	-10.5788
▁widoczne	-10.5789
▁dekret	-10.5789
▁grzyb	-10.5789
▁epok	-10.5792
▁fałsz	-10.5792
nios	-10.5792
▁długie	-10.5794
bul	-10.5794
▁komputerów	-10.5797
▁biorąc	-10.5797
▁indo	-10.5799
▁materia	-10.5802
▁pozytyw	-10.5805
▁gospodarczego	-10.5805
▁paliw	-10.5811
▁klasycznej	-10.5811
dd	-10.5814
daj	-10.5817
▁średnie	-10.5819
▁jorku	-10.582
wróci	-10.582
▁kata	-10.5823
▁zajmowa	-10.5824
▁mem	-10.5826
los	-10.5829
party	-10.583
▁600	-10.583
▁głęboki	-10.5833
▁imieniem	-10.5834
▁nieba	-10.5836
▁dekad	-10.5836
▁1929	-10.5837
▁wspomina	-10.5837
▁tekstów	-10.5838
▁chorych	-10.5841
▁państwie	-10.5841
▁słowian	-10.5842
▁wykonał	-10.5843
▁bogactw	-10.585
▁wykonywania	-10.5851
▁przejęci	-10.5851
▁naczelnego	-10.5853
▁jedności	-10.5853
eri	-10.5858
▁łac	-10.5859
▁gości	-10.586
ięcia	-10.5862
▁zamieszkan	-10.5869
8%	-10.5873
▁większy	-10.5873
według	-10.5874
▁gatunek	-10.5878
▁okoliczności	-10.5878
▁porozumienie	-10.5878
▁wyróżnić	-10.5878
▁jowisza	-10.5879
▁wywarł	-10.5879
▁1972	-10.5881
▁studiował	-10.5881
▁egzemplarzy	-10.5882
▁określane	-10.5882
▁miar	-10.5882
▁tron	-10.5883
▁jasne	-10.5884
▁walcząc	-10.5884
▁wirus	-10.5886
towarzysz	-10.5888
▁obiektu	-10.5891
▁indyjski	-10.5891
▁podzielone	-10.5892
▁kulturalne	-10.5899
▁szk	-10.5902
▁efektem	-10.5903
dis	-10.5905
▁świadom	-10.591
▁muzyczne	-10.5912
▁teksty	-10.5913
▁zdanie	-10.5914
▁obecnej	-10.5914
▁90	-10.5918
błęd	-10.5919
▁can	-10.592
▁absolut	-10.5924
▁uroczystości	-10.5924
▁kontynuował	-10.5924
▁przekształcon	-10.5924
▁środkowo	-10.5924
▁kwestia	-10.5924
▁finansowe	-10.5924
▁bogart	-10.5927
ującą	-10.5927
▁pomaga	-10.5931
pisanie	-10.5933
▁stulecia	-10.5937
▁izb	-10.594
▁klasztoru	-10.5941
▁jakiej	-10.5954
▁(14	-10.5955
▁uzyskania	-10.5955
nowy	-10.5957
▁listę	-10.5958
▁wydania	-10.5965
solidarność	-10.597
▁punkcie	-10.597
▁wzrosła	-10.597
▁julian	-10.597
▁wpływów	-10.597
święt	-10.5971
ucha	-10.5975
▁własny	-10.5976
▁starszy	-10.5979
▁olbrzymi	-10.5979
▁kolejności	-10.598
▁jack	-10.5981
wała	-10.5983
▁wilhelm	-10.5987
–12	-10.5988
▁jaj	-10.5993
▁łacińskiego	-10.5994
ącego	-10.5994
▁biolog	-10.5999
▁ms	-10.6001
▁city	-10.6002
▁bart	-10.6006
▁pobiera	-10.601
▁jud	-10.6012
▁alfred	-10.6015
▁spółki	-10.6015
▁interpretacji	-10.6015
▁kontrolowa	-10.6016
▁karabin	-10.6017
▁norweski	-10.6017
▁open	-10.6018
▁1928	-10.6019
▁egiptu	-10.602
▁1925	-10.6021
stąpić	-10.6025
▁34	-10.6029
▁powstań	-10.6032
▁zabudowa	-10.6035
▁sejmik	-10.6037
giel	-10.6041
mieszk	-10.6042
▁basen	-10.6043
▁żadnej	-10.6043
▁pocisk	-10.6044
około	-10.6045
▁greckiego	-10.605
ise	-10.6052
▁chr	-10.6054
▁azot	-10.6054
inus	-10.6055
▁domen	-10.6059
▁robotników	-10.6061
▁żaden	-10.6062
▁specjalnych	-10.6062
▁stosowania	-10.6064
▁demo	-10.6065
▁jean	-10.6067
▁kolejno	-10.6075
▁spisu	-10.6079
▁polityk	-10.6079
nowe	-10.6081
1,	-10.6084
▁przeznaczony	-10.6087
▁dopływ	-10.6091
▁pik	-10.6093
istycznych	-10.6096
hn	-10.6097
▁młody	-10.61
▁zachowa	-10.61
wat	-10.6101
▁faktu	-10.6102
▁pęd	-10.6106
▁czynników	-10.6106
▁największa	-10.6108
▁modlitw	-10.6108
▁spowodowały	-10.6108
▁handel	-10.6109
▁gmach	-10.611
▁politycznym	-10.6111
▁charakteru	-10.6111
▁1961	-10.6111
▁marsz	-10.6112
▁połowa	-10.6113
ryst	-10.6116
▁polon	-10.6119
▁świadomości	-10.612
▁centralnej	-10.6126
pit	-10.6126
▁święte	-10.6127
▁muzea	-10.6133
▁relacje	-10.6134
▁właściwy	-10.6136
▁nazwisko	-10.6138
▁badanie	-10.6138
▁filozofia	-10.614
dawania	-10.614
▁wydane	-10.6142
▁psychologiczn	-10.6142
sar	-10.6144
▁42	-10.6145
▁świec	-10.6149
▁określić	-10.6154
▁pośrednictwem	-10.6154
▁rzeczywistych	-10.6154
▁zagrożenia	-10.6154
▁spędził	-10.6154
▁rozwojem	-10.6154
▁monitor	-10.6154
▁organizację	-10.6155
▁sekund	-10.6156
▁dostał	-10.6156
▁więzienia	-10.6157
widz	-10.6158
▁pokrywa	-10.6171
▁tenis	-10.6171
kich	-10.6174
▁jezus	-10.6176
▁czasy	-10.6177
▁wojenny	-10.6178
▁stefana	-10.618
▁judaizm	-10.6183
▁jun	-10.6187
▁sukcesy	-10.6195
jako	-10.6196
▁stale	-10.6201
▁całkowity	-10.6201
▁córki	-10.6201
odniesieniu	-10.6201
▁załogi	-10.6201
▁poniższ	-10.6202
▁1963	-10.6205
▁przyznał	-10.6205
jechał	-10.6207
▁kraków	-10.621
▁osady	-10.6214
ong	-10.6215
▁wodnych	-10.6219
▁siłami	-10.6219
▁promieniowanie	-10.622
łączenia	-10.6221
▁wykazują	-10.6225
tum	-10.6231
▁czarno	-10.6233
▁lotnisko	-10.6233
▁berlinie	-10.6234
▁domów	-10.6236
▁ligi	-10.6237
▁równin	-10.6239
▁prezydentem	-10.6241
▁world	-10.6242
▁użyciem	-10.6243
▁większym	-10.6244
▁niszczyciel	-10.6245
▁peru	-10.6245
rok	-10.6247
▁ciśnienia	-10.6248
▁holandii	-10.6248
▁rolnictwa	-10.6248
▁niemcami	-10.6248
▁pancernik	-10.6248
▁protestancki	-10.6248
▁planetoid	-10.6248
▁zdolności	-10.6248
▁niewoli	-10.6249
▁wysokich	-10.6252
▁1916	-10.6253
▁stwierdzono	-10.6254
▁dziesiąt	-10.6255
symfoni	-10.6258
▁glin	-10.6259
łączyć	-10.6261
▁kolejowe	-10.6263
▁procesy	-10.6267
▁trudne	-10.6268
▁sprzyja	-10.6271
▁metali	-10.6272
▁amerykańskie	-10.6275
cyjnych	-10.6277
▁własnym	-10.628
▁wewnętrznej	-10.628
▁wpływu	-10.6281
hard	-10.6281
miot	-10.6283
nikami	-10.6286
line	-10.6286
▁szuka	-10.6287
▁spowodowane	-10.6288
▁makro	-10.6293
arza	-10.6294
▁euklides	-10.6295
▁kapitan	-10.6295
▁przymiotnik	-10.6295
▁samolot	-10.6296
▁postulat	-10.6296
▁twierdzi	-10.6296
pięt	-10.6298
▁cesarzem	-10.6299
▁(11	-10.6299
▁magnet	-10.63
dża	-10.6302
▁zaleca	-10.6303
▁powinna	-10.6304
▁1900	-10.6305
▁doliny	-10.6306
▁pochowany	-10.6306
▁nastąpiła	-10.631
▁babi	-10.6317
hol	-10.6323
var	-10.6323
▁naukowej	-10.6324
▁poety	-10.6327
▁rozryw	-10.6329
▁pięcio	-10.6329
▁gus	-10.633
zachodniej	-10.6331
▁twórca	-10.6334
▁aktywny	-10.6335
▁przygotowywa	-10.6343
▁przystąpił	-10.6343
▁hrabstw	-10.6343
▁jarosław	-10.6343
▁kontrolę	-10.6343
▁delegat	-10.6343
▁bergman	-10.6343
▁burmistrz	-10.6343
▁bernard	-10.6343
▁chmur	-10.6344
▁oblicza	-10.6345
▁sposoby	-10.6346
▁sd	-10.6346
▁obronne	-10.6346
▁duszy	-10.6352
▁(6	-10.6354
▁teatru	-10.6355
▁pasażerów	-10.6357
▁kwasu	-10.6358
▁niedziel	-10.6359
▁podejmowan	-10.636
▁ludzkiej	-10.6366
▁37	-10.6366
nera	-10.6371
▁rosjan	-10.6372
▁angielskim	-10.6375
▁wykorzystanie	-10.6377
▁ogromne	-10.6378
▁przechodzi	-10.6382
▁określone	-10.6384
sprawiedliw	-10.6389
▁gazet	-10.6389
▁podawan	-10.639
▁rozpowszechnion	-10.639
▁ciężar	-10.639
▁objętości	-10.639
▁produkcję	-10.639
▁tradycja	-10.639
▁ustanowion	-10.639
▁utrzymywał	-10.639
▁wreszcie	-10.639
▁zaopatrzeni	-10.639
▁założony	-10.639
▁zadań	-10.6391
▁[[	-10.6392
▁fundusz	-10.6392
▁odmówił	-10.6392
▁reakcja	-10.6393
▁umowy	-10.6394
▁1955	-10.6394
służ	-10.6395
▁ustala	-10.6395
▁członek	-10.6397
▁osiem	-10.6401
▁próbę	-10.6401
▁farb	-10.6401
▁prawem	-10.6408
gil	-10.641
▁pozor	-10.6414
▁wojskowy	-10.6415
▁tre	-10.6416
▁zasięgu	-10.6419
▁powrót	-10.6419
▁żyd	-10.6423
▁północny	-10.6423
▁mała	-10.6424
▁far	-10.6426
ologicznych	-10.6429
wanego	-10.6429
▁sąsiedni	-10.6431
▁powszechne	-10.6432
ografii	-10.6433
▁lasów	-10.6433
▁krzem	-10.6434
ańska	-10.6434
▁złoty	-10.6436
fir	-10.6436
▁joseph	-10.6438
▁medycyny	-10.6438
▁zaburzenia	-10.6438
▁główna	-10.6438
▁wysłał	-10.6439
tsu	-10.6439
▁carl	-10.644
▁synów	-10.6441
▁wyraził	-10.6443
▁kierunki	-10.6444
▁istniała	-10.6444
▁mark	-10.6448
▁zanim	-10.6449
anty	-10.6452
ńców	-10.6453
kod	-10.6453
▁portret	-10.6454
▁prawne	-10.6456
▁krąż	-10.6463
▁autorzy	-10.6466
bieg	-10.647
▁akcent	-10.647
▁zapoczątkował	-10.6473
▁pułk	-10.6476
▁39	-10.6479
▁jad	-10.6479
▁wewnętrzne	-10.6481
▁bronią	-10.6482
sm	-10.6484
▁zespoły	-10.6486
▁zdrowotn	-10.6486
szek	-10.6486
▁walczył	-10.6486
▁1977	-10.649
▁wygnan	-10.649
▁schemat	-10.6492
▁morzu	-10.6493
arny	-10.6495
▁wykonywan	-10.6502
▁sztuczne	-10.6504
fen	-10.6505
▁zapas	-10.6507
▁plemion	-10.6507
▁stare	-10.6509
▁jakich	-10.6511
▁słoneczny	-10.6513
▁robotnicz	-10.6513
▁żydowskiego	-10.6515
▁cze	-10.6515
▁różnica	-10.6517
puszcza	-10.6521
▁określonych	-10.6523
▁olsztyn	-10.6525
▁maszynowy	-10.653
▁ład	-10.6531
▁klasyfikacja	-10.6534
▁zginął	-10.6534
▁pewną	-10.6535
▁1986	-10.6538
▁wykonania	-10.654
region	-10.6544
▁wschodnim	-10.6545
▁elit	-10.6556
▁tracy	-10.6556
vin	-10.6565
jest	-10.6567
▁starał	-10.657
▁tłum	-10.657
▁48	-10.6572
lum	-10.6576
▁uzyskała	-10.6577
▁stosunków	-10.6583
▁stężenie	-10.6583
▁wsparcie	-10.6583
▁kapitał	-10.6583
▁obyczaj	-10.6583
▁konieczność	-10.6583
▁stosowano	-10.6584
▁rąk	-10.6586
▁legion	-10.6587
▁pojazdów	-10.6589
▁misji	-10.6589
▁konieczne	-10.6589
▁godziny	-10.659
▁raj	-10.6594
▁starszych	-10.6595
▁graniczy	-10.6596
▁biograf	-10.6596
▁dowód	-10.6597
▁nazwał	-10.6598
uta	-10.6601
▁naucza	-10.6604
▁party	-10.6608
▁atlantycki	-10.6611
▁marsa	-10.6613
▁marcin	-10.6619
▁uznawane	-10.6625
▁radzie	-10.6626
▁kontekście	-10.6632
▁wybrzeże	-10.6632
▁wybrzeżu	-10.6632
▁przestrzega	-10.6632
▁przyjęcia	-10.6632
▁zdolność	-10.6632
▁najstarszych	-10.6632
▁kodeks	-10.6632
▁obrzęd	-10.6632
▁różnymi	-10.6634
▁dunaj	-10.6634
▁mościcki	-10.6635
▁1965	-10.6636
▁moneta	-10.6636
węgl	-10.6644
oro	-10.6645
erów	-10.6646
▁istotny	-10.6648
szki	-10.6651
▁wino	-10.6658
▁spad	-10.666
▁szczep	-10.6662
▁ślady	-10.6666
▁prywatnych	-10.6668
▁szkoleni	-10.6669
▁lokaln	-10.667
▁przeznaczone	-10.6671
mot	-10.6671
▁produkty	-10.6672
▁szef	-10.6673
▁doktryn	-10.6674
▁fizyczne	-10.6676
▁wnętrz	-10.6677
słonecz	-10.6679
▁słupsk	-10.668
▁habsburg	-10.6681
▁konstrukcja	-10.6681
▁stworzenie	-10.6681
▁szacuje	-10.6681
▁louis	-10.6681
▁podejście	-10.6681
▁christ	-10.6682
▁awans	-10.6682
słuch	-10.6682
▁odnotowan	-10.6683
▁historyków	-10.6683
▁albert	-10.6685
rozum	-10.6686
▁wybór	-10.6686
▁składu	-10.6687
▁małej	-10.6687
▁szans	-10.6687
▁brytyjskiego	-10.6689
▁sym	-10.6697
▁sposobem	-10.6698
▁mniejszej	-10.67
▁muzykę	-10.67
wzgl	-10.6702
▁diet	-10.6705
▁die	-10.6707
▁kandydatów	-10.671
▁odłam	-10.6712
▁oś	-10.672
▁zbudowano	-10.6725
▁planu	-10.6729
bb	-10.6729
pamiątk	-10.673
▁beatles	-10.6731
▁powodów	-10.6731
▁kosmiczne	-10.6732
▁armat	-10.6734
▁istniało	-10.6734
▁organem	-10.6735
▁karl	-10.6736
▁wykazuje	-10.6736
▁zawarte	-10.6739
▁księstwo	-10.674
▁reg	-10.6742
▁harmoni	-10.6743
ńczycy	-10.6747
▁kotlin	-10.675
rum	-10.6752
gle	-10.6753
▁38	-10.676
bs	-10.6762
▁pps	-10.6763
1)	-10.6763
pet	-10.6765
▁połączon	-10.6772
▁zmianie	-10.6772
ńczyków	-10.6773
▁układów	-10.6774
ówek	-10.6775
▁spożywa	-10.6779
▁głębokości	-10.6779
▁rozwinął	-10.6779
▁ugrupowania	-10.6779
▁poważne	-10.678
▁władca	-10.6781
▁zrezygnował	-10.6784
chodzące	-10.6784
▁strona	-10.6785
▁daniel	-10.6786
▁słowacki	-10.6789
▁island	-10.679
bn	-10.6792
▁zakończył	-10.6797
▁relacja	-10.6801
▁fabryka	-10.6803
▁mocno	-10.681
▁zawarty	-10.6816
▁systemach	-10.6818
▁szlachecki	-10.6829
▁wincentego	-10.6829
▁mechanik	-10.6829
▁serwis	-10.6829
▁jazz	-10.683
▁krótkie	-10.6831
bog	-10.6831
▁1971	-10.6832
▁1958	-10.6833
▁polimer	-10.6836
▁mających	-10.6837
▁przemysłowe	-10.6838
▁górskie	-10.684
▁podjęł	-10.684
▁grze	-10.6841
burza	-10.6845
▁założone	-10.6846
▁strzał	-10.6847
▁płuc	-10.6848
▁bożej	-10.685
▁rac	-10.6854
gad	-10.6858
▁mniejszym	-10.6859
▁przeprowadzone	-10.6859
▁miejskiego	-10.6859
owań	-10.6859
głębi	-10.6863
ewicza	-10.6863
▁rewolucj	-10.6871
nne	-10.6872
▁trwała	-10.6874
▁poraż	-10.6874
▁radzieckich	-10.6876
▁dąbrow	-10.6878
▁diecezji	-10.6879
▁obowiązek	-10.6879
▁podzielić	-10.6879
▁definiuje	-10.6879
▁kierunek	-10.6879
▁kierownictw	-10.6879
▁klient	-10.6879
▁naftowej	-10.6879
▁jedyną	-10.688
▁dowodzon	-10.6881
dzkie	-10.6881
▁dociera	-10.6882
▁wystarcza	-10.6882
▁ostatniego	-10.6882
owatych	-10.6885
skończ	-10.6885
▁wysoki	-10.6889
▁zagrał	-10.6892
dziw	-10.6893
▁ognia	-10.6895
▁temperatur	-10.6898
▁brytyjskiej	-10.6901
▁tymi	-10.6905
▁utworzony	-10.6907
▁składni	-10.6907
▁socjolog	-10.691
wskiego	-10.6914
▁kras	-10.6919
lf	-10.6919
▁niepodległ	-10.6922
▁walkach	-10.6925
wicz	-10.6929
▁nowoczesny	-10.693
▁university	-10.693
▁kolekcj	-10.693
▁powodem	-10.693
▁zgodził	-10.693
▁drogowy	-10.693
▁mandatów	-10.6932
▁wodza	-10.6935
act	-10.6936
▁smak	-10.6938
▁lis	-10.6939
hl	-10.694
▁żywi	-10.6942
▁cycerona	-10.6944
▁chrystus	-10.6952
▁wezwa	-10.6953
erem	-10.6953
▁głowy	-10.6954
▁bell	-10.6957
▁doprowadziła	-10.6958
ńcu	-10.6958
prowadzeniu	-10.6961
▁korzystając	-10.6966
▁sprzęt	-10.6966
hel	-10.6971
▁serb	-10.6972
ella	-10.6973
▁zatoki	-10.6973
▁teologiczn	-10.6977
rol	-10.6977
▁zabezpiecz	-10.6977
▁datowan	-10.6977
▁począwszy	-10.698
▁zauważa	-10.698
▁rolnictwo	-10.698
▁córka	-10.698
▁rozwinęł	-10.698
▁tlenu	-10.698
symetryczn	-10.6981
▁uważane	-10.6982
▁paryża	-10.6982
pala	-10.6985
▁65	-10.6994
▁mocarstw	-10.6995
▁zdobywa	-10.6996
▁przygotowania	-10.6996
▁samobójstwo	-10.6996
▁(13	-10.6998
▁oczy	-10.6999
▁wykonane	-10.7002
▁daleko	-10.7006
biegł	-10.7007
▁250	-10.7008
▁przewodniczący	-10.7008
audi	-10.7009
▁właściwe	-10.701
▁otrzyman	-10.7011
▁leczenia	-10.7012
▁śląsku	-10.7012
▁neg	-10.7012
▁emi	-10.7014
▁radia	-10.7016
▁brąz	-10.7017
▁znaku	-10.7019
szka	-10.7024
▁miesiące	-10.7025
▁powstawały	-10.7025
▁ignacy	-10.7031
▁wersję	-10.7031
▁italii	-10.7031
▁anarchi	-10.7031
▁określając	-10.7032
▁1978	-10.7034
▁1985	-10.7035
▁zawarci	-10.7035
▁prowadzą	-10.7036
▁1910	-10.7037
wyzna	-10.7037
jeździe	-10.7045
▁odwołan	-10.7046
▁kreacj	-10.7048
zmie	-10.7053
▁rzymian	-10.7059
heim	-10.7064
▁wcześniejsze	-10.7065
▁rus	-10.7072
plat	-10.7074
–1	-10.7074
miejski	-10.7074
▁artystyczne	-10.7075
▁narodowym	-10.7078
▁biologiczne	-10.708
▁ogólno	-10.7081
▁przekształca	-10.7082
▁telewizji	-10.7082
▁zewnątrz	-10.7082
▁samochodow	-10.7082
miesięczn	-10.7082
▁rozszerza	-10.7082
▁dokonywan	-10.7082
▁chłopów	-10.7082
▁rosyjskie	-10.7085
▁urządzenie	-10.7086
▁przeprowadzono	-10.7086
▁podał	-10.7089
▁dziur	-10.709
▁ludu	-10.709
▁wytwor	-10.7097
fit	-10.7102
indoeuropejski	-10.7103
▁domaga	-10.7103
":	-10.7104
▁gospodarczy	-10.7106
▁zasobów	-10.7106
▁europejski	-10.7109
▁islamu	-10.7109
▁urban	-10.7109
ląd	-10.7112
tun	-10.7113
▁użyte	-10.7116
▁dany	-10.7117
▁towar	-10.7118
▁zaprojektowa	-10.7125
ologię	-10.7127
▁porządk	-10.7128
▁energetyczn	-10.7133
▁włodzimierz	-10.7133
▁polityczna	-10.7133
▁książąt	-10.7133
▁liceum	-10.7133
▁wysoką	-10.7133
▁elektronów	-10.7133
▁czwarte	-10.7134
▁mianowany	-10.7134
▁powstańców	-10.7134
▁tworzyć	-10.7135
▁płock	-10.7136
▁irlandzki	-10.7136
▁potężn	-10.7136
▁branż	-10.7139
▁gnu	-10.714
chłop	-10.714
chęć	-10.7143
▁75	-10.7145
▁naczeln	-10.7145
lam	-10.7146
▁kolejną	-10.7146
▁powietrze	-10.7149
▁leżą	-10.7152
▁bytom	-10.7159
▁analiza	-10.7159
styczne	-10.7161
▁następnym	-10.7161
rzucił	-10.7162
▁zmieni	-10.7165
▁reprezentowan	-10.7166
▁posła	-10.7169
▁górach	-10.7169
▁odmiana	-10.717
▁herbu	-10.7174
dur	-10.7176
▁stos	-10.7176
▁internetu	-10.7179
▁znacząco	-10.718
▁podstawę	-10.718
▁architekt	-10.7183
▁chrześcijaństwo	-10.7185
▁samochodów	-10.7185
▁właściwie	-10.7185
▁zorganizował	-10.7185
▁redaktor	-10.7185
▁oprogramowanie	-10.7185
▁odkryto	-10.7185
▁weszła	-10.7185
▁wymiany	-10.7185
▁davis	-10.7186
▁kontakty	-10.7187
▁armią	-10.7187
▁puchar	-10.7188
łowie	-10.7188
▁mili	-10.7188
▁bronisław	-10.719
ting	-10.7191
▁ostrze	-10.7192
▁2023	-10.7196
▁ludzkiego	-10.7201
▁chemii	-10.7202
▁pułku	-10.7202
▁sun	-10.7203
▁prom	-10.7206
▁przyczyny	-10.7207
szyn	-10.7207
niezwykle	-10.7208
▁ziemskiej	-10.7209
▁wojennego	-10.7211
izację	-10.7212
▁skutkiem	-10.7216
▁działające	-10.7218
▁zawierając	-10.722
▁królowej	-10.7222
▁żąd	-10.7222
▁służą	-10.7227
▁plany	-10.7229
▁zygmunta	-10.7231
reg	-10.7231
▁służący	-10.7232
▁kompilator	-10.7236
▁jednostką	-10.7236
▁odpowiednik	-10.7236
▁zdołał	-10.7236
▁komunikacyjny	-10.7236
▁władców	-10.7237
▁majątku	-10.7237
mera	-10.7237
▁teorie	-10.7237
▁piwo	-10.7237
▁pokojowe	-10.7237
poznan	-10.7237
▁pokonał	-10.7237
▁płaszczyzn	-10.7237
▁twórcy	-10.724
▁sand	-10.7241
▁dowodzeni	-10.7241
▁1953	-10.7241
▁opisu	-10.7243
▁rozwijając	-10.7245
bec	-10.7251
bach	-10.7251
▁zła	-10.7252
mistrz	-10.7253
▁północną	-10.7254
ire	-10.7254
▁badan	-10.7259
acyjnej	-10.726
▁państwowe	-10.7263
▁trwania	-10.7263
▁pisarza	-10.7264
czym	-10.7268
▁koł	-10.7268
▁dopuszcza	-10.7269
▁obrotu	-10.7275
▁zawodowych	-10.7285
kut	-10.7287
▁wspólne	-10.7287
▁morskiej	-10.7287
ewskiego	-10.7287
▁cywilizacji	-10.7288
▁wystąpienia	-10.7288
jpopularniejszy	-10.7288
▁osobę	-10.7289
▁wydziela	-10.7289
▁uczynił	-10.7289
▁poglądów	-10.7289
▁jezioro	-10.729
arka	-10.7292
▁ptaki	-10.7292
▁ph	-10.7294
▁suma	-10.7294
▁nakład	-10.7295
▁opublikowa	-10.7296
▁partyjn	-10.7297
▁punkty	-10.73
▁wygląda	-10.7301
▁demon	-10.7306
niczym	-10.7306
▁śr	-10.7313
▁spadł	-10.7314
▁przyrodni	-10.7318
▁wyjaśnia	-10.732
▁sposobu	-10.7322
rzew	-10.7322
▁rub	-10.7324
istyczny	-10.7331
▁wyrazów	-10.7332
wybor	-10.7334
▁ogólny	-10.7335
ujednoznacznieni	-10.7341
▁emigracji	-10.7341
▁scenariusz	-10.7341
▁utworu	-10.7341
▁przewoz	-10.7344
▁ludwik	-10.7344
grad	-10.7345
izmem	-10.7347
▁remont	-10.7348
▁skały	-10.735
▁step	-10.7353
▁set	-10.7359
osi	-10.7365
▁szkołach	-10.7365
▁druku	-10.7367
nieść	-10.7369
▁operacyjny	-10.7374
▁zawierający	-10.7376
▁mózgu	-10.7379
▁techniczne	-10.7384
▁możemy	-10.7384
▁wojciecha	-10.7386
▁imiona	-10.7387
▁dóbr	-10.7393
▁węzłów	-10.7393
▁stężenia	-10.7393
▁800	-10.7393
▁pobliski	-10.7394
szlachetn	-10.7394
▁fluor	-10.7394
▁osiedle	-10.7394
▁rozmowy	-10.7395
▁magnetyczne	-10.7395
▁lewicow	-10.7395
▁polscy	-10.7397
ford	-10.7401
▁wiąz	-10.7402
▁dodatni	-10.7402
prz	-10.7403
▁zgody	-10.7404
▁ratusz	-10.7406
▁połączeniu	-10.7409
▁(9	-10.741
system	-10.7411
▁masie	-10.7411
▁radę	-10.7412
zką	-10.7414
▁zmiennej	-10.7416
▁anonim	-10.7416
▁przewodniczącym	-10.7417
▁wycofał	-10.7417
▁imion	-10.7422
▁krypt	-10.7427
▁pozwalają	-10.7428
char	-10.7432
▁zmiennych	-10.7433
▁istniał	-10.7434
▁hiszpan	-10.7434
jczyków	-10.7441
graficzne	-10.7444
▁konfederacji	-10.7446
▁międzywojennym	-10.7446
▁siłą	-10.7446
▁wyjazd	-10.7446
▁artystów	-10.7446
▁komunikacja	-10.7446
▁teorią	-10.7446
▁szczątk	-10.7446
▁wiktor	-10.7447
▁widoczny	-10.7447
▁indii	-10.7448
▁polityczną	-10.7448
▁przystosowan	-10.7448
▁problemem	-10.7449
manna	-10.7449
▁mnich	-10.7451
▁siedmio	-10.7453
▁przyszły	-10.7457
▁biały	-10.7459
▁kowal	-10.746
być	-10.7462
▁częst	-10.7462
▁augustyn	-10.7465
▁zarejestrowan	-10.7466
▁trzyma	-10.7467
▁geograficzne	-10.7469
▁gleby	-10.7472
▁technika	-10.7473
komuni	-10.7474
▁granica	-10.7476
cina	-10.7478
życie	-10.7479
▁trasy	-10.7482
▁graficzny	-10.7483
▁milit	-10.7486
▁badaniach	-10.7488
▁słowiańskie	-10.7489
▁wynosząc	-10.7491
▁rosyjskim	-10.7493
bić	-10.7496
▁okup	-10.7496
▁helen	-10.7497
▁elbląg	-10.75
▁podręcznik	-10.75
▁wsparcia	-10.75
▁marszałka	-10.75
▁wstąpił	-10.75
▁macierz	-10.75
▁ve	-10.75
▁złote	-10.7501
nieśli	-10.7503
▁1905	-10.7504
▁maciej	-10.7505
▁rzymskiej	-10.7507
▁stworzony	-10.7508
▁unix	-10.7509
arch	-10.751
▁nazwano	-10.7518
▁aktu	-10.7522
gas	-10.7522
ville	-10.7524
▁oznaczenie	-10.7525
▁skrzy	-10.753
▁przemyśl	-10.7531
▁rozbior	-10.7531
▁szkod	-10.7532
▁tacy	-10.7534
▁alp	-10.7535
owani	-10.7535
▁120	-10.7536
wóz	-10.7541
▁dzisiejsz	-10.7542
▁badacze	-10.7542
▁spowodował	-10.7543
zielone	-10.7544
▁głębi	-10.7545
▁skok	-10.7546
śląsk	-10.7548
▁oddziału	-10.7551
czyński	-10.7552
powiedz	-10.7552
▁osobisty	-10.7553
▁świadectw	-10.7553
▁garnizon	-10.7553
▁grzegorz	-10.7553
płynął	-10.7554
▁powiedział	-10.7554
▁wschodnie	-10.7557
▁wzorem	-10.7557
▁znalazło	-10.7561
▁opera	-10.7566
▁nauczania	-10.7566
▁wysz	-10.7567
▁bogaty	-10.7568
▁żył	-10.7571
▁marc	-10.7574
▁hip	-10.7576
cum	-10.758
ukraiński	-10.758
▁sylab	-10.7586
▁chce	-10.7588
▁dei	-10.7589
▁przejaw	-10.7594
▁starost	-10.7596
wne	-10.7598
▁−	-10.7599
▁sfer	-10.7606
▁najstarszy	-10.7607
▁potencjał	-10.7607
▁osiągnął	-10.7607
▁istnieć	-10.7607
▁skrzydła	-10.7607
▁żadne	-10.7607
▁dołączył	-10.7609
więc	-10.7612
▁podobnych	-10.7612
▁anna	-10.7617
▁użytkownika	-10.7619
▁oznaczało	-10.7622
▁ustawa	-10.7627
▁proto	-10.7628
pomorskiego	-10.763
▁warstwa	-10.7637
▁pir	-10.7638
tykę	-10.7639
▁nisz	-10.764
▁pacyfiku	-10.764
▁wolnej	-10.7641
▁duński	-10.7648
▁uznając	-10.7649
sur	-10.765
▁coś	-10.7653
▁doktora	-10.7654
▁potwierdził	-10.7661
▁udostępnia	-10.7661
▁uogólni	-10.7661
▁tamtejsz	-10.7661
▁słabe	-10.7661
▁zasadniczo	-10.7661
cher	-10.7662
▁43	-10.7665
▁biura	-10.7665
▁1912	-10.7667
▁danii	-10.7671
▁żyje	-10.7672
▁katalog	-10.7673
▁typowe	-10.7673
▁powinno	-10.768
▁nieudan	-10.7681
ure	-10.7683
▁przewodni	-10.7684
▁jednoznacznie	-10.7684
rabia	-10.7684
owicza	-10.7685
▁wojenne	-10.7685
▁bach	-10.7686
▁uczył	-10.7687
▁walkę	-10.7688
▁widok	-10.769
▁rybnik	-10.7692
▁litu	-10.7696
▁okupowan	-10.7698
lskiego	-10.77
onizm	-10.77
▁składnik	-10.7701
▁hipotezy	-10.7702
soc	-10.7704
▁naturalny	-10.7704
kos	-10.7704
orum	-10.7704
▁tytułu	-10.7705
▁problemu	-10.7706
▁dywiz	-10.7708
ois	-10.7715
▁interfejs	-10.7715
▁kilkunastu	-10.7715
▁wyznawców	-10.7715
▁obowiązki	-10.7715
▁krawędzi	-10.7715
▁zapewne	-10.7715
▁odtąd	-10.7715
▁etniczne	-10.7716
▁administracja	-10.7717
▁zwalcz	-10.7717
▁rab	-10.7718
▁chrztu	-10.772
▁karta	-10.772
▁katolicyzm	-10.772
▁king	-10.7721
▁saint	-10.7721
▁rozdział	-10.7724
▁używając	-10.7725
▁krótki	-10.7725
▁rozwinięty	-10.7729
▁49	-10.773
ót	-10.7734
▁modyfikacj	-10.7737
▁cieszył	-10.774
vol	-10.7744
▁dalszych	-10.7745
gent	-10.7748
▁istniejących	-10.7748
▁młode	-10.7749
▁emisji	-10.7753
europejski	-10.7754
▁max	-10.7764
ństwo	-10.7764
ding	-10.7766
▁starsze	-10.7769
błyskawic	-10.7769
▁osobiste	-10.777
▁córkę	-10.777
▁młodszy	-10.777
▁regularnie	-10.777
▁zdjęcia	-10.777
▁jazdy	-10.777
▁dokonano	-10.777
▁elektromagnety	-10.777
▁połowę	-10.777
▁ustrój	-10.777
▁pomorza	-10.7771
druk	-10.7771
amerykański	-10.7771
▁kilkadziesiąt	-10.7772
▁sprzedaż	-10.7773
ryzm	-10.7774
▁zagra	-10.7774
▁naukowców	-10.7774
▁1959	-10.7775
▁1966	-10.7775
słuszn	-10.7775
▁wieków	-10.7779
▁jedyne	-10.7781
▁powiatów	-10.7784
▁wykonany	-10.7786
▁płk	-10.7795
▁biskupi	-10.7796
▁młyn	-10.78
▁trybu	-10.7802
▁faktyczn	-10.7802
▁pozostała	-10.7803
jas	-10.7804
rodzin	-10.7807
▁przyłączon	-10.7807
▁odrzucił	-10.7809
prowadzona	-10.7809
▁wyspach	-10.781
▁pw	-10.7811
▁dźwięku	-10.7811
▁uległa	-10.7812
▁zdecydowanie	-10.7815
▁64	-10.7816
rozwiąza	-10.7819
▁ujawni	-10.7823
▁azerbejdżan	-10.7825
▁franciszek	-10.7825
▁rdzenn	-10.7825
▁przyjęła	-10.7825
▁wejścia	-10.7825
▁apel	-10.7826
▁dowódcą	-10.7826
▁organizmu	-10.7827
▁daleki	-10.7828
▁turk	-10.7828
▁gospodarczych	-10.7829
▁zasług	-10.783
▁wcześniejszych	-10.783
▁ciężki	-10.7834
▁średnicy	-10.7835
▁wodne	-10.7837
czarn	-10.7838
▁napisany	-10.7842
▁chrom	-10.7842
▁soli	-10.7843
▁obserwacje	-10.7843
▁białej	-10.7844
▁lotnicze	-10.7845
ańskich	-10.7848
gwiazd	-10.7848
▁przejścia	-10.7851
▁czynniki	-10.7856
▁ogólnej	-10.7857
▁pozostałości	-10.7859
▁opisywan	-10.7862
▁wrocławski	-10.7866
anka	-10.7869
▁zarzut	-10.787
▁pisarzy	-10.7871
▁ruchy	-10.7871
▁kir	-10.7873
▁krajowy	-10.7874
ston	-10.7876
▁wierszy	-10.7878
▁kłod	-10.788
▁irlandii	-10.788
▁apostoł	-10.788
▁polityce	-10.788
▁emitowan	-10.7881
▁sob	-10.7883
▁stacje	-10.7883
▁geometrii	-10.7884
▁syntez	-10.7884
▁uznane	-10.7885
▁wejście	-10.7885
▁fazie	-10.7888
▁sewer	-10.789
ukr	-10.7891
▁warszawsk	-10.7891
▁miejską	-10.7893
hal	-10.7896
▁trzem	-10.7896
▁domowej	-10.7897
dali	-10.79
ira	-10.7901
▁dzisiejszej	-10.7903
▁poświęcony	-10.7904
▁wyposaż	-10.7906
bet	-10.7909
▁1,5	-10.7911
▁gazy	-10.7911
▁leczenie	-10.7912
▁używano	-10.7917
1.	-10.7918
▁stojąc	-10.792
▁opery	-10.7925
wielki	-10.7925
▁odry	-10.7926
powiada	-10.7926
▁umysł	-10.7926
▁ataki	-10.7927
▁ułatwi	-10.7931
▁trzecim	-10.7932
▁należała	-10.7932
▁specjalny	-10.7933
▁ludzkości	-10.7936
▁południową	-10.7936
▁rachunku	-10.7936
▁tworzone	-10.7936
▁indeks	-10.7936
▁pseudonim	-10.7936
▁choroba	-10.7938
informaty	-10.7939
▁białka	-10.7939
morfizm	-10.7941
▁obsadz	-10.7942
▁przemysłowych	-10.7942
lion	-10.7946
▁rzekom	-10.7948
▁komet	-10.7948
kle	-10.7949
przybliż	-10.7952
▁księstw	-10.7952
▁44	-10.7952
▁nakazał	-10.7953
▁(8	-10.7955
iss	-10.7958
▁takimi	-10.7958
▁portugalski	-10.796
▁prezes	-10.7962
▁fazy	-10.7964
▁piw	-10.7964
▁tk	-10.7966
▁krakowskiego	-10.7969
▁rot	-10.7972
▁band	-10.7973
▁zgromadzenia	-10.7973
lski	-10.7974
▁mistrzostw	-10.7982
▁baza	-10.7983
funk	-10.7984
▁46	-10.7984
▁radzieckie	-10.7985
▁pozwol	-10.7989
▁che	-10.7989
▁brazylii	-10.7991
▁moskwie	-10.7991
▁oddziela	-10.7992
▁lwów	-10.7993
▁lepiej	-10.7993
▁egzamin	-10.7993
▁wola	-10.7995
▁gospodarcze	-10.7996
▁mezo	-10.7996
▁pisania	-10.7999
▁den	-10.7999
▁południowego	-10.8004
▁wierzy	-10.8004
syryjski	-10.8005
▁zasoby	-10.8007
▁motor	-10.8008
▁popularności	-10.8011
▁kamer	-10.8011
▁chroni	-10.8012
▁miano	-10.8012
▁otaczając	-10.8016
▁wykazał	-10.8018
▁szefa	-10.8022
▁krytyka	-10.8024
▁gracz	-10.8026
▁diag	-10.8029
▁ruchów	-10.8029
▁liberaln	-10.803
acyjnego	-10.8035
▁towarzyszą	-10.8035
▁instytutu	-10.8037
charakterystyczn	-10.8038
arabski	-10.8039
rami	-10.8041
▁francuskich	-10.8042
▁enzym	-10.8046
▁małżeństwo	-10.8047
▁tom	-10.8047
▁informacja	-10.8048
▁zagadnienia	-10.8048
▁pierwiastki	-10.8048
▁populacja	-10.8048
▁odegrał	-10.8048
▁uznania	-10.8048
▁synod	-10.8048
▁wyrażenia	-10.805
▁moduł	-10.8052
▁kamień	-10.8054
▁etymologia	-10.8055
szóst	-10.8056
▁natura	-10.8058
▁sprowadza	-10.8062
▁neuro	-10.8065
▁obowiązując	-10.8067
▁ośrodki	-10.8069
▁rankingu	-10.8071
▁przerw	-10.8072
▁krążowników	-10.8072
▁sukcesem	-10.8072
mieszcz	-10.8073
▁temperaturę	-10.8077
▁odpowiednie	-10.8078
▁definiowan	-10.8079
sort	-10.808
▁hun	-10.8085
▁vo	-10.8086
plast	-10.8088
intelektual	-10.8088
▁przejście	-10.8089
▁skóry	-10.8089
hit	-10.8092
▁intel	-10.8096
▁uczeni	-10.8097
▁bezpośrednie	-10.8098
▁ulegają	-10.8098
▁bloku	-10.8099
nauk	-10.81
▁społeczeństwo	-10.81
▁stary	-10.81
▁odbudowa	-10.8103
▁trzeciej	-10.8104
▁dziewczyn	-10.8104
▁autorytet	-10.8104
▁teleskop	-10.8104
▁najnowsz	-10.8104
▁ożenił	-10.8104
▁reaktyw	-10.8104
▁przyjęte	-10.8105
▁piramid	-10.8106
▁wrocławiu	-10.8106
▁ogólne	-10.8107
▁specjalni	-10.8107
▁def	-10.8109
▁ustawion	-10.8111
▁strz	-10.8113
konali	-10.8114
erg	-10.8122
▁sposobów	-10.8127
wiązać	-10.8127
▁schron	-10.8129
▁faktycznie	-10.8131
rick	-10.8131
▁shi	-10.8133
daleko	-10.8133
vel	-10.8134
▁lądowych	-10.8135
▁gród	-10.814
▁mc	-10.8142
▁potok	-10.8144
zur	-10.8145
▁wystawion	-10.8146
▁47	-10.8146
▁emisja	-10.8152
czyków	-10.8155
▁religijnej	-10.8155
eckiego	-10.8156
▁społeczno	-10.8156
nowo	-10.8157
▁prowadzenie	-10.8158
▁demokracji	-10.8161
▁galileusz	-10.8161
▁funkcją	-10.8161
▁zdań	-10.8162
▁jam	-10.8163
▁spowodowała	-10.8166
▁ból	-10.8168
▁obronny	-10.8168
▁usuwa	-10.817
▁używał	-10.8175
▁wydzielon	-10.8178
▁daty	-10.8182
żona	-10.8183
▁dziennikarz	-10.8183
▁fili	-10.8189
bla	-10.8193
▁plemiona	-10.8193
▁należały	-10.8193
▁morzem	-10.8196
▁różniczk	-10.8196
▁programie	-10.8202
▁klęsk	-10.8204
▁samorządu	-10.8206
▁radzieckiego	-10.8206
▁wyprawa	-10.8207
▁stałej	-10.8209
▁warszawskim	-10.821
ameryka	-10.8213
▁nietzsche	-10.8218
▁oświęcim	-10.8218
▁posiadłości	-10.8218
▁równolegle	-10.8218
▁zwiększon	-10.8218
▁świadków	-10.8218
▁samodzielnie	-10.8218
▁miłość	-10.8218
▁oddziaływanie	-10.8222
▁[]	-10.8223
▁używać	-10.8223
▁krzyżacki	-10.8223
▁małą	-10.8223
▁karpat	-10.8223
▁niezbędn	-10.8223
kowo	-10.8223
▁kwater	-10.8224
▁muzyczny	-10.8226
▁kryzysu	-10.8227
▁wschodnio	-10.8231
▁ograniczone	-10.8233
▁bożego	-10.8234
fan	-10.8237
hon	-10.8241
▁skutki	-10.8241
listy	-10.8243
▁składający	-10.8246
▁przeprowadzony	-10.8247
▁praindoeuropej	-10.8248
▁każd	-10.8251
▁euler	-10.8252
▁królem	-10.8252
▁dworze	-10.8254
▁przeważa	-10.8255
▁cud	-10.826
kręt	-10.8267
stępują	-10.8268
▁gazów	-10.827
▁sformułowan	-10.827
▁budzi	-10.8271
▁usd	-10.8274
▁regionów	-10.8275
▁cząstki	-10.8276
▁egipcie	-10.8276
▁zwiększenie	-10.8276
▁łączności	-10.8276
▁sztuce	-10.8276
▁minerał	-10.8276
▁aktora	-10.8276
▁skandynaw	-10.8278
▁przeznaczon	-10.8278
▁przypadł	-10.8279
kel	-10.828
▁kontrakt	-10.828
zniesiono	-10.8283
▁hipoteza	-10.8286
▁posługuje	-10.8288
rdz	-10.8294
▁przekazywan	-10.8294
▁miesiącach	-10.8296
▁mniejsza	-10.8297
▁sul	-10.8297
mand	-10.8298
▁krytyków	-10.8299
▁barwy	-10.8299
▁grzech	-10.83
onim	-10.83
▁psychiczne	-10.8304
▁charakterystyka	-10.8307
▁planeta	-10.8307
▁górnej	-10.8312
toksyczn	-10.8312
_7	-10.8313
▁orbity	-10.8314
▁geometr	-10.8314
pielgrzym	-10.8314
▁określany	-10.8315
stawienie	-10.8316
▁greckiej	-10.8316
▁uczonych	-10.832
▁zaatakował	-10.8322
▁działacz	-10.8323
▁przeniesieni	-10.8326
średni	-10.8328
▁inna	-10.8328
skrypt	-10.8332
▁sokrates	-10.8333
▁niegdyś	-10.8333
▁zdarzeń	-10.8333
▁powołał	-10.8334
▁bel	-10.8335
▁lewicy	-10.8335
▁francja	-10.8337
▁lepsze	-10.8338
▁podjęci	-10.8339
▁postacią	-10.834
▁międzynarodowym	-10.8342
▁intern	-10.8344
samo	-10.8345
▁gęstości	-10.8345
gs	-10.8347
▁fil	-10.8347
▁południowych	-10.8349
▁wiernych	-10.8357
▁metodę	-10.836
far	-10.8362
▁ostatnia	-10.8364
▁ostatniej	-10.8364
wald	-10.8365
mur	-10.8372
▁aplikacji	-10.8374
▁kary	-10.8375
▁katedr	-10.8376
▁bazyli	-10.8378
miasto	-10.838
▁nieprze	-10.8382
▁naturalnego	-10.8384
▁siła	-10.8385
▁wyspę	-10.8385
▁lublinie	-10.8386
▁1500	-10.8386
▁elementami	-10.8387
▁sprawę	-10.839
▁artyleryjski	-10.8392
▁międzynarodowa	-10.8392
▁biznes	-10.8392
▁osobą	-10.8392
▁żonę	-10.8392
▁upadek	-10.8392
▁ścisłe	-10.8392
▁słaby	-10.8392
▁wygrał	-10.8392
▁tarnowie	-10.8392
▁cenzur	-10.8394
wir	-10.8394
▁niewielki	-10.8396
▁wyników	-10.8396
▁mickiewicza	-10.8397
▁dniem	-10.8398
▁sha	-10.8398
kroniki	-10.8401
skr	-10.8401
▁val	-10.8407
▁mający	-10.8408
▁wolne	-10.8409
▁pracach	-10.841
▁zajmujący	-10.8412
wiązania	-10.8413
▁bri	-10.8415
▁rasy	-10.8417
▁założenie	-10.8417
zad	-10.8418
stka	-10.8418
▁sejmie	-10.8419
▁racji	-10.842
▁grama	-10.8421
▁stać	-10.8422
▁bied	-10.8423
▁mały	-10.8423
▁pozostając	-10.8424
▁krakowskiej	-10.8424
▁ukazała	-10.8429
▁paliwa	-10.8429
▁pozwoliło	-10.8431
dług	-10.8431
▁rzeczownik	-10.8432
▁szeroki	-10.8433
▁rozpuszcza	-10.8433
▁unika	-10.8434
▁aresztowani	-10.8434
▁wyższej	-10.8439
▁próba	-10.844
▁należący	-10.8442
▁sztab	-10.8447
▁zatok	-10.8449
▁wyzwolenia	-10.845
▁drewna	-10.845
▁wizerunk	-10.845
▁ochrona	-10.845
▁siódm	-10.845
▁lwowa	-10.845
▁patrol	-10.8452
▁przeliczeni	-10.8453
▁1906	-10.8454
▁islandii	-10.8455
▁turcji	-10.8456
▁matką	-10.8458
▁lewej	-10.8461
▁karty	-10.8463
▁przekroczył	-10.8464
▁białego	-10.8466
rian	-10.8469
ńczyk	-10.8473
▁doradc	-10.8474
▁francuskim	-10.8476
▁radziecki	-10.8478
▁znakiem	-10.848
▁wirnik	-10.848
▁kierunk	-10.8481
▁bir	-10.8482
▁zachodnią	-10.8484
▁monar	-10.8484
_8	-10.8493
▁późniejsze	-10.8493
▁dowodził	-10.8494
▁oblicze	-10.8494
▁pana	-10.8495
▁wrocław	-10.8496
mil	-10.8497
▁spe	-10.8498
▁tradycyjnych	-10.85
▁west	-10.8503
▁egipt	-10.8503
ukle	-10.8504
kazano	-10.8507
▁psychiatr	-10.8508
▁radiowe	-10.8508
▁pozycje	-10.8509
▁upowszechni	-10.8509
▁wprowadzone	-10.8509
▁zaproponowan	-10.8509
▁długotrwał	-10.8509
▁froncie	-10.8509
▁dziedzictwa	-10.8509
▁leonarda	-10.8509
▁wykonuje	-10.8509
▁akcje	-10.8509
▁czwarty	-10.8509
▁wydarzenie	-10.8509
▁pochodne	-10.8509
▁rozkwit	-10.8509
▁idee	-10.8513
▁free	-10.8518
▁barbar	-10.8518
▁ogromny	-10.8519
▁logo	-10.8523
▁stalina	-10.8525
▁fale	-10.8526
międzynarodowego	-10.8535
łożyć	-10.8538
niosła	-10.854
▁opublikowany	-10.8543
zosta	-10.8547
▁analogi	-10.8547
▁wyższa	-10.8549
▁wprost	-10.8558
▁gęst	-10.8559
▁wywodzą	-10.856
▁zdobyła	-10.8563
▁wiersze	-10.8563
▁zamiar	-10.8564
▁drogow	-10.8568
▁pseudo	-10.8568
▁abraham	-10.8568
▁dojrzał	-10.8568
▁otwiera	-10.8568
▁spożywczy	-10.8568
▁wałbrzych	-10.8568
▁współpraca	-10.8568
▁wykształcił	-10.8568
▁zatytułowan	-10.8568
▁zdobyli	-10.8568
▁odsłonięt	-10.8568
▁partię	-10.8568
▁położenia	-10.8568
▁kariery	-10.8568
▁uznać	-10.8568
▁prawdziwy	-10.8569
▁europejska	-10.8569
▁ruszył	-10.8569
▁tarnowski	-10.8569
▁piłka	-10.8569
▁pył	-10.8573
▁ukrywa	-10.8574
▁komunizm	-10.8574
▁podwodny	-10.8576
▁wnętrza	-10.8577
▁biała	-10.8579
▁sportu	-10.858
▁sosnow	-10.8584
▁kolejnego	-10.8584
▁formalne	-10.8584
▁przypuszcza	-10.8585
▁kolejowych	-10.8586
▁ji	-10.8589
seks	-10.8595
prócz	-10.8595
waniu	-10.8595
▁szeregu	-10.8595
lęg	-10.8596
▁podlegają	-10.8597
▁dokumentów	-10.8597
▁rzymskich	-10.8602
▁przedni	-10.8605
▁poślubił	-10.8605
grodzie	-10.8612
▁orbital	-10.8615
▁żydowskich	-10.8616
▁ograniczony	-10.8619
▁stałych	-10.862
▁kadr	-10.8622
▁przeszło	-10.8624
▁dyktator	-10.8628
▁handlowych	-10.8628
▁koncepcję	-10.8628
▁otwarcie	-10.8628
▁ukrainy	-10.8628
▁obóz	-10.8628
▁piosenki	-10.8628
▁pancerne	-10.8628
▁statut	-10.8628
▁miecz	-10.8628
▁obronie	-10.8628
▁tour	-10.8628
▁arabskie	-10.8631
▁10%	-10.8631
▁fry	-10.8633
▁przybywa	-10.8634
▁rośnie	-10.8634
▁moderniz	-10.8634
▁związan	-10.8637
▁pasma	-10.8638
▁mowy	-10.8639
▁hiper	-10.8641
▁posług	-10.8649
▁rosyjski	-10.8653
▁strefa	-10.8653
▁jednoznaczn	-10.8662
▁dworzec	-10.8663
▁sceny	-10.8666
▁fabryki	-10.8668
▁red	-10.8673
▁serial	-10.8682
▁ujścia	-10.8687
▁wykorzystał	-10.8687
▁ciepło	-10.8687
▁ołtarz	-10.8687
▁zbiorem	-10.8687
▁zbiorze	-10.8687
▁somali	-10.8688
▁leszka	-10.8691
▁lan	-10.8691
▁potwierdza	-10.8692
▁zachowany	-10.8694
▁złotych	-10.8697
3)	-10.8698
▁starym	-10.8701
▁lokalizacj	-10.8701
▁wybrał	-10.8701
▁terror	-10.8704
▁religijnym	-10.8705
nickiego	-10.871
▁tronu	-10.8718
▁śląski	-10.8721
▁parlamentarnych	-10.8722
zwłaszcza	-10.8726
▁dach	-10.8728
trakt	-10.8731
▁walka	-10.8731
przypadkow	-10.8731
maj	-10.8731
▁państwowy	-10.8732
▁mazowieckiego	-10.8735
▁demokratycznej	-10.8736
izowany	-10.8737
niemiecki	-10.8738
▁wysokim	-10.8741
▁przenika	-10.8744
czeniu	-10.8745
▁doświadcza	-10.8748
▁rumunii	-10.8748
▁tragedi	-10.8748
▁męża	-10.8748
▁mediolan	-10.8748
▁pojęć	-10.8748
▁zmysł	-10.8749
▁opadów	-10.875
▁kościelne	-10.875
▁samodzielne	-10.875
które	-10.8751
▁utrudnia	-10.8753
▁początkiem	-10.8755
▁poparł	-10.8757
▁jakiś	-10.876
▁filtr	-10.8762
▁arystoteles	-10.8764
hof	-10.8767
▁pacjent	-10.8768
pil	-10.8769
▁stałym	-10.877
sfery	-10.8771
▁śle	-10.8773
▁pisze	-10.8778
▁opór	-10.8778
▁bogate	-10.8783
▁sezonie	-10.8783
▁szczecinie	-10.8786
▁wprowadzony	-10.8789
▁kina	-10.8792
▁nieznane	-10.8793
▁prawdy	-10.8796
▁dalszym	-10.8801
▁ostatnią	-10.8802
onii	-10.8803
▁niewielkich	-10.8804
▁rabin	-10.8805
▁wykonywa	-10.8806
▁sięgają	-10.8806
▁kolejowej	-10.8807
▁1975–1998	-10.8808
▁koncepcje	-10.8808
▁konkretny	-10.8808
▁skierniewic	-10.8808
▁ustroju	-10.8808
▁wietnam	-10.8808
▁zajęcia	-10.8808
▁ojcem	-10.8808
▁przeszła	-10.8809
▁pozycja	-10.8809
wiązanie	-10.881
▁dub	-10.8811
▁krążowniki	-10.8811
▁upływ	-10.8812
▁większego	-10.8816
▁zmuszony	-10.8818
▁55	-10.882
▁równie	-10.8823
stop	-10.8824
▁silnym	-10.8826
▁organiczne	-10.8828
án	-10.8834
kult	-10.8835
▁aut	-10.8836
▁kanału	-10.8838
▁północnych	-10.8839
▁czarnej	-10.8841
▁odrębny	-10.8842
ido	-10.8844
▁liniowe	-10.8844
▁zawodowe	-10.885
▁światowego	-10.885
▁warunkiem	-10.885
▁ewa	-10.8852
▁osłon	-10.8853
▁komunikat	-10.8856
▁ele	-10.8857
▁ważnych	-10.8858
▁przetwarza	-10.8858
gg	-10.8858
▁oznaczające	-10.8859
prowadził	-10.8859
▁nos	-10.886
sis	-10.8864
▁renesans	-10.8865
▁but	-10.8868
▁konstrukcyjn	-10.8869
▁zbliżony	-10.8869
▁środek	-10.8869
▁michael	-10.8869
▁prowincja	-10.8869
▁oczekiwan	-10.8869
▁nadmiern	-10.8869
▁senior	-10.887
▁wznowi	-10.887
▁ogłoszon	-10.8874
▁małż	-10.8875
▁browar	-10.8875
▁przybyci	-10.8876
▁pokój	-10.8878
▁następstw	-10.8878
▁ludwika	-10.8878
▁bakteri	-10.888
▁opowieści	-10.888
▁mysz	-10.8881
▁lamp	-10.8882
▁sprzętu	-10.8886
▁minima	-10.8888
▁kij	-10.8888
▁rzeczpospolita	-10.889
▁następn	-10.889
▁wiedeński	-10.8893
szew	-10.8894
▁krajem	-10.8894
▁1863	-10.8898
▁katowicki	-10.8898
▁przekonanie	-10.8899
tona	-10.89
arstwo	-10.8901
▁czeka	-10.8905
▁hipotez	-10.8908
▁czu	-10.8909
▁pozbawiony	-10.891
▁długosz	-10.8912
▁przekazu	-10.8917
▁tysiące	-10.8918
ted	-10.8921
▁emil	-10.8923
▁trzecią	-10.8924
lnymi	-10.8928
▁opini	-10.8928
▁powstrzyma	-10.8931
▁przynależności	-10.8931
▁rękopis	-10.8931
▁wyczerp	-10.8931
▁marszałek	-10.8931
▁informacyjn	-10.8931
▁reakcje	-10.8931
▁bogiem	-10.8931
▁jednoczesn	-10.8931
▁departament	-10.8934
▁kanadzie	-10.8936
▁parki	-10.8938
▁warto	-10.8938
▁pełne	-10.8939
▁odrębne	-10.8939
▁festiwalu	-10.894
idy	-10.8941
inger	-10.8944
▁przedmiotów	-10.8945
▁istotną	-10.8947
▁rękach	-10.8953
▁zmarła	-10.8958
▁profil	-10.8958
▁niewielkim	-10.896
wrót	-10.8961
▁zalet	-10.8962
mart	-10.8963
luz	-10.8965
▁pełniąc	-10.8967
▁służbę	-10.8971
jedna	-10.8972
budowano	-10.8975
▁neu	-10.8976
wadze	-10.8977
▁opus	-10.8979
▁bezpieczeństwo	-10.8985
▁wykazały	-10.8988
▁syntezy	-10.8989
oskop	-10.8989
▁zakup	-10.899
analityczn	-10.8991
▁konkretne	-10.8992
▁więźniów	-10.8992
▁wątpliwości	-10.8992
▁gabinet	-10.8992
▁grudziądz	-10.8992
▁czerwoną	-10.8992
▁witold	-10.8992
▁komentarz	-10.8992
▁kryształ	-10.8992
▁założona	-10.8992
▁przyjęto	-10.8992
▁parafii	-10.8992
▁chmiel	-10.8992
▁opieki	-10.8993
▁flory	-10.8996
▁zachowań	-10.8997
▁weszły	-10.8997
▁dywizja	-10.8999
▁order	-10.9
▁1911	-10.9
▁śmi	-10.9003
field	-10.9006
▁organizmy	-10.9008
▁piłki	-10.9009
▁pomp	-10.901
przewodniczącego	-10.9017
▁perski	-10.9018
▁źródłach	-10.9027
nizm	-10.9027
▁grobow	-10.903
▁wykonanie	-10.903
▁ekran	-10.9031
▁mięs	-10.9031
▁dotyczył	-10.9032
▁wiatru	-10.9034
▁stuleci	-10.9038
mark	-10.904
ity	-10.9048
500	-10.9049
▁major	-10.905
▁kawaler	-10.9052
▁powodując	-10.9053
▁masę	-10.9054
▁cieśnin	-10.9054
▁college	-10.9054
▁opóźni	-10.9054
▁pierwiastka	-10.9054
▁świadczą	-10.9054
▁decyzja	-10.9054
▁koszalin	-10.9054
▁komputerowych	-10.9055
▁miękk	-10.9055
▁europejską	-10.9055
▁napięcia	-10.9055
▁prototyp	-10.9055
▁zajęli	-10.9055
▁ogólnopolski	-10.9055
▁węgiel	-10.9055
▁dywizjon	-10.9056
▁społeczność	-10.9056
▁treść	-10.9057
▁objęł	-10.9057
▁japońskie	-10.9063
▁utrzymanie	-10.9065
▁filmy	-10.9068
▁700	-10.9069
▁sportowych	-10.9072
▁prawej	-10.9074
▁pojawi	-10.9075
▁wroga	-10.9077
ges	-10.9077
czak	-10.9077
indoeuropejskich	-10.9078
▁fizycznych	-10.9089
▁afro	-10.9089
▁41	-10.909
▁tarcz	-10.9091
▁francuskie	-10.9091
▁pojawiał	-10.9094
▁paryski	-10.9097
szla	-10.9099
▁ue	-10.9101
▁ówczesnych	-10.9101
▁stosując	-10.9102
▁eg	-10.9106
▁buk	-10.9108
▁zachodniego	-10.911
▁północne	-10.9111
▁stanem	-10.9113
▁hinduizm	-10.9117
▁odróżnia	-10.9117
▁wymienić	-10.9117
▁zespołów	-10.9117
▁zapewnieni	-10.9117
▁spółka	-10.9117
▁zebrał	-10.9117
▁sześcio	-10.9118
dana	-10.9118
▁powodował	-10.9119
▁kosmiczny	-10.9119
▁legi	-10.9121
▁atmosferze	-10.9123
▁chłopc	-10.9124
▁wieży	-10.9124
nęło	-10.9129
▁inicjatyw	-10.9135
▁półwyspu	-10.9136
igh	-10.9141
▁mt	-10.9142
▁bat	-10.9143
▁trasa	-10.9146
▁pozostają	-10.9147
▁komunistycznej	-10.9147
żąc	-10.9149
▁artystyczny	-10.9149
ón	-10.9153
▁jakub	-10.9153
▁poemat	-10.9154
▁dziad	-10.9155
▁regulacj	-10.9159
wiedza	-10.9161
letnią	-10.9165
▁sprawach	-10.9166
▁pytanie	-10.9166
równoważn	-10.9166
▁znaczna	-10.9166
▁krótkim	-10.9167
wymiar	-10.9168
▁słoneczne	-10.9168
▁różnym	-10.9171
▁ogólnokształcąc	-10.918
▁odcinek	-10.918
▁dziecka	-10.918
▁national	-10.918
▁aktualnie	-10.918
▁technologiczn	-10.918
▁składników	-10.9181
▁komety	-10.9183
▁1908	-10.9184
▁fat	-10.9189
▁rop	-10.9192
▁mocz	-10.9194
▁jar	-10.9199
czę	-10.9199
▁kolejowa	-10.9199
▁zwycięstw	-10.92
▁umieszcza	-10.9201
▁leżące	-10.9204
▁judaizmu	-10.9204
▁bracia	-10.9204
▁zastosowan	-10.9207
▁spisan	-10.9208
▁aresztowany	-10.9212
▁psycholog	-10.9213
▁pojawiło	-10.9215
_9	-10.9217
▁zawierających	-10.9218
tłum	-10.9218
▁dokumenty	-10.9218
▁kulturę	-10.922
tet	-10.922
▁brod	-10.9221
▁znacznej	-10.9222
▁dotychczasowe	-10.9222
▁wszechświata	-10.9222
▁znacznym	-10.9226
▁artykułów	-10.9227
wel	-10.9229
▁przebudowa	-10.9233
▁dziełem	-10.9235
element	-10.9235
polska	-10.9235
▁kryterium	-10.9243
▁niewielką	-10.9243
▁względnie	-10.9243
▁względów	-10.9243
▁zwolennicy	-10.9243
▁grawitacyjne	-10.9243
▁rycerski	-10.9243
▁uznano	-10.9243
▁umiera	-10.9244
▁odmienne	-10.9244
▁historycy	-10.9244
▁wykorzystania	-10.9244
▁podległ	-10.9244
▁rodziców	-10.9245
▁air	-10.9246
▁all	-10.9246
▁nazywano	-10.9248
–13	-10.925
▁piór	-10.9251
▁syrii	-10.9251
▁rozmów	-10.9251
▁opady	-10.9252
▁michała	-10.9259
▁wzgórza	-10.9259
▁cechuje	-10.9262
▁przyniósł	-10.9264
▁brygad	-10.9264
▁społecznym	-10.9265
▁bojowych	-10.927
▁uczestników	-10.9272
▁wprowadzając	-10.9274
▁korpusu	-10.9278
▁ludy	-10.9279
▁komplet	-10.9283
łożeniu	-10.9283
▁czasopism	-10.9284
stri	-10.9286
▁mamy	-10.9289
▁wybrane	-10.9293
▁znaczny	-10.9295
dawane	-10.9296
▁pc	-10.9296
▁używania	-10.9297
▁bana	-10.9298
▁gw	-10.93
krzyż	-10.93
▁budowl	-10.9302
arki	-10.9302
▁występujących	-10.9302
zlikwidowan	-10.9306
kategoria	-10.9306
king	-10.9306
▁bliżej	-10.9307
▁fortepian	-10.9307
▁international	-10.9307
▁namiestnik	-10.9307
▁kalibru	-10.9307
▁determinizm	-10.9307
▁komisarz	-10.9307
▁rzeszów	-10.9308
▁wypełnia	-10.9309
enberg	-10.9309
▁kontekst	-10.931
sha	-10.9311
▁opisane	-10.9312
▁mniejszą	-10.9312
dam	-10.9315
▁strukturze	-10.9315
kara	-10.9315
▁tradycyjny	-10.9316
▁terytorialny	-10.9318
▁operacja	-10.9318
▁decydując	-10.9322
▁przepis	-10.9326
▁kierował	-10.9327
bajt	-10.9327
▁naturalnym	-10.9327
▁buddyzm	-10.9328
▁silnika	-10.9335
▁wykształcenie	-10.9338
▁rudy	-10.934
▁klimatyczn	-10.9341
▁traw	-10.9343
▁zobacz	-10.9343
▁szwajcar	-10.9344
▁geograficznych	-10.9346
▁pewnej	-10.9354
▁szlaki	-10.9358
▁używanych	-10.9361
▁wolnych	-10.9361
▁płynąc	-10.9362
▁historycznym	-10.9364
▁prezesa	-10.9366
glo	-10.9367
ciela	-10.9368
▁zarządu	-10.937
▁zdrad	-10.937
#	-10.9371
▁ekspozycj	-10.9371
▁norwegii	-10.9371
▁osiągnąć	-10.9371
▁patriotyczn	-10.9371
▁rozszerzenie	-10.9371
▁ujęciu	-10.9371
▁własność	-10.9371
▁magistra	-10.9371
▁niedługo	-10.9371
▁wczesnych	-10.9371
▁ożywi	-10.9372
▁dyskusji	-10.9372
▁wprawdzie	-10.9372
▁duchowny	-10.9372
▁urodzeni	-10.9372
▁sekcji	-10.9374
▁występować	-10.9378
▁otrzymali	-10.9381
zdrow	-10.9381
▁turystyki	-10.9381
ovi	-10.9382
bas	-10.9383
▁służące	-10.9394
▁czarnego	-10.9395
stry	-10.9395
▁młodego	-10.9396
▁bł	-10.9399
▁obecnego	-10.9404
▁powrotu	-10.9406
▁dawny	-10.9407
▁elektroniczne	-10.9408
▁stanowiący	-10.941
ré	-10.9414
▁narząd	-10.9414
▁wydziału	-10.9415
▁cierpi	-10.9416
ence	-10.9417
▁chile	-10.9419
ofil	-10.942
▁poetycki	-10.9423
kus	-10.9427
chot	-10.9431
▁najdłuższ	-10.9435
▁powstawania	-10.9435
▁prestiż	-10.9435
▁wrażenie	-10.9435
liber	-10.9436
▁nawiązał	-10.9436
▁wschodnią	-10.9437
▁symbole	-10.9438
▁obliczeń	-10.9439
▁nadaje	-10.944
▁powojenny	-10.944
▁anglik	-10.9442
acyjnym	-10.9443
▁bierze	-10.9444
▁dolnej	-10.9447
▁granicami	-10.9448
▁szu	-10.9449
▁pilot	-10.9449
▁spór	-10.945
▁mówić	-10.9451
▁określił	-10.9452
znani	-10.9453
▁stronach	-10.9454
▁czasopisma	-10.9459
▁stosowanych	-10.9462
▁przebiegu	-10.9464
▁terytorialne	-10.9466
▁odporn	-10.9467
opis	-10.9468
▁kompozytora	-10.9474
▁szczególne	-10.9475
▁tygodnik	-10.9478
▁pliku	-10.9478
▁stronnictwo	-10.9486
▁wskazując	-10.9489
▁obserwacj	-10.9493
koran	-10.9496
▁należących	-10.95
▁stolicę	-10.95
▁ustanowił	-10.95
▁wkroczył	-10.95
▁zamknięty	-10.95
▁zniszczenia	-10.95
▁adaptacj	-10.95
▁uzbrojenia	-10.95
▁cesarstwo	-10.95
▁mikroskop	-10.95
▁reklam	-10.9501
▁dystans	-10.9501
▁wyrażon	-10.9501
▁dowodów	-10.9503
▁1907	-10.9504
▁kawalerii	-10.9504
▁gustaw	-10.9505
▁państwami	-10.9508
właśc	-10.9509
zależnie	-10.9509
▁ali	-10.951
▁ruchem	-10.9512
▁ken	-10.9512
▁promowa	-10.9513
▁debat	-10.9514
▁zgodne	-10.9517
▁łask	-10.9517
▁fryderyka	-10.9519
▁centralnego	-10.9519
▁kozi	-10.9524
▁wzrostem	-10.953
▁tales	-10.953
sten	-10.9536
▁wydawał	-10.9536
-20	-10.9544
▁obwodnic	-10.9547
▁mord	-10.955
▁norman	-10.9555
▁osiągnięcie	-10.9555
andri	-10.9561
▁przypisywan	-10.9562
▁brytyjczycy	-10.9566
▁palestyny	-10.9566
▁bliźni	-10.9566
▁spotkać	-10.9566
▁chicago	-10.9566
▁istocie	-10.9566
▁architektura	-10.9567
▁zgadza	-10.9567
▁ziemią	-10.9569
ryzowa	-10.9569
▁potraw	-10.9571
▁nawiązując	-10.9571
▁tren	-10.9572
▁łup	-10.9572
▁sala	-10.9572
▁stanowisk	-10.9572
blok	-10.9572
▁odkryty	-10.9576
▁uczestniczy	-10.9577
▁twarz	-10.9578
▁mówił	-10.9581
▁deklaracj	-10.9581
▁dolinie	-10.9586
▁pul	-10.9586
▁największej	-10.9588
▁meteor	-10.9589
▁podzielony	-10.9592
obraz	-10.9595
▁użył	-10.9595
▁powszechnym	-10.9603
▁ekonomiczne	-10.9603
▁prote	-10.9606
dziesiąt	-10.9609
▁jasno	-10.9611
▁font	-10.9611
▁londynu	-10.9615
▁samobójstwa	-10.962
▁lenina	-10.9624
▁legendy	-10.9624
▁producentów	-10.9625
▁aparatu	-10.9627
▁jędrzej	-10.9631
▁finlandii	-10.9632
▁osobiście	-10.9632
▁pierwiastek	-10.9632
▁przynależność	-10.9632
▁referendum	-10.9632
▁siostry	-10.9632
▁wybrzeży	-10.9632
▁dłuższy	-10.9632
▁wtórn	-10.9632
▁szkocji	-10.9632
▁magnez	-10.9633
▁górnym	-10.9633
dawać	-10.9634
▁zmieniono	-10.9634
▁tożsamości	-10.9636
twarz	-10.9637
▁śnieg	-10.9642
▁wybierany	-10.9644
▁ukształtowan	-10.9644
▁barokow	-10.9644
▁ludzkie	-10.9646
▁wojskami	-10.9653
tos	-10.9654
cjusza	-10.9657
▁holender	-10.9661
▁pracowni	-10.9667
▁podwójne	-10.9671
▁obejmują	-10.9675
pełnienia	-10.9676
▁zachodni	-10.9677
▁bojowe	-10.9679
▁genetyczne	-10.9681
▁meksyku	-10.9682
olbrzym	-10.9683
▁dowództwa	-10.9684
▁kształcie	-10.9684
▁śląskie	-10.9686
▁teolog	-10.9687
▁aromat	-10.9691
zbiór	-10.9692
pośród	-10.9693
▁rozpadu	-10.9694
▁liczni	-10.9698
administracyjnie	-10.9698
▁mezopotamii	-10.9698
▁obserwuje	-10.9698
▁wyjścia	-10.9698
▁córką	-10.9698
▁ludzkich	-10.9698
▁obowiązuje	-10.9698
▁przełęcz	-10.9698
▁odsetek	-10.9698
▁regularne	-10.9698
▁obrońc	-10.9698
▁powietrzu	-10.9699
▁kosmos	-10.9699
▁otworzył	-10.9699
▁fermentacji	-10.97
▁oszacow	-10.97
▁stosować	-10.9701
▁towarzyszy	-10.9702
▁2,5	-10.9706
▁podobieństw	-10.9707
▁haw	-10.9708
noszenia	-10.971
▁muzyk	-10.9711
▁dotychczasowy	-10.9716
▁członkami	-10.9717
▁elektrycznej	-10.9718
rg	-10.9718
▁skupia	-10.9718
▁przemiany	-10.972
owicach	-10.9721
▁nov	-10.9722
▁nadając	-10.9722
chen	-10.9722
▁toczył	-10.9726
▁wódki	-10.9731
▁łacińskiej	-10.9732
styczna	-10.9736
▁występujący	-10.9737
▁górnego	-10.9737
▁dostępny	-10.9738
▁rozpoczęcie	-10.9739
▁52	-10.974
który	-10.9748
well	-10.9756
▁szerokie	-10.9759
tuż	-10.9761
▁fundament	-10.9762
wartości	-10.9762
tajemnic	-10.9763
▁funkcjonariusz	-10.9764
▁heinrich	-10.9764
▁kontrowersje	-10.9764
▁ostateczny	-10.9764
▁zapobiega	-10.9764
▁oskarżon	-10.9764
▁zakończenia	-10.9764
▁wiedzę	-10.9764
▁gliwic	-10.9764
▁odcinka	-10.9765
▁ozdob	-10.9765
▁kierownik	-10.9765
▁wyścig	-10.9765
▁białych	-10.9767
▁paleo	-10.9768
▁zasiada	-10.9771
▁aleksandrii	-10.9772
dzień	-10.9772
▁utrzymania	-10.9773
▁akcję	-10.9777
▁skazan	-10.9781
▁poświęcon	-10.9784
▁portal	-10.9785
jedn	-10.9786
▁równania	-10.9786
▁rannych	-10.9788
–10	-10.9789
▁neutron	-10.9791
trans	-10.9791
▁wspólny	-10.9792
awk	-10.9799
▁pomocniczy	-10.9801
▁bohaterów	-10.9808
▁logik	-10.9809
▁ludowego	-10.9809
▁dyplom	-10.9811
▁płat	-10.9812
▁strukturaln	-10.9813
▁zasadę	-10.9817
▁zmniejszenie	-10.9826
▁dwutlen	-10.9828
▁ciałem	-10.9829
▁dzierż	-10.9831
kąt	-10.9831
▁ksiąg	-10.9832
▁pokrewieństw	-10.9832
▁rekonstrukcj	-10.9832
▁oznaczenia	-10.9832
▁dziejach	-10.9832
▁podkarpac	-10.9832
▁japonia	-10.9832
▁półkuli	-10.9832
▁pierwsi	-10.9832
▁dziecko	-10.9832
▁licencji	-10.9832
▁osiadł	-10.9832
▁słowiańskich	-10.9833
funkcyjn	-10.9834
▁cyn	-10.9835
▁materiały	-10.9835
▁kilkakrotnie	-10.9836
▁obejmujący	-10.9838
▁układy	-10.984
▁użytkowa	-10.9842
▁doktor	-10.9842
▁starożytnej	-10.9842
▁dało	-10.9843
▁czar	-10.9843
▁użytkownik	-10.9844
▁ofert	-10.9844
▁opublikowane	-10.9844
▁zaatakowa	-10.9845
miast	-10.9845
▁przejęł	-10.9851
choć	-10.9853
przez	-10.9854
▁posiadające	-10.9855
podlaski	-10.9858
▁popularny	-10.9858
▁wschodniego	-10.9859
▁humanist	-10.9862
▁likwidacji	-10.9863
▁mięsa	-10.9866
▁pism	-10.9866
▁niższy	-10.9869
pływają	-10.9874
rzym	-10.9878
▁określonej	-10.9878
town	-10.9885
▁ówczesnej	-10.9889
malowan	-10.9891
▁liści	-10.9891
▁integr	-10.9893
▁nazwany	-10.9893
▁music	-10.9895
szły	-10.9897
▁ewangelick	-10.9899
▁atrybut	-10.9899
▁czechosłowacji	-10.9899
▁definicje	-10.9899
▁mężczyźni	-10.9899
▁publicznie	-10.9899
▁zauważył	-10.9899
receptor	-10.9899
▁kościołem	-10.9899
▁pozostali	-10.9899
▁wyznaniowe	-10.9899
▁pokojowy	-10.9899
▁zmusił	-10.9899
▁cywilny	-10.99
▁celtycki	-10.99
▁osadzon	-10.9901
kosz	-10.9901
▁zależne	-10.9902
▁babilon	-10.9902
▁operacyjnych	-10.9903
▁wyniósł	-10.9904
▁1913	-10.9905
▁pusty	-10.9908
▁górskich	-10.9916
▁pojęciem	-10.9917
▁odpowiedzialny	-10.9924
▁santa	-10.9926
▁magnetycznego	-10.9926
▁płaski	-10.9928
▁lokal	-10.9929
▁internetowych	-10.9929
▁komunistyczne	-10.9935
▁stawał	-10.9936
▁umieszczony	-10.9943
▁brygady	-10.9946
▁lotniska	-10.9947
▁igrzyska	-10.9948
▁bielski	-10.9948
▁kalisz	-10.9955
▁terapii	-10.9957
▁graficzne	-10.9958
fort	-10.9959
▁kalif	-10.996
landia	-10.9961
▁muzycznych	-10.9964
▁najwyższą	-10.9967
▁niemożliwe	-10.9967
▁rozróżnia	-10.9967
▁tradycje	-10.9967
▁wyróżnion	-10.9967
▁edukacja	-10.9967
▁mechaniczne	-10.9967
▁paradoks	-10.9967
▁uchwalon	-10.9967
▁soboru	-10.9967
▁wiedniu	-10.9967
▁mięśni	-10.9968
▁błędów	-10.9968
▁niezgod	-10.9968
▁włada	-10.9969
stawić	-10.9969
▁plastyczn	-10.997
▁leszek	-10.997
▁wypowiada	-10.9971
▁1904	-10.9971
▁naszej	-10.9978
▁opierał	-10.9982
▁cieszy	-10.9983
▁pierwotnego	-10.9983
▁arg	-10.9989
▁niewielkiej	-10.9994
▁statusu	-10.9994
▁zgrupowan	-10.9997
▁sali	-10.9999
iti	-11.0002
▁turysty	-11.0003
▁czarne	-11.0004
▁opracowania	-11.0005
▁buddy	-11.0006
▁metra	-11.001
▁drużyny	-11.0014
▁sel	-11.0018
▁obaj	-11.0019
▁towarów	-11.0022
▁feli	-11.0022
▁wojewódzkiego	-11.0023
▁wywodzący	-11.0024
▁łacińskim	-11.0026
▁bun	-11.0033
▁niezbędne	-11.0034
łożenie	-11.0035
▁koncentracj	-11.0036
▁najwyżej	-11.0036
▁przedsięwzię	-11.0036
▁wyrażenie	-11.0036
▁zakończenie	-11.0036
▁konwencji	-11.0036
▁spotkanie	-11.0036
▁dokładne	-11.0036
▁kończąc	-11.0036
▁potocznie	-11.0036
▁praktyczne	-11.0036
▁narodową	-11.0036
▁hamburg	-11.0037
▁zwłok	-11.0037
▁niezmienn	-11.0037
▁powoli	-11.0038
▁kampania	-11.0039
▁złoża	-11.0039
▁liczyła	-11.004
bun	-11.0044
▁forum	-11.0048
▁czynne	-11.0048
▁prostych	-11.0056
▁drukowan	-11.0057
▁uczy	-11.0061
fs	-11.0061
▁ważny	-11.0061
między	-11.0063
▁żydowski	-11.0064
▁zasadnicze	-11.0064
▁uczęszczał	-11.0068
▁poddan	-11.0068
▁zarządzania	-11.0068
▁bern	-11.0071
▁idealn	-11.0073
▁królewskiej	-11.0081
▁obiektem	-11.0088
atoli	-11.0089
▁turystyczny	-11.0091
▁kujawsk	-11.0095
▁archipelagu	-11.0096
▁fund	-11.0096
▁semi	-11.0099
▁wieloma	-11.0101
▁podstawowej	-11.0101
▁wyrazu	-11.0101
▁ignacego	-11.0105
▁interwencji	-11.0105
▁historycznie	-11.0105
▁sandomierski	-11.0105
▁zawdzięcza	-11.0105
▁zdarzenia	-11.0105
▁skutku	-11.0105
▁zabudowy	-11.0105
▁zakopane	-11.0105
▁kpn	-11.0105
▁posłowie	-11.0105
▁wniosku	-11.0105
▁prawosławne	-11.0106
▁madonna	-11.0106
▁kontynentu	-11.0107
▁leśne	-11.0107
▁datę	-11.0114
▁najwyższe	-11.0121
▁pyta	-11.0122
▁przejawia	-11.0123
▁zwyczajny	-11.0124
▁50%	-11.0128
▁rywalizacj	-11.0142
▁1890	-11.0142
▁zamieszkujący	-11.0143
▁zewnętrznych	-11.015
▁fizycznej	-11.0151
▁królewskiego	-11.0153
▁miesiąca	-11.0153
lista	-11.0153
▁filmowej	-11.0155
▁boku	-11.0157
▁prawny	-11.0157
wiązaniu	-11.0161
▁uległy	-11.0163
łącznie	-11.0167
▁odbywał	-11.0168
▁chłopi	-11.0171
▁ciężkich	-11.0173
▁początków	-11.0173
▁ubezpiecz	-11.0174
▁księdze	-11.0174
▁petersburg	-11.0174
▁wyjątkowo	-11.0174
▁zorganizowane	-11.0174
▁gniazd	-11.0174
▁ustalenia	-11.0174
▁skłonn	-11.0174
▁manewr	-11.0174
▁przypisuje	-11.0174
▁wysunięt	-11.0174
▁białoruski	-11.0174
▁delegacj	-11.0175
▁synonim	-11.0176
▁osobowe	-11.0176
▁doświadczenie	-11.0177
▁surowców	-11.0179
▁pokładzie	-11.0179
▁1909	-11.0179
▁oddech	-11.0179
▁arabskich	-11.018
▁górę	-11.0181
▁noszą	-11.0184
▁graniczne	-11.0184
stycznej	-11.0185
▁królestwie	-11.0195
▁wyposażenie	-11.0201
▁burz	-11.0202
niową	-11.0203
▁pustyni	-11.0205
▁całkowitej	-11.0206
▁godzinie	-11.0206
▁językowych	-11.0208
▁nieznany	-11.0208
▁głosi	-11.021
▁przekonan	-11.0213
▁zachodnia	-11.0214
▁sprzedan	-11.0215
▁mongol	-11.0217
ert	-11.0226
▁pian	-11.0228
_10	-11.0234
▁odnosząc	-11.0235
3,5	-11.0237
▁wyrazy	-11.0237
arstwa	-11.0238
▁lang	-11.0239
▁jakość	-11.024
▁bezrobocia	-11.0244
▁dorosłych	-11.0244
▁doskonale	-11.0244
▁zaludnienia	-11.0244
▁negatywne	-11.0244
▁samogłoski	-11.0244
▁gwiazdozbior	-11.0244
▁architektoniczn	-11.0244
▁odbudowy	-11.0244
▁styk	-11.0244
▁ucieczki	-11.0244
▁dnie	-11.0246
▁wzniesion	-11.0246
wrażliw	-11.0247
rzeź	-11.0248
▁pionier	-11.0249
▁łużyc	-11.025
▁stanowisku	-11.0253
▁kongresu	-11.0257
▁sodu	-11.0259
▁konstantynopola	-11.0259
▁wydana	-11.0261
sing	-11.0261
▁oceny	-11.0262
▁archeolog	-11.0265
▁autonomi	-11.0266
▁gazety	-11.0267
▁bratem	-11.0269
▁głową	-11.0269
▁azotu	-11.0272
▁cam	-11.0273
▁you	-11.0275
klas	-11.0278
▁chirurg	-11.0281
antów	-11.0282
▁medyczne	-11.0286
▁petr	-11.0287
▁krajowa	-11.0287
▁wchodząc	-11.0288
hur	-11.0289
▁pociągi	-11.0289
awdopodobieństwo	-11.0289
▁biegu	-11.0291
▁objawy	-11.0292
▁henry	-11.0293
▁umieszczone	-11.0293
▁grafiki	-11.0294
▁trzecie	-11.0294
▁zegara	-11.03
ącą	-11.0302
▁odkryte	-11.0304
▁uważano	-11.0306
▁rosyjskich	-11.0308
▁określony	-11.0312
▁seria	-11.0312
▁prezydenck	-11.0313
▁antoniego	-11.0313
historia	-11.0314
▁specjalnej	-11.0314
▁chromosom	-11.0314
▁przekształcenia	-11.0314
▁ostateczne	-11.0314
▁wydobywa	-11.0314
▁czerwona	-11.0314
▁epoce	-11.0314
▁otrzymują	-11.0314
▁chojnow	-11.0315
▁wielkanoc	-11.0315
▁pisząc	-11.0315
▁narodowa	-11.0315
▁szczególnym	-11.0315
▁dzielnik	-11.0316
▁pruskiego	-11.0317
▁belgii	-11.0318
▁szczególny	-11.0319
▁etapie	-11.0322
▁ideał	-11.0323
▁białek	-11.0326
▁skutecznie	-11.0333
▁wiedza	-11.0333
kowane	-11.0333
▁szkocki	-11.0334
znaczenie	-11.0336
▁20%	-11.0339
▁dzisiejszych	-11.034
chodzić	-11.0344
▁opracowany	-11.0347
▁obecnych	-11.035
tworzy	-11.0351
związk	-11.0352
▁porty	-11.0352
▁heli	-11.0356
▁słonecznym	-11.0356
▁technicznych	-11.0357
▁uzupełnia	-11.036
▁opada	-11.0363
▁ruchom	-11.0363
▁ciągłe	-11.0364
▁funkcjonowania	-11.0368
▁galii	-11.0371
▁rosja	-11.0372
▁tras	-11.0375
▁samobójstw	-11.0375
▁boas	-11.0377
ppe	-11.038
▁zainteresowan	-11.0382
▁radzieckiej	-11.0384
▁[...]	-11.0385
▁drożdż	-11.0385
▁hodowla	-11.0385
▁spektakl	-11.0385
▁zatrudnion	-11.0385
▁dwór	-11.0385
▁strumieni	-11.0385
▁obecna	-11.0385
▁kolagen	-11.0385
0,5	-11.0386
▁placówki	-11.0386
▁wiązań	-11.0386
▁akademia	-11.0388
▁jaskini	-11.0388
▁kwasów	-11.039
▁utrzymuje	-11.039
▁centralny	-11.0392
▁statystyk	-11.0395
▁krater	-11.0396
szczyzny	-11.0401
▁niewielka	-11.0402
▁całkowite	-11.0403
▁karolin	-11.0405
▁wynikają	-11.0405
▁prądu	-11.0406
▁wewnętrzny	-11.0406
▁aplikacj	-11.0407
▁zwanej	-11.0409
▁szwajcarski	-11.0411
▁wyborczej	-11.0413
strzeż	-11.0414
▁wiązanie	-11.0415
▁trop	-11.0418
▁izby	-11.0419
▁prędkością	-11.0423
masz	-11.0423
▁śpiew	-11.0425
▁ziemski	-11.0429
▁żagl	-11.0429
▁zwycięstwa	-11.043
▁greckich	-11.043
▁1830	-11.0435
▁komi	-11.0435
krot	-11.0438
▁arystotelesa	-11.0438
wieczny	-11.0439
▁hat	-11.0441
zbyt	-11.0443
▁wpłynęł	-11.0443
twem	-11.0448
alski	-11.0448
▁line	-11.0449
▁przyczynia	-11.045
ujemy	-11.0453
▁podzielona	-11.0457
▁szlachty	-11.0457
▁galeria	-11.0457
▁unesco	-11.0457
▁niskie	-11.0457
▁przyjęta	-11.0457
▁kombinacj	-11.0457
▁zezwol	-11.0457
▁ogień	-11.0457
▁pierre	-11.0457
▁lekarzy	-11.0457
▁samuel	-11.0458
▁łaciny	-11.0458
▁studiu	-11.0458
▁rolniczy	-11.0459
▁obsługuj	-11.0462
▁1901	-11.0462
▁szyk	-11.0463
▁acz	-11.0463
▁wschodnia	-11.0464
▁metropoli	-11.0464
▁otrzymać	-11.0465
▁klasyczne	-11.0466
▁telewizyjny	-11.0466
wędrow	-11.0466
▁umożliwił	-11.0468
▁leżący	-11.047
▁przejęt	-11.0473
▁policja	-11.0477
▁powłok	-11.0478
▁społeczeństwie	-11.0482
▁naczelnik	-11.0483
ianus	-11.0483
▁edycj	-11.0486
▁indywidualny	-11.0495
▁matematyczne	-11.0496
▁stałą	-11.0497
▁seksualne	-11.0498
liści	-11.0499
▁literackich	-11.0508
▁wyposażony	-11.0511
▁krytyki	-11.0516
gdzie	-11.0516
▁kolejna	-11.0517
▁ogon	-11.0517
bierają	-11.0518
▁wódz	-11.0518
▁wspominał	-11.0522
kraj	-11.0522
hall	-11.0527
▁istnieniu	-11.0529
▁religijna	-11.0529
▁spirytus	-11.0529
▁srebra	-11.0529
▁rozmaity	-11.0529
▁pułkownik	-11.0529
▁wymawia	-11.0529
▁dominuje	-11.0529
▁odmawia	-11.0529
▁zbudowana	-11.0529
▁indiach	-11.0529
kłopot	-11.0529
▁komunistyczny	-11.053
▁przemieszcza	-11.053
▁pisar	-11.053
▁zgodę	-11.0531
▁bośni	-11.0532
▁wybranych	-11.0536
▁przestępstw	-11.0538
▁piast	-11.054
▁standardowy	-11.0542
▁lwowsk	-11.0544
▁raka	-11.0545
▁napoleona	-11.0547
▁center	-11.0547
▁dobrym	-11.0552
▁słowacji	-11.0553
▁służyć	-11.0555
▁literackie	-11.0556
▁społeczny	-11.0565
▁odbyło	-11.0567
▁zagraniczne	-11.0568
post	-11.0569
▁najlepszych	-11.0569
▁kwark	-11.0571
▁napad	-11.0571
▁profesora	-11.0576
▁fryderyk	-11.0581
▁budżetu	-11.0584
▁prostej	-11.0585
▁wymagają	-11.0586
▁rzymskim	-11.0587
▁długich	-11.0591
program	-11.0591
▁tło	-11.0594
▁dyscypliny	-11.0595
▁wywołuj	-11.0598
▁leków	-11.0599
▁najstarszym	-11.0601
▁krótkich	-11.0601
▁krzywoustego	-11.0601
▁substancje	-11.0601
▁odcinku	-11.0601
▁korzyści	-11.0601
▁madryt	-11.0601
▁rozwiązań	-11.0601
▁dziejów	-11.0601
▁obliczu	-11.0601
▁ośmiu	-11.0601
▁okrągł	-11.0602
▁malarstwa	-11.0602
▁magnetyczny	-11.0602
▁zimą	-11.0609
▁roberta	-11.061
▁krakowsk	-11.0616
▁obliczenia	-11.0617
jczyk	-11.0618
▁elementu	-11.0618
▁prywatny	-11.062
▁rodzice	-11.062
▁zerwan	-11.0622
grze	-11.0624
▁zabaw	-11.0626
▁formacji	-11.0628
▁banku	-11.063
▁emisj	-11.0638
▁nauce	-11.0639
▁chemicznego	-11.064
▁najwyższych	-11.0641
▁wąski	-11.0644
▁archeologiczne	-11.0644
▁milion	-11.0645
arius	-11.0648
▁(0	-11.065
▁wydano	-11.0654
▁pozwalał	-11.0655
▁budowli	-11.0659
▁krajowych	-11.0659
▁saturna	-11.066
▁amerykańskim	-11.0664
vers	-11.0665
▁śląskiej	-11.0666
▁próbowa	-11.0668
▁śląskich	-11.067
▁transform	-11.0671
▁logiki	-11.0672
▁zatrudnia	-11.0674
▁eksploatacj	-11.0674
▁młodość	-11.0674
▁neptuna	-11.0674
▁pozostawił	-11.0674
▁suwerenn	-11.0674
▁zbliżone	-11.0674
▁jednostkę	-11.0674
▁zaburzeń	-11.0674
▁łącznej	-11.0674
▁białorusi	-11.0674
puścić	-11.0674
▁śluz	-11.0674
▁utrzymują	-11.0674
▁przemocy	-11.0674
▁instalacj	-11.0674
▁lotnictwa	-11.0676
cesar	-11.0677
▁przyznawan	-11.0677
▁operacje	-11.0677
gdy	-11.0678
▁dopuszczaln	-11.0678
▁komputerowe	-11.0678
▁geografii	-11.0678
▁parę	-11.0682
▁zaprzecz	-11.0684
▁jeleni	-11.0685
▁helu	-11.0685
▁człowiekiem	-11.0689
wiązuje	-11.0691
vis	-11.0692
med	-11.0699
▁bóstwa	-11.07
▁zmieniając	-11.0702
▁tysiąclecia	-11.0704
▁wyposażone	-11.0704
▁przyjmując	-11.0705
anti	-11.0705
▁hipotezę	-11.0706
nicę	-11.0707
▁organicznych	-11.071
▁ludowa	-11.0712
▁istoty	-11.0714
▁wilk	-11.0718
▁ogląd	-11.0719
▁trybie	-11.0721
ruski	-11.0724
▁termo	-11.0725
▁edycji	-11.0726
▁czynnikiem	-11.0728
▁napoleon	-11.0729
▁trzecia	-11.0735
▁przepisy	-11.0735
białej	-11.0736
▁przekraczając	-11.0739
▁organizowane	-11.074
▁spory	-11.0741
▁twierdzą	-11.0744
przeciw	-11.0745
▁towarzyszył	-11.0745
▁obserwator	-11.0747
▁filmowy	-11.0747
szczęśliw	-11.0748
▁ciężko	-11.0748
▁dokumencie	-11.0748
▁hemingway	-11.0748
▁ptolemeusz	-11.0748
▁rezolucj	-11.0748
▁wykorzystać	-11.0748
▁koalicja	-11.0748
▁politechnik	-11.0748
▁zniszczone	-11.0748
▁dzwon	-11.0748
▁zamieszkuje	-11.0748
łódź	-11.0748
▁uprawnienia	-11.0748
▁produkowany	-11.0748
▁popularna	-11.0748
▁zabójstw	-11.0748
▁samodzielny	-11.0749
▁widać	-11.0754
letniej	-11.0756
▁archipelag	-11.0757
▁społeczeństw	-11.0759
▁zalew	-11.0761
▁zmieniła	-11.0764
▁dotarła	-11.0766
części	-11.0769
▁najwyższego	-11.077
▁kompani	-11.0775
▁zwolennik	-11.0778
▁domowych	-11.078
▁zapoczątkowan	-11.078
▁pewno	-11.0781
▁gnieźnieński	-11.0782
▁wodór	-11.0783
▁stając	-11.0791
▁działacze	-11.0793
▁mennic	-11.0794
▁przepisów	-11.0794
–14	-11.0795
▁sad	-11.0798
religijny	-11.0799
źli	-11.0799
▁administr	-11.0802
▁rzymskie	-11.0804
▁wychowan	-11.0806
▁odbywały	-11.0814
▁moralne	-11.0814
▁hans	-11.0817
▁klasa	-11.0818
▁bizancjum	-11.0822
▁najsłynniejsz	-11.0822
▁prawdopodobne	-11.0822
▁wspomaga	-11.0822
▁współpracował	-11.0822
▁kościuszki	-11.0822
▁przedziale	-11.0822
▁utworzyli	-11.0822
▁narciarsk	-11.0822
▁informatyce	-11.0822
▁apple	-11.0822
▁mhz	-11.0822
▁militarne	-11.0823
▁wczesnym	-11.0823
▁odebran	-11.0823
▁dominika	-11.0824
tive	-11.0826
▁rozumieniu	-11.0829
▁państwowego	-11.0834
▁maine	-11.0836
zel	-11.0838
▁szpitalu	-11.0842
▁dialektów	-11.0844
▁rangi	-11.0845
▁prosto	-11.0846
–6	-11.0846
▁wzorowan	-11.0847
▁łączył	-11.0849
▁konstantynopol	-11.0851
▁sonda	-11.0852
▁gospodarz	-11.0854
▁atomy	-11.0855
▁karę	-11.0856
▁cap	-11.0858
▁obraca	-11.0862
▁wzywa	-11.0867
▁kanadyjski	-11.0868
▁wojskową	-11.087
▁możliwych	-11.087
▁html	-11.0871
ball	-11.0872
łączy	-11.0872
▁rozmiary	-11.0873
chrześcijańskiej	-11.0873
▁szkic	-11.0876
▁położonych	-11.0877
▁małym	-11.0877
▁uchodzi	-11.0881
▁chemicznej	-11.0882
▁fabryk	-11.0886
▁ogłoszono	-11.0892
▁inwestycji	-11.0896
▁klaudiusz	-11.0896
▁konstelacj	-11.0896
▁protokół	-11.0896
▁zwiększenia	-11.0896
▁opowiedział	-11.0896
▁zależność	-11.0896
▁przybliżeniu	-11.0896
▁przywódcy	-11.0896
▁warsztat	-11.0896
▁głąb	-11.0897
▁szampan	-11.0897
▁zajęcie	-11.0897
▁obronę	-11.0897
▁własnością	-11.0897
▁marynarz	-11.0897
▁tarnowa	-11.0898
▁umarł	-11.0898
powietrz	-11.0899
▁papieski	-11.09
▁sprawdza	-11.0901
▁leśny	-11.0902
▁zapach	-11.0904
▁przeciwników	-11.0908
miar	-11.0908
kultura	-11.0911
▁mołdawski	-11.0913
▁znalezion	-11.0914
▁towarow	-11.0914
▁rozpoczęło	-11.0915
▁poznanie	-11.0918
▁ludowych	-11.092
▁wyż	-11.092
▁anioł	-11.0922
▁40%	-11.0925
▁reszty	-11.0926
▁podlegał	-11.0927
▁nazywamy	-11.093
▁immuno	-11.093
▁krz	-11.0932
▁odgrywał	-11.0938
▁farm	-11.094
▁indywidua	-11.0941
czonych	-11.0942
▁filozofów	-11.0942
▁1815	-11.0944
▁kawa	-11.0949
time	-11.0956
▁uzyskanie	-11.0958
danych	-11.0961
▁odniósł	-11.0962
▁grab	-11.0963
▁twór	-11.0963
▁hen	-11.0965
▁ciąży	-11.0969
▁następcy	-11.0972
▁restauracj	-11.0972
▁upamiętnienie	-11.0972
▁zastosowań	-11.0972
▁równowagi	-11.0972
▁uruchamia	-11.0972
▁wskazywał	-11.0972
▁negatywny	-11.0972
▁kwestie	-11.0972
▁portugalii	-11.0972
▁karierę	-11.0972
▁podobną	-11.0972
▁mahomet	-11.0972
▁ministerstwa	-11.0973
▁oscar	-11.0975
▁szacowan	-11.0976
▁historycznej	-11.0978
▁małżeństw	-11.0979
▁tokio	-11.0982
▁znaną	-11.0982
▁ładunk	-11.0983
_13	-11.0984
▁produkcyjn	-11.0984
▁potocki	-11.0985
rażenia	-11.0987
▁kół	-11.0987
▁głosowania	-11.099
▁niezależny	-11.0993
haus	-11.0995
▁kopernika	-11.0997
▁pretor	-11.0999
▁etnicznych	-11.1004
▁tureckie	-11.1005
▁aresztowa	-11.1009
▁celach	-11.1011
▁dworca	-11.1012
▁pełnej	-11.1012
▁okresem	-11.1013
▁monarchii	-11.1014
▁piastów	-11.1015
▁generalny	-11.1022
▁panował	-11.1028
▁koza	-11.1028
▁zawodnik	-11.103
▁sowieckie	-11.1031
▁napędu	-11.1033
▁mieścił	-11.1035
▁trzeciego	-11.1035
▁obszarem	-11.104
▁beethoven	-11.1047
▁decyzje	-11.1047
▁francuska	-11.1047
▁pieniędzy	-11.1047
▁samoobrony	-11.1047
▁zainstalowan	-11.1047
▁założono	-11.1047
▁zwycięski	-11.1047
▁oskarżeni	-11.1047
▁ustalono	-11.1047
▁zaliczyć	-11.1047
▁komedii	-11.1047
▁pokolenia	-11.1047
▁stołeczn	-11.1047
▁węzła	-11.1047
▁drewniany	-11.1047
▁licznymi	-11.1047
▁uprzedni	-11.1048
dostęp	-11.1049
▁teodor	-11.1049
▁sugerują	-11.1049
▁ogrzewa	-11.1049
▁otoczenia	-11.1049
▁dziesięcioleci	-11.1049
▁podają	-11.1049
▁law	-11.105
▁przeżywa	-11.1052
▁powiązane	-11.1054
▁okolice	-11.1058
niosło	-11.1058
▁prawnych	-11.1059
▁reżyserii	-11.1061
▁obcych	-11.1061
▁jąder	-11.1063
▁opat	-11.1065
żał	-11.1067
▁samoloty	-11.1068
▁dba	-11.1072
▁panny	-11.1076
▁traktowane	-11.1077
▁historyczny	-11.1077
▁1896	-11.1081
▁szal	-11.1084
▁mir	-11.1085
▁ograniczenie	-11.1094
▁choćby	-11.1095
nton	-11.1097
▁powszechnych	-11.1098
▁opuszcza	-11.11
rada	-11.1101
▁toru	-11.1106
▁buddyjski	-11.1113
▁peter	-11.1115
▁wojskowym	-11.1116
▁pomniki	-11.1117
▁www	-11.112
▁krzyżem	-11.1121
▁wolnym	-11.1122
▁auschwitz	-11.1124
▁kilkudziesięciu	-11.1124
▁konstrukcje	-11.1124
▁merkurego	-11.1124
▁utworzona	-11.1124
▁zresztą	-11.1124
▁aminokwas	-11.1124
▁oktawian	-11.1124
▁prekursor	-11.1124
▁termodynamiczn	-11.1124
▁mieczysław	-11.1124
▁vincent	-11.1124
▁brutto	-11.1124
▁otoczenie	-11.1124
▁poczucie	-11.1124
▁posąg	-11.1124
▁odkryć	-11.1124
▁zanotowan	-11.1125
▁podziemne	-11.1125
▁ludowe	-11.1125
▁miejskim	-11.1126
▁zaufan	-11.1126
▁wojskowa	-11.1128
▁oddzielon	-11.1129
▁wirusa	-11.1132
▁wraca	-11.1136
▁mistrzostwa	-11.1137
▁tezę	-11.1144
▁pól	-11.1144
▁piec	-11.1145
▁igrzysk	-11.1146
czący	-11.1146
▁rozkładu	-11.1146
▁częściach	-11.1153
klę	-11.1155
▁oficjalnym	-11.1155
▁bliskim	-11.1156
▁olimpijskich	-11.1158
▁opozycyjn	-11.1158
▁hiszpańs	-11.1161
▁antoniusz	-11.1161
▁odpowiadał	-11.1161
▁odstęp	-11.1163
▁wykształceni	-11.1163
▁wyrażał	-11.1165
▁królowi	-11.117
▁wspólnej	-11.1172
▁operacyjne	-11.1173
▁wodnej	-11.1174
hydr	-11.1176
▁zbadan	-11.1177
ryjski	-11.118
▁dym	-11.1185
▁zawody	-11.1185
▁legionów	-11.1188
▁import	-11.1188
rydz	-11.1198
▁suchy	-11.1198
▁francis	-11.1199
▁dziesięć	-11.1201
▁inwazji	-11.1201
▁językoznawc	-11.1201
▁wizerunek	-11.1201
▁zarzuca	-11.1201
▁paracetamol	-11.1201
▁tworzeniu	-11.1201
▁komunikacyjne	-11.1201
▁badawczy	-11.1201
▁nagroda	-11.1201
▁wyrzutni	-11.1201
▁organizacją	-11.1201
▁pełno	-11.1202
▁biblijne	-11.1206
▁centralnym	-11.1206
▁dostępnych	-11.1212
▁rozłam	-11.1212
▁hiszpania	-11.1215
▁nierówn	-11.1217
▁złożonych	-11.1222
▁przeżył	-11.1223
▁profesjonal	-11.1224
lewski	-11.1224
▁dochodziło	-11.1227
▁przedział	-11.1233
▁student	-11.1238
▁otacza	-11.1245
▁okazały	-11.1246
▁burt	-11.1253
▁wyprowadz	-11.1254
▁wykonywane	-11.1256
▁pobyt	-11.1257
▁przyrząd	-11.1257
łoby	-11.1259
▁średnich	-11.126
▁równanie	-11.1267
lag	-11.1268
ves	-11.1269
▁charakteryzują	-11.1273
▁przebiegają	-11.1273
lement	-11.1275
▁belg	-11.1275
▁empiryczn	-11.1278
▁kompresji	-11.1278
▁szeroką	-11.1278
▁zanieczyszczeni	-11.1278
▁zapewnić	-11.1278
▁znaleźli	-11.1278
▁usytuowan	-11.1278
▁aborcji	-11.1278
▁produkowane	-11.1278
▁rytuał	-11.1278
▁prostokąt	-11.1278
▁burgund	-11.1278
▁poseł	-11.1279
▁wykrywa	-11.1279
▁multi	-11.1279
▁próżni	-11.1279
▁twórcą	-11.128
zając	-11.128
▁używanie	-11.128
▁dominował	-11.1281
▁ramienia	-11.1282
▁przyciąga	-11.1284
▁okoliczny	-11.1286
▁powietrzne	-11.1287
▁dysponował	-11.1287
▁90%	-11.1295
gul	-11.1297
▁siarki	-11.1297
▁wyborczego	-11.1298
▁amator	-11.1298
▁urodzin	-11.1299
▁dąb	-11.1301
▁pomiaru	-11.1301
▁składając	-11.1312
▁zaliczane	-11.1313
▁lekarski	-11.1313
▁trasie	-11.1316
klucz	-11.1316
▁testamentu	-11.1318
▁orto	-11.132
▁obce	-11.1325
▁zmienne	-11.1325
▁wilhelma	-11.1326
ish	-11.1327
▁azja	-11.1328
▁materialne	-11.1328
▁żyjących	-11.1331
▁wykorzystywana	-11.1332
▁śląskim	-11.1333
▁odpowiedniej	-11.1335
▁skierowany	-11.134
▁internetowe	-11.1341
polis	-11.1343
▁podobieństwo	-11.1345
▁prawda	-11.1345
puszczenie	-11.1346
▁konsekwencj	-11.1347
▁romans	-11.1348
▁wysokiego	-11.1355
▁floren	-11.1355
▁organizator	-11.1355
▁wodach	-11.1356
▁przechodząc	-11.1356
▁rozgrywk	-11.1356
▁amsterdam	-11.1356
▁mnogości	-11.1356
▁odniesienia	-11.1356
▁przyszłego	-11.1356
▁współczesna	-11.1356
▁dłużej	-11.1356
▁religią	-11.1356
▁odrodzenia	-11.1356
▁london	-11.1356
▁dochodów	-11.1356
▁drewniane	-11.1356
▁łacinie	-11.1356
▁obozie	-11.1357
▁głośn	-11.1357
▁żywioł	-11.1357
▁nieustann	-11.1357
cker	-11.1358
▁żywych	-11.1358
▁wodzą	-11.1359
▁biblijny	-11.1361
▁pozbawi	-11.1363
▁składające	-11.1363
▁gospodarce	-11.1365
▁sondy	-11.1365
▁zjawiskiem	-11.1365
organizowano	-11.1367
▁przekształcił	-11.1369
▁doprowadzić	-11.1371
▁80%	-11.1373
▁statystyczne	-11.1375
arium	-11.1376
letniego	-11.1384
▁literacki	-11.1385
▁rosją	-11.1385
sena	-11.1385
▁błąd	-11.1389
▁automatyczn	-11.1389
▁oddał	-11.1389
▁sanskr	-11.1389
▁zamieszkiwało	-11.139
▁badaniem	-11.1391
▁pieniądze	-11.1391
▁ziemskiego	-11.1393
▁wyższego	-11.1397
▁europejskim	-11.1397
▁godz	-11.1398
klej	-11.1401
▁sierp	-11.1402
▁met	-11.1403
▁regularny	-11.1405
▁jakuba	-11.1408
_15	-11.1411
▁zachowane	-11.1412
▁dogmat	-11.1415
▁łączą	-11.1416
▁japoński	-11.1419
▁sara	-11.1419
▁wzajemnie	-11.1419
gun	-11.1421
▁zastosowano	-11.1428
▁ogółem	-11.1429
▁czap	-11.143
▁radzi	-11.1431
▁urzędowym	-11.1432
xx	-11.1432
▁etymolog	-11.1433
▁debiut	-11.1435
▁klauzul	-11.1435
▁poświęcił	-11.1435
▁protokołu	-11.1435
▁włączone	-11.1435
▁węzeł	-11.1435
▁wyznań	-11.1435
▁partią	-11.1435
▁reżim	-11.1435
▁dostarczy	-11.1435
▁grzyw	-11.1436
▁france	-11.1436
tent	-11.1437
bolszewi	-11.1438
▁zwalczania	-11.1438
▁upadł	-11.1439
trój	-11.1439
▁ojczyzny	-11.144
rand	-11.144
▁pokonani	-11.1442
▁przeszły	-11.1445
▁grał	-11.145
▁rejestru	-11.1451
▁ośmio	-11.1451
▁wykonawczy	-11.1452
▁wolny	-11.1453
▁stad	-11.1456
▁pozbawione	-11.1459
▁publiczny	-11.1459
▁dziki	-11.146
elli	-11.1464
▁state	-11.1464
▁pierwotnej	-11.1464
_12	-11.147
▁gospodar	-11.147
▁fosfor	-11.1471
▁matematycznej	-11.1471
▁180	-11.1472
▁oficjalnych	-11.1472
▁częste	-11.1472
▁ciągle	-11.1472
▁wieloletni	-11.1479
pomorskie	-11.1482
▁piosenka	-11.1484
▁komendy	-11.1484
▁ilościach	-11.1484
▁badacz	-11.1485
ywano	-11.1486
hand	-11.1488
tol	-11.1489
▁szefem	-11.1491
styl	-11.1493
▁lądowe	-11.1494
▁zamieszkując	-11.1499
▁inf	-11.1502
▁zasługi	-11.1507
▁włoskiego	-11.1511
pacyfi	-11.1513
▁gwinei	-11.1514
▁oświecenia	-11.1514
▁urugwaj	-11.1514
▁zatwierdzon	-11.1514
▁waszyngton	-11.1514
▁uderzenie	-11.1514
▁rozwiązywa	-11.1514
▁federacji	-11.1514
▁podatków	-11.1514
▁pięknych	-11.1515
▁york	-11.1515
▁wiarę	-11.1516
▁słup	-11.1517
▁kilkuset	-11.1517
▁etyki	-11.1518
▁koloru	-11.152
▁książ	-11.1522
▁lokalnego	-11.1523
▁stworzyć	-11.1527
▁wychodzi	-11.1528
▁uwzględnia	-11.1528
tysięczn	-11.1532
▁zmierza	-11.1536
▁dmowski	-11.1537
▁wymienionych	-11.1537
▁bałtyku	-11.1539
▁wieczorem	-11.1543
▁ruf	-11.1546
▁ułatwia	-11.1546
ctwa	-11.1548
▁przyjąć	-11.1551
▁słynne	-11.1551
▁wynikające	-11.1556
▁1899	-11.1557
▁miary	-11.1558
▁norw	-11.1565
▁orp	-11.1565
▁rozpoczęcia	-11.1566
▁działalnością	-11.1566
▁fragmentów	-11.1568
▁zabija	-11.1568
▁ciągły	-11.1571
▁używają	-11.1575
▁wspólnym	-11.1576
▁kuli	-11.1577
▁poważnie	-11.1579
▁skazany	-11.1581
▁firmę	-11.1586
▁uważali	-11.1588
▁powstawanie	-11.1594
▁przywódców	-11.1594
▁substancja	-11.1594
▁tradycją	-11.1594
▁wikipedii	-11.1594
▁współrzędnych	-11.1594
▁wzmacnia	-11.1594
▁komisję	-11.1594
▁londyński	-11.1594
pomarańcz	-11.1594
▁rozpuszczalnik	-11.1595
▁kryminal	-11.1595
▁polecenie	-11.1595
▁boże	-11.1595
▁załoga	-11.1599
▁gest	-11.16
▁oczyszcza	-11.16
▁prawicow	-11.16
▁umożliwiło	-11.1601
relig	-11.1603
▁postępowania	-11.1604
ort	-11.1607
▁linią	-11.161
▁szabat	-11.1611
▁ludowy	-11.1617
▁atomu	-11.1617
▁pasz	-11.1621
▁atomowej	-11.1623
▁tłumaczenie	-11.1627
▁teologii	-11.1628
kazania	-11.1628
▁wójt	-11.1628
▁jonów	-11.1629
▁sztucznych	-11.1634
▁miliony	-11.1636
▁źródłowy	-11.1638
▁wyrazem	-11.1641
▁radnych	-11.1644
▁rodzinne	-11.165
▁herman	-11.1657
▁wyżyny	-11.1657
▁osiągnęła	-11.1658
niosły	-11.1661
▁regi	-11.1665
życz	-11.1667
owcami	-11.1671
podobnie	-11.1674
▁agresji	-11.1675
▁całkowita	-11.1675
▁egzekucj	-11.1675
▁inspektor	-11.1675
▁konstytucję	-11.1675
▁społeczną	-11.1675
▁upamiętniając	-11.1675
▁uruchomieni	-11.1675
▁średniowiecze	-11.1675
▁historyczna	-11.1675
▁żadna	-11.1675
▁philip	-11.1675
▁pokrewn	-11.1675
▁zajęte	-11.1676
▁gminie	-11.1676
▁twierdzeń	-11.1676
▁niemcom	-11.1676
▁daszyński	-11.1676
▁węgry	-11.1676
▁zwierzchnictw	-11.1677
▁wcielon	-11.1677
▁komiks	-11.1678
jwybitniejszych	-11.1679
łamach	-11.1679
▁tarnów	-11.1679
▁zbudował	-11.168
▁spadku	-11.1683
▁dokumentach	-11.1687
▁filozofię	-11.1689
▁średnią	-11.1691
klasy	-11.1697
targ	-11.1697
▁utrzymywani	-11.1698
▁operacyjnego	-11.1698
▁pożaru	-11.1699
▁nauką	-11.1703
▁planie	-11.1705
▁algebra	-11.171
▁wewnętrznego	-11.1711
duży	-11.1711
▁widział	-11.1711
▁cieszyński	-11.1711
▁1889	-11.1712
▁przeję	-11.1712
▁stałego	-11.1717
▁pełny	-11.1719
▁sportowy	-11.172
▁czysto	-11.1724
▁literackiego	-11.1724
▁kulturą	-11.1725
▁dziedzinach	-11.1726
▁postawion	-11.1729
▁rur	-11.1732
ör	-11.1732
_11	-11.1732
▁zakładał	-11.1732
▁pieśń	-11.1733
▁niezależnych	-11.1733
▁powszechny	-11.1737
▁przyłączeni	-11.1737
▁1850	-11.1738
▁chronione	-11.1745
!"	-11.1746
▁opierając	-11.1747
4,5	-11.1748
▁zrezygnowa	-11.1749
▁dużego	-11.1751
▁linux	-11.1751
▁esperanto	-11.1756
▁informację	-11.1756
▁kształceni	-11.1756
▁udokumentowan	-11.1756
▁umiarkowany	-11.1756
▁horyzont	-11.1756
▁komunikację	-11.1756
▁rzemiosł	-11.1756
▁łatwiej	-11.1756
▁kontrolą	-11.1756
▁uniknąć	-11.1756
▁warunek	-11.1756
▁przypadek	-11.1756
▁apollo	-11.1756
▁hetman	-11.1756
▁władcą	-11.1757
▁anny	-11.1757
▁podobna	-11.1757
▁talent	-11.1757
▁przybyli	-11.1757
▁hormon	-11.1758
▁promocj	-11.176
▁1902	-11.1761
▁jeńców	-11.1762
▁ostry	-11.1764
▁ambasador	-11.1771
▁prasy	-11.1773
▁podstawowa	-11.1777
american	-11.1777
▁wstrzyma	-11.1778
▁poświęcone	-11.1779
▁całkowitego	-11.178
▁wysłany	-11.1783
▁białe	-11.1784
▁zawierać	-11.1785
▁ostra	-11.1786
▁redukcji	-11.1787
▁takson	-11.1792
▁zwiększył	-11.1792
▁opinie	-11.1793
▁aktywne	-11.1795
▁współczesny	-11.1796
▁ibm	-11.1808
▁wyprawę	-11.181
▁sygnału	-11.181
▁chińskich	-11.1811
▁japońskich	-11.1813
▁utrzyman	-11.1815
izacją	-11.1815
istycznej	-11.1819
▁słyn	-11.1822
▁ograniczon	-11.1827
_14	-11.1828
▁europa	-11.1829
▁miejscowych	-11.1829
▁szlaków	-11.1831
_16	-11.1831
rzucone	-11.1832
▁europejskie	-11.1833
▁amunicji	-11.1838
▁kompromis	-11.1838
▁międzynarodową	-11.1838
▁obowiązywał	-11.1838
▁rozmaite	-11.1838
▁zauważyć	-11.1838
▁napięcie	-11.1838
▁tektoniczn	-11.1838
▁umowę	-11.1838
▁ważniejszych	-11.1838
▁pojemności	-11.1838
▁podejścia	-11.1838
▁szczycie	-11.1838
▁dam	-11.1838
▁kardynał	-11.1838
▁uciekł	-11.1839
▁chleb	-11.1839
▁kronikarz	-11.1839
▁prawosławny	-11.1839
▁royal	-11.1839
▁zamyka	-11.1839
▁prezydenckich	-11.184
▁personal	-11.184
▁reszta	-11.1841
▁radiowych	-11.1841
▁fundamentaln	-11.1842
▁osadników	-11.1845
▁opowiadań	-11.1846
▁wykup	-11.1847
▁prorok	-11.1853
▁elektrycznego	-11.1854
200	-11.186
▁krajowe	-11.186
także	-11.1866
▁350	-11.1866
▁zewnętrzny	-11.1866
▁starożytny	-11.1866
▁okupacyjn	-11.1868
tekst	-11.1868
▁liturgii	-11.187
history	-11.1871
▁1888	-11.1875
▁wehrmachtu	-11.1876
▁kręgu	-11.1878
▁sojuszu	-11.1882
▁atlanty	-11.1887
▁cywilne	-11.1888
▁suche	-11.1889
▁honorowy	-11.1893
▁pełnym	-11.1893
przestrzen	-11.1894
▁pisane	-11.1897
▁muzycznej	-11.1898
▁trzydziest	-11.1912
▁eter	-11.1912
▁radzieckim	-11.1913
▁przedsiębiorc	-11.1913
400	-11.1916
▁centralnych	-11.1916
▁dalszego	-11.1917
▁mojżesz	-11.1921
▁muzułmanów	-11.1921
▁ochronę	-11.1921
▁parlamencie	-11.1921
▁półwysep	-11.1921
▁społeczna	-11.1921
▁stworzone	-11.1921
▁teoretyczne	-11.1921
▁dziennie	-11.1921
▁słabsz	-11.1921
▁podziale	-11.1921
▁uznawał	-11.1921
▁kampanię	-11.1921
▁romantyzm	-11.1921
▁piłkarski	-11.1921
▁końcowe	-11.1921
▁szersze	-11.1921
▁spręż	-11.1922
▁spodziewa	-11.1922
▁potasu	-11.1922
▁najważniejszą	-11.1922
▁przeprowadzenia	-11.1922
▁małżeński	-11.1923
▁ważniejsze	-11.1923
▁reprezentuje	-11.1923
▁naukowcy	-11.1923
▁przesuwa	-11.1923
▁wyznaczony	-11.1923
▁algier	-11.1923
▁ostre	-11.1924
turecki	-11.1926
▁psychologii	-11.1926
▁wnuk	-11.1927
▁odczuwa	-11.1928
▁boży	-11.1932
▁wolę	-11.1932
▁władzą	-11.1933
rekreacyjn	-11.1935
▁kątem	-11.1936
▁odpowiednikiem	-11.1937
▁qua	-11.1941
▁psychiczny	-11.1942
▁skoro	-11.1942
▁żołnierza	-11.1943
awdopodobieństwa	-11.1945
człowiek	-11.1946
dawniej	-11.1946
raża	-11.1947
▁sformułował	-11.1948
▁możliwy	-11.195
▁konwoj	-11.1954
▁podgrup	-11.1955
▁okrętami	-11.1956
iadkowie	-11.1956
orator	-11.1958
▁1864	-11.1958
▁1897	-11.1958
▁koszty	-11.1958
osfera	-11.196
▁konsekwencją	-11.196
▁1895	-11.1967
▁żydowskie	-11.1967
▁resztę	-11.197
▁niezwykł	-11.1972
ijn	-11.1974
▁planów	-11.1978
▁naprawdę	-11.198
▁starych	-11.198
płyn	-11.1982
▁producentem	-11.1986
▁jedne	-11.1986
▁popularnym	-11.1988
▁wpisane	-11.199
tō	-11.1993
▁klęski	-11.1994
jaś	-11.1995
▁chiński	-11.1998
▁artykule	-11.2004
▁kartezjusz	-11.2004
▁następcą	-11.2004
▁uzyskując	-11.2004
▁monachium	-11.2004
▁zamordowany	-11.2004
▁zorganizowany	-11.2004
▁zaowocował	-11.2004
▁pewnością	-11.2004
▁sułtan	-11.2004
▁gwałtowny	-11.2004
▁rozszerzon	-11.2004
refleks	-11.2004
▁zaznacza	-11.2004
▁argumentów	-11.2004
▁artysta	-11.2004
▁badawcze	-11.2004
▁sikorski	-11.2004
▁wierzenia	-11.2005
skorup	-11.2005
▁wapnia	-11.2006
▁utworzeniu	-11.2006
▁identyczne	-11.2006
▁tłumaczenia	-11.2007
▁krytykowa	-11.2008
▁poselski	-11.2009
▁niszczycieli	-11.201
cień	-11.201
owując	-11.201
▁zmniejszeni	-11.2011
▁hasła	-11.2011
▁myślenia	-11.2017
▁parametry	-11.2017
franc	-11.2018
▁doktryny	-11.202
▁spełniają	-11.2023
▁zasob	-11.2027
▁dostosowan	-11.2028
▁wyborcze	-11.2034
▁pomorze	-11.2036
olodzy	-11.2042
▁powodują	-11.2042
▁początkach	-11.2043
żywot	-11.2044
▁największego	-11.2047
▁sięgając	-11.2047
▁pismem	-11.2048
arskiego	-11.2052
▁opisany	-11.2057
▁literą	-11.2058
▁ann	-11.2062
▁korzeni	-11.2068
▁dziewięć	-11.2076
▁nieliczne	-11.2079
niczo	-11.2079
▁ustęp	-11.2081
▁płynie	-11.2084
▁umożliwiają	-11.2087
▁zwycięzc	-11.2088
▁leibniz	-11.2088
▁młodsze	-11.2088
▁ukrainie	-11.2088
▁warszawę	-11.2088
▁wspólną	-11.2088
▁znajomość	-11.2088
▁handlowym	-11.2088
▁końcem	-11.2088
▁szczeciński	-11.2088
▁podzielił	-11.2088
▁interpretacja	-11.2088
▁jądrze	-11.2088
▁chcieli	-11.2088
▁osiągni	-11.2088
▁ciekaw	-11.2088
▁kolegium	-11.209
▁facto	-11.209
▁śrub	-11.209
▁tworzyw	-11.209
▁rolnicze	-11.209
▁kaliszu	-11.209
▁dzieciństwo	-11.2091
▁obywatelstwo	-11.2091
▁brutaln	-11.2092
▁przedmieścia	-11.2092
▁tłumacz	-11.2093
▁kil	-11.2094
▁darwin	-11.2094
▁cynku	-11.2094
▁czytelnik	-11.2098
▁zmusza	-11.2098
▁grupami	-11.2099
▁sas	-11.2099
▁katolickich	-11.2103
▁przeniesiony	-11.2105
krąg	-11.2105
▁majątek	-11.2111
▁mini	-11.2113
▁leczeniu	-11.2113
rodzaj	-11.2116
▁pojedynczy	-11.2118
▁3000	-11.2121
▁zachować	-11.2123
łożoną	-11.2125
▁szlaku	-11.2128
▁najwyższej	-11.2128
twórczy	-11.213
▁rzymianie	-11.2131
▁1898	-11.2131
▁współczesnego	-11.2131
▁1870	-11.2133
▁nurtu	-11.2134
▁naukowym	-11.2135
▁odmienny	-11.2136
▁ford	-11.214
▁ottona	-11.2141
▁stanami	-11.2142
dag	-11.2143
▁padł	-11.215
▁klubów	-11.2152
▁rodzajem	-11.2156
▁szwedzkiego	-11.2156
▁tarczy	-11.2157
▁ataków	-11.2157
▁zachodzą	-11.216
▁katedry	-11.216
▁ładunku	-11.2161
▁opty	-11.2163
▁obrotow	-11.2165
miennych	-11.2165
▁spowodowan	-11.2166
logicznie	-11.2166
burzy	-11.2171
▁limfocyt	-11.2173
▁propozycję	-11.2173
▁świetle	-11.2173
▁ładunek	-11.2173
▁rozprzestrzenia	-11.2173
▁najniższy	-11.2173
▁zdobyć	-11.2173
▁dvd	-11.2173
▁kryteria	-11.2173
▁największymi	-11.2173
▁połączył	-11.2175
▁zajęty	-11.2175
ning	-11.2175
▁francją	-11.2175
▁dawna	-11.2176
▁gdańskiej	-11.2176
▁koszyk	-11.2177
gospoda	-11.2179
▁poprzednich	-11.2179
▁powraca	-11.218
▁granat	-11.2182
▁rodziną	-11.2183
▁alk	-11.2184
▁zakończyły	-11.2187
▁wolna	-11.2188
▁tajny	-11.2191
▁osmańsk	-11.2193
▁posiadanie	-11.2197
▁powrotem	-11.2198
euro	-11.22
▁przepraw	-11.2204
▁czysty	-11.2204
▁ogólnego	-11.2205
▁przemianowan	-11.2207
piast	-11.2211
pór	-11.2212
▁kapitalizm	-11.2215
▁wczesnego	-11.2217
▁sztukę	-11.2224
▁skrzyp	-11.2225
▁twierdząc	-11.2226
▁stronnictw	-11.2237
▁znaleziono	-11.2238
brak	-11.2239
0,1	-11.2241
▁czeskiego	-11.2246
▁królestw	-11.225
▁japońskim	-11.2253
▁londyn	-11.2254
▁tezy	-11.2256
▁plant	-11.2258
abstrakcyjn	-11.2258
▁cudzoziem	-11.2258
▁enigmy	-11.2258
▁hollywood	-11.2258
▁imigrantów	-11.2258
▁kadencję	-11.2258
▁kontrowersyjn	-11.2258
▁odzwierciedla	-11.2258
▁prowincje	-11.2258
▁przyjaźni	-11.2258
▁religijną	-11.2258
▁skoncentrowa	-11.2258
▁szkolnictwa	-11.2258
▁zdobycie	-11.2258
▁ukształtował	-11.2258
▁gwardii	-11.2258
▁głowę	-11.2259
▁końcowy	-11.2259
▁rozmiarów	-11.2259
▁doczekał	-11.226
▁ograniczona	-11.226
▁dochody	-11.226
▁nagrania	-11.226
▁ministerstwo	-11.226
▁czesław	-11.2261
▁epikur	-11.2261
▁dawki	-11.2262
▁mieszczan	-11.2264
▁gestapo	-11.2265
▁hms	-11.2267
afrykański	-11.2267
▁dowody	-11.2268
▁interpretowan	-11.2272
▁przecina	-11.2273
curie	-11.2273
▁alergi	-11.2273
normal	-11.2275
▁900	-11.2277
▁zbrojnej	-11.2278
▁nisko	-11.2281
▁przedstawiony	-11.2281
▁powodzeniem	-11.2282
▁trójcy	-11.2283
▁odznaczony	-11.2286
▁łąk	-11.2291
▁krakowskim	-11.2295
▁lokalnym	-11.2295
▁pancernych	-11.2297
▁członka	-11.2298
▁polak	-11.2299
▁zasadą	-11.23
▁lut	-11.2302
▁gospodarczym	-11.2302
▁zawodników	-11.2309
lata	-11.231
▁doceni	-11.2311
▁nikt	-11.2311
▁geograficznej	-11.2312
▁rosną	-11.2313
▁lenn	-11.2313
▁metodami	-11.2314
▁posługując	-11.2316
▁franz	-11.2317
▁kolejowego	-11.2319
nosić	-11.232
="13	-11.2322
▁ekstra	-11.2326
▁gruz	-11.2329
▁przyrodnicze	-11.2329
▁żywo	-11.233
▁kongresie	-11.2333
–8	-11.2334
▁marki	-11.2335
▁działać	-11.2337
▁dają	-11.2338
▁filmach	-11.2339
portugal	-11.2341
▁ehrlich	-11.2345
▁jerozolimy	-11.2345
▁tolkien	-11.2345
▁wygłosił	-11.2345
▁uderzenia	-11.2345
▁zniszczony	-11.2345
▁klawisz	-11.2345
▁nazistowski	-11.2345
▁systematycznie	-11.2345
▁gwałtowne	-11.2345
▁dokonać	-11.2345
▁ssaków	-11.2345
▁aliantów	-11.2345
▁krytycy	-11.2346
▁melodi	-11.2347
▁błędy	-11.2348
▁książkę	-11.2348
▁obieg	-11.2349
▁angaż	-11.235
▁bułgar	-11.235
▁równań	-11.2351
▁donald	-11.2352
▁sąsiednich	-11.2356
▁mieszane	-11.2357
▁skarg	-11.2357
▁serię	-11.2359
kazywać	-11.2364
▁określonym	-11.2367
▁greków	-11.2375
▁zero	-11.2376
▁wyborczy	-11.2377
▁wykonywanie	-11.2378
▁medycznych	-11.2379
▁lokalnej	-11.2382
▁1862	-11.2382
▁używali	-11.2385
▁hołd	-11.2386
▁religijnego	-11.2395
▁japońskiego	-11.2399
▁pojedynczych	-11.2401
▁liban	-11.2406
▁istotnym	-11.2407
▁wzmianka	-11.241
▁austriackiego	-11.241
▁bież	-11.2411
numer	-11.2412
▁rzekę	-11.2413
▁panuje	-11.2413
▁nowi	-11.2414
▁rosjanie	-11.2415
▁oznaczać	-11.2416
▁nauczycieli	-11.2417
▁pocisków	-11.242
kowicz	-11.2421
▁indywidualne	-11.2421
▁analizie	-11.2423
▁białym	-11.2423
spiesz	-11.2427
▁zwierzchni	-11.243
▁homoseksualne	-11.2432
▁luksemburg	-11.2432
▁niedźwiedzi	-11.2432
▁nkwd	-11.2432
▁południk	-11.2432
▁zespołem	-11.2432
▁środku	-11.2432
▁wystarczy	-11.2432
▁rudolf	-11.2432
▁ryszard	-11.2432
▁kościelnych	-11.2432
▁plemienia	-11.2432
▁przywódca	-11.2432
▁wierzeń	-11.2432
▁wiodąc	-11.2432
▁zagrzeb	-11.2432
▁geneza	-11.2433
▁oszczep	-11.2433
▁ucieka	-11.2433
▁buddyzmu	-11.2433
▁współdziała	-11.2433
▁oznaczał	-11.2433
▁elektor	-11.2433
▁publikacje	-11.2435
▁wynikało	-11.2436
budować	-11.2436
▁orderu	-11.2436
▁kujaw	-11.2436
▁formalny	-11.2436
▁promieniotwórcz	-11.2437
▁sobór	-11.2438
▁uzyskuje	-11.2438
▁ludźmi	-11.2438
▁wapieni	-11.2439
▁ateizm	-11.2441
▁ziarn	-11.2443
▁logiczne	-11.2446
▁naukowego	-11.2447
niejsza	-11.2447
–1939	-11.2449
▁stają	-11.2455
▁popierał	-11.2456
kronika	-11.2457
sign	-11.2457
▁wydanym	-11.246
▁naukowy	-11.2462
▁regionach	-11.2465
socjalistyczny	-11.2468
▁dokładniej	-11.2468
▁założeniu	-11.2473
▁tajne	-11.2473
▁ukończeniu	-11.2474
▁wzoru	-11.2477
▁skar	-11.2479
▁odpowiedniego	-11.248
▁160	-11.2484
▁służbie	-11.2487
▁histori	-11.2492
▁potrafił	-11.2492
▁obrot	-11.2492
▁historycznego	-11.2493
▁hab	-11.2497
▁zmodyfikowa	-11.2497
▁starania	-11.2501
▁turystycznych	-11.2502
▁znanego	-11.2511
▁żyją	-11.2511
▁nazwisk	-11.2511
łączna	-11.2511
▁wybierają	-11.2515
bis	-11.2517
▁węglowodor	-11.2519
▁aglomeracji	-11.2519
▁definicję	-11.2519
▁instytucja	-11.2519
▁jagielloński	-11.2519
▁klawiatur	-11.2519
▁liechtenstein	-11.2519
▁młodości	-11.2519
▁skłonił	-11.2519
▁zniszczył	-11.2519
▁zaawansowany	-11.2519
▁minimum	-11.2519
▁równoległ	-11.2519
▁osobie	-11.2519
▁pełną	-11.252
▁stacjonuj	-11.252
▁katarzyn	-11.252
▁koncern	-11.252
kandyd	-11.2521
▁arkusz	-11.2521
▁ekonomii	-11.2521
▁skończony	-11.2522
▁taśm	-11.2523
▁bielsko	-11.2524
▁leżał	-11.2524
noszenie	-11.2525
▁orientacji	-11.2525
▁granit	-11.2527
▁poruszając	-11.2532
▁twierdzy	-11.2534
▁okupant	-11.2534
skład	-11.2534
▁niemiecko	-11.2538
▁założyli	-11.2539
▁litwy	-11.254
▁marcel	-11.2543
▁płaz	-11.2546
▁pielgrzymk	-11.2548
▁sobieski	-11.2553
▁pierwotne	-11.2554
województwo	-11.2554
będąc	-11.2554
▁rak	-11.2555
▁dodatkowych	-11.2555
▁zdolny	-11.2556
▁parametr	-11.2558
▁susz	-11.2559
▁opowiadania	-11.2559
▁parametrów	-11.256
▁arabskiego	-11.256
▁1867	-11.256
_19	-11.2562
łożone	-11.2563
▁skupisk	-11.2563
▁czuł	-11.2571
▁ekonomicznych	-11.2573
▁wyciąg	-11.2573
istami	-11.2578
▁zamieszkiwan	-11.258
▁autonomii	-11.2583
▁ogółu	-11.2584
▁popularnych	-11.2591
▁ukształtowanie	-11.2592
_17	-11.2593
▁ziemskich	-11.2597
▁angielskiej	-11.2598
▁zachowało	-11.26
▁przeciwnym	-11.2603
ostatni	-11.2604
▁jidysz	-11.2608
▁katalizator	-11.2608
▁konfiguracj	-11.2608
▁leopold	-11.2608
▁pośmiertn	-11.2608
▁przewagę	-11.2608
▁spółgłoski	-11.2608
▁mianowicie	-11.2608
▁powiedzieć	-11.2608
▁siostra	-11.2608
▁fabularn	-11.2608
▁uwalnia	-11.2608
▁łomży	-11.2608
▁amerykańska	-11.2608
▁dosłownie	-11.2608
▁dwunast	-11.2609
▁czystej	-11.2609
▁tatrzański	-11.2609
▁tymczasowy	-11.2609
▁nieznana	-11.2609
▁zjednoczenia	-11.2609
▁naturze	-11.2609
▁osadnictwa	-11.261
▁śródziemnego	-11.2613
▁głosił	-11.2616
▁zasięgiem	-11.2616
▁cieni	-11.2617
▁obaleni	-11.2621
▁posiadania	-11.2623
▁agent	-11.2624
▁określał	-11.2626
▁podprogram	-11.2628
▁grona	-11.2629
▁wykorzystaniem	-11.2632
▁otto	-11.2633
▁alfa	-11.2634
▁zmienić	-11.2635
▁silniki	-11.2635
▁czarnych	-11.2641
▁godności	-11.2641
▁cywilnej	-11.2643
▁zaobserwowano	-11.2646
ndry	-11.2646
popular	-11.2648
▁rozporządz	-11.2651
▁skupiając	-11.2653
▁uczestnik	-11.2657
▁pojawienie	-11.2666
▁premierem	-11.2666
▁tatrach	-11.2667
▁najlepsze	-11.2671
▁olimp	-11.268
▁serce	-11.2682
▁przedziału	-11.2683
▁pit	-11.2683
▁tysiąc	-11.2685
▁polityków	-11.2685
▁lubuski	-11.2689
▁budowane	-11.2693
▁chętnie	-11.2697
▁nsdap	-11.2697
▁określona	-11.2697
▁postanowienia	-11.2697
▁terytoriów	-11.2697
▁zniszczeniu	-11.2697
▁poświęca	-11.2697
▁rezonans	-11.2697
▁rozmnaża	-11.2697
▁uszkodzon	-11.2697
▁znalezieni	-11.2697
▁obniżenie	-11.2697
▁oskarża	-11.2697
▁aurelius	-11.2697
▁publiczna	-11.2697
▁sanitarn	-11.2697
▁drzwi	-11.2697
▁polecenia	-11.2697
▁sanktuarium	-11.2697
▁ukraińskiej	-11.2698
▁ustalone	-11.2698
▁natarcie	-11.2698
▁witamin	-11.2699
▁wymienione	-11.2699
titanic	-11.27
▁mąż	-11.27
▁wiadomość	-11.2702
▁stwierdzenie	-11.2702
▁antropologii	-11.2705
▁powojenne	-11.2705
▁ustawę	-11.2706
natural	-11.2711
▁odporności	-11.2712
▁60%	-11.2715
▁nakłada	-11.2716
działa	-11.2718
▁najlepszego	-11.2718
▁polegał	-11.2718
▁wynoszą	-11.2719
▁php	-11.2719
▁mózg	-11.2722
▁jawor	-11.2723
▁dowolnej	-11.2723
right	-11.2724
▁pełnego	-11.2728
▁finansowan	-11.2728
▁klasyfikowan	-11.2729
lex	-11.2731
▁ekonomiczny	-11.2734
▁ekonomicznej	-11.2742
niesiony	-11.2742
▁bush	-11.275
▁narodowo	-11.2754
▁uniwersal	-11.2756
pomorskim	-11.2757
▁chińskiej	-11.2757
▁tabor	-11.2758
ożeni	-11.2759
▁geograficzny	-11.276
▁terrory	-11.2762
▁130	-11.2763
▁japońskiej	-11.277
▁rejonach	-11.2771
sub	-11.2772
▁beat	-11.2773
▁współczesnym	-11.2773
▁katolickiej	-11.2777
▁odpowiadający	-11.2783
kaba	-11.2783
▁słowem	-11.2787
▁gregoriański	-11.2787
▁połączeń	-11.2787
▁recenzje	-11.2787
▁zamknięte	-11.2787
▁migracji	-11.2787
▁osobom	-11.2787
▁science	-11.2787
▁deficyt	-11.2787
▁utlenia	-11.2787
▁zapalenie	-11.2787
▁bombardowa	-11.2788
▁gauss	-11.2788
▁przyrodniczych	-11.2788
▁zielonej	-11.2788
▁ferment	-11.2788
▁oddziałami	-11.2788
▁umożliwi	-11.2789
▁konstruowa	-11.279
▁stanęł	-11.279
▁tysiąca	-11.279
▁trzykrotnie	-11.2794
zwyczaj	-11.2795
▁klasycznym	-11.2796
▁monarchi	-11.2798
▁uratowa	-11.2799
▁dobrowoln	-11.2805
▁uznają	-11.281
▁lekko	-11.2813
▁naczelny	-11.2814
▁wywodzące	-11.2815
▁wystawian	-11.2818
▁chińskie	-11.2818
▁komin	-11.282
▁gorzow	-11.2822
▁1846	-11.2822
6,5	-11.2824
▁polegające	-11.2825
▁1892	-11.2827
rzekł	-11.2828
▁seksualnej	-11.2829
▁dystrybucj	-11.283
▁muzułmańskie	-11.2831
▁kontaktów	-11.2834
▁podporządkow	-11.2834
▁pozbawion	-11.2843
fun	-11.2846
liwość	-11.2846
▁ognisk	-11.285
▁zaczynają	-11.285
▁państwową	-11.2854
▁małego	-11.2854
▁sformułowa	-11.2857
▁mniejszy	-11.286
▁cenion	-11.2861
róg	-11.2863
▁praktyki	-11.2865
▁zamierzał	-11.2865
▁tłumaczon	-11.2867
▁korzenie	-11.2868
▁obsługują	-11.2873
▁traci	-11.2874
jastrzęb	-11.2877
▁kolegi	-11.2877
wyzwolenie	-11.2878
▁dostrzega	-11.2878
▁nabożeństw	-11.2878
▁pitagoras	-11.2878
▁pierścień	-11.2878
▁uniwersytecki	-11.2878
▁wyznaczył	-11.2878
▁zgromadzon	-11.2878
▁nożnej	-11.2878
▁udzielił	-11.2878
▁eskort	-11.2878
▁fizyce	-11.2878
▁kariera	-11.2879
▁rumuński	-11.2879
▁pewna	-11.2879
▁wyższą	-11.2879
▁komunistów	-11.2879
▁smith	-11.288
▁zdaniu	-11.288
▁skończone	-11.2881
▁panujący	-11.2884
▁niedobor	-11.2885
▁110	-11.2887
deutsch	-11.2892
▁otoczony	-11.2896
▁brązu	-11.2903
▁jork	-11.2909
hell	-11.291
▁pogański	-11.2916
▁urzędników	-11.2917
«	-11.292
▁stok	-11.292
▁przeciwstawia	-11.2921
▁foton	-11.2922
▁żeglugi	-11.2928
▁muzyką	-11.2929
feld	-11.2935
▁szkoc	-11.2941
▁notowan	-11.2941
▁hiszpańskiego	-11.2942
▁morskiego	-11.2942
▁sile	-11.2943
0,0	-11.2944
▁pożycz	-11.2945
▁licenc	-11.2946
▁grafik	-11.2951
▁złoto	-11.2952
rzucony	-11.2953
home	-11.2954
▁stol	-11.2961
chroni	-11.2964
▁senatorów	-11.2969
▁szkielet	-11.297
▁eugeniusz	-11.297
▁gwiazdozbiór	-11.297
▁indonezji	-11.297
▁oficjalną	-11.297
▁przedstawienia	-11.297
▁tradycję	-11.297
▁transmisji	-11.297
▁homoseksualny	-11.297
▁oddziaływań	-11.297
▁propagowa	-11.297
▁urodzony	-11.297
▁samochód	-11.297
▁alabam	-11.297
▁teksas	-11.297
▁moralności	-11.297
▁porządek	-11.297
▁odkrywc	-11.297
▁poniatowski	-11.297
▁edytor	-11.297
▁naturalnie	-11.297
▁wyklucza	-11.297
środkowy	-11.2972
▁opowiadał	-11.2972
▁pastor	-11.2973
▁chemik	-11.2974
▁jądrowe	-11.2975
▁amerykanie	-11.2975
▁katedrze	-11.2976
▁wysuwa	-11.2978
▁kujawski	-11.2979
▁badaniu	-11.298
▁twierdz	-11.2981
vid	-11.2983
▁wykonać	-11.2983
▁funt	-11.2984
▁zakończyło	-11.2984
▁kwantowej	-11.2985
▁telewizyjne	-11.2989
▁osiągnęł	-11.2989
szar	-11.2989
▁tematyce	-11.2993
▁budową	-11.2993
mond	-11.2996
▁warmińsk	-11.2998
▁pozbawieni	-11.3
▁dowodzi	-11.3002
xvii	-11.3005
▁oceaniczne	-11.3009
▁1848	-11.3009
▁żeglug	-11.3012
▁nauczanie	-11.3013
▁krążownik	-11.3018
▁głowa	-11.3018
▁kanałów	-11.302
▁dystrybucji	-11.3021
ordynac	-11.3028
▁królewskim	-11.3029
▁napisane	-11.303
▁honorowe	-11.3041
pamiętn	-11.3042
▁środkiem	-11.3043
▁lasach	-11.3045
▁monopol	-11.3054
▁gorlic	-11.3058
▁planowane	-11.306
▁olimpijskie	-11.3061
▁kawy	-11.3062
▁brazylia	-11.3062
▁dziesięciu	-11.3062
▁księciem	-11.3062
▁laboratorium	-11.3062
▁rozstrzyga	-11.3062
▁węgrzech	-11.3062
▁znajomości	-11.3062
▁obozów	-11.3062
▁pochłania	-11.3062
▁żadnym	-11.3062
▁mechaniczny	-11.3062
▁ochronie	-11.3063
▁ustalił	-11.3063
▁jacek	-11.3063
▁uwolnieni	-11.3064
szczyźnie	-11.3064
▁wiejskich	-11.3065
▁dokonuje	-11.3066
▁rug	-11.3066
▁nawiązywa	-11.3068
prowadzonych	-11.3069
▁spalin	-11.307
▁poetów	-11.307
▁biegiem	-11.3071
▁przeprowadzenie	-11.3072
▁określano	-11.3075
▁badając	-11.3075
▁zwiększając	-11.3076
bir	-11.3076
▁gliko	-11.3076
▁warzyw	-11.3076
▁rejewski	-11.3076
riot	-11.3077
▁pytania	-11.308
–1945	-11.308
▁nawias	-11.3085
▁równi	-11.3086
▁przewidywan	-11.3087
hebr	-11.3088
chrzanow	-11.3091
▁intensywnie	-11.3092
▁zdolne	-11.3095
czystego	-11.3095
▁pks	-11.3095
▁grand	-11.3097
▁1861	-11.3103
erski	-11.3104
▁zagranicznej	-11.3105
▁ekstrem	-11.3107
▁laur	-11.3108
▁zakładając	-11.3114
▁skupieni	-11.3116
▁wrogo	-11.312
sowiecki	-11.3122
▁kompanii	-11.3126
▁long	-11.3126
▁rozwijać	-11.3132
▁zasadniczy	-11.3132
▁niskiej	-11.3132
▁literackiej	-11.3133
▁staropolsk	-11.3135
▁dotyczą	-11.314
narkotyk	-11.3155
▁chrystian	-11.3155
▁zarys	-11.3156
▁instrukcji	-11.3156
▁osobowości	-11.3156
▁teodozjusz	-11.3156
▁uhonorowa	-11.3156
▁umiarkowane	-11.3156
▁zintegrowan	-11.3156
▁wypracowa	-11.3156
▁chorobę	-11.3156
▁gruncie	-11.3156
▁school	-11.3156
▁junior	-11.3156
▁muzyce	-11.3156
▁rzeszowie	-11.3156
▁trójwymiarow	-11.3156
▁piersi	-11.3156
▁roztworu	-11.3156
▁otoczeniu	-11.3157
▁ekspresow	-11.3157
▁siedlisk	-11.3157
▁obniża	-11.3157
▁wczesno	-11.3157
▁stereotyp	-11.3157
▁tydzień	-11.3157
▁skorupy	-11.3158
▁wrogie	-11.3158
▁zaboru	-11.3158
▁wzrok	-11.3158
▁trening	-11.3159
▁dodaje	-11.3159
▁renesansu	-11.3162
▁cyjan	-11.3162
▁bazę	-11.3164
▁wielkopolskiego	-11.3167
▁mieszkaniowe	-11.3167
czyste	-11.3168
▁ludziom	-11.317
czyńskiego	-11.3171
▁umysłu	-11.3171
▁orła	-11.3175
▁przekonania	-11.3176
▁fiński	-11.3178
▁funkcjonowani	-11.3179
▁misja	-11.3179
▁właścicielem	-11.3183
▁1/3	-11.3184
▁automatycznie	-11.3186
▁wspierał	-11.3187
▁krytykował	-11.3187
▁podstawowy	-11.319
▁zgodny	-11.3191
▁trasę	-11.3191
▁połączonych	-11.3193
▁szp	-11.3193
▁boisk	-11.3197
▁ciele	-11.3205
▁jasności	-11.3212
drapieżn	-11.3213
▁1880	-11.3215
▁kontynentalny	-11.3215
▁popularnością	-11.3218
▁zmniejszył	-11.3223
▁deklaracji	-11.3228
▁zbliża	-11.323
▁wspólnych	-11.3233
lecia	-11.3233
▁gold	-11.3234
▁25%	-11.3234
▁jeziorem	-11.3235
!”	-11.3238
rig	-11.3239
▁30%	-11.3243
▁opłat	-11.3244
▁przedmiotu	-11.3249
▁barcelona	-11.325
▁decyzją	-11.325
▁sprzeczności	-11.325
▁zapewnił	-11.325
▁zapotrzebowanie	-11.325
▁zespolone	-11.325
▁orbicie	-11.325
▁skierował	-11.325
▁ustalić	-11.325
▁alfons	-11.325
▁interakcj	-11.325
▁konstruktor	-11.325
▁opiekę	-11.325
▁usiłował	-11.325
▁jednostkami	-11.3251
▁hetero	-11.3251
▁feliks	-11.3253
▁czystości	-11.3254
wolnego	-11.3255
▁przychyln	-11.3255
▁spędza	-11.3257
▁zwolnieni	-11.3257
▁ideolog	-11.3259
▁lpr	-11.3267
▁brytyjczyków	-11.3269
▁kolejową	-11.3272
▁neron	-11.3272
stor	-11.3272
▁raw	-11.3273
▁zaprzesta	-11.3279
▁ogniw	-11.328
▁1887	-11.3286
▁starszego	-11.3287
ślad	-11.3296
zobacz	-11.33
kowska	-11.3302
▁zwołan	-11.3303
▁zapisane	-11.3309
▁wyborczych	-11.331
▁przeciąg	-11.3311
▁pacjentów	-11.3313
▁osiągając	-11.3314
zdję	-11.3317
▁mazur	-11.3318
układ	-11.3319
▁krajowego	-11.3322
▁zasadami	-11.3326
kończyć	-11.3328
▁zobowiązani	-11.3334
▁unit	-11.3335
▁prosta	-11.3343
▁kanclerz	-11.3345
▁następował	-11.3345
▁nieregularn	-11.3345
▁zakłóc	-11.3345
▁zorganizowani	-11.3345
▁bliższ	-11.3345
▁uwzględnieni	-11.3345
▁wykonując	-11.3345
▁zniszczenie	-11.3345
▁seksualnych	-11.3345
▁jowisz	-11.3345
▁karierze	-11.3346
▁kabały	-11.3346
▁nieprzerwan	-11.3346
▁bydła	-11.3346
▁senacie	-11.3346
▁malbork	-11.3346
▁złożona	-11.3346
▁dowódców	-11.3347
ołowi	-11.3348
▁brutus	-11.3348
łączona	-11.3348
▁hierarchii	-11.3348
▁mianował	-11.3349
osobowy	-11.3353
▁pozostawiając	-11.3354
▁jednolite	-11.3355
▁półwyspie	-11.3357
▁masowych	-11.3357
▁tczew	-11.3359
▁równości	-11.336
▁naukowo	-11.3363
▁denar	-11.3364
▁wojenną	-11.3364
▁żyjący	-11.3364
▁poddał	-11.3365
▁teatrze	-11.3365
▁sos	-11.3367
▁pierwotnym	-11.3368
▁wybrano	-11.3371
▁dobrej	-11.3371
▁spowodowany	-11.3374
▁setki	-11.3375
▁manifest	-11.3375
▁potwierdzają	-11.3376
łączając	-11.3377
▁postawił	-11.3382
▁bezpośredniego	-11.3382
▁zjednoczony	-11.3387
eszło	-11.3387
▁południowe	-11.3388
▁państwowa	-11.3388
▁wiążąc	-11.3389
▁dariusz	-11.3389
▁1886	-11.3389
▁zmieniał	-11.339
▁spotykane	-11.3393
▁dążył	-11.3396
3%)	-11.3396
twierdza	-11.3402
▁kilko	-11.3404
▁ogród	-11.3424
▁bizantyńskie	-11.3424
▁wspieran	-11.3428
▁zmuszon	-11.3428
▁zbiorniki	-11.3431
▁krytyczne	-11.3439
▁chrześcijanie	-11.3442
▁inteligencji	-11.3442
▁lokomotyw	-11.3442
▁obowiązków	-11.3442
▁odnaleźć	-11.3442
▁pamięta	-11.3442
▁pochodzeniu	-11.3442
▁przodków	-11.3442
▁represji	-11.3442
▁sugeruje	-11.3442
▁cząsteczka	-11.3442
▁dysponuje	-11.3442
▁kasztelan	-11.3442
▁ochroną	-11.3442
▁przewidzian	-11.3442
▁samogłosek	-11.3442
▁czerwonego	-11.3442
▁utracon	-11.3442
▁religię	-11.3442
▁zdominowan	-11.3442
▁wyrobów	-11.3442
▁skrzydło	-11.3442
▁wiedzą	-11.3442
▁narodzenia	-11.3442
▁nieobecn	-11.3442
▁prymityw	-11.3442
▁wykres	-11.3442
▁płycie	-11.3442
▁widzów	-11.3443
▁wersją	-11.3443
▁agencji	-11.3443
▁florencji	-11.3443
▁liczebność	-11.3444
▁ubogi	-11.3444
▁nur	-11.3445
awki	-11.3445
▁odnawia	-11.3446
▁świadomość	-11.3447
▁koszar	-11.3448
▁1903	-11.3448
▁filozoficznych	-11.3448
▁regionalnych	-11.3448
▁cysters	-11.345
▁zachowując	-11.3451
▁przedstawienie	-11.3451
▁dodanie	-11.3458
▁zaprojektowany	-11.3459
▁bull	-11.3465
▁wulkaniczne	-11.3469
▁historią	-11.3482
▁zapewniał	-11.3486
romantyczn	-11.349
▁otrzymani	-11.3492
▁uczony	-11.3492
▁finansowych	-11.3492
▁niespełn	-11.3493
północ	-11.3494
▁matematycznych	-11.3494
▁masowo	-11.3498
▁korzystać	-11.3499
▁wieczor	-11.3504
▁rodzinnym	-11.3506
▁walor	-11.3506
▁odzyskał	-11.3507
▁hiszpańskiej	-11.3508
▁brzeski	-11.3509
▁powłoki	-11.351
▁salon	-11.3513
wodór	-11.3514
▁dąży	-11.3514
swobod	-11.3519
dawano	-11.3526
yjnie	-11.3529
samotn	-11.353
▁czechach	-11.3531
▁książęta	-11.3531
gier	-11.3531
dzięk	-11.3531
▁stworzy	-11.3535
▁włók	-11.3538
▁archiwum	-11.3539
▁białymstoku	-11.3539
▁grawitacji	-11.3539
▁nacjonalizm	-11.3539
▁niezadowoleni	-11.3539
▁obojga	-11.3539
▁pojezierz	-11.3539
▁posiedzeniu	-11.3539
▁srebrny	-11.3539
▁telewizja	-11.3539
▁uszkodzenia	-11.3539
▁wspomnienia	-11.3539
▁zdobycia	-11.3539
▁widowisk	-11.3539
▁nicholson	-11.3539
▁piękne	-11.3539
▁society	-11.3539
▁mozart	-11.3539
▁wojownik	-11.3539
terapia	-11.3539
▁dostateczn	-11.3539
▁wcielił	-11.3539
▁placówek	-11.3539
▁pragnie	-11.354
▁pkp	-11.354
▁wewnętrzna	-11.354
▁podziemny	-11.354
▁słon	-11.354
▁nadzwyczajn	-11.354
▁nieorganiczn	-11.3541
▁zapomni	-11.3541
▁gospodarkę	-11.3542
▁sond	-11.3544
▁integraln	-11.3545
▁skuteczność	-11.3545
▁charakteryzując	-11.3545
▁wykonano	-11.3548
▁lwa	-11.3551
▁wezwał	-11.3551
▁administrator	-11.3553
▁zapisuje	-11.3554
▁przedstawiał	-11.3555
▁równikowej	-11.3555
▁potrzebne	-11.3555
▁zesłan	-11.3557
▁astronomii	-11.3557
▁wydaniu	-11.3559
▁partnerskie	-11.356
▁najlepszy	-11.3561
▁jakiego	-11.3561
▁republiką	-11.3562
▁zapewniając	-11.3565
▁słynny	-11.3566
▁napędzan	-11.3569
▁jądrowej	-11.3574
▁określonego	-11.3582
▁fizyczny	-11.3583
▁robotniczej	-11.3584
▁atomowych	-11.3588
tzn	-11.359
przyjaciel	-11.3592
▁wiązało	-11.3594
▁prefekt	-11.3595
▁sprzeciwia	-11.3602
▁umieszczan	-11.3606
▁urzędowy	-11.361
▁kosztem	-11.3616
▁szabatu	-11.3618
▁energi	-11.3622
wołuje	-11.3625
▁kosztów	-11.3629
krotny	-11.3634
zaakceptowan	-11.3637
▁fotosyntezy	-11.3637
▁hipotetyczn	-11.3637
▁inicjator	-11.3637
▁instytucie	-11.3637
▁ojczysty	-11.3637
▁rozróżnienie	-11.3637
▁trzęsieni	-11.3637
▁uchodźstwie	-11.3637
▁względności	-11.3637
▁wydziale	-11.3637
▁odebrał	-11.3637
▁dążąc	-11.3637
▁należeli	-11.3637
▁internecie	-11.3637
▁dokonania	-11.3637
▁niewolników	-11.3637
▁ochotnicz	-11.3637
▁poszczególnym	-11.3637
▁przeciwciał	-11.3638
▁gubernatorstwa	-11.3639
▁cieszą	-11.3639
▁dowodem	-11.364
▁alarm	-11.364
▁trzynast	-11.364
▁lotnictwo	-11.3641
▁watykan	-11.3642
▁preparat	-11.3645
▁tymczasowe	-11.3646
▁grubości	-11.3649
▁konieczny	-11.3664
zyskać	-11.3666
▁zamierza	-11.3668
▁zapisał	-11.3668
▁ideę	-11.3669
▁zaangażował	-11.3669
▁czarna	-11.367
▁reprezentantów	-11.3673
▁cytat	-11.3674
▁szerokim	-11.3674
▁sprzedał	-11.3675
▁statystyczny	-11.3677
▁samorządowych	-11.3679
▁wrocławia	-11.368
▁centra	-11.3687
▁kalisk	-11.3691
▁tronie	-11.3691
▁neutronów	-11.3696
▁bywają	-11.3697
▁metropolii	-11.3706
▁naukowa	-11.3708
▁znał	-11.3711
drzew	-11.3712
▁czasowniki	-11.3712
organizacyj	-11.3715
promie	-11.3726
▁romański	-11.3726
morze	-11.3726
▁kapel	-11.3728
▁dostępna	-11.3731
▁napędem	-11.3733
▁tekstach	-11.3733
▁scenie	-11.3734
▁zapisać	-11.3735
telekomunikacyjn	-11.3736
▁gabriel	-11.3736
▁możliwa	-11.3736
▁ograniczeń	-11.3736
▁paradygmat	-11.3736
▁postanowień	-11.3736
▁spektrometr	-11.3736
▁udostępnion	-11.3736
▁założeń	-11.3736
▁lądowisko	-11.3736
▁przypuszczalnie	-11.3736
▁przyspieszenie	-11.3736
▁anatolij	-11.3736
▁uchwale	-11.3736
▁móc	-11.3736
▁pozyskan	-11.3736
▁generator	-11.3736
▁kapitulacji	-11.3738
▁wydatki	-11.3739
▁integracji	-11.374
▁kilkaset	-11.3741
▁wyjaśnienia	-11.3743
▁anarchizm	-11.3744
▁bilet	-11.3746
▁odzież	-11.3746
▁policyjn	-11.3747
▁ogólnym	-11.3748
stąpienie	-11.375
▁nielicznych	-11.3751
▁prasie	-11.3752
▁boston	-11.3752
▁antygen	-11.3753
▁najlepszym	-11.3759
▁barier	-11.3763
▁genetyczny	-11.3765
▁zapozna	-11.3767
▁big	-11.3769
▁przełama	-11.3774
lepszy	-11.3784
▁fundacji	-11.3785
▁żywe	-11.3785
▁późniejszy	-11.3786
▁wiążą	-11.3791
bóg	-11.3794
jeśli	-11.3794
lepszą	-11.3796
▁zostają	-11.3798
▁przedosta	-11.3799
zarejestrowanych	-11.3799
klasyfikowa	-11.38
▁bulw	-11.3801
▁bakterii	-11.3818
▁mega	-11.3822
▁szybkiego	-11.3826
▁egzemplarz	-11.3829
▁zdarza	-11.3831
cięcie	-11.3831
▁teatralne	-11.3832
▁wyposażon	-11.3835
▁fab	-11.3836
▁ferdynand	-11.3836
▁laboratory	-11.3836
▁odbiornik	-11.3836
▁poszukiwania	-11.3836
▁potępia	-11.3836
▁rzeczywiście	-11.3836
▁zaadaptowa	-11.3836
▁tyberiusz	-11.3836
▁uderzył	-11.3836
▁neutrin	-11.3836
▁ówcześni	-11.3836
▁zachęca	-11.3836
▁palestyński	-11.3836
▁osobników	-11.3836
▁ekspresj	-11.3836
▁guberni	-11.3836
▁wewnętrzną	-11.3836
▁multimedia	-11.3836
▁ekspert	-11.3836
▁szturm	-11.3836
▁reprezentacji	-11.3836
▁przybrał	-11.3837
▁umieścił	-11.3837
▁wydawnicz	-11.3837
▁kredy	-11.3837
▁jądrowych	-11.3837
▁młodzieńc	-11.3838
▁socjalizmu	-11.3839
▁zdrowie	-11.384
▁toruniu	-11.384
▁świerk	-11.3841
▁pradze	-11.3841
▁wierzch	-11.3843
izowana	-11.3843
▁trzon	-11.3845
jednokrotnie	-11.3846
▁operację	-11.3847
▁platy	-11.3847
▁rzeszowski	-11.3848
▁1,2	-11.385
▁biologii	-11.3852
▁odnośni	-11.3854
literatur	-11.3862
▁finał	-11.3866
▁postępowanie	-11.387
wiecznej	-11.3875
tius	-11.3877
▁użyć	-11.3878
▁pens	-11.3879
▁matematyczny	-11.3882
▁wierni	-11.3883
▁1831	-11.3883
▁pierwotnych	-11.3883
▁naukową	-11.3884
▁zatrzymał	-11.3885
▁brakiem	-11.3886
▁wyświetl	-11.3891
▁sposob	-11.3892
▁klasycznych	-11.3893
▁postępując	-11.3897
▁zróżnicowanie	-11.3897
▁reprezentował	-11.3898
▁pomocnicze	-11.39
▁litewskiego	-11.3901
▁oznak	-11.3901
▁kluczowe	-11.3903
▁anatom	-11.3904
▁powszechnej	-11.3905
▁pieczęci	-11.3906
▁odpowiedział	-11.3907
▁porzucił	-11.3909
▁oznaczający	-11.3911
▁gorące	-11.3913
▁generalnym	-11.3924
▁kiedyś	-11.3927
▁ojczyzn	-11.3931
▁pius	-11.3931
łowicz	-11.3935
▁kijowski	-11.3935
▁naczelnym	-11.3936
▁doskonałe	-11.3937
▁dyspozycji	-11.3937
▁eksplozj	-11.3937
▁konstrukcję	-11.3937
▁ograniczył	-11.3937
▁powstawać	-11.3937
▁publiczności	-11.3937
▁transkrypcj	-11.3937
▁zmartwychwstani	-11.3937
▁asembler	-11.3937
▁obojętn	-11.3937
▁opracowywa	-11.3937
▁uproszczon	-11.3937
▁konsekwentn	-11.3937
▁uchwalił	-11.3937
▁zachowuje	-11.3937
▁zagrożony	-11.3937
▁przodu	-11.3937
▁usunięcie	-11.3937
▁charakteryzował	-11.3937
▁zdobyte	-11.3937
▁znakomit	-11.3937
▁azjatycki	-11.3937
▁opanował	-11.3938
▁naturalną	-11.3938
▁lsd	-11.3938
▁herald	-11.3938
zdrój	-11.3938
▁riemann	-11.394
▁naturę	-11.3941
▁wystawił	-11.3947
▁nieznacznie	-11.3948
▁maxim	-11.3949
down	-11.395
▁wiara	-11.3952
▁podkreślał	-11.3952
▁towarzystwie	-11.3952
▁naśladowa	-11.3956
▁pozytywny	-11.3958
▁wzmianki	-11.396
▁kodowania	-11.396
▁polonia	-11.3961
drewni	-11.3966
▁istniejący	-11.3967
▁warty	-11.3972
▁złotego	-11.3979
▁baran	-11.3982
▁drobnych	-11.3983
▁uzyskiwan	-11.3986
▁odnosił	-11.3988
▁sprawowania	-11.3988
▁odgrywają	-11.3992
▁holenderskie	-11.3993
▁chińskiego	-11.3996
▁wytworzon	-11.3997
▁prezesem	-11.4
▁dalszy	-11.4004
▁piastowski	-11.4025
kronice	-11.4031
..."	-11.4035
▁sprzymierz	-11.4039
▁benedykt	-11.4039
▁dłuższe	-11.4039
▁ekspansji	-11.4039
▁kompozycji	-11.4039
▁missisipi	-11.4039
▁prośbę	-11.4039
▁przyszłość	-11.4039
▁termodynamiki	-11.4039
▁dramacie	-11.4039
▁sienkiewicz	-11.4039
script	-11.4039
▁komandor	-11.4039
▁wałęsa	-11.4039
▁odwrotne	-11.4039
▁przydomek	-11.4039
▁winogron	-11.4039
▁trzcin	-11.4039
▁przenoszon	-11.4039
▁koncentruj	-11.4039
magnet	-11.4039
produkuje	-11.4039
▁ukraińskiego	-11.4039
▁ekspon	-11.4039
▁xhtml	-11.4039
▁wysoka	-11.4039
▁dawkins	-11.404
▁zabytkowy	-11.404
▁stwarza	-11.404
▁wiosny	-11.404
▁pełna	-11.404
▁dokonany	-11.4041
▁wystąpienie	-11.4042
▁zerwał	-11.4043
▁atlantyku	-11.4045
▁zależny	-11.4045
warstw	-11.4045
▁sferze	-11.4047
▁zamienia	-11.4047
dzono	-11.4048
▁skrzyżowan	-11.4048
▁poznańskiego	-11.4049
▁utrzymał	-11.4049
▁czarną	-11.4049
▁czynienia	-11.4051
▁republikę	-11.4057
▁najmniejszy	-11.4057
800	-11.4061
▁70%	-11.4062
sberg	-11.4064
▁przybiera	-11.4064
▁kierunkach	-11.407
▁literackim	-11.4071
▁początkowym	-11.4072
5,5	-11.4072
▁metaliczn	-11.4072
▁późniejszego	-11.4076
▁dyplomatyczne	-11.4078
▁zaliczany	-11.408
▁właściwego	-11.4082
▁wodnego	-11.4084
hetycki	-11.4085
▁rządzie	-11.4086
▁klęskę	-11.4087
nick	-11.4091
zwrot	-11.4092
▁pieniądz	-11.4096
homo	-11.41
▁//	-11.41
▁groźn	-11.4101
najczęściej	-11.4103
▁planował	-11.4112
▁królowa	-11.4117
▁przewidywał	-11.4124
▁1200	-11.4127
▁wyjaśnienie	-11.4129
▁pasmo	-11.4129
stawione	-11.413
▁nazywał	-11.413
▁akceptacj	-11.4142
▁berkeley	-11.4142
▁folklor	-11.4142
▁gniezno	-11.4142
▁następca	-11.4142
▁oczywiście	-11.4142
▁stamtąd	-11.4142
▁gwałtownie	-11.4142
▁pochodna	-11.4142
▁protestantyzm	-11.4142
▁utworzyć	-11.4142
▁ugrupowanie	-11.4142
▁ratunkowe	-11.4142
▁cukru	-11.4142
▁pompejusz	-11.4142
▁ósm	-11.4142
▁partyzant	-11.4142
▁wenecji	-11.4142
▁mundur	-11.4142
▁ocalał	-11.4142
▁narodził	-11.4142
▁socjalistycznej	-11.4142
▁wyborami	-11.4142
▁zdobycz	-11.4144
▁henri	-11.4145
▁francisco	-11.4145
▁bagn	-11.4145
▁szerokość	-11.4147
▁zwolennikiem	-11.4147
▁metanu	-11.4148
▁unikatow	-11.4149
▁grodu	-11.416
light	-11.4161
▁elektroniczny	-11.4163
▁morską	-11.4163
▁corocznie	-11.4164
▁katolików	-11.4167
▁szybkości	-11.417
▁rzeczowniki	-11.4174
▁rozpoczęci	-11.4176
▁finansowy	-11.4191
▁długiej	-11.4193
▁zmianom	-11.4194
▁nacjonalistyczn	-11.4196
▁wytwarzania	-11.4197
table	-11.4198
▁szat	-11.42
▁kation	-11.4209
▁bruno	-11.4217
część	-11.4226
znaczona	-11.4227
▁zacier	-11.4229
hiszp	-11.4234
▁camp	-11.4235
▁najważniejs	-11.4238
▁sprawuje	-11.4241
▁spektroskop	-11.4246
▁egipcjan	-11.4246
▁marynarka	-11.4246
▁najczęstsz	-11.4246
▁natężenie	-11.4246
▁nieoficjaln	-11.4246
▁prezydium	-11.4246
▁testamencie	-11.4246
▁ścieżki	-11.4246
▁ostrzał	-11.4246
▁strategiczne	-11.4246
▁religie	-11.4247
▁umieszczeni	-11.4247
▁watykański	-11.4247
▁żydowska	-11.4247
▁osobowych	-11.4247
▁rządzące	-11.4247
▁wydajność	-11.4248
▁obywatelstwa	-11.4249
prowadzono	-11.4251
▁rzece	-11.4253
▁podatki	-11.4254
▁makr	-11.4256
▁islamski	-11.4256
▁zagraża	-11.4258
▁kanada	-11.4258
▁wyszedł	-11.4259
▁przynosi	-11.426
▁kair	-11.4261
▁dzielił	-11.4271
_18	-11.4273
▁najmniejsze	-11.428
▁zyski	-11.428
▁gorący	-11.428
▁konsulat	-11.4282
▁wysoc	-11.429
▁gotowoś	-11.4292
▁wokali	-11.4297
leciał	-11.4301
▁przelot	-11.4315
▁klon	-11.4319
▁zdobywając	-11.4321
▁czad	-11.4334
▁teatralny	-11.4339
▁słuchacz	-11.4342
▁mess	-11.4345
▁jadwigi	-11.4351
▁jugosławii	-11.4351
▁kategorie	-11.4351
▁najbogatsz	-11.4351
▁spotkań	-11.4351
▁sztokholm	-11.4351
▁utrzymać	-11.4351
▁wyspecjalizowan	-11.4351
▁zadebiutował	-11.4351
wegetarian	-11.4351
▁przekroczeni	-11.4351
▁zapożyczon	-11.4351
▁dzienna	-11.4351
▁cukier	-11.4351
▁porucznik	-11.4351
▁technologia	-11.4351
▁dynamiczny	-11.4351
▁prymas	-11.4351
▁bolszewików	-11.4351
▁przemawia	-11.4351
▁zielona	-11.4352
▁literaturę	-11.4352
▁institute	-11.4352
▁publicznym	-11.4352
▁arthur	-11.4352
imperial	-11.4352
▁uderza	-11.4352
til	-11.4353
▁oświata	-11.4353
▁duchowne	-11.4353
▁zaplanowan	-11.4354
▁bitew	-11.4355
▁ideologii	-11.4357
▁sesji	-11.4359
▁wawel	-11.4361
▁różnorodne	-11.4362
▁amiga	-11.4363
▁prześladowania	-11.4364
▁gniew	-11.4367
▁roślinności	-11.4369
▁relację	-11.437
▁odkrywa	-11.4375
ojęzyczny	-11.4376
▁wiejskiej	-11.438
▁nagrał	-11.4382
▁wodna	-11.4382
▁legnicki	-11.4383
▁poprzedzając	-11.4385
łamał	-11.4386
▁tunel	-11.4388
▁logic	-11.4392
▁kadłubka	-11.4397
▁poddany	-11.4398
▁medycznej	-11.4402
▁ówczesnym	-11.4405
▁gnieźnie	-11.4408
▁późniejszej	-11.4411
▁uniwersalne	-11.4426
▁skoczni	-11.4427
▁przygotowanie	-11.4428
▁posługują	-11.443
▁przekazywani	-11.4433
▁wykona	-11.4433
▁pokazał	-11.444
▁zastępowan	-11.4448
▁pracownik	-11.4454
▁uzurpator	-11.4458
▁wykopalisk	-11.4458
▁bezskuteczn	-11.4458
▁dyktatur	-11.4458
▁kalifornii	-11.4458
▁seminarium	-11.4458
▁ustanawia	-11.4458
▁wywoływan	-11.4458
▁wzbudził	-11.4458
▁ciepły	-11.4458
▁węzłem	-11.4458
▁czworo	-11.4458
▁chorwacji	-11.4458
▁wywiera	-11.4458
▁powodować	-11.4458
▁generacji	-11.4458
▁miesięcznik	-11.4458
▁puszczy	-11.4458
▁pisowni	-11.4458
▁wypiera	-11.4459
▁fauna	-11.4459
bolszewickiej	-11.4459
▁zgonów	-11.446
11)	-11.446
▁ujawnił	-11.446
▁przedstawić	-11.4467
ponad	-11.4469
▁odzyska	-11.447
▁systematyk	-11.4471
▁wiązał	-11.448
▁pożarnej	-11.448
▁dziewic	-11.4481
locie	-11.4483
▁czyteln	-11.4485
▁statyst	-11.4486
▁wydają	-11.449
▁rozejm	-11.4491
▁lęk	-11.4491
▁przeważając	-11.4496
▁north	-11.4503
▁fizycznego	-11.4504
▁1894	-11.4505
▁interesował	-11.4505
▁ideologiczn	-11.4508
▁1885	-11.4509
▁elektryczne	-11.4511
▁izraelskie	-11.4529
▁manifestacj	-11.4531
tywną	-11.4536
▁obowiązujący	-11.4541
reprezentacj	-11.455
▁zapewniają	-11.4553
akademi	-11.4559
▁autonomiczne	-11.4562
▁zdarzał	-11.4564
▁młodzi	-11.4565
▁chrobrego	-11.4565
▁doświadczeń	-11.4565
▁jerozolimie	-11.4565
▁kamiennego	-11.4565
▁klęsce	-11.4565
▁kryteriów	-11.4565
▁mołdawii	-11.4565
▁nierzadko	-11.4565
▁ogólną	-11.4565
▁opuszczenia	-11.4565
▁piosenek	-11.4565
▁przewoźnik	-11.4565
▁wstrząs	-11.4565
▁wątroby	-11.4565
▁zakończone	-11.4565
▁opiekun	-11.4565
▁śródmieścia	-11.4565
▁osiągnięć	-11.4565
wiedźmin	-11.4565
▁satelita	-11.4565
▁potomków	-11.4565
▁przytacza	-11.4565
▁łatwy	-11.4565
▁zbiorowe	-11.4565
▁zdjęć	-11.4565
▁diament	-11.4566
▁zlecenie	-11.4566
▁marksistowsk	-11.4566
▁podjęli	-11.4566
▁chlorofil	-11.4566
▁alpejski	-11.4567
▁kosztown	-11.4568
▁bułgarii	-11.457
▁wyznanie	-11.4571
▁jakiegoś	-11.4571
▁słysz	-11.4572
▁odbieran	-11.4573
▁najdal	-11.4573
atio	-11.4579
▁centralną	-11.4582
yjską	-11.4584
płynęła	-11.4586
▁składnikiem	-11.4587
▁anime	-11.4587
▁franklin	-11.4588
▁starcia	-11.4589
hydroksy	-11.4598
▁nominowan	-11.4602
▁wychodząc	-11.4606
▁czytania	-11.4607
▁prezentowan	-11.4608
▁trumn	-11.4611
▁atakując	-11.4611
▁opinię	-11.4612
wolf	-11.4616
▁grecy	-11.4619
▁likwidacj	-11.4623
▁hill	-11.4625
▁reprezentant	-11.4634
▁ułożon	-11.4635
▁hermann	-11.464
bijając	-11.4643
▁centralne	-11.466
range	-11.4668
orzeł	-11.4668
▁konkurencyjn	-11.4674
▁korzystne	-11.4674
▁nieruchomości	-11.4674
▁rozgłośni	-11.4674
▁uchodźc	-11.4674
▁ugrupowań	-11.4674
▁wielkopolsce	-11.4674
▁zadeklarował	-11.4674
▁członkowskich	-11.4674
▁prawidłowo	-11.4674
▁łącznik	-11.4674
▁fizyczna	-11.4674
▁wyporności	-11.4674
▁pomieszczenia	-11.4674
▁posługiwał	-11.4674
▁studencki	-11.4674
▁porównania	-11.4674
▁widoczna	-11.4674
▁szybciej	-11.4674
▁skończył	-11.4674
▁utworach	-11.4674
▁plazm	-11.4674
▁dodatek	-11.4675
▁uroczyste	-11.4675
▁spożycie	-11.4676
▁częstochowa	-11.4676
▁tożsamość	-11.4676
▁wymiana	-11.4677
▁bogusław	-11.4677
▁problematyk	-11.4678
▁binarn	-11.4679
metal	-11.4681
▁flora	-11.4681
▁łukasz	-11.4683
▁kazał	-11.4686
▁chasyd	-11.4687
▁każdemu	-11.4687
▁wnioski	-11.4688
▁pomija	-11.4692
▁kształci	-11.4696
▁1871	-11.4713
▁lotniczego	-11.4716
rozpuszczaln	-11.4717
▁pozytywne	-11.4722
▁zakaźn	-11.4727
▁autobusowe	-11.4733
▁wagon	-11.4748
▁czynny	-11.4752
schen	-11.4754
▁atmosferyczne	-11.4759
▁nut	-11.4763
▁autorskie	-11.4773
▁kacz	-11.4773
▁mill	-11.4775
▁walter	-11.4778
▁anglojęzyczn	-11.4784
▁bezrobocie	-11.4784
▁całkowitą	-11.4784
▁ewolucja	-11.4784
▁giovanni	-11.4784
▁infrastruktury	-11.4784
▁kojarzon	-11.4784
▁najstarsza	-11.4784
▁ogólna	-11.4784
▁pograniczu	-11.4784
▁porównywaln	-11.4784
▁poszukiwaniu	-11.4784
▁przewodnictwem	-11.4784
▁płaskowyż	-11.4784
▁wilgotny	-11.4784
▁śródziemnomorsk	-11.4784
▁końcówki	-11.4784
▁proponowan	-11.4784
▁przybrzeżn	-11.4784
▁rozwojowi	-11.4784
▁zrozumienia	-11.4784
metafizyczn	-11.4784
▁mariawitów	-11.4784
▁różnorodność	-11.4784
▁napoleońsk	-11.4784
▁talmud	-11.4784
▁synagoga	-11.4784
▁zostaną	-11.4784
▁miedź	-11.4784
▁traktuje	-11.4784
▁drukarni	-11.4784
▁uznana	-11.4784
▁rządzący	-11.4786
▁administrację	-11.4786
stając	-11.4786
▁benzyn	-11.4787
▁terminal	-11.4788
▁dominującą	-11.4789
▁podłoże	-11.4791
▁korei	-11.4792
▁artur	-11.4792
▁zrobił	-11.4794
▁trak	-11.4795
▁kolejność	-11.4797
▁genealog	-11.4797
▁czerpa	-11.4797
nazwa	-11.48
▁różny	-11.4801
▁kamienny	-11.4803
▁początkowej	-11.4803
▁rejestracj	-11.4804
▁wymowy	-11.4804
▁przeniosł	-11.4804
▁wykonywać	-11.4809
▁bierut	-11.481
▁fundacj	-11.481
▁urzędnik	-11.481
tywna	-11.4814
▁areszt	-11.4814
▁club	-11.4817
▁umożliwiał	-11.4818
chodziła	-11.4822
▁toruń	-11.4824
▁spala	-11.4825
▁1882	-11.4832
▁podejmowa	-11.4835
▁wiekiem	-11.4841
▁wznosi	-11.4848
sympat	-11.4848
▁sztuczny	-11.4848
▁1860	-11.4851
▁gromadzi	-11.4854
▁republikański	-11.4863
▁gotowy	-11.4863
▁maszt	-11.4865
ogon	-11.4873
▁powstające	-11.4874
▁ciąż	-11.4875
[...]
