<unk>	0
<s>	0
</s>	0
,	-3.00881
▁de	-3.19646
.	-3.47315
▁a	-3.52002
s	-3.72852
▁e	-3.73447
▁o	-3.84801
▁do	-4.23291
▁da	-4.33806
▁em	-4.34397
▁que	-4.46514
▁	-4.92597
-	-4.96331
▁um	-4.99353
▁com	-5.02268
▁é	-5.0253
▁os	-5.02536
▁uma	-5.05849
▁no	-5.07536
▁"	-5.08579
▁para	-5.1499
▁na	-5.18373
▁por	-5.27648
▁como	-5.31143
"	-5.33601
▁(	-5.35166
▁as	-5.47212
▁dos	-5.57425
▁se	-5.63908
▁mais	-5.67524
▁foi	-5.69413
se	-5.70587
r	-5.72398
m	-5.7886
▁##	-5.79585
▁são	-5.79953
▁ao	-5.84059
▁não	-6.01941
▁das	-6.03646
▁ou	-6.05984
)	-6.09003
o	-6.09873
▁à	-6.11004
▁sua	-6.12241
a	-6.1531
▁entre	-6.20532
:	-6.23557
▁também	-6.34022
do	-6.35043
▁pela	-6.35712
▁ser	-6.38324
▁seu	-6.438
),	-6.44339
="	-6.44379
ndo	-6.44415
u	-6.44774
▁pelo	-6.45383
da	-6.4618
▁país	-6.47697
;	-6.55844
",	-6.56704
c	-6.67667
es	-6.68457
▁anos	-6.74527
▁maior	-6.76597
▁mas	-6.77547
▁tem	-6.79737
).	-6.79908
▁era	-6.79974
▁foram	-6.82649
▁parte	-6.88259
▁estado	-6.89724
e	-6.91477
▁grande	-6.91955
▁até	-6.92382
ram	-6.97309
ção	-6.97758
▁sobre	-6.98037
".	-6.99325
l	-6.99938
▁outros	-7.00359
▁nos	-7.0273
▁ele	-7.06288
mente	-7.06729
va	-7.06869
|	-7.07135
▁sendo	-7.07568
▁durante	-7.08784
/	-7.0879
▁população	-7.09514
▁nas	-7.10882
▁sul	-7.12
▁cidade	-7.12148
doc	-7.1282
▁seus	-7.13782
>	-7.14441
▁governo	-7.1561
dos	-7.15887
▁pode	-7.16735
▁forma	-7.18405
▁mundo	-7.1844
▁quando	-7.18623
▁região	-7.20048
▁norte	-7.20283
t	-7.2127
n	-7.2138
de	-7.23878
▁sistema	-7.24405
▁ainda	-7.26722
das	-7.2775
▁re	-7.32246
i	-7.32449
▁mesmo	-7.34516
ou	-7.36542
▁desde	-7.37696
▁após	-7.37735
▁primeiro	-7.37905
▁século	-7.37987
▁está	-7.38226
▁cerca	-7.38667
▁suas	-7.3889
▁onde	-7.39153
em	-7.39694
▁além	-7.39871
▁muito	-7.40839
▁brasil	-7.41137
na	-7.41179
▁outras	-7.41211
▁apenas	-7.42209
d	-7.42257
▁dois	-7.4279
▁guerra	-7.43617
la	-7.43931
▁rio	-7.44205
▁ano	-7.44575
▁já	-7.45859
▁nacional	-7.45867
is	-7.46039
os	-7.46261
▁estados	-7.46471
▁este	-7.48634
▁aos	-7.4973
▁esta	-7.51418
▁alguns	-7.51497
▁primeira	-7.51852
p	-7.52418
▁há	-7.53194
b	-7.53441
co	-7.53623
▁área	-7.53842
ra	-7.54188
▁cada	-7.55052
ta	-7.55974
pt	-7.56256
▁todos	-7.56739
▁depois	-7.56764
▁in	-7.57237
2	-7.57282
no	-7.57628
▁países	-7.57865
▁história	-7.58078
▁vez	-7.58512
to	-7.58547
▁segundo	-7.58847
lo	-7.59701
▁mil	-7.59764
▁pelos	-7.60059
g	-7.60476
ca	-7.60731
am	-7.60928
▁nome	-7.60959
▁assim	-7.61424
▁três	-7.62085
▁podem	-7.6284
re	-7.6371
í	-7.63796
y	-7.6412
▁vida	-7.64243
▁sido	-7.64555
▁partir	-7.64735
ia	-7.65207
▁enquanto	-7.6536
▁1	-7.65609
▁período	-7.65666
▁ter	-7.67446
▁número	-7.68421
te	-7.69227
ma	-7.69264
▁maioria	-7.7029
▁através	-7.70313
▁contra	-7.70432
▁embora	-7.7101
ções	-7.71246
▁pessoas	-7.71348
▁exemplo	-7.71387
?	-7.72373
f	-7.72892
▁qual	-7.73592
org	-7.73974
▁tempo	-7.75088
que	-7.75462
le	-7.75478
▁desenvolvimento	-7.75494
▁id	-7.75912
▁duas	-7.763
▁milhões	-7.76905
▁eram	-7.77076
▁nova	-7.7717
▁política	-7.77183
▁estão	-7.77391
▁principais	-7.77452
▁então	-7.77603
▁acordo	-7.7845
▁muitos	-7.79473
▁("	-7.80192
▁-	-7.80343
▁bem	-7.80378
wiki	-7.80636
▁ilha	-7.80866
▁economia	-7.80959
▁d	-7.81189
ar	-7.8172
▁i	-7.82279
▁url	-7.82382
di	-7.82473
▁às	-7.82535
://	-7.82586
curid	-7.83005
▁categori	-7.83108
wikipedia	-7.83383
https	-7.83471
▁<	-7.837
▁title	-7.8371
▁</	-7.83831
▁sem	-7.83887
▁habitantes	-7.84459
▁2	-7.85026
▁sob	-7.85816
▁têm	-7.86276
▁vários	-7.87014
▁terra	-7.87115
▁vezes	-7.87147
h	-7.87471
▁território	-7.87805
▁poder	-7.87849
▁muitas	-7.8816
▁devido	-7.88501
▁unidos	-7.88525
ria	-7.88647
▁república	-7.88654
▁algumas	-7.88948
▁—	-7.90566
▁início	-7.90666
▁c	-7.90874
▁reino	-7.9101
▁centro	-7.91217
▁3	-7.91402
▁mar	-7.91592
▁entanto	-7.92596
▁15	-7.92801
▁todo	-7.92886
▁meio	-7.92903
▁mundial	-7.93634
ce	-7.93663
á	-7.94786
ismo	-7.94937
▁isso	-7.95019
vam	-7.95074
▁km	-7.95216
▁várias	-7.95429
▁dia	-7.9607
▁possui	-7.97418
▁principalmente	-7.98757
▁seja	-7.98912
▁tornou	-7.98981
▁igreja	-7.99186
▁ilhas	-7.99238
▁grandes	-7.99242
▁[[	-7.99745
▁capital	-8.00981
nte	-8.01042
▁outro	-8.0107
▁internacional	-8.01388
ti	-8.01527
▁união	-8.0163
▁presidente	-8.01909
▁água	-8.02096
▁produção	-8.02099
x	-8.03889
▁europa	-8.04008
▁menos	-8.0412
al	-8.04786
▁império	-8.04853
ri	-8.04918
]]	-8.05055
▁5	-8.05185
ga	-8.05349
▁longo	-8.05631
▁época	-8.05656
z	-8.05781
▁grupo	-8.06068
vi	-8.06086
ro	-8.06092
▁município	-8.06092
▁movimento	-8.06762
▁língua	-8.07589
▁eles	-8.07598
▁década	-8.07834
▁4	-8.08061
▁importante	-8.0816
▁final	-8.08211
▁principal	-8.08523
▁portugal	-8.08585
▁cultura	-8.08759
in	-8.09027
▁média	-8.09384
k	-8.09492
li	-8.09639
▁rei	-8.10043
=	-8.10858
▁essa	-8.1099
▁antes	-8.11192
▁formula	-8.1121
▁uso	-8.12023
▁segunda	-8.12543
'	-8.12855
▁con	-8.12922
▁todas	-8.13061
▁energia	-8.13266
me	-8.13381
▁quais	-8.13651
▁trabalho	-8.13737
▁origem	-8.13894
▁la	-8.14312
as	-8.14364
mo	-8.14795
ba	-8.15047
ne	-8.15219
▁processo	-8.15658
▁16	-8.15926
▁novo	-8.16088
▁diferentes	-8.16255
▁teoria	-8.16523
▁tendo	-8.16892
▁tinha	-8.17255
idade	-8.17465
sa	-8.1769
▁17	-8.1827
▁janeiro	-8.18645
▁áreas	-8.1887
▁apesar	-8.19225
ve	-8.19581
▁espécies	-8.19621
er	-8.20005
▁maiores	-8.20031
▁di	-8.20058
▁social	-8.20129
▁10	-8.20144
▁base	-8.20754
▁qualquer	-8.2095
▁m	-8.20955
▁co	-8.21295
▁hoje	-8.21419
▁lei	-8.21589
3	-8.21756
▁universidade	-8.21975
")	-8.22316
▁regiões	-8.2233
ada	-8.22365
▁quatro	-8.22495
▁freguesia	-8.22745
▁grupos	-8.23237
▁quase	-8.23661
▁existem	-8.24026
▁conhecido	-8.24189
▁esse	-8.24451
▁partido	-8.24616
▁total	-8.24666
pa	-8.24993
▁si	-8.25619
▁geral	-8.26096
▁popular	-8.27307
5	-8.27599
▁central	-8.28023
▁cidades	-8.28374
▁incluindo	-8.28443
▁ex	-8.28562
▁relação	-8.28878
▁fim	-8.29356
▁geralmente	-8.29391
ni	-8.29647
pe	-8.29868
▁termo	-8.29888
ci	-8.30358
▁havia	-8.30548
v	-8.30908
▁américa	-8.31254
▁frança	-8.31451
▁alta	-8.3195
fa	-8.31975
▁porto	-8.32795
ado	-8.3322
go	-8.33827
▁al	-8.34291
▁membros	-8.34966
ão	-8.35576
po	-8.35799
▁áfrica	-8.35834
▁só	-8.35847
▁educação	-8.36022
res	-8.36279
▁local	-8.36337
ista	-8.36405
▁dentro	-8.36501
▁disso	-8.36998
▁g	-8.37136
é	-8.37144
▁força	-8.3724
▁teve	-8.37443
▁mo	-8.3748
▁sub	-8.37682
▁6	-8.37864
▁ma	-8.38012
ação	-8.38064
▁outra	-8.38981
▁toda	-8.39028
▁pouco	-8.3927
▁idade	-8.39461
▁crescimento	-8.39576
▁porém	-8.39919
▁leste	-8.39933
▁dados	-8.40305
▁atualmente	-8.40324
▁saúde	-8.40602
▁7	-8.40679
ú	-8.41219
▁forças	-8.41315
▁vi	-8.41456
▁vila	-8.41687
▁ponto	-8.42079
▁tanto	-8.42109
▁atual	-8.42294
▁religião	-8.42375
▁nível	-8.42583
▁tal	-8.42865
▁14	-8.42949
▁militar	-8.43186
▁portuguesa	-8.43538
▁chamado	-8.43631
▁morte	-8.4365
▁sa	-8.4367
▁le	-8.43769
▁costa	-8.43801
en	-8.44201
▁música	-8.44257
▁ciência	-8.44384
▁rede	-8.44465
▁dias	-8.44573
▁importantes	-8.44728
▁primeiros	-8.44738
▁18	-8.44896
▁deve	-8.44938
▁sistemas	-8.45125
▁organização	-8.45186
▁volta	-8.45708
▁12	-8.46143
▁per	-8.46256
ter	-8.46388
▁sol	-8.46595
us	-8.4667
▁oeste	-8.46741
an	-8.46763
▁caso	-8.46937
▁europeia	-8.47003
istas	-8.47096
▁direito	-8.47325
ver	-8.47456
▁quanto	-8.47611
▁8	-8.47714
ge	-8.4793
▁tipo	-8.48009
▁lado	-8.48167
▁ela	-8.48228
▁estava	-8.48502
▁passou	-8.48755
▁cinco	-8.48938
▁ocidental	-8.48945
7	-8.48947
▁independência	-8.48949
▁campo	-8.49431
▁pois	-8.49453
▁comum	-8.49765
1	-8.49815
▁p	-8.49868
▁ar	-8.49909
▁natural	-8.4992
ões	-8.49993
▁conjunto	-8.50257
▁china	-8.50395
▁clima	-8.50493
▁paulo	-8.50548
du	-8.51036
▁sociedade	-8.51446
▁estrutura	-8.51659
▁estudo	-8.52053
▁nações	-8.52063
▁conta	-8.52263
▁ca	-8.52736
▁casa	-8.52951
▁obra	-8.53311
▁deus	-8.53359
w	-8.53471
▁pre	-8.53732
▁mesma	-8.53905
▁seria	-8.5398
▁ba	-8.54006
▁lugar	-8.54076
▁influência	-8.54328
ir	-8.55076
▁arte	-8.55227
▁cor	-8.55683
▁11	-8.55708
on	-8.562
▁alemanha	-8.56366
▁estes	-8.56443
▁santa	-8.5662
▁taxa	-8.56695
▁numa	-8.56748
mento	-8.56754
▁pro	-8.5685
▁ensino	-8.56876
▁sede	-8.56916
ntes	-8.5694
▁relações	-8.57045
▁b	-8.57225
▁corpo	-8.57934
▁tarde	-8.57955
▁incluem	-8.58173
▁construção	-8.58327
vo	-8.58418
▁num	-8.58466
mos	-8.58719
▁comércio	-8.58802
▁indústria	-8.59063
▁constituição	-8.59199
um	-8.59338
▁família	-8.59466
▁20	-8.59546
▁faz	-8.59559
▁conhecida	-8.59852
▁massa	-8.59912
▁série	-8.59976
▁9	-8.60147
▁s	-8.60288
▁unido	-8.60431
▁começou	-8.60451
▁jogos	-8.60654
▁f	-8.61254
ê	-8.616
▁federal	-8.6169
▁diversos	-8.61825
▁superior	-8.61932
▁li	-8.6227
▁elementos	-8.63006
▁células	-8.63181
▁“	-8.63492
▁animais	-8.63706
▁ordem	-8.64148
▁oficial	-8.64548
▁desta	-8.65019
▁me	-8.65319
dor	-8.6557
▁valor	-8.65599
"),	-8.65622
▁distrito	-8.65906
▁papel	-8.65921
▁temperatura	-8.66026
▁joão	-8.66095
▁tais	-8.6624
▁(19	-8.66316
▁chamada	-8.66427
▁livre	-8.6648
▁locais	-8.66668
▁melhor	-8.66689
▁criação	-8.66949
▁usado	-8.6719
▁diversas	-8.67348
▁13	-8.67679
tu	-8.67784
▁menor	-8.6781
▁sempre	-8.67892
▁real	-8.68059
tos	-8.68135
▁ra	-8.6826
pi	-8.68547
ça	-8.68839
ja	-8.69062
0	-8.6916
▁considerado	-8.69174
bu	-8.69257
▁produtos	-8.69286
▁humanos	-8.69413
▁isto	-8.69441
▁deste	-8.69686
▁brasileiro	-8.69698
▁especialmente	-8.69832
▁aproximadamente	-8.70107
▁comunidade	-8.70187
▁modo	-8.70305
4	-8.70387
▁alto	-8.70604
rem	-8.70665
▁programa	-8.70678
▁concelho	-8.70749
▁características	-8.70841
▁inglês	-8.7094
be	-8.71038
▁planeta	-8.71212
▁antiga	-8.71312
▁pesquisa	-8.7148
con	-8.71536
dia	-8.71742
ó	-8.71918
▁esses	-8.71922
▁possível	-8.72082
▁car	-8.72109
gi	-8.72332
▁único	-8.72368
▁interior	-8.72483
▁t	-8.72494
▁fato	-8.7258
so	-8.72633
▁próprio	-8.72707
▁maio	-8.72711
▁natureza	-8.72714
▁livro	-8.73211
▁000	-8.73242
▁pa	-8.73435
fi	-8.73496
▁posição	-8.735
ng	-8.74191
▁causa	-8.74246
bo	-8.74428
▁revolução	-8.74453
▁outubro	-8.74495
▁serviços	-8.74516
▁terras	-8.74629
▁controle	-8.75313
▁k	-8.75406
▁cultural	-8.75734
▁japão	-8.75861
▁povo	-8.76177
▁forte	-8.76458
▁existe	-8.76583
▁°	-8.76621
▁resultado	-8.76839
bi	-8.76994
▁julho	-8.77156
▁fez	-8.77293
▁somente	-8.77305
per	-8.77633
▁x	-8.77785
▁futebol	-8.77824
▁sociais	-8.78086
▁essas	-8.78352
▁línguas	-8.78358
▁formação	-8.78822
▁público	-8.78989
▁função	-8.7905
▁aumento	-8.79071
qui	-8.79216
mar	-8.79468
mi	-8.79524
ina	-8.7964
▁termos	-8.79679
▁obras	-8.80099
▁português	-8.8011
tro	-8.80401
▁possuem	-8.80458
cu	-8.80575
▁porque	-8.80667
▁física	-8.80826
▁antigo	-8.80862
com	-8.81119
▁xix	-8.81148
▁recursos	-8.81281
▁pe	-8.81291
▁dezembro	-8.81326
▁eleições	-8.81327
▁serra	-8.81417
▁portanto	-8.81522
▁fazer	-8.81559
▁exército	-8.81787
▁conselho	-8.81907
▁vale	-8.82021
▁agosto	-8.82105
▁direitos	-8.82553
▁mercado	-8.82557
man	-8.82588
▁entretanto	-8.82593
▁linha	-8.82658
▁tratado	-8.82781
dores	-8.82947
▁junho	-8.83287
▁fora	-8.83529
▁palavra	-8.83684
▁en	-8.83787
▁–	-8.83808
▁político	-8.83882
”	-8.8394
▁estas	-8.84185
▁projeto	-8.84283
▁escola	-8.8438
▁ii	-8.84569
▁agricultura	-8.84994
▁solar	-8.85119
▁militares	-8.85173
▁itália	-8.8558
▁seguinte	-8.85796
▁civil	-8.85868
▁densidade	-8.85986
ch	-8.86192
▁su	-8.86459
tra	-8.86479
▁espanha	-8.86527
▁xx	-8.86659
▁zona	-8.8669
▁últimos	-8.8708
▁naturais	-8.87157
▁fronteira	-8.87158
6	-8.87214
lt	-8.87302
sse	-8.87311
▁tenha	-8.87364
▁presença	-8.87622
▁homens	-8.87648
▁abril	-8.87727
▁formas	-8.87739
▁ocorre	-8.87825
▁setembro	-8.87829
▁econômica	-8.87833
▁francês	-8.87932
▁março	-8.88163
▁tipos	-8.88174
el	-8.88181
▁séculos	-8.8828
▁superfície	-8.88457
nt	-8.88554
▁literatura	-8.88567
tivo	-8.8857
▁ver	-8.88679
▁escolas	-8.88682
bra	-8.88735
▁neste	-8.89009
▁ro	-8.89144
▁quantidade	-8.8918
▁única	-8.89207
▁30	-8.89316
▁parlamento	-8.89496
▁ouro	-8.89557
rá	-8.89563
▁soviética	-8.89623
▁novembro	-8.89917
▁inglaterra	-8.90341
▁ha	-8.90574
ados	-8.90623
▁lisboa	-8.90682
▁metade	-8.90685
▁sentido	-8.90872
▁encontra	-8.9088
▁setor	-8.90952
▁fa	-8.91015
ização	-8.91111
▁inter	-8.91115
adas	-8.91164
j	-8.91229
▁h	-8.91311
▁independente	-8.91367
▁seis	-8.91476
▁pib	-8.91497
▁existência	-8.9164
▁estudos	-8.91837
▁problemas	-8.91941
▁for	-8.91966
tiva	-8.92031
▁filho	-8.92098
▁espaço	-8.92201
▁luz	-8.92235
").	-8.925
ka	-8.92853
▁atividade	-8.92862
ita	-8.92922
▁humano	-8.92981
▁apresenta	-8.93129
▁capacidade	-8.93136
▁políticas	-8.93177
▁romano	-8.93211
▁freguesias	-8.93225
or	-8.93345
▁cuja	-8.93475
▁significa	-8.93608
▁pedro	-8.93681
▁ambiente	-8.93705
▁levou	-8.93799
▁santo	-8.93841
▁novas	-8.9397
cha	-8.94053
▁pré	-8.94458
▁conhecimento	-8.94636
lu	-8.94725
▁transporte	-8.95028
▁bastante	-8.95232
▁reforma	-8.95271
▁segurança	-8.9538
▁internacionais	-8.95453
▁mi	-8.9552
▁logo	-8.95694
▁própria	-8.9583
▁oriental	-8.95944
▁brasileira	-8.96056
▁bo	-8.96131
nos	-8.96224
▁partes	-8.96341
▁n	-8.9642
▁importância	-8.96459
▁empresas	-8.96463
▁pública	-8.96861
▁nesse	-8.96931
▁mulheres	-8.97195
amento	-8.97238
▁oceano	-8.9725
por	-8.97338
▁condições	-8.97592
▁posteriormente	-8.98191
▁econômico	-8.98405
▁v	-8.98471
▁municípios	-8.98511
▁rússia	-8.98532
▁domínio	-8.98699
▁metros	-8.98965
nha	-8.99024
▁índia	-8.99111
▁regime	-8.99194
▁povos	-8.99466
fe	-8.9948
▁josé	-8.99549
▁modelo	-8.99564
▁assembleia	-8.997
▁prática	-8.998
8	-9.00166
▁apoio	-9.00211
ais	-9.00213
▁tradição	-9.00366
▁novos	-9.00375
▁roma	-9.00578
▁último	-9.00631
▁fonte	-9.00636
▁industrial	-9.00659
▁núcleo	-9.00683
il	-9.00691
tas	-9.00711
▁cujo	-9.00727
▁considerada	-9.00816
si	-9.01075
▁tinham	-9.01181
▁acima	-9.01193
▁filosofia	-9.01233
▁conceito	-9.01363
▁maneira	-9.01389
des	-9.01665
▁plantas	-9.01669
▁sal	-9.01952
▁atividades	-9.01957
ha	-9.02167
&	-9.02335
▁25	-9.02338
▁anti	-9.02355
▁turismo	-9.02388
▁responsável	-9.02737
▁baixa	-9.03021
▁acesso	-9.03098
▁sucesso	-9.03155
it	-9.033
▁espécie	-9.03322
ência	-9.0337
los	-9.03483
▁dessa	-9.03527
▁objetivo	-9.03696
▁defesa	-9.03734
car	-9.03764
▁houve	-9.03801
tor	-9.03814
);	-9.03817
▁lista	-9.03864
che	-9.03867
ton	-9.03904
▁elemento	-9.03944
▁pequena	-9.03961
▁província	-9.04098
▁moderna	-9.04247
▁pi	-9.04291
":	-9.04502
▁estavam	-9.04635
▁evolução	-9.04727
▁ferro	-9.0513
▁ambos	-9.05189
▁jogo	-9.05332
▁homem	-9.05334
▁vista	-9.05415
▁ficou	-9.05415
▁vitória	-9.05435
▁seguintes	-9.05766
▁frente	-9.058
▁comunicação	-9.05821
▁ta	-9.0586
ô	-9.05874
▁pai	-9.05935
▁lhe	-9.06186
▁tecnologia	-9.06372
tri	-9.06383
cor	-9.06392
▁meses	-9.06438
▁petróleo	-9.06652
▁portugueses	-9.06901
▁of	-9.06959
jo	-9.07263
ck	-9.07328
▁serem	-9.07332
▁junto	-9.07417
▁0	-9.07601
▁trans	-9.07655
9	-9.07679
las	-9.07776
▁médio	-9.07781
▁velocidade	-9.07781
▁gerais	-9.07802
▁química	-9.08031
▁divisão	-9.08162
▁linguagem	-9.08197
ssem	-9.08211
▁membro	-9.08293
nas	-9.08344
▁liberdade	-9.08796
▁humana	-9.08809
▁te	-9.09035
son	-9.09196
▁nordeste	-9.09348
▁europeus	-9.09467
▁minas	-9.09613
io	-9.09616
lhe	-9.09666
▁políticos	-9.09732
▁rios	-9.0991
▁litoral	-9.10078
▁frequentemente	-9.1009
▁tradicional	-9.10205
▁verde	-9.10403
gem	-9.10505
▁feito	-9.10515
▁primeiras	-9.10518
▁católica	-9.10749
▁desse	-9.1111
▁data	-9.11469
▁gás	-9.11537
▁tri	-9.11614
▁leis	-9.11822
▁ásia	-9.11836
▁francesa	-9.11843
▁museu	-9.1202
ana	-9.12028
▁instituições	-9.12034
▁bi	-9.12136
▁simples	-9.12213
▁tão	-9.12305
▁funções	-9.12312
ex	-9.12393
▁busca	-9.12713
ntre	-9.12751
▁medida	-9.12812
▁instituto	-9.12827
▁jesus	-9.12828
▁nem	-9.12919
▁unidade	-9.13022
za	-9.13108
▁ja	-9.13157
▁eleito	-9.13215
▁geografia	-9.13362
▁paris	-9.13443
ando	-9.13469
▁populacional	-9.13493
▁tamanho	-9.13494
▁relativamente	-9.13529
▁qualidade	-9.13608
▁agora	-9.1367
▁processos	-9.13754
▁maria	-9.13827
▁ciências	-9.13841
▁papa	-9.13937
▁100	-9.14126
▁paz	-9.14245
▁par	-9.1429
wa	-9.14372
▁fevereiro	-9.14433
▁continua	-9.14436
▁24	-9.14638
▁ho	-9.14855
▁continente	-9.14874
▁the	-9.14904
▁bilhões	-9.14974
▁normalmente	-9.14998
rio	-9.15009
▁momento	-9.15131
▁análise	-9.1516
▁so	-9.15196
▁arquitetura	-9.15261
▁casos	-9.15371
▁argentina	-9.15416
▁especial	-9.15431
▁fi	-9.15448
▁inclui	-9.15499
▁unidas	-9.15575
▁nacionais	-9.15605
the	-9.15664
▁produto	-9.16079
▁man	-9.16096
tar	-9.16355
▁nesta	-9.16402
▁fundamental	-9.16449
nd	-9.16458
pre	-9.1672
▁campos	-9.16762
▁san	-9.16958
▁software	-9.17087
▁liga	-9.17368
▁baixo	-9.17467
▁última	-9.17498
ur	-9.17549
▁chegou	-9.17585
▁recebeu	-9.17658
(	-9.17685
▁fontes	-9.17703
sso	-9.17742
▁unidades	-9.17788
▁po	-9.18032
▁elas	-9.18135
▁torno	-9.18149
▁significativa	-9.18202
eiro	-9.18207
▁matemática	-9.18422
ho	-9.18425
▁chefe	-9.18505
▁administração	-9.1858
▁imperador	-9.18738
ministro	-9.1881
▁auto	-9.19072
▁ideia	-9.19084
▁terceiro	-9.19127
et	-9.19306
▁r	-9.19429
▁ajuda	-9.1951
iana	-9.1952
cio	-9.19562
▁material	-9.19715
▁utilizado	-9.19743
▁versão	-9.19812
▁teria	-9.19869
th	-9.19907
▁aves	-9.19937
▁código	-9.20143
▁contudo	-9.20264
tou	-9.20379
st	-9.20428
▁grego	-9.20432
▁santos	-9.20742
ad	-9.2075
ru	-9.20889
10	-9.20956
▁ne	-9.21083
▁passa	-9.21291
▁clube	-9.21498
▁via	-9.21739
▁abaixo	-9.2176
▁escala	-9.2177
ry	-9.22056
gt	-9.22078
▁plano	-9.2213
▁tra	-9.22155
▁cu	-9.22348
ber	-9.22384
▁comuns	-9.22447
▁britânico	-9.22453
▁verão	-9.22469
▁décadas	-9.22519
cas	-9.22597
▁pontos	-9.22769
▁estilo	-9.22773
▁direção	-9.22871
ten	-9.22997
▁(18	-9.23066
▁crise	-9.23153
ul	-9.23209
▁to	-9.23209
id	-9.23221
▁pessoa	-9.23235
▁cabo	-9.23249
ável	-9.23331
cia	-9.23525
nta	-9.23547
▁nunca	-9.23607
▁be	-9.23946
▁mudanças	-9.24086
▁informação	-9.2409
▁composto	-9.24164
mina	-9.24288
▁presente	-9.24505
▁mu	-9.24542
gen	-9.24619
▁cristãos	-9.24627
▁atlântico	-9.24675
▁quilômetros	-9.24755
je	-9.24876
▁oficialmente	-9.25102
▁conhecidos	-9.25122
▁boa	-9.2527
▁sete	-9.25447
▁compostos	-9.25494
▁movimentos	-9.25566
▁valores	-9.25634
▁fosse	-9.25867
▁propriedades	-9.26107
▁governador	-9.26158
▁menores	-9.26234
▁interesse	-9.2627
▁situação	-9.26358
▁próximo	-9.26442
▁europeu	-9.26477
▁serviço	-9.26572
▁lo	-9.26728
são	-9.26799
ário	-9.26889
▁nação	-9.27013
▁península	-9.27066
▁alemão	-9.27204
▁diz	-9.27357
▁padrão	-9.27413
▁formar	-9.27502
▁comercial	-9.2751
▁mal	-9.27516
▁tornando	-9.27517
▁nessa	-9.27536
via	-9.27578
eu	-9.27598
▁he	-9.27652
▁sudeste	-9.2768
▁método	-9.27698
▁eventos	-9.27858
▁religiosa	-9.27988
▁níveis	-9.27994
▁criada	-9.28086
▁escravos	-9.28172
▁indígenas	-9.28202
▁deles	-9.28347
19	-9.28424
▁visão	-9.28552
▁comportamento	-9.28616
cer	-9.28685
ço	-9.28692
▁ocorreu	-9.28752
▁infraestrutura	-9.28764
▁definição	-9.28809
–	-9.28949
gu	-9.28997
▁aeroporto	-9.29142
▁localizado	-9.29247
▁visto	-9.29249
▁criado	-9.29255
▁diretamente	-9.29288
▁composta	-9.29351
▁arquipélago	-9.29565
▁tornar	-9.29628
▁u	-9.29661
▁cidadãos	-9.29879
▁méxico	-9.2988
▁francisco	-9.30027
▁propriedade	-9.30063
▁feita	-9.30316
▁ju	-9.3032
▁poderia	-9.30322
fo	-9.3055
▁ideias	-9.30713
▁efeito	-9.30744
▁extensão	-9.30966
▁antigos	-9.30976
▁célula	-9.31085
ing	-9.31108
mor	-9.31129
▁altitude	-9.31217
▁parece	-9.3129
ut	-9.31368
▁trabalhadores	-9.31451
▁l	-9.31536
ko	-9.31553
▁pequeno	-9.3156
▁troca	-9.31603
▁descoberta	-9.31728
▁teatro	-9.31795
▁londres	-9.31926
▁tradicionais	-9.32087
▁sejam	-9.32354
iam	-9.32446
▁religiões	-9.3257
▁árabe	-9.32682
oso	-9.327
ica	-9.32715
▁dinastia	-9.32732
▁internet	-9.32809
▁21	-9.32823
▁representa	-9.32831
▁verdade	-9.32884
▁oposição	-9.33005
▁global	-9.33043
ze	-9.33145
▁destes	-9.33193
▁john	-9.33221
▁mudança	-9.33346
▁desses	-9.33464
▁estação	-9.33493
▁2010,	-9.33515
▁bu	-9.33526
▁go	-9.33594
▁estar	-9.33658
▁israel	-9.33699
sh	-9.33762
▁organismos	-9.33945
▁democracia	-9.33958
▁oficiais	-9.34063
meados	-9.34095
▁ciclo	-9.34145
como	-9.34245
30	-9.34327
at	-9.34353
▁contrário	-9.34365
▁batalha	-9.34378
▁memória	-9.34388
chi	-9.34442
▁conflito	-9.34521
▁22	-9.34535
▁celular	-9.34565
▁usada	-9.34633
der	-9.34636
▁populares	-9.34909
uma	-9.34946
▁dólares	-9.3504
▁histórico	-9.35117
▁computador	-9.3513
▁perto	-9.35148
▁pequenas	-9.35203
▁problema	-9.35221
▁carlos	-9.35242
▁territórios	-9.35259
▁romana	-9.35415
▁líder	-9.35437
▁culturais	-9.35567
▁classe	-9.356
▁particular	-9.35643
▁informações	-9.35711
▁luta	-9.35761
▁linhas	-9.35794
cos	-9.35841
▁expressão	-9.35857
▁consiste	-9.35865
par	-9.35922
tá	-9.35929
▁algum	-9.35953
2,	-9.36015
▁pensamento	-9.36041
eira	-9.36114
▁carta	-9.36148
▁medicina	-9.36193
=1	-9.36206
▁torna	-9.36206
▁prêmio	-9.36273
▁científica	-9.36433
ino	-9.3712
▁vem	-9.37204
▁cristianismo	-9.3723
eiros	-9.37305
▁her	-9.37386
▁escreveu	-9.3741
▁índice	-9.37446
▁ka	-9.37491
▁demais	-9.37515
izado	-9.37538
▁classificação	-9.3759
50	-9.37595
▁manter	-9.37631
▁corte	-9.37669
▁hitler	-9.37712
▁conquista	-9.37757
▁monte	-9.3788
▁altura	-9.37909
▁começaram	-9.37973
▁devem	-9.37989
°	-9.38009
▁and	-9.38018
▁fé	-9.38101
20	-9.38153
▁produtor	-9.38296
pro	-9.38307
▁ga	-9.3833
▁tropas	-9.38398
▁mor	-9.38512
▁'	-9.38696
▁madeira	-9.38746
▁latina	-9.38765
▁can	-9.38809
▁estruturas	-9.38924
▁métodos	-9.39093
▁henrique	-9.39093
▁usando	-9.39187
▁bar	-9.39216
▁temperaturas	-9.39223
▁19	-9.39252
▁contexto	-9.39429
▁criar	-9.39599
▁parque	-9.39602
▁du	-9.39776
▁regional	-9.39776
▁permite	-9.39821
▁objetos	-9.3983
▁fica	-9.3985
▁escrita	-9.39952
ki	-9.39979
ven	-9.39991
▁câmara	-9.4012
tes	-9.40207
▁administrativa	-9.4033
▁etc	-9.40337
▁falta	-9.40545
▁1980	-9.4086
▁socialista	-9.40942
▁peças	-9.40966
▁expansão	-9.41
he	-9.41079
▁lua	-9.41219
▁50	-9.41234
▁rapidamente	-9.41352
▁autor	-9.41362
▁40	-9.41551
00	-9.41558
▁espírito	-9.41586
▁materiais	-9.41731
▁princípio	-9.41735
min	-9.41779
ju	-9.4182
▁nomes	-9.41839
▁inicialmente	-9.41949
un	-9.41983
▁metropolitana	-9.42061
▁empresa	-9.42236
▁razão	-9.42239
▁coreia	-9.42247
▁conforme	-9.42248
mas	-9.42256
tura	-9.4226
▁provavelmente	-9.42262
▁solo	-9.42357
▁interna	-9.42415
gar	-9.42427
tur	-9.4243
ed	-9.42517
im	-9.42517
▁armadas	-9.42744
▁pós	-9.42801
▁juntamente	-9.4282
▁ti	-9.42869
▁destaca	-9.43053
▁dez	-9.43112
▁variedade	-9.43176
▁ce	-9.43209
▁composição	-9.43271
ke	-9.43346
▁jo	-9.43427
den	-9.43461
▁pressão	-9.43498
▁iii	-9.43564
▁anterior	-9.4364
mer	-9.43761
▁clássica	-9.43855
▁semelhante	-9.43918
▁afirma	-9.43979
▁deu	-9.44063
ã	-9.44248
▁engenharia	-9.44294
▁encontram	-9.44303
zo	-9.44363
▁associação	-9.44429
▁seguida	-9.44582
▁técnicas	-9.44637
▁municipal	-9.44764
hi	-9.44916
▁realizado	-9.44925
▁grécia	-9.44947
land	-9.45127
40	-9.45189
▁companhia	-9.45233
▁ci	-9.45332
les	-9.45367
▁título	-9.45419
▁alguma	-9.45428
▁cargo	-9.4545
tivos	-9.45567
▁estadual	-9.45681
▁coroa	-9.45696
▁novamente	-9.45778
▁fazem	-9.45831
▁terceira	-9.45894
▁destaque	-9.45983
▁comerciais	-9.46051
▁distribuição	-9.4607
▁crescente	-9.46262
▁atmosfera	-9.46421
▁(1	-9.4646
xi	-9.46461
fer	-9.46511
▁23	-9.46555
▁copa	-9.46776
ment	-9.46787
▁fase	-9.46919
▁castelo	-9.46924
▁usados	-9.46946
cri	-9.47038
▁nossa	-9.4713
▁montanhas	-9.47227
▁programas	-9.4745
▁britânica	-9.47482
▁seres	-9.47515
▁oito	-9.47568
▁entrada	-9.47581
▁censo	-9.47597
▁localizada	-9.47604
▁2013,	-9.47617
15	-9.47668
▁tu	-9.47719
▁cal	-9.47844
▁objeto	-9.47903
▁ali	-9.4791
▁alimentos	-9.47947
▁palavras	-9.4798
▁original	-9.48007
▁indivíduos	-9.48309
▁desenvolveu	-9.48343
mon	-9.48363
▁fe	-9.48446
▁micro	-9.48525
▁organizações	-9.48694
▁crianças	-9.48763
▁fo	-9.4882
▁tornaram	-9.48843
ssa	-9.48896
qu	-9.48915
▁ni	-9.48919
lin	-9.48972
▁lugares	-9.49009
▁estrangeiros	-9.49116
▁ve	-9.49119
▁tempos	-9.49136
tion	-9.492
▁ru	-9.49229
▁demografia	-9.49252
▁baixos	-9.49376
▁tudo	-9.49416
▁toneladas	-9.49438
▁participação	-9.49479
▁super	-9.49652
▁colonial	-9.49673
ano	-9.49689
▁afonso	-9.49821
▁oriente	-9.49822
▁sobretudo	-9.49855
▁aspectos	-9.49932
ária	-9.49969
▁números	-9.50012
▁ministério	-9.50013
▁respeito	-9.50021
▁denominada	-9.50068
▁interno	-9.50108
ster	-9.50194
▁tribunal	-9.50206
▁questão	-9.50226
▁lu	-9.50263
▁começa	-9.503
▁universal	-9.50349
60	-9.50385
▁seleção	-9.50401
▁referência	-9.50411
▁computadores	-9.5055
▁inverno	-9.50611
▁branco	-9.50659
▁figura	-9.50685
▁muçulmanos	-9.50687
_1	-9.50801
▁cristo	-9.50994
▁teorias	-9.51064
áveis	-9.51089
▁fundação	-9.51192
para	-9.51205
tina	-9.51239
▁marca	-9.51268
▁tiveram	-9.51381
▁campeonato	-9.51447
pl	-9.515
▁efeitos	-9.51514
▁noroeste	-9.51566
▁xviii	-9.51624
▁pequenos	-9.51855
ras	-9.51875
▁judeus	-9.51977
▁irlanda	-9.51995
▁consumo	-9.52
▁renda	-9.52019
▁baseada	-9.52105
▁surgiu	-9.52154
▁metal	-9.52154
▁27	-9.52198
▁ocupação	-9.52253
▁26	-9.52417
▁nobel	-9.52664
▁contém	-9.52745
▁golpe	-9.52759
▁acredita	-9.5277
▁criou	-9.52807
▁dá	-9.52816
▁romanos	-9.5282
zi	-9.53033
▁poli	-9.53081
▁matéria	-9.53222
▁varia	-9.5326
▁cinema	-9.53376
ya	-9.53438
▁passado	-9.53557
▁equipe	-9.53627
lar	-9.53709
2.	-9.53782
▁imigrantes	-9.53846
iva	-9.53914
▁chamados	-9.53935
izada	-9.54005
▁disse	-9.54058
▁igrejas	-9.54116
pu	-9.5422
ku	-9.5443
▁questões	-9.54549
▁28	-9.54569
▁artes	-9.54667
▁urbana	-9.54854
▁comprimento	-9.54946
▁w	-9.55025
▁fundada	-9.5503
ine	-9.55064
ologia	-9.55117
▁pessoal	-9.55292
▁mussolini	-9.55351
▁gênero	-9.55519
▁proteínas	-9.55628
▁500	-9.55673
ido	-9.55691
▁tradições	-9.55758
▁resultados	-9.55803
▁poucos	-9.55807
▁general	-9.55834
tin	-9.55856
▁científico	-9.5592
▁milhares	-9.55962
til	-9.55967
▁monarquia	-9.55991
▁estima	-9.55995
ira	-9.56037
▁refere	-9.56083
▁|	-9.56132
▁autoridade	-9.56133
▁partidos	-9.56172
▁princípios	-9.56184
▁dessas	-9.56204
▁ri	-9.56234
▁reação	-9.56241
▁rádio	-9.56371
nia	-9.56379
▁quem	-9.56426
ger	-9.56429
▁artigo	-9.56522
▁dividido	-9.56525
▁passaram	-9.56544
▁pelé	-9.56588
cho	-9.56596
▁dis	-9.56607
▁hu	-9.56646
▁culturas	-9.56789
▁aplicações	-9.56803
26	-9.56843
▁diferente	-9.56855
iano	-9.56956
▁cristã	-9.57012
▁necessário	-9.57159
▁usar	-9.5719
▁religiosas	-9.57195
▁fazendo	-9.57202
▁realizada	-9.57271
25	-9.5735
▁autores	-9.5739
▁espanhol	-9.57402
▁casas	-9.57409
▁exploração	-9.57426
▁lá	-9.57429
▁deveria	-9.5743
▁encontrado	-9.57484
▁j	-9.57582
▁distância	-9.57594
▁academia	-9.57609
▁horas	-9.57802
▁constitucional	-9.57817
▁províncias	-9.57824
▁2010	-9.5788
▁externa	-9.58008
▁latim	-9.58049
▁qui	-9.58096
▁públicas	-9.58119
ín	-9.58229
▁pan	-9.58232
iro	-9.58336
▁olímpicos	-9.58346
▁formam	-9.58347
▁cha	-9.58428
▁nenhum	-9.58433
▁resistência	-9.58454
▁pacífico	-9.58467
ic	-9.58496
▁armas	-9.58536
tal	-9.58632
▁iniciou	-9.58653
▁quarto	-9.58654
▁trabalhos	-9.58772
ros	-9.58778
▁jogador	-9.5878
▁britânicos	-9.58831
13	-9.58848
ct	-9.58861
▁formado	-9.58882
▁altas	-9.58882
▁meios	-9.58969
▁necessidade	-9.5908
▁executivo	-9.59093
▁doenças	-9.59119
▁ir	-9.5921
▁apresentam	-9.59447
▁nenhuma	-9.59507
▁resposta	-9.59525
35	-9.59532
▁árabes	-9.59562
▁antigas	-9.5961
▁comunidades	-9.5964
▁guarda	-9.59645
gue	-9.59787
▁bom	-9.59797
▁particularmente	-9.5985
16	-9.59981
▁religiosos	-9.59991
▁anual	-9.60051
▁populações	-9.60133
▁texto	-9.60159
▁animal	-9.60466
▁ligação	-9.60487
▁livros	-9.60533
▁florestas	-9.6061
▁caminho	-9.60667
▁filhos	-9.60747
▁ganhou	-9.60798
-19	-9.60868
ía	-9.60877
▁finalmente	-9.60951
▁banda	-9.61072
▁carne	-9.61114
izar	-9.6116
70	-9.61168
▁cientistas	-9.6117
▁29	-9.61179
▁congresso	-9.61204
▁franceses	-9.61206
▁caça	-9.6124
▁rica	-9.61394
▁2009,	-9.61477
▁águas	-9.61492
▁estabelecimento	-9.61512
nto	-9.61619
ji	-9.61637
▁gra	-9.61655
17	-9.61663
47	-9.61703
aram	-9.61783
▁conseguiu	-9.61852
▁predominante	-9.6188
ível	-9.61955
▁nuclear	-9.61985
cidade	-9.62001
▁âmbito	-9.62069
tt	-9.62084
56	-9.62175
▁colônia	-9.62205
55	-9.62244
▁conflitos	-9.62297
▁terrestre	-9.62367
▁planetas	-9.6237
▁longa	-9.62435
▁mês	-9.62527
]	-9.62709
bri	-9.62922
bre	-9.6296
ense	-9.62971
▁russo	-9.63063
▁nove	-9.63106
ie	-9.63134
▁frequência	-9.63161
▁respectivamente	-9.63161
▁sudoeste	-9.63161
▁mata	-9.63173
11	-9.63207
▁darwin	-9.6321
▁amplamente	-9.63235
▁será	-9.63299
▁milhão	-9.6338
28	-9.63406
▁sin	-9.63422
▁navios	-9.63511
▁artistas	-9.63589
▁constante	-9.63647
nda	-9.63686
▁2008,	-9.63747
▁públicos	-9.63913
▁mandato	-9.63967
▁moléculas	-9.64061
▁prata	-9.64069
▁canadá	-9.64266
▁algo	-9.64285
▁xvi	-9.64301
sto	-9.64437
▁mac	-9.64453
▁us	-9.64523
bar	-9.64547
▁príncipe	-9.64561
não	-9.64607
gos	-9.64608
▁dado	-9.64652
▁justiça	-9.64709
▁vice	-9.64723
▁sim	-9.64725
au	-9.65009
▁encontrados	-9.65141
▁doutrina	-9.65156
▁xvii	-9.65157
▁mecânica	-9.65221
rra	-9.65228
▁jovens	-9.65381
sen	-9.65404
▁proteção	-9.65423
▁aquele	-9.65664
▁60	-9.65674
▁fronteiras	-9.65719
ndi	-9.6573
▁produzir	-9.65808
)"	-9.65908
lha	-9.65913
▁disputa	-9.65941
▁conhecidas	-9.65948
▁senhora	-9.65986
▁lógica	-9.65987
12	-9.66048
34	-9.66054
▁comissão	-9.66065
14	-9.6616
▁complexo	-9.66231
▁banco	-9.66279
▁fatores	-9.66429
▁regras	-9.66451
ida	-9.66492
ite	-9.66516
▁hi	-9.66557
▁imagem	-9.66711
▁atuais	-9.66768
▁deriva	-9.66786
▁floresta	-9.668
▁recentemente	-9.66802
▁melhores	-9.66861
▁esquerda	-9.66867
bil	-9.66883
▁exemplos	-9.66897
▁2006,	-9.67049
▁ge	-9.67121
▁evento	-9.67159
▁manuel	-9.67199
▁realidade	-9.6727
amp	-9.67326
▁sequência	-9.67408
▁grega	-9.6742
▁estabeleceu	-9.67494
▁mostra	-9.67609
▁práticas	-9.67617
▁federação	-9.67651
▁praticamente	-9.67675
▁experiência	-9.6768
ud	-9.67858
▁vivem	-9.67861
▁rico	-9.67866
▁atrás	-9.67944
▁chegar	-9.67991
▁presentes	-9.68005
▁har	-9.68061
riam	-9.68064
▁universidades	-9.68098
ll	-9.68141
▁considerados	-9.68142
xa	-9.68194
▁centros	-9.68212
▁mão	-9.68241
▁inicial	-9.6828
▁fu	-9.68325
cl	-9.68421
▁católicos	-9.68438
▁completa	-9.68458
▁alemães	-9.68461
32	-9.68559
▁mistura	-9.68571
▁destacam	-9.6858
▁impacto	-9.68587
▁constituído	-9.68805
38	-9.68988
_	-9.69061
▁fortemente	-9.69252
fu	-9.69337
stra	-9.69343
▁colonização	-9.69509
▁som	-9.69554
▁vai	-9.69639
▁extremo	-9.69739
ion	-9.69748
▁corrente	-9.69817
ân	-9.69835
▁200	-9.6988
▁direta	-9.69893
▁cruz	-9.69902
▁estabelecer	-9.69972
br	-9.7002
▁aplicação	-9.70024
▁facto	-9.70028
tivas	-9.70064
q	-9.7008
▁moderno	-9.7009
▁men	-9.70115
▁br	-9.70198
▁austrália	-9.70209
▁invasão	-9.70209
▁exterior	-9.70315
▁capaz	-9.70328
▁[	-9.70357
▁bra	-9.70405
▁obter	-9.7045
▁dividida	-9.70498
▁cobre	-9.70643
rd	-9.70688
▁prova	-9.70689
80	-9.70695
▁geração	-9.70744
▁ação	-9.70856
▁bahia	-9.70918
▁desenvolvido	-9.70976
▁canal	-9.7098
▁crença	-9.71068
▁camada	-9.71109
▁partículas	-9.71191
▁capita	-9.71241
23	-9.71391
48	-9.71393
iu	-9.71421
54	-9.71436
ref	-9.71516
▁hidrogênio	-9.71634
▁tratamento	-9.71674
▁utilizada	-9.71842
▁ocidentais	-9.71872
▁corpos	-9.71874
▁calor	-9.7193
▁conservação	-9.71932
▁acontece	-9.71987
▁2021	-9.72007
▁ocupa	-9.72032
▁democrática	-9.72113
ente	-9.72163
▁ambas	-9.72175
▁aumentar	-9.72247
▁comando	-9.7225
▁protestantes	-9.72281
▁queda	-9.72288
▁biologia	-9.72326
cr	-9.72346
▁pu	-9.7236
▁mãe	-9.72374
▁va	-9.72423
mu	-9.72497
▁completamente	-9.72681
▁tentativa	-9.72697
▁2007,	-9.72742
▁favor	-9.72761
ren	-9.72834
tores	-9.72874
49	-9.72917
▁dança	-9.73064
▁deixou	-9.73079
▁mato	-9.73081
▁amor	-9.73107
indo	-9.73193
▁famílias	-9.73227
qua	-9.73279
▁bandeira	-9.73301
▁riqueza	-9.73319
▁paraná	-9.73348
▁bens	-9.7344
▁faixa	-9.73447
▁samba	-9.73481
men	-9.73485
▁anteriores	-9.73494
▁econômicas	-9.7365
▁31	-9.73678
▁zonas	-9.73716
▁crenças	-9.7375
▁continuou	-9.73806
▁legislativo	-9.73806
▁decreto	-9.73835
ag	-9.74059
▁ue	-9.74093
▁pesquisas	-9.7412
▁poderes	-9.74234
▁esportes	-9.74241
▁coimbra	-9.74296
▁vermelho	-9.74296
tado	-9.74336
ide	-9.74337
▁grau	-9.74358
▁soma	-9.74455
▁aceita	-9.74484
▁rápido	-9.74542
▁haviam	-9.74587
▁espanhola	-9.74704
▁futuro	-9.74788
▁denominado	-9.74794
▁coisas	-9.7492
▁totalmente	-9.74923
▁vírus	-9.74936
▁sabe	-9.74951
▁nomeado	-9.75157
▁chegaram	-9.75162
▁filme	-9.75225
nce	-9.75251
▁cooperação	-9.75304
▁leva	-9.75349
▁evidências	-9.75373
nes	-9.7538
▁estuda	-9.75437
nu	-9.7544
▁reformas	-9.7548
▁hipótese	-9.75486
▁mantém	-9.75531
▁curso	-9.75574
▁taxas	-9.75638
▁ko	-9.75655
▁componentes	-9.75674
▁suficiente	-9.75694
▁crítica	-9.75702
▁300	-9.75739
▁acabou	-9.76029
▁conteúdo	-9.76029
▁1999	-9.76036
▁trata	-9.76042
▁votos	-9.76049
gia	-9.76126
▁ampla	-9.76198
▁guiné	-9.76281
▁1998	-9.76286
▁fra	-9.76295
▁carbono	-9.76344
ações	-9.76372
▁gu	-9.76373
▁beira	-9.76386
tr	-9.76442
▁anteriormente	-9.76493
▁bacia	-9.76508
▁luís	-9.76535
▁jornal	-9.76542
▁&	-9.76554
▁inclusive	-9.76567
▁baseado	-9.76591
▁aumentou	-9.76688
▁nu	-9.76709
52	-9.76723
▁genética	-9.76783
24	-9.768
▁vivos	-9.76806
▁alemã	-9.76888
18	-9.76945
▁igual	-9.76945
▁feitas	-9.76953
86	-9.77022
▁caribe	-9.77039
▁capitania	-9.7704
nho	-9.77099
▁disco	-9.77259
▁derrota	-9.77266
▁difícil	-9.77285
▁padrões	-9.77285
▁suíça	-9.77285
▁culto	-9.77288
▁uruguai	-9.77308
sta	-9.77346
ias	-9.77438
▁formal	-9.77538
▁espanhóis	-9.77538
▁aliança	-9.77538
90	-9.77615
cal	-9.77697
▁órbita	-9.77769
▁elevado	-9.77805
ff	-9.77881
▁lançado	-9.78012
▁catarina	-9.78053
▁símbolo	-9.78086
▁recife	-9.78087
▁neo	-9.78112
▁posse	-9.78125
vol	-9.78134
▁utilizados	-9.78198
▁corresponde	-9.78204
sas	-9.78256
▁formada	-9.78257
▁elétrica	-9.78295
▁pernambuco	-9.78302
▁publicado	-9.78352
ico	-9.7848
ios	-9.78504
▁edição	-9.78573
▁situa	-9.78633
▁tenham	-9.78725
▁mulher	-9.78762
▁regionais	-9.78814
▁etimologia	-9.78814
▁entrou	-9.78814
2"	-9.78848
▁projetos	-9.78852
▁depende	-9.78855
45	-9.78867
▁indica	-9.78932
▁conceitos	-9.78951
▁gama	-9.78955
▁voto	-9.78961
▁encontrar	-9.7903
▁tro	-9.79067
▁profissional	-9.79071
▁comunista	-9.79072
▁mon	-9.79084
,4%	-9.79101
▁redes	-9.7918
37	-9.79208
bretanha	-9.79329
▁grosso	-9.79333
▁italiano	-9.79334
▁viagem	-9.7937
▁passar	-9.79385
▁estrela	-9.79421
▁medidas	-9.79478
▁resto	-9.79504
ler	-9.79506
▁africanos	-9.79516
▁líderes	-9.7953
▁bases	-9.79539
▁newton	-9.79594
▁agrícola	-9.79597
51	-9.79604
▁veio	-9.79606
lé	-9.79761
▁classes	-9.79821
▁chegada	-9.79827
▁civis	-9.79855
▁professor	-9.79976
▁dna	-9.80036
▁estatuto	-9.80106
▁seguido	-9.80117
▁quinta	-9.80119
▁reais	-9.80166
tão	-9.80207
▁visita	-9.80252
▁im	-9.80264
▁cas	-9.80287
▁bio	-9.80297
▁transportes	-9.80314
▁contato	-9.80363
▁eleição	-9.80369
▁brasileiros	-9.80392
inha	-9.80463
▁vizinhos	-9.80537
▁delas	-9.80549
▁1990,	-9.80581
▁2011,	-9.80624
▁ambiental	-9.80627
▁antiguidade	-9.80627
▁imperial	-9.80643
▁reinado	-9.80648
▁grã	-9.80671
▁torre	-9.80749
▁lago	-9.80787
▁pico	-9.80879
▁característica	-9.80927
▁volume	-9.8094
▁jogadores	-9.81061
▁fala	-9.81153
▁passando	-9.81176
mais	-9.81184
ários	-9.81204
▁pedra	-9.81294
ura	-9.81311
▁gelo	-9.81364
inho	-9.81394
▁áustria	-9.81415
2)	-9.81442
▁peça	-9.81512
ris	-9.81521
▁órgãos	-9.81664
▁paraguai	-9.81693
▁sangue	-9.81702
▁esporte	-9.81749
▁localização	-9.81818
ima	-9.81852
▁envolve	-9.81857
▁escrito	-9.81868
▁reconhecimento	-9.81952
▁graças	-9.8199
27	-9.82003
▁procura	-9.82012
";	-9.82013
▁onda	-9.82018
▁diferenças	-9.8206
33	-9.82109
▁suécia	-9.82208
lho	-9.8221
▁morreu	-9.82249
posta	-9.82261
▁utilização	-9.82297
▁soldados	-9.82326
▁chile	-9.82411
▁significado	-9.82443
tico	-9.82474
▁extinta	-9.82474
stru	-9.8249
uri	-9.82523
▁bal	-9.82558
▁transição	-9.82741
▁violência	-9.82744
vel	-9.82831
39	-9.82847
gui	-9.82895
▁cana	-9.82902
▁gregos	-9.83054
▁ur	-9.83163
▁realizar	-9.83178
▁estações	-9.83203
▁textos	-9.83244
▁venezuela	-9.83244
▁2012,	-9.83248
ig	-9.83392
▁enorme	-9.83416
▁relatório	-9.83545
▁=	-9.83582
▁continental	-9.83623
▁hab	-9.83669
▁abriga	-9.83681
▁paulista	-9.83683
▁inglesa	-9.83815
▁polícia	-9.83817
▁palácio	-9.84085
▁baixas	-9.84126
região	-9.8417
▁físico	-9.84207
gra	-9.84237
▁independentes	-9.84239
▁utiliza	-9.84256
▁potencial	-9.8427
▁ocidente	-9.84356
▁atingir	-9.84357
▁descendentes	-9.84459
▁peso	-9.84562
▁partida	-9.84564
▁elevada	-9.84766
ró	-9.8498
▁ataque	-9.85053
▁fogo	-9.85121
log	-9.85126
▁próprios	-9.85159
▁jovem	-9.85174
▁setores	-9.85356
-1	-9.85432
cur	-9.85433
▁presidência	-9.85447
▁y	-9.8547
▁gal	-9.85519
▁rea	-9.85535
kh	-9.85553
▁diferença	-9.85602
▁possibilidade	-9.85611
▁limites	-9.85629
▁existentes	-9.85631
▁marinha	-9.85659
agem	-9.85659
▁pesca	-9.85693
▁dura	-9.85698
▁constituem	-9.85722
▁evitar	-9.85769
▁extremamente	-9.85777
▁reserva	-9.85794
▁semana	-9.85864
▁eleitos	-9.85872
▁originalmente	-9.85882
▁marte	-9.85885
▁planalto	-9.85891
tim	-9.85909
,5%	-9.86008
▁fortes	-9.86022
▁estudantes	-9.86035
▁comparação	-9.86042
▁ligações	-9.86084
▁documentos	-9.86139
▁consequência	-9.86167
▁ácido	-9.86264
▁surgiram	-9.86296
▁destas	-9.86364
cre	-9.86381
▁indústrias	-9.86469
▁amazonas	-9.86551
▁assumiu	-9.86551
▁televisão	-9.86552
rão	-9.86617
dio	-9.86644
▁poeta	-9.86763
▁caráter	-9.86829
▁diversidade	-9.86829
▁1994	-9.86837
ante	-9.87055
lla	-9.87059
▁extinção	-9.87107
▁tropical	-9.87107
▁categoria	-9.8715
mb	-9.87284
▁simplesmente	-9.87287
▁reinos	-9.87304
▁departamento	-9.87344
▁técnica	-9.87348
▁ocorrem	-9.87365
▁italiana	-9.87387
▁redução	-9.87387
fica	-9.87432
▁situado	-9.87453
▁2008	-9.87484
ático	-9.87584
▁musical	-9.87681
▁africana	-9.87767
▁chi	-9.8777
ot	-9.87771
nça	-9.87886
ol	-9.879
▁casamento	-9.87917
▁americano	-9.87918
▁responsáveis	-9.87948
▁instituição	-9.87959
▁xadrez	-9.88002
▁modelos	-9.88194
▁homenagem	-9.88229
▁1995	-9.88237
▁estradas	-9.88413
▁surgimento	-9.88512
▁relevo	-9.88512
▁egito	-9.88516
icos	-9.88557
▁formando	-9.88583
▁escritor	-9.88585
ac	-9.88672
,6%	-9.88674
▁distritos	-9.88728
▁ministro	-9.88763
▁festa	-9.88768
▁humanidade	-9.88802
▁ponte	-9.88832
▁desenvolver	-9.88859
▁dizer	-9.88867
bio	-9.88876
▁ramo	-9.88932
▁2005,	-9.88965
▁velho	-9.88975
▁revolta	-9.89062
▁brasília	-9.89079
▁william	-9.89081
▁cro	-9.8916
▁guerras	-9.89182
ip	-9.8919
▁fundo	-9.89208
▁inferior	-9.89236
▁moeda	-9.89332
▁membrana	-9.89335
▁chinesa	-9.89336
97	-9.89343
▁budismo	-9.89364
▁fizeram	-9.8937
gre	-9.89464
▁levando	-9.89548
▁inc	-9.89624
▁modernos	-9.89625
▁culinária	-9.8965
▁recebe	-9.89692
tação	-9.89696
▁histórica	-9.89722
▁demanda	-9.89727
▁campanha	-9.89918
▁permitiu	-9.89936
▁secundário	-9.89936
▁golfo	-9.89942
▁publicou	-9.89948
▁russa	-9.89965
▁limitado	-9.89968
nga	-9.9004
ner	-9.90081
ye	-9.90164
▁val	-9.90171
▁completo	-9.90227
▁turistas	-9.9024
ela	-9.90365
▁planta	-9.90389
▁conde	-9.90434
▁redor	-9.9047
era	-9.90471
▁idioma	-9.90502
▁identidade	-9.90512
▁fins	-9.90554
▁cara	-9.90705
▁semelhantes	-9.9074
,2%	-9.90744
▁seguir	-9.90761
▁usuário	-9.90797
▁declarou	-9.90801
▁aberto	-9.90827
▁pen	-9.90854
rou	-9.90872
31	-9.90902
dão	-9.90938
val	-9.91078
▁estende	-9.91089
▁aérea	-9.911
▁res	-9.91186
ns	-9.91224
cada	-9.91276
▁filmes	-9.91337
▁usuários	-9.91386
▁receber	-9.91529
▁usa	-9.91621
▁chamadas	-9.91629
98	-9.91648
▁minerais	-9.91673
▁órgão	-9.91689
▁equilíbrio	-9.91787
▁congo	-9.91993
▁universo	-9.91998
▁semi	-9.92045
▁á	-9.92135
▁exportação	-9.92299
▁seriam	-9.92334
87	-9.92334
▁autoridades	-9.92354
94	-9.92356
km	-9.92437
▁escritos	-9.92483
▁uni	-9.92496
▁agrícolas	-9.92541
▁manteve	-9.92553
▁café	-9.92561
cional	-9.92568
ianos	-9.92618
▁estádio	-9.92621
▁mortos	-9.92846
▁2019,	-9.9288
88	-9.92959
▁resulta	-9.92975
▁alunos	-9.93007
▁ganha	-9.93015
▁recente	-9.93119
net	-9.93141
▁líquido	-9.93144
29	-9.93261
▁perda	-9.93271
osa	-9.93466
▁localiza	-9.93487
vida	-9.93514
ava	-9.9353
▁podendo	-9.93565
história	-9.93605
▁mm	-9.93661
can	-9.93706
izados	-9.93729
▁espacial	-9.93739
▁missão	-9.93741
bal	-9.93781
▁organismo	-9.93804
▁urbano	-9.93807
▁peru	-9.93817
▁fenômeno	-9.9383
▁ataques	-9.93885
we	-9.93908
99	-9.9394
▁pla	-9.93996
▁historicamente	-9.94036
▁salvador	-9.94037
89	-9.94063
▁açúcar	-9.94129
▁aldeia	-9.94166
▁argumenta	-9.94186
pres	-9.94191
2%	-9.94193
▁representantes	-9.9421
▁recentes	-9.94291
gua	-9.9433
▁zelândia	-9.94338
▁atenção	-9.94341
▁podemos	-9.94398
▁cadeia	-9.9442
dr	-9.94459
▁fluxo	-9.94496
lei	-9.94599
▁paul	-9.94615
▁estrelas	-9.94632
▁aristóteles	-9.94636
▁origens	-9.94636
▁bruto	-9.94675
▁aliados	-9.94681
▁guiana	-9.94706
▁castro	-9.94719
nh	-9.9474
▁branca	-9.94807
▁passageiros	-9.94937
▁solução	-9.94938
▁diante	-9.94977
▁silva	-9.94993
▁tele	-9.95004
tre	-9.95032
▁compra	-9.95059
▁reações	-9.95071
▁direita	-9.95091
▁representação	-9.9511
▁seca	-9.95164
▁representado	-9.95186
▁teorema	-9.95239
▁exportações	-9.95259
▁nasceu	-9.95333
▁limite	-9.95342
ncia	-9.9537
▁chama	-9.95382
mba	-9.95474
▁noite	-9.95487
ang	-9.955
▁operações	-9.95581
americana	-9.95616
▁multi	-9.95617
sul	-9.95631
▁nascimento	-9.95661
▁magnético	-9.95662
▁cria	-9.95741
ty	-9.95747
▁dar	-9.9577
▁ad	-9.95811
ist	-9.95824
▁geórgia	-9.95846
▁declínio	-9.95846
1"	-9.95848
▁fundado	-9.95885
21	-9.9593
lá	-9.95943
▁limita	-9.95952
▁tribos	-9.95973
▁destino	-9.96021
▁revista	-9.96035
▁referendo	-9.96083
ps	-9.96094
▁ideal	-9.96153
fin	-9.96171
▁mamíferos	-9.96174
▁ten	-9.96283
▁governos	-9.96415
ian	-9.9643
cerca	-9.96451
▁tóquio	-9.96457
▁berlim	-9.96459
▁autonomia	-9.96461
lia	-9.96546
73	-9.96644
▁euro	-9.96654
▁noruega	-9.96764
▁angola	-9.96766
▁decisão	-9.96766
▁carreira	-9.96771
▁operação	-9.96846
eg	-9.96858
▁usam	-9.9689
_2	-9.96933
▁cre	-9.96947
ix	-9.97041
▁custo	-9.9705
▁aqui	-9.97073
85	-9.97114
▁vo	-9.97169
▁nada	-9.97247
▁cabeça	-9.97353
▁anarquistas	-9.97361
▁imprensa	-9.9738
▁mudou	-9.97381
▁1989	-9.97389
▁festival	-9.97429
▁metais	-9.97441
▁permaneceu	-9.97509
▁mer	-9.97557
▁legal	-9.97624
▁ameaça	-9.97684
▁condição	-9.9769
▁1997	-9.97699
▁substâncias	-9.97734
for	-9.97786
▁equivalente	-9.97796
ula	-9.97946
del	-9.98023
ês	-9.98046
▁encontradas	-9.98091
▁xi	-9.9811
â	-9.98186
,7%	-9.98282
▁latino	-9.98328
vis	-9.98397
▁realiza	-9.984
ré	-9.98406
▁historiadores	-9.98423
ele	-9.98427
tia	-9.9846
▁famoso	-9.98495
▁proposta	-9.98517
▁1960,	-9.98577
▁arroz	-9.98624
▁sinais	-9.98642
▁terem	-9.98686
▁químicos	-9.98723
▁reservas	-9.98741
ara	-9.98811
▁relativa	-9.98912
▁exceção	-9.98938
▁negro	-9.98939
▁macau	-9.98948
▁determinado	-9.98967
ser	-9.98976
ec	-9.98998
▁feitos	-9.99043
9%	-9.99054
▁levaram	-9.991
uni	-9.99123
▁próxima	-9.99135
▁2000	-9.99141
lan	-9.99195
▁descoberto	-9.99208
▁históricos	-9.99243
▁perspectiva	-9.99252
▁constituída	-9.99254
▁fossem	-9.99272
▁80	-9.9937
▁van	-9.99388
36	-9.9945
▁explica	-9.99456
▁tendência	-9.99462
▁enzimas	-9.99489
▁conferência	-9.99568
▁rápida	-9.99568
▁computação	-9.99568
▁equador	-9.99569
▁(2	-9.99607
mé	-9.99611
▁concentração	-9.9964
74	-9.99742
▁máquina	-9.99782
ham	-9.99818
▁religioso	-9.99876
▁dinamarca	-9.99884
▁imagens	-9.99886
▁irmão	-9.99936
entes	-9.99946
▁robert	-9.99984
▁expressa	-10.0001
–1	-10.0005
▁2007	-10.001
izou	-10.0012
ph	-10.0013
▁apoia	-10.0017
▁deuses	-10.0019
▁1992	-10.002
▁turquia	-10.002
▁rural	-10.0021
▁cresceu	-10.0026
▁iv	-10.0026
▁químico	-10.0032
lis	-10.0036
▁certo	-10.0047
▁profissionais	-10.0052
▁tabuleiro	-10.0052
▁quantidades	-10.0052
▁programação	-10.0054
om	-10.0054
▁instrumentos	-10.0055
ab	-10.006
▁corre	-10.0066
▁ramos	-10.0075
ire	-10.0084
▁ban	-10.0092
▁aparece	-10.0099
tel	-10.0104
▁descreve	-10.0106
▁espiritual	-10.0112
▁precisa	-10.0113
▁construída	-10.0113
ste	-10.0114
▁mundiais	-10.0116
▁1993	-10.0117
▁tejo	-10.0119
▁cento	-10.0119
▁realizadas	-10.0131
▁assuntos	-10.0134
tório	-10.0134
▁representam	-10.0135
▁doença	-10.0142
▁afirmou	-10.0148
▁introdução	-10.0148
▁referir	-10.0148
▁subdivisões	-10.0148
▁chega	-10.0154
▁americana	-10.0154
▁direto	-10.0154
▁próximos	-10.0155
▁irã	-10.0159
,8%	-10.0172
▁transferência	-10.0181
▁escritores	-10.0191
▁usadas	-10.0191
▁sofreu	-10.0192
▁negócios	-10.0204
▁desempenho	-10.0213
▁máxima	-10.0213
▁liderança	-10.0213
▁carga	-10.022
gan	-10.0227
▁produz	-10.023
cá	-10.0238
mia	-10.0241
▁abertura	-10.0245
▁2011	-10.0268
▁atingiu	-10.0278
▁mídia	-10.0278
▁za	-10.0292
▁filha	-10.0296
,3%	-10.0299
inos	-10.03
▁quente	-10.0301
cen	-10.031
var	-10.0311
▁precipitação	-10.0312
▁industriais	-10.0314
tó	-10.0323
▁capazes	-10.0329
▁ocorrer	-10.0331
93	-10.0332
▁fenômenos	-10.0336
▁falado	-10.0338
bor	-10.0339
▁belo	-10.0339
▁indivíduo	-10.0341
▁estabeleceram	-10.0357
▁aumenta	-10.0358
▁posições	-10.0359
▁wa	-10.0364
▁gales	-10.037
▁pé	-10.0373
ador	-10.0375
cro	-10.0384
▁associado	-10.0385
95	-10.0386
▁70	-10.0386
▁formato	-10.0394
gou	-10.0396
▁verdadeira	-10.0402
▁2000,	-10.0403
▁edifícios	-10.0404
mentos	-10.0406
▁monarca	-10.0409
▁cultivo	-10.0409
itas	-10.0411
▁ações	-10.0415
mão	-10.0421
▁negros	-10.0422
75	-10.0425
▁gar	-10.043
fra	-10.044
▁dinheiro	-10.0442
▁chineses	-10.0443
▁socialismo	-10.0444
▁praça	-10.0444
▁naquele	-10.0445
▁observação	-10.045
han	-10.0452
▁fundador	-10.0457
▁variam	-10.046
84	-10.0469
▁george	-10.0469
pen	-10.0474
▁construir	-10.0476
▁jorge	-10.0476
▁carvão	-10.0476
▁junta	-10.0477
americano	-10.0479
ini	-10.0481
46	-10.0481
91	-10.0488
▁peixes	-10.0491
tic	-10.0491
▁moral	-10.0494
bá	-10.05
terra	-10.0504
▁interface	-10.0509
▁operacional	-10.0509
bas	-10.0511
▁radiação	-10.0512
▁interpretação	-10.0513
nal	-10.0515
▁fria	-10.0517
”.	-10.0521
▁mitologia	-10.0521
▁céu	-10.0523
tan	-10.0525
▁rota	-10.0529
▁1990	-10.0531
▁(3	-10.0531
▁japonês	-10.0542
▁1996	-10.0543
▁estimada	-10.0543
▁estatística	-10.0545
▁produzido	-10.0546
▁períodos	-10.0549
▁escrever	-10.0549
,1%	-10.0556
ânico	-10.0567
lina	-10.057
▁fornece	-10.0573
▁sociologia	-10.0576
▁saudita	-10.0577
▁alvo	-10.0578
▁califórnia	-10.0578
▁vive	-10.0584
▁colômbia	-10.0584
▁imp	-10.0595
▁próprias	-10.0596
▁bor	-10.0603
▁lagos	-10.0605
▁imigração	-10.061
▁curitiba	-10.061
up	-10.062
▁sch	-10.0629
enta	-10.063
▁2013	-10.0633
▁situada	-10.0635
▁porta	-10.0636
pp	-10.0639
antigas	-10.0639
▁suporte	-10.0644
▁mãos	-10.0647
▁observações	-10.0647
▁fauna	-10.0657
▁35	-10.0662
65	-10.0666
rei	-10.0671
▁manutenção	-10.0677
▁descobriu	-10.0677
▁pobreza	-10.0678
▁barra	-10.0679
▁abrange	-10.068
▁definido	-10.0683
▁extra	-10.0689
▁cursos	-10.0689
icamente	-10.0694
▁tor	-10.0702
▁letras	-10.0703
▁produtores	-10.0709
▁brancos	-10.071
▁antónio	-10.0711
nde	-10.0712
▁senhor	-10.0713
▁islâmica	-10.0714
▁gua	-10.0714
▁sonda	-10.0715
cionais	-10.0718
▁margem	-10.0721
▁meta	-10.0723
est	-10.0728
▁utilizando	-10.0731
▁400	-10.0731
▁2014,	-10.0732
mal	-10.0733
22	-10.0734
americanos	-10.074
▁cerveja	-10.0746
▁vigor	-10.0747
▁vegetação	-10.0747
▁ondas	-10.0749
▁geográfica	-10.0753
▁eixo	-10.0757
▁significativo	-10.0758
▁constitui	-10.0758
▁permitir	-10.0774
▁implica	-10.0775
▁reis	-10.0775
76	-10.0779
▁comitê	-10.078
▁finais	-10.0782
▁capela	-10.0783
▁braga	-10.0786
▁opera	-10.0788
▁trabalhar	-10.0788
▁versões	-10.0788
ciência	-10.0801
sol	-10.0804
09	-10.0806
▁resultou	-10.0814
▁rurais	-10.0814
▁funcionamento	-10.0816
▁clara	-10.0817
▁democrático	-10.0817
▁clubes	-10.0818
▁restante	-10.0824
▁considera	-10.0829
▁fusão	-10.0829
▁2018,	-10.0837
▁2006	-10.0838
▁possuía	-10.0848
▁patrimônio	-10.0848
▁thomas	-10.0848
▁gestão	-10.0849
▁fundamentais	-10.0851
▁entrar	-10.0855
▁dominante	-10.0859
▁tecidos	-10.0862
▁milho	-10.0862
▁praia	-10.0865
58	-10.0868
by	-10.088
gas	-10.0882
▁agência	-10.0883
▁tomada	-10.0884
▁150	-10.0894
▁últimas	-10.0904
▁2009	-10.0912
logia	-10.0915
▁horizonte	-10.0918
▁alma	-10.0919
▁nativos	-10.0921
▁bispo	-10.0931
▁variação	-10.0934
len	-10.0941
▁hospital	-10.0948
83	-10.095
▁(20	-10.0953
▁eletrônica	-10.0953
▁territorial	-10.0953
▁saída	-10.0953
▁pertence	-10.0956
▁declaração	-10.0957
▁publicação	-10.0957
▁integração	-10.0961
▁identifica	-10.0965
▁títulos	-10.0973
ny	-10.0975
1,	-10.0978
▁restantes	-10.0979
▁estrada	-10.0982
responsabilidade	-10.0988
▁considerável	-10.0988
78	-10.0988
▁bíblia	-10.0997
▁nota	-10.0998
▁gi	-10.0998
tz	-10.1008
▁relacionados	-10.1014
ley	-10.1023
▁descrição	-10.1023
có	-10.1023
▁passagem	-10.1026
77	-10.1029
▁certas	-10.1033
▁ger	-10.1037
▁eu	-10.1038
▁limitada	-10.1044
▁estabelecido	-10.1045
cultura	-10.105
▁arquivos	-10.1054
▁inicia	-10.1056
▁ocorrência	-10.1058
▁fungos	-10.1059
▁onu	-10.1059
▁negra	-10.1059
▁min	-10.1062
▁jan	-10.1063
▁festas	-10.1064
▁médicos	-10.1069
ran	-10.1072
ez	-10.1073
▁bairro	-10.1073
41	-10.108
▁cartas	-10.109
iza	-10.1092
▁ascensão	-10.1093
▁voltou	-10.1094
▁lançamento	-10.1096
met	-10.1096
44	-10.1097
▁esforços	-10.1101
▁adn	-10.1105
ito	-10.111
▁diferencia	-10.111
▁similar	-10.1113
▁doce	-10.1117
▁lar	-10.1119
▁permitem	-10.1119
gado	-10.1124
pri	-10.1124
4%	-10.1134
▁permanente	-10.1137
mico	-10.1142
▁combate	-10.1144
▁realização	-10.1145
▁vinte	-10.1148
▁q	-10.1162
▁contemporânea	-10.1164
▁luxemburgo	-10.1164
▁esposa	-10.1165
▁james	-10.1166
nci	-10.1169
nova	-10.1171
▁aquela	-10.1175
▁descobertas	-10.1179
▁2012	-10.118
▁desenvolvida	-10.1182
tica	-10.1188
▁notáveis	-10.1195
dura	-10.1198
81	-10.1199
▁laboratório	-10.12
▁obteve	-10.12
▁singapura	-10.12
▁supremo	-10.12
▁antônio	-10.12
▁lin	-10.1202
▁1970,	-10.1203
▁pol	-10.1216
▁socialistas	-10.1221
▁cla	-10.1222
▁motivo	-10.1227
▁consideradas	-10.1229
▁camadas	-10.1232
▁dispositivos	-10.1239
ética	-10.1241
▁certos	-10.1247
▁étnicos	-10.1253
▁indo	-10.1256
▁entra	-10.1257
1%	-10.1261
ly	-10.1264
▁execução	-10.1272
▁expectativa	-10.1272
▁arábia	-10.1272
adores	-10.1273
▁2003	-10.1274
▁notável	-10.1275
▁frota	-10.1275
▁civilização	-10.1277
▁posterior	-10.1286
ás	-10.1287
bia	-10.13
ônico	-10.1303
▁económico	-10.1308
▁chinês	-10.1308
▁hino	-10.1309
▁alterações	-10.1309
▁atravessa	-10.1316
▁interação	-10.1316
inas	-10.1319
forma	-10.1326
▁tecido	-10.133
▁historiador	-10.1331
▁2004,	-10.1338
▁ceará	-10.1344
▁investigação	-10.1348
▁fer	-10.1353
▁deputados	-10.1356
▁liberal	-10.1359
icas	-10.1361
xe	-10.1363
▁indígena	-10.1367
▁privada	-10.1367
▁gado	-10.1368
3"	-10.1372
▁altos	-10.1372
▁japonesa	-10.1377
▁renascimento	-10.138
▁larga	-10.1383
▁marcado	-10.1385
▁sexual	-10.1387
▁chuvas	-10.1391
▁rotação	-10.1392
nc	-10.1394
nder	-10.1395
▁cuba	-10.1401
nica	-10.1404
▁existir	-10.1412
ística	-10.1414
59	-10.1417
▁revela	-10.1418
▁determinada	-10.1419
▁talvez	-10.1422
íveis	-10.1423
▁2015,	-10.1428
▁permanece	-10.1429
▁bur	-10.1431
▁anualmente	-10.1432
▁dando	-10.1432
▁che	-10.1439
mes	-10.1439
▁dele	-10.1447
▁arco	-10.1452
▁aquecimento	-10.1454
▁charles	-10.1454
▁impostos	-10.1456
har	-10.1462
,9%	-10.1466
▁pri	-10.1468
▁povoado	-10.1471
▁conserva	-10.1475
▁planícies	-10.148
ificação	-10.1485
▁diretor	-10.1485
▁poderiam	-10.1487
ilha	-10.1487
▁médico	-10.1488
▁oxigênio	-10.149
▁2019	-10.1491
dis	-10.1491
presidente	-10.1491
▁cometas	-10.1493
▁gases	-10.1493
▁deserto	-10.1497
▁críticas	-10.1502
66	-10.1503
ônica	-10.1504
▁dinâmica	-10.1509
posição	-10.1511
▁pais	-10.1514
▁von	-10.1519
yo	-10.1521
▁tema	-10.1521
▁entidades	-10.1521
▁fixa	-10.1523
gio	-10.1524
▁residência	-10.1527
▁transmissão	-10.1528
▁musicais	-10.1528
▁1979	-10.1528
▁fernando	-10.1529
▁observa	-10.153
▁interesses	-10.1536
▁artigos	-10.1537
▁define	-10.1549
ron	-10.1549
▁certa	-10.155
né	-10.1551
▁molecular	-10.1551
▁doze	-10.1554
cent	-10.1559
▁económica	-10.156
▁conquistou	-10.1564
▁máximo	-10.1564
▁primário	-10.1564
▁curta	-10.1565
▁viena	-10.1567
05	-10.1567
01	-10.1571
pol	-10.1574
▁debate	-10.1575
▁compreende	-10.1583
79	-10.1594
pan	-10.1595
▁construído	-10.1595
▁informa	-10.1595
▁estudiosos	-10.1596
▁explicar	-10.1599
▁asiático	-10.16
▁galileu	-10.1601
▁idiomas	-10.1603
cle	-10.1605
▁meia	-10.1612
hu	-10.1614
▁termina	-10.1614
▁passo	-10.1626
▁32	-10.1628
▁individual	-10.163
▁possa	-10.1635
▁mercúrio	-10.1639
▁paraíba	-10.1639
óxido	-10.164
cida	-10.164
▁disciplina	-10.1642
lva	-10.1643
▁tomou	-10.1645
▁ita	-10.1647
▁(17	-10.1657
3,	-10.1663
▁estudar	-10.1668
▁templo	-10.1669
▁daquele	-10.167
rt	-10.167
8%	-10.1675
▁clássico	-10.1676
▁2002	-10.1676
▁ingleses	-10.1676
▁mediterrâneo	-10.1676
▁possíveis	-10.1676
▁matriz	-10.1677
▁abordagem	-10.1677
▁colonos	-10.1677
▁sexo	-10.1678
ância	-10.1678
68	-10.1679
▁comumente	-10.1682
iz	-10.1687
▁tomar	-10.1688
▁mag	-10.1688
nor	-10.1688
▁igualmente	-10.1689
▁censos	-10.169
▁senado	-10.1691
▁ferramentas	-10.1702
▁viria	-10.1708
▁flores	-10.1713
▁ferroviária	-10.1714
antes	-10.1715
▁objetivos	-10.1715
▁decidiu	-10.1717
▁temas	-10.1719
▁pará	-10.172
▁fun	-10.172
▁segue	-10.1722
▁vir	-10.1743
▁substância	-10.1746
▁biblioteca	-10.1747
▁getúlio	-10.1752
▁estreito	-10.1752
▁tentou	-10.1753
▁calendário	-10.1757
ong	-10.1757
▁pobres	-10.1757
stre	-10.1767
▁levar	-10.1769
▁reconhece	-10.177
cy	-10.1772
▁genes	-10.1775
▁liderada	-10.1776
▁1970	-10.1778
▁col	-10.178
96	-10.1786
▁substituído	-10.1789
▁recém	-10.1789
▁mortalidade	-10.179
▁el	-10.1791
▁econômicos	-10.1792
▁experiências	-10.1793
▁símbolos	-10.1793
mp	-10.1796
▁verdadeiro	-10.1799
ker	-10.1806
7%	-10.1825
▁colapso	-10.1827
▁património	-10.1827
▁tabela	-10.1828
▁prisão	-10.1829
▁fatos	-10.1831
▁ki	-10.1832
port	-10.1835
▁localidade	-10.1841
▁regula	-10.1852
▁massas	-10.1861
▁lançou	-10.1866
▁medieval	-10.1866
▁plutão	-10.1866
▁raízes	-10.1866
▁integra	-10.1875
▁categorias	-10.1878
▁1950	-10.1885
▁indi	-10.1889
▁colônias	-10.1891
▁captura	-10.1895
ém	-10.1896
▁árvores	-10.1898
▁necessária	-10.1902
▁corrupção	-10.1904
▁soberania	-10.1904
▁einstein	-10.1904
▁cenário	-10.1904
▁transformação	-10.1909
▁bro	-10.1915
▁cai	-10.1917
▁isótopos	-10.1917
▁funciona	-10.1919
▁onça	-10.1922
▁centenas	-10.1923
▁gui	-10.1923
▁vão	-10.1934
▁preto	-10.1937
▁candidato	-10.1942
▁poesia	-10.1943
▁1975	-10.1943
▁relacionadas	-10.1944
▁psicologia	-10.1948
43	-10.1948
▁votação	-10.1948
▁promover	-10.1949
▁emprega	-10.1951
▁esteve	-10.1953
ld	-10.1953
▁mel	-10.1954
ór	-10.1955
▁preços	-10.1958
▁ambientais	-10.1981
▁moçambique	-10.1981
▁estreita	-10.1981
▁reconhecido	-10.1983
▁reduzir	-10.1983
▁seguidores	-10.1985
▁potências	-10.1988
her	-10.1989
geral	-10.199
▁cores	-10.1992
)|	-10.1998
▁livres	-10.2001
▁caracteriza	-10.2005
▁residentes	-10.2005
▁veículos	-10.2016
▁ortodoxa	-10.202
▁avanço	-10.2021
▁gradualmente	-10.2023
▁foz	-10.2026
▁químicas	-10.203
ato	-10.2039
▁gatos	-10.2039
▁ocupada	-10.2046
▁determinar	-10.2057
bel	-10.2059
▁produziu	-10.2059
▁saber	-10.206
▁cunha	-10.2062
▁geo	-10.2063
▁temos	-10.2064
▁apresentar	-10.2064
▁longe	-10.2064
▁rua	-10.2068
64	-10.2071
▁face	-10.2072
▁elétrons	-10.2079
gal	-10.2083
▁david	-10.209
▁quântica	-10.2098
▁síria	-10.2098
▁garantir	-10.2098
▁escolha	-10.2098
▁estratégia	-10.2101
▁risco	-10.2101
▁definida	-10.2104
▁aires	-10.211
bilidade	-10.2113
wi	-10.2122
▁eua	-10.213
▁divisões	-10.2137
▁taiwan	-10.2137
▁influências	-10.2137
ques	-10.2145
▁rock	-10.215
don	-10.2152
▁privadas	-10.2152
▁ana	-10.2154
▁2005	-10.2161
▁tom	-10.2162
▁conecta	-10.2168
tados	-10.217
od	-10.2172
▁ibérica	-10.2176
▁japoneses	-10.2176
shi	-10.2192
ea	-10.2208
▁italianos	-10.2215
▁bolívia	-10.2216
▁realizou	-10.2218
▁influenciado	-10.2219
▁terá	-10.2227
▁síntese	-10.2229
cel	-10.223
cial	-10.2232
▁cam	-10.2235
▁bas	-10.2237
▁definir	-10.2243
▁/	-10.2256
▁ku	-10.2257
▁zero	-10.2264
pé	-10.2269
▁aplicada	-10.227
▁vento	-10.2274
▁(4	-10.2275
▁cri	-10.2278
▁investimentos	-10.2279
bat	-10.2286
tória	-10.2288
▁capitalismo	-10.2289
▁apresentou	-10.2295
▁terminou	-10.2295
▁seguindo	-10.2296
▁queima	-10.2297
▁1982	-10.2302
▁consideram	-10.2303
▁distintas	-10.2306
▁pele	-10.2307
▁an	-10.2309
ap	-10.2318
▁fal	-10.2319
▁superiores	-10.232
lhos	-10.2327
▁hora	-10.2332
▁figuras	-10.2333
▁propósito	-10.2335
▁tur	-10.2339
ena	-10.234
esta	-10.2342
eiras	-10.2344
▁utilizar	-10.2348
▁duração	-10.2349
▁próximas	-10.235
▁concentra	-10.2356
▁sustenta	-10.2361
▁científicas	-10.2366
▁pratos	-10.2369
▁placa	-10.2373
▁especiais	-10.2376
▁expedição	-10.2376
té	-10.2376
▁ponta	-10.238
▁enfrenta	-10.238
▁associados	-10.2383
▁(5	-10.2384
lic	-10.2384
▁europeias	-10.2389
▁azul	-10.2407
67	-10.2414
▁disponíveis	-10.2416
▁progresso	-10.2416
▁serve	-10.2416
▁visual	-10.2416
ilhas	-10.2422
6%	-10.2427
▁primária	-10.2427
▁canais	-10.2428
▁máquinas	-10.2429
lista	-10.2437
▁ya	-10.2446
▁quarta	-10.2456
ui	-10.246
tário	-10.2462
▁planície	-10.2468
▁polo	-10.2469
põe	-10.2473
▁()	-10.2475
vin	-10.2475
ós	-10.2496
▁realizados	-10.2496
▁bizantino	-10.2497
▁literária	-10.2497
▁planejamento	-10.2498
▁regular	-10.2499
brasil	-10.2499
▁africano	-10.2502
▁pintura	-10.251
▁2017,	-10.2511
▁paquistão	-10.2538
▁moscou	-10.2538
▁competição	-10.2543
▁separação	-10.2545
▁pena	-10.2548
▁atribuído	-10.2551
▁gen	-10.2552
▁vermelha	-10.2553
ón	-10.2553
▁descrever	-10.2555
▁sinal	-10.2559
▁marcada	-10.257
ício	-10.2578
▁alentejo	-10.2579
▁desemprego	-10.2579
▁miguel	-10.2579
▁acreditam	-10.2581
▁fome	-10.2581
▁posteriores	-10.2594
▁privado	-10.2594
▁dada	-10.2594
▁deixando	-10.2594
▁viu	-10.2596
▁vindo	-10.2599
▁caiu	-10.26
ata	-10.2604
▁terrestres	-10.2605
▁acreditava	-10.2607
berg	-10.2612
▁90	-10.2613
▁martin	-10.2614
▁sociedades	-10.2616
▁jornais	-10.262
▁maranhão	-10.262
▁tribunais	-10.262
▁iraque	-10.262
▁fornecer	-10.2621
▁bueno	-10.2621
▁contribuição	-10.2627
ori	-10.2633
▁bloco	-10.2636
▁americanos	-10.2637
ard	-10.2645
▁estilos	-10.2652
▁encontrada	-10.2653
▁poucas	-10.266
▁dependência	-10.2661
▁opinião	-10.2661
▁consciência	-10.2661
▁ritmo	-10.2661
▁registro	-10.2662
▁ben	-10.2663
▁exposição	-10.2664
▁rainha	-10.2666
▁desejo	-10.2666
óli	-10.2668
▁mau	-10.267
▁essencialmente	-10.267
▁estatal	-10.2672
▁10%	-10.2677
▁investimento	-10.2679
▁vinho	-10.2684
▁ativa	-10.2685
▁tido	-10.2695
▁indonésia	-10.2703
▁exceto	-10.2718
▁assunto	-10.2721
▁aspecto	-10.2721
▁faculdade	-10.2726
rg	-10.2731
▁hidro	-10.2732
▁apoiado	-10.2733
▁desenvolvidos	-10.2734
▁essencial	-10.2736
ak	-10.2743
▁fórmula	-10.2744
▁macedônia	-10.2744
▁pecuária	-10.2744
▁permitindo	-10.2744
▁equipamentos	-10.2746
▁nomeadamente	-10.2747
3)	-10.2758
▁(15	-10.2759
▁viviam	-10.2761
dra	-10.2761
▁fator	-10.2763
▁proporciona	-10.2772
▁nazista	-10.2772
▁rosa	-10.2773
▁parlamentar	-10.2773
▁1960	-10.2775
▁terço	-10.2776
▁2004	-10.2785
▁ausência	-10.2787
ent	-10.2788
▁humanas	-10.2791
▁velha	-10.2797
tada	-10.2798
membros	-10.2804
42	-10.2804
cou	-10.2805
▁coisa	-10.2808
▁1991	-10.2812
▁600	-10.2812
7"	-10.2816
▁particulares	-10.2819
▁haver	-10.2828
▁absoluta	-10.2828
▁eletricidade	-10.2828
▁facilmente	-10.2828
▁muçulmana	-10.2828
rm	-10.283
▁manifestações	-10.2831
▁visitantes	-10.2831
sur	-10.2836
mit	-10.2843
▁urbanas	-10.2847
▁étnica	-10.285
ai	-10.285
▁ventos	-10.2858
▁normas	-10.2861
▁tv	-10.2866
▁digital	-10.2871
▁individuais	-10.2871
▁decisões	-10.2871
▁honra	-10.2871
▁sucessor	-10.2871
▁polônia	-10.2871
▁1974	-10.2872
▁carl	-10.2875
queles	-10.2876
ç	-10.2882
▁aplica	-10.2883
▁chegando	-10.2891
▁resultando	-10.2893
▁trouxe	-10.2904
lus	-10.2912
▁bronze	-10.2913
▁camboja	-10.2913
▁goiás	-10.2913
▁windows	-10.2913
▁linguística	-10.2921
▁contraste	-10.2922
▁bre	-10.2925
mbo	-10.2931
▁ato	-10.2932
▁documento	-10.2936
vio	-10.2938
▁sar	-10.2938
gh	-10.2943
▁topo	-10.2952
▁vietnã	-10.2955
▁esfera	-10.2956
▁pudesse	-10.2956
▁contendo	-10.2956
▁orientais	-10.2957
▁proporção	-10.2958
▁imediatamente	-10.2959
▁possivelmente	-10.2961
▁unix	-10.2961
▁portos	-10.2964
▁participa	-10.2968
fund	-10.2973
▁muda	-10.2981
▁encontro	-10.2983
▁asteroides	-10.2984
▁extrema	-10.299
▁produzidos	-10.2995
▁correntes	-10.2997
▁ucrânia	-10.2998
▁tradução	-10.2998
▁1988	-10.2999
▁cer	-10.3001
▁leitura	-10.3005
fic	-10.3005
nis	-10.3008
▁organiza	-10.3008
sion	-10.3019
▁reconhecida	-10.3025
▁associada	-10.3036
▁2016	-10.3036
▁gato	-10.3039
▁escócia	-10.3041
▁tailândia	-10.3041
▁capitão	-10.3042
▁venda	-10.3042
▁dedica	-10.3045
▁migração	-10.3045
▁viver	-10.3045
▁fabricação	-10.3048
gon	-10.305
▁variações	-10.3051
flu	-10.3064
rico	-10.3065
eia	-10.3066
▁átomos	-10.3067
▁mecanismos	-10.307
▁fósseis	-10.3084
▁mensagens	-10.3084
▁vargas	-10.3085
▁circulação	-10.3089
08	-10.3099
▁bactérias	-10.3105
▁nucleares	-10.311
▁aponta	-10.3123
▁aço	-10.3127
▁biodiversidade	-10.3127
▁intervenção	-10.3127
▁pedido	-10.3128
ua	-10.313
▁oferece	-10.3131
▁complexos	-10.3137
▁anunciou	-10.3146
▁graus	-10.3154
▁deixa	-10.3154
▁2001,	-10.3154
ótica	-10.3162
▁específicas	-10.3163
▁enfatiza	-10.3171
▁estaduais	-10.3171
▁introduzido	-10.3172
.000	-10.3175
ue	-10.3178
▁2016,	-10.318
▁claro	-10.3181
▁conjuntos	-10.3181
▁time	-10.3181
zer	-10.3182
aria	-10.3183
▁pensa	-10.3183
▁ministros	-10.3184
▁missões	-10.3185
▁mol	-10.3185
▁artur	-10.3186
▁deixar	-10.319
▁z	-10.3192
guerra	-10.3195
▁(16	-10.3197
dar	-10.3202
▁funcionários	-10.3215
▁vaticano	-10.3215
▁esperança	-10.3215
▁escolhido	-10.3216
rom	-10.3219
tem	-10.3219
▁estabilidade	-10.3221
▁65	-10.3221
▁levado	-10.3221
▁conexão	-10.3222
]].	-10.3228
▁quadrados	-10.3229
também	-10.323
▁filósofos	-10.3235
▁núcleos	-10.3241
▁registros	-10.3241
▁específico	-10.3246
mero	-10.3248
fre	-10.3251
▁ligada	-10.3251
▁liderado	-10.3253
pas	-10.3256
▁herança	-10.3259
▁vontade	-10.3259
▁amplo	-10.3259
▁maia	-10.326
▁mono	-10.326
▁testamento	-10.326
▁contribuições	-10.3262
▁divide	-10.3272
ivo	-10.3275
▁criando	-10.3282
▁cura	-10.3285
▁mínimo	-10.3303
▁estando	-10.3304
▁viagens	-10.3305
▁almeida	-10.3313
uf	-10.3314
▁estável	-10.3318
3%	-10.3318
%	-10.3335
▁infantil	-10.3347
▁médica	-10.3347
▁recebido	-10.3347
▁dupla	-10.3347
▁fotografia	-10.3347
▁malásia	-10.3347
▁reprodução	-10.3348
let	-10.3351
▁requer	-10.3352
op	-10.3352
▁vicente	-10.3353
▁má	-10.3354
▁assumir	-10.3356
▁world	-10.3359
8"	-10.3362
▁desenvolveram	-10.3362
▁bon	-10.3365
censo	-10.3367
ídeos	-10.3369
▁controla	-10.3371
ei	-10.3371
▁dependendo	-10.3374
burg	-10.3375
▁mostram	-10.3377
▁sofre	-10.3377
▁geográficas	-10.3382
▁esforço	-10.3382
▁placas	-10.3383
lim	-10.3388
▁estabelecida	-10.339
▁colégio	-10.3391
▁destruição	-10.3391
▁fortaleza	-10.3391
▁iniciado	-10.3405
▁científicos	-10.3406
▁web	-10.3409
▁gene	-10.3411
▁alcançar	-10.3412
ero	-10.3414
pare	-10.3414
▁básica	-10.3427
▁demonstra	-10.3428
▁acaba	-10.3428
▁romance	-10.3431
▁fazia	-10.3434
▁abundância	-10.3436
▁algarve	-10.3436
▁ordens	-10.3436
▁seguiu	-10.3436
▁seguro	-10.3436
▁ditadura	-10.3436
▁positiva	-10.3436
07	-10.3437
▁falar	-10.3439
▁compreensão	-10.3442
▁ze	-10.3447
▁augusto	-10.3452
▁frio	-10.3453
▁consequências	-10.3453
ló	-10.3458
▁apolo	-10.3459
▁foto	-10.3466
bol	-10.3469
ari	-10.347
▁potência	-10.3473
ática	-10.3478
▁modernas	-10.3478
▁judaica	-10.3481
▁ensinamentos	-10.3481
▁quinto	-10.3482
▁publicada	-10.3483
▁samoa	-10.3483
▁denominações	-10.3484
bro	-10.3485
▁atua	-10.3485
▁foco	-10.349
▁linux	-10.3498
pul	-10.3509
▁mineral	-10.3515
▁negativa	-10.3516
▁óxido	-10.3524
▁trás	-10.3526
▁alega	-10.3527
ft	-10.3536
▁perdeu	-10.3538
▁nega	-10.3541
ços	-10.3542
anti	-10.3543
ola	-10.3545
dé	-10.3551
▁assinado	-10.3552
nqui	-10.3557
uta	-10.356
▁baseia	-10.3564
▁judiciário	-10.3571
▁extinto	-10.3571
200	-10.3573
▁ke	-10.3582
uro	-10.359
▁causas	-10.359
▁popularidade	-10.3594
▁adotada	-10.3597
dora	-10.361
▁abundante	-10.3612
▁pombal	-10.3617
▁adesão	-10.3617
▁uniforme	-10.3618
ila	-10.3618
▁inúmeras	-10.362
▁soviético	-10.3621
▁alternativa	-10.3626
sia	-10.363
san	-10.3634
▁utilizam	-10.3635
ov	-10.3637
▁afro	-10.3637
ung	-10.3639
▁gera	-10.3644
▁new	-10.3653
vila	-10.3657
▁instrumento	-10.3659
▁estimativas	-10.3661
▁afeganistão	-10.3662
▁distinção	-10.3662
▁secretário	-10.3662
▁razões	-10.3662
▁infinito	-10.3662
▁1985	-10.3663
▁trinta	-10.3666
▁especificamente	-10.3669
▁toca	-10.367
▁trono	-10.3672
▁vivo	-10.3673
▁formalmente	-10.3678
anos	-10.368
▁1991,	-10.3681
▁fundou	-10.3687
posto	-10.3691
▁sur	-10.37
fil	-10.3703
oc	-10.3704
árias	-10.3705
▁cálculo	-10.3706
▁dívida	-10.3708
▁realmente	-10.3708
▁1984	-10.3709
▁jean	-10.371
▁pró	-10.3711
▁genético	-10.3711
▁baía	-10.3712
▁durou	-10.3713
▁mat	-10.3714
▁rodovias	-10.3717
▁desloca	-10.3718
real	-10.3721
▁pl	-10.3722
▁coração	-10.3722
▁descrito	-10.3728
▁il	-10.373
ib	-10.3735
▁ficaram	-10.3737
69	-10.3742
06	-10.3743
▁sala	-10.3744
▁raios	-10.3745
▁disponível	-10.3754
▁marrocos	-10.3754
▁pitágoras	-10.3754
▁mantido	-10.3754
▁amigo	-10.3754
▁laços	-10.3757
uto	-10.3758
▁th	-10.376
▁costumes	-10.3779
ânia	-10.3782
▁2017	-10.3788
▁urbanos	-10.379
lio	-10.3798
▁filósofo	-10.38
▁ideologia	-10.38
água	-10.3801
▁algodão	-10.3801
▁emprego	-10.3802
▁aprovada	-10.3802
cara	-10.3802
▁parcialmente	-10.3805
▁exclusivamente	-10.3805
▁lançada	-10.3808
▁possam	-10.3808
▁relata	-10.3811
▁pesquisadores	-10.3813
▁hungria	-10.3813
▁protocolo	-10.3817
eri	-10.3824
din	-10.3836
▁breve	-10.3841
▁dimensões	-10.3847
▁gabinete	-10.3847
▁mineração	-10.3847
▁sólido	-10.3847
▁minoria	-10.3848
▁terreno	-10.3848
▁prefeito	-10.3849
▁reduzido	-10.385
▁algas	-10.3851
04	-10.3852
▁pat	-10.3856
▁correspondente	-10.3861
dy	-10.3864
▁encontrou	-10.3864
▁marco	-10.3874
▁espera	-10.3877
lon	-10.3878
▁sé	-10.3881
gr	-10.3888
▁melhorar	-10.389
▁legislação	-10.3894
▁líbano	-10.3894
▁resolver	-10.3894
▁visível	-10.3894
▁paisagem	-10.3894
▁eleitoral	-10.3895
▁discurso	-10.3896
▁sousa	-10.3896
▁designado	-10.3898
▁pouca	-10.3899
oeste	-10.3914
▁podia	-10.3916
▁registada	-10.3919
▁natal	-10.392
4"	-10.3922
▁medi	-10.3924
if	-10.3928
▁sha	-10.3929
03	-10.3935
▁representando	-10.3939
▁catolicismo	-10.3941
▁cálcio	-10.3941
▁1986	-10.3942
▁reunião	-10.3943
▁vapor	-10.3943
▁venceu	-10.3945
▁denominação	-10.3948
▁combinação	-10.3949
▁importa	-10.395
▁barroco	-10.395
▁britânicas	-10.3955
▁parques	-10.3957
▁pin	-10.3959
▁folhas	-10.3964
vid	-10.3966
▁caracterizado	-10.3969
ografia	-10.397
▁habitat	-10.397
ifi	-10.3974
▁intensa	-10.3979
▁normal	-10.398
▁etiópia	-10.3988
▁variáveis	-10.3988
▁índios	-10.3988
▁prazo	-10.3989
▁design	-10.4003
ético	-10.4004
▁classificado	-10.4007
▁(6	-10.4011
▁tentativas	-10.4016
lismo	-10.402
▁je	-10.4026
▁utilizadas	-10.4032
▁feminino	-10.4035
▁joseph	-10.4035
tradicionalmente	-10.4036
▁andorra	-10.4036
idos	-10.4039
▁processamento	-10.4041
▁críticos	-10.4045
▁trigo	-10.4045
▁ocupado	-10.4047
▁morto	-10.4049
▁ave	-10.4056
▁registra	-10.4056
▁tratados	-10.4069
▁aldeias	-10.4071
sp	-10.4081
ek	-10.4082
▁populosa	-10.4083
▁1961	-10.4083
▁1976	-10.4084
▁vegetal	-10.4085
ícia	-10.4098
▁físicos	-10.4109
su	-10.4111
▁servir	-10.4112
▁rever	-10.4114
ral	-10.4115
▁un	-10.4116
cin	-10.412
▁hong	-10.4122
▁gol	-10.4126
▁oxigénio	-10.4131
▁1978	-10.4132
▁propôs	-10.4132
▁prote	-10.4136
▁ensina	-10.4138
▁dito	-10.4138
▁edifício	-10.4138
▁entidade	-10.4139
▁inaugurado	-10.414
dica	-10.4141
▁planos	-10.4145
▁ordena	-10.4145
bert	-10.4149
▁classificada	-10.415
▁douro	-10.4159
▁praias	-10.4165
▁aeroportos	-10.4168
esa	-10.4171
▁físicas	-10.4171
▁eritreia	-10.4179
▁masculino	-10.4179
▁virtude	-10.4179
▁bandas	-10.4179
6"	-10.418
▁refugiados	-10.4181
▁círculo	-10.4183
▁orçamento	-10.4188
▁eleitores	-10.4188
▁otomano	-10.4188
▁pra	-10.419
▁desenho	-10.4191
▁receitas	-10.4193
▁específica	-10.4195
▁wi	-10.4204
pin	-10.4208
▁estabelece	-10.4225
tum	-10.4226
▁educacional	-10.4227
▁mostrou	-10.4227
▁dificuldades	-10.4228
▁enviou	-10.4235
▁famosa	-10.4237
lf	-10.424
aves	-10.4241
▁cima	-10.4246
▁seco	-10.4253
▁mente	-10.4256
nico	-10.4257
0%	-10.4262
▁observado	-10.4268
▁quebra	-10.427
▁gigantes	-10.427
▁alfabetização	-10.4276
▁contínua	-10.4276
▁richard	-10.4276
▁ênfase	-10.4276
▁cir	-10.4276
▁motor	-10.4278
▁vasta	-10.4278
▁libertação	-10.428
cado	-10.428
sio	-10.4281
▁ps	-10.4283
▁obtido	-10.4287
▁leite	-10.4287
quia	-10.4293
▁ácidos	-10.4294
fal	-10.43
▁coleta	-10.4303
▁vias	-10.4303
vé	-10.4304
riz	-10.4313
inhos	-10.4323
ônio	-10.4325
rias	-10.4325
▁açores	-10.4327
▁wilde	-10.4329
sk	-10.4331
▁45	-10.4335
ilo	-10.4339
▁st	-10.434
▁irmã	-10.4345
▁letra	-10.4346
▁existiam	-10.4347
▁ultrapassa	-10.4348
▁regra	-10.4349
naturais	-10.435
▁bomba	-10.4353
▁carrega	-10.4357
▁kong	-10.4358
ik	-10.436
▁dita	-10.4373
▁engloba	-10.4373
▁obtenção	-10.4373
▁populoso	-10.4373
▁repeti	-10.4374
▁primatas	-10.4374
▁classificados	-10.4375
▁vegetais	-10.4375
▁oferta	-10.4376
▁alfabeto	-10.4379
pli	-10.438
ólogos	-10.4387
▁atribuída	-10.4387
▁iniciativa	-10.4389
▁assistência	-10.4391
tividade	-10.4393
enses	-10.4393
▁mortes	-10.4393
▁inúmer	-10.4396
▁800	-10.4397
▁descreveu	-10.4397
dd	-10.44
▁motivos	-10.4403
grande	-10.4416
▁bélgica	-10.4423
▁flamengo	-10.4423
▁referido	-10.4423
▁eficiente	-10.4423
▁intenção	-10.4423
▁vieram	-10.4423
▁vasco	-10.4423
▁anuais	-10.4423
▁alimenta	-10.443
ens	-10.4433
ux	-10.4433
▁rejeita	-10.4434
▁financeira	-10.4438
▁capitais	-10.4442
62	-10.4442
▁cho	-10.4443
▁protestante	-10.4445
▁bri	-10.4445
▁surge	-10.4447
▁mudar	-10.4448
▁1950,	-10.445
▁cem	-10.4451
▁rochas	-10.4451
▁analisa	-10.4455
▁mestre	-10.4456
▁começo	-10.4457
▁monta	-10.4468
▁chave	-10.4468
▁vinha	-10.447
▁artificial	-10.4472
▁hospitais	-10.4472
▁recusa	-10.4473
▁1900	-10.4474
▁chamou	-10.4475
ure	-10.4476
▁ligados	-10.4476
▁partilha	-10.4482
rum	-10.4485
▁separa	-10.4485
▁extração	-10.4486
nel	-10.4486
▁37	-10.4487
▁franco	-10.4488
▁mecanismo	-10.4489
▁red	-10.4492
▁pertencente	-10.4493
▁cá	-10.4495
ná	-10.4503
▁celulares	-10.4511
itos	-10.4513
pia	-10.4514
▁flora	-10.4517
▁conclusão	-10.4522
▁participou	-10.4522
▁soberano	-10.4522
ônia	-10.4523
▁centrais	-10.4523
▁andré	-10.4523
▁moradores	-10.4524
uí	-10.4524
▁aceleração	-10.4527
▁tar	-10.453
▁olhos	-10.453
▁continuam	-10.4532
▁desempenha	-10.4534
▁funcional	-10.4536
▁térmica	-10.4539
▁biológica	-10.4541
ban	-10.4542
fl	-10.4545
izadas	-10.4545
uc	-10.455
▁adultos	-10.4551
▁tan	-10.4562
▁var	-10.4566
▁professores	-10.4569
▁escravidão	-10.4572
▁resolução	-10.4572
-20	-10.4573
▁adotou	-10.4574
▁cita	-10.4576
▁aberta	-10.4583
és	-10.4585
▁ossos	-10.4585
▁compõem	-10.4586
▁nasce	-10.4586
▁financeiro	-10.4591
▁ajudar	-10.4601
▁porte	-10.4607
ngel	-10.4608
▁iria	-10.461
▁caracterizada	-10.461
▁lou	-10.4612
▁necessidades	-10.4621
▁hierarquia	-10.4622
▁mensagem	-10.4622
▁ficção	-10.4622
▁dodô	-10.4622
▁coleção	-10.4627
▁representada	-10.4629
atual	-10.4634
▁mali	-10.4635
kin	-10.4635
▁aplicado	-10.464
▁gêneros	-10.4641
▁voz	-10.4645
▁retirada	-10.4649
zar	-10.4653
▁estimula	-10.4659
yn	-10.466
ts	-10.4663
▁relacionado	-10.4666
▁conseguir	-10.4667
▁frequenta	-10.4667
▁relaciona	-10.467
▁comunistas	-10.4672
▁adversário	-10.4673
▁brilhante	-10.4673
▁castela	-10.4673
▁indiana	-10.4676
▁naval	-10.4685
▁experimentos	-10.4688
▁componente	-10.4694
▁legislativa	-10.4694
irc	-10.4697
▁tentar	-10.4705
▁podiam	-10.4705
tha	-10.4709
▁registrada	-10.471
▁cerâmica	-10.4723
▁cobertura	-10.4723
▁largura	-10.4723
▁meridional	-10.4723
▁recomenda	-10.4723
▁expressões	-10.4723
▁invés	-10.4724
▁house	-10.4724
▁filipinas	-10.4724
▁ruas	-10.4731
▁xv	-10.4731
▁alimentação	-10.4733
▁xiv	-10.4736
ngo	-10.4737
▁combina	-10.4739
▁2003,	-10.474
▁1920	-10.4741
rna	-10.4746
▁elevadas	-10.4749
▁cristão	-10.475
software	-10.4753
▁navio	-10.4761
▁proteger	-10.4762
estado	-10.4764
▁2002,	-10.4767
▁alfa	-10.4771
cra	-10.4773
▁ribeira	-10.4774
▁óleo	-10.4774
▁republicano	-10.4774
▁1948	-10.4776
▁comandante	-10.4781
▁gastos	-10.4783
▁90%	-10.4783
▁aproxima	-10.4784
rito	-10.4788
sin	-10.4788
▁tornam	-10.4788
▁controlar	-10.479
▁alimentar	-10.4795
cap	-10.48
▁recurso	-10.4801
▁causado	-10.4821
idas	-10.4825
▁unesco	-10.4826
▁1973	-10.4827
▁ocorreram	-10.4828
eno	-10.4829
▁exerce	-10.4829
▁integrado	-10.4829
▁fifa	-10.4834
▁atlântica	-10.4836
▁custos	-10.4837
▁participar	-10.4844
▁irmãos	-10.4848
rin	-10.4855
▁status	-10.4863
▁ligado	-10.4865
▁perigo	-10.4868
trans	-10.487
▁pau	-10.4873
tida	-10.4873
idae	-10.4874
▁far	-10.4876
ting	-10.488
▁orientação	-10.4881
▁cra	-10.4885
▁64	-10.4886
▁administrativas	-10.4889
cari	-10.4889
▁conhece	-10.4895
▁euros	-10.4896
▁gira	-10.4912
liber	-10.4914
▁(2011).	-10.492
▁finlândia	-10.4929
▁júpiter	-10.4929
▁licença	-10.4929
▁smith	-10.4929
▁confronto	-10.4929
▁astronomia	-10.4929
▁concepção	-10.493
▁1962	-10.493
▁alexandre	-10.493
▁2022	-10.4932
▁margens	-10.4933
▁santiago	-10.4935
▁produzem	-10.4939
▁você	-10.4942
▁povoação	-10.4942
▁ph	-10.4945
▁20%	-10.4949
▁bairros	-10.4958
▁comida	-10.4961
▁danos	-10.4965
▁peixe	-10.4967
▁influenciada	-10.4973
▁existente	-10.4975
▁beneficia	-10.4981
▁gravitacional	-10.4981
▁soares	-10.4982
▁basicamente	-10.4982
▁anglo	-10.4983
▁serão	-10.4985
▁falantes	-10.4986
and	-10.4987
▁daí	-10.5
▁servidor	-10.5
▁lula	-10.5003
▁famosos	-10.5003
▁gri	-10.501
▁básico	-10.5011
▁curto	-10.5011
▁estadunidense	-10.5015
▁ven	-10.5016
▁falha	-10.5022
▁(0	-10.5028
▁determina	-10.503
5"	-10.503
str	-10.5031
▁ficar	-10.5032
▁crowley	-10.5033
▁hemisfério	-10.5033
▁1983	-10.5035
▁divina	-10.5035
▁diminuição	-10.5038
▁históricas	-10.5039
▁organizado	-10.5039
▁criadas	-10.5043
▁representar	-10.5048
▁royal	-10.5049
▁localizadas	-10.5064
▁padre	-10.5066
▁incorpora	-10.5071
▁raça	-10.5073
▁proto	-10.5081
▁municipais	-10.5086
▁texas	-10.5086
▁viaja	-10.5087
9"	-10.5088
desambiguação	-10.5088
▁frase	-10.5088
▁ficam	-10.5096
▁fri	-10.51
▁específicos	-10.5101
pel	-10.5103
▁derivado	-10.5104
▁vest	-10.5107
gin	-10.5108
▁tivesse	-10.5109
▁considerando	-10.511
▁entender	-10.5115
▁juan	-10.5116
▁flor	-10.5117
▁retorno	-10.5124
▁quentes	-10.5126
▁coloca	-10.5136
▁dimensão	-10.5139
▁diâmetro	-10.5139
▁oliveira	-10.5139
▁dezenas	-10.5139
▁perdido	-10.5139
;/	-10.5152
ona	-10.5158
▁cuidados	-10.5166
deus	-10.5173
▁evidência	-10.5173
▁passam	-10.5174
▁pc	-10.5176
pira	-10.5176
▁preço	-10.5179
▁2020,	-10.5186
▁ética	-10.5186
parti	-10.5191
▁java	-10.5191
▁pala	-10.5191
▁mosteiro	-10.5192
▁comunicações	-10.5195
▁nobres	-10.5199
▁preferi	-10.52
▁linguagens	-10.5203
▁canto	-10.5214
▁museus	-10.5219
▁matemático	-10.5228
▁causada	-10.523
_3	-10.5232
▁dependente	-10.5234
lândia	-10.5241
deira	-10.5241
▁confederação	-10.5246
▁marítimo	-10.5246
▁mínima	-10.5246
▁índico	-10.5246
▁rendimento	-10.5246
▁cabral	-10.5246
▁federais	-10.5246
ani	-10.5253
▁1930,	-10.527
rie	-10.5279
elo	-10.528
▁pr	-10.5281
▁estrangeiro	-10.5282
▁causar	-10.5284
▁recon	-10.529
ete	-10.529
pondo	-10.5297
▁nós	-10.5298
▁cordilheira	-10.5299
▁guilherme	-10.5299
▁netuno	-10.5299
▁tipicamente	-10.5299
▁universitário	-10.5299
▁abraão	-10.53
eta	-10.5301
▁neve	-10.5303
▁leão	-10.5303
▁preservação	-10.5303
▁iniciais	-10.5308
uba	-10.531
▁sam	-10.5312
▁poderoso	-10.5318
gna	-10.532
▁pessoais	-10.5321
▁aumentando	-10.5325
▁distintos	-10.5331
tus	-10.5333
▁arma	-10.5334
▁33	-10.5338
▁familiar	-10.534
cam	-10.5341
▁feira	-10.5344
▁chuva	-10.5344
▁afasta	-10.5346
▁pergunta	-10.5354
▁aprovação	-10.5354
5%	-10.5355
▁reduzida	-10.5355
onsideravelmente	-10.5356
▁prepara	-10.5357
▁localidades	-10.5359
isto	-10.5359
▁han	-10.5362
▁atuação	-10.5365
▁divididos	-10.5367
0"	-10.5371
bos	-10.5375
▁marcou	-10.5376
▁numerosos	-10.538
▁fases	-10.538
▁largo	-10.5382
mann	-10.5385
bit	-10.5386
▁grão	-10.539
bus	-10.5391
▁cliente	-10.5394
▁torneio	-10.5394
▁ecossistemas	-10.5399
feito	-10.54
▁percorre	-10.5401
▁comerciantes	-10.5405
▁necessariamente	-10.5408
▁possibilita	-10.5408
▁tropicais	-10.5408
▁panamá	-10.5408
▁ocorrido	-10.5408
▁islândia	-10.5408
▁nobreza	-10.5409
cionista	-10.5409
▁ecologia	-10.5409
▁1967	-10.5409
▁1964	-10.5409
▁paralelo	-10.541
▁conspiração	-10.5415
▁fascismo	-10.5419
▁areia	-10.5419
▁cometa	-10.542
▁pares	-10.5426
▁semanas	-10.543
▁significativas	-10.5437
▁campeão	-10.5439
▁administrado	-10.5446
▁luc	-10.5447
fei	-10.5451
▁incluir	-10.5454
▁radical	-10.5454
▁quadrado	-10.546
▁serviu	-10.5463
▁biografia	-10.5464
▁mercadorias	-10.5465
▁ônibus	-10.547
1)	-10.547
▁dominado	-10.5472
▁cristãs	-10.5474
▁atos	-10.548
spec	-10.548
▁considerar	-10.5485
▁básicos	-10.5486
▁russos	-10.5493
▁vales	-10.5494
▁tendem	-10.5503
▁derivados	-10.5504
▁provenientes	-10.5505
▁plataforma	-10.5505
▁muita	-10.551
dade	-10.5515
▁preocupa	-10.5517
▁albânia	-10.5517
▁mandioca	-10.5517
▁aéreo	-10.5517
▁minutos	-10.5517
▁evidente	-10.5518
▁atenas	-10.5518
▁1968	-10.5519
pont	-10.5521
ok	-10.5522
tis	-10.5529
▁ber	-10.5529
▁char	-10.5529
▁duque	-10.5537
line	-10.5544
▁wal	-10.5549
▁)	-10.5552
▁bru	-10.5553
▁atribui	-10.5559
▁reivindica	-10.5559
▁equipa	-10.5559
▁fre	-10.5561
▁crítico	-10.5562
▁provoca	-10.557
▁vol	-10.5571
▁anarquismo	-10.5573
▁ilustra	-10.5573
▁prefeitura	-10.5573
▁tecnológico	-10.5573
▁convenção	-10.5573
▁coberta	-10.5573
▁hinduísmo	-10.5573
▁leoa	-10.5573
lou	-10.5573
▁hélio	-10.5573
▁percepção	-10.5573
▁contêm	-10.5574
▁artístico	-10.5574
ís	-10.5575
▁trabalhista	-10.5576
▁localizados	-10.5578
▁personagens	-10.5582
én	-10.5585
cito	-10.5586
▁associa	-10.5594
▁frutos	-10.5594
vou	-10.5595
▁vestígios	-10.5596
grama	-10.5603
▁tre	-10.5605
▁tupi	-10.5606
▁erros	-10.5608
▁caro	-10.5609
açúcar	-10.5611
▁extensa	-10.5619
▁espaços	-10.5621
▁detalhes	-10.5623
▁ficando	-10.5623
▁protestos	-10.5628
tismo	-10.5628
▁racional	-10.5628
▁ascendência	-10.5628
▁carvalho	-10.5628
▁assume	-10.5629
▁satélite	-10.5629
▁armazenamento	-10.563
▁mediante	-10.5632
▁soviéticos	-10.5634
▁40%	-10.5636
▁gerar	-10.5648
gel	-10.5653
▁actual	-10.5655
▁usou	-10.5656
▁argumento	-10.566
ax	-10.566
▁cop	-10.5661
▁envolvendo	-10.5662
▁adotado	-10.5681
▁amazônia	-10.5684
▁intensidade	-10.5684
▁úmido	-10.5684
▁invenção	-10.5684
▁partícula	-10.5687
▁observar	-10.5689
▁invadi	-10.569
▁80%	-10.5692
▁cloro	-10.5693
▁50%	-10.5693
▁designação	-10.5695
▁36	-10.5701
cita	-10.5707
▁lados	-10.5709
art	-10.5712
▁tecnologias	-10.5712
▁tende	-10.5713
▁corinthians	-10.5715
▁pura	-10.5716
▁comparado	-10.5722
estar	-10.5732
ling	-10.5733
▁indiano	-10.5735
ant	-10.5736
▁estratégica	-10.574
▁fácil	-10.574
▁gravidade	-10.574
▁holandeses	-10.574
▁instalações	-10.574
▁observou	-10.574
▁tráfego	-10.574
▁pequim	-10.574
▁operacionais	-10.5741
▁baseadas	-10.5742
▁alimento	-10.5742
▁1949	-10.5742
▁chipre	-10.5742
▁assassinato	-10.5747
vas	-10.5751
▁prove	-10.576
▁envia	-10.5765
▁cabe	-10.5769
▁aconteceu	-10.5777
pintada	-10.5779
▁especifica	-10.5779
cult	-10.5783
▁qua	-10.5789
▁controlado	-10.5789
▁proteína	-10.5791
▁cidadania	-10.5797
▁ferroviário	-10.5797
▁depressão	-10.5797
▁beleza	-10.5797
chu	-10.5797
▁chamar	-10.5798
▁circular	-10.5798
▁elétrico	-10.5799
▁tese	-10.5801
ell	-10.5802
▁frutas	-10.5809
▁1.	-10.5812
▁regulares	-10.5819
▁integrada	-10.5819
▁impe	-10.582
ísmo	-10.5822
▁viveu	-10.5823
▁faro	-10.5824
▁cata	-10.5825
cola	-10.5829
▁indicam	-10.5829
▁médias	-10.5845
▁elite	-10.5852
▁dispõe	-10.5855
▁eventualmente	-10.5856
▁vasto	-10.5857
▁recuperação	-10.5857
▁técnico	-10.5858
▁externas	-10.5858
▁dominada	-10.5859
▁formaram	-10.586
▁situações	-10.5863
clo	-10.5869
▁plan	-10.5871
▁perde	-10.5878
ológica	-10.5879
▁apresentando	-10.5879
▁tira	-10.5882
▁exteriores	-10.5885
imento	-10.5892
▁relatos	-10.5894
▁roberto	-10.5895
tável	-10.5896
▁fibras	-10.5897
▁pertencem	-10.5903
▁2018	-10.5907
▁arménia	-10.5911
▁controvérsia	-10.5911
▁poluição	-10.5911
▁quinze	-10.5911
▁intervalo	-10.5911
▁sueco	-10.5911
▁hidrográfica	-10.5911
▁equação	-10.5911
▁tonga	-10.5913
▁sagan	-10.5917
▁vital	-10.5917
▁herói	-10.5919
▁neuro	-10.5919
▁identificar	-10.5921
mat	-10.5921
▁catar	-10.5924
▁haja	-10.5929
▁defender	-10.593
▁similares	-10.5932
▁mercados	-10.5932
tio	-10.5933
▁mineiro	-10.5934
▁transporta	-10.5935
▁baseados	-10.5939
reto	-10.5946
ble	-10.5948
▁poderá	-10.5949
▁cadeias	-10.5952
▁exibi	-10.5962
sal	-10.5962
▁apoiar	-10.5963
▁2014	-10.5965
▁produzida	-10.5968
▁lembra	-10.5968
▁candomblé	-10.5968
▁restrições	-10.5968
▁dúvida	-10.5968
▁incentivo	-10.5968
▁profundo	-10.5968
▁causou	-10.5968
▁naquela	-10.5969
aca	-10.5969
▁legado	-10.5972
▁vencedor	-10.5973
▁navegação	-10.5975
▁contribuiu	-10.5984
▁sp	-10.5984
▁escolar	-10.5984
▁explicação	-10.5985
▁posto	-10.5986
▁compara	-10.5986
▁2001	-10.5987
▁5%	-10.5989
▁propostas	-10.5992
uais	-10.5994
▁persa	-10.5995
▁forçado	-10.5998
▁adeptos	-10.5999
▁lan	-10.6002
▁contrato	-10.6005
-18	-10.6007
à	-10.6011
▁continuaram	-10.6012
sch	-10.6012
osas	-10.6018
▁atletas	-10.6019
▁esp	-10.602
▁sara	-10.602
tadas	-10.6021
▁avanços	-10.6024
ers	-10.6026
▁consenso	-10.6026
▁parceria	-10.6026
▁positivo	-10.6026
▁1958	-10.6027
▁1987	-10.6028
▁senso	-10.6029
▁toma	-10.6031
▁governamentais	-10.6032
▁jardim	-10.6036
▁pretende	-10.6038
consequentemente	-10.6041
nó	-10.6043
▁contribui	-10.6049
▁vêm	-10.6056
▁proporcional	-10.607
▁end	-10.6071
química	-10.6071
▁navegador	-10.6073
▁paga	-10.6074
▁atômico	-10.6084
▁durkheim	-10.6084
▁exercício	-10.6084
▁1971	-10.6084
▁zinco	-10.6084
▁favorece	-10.6085
▁guia	-10.6085
▁apple	-10.6085
▁obrigatório	-10.6085
▁1917	-10.6086
ev	-10.6089
▁grave	-10.6092
▁gerado	-10.6094
▁ganhar	-10.6094
▁clássicos	-10.6095
▁secular	-10.6096
▁34	-10.6104
tit	-10.6108
▁esti	-10.6108
▁capitalista	-10.6112
leste	-10.6121
▁tru	-10.6123
ixa	-10.6126
incluindo	-10.6128
▁noção	-10.6136
▁critica	-10.614
▁pop	-10.614
▁minorias	-10.6141
pó	-10.6142
▁artesanato	-10.6143
▁gráfico	-10.6143
▁género	-10.6143
▁primavera	-10.6143
▁sucessão	-10.6143
▁preciso	-10.6143
▁consulta	-10.6143
▁povoamento	-10.6151
ual	-10.6153
▁favelas	-10.6155
▁1930	-10.6158
▁700	-10.6166
▁ibge	-10.6166
▁teriam	-10.6171
▁sugere	-10.6171
▁designar	-10.6173
):	-10.6174
▁empregado	-10.6181
lp	-10.6183
▁origina	-10.6183
▁metro	-10.6189
▁estatísticas	-10.6197
▁mari	-10.6197
▁juli	-10.6197
gli	-10.6197
▁budistas	-10.6198
▁absoluto	-10.6201
▁câncer	-10.6201
▁cérebro	-10.6201
▁jurídico	-10.6201
▁probabilidade	-10.6201
▁1965	-10.6203
▁demográfica	-10.6203
▁negociações	-10.6204
▁islâmico	-10.6205
▁raramente	-10.6206
▁manda	-10.6207
▁delimita	-10.6208
iv	-10.6208
▁xiii	-10.6208
▁satélites	-10.6212
▁possuir	-10.6213
▁parti	-10.6217
form	-10.6224
ski	-10.6224
iti	-10.6237
ium	-10.6239
rado	-10.6241
▁vê	-10.6241
pra	-10.6249
▁depósitos	-10.625
▁concorda	-10.6252
▁ilegal	-10.6261
▁simultaneamente	-10.6261
▁triângulo	-10.6261
tino	-10.6261
▁ferreira	-10.6262
▁construiu	-10.6262
▁definições	-10.6262
▁1941	-10.6262
▁conter	-10.6262
▁ip	-10.6264
▁artista	-10.6268
▁liber	-10.6269
vor	-10.6278
▁relacionada	-10.6284
uru	-10.6285
▁afirmação	-10.6291
cus	-10.63
▁agentes	-10.6303
▁ativo	-10.6307
dita	-10.6312
▁jesuítas	-10.6312
▁denomina	-10.6319
▁alcançou	-10.632
▁evolutiva	-10.632
▁rituais	-10.632
▁complexidade	-10.632
▁senegal	-10.632
▁criados	-10.632
▁teórica	-10.6321
▁revolucionária	-10.6321
vista	-10.6322
▁radio	-10.6326
▁bell	-10.6326
▁julgamento	-10.6326
rig	-10.6327
▁bel	-10.6332
conf	-10.6335
▁arquivo	-10.634
▁quadro	-10.6343
▁(7	-10.6344
▁batista	-10.6347
▁2021).	-10.635
▁remonta	-10.635
▁ch	-10.6351
▁2015	-10.6355
tch	-10.6364
▁250	-10.6365
▁controlada	-10.6366
▁verifica	-10.6368
▁eletro	-10.6369
▁profundidade	-10.638
▁principado	-10.638
▁reforça	-10.6383
▁mesa	-10.6385
▁relevante	-10.6388
▁inteiro	-10.6389
▁dão	-10.639
▁cavalo	-10.6393
▁sons	-10.6395
tir	-10.6396
ticamente	-10.6399
▁deixaram	-10.64
▁linear	-10.6403
ges	-10.6403
▁relativo	-10.6404
rica	-10.6405
eza	-10.641
▁sugerem	-10.6411
nn	-10.6414
▁praga	-10.6415
▁falada	-10.6427
enti	-10.6428
cula	-10.643
ple	-10.6433
velha	-10.6434
end	-10.6434
▁dr	-10.6435
▁fisiologia	-10.644
▁provável	-10.644
▁colónia	-10.644
▁1939	-10.6442
▁implementação	-10.6442
ular	-10.6447
▁iso	-10.645
▁cientista	-10.645
zen	-10.645
▁organizar	-10.6452
az	-10.6456
▁resultante	-10.6457
▁deseja	-10.6457
▁árvore	-10.6459
ngu	-10.6464
▁pior	-10.647
▁meu	-10.6472
stein	-10.6474
▁hor	-10.6477
ller	-10.6478
▁nascente	-10.6479
ivos	-10.6482
▁renome	-10.6489
▁turcos	-10.6493
cta	-10.6494
▁justifica	-10.6498
▁guatemala	-10.6501
▁equatorial	-10.6501
▁1972	-10.6501
▁útil	-10.6501
▁ideais	-10.6501
▁formou	-10.6501
▁galáxias	-10.6502
▁2010.	-10.6502
▁ceuta	-10.6502
▁1966	-10.6502
▁presidencial	-10.6503
van	-10.6503
▁concluiu	-10.6507
▁gerações	-10.6508
ius	-10.6508
▁todavia	-10.651
▁crime	-10.6512
▁visa	-10.6514
▁mário	-10.6515
▁poema	-10.6515
onde	-10.6517
▁colocada	-10.6522
▁leon	-10.6524
ciano	-10.6528
lle	-10.6531
endo	-10.6532
▁associadas	-10.6533
▁nazistas	-10.6534
▁numerosas	-10.6539
▁fabrica	-10.6547
cionismo	-10.6549
▁pedras	-10.655
▁solicita	-10.6562
▁banana	-10.6565
▁restauração	-10.6566
▁associações	-10.6567
▁nela	-10.6571
▁canções	-10.6578
▁climáticas	-10.658
▁negativo	-10.6582
ece	-10.6584
▁montes	-10.6584
▁crescer	-10.6585
una	-10.6586
▁rna	-10.6591
▁pés	-10.6594
▁norma	-10.6596
▁finalidade	-10.6599
gens	-10.6599
▁islã	-10.66
▁hindus	-10.6607
▁180	-10.661
▁ligadas	-10.6611
pal	-10.6621
▁1940	-10.6621
▁fiscal	-10.6622
▁machos	-10.6622
▁cortes	-10.6622
▁enxofre	-10.6623
▁festivais	-10.6623
▁instalação	-10.6623
▁juízes	-10.6623
▁roraima	-10.6623
▁ensaio	-10.6623
▁obtida	-10.6623
▁obrigatória	-10.6624
▁1977	-10.6625
▁questiona	-10.6625
▁tensão	-10.6625
▁1918	-10.6625
▁raiz	-10.6626
▁desenvolve	-10.6627
▁substituição	-10.6627
gn	-10.6628
▁importações	-10.6629
sar	-10.663
zes	-10.6631
▁necessários	-10.6634
▁ricos	-10.6635
▁mostrar	-10.6637
▁nominal	-10.6637
▁lenda	-10.6643
▁malta	-10.6647
▁jogar	-10.6651
▁nascido	-10.6661
▁afirmam	-10.6664
▁recebem	-10.6671
▁consta	-10.6674
▁ancestral	-10.6682
▁alguém	-10.6685
▁intelectual	-10.6685
▁territoriais	-10.6685
▁mantendo	-10.6685
▁introduziu	-10.6685
▁vidro	-10.6685
▁stalin	-10.6686
▁1946	-10.6687
▁gomes	-10.6687
▁dieta	-10.6688
▁teologia	-10.6689
cc	-10.6691
▁liberais	-10.6692
▁70%	-10.6692
▁nacionalista	-10.6696
▁hiper	-10.6697
▁artística	-10.6701
▁(8	-10.6701
▁coluna	-10.6702
▁possuíam	-10.6702
▁juntos	-10.6704
▁conquistado	-10.6711
▁estrangeiras	-10.6712
▁punk	-10.6717
▁teóricos	-10.6717
▁pó	-10.6719
ight	-10.672
▁compartilha	-10.6721
▁enzima	-10.6723
▁cauda	-10.6726
▁interessa	-10.6726
▁fio	-10.673
▁vindos	-10.6736
▁raio	-10.6736
▁bola	-10.6741
▁ambientes	-10.6743
▁xii	-10.6743
▁combustível	-10.6747
▁extremidade	-10.6747
▁incêndio	-10.6747
▁invasões	-10.6747
▁ocasião	-10.6747
▁reflete	-10.6747
▁tecnológica	-10.6747
▁iorque	-10.6747
▁manganês	-10.6747
▁elevação	-10.6747
▁antropologia	-10.6747
▁clã	-10.6748
▁alves	-10.6748
▁civilizações	-10.6748
▁praticantes	-10.6749
▁impedir	-10.6749
▁1956	-10.6749
encia	-10.6753
▁sir	-10.6753
aba	-10.6757
▁capa	-10.6761
▁falam	-10.6769
inter	-10.677
▁desporto	-10.6771
▁sta	-10.6773
▁classifica	-10.6781
▁frequentes	-10.6786
▁matemáticos	-10.6787
▁wo	-10.6795
▁astro	-10.6797
bé	-10.6801
▁domínios	-10.6805
▁comuna	-10.6805
far	-10.6806
▁levanta	-10.6809
▁hectares	-10.681
▁inflação	-10.681
▁módulo	-10.681
▁ocasiões	-10.681
▁acrescenta	-10.681
▁oriundo	-10.681
▁respeita	-10.681
▁coloração	-10.681
▁dumont	-10.681
▁relatividade	-10.681
▁1981	-10.6811
▁is	-10.6811
▁camponeses	-10.6811
▁restos	-10.6813
ins	-10.6815
▁consumi	-10.6817
▁preocupação	-10.682
ep	-10.682
▁ji	-10.6821
▁básicas	-10.6822
▁oscila	-10.6822
▁(9	-10.6826
▁foca	-10.6826
▁governa	-10.6827
▁sítio	-10.6828
▁costeira	-10.6828
▁anatomia	-10.6831
▁dig	-10.6832
▁derrotado	-10.6834
▁revolucionário	-10.6835
▁acre	-10.6836
ecido	-10.6838
linha	-10.684
▁fundadores	-10.684
▁armada	-10.6846
▁tiro	-10.6851
▁albert	-10.6854
▁vaga	-10.6857
▁aero	-10.6862
ecimento	-10.6868
▁extenso	-10.6872
▁instalado	-10.6872
▁variável	-10.6872
▁desigualdade	-10.6873
▁cin	-10.6873
▁rotas	-10.6874
▁facilita	-10.6874
▁governado	-10.6878
▁originais	-10.6879
▁nativa	-10.6882
▁templos	-10.6884
corrente	-10.6885
▁iniciada	-10.6885
▁30%	-10.6885
usa	-10.6888
put	-10.6898
▁55	-10.69
dez	-10.6901
▁designa	-10.6901
lh	-10.6901
▁sofrer	-10.6909
nação	-10.6916
▁sun	-10.6917
▁pá	-10.692
▁espectro	-10.692
igo	-10.6926
pôs	-10.693
▁sá	-10.6934
▁provas	-10.6934
▁polar	-10.6935
ógrafo	-10.6935
▁ajudou	-10.6936
▁combustíveis	-10.6936
▁discussão	-10.6936
▁holandesa	-10.6936
▁periódica	-10.6936
▁onze	-10.6936
dito	-10.6937
▁introduzida	-10.6937
▁46	-10.6939
▁testes	-10.6939
▁praticada	-10.6944
▁marítima	-10.6958
▁circuito	-10.6958
▁externo	-10.6958
uca	-10.6965
▁1%	-10.6969
▁qualifica	-10.6976
▁colocado	-10.6979
▁costeiras	-10.698
▁pertencentes	-10.6982
▁manifesta	-10.6985
▁seguem	-10.6987
capital	-10.6991
▁agregada	-10.6996
britannica	-10.6999
▁caracteres	-10.6999
▁florença	-10.6999
▁incentiva	-10.6999
▁telescópio	-10.6999
▁vénus	-10.6999
▁1963	-10.6999
▁infante	-10.7
▁martinho	-10.7002
▁estáveis	-10.7004
▁adaptação	-10.7005
▁acusado	-10.7008
▁louis	-10.7009
▁urss	-10.7012
▁apresentada	-10.7021
▁proeminente	-10.7023
▁experimental	-10.7026
▁estimado	-10.7027
▁medalhas	-10.7029
▁cari	-10.703
▁engenheiro	-10.7032
▁irá	-10.7035
lógicos	-10.7039
▁continuar	-10.7047
▁carros	-10.7051
▁codifica	-10.7054
web	-10.7056
▁invent	-10.7059
▁secreta	-10.7059
▁vota	-10.7061
▁álcool	-10.7064
▁bauru	-10.7066
▁treinamento	-10.7066
▁1938	-10.7066
ães	-10.7069
pil	-10.7069
▁42	-10.7071
óide	-10.7072
▁horário	-10.7073
▁diminuiu	-10.7073
▁ras	-10.7074
▁otan	-10.7076
cid	-10.7078
▁1,5	-10.7081
rk	-10.7083
▁we	-10.7085
▁minério	-10.7089
tti	-10.7091
dre	-10.7093
▁atinge	-10.7098
▁75	-10.71
▁equipes	-10.71
▁fêmeas	-10.711
▁habita	-10.7115
▁agente	-10.7116
hen	-10.7117
▁gran	-10.7119
▁roda	-10.7123
bico	-10.7128
▁transformou	-10.7128
▁argélia	-10.7128
▁impossível	-10.7128
▁inteligência	-10.7128
▁islamismo	-10.7128
▁paradigma	-10.7128
▁palco	-10.7128
▁brunei	-10.7129
▁alasca	-10.7129
▁aborda	-10.713
▁amigos	-10.713
▁urano	-10.713
▁1947	-10.7131
▁tenta	-10.7132
▁oxidação	-10.7135
▁erro	-10.7135
▁formados	-10.7138
nita	-10.7142
nar	-10.7145
▁envolvidos	-10.7146
▁praticado	-10.7153
▁sai	-10.7155
▁secundária	-10.7155
▁acadêmicos	-10.7158
▁desenvolvidas	-10.716
▁sucedido	-10.716
▁existia	-10.7163
▁rocha	-10.7163
▁financeiros	-10.7168
rec	-10.717
odice	-10.7173
gênio	-10.7174
▁art	-10.7186
▁governantes	-10.7186
▁caba	-10.7188
▁suprema	-10.7192
▁jamaica	-10.7193
▁antártida	-10.7193
▁filosófico	-10.7193
▁infância	-10.7193
▁alcance	-10.7193
▁batata	-10.7193
▁disputas	-10.7196
lado	-10.7197
▁conseguiram	-10.72
my	-10.7204
▁cargas	-10.7206
▁concelhos	-10.7206
ches	-10.7212
prova	-10.7217
▁tarefa	-10.7222
▁totalidade	-10.7226
ama	-10.7231
▁diploma	-10.7232
▁premi	-10.7233
▁times	-10.7245
▁casal	-10.7249
▁uns	-10.7254
▁bene	-10.7254
▁carnaval	-10.7258
▁instabilidade	-10.7258
▁propaganda	-10.7259
▁recorde	-10.726
▁aquiles	-10.726
plan	-10.7262
▁sancho	-10.7262
▁adicional	-10.7262
▁inspirado	-10.7262
▁liechtenstein	-10.7264
▁alcobaça	-10.7268
sha	-10.7268
▁histórias	-10.7268
▁formais	-10.7268
▁lança	-10.7268
▁monumentos	-10.7283
lhes	-10.7283
▁complexas	-10.7284
▁dizem	-10.7288
ísta	-10.7288
▁orgânica	-10.7289
▁proximidade	-10.7289
feira	-10.7294
▁olímpico	-10.7296
▁libera	-10.7305
▁joga	-10.731
▁contos	-10.7311
ídio	-10.7312
▁palma	-10.7316
categoria	-10.7317
desambiguaç	-10.7322
▁óptica	-10.7324
▁bioquímica	-10.7325
▁1943	-10.7326
▁adicionais	-10.7326
▁proposto	-10.7327
▁separadas	-10.7328
rido	-10.7335
hor	-10.7339
▁fama	-10.7355
▁francesas	-10.7357
▁influente	-10.7357
▁corrida	-10.7358
just	-10.7363
▁ovos	-10.7368
▁tai	-10.7369
ien	-10.737
▁usinas	-10.7373
estados	-10.7374
ced	-10.7375
rit	-10.7377
▁fascista	-10.7377
▁nele	-10.7383
▁acontecimentos	-10.7385
ben	-10.7386
▁presos	-10.7388
cum	-10.7389
▁havendo	-10.739
▁eficiência	-10.739
▁divino	-10.7391
▁termodinâmica	-10.7391
▁designada	-10.7393
▁traduzido	-10.7393
▁pascal	-10.7395
▁60%	-10.7395
▁profundamente	-10.7398
▁bolsa	-10.74
punha	-10.74
▁destinada	-10.7406
tta	-10.7407
▁48	-10.7414
tera	-10.7414
▁tratar	-10.742
▁vaz	-10.7422
▁receberam	-10.7424
▁acompanhado	-10.7425
▁contava	-10.7425
▁macro	-10.7431
▁obriga	-10.7432
▁mesmos	-10.7434
▁pinturas	-10.7436
lógico	-10.7439
bur	-10.744
▁38	-10.7443
▁xxi	-10.7445
rus	-10.7446
▁torres	-10.7453
▁entendimento	-10.7457
▁feminina	-10.7457
▁instalada	-10.7457
▁lítio	-10.7457
▁napoleão	-10.7457
▁alegre	-10.7457
▁estátua	-10.7457
▁ativos	-10.7461
▁tour	-10.7461
field	-10.7462
▁secretaria	-10.7463
▁poderosa	-10.7465
mir	-10.7469
éticos	-10.7472
▁43	-10.7481
teca	-10.7481
ína	-10.7482
▁determinadas	-10.7489
cep	-10.749
tec	-10.7491
▁canção	-10.7493
▁exame	-10.7494
▁criança	-10.7494
▁tarefas	-10.7494
▁companhias	-10.7495
▁retorna	-10.7497
▁1945	-10.75
▁lava	-10.7501
▁representante	-10.7507
▁trance	-10.7507
▁media	-10.7509
▁lutas	-10.7509
▁medalha	-10.7513
▁sab	-10.7514
▁epi	-10.7515
▁vilas	-10.7518
ificou	-10.7519
▁surgir	-10.7519
▁abastecimento	-10.7524
▁amazônica	-10.7524
▁escassez	-10.7524
▁escritório	-10.7524
▁metálico	-10.7524
▁concedido	-10.7524
▁coberto	-10.7524
▁assinatura	-10.7525
▁ligeiramente	-10.7526
▁1954	-10.7527
▁tornado	-10.7531
▁pagamento	-10.7532
▁exporta	-10.7533
▁participantes	-10.7533
▁mico	-10.7534
▁fluido	-10.7534
4%)	-10.7536
▁papas	-10.7537
mil	-10.7541
▁africanas	-10.7541
▁conhecer	-10.7545
▁cromossomos	-10.7546
▁voo	-10.7553
▁generalizada	-10.7554
xia	-10.756
▁latitude	-10.7562
▁estrangeira	-10.7562
▁turístico	-10.7562
▁voos	-10.7569
ale	-10.757
▁condenado	-10.7573
▁pagar	-10.7574
▁eletrônicos	-10.7575
mel	-10.7578
nus	-10.7588
telecomunicações	-10.7592
▁construções	-10.7592
▁jerusalém	-10.7592
▁joaquim	-10.7592
▁globo	-10.7592
▁santuário	-10.7592
▁eletromagnética	-10.7592
cão	-10.7594
▁2006.	-10.7596
▁argumentos	-10.7602
eja	-10.7604
ní	-10.7605
▁nosso	-10.7608
▁critérios	-10.761
▁encontrava	-10.7615
▁lobo	-10.7616
▁marxista	-10.7621
má	-10.7624
▁casou	-10.7627
▁disto	-10.7628
▁esteja	-10.7632
▁condado	-10.7632
rn	-10.7632
▁consistente	-10.7632
▁gor	-10.7635
▁alfred	-10.7637
▁bsd	-10.7644
▁orbita	-10.7645
▁2007.	-10.7649
▁culmina	-10.765
▁católico	-10.7653
▁terror	-10.7657
▁timor	-10.7659
▁autônoma	-10.766
▁catedral	-10.766
▁hidrelétrica	-10.766
▁maurício	-10.766
▁palestina	-10.766
▁paróquia	-10.766
▁society	-10.766
▁candidatos	-10.7661
dá	-10.7662
hon	-10.7662
▁1955	-10.7662
▁emissões	-10.7663
▁pertencia	-10.767
▁ranking	-10.7676
▁vídeo	-10.768
perante	-10.7683
▁densa	-10.7685
▁maneiras	-10.7687
▁américas	-10.7695
▁comemora	-10.7699
▁brasileiras	-10.77
▁complexa	-10.7701
▁influencia	-10.7702
▁criaram	-10.7702
quando	-10.7704
▁prêmios	-10.771
▁sabor	-10.771
▁únicos	-10.7712
▁lunar	-10.7716
▁crimes	-10.7717
vê	-10.7719
▁presta	-10.772
▁bebidas	-10.7722
▁assentamentos	-10.7723
mato	-10.7725
tom	-10.7728
▁recuperar	-10.7728
▁contínuo	-10.7728
▁essenciais	-10.7728
▁juventude	-10.7728
▁propriamente	-10.7728
▁pediu	-10.7728
▁confiança	-10.7729
▁substituída	-10.7729
▁belém	-10.7729
▁avenida	-10.7729
▁agricultores	-10.7729
lidade	-10.7729
▁1969	-10.773
▁mantida	-10.773
▁aprovado	-10.7731
▁necessárias	-10.7731
▁daquela	-10.7734
▁pereira	-10.7738
▁suporta	-10.7738
▁metano	-10.7739
▁transformar	-10.7744
▁cava	-10.7745
▁bla	-10.7747
▁hipóteses	-10.775
▁promove	-10.7755
▁bat	-10.7755
dente	-10.7765
▁cruza	-10.777
mag	-10.7771
▁testa	-10.7772
▁saint	-10.7773
▁estrutural	-10.7778
▁constituinte	-10.7778
▁causando	-10.778
▁combinado	-10.7788
▁destacando	-10.7789
▁haiti	-10.7792
plast	-10.7792
▁referências	-10.7793
▁anselmo	-10.7797
▁malvinas	-10.7797
▁primitiva	-10.7797
▁herdeiro	-10.7797
▁vouga	-10.7797
▁atômica	-10.7797
▁1932	-10.78
▁proprietários	-10.7801
▁projetado	-10.7804
▁precisam	-10.7809
mail	-10.7812
▁parlamentares	-10.7819
▁karl	-10.782
▁registrados	-10.7825
▁entraram	-10.7825
▁conspira	-10.7829
wan	-10.7832
▁pago	-10.7834
▁lendas	-10.7851
▁mara	-10.7853
▁adequada	-10.7858
▁ferr	-10.7858
▁bielorrússia	-10.7867
▁espaciais	-10.7867
▁excelente	-10.7867
▁ópera	-10.7867
▁iguais	-10.7867
▁reúne	-10.7867
▁nuvens	-10.7867
▁esquema	-10.7867
▁1944	-10.7868
▁1922	-10.7868
▁acompanha	-10.787
▁1919	-10.787
▁saara	-10.7872
▁efetivamente	-10.7874
▁2008.	-10.7875
▁gnu	-10.7876
▁rodrigues	-10.7878
▁oceanos	-10.7879
▁lida	-10.7884
▁mora	-10.7886
fort	-10.7888
sus	-10.7893
cana	-10.7893
▁celebra	-10.7901
▁corda	-10.7902
▁casca	-10.7907
▁alcançado	-10.7912
mã	-10.7919
grega	-10.7919
▁mito	-10.792
▁yo	-10.7924
▁supera	-10.7925
gene	-10.7926
▁montanha	-10.7928
▁sil	-10.7935
▁ancestrais	-10.7937
▁intenso	-10.7937
▁intimamente	-10.7937
▁metodologia	-10.7937
▁tráfico	-10.7937
▁emergência	-10.7937
▁aparência	-10.7937
▁produzindo	-10.7938
▁1959	-10.7938
▁cou	-10.7938
▁organizada	-10.7939
▁internas	-10.794
amente	-10.794
▁competições	-10.794
▁fermi	-10.7942
▁alteração	-10.7943
▁moedas	-10.7945
▁nacionalidade	-10.7945
gá	-10.7947
▁eduardo	-10.7947
char	-10.795
▁identificação	-10.7954
▁49	-10.7957
▁estabelecendo	-10.7959
▁interessante	-10.7961
▁assis	-10.7962
▁moda	-10.7965
▁oposto	-10.7971
▁oferecer	-10.7971
▁1990.	-10.7974
▁incluía	-10.7977
ah	-10.7977
▁traços	-10.7981
▁discuti	-10.7983
táveis	-10.7986
way	-10.7986
▁receita	-10.7987
▁name	-10.7989
▁fru	-10.799
▁gráfica	-10.7991
▁faziam	-10.7993
▁considerava	-10.7994
▁encerra	-10.8005
▁intelectuais	-10.8007
▁júlio	-10.8007
▁nigéria	-10.8007
▁rugby	-10.8007
▁andrade	-10.8007
▁mantêm	-10.8007
▁1933	-10.8009
▁quaisquer	-10.801
▁expresso	-10.8012
▁1914	-10.8013
rich	-10.8014
stan	-10.8015
▁fon	-10.8018
▁fechada	-10.8018
▁site	-10.8021
▁disciplinas	-10.8022
▁construídos	-10.8025
vu	-10.8026
▁perdendo	-10.8026
▁exigi	-10.8027
▁permanecer	-10.8028
▁acusa	-10.8029
▁diária	-10.803
▁derivada	-10.8034
▁compreender	-10.8035
▁confirma	-10.8035
▁notícias	-10.8038
tron	-10.8039
cei	-10.804
▁foral	-10.8049
▁mao	-10.805
▁drogas	-10.805
▁bispos	-10.8053
▁nomeados	-10.8055
util	-10.8056
▁ângulo	-10.8058
▁distinta	-10.8059
▁descrita	-10.806
oma	-10.8063
▁(10	-10.8064
leto	-10.8065
▁apresentação	-10.8067
▁definidas	-10.8075
língua	-10.8076
▁ordenou	-10.8078
▁álbum	-10.8078
▁revelou	-10.8078
▁tocantins	-10.8078
▁carioca	-10.8078
▁sexta	-10.8078
▁politicamente	-10.8079
▁bohr	-10.8079
▁crosta	-10.808
ici	-10.808
▁sobrevivência	-10.8081
▁mont	-10.8082
ate	-10.8083
▁inteiramente	-10.8083
▁elevados	-10.8085
▁avaliação	-10.8087
▁abs	-10.8089
fia	-10.8096
reino	-10.8098
ture	-10.81
▁espalha	-10.8102
nne	-10.8103
▁domésticos	-10.8108
▁trem	-10.8109
▁iniciar	-10.811
one	-10.8112
▁max	-10.8121
tte	-10.8127
sky	-10.8128
▁servem	-10.8133
▁menciona	-10.8134
▁morro	-10.814
▁austríaco	-10.8149
▁chomsky	-10.8149
▁intermediário	-10.8149
▁metabolismo	-10.8149
▁microscópio	-10.8149
▁palestra	-10.8149
▁sebastião	-10.8149
▁symbian	-10.8149
▁referida	-10.8149
▁camões	-10.8153
▁desconhecido	-10.8153
▁interações	-10.8154
▁1910	-10.8154
▁saque	-10.8155
▁mineira	-10.8155
▁fábricas	-10.8161
▁raras	-10.8161
mus	-10.8164
▁cena	-10.8165
▁orgânicos	-10.8169
nome	-10.817
igi	-10.8173
▁adoção	-10.8174
▁registrou	-10.8176
▁hipo	-10.8178
▁atualidade	-10.8181
▁chu	-10.8183
ons	-10.8183
▁escreve	-10.8185
▁partidas	-10.8194
▁separado	-10.8195
▁costuma	-10.8195
pr	-10.8197
▁mur	-10.8201
pet	-10.8203
▁personalidade	-10.8205
▁jornalista	-10.8212
▁solos	-10.8218
principalmente	-10.8221
▁energética	-10.8221
▁expandiu	-10.8221
▁judaísmo	-10.8221
▁mexicano	-10.8221
▁michelangelo	-10.8221
▁produtividade	-10.8221
▁prosperidade	-10.8221
▁rebelião	-10.8221
▁gratuita	-10.8221
▁degradação	-10.8222
▁ibm	-10.8222
▁isolamento	-10.8222
▁segura	-10.8225
▁revisão	-10.8226
▁perseguição	-10.8229
▁intuit	-10.8229
▁agro	-10.823
▁vende	-10.823
▁vistos	-10.823
▁reconhecer	-10.823
▁2020	-10.8233
▁seguiram	-10.8235
▁verões	-10.8236
▁diplomáticas	-10.8238
▁cama	-10.824
▁permaneceram	-10.8245
▁especialistas	-10.8246
▁arara	-10.825
▁convoca	-10.8254
quer	-10.8256
1%)	-10.8261
tig	-10.8261
▁cap	-10.8263
▁privados	-10.8268
ério	-10.8279
▁sujeito	-10.8279
▁rodovia	-10.8279
▁gro	-10.8281
ow	-10.8291
▁contemporâneos	-10.8291
▁penas	-10.8293
república	-10.8294
▁originou	-10.8294
▁bulgária	-10.8294
▁faraday	-10.8294
▁friedrich	-10.8294
▁influenciou	-10.8294
▁personagem	-10.8294
▁provocou	-10.8294
▁garantia	-10.8294
▁reconquista	-10.8294
▁incidente	-10.8294
▁pacto	-10.8294
▁zen	-10.8295
▁esperanto	-10.8295
▁terreiro	-10.8295
▁instruções	-10.8296
▁coco	-10.83
▁aparentemente	-10.8302
▁portuguesas	-10.8302
▁soja	-10.8302
▁variantes	-10.8305
▁inaugurada	-10.8306
▁demonstração	-10.8309
▁substituir	-10.8311
▁claramente	-10.8312
prop	-10.8312
▁acabaram	-10.8312
▁2%	-10.8317
pica	-10.8318
▁1945,	-10.8323
trico	-10.8328
▁faixas	-10.833
tais	-10.8332
pina	-10.8336
▁lagoa	-10.8339
missão	-10.8342
dal	-10.8344
gil	-10.8346
▁pastor	-10.8348
bis	-10.8351
▁etnias	-10.8357
▁nasa	-10.8358
▁ferrovia	-10.8359
▁escultura	-10.8365
▁cinturão	-10.8367
▁excesso	-10.8367
▁jordânia	-10.8367
▁orquestra	-10.8367
▁quântico	-10.8367
▁incapaz	-10.8367
▁conversão	-10.8369
▁eficaz	-10.837
▁opção	-10.8372
▁1940,	-10.8373
▁dinis	-10.8373
▁exatamente	-10.8373
▁morreram	-10.8376
▁chão	-10.8379
▁minho	-10.8381
gur	-10.8382
▁nomeou	-10.8384
▁perder	-10.8386
▁colo	-10.8387
industrialização	-10.8393
▁tubo	-10.8395
▁2011.	-10.8397
▁altitudes	-10.8398
▁almada	-10.8399
▁bou	-10.84
rc	-10.8401
▁índices	-10.8408
well	-10.8409
spam	-10.8413
▁sítios	-10.8418
▁1920,	-10.8422
9%)	-10.8424
front	-10.8427
ótico	-10.8428
▁divindade	-10.8429
▁afirmando	-10.8431
▁articula	-10.8431
▁pobre	-10.8431
▁rumo	-10.8432
▁graves	-10.8439
▁paredes	-10.8439
▁amapá	-10.844
▁contribuíram	-10.844
▁isabel	-10.844
▁precisão	-10.844
▁holanda	-10.844
▁york	-10.8441
▁difusão	-10.8441
▁declarado	-10.8445
ili	-10.8445
▁gan	-10.8445
▁registrado	-10.8448
ay	-10.8449
▁shi	-10.845
liga	-10.8452
▁primeiramente	-10.8455
▁exportador	-10.8459
▁emissão	-10.8462
top	-10.8464
▁tela	-10.8472
6%)	-10.8477
▁declara	-10.8479
estrutura	-10.8482
pat	-10.8486
▁costumam	-10.8489
▁democrata	-10.8493
▁canta	-10.8498
▁los	-10.85
▁puro	-10.8503
▁cidadão	-10.8505
fé	-10.8506
▁distante	-10.8506
▁aparecem	-10.851
ky	-10.8513
▁abolição	-10.8514
▁gastronomia	-10.8514
▁judicial	-10.8514
▁metrópole	-10.8514
▁radicais	-10.8514
▁sétimo	-10.8514
▁adequado	-10.8514
▁aprovou	-10.8514
▁temperado	-10.8514
▁silício	-10.8515
▁dizendo	-10.8516
▁mental	-10.8517
gada	-10.8525
▁amarelo	-10.8526
▁enviado	-10.8527
▁escritas	-10.8532
▁tentaram	-10.8533
▁passos	-10.8534
▁representações	-10.8535
▁marx	-10.8542
▁separados	-10.8544
▁adota	-10.8545
▁diário	-10.8545
▁fila	-10.8547
mara	-10.8553
imo	-10.8566
▁terminal	-10.8566
▁fraco	-10.8568
▁mencionado	-10.8568
▁2012.	-10.8571
▁transforma	-10.8575
▁poemas	-10.8576
▁avalia	-10.8577
5%)	-10.8578
▁ler	-10.8579
urban	-10.8579
▁cavalos	-10.858
▁literário	-10.8581
▁escolher	-10.8581
▁estratégias	-10.8583
▁music	-10.8586
▁47	-10.8587
tive	-10.8589
▁coalizão	-10.8589
▁diocese	-10.8589
▁monopólio	-10.8589
▁ordinais	-10.8589
▁cozinha	-10.8589
▁césar	-10.8589
▁anéis	-10.8589
▁rebeldes	-10.859
▁ecológico	-10.8592
ores	-10.8598
▁lima	-10.8599
▁arre	-10.8604
▁atende	-10.8605
▁regularmente	-10.8605
▁julga	-10.8608
▁voltar	-10.8609
▁pontes	-10.8611
fla	-10.8614
▁cd	-10.8615
▁vin	-10.8625
▁destacar	-10.8632
hy	-10.8636
▁tab	-10.8637
▁oferecem	-10.8641
▁fruto	-10.8643
▁mares	-10.8643
hin	-10.8645
cil	-10.8646
▁grandeza	-10.8647
▁bits	-10.865
▁mesmas	-10.8651
▁amplia	-10.8655
▁dispositivo	-10.8658
▁molécula	-10.8658
▁administrativo	-10.8659
▁criador	-10.8661
▁cristóvão	-10.8664
▁provisório	-10.8664
▁trindade	-10.8664
▁recusou	-10.8664
▁restrita	-10.8664
▁maciço	-10.8664
ach	-10.8664
▁defendia	-10.8664
▁piloto	-10.8664
ident	-10.8665
▁secreto	-10.8665
▁dominação	-10.8665
▁1929	-10.8666
dico	-10.8667
▁combater	-10.8667
▁publicações	-10.8668
▁gaza	-10.8669
▁sódio	-10.8671
▁definitivamente	-10.8671
▁relacionamento	-10.8674
llo	-10.8675
▁reno	-10.8675
oto	-10.8675
▁governar	-10.8679
▁cantor	-10.8679
▁bacias	-10.8681
▁asiáticos	-10.8681
▁familiares	-10.8682
▁servidores	-10.8685
diou	-10.8685
▁colocar	-10.8689
ítica	-10.8691
▁profunda	-10.8692
▁leve	-10.8692
▁inferiores	-10.8699
▁ia	-10.8701
sim	-10.8702
este	-10.8705
▁hol	-10.8708
mãe	-10.8708
nato	-10.8716
▁she	-10.8716
▁capturado	-10.8718
freguesias	-10.8719
▁aceito	-10.8727
doras	-10.8729
▁invernos	-10.8733
▁fazenda	-10.8735
▁imposto	-10.8736
▁identificado	-10.8737
rim	-10.8738
▁college	-10.874
▁constitucionais	-10.874
▁endereço	-10.874
▁sufrágio	-10.874
▁tungstênio	-10.874
▁fiéis	-10.874
▁santarém	-10.874
▁promoção	-10.874
▁assinou	-10.874
▁divisa	-10.874
▁deslocamento	-10.8746
▁variante	-10.8748
▁aliado	-10.8748
▁teste	-10.8748
comp	-10.8751
▁conquistar	-10.8752
éria	-10.8753
▁fuga	-10.8758
▁52	-10.8759
▁hindu	-10.8759
▁25%	-10.8762
valente	-10.8763
ulação	-10.8766
▁dedicado	-10.8767
bla	-10.8769
▁dizia	-10.877
▁destinos	-10.8785
▁sementes	-10.8788
ento	-10.8789
▁conhecimentos	-10.8792
▁nobre	-10.8793
entre	-10.8798
gum	-10.88
tões	-10.8807
▁esqui	-10.8808
▁navega	-10.8809
▁descobrir	-10.8811
▁vii	-10.8814
▁jurisdição	-10.8816
▁kuwait	-10.8816
▁litorânea	-10.8816
▁potássio	-10.8816
▁romênia	-10.8816
▁urbanização	-10.8816
íssima	-10.8816
▁estética	-10.8816
▁examina	-10.8816
▁igualdade	-10.8817
▁fragmentos	-10.8817
▁edições	-10.8818
▁fixo	-10.8819
▁lentamente	-10.8822
▁afeta	-10.8825
▁fornecem	-10.8825
▁permanecem	-10.8832
avam	-10.8832
▁bancos	-10.8834
cina	-10.8838
ao	-10.8838
2%)	-10.8842
▁colinas	-10.885
ngue	-10.8853
ij	-10.8861
▁matérias	-10.8862
▁exercer	-10.8865
▁august	-10.8866
▁formadas	-10.8876
3%)	-10.8879
▁vizinhas	-10.8881
▁acidente	-10.8892
▁dificuldade	-10.8892
▁adquirir	-10.8893
▁classificou	-10.8893
▁impulso	-10.8893
▁michael	-10.8893
▁sugeriu	-10.8893
▁suicídio	-10.8893
▁vantagem	-10.8893
▁dividir	-10.8893
▁belize	-10.8893
▁pinheiro	-10.8893
▁genoma	-10.8894
peer	-10.8894
ney	-10.8894
▁show	-10.8894
▁calvin	-10.8896
▁seleciona	-10.8896
nismo	-10.8897
regiões	-10.8898
▁auxilia	-10.8898
▁inspiração	-10.89
embora	-10.8901
▁pensar	-10.8903
▁indianos	-10.8904
▁faladas	-10.8906
▁distribuídos	-10.8907
oni	-10.8909
▁fina	-10.891
▁prof	-10.8911
psd	-10.8913
▁conquistas	-10.8915
fen	-10.8917
▁correta	-10.8918
▁ví	-10.892
comun	-10.8921
curi	-10.8923
▁denominados	-10.8932
▁influentes	-10.8933
af	-10.8934
▁cm	-10.8941
▁competi	-10.8942
neses	-10.8946
▁mega	-10.8951
▁vivia	-10.8952
lly	-10.8955
mol	-10.8958
nã	-10.896
ind	-10.8966
▁terrenos	-10.8969
7%)	-10.897
ique	-10.897
▁1957	-10.8971
▁facilidade	-10.8971
▁rodoviária	-10.8971
▁destruída	-10.8971
▁ocasionalmente	-10.8971
▁utilidade	-10.8971
▁suíço	-10.8971
▁basílica	-10.8971
▁escudo	-10.8971
▁parede	-10.8972
▁fracasso	-10.8972
tologia	-10.8973
▁aveiro	-10.8973
▁1936	-10.8973
▁divulgação	-10.8973
▁1924	-10.8973
▁músicos	-10.8974
ólogo	-10.8975
▁fazendas	-10.8975
agregada	-10.8976
teoria	-10.8976
▁1890	-10.8977
▁administra	-10.8978
▁ram	-10.898
▁homo	-10.8984
pib	-10.8985
gues	-10.8986
▁executado	-10.8988
▁borda	-10.8989
▁habitada	-10.899
▁francis	-10.8992
▁apresentado	-10.8993
cano	-10.8993
▁conheceu	-10.8994
pot	-10.8995
inhas	-10.8997
agens	-10.901
▁reta	-10.9012
arte	-10.9012
▁120	-10.9015
▁estabelecidos	-10.9016
novo	-10.9021
▁rompe	-10.903
▁ran	-10.9033
▁cova	-10.9035
▁definidos	-10.9038
▁aparente	-10.9041
▁past	-10.9042
▁singular	-10.9049
▁economicamente	-10.9049
▁inquisição	-10.9049
▁repressão	-10.9049
▁combustão	-10.9049
▁competência	-10.9049
▁clero	-10.9049
▁essência	-10.905
▁curva	-10.905
▁outono	-10.905
▁típica	-10.9052
▁filosófica	-10.9052
▁oportunidade	-10.9052
▁contemporâneo	-10.9052
▁milênio	-10.9052
▁zeus	-10.9053
nio	-10.9056
▁internos	-10.9056
▁tomé	-10.9056
grada	-10.9058
▁concedeu	-10.9058
▁estudou	-10.9059
ílio	-10.9062
▁dependem	-10.9063
▁alberto	-10.9077
▁islão	-10.9078
▁senhores	-10.9079
▁integral	-10.9079
porta	-10.9083
▁fascistas	-10.9089
gro	-10.9091
roma	-10.9094
▁39	-10.9101
▁ul	-10.9102
▁tam	-10.9105
▁prima	-10.9105
▁divididas	-10.911
oides	-10.9111
▁registo	-10.9112
▁boca	-10.9116
▁relevantes	-10.9117
▁buda	-10.9121
▁(14	-10.9123
fes	-10.9123
soci	-10.9124
▁provi	-10.9125
▁entretenimento	-10.9128
▁reconstrução	-10.9128
▁primitivo	-10.9128
▁federativa	-10.9128
▁laranja	-10.9128
▁jacob	-10.9128
▁ignora	-10.9129
▁subsistência	-10.9129
▁venera	-10.913
▁frei	-10.913
▁escura	-10.913
▁budista	-10.9132
▁anarquista	-10.9132
▁denominadas	-10.9134
▁malaio	-10.9135
▁estimativa	-10.9138
▁ligando	-10.9138
ther	-10.9138
▁envolvem	-10.9139
▁diminuir	-10.9141
▁declararam	-10.9141
▁retornou	-10.9151
▁medo	-10.9152
▁nervoso	-10.9153
ane	-10.9154
▁tendências	-10.9154
▁arqueológicos	-10.9155
▁preso	-10.9155
▁constantemente	-10.9158
ish	-10.9162
▁apareceu	-10.9166
▁permanentes	-10.9168
▁determinados	-10.9169
▁distingui	-10.917
▁entrega	-10.9171
quad	-10.9173
▁colabora	-10.9173
eter	-10.9175
▁gau	-10.9185
▁possuindo	-10.9188
poli	-10.9193
▁voltada	-10.9194
▁missionários	-10.9197
▁emirados	-10.9197
▁51	-10.9199
lay	-10.9201
tipo	-10.9202
▁gols	-10.9202
▁expedições	-10.9207
▁sacrifício	-10.9207
▁estufa	-10.9207
▁aparecimento	-10.9207
▁elaborado	-10.9207
▁2009.	-10.9207
▁equações	-10.9207
graf	-10.9209
▁corta	-10.921
▁controlo	-10.9211
▁assentos	-10.9212
▁semelhança	-10.9214
▁bebida	-10.9214
▁assentamento	-10.9215
óticos	-10.9216
países	-10.9219
▁nativas	-10.922
▁gerou	-10.9224
▁peão	-10.9226
itz	-10.9227
casa	-10.9227
▁separada	-10.923
▁cobra	-10.9231
pression	-10.9233
▁fili	-10.9234
▁vilar	-10.9235
▁íons	-10.9239
rida	-10.9239
▁mp	-10.9244
▁pul	-10.9244
▁atraí	-10.9246
▁secas	-10.9246
▁experimenta	-10.925
ulo	-10.9257
▁surgem	-10.9258
▁terços	-10.9259
pai	-10.9259
▁índias	-10.9269
lit	-10.9274
▁significativos	-10.9274
versa	-10.9279
▁acadêmica	-10.9287
▁citoplasma	-10.9287
▁célebre	-10.9287
▁folclore	-10.9287
▁preferência	-10.9287
▁proibição	-10.9287
▁piauí	-10.9287
▁afirmar	-10.9287
rr	-10.9287
▁treze	-10.929
▁sudão	-10.9291
▁vencer	-10.9291
▁campanhas	-10.9292
▁dominicana	-10.9293
▁vulcânica	-10.9295
vá	-10.9296
▁bol	-10.9303
ville	-10.9304
▁aviões	-10.9305
▁estágio	-10.9309
▁integrar	-10.9315
▁executar	-10.9315
▁comparada	-10.9316
▁descobertos	-10.9316
▁gerando	-10.9317
▁avançada	-10.932
▁delta	-10.932
▁umbanda	-10.9327
▁acumula	-10.9328
▁realizaram	-10.9328
▁mit	-10.9335
▁nacionalistas	-10.9336
▁coreano	-10.9336
▁engenheiros	-10.9338
izando	-10.9338
▁pilha	-10.9338
▁mina	-10.9345
▁vinda	-10.9352
4)	-10.9353
▁trabalha	-10.9353
▁rom	-10.9356
▁defende	-10.9361
húngaro	-10.9368
▁objetiva	-10.9368
▁absorve	-10.9368
▁assemelha	-10.9368
▁1953	-10.9368
▁marquês	-10.9368
▁espíritos	-10.9369
hal	-10.9369
▁demográfico	-10.937
▁ciclos	-10.9372
kar	-10.9373
ócitos	-10.9373
▁ameaçadas	-10.9375
▁orixá	-10.9378
▁etnia	-10.938
▁permitiram	-10.938
▁morais	-10.938
▁publica	-10.9381
izações	-10.9381
▁governante	-10.9382
▁interpretado	-10.9386
sistema	-10.9389
chefe	-10.9391
▁turno	-10.94
▁reconheceu	-10.94
▁representativa	-10.9406
grafia	-10.9408
▁investiga	-10.941
▁recebendo	-10.9412
▁assassinado	-10.9413
puseram	-10.9413
▁concentrado	-10.9414
▁deusa	-10.9416
▁44	-10.9418
▁circuitos	-10.942
▁registradas	-10.9426
lie	-10.9427
▁jogada	-10.943
▁repúblicas	-10.9433
▁estruturais	-10.9434
▁retrata	-10.9437
▁narra	-10.9443
▁2000.	-10.9446
▁irregular	-10.9449
▁conexões	-10.9449
▁exercido	-10.9449
▁holandês	-10.9449
▁medievais	-10.9449
▁normandia	-10.9449
▁prejudica	-10.9449
▁rodoviário	-10.9449
▁trânsito	-10.9449
▁eleitorais	-10.9449
▁tensões	-10.9449
▁sap	-10.9449
▁direcion	-10.9451
▁explorar	-10.9458
▁governamental	-10.946
▁vizinha	-10.9461
▁ecossistema	-10.9462
▁filipe	-10.9465
ceno	-10.9469
▁arquiteto	-10.9471
▁chegam	-10.9474
▁pão	-10.9477
▁aceitação	-10.9479
▁pólo	-10.9482
▁nacionalismo	-10.9482
tações	-10.9483
▁constituindo	-10.9487
▁emenda	-10.9487
▁160	-10.9488
ministra	-10.9492
▁turco	-10.9493
ere	-10.9496
mini	-10.9498
▁apoiada	-10.9506
hn	-10.9508
▁auxiliar	-10.951
lítico	-10.951
▁coi	-10.9512
▁hans	-10.9514
já	-10.9516
▁zo	-10.9519
▁pato	-10.9522
▁fechado	-10.9525
▁quadr	-10.9525
▁diversificada	-10.9531
▁iluminismo	-10.9531
▁implantação	-10.9531
▁patriarca	-10.9531
▁resíduos	-10.9531
▁rígido	-10.9531
▁suriname	-10.9531
▁sujeita	-10.9531
▁simplifica	-10.9531
▁soluções	-10.9531
▁atingido	-10.9531
▁insular	-10.9531
▁colocou	-10.9531
oli	-10.9531
▁ecológica	-10.9531
vy	-10.9532
▁nepal	-10.9532
▁platão	-10.9532
▁protocolos	-10.9533
▁migrantes	-10.9533
▁barragem	-10.9534
▁1895	-10.9536
▁penal	-10.9538
▁magnética	-10.9541
▁incluiu	-10.9542
▁bons	-10.9542
▁manifestação	-10.9543
▁narrativa	-10.9544
▁rein	-10.9546
▁decorrer	-10.9547
▁revis	-10.955
▁construídas	-10.955
▁argumentou	-10.9554
▁regista	-10.9563
▁ganharam	-10.9564
▁abrangente	-10.9568
ália	-10.9571
▁benefícios	-10.9571
cular	-10.9573
▁fraca	-10.9588
▁41	-10.9594
nês	-10.9594
▁nascidos	-10.9595
tórias	-10.9597
▁cópias	-10.9603
bula	-10.9603
▁virtual	-10.9605
▁efetiva	-10.9606
▁umidade	-10.9609
▁espada	-10.9612
▁gerada	-10.9612
▁décimo	-10.9613
▁instância	-10.9613
▁mantiveram	-10.9613
▁subdividido	-10.9613
▁maringá	-10.9613
▁ordinal	-10.9613
▁provém	-10.9613
▁canadense	-10.9614
▁efetua	-10.9614
▁nutrientes	-10.9614
▁somália	-10.9614
▁unificação	-10.9614
▁dirige	-10.9615
▁abriu	-10.9615
▁reeleito	-10.9615
▁1952	-10.9616
▁1934	-10.9617
▁1912	-10.9617
▁andes	-10.9618
▁procedimentos	-10.9621
▁mover	-10.9621
▁pratica	-10.9622
▁transportado	-10.9623
▁firma	-10.9625
▁transmiti	-10.9625
▁habitação	-10.9625
▁publicados	-10.9626
▁jk	-10.9626
sub	-10.9626
▁argentino	-10.963
▁página	-10.963
▁montanhosas	-10.963
▁domingo	-10.9631
▁estabelecidas	-10.9631
▁certamente	-10.9633
▁habilidade	-10.9634
tivamente	-10.9635
▁notas	-10.9636
▁executa	-10.964
▁bento	-10.9641
ares	-10.9644
▁minha	-10.965
▁muro	-10.9653
▁fosfato	-10.9656
_5	-10.9659
vert	-10.966
▁consolida	-10.9661
▁bordo	-10.9664
1.	-10.9665
âni	-10.9668
auto	-10.9672
gente	-10.9672
▁interpreta	-10.968
▁dirigido	-10.9697
▁padroniza	-10.9697
▁franca	-10.9697
▁colombo	-10.9697
▁henry	-10.9697
▁pleno	-10.9698
▁percurso	-10.9698
▁planeja	-10.9699
▁atração	-10.9699
▁1937	-10.97
▁1898	-10.9703
▁ocde	-10.9708
▁plantações	-10.971
imagem	-10.9714
▁proveniente	-10.9716
▁salários	-10.9716
ístico	-10.9716
▁clientes	-10.972
▁system	-10.9721
▁viii	-10.9729
rita	-10.9729
▁realizam	-10.973
▁dj	-10.9735
▁57	-10.9735
▁brancas	-10.9754
▁cerco	-10.9761
▁observador	-10.9762
▁armazena	-10.9762
▁despesas	-10.9764
tórios	-10.9765
tando	-10.9766
áticas	-10.9767
▁compositor	-10.9768
▁necessita	-10.9773
▁governada	-10.9774
▁coletiva	-10.9779
▁reconhecidos	-10.978
▁atendimento	-10.9781
▁cazaquistão	-10.9781
▁distingue	-10.9781
▁nicarágua	-10.9781
▁prestígio	-10.9781
▁ribeiro	-10.9781
▁pierre	-10.9781
▁saturno	-10.9781
▁polos	-10.9781
▁desastre	-10.9781
▁maomé	-10.9781
▁caminha	-10.9782
▁transferida	-10.9783
▁conversa	-10.9784
princip	-10.9784
▁jamais	-10.9784
▁brasão	-10.9784
▁supostamente	-10.9786
▁oscar	-10.9791
africano	-10.9793
▁naturalmente	-10.9798
▁marcos	-10.98
_4	-10.98
mata	-10.98
▁eletrônico	-10.9802
▁actividade	-10.9802
▁1500	-10.9805
ónico	-10.9807
▁tomaram	-10.9808
▁fundos	-10.981
▁cosm	-10.981
▁inser	-10.9812
▁trava	-10.9814
▁grãos	-10.9825
▁vítimas	-10.9826
▁sum	-10.9829
▁ocupar	-10.9833
▁olho	-10.984
int	-10.984
óis	-10.9841
▁comunica	-10.9853
ene	-10.9855
▁enviar	-10.9855
▁sou	-10.9858
bb	-10.9859
▁expandir	-10.986
pha	-10.9863
▁azerbaijão	-10.9866
▁compromisso	-10.9866
▁digitais	-10.9866
▁fornecido	-10.9866
▁juscelino	-10.9866
▁manhã	-10.9866
▁produções	-10.9866
▁mutações	-10.9867
▁balança	-10.9867
▁avião	-10.9867
▁aguiar	-10.9867
▁observatório	-10.9868
▁sagrada	-10.9868
▁fen	-10.9868
▁1951	-10.9868
▁1925	-10.9869
▁revoltas	-10.9871
▁sacro	-10.9871
▁ua	-10.9871
▁técnicos	-10.9872
▁nascer	-10.9874
dina	-10.9877
▁ambi	-10.9878
▁alenquer	-10.9878
▁sant	-10.9878
▁grama	-10.9879
lice	-10.988
▁subsequente	-10.9881
▁correspondem	-10.9882
▁invadiram	-10.9882
%).	-10.9882
▁patente	-10.9883
▁rui	-10.9884
▁circula	-10.9885
▁nasceram	-10.9887
imp	-10.9888
▁jurídica	-10.9889
▁algoritmo	-10.9889
▁visando	-10.9889
▁formações	-10.989
▁futura	-10.9892
▁indicado	-10.9893
▁aliada	-10.9894
▁usina	-10.9895
▁mendel	-10.9897
kami	-10.9898
▁tornaria	-10.99
▁lance	-10.9905
▁gerencia	-10.9909
tria	-10.991
▁apontam	-10.9914
▁kg	-10.9915
▁cru	-10.992
▁coli	-10.9926
▁levam	-10.9932
ming	-10.9935
▁exclusiva	-10.9943
▁plena	-10.9943
cioná	-10.9946
▁56	-10.9948
▁concílio	-10.9951
▁convertido	-10.9951
▁molibdênio	-10.9951
▁sistemática	-10.9951
▁cearense	-10.9951
▁previsto	-10.9951
▁vietnamita	-10.9951
▁legais	-10.9951
íssimo	-10.9951
▁convento	-10.9951
▁prático	-10.9952
▁aquilo	-10.9952
▁colonizadores	-10.9953
mbe	-10.9953
terapia	-10.9954
hua	-10.9957
▁renato	-10.9959
▁postos	-10.9962
▁relato	-10.9963
▁albergaria	-10.9963
▁mc	-10.9965
▁auge	-10.9967
▁manto	-10.9967
riamente	-10.9969
▁contando	-10.9969
ónica	-10.9972
▁poe	-10.9972
▁ix	-10.9974
▁departamentos	-10.9974
▁precisamente	-10.9975
▁arqui	-10.9975
▁sentimento	-10.9976
▁vertente	-10.9976
▁boi	-10.9977
federa	-10.9978
▁etapa	-10.9978
▁saiu	-10.9979
▁advogado	-10.9983
▁conselhos	-10.9985
▁estadunidenses	-10.9988
▁mandatos	-10.999
▁referem	-10.9993
▁aumentaram	-10.9994
▁concentrada	-10.9997
▁empregada	-11
▁wiki	-11.0002
▁kde	-11.0006
▁externos	-11.0007
ding	-11.0008
nada	-11.0008
▁consisti	-11.0012
▁conduz	-11.002
lli	-11.0025
neo	-11.0027
posi	-11.0029
▁aceitar	-11.0029
▁alterado	-11.0032
institu	-11.0035
▁dominica	-11.0036
▁maré	-11.0037
▁artificiais	-11.0037
▁peculiar	-11.0037
▁absorção	-11.0037
▁característico	-11.0037
▁microsoft	-11.0037
▁procurou	-11.0037
▁recruta	-11.0037
▁dissolução	-11.0037
▁caverna	-11.0037
▁esportivo	-11.0037
▁deficiência	-11.0037
▁chumbo	-11.0038
▁restaurantes	-11.0038
ópolis	-11.0039
▁cinza	-11.0039
▁1911	-11.0041
piro	-11.0041
▁1926	-11.0041
▁dissemina	-11.0042
▁transformações	-11.0042
▁diálogo	-11.0047
▁bibliotecas	-11.0049
taca	-11.005
▁crescendo	-11.0052
▁povoada	-11.0053
▁anel	-11.0057
▁crônica	-11.0058
▁regulação	-11.0058
▁dialetos	-11.0061
▁falsa	-11.0062
free	-11.0064
▁ferramenta	-11.0065
kan	-11.0065
▁biológico	-11.0066
santo	-11.0066
▁chefes	-11.0068
▁liderados	-11.0068
▁múltiplos	-11.0074
▁sor	-11.0075
▁distinguir	-11.0077
▁étnicas	-11.008
▁faculdades	-11.0086
▁aprecia	-11.0088
▁sector	-11.0089
▁distribui	-11.0091
▁organizados	-11.0092
erva	-11.0094
▁ligas	-11.0097
▁63	-11.0098
▁lit	-11.0101
▁comandos	-11.0102
monte	-11.0103
baixo	-11.0105
▁baiano	-11.0111
▁muscular	-11.0112
▁sri	-11.0116
gol	-11.0117
▁votar	-11.012
▁atmosférica	-11.0124
▁impresso	-11.0124
▁lituânia	-11.0124
▁metrô	-11.0124
▁nomenclatura	-11.0124
▁ucraniano	-11.0124
▁êxito	-11.0124
▁presidi	-11.0124
▁geometria	-11.0125
▁galiza	-11.0126
▁1921	-11.0127
▁exílio	-11.0127
-3	-11.0127
▁produzidas	-11.0128
▁sc	-11.0129
▁sério	-11.0131
▁1855	-11.0133
fri	-11.0137
▁compositores	-11.0138
▁assegura	-11.0138
▁determinação	-11.0139
tana	-11.0143
▁dela	-11.0143
hoje	-11.0145
grado	-11.0145
▁contou	-11.015
▁zi	-11.0153
ncar	-11.0155
medi	-11.0156
▁vizinho	-11.0156
▁planaltos	-11.0158
▁cruzada	-11.0159
▁variados	-11.016
▁integrante	-11.0162
▁constantes	-11.0167
pura	-11.017
▁traz	-11.0171
▁boas	-11.0174
▁cargos	-11.0176
zu	-11.0177
▁paulistas	-11.0181
▁biológicas	-11.0181
▁kar	-11.0182
▁convidado	-11.0183
▁mostrando	-11.0185
tsu	-11.0198
gor	-11.0198
▁dominar	-11.0201
▁aéreas	-11.0209
dados	-11.0211
▁ateus	-11.0211
▁mongólia	-11.0212
▁permitido	-11.0212
▁ritual	-11.0212
▁visigodos	-11.0212
▁vênus	-11.0212
guer	-11.0212
▁admir	-11.0213
▁int	-11.0216
▁caçadores	-11.0218
▁órbitas	-11.022
▁abandonar	-11.022
▁ouvido	-11.0222
▁habitado	-11.0222
▁coletivo	-11.0223
0,6	-11.0223
▁consumidor	-11.0226
▁viola	-11.0226
▁estanho	-11.023
ub	-11.0231
▁53	-11.0234
biologia	-11.0235
▁condena	-11.0235
▁frios	-11.0239
▁concurso	-11.024
▁ducado	-11.0244
▁telefone	-11.0245
▁jun	-11.0247
▁barcos	-11.0247
▁graduação	-11.0257
nomia	-11.026
▁explora	-11.026
▁típicos	-11.0261
▁2014.	-11.0264
▁sair	-11.0275
▁variando	-11.0282
▁primo	-11.0288
aka	-11.0291
▁imperadores	-11.0294
▁eleita	-11.0295
homo	-11.0296
▁aplicativos	-11.0297
▁variadas	-11.0299
▁estiver	-11.0299
▁basquete	-11.03
▁aniversário	-11.03
▁autónoma	-11.03
▁báltico	-11.03
▁candidatura	-11.03
▁cientologia	-11.03
▁conjunta	-11.03
▁continuidade	-11.03
▁desmatamento	-11.03
▁keynes	-11.03
▁pretendia	-11.03
▁ruínas	-11.03
▁reprimi	-11.0301
▁disposição	-11.0302
▁tortura	-11.0303
▁ré	-11.0303
ice	-11.0303
▁hotel	-11.0304
▁humor	-11.0305
▁prémio	-11.0314
▁infra	-11.0315
ibilidade	-11.0318
grupo	-11.0319
▁1970.	-11.0323
gueira	-11.0326
▁cate	-11.0331
itar	-11.0333
▁átomo	-11.0335
▁residente	-11.0338
dp	-11.0338
sumi	-11.0338
▁1960.	-11.0343
▁datam	-11.0345
▁cheia	-11.0346
pur	-11.0359
▁ste	-11.0362
▁únicas	-11.0368
▁aproveita	-11.0371
pc	-11.0376
▁análises	-11.0378
iner	-11.0386
roso	-11.0389
▁carapito	-11.039
▁conselheiro	-11.039
▁correspondência	-11.039
▁demonstrou	-11.039
▁fósforo	-11.039
▁manufatura	-11.039
▁sentença	-11.039
▁aquático	-11.039
▁hetero	-11.039
▁apelido	-11.039
▁gasoso	-11.039
▁insetos	-11.039
▁fermat	-11.039
▁modificações	-11.0392
▁editor	-11.0392
ianas	-11.0394
▁caixa	-11.0394
▁códigos	-11.0395
rey	-11.0397
▁substituiu	-11.0397
▁concentrações	-11.0399
▁colaboração	-11.0401
tag	-11.0403
▁pesada	-11.0405
hr	-11.0406
▁semiótica	-11.0406
▁fuso	-11.0406
▁chá	-11.0407
▁carro	-11.041
▁condiciona	-11.0418
▁entrevista	-11.0421
▁asiática	-11.0423
▁(11	-11.0424
▁dedicada	-11.0425
▁atitude	-11.0427
▁aminoácidos	-11.0427
▁amostra	-11.0428
▁vivendo	-11.0432
▁responde	-11.0436
oxi	-11.0442
▁frequente	-11.0447
▁continuamente	-11.0447
▁sertão	-11.0449
▁sus	-11.045
▁integrantes	-11.0453
▁mes	-11.0456
▁persegui	-11.0458
▁assimil	-11.046
uk	-11.0461
▁demonstrar	-11.0466
▁cat	-11.0468
mig	-11.0471
▁firme	-11.0471
▁cresce	-11.0472
▁2005.	-11.0475
▁clínica	-11.048
▁dawkins	-11.048
▁disponibiliza	-11.048
▁evoluiu	-11.048
▁fertilidade	-11.048
▁linguístico	-11.048
▁ocupou	-11.048
▁presidenciais	-11.048
▁gramática	-11.048
▁plural	-11.048
▁esportiva	-11.048
▁neutro	-11.048
bissau	-11.048
▁esgoto	-11.048
▁sexto	-11.048
▁mouros	-11.0481
▁ruanda	-11.0481
▁1928	-11.0483
▁diagrama	-11.0486
▁protetorado	-11.0486
ring	-11.0486
▁configuração	-11.0486
▁filo	-11.049
win	-11.0494
igreja	-11.0498
▁bl	-11.0498
▁sintetiza	-11.0499
▁peri	-11.0508
iga	-11.0509
▁chade	-11.051
▁impulsiona	-11.0519
▁cerimônia	-11.0519
igno	-11.052
chen	-11.0522
▁tim	-11.0524
▁proximidades	-11.0528
fundações	-11.0528
▁alterna	-11.0529
▁sobrevive	-11.053
patri	-11.0531
▁portas	-11.0532
▁vis	-11.0532
▁típico	-11.0535
▁impor	-11.0547
nacional	-11.055
▁assegurar	-11.0557
▁continentes	-11.0563
▁propaga	-11.0563
▁parcial	-11.0565
▁prega	-11.0566
grad	-11.0569
▁águeda	-11.0571
▁aglomerado	-11.0571
▁dirigida	-11.0571
▁imediato	-11.0571
▁reuniões	-11.0571
▁tcp	-11.0571
▁automóveis	-11.0571
▁imensa	-11.0571
▁mis	-11.0573
▁melhoria	-11.0573
▁poeira	-11.0579
▁1880	-11.0579
▁australiano	-11.0581
▁prolonga	-11.0583
▁wei	-11.0584
▁entregue	-11.0585
papa	-11.0585
▁gana	-11.0587
▁ferrovias	-11.0587
▁momentos	-11.0591
ward	-11.0592
▁gre	-11.0593
▁económicas	-11.0594
cruz	-11.0594
▁migra	-11.0594
▁partiu	-11.0594
campo	-11.0595
▁conquistada	-11.0597
rosa	-11.0599
8%)	-11.0599
tú	-11.0601
norte	-11.0604
▁defendem	-11.0605
lito	-11.0606
▁ly	-11.0607
▁turísticos	-11.0611
▁intel	-11.0612
▁segmento	-11.0613
▁costume	-11.0613
ical	-11.0616
▁corridas	-11.0617
▁popularmente	-11.0618
porto	-11.0621
▁autoria	-11.0623
nie	-11.0626
▁proeminentes	-11.0628
ecida	-11.0629
▁visitar	-11.063
▁oral	-11.063
▁camp	-11.0636
unidade	-11.064
▁movimenta	-11.0642
▁marcas	-11.0645
▁atender	-11.0646
▁ateísmo	-11.0652
▁respostas	-11.0652
▁gradual	-11.0654
▁converte	-11.0662
▁considerou	-11.0662
▁feijão	-11.0662
▁borracha	-11.0662
▁disponibilidade	-11.0662
▁finanças	-11.0662
▁vantagens	-11.0662
▁axioma	-11.0663
▁substrato	-11.0663
▁unificado	-11.0663
▁biosfera	-11.0663
▁trajetória	-11.0664
▁mantinha	-11.0664
▁desconhecida	-11.0665
▁cook	-11.0668
▁pecado	-11.0669
▁agrupamento	-11.0671
prima	-11.0671
▁1870	-11.0672
▁acelera	-11.0677
▁preparação	-11.0678
▁aproximação	-11.0679
▁peter	-11.0685
formula	-11.0686
illa	-11.0689
▁nilo	-11.069
▁episódio	-11.0707
▁teórico	-11.0709
▁oxida	-11.0709
▁anuncia	-11.0715
▁provar	-11.0715
▁longas	-11.0719
▁elétron	-11.072
▁danças	-11.0722
▁poetas	-11.0723
▁financeiras	-11.0727
▁mede	-11.0732
▁film	-11.0736
▁passava	-11.0739
▁mitos	-11.0742
▁acreditavam	-11.0747
▁classificadas	-11.075
▁gel	-11.0753
▁adquiriu	-11.0755
▁advento	-11.0755
▁apostólica	-11.0755
▁contribuem	-11.0755
▁guerrilha	-11.0755
▁longitude	-11.0755
▁nitrogênio	-11.0755
▁originário	-11.0755
▁setentrional	-11.0755
▁espalhou	-11.0755
▁estivesse	-11.0755
▁cacau	-11.0755
▁bela	-11.0755
bin	-11.0755
▁postura	-11.0756
▁cerrado	-11.0756
▁meditação	-11.0756
▁diamante	-11.0756
▁brilho	-11.0756
▁estabiliza	-11.0757
▁criminalidade	-11.0757
▁fernandes	-11.0758
▁detém	-11.0759
▁investigações	-11.076
▁admiti	-11.0762
▁estatais	-11.0762
▁tang	-11.0763
▁mística	-11.0763
▁levada	-11.0763
▁lento	-11.0766
▁móveis	-11.0766
▁movimentado	-11.0766
▁antonio	-11.0768
▁ratifica	-11.078
ventura	-11.0783
mida	-11.0785
▁park	-11.0787
ntin	-11.079
fonte	-11.0791
mis	-11.0793
▁múltiplas	-11.0794
▁hip	-11.0795
fec	-11.0797
▁2004.	-11.0799
tinha	-11.0799
▁muçulmano	-11.0803
▁étnico	-11.0803
▁3%	-11.0805
▁simula	-11.0806
▁ergue	-11.0815
▁consegue	-11.0818
▁músicas	-11.0819
▁leiria	-11.082
cker	-11.0821
▁mou	-11.0821
▁juiz	-11.0822
▁sais	-11.0823
dó	-11.0825
▁obtidos	-11.0826
▁feriados	-11.0832
▁esco	-11.0833
▁arn	-11.0837
▁900	-11.0838
mac	-11.0839
▁alquimia	-11.0849
▁crédito	-11.0849
▁espírita	-11.0849
▁florianópolis	-11.0849
▁móvel	-11.0849
▁auxílio	-11.0849
▁inovação	-11.0849
▁prossegui	-11.0849
▁supervisiona	-11.0849
▁parcela	-11.0849
▁abordagens	-11.0849
▁continha	-11.0852
▁gnome	-11.0852
▁favorável	-11.0852
gráfica	-11.0857
▁alternativas	-11.0857
planta	-11.086
▁58	-11.0868
▁gaia	-11.0876
▁fundamentos	-11.0888
tter	-11.0897
▁pira	-11.0898
▁acadêmico	-11.0899
▁modalidade	-11.0899
▁contam	-11.0903
ugh	-11.0906
▁marítimas	-11.091
▁ocupando	-11.0911
▁privilégios	-11.0913
▁4.	-11.0916
▁adicionado	-11.0919
▁caminhos	-11.0922
▁zu	-11.0927
▁perdas	-11.0928
▁envio	-11.0931
▁resta	-11.0932
mont	-11.0939
▁quadros	-11.0939
▁vel	-11.0941
cipriota	-11.0943
▁capítulo	-11.0943
▁cativeiro	-11.0943
▁constantinopla	-11.0943
▁estúdio	-11.0943
▁líquida	-11.0943
▁montanhoso	-11.0943
▁mérito	-11.0943
▁relevância	-11.0943
▁selvagem	-11.0943
▁ártico	-11.0943
▁camarões	-11.0943
▁edward	-11.0943
▁urânio	-11.0943
▁comporta	-11.0944
▁financiamento	-11.0944
▁1931	-11.0946
▁confere	-11.0946
▁geologia	-11.0947
▁propõe	-11.0947
▁transferido	-11.0948
▁trabalhou	-11.0956
▁começam	-11.0957
▁conferi	-11.096
ônicas	-11.0962
▁promoveu	-11.0964
▁largamente	-11.0965
▁desenvolvendo	-11.0967
▁secos	-11.0968
▁comunismo	-11.0969
▁transformado	-11.0973
sil	-11.0973
▁carregado	-11.0975
▁dé	-11.0977
▁compete	-11.0978
▁cair	-11.0981
▁avança	-11.0983
▁provocar	-11.0984
▁funcionar	-11.0985
▁dobro	-11.0991
entado	-11.0991
▁treina	-11.0995
▁notícia	-11.0996
▁levante	-11.0997
▁85	-11.0999
dh	-11.1006
▁possuí	-11.1011
▁servida	-11.1015
escritores	-11.1019
▁buscar	-11.1028
0%)	-11.1028
▁manipula	-11.1029
▁bombarde	-11.1032
▁informal	-11.1033
▁cau	-11.1033
▁mapa	-11.1033
▁arcebispo	-11.1038
▁capivara	-11.1038
▁discussões	-11.1038
▁férteis	-11.1038
▁hollywood	-11.1038
▁incerteza	-11.1038
▁ipatinga	-11.1038
▁nietzsche	-11.1038
▁papéis	-11.1038
▁profissão	-11.1038
▁protestantismo	-11.1038
▁quarenta	-11.1038
▁raciocínio	-11.1038
▁transcrição	-11.1038
▁oferecido	-11.1038
▁tabaco	-11.1038
▁prótons	-11.1038
▁parecia	-11.1038
▁agrária	-11.1038
▁aprendizagem	-11.1038
▁cloreto	-11.1038
▁emissora	-11.1038
▁évora	-11.1039
flor	-11.1041
▁voltado	-11.1042
▁pou	-11.1051
▁lojas	-11.1053
▁lógico	-11.1054
▁gouveia	-11.1054
▁visitado	-11.1057
▁gosto	-11.1059
post	-11.106
▁melo	-11.1062
▁solares	-11.1069
▁luis	-11.1069
▁processa	-11.1071
rth	-11.1072
.&	-11.1072
▁exércitos	-11.1073
▁beta	-11.1074
▁ameaças	-11.1075
guia	-11.1078
▁deixado	-11.1078
veja	-11.1079
▁citadas	-11.1086
▁notação	-11.109
neu	-11.109
▁indicar	-11.109
▁especializadas	-11.1092
▁legislativas	-11.1093
▁doméstico	-11.1094
▁turística	-11.1095
▁conce	-11.11
▁etapas	-11.1106
ibi	-11.1107
▁yu	-11.1112
▁nomeação	-11.1113
▁1980.	-11.1118
americanas	-11.1119
▁inimigos	-11.112
jar	-11.112
▁cumpri	-11.1121
▁johann	-11.1121
▁evita	-11.1124
▁oportunidades	-11.1131
▁bangladesh	-11.1134
▁bilhão	-11.1134
▁cambridge	-11.1134
▁carácter	-11.1134
▁espermatozoide	-11.1134
▁fluminense	-11.1134
▁olímpica	-11.1134
▁renúncia	-11.1134
▁visitou	-11.1134
▁wilhelm	-11.1134
▁rebanho	-11.1134
▁pôde	-11.1134
▁terciário	-11.1134
▁bovino	-11.1134
▁savana	-11.1135
▁sinônimo	-11.1135
▁vertical	-11.1135
▁ocasiona	-11.1137
▁pensadores	-11.1137
▁preparado	-11.1138
▁1864	-11.114
▁natalidade	-11.114
yan	-11.114
▁instrução	-11.114
▁encontraram	-11.1141
cora	-11.1141
▁abundantes	-11.1143
eti	-11.1145
▁afluentes	-11.1147
▁informática	-11.1148
▁emergente	-11.1154
▁altera	-11.1154
▁radia	-11.1155
minu	-11.1155
ef	-11.1156
▁navegadores	-11.1158
pes	-11.1159
▁tentando	-11.1159
▁consideração	-11.116
spect	-11.1162
▁oleiros	-11.1163
▁atrair	-11.1163
nea	-11.1168
▁abrir	-11.117
▁cali	-11.117
genera	-11.1172
▁pacotes	-11.1175
▁gil	-11.118
▁mostraram	-11.1181
▁libertado	-11.1184
hel	-11.1195
▁15%	-11.1197
▁meso	-11.1199
elli	-11.1202
▁revolucionários	-11.1202
▁tribo	-11.1205
▁petro	-11.1209
▁mini	-11.1211
▁preservar	-11.1212
▁costas	-11.1212
▁volumes	-11.1212
ónio	-11.1213
tele	-11.1215
▁longos	-11.1216
▁cedo	-11.1231
▁amizade	-11.1231
▁estímulo	-11.1231
▁oceânica	-11.1231
▁rondônia	-11.1231
▁recessão	-11.1231
▁ocorrida	-11.1231
▁university	-11.1231
▁alagoas	-11.1231
▁maxwell	-11.1232
▁mandou	-11.1232
▁1906	-11.1233
▁1942	-11.1233
▁prevê	-11.1234
▁anima	-11.1236
▁ultramarino	-11.1237
▁exposto	-11.1238
arma	-11.1239
▁profundas	-11.124
cci	-11.1241
▁1860	-11.1242
▁enciclopédia	-11.1243
▁glândulas	-11.1244
▁esperado	-11.1245
rat	-11.1245
▁meca	-11.1247
dourado	-11.125
nf	-11.1252
▁drama	-11.1257
▁abrigo	-11.1258
▁iniciaram	-11.1264
▁seul	-11.1268
▁comores	-11.1268
ich	-11.127
▁falhas	-11.1281
▁retoma	-11.1289
▁monumento	-11.1293
▁difere	-11.1295
▁trabalham	-11.1295
▁descendente	-11.1295
cole	-11.1298
▁turca	-11.1305
▁verdes	-11.1309
▁2.	-11.1309
▁publicar	-11.1309
▁páginas	-11.131
▁1000	-11.131
▁homicídios	-11.1314
▁orixás	-11.1317
off	-11.1317
▁escrituras	-11.1319
órico	-11.1324
queiros	-11.1325
▁escolhe	-11.1326
▁filosóficas	-11.1326
ction	-11.1328
▁difíceis	-11.1329
▁dividiu	-11.1329
▁emigração	-11.1329
▁explosão	-11.1329
▁folclórica	-11.1329
▁honduras	-11.1329
▁retórica	-11.1329
▁têxteis	-11.1329
▁oponente	-11.1329
▁iraniano	-11.1329
▁decadência	-11.1329
▁protegido	-11.133
▁cinética	-11.133
▁exata	-11.1331
▁executada	-11.1332
▁dalí	-11.1333
▁1915	-11.1334
▁atacar	-11.1335
▁estejam	-11.1335
▁plana	-11.1335
▁estiveram	-11.1335
▁roupas	-11.1336
▁fundamenta	-11.1343
string	-11.1344
▁respondeu	-11.1346
▁tiver	-11.1346
▁trabalhando	-11.1349
versão	-11.135
▁marcha	-11.1351
▁deverá	-11.1353
▁2,5	-11.1353
cht	-11.1355
economia	-11.1355
▁enviados	-11.1355
▁rebel	-11.1358
ii	-11.1358
▁conservador	-11.1365
▁retornar	-11.1369
gência	-11.137
▁composições	-11.1373
▁substancial	-11.1373
▁testemunhas	-11.1373
▁adam	-11.1374
▁lidar	-11.138
▁ninho	-11.1388
▁monges	-11.1389
▁abertas	-11.1392
▁vaca	-11.1392
▁aparelho	-11.1394
▁isótopo	-11.1394
▁austral	-11.1394
▁ind	-11.1402
▁começar	-11.1405
▁alcança	-11.1405
▁club	-11.1406
ciclo	-11.1406
▁protegidas	-11.1411
▁obs	-11.1413
▁violenta	-11.142
▁definitiva	-11.1422
▁posiciona	-11.1425
▁agropecuária	-11.1428
▁burguesia	-11.1428
▁cinematográfica	-11.1428
▁enfrentou	-11.1428
▁institucional	-11.1428
▁monetário	-11.1428
▁organizou	-11.1428
▁primordial	-11.1428
▁terremoto	-11.1428
▁tunísia	-11.1428
▁tênis	-11.1428
▁washington	-11.1428
▁conceição	-11.1428
▁permitia	-11.1428
▁arthur	-11.1428
▁sergipe	-11.1428
▁moderado	-11.1429
▁ernest	-11.1429
▁angeles	-11.1429
▁acidentes	-11.143
▁precedentes	-11.143
▁lopes	-11.143
▁garante	-11.143
thumb	-11.1431
▁1905	-11.1431
▁corporal	-11.1432
pará	-11.1435
▁adição	-11.1436
▁agrava	-11.1438
▁sto	-11.1438
▁fundaram	-11.144
▁mista	-11.1441
▁1830	-11.1441
▁explicações	-11.1442
▁alemãs	-11.1445
▁sujeitos	-11.1449
▁chegado	-11.1454
▁naturalista	-11.1454
▁facilitar	-11.1454
▁consistia	-11.1457
▁reage	-11.1458
▁laos	-11.1459
▁fita	-11.146
▁rece	-11.146
▁variar	-11.1464
▁devast	-11.1465
▁hist	-11.1471
▁divulgado	-11.1482
▁servido	-11.1486
torial	-11.1486
lag	-11.1487
▁deputado	-11.1496
▁declarada	-11.1499
▁psico	-11.1499
▁cuidado	-11.1504
▁agrupa	-11.1506
lac	-11.1509
▁incorporado	-11.151
alter	-11.1511
ácio	-11.1522
▁observados	-11.1527
▁cinquenta	-11.1528
▁entropia	-11.1528
▁evoluíram	-11.1528
▁promovido	-11.1528
▁selvagens	-11.1528
▁expulsa	-11.1528
▁muralha	-11.1528
▁saneamento	-11.1528
▁úmida	-11.1528
▁atingindo	-11.1528
▁sonora	-11.1528
▁endêmica	-11.1529
▁fileira	-11.1529
▁veneza	-11.1529
▁sólida	-11.1529
▁interliga	-11.153
▁citado	-11.1532
▁filhotes	-11.1537
▁78	-11.1538
–18	-11.1538
ísticos	-11.154
▁sig	-11.1541
▁faça	-11.1544
▁esculturas	-11.1546
▁coronel	-11.1548
ken	-11.1551
▁debates	-11.1554
▁colocando	-11.1558
▁neves	-11.156
maior	-11.1561
▁rat	-11.1567
▁176	-11.1567
▁ocorrendo	-11.1582
oide	-11.1583
▁experimento	-11.1583
▁cabelo	-11.1585
▁predomina	-11.1586
povo	-11.1587
enberg	-11.1595
▁francos	-11.1596
▁dominantes	-11.1599
▁climática	-11.1599
▁wil	-11.1604
▁ricas	-11.1611
▁kim	-11.1616
▁7%	-11.1617
▁enfrentar	-11.1619
hard	-11.1619
▁may	-11.162
▁lutar	-11.1625
▁luiz	-11.1626
▁censura	-11.1629
▁espirituais	-11.1629
▁ingresso	-11.1629
▁intitulado	-11.1629
▁tópico	-11.1629
▁óssea	-11.1629
▁dificulta	-11.1629
▁antecede	-11.1629
▁coelho	-11.1629
▁profeta	-11.163
▁servindo	-11.163
▁residi	-11.1632
▁vigente	-11.1632
▁permissão	-11.1632
▁1935	-11.1633
▁orto	-11.1634
▁tomás	-11.1636
▁neto	-11.1636
▁1889	-11.1637
▁decidiram	-11.1638
▁acordos	-11.1639
▁villa	-11.164
▁defensores	-11.164
ópio	-11.164
▁casta	-11.1641
▁hugo	-11.1641
▁contagem	-11.1645
▁2015.	-11.1653
democrata	-11.1658
▁remanescentes	-11.166
status	-11.1662
micro	-11.1664
-16	-11.1666
há	-11.1667
▁adapta	-11.1673
▁ramifica	-11.1674
▁350	-11.1675
án	-11.1675
▁adotar	-11.168
▁ortodoxos	-11.1682
▁...	-11.1682
▁signos	-11.1683
▁imediata	-11.1694
dir	-11.1697
▁atuam	-11.17
▁critério	-11.1703
▁envolvido	-11.1703
▁algoritmos	-11.1704
▁cl	-11.1705
▁consequente	-11.1706
osfera	-11.1708
▁dialeto	-11.1708
▁otomanos	-11.1712
▁ocupam	-11.1713
gun	-11.1715
▁viva	-11.1718
▁pontua	-11.1725
▁alumínio	-11.1731
▁dinamarquês	-11.1731
▁engenho	-11.1731
▁estratégico	-11.1731
▁impressão	-11.1731
▁níquel	-11.1731
▁vesícula	-11.1731
▁simboliza	-11.1731
▁judaico	-11.1732
▁suevo	-11.1732
▁pedaço	-11.1732
▁cereais	-11.1732
▁atentado	-11.1733
▁celeste	-11.1734
▁move	-11.1734
▁1923	-11.1735
▁comarca	-11.1737
▁protege	-11.1738
▁invasores	-11.1738
▁lançar	-11.1738
▁retrato	-11.1738
zel	-11.1739
▁et	-11.1739
▁fiji	-11.1739
▁reivindicações	-11.174
▁planejada	-11.174
▁raro	-11.1741
ástica	-11.1741
▁propagação	-11.1742
▁elétricos	-11.1742
▁assinaram	-11.1744
▁1850	-11.1744
leão	-11.1745
▁orbital	-11.1745
▁danifica	-11.1746
▁lidera	-11.1746
▁experimentou	-11.1747
▁divindades	-11.1747
▁99	-11.1749
▁empregados	-11.175
▁discos	-11.1751
▁hall	-11.1752
▁modos	-11.1759
▁roll	-11.1761
▁nucle	-11.1766
cristã	-11.1771
▁complementar	-11.1771
▁irão	-11.1772
▁possibilidades	-11.1773
rad	-11.1773
ule	-11.1776
▁latitudes	-11.1777
▁abd	-11.178
▁paleo	-11.1781
american	-11.1781
tempo	-11.1783
▁poço	-11.1789
▁nascimentos	-11.1794
▁disputada	-11.1799
▁biológicos	-11.1802
▁funda	-11.1811
▁significante	-11.1813
▁goa	-11.1816
▁77	-11.1816
teísmo	-11.1819
▁traduz	-11.1824
quino	-11.1828
▁expulsos	-11.183
▁embarcações	-11.1835
▁maquiavel	-11.1835
▁mórmon	-11.1835
▁nórdico	-11.1835
▁reputação	-11.1835
▁tchekhov	-11.1835
▁testemunho	-11.1835
▁ultravioleta	-11.1835
▁reclama	-11.1835
▁sérvia	-11.1835
▁consigo	-11.1835
▁basquetebol	-11.1835
▁hidrografia	-11.1835
gy	-11.1837
▁hdd	-11.1838
▁cálculos	-11.1839
▁machado	-11.184
▁alterada	-11.1842
abilidade	-11.1844
▁granada	-11.1844
▁subiu	-11.1844
▁mercantilismo	-11.1845
▁membranas	-11.1845
▁bis	-11.1848
▁gla	-11.185
▁actualmente	-11.185
▁morre	-11.1851
▁astrônomos	-11.1851
▁belga	-11.1851
▁dicionário	-11.1857
▁bin	-11.1862
▁descritas	-11.1863
fon	-11.1864
▁paraíso	-11.1865
século	-11.1866
une	-11.1873
▁declarar	-11.1877
▁lateral	-11.1879
▁estudado	-11.1879
▁diminui	-11.188
▁apelo	-11.1885
▁quadra	-11.1887
▁national	-11.1888
ford	-11.189
ínio	-11.1891
▁win	-11.1892
▁coral	-11.1893
▁secundárias	-11.1895
▁combinada	-11.19
▁responder	-11.1902
▁cruzeiro	-11.1905
▁67	-11.1906
▁malha	-11.1906
ith	-11.1911
▁centralizado	-11.1912
▁credo	-11.1914
▁argentinos	-11.1918
▁consistem	-11.1918
control	-11.1919
nik	-11.1921
▁fla	-11.1922
▁anexada	-11.1924
▁130	-11.193
▁semelhanças	-11.193
▁islâmicos	-11.1932
▁isolado	-11.1933
▁amplitude	-11.1939
▁desencadea	-11.1939
▁gratuito	-11.1939
▁opiniões	-11.1939
▁pacífica	-11.1939
▁túmulo	-11.1939
▁coligação	-11.1939
▁mesquita	-11.1939
▁camisa	-11.1939
▁sueca	-11.1939
▁polónia	-11.1939
▁nicolau	-11.1939
▁compensa	-11.1939
▁exibe	-11.1939
▁castanha	-11.194
▁atrações	-11.194
▁prioridade	-11.194
▁desafios	-11.194
▁representou	-11.194
▁escolhida	-11.1941
▁obrigado	-11.1942
range	-11.1942
▁descritos	-11.1942
dan	-11.1945
▁lazer	-11.1946
▁beat	-11.1948
▁resistente	-11.195
▁daniel	-11.195
▁ofensiva	-11.1951
▁jornalismo	-11.1953
▁observada	-11.1958
▁romances	-11.1958
▁choque	-11.1959
▁envolvidas	-11.197
▁incorporada	-11.197
sua	-11.1972
▁apoiou	-11.1973
bet	-11.1975
▁japonesas	-11.1977
▁(12	-11.1994
cad	-11.1997
▁saud	-11.1997
▁http	-11.2002
▁vela	-11.2003
▁pesados	-11.2003
▁nestas	-11.2005
▁arranjo	-11.2005
▁melhorias	-11.2005
▁ativamente	-11.2008
▁desportos	-11.2015
▁exige	-11.2019
▁pintor	-11.2022
▁pioneiro	-11.2022
▁montanhosa	-11.2022
▁domingos	-11.2023
▁palestinos	-11.203
▁contrasta	-11.2032
dela	-11.2033
▁isolada	-11.2034
wood	-11.2037
▁implementado	-11.2038
▁feudal	-11.204
▁audiência	-11.2044
▁coloniais	-11.2044
▁globais	-11.2044
▁lourenço	-11.2044
▁metropolitano	-11.2044
▁mexicana	-11.2044
▁policiais	-11.2044
▁prestigi	-11.2044
▁rejeitou	-11.2044
▁cemitério	-11.2044
▁companheiro	-11.2044
▁controversa	-11.2044
▁diagnóstico	-11.2044
▁inventor	-11.2044
▁tóxico	-11.2044
▁mondego	-11.2044
▁riemann	-11.2044
▁proibida	-11.2044
▁rivais	-11.2044
▁andersen	-11.2044
▁convencional	-11.2044
▁neolítico	-11.2045
small	-11.2045
▁geológica	-11.2045
▁inspira	-11.2046
▁versos	-11.2046
▁greve	-11.2047
▁manifesto	-11.2047
▁aviação	-11.2047
▁operário	-11.2048
▁citar	-11.2049
▁fle	-11.2049
▁prisioneiros	-11.2051
▁pinto	-11.2051
▁descobriram	-11.2051
▁sindicatos	-11.2053
▁ligam	-11.2055
tuou	-11.2055
▁liberação	-11.2062
▁importação	-11.2065
químico	-11.2068
▁viol	-11.2068
nuts	-11.2072
▁cole	-11.2073
lógica	-11.2075
▁economistas	-11.2076
▁alimentares	-11.2077
tira	-11.2084
bh	-11.2086
red	-11.2088
▁ocuparam	-11.2091
▁manu	-11.2095
▁mapas	-11.2097
▁boro	-11.21
▁assina	-11.21
▁vendas	-11.2101
paga	-11.2102
▁pic	-11.2102
▁circunstâncias	-11.2111
▁seção	-11.2115
▁dividem	-11.2117
organismos	-11.2121
▁parâmetros	-11.2121
▁demonstrado	-11.2123
▁vistas	-11.2124
▁desaparece	-11.2126
▁equivale	-11.2129
▁lucros	-11.213
▁alterar	-11.2132
▁milão	-11.2133
▁tomado	-11.2135
vikings	-11.2136
▁inteiros	-11.2137
▁acabar	-11.2139
▁salário	-11.214
▁graça	-11.2141
▁verificar	-11.2143
lev	-11.2149
▁arquitetônico	-11.215
▁críquete	-11.215
▁culminou	-11.215
▁descendência	-11.215
▁elaboração	-11.215
▁fornecimento	-11.215
▁myanmar	-11.215
▁oceania	-11.215
▁planetário	-11.215
▁setúbal	-11.215
▁tanzânia	-11.215
▁voleibol	-11.215
▁isaac	-11.215
▁diego	-11.215
▁berbere	-11.215
▁diogo	-11.2151
▁amarela	-11.2151
▁felino	-11.2151
▁infinita	-11.2151
▁vacina	-11.2152
▁baleia	-11.2152
azul	-11.2152
▁exposições	-11.2152
▁gerenciamento	-11.2153
▁visões	-11.2154
▁sequências	-11.2157
▁sorte	-11.2158
guarda	-11.2159
quilo	-11.2162
band	-11.2165
▁jacques	-11.217
eb	-11.2171
ort	-11.2176
▁unida	-11.218
polit	-11.2181
▁sultão	-11.2184
▁desvio	-11.2184
ativista	-11.2191
▁gasto	-11.2192
▁reconhecidas	-11.2193
ppen	-11.2197
▁pega	-11.2197
▁significando	-11.2198
▁sabia	-11.2198
rock	-11.2199
▁inca	-11.22
▁marcante	-11.2203
▁bula	-11.2205
trato	-11.222
▁mestres	-11.2225
▁coopera	-11.223
-4	-11.2237
▁astrônomo	-11.2241
▁fábrica	-11.2241
kov	-11.2242
▁nic	-11.2242
▁projeta	-11.225
▁impactos	-11.2252
▁cádmio	-11.2258
▁regressa	-11.2258
▁aritmética	-11.2258
▁autônomo	-11.2258
▁caraíbas	-11.2258
▁certeza	-11.2258
▁encoraja	-11.2258
▁prevalece	-11.2258
▁relógio	-11.2258
▁sucessivas	-11.2258
▁woolf	-11.2258
▁fértil	-11.2258
▁porcentagem	-11.2258
▁exigência	-11.2258
▁gabriel	-11.2258
▁adriano	-11.2258
▁tronco	-11.2258
▁efetivo	-11.226
pelo	-11.226
▁embaixador	-11.226
▁1901	-11.226
▁lanka	-11.226
▁will	-11.2263
▁destacou	-11.2263
▁definiu	-11.2266
▁anexa	-11.2268
▁consolidação	-11.2269
▁sobreviver	-11.227
lob	-11.227
úria	-11.2271
▁galinha	-11.2272
▁coordena	-11.2272
▁beja	-11.2273
▁vieira	-11.2277
▁defendeu	-11.2278
▁aceitou	-11.228
▁coro	-11.2282
▁hábitos	-11.2285
▁criticado	-11.2288
existe	-11.2294
▁roque	-11.2302
▁estaria	-11.2303
▁iniciando	-11.2306
▁serras	-11.2307
▁mira	-11.2312
▁sino	-11.2312
▁grand	-11.2321
chave	-11.2323
low	-11.2326
izaram	-11.233
▁long	-11.233
▁presas	-11.2331
▁mw	-11.2336
kai	-11.2339
_6	-11.234
▁amante	-11.2341
▁pesa	-11.2346
▁jar	-11.2348
▁contração	-11.2353
uch	-11.2354
▁ficava	-11.2366
▁pio	-11.2367
ômica	-11.2367
▁desembarca	-11.2367
▁expulsão	-11.2367
▁répteis	-11.2367
▁jardins	-11.2367
▁proibido	-11.2367
▁galeria	-11.2367
▁enquadra	-11.2367
▁antilhas	-11.2367
▁tolerância	-11.2367
▁subcontinente	-11.2367
▁embaixada	-11.2368
▁localizam	-11.2369
▁sírio	-11.237
▁mutação	-11.237
ika	-11.2372
▁1896	-11.2373
▁exemplares	-11.2373
ier	-11.2374
▁substituindo	-11.2376
ianismo	-11.2378
▁1840	-11.2379
▁persas	-11.238
▁diminuindo	-11.2383
▁conservadores	-11.2385
▁abuso	-11.2387
▁molda	-11.2389
▁75%	-11.2389
▁influenciar	-11.2397
▁tha	-11.2399
▁human	-11.2399
física	-11.2403
▁aprovar	-11.2405
▁usavam	-11.2407
▁oculta	-11.2409
alto	-11.2409
primas	-11.2414
▁menino	-11.2416
500	-11.2416
trac	-11.2418
▁folk	-11.2418
▁2018.	-11.2418
▁cumprir	-11.2419
vidas	-11.2426
▁(0,0	-11.2427
ácia	-11.2433
▁choro	-11.2442
▁contar	-11.2442
▁compostas	-11.2444
"&	-11.2444
▁iniciativas	-11.2447
▁cuida	-11.2452
▁68	-11.2453
▁famosas	-11.2453
▁disputado	-11.2456
eau	-11.2459
▁reduz	-11.2463
▁trecho	-11.2466
▁sagrado	-11.2467
▁imagina	-11.2467
▁governadores	-11.2468
▁cia	-11.2471
batida	-11.2474
▁analfabetismo	-11.2476
▁centímetros	-11.2476
▁gonçalves	-11.2476
▁magnitude	-11.2476
▁marshall	-11.2476
▁populacionais	-11.2476
▁álvares	-11.2476
▁inovações	-11.2476
▁samuel	-11.2476
▁iluminação	-11.2476
▁exceções	-11.2476
▁desportivo	-11.2477
▁ricardo	-11.2477
▁telefonia	-11.2477
▁center	-11.2477
▁visuais	-11.2477
▁paisagens	-11.2477
▁perdida	-11.2477
▁duarte	-11.2478
▁figueira	-11.2478
▁modernização	-11.2478
▁1927	-11.248
phy	-11.2483
▁administrada	-11.2486
zio	-11.2493
▁custa	-11.2493
▁greco	-11.2494
▁consumidores	-11.2495
nan	-11.2495
▁situam	-11.2497
▁juntas	-11.2497
isso	-11.2499
▁trouxeram	-11.25
shima	-11.2502
gão	-11.2503
▁pedir	-11.2503
▁investi	-11.2504
brig	-11.2504
▁clo	-11.2506
▁reagi	-11.251
▁raros	-11.2517
▁arena	-11.2524
▁condados	-11.2526
▁hardware	-11.2529
▁3.	-11.2531
partido	-11.2532
▁espalhada	-11.2532
▁juntar	-11.2535
▁fro	-11.2536
▁66	-11.2541
oi	-11.2542
▁magnéticos	-11.2544
▁veem	-11.2553
▁explorado	-11.257
▁seguidos	-11.2573
▁geográfico	-11.2578
▁procedimento	-11.2578
▁judeu	-11.2578
▁té	-11.2582
▁marido	-11.2583
colo	-11.2583
▁arménio	-11.2588
▁catarinense	-11.2588
▁cisjordânia	-11.2588
▁desmembra	-11.2588
▁décima	-11.2588
▁faleceu	-11.2588
▁inclinação	-11.2588
▁regresso	-11.2588
▁romântico	-11.2588
▁têxtil	-11.2588
▁agostinho	-11.2588
▁destruído	-11.2588
▁intensifica	-11.2588
▁moderada	-11.2588
▁cavidade	-11.2588
▁consciente	-11.2588
▁estimou	-11.2588
▁materna	-11.2588
▁aragão	-11.2588
▁racial	-11.2592
▁interpretações	-11.2593
▁massacre	-11.2596
▁experimentais	-11.2596
▁barba	-11.2596
▁coordenação	-11.2597
▁henri	-11.2597
▁batismo	-11.2598
▁elegeu	-11.2599
▁abandonou	-11.2599
▁distantes	-11.2604
ité	-11.2606
▁supri	-11.2615
jó	-11.2617
▁torneios	-11.2618
-17	-11.2618
▁tomando	-11.2621
▁remota	-11.2623
▁aparelhos	-11.2627
▁compõe	-11.2627
▁heli	-11.2629
▁transmitida	-11.2632
text	-11.2632
▁hy	-11.2637
▁operativo	-11.2637
▁domicílios	-11.2637
sobre	-11.2638
lib	-11.2639
▁dra	-11.2641
zin	-11.2644
▁germânicos	-11.2645
▁leu	-11.2647
▁"(	-11.2649
back	-11.2655
bir	-11.2656
aga	-11.2656
▁vinhos	-11.2657
▁eliminar	-11.266
▁(13	-11.2663
ile	-11.2666
heim	-11.2667
▁integrados	-11.267
▁variedades	-11.2674
▁aprender	-11.2674
▁santana	-11.2679
lítica	-11.2682
tl	-11.2683
▁precursor	-11.2687
▁armado	-11.2687
▁fugir	-11.2688
▁multiplica	-11.2691
▁8%	-11.2691
▁prisioneiro	-11.2693
▁proprietário	-11.2693
▁braço	-11.2697
▁alcoólica	-11.27
▁educacionais	-11.27
▁evidencia	-11.27
▁existiu	-11.27
▁françois	-11.27
▁fórum	-11.27
▁intérprete	-11.27
▁mesopotâmia	-11.27
▁nórdica	-11.27
▁performance	-11.27
▁pernambucana	-11.27
▁renováveis	-11.27
▁suspeita	-11.27
▁veterinária	-11.27
▁decisiva	-11.27
▁gondomar	-11.27
▁masculina	-11.27
▁deteriora	-11.27
▁concessão	-11.27
▁notavelmente	-11.27
▁concedida	-11.27
▁instante	-11.27
▁pseudo	-11.27
▁marfim	-11.27
▁ultra	-11.27
▁decaimento	-11.27
▁nazismo	-11.27
▁processador	-11.2701
▁arredores	-11.2702
▁victor	-11.2702
▁rivalidade	-11.2703
▁congela	-11.2704
▁estudante	-11.2708
▁destina	-11.2708
▁1894	-11.2708
▁compromete	-11.2712
▁trechos	-11.2712
▁magno	-11.2715
▁personalidades	-11.2725
▁medir	-11.273
▁contribuindo	-11.2731
lização	-11.2731
▁france	-11.2735
▁negocia	-11.2735
▁constituintes	-11.2748
iformes	-11.2748
ning	-11.275
▁descrevem	-11.2751
▁rara	-11.2757
▁ross	-11.276
▁orgânicas	-11.276
come	-11.2766
teira	-11.2768
▁remo	-11.2769
▁qu	-11.2772
▁aplicar	-11.2773
▁respectivos	-11.2774
▁ky	-11.2778
▁nossos	-11.2779
king	-11.2779
▁nestes	-11.278
▁actividades	-11.2785
▁prado	-11.2789
▁bay	-11.2794
▁98	-11.2796
▁crioulo	-11.2798
▁riscos	-11.2804
▁penetra	-11.2805
▁rigor	-11.2811
▁paralela	-11.2811
▁pertencer	-11.2812
▁equipamento	-11.2813
▁abacaxi	-11.2814
▁albuquerque	-11.2814
▁búlgaro	-11.2814
▁conclusões	-11.2814
▁exclusivo	-11.2814
▁morfologia	-11.2814
▁adulta	-11.2814
▁arqueologia	-11.2814
▁objectivo	-11.2814
▁submetido	-11.2814
▁estónia	-11.2814
▁oxford	-11.2814
▁salienta	-11.2814
▁detalhada	-11.2814
primeiro	-11.2814
▁metafísica	-11.2814
▁1908	-11.2816
▁temporada	-11.2817
▁afirmava	-11.2817
▁opções	-11.2818
▁inteira	-11.2818
▁fermentação	-11.2818
▁hel	-11.2819
▁54	-11.282
▁habitavam	-11.282
▁mendes	-11.282
▁dourada	-11.2821
▁teo	-11.2821
▁preocupações	-11.2823
▁crateras	-11.2824
▁chinesas	-11.2825
▁receptores	-11.2826
▁linhagem	-11.2827
ndra	-11.2828
▁aumentado	-11.2828
▁puramente	-11.2831
▁câmaras	-11.2832
▁romeno	-11.2833
▁centrada	-11.2833
▁aulas	-11.2845
▁castelos	-11.2848
gido	-11.2852
▁liberta	-11.2854
brand	-11.2854
germânico	-11.2855
[	-11.2855
polo	-11.2859
▁tenente	-11.2862
▁perl	-11.2864
▁classificar	-11.2865
▁salas	-11.2866
▁transmitir	-11.2866
jet	-11.2867
▁modalidades	-11.2867
▁reviv	-11.2868
▁organizadas	-11.2868
▁medicamentos	-11.2872
data	-11.2877
▁retirar	-11.2878
▁intermediárias	-11.2881
▁usaram	-11.2883
▁blocos	-11.2884
▁bando	-11.289
▁continuação	-11.2891
érica	-11.29
▁colocados	-11.2905
▁habilidades	-11.2905
▁arquitetos	-11.2911
▁belas	-11.2913
marca	-11.2914
▁xe	-11.2919
▁batalhas	-11.2919
érico	-11.2919
▁típicas	-11.2924
▁incluído	-11.2927
py	-11.2927
▁desafio	-11.2927
▁galáxia	-11.2927
▁tempestades	-11.2928
trófico	-11.2929
▁chuvoso	-11.2929
▁concluída	-11.2929
▁criptografia	-11.2929
▁envolvimento	-11.2929
▁hidrocarbonetos	-11.2929
▁milímetros	-11.2929
▁ninguém	-11.2929
▁oriunda	-11.2929
▁polinésia	-11.2929
▁subtropical	-11.2929
▁chicago	-11.2929
▁reuniu	-11.2929
▁elaborada	-11.2929
▁london	-11.2929
▁separatista	-11.2929
▁desportiva	-11.2929
▁aderiu	-11.2929
▁angular	-11.2929
▁manaus	-11.2929
▁desafia	-11.2929
▁visíveis	-11.2929
▁virgens	-11.2929
▁entendido	-11.293
▁inclusão	-11.293
▁severa	-11.2931
▁aluno	-11.2931
▁oitava	-11.2931
▁renunciou	-11.2932
▁96	-11.2934
▁sessão	-11.2935
írio	-11.2937
▁sediada	-11.2937
▁west	-11.2937
órica	-11.294
▁hm	-11.2943
▁reporta	-11.2945
▁fino	-11.2945
kel	-11.2945
▁1801	-11.2951
▁missa	-11.2952
▁aprende	-11.2956
▁representava	-11.2959
▁coreana	-11.2963
▁remoto	-11.2966
▁discípulos	-11.2966
▁2020.	-11.2968
▁moleculares	-11.2969
▁dual	-11.2972
▁rol	-11.2977
▁pesquisador	-11.2978
▁somali	-11.2979
▁cessar	-11.2983
▁etno	-11.2987
▁puni	-11.2987
▁alca	-11.2988
▁apresentava	-11.2988
açu	-11.2989
pens	-11.2989
▁nomear	-11.299
liza	-11.2996
▁quilómetros	-11.2999
sai	-11.3002
bon	-11.3006
mate	-11.3008
▁abandonado	-11.3009
▁artísticas	-11.3015
pop	-11.3016
tã	-11.3021
▁bico	-11.3022
▁afetada	-11.3023
▁converter	-11.3026
▁desenvolvem	-11.3027
="18	-11.3029
▁resultantes	-11.3034
▁liso	-11.3038
ônimo	-11.3043
▁cultivado	-11.3044
▁bloqueio	-11.3045
▁concorrência	-11.3045
▁crescido	-11.3045
▁dinâmico	-11.3045
▁irlandês	-11.3045
▁pérsico	-11.3045
▁vácuo	-11.3045
▁liderou	-11.3045
▁descrições	-11.3045
▁formoso	-11.3045
▁salvação	-11.3045
▁culpa	-11.3045
▁empresário	-11.3046
▁condutor	-11.3046
▁aprendizado	-11.3046
▁escravo	-11.3047
▁rival	-11.3047
▁michel	-11.3048
▁climático	-11.3048
▁inundações	-11.3048
▁favoráveis	-11.3048
▁1913	-11.3049
ctor	-11.305
▁diariamente	-11.305
▁expulso	-11.305
▁psicológico	-11.305
▁israelense	-11.305
▁migrações	-11.305
▁trilha	-11.3051
▁levantamento	-11.3052
▁acusações	-11.3052
▁sacramento	-11.3052
▁1821	-11.3053
▁distâncias	-11.3053
▁braços	-11.3054
▁trazida	-11.3054
▁protesto	-11.3054
▁gregas	-11.3055
quem	-11.3056
▁exposta	-11.3057
▁misticismo	-11.306
▁fago	-11.3062
▁senadores	-11.3064
▁adotaram	-11.3065
▁economias	-11.3066
▁sustentam	-11.3069
▁perceber	-11.3069
▁acreditar	-11.3071
meta	-11.3073
▁literalmente	-11.3074
idh	-11.3075
▁aí	-11.3079
▁1930.	-11.3084
▁quo	-11.3084
ocitose	-11.3085
▁hiv	-11.3087
▁basta	-11.3088
afegã	-11.309
programa	-11.3091
▁paço	-11.3097
▁complementa	-11.3099
▁abrangendo	-11.31
ote	-11.31
▁1,2	-11.31
▁sacerdotes	-11.31
tinga	-11.3101
▁notar	-11.3104
▁barros	-11.3105
▁sucessores	-11.3105
▁vetor	-11.3107
▁95	-11.3111
▁revistas	-11.3115
centro	-11.3116
nza	-11.312
élio	-11.3122
parte	-11.3122
▁apela	-11.3123
▁alco	-11.3127
100	-11.314
▁ligar	-11.3142
astro	-11.3143
cast	-11.3146
▁modern	-11.3149
▁perfeita	-11.3156
▁afetado	-11.3157
▁induz	-11.3162
▁atributos	-11.3162
▁contempla	-11.3162
▁cúpula	-11.3162
▁fiscais	-11.3162
▁legislatura	-11.3162
▁lâmina	-11.3162
▁percentagem	-11.3162
▁permitida	-11.3162
▁republicana	-11.3162
▁sustentável	-11.3162
▁uzbequistão	-11.3162
▁vinicius	-11.3162
▁cazaque	-11.3162
▁proclamação	-11.3162
▁submarino	-11.3162
jpg	-11.3163
▁medula	-11.3163
▁surgido	-11.3163
▁cabinda	-11.3163
▁escuro	-11.3163
▁eólica	-11.3163
▁concerto	-11.3163
▁paranaense	-11.3163
▁mentais	-11.3164
▁destinados	-11.3164
▁nokia	-11.3164
▁fresco	-11.3164
▁disposto	-11.3164
▁madrid	-11.3164
▁queijo	-11.3165
▁proporções	-11.3165
▁berço	-11.3165
▁vocal	-11.3166
▁montagem	-11.3166
▁usualmente	-11.3166
▁ofício	-11.3166
▁barris	-11.3167
▁adaptações	-11.3167
▁forró	-11.3168
▁espa	-11.317
▁congregação	-11.3171
▁85%	-11.3172
▁lenta	-11.3175
▁cavaleiros	-11.3176
▁cli	-11.3176
▁sofrem	-11.3177
▁eric	-11.3178
▁ddr	-11.3181
▁funcionais	-11.3182
▁leves	-11.3185
chel	-11.3189
▁compartilham	-11.3192
ted	-11.3193
▁mudaram	-11.3201
lance	-11.3201
▁apareceram	-11.3201
▁war	-11.3203
▁obrigados	-11.3203
africana	-11.3208
distrito	-11.3208
▁promulgada	-11.3211
▁diferentemente	-11.3211
▁pista	-11.3214
▁incluíam	-11.3214
▁épico	-11.3214
▁2001.	-11.3214
▁modificado	-11.322
▁spa	-11.3224
vir	-11.323
▁conquistaram	-11.3234
▁músculos	-11.3244
nse	-11.3244
▁primárias	-11.3249
máticos	-11.325
▁concentram	-11.3251
mei	-11.3258
▁gosta	-11.326
▁chimpanzés	-11.326
fel	-11.3262
metria	-11.3269
▁datada	-11.327
▁romanas	-11.327
▁72	-11.3273
▁compartilhado	-11.3276
mena	-11.3277
▁académico	-11.3281
▁alexander	-11.3281
▁consideráveis	-11.3281
▁hotéis	-11.3281
▁maurícia	-11.3281
▁okinawa	-11.3281
▁polímeros	-11.3281
▁promessa	-11.3281
▁válida	-11.3281
▁níger	-11.3281
▁califado	-11.3282
▁recebida	-11.3282
▁thelema	-11.3282
▁renovação	-11.3282
▁sexuais	-11.3282
▁galego	-11.3282
▁havido	-11.3282
▁itens	-11.3282
▁antecip	-11.3282
▁dorsal	-11.3283
▁79	-11.3283
▁guerreiros	-11.3283
▁1903	-11.3284
town	-11.3284
▁perfil	-11.3287
▁trazer	-11.3288
▁aderir	-11.3289
▁omã	-11.3289
▁melres	-11.329
▁georgiano	-11.329
▁calça	-11.3293
▁normais	-11.3294
▁junção	-11.3295
▁mala	-11.3296
▁existam	-11.3302
▁destinado	-11.3307
▁referente	-11.3307
▁quemer	-11.3307
▁nativo	-11.3308
▁detect	-11.331
▁palm	-11.3314
▁ouvir	-11.3315
▁correio	-11.3315
▁escapar	-11.3317
▁macho	-11.3324
▁ontologia	-11.3327
▁vivas	-11.3327
coreano	-11.3328
especialmente	-11.3329
▁papal	-11.3332
▁curtos	-11.3333
graph	-11.334
hol	-11.3341
▁lord	-11.3341
▁celtas	-11.3344
mun	-11.3344
qa	-11.3344
▁goza	-11.3346
▁verbo	-11.3347
gne	-11.335
pessoas	-11.335
▁lama	-11.3352
▁corredor	-11.3364
▁participam	-11.3366
▁adjacentes	-11.3366
▁parceiros	-11.3372
▁confirmada	-11.3381
▁antrop	-11.3383
▁gravado	-11.3384
▁veja	-11.3386
ries	-11.3386
▁acontecer	-11.3387
▁receptor	-11.3389
▁apóstolos	-11.3392
express	-11.3394
▁consumida	-11.3398
▁sindical	-11.3398
▁empregos	-11.3402
▁albufeira	-11.3402
▁bósnia	-11.3402
▁chuvosa	-11.3402
▁incidência	-11.3402
▁metabólica	-11.3402
▁osciloscópio	-11.3402
▁pântano	-11.3402
▁respectivas	-11.3402
▁sofrimento	-11.3402
▁autoritário	-11.3402
▁botânico	-11.3402
▁promovida	-11.3402
▁acervo	-11.3402
▁analítica	-11.3403
▁erosão	-11.3403
▁encosta	-11.3403
▁fiel	-11.3405
▁elétricas	-11.3405
▁assenta	-11.3408
▁funcionalidade	-11.341
▁1822	-11.341
▁acontecimento	-11.3412
▁administrativos	-11.3413
▁vender	-11.3414
▁atraiu	-11.3414
peri	-11.3416
▁centenário	-11.3419
▁71	-11.3422
▁tetra	-11.3425
▁colocação	-11.3425
▁pioneiros	-11.3427
▁peões	-11.3427
▁juntou	-11.3431
▁prever	-11.3438
▁jornalistas	-11.344
▁fecha	-11.3444
▁alegando	-11.3445
vírus	-11.3451
tun	-11.3451
▁acompanhada	-11.3452
▁especializados	-11.3452
clar	-11.3453
copa	-11.3462
▁commonwealth	-11.3462
▁espanholas	-11.3465
▁procede	-11.3467
▁tivessem	-11.3472
▁unir	-11.3472
▁amostras	-11.3473
nização	-11.3476
▁analisar	-11.3477
ional	-11.3482
fur	-11.3482
quist	-11.3485
alta	-11.3485
▁entende	-11.3487
▁colunas	-11.3493
▁pur	-11.3499
ern	-11.35
▁subir	-11.3502
passa	-11.3505
▁nó	-11.3505
▁pass	-11.3506
▁pagã	-11.3509
▁discursos	-11.3518
gênese	-11.3524
▁agripa	-11.3524
▁antibióticos	-11.3524
▁divergência	-11.3524
▁excessiva	-11.3524
▁harmonia	-11.3524
▁hebraico	-11.3524
▁monetária	-11.3524
▁namíbia	-11.3524
▁neerlandesa	-11.3524
▁olimpíadas	-11.3524
▁plebiscito	-11.3524
▁subdividida	-11.3524
▁vertebrados	-11.3524
▁infecção	-11.3524
▁prevenção	-11.3524
▁colheita	-11.3524
▁positivismo	-11.3524
▁league	-11.3524
▁estuário	-11.3524
▁assumindo	-11.3524
ize	-11.3524
▁corrigi	-11.3524
▁silvestre	-11.3524
▁comentário	-11.3524
▁abadia	-11.3525
▁comprar	-11.3525
▁torcida	-11.3525
▁comédia	-11.3526
▁dezesseis	-11.3527
▁munique	-11.3527
▁golgi	-11.3532
▁boxe	-11.3532
qué	-11.3534
▁bateria	-11.3536
▁descobrimento	-11.3536
▁publicamente	-11.3537
▁gigante	-11.3537
▁ham	-11.3537
▁veículo	-11.3538
▁59	-11.3538
▁teor	-11.3538
▁situadas	-11.3538
▁educado	-11.3539
▁impede	-11.3539
▁completar	-11.3541
▁gasta	-11.3544
▁sócio	-11.3544
▁moura	-11.3545
ign	-11.3545
▁denota	-11.3548
▁denso	-11.355
▁publicadas	-11.3555
▁diferem	-11.3562
▁faria	-11.3565
▁suficientemente	-11.3566
num	-11.3571
▁ascende	-11.3571
▁turcas	-11.3573
▁observadas	-11.3575
▁140	-11.3576
▁cabeças	-11.3578
lago	-11.3581
▁segmentos	-11.359
▁estudados	-11.3593
▁inflama	-11.3594
▁fugi	-11.3595
telo	-11.3596
estra	-11.3599
▁tama	-11.3601
▁percebe	-11.3606
▁vertentes	-11.3611
▁daqueles	-11.3613
▁glico	-11.3614
▁orienta	-11.3615
▁andar	-11.3623
▁gente	-11.3625
▁armazenado	-11.3625
▁barreiras	-11.3626
▁duplica	-11.3638
▁aeronaves	-11.364
▁castelhano	-11.3647
▁danúbio	-11.3647
▁eslováquia	-11.3647
▁esqueleto	-11.3647
▁fóssil	-11.3647
▁guimarães	-11.3647
▁magalhães	-11.3647
▁rejeição	-11.3647
▁sugerido	-11.3647
▁taxonomia	-11.3647
▁telefônica	-11.3647
▁lavoura	-11.3647
▁reforço	-11.3647
▁restrito	-11.3647
▁ideológica	-11.3647
▁concreto	-11.3647
▁inerente	-11.3648
▁mongol	-11.3648
▁proclamou	-11.3648
▁dedicou	-11.3649
▁trens	-11.3649
▁pressões	-11.3649
▁herbert	-11.365
▁posta	-11.3651
▁prefere	-11.3652
▁sonho	-11.3652
kon	-11.3654
▁110	-11.3654
▁vendidos	-11.3655
▁1836	-11.3656
▁basic	-11.3659
▁1848	-11.3659
▁chamam	-11.3661
▁campina	-11.3661
▁cópia	-11.3663
▁limitações	-11.3665
▁ritos	-11.3666
▁marcelo	-11.3667
▁espi	-11.3667
quinho	-11.3668
▁abrantes	-11.3669
▁lançaram	-11.3671
▁jer	-11.3672
▁transformando	-11.3673
▁quarks	-11.3676
▁afirmações	-11.3678
santa	-11.369
▁mape	-11.3696
domínio	-11.3699
livro	-11.3699
▁florestal	-11.37
força	-11.37
▁marinhas	-11.3703
río	-11.3704
▁%	-11.3705
▁fur	-11.3706
▁transfer	-11.3707
ítico	-11.371
▁pede	-11.3719
pad	-11.372
_8	-11.372
▁adaptado	-11.3722
▁visitada	-11.3722
▁significar	-11.3725
▁ameaçada	-11.3726
▁forem	-11.3731
▁76	-11.3733
▁press	-11.3734
▁my	-11.3737
▁procurar	-11.3741
▁alcançada	-11.3742
hara	-11.3743
gita	-11.3747
omi	-11.3747
▁inspirada	-11.3752
▁flui	-11.3759
stituição	-11.3764
▁pavimenta	-11.3765
▁traça	-11.3765
luz	-11.3765
▁kan	-11.3768
▁congrega	-11.3768
bala	-11.3769
▁americanas	-11.3771
▁trazidos	-11.3772
▁bahamas	-11.3772
▁glória	-11.3772
▁neutrino	-11.3772
▁refúgio	-11.3772
▁shopping	-11.3772
▁vocabulário	-11.3772
▁dispersa	-11.3772
▁nuvem	-11.3772
▁produtiva	-11.3772
▁pigmento	-11.3772
▁marselha	-11.3773
▁croácia	-11.3773
▁poloneses	-11.3773
▁universais	-11.3773
▁reduzindo	-11.3773
▁revoga	-11.3773
▁elefante	-11.3773
▁volap	-11.3774
▁austro	-11.3774
▁1904	-11.3775
▁barém	-11.3775
▁prevista	-11.3777
▁1916	-11.3777
▁discriminação	-11.3778
▁replicação	-11.3779
▁traduzida	-11.3779
▁executados	-11.3783
▁implementar	-11.3783
▁suprimento	-11.3786
▁taça	-11.379
▁inimigo	-11.3792
▁violentos	-11.3792
▁tratada	-11.3793
▁fabricantes	-11.3796
▁christian	-11.3797
gru	-11.3799
▁couro	-11.38
▁editora	-11.38
▁compreendido	-11.3801
espécies	-11.3804
▁matou	-11.3805
▁bala	-11.3806
▁ângulos	-11.3807
▁ingredientes	-11.3807
▁papado	-11.3808
zh	-11.3818
▁motores	-11.382
esquerda	-11.3826
—	-11.3826
▁exigia	-11.3826
▁frases	-11.3829
▁combates	-11.3835
▁citados	-11.3835
▁pesos	-11.3836
▁atuar	-11.3837
▁anjos	-11.3843
▁autorizado	-11.3857
▁derrotar	-11.3858
▁funcionam	-11.387
▁mg	-11.3873
odoro	-11.3873
▁desenhos	-11.3875
▁concede	-11.3876
▁pisa	-11.3881
base	-11.3881
▁bate	-11.3881
presente	-11.3885
yama	-11.3889
ími	-11.389
▁configura	-11.3892
▁62	-11.3893
▁acessível	-11.3899
▁concluído	-11.3899
▁doméstica	-11.3899
▁eclesiástica	-11.3899
▁evangélica	-11.3899
▁holocausto	-11.3899
▁hospeda	-11.3899
▁intermédio	-11.3899
▁libéria	-11.3899
▁mongóis	-11.3899
▁obstante	-11.3899
▁prejuízo	-11.3899
▁instituiu	-11.3899
▁superficial	-11.3899
▁1871	-11.3899
▁sobrinho	-11.3899
▁paleolítico	-11.3899
▁exilado	-11.3899
▁gustav	-11.3899
▁nicol	-11.3899
▁topografia	-11.39
▁desfile	-11.39
▁requisitos	-11.39
▁crânio	-11.39
▁comboio	-11.3901
▁frango	-11.3901
▁sismo	-11.3902
▁desenvolvedores	-11.3902
▁gália	-11.3903
▁carneiro	-11.3903
▁modela	-11.3904
▁empate	-11.3904
▁cunho	-11.3904
▁consagra	-11.3905
tv	-11.3907
▁1887	-11.3908
▁usava	-11.3909
▁regente	-11.3909
slav	-11.3911
▁brun	-11.3918
▁pôs	-11.3919
carta	-11.3919
▁escalar	-11.3921
▁barreira	-11.3921
▁protegida	-11.3921
▁feriado	-11.3921
▁oração	-11.3922
constit	-11.3923
▁afeto	-11.3923
avelmente	-11.393
▁guarani	-11.3933
▁nascida	-11.3933
▁imediatas	-11.3935
▁marinhos	-11.3935
▁participaram	-11.394
▁acentuada	-11.394
▁doutor	-11.3944
▁topônimos	-11.3944
▁significados	-11.3948
sucedida	-11.3954
▁agir	-11.3954
▁realismo	-11.3954
profunda	-11.3954
▁enviada	-11.3955
▁atingem	-11.396
▁gesto	-11.3961
▁morrer	-11.3965
▁promulga	-11.3974
anga	-11.3979
▁telefones	-11.398
▁correto	-11.3981
▁nomeia	-11.3988
▁evangelhos	-11.4002
▁palmeiras	-11.4002
▁marcando	-11.4002
down	-11.4006
vão	-11.4007
▁sport	-11.4009
▁calc	-11.4011
▁defensor	-11.4014
logistas	-11.4026
▁justa	-11.4026
nsamente	-11.4027
▁precede	-11.4027
▁antecessor	-11.4027
▁horizontal	-11.4027
▁hóquei	-11.4027
▁jeová	-11.4027
▁júnior	-11.4027
▁marinheiro	-11.4027
▁mauritânia	-11.4027
▁organela	-11.4027
▁pantanal	-11.4027
▁princesa	-11.4027
▁taubaté	-11.4027
▁xangô	-11.4027
▁aquisição	-11.4027
▁dirigir	-11.4027
▁universitária	-11.4027
▁beija	-11.4027
▁radioativo	-11.4027
▁dezoito	-11.4027
▁neutralidade	-11.4027
▁vendida	-11.4027
▁extraído	-11.4027
▁plasma	-11.4028
▁miranda	-11.4028
▁prazer	-11.4028
▁israelenses	-11.4029
▁melodia	-11.4029
20"	-11.4031
▁estritamente	-11.4031
▁operar	-11.4033
▁eterna	-11.4033
▁inauguração	-11.4035
▁sediado	-11.4036
jun	-11.4036
asse	-11.4037
▁whit	-11.4037
escência	-11.4038
▁elites	-11.4038
▁agregado	-11.4039
tuba	-11.4041
▁espalhados	-11.4042
▁viajar	-11.4042
metro	-11.4044
▁ic	-11.4044
▁exploradores	-11.4045
▁pintores	-11.4048
▁sho	-11.405
lock	-11.405
▁cota	-11.4051
▁carr	-11.4052
▁sunitas	-11.4052
▁evangelho	-11.4053
▁vencedores	-11.4057
▁florestais	-11.4062
▁95%	-11.4064
xy	-11.4064
▁prato	-11.4068
▁identificados	-11.4068
▁lucro	-11.4072
▁couto	-11.4074
▁69	-11.4084
▁kant	-11.4088
▁enormes	-11.4089
▁exu	-11.409
▁constata	-11.409
anismo	-11.4093
▁calcular	-11.4122
("	-11.4123
▁sand	-11.4131
▁mama	-11.4137
▁especula	-11.4144
▁assinala	-11.4147
thi	-11.4148
▁chileno	-11.4152
mundo	-11.4157
▁pássaros	-11.4157
▁adquirido	-11.4157
▁anglicana	-11.4157
▁cotidiana	-11.4157
▁desembarque	-11.4157
▁especiarias	-11.4157
▁existindo	-11.4157
▁fluvial	-11.4157
▁genocídio	-11.4157
▁pernambucano	-11.4157
▁obedece	-11.4157
▁gravação	-11.4157
▁professa	-11.4157
▁incomum	-11.4157
▁eslavos	-11.4157
▁trazendo	-11.4157
▁biomassa	-11.4158
ômetro	-11.4158
▁mortais	-11.4159
▁documentação	-11.4159
▁fernão	-11.4159
▁1907	-11.416
mund	-11.416
▁construíram	-11.416
▁referindo	-11.4161
▁rigorosa	-11.4161
▁marxismo	-11.4163
▁proposição	-11.4164
▁lã	-11.4164
▁tratava	-11.4164
▁refut	-11.4165
▁alpes	-11.4165
▁validade	-11.4171
▁mundialmente	-11.4172
▁alfândega	-11.4173
▁constituir	-11.4178
▁preserva	-11.4182
▁record	-11.4184
▁kha	-11.4187
▁perderam	-11.4188
▁diários	-11.4188
▁cultiva	-11.4188
▁mercadores	-11.4191
▁legalmente	-11.4193
▁séria	-11.4194
▁decidir	-11.4195
▁lagoas	-11.4199
▁celebrado	-11.42
▁menção	-11.4207
▁atp	-11.4211
▁portador	-11.4222
▁166	-11.4222
▁abandonada	-11.423
▁confia	-11.4234
▁document	-11.4235
▁misto	-11.4237
▁adaptada	-11.4239
▁prédios	-11.4241
▁plásticos	-11.4244
▁mani	-11.4244
▁gala	-11.4249
corinthians	-11.4252
▁adolf	-11.4252
▁conservadora	-11.4254
cit	-11.4255
▁viram	-11.4257
▁aparecer	-11.4259
▁neutra	-11.426
izante	-11.4263
▁psi	-11.4274
▁kh	-11.4277
▁aperfeiço	-11.4287
▁meteoro	-11.4288
▁bíblico	-11.4289
▁cáucaso	-11.4289
▁epidemia	-11.4289
▁festividades	-11.4289
▁fotossíntese	-11.4289
▁gibraltar	-11.4289
▁historiografia	-11.4289
▁interferência	-11.4289
▁iraniana	-11.4289
▁legitimidade	-11.4289
▁moldávia	-11.4289
▁mútua	-11.4289
▁renascentista	-11.4289
▁repouso	-11.4289
▁retículo	-11.4289
▁revestimento	-11.4289
▁sicília	-11.4289
▁sufixo	-11.4289
▁unicameral	-11.4289
▁vulgar	-11.4289
▁philip	-11.4289
▁utilizou	-11.4289
▁concebido	-11.4289
▁tribais	-11.4289
▁predadores	-11.4289
▁sociólogo	-11.4289
▁fertilizantes	-11.4289
▁condensa	-11.4289
▁proposições	-11.429
▁parentes	-11.429
▁qing	-11.4292
ónimo	-11.4292
▁emancipação	-11.4292
culares	-11.4293
▁bai	-11.4295
▁cristalina	-11.4296
▁czar	-11.43
▁falso	-11.4302
feld	-11.4304
▁processadores	-11.4306
▁vazio	-11.4309
▁urso	-11.4312
▁parceiro	-11.4321
▁isola	-11.4326
▁provocando	-11.4326
_7	-11.4328
▁critic	-11.433
▁cultivada	-11.433
▁61	-11.433
▁regulamento	-11.4331
pode	-11.4332
▁progressiva	-11.4336
▁localmente	-11.4339
▁mestiços	-11.4341
▁superar	-11.4345
▁recorre	-11.4347
▁fibra	-11.4349
▁constituiu	-11.4349
locação	-11.435
▁separar	-11.435
▁guara	-11.4352
▁senador	-11.4354
▁tática	-11.4357
▁compartilhada	-11.4365
▁desempenham	-11.4369
▁rus	-11.4377
▁orientada	-11.4385
qual	-11.4385
▁manchas	-11.4386
▁une	-11.4389
▁merece	-11.4393
▁ameaçado	-11.4399
general	-11.4403
▁mencionada	-11.4406
inal	-11.4407
▁vulcânicas	-11.4408
▁estágios	-11.4408
▁recupera	-11.4408
culos	-11.4413
opera	-11.4413
raça	-11.4415
▁comanda	-11.4419
▁explorador	-11.4419
▁sacra	-11.442
▁fidel	-11.442
▁aleatória	-11.4422
▁computacional	-11.4422
▁contingente	-11.4422
▁determinou	-11.4422
▁diversificado	-11.4422
▁escocês	-11.4422
▁filogenia	-11.4422
▁gonçalo	-11.4422
▁metalurgia	-11.4422
▁metodista	-11.4422
▁mistério	-11.4422
▁percentual	-11.4422
▁plasmática	-11.4422
▁recompensa	-11.4422
▁referencial	-11.4422
▁semântica	-11.4422
▁tartaruga	-11.4422
▁álvaro	-11.4422
▁legião	-11.4422
▁papua	-11.4422
▁atingida	-11.4422
▁online	-11.4422
▁prússia	-11.4423
▁international	-11.4423
▁livremente	-11.4425
▁sobreviventes	-11.4425
▁talento	-11.4427
▁tio	-11.4427
▁natação	-11.4428
▁colegas	-11.4428
▁walter	-11.4428
▁emitido	-11.4429
▁expoente	-11.4431
▁1897	-11.4432
▁resumi	-11.4433
▁habitadas	-11.4435
fogo	-11.4435
▁4%	-11.4436
▁tirana	-11.4436
▁literários	-11.4436
▁investido	-11.4437
▁condenação	-11.4437
▁binário	-11.4439
▁evitando	-11.4445
▁extensas	-11.4445
ping	-11.4446
▁influenciaram	-11.4446
▁pacientes	-11.445
wald	-11.4451
▁fêmea	-11.4459
▁negócio	-11.4459
▁quilômetro	-11.4459
tude	-11.4463
▁georg	-11.4464
▁interpretar	-11.4465
▁ofereceu	-11.447
▁mancha	-11.4471
▁dependentes	-11.4477
▁ditador	-11.4479
▁tornava	-11.4483
▁exames	-11.4485
▁wu	-11.4485
▁incluídas	-11.4488
sistência	-11.4495
▁atitudes	-11.4501
▁tratando	-11.4509
▁avançados	-11.4512
▁6%	-11.4516
▁rod	-11.4516
▁subsequentes	-11.4517
final	-11.4521
▁modificada	-11.4525
▁estatísticos	-11.4533
▁pasta	-11.4538
▁manga	-11.4541
▁trabalhado	-11.4547
▁preta	-11.4553
▁metas	-11.4554
▁projetada	-11.4555
aya	-11.4557
▁concordou	-11.4557
▁enxadrista	-11.4557
▁evolutivo	-11.4557
▁hebraica	-11.4557
▁hereditária	-11.4557
▁integridade	-11.4557
▁mísseis	-11.4557
▁nêutrons	-11.4557
▁recuperou	-11.4557
▁resolvido	-11.4557
▁revoluções	-11.4557
▁vulcão	-11.4557
▁vulcões	-11.4557
▁vértice	-11.4557
▁xogunato	-11.4557
▁úteis	-11.4557
▁vasos	-11.4557
▁viajou	-11.4557
▁cardeal	-11.4557
▁embrião	-11.4557
▁hidrogénio	-11.4557
▁chanceler	-11.4558
▁agitação	-11.4558
▁mentira	-11.4558
▁referia	-11.4558
▁nômades	-11.4558
▁mensal	-11.4559
▁numérica	-11.4559
▁parecido	-11.4559
▁farinha	-11.456
▁explicitamente	-11.456
▁campus	-11.4561
▁indiretamente	-11.4562
▁retirou	-11.4563
▁violações	-11.4565
▁conduzir	-11.4566
▁1888	-11.4567
▁geográficos	-11.4569
▁1,8	-11.4572
▁post	-11.4574
▁exigir	-11.4577
▁sobreviveu	-11.458
▁medição	-11.4583
▁mostrado	-11.4585
▁plataformas	-11.4587
▁observadores	-11.459
▁dedicados	-11.4591
▁isoladas	-11.4592
▁diferenciação	-11.4593
▁pistas	-11.4594
▁tanta	-11.4595
▁modificar	-11.4595
▁colet	-11.4597
▁cenas	-11.46
▁conseguem	-11.4601
logista	-11.4601
human	-11.4603
▁causam	-11.4604
nix	-11.4607
▁simon	-11.4609
▁bit	-11.461
▁padres	-11.4613
fluxo	-11.4621
▁subordinado	-11.4622
▁petr	-11.4622
▁encontrando	-11.4623
▁esconde	-11.4623
europeia	-11.4628
▁estendeu	-11.463
▁significava	-11.4631
▁cerimônias	-11.4634
▁salto	-11.4635
junto	-11.4635
color	-11.4636
▁indicando	-11.4641
▁generalizado	-11.4645
▁mah	-11.465
revolução	-11.4653
▁futuras	-11.4657
▁coordenado	-11.4658
▁forja	-11.4661
integra	-11.4662
▁excede	-11.4663
▁encontravam	-11.4664
freguesia	-11.4665
▁restaura	-11.4672
▁tentam	-11.4674
ille	-11.4676
▁nutri	-11.4676
▁imita	-11.4679
▁formulação	-11.4682
▁janelas	-11.4683
ione	-11.4685
▁ultramar	-11.4688
poder	-11.4689
▁adjetivo	-11.4694
▁atletismo	-11.4694
▁cláudio	-11.4694
▁douglas	-11.4694
▁escandinávia	-11.4694
▁fornecida	-11.4694
▁idêntico	-11.4694
▁ilhéu	-11.4694
▁instituído	-11.4694
▁inteligente	-11.4694
▁jânio	-11.4694
▁sofrido	-11.4694
▁vladimir	-11.4694
▁barbosa	-11.4694
▁rafael	-11.4694
▁diretório	-11.4694
▁estoniano	-11.4694
▁atómica	-11.4694
▁abolida	-11.4694
▁oceânico	-11.4694
▁artesãos	-11.4695
▁temporária	-11.4695
▁sucedeu	-11.4695
▁(...)	-11.4695
▁heinric	-11.4695
▁contacto	-11.4696
▁acolhe	-11.4696
▁poética	-11.4698
▁suced	-11.4698
▁genebra	-11.4698
▁nicho	-11.4701
▁rende	-11.4701
▁1879	-11.4702
▁1885	-11.4704
▁teresa	-11.4709
▁afastado	-11.4711
▁requerem	-11.4714
▁atribuição	-11.4717
▁1820	-11.472
banda	-11.4721
▁defendendo	-11.4721
▁negação	-11.4722
porte	-11.4726
▁descarta	-11.4728
▁fixação	-11.4728
▁ganho	-11.4728
▁forçada	-11.473
gina	-11.4736
▁válidos	-11.4736
▁músculo	-11.4738
▁asteroide	-11.4738
▁discutir	-11.4742
▁criam	-11.4747
élica	-11.4748
▁comercializa	-11.4748
▁cadeiras	-11.4749
hl	-11.475
▁recorrente	-11.4751
▁turísticas	-11.4752
▁hen	-11.4753
inger	-11.4756
maria	-11.4756
histórico	-11.476
alunos	-11.476
ênio	-11.4761
política	-11.4763
governo	-11.4765
▁distribuídas	-11.4766
▁consideravam	-11.4768
▁escal	-11.4773
▁song	-11.4775
▁derivadas	-11.4777
▁sucedida	-11.4777
▁minérios	-11.4778
obra	-11.478
▁sentimentos	-11.4792
jan	-11.4795
▁jurídicas	-11.4795
▁acelerado	-11.4798
▁detectar	-11.48
quê	-11.4815
▁suportar	-11.4816
▁pretas	-11.4819
▁elementar	-11.482
▁retirado	-11.4822
▁dissolve	-11.4823
▁brin	-11.4823
▁bebe	-11.4827
▁lenin	-11.4827
pirâmide	-11.4833
▁crômio	-11.4833
▁câmera	-11.4833
▁lealdade	-11.4833
▁maugham	-11.4833
▁obtém	-11.4833
▁primórdios	-11.4833
▁ruptura	-11.4833
▁science	-11.4833
▁sétima	-11.4833
▁diplomático	-11.4833
▁coincide	-11.4833
▁concreta	-11.4833
▁enterrado	-11.4833
▁obtivera	-11.4833
▁conduta	-11.4833
▁facções	-11.4833
▁sequencia	-11.4833
▁abstrato	-11.4833
▁polaco	-11.4833
▁buraco	-11.4833
▁concili	-11.4833
▁caparica	-11.4834
▁sozinho	-11.4834
viking	-11.4835
▁conformidade	-11.4835
▁bragança	-11.4835
▁eliminação	-11.4835
▁incluídos	-11.4835
▁passagens	-11.4836
▁confina	-11.4836
▁calcário	-11.4837
▁transferir	-11.4838
▁riba	-11.4839
▁classificações	-11.4843
▁1824	-11.4845
▁1815	-11.4849
▁bombardeio	-11.4851
▁violação	-11.4851
▁mim	-11.4852
lhada	-11.4852
ivelmente	-11.4854
▁cham	-11.4855
ília	-11.4856
▁leitores	-11.4862
bsd	-11.4864
▁barro	-11.4865
▁teclado	-11.4865
▁sau	-11.4866
▁reside	-11.4867
▁vira	-11.4868
corpo	-11.4868
▁sofreram	-11.4874
▁exerceu	-11.4874
▁prende	-11.4877
▁plástico	-11.4881
▁1800	-11.4881
fone	-11.4891
raz	-11.4899
▁representavam	-11.4901
democracia	-11.4901
portugal	-11.4901
hop	-11.4903
cant	-11.4907
historia	-11.491
▁capta	-11.4911
curso	-11.4913
progressivamente	-11.4923
mirim	-11.4927
▁neurônios	-11.4929
escola	-11.4947
▁bioma	-11.4947
▁nazi	-11.4949
▁contribuir	-11.495
▁idh	-11.4955
▁feridos	-11.4957
▁atesta	-11.4971
▁reunir	-11.4971
▁estruturada	-11.4971
▁cine	-11.4972
cêntrica	-11.4974
▁anatólia	-11.4974
▁aristocracia	-11.4974
▁bíblica	-11.4974
▁clérigo	-11.4974
▁derrotou	-11.4974
▁excelência	-11.4974
▁gaúcho	-11.4974
▁habsburgo	-11.4974
▁homossexuais	-11.4974
▁idêntica	-11.4974
▁intercâmbio	-11.4974
▁mármore	-11.4974
▁ryukyu	-11.4974
▁campeões	-11.4974
▁paixão	-11.4974
▁antártica	-11.4974
▁forçou	-11.4974
▁bancário	-11.4974
▁1902	-11.4974
▁dilema	-11.4974
▁conjuga	-11.4974
▁comunicar	-11.4975
▁nauru	-11.4975
▁idosos	-11.4975
▁alexandria	-11.4975
▁sentir	-11.4976
▁potável	-11.4976
▁eslava	-11.4977
▁emitida	-11.4978
▁provou	-11.4978
quant	-11.4979
▁coleções	-11.498
▁remover	-11.498
▁estendem	-11.4982
▁fosfo	-11.4982
▁fragmentação	-11.4982
▁1878	-11.4983
▁inserido	-11.4983
▁justo	-11.4984
▁etária	-11.4986
▁tol	-11.4987
▁almirante	-11.4992
▁chance	-11.4995
▁toler	-11.5
▁armados	-11.5005
▁cantores	-11.501
homossexualidade	-11.5011
▁financiado	-11.5016
▁elimin	-11.5019
▁175	-11.502
▁amador	-11.5024
▁92	-11.5025
▁apresentações	-11.5031
▁prédio	-11.5032
▁1,3	-11.5038
▁fornecendo	-11.5041
correu	-11.5043
graduação	-11.5043
fosfato	-11.5043
punk	-11.5044
ity	-11.5048
união	-11.5048
sof	-11.5049
▁abandona	-11.505
direita	-11.505
cient	-11.5053
▁germânicas	-11.5054
mond	-11.5058
▁expressar	-11.5065
imenta	-11.5066
▁bani	-11.5067
▁administrador	-11.5071
▁apresentados	-11.5077
▁empréstimos	-11.5078
▁0,1	-11.5079
▁ming	-11.5085
yang	-11.5087
▁arqueológicas	-11.5092
▁operam	-11.5104
▁explorada	-11.5107
▁enviadas	-11.5109
▁sediar	-11.5111
▁retira	-11.5112
df	-11.5114
▁algébrica	-11.5117
▁ambrósio	-11.5117
▁amsterdã	-11.5117
▁comunhão	-11.5117
▁continentais	-11.5117
▁cânone	-11.5117
▁empírica	-11.5117
▁feudais	-11.5117
▁geograficamente	-11.5117
▁luterana	-11.5117
▁neerlandeses	-11.5117
▁patrulha	-11.5117
▁pontífice	-11.5117
▁research	-11.5117
▁rígida	-11.5117
▁school	-11.5117
▁stanley	-11.5117
▁paradoxo	-11.5117
▁romancista	-11.5117
▁amplifica	-11.5117
▁lutero	-11.5117
morfismo	-11.5117
▁concretiz	-11.5117
▁lixo	-11.5117
▁duma	-11.5117
▁bartolomeu	-11.5117
▁pureza	-11.5117
▁fraude	-11.5117
▁hooke	-11.5117
▁industrializado	-11.5117
▁montenegro	-11.5117
▁trimestre	-11.5117
▁invoca	-11.5118
▁zé	-11.5118
▁canárias	-11.5119
▁navais	-11.512
▁irrigação	-11.512
▁capturar	-11.512
▁achados	-11.512
▁produzia	-11.5121
▁grafo	-11.5122
▁cancel	-11.5122
new	-11.5124
▁manual	-11.5124
▁chamava	-11.5127
▁ronda	-11.5127
▁avaliar	-11.5128
▁indicadores	-11.5129
▁remoção	-11.5129
▁moralidade	-11.5129
▁temporal	-11.513
▁coloniz	-11.5131
▁liberalismo	-11.5131
▁exato	-11.5132
▁passe	-11.5133
tai	-11.5135
▁acusação	-11.5136
▁variada	-11.5137
▁alternativo	-11.5139
▁macacos	-11.514
media	-11.5143
▁administradas	-11.5146
▁12%	-11.5146
▁declarando	-11.5148
▁ribo	-11.5151
▁permanentemente	-11.5151
▁jogado	-11.5161
▁humanista	-11.5165
▁protetor	-11.5174
▁pertenceu	-11.5181
plano	-11.5181
▁traço	-11.5182
▁habitam	-11.5184
national	-11.5187
▁hem	-11.5191
▁episódios	-11.5191
jogo	-11.5195
oblast	-11.5196
▁perdur	-11.5197
▁hormônios	-11.5201
▁operado	-11.5207
▁rh	-11.5209
▁mercantilistas	-11.5212
▁revelado	-11.5218
▁costumava	-11.522
▁contraria	-11.522
▁paca	-11.5222
▁comandada	-11.5227
▁liberado	-11.5229
▁king	-11.5231
▁bolo	-11.5231
▁libertar	-11.5238
onu	-11.5239
▁caos	-11.5244
▁125	-11.5244
▁manuscritos	-11.5247
▁dólar	-11.5249
bora	-11.5251
▁inunda	-11.5257
▁antigamente	-11.5258
▁agressão	-11.5262
▁astronômica	-11.5262
▁empreendimento	-11.5262
▁fronteiriça	-11.5262
▁híbrido	-11.5262
▁inscrição	-11.5262
▁iugoslávia	-11.5262
▁matrícula	-11.5262
▁periférico	-11.5262
▁ressonância	-11.5262
▁subdesenvolvido	-11.5262
▁talibã	-11.5262
▁término	-11.5262
▁westminster	-11.5262
▁atmosférico	-11.5262
▁inercial	-11.5262
▁minoritária	-11.5262
▁resistir	-11.5262
▁substantivo	-11.5262
▁traduções	-11.5262
▁vestuário	-11.5262
▁imenso	-11.5262
▁pilares	-11.5262
▁puderam	-11.5262
▁produtivo	-11.5262
▁escassa	-11.5262
▁1853	-11.5262
▁galilei	-11.5262
▁finito	-11.5262
▁romantismo	-11.5262
▁pátria	-11.5262
▁escravizados	-11.5262
▁pastagens	-11.5262
▁filamentos	-11.5263
dimensional	-11.5264
▁fornecedor	-11.5264
▁multidão	-11.5264
▁tambor	-11.5265
▁consistência	-11.5265
▁mayen	-11.5265
▁tigre	-11.5267
▁atrativo	-11.527
▁coordenadas	-11.5271
▁bossa	-11.5271
▁anexação	-11.5274
▁começado	-11.5274
▁tida	-11.5275
▁peste	-11.5276
▁manipulação	-11.5276
▁sagrados	-11.5278
▁articulação	-11.528
=39	-11.528
▁geológico	-11.5282
▁espetáculos	-11.5285
ful	-11.5287
▁alcançaram	-11.5293
▁paridade	-11.5293
zan	-11.5294
▁if	-11.5302
▁isolados	-11.5304
▁amido	-11.5304
▁acentuado	-11.5305
stat	-11.5308
ence	-11.5308
elle	-11.5314
▁zoo	-11.5321
▁intermediária	-11.5322
▁distinto	-11.5322
▁adulto	-11.5322
▁chilena	-11.5324
table	-11.5327
▁forneceu	-11.5329
▁anunciado	-11.533
▁escolares	-11.5332
dinâmica	-11.5333
▁monge	-11.5334
▁anjo	-11.5334
commonwealth	-11.5335
lhado	-11.5337
vina	-11.5339
▁fat	-11.5339
▁determinante	-11.5345
▁envolveu	-11.5347
▁avançado	-11.5348
▁procurando	-11.5348
▁450	-11.535
▁precisava	-11.5359
brasileira	-11.5363
lton	-11.5363
▁rejeitada	-11.5366
▁ajudaram	-11.5372
▁sintetizado	-11.5378
▁assinar	-11.5379
▁bernard	-11.5384
▁khan	-11.5384
menos	-11.5389
▁presa	-11.5391
▁descobrimentos	-11.5394
▁anexado	-11.5405
cata	-11.5407
▁marcel	-11.5408
▁apontado	-11.5408
▁regalados	-11.5409
▁análogo	-11.5409
▁concepções	-11.5409
▁desaparecimento	-11.5409
▁filogenética	-11.5409
▁giovanni	-11.5409
▁helicóptero	-11.5409
▁ilegais	-11.5409
▁insuficiente	-11.5409
▁jazidas	-11.5409
▁obtendo	-11.5409
▁sanguínea	-11.5409
▁sanguíneo	-11.5409
▁sibéria	-11.5409
▁sintomas	-11.5409
▁stephen	-11.5409
▁subsídios	-11.5409
▁óvulo	-11.5409
▁oferecida	-11.5409
▁sabedoria	-11.5409
▁taoismo	-11.5409
▁mateus	-11.5409
▁afinidade	-11.5409
▁filtra	-11.5409
▁falecido	-11.5409
▁confronta	-11.5409
▁evangélicos	-11.541
▁inovador	-11.541
▁partidários	-11.541
▁previsão	-11.541
▁infantaria	-11.5411
▁adiante	-11.5411
▁game	-11.5412
▁cristais	-11.5412
▁reflexão	-11.5414
▁voluntários	-11.5415
▁ancestralidade	-11.5415
▁escolaridade	-11.5416
▁inácio	-11.5416
▁terrorismo	-11.5416
▁1884	-11.5418
▁crentes	-11.5419
zia	-11.5421
▁impostas	-11.5422
▁pica	-11.5423
ordem	-11.5423
300	-11.5425
▁ressaltar	-11.5426
▁medido	-11.5427
▁empresta	-11.5427
prote	-11.5428
ouro	-11.543
▁inform	-11.543
▁correm	-11.5432
lusão	-11.5432
▁ocorra	-11.5433
▁orientado	-11.5434
▁pernas	-11.5436
▁categoriza	-11.5437
▁auxiliares	-11.5437
▁outrora	-11.5437
;&	-11.5438
▁union	-11.544
▁adaptar	-11.5443
▁pano	-11.5443
pula	-11.5446
contra	-11.5449
ción	-11.5456
▁seio	-11.5459
▁modernista	-11.546
guard	-11.5463
▁fração	-11.5464
▁baiana	-11.5464
▁afetam	-11.5467
▁privilegia	-11.5473
▁instru	-11.5476
natural	-11.5486
▁estendendo	-11.549
▁matar	-11.5498
▁germânica	-11.5498
▁batizado	-11.5498
feita	-11.5502
ington	-11.5502
reta	-11.5507
mur	-11.551
romana	-11.5511
▁ganhos	-11.5511
zinho	-11.5511
▁metálicas	-11.5514
sistemas	-11.5514
▁esperava	-11.5522
ndro	-11.5523
planeta	-11.5537
▁frank	-11.5557
▁suposta	-11.5557
▁adventista	-11.5558
▁botânica	-11.5558
▁conhecia	-11.5558
▁egípcia	-11.5558
▁emergiu	-11.5558
▁energético	-11.5558
▁escândalo	-11.5558
▁etíope	-11.5558
▁exclusão	-11.5558
▁obstáculo	-11.5558
▁planetária	-11.5558
▁quirguistão	-11.5558
▁teixeira	-11.5558
▁xintoísmo	-11.5558
▁disperso	-11.5558
▁rochoso	-11.5558
▁neural	-11.5558
▁compilação	-11.5558
▁valiosa	-11.5558
▁trópico	-11.5558
▁ernst	-11.5558
▁roteiro	-11.5558
▁patrono	-11.5558
▁libras	-11.5559
▁crucial	-11.5559
▁segredo	-11.5559
▁topologia	-11.5559
▁ondula	-11.556
▁subfamília	-11.556
▁minimiza	-11.556
▁souza	-11.556
▁quantific	-11.556
▁autoestradas	-11.556
▁declina	-11.5562
▁moradia	-11.5562
▁definitivo	-11.5562
▁sânscrito	-11.5562
▁helen	-11.5564
▁drena	-11.5564
china	-11.5565
▁ervas	-11.5565
tendido	-11.5565
▁1867	-11.5566
▁agrupados	-11.557
▁perigoso	-11.5571
▁alinhado	-11.5572
▁necessitam	-11.5572
posições	-11.5573
▁dogma	-11.5573
▁emoções	-11.5575
▁deposita	-11.5576
▁considerações	-11.5577
▁ameno	-11.5578
ophyta	-11.5578
▁170	-11.5579
▁exibição	-11.5582
▁xiitas	-11.5584
▁bernardo	-11.5585
▁houvesse	-11.5586
▁conectados	-11.5589
▁barão	-11.5589
▁boy	-11.5598
▁bang	-11.5599
▁mun	-11.5599
▁distúrbios	-11.5599
▁inibi	-11.56
▁cobrem	-11.5601
▁transformada	-11.5602
▁superado	-11.5603
▁predominam	-11.5603
▁subúrbios	-11.5607
▁sanções	-11.5607
verde	-11.5615
▁viveram	-11.5618
▁cele	-11.5621
▁macos	-11.5626
▁vítima	-11.5628
▁interiores	-11.5629
▁transportar	-11.5631
histori	-11.5633
▁subespécie	-11.5633
ásia	-11.5633
tsch	-11.5634
▁remontam	-11.5635
▁especializada	-11.5636
▁magneto	-11.5636
▁cala	-11.564
▁militantes	-11.565
▁pesado	-11.5653
struiu	-11.5654
▁místico	-11.5654
ículo	-11.5655
▁750	-11.5656
▁varre	-11.5661
▁demora	-11.5664
▁rab	-11.5664
▁tirar	-11.5667
▁galesa	-11.5669
design	-11.5671
fere	-11.5671
uno	-11.5673
▁mann	-11.5675
▁god	-11.5678
▁moto	-11.5682
▁operador	-11.5682
▁originado	-11.5689
sider	-11.5691
▁afetar	-11.5691
▁3,5	-11.5692
▁abandono	-11.5694
▁representativo	-11.5694
▁gest	-11.5696
▁periódicos	-11.5697
▁leitos	-11.5699
run	-11.5705
arrondissement	-11.5709
▁alquimista	-11.5709
▁bruxelas	-11.5709
▁desfruta	-11.5709
▁espessura	-11.5709
▁fóton	-11.5709
▁garantiu	-11.5709
▁interestelar	-11.5709
▁kubitschek	-11.5709
▁láctea	-11.5709
▁madagascar	-11.5709
▁versalhes	-11.5709
▁pulmões	-11.5709
▁quênia	-11.5709
▁projeção	-11.5709
▁nelson	-11.5709
▁rendição	-11.5709
▁comparável	-11.5709
▁consome	-11.5709
▁interrompe	-11.571
▁esgota	-11.571
▁pinhel	-11.571
▁especialidades	-11.571
▁águia	-11.571
▁drenagem	-11.5711
▁bovina	-11.5711
tical	-11.5711
▁analogia	-11.5712
▁fracassa	-11.5712
▁galês	-11.5712
▁cobrir	-11.5712
▁precipitações	-11.5713
▁virgem	-11.5714
▁febre	-11.5715
▁limpa	-11.5716
▁previamente	-11.5717
▁perfeitamente	-11.572
▁conduzido	-11.5722
▁dunas	-11.5724
▁movimentação	-11.5725
▁atrai	-11.5726
▁fugiram	-11.5728
▁devastado	-11.5731
▁biólogos	-11.5734
▁chan	-11.5734
▁tinta	-11.574
▁suco	-11.5745
▁acção	-11.5747
▁ken	-11.5749
hip	-11.575
▁egípcios	-11.5756
▁marino	-11.5756
▁derrubar	-11.5758
▁mudando	-11.5766
▁decorre	-11.5772
▁papais	-11.5777
▁cortado	-11.5783
▁distribuída	-11.5783
▁celta	-11.5784
▁provocado	-11.5788
▁implementada	-11.5789
hardware	-11.579
filósofos	-11.579
stud	-11.579
▁negociar	-11.5796
▁ortodoxo	-11.58
▁signo	-11.58
▁goto	-11.5803
baixa	-11.5806
▁intra	-11.581
▁18%	-11.5814
▁postula	-11.5814
▁prosa	-11.5816
▁otto	-11.5818
▁eleger	-11.5819
▁ibn	-11.5828
▁relatado	-11.5831
▁calculado	-11.5836
▁acessar	-11.5837
▁preservado	-11.5837
▁eduard	-11.5842
lux	-11.5851
municípios	-11.5852
▁identificam	-11.5854
▁grafia	-11.5859
▁herman	-11.5862
▁green	-11.5863
▁adquirida	-11.5863
▁arquitetônica	-11.5863
▁celulose	-11.5863
▁copenhague	-11.5863
▁dirigiu	-11.5863
▁dramaturgo	-11.5863
▁estêvão	-11.5863
▁fenómeno	-11.5863
▁foundation	-11.5863
▁garantindo	-11.5863
▁ingestão	-11.5863
▁instrumental	-11.5863
▁iorubá	-11.5863
▁irlandeses	-11.5863
▁legítimo	-11.5863
▁magnésio	-11.5863
▁microscópica	-11.5863
▁pitagórico	-11.5863
▁reflexo	-11.5863
▁respiração	-11.5863
▁artefatos	-11.5863
▁cachoeira	-11.5863
▁desabitada	-11.5863
▁iémen	-11.5863
▁toxicidade	-11.5863
▁impressa	-11.5863
▁virginia	-11.5863
▁ícone	-11.5863
▁coruche	-11.5863
▁tesouro	-11.5863
▁arbitra	-11.5863
▁laguna	-11.5863
▁azeite	-11.5863
▁company	-11.5863
▁notadamente	-11.5864
▁destruir	-11.5864
▁write	-11.5864
▁reduziu	-11.5864
▁detecção	-11.5864
▁moore	-11.5864
▁unicamente	-11.5865
▁emocional	-11.5865
▁croata	-11.5865
▁index	-11.5866
▁sueste	-11.5866
▁colaboradores	-11.5866
▁benim	-11.5867
▁resultam	-11.5867
▁espinha	-11.5867
▁platina	-11.5867
▁1909	-11.5867
▁chips	-11.5867
▁cifra	-11.5867
▁estendido	-11.587
▁ausente	-11.5871
▁regimento	-11.5872
▁1891	-11.5873
▁povoações	-11.5874
▁autoriza	-11.5875
_9	-11.5877
fonia	-11.588
▁percebeu	-11.5883
▁germânico	-11.5883
▁complementares	-11.5886
▁sobreviveram	-11.5887
▁terminais	-11.5888
coletores	-11.5892
▁guam	-11.5892
▁moraes	-11.5893
▁chico	-11.5895
rap	-11.5895
glia	-11.5897
▁167	-11.5898
modernismo	-11.5902
▁praticam	-11.5918
▁atuando	-11.5919
ciente	-11.5919
▁compreendem	-11.5921
▁ioniza	-11.5923
teria	-11.5925
▁permanecendo	-11.593
▁pertencendo	-11.5934
▁levaria	-11.5938
▁tel	-11.5941
▁incluída	-11.5942
▁benefício	-11.5943
habitat	-11.5946
sucedido	-11.5946
folk	-11.5947
clube	-11.5947
militar	-11.5947
américa	-11.5952
▁vincula	-11.5953
cross	-11.5961
▁teólogo	-11.5961
▁confirmado	-11.5963
dinho	-11.598
▁sustentar	-11.5982
▁tocar	-11.5982
▁ray	-11.5983
▁acabam	-11.5984
=19	-11.599
▁pertenciam	-11.5996
▁planejado	-11.5998
ísio	-11.6
ví	-11.6001
entemente	-11.6001
▁elege	-11.6007
▁culturalmente	-11.6009
▁folha	-11.601
fmi	-11.6012
▁criminal	-11.6017
▁conclui	-11.6019
▁absorvido	-11.602
▁acessíveis	-11.602
▁ameríndios	-11.602
▁anúncio	-11.602
▁artilharia	-11.602
▁austríaca	-11.602
▁automaticamente	-11.602
▁boliviano	-11.602
▁bárbara	-11.602
▁confirmou	-11.602
▁conjuntivo	-11.602
▁consecutivo	-11.602
▁diretrizes	-11.602
▁dissolvido	-11.602
▁euclides	-11.602
▁fazendeiros	-11.602
▁hegemonia	-11.602
▁hospedeiro	-11.602
▁instalou	-11.602
▁marroquino	-11.602
▁neurais	-11.602
▁termodinâmico	-11.602
▁voluntária	-11.602
▁cavalaria	-11.602
▁coincidi	-11.602
▁contrária	-11.602
▁drasticamente	-11.602
▁torcedores	-11.602
▁salomão	-11.602
colombiana	-11.602
▁cobrindo	-11.602
▁unificada	-11.602
▁espiritismo	-11.602
▁fisicamente	-11.602
▁1882	-11.602
▁aprimor	-11.602
▁sessenta	-11.602
▁polêmica	-11.602
▁cardoso	-11.602
▁fundido	-11.602
▁luxo	-11.602
▁colorido	-11.602
▁oficina	-11.602
elha	-11.602
▁rigoroso	-11.6021
▁iguaçu	-11.6022
▁aparenta	-11.6022
▁niue	-11.6023
▁viseu	-11.6023
▁suposto	-11.6024
▁opositores	-11.6025
▁atacado	-11.6027
▁turnê	-11.6028
▁1868	-11.6029
▁morris	-11.6029
▁pescadores	-11.603
estrada	-11.6031
▁1808	-11.6032
▁radar	-11.6037
positiv	-11.6037
▁assistente	-11.6038
▁armamento	-11.6044
▁cooperativa	-11.6053
▁maçã	-11.6055
▁100%	-11.6056
▁produziram	-11.6057
lhou	-11.6061
▁competitiva	-11.6062
▁explor	-11.6063
▁christ	-11.6066
▁shu	-11.6066
techn	-11.6067
▁detentor	-11.607
▁devoto	-11.6072
▁projecto	-11.6082
▁aproximar	-11.6082
wall	-11.6084
▁postulado	-11.6085
time	-11.6086
presidencialista	-11.6089
nut	-11.6095
entia	-11.6101
▁sacerdote	-11.6104
▁leitor	-11.6104
campeão	-11.6105
direito	-11.6105
área	-11.6107
regula	-11.6108
▁sopa	-11.6113
▁surto	-11.6118
ividade	-11.6125
▁checa	-11.6133
▁visava	-11.6144
▁circun	-11.6147
▁flutua	-11.6148
▁bruta	-11.6151
hei	-11.6151
▁concluir	-11.6163
illi	-11.6164
reais	-11.6171
▁consagrado	-11.6171
▁instalar	-11.6173
▁fragmenta	-11.6173
religio	-11.6176
ayahuasca	-11.6178
▁adolescente	-11.6178
▁berkeley	-11.6178
▁bicicleta	-11.6178
▁conseguido	-11.6178
▁convencionais	-11.6178
▁eclipse	-11.6178
▁etnicamente	-11.6178
▁exemplifica	-11.6178
▁infecções	-11.6178
▁itálica	-11.6178
▁jaguatirica	-11.6178
▁kepler	-11.6178
▁krishna	-11.6178
▁padroeiro	-11.6178
▁românica	-11.6178
▁topónimo	-11.6178
▁triunfo	-11.6178
▁apropriado	-11.6178
▁restrição	-11.6178
▁surpresa	-11.6178
▁uganda	-11.6178
▁zhou	-11.6178
▁ampliar	-11.6178
▁proclamada	-11.6178
ófilo	-11.6178
▁separou	-11.6179
ófitas	-11.6179
▁falácia	-11.6179
▁supervisão	-11.6179
▁avô	-11.6179
▁ademais	-11.618
▁totais	-11.6181
▁penela	-11.6181
▁policial	-11.6181
▁planck	-11.6181
▁tumba	-11.6183
▁garcia	-11.6183
▁cantão	-11.6183
▁butão	-11.6184
▁libertadores	-11.6184
▁perfeito	-11.6184
toxina	-11.6185
▁uruguaiana	-11.6185
▁malaia	-11.6186
▁parentesco	-11.6186
onado	-11.6187
▁xeque	-11.619
type	-11.6192
zona	-11.6192
▁cicl	-11.6194
espera	-11.6194
▁coletivamente	-11.6195
▁acumulação	-11.6197
▁prestação	-11.62
▁viável	-11.6202
▁list	-11.6203
▁realizações	-11.6204
▁anula	-11.6204
▁administrar	-11.6204
▁correia	-11.6207
▁tomate	-11.6208
anja	-11.621
▁exigiu	-11.6212
▁mitose	-11.6212
umberto	-11.6216
▁magia	-11.6217
▁partindo	-11.6221
▁temática	-11.6224
morte	-11.6225
▁comandado	-11.6227
cionar	-11.623
velho	-11.6231
pati	-11.6237
samba	-11.6237
▁armazenar	-11.6239
▁hídricos	-11.6242
▁telha	-11.6244
▁chapada	-11.625
▁pensava	-11.6253
▁internamente	-11.6255
▁fortalecer	-11.6257
▁argumentando	-11.6263
trabalho	-11.6266
segunda	-11.6267
▁testemunha	-11.6268
▁inaugura	-11.6271
▁156	-11.6272
▁spin	-11.6294
▁denuncia	-11.6303
▁gay	-11.6304
▁caracterizam	-11.6305
▁competir	-11.6308
5,5	-11.6311
▁jura	-11.6312
▁preparar	-11.6312
▁nomeada	-11.6313
visão	-11.6316
floresta	-11.6322
▁tin	-11.6327
▁contestado	-11.6332
▁bill	-11.6337
hipófise	-11.634
▁anfíbios	-11.634
▁antepassados	-11.634
▁chéquia	-11.634
▁cirurgia	-11.634
▁compreendida	-11.634
▁controverso	-11.634
▁decorrência	-11.634
▁déficit	-11.634
▁ilustre	-11.634
▁irlandesa	-11.634
▁judiciais	-11.634
▁meirelles	-11.634
▁piedade	-11.634
▁potenciais	-11.634
▁solidariedade	-11.634
▁sucessivos	-11.634
▁tuberculose	-11.634
▁áudio	-11.634
▁caatinga	-11.634
▁convenções	-11.634
▁fuzil	-11.634
▁sultanato	-11.634
▁cosseno	-11.634
▁removido	-11.634
▁delphi	-11.634
▁toledo	-11.634
marketing	-11.634
▁coesão	-11.634
▁antoine	-11.634
▁geométrica	-11.634
-2010"	-11.634
▁oitavo	-11.634
▁evapora	-11.634
▁tau	-11.634
▁titã	-11.6341
▁ppm	-11.6341
▁aceite	-11.6342
▁barreto	-11.6342
▁atraso	-11.6342
▁pimenta	-11.6342
▁leito	-11.6342
▁doutorado	-11.6346
▁modificação	-11.6348
▁registado	-11.6349
ocrática	-11.6349
▁exclui	-11.635
▁pomp	-11.6352
▁bandeirantes	-11.6353
▁prometeu	-11.6353
▁combinações	-11.6354
▁cosmos	-11.6354
▁1789	-11.6355
▁firmemente	-11.6355
iya	-11.6355
▁novela	-11.6362
▁codificação	-11.6363
▁reivindicação	-11.6367
scale	-11.6368
▁simão	-11.637
▁shell	-11.6371
▁confundi	-11.6371
▁suma	-11.6372
▁82	-11.6374
9,5	-11.6384
▁exigem	-11.6387
▁escandinavos	-11.6388
▁respondem	-11.6395
▁carmo	-11.6402
▁valoriza	-11.6404
▁mogi	-11.6406
▁gott	-11.6409
▁oxidante	-11.641
zur	-11.6418
▁interpretada	-11.6419
bara	-11.6424
consistente	-11.6431
associa	-11.6432
▁roman	-11.6433
▁pacote	-11.6434
▁vence	-11.6435
▁soldado	-11.6436
▁fundamento	-11.6437
fried	-11.6441
▁julgado	-11.6445
vira	-11.645
▁viana	-11.6451
▁colina	-11.6466
400	-11.6467
▁conto	-11.6467
▁voar	-11.6478
▁casais	-11.6481
▁circunda	-11.6489
▁vinculado	-11.6495
▁traje	-11.6496
▁entram	-11.6503
▁imortal	-11.6503
▁madagáscar	-11.6503
▁peninsular	-11.6503
▁anfitriã	-11.6503
▁aposentado	-11.6503
▁cognitiva	-11.6503
▁consolidou	-11.6503
▁câmbio	-11.6503
▁eletrólise	-11.6503
▁espontânea	-11.6503
▁exercida	-11.6503
▁frederico	-11.6503
▁huxley	-11.6503
▁intensiva	-11.6503
▁líbia	-11.6503
▁mandíbula	-11.6503
▁marechal	-11.6503
▁norueguês	-11.6503
▁periferia	-11.6503
▁resolvida	-11.6503
▁sapiens	-11.6503
▁vulcânico	-11.6503
▁cobalto	-11.6503
▁félix	-11.6503
▁psicólogo	-11.6503
▁tobago	-11.6503
▁vereadores	-11.6503
▁fenícios	-11.6503
▁indícios	-11.6503
▁inverso	-11.6503
▁possua	-11.6504
▁vencido	-11.6504
▁1872	-11.6504
▁clemente	-11.6504
▁major	-11.6504
▁andrea	-11.6504
▁repeli	-11.6504
▁sábio	-11.6505
▁steven	-11.6505
▁colisão	-11.6505
▁feudo	-11.6507
ólicos	-11.6507
▁escopo	-11.6508
▁gamão	-11.6508
▁assistir	-11.651
ensis	-11.6511
▁lutou	-11.6512
▁declarações	-11.6513
▁caicos	-11.652
▁migraram	-11.652
▁banho	-11.6521
▁preservada	-11.6522
▁45%	-11.6524
▁sigla	-11.6524
▁alcançando	-11.653
▁luso	-11.653
▁incorporação	-11.6532
bury	-11.6535
▁public	-11.6536
otan	-11.6537
▁polares	-11.6538
▁baseando	-11.654
▁tinto	-11.6542
pela	-11.6554
eth	-11.6557
▁crescem	-11.6559
▁oferecendo	-11.6564
ordenado	-11.6567
▁acumulado	-11.6568
▁encara	-11.6576
▁divulgada	-11.6578
▁virada	-11.6584
▁estudam	-11.6588
▁lip	-11.6593
professores	-11.6597
▁kra	-11.6598
▁mach	-11.6598
▁troia	-11.6599
▁encarregado	-11.6603
▁registrar	-11.6604
▁íon	-11.6605
▁monitora	-11.6608
▁cadeira	-11.661
▁jr	-11.6611
▁habitante	-11.6613
pico	-11.6617
▁hill	-11.6624
bach	-11.6633
▁transl	-11.6638
▁terão	-11.6639
shire	-11.6653
▁avançar	-11.6655
▁equilibr	-11.6658
▁escrava	-11.6669
▁astronômico	-11.667
▁bombeiros	-11.667
▁capixaba	-11.667
▁diminuído	-11.667
▁encaixa	-11.667
▁goodall	-11.667
▁indonésio	-11.667
▁inspirou	-11.667
▁lúcia	-11.667
▁mensageiro	-11.667
▁meridiano	-11.667
▁monumental	-11.667
▁preenche	-11.667
▁prevalência	-11.667
▁provinciais	-11.667
▁provincial	-11.667
▁pyongyang	-11.667
▁páscoa	-11.667
▁rembrandt	-11.667
▁renovável	-11.667
▁subterrânea	-11.667
▁terminologia	-11.667
▁zâmbia	-11.667
▁antioquia	-11.667
▁erupção	-11.667
▁lamarck	-11.667
▁quartel	-11.667
▁submetida	-11.667
▁abastece	-11.667
▁jornada	-11.667
▁solitário	-11.667
▁contrapartida	-11.667
▁gravações	-11.667
▁linguista	-11.667
▁espaçonave	-11.667
▁mestrado	-11.667
▁costeiro	-11.667
▁incerta	-11.667
▁escultor	-11.667
▁pôr	-11.667
▁decomposição	-11.667
▁instável	-11.667
ílico	-11.6671
▁apontou	-11.6671
▁prestes	-11.6671
▁franklin	-11.6671
▁olinda	-11.6674
▁reagentes	-11.6674
▁simetria	-11.6674
ficheiro	-11.6674
▁vara	-11.6676
costa	-11.6677
eletromagnetismo	-11.6678
▁descartes	-11.6678
▁mobilidade	-11.668
filia	-11.6681
▁obrigações	-11.6681
▁justamente	-11.6681
▁previa	-11.6683
▁crimeia	-11.6684
▁andamento	-11.6684
▁demonstrações	-11.6687
▁ajuste	-11.6687
▁1825	-11.6688
▁procurado	-11.6688
▁corretamente	-11.6689
▁alerta	-11.6689
▁ampliação	-11.669
▁inhame	-11.6691
▁pouso	-11.6696
▁aproveitando	-11.67
▁cheio	-11.67
▁relatou	-11.6701
▁cresceram	-11.6702
▁shang	-11.6703
▁haveria	-11.6708
mala	-11.6711
▁cyberpunk	-11.6714
dong	-11.6716
▁contratado	-11.6719
▁piano	-11.672
▁1,7	-11.6727
paul	-11.6731
evolução	-11.6732
▁palha	-11.6732
valorização	-11.6734
▁estro	-11.6737
bola	-11.674
▁disseram	-11.6748
agua	-11.675
stone	-11.6752
▁seculares	-11.6754
▁ultrapass	-11.6756
byte	-11.6765
lateral	-11.6766
governador	-11.6767
depois	-11.6767
internet	-11.6768
▁cruzes	-11.6769
▁impulsionado	-11.677
tização	-11.6775
▁reich	-11.6785
▁abrigar	-11.6785
▁especializado	-11.6787
▁graf	-11.6791
▁quebrar	-11.6801
▁melhorou	-11.6802
▁moita	-11.6808
phon	-11.6809
escreve	-11.681
3,4	-11.6811
▁catalisa	-11.6817
▁barroca	-11.682
▁aumentam	-11.6825
▁rob	-11.6828
▁restaurado	-11.6829
key	-11.6831
▁descende	-11.6835
majoritariamente	-11.684
▁almeirim	-11.684
▁batalhão	-11.684
▁caracterizou	-11.684
▁cotidiano	-11.684
▁criciúma	-11.684
▁encomenda	-11.684
▁epistemologia	-11.684
▁leucócitos	-11.684
▁mikhail	-11.684
▁minoritário	-11.684
▁neerlandês	-11.684
▁originária	-11.684
▁patrocinado	-11.684
▁pentecostais	-11.684
▁pluviosidade	-11.684
▁precauções	-11.684
▁preconceito	-11.684
▁procariontes	-11.684
▁sazonais	-11.684
▁compatível	-11.684
▁desintegração	-11.684
▁difundido	-11.684
▁gravura	-11.684
▁laterais	-11.684
▁simbólico	-11.684
▁sérvio	-11.684
▁bengala	-11.684
▁peirce	-11.684
▁repertório	-11.684
▁aconselha	-11.684
▁panteão	-11.684
▁alvito	-11.684
▁cávado	-11.684
▁valioso	-11.684
▁escarpa	-11.684
▁otomana	-11.684
▁cevada	-11.684
▁dramática	-11.684
▁faraó	-11.684
▁riacho	-11.684
▁fachada	-11.684
▁rosário	-11.684
▁renomado	-11.684
▁tutela	-11.684
▁benedita	-11.684
▁polonês	-11.684
▁colorida	-11.684
▁assumido	-11.684
▁disposições	-11.684
▁levedura	-11.6841
▁gravada	-11.6841
▁conduziu	-11.6841
▁régia	-11.6841
▁bolonha	-11.6841
▁apollo	-11.6841
▁unitário	-11.6842
▁descobridor	-11.6842
▁estendia	-11.6843
▁remete	-11.6845
▁malária	-11.6848
▁combatentes	-11.6849
▁sinalização	-11.685
▁1893	-11.6851
▁peito	-11.6851
▁mafra	-11.6851
▁trabalhadora	-11.6855
▁pontuação	-11.6855
▁plenamente	-11.6857
▁php	-11.6857
▁bares	-11.686
▁haitiano	-11.686
▁magnetismo	-11.6864
▁comercialização	-11.6865
▁converteu	-11.6868
▁derrubado	-11.6869
▁rené	-11.6871
▁14%	-11.6871
▁registou	-11.6873
▁dun	-11.6877
3,6	-11.6878
▁revelaram	-11.6882
▁subordinada	-11.6883
▁ocupavam	-11.6892
▁despertar	-11.6896
▁torne	-11.6896
▁alfredo	-11.6897
▁indicação	-11.6901
▁canoa	-11.6912
home	-11.6918
▁praticar	-11.692
▁star	-11.692
conhecido	-11.6923
▁reproduzir	-11.6923
▁caindo	-11.6926
▁11%	-11.6928
bot	-11.6932
irão	-11.6935
engenharia	-11.6939
oficial	-11.6939
segundo	-11.6941
ídeo	-11.6942
▁1,4	-11.6943
ango	-11.6946
▁votou	-11.6949
▁topônimo	-11.6951
▁arqueológico	-11.6952
▁bactéria	-11.6952
áculo	-11.6965
▁cubano	-11.6975
▁revelam	-11.6979
▁restaurar	-11.6984
▁desvia	-11.6984
vest	-11.6987
▁schr	-11.6991
▁chã	-11.6992
bele	-11.6997
éia	-11.7
qi	-11.7001
valor	-11.7005
▁barco	-11.7006
▁citada	-11.7007
▁acompanhar	-11.7007
▁0,2	-11.701
2,6	-11.701
▁brown	-11.7012
▁[...]	-11.7012
▁alcanena	-11.7012
▁azevedo	-11.7012
▁bolchevique	-11.7012
▁estocolmo	-11.7012
▁extensões	-11.7012
▁extracelular	-11.7012
▁genealogia	-11.7012
▁gravitação	-11.7012
▁intitulada	-11.7012
▁legitima	-11.7012
▁limpeza	-11.7012
▁lâmpada	-11.7012
▁pescoço	-11.7012
▁pirandello	-11.7012
▁procissão	-11.7012
▁simbólica	-11.7012
▁subsaariana	-11.7012
▁transparência	-11.7012
▁abstrata	-11.7012
▁difundida	-11.7012
▁radioisótopo	-11.7012
▁vassalo	-11.7012
▁contaminação	-11.7012
▁floresceu	-11.7012
▁filipino	-11.7012
▁inferno	-11.7012
▁alcalino	-11.7012
▁gregoriano	-11.7012
▁(2021)	-11.7012
▁corporações	-11.7012
▁feixe	-11.7012
gênica	-11.7012
▁divisor	-11.7012
▁cedeu	-11.7012
▁indução	-11.7012
▁fortuna	-11.7012
catorze	-11.7012
▁irradi	-11.7013
▁engaja	-11.7013
ésimo	-11.7013
▁oráculo	-11.7013
▁arrecada	-11.7013
▁irrita	-11.7014
▁granito	-11.7016
▁zoológico	-11.7016
▁aproveitamento	-11.7017
▁introduziram	-11.7017
riedade	-11.7018
▁recepção	-11.7018
▁reorganização	-11.7024
▁penetração	-11.7026
ridge	-11.7026
▁milhas	-11.7028
▁gótico	-11.7029
▁linus	-11.703
▁numera	-11.703
▁gold	-11.7031
▁causaram	-11.7032
▁agenda	-11.7033
▁implicações	-11.7034
▁imperialismo	-11.7036
▁dependia	-11.7037
▁cruzamento	-11.7038
▁conceder	-11.7039
▁originaram	-11.7039
▁marques	-11.704
super	-11.7042
▁verificação	-11.7046
▁exportadores	-11.7046
▁salão	-11.7047
▁renunciar	-11.7049
▁cera	-11.7049
▁escrevendo	-11.705
▁promovendo	-11.7051
▁excedente	-11.7052
▁originando	-11.7059
▁glicose	-11.706
▁colonizado	-11.7061
▁premiado	-11.7076
▁terminar	-11.7077
▁105	-11.7094
▁toque	-11.71
ppc	-11.7107
▁uniu	-11.7107
▁anton	-11.7107
▁comercialmente	-11.7111
“	-11.7114
computador	-11.7115
▁entregou	-11.712
▁pardos	-11.712
▁séc	-11.7121
▁discípulo	-11.713
▁cromossomo	-11.713
court	-11.7131
▁atravessam	-11.715
▁anna	-11.7159
génio	-11.7187
speito	-11.7187
▁amesterdão	-11.7187
▁antártico	-11.7187
▁bizantina	-11.7187
▁dinamarqueses	-11.7187
▁felicidade	-11.7187
▁ginásio	-11.7187
▁gronelândia	-11.7187
▁hispânia	-11.7187
▁identificou	-11.7187
▁incursões	-11.7187
▁invertebrados	-11.7187
▁macapá	-11.7187
▁multicelulares	-11.7187
▁noruegueses	-11.7187
▁oiapoque	-11.7187
▁peixoto	-11.7187
▁protótipo	-11.7187
▁reconcilia	-11.7187
▁refletindo	-11.7187
▁sampaio	-11.7187
▁subconjunto	-11.7187
▁tecnicamente	-11.7187
▁torvalds	-11.7187
▁abolicionista	-11.7187
▁alcácer	-11.7187
▁apelidado	-11.7187
▁enclave	-11.7187
▁providencia	-11.7187
▁recombina	-11.7187
▁ribeirinha	-11.7187
▁rodrigo	-11.7187
▁sensibilidade	-11.7187
▁vitorioso	-11.7187
▁cineasta	-11.7187
▁entorno	-11.7187
▁puerto	-11.7187
▁concebida	-11.7188
▁desemboca	-11.7188
▁incluíram	-11.7188
▁fonseca	-11.7188
▁recolhe	-11.7188
▁escasso	-11.7188
▁1892	-11.7188
▁reformista	-11.7188
▁resumo	-11.7188
▁adquire	-11.7188
▁secreção	-11.7188
▁infecta	-11.7188
▁psicológica	-11.7188
▁jaime	-11.7188
▁jato	-11.7188
▁íman	-11.7188
▁elaborar	-11.7188
▁vizinhança	-11.7189
▁instituída	-11.7189
▁gaspar	-11.7189
▁anarco	-11.719
▁wilson	-11.719
▁ronald	-11.719
▁normandos	-11.719
▁litros	-11.719
▁veneno	-11.719
▁bahá	-11.7191
▁barata	-11.7192
▁aborto	-11.7193
▁valência	-11.7195
▁catalisador	-11.7197
▁severo	-11.7197
▁pavimentadas	-11.7198
▁pacific	-11.7203
▁0,7	-11.7204
▁autorização	-11.7211
▁13%	-11.7214
▁fundar	-11.7214
▁desempenhar	-11.7214
▁importados	-11.7219
▁caule	-11.7226
▁expo	-11.7227
escu	-11.7228
canto	-11.7232
▁ativação	-11.7232
▁piores	-11.7233
▁optar	-11.7236
▁adiciona	-11.7237
▁circundante	-11.7238
▁rama	-11.7241
▁desejava	-11.7242
▁cortada	-11.7243
8)	-11.725
pata	-11.725
▁banhado	-11.7258
▁coroado	-11.7262
▁universalmente	-11.7266
até	-11.7267
pente	-11.7268
▁caí	-11.7278
▁privilegiada	-11.729
aids	-11.7295
chamado	-11.7296
compartilhamento	-11.7303
▁movem	-11.7305
▁nervos	-11.7308
▁egípcio	-11.7312
▁válido	-11.7312
▁economista	-11.7312
▁envolvida	-11.7312
▁remanescente	-11.7312
▁bern	-11.7312
▁duro	-11.7322
▁matando	-11.7326
▁financiar	-11.733
▁provocada	-11.7333
▁ensinado	-11.734
▁dista	-11.7341
▁kara	-11.7354
▁invadir	-11.736
▁esperar	-11.7362
▁introduzir	-11.7362
▁0,5	-11.7364
almodôvar	-11.7366
▁apogeu	-11.7366
▁balcãs	-11.7366
▁bárbaro	-11.7366
▁cronologia	-11.7366
▁currículo	-11.7366
▁dinamarquesa	-11.7366
▁dispersão	-11.7366
▁foguetes	-11.7366
▁futsal	-11.7366
▁hereditariedade	-11.7366
▁higiene	-11.7366
▁intestino	-11.7366
▁lampião	-11.7366
▁montevidéu	-11.7366
▁norueguesa	-11.7366
▁perímetro	-11.7366
▁pronúncia	-11.7366
▁próspera	-11.7366
▁selecção	-11.7366
▁sugerindo	-11.7366
▁tailandesa	-11.7366
▁tragédia	-11.7366
▁tripulação	-11.7366
▁truffaut	-11.7366
▁vínculo	-11.7366
▁óptico	-11.7366
▁andrew	-11.7366
▁matricula	-11.7366
▁sensíveis	-11.7366
▁taxon	-11.7366
▁impediu	-11.7366
▁sensível	-11.7366
▁suspende	-11.7366
▁rubens	-11.7366
▁claude	-11.7366
▁viúva	-11.7366
▁arsênio	-11.7366
▁duplo	-11.7366
▁estância	-11.7366
▁lewis	-11.7366
▁fissão	-11.7366
▁consultor	-11.7366
▁donatário	-11.7366
▁fãs	-11.7366
▁temperada	-11.7367
▁detrimento	-11.7367
▁hostilidade	-11.7368
▁cantões	-11.7368
▁caldeira	-11.7369
▁publicidade	-11.7369
▁feudalismo	-11.7372
▁josef	-11.7372
▁caíram	-11.7376
cepção	-11.7376
▁atacaram	-11.7377
▁1877	-11.7377
▁1876	-11.7377
▁habitações	-11.7378
▁gru	-11.7378
▁barbados	-11.7379
▁promete	-11.7379
▁1834	-11.7383
▁alegações	-11.7384
▁yoshi	-11.7385
▁colombiano	-11.7387
▁pescado	-11.7391
('	-11.7391
▁documentada	-11.7392
▁helena	-11.7393
▁existiram	-11.7393
_10	-11.7393
▁movendo	-11.7394
▁aproximada	-11.7398
▁inventado	-11.74
▁saxões	-11.7409
▁popularização	-11.741
▁exista	-11.7412
▁verdadeiramente	-11.7413
▁black	-11.7414
ball	-11.7416
▁pluri	-11.7417
▁demonstram	-11.7419
ónia	-11.7421
▁potencialmente	-11.7423
▁caridade	-11.7424
▁levava	-11.743
▁modifica	-11.7437
▁chamaram	-11.7439
▁128	-11.7443
▁compreendendo	-11.7443
queira	-11.7452
lier	-11.7452
mbros	-11.7456
▁cé	-11.7459
▁criativa	-11.746
▁concentrar	-11.7463
▁colocam	-11.7467
rote	-11.7469
▁cristal	-11.747
socialista	-11.7475
econômica	-11.7475
três	-11.7479
▁law	-11.7481
ibge	-11.7483
mani	-11.7483
fusão	-11.7485
cura	-11.7488
hat	-11.7496
▁orgânico	-11.7498
▁preocupado	-11.7503
▁lumi	-11.7513
geralmente	-11.7515
gravou	-11.7528
▁apaixona	-11.7548
▁aristotélica	-11.7548
▁armênia	-11.7548
▁beethoven	-11.7548
▁beisebol	-11.7548
▁bielorrusso	-11.7548
▁burquina	-11.7548
▁dividindo	-11.7548
▁eucariótica	-11.7548
▁eurodeputados	-11.7548
▁farmacêutico	-11.7548
▁fraqueza	-11.7548
▁heródoto	-11.7548
▁ludwig	-11.7548
▁mediterrânico	-11.7548
▁mitocôndria	-11.7548
▁nordestino	-11.7548
▁protagonista	-11.7548
▁renascença	-11.7548
▁reunificação	-11.7548
▁simplicidade	-11.7548
▁sintaxe	-11.7548
▁stallman	-11.7548
▁subterrâneo	-11.7548
▁teatrais	-11.7548
▁temporariamente	-11.7548
▁ucraniana	-11.7548
▁zimbábue	-11.7548
▁álgebra	-11.7548
▁comunitário	-11.7548
▁defendido	-11.7548
▁expressiva	-11.7548
▁jazz	-11.7548
▁pérsia	-11.7548
▁tectônica	-11.7548
▁máscara	-11.7548
▁garantido	-11.7548
▁oferecia	-11.7548
▁tycho	-11.7548
▁empresarial	-11.7548
▁coerente	-11.7548
▁buscou	-11.7548
▁comissário	-11.7548
▁dissipa	-11.7548
▁argila	-11.7548
▁feliz	-11.7548
▁dividia	-11.7548
▁islandesa	-11.7548
▁evacua	-11.7548
▁distancia	-11.7549
▁atacou	-11.7549
▁perfura	-11.7549
▁alegou	-11.7549
▁alcorão	-11.7549
▁plantio	-11.7549
▁imune	-11.7549
▁lesões	-11.7549
▁flash	-11.755
▁tardio	-11.755
▁contido	-11.755
▁confusão	-11.7551
▁misturado	-11.7552
▁noutro	-11.7552
áceas	-11.7553
▁instalaram	-11.7554
▁exalta	-11.7555
▁errado	-11.7557
host	-11.7558
▁compilador	-11.756
▁contida	-11.756
▁documentário	-11.7561
▁determinam	-11.7562
▁pronto	-11.7564
▁trofa	-11.7565
▁herzegovina	-11.7566
▁pcp	-11.7566
ómica	-11.7569
▁lucas	-11.7571
▁socio	-11.7571
▁reservatório	-11.7572
▁saga	-11.7572
▁celebração	-11.7572
▁sobrenome	-11.7573
▁desapareceu	-11.7575
▁concordaram	-11.7576
▁semestre	-11.7577
▁especificação	-11.7578
▁126	-11.7582
▁atualização	-11.7587
▁residem	-11.7588
pendi	-11.7589
▁caracterização	-11.7592
▁investir	-11.7599
▁acentua	-11.7618
▁olhar	-11.762
tier	-11.7627
▁apreciado	-11.7629
iforme	-11.7635
▁1,6	-11.7636
beck	-11.7642
▁encontramos	-11.7647
▁godos	-11.7649
substancialmente	-11.7651
tung	-11.7652
▁substitui	-11.7656
campeonato	-11.766
equilíbrio	-11.766
primeira	-11.7661
▁cessa	-11.7664
▁contesta	-11.7664
script	-11.7664
lama	-11.7671
▁propor	-11.7674
▁divulgar	-11.7677
[...]
