<unk>	0
<s>	0
</s>	0
,	-3.09469
▁de	-3.27029
s	-3.33677
▁a	-3.52714
.	-3.55353
▁e	-3.78176
▁o	-3.90491
▁do	-4.31096
▁da	-4.40335
▁em	-4.43142
▁que	-4.5547
▁	-4.70291
r	-5.01818
-	-5.05035
▁com	-5.07929
▁um	-5.08582
▁é	-5.11874
▁no	-5.13547
▁uma	-5.15462
▁os	-5.16266
▁"	-5.18078
▁na	-5.23136
▁para	-5.23806
▁por	-5.36366
m	-5.38241
▁como	-5.40478
▁(	-5.41353
"	-5.42314
▁se	-5.64765
▁as	-5.6543
se	-5.69171
▁dos	-5.72189
u	-5.75327
▁mais	-5.77106
▁foi	-5.78974
do	-5.79026
o	-5.85887
▁##	-5.89143
▁são	-5.89567
▁ao	-5.93076
a	-5.95378
da	-5.95511
ndo	-6.07336
▁não	-6.11509
)	-6.12027
▁ou	-6.16156
ção	-6.18323
▁à	-6.19045
▁sua	-6.20343
▁das	-6.20938
▁entre	-6.27006
c	-6.27942
:	-6.31911
l	-6.35383
▁também	-6.43583
▁pela	-6.45289
▁ser	-6.45333
es	-6.4542
ram	-6.46337
),	-6.47004
n	-6.50853
▁seu	-6.51759
▁pelo	-6.5315
="	-6.53159
t	-6.54688
▁país	-6.57218
mente	-6.60418
va	-6.62274
e	-6.63898
",	-6.64964
;	-6.65505
i	-6.65625
dos	-6.67871
▁re	-6.69973
na	-6.70831
to	-6.7678
í	-6.7823
de	-6.8068
te	-6.81982
la	-6.82771
ções	-6.82846
ta	-6.83442
▁anos	-6.85201
▁maior	-6.86146
▁mas	-6.86772
).	-6.8686
d	-6.86933
▁tem	-6.8718
p	-6.87356
▁in	-6.8772
▁era	-6.90415
das	-6.916
▁foram	-6.92245
ca	-6.92981
co	-6.95531
is	-6.95884
▁parte	-6.96573
lo	-6.97473
no	-6.97605
▁estado	-6.98163
ma	-6.98249
▁grande	-6.98322
ra	-6.98785
▁até	-7.02173
▁sobre	-7.05367
".	-7.07744
▁ele	-7.08333
re	-7.08452
▁outros	-7.10412
g	-7.10458
▁18	-7.10925
di	-7.11593
/	-7.13275
b	-7.15052
|	-7.15938
▁forma	-7.16391
▁sendo	-7.17524
▁sul	-7.17929
▁durante	-7.18343
▁população	-7.19066
le	-7.19595
▁cidade	-7.20538
y	-7.20689
▁nos	-7.22312
▁con	-7.22729
doc	-7.23105
ria	-7.23644
▁governo	-7.23934
>	-7.23998
▁pode	-7.2567
ti	-7.25705
ou	-7.25871
ce	-7.25875
▁seus	-7.26022
▁nas	-7.26713
▁mundo	-7.28015
▁quando	-7.2817
▁região	-7.29627
▁norte	-7.2983
que	-7.30811
ia	-7.30896
▁sistema	-7.32307
li	-7.32408
pa	-7.32906
ro	-7.34504
f	-7.3566
▁1	-7.35743
▁ainda	-7.36283
os	-7.36513
▁ma	-7.36536
ga	-7.39131
me	-7.40609
▁mesmo	-7.40774
ne	-7.41392
ri	-7.41439
idade	-7.41816
vi	-7.43464
▁após	-7.44497
al	-7.45392
em	-7.46005
▁primeiro	-7.46222
▁século	-7.46302
ismo	-7.46824
nte	-7.46924
▁desde	-7.47405
▁esta	-7.47701
▁está	-7.47787
▁cerca	-7.48244
▁nacional	-7.48717
ar	-7.48892
▁onde	-7.48936
▁muito	-7.49149
▁além	-7.49432
h	-7.50026
z	-7.50213
▁brasil	-7.5067
▁outras	-7.51238
▁este	-7.51265
▁c	-7.51514
▁apenas	-7.5176
▁guerra	-7.51936
▁rio	-7.52723
▁suas	-7.53043
▁dois	-7.53377
á	-7.54084
▁ano	-7.5421
sa	-7.54676
▁já	-7.55438
▁nome	-7.56508
▁primeira	-7.56531
pe	-7.56814
v	-7.57911
▁estados	-7.58303
pt	-7.58546
ve	-7.59505
er	-7.59625
mo	-7.59667
ba	-7.60028
▁ca	-7.60055
2	-7.60188
ão	-7.60409
▁alguns	-7.61017
po	-7.61087
▁há	-7.61645
▁área	-7.62145
▁história	-7.63426
am	-7.63472
▁d	-7.64332
▁mil	-7.64354
▁co	-7.64459
▁contra	-7.64511
▁cada	-7.64905
k	-7.65276
▁depois	-7.66312
▁vi	-7.66462
▁aos	-7.67058
▁i	-7.67105
▁todos	-7.67202
in	-7.67441
▁mar	-7.67484
▁países	-7.67528
▁assim	-7.6772
▁ter	-7.67793
▁vez	-7.68053
▁segundo	-7.68392
▁ex	-7.68788
ci	-7.69238
▁mo	-7.69275
so	-7.69726
▁três	-7.71631
vam	-7.71965
▁pro	-7.72599
▁podem	-7.72639
é	-7.72887
org	-7.7328
▁sa	-7.73514
ntes	-7.73614
▁pelos	-7.73713
▁período	-7.73967
▁vida	-7.74213
▁sido	-7.74256
▁partir	-7.74602
▁enquanto	-7.74917
▁pre	-7.75481
x	-7.75659
res	-7.75807
ú	-7.76543
▁número	-7.76721
ni	-7.76781
go	-7.78728
▁tempo	-7.79433
▁exemplo	-7.79697
▁através	-7.79867
▁maioria	-7.7991
▁embora	-7.80546
▁per	-7.8073
▁la	-7.80787
▁pessoas	-7.8116
?	-7.8193
▁al	-7.81968
▁id	-7.82119
▁qual	-7.82252
▁m	-7.82422
▁2	-7.82679
tu	-7.82822
tos	-7.82922
▁3	-7.82999
ter	-7.83762
▁ba	-7.83877
▁acordo	-7.84648
▁li	-7.84774
▁desenvolvimento	-7.85052
en	-7.85214
▁política	-7.8548
fa	-7.85862
▁duas	-7.85866
wiki	-7.86168
▁nova	-7.86229
▁di	-7.86405
▁milhões	-7.86462
▁estão	-7.8697
▁principais	-7.87009
▁então	-7.87159
ver	-7.87195
▁economia	-7.87522
ir	-7.88421
▁ilha	-7.89234
▁("	-7.89436
mi	-7.9005
▁bem	-7.90072
▁categori	-7.90181
▁muitos	-7.90885
mento	-7.91042
▁ra	-7.91082
▁eram	-7.91191
▁-	-7.91558
▁url	-7.91959
://	-7.92142
curid	-7.92576
ado	-7.92915
wikipedia	-7.92939
https	-7.93029
▁4	-7.93253
▁<	-7.93261
▁title	-7.93268
▁</	-7.93384
▁república	-7.93606
▁sem	-7.93857
▁habitantes	-7.93975
▁pa	-7.94199
▁terra	-7.94381
ista	-7.94401
▁sob	-7.94411
▁15	-7.9495
▁possui	-7.95295
ação	-7.95794
▁têm	-7.95859
▁território	-7.96102
▁5	-7.96508
▁vários	-7.96575
▁vezes	-7.9675
on	-7.9725
▁su	-7.97633
▁muitas	-7.97805
▁poder	-7.98043
▁devido	-7.98074
ada	-7.9808
an	-7.98346
▁dia	-7.98599
▁unidos	-7.98728
▁algumas	-7.98767
▁me	-7.99295
▁reino	-7.99376
▁às	-7.9938
▁centro	-7.99509
▁—	-8.00128
▁mundial	-8.0014
▁início	-8.00242
vo	-8.00339
du	-8.00864
▁si	-8.01171
▁meio	-8.01277
▁todo	-8.01319
▁ro	-8.0155
▁entanto	-8.02153
5	-8.03495
bo	-8.03596
▁sub	-8.04179
ja	-8.04308
▁le	-8.04386
us	-8.04483
pi	-8.04563
▁isso	-8.04567
]]	-8.0478
ões	-8.04964
▁várias	-8.04988
▁km	-8.04992
ê	-8.06264
ge	-8.06324
▁outro	-8.06509
▁igreja	-8.07504
dores	-8.07879
▁principalmente	-8.08371
bu	-8.08429
▁seja	-8.08508
▁tornou	-8.08586
gi	-8.08602
▁g	-8.09087
fi	-8.09275
▁[[	-8.09302
▁rei	-8.09318
▁17	-8.0963
w	-8.09897
ch	-8.09963
▁ilhas	-8.10365
▁água	-8.10423
▁capital	-8.10568
▁longo	-8.10599
▁média	-8.10943
▁internacional	-8.10946
▁união	-8.11181
as	-8.11289
▁presidente	-8.11487
=	-8.11515
▁produção	-8.11642
dia	-8.11682
▁grandes	-8.12718
ita	-8.12741
▁car	-8.12872
▁europa	-8.13562
tiva	-8.13574
▁menos	-8.137
▁uso	-8.13703
▁pe	-8.13704
▁en	-8.13988
▁grupo	-8.14394
▁império	-8.144
▁município	-8.14433
▁ga	-8.14563
3	-8.14615
be	-8.14905
▁movimento	-8.15059
▁época	-8.15214
ng	-8.15328
ó	-8.15412
dor	-8.1543
▁16	-8.15627
1	-8.15912
▁língua	-8.15915
▁década	-8.16146
▁importante	-8.16483
▁trabalho	-8.16796
▁cultura	-8.17015
tas	-8.17113
bi	-8.17174
▁formula	-8.17337
▁final	-8.17653
▁principal	-8.18029
▁portugal	-8.18148
▁fi	-8.18438
'	-8.18479
ização	-8.18731
▁cor	-8.18976
ça	-8.1933
7	-8.19345
▁lei	-8.19601
cu	-8.19958
nha	-8.20085
tra	-8.20278
▁bo	-8.20325
▁essa	-8.20372
tro	-8.20749
▁p	-8.21061
▁eles	-8.21628
istas	-8.21808
▁conta	-8.22001
▁segunda	-8.22106
nos	-8.2268
▁energia	-8.22811
▁quais	-8.23222
▁origem	-8.23452
▁antes	-8.23561
▁todas	-8.23628
▁processo	-8.23952
▁10	-8.2418
▁novo	-8.2471
▁teoria	-8.24853
qui	-8.24943
▁6	-8.2506
▁ta	-8.2509
▁total	-8.25258
nd	-8.25568
▁popular	-8.25574
▁7	-8.25758
▁base	-8.25944
▁diferentes	-8.26277
▁tendo	-8.26626
▁tinha	-8.26639
cor	-8.27455
▁fa	-8.27882
▁janeiro	-8.28203
▁apesar	-8.28771
▁central	-8.29502
▁social	-8.29654
▁espécies	-8.29727
▁maiores	-8.29741
tivo	-8.29934
▁universidade	-8.3027
gu	-8.30292
um	-8.30458
▁qualquer	-8.30504
▁áreas	-8.30851
▁hoje	-8.30996
▁freguesia	-8.3113
▁po	-8.31382
nt	-8.31915
con	-8.31918
▁regiões	-8.3194
▁quatro	-8.32056
rá	-8.32244
")	-8.32322
▁b	-8.32446
▁conhecido	-8.32507
▁américa	-8.32539
▁porto	-8.32837
▁partido	-8.32936
▁volta	-8.33245
▁quase	-8.33254
▁vila	-8.33277
man	-8.33382
▁esse	-8.33456
▁existem	-8.33676
▁so	-8.33715
tri	-8.34103
▁grupos	-8.34287
bra	-8.34373
▁causa	-8.3449
▁sol	-8.3461
ka	-8.35312
it	-8.35663
▁geral	-8.3571
▁t	-8.36449
cia	-8.366
io	-8.36852
▁disso	-8.36878
tor	-8.3706
fe	-8.37075
▁f	-8.37404
▁inter	-8.3741
▁estrutura	-8.37691
são	-8.37755
▁te	-8.37854
▁termo	-8.37905
▁incluindo	-8.38088
▁só	-8.38177
▁relação	-8.38437
▁geralmente	-8.38977
▁k	-8.39219
▁fim	-8.39359
▁havia	-8.39958
▁alta	-8.40461
▁morte	-8.40581
▁europeia	-8.40755
▁força	-8.40766
▁frança	-8.40995
▁local	-8.41346
▁ar	-8.41457
▁cidades	-8.42018
cio	-8.42277
rem	-8.42931
nta	-8.42955
▁mi	-8.4297
▁12	-8.44018
▁9	-8.44063
fo	-8.4411
ha	-8.44193
▁portuguesa	-8.44338
▁corpo	-8.44431
nto	-8.44514
amento	-8.44588
che	-8.44677
▁conjunto	-8.44703
▁8	-8.44857
lha	-8.44886
▁sociedade	-8.44912
▁natural	-8.45057
▁membros	-8.4515
▁áfrica	-8.45377
si	-8.45378
cha	-8.45439
▁educação	-8.45562
▁num	-8.45891
el	-8.4595
▁dentro	-8.46066
▁caso	-8.46324
ário	-8.46523
▁influência	-8.46614
▁costa	-8.46735
▁pi	-8.46805
▁música	-8.46863
▁teve	-8.47044
▁lado	-8.47167
▁outra	-8.47445
▁toda	-8.47489
per	-8.4753
▁pouco	-8.47567
za	-8.47637
▁tal	-8.47828
▁casa	-8.47995
▁14	-8.48296
▁atual	-8.48311
lu	-8.48948
▁crescimento	-8.49133
ais	-8.49271
car	-8.49306
▁porém	-8.49505
▁leste	-8.49535
▁atualmente	-8.49911
▁ho	-8.49967
▁saúde	-8.5016
eira	-8.50184
pro	-8.50189
▁tri	-8.50305
▁ponto	-8.50415
▁deve	-8.50649
▁for	-8.5067
▁idade	-8.50774
ô	-8.50955
▁rede	-8.51247
▁estudo	-8.51334
ck	-8.51501
▁tanto	-8.51714
▁religião	-8.51915
▁chamado	-8.51995
▁nível	-8.52119
▁forças	-8.52361
6	-8.52376
▁militar	-8.52733
▁ciência	-8.52773
or	-8.53011
▁dados	-8.53551
▁lo	-8.53796
il	-8.53797
▁mesma	-8.54113
▁ce	-8.54261
ente	-8.54365
▁organização	-8.5477
▁bi	-8.55018
▁campo	-8.55127
▁ha	-8.55276
0	-8.55286
mos	-8.55348
tou	-8.55616
▁direito	-8.55648
▁tra	-8.55963
ten	-8.56029
▁importantes	-8.5611
ados	-8.56138
▁oeste	-8.56153
▁tipo	-8.5643
▁dias	-8.56486
ida	-8.56684
4	-8.56848
j	-8.56945
th	-8.56995
▁quanto	-8.57172
▁primeiros	-8.58007
▁estava	-8.58079
▁passou	-8.58368
▁ocidental	-8.58489
▁cinco	-8.58503
▁independência	-8.58511
▁sal	-8.58523
▁arte	-8.58533
▁ju	-8.5877
▁go	-8.58811
▁sistemas	-8.58983
▁pois	-8.59111
jo	-8.59143
▁comum	-8.59539
▁ela	-8.59599
ina	-8.59748
▁santa	-8.5981
▁china	-8.59952
▁clima	-8.60043
▁paulo	-8.60113
sta	-8.60291
ência	-8.60508
qu	-8.6076
los	-8.60981
ssa	-8.6129
▁massa	-8.61463
▁trans	-8.61675
▁11	-8.62022
cre	-8.62527
tes	-8.62561
▁19	-8.62637
▁obra	-8.6279
▁be	-8.62837
▁bar	-8.62904
▁dis	-8.62972
mar	-8.63267
▁deus	-8.63554
▁faz	-8.63562
▁lugar	-8.63589
▁nações	-8.63596
▁ve	-8.63671
▁seria	-8.63735
las	-8.64226
▁taxa	-8.65019
8	-8.65048
gem	-8.65669
▁man	-8.65675
▁20	-8.65844
▁alemanha	-8.65903
▁ti	-8.65969
▁ensino	-8.66433
▁numa	-8.66443
▁ni	-8.66478
▁cu	-8.66544
▁relações	-8.66585
▁federal	-8.67271
▁sede	-8.67328
▁apresenta	-8.67355
ros	-8.67369
▁indústria	-8.67378
▁lu	-8.6742
▁superior	-8.6749
▁tarde	-8.67527
▁h	-8.67661
▁melhor	-8.67677
iu	-8.67696
et	-8.67713
▁incluem	-8.6773
▁concelho	-8.67739
▁família	-8.67751
lt	-8.67751
▁real	-8.67864
▁construção	-8.67884
zi	-8.67939
▁par	-8.68055
▁hi	-8.68079
▁conhecida	-8.68149
▁comércio	-8.68347
par	-8.68482
▁to	-8.68501
▁desta	-8.68553
▁livre	-8.68557
ul	-8.68614
▁constituição	-8.68836
▁unido	-8.68927
rio	-8.69405
▁série	-8.69514
▁significa	-8.69544
▁único	-8.69748
▁valor	-8.69843
▁ver	-8.69948
▁começou	-8.70033
▁mercado	-8.7006
sse	-8.70099
nas	-8.7013
im	-8.70321
▁estes	-8.70496
via	-8.70909
tar	-8.70914
min	-8.71
▁jogos	-8.71014
▁diversos	-8.71328
des	-8.71608
▁13	-8.71842
9	-8.71953
ido	-8.71959
▁física	-8.72114
ana	-8.72259
▁pesquisa	-8.72282
lhe	-8.72513
iana	-8.72668
▁“	-8.73057
▁modo	-8.73191
▁animais	-8.73267
▁x	-8.73281
▁células	-8.73372
ária	-8.73384
▁elementos	-8.73432
▁(19	-8.73454
▁antiga	-8.73622
▁ordem	-8.73666
00	-8.73683
▁0	-8.73803
ço	-8.73959
▁oficial	-8.7402
▁tratado	-8.74124
▁programa	-8.74218
▁distrito	-8.74228
▁temperatura	-8.74331
"),	-8.74411
gre	-8.74628
ment	-8.74634
je	-8.74664
▁chamada	-8.74802
ton	-8.75147
▁conquista	-8.75475
▁papel	-8.75486
▁usado	-8.75611
▁joão	-8.75679
▁tais	-8.75991
▁locais	-8.76225
▁vale	-8.76284
cas	-8.76305
▁interior	-8.7631
▁gra	-8.76558
▁criação	-8.76589
▁diversas	-8.76813
nda	-8.76935
st	-8.77193
▁menor	-8.77358
▁sempre	-8.77439
▁considerado	-8.7758
▁liga	-8.77703
mina	-8.7793
▁brasileiro	-8.78022
_	-8.78215
▁encontra	-8.784
▁comunidade	-8.78413
ã	-8.78527
mu	-8.78641
▁espaço	-8.78681
▁povo	-8.78689
▁linha	-8.7875
▁alto	-8.78955
▁isto	-8.79168
▁especialmente	-8.79471
▁planeta	-8.79485
xi	-8.79522
%	-8.79558
▁produtos	-8.79657
▁aproximadamente	-8.79668
▁cultural	-8.79739
▁he	-8.79801
▁humanos	-8.79961
ing	-8.7998
▁ri	-8.80083
▁afirma	-8.80467
▁inglês	-8.80498
cho	-8.80593
▁fato	-8.80641
▁conselho	-8.80673
▁mu	-8.80796
▁características	-8.80813
▁próprio	-8.81018
▁deste	-8.81074
ru	-8.81302
adas	-8.81374
cri	-8.81386
▁continua	-8.81453
▁livro	-8.81536
▁exército	-8.81639
▁possível	-8.81639
un	-8.81881
▁maio	-8.81989
▁her	-8.82018
ica	-8.82176
pu	-8.82227
▁natureza	-8.82259
cos	-8.82261
ste	-8.82319
▁papa	-8.82346
▁cha	-8.82539
ex	-8.82605
▁000	-8.82811
▁cal	-8.82972
▁ja	-8.83126
▁can	-8.83211
▁posição	-8.83257
▁serra	-8.83363
▁esses	-8.83571
ho	-8.83635
por	-8.83646
com	-8.83682
▁ci	-8.83797
rra	-8.83851
pre	-8.8396
▁revolução	-8.83963
ndi	-8.84013
▁outubro	-8.84052
nho	-8.84104
&	-8.84141
sso	-8.84338
▁fora	-8.84368
ários	-8.84399
▁du	-8.84526
▁serviços	-8.84817
▁forte	-8.8483
▁controle	-8.8487
▁solar	-8.85117
▁resultado	-8.85212
son	-8.85359
▁japão	-8.85418
tá	-8.85658
▁auto	-8.8572
▁hu	-8.85765
▁existe	-8.8598
ven	-8.86025
▁ocorre	-8.86151
▁°	-8.86276
▁ru	-8.86481
▁núcleo	-8.86498
tivos	-8.86688
fica	-8.86697
▁julho	-8.86728
▁fez	-8.86925
▁ambiente	-8.87
▁somente	-8.87046
▁público	-8.87303
▁terras	-8.87351
▁futebol	-8.87362
▁ne	-8.87387
fer	-8.87445
▁bu	-8.87547
▁sociais	-8.87643
▁única	-8.87644
ática	-8.87648
eiro	-8.87719
gra	-8.87808
ut	-8.87839
ll	-8.87893
ável	-8.87912
▁varia	-8.88213
tina	-8.8822
gen	-8.88252
▁aumento	-8.88492
▁antigo	-8.88499
ur	-8.88531
tores	-8.88555
▁função	-8.88678
til	-8.88688
▁im	-8.88715
▁escola	-8.88787
▁formação	-8.89069
▁especial	-8.89391
▁português	-8.89675
▁neste	-8.89751
cer	-8.89851
▁moderna	-8.8989
▁filho	-8.89927
lho	-8.90006
▁possuem	-8.90015
▁junto	-8.90143
▁inclui	-8.9017
mas	-8.90262
tão	-8.9034
▁essas	-8.90461
▁línguas	-8.90486
▁v	-8.90491
▁brasileira	-8.90524
▁conhecimento	-8.90593
▁xix	-8.90714
wa	-8.90843
▁dezembro	-8.90883
▁eleições	-8.90885
50	-8.90938
▁recursos	-8.91073
▁porque	-8.91074
▁portanto	-8.91088
▁fazer	-8.91158
izado	-8.91259
▁obras	-8.91322
▁u	-8.91335
▁domínio	-8.91343
▁termos	-8.91387
id	-8.91641
▁agosto	-8.91665
▁oceano	-8.91665
ya	-8.9194
▁palavra	-8.92007
▁entretanto	-8.92151
▁político	-8.92166
tal	-8.92258
tação	-8.92282
iano	-8.92294
ger	-8.924
▁projeto	-8.92573
sto	-8.92745
▁junho	-8.92859
ju	-8.93111
▁anti	-8.9321
▁–	-8.93482
nia	-8.93517
nce	-8.93568
gue	-8.93701
”	-8.9375
at	-8.93876
▁direitos	-8.93902
tin	-8.93983
▁seguinte	-8.94112
▁ka	-8.94173
▁ii	-8.94349
gar	-8.94365
▁agricultura	-8.94533
▁militares	-8.9478
▁passa	-8.94842
▁san	-8.94974
ze	-8.94979
▁zona	-8.94986
▁maneira	-8.95013
ito	-8.9509
bre	-8.95095
▁itália	-8.95137
▁índia	-8.95137
der	-8.95219
▁civil	-8.95411
▁fronteira	-8.95472
▁densidade	-8.95545
▁industrial	-8.95701
▁tecnologia	-8.95938
▁espanha	-8.96051
ig	-8.96147
▁econômica	-8.9618
eu	-8.96183
▁xx	-8.96372
10	-8.96525
hi	-8.9671
▁naturais	-8.96753
▁tenha	-8.96816
▁presença	-8.97179
▁homens	-8.9718
▁abril	-8.97288
men	-8.97366
▁setembro	-8.97386
▁francês	-8.97489
▁quantidade	-8.97491
▁l	-8.97553
▁últimos	-8.97733
▁março	-8.97756
ân	-8.97967
▁torna	-8.97995
▁superfície	-8.98008
▁ocupa	-8.98086
▁literatura	-8.98112
lin	-8.98308
ry	-8.98384
bri	-8.98595
▁fe	-8.98858
▁via	-8.9905
▁parlamento	-8.99053
▁soviética	-8.99158
▁apoio	-8.99162
sas	-8.99197
▁rea	-8.99247
ns	-8.99267
tura	-8.99414
▁novembro	-8.99475
▁museu	-8.99478
▁tipos	-8.9962
tado	-8.99644
▁independente	-8.99658
▁escolas	-8.99711
▁inglaterra	-8.99898
▁30	-8.99988
);	-9.00072
(	-9.0016
chi	-9.00197
▁lisboa	-9.00216
▁metade	-9.00272
zo	-9.00334
▁sentido	-9.00429
▁estas	-9.00432
tur	-9.00499
ad	-9.00577
20	-9.00596
▁tu	-9.00725
▁ouro	-9.0079
▁setor	-9.00863
tr	-9.00917
▁humano	-9.01088
▁pib	-9.0109
he	-9.01119
▁existência	-9.01237
").	-9.01257
sh	-9.01375
▁romano	-9.01518
▁regime	-9.0158
▁pré	-9.01957
▁criado	-9.01966
▁luz	-9.0201
rt	-9.02025
▁atividade	-9.02229
▁santo	-9.02235
▁roma	-9.02279
▁problemas	-9.0231
▁seis	-9.02353
▁micro	-9.02381
ssem	-9.02495
▁mor	-9.02615
▁jo	-9.02665
▁capacidade	-9.02693
▁representa	-9.02721
fu	-9.02873
▁cuja	-9.03067
▁uni	-9.03139
▁pedro	-9.03239
▁francesa	-9.03256
▁autor	-9.03271
▁transporte	-9.0334
▁levou	-9.0336
stra	-9.03516
▁reforma	-9.03594
fin	-9.03605
▁séculos	-9.03642
▁estudos	-9.03783
vida	-9.03854
ko	-9.0396
▁própria	-9.04141
nde	-9.04221
▁vista	-9.04459
5%	-9.04687
land	-9.04745
▁bastante	-9.04785
▁fra	-9.04843
ber	-9.04929
▁and	-9.04942
▁segurança	-9.04948
▁internacionais	-9.05013
▁pública	-9.05175
▁freguesias	-9.05238
▁logo	-9.05309
mor	-9.05395
▁mostra	-9.05438
▁oriental	-9.05556
▁houve	-9.05569
▁plano	-9.05575
▁men	-9.05731
ntre	-9.0578
tion	-9.05809
▁significativa	-9.05863
cou	-9.05911
▁importância	-9.06016
ró	-9.06025
▁destaca	-9.06166
lia	-9.06182
▁n	-9.06286
▁formas	-9.06504
▁nesse	-9.06508
qua	-9.06557
▁econômico	-9.06751
▁mulheres	-9.06767
▁políticas	-9.06812
▁condições	-9.0715
ico	-9.07171
▁empresas	-9.07189
inha	-9.07211
▁leva	-9.07495
▁sucesso	-9.07545
▁novas	-9.07568
▁verde	-9.07643
▁mon	-9.07682
▁an	-9.07723
▁posteriormente	-9.07764
▁modelo	-9.07876
▁rússia	-9.08065
pen	-9.08082
▁prática	-9.08118
▁metros	-9.08768
eiros	-9.08772
nça	-9.08919
▁fonte	-9.08928
▁último	-9.08949
▁josé	-9.09107
▁considerada	-9.09234
▁busca	-9.0925
▁assembleia	-9.09266
▁fer	-9.09389
▁conceito	-9.09681
▁of	-9.09713
cl	-9.0974
tan	-9.09884
▁tradição	-9.09923
▁data	-9.10003
the	-9.1004
ando	-9.10079
▁pai	-9.10114
▁the	-9.10187
▁cujo	-9.10304
áveis	-9.10337
▁aeroporto	-9.1051
▁continente	-9.1051
▁análise	-9.10568
ura	-9.1058
▁acima	-9.10761
▁monte	-9.1077
▁filosofia	-9.10801
▁povos	-9.10877
gente	-9.10934
bil	-9.11084
▁momento	-9.11093
▁tinham	-9.11101
lar	-9.11106
▁mal	-9.11124
nal	-9.11157
▁municípios	-9.11217
mentos	-9.11272
▁baixa	-9.11277
▁25	-9.11297
30	-9.11314
▁fo	-9.11386
nu	-9.11394
▁luta	-9.11427
▁fica	-9.11441
ano	-9.11501
▁espécie	-9.11629
ino	-9.11715
mb	-9.11756
▁turismo	-9.1196
▁objetivo	-9.12007
▁feito	-9.12132
▁plantas	-9.12243
▁pequena	-9.12251
ke	-9.12286
▁responsável	-9.12294
xa	-9.12331
▁elemento	-9.12412
▁criada	-9.12413
▁província	-9.12422
▁fu	-9.1261
▁acesso	-9.12658
▁novos	-9.12885
oso	-9.12887
▁atividades	-9.12897
mon	-9.13019
▁chefe	-9.13051
iro	-9.13177
▁defesa	-9.13266
":	-9.1334
▁lista	-9.13426
▁imperador	-9.13505
▁jogo	-9.1365
▁nesta	-9.13664
▁100	-9.14042
stru	-9.14111
ível	-9.14362
▁evolução	-9.14379
▁localizado	-9.145
▁estavam	-9.14542
▁ferro	-9.14614
dio	-9.14763
▁ambos	-9.14789
ral	-9.14825
▁código	-9.14846
▁homem	-9.14848
▁indica	-9.1485
▁vitória	-9.14999
▁ficou	-9.15
ic	-9.15069
▁lhe	-9.15155
té	-9.15274
2,	-9.15275
▁comunicação	-9.15387
▁frente	-9.15417
▁tradicional	-9.15676
ki	-9.15751
▁eleito	-9.15846
ie	-9.15918
▁pu	-9.15921
▁meses	-9.16018
▁dessa	-9.16183
▁petróleo	-9.16209
tivas	-9.16211
cent	-9.16242
▁marca	-9.16265
▁química	-9.16384
▁portugueses	-9.16459
▁partes	-9.16531
▁membro	-9.16567
rd	-9.16837
▁seguintes	-9.16859
▁começa	-9.17058
▁humana	-9.17094
▁serem	-9.17112
ag	-9.17159
rou	-9.17311
▁velocidade	-9.17338
▁médio	-9.17338
55	-9.17396
▁gerais	-9.17405
▁paris	-9.17414
ense	-9.17566
▁linguagem	-9.17717
▁divisão	-9.17717
▁parque	-9.17912
▁fal	-9.17916
▁poli	-9.18117
▁bor	-9.18159
▁disputa	-9.18225
gua	-9.18254
cional	-9.18269
▁liberdade	-9.18353
▁nordeste	-9.18864
▁minas	-9.18873
mer	-9.18911
ras	-9.18953
▁boa	-9.19183
▁visto	-9.19242
▁trata	-9.19377
▁qui	-9.19493
tório	-9.19513
bar	-9.19586
▁litoral	-9.19636
▁frequentemente	-9.19683
▁ajuda	-9.19944
▁europeus	-9.20083
▁católica	-9.20283
▁escala	-9.20287
icamente	-9.20407
▁ge	-9.20411
lé	-9.20555
▁grego	-9.20569
▁administrativa	-9.20764
▁políticos	-9.2092
▁interna	-9.21021
▁altitude	-9.21066
▁gás	-9.21103
▁unidade	-9.21268
▁medida	-9.21287
▁ásia	-9.21338
indo	-9.21579
▁instituições	-9.21591
▁simples	-9.21719
▁desse	-9.21842
cial	-9.21874
▁funções	-9.21922
▁instituto	-9.22385
▁jesus	-9.22386
▁corre	-9.22411
ct	-9.22576
ide	-9.22633
▁tão	-9.22831
▁geografia	-9.22923
▁populacional	-9.2305
▁tamanho	-9.2305
dr	-9.23094
mé	-9.23106
▁relativamente	-9.23108
▁maria	-9.23195
▁agora	-9.23195
▁24	-9.23227
izada	-9.23235
▁nem	-9.23264
▁qualidade	-9.23295
▁corte	-9.23296
▁produto	-9.23323
▁britânica	-9.23452
ré	-9.23612
val	-9.23722
mp	-9.23751
▁prêmio	-9.23855
can	-9.23886
▁concentra	-9.23923
▁fevereiro	-9.2399
vol	-9.23993
▁paz	-9.24025
ira	-9.24369
▁bilhões	-9.24531
▁normalmente	-9.24569
ine	-9.24635
▁cre	-9.24729
▁arquitetura	-9.24802
uro	-9.24829
▁argentina	-9.24938
▁aparece	-9.24942
▁unidas	-9.24944
▁ciclo	-9.25196
▁governador	-9.25207
▁nacionais	-9.25273
40	-9.25366
sia	-9.25515
▁leis	-9.2571
▁composta	-9.25784
▁baixo	-9.25809
▁última	-9.2581
▁ciências	-9.25935
▁declara	-9.2597
▁fundamental	-9.26001
▁comercial	-9.26007
ji	-9.2603
icos	-9.26076
▁índice	-9.26171
ios	-9.26248
inho	-9.26276
▁rios	-9.26363
ler	-9.26393
au	-9.26458
▁va	-9.26593
tico	-9.26622
▁software	-9.26693
▁processos	-9.26705
▁sim	-9.26731
ministro	-9.26787
▁che	-9.26883
pres	-9.26923
▁pla	-9.26943
ren	-9.26959
log	-9.26986
▁primeiras	-9.27082
▁chegou	-9.27149
▁localizada	-9.27171
ip	-9.27252
▁recebeu	-9.27352
les	-9.27362
▁ideia	-9.27398
▁sin	-9.2741
▁opera	-9.27434
fra	-9.27446
▁fase	-9.27498
▁torno	-9.27597
▁científico	-9.27699
▁matemática	-9.27979
▁casos	-9.2815
▁cabo	-9.28174
▁administração	-9.28182
▁habita	-9.2823
▁utilizado	-9.28232
ín	-9.28312
den	-9.28322
▁escrita	-9.28401
eta	-9.28491
▁unidades	-9.28662
▁ameaça	-9.28683
▁terceiro	-9.28684
▁fontes	-9.28796
▁z	-9.28814
▁campos	-9.28996
▁elas	-9.29049
ua	-9.29073
▁aves	-9.29095
nga	-9.29217
▁material	-9.2925
▁versão	-9.29297
▁teria	-9.29464
ante	-9.2961
▁pin	-9.2974
▁contudo	-9.29822
agem	-9.29824
▁clube	-9.29831
ático	-9.29937
▁(18	-9.30041
enta	-9.30051
▁consiste	-9.3039
▁companhia	-9.30538
▁batalha	-9.30538
▁constante	-9.30655
▁britânico	-9.30769
▁sete	-9.31005
tário	-9.31021
iva	-9.31059
▁estilo	-9.31106
▁refere	-9.31196
▁gênero	-9.31209
60	-9.31226
▁abaixo	-9.31315
▁solo	-9.31316
▁espírito	-9.31322
né	-9.31417
iam	-9.31462
▁pessoa	-9.31563
pri	-9.31598
tt	-9.31763
▁imp	-9.31884
▁romana	-9.31951
▁santos	-9.31993
▁baseada	-9.32002
tel	-9.32028
▁comuns	-9.32042
▁verão	-9.32098
entes	-9.32258
uni	-9.32278
▁demonstra	-9.32281
▁direção	-9.32428
14	-9.32543
idos	-9.3257
34	-9.32625
▁prova	-9.32698
▁presente	-9.32737
▁visita	-9.32836
▁composto	-9.32838
▁crise	-9.32909
sen	-9.32955
posi	-9.33123
▁nunca	-9.33164
▁val	-9.33173
ologia	-9.33188
13	-9.33347
net	-9.33385
▁necessidade	-9.33608
▁1980	-9.33624
ias	-9.33625
▁informação	-9.33725
gt	-9.3388
▁dividido	-9.33906
▁procura	-9.34061
▁atlântico	-9.34204
como	-9.3425
stre	-9.34302
▁tornar	-9.34344
riam	-9.34402
▁cristã	-9.3443
▁quilômetros	-9.34451
▁vo	-9.3449
▁realiza	-9.34542
ster	-9.34568
▁cristãos	-9.34574
▁interesse	-9.34583
▁banda	-9.34646
19	-9.34734
▁europeu	-9.34735
▁próximo	-9.34737
▁oficialmente	-9.34752
▁(1	-9.34764
16	-9.3477
▁mudanças	-9.34787
▁serviço	-9.3489
11	-9.35109
osa	-9.35141
▁pontos	-9.35171
posta	-9.35209
▁empresa	-9.35219
▁global	-9.35255
▁referência	-9.35255
▁valores	-9.35266
▁fosse	-9.35287
tais	-9.35331
▁câmara	-9.35406
para	-9.35825
▁menores	-9.3585
▁cro	-9.35934
▁método	-9.35988
▁w	-9.36
▁situação	-9.36027
▁décadas	-9.361
_1	-9.36116
▁equipe	-9.36168
▁cargo	-9.36169
dão	-9.36254
▁religiosa	-9.36304
▁externa	-9.36318
▁compostos	-9.36327
dora	-9.36439
38	-9.3644
48	-9.36501
▁res	-9.36591
▁península	-9.36623
▁ali	-9.36638
15	-9.36672
cida	-9.36699
ol	-9.36761
▁alemão	-9.36844
▁propriedades	-9.36871
▁padrão	-9.36929
▁2010	-9.37026
uma	-9.37077
▁nessa	-9.37124
▁transforma	-9.37195
▁sudeste	-9.37237
▁tornando	-9.37266
q	-9.3728
▁diz	-9.37285
bol	-9.37317
▁fornece	-9.37392
▁inverno	-9.37392
49	-9.37531
▁níveis	-9.37556
▁necessário	-9.377
iza	-9.37732
lla	-9.3779
cidade	-9.37837
▁variedade	-9.37856
▁escravos	-9.37863
▁aceita	-9.37888
▁denominada	-9.37958
▁multi	-9.38028
▁visão	-9.3815
▁comportamento	-9.38165
▁conhecidos	-9.38176
▁interno	-9.38243
▁eventos	-9.38262
▁indígenas	-9.38291
▁definição	-9.3832
▁infraestrutura	-9.38321
▁super	-9.38342
▁ocorreu	-9.3838
▁propriedade	-9.3838
tem	-9.38429
▁oferece	-9.38476
▁precisa	-9.38477
gos	-9.38498
▁ir	-9.38563
▁feita	-9.38587
ed	-9.38694
▁bio	-9.38842
▁diretamente	-9.38879
▁governa	-9.38909
▁russo	-9.38976
▁arquipélago	-9.39102
cra	-9.3922
▁aquele	-9.3932
▁movimentos	-9.39321
▁célula	-9.39415
▁méxico	-9.39416
▁efeito	-9.39421
36	-9.39516
▁21	-9.39548
=1	-9.39592
▁francisco	-9.39593
▁cidadãos	-9.39701
▁matéria	-9.39732
▁r	-9.39826
▁pequeno	-9.39844
–	-9.39876
70	-9.39939
▁formar	-9.39991
▁deles	-9.40046
▁poderia	-9.40103
▁descoberta	-9.40104
39	-9.40125
▁inicia	-9.40181
▁fé	-9.40417
▁extensão	-9.40524
lá	-9.40572
▁estuda	-9.40769
▁parece	-9.40854
▁árabe	-9.40997
▁trabalhadores	-9.4103
▁je	-9.41065
▁tentativa	-9.41097
▁utilizada	-9.4112
▁apoia	-9.41319
▁teatro	-9.41323
▁castelo	-9.41323
▁troca	-9.41325
▁londres	-9.41483
▁carta	-9.41506
▁tradicionais	-9.41644
cal	-9.41665
▁mudança	-9.41669
▁ideias	-9.41683
▁religiões	-9.42127
▁ban	-9.42186
posto	-9.42218
▁dinastia	-9.42289
tim	-9.42304
▁internet	-9.42315
ía	-9.42386
▁verdade	-9.42438
25	-9.42444
▁sejam	-9.42507
ela	-9.42652
▁antigos	-9.42665
▁john	-9.42776
80	-9.42832
▁conflito	-9.42837
▁constitui	-9.4286
gui	-9.42972
▁22	-9.43023
▁cri	-9.43066
▁usada	-9.4312
▁permanece	-9.43123
▁oposição	-9.43152
▁israel	-9.43199
▁general	-9.43246
▁histórico	-9.43452
met	-9.43504
▁problema	-9.43513
▁democracia	-9.43537
12	-9.43539
▁á	-9.43581
xe	-9.43586
▁oficiais	-9.43593
▁acredita	-9.43654
▁lua	-9.43657
tica	-9.43663
ula	-9.43734
mico	-9.43747
▁classe	-9.43883
▁contrário	-9.43922
▁memória	-9.43922
▁nação	-9.43999
â	-9.44007
▁2010,	-9.44012
▁estação	-9.44045
▁organismos	-9.44081
▁celular	-9.44089
mba	-9.44101
▁remo	-9.44149
ran	-9.44506
▁estar	-9.44538
▁dólares	-9.44601
▁populares	-9.44621
▁computador	-9.44671
▁científica	-9.44712
▁desses	-9.44787
▁carlos	-9.44859
▁cruz	-9.44915
▁líder	-9.44918
▁coroa	-9.44959
lina	-9.44961
▁floresta	-9.45093
▁particular	-9.45118
▁'	-9.45131
ício	-9.45167
▁mag	-9.45171
hu	-9.45173
▁perto	-9.45178
▁culturais	-9.45272
47	-9.45288
izar	-9.45301
▁informações	-9.45316
pli	-9.45395
▁expressão	-9.45415
▁destes	-9.45421
▁tro	-9.45451
▁algum	-9.45456
tia	-9.4549
▁pensamento	-9.45649
▁medicina	-9.45752
meados	-9.45763
▁pen	-9.45817
56	-9.45885
▁medi	-9.46108
98	-9.4616
▁usa	-9.46203
ist	-9.46219
▁criou	-9.46333
bor	-9.46411
▁rico	-9.46414
▁chama	-9.46422
▁pequenas	-9.46483
vis	-9.46595
ânico	-9.46652
▁cristianismo	-9.4676
▁chi	-9.46761
▁j	-9.46801
gia	-9.46895
gado	-9.46942
sion	-9.47003
▁escreveu	-9.47041
pul	-9.47195
▁classificação	-9.47217
▁manter	-9.47231
▁hitler	-9.4727
▁ben	-9.47293
uri	-9.47326
▁gua	-9.47365
▁har	-9.47369
°	-9.47386
bilidade	-9.47392
ac	-9.47408
▁comunista	-9.47445
ite	-9.47499
▁altura	-9.47516
▁demais	-9.47575
▁começaram	-9.47651
fund	-9.47654
▁formado	-9.47724
▁tropas	-9.47955
tada	-9.48069
▁devem	-9.48074
▁encontram	-9.48129
ld	-9.4814
▁trabalha	-9.48243
có	-9.48276
▁resposta	-9.48312
▁linhas	-9.48325
▁madeira	-9.48345
▁latina	-9.48373
▁wi	-9.4849
▁vem	-9.48517
ês	-9.48522
2%	-9.48528
▁pra	-9.4855
nes	-9.48559
▁mer	-9.48588
bio	-9.48604
▁henrique	-9.48655
bel	-9.48656
▁diferente	-9.48763
▁conde	-9.48798
▁físico	-9.48813
era	-9.48871
▁usando	-9.48889
▁contexto	-9.48987
▁regula	-9.49157
▁permite	-9.49222
gou	-9.49225
rão	-9.49239
▁produtor	-9.49267
▁socialista	-9.49311
▁inc	-9.49314
▁regional	-9.49333
tó	-9.49481
▁universal	-9.49507
▁envolve	-9.49625
▁cla	-9.4969
▁caminho	-9.49712
▁cole	-9.49829
▁etc	-9.49929
▁métodos	-9.50059
▁princípio	-9.50061
▁banco	-9.50087
eiras	-9.50089
pl	-9.50102
▁un	-9.50205
▁falta	-9.50295
▁disco	-9.50337
uí	-9.50376
▁criar	-9.50419
rg	-9.5042
▁baseado	-9.50425
▁territórios	-9.50455
▁coloca	-9.50455
▁gol	-9.50508
▁objetos	-9.50545
for	-9.50553
▁expansão	-9.50557
▁artes	-9.50712
▁mandato	-9.50718
▁distância	-9.50733
▁ácido	-9.50734
▁longa	-9.50759
▁gu	-9.50796
▁favor	-9.50898
▁rapidamente	-9.50909
1%	-9.51214
▁pé	-9.51234
▁materiais	-9.51263
▁peças	-9.51358
vio	-9.51372
▁temperaturas	-9.51415
▁elevada	-9.51461
▁50	-9.51496
▁inicialmente	-9.51545
17	-9.51577
▁metropolitana	-9.51618
▁40	-9.51781
▁provavelmente	-9.51796
▁conforme	-9.51796
▁razão	-9.51796
▁coreia	-9.51806
▁rica	-9.5183
▁nu	-9.51834
pol	-9.51843
izados	-9.51884
ud	-9.52011
▁estende	-9.522
▁semelhante	-9.52207
ual	-9.52383
▁registra	-9.52418
▁juntamente	-9.52462
íveis	-9.52498
ética	-9.525
▁mata	-9.52671
▁armadas	-9.5269
▁bra	-9.52693
lh	-9.52742
nor	-9.52795
▁23	-9.52797
bia	-9.52873
▁pós	-9.52945
ph	-9.53023
▁composição	-9.53028
▁pressão	-9.53056
▁aumenta	-9.5309
▁anterior	-9.53113
▁disse	-9.53114
2.	-9.53166
▁iii	-9.53177
01	-9.53354
põe	-9.53362
▁clássica	-9.53412
▁combate	-9.53504
ística	-9.53596
▁copa	-9.53636
▁estruturas	-9.53641
▁título	-9.53702
35	-9.53745
54	-9.53772
▁dividida	-9.53774
▁realizado	-9.53785
▁ber	-9.53794
▁alguma	-9.53797
▁prote	-9.5383
▁engenharia	-9.5387
▁polo	-9.53876
▁associação	-9.54041
▁hipótese	-9.54138
▁seguida	-9.54141
▁faixa	-9.54152
▁municipal	-9.54321
ância	-9.54368
árias	-9.54401
▁chega	-9.5442
▁grécia	-9.54504
▁semana	-9.54507
▁aldeia	-9.54872
▁pedra	-9.54899
idas	-9.54921
75	-9.54954
▁técnicas	-9.55011
85	-9.55058
ix	-9.5509
▁cria	-9.55154
▁esco	-9.55181
▁estadual	-9.55239
zer	-9.55267
ecido	-9.55289
▁fazem	-9.55389
▁terceira	-9.55423
▁sofre	-9.55494
ff	-9.55528
▁resto	-9.55559
▁comerciais	-9.55608
▁destaque	-9.55611
gas	-9.55613
▁novamente	-9.55624
99	-9.55639
▁distribuição	-9.55668
▁carne	-9.55683
▁histórica	-9.55688
▁neo	-9.55751
pp	-9.55919
▁crescente	-9.55919
ações	-9.55953
▁atmosfera	-9.55978
▁censo	-9.55981
▁objeto	-9.56177
tz	-9.56233
rado	-9.56256
ná	-9.56369
lhos	-9.56402
▁bri	-9.5643
tividade	-9.56447
tic	-9.56456
ku	-9.56496
tida	-9.56686
▁elevado	-9.56779
▁junta	-9.56839
▁bal	-9.56887
▁2013,	-9.56983
▁denominado	-9.56996
▁considera	-9.56998
▁euro	-9.57027
▁toma	-9.5704
▁montanhas	-9.57117
▁situa	-9.57139
dura	-9.57172
▁compreende	-9.57287
▁entrada	-9.57296
▁bacia	-9.57419
▁comando	-9.57473
▁sequência	-9.57475
89	-9.57478
▁original	-9.57502
ianos	-9.57609
▁torre	-9.5762
18	-9.57803
tória	-9.57833
▁alimentos	-9.57935
▁funciona	-9.58085
▁desenvolveu	-9.58116
▁nossa	-9.58132
ner	-9.58144
▁impe	-9.58167
▁integra	-9.58204
não	-9.58222
▁reconhece	-9.58232
ima	-9.58269
▁organizações	-9.58323
bal	-9.58334
51	-9.58433
▁metal	-9.58496
we	-9.5856
▁tornaram	-9.58579
▁indivíduos	-9.58588
▁impacto	-9.58613
▁lugares	-9.58653
▁crianças	-9.58673
▁pensa	-9.58792
▁demografia	-9.58815
ham	-9.58915
▁branco	-9.58915
▁figura	-9.58917
▁toneladas	-9.58995
▁27	-9.59009
▁estrangeiros	-9.59116
▁seres	-9.59141
▁sch	-9.59158
▁participação	-9.59167
▁colonial	-9.59186
▁indi	-9.59276
▁chile	-9.59279
nh	-9.59297
52	-9.59321
▁afonso	-9.59378
▁sobretudo	-9.5938
▁oriente	-9.59382
▁usados	-9.59424
▁tudo	-9.59441
▁grega	-9.5953
▁depende	-9.59543
▁ministério	-9.59571
ônio	-9.59571
▁respeito	-9.59593
▁nomeado	-9.59606
▁tor	-9.59642
▁custo	-9.59682
▁tribunal	-9.59763
▁questão	-9.5984
▁oito	-9.5984
▁mel	-9.59944
▁palavras	-9.59945
26	-9.59949
tre	-9.59962
▁seleção	-9.59964
▁aspectos	-9.60068
▁wa	-9.60076
▁programas	-9.6013
▁computadores	-9.60146
▁conhece	-9.6015
▁ponte	-9.60343
▁dança	-9.60463
▁muçulmanos	-9.60503
▁captura	-9.6055
▁cristo	-9.60594
▁completa	-9.60601
▁lá	-9.6061
▁baixos	-9.60669
ato	-9.60761
▁fundação	-9.60838
▁pertence	-9.60844
gio	-9.60861
ador	-9.60864
▁26	-9.60888
▁tiveram	-9.60928
▁campeonato	-9.61023
▁famoso	-9.61123
▁noroeste	-9.61124
▁xviii	-9.61233
▁corresponde	-9.61255
ór	-9.61277
▁ur	-9.61419
inhos	-9.61452
▁irlanda	-9.61514
▁gar	-9.61562
▁gal	-9.61675
▁lin	-9.61698
fic	-9.61706
▁surgiu	-9.61711
▁publicado	-9.61714
▁consumo	-9.61732
▁irmão	-9.61739
28	-9.61744
▁judeus	-9.61757
▁renda	-9.61818
mia	-9.61906
▁órbita	-9.61907
▁cadeia	-9.61909
mit	-9.61945
wi	-9.61967
▁produzir	-9.61986
sio	-9.62025
▁ocupação	-9.621
▁revela	-9.62117
▁2008	-9.62136
46	-9.62245
▁contém	-9.62303
▁golpe	-9.62361
3%	-9.62379
▁pan	-9.62382
▁africana	-9.62454
▁28	-9.62454
lan	-9.62551
▁(20	-9.62581
▁nobel	-9.62584
▁efeitos	-9.62623
▁fre	-9.62627
▁nove	-9.62633
▁partida	-9.6271
▁dá	-9.62894
▁cinema	-9.62899
▁nomes	-9.62899
▁pequenos	-9.62955
cep	-9.62956
mbo	-9.63113
▁urbana	-9.63168
▁acontece	-9.63183
7%	-9.63285
▁imigrantes	-9.63296
▁soma	-9.63427
fil	-9.63546
▁alemã	-9.63648
▁passado	-9.63771
▁semi	-9.63833
▁questões	-9.64119
▁praia	-9.64134
▁jornal	-9.64171
dra	-9.64502
▁comprimento	-9.64503
▁autoridade	-9.64526
▁mato	-9.64629
▁romanos	-9.64695
▁moeda	-9.64716
▁proposta	-9.64765
▁prepara	-9.6478
▁fundada	-9.64784
▁artigo	-9.64835
▁mussolini	-9.64908
▁usar	-9.64915
▁pessoal	-9.64946
27	-9.65091
,5%	-9.65196
cada	-9.65257
▁estima	-9.65274
▁ger	-9.65294
▁tradições	-9.65315
24	-9.65337
ificação	-9.65475
▁monarquia	-9.65519
▁milhares	-9.65519
▁teorias	-9.65561
▁proteínas	-9.65581
▁500	-9.65601
▁cobre	-9.65621
▁pl	-9.65749
▁2001	-9.65783
▁realizada	-9.65841
ris	-9.65901
▁ana	-9.65908
▁rádio	-9.65929
▁espanhola	-9.6594
23	-9.65946
▁mistura	-9.66135
▁pelé	-9.66181
▁encontrado	-9.66192
ang	-9.66264
▁recebe	-9.66264
▁passaram	-9.66286
▁aplicações	-9.66421
▁paulista	-9.66502
▁posse	-9.66528
86	-9.66543
▁volume	-9.66546
▁reação	-9.66618
▁espanhol	-9.66741
▁suficiente	-9.66752
▁fazendo	-9.66753
▁provoca	-9.66755
aram	-9.66757
▁pesca	-9.66827
▁formada	-9.66899
▁ganha	-9.6693
▁tempos	-9.67009
tados	-9.67039
▁exploração	-9.67139
▁academia	-9.67167
ônica	-9.67183
▁autores	-9.67188
▁princípios	-9.67195
▁deveria	-9.67219
▁constitucional	-9.67374
▁chamados	-9.67443
▁números	-9.67608
▁reserva	-9.67611
▁latim	-9.6764
▁us	-9.67702
itas	-9.67744
▁espera	-9.67775
mais	-9.67876
▁cara	-9.67923
▁nenhum	-9.67944
▁|	-9.6795
▁pacífico	-9.68001
▁permanente	-9.68001
▁planalto	-9.68001
▁resistência	-9.68043
▁horas	-9.68051
▁derrota	-9.68091
▁jogador	-9.68136
▁dessas	-9.68158
▁resultados	-9.6821
▁iniciou	-9.6821
▁quarto	-9.68212
▁olímpicos	-9.683
ea	-9.68348
▁bairro	-9.68421
78	-9.68422
▁motivo	-9.68424
▁religiosas	-9.68439
▁texto	-9.68476
33	-9.68541
ref	-9.68546
▁29	-9.68546
ero	-9.68573
▁seguido	-9.68591
bro	-9.68596
32	-9.68597
▁departamento	-9.68631
▁elétrica	-9.68631
▁executivo	-9.68631
▁traz	-9.68645
▁2003	-9.6874
▁campanha	-9.68842
▁bandeira	-9.6885
lógico	-9.68916
▁vive	-9.68917
▁ki	-9.68995
▁dez	-9.69008
▁planta	-9.69099
▁nenhuma	-9.69111
▁cas	-9.6931
iz	-9.69329
▁guarda	-9.69341
cr	-9.69401
▁observado	-9.69423
▁van	-9.69429
▁particularmente	-9.69438
▁poucos	-9.69472
▁interpreta	-9.69485
▁doenças	-9.69496
▁províncias	-9.69545
▁anual	-9.69578
cur	-9.69583
▁senhor	-9.69585
▁armas	-9.69601
▁apresentam	-9.69678
▁populações	-9.6969
▁revolta	-9.69691
▁igrejas	-9.69768
-19	-9.69787
▁cho	-9.69816
▁estatística	-9.69904
▁responde	-9.69904
▁poeta	-9.69942
cro	-9.69999
▁públicas	-9.7001
▁2007	-9.70111
sul	-9.70137
79	-9.70146
gro	-9.70147
▁animal	-9.70147
▁britânicos	-9.70203
ly	-9.70208
▁gera	-9.70247
▁formam	-9.70265
bá	-9.70266
▁religiosos	-9.70389
▁ganhou	-9.70425
▁ligação	-9.70431
▁colônia	-9.70462
▁partidos	-9.70592
▁terrestre	-9.7068
▁finalmente	-9.70743
▁congresso	-9.70761
▁franceses	-9.70766
▁árabes	-9.70767
▁fundo	-9.70836
▁caça	-9.70956
▁estabelecimento	-9.70977
▁1950	-9.71016
▁determina	-9.71031
▁atua	-9.71091
esa	-9.71161
▁cientistas	-9.71172
▁2002	-9.71195
ard	-9.71239
▁fun	-9.71242
vel	-9.71289
96	-9.71313
▁conseguiu	-9.71409
▁possibilidade	-9.71409
▁modifica	-9.71412
▁porta	-9.71452
▁predominante	-9.71482
▁nuclear	-9.71482
dica	-9.71561
▁âmbito	-9.71626
▁bom	-9.71636
76	-9.71782
posição	-9.71786
▁carga	-9.71863
▁destino	-9.71912
45	-9.71965
▁mac	-9.72032
▁culturas	-9.72043
▁aérea	-9.72061
▁uruguai	-9.72061
▁2009,	-9.72061
▁casas	-9.72105
▁mês	-9.72126
]	-9.72267
logia	-9.72268
cionais	-9.72282
▁comunidades	-9.72309
ila	-9.72471
▁1991	-9.72514
▁florestas	-9.7258
▁frequência	-9.72718
▁respectivamente	-9.72718
▁sudoeste	-9.72718
▁darwin	-9.72721
if	-9.72784
▁amplamente	-9.72837
37	-9.72888
▁antigas	-9.7292
▁milhão	-9.72938
ata	-9.72941
izou	-9.73023
▁livros	-9.73135
ty	-9.73143
▁fala	-9.73148
ivo	-9.73165
▁altas	-9.73191
▁conflitos	-9.73517
▁branca	-9.736
▁artistas	-9.73604
▁navios	-9.73616
dar	-9.73659
▁filhos	-9.73679
▁deriva	-9.7368
▁prata	-9.7375
▁rota	-9.73804
▁canadá	-9.73821
▁som	-9.73881
▁xvi	-9.73917
▁algo	-9.73919
▁moléculas	-9.73984
deira	-9.73993
▁organiza	-9.74024
▁enorme	-9.74047
▁será	-9.74059
58	-9.74119
óli	-9.74123
▁príncipe	-9.74136
▁2011	-9.74206
▁justiça	-9.74266
▁argumento	-9.74267
97	-9.74288
▁voto	-9.7432
▁sur	-9.74364
87	-9.74395
21	-9.74412
▁rua	-9.74478
▁2008,	-9.74488
▁membrana	-9.74489
▁ven	-9.74501
▁complexo	-9.74544
ye	-9.74603
▁cita	-9.74615
▁1990	-9.74666
▁amor	-9.74681
▁incorpora	-9.74713
▁doutrina	-9.74713
▁xvii	-9.74714
▁localidade	-9.74717
ônico	-9.74731
▁ue	-9.74782
▁mecânica	-9.74794
▁pri	-9.74805
77	-9.74812
ib	-9.74813
▁peso	-9.74839
)"	-9.74905
▁ko	-9.74914
–1	-9.74931
▁jovens	-9.74938
▁trabalhos	-9.74939
▁2000	-9.74995
▁planetas	-9.75094
▁bur	-9.75129
▁meios	-9.75145
▁significado	-9.75167
tera	-9.75189
▁proteção	-9.75193
kh	-9.75208
▁sustenta	-9.75251
▁marinha	-9.75273
▁desenvolve	-9.75278
94	-9.75344
▁pena	-9.75375
▁tendência	-9.75387
▁2006	-9.75389
66	-9.75406
▁termina	-9.75441
▁evento	-9.75486
▁bas	-9.75519
▁descoberto	-9.75613
ky	-9.75637
▁1930	-9.75647
▁comissão	-9.75661
▁senhora	-9.75681
len	-9.75773
▁vice	-9.75861
▁experiência	-9.75944
▁imperial	-9.76068
67	-9.76073
shi	-9.76103
▁fatores	-9.7611
ques	-9.76158
▁lógica	-9.76225
▁encontrados	-9.76233
▁60	-9.76318
▁imagem	-9.76335
▁determinado	-9.76352
▁localiza	-9.76356
▁cap	-9.76358
▁recentemente	-9.76399
▁atuais	-9.76406
▁públicos	-9.76439
▁esquerda	-9.76457
▁chinesa	-9.76521
▁melhores	-9.76549
▁regras	-9.76592
▁clássico	-9.76643
adores	-9.76737
▁manuel	-9.7675
▁participa	-9.768
ion	-9.76893
cel	-9.76904
▁realidade	-9.7693
lic	-9.77036
▁estabeleceu	-9.77128
▁mão	-9.77147
ços	-9.77188
▁gene	-9.77191
▁federação	-9.77208
▁acaba	-9.7722
▁católicos	-9.77221
ble	-9.77228
▁emprega	-9.77267
▁praticamente	-9.77302
▁tenta	-9.77313
▁águas	-9.77434
▁desenvolvida	-9.77438
▁atrás	-9.77438
,4%	-9.77452
▁afeta	-9.7746
americana	-9.77561
▁ad	-9.77566
ncia	-9.77569
▁construída	-9.77668
▁inicial	-9.77787
▁vivem	-9.77801
68	-9.77889
▁avança	-9.77907
ele	-9.77923
▁2006,	-9.77931
▁vir	-9.77972
liber	-9.7803
▁fronteiras	-9.7806
▁alemães	-9.78087
▁meta	-9.78175
▁hor	-9.78245
▁avanço	-9.78362
▁constituído	-9.78362
▁abriga	-9.78397
▁corrente	-9.78447
▁aumentar	-9.78483
▁q	-9.78522
▁moderno	-9.78544
88	-9.78555
▁dura	-9.78668
ec	-9.78707
▁bispo	-9.78835
▁destacam	-9.7886
▁fortemente	-9.78943
cado	-9.78949
ón	-9.78958
nel	-9.79038
ot	-9.79063
▁colonização	-9.79076
ótica	-9.79142
▁conhecidas	-9.79192
▁desenvolvido	-9.79289
▁extremo	-9.79296
▁nascimento	-9.79297
▁crença	-9.79309
▁camada	-9.79321
▁vai	-9.79358
▁200	-9.79395
▁direta	-9.79397
▁colo	-9.79442
▁presentes	-9.79517
▁templo	-9.79538
▁facto	-9.79558
▁práticas	-9.79668
▁aplicação	-9.79709
▁austrália	-9.79766
▁potencial	-9.79766
▁invasão	-9.79767
▁exterior	-9.79839
▁capaz	-9.79859
4%	-9.79882
08	-9.79953
▁aproxima	-9.80001
▁definido	-9.80011
▁obter	-9.80014
ônia	-9.80039
cula	-9.80076
▁estabelecer	-9.80092
amp	-9.80177
▁[	-9.80205
▁venezuela	-9.80238
▁explica	-9.80303
br	-9.80313
pan	-9.80394
▁senado	-9.804
yo	-9.80409
▁bahia	-9.80476
▁geração	-9.8049
região	-9.80519
▁capita	-9.80667
▁sig	-9.80674
▁canal	-9.80717
6%	-9.8085
▁chegar	-9.80874
▁magnético	-9.80951
▁2012	-9.80964
▁perda	-9.81047
▁igual	-9.81052
grega	-9.81138
▁hidrogênio	-9.81191
▁2009	-9.81224
▁considerados	-9.81236
▁partículas	-9.8128
sol	-9.81302
▁compartilha	-9.81331
▁tratamento	-9.81334
07	-9.81369
▁determinada	-9.81403
▁específico	-9.81429
▁ocidentais	-9.81429
▁calor	-9.81557
▁conservação	-9.81572
▁2021	-9.81577
▁seca	-9.8159
▁democrática	-9.81672
▁sobrevive	-9.8168
vista	-9.81814
▁aponta	-9.81826
▁formal	-9.81832
▁ambas	-9.81841
cle	-9.81845
▁significativo	-9.81893
09	-9.81948
▁mãe	-9.81996
▁biologia	-9.82034
▁bon	-9.82137
▁31	-9.82178
missão	-9.82238
▁geo	-9.82245
90	-9.82272
22	-9.82306
▁completamente	-9.82318
han	-9.8236
▁2020	-9.82431
▁protestantes	-9.82444
▁explora	-9.825
▁revista	-9.82519
▁estabelecido	-9.82633
▁deixou	-9.82637
▁compra	-9.82656
59	-9.82674
▁limita	-9.82866
▁riqueza	-9.82876
ístico	-9.82882
▁defende	-9.82926
anti	-9.82929
▁esp	-9.82938
▁samba	-9.82944
▁altera	-9.82947
ânia	-9.83007
▁anteriores	-9.83096
▁construído	-9.8312
▁universidades	-9.8322
▁paraná	-9.83336
▁continuou	-9.83363
▁legislativo	-9.83363
▁grau	-9.83412
amente	-9.8343
nder	-9.83431
▁sabe	-9.83435
▁decreto	-9.83476
bas	-9.83521
▁peru	-9.83544
▁filme	-9.83549
▁disciplina	-9.83577
▁min	-9.83631
▁classificado	-9.83634
▁adapta	-9.83657
▁2007,	-9.83666
95	-9.83725
31	-9.83751
▁importa	-9.83786
▁nasce	-9.83845
▁extra	-9.83847
▁coimbra	-9.83853
▁vermelho	-9.83853
▁curso	-9.84014
▁crítica	-9.84016
44	-9.84025
▁descreve	-9.84049
-1	-9.84095
▁candidato	-9.84099
▁necessária	-9.84099
▁rápido	-9.84099
▁resulta	-9.84185
▁tele	-9.84186
▁sai	-9.84219
▁poderes	-9.84294
▁futuro	-9.84345
▁flores	-9.84396
▁cabeça	-9.8451
▁vírus	-9.84529
lógica	-9.84556
▁crenças	-9.84599
vin	-9.84734
anos	-9.84754
▁totalmente	-9.84766
▁haviam	-9.84809
har	-9.84822
▁diferencia	-9.84843
▁chegaram	-9.84856
▁nazista	-9.8486
▁passo	-9.84891
▁cooperação	-9.8492
▁esportes	-9.84963
dé	-9.84991
▁má	-9.8502
▁mantém	-9.85088
▁invadi	-9.85091
gh	-9.85105
▁coisas	-9.85212
▁mono	-9.85251
▁asiático	-9.85338
cultura	-9.85356
▁centros	-9.85387
▁evidências	-9.85513
▁conteúdo	-9.85586
▁acabou	-9.85586
▁1999	-9.8561
▁ampla	-9.85713
▁exemplos	-9.85757
8%	-9.85806
▁soviético	-9.85836
▁carbono	-9.85836
▁guiné	-9.85843
▁componentes	-9.85845
▁1998	-9.85862
▁legal	-9.85863
▁nota	-9.85908
▁vindo	-9.85968
▁hidro	-9.85992
29	-9.86026
pé	-9.86043
▁300	-9.86065
▁inclusive	-9.86086
▁beira	-9.86095
tável	-9.86102
▁luís	-9.86103
42	-9.86113
ai	-9.8613
▁anteriormente	-9.86145
▁econômicas	-9.86205
▁certa	-9.86261
▁zonas	-9.86317
▁símbolo	-9.86336
▁genética	-9.86344
9%	-9.86464
cid	-9.86564
▁argumenta	-9.8659
▁exerce	-9.86593
▁definida	-9.86598
▁caribe	-9.86603
▁capitania	-9.86604
▁hab	-9.86661
▁aumentou	-9.86667
▁bens	-9.8671
▁deixa	-9.86722
▁famílias	-9.86773
▁difícil	-9.86842
▁padrões	-9.86842
▁suíça	-9.86842
▁culto	-9.86849
▁pintura	-9.86865
var	-9.86869
mes	-9.86871
dita	-9.86987
▁vivos	-9.87056
▁espanhóis	-9.87095
▁experimento	-9.87095
▁aliança	-9.87096
▁&	-9.87099
▁associada	-9.87166
▁fixa	-9.87192
41	-9.87206
quia	-9.87225
▁votos	-9.87371
cen	-9.87407
2)	-9.87449
enti	-9.87492
▁recife	-9.87606
▁catarina	-9.87612
▁italiano	-9.87648
▁estrela	-9.87653
mão	-9.87832
▁norma	-9.87833
▁pernambuco	-9.87859
▁reformas	-9.87909
▁agrícola	-9.87912
2"	-9.87938
ló	-9.8797
43	-9.88002
▁pesquisas	-9.88038
▁corpos	-9.88084
▁edição	-9.88189
▁mulher	-9.88208
▁lançado	-9.88243
icas	-9.88268
91	-9.88354
▁americana	-9.88355
ngo	-9.88368
▁estratégia	-9.88371
▁regionais	-9.88371
▁abandona	-9.88371
▁etimologia	-9.88371
▁entrou	-9.88373
▁encontrar	-9.8842
03	-9.88437
inos	-9.88475
▁feitas	-9.88535
anismo	-9.88577
▁passar	-9.88592
▁lago	-9.88625
▁profissional	-9.88628
▁dominante	-9.88644
▁tenham	-9.88662
▁br	-9.88717
▁escrito	-9.88757
grama	-9.8881
bretanha	-9.88886
▁grosso	-9.88896
▁assina	-9.88962
▁liberal	-9.88979
▁viagem	-9.89015
▁gama	-9.89058
eg	-9.8909
▁serve	-9.89112
▁líderes	-9.89139
zar	-9.89143
▁newton	-9.89153
65	-9.89174
nci	-9.89179
▁veio	-9.89242
▁característica	-9.89246
▁taxas	-9.89402
▁minoria	-9.89404
▁grã	-9.89414
▁expressa	-9.89417
▁civis	-9.89434
mir	-9.89454
▁professor	-9.895
▁entra	-9.89501
▁realizar	-9.89593
end	-9.89602
▁redes	-9.89635
▁estatuto	-9.89664
▁quinta	-9.89711
▁chegada	-9.89719
,6%	-9.89836
▁africanos	-9.89868
uta	-9.89908
▁básica	-9.89923
▁eleição	-9.89932
▁peça	-9.89947
84	-9.89973
ple	-9.89978
▁esporte	-9.90055
▁utilizados	-9.90069
74	-9.90084
64	-9.90112
porta	-9.90139
▁reais	-9.90177
▁ambiental	-9.90184
▁antiguidade	-9.90184
▁reinado	-9.90192
▁utiliza	-9.90214
";	-9.90251
nica	-9.90287
▁dna	-9.90316
▁jan	-9.9036
▁time	-9.90436
▁privado	-9.90449
▁vizinhos	-9.90466
▁informa	-9.90502
93	-9.90505
int	-9.9054
rias	-9.90588
▁1970	-9.90657
▁jogadores	-9.90677
▁biblioteca	-9.90709
▁abrange	-9.9074
ian	-9.90744
▁ke	-9.90746
bert	-9.90757
▁larga	-9.90803
▁contato	-9.90811
▁topo	-9.90856
▁pico	-9.90881
lou	-9.90918
clo	-9.90957
▁áustria	-9.90972
▁económica	-9.90972
▁graças	-9.90975
▁gelo	-9.90991
3,	-9.91003
▁passando	-9.91048
and	-9.9107
▁bat	-9.91135
▁produz	-9.91184
ley	-9.91218
gráfica	-9.91224
▁hospital	-9.91236
gada	-9.91237
▁conceitos	-9.91267
▁paraguai	-9.91279
mero	-9.91285
om	-9.91295
▁sangue	-9.91303
op	-9.91325
▁classes	-9.91344
▁lan	-9.91368
▁caracteriza	-9.91402
ava	-9.91434
cá	-9.91497
▁reconhecimento	-9.915
▁soldados	-9.91502
▁reconhecido	-9.91519
▁1990,	-9.91576
▁sé	-9.91578
▁localização	-9.916
▁2011,	-9.91603
▁medidas	-9.91624
▁projetos	-9.91687
▁suécia	-9.91765
▁plan	-9.91781
mal	-9.91813
▁muda	-9.91827
▁morreu	-9.91912
nova	-9.91969
▁utilização	-9.91975
▁divulga	-9.92031
▁extinta	-9.92032
▁ligada	-9.92032
▁transição	-9.92299
▁violência	-9.92306
lis	-9.92327
▁órgãos	-9.92357
▁situada	-9.92508
,2%	-9.92515
▁básico	-9.92565
ny	-9.92592
▁bru	-9.92689
▁diferenças	-9.9283
▁transportes	-9.92852
nico	-9.92927
▁irã	-9.92948
up	-9.93003
▁relatório	-9.93103
▁ligado	-9.93127
▁amigo	-9.93135
▁continental	-9.932
rico	-9.93355
ban	-9.93369
▁inglesa	-9.93372
▁japonesa	-9.93372
▁polícia	-9.93376
▁ataque	-9.934
▁col	-9.93401
▁ten	-9.9341
▁perde	-9.93519
fec	-9.93552
▁estações	-9.93556
gan	-9.93561
▁crime	-9.93599
▁palácio	-9.93642
lismo	-9.93663
aria	-9.93689
lei	-9.93732
▁2005	-9.93759
ps	-9.93766
▁aplica	-9.93788
▁brasileiros	-9.9385
▁parti	-9.93903
▁ocidente	-9.93914
▁atingir	-9.93919
▁diferença	-9.93922
ém	-9.9394
▁debate	-9.93942
tivamente	-9.94022
▁moral	-9.94083
▁gales	-9.94174
pel	-9.94185
▁onda	-9.94187
▁conduz	-9.94191
▁2012,	-9.942
▁descendentes	-9.94359
▁cana	-9.94372
cola	-9.9438
ent	-9.94387
▁textos	-9.94388
▁consequência	-9.94481
▁gi	-9.9449
ibi	-9.94491
▁xi	-9.94522
▁fogo	-9.94611
spec	-9.94642
▁=	-9.94649
▁jovem	-9.94731
ced	-9.948
81	-9.9484
▁identifica	-9.94853
▁presidência	-9.95004
▁quem	-9.9506
▁estudantes	-9.95082
▁ita	-9.952
,3%	-9.95202
▁constituem	-9.95279
▁derivado	-9.95364
▁extremamente	-9.95367
▁braga	-9.95393
▁marte	-9.95417
▁originalmente	-9.95478
▁gregos	-9.95502
▁técnica	-9.95619
▁setores	-9.95634
69	-9.95725
▁terço	-9.95728
▁comparação	-9.95749
let	-9.95798
04	-9.95809
▁surgiram	-9.95852
▁transporta	-9.95853
ges	-9.95854
▁ligações	-9.95912
▁existentes	-9.95919
▁categoria	-9.95937
▁evitar	-9.96046
▁amazonas	-9.96108
▁televisão	-9.96108
▁assumiu	-9.96109
▁bases	-9.96268
▁alega	-9.96311
▁delas	-9.96316
▁limites	-9.96325
▁verifica	-9.96381
▁americano	-9.96385
▁diversidade	-9.96386
▁caráter	-9.96386
▁1994	-9.96408
rom	-9.96434
▁erro	-9.96436
▁documentos	-9.96544
▁baixas	-9.96562
▁tropical	-9.96664
▁extinção	-9.96665
▁verdadeira	-9.96683
▁combina	-9.96734
05	-9.96871
▁pesa	-9.96875
▁italiana	-9.96944
▁redução	-9.96945
▁simplesmente	-9.96952
▁exigi	-9.97001
▁independentes	-9.97018
▁festa	-9.97142
▁molecular	-9.97226
▁musical	-9.97246
▁ministro	-9.97442
lus	-9.97471
▁1960	-9.97495
▁ocorrem	-9.97495
▁espiritual	-9.97505
▁faculdade	-9.97505
▁responsáveis	-9.97505
▁xadrez	-9.97505
▁espalha	-9.97505
▁pertencente	-9.97526
▁instituição	-9.97528
▁situado	-9.97607
▁fazia	-9.97609
▁cai	-9.97695
ético	-9.97707
▁tur	-9.97713
83	-9.97719
▁casamento	-9.97734
▁ramo	-9.97763
▁homenagem	-9.97786
▁1995	-9.97807
▁dr	-9.979
62	-9.98024
▁financeiro	-9.98069
▁surgimento	-9.98069
▁relevo	-9.9807
▁egito	-9.98092
▁aberta	-9.98131
fei	-9.98141
ológica	-9.98203
ue	-9.98207
▁competi	-9.98307
▁humanidade	-9.98352
▁étnica	-9.98353
▁pol	-9.98356
▁executa	-9.98378
bat	-9.98399
▁dizer	-9.9851
rei	-9.98513
gin	-9.98515
▁eleitos	-9.98522
▁velho	-9.98539
▁qua	-9.98576
▁foto	-9.98576
▁origina	-9.98576
ós	-9.98584
ara	-9.98588
▁brasília	-9.98636
▁william	-9.98636
▁próprios	-9.98652
▁daquele	-9.98662
▁relato	-9.98695
▁inferior	-9.98758
by	-9.98804
▁idioma	-9.98817
▁fizeram	-9.98921
▁budismo	-9.98921
▁estradas	-9.98988
▁2004	-9.99021
▁aqui	-9.99061
▁usuário	-9.99113
esta	-9.99134
▁culinária	-9.99207
▁satélite	-9.99207
▁implica	-9.99208
▁visa	-9.99309
▁demanda	-9.99359
▁fortes	-9.99468
▁permitiu	-9.99493
▁secundário	-9.99493
▁levando	-9.995
▁escritor	-9.99518
▁publicou	-9.99529
▁golfo	-9.99529
▁russa	-9.99563
▁formando	-9.99656
ular	-9.99707
▁sha	-9.9971
▁2005,	-9.99715
▁mora	-9.99757
▁enfrenta	-9.99781
▁matemático	-9.99781
▁completo	-9.99788
▁turistas	-9.99811
▁limitado	-9.99914
▁órgão	-10.0001
del	-10.0001
▁th	-10.0004
▁identidade	-10.0007
▁cabe	-10.0008
▁gran	-10.0018
▁arre	-10.0022
▁fins	-10.0027
▁monta	-10.0029
▁seguir	-10.0034
▁declarou	-10.0036
▁estabelecida	-10.0036
inas	-10.0037
▁aberto	-10.0041
prima	-10.0043
ótico	-10.0044
ilhas	-10.0052
▁cresce	-10.0056
▁sou	-10.0057
▁indústrias	-10.0062
óxido	-10.0062
▁redor	-10.0062
▁modernos	-10.0076
zen	-10.0078
▁mito	-10.0079
▁modelos	-10.0084
▁migra	-10.0085
,7%	-10.0085
tú	-10.009
rin	-10.0092
▁costuma	-10.0094
▁terreno	-10.0094
din	-10.0095
▁risco	-10.0097
rec	-10.01
▁desenvolver	-10.0101
▁joga	-10.0104
cam	-10.0106
ez	-10.0117
forma	-10.0123
▁minerais	-10.0123
▁equilíbrio	-10.0137
▁recente	-10.0137
▁liderado	-10.0139
▁tira	-10.0141
▁universo	-10.0152
ciência	-10.0154
▁compara	-10.0154
▁gen	-10.0156
▁iv	-10.0163
estado	-10.0164
▁acompanha	-10.0174
▁destas	-10.0181
▁reivindica	-10.0182
lógicos	-10.0182
▁congo	-10.0183
ticamente	-10.0191
▁exportação	-10.0194
▁paul	-10.0196
ure	-10.0201
▁alunos	-10.0201
▁café	-10.0211
▁manteve	-10.0211
▁fenômeno	-10.0212
▁organismo	-10.0212
▁urbano	-10.0212
imo	-10.0212
73	-10.0213
▁2019,	-10.022
▁usuários	-10.0221
▁estádio	-10.0225
▁filmes	-10.0228
▁quente	-10.0229
▁semelhantes	-10.0231
▁libera	-10.0235
▁confirma	-10.024
▁barra	-10.0248
▁mol	-10.0249
▁dedica	-10.025
▁cata	-10.0252
▁seriam	-10.0258
nc	-10.0261
▁elimin	-10.0265
▁distritos	-10.0267
▁líquido	-10.027
▁protocolo	-10.027
história	-10.0298
,9%	-10.03
▁similar	-10.0313
,8%	-10.0313
▁lança	-10.0326
▁mortos	-10.0326
▁espacial	-10.033
▁modern	-10.0333
▁frio	-10.0334
port	-10.0342
vou	-10.0345
dina	-10.0347
▁sala	-10.0348
▁escritos	-10.0349
▁agrícolas	-10.0353
▁investiga	-10.0356
▁historicamente	-10.0359
▁franco	-10.0359
▁salvador	-10.0359
▁acreditava	-10.0365
▁limite	-10.0366
▁implementa	-10.0369
▁autoridades	-10.0372
▁teo	-10.0375
ena	-10.0378
▁açúcar	-10.0378
▁sinal	-10.038
ácia	-10.0384
▁contribui	-10.0387
▁atravessa	-10.0389
▁zelândia	-10.0389
▁atenção	-10.0392
▁receber	-10.0404
▁fluxo	-10.0409
▁podemos	-10.041
▁missão	-10.0412
▁aristóteles	-10.0419
▁desempenha	-10.0419
▁origens	-10.0419
▁dado	-10.0424
▁1920	-10.0424
▁castro	-10.0425
nó	-10.0428
▁guiana	-10.0432
▁podendo	-10.0432
bit	-10.0436
▁bruto	-10.0436
▁representantes	-10.0441
▁passageiros	-10.0449
▁primária	-10.0449
▁cuba	-10.045
▁solução	-10.045
▁queda	-10.0454
▁silva	-10.0464
▁direita	-10.0469
,1%	-10.0469
▁aliados	-10.0476
▁teorema	-10.048
▁tribos	-10.048
▁classifica	-10.0481
▁ataques	-10.0482
▁diante	-10.0485
▁exportações	-10.0487
neses	-10.049
▁cá	-10.0495
ini	-10.0496
▁sp	-10.0502
▁reações	-10.0502
▁representação	-10.0506
▁fundado	-10.0506
▁existir	-10.051
▁bloco	-10.051
▁recentes	-10.0512
km	-10.0513
▁vinho	-10.0516
▁nasceu	-10.0518
▁noite	-10.0528
▁operações	-10.0533
▁geórgia	-10.054
▁declínio	-10.054
érica	-10.0553
▁mamíferos	-10.0554
▁turco	-10.0555
▁estrelas	-10.0566
▁ideal	-10.0571
▁chamadas	-10.0578
▁separada	-10.0586
▁referendo	-10.0589
▁reconhecida	-10.0601
▁tóquio	-10.0601
▁trouxe	-10.0601
▁autonomia	-10.0602
▁berlim	-10.0602
▁representado	-10.0603
cerca	-10.0606
▁marco	-10.0613
▁alternativa	-10.0626
▁leve	-10.063
▁noruega	-10.0632
▁carreira	-10.0632
▁angola	-10.0633
▁decisão	-10.0633
▁anexa	-10.0633
▁preocupa	-10.0642
▁il	-10.0642
▁reinos	-10.0643
▁liberta	-10.0645
▁manifesta	-10.0652
▁mara	-10.0655
parti	-10.0657
grafia	-10.0659
▁35	-10.0662
▁coordena	-10.0663
▁cam	-10.0671
est	-10.0677
▁operação	-10.0678
▁cer	-10.0683
gel	-10.0691
▁abundante	-10.0694
▁festival	-10.0694
▁imprensa	-10.0694
▁mudou	-10.0694
▁1989	-10.0697
ento	-10.0698
▁metais	-10.0714
▁negro	-10.0715
gn	-10.0717
▁orto	-10.0722
trico	-10.0725
▁condição	-10.0725
▁1997	-10.0727
▁equivalente	-10.0734
▁venda	-10.0735
▁usam	-10.0738
▁anarquistas	-10.0741
▁cra	-10.0741
▁próxima	-10.0745
▁permaneceu	-10.0753
▁divide	-10.0756
▁mm	-10.0762
cioná	-10.0766
▁critica	-10.0772
▁conecta	-10.0787
▁ordena	-10.0787
▁surge	-10.0789
▁ya	-10.0789
▁latino	-10.079
▁historiadores	-10.0801
▁máquina	-10.081
▁religioso	-10.081
▁celebra	-10.0818
▁arroz	-10.0818
▁romance	-10.0822
▁sinais	-10.0823
lio	-10.0826
▁substâncias	-10.0832
linha	-10.0835
▁terem	-10.0836
▁mari	-10.0836
▁promove	-10.0843
▁relativa	-10.0846
▁exceção	-10.085
▁macau	-10.0852
cita	-10.0853
▁vota	-10.0858
▁direto	-10.086
▁adota	-10.0864
▁encontradas	-10.0876
▁far	-10.0876
cara	-10.0878
▁constituída	-10.0881
▁perspectiva	-10.0881
▁químico	-10.0886
▁certo	-10.0887
bus	-10.089
▁levaram	-10.0897
▁influencia	-10.091
ilha	-10.091
▁conferência	-10.0912
▁rápida	-10.0912
▁computação	-10.0913
▁costeira	-10.0913
▁equador	-10.0913
ografia	-10.0915
lf	-10.0915
▁fossem	-10.0917
plan	-10.0917
▁diminui	-10.0924
▁dinamarca	-10.0944
▁retorno	-10.0944
1"	-10.0945
▁imagens	-10.0946
▁1960,	-10.0949
▁pat	-10.0949
▁robert	-10.0951
▁químicos	-10.0952
gens	-10.0958
▁concentração	-10.0961
▁enzimas	-10.0968
▁doença	-10.0974
▁cálculo	-10.0976
▁individual	-10.0976
▁1992	-10.0976
ona	-10.0976
▁turquia	-10.0976
mil	-10.0979
▁biológica	-10.0979
▁rural	-10.098
brasil	-10.0981
▁document	-10.0984
uais	-10.0985
▁za	-10.0992
▁y	-10.0992
▁deuses	-10.0993
▁tan	-10.0996
▁natal	-10.1002
quilo	-10.1006
▁profissionais	-10.1008
▁tabuleiro	-10.1008
▁cresceu	-10.101
▁descrito	-10.1016
geral	-10.1019
▁registrada	-10.1024
▁abs	-10.1035
▁rejeita	-10.104
▁obtido	-10.104
▁arma	-10.1043
▁classificada	-10.1045
▁programação	-10.1056
▁80	-10.1061
▁fruto	-10.1064
▁mundiais	-10.1072
terra	-10.1073
▁1993	-10.1074
▁tejo	-10.1082
▁han	-10.1088
▁cento	-10.1089
pó	-10.1094
cular	-10.1094
▁instrumentos	-10.1098
▁reservas	-10.11
▁afirmou	-10.1104
▁financeira	-10.1104
▁introdução	-10.1104
▁subdivisões	-10.1104
▁referir	-10.1104
burg	-10.1114
▁históricos	-10.112
▁estrangeira	-10.1136
▁vizinha	-10.1136
▁carrega	-10.1137
▁transferência	-10.1137
▁publica	-10.1143
imento	-10.1147
rida	-10.1147
ísta	-10.1153
rido	-10.1154
▁escritores	-10.1159
ério	-10.1161
▁observa	-10.1162
▁desempenho	-10.1168
▁máxima	-10.1168
▁liderança	-10.1169
▁representam	-10.1172
ares	-10.1172
▁indivíduo	-10.1173
▁ramos	-10.1181
▁assuntos	-10.1187
▁negócios	-10.119
▁sofreu	-10.1191
▁ph	-10.1196
▁estadunidense	-10.1201
▁abertura	-10.1201
▁camp	-10.1201
▁indiano	-10.1215
▁grave	-10.1221
▁associado	-10.1229
▁colabora	-10.1234
▁ecossistema	-10.1234
▁mídia	-10.1234
▁atingiu	-10.1234
▁perigo	-10.1235
▁feitos	-10.1239
ab	-10.124
gal	-10.1245
▁obs	-10.1245
▁preserva	-10.1246
▁lenda	-10.125
▁industriais	-10.1266
▁medalha	-10.1266
▁otomano	-10.1266
▁naquele	-10.1267
▁pr	-10.1267
▁wal	-10.1268
▁filha	-10.1269
▁precipitação	-10.1274
enses	-10.1284
▁fla	-10.1284
▁capazes	-10.1289
americano	-10.1294
nis	-10.1296
▁realizadas	-10.1298
▁experimenta	-10.1298
▁posições	-10.1299
▁envia	-10.13
▁vest	-10.1313
▁cru	-10.1314
▁estabeleceram	-10.1317
dd	-10.1321
ori	-10.1323
▁cliente	-10.1332
▁obriga	-10.1332
▁alcança	-10.1338
cito	-10.134
▁(3	-10.1349
▁belo	-10.1357
▁monarca	-10.1365
▁tarefa	-10.1365
▁cultivo	-10.1365
▁sta	-10.1365
ser	-10.1368
▁falado	-10.1375
ílio	-10.1375
▁produzido	-10.1379
▁próximos	-10.138
▁bel	-10.1385
▁is	-10.1387
”.	-10.1392
rito	-10.1392
▁atrai	-10.1397
▁quantidades	-10.1397
▁dinheiro	-10.1398
▁legislativa	-10.1398
▁proveniente	-10.1398
▁chineses	-10.1399
ícia	-10.1399
▁socialismo	-10.1401
▁praça	-10.1403
ei	-10.1404
▁usadas	-10.1408
▁publicada	-10.1414
▁var	-10.1416
▁observação	-10.1419
▁fenômenos	-10.143
flu	-10.1431
▁construir	-10.1431
▁carvão	-10.1431
▁jorge	-10.1432
▁cavalo	-10.1432
eno	-10.1434
_2	-10.1435
▁(2	-10.144
▁acusa	-10.1445
▁edifícios	-10.1446
usa	-10.1451
agens	-10.1453
▁guerras	-10.1456
▁george	-10.1464
▁pá	-10.1465
▁interface	-10.1465
▁radiação	-10.1465
▁céu	-10.1465
▁mitologia	-10.1467
▁operacional	-10.1467
▁1940	-10.1469
▁grão	-10.147
ificou	-10.1472
▁gui	-10.1488
érico	-10.149
▁fundador	-10.1493
▁organizado	-10.1493
▁interpretação	-10.1497
▁japonês	-10.1498
▁complexa	-10.1498
▁poema	-10.1498
▁orbita	-10.1499
▁emprego	-10.1499
▁indo	-10.15
▁1996	-10.1501
▁fria	-10.1506
▁2000,	-10.1506
▁negros	-10.1511
▁70	-10.1513
tadas	-10.1514
▁estimada	-10.1515
▁peixes	-10.1527
▁variam	-10.1529
▁califórnia	-10.1532
▁famosa	-10.1532
▁transmiti	-10.1532
▁sociologia	-10.1532
▁saudita	-10.1534
▁requer	-10.1535
ker	-10.1538
▁alvo	-10.1538
▁investi	-10.1541
▁colômbia	-10.1542
antigas	-10.1544
uto	-10.1553
▁haver	-10.1558
▁curitiba	-10.1565
▁imigração	-10.1565
▁budista	-10.1565
versa	-10.1578
▁geográfica	-10.1585
▁cruza	-10.1588
vid	-10.1597
▁sítio	-10.1599
▁suporte	-10.1599
▁fauna	-10.1599
▁formato	-10.16
▁discurso	-10.16
▁mestre	-10.1607
▁observações	-10.161
uru	-10.1612
cult	-10.1616
reto	-10.1617
▁2013	-10.1624
▁hindu	-10.1633
▁manutenção	-10.1633
▁descobriu	-10.1633
▁pobreza	-10.1634
▁ocorrer	-10.1638
ire	-10.1638
▁fabrica	-10.1646
▁nega	-10.1647
trato	-10.1648
dade	-10.1651
▁restante	-10.166
▁iniciativa	-10.166
▁islâmica	-10.1667
▁relevante	-10.1667
▁técnico	-10.1667
▁atribui	-10.1667
▁antónio	-10.1667
▁consta	-10.167
▁produtores	-10.1677
▁falha	-10.1677
▁sá	-10.1677
▁sonda	-10.1682
▁margem	-10.1689
▁utilizando	-10.1697
▁vegetação	-10.1701
▁comemora	-10.1701
▁cerveja	-10.1701
▁vigor	-10.1703
▁eixo	-10.1703
just	-10.1704
pia	-10.1709
ênio	-10.1715
▁sil	-10.1715
▁permitir	-10.173
▁2014	-10.1731
pare	-10.1734
gna	-10.1735
▁finais	-10.1736
▁comitê	-10.1736
▁150	-10.1736
▁versões	-10.1736
▁capela	-10.1737
▁tar	-10.1737
▁afasta	-10.1738
▁letras	-10.1746
▁pará	-10.1748
▁400	-10.1751
▁lagos	-10.1753
▁conserva	-10.1764
▁democrático	-10.177
▁resultou	-10.177
▁rurais	-10.177
▁longe	-10.177
▁analisa	-10.177
▁funcionamento	-10.1777
▁fusão	-10.1777
ight	-10.1779
uba	-10.1779
feito	-10.1782
▁voo	-10.1783
▁fugi	-10.1786
▁clara	-10.1788
▁mãos	-10.1789
▁possuía	-10.1791
▁estrada	-10.1799
▁patrimônio	-10.1804
▁thomas	-10.1804
▁gestão	-10.1804
izadas	-10.1806
americanos	-10.1807
▁fundamentais	-10.1808
ux	-10.1812
▁cursos	-10.1817
▁teste	-10.1825
▁milho	-10.1831
lista	-10.1841
vé	-10.1843
▁2014,	-10.1848
▁produzida	-10.1852
▁falada	-10.186
ngu	-10.1865
▁horizonte	-10.1873
▁doce	-10.1876
▁ondas	-10.1879
▁brancos	-10.1888
▁gado	-10.1888
tismo	-10.1897
▁st	-10.1899
form	-10.1901
zes	-10.1905
▁eletrônica	-10.1908
▁territorial	-10.1908
▁cultiva	-10.1908
▁saída	-10.1909
▁1945	-10.1911
▁escolhe	-10.1912
▁desenho	-10.1913
▁nativos	-10.1914
▁2018,	-10.1917
▁posto	-10.1918
gil	-10.1927
▁publicação	-10.1933
▁próprias	-10.1936
▁escrever	-10.1937
comun	-10.1938
▁tecidos	-10.1938
▁separa	-10.1938
▁agência	-10.1939
responsabilidade	-10.1943
▁bíblia	-10.1943
▁considerável	-10.1943
▁integração	-10.1946
▁variação	-10.195
ástica	-10.1953
▁tomada	-10.1957
▁declaração	-10.1961
▁pratica	-10.1967
▁paga	-10.1968
▁neve	-10.197
▁move	-10.1977
▁descrição	-10.1978
ógrafo	-10.198
▁passagem	-10.1985
▁consum	-10.1988
▁ocorrência	-10.2014
▁fungos	-10.2015
▁nascido	-10.2016
▁negra	-10.2019
isto	-10.203
▁limitada	-10.2035
uf	-10.2036
▁aço	-10.2048
▁movimenta	-10.2049
▁ascensão	-10.2049
▁alma	-10.2051
▁voltou	-10.2051
▁ku	-10.2056
▁conce	-10.2056
tch	-10.2056
▁entrar	-10.2059
▁lançamento	-10.2059
▁administrado	-10.2059
▁relacionados	-10.206
▁restantes	-10.2066
▁clubes	-10.2077
▁lou	-10.2078
ixa	-10.2079
▁planeja	-10.208
▁arquivos	-10.2084
▁adn	-10.2085
pôs	-10.2091
▁funcional	-10.2092
itos	-10.2095
▁supera	-10.2103
▁permitem	-10.2107
▁retira	-10.211
berg	-10.2113
▁circuito	-10.212
▁contemporânea	-10.212
▁engenheiro	-10.212
▁luxemburgo	-10.212
▁influente	-10.212
▁esposa	-10.2121
▁james	-10.2123
▁relata	-10.2127
▁nada	-10.2129
fal	-10.2135
▁lar	-10.214
▁aquela	-10.2141
▁médicos	-10.2145
▁realização	-10.2146
▁laboratório	-10.2156
▁obteve	-10.2156
▁singapura	-10.2156
▁supremo	-10.2156
▁antônio	-10.2156
▁esforços	-10.2157
▁vinte	-10.2158
gon	-10.2164
▁tecido	-10.2166
▁notáveis	-10.2167
▁títulos	-10.217
▁festas	-10.2177
▁últimas	-10.2178
taca	-10.2186
▁fascista	-10.2192
▁privada	-10.2198
▁indígena	-10.2198
ecimento	-10.2203
ngue	-10.2206
ting	-10.2208
3"	-10.221
▁sucessor	-10.2211
▁bro	-10.2215
▁fon	-10.2223
▁execução	-10.2228
▁expectativa	-10.2228
▁frota	-10.2228
▁arábia	-10.2228
lle	-10.2232
▁posterior	-10.2234
▁pais	-10.2234
▁integrado	-10.2234
▁civilização	-10.2237
ece	-10.2242
▁sun	-10.2252
▁dispositivos	-10.2254
▁certas	-10.2256
▁étnicos	-10.2257
▁económico	-10.2264
▁dele	-10.2264
▁chinês	-10.2264
line	-10.2264
▁actual	-10.2269
ron	-10.227
▁notável	-10.2276
▁alterações	-10.228
▁historiador	-10.2284
▁interação	-10.2287
▁ceará	-10.23
▁médico	-10.2311
▁1970,	-10.2311
▁investigação	-10.2325
▁renascimento	-10.2336
▁elétrico	-10.2336
▁sexual	-10.2336
▁preso	-10.2338
▁curto	-10.2339
▁hino	-10.2344
▁onu	-10.2346
▁certos	-10.2349
eri	-10.2355
▁tomar	-10.2356
▁deputados	-10.2357
▁cartas	-10.2359
▁talvez	-10.2373
▁torneio	-10.2373
▁externo	-10.2373
my	-10.2375
▁camadas	-10.2376
▁povoado	-10.2376
ani	-10.2377
rie	-10.2377
▁rotação	-10.2383
▁anualmente	-10.2396
iv	-10.2397
▁governante	-10.2398
▁assis	-10.2399
▁azul	-10.2406
▁aquecimento	-10.2409
▁charles	-10.241
▁bla	-10.2413
▁descobertas	-10.2418
mat	-10.2419
▁quadro	-10.2423
▁nacionalista	-10.2424
presidente	-10.2429
▁chuvas	-10.2431
▁frequente	-10.2433
ola	-10.2439
▁socialistas	-10.244
▁2004,	-10.2443
nome	-10.2445
▁assentamento	-10.2446
▁oxigênio	-10.2446
▁bebida	-10.2446
▁tivesse	-10.2447
▁deseja	-10.2458
▁deserto	-10.2459
▁gases	-10.2461
▁dinâmica	-10.2469
pula	-10.247
▁escolar	-10.2471
▁impostos	-10.2472
▁2019	-10.2476
▁alimentar	-10.2478
▁sar	-10.2478
▁residência	-10.2483
▁fernando	-10.2483
▁musicais	-10.2484
▁poderiam	-10.2484
▁transmissão	-10.2486
▁1979	-10.2486
oc	-10.2488
▁trabalhar	-10.2488
fre	-10.2488
mann	-10.2498
▁(0	-10.2501
âni	-10.251
▁2018	-10.2514
▁2015	-10.2515
▁(17	-10.252
▁conquistou	-10.252
▁estudiosos	-10.252
▁máximo	-10.252
▁primário	-10.252
▁define	-10.2521
06	-10.2521
▁teórico	-10.2521
▁seco	-10.2522
▁curta	-10.2522
▁viena	-10.2527
▁2015,	-10.253
▁cometas	-10.2532
▁arco	-10.2534
▁von	-10.2538
▁dita	-10.2546
▁planícies	-10.2549
fri	-10.2552
▁toca	-10.2554
institu	-10.2554
▁galileu	-10.2557
▁tema	-10.2565
▁separado	-10.2574
▁entidades	-10.2574
▁usina	-10.2576
ung	-10.2577
▁substância	-10.2578
▁consideradas	-10.2587
▁possa	-10.2589
pra	-10.259
▁mercúrio	-10.2595
lítica	-10.2595
▁paraíba	-10.2595
▁tomou	-10.2601
▁viaja	-10.2607
▁pura	-10.2609
▁equipa	-10.261
▁recupera	-10.2611
▁frase	-10.262
▁eletrônico	-10.2632
▁ingleses	-10.2632
▁mediterrâneo	-10.2632
▁possíveis	-10.2632
▁matriz	-10.2632
▁abordagem	-10.2633
▁sexo	-10.2635
▁colonos	-10.2637
▁meia	-10.2637
lon	-10.2643
▁críticas	-10.2645
▁navegador	-10.2646
▁marcado	-10.2648
▁comumente	-10.265
▁igualmente	-10.2653
sar	-10.2654
▁fili	-10.2661
▁contemporâneo	-10.267
▁islâmico	-10.267
▁proeminente	-10.267
▁ferroviária	-10.267
▁decidiu	-10.267
▁ps	-10.2674
▁breve	-10.2674
▁doze	-10.2677
▁levar	-10.2682
▁past	-10.2683
▁32	-10.2684
ici	-10.2696
missões	-10.27
▁explicar	-10.2702
▁fome	-10.2706
▁ensina	-10.2707
▁calendário	-10.2707
▁consolida	-10.2707
▁getúlio	-10.2707
▁estreito	-10.2708
▁parede	-10.2708
▁tentou	-10.271
▁ferramentas	-10.2712
▁hel	-10.2717
▁artigos	-10.2721
▁segue	-10.2721
▁idiomas	-10.2721
ní	-10.2724
kin	-10.2724
▁caro	-10.2726
prova	-10.2727
éticos	-10.2728
dito	-10.2734
▁liderada	-10.2735
▁(4	-10.2736
▁diretor	-10.2738
▁marítima	-10.2745
▁mortalidade	-10.2745
▁recém	-10.2745
▁substituído	-10.2745
▁resta	-10.2746
▁verdadeiro	-10.2748
▁padre	-10.2749
ólogos	-10.275
▁atende	-10.2753
▁dig	-10.2754
▁concede	-10.2763
mã	-10.2776
▁pobres	-10.2778
▁armazena	-10.2779
▁climática	-10.2783
▁colapso	-10.2783
▁facilita	-10.2783
▁património	-10.2783
▁proximidade	-10.2783
▁tabela	-10.2783
▁intensa	-10.2783
tron	-10.2784
▁revolucionário	-10.2786
▁prisão	-10.2788
▁variante	-10.279
▁adiciona	-10.2797
▁interesses	-10.2801
▁funda	-10.2804
ídeos	-10.2813
▁yo	-10.2817
▁medieval	-10.2821
▁raízes	-10.2821
▁lançou	-10.2821
▁plutão	-10.2821
▁temas	-10.2822
ivos	-10.2831
dico	-10.2849
▁acadêmico	-10.286
▁corrupção	-10.286
▁soberania	-10.286
▁centenas	-10.286
▁einstein	-10.286
▁cenário	-10.286
▁fazenda	-10.286
▁inteiro	-10.2861
▁etnia	-10.2861
▁definir	-10.2862
▁corrida	-10.2865
nês	-10.2868
▁iso	-10.2877
▁vão	-10.288
▁90	-10.2883
▁empregado	-10.2891
▁veículos	-10.2898
▁poesia	-10.2898
▁persa	-10.2898
▁psicologia	-10.2899
▁censos	-10.29
▁1975	-10.2902
)|	-10.2902
▁dependente	-10.2905
▁governos	-10.2906
▁transformação	-10.2911
▁altos	-10.2913
▁isótopos	-10.2921
eza	-10.2922
▁presta	-10.2923
▁votação	-10.2927
teísmo	-10.2928
▁árvores	-10.2933
▁ambientais	-10.2937
▁moçambique	-10.2937
▁símbolos	-10.2937
▁estreita	-10.2937
▁viria	-10.2938
▁estudar	-10.2944
▁reduzir	-10.2945
▁seguidores	-10.2945
▁pró	-10.295
▁esteve	-10.2954
inter	-10.2957
▁experiências	-10.2958
▁zo	-10.2959
hy	-10.2961
ane	-10.2962
comp	-10.2967
ft	-10.2969
ev	-10.2975
▁ortodoxa	-10.2976
▁turístico	-10.2976
▁gradualmente	-10.2981
▁web	-10.2981
▁relacionadas	-10.2984
▁períodos	-10.2992
▁foz	-10.2994
urban	-10.2994
▁preços	-10.301
▁categorias	-10.3011
▁gerencia	-10.3015
▁quebra	-10.3016
▁produziu	-10.3017
▁residentes	-10.3017
gli	-10.3028
▁cunha	-10.3029
▁potências	-10.3052
▁plataforma	-10.3053
▁quântica	-10.3053
▁síria	-10.3054
▁garantir	-10.3054
▁amplia	-10.3054
▁escolha	-10.3058
▁desporto	-10.3062
▁cores	-10.3062
▁temos	-10.3068
▁objetivos	-10.3069
▁face	-10.3069
▁colônias	-10.307
real	-10.3072
▁aires	-10.3076
▁esti	-10.3086
▁elétrons	-10.3087
cta	-10.3089
▁vento	-10.3092
▁divisões	-10.3093
▁taiwan	-10.3093
▁extensa	-10.3093
▁monumento	-10.3093
▁david	-10.3113
▁rock	-10.3119
▁japoneses	-10.3132
▁ibérica	-10.3132
▁distinto	-10.3132
text	-10.3133
▁converte	-10.3134
▁saber	-10.3136
▁genes	-10.3137
▁gatos	-10.314
▁elite	-10.3145
lva	-10.3158
▁econômicos	-10.3171
▁bolívia	-10.3172
▁envolvido	-10.3172
▁síntese	-10.3172
▁reis	-10.3172
▁repeti	-10.3173
▁realizou	-10.3175
gueira	-10.3206
▁ocupada	-10.3208
▁galáxia	-10.3211
▁vencedor	-10.3213
▁viola	-10.3215
▁terá	-10.3225
▁zero	-10.323
▁conservador	-10.3234
atual	-10.3234
▁hora	-10.3238
▁placa	-10.324
▁privadas	-10.3244
▁apresentou	-10.3251
▁secundária	-10.3251
▁terminou	-10.3251
▁1982	-10.3251
▁retorna	-10.3251
▁seguindo	-10.3251
▁pratos	-10.3261
▁(5	-10.3264
▁capitalismo	-10.3265
tões	-10.3267
▁onça	-10.327
▁servir	-10.3271
▁influenciado	-10.329
▁resultante	-10.329
▁aplicada	-10.329
▁propósito	-10.3291
▁preto	-10.3293
▁superiores	-10.3296
▁promover	-10.3299
▁planície	-10.33
▁determinar	-10.3316
▁duração	-10.3327
▁queima	-10.3331
ães	-10.3331
▁especiais	-10.3331
▁expedição	-10.3331
▁distintas	-10.3332
▁pele	-10.3338
▁africano	-10.3343
▁esteja	-10.3347
sur	-10.3348
▁ponta	-10.335
▁investimentos	-10.3357
▁fecha	-10.3359
▁italianos	-10.3365
▁fatos	-10.3371
▁disponíveis	-10.3372
▁progresso	-10.3372
▁artística	-10.3372
▁visual	-10.3372
▁acumula	-10.3373
ç	-10.3376
▁químicas	-10.338
▁consideram	-10.3384
guia	-10.3392
▁canais	-10.3396
▁ze	-10.3398
▁notícia	-10.3412
▁quarta	-10.3412
▁ferrovia	-10.3418
▁manda	-10.3427
cy	-10.3431
▁pc	-10.3433
▁2017,	-10.3444
▁ip	-10.3447
▁bizantino	-10.3453
▁critério	-10.3453
▁latitude	-10.3453
▁literária	-10.3453
▁planejamento	-10.3458
0%	-10.3459
▁levanta	-10.3463
tha	-10.3465
▁próximas	-10.3467
▁registro	-10.3477
grande	-10.3481
▁atribuído	-10.3494
▁doméstico	-10.3494
▁paquistão	-10.3494
▁moscou	-10.3494
▁martin	-10.3497
▁associados	-10.3499
pin	-10.35
▁eua	-10.3505
▁cumpri	-10.3508
▁investimento	-10.3514
▁separação	-10.3518
▁cura	-10.352
tsu	-10.3522
▁competição	-10.3523
▁vermelha	-10.3524
sumi	-10.3527
▁(15	-10.353
▁desemprego	-10.3535
▁alentejo	-10.3535
▁miguel	-10.3535
▁coluna	-10.3535
▁coli	-10.3542
▁máquinas	-10.3546
▁encontrada	-10.3548
▁figuras	-10.3552
▁assunto	-10.3552
▁posteriores	-10.3553
▁aspecto	-10.3554
dente	-10.3556
mission	-10.3572
▁deixando	-10.3573
▁jornais	-10.3576
▁maranhão	-10.3576
▁tribunais	-10.3576
▁iraque	-10.3576
▁regular	-10.3577
▁utilizar	-10.3578
▁bueno	-10.3578
yn	-10.3592
▁acreditam	-10.3594
tio	-10.3597
▁contribuição	-10.3604
3)	-10.3609
▁massas	-10.3611
▁caiu	-10.3611
▁dependência	-10.3617
▁distingui	-10.3617
▁opinião	-10.3617
▁ritmo	-10.3617
▁consciência	-10.3617
germânico	-10.3618
▁equipamentos	-10.3618
▁motor	-10.3621
▁premi	-10.3621
▁desejo	-10.3625
▁exposição	-10.3626
▁científicas	-10.3626
▁editor	-10.3628
imenta	-10.3629
▁rainha	-10.363
▁essencialmente	-10.3631
▁coisa	-10.3638
dre	-10.3641
▁marcada	-10.3642
▁estatal	-10.3642
▁alfa	-10.3642
▁apresentar	-10.3646
▁distribu	-10.3646
▁10%	-10.3649
▁indonésia	-10.3659
▁orgânica	-10.3659
▁exceto	-10.3659
▁cosm	-10.3666
▁exibi	-10.3668
national	-10.3669
▁livres	-10.367
fl	-10.3672
ong	-10.3673
▁flor	-10.3678
▁essencial	-10.3687
membros	-10.3693
▁fórmula	-10.37
▁macedônia	-10.37
▁pecuária	-10.37
▁permitindo	-10.37
▁nomeadamente	-10.37
corrente	-10.3721
▁viviam	-10.3725
▁parlamentar	-10.3726
graf	-10.3727
▁poucas	-10.3728
ling	-10.3733
▁descrever	-10.3739
▁sujeito	-10.3742
▁ausência	-10.3743
▁realizados	-10.3759
▁restaura	-10.376
▁proporciona	-10.3767
irc	-10.3779
▁vol	-10.3779
▁particulares	-10.3783
▁absoluta	-10.3784
▁facilmente	-10.3784
▁muçulmana	-10.3784
▁eletricidade	-10.3784
▁descrita	-10.3784
▁velha	-10.3793
▁condado	-10.3796
▁visitantes	-10.3797
▁manifestações	-10.3799
▁terrestres	-10.38
▁americanos	-10.3801
pica	-10.3809
▁rosa	-10.3809
ell	-10.3813
fia	-10.3825
▁individuais	-10.3826
▁digital	-10.3826
▁decisões	-10.3826
▁honra	-10.3827
▁polônia	-10.3827
▁600	-10.3828
▁1974	-10.3829
genera	-10.3834
▁documento	-10.3835
▁bre	-10.3838
▁escultura	-10.384
▁reduz	-10.3846
pont	-10.3846
bb	-10.3846
▁resultando	-10.3866
▁colocado	-10.3866
▁bronze	-10.3869
▁goiás	-10.3869
▁linguística	-10.3869
▁windows	-10.3869
▁camboja	-10.3869
▁supri	-10.3879
▁chegando	-10.388
▁tv	-10.3882
▁(16	-10.3883
▁profunda	-10.3885
▁tido	-10.3901
▁contraste	-10.3902
hon	-10.3902
▁fator	-10.3905
▁possivelmente	-10.3911
▁vietnã	-10.3911
▁proporção	-10.3911
▁esfera	-10.3911
▁pudesse	-10.3912
▁desenvolvidos	-10.3912
▁contendo	-10.3913
▁orientais	-10.3921
ok	-10.3921
▁imediatamente	-10.3921
▁encontro	-10.3923
▁tom	-10.3923
▁viver	-10.3925
▁viu	-10.3925
▁unix	-10.393
▁65	-10.3939
bula	-10.394
▁extrema	-10.394
▁acontecimento	-10.3954
▁divindade	-10.3954
▁proprietário	-10.3954
▁ucrânia	-10.3954
▁tradução	-10.3954
democrata	-10.3954
▁1988	-10.3957
▁mira	-10.3959
▁remonta	-10.396
▁compositor	-10.3962
▁leitura	-10.3965
▁estilos	-10.3969
▁gato	-10.3971
▁alcançar	-10.3972
hen	-10.3975
▁asteroides	-10.3979
▁atinge	-10.3987
▁escócia	-10.3997
▁fábrica	-10.3997
▁tailândia	-10.3997
▁capitão	-10.3997
▁ventos	-10.4
7"	-10.4002
ngel	-10.4008
lim	-10.4021
▁2016	-10.4021
▁fabricação	-10.4023
▁migração	-10.4027
▁especifica	-10.4029
▁mau	-10.4032
▁afro	-10.4036
▁diploma	-10.404
▁fósseis	-10.404
▁oportunidade	-10.404
▁mensagens	-10.404
▁percebe	-10.4041
▁vargas	-10.4041
▁variações	-10.4046
▁circulação	-10.4054
cei	-10.4055
▁we	-10.4063
▁enviado	-10.4068
▁urbanas	-10.4068
▁nucleares	-10.4073
▁fornecer	-10.4083
▁biodiversidade	-10.4083
▁intervenção	-10.4083
▁átomos	-10.4083
.000	-10.4084
▁pedido	-10.4084
▁acidente	-10.4084
▁bactérias	-10.4086
tit	-10.4089
▁constituinte	-10.4093
▁2016,	-10.4107
dy	-10.4111
cina	-10.4111
▁produzidos	-10.4113
▁ancestral	-10.4127
▁aproveita	-10.4127
▁enfatiza	-10.4127
▁filosófica	-10.4127
▁fêmea	-10.4127
▁estaduais	-10.4127
▁radical	-10.4127
▁introduzido	-10.4129
guerra	-10.413
▁mecanismos	-10.4135
▁nosso	-10.4137
roma	-10.4137
▁controla	-10.4144
▁artur	-10.4149
▁claro	-10.4162
também	-10.4167
▁humanas	-10.4168
▁funcionários	-10.417
▁vaticano	-10.417
▁conexão	-10.417
▁rigor	-10.4171
cionista	-10.4172
▁escolhido	-10.4172
▁vasco	-10.4172
▁esperança	-10.4173
ídio	-10.4173
▁leon	-10.4179
▁estabilidade	-10.4185
▁correntes	-10.4195
▁recon	-10.4208
ália	-10.4208
▁esforço	-10.4213
dez	-10.4214
▁personalidade	-10.4214
▁vontade	-10.4214
▁herança	-10.4214
▁minério	-10.4215
▁anunciou	-10.4216
pira	-10.4217
▁amplo	-10.4217
▁testamento	-10.4218
▁apoiado	-10.4225
▁contribuições	-10.423
▁missões	-10.4232
▁específicas	-10.4232
aves	-10.4239
encia	-10.4251
▁normas	-10.4251
▁abd	-10.4258
▁incluía	-10.4258
▁mínimo	-10.4258
▁almeida	-10.4258
▁ultra	-10.4258
▁apolo	-10.4264
▁viagens	-10.4267
marca	-10.4272
▁criando	-10.4273
▁bene	-10.4278
elo	-10.4281
oto	-10.4283
▁porte	-10.4283
▁associa	-10.4285
▁estável	-10.4285
▁quadrados	-10.4289
dó	-10.4298
▁infantil	-10.4303
▁malásia	-10.4303
▁orixá	-10.4303
▁recebido	-10.4303
▁reprodução	-10.4303
▁world	-10.4303
▁médica	-10.4303
▁inser	-10.4303
▁dupla	-10.4303
▁fotografia	-10.4303
▁potência	-10.4305
riz	-10.4305
▁espi	-10.4311
censo	-10.4312
▁vicente	-10.4314
▁filósofos	-10.4315
▁hiper	-10.4315
▁racional	-10.4316
▁orienta	-10.4321
▁gla	-10.4323
▁registros	-10.4331
▁vaz	-10.4335
▁assumir	-10.4335
cari	-10.4336
▁complexos	-10.4336
▁ministros	-10.4337
▁descobrir	-10.4338
▁organizada	-10.434
▁fru	-10.434
▁desenvolveram	-10.4341
cient	-10.4344
▁pior	-10.4345
táveis	-10.4346
▁graus	-10.4346
▁colégio	-10.4347
▁destruição	-10.4347
▁fortaleza	-10.4347
▁assegura	-10.4347
cionismo	-10.4347
▁distante	-10.4348
ácio	-10.4353
▁dependendo	-10.4356
▁aceito	-10.4358
▁proto	-10.4384
▁abundância	-10.4392
▁compreensão	-10.4392
▁típico	-10.4392
▁algarve	-10.4392
▁anuncia	-10.4392
▁ordens	-10.4392
▁concorda	-10.4392
▁seguiu	-10.4392
▁seguro	-10.4392
▁ditadura	-10.4392
▁positiva	-10.4394
▁exame	-10.4395
▁gor	-10.4396
ax	-10.4401
▁baseia	-10.4403
▁augusto	-10.441
▁estando	-10.4435
▁cuidados	-10.4436
▁página	-10.4436
▁judaica	-10.4437
▁linux	-10.4437
▁maia	-10.4438
▁ensinamentos	-10.4438
▁samoa	-10.444
▁levado	-10.4442
▁quinto	-10.4444
▁denominações	-10.4446
chu	-10.4456
▁integrante	-10.4456
én	-10.4462
▁mostram	-10.4464
spect	-10.4467
▁alimenta	-10.4473
izando	-10.4478
▁placas	-10.4481
▁semelhança	-10.4481
▁fila	-10.4482
▁trás	-10.4482
nqui	-10.4483
▁instrumento	-10.449
▁mineral	-10.45
▁geográficas	-10.4501
▁densa	-10.4501
▁negativa	-10.4514
▁foco	-10.4525
▁desloca	-10.4525
▁mur	-10.4527
▁judiciário	-10.4527
▁ângulo	-10.4527
▁extinto	-10.4527
▁etapa	-10.4533
▁óxido	-10.4533
▁perdeu	-10.4533
▁vivo	-10.4548
▁jornalista	-10.4556
▁new	-10.4565
▁pombal	-10.4572
▁uniforme	-10.4573
▁adesão	-10.4576
▁inúmeras	-10.4576
▁popularidade	-10.4581
▁gro	-10.4589
▁hipo	-10.4591
▁corta	-10.4596
▁45	-10.4605
▁falar	-10.4606
▁traduz	-10.461
▁consequências	-10.4614
▁assinado	-10.4617
▁afeganistão	-10.4618
▁infinito	-10.4618
▁secretário	-10.4618
▁distinção	-10.4618
▁razões	-10.4618
▁utilizam	-10.4621
▁1985	-10.4622
▁mat	-10.4623
▁deixar	-10.4625
▁filósofo	-10.4632
▁especificamente	-10.4632
▁trinta	-10.4634
▁formalmente	-10.4644
▁trono	-10.4645
8"	-10.4653
▁adotada	-10.466
▁dívida	-10.4664
▁circun	-10.4664
▁codifica	-10.4665
▁bela	-10.4666
▁1984	-10.4667
▁genético	-10.4669
▁durou	-10.4669
tologia	-10.4671
▁suporta	-10.4671
▁jean	-10.4674
▁baía	-10.4676
▁iniciado	-10.4684
▁fundou	-10.4685
ncar	-10.4688
▁estimativas	-10.469
▁realmente	-10.47
▁coração	-10.47
▁argentino	-10.471
▁disponível	-10.471
▁pitágoras	-10.471
▁marrocos	-10.471
▁consisti	-10.471
▁mantido	-10.4711
ek	-10.4713
▁laços	-10.4719
▁menciona	-10.4725
▁ficaram	-10.4725
▁pouca	-10.4736
▁rodovias	-10.4752
jó	-10.4755
▁administra	-10.4755
▁algoritmo	-10.4756
▁hungria	-10.4756
▁montanhosa	-10.4756
▁ideologia	-10.4756
▁algodão	-10.4758
▁domingo	-10.4759
▁aprovada	-10.4759
▁carl	-10.4762
▁parcialmente	-10.4763
▁exclusivamente	-10.4763
▁polar	-10.4766
oeste	-10.4768
▁2017	-10.4771
▁fle	-10.4771
▁pesquisadores	-10.4774
▁administrativo	-10.4775
tendido	-10.478
▁possam	-10.478
▁agrupa	-10.4788
punha	-10.4795
▁eletro	-10.4797
▁costumes	-10.4798
▁dimensões	-10.4803
▁gabinete	-10.4803
▁típica	-10.4803
▁mineração	-10.4803
▁discuti	-10.4803
▁terror	-10.4804
▁sólido	-10.4804
▁raios	-10.4804
regiões	-10.4805
▁prefeito	-10.4808
▁reduzido	-10.4812
▁gira	-10.4814
▁algas	-10.4818
▁vende	-10.483
▁encontrou	-10.4837
▁wo	-10.4837
▁lançada	-10.484
água	-10.4842
▁legislação	-10.4849
▁líbano	-10.4849
▁resolver	-10.4849
▁folhas	-10.485
▁justifica	-10.485
▁visível	-10.485
▁dialeto	-10.485
▁paisagem	-10.4851
▁eleitoral	-10.4853
▁tonga	-10.4856
▁socio	-10.4858
▁sousa	-10.4863
▁cantor	-10.4864
▁correspondente	-10.4864
▁rever	-10.4868
▁designado	-10.4874
▁podia	-10.4876
▁exporta	-10.4887
vila	-10.4889
▁registada	-10.4896
▁catolicismo	-10.4896
▁cálcio	-10.4896
▁reunião	-10.4896
▁barroco	-10.4896
▁venceu	-10.4896
ben	-10.4898
▁char	-10.4899
▁1986	-10.49
▁vapor	-10.4903
▁melhorar	-10.4905
▁gri	-10.4906
▁lagoa	-10.4909
▁denominação	-10.4915
▁biológico	-10.4916
tipo	-10.4922
▁morto	-10.4923
nne	-10.4925
0"	-10.4931
▁combinação	-10.4931
▁leite	-10.4933
▁financia	-10.4939
▁urbanos	-10.4942
ônimo	-10.4943
▁etiópia	-10.4943
▁variáveis	-10.4943
▁índios	-10.4943
▁prazo	-10.4947
▁representando	-10.4948
▁radio	-10.4963
▁escreve	-10.4968
▁edifício	-10.497
▁entidade	-10.4971
▁habitat	-10.4972
▁(6	-10.4979
▁marx	-10.4989
▁normal	-10.499
▁feminino	-10.4991
▁procedimento	-10.4991
▁subsequente	-10.4991
▁ultrapassa	-10.4991
▁joseph	-10.4991
▁pertencia	-10.4991
▁detect	-10.4991
velha	-10.4992
▁processamento	-10.4994
▁andorra	-10.4995
-20	-10.4995
▁caracterizado	-10.5015
▁específica	-10.5019
▁trigo	-10.5023
▁arqui	-10.5026
▁estabelece	-10.5036
▁populosa	-10.5038
▁vegetal	-10.5038
▁1961	-10.5038
▁arquiteto	-10.5039
▁cloro	-10.5039
4"	-10.5039
▁1976	-10.5042
bon	-10.5055
▁derivada	-10.5062
▁canto	-10.5063
▁cena	-10.5071
▁oxigénio	-10.5086
▁literário	-10.5086
▁1978	-10.509
▁propôs	-10.5092
▁invent	-10.5097
▁hong	-10.5106
ther	-10.5108
▁críticos	-10.5108
cap	-10.5111
▁inaugurado	-10.5117
▁prior	-10.512
▁mudar	-10.512
▁transfer	-10.5127
▁propaga	-10.5133
▁círculo	-10.5134
▁eritreia	-10.5134
▁masculino	-10.5134
▁virtude	-10.5134
▁refugiados	-10.5138
▁habilidade	-10.514
▁orçamento	-10.5144
coreano	-10.5151
▁eleitores	-10.5153
▁georg	-10.5155
▁persegui	-10.5162
▁design	-10.5168
torial	-10.5173
▁comanda	-10.5175
▁educacional	-10.5183
▁mostrou	-10.5183
▁enviou	-10.5183
▁actividade	-10.5184
[	-10.5188
▁pira	-10.5189
▁diário	-10.519
▁letra	-10.5202
▁37	-10.5202
▁cin	-10.5218
▁sara	-10.5221
her	-10.5224
hal	-10.5227
▁irmã	-10.5227
▁regra	-10.5229
▁alfabetização	-10.5231
▁contínua	-10.5231
▁cromossomo	-10.5231
▁ênfase	-10.5231
▁richard	-10.5231
▁alfred	-10.5233
▁senso	-10.5234
▁receitas	-10.5235
freguesia	-10.5238
▁vasta	-10.5243
▁meso	-10.5248
▁cima	-10.5252
▁mali	-10.5252
▁dificuldades	-10.5262
▁libertação	-10.5264
▁protestante	-10.5269
élio	-10.5272
▁gigantes	-10.5276
lítico	-10.5279
▁wilde	-10.528
▁articula	-10.528
▁estimula	-10.528
▁lembra	-10.5281
▁consumidor	-10.5283
▁cauda	-10.5284
naturais	-10.5287
▁açores	-10.5287
izações	-10.529
▁identificado	-10.5293
osfera	-10.5309
▁avalia	-10.5313
▁existiam	-10.5315
home	-10.5315
▁kong	-10.5317
▁bomba	-10.5317
▁mecanismo	-10.532
▁inúmer	-10.5325
▁roda	-10.5327
▁alfabeto	-10.5329
▁atribuída	-10.5329
▁engloba	-10.5329
▁obtenção	-10.5329
▁populoso	-10.5329
▁vegetais	-10.5329
▁primatas	-10.5329
200	-10.5334
▁oferta	-10.5335
▁haiti	-10.5337
▁melhoria	-10.535
▁assistência	-10.5366
▁negocia	-10.5367
ene	-10.5373
▁executado	-10.5374
▁coleta	-10.5375
ecida	-10.5377
▁bélgica	-10.5378
▁eficiente	-10.5378
▁flamengo	-10.5378
▁frequenta	-10.5378
▁referido	-10.5378
▁intenção	-10.5378
▁vieram	-10.5379
▁anuais	-10.5381
ónica	-10.5384
▁descreveu	-10.5392
▁começo	-10.5397
▁capitais	-10.5399
cum	-10.54
▁800	-10.5402
▁ocupado	-10.5405
▁chave	-10.5414
▁artificial	-10.5428
▁hospitais	-10.5428
▁cópia	-10.5428
▁suprema	-10.5428
▁chamou	-10.5428
▁recusa	-10.5428
▁acentua	-10.5428
▁partilha	-10.5432
▁vinha	-10.5436
ína	-10.5437
▁1900	-10.5439
▁douro	-10.5443
▁extração	-10.547
6"	-10.5471
▁foca	-10.5471
▁she	-10.5473
▁celulares	-10.5477
▁centrais	-10.5478
▁conclusão	-10.5478
▁participou	-10.5478
▁soberano	-10.5478
▁andré	-10.5482
▁dito	-10.5485
▁moradores	-10.5486
▁flora	-10.5487
▁continuam	-10.5495
▁aceleração	-10.5496
▁térmica	-10.5499
▁rochas	-10.5503
▁relacionado	-10.5504
▁participar	-10.5512
▁dedicado	-10.5513
▁ajudar	-10.5513
▁componente	-10.5526
▁escravidão	-10.5528
▁resolução	-10.5528
▁vulcânica	-10.5528
▁compõem	-10.5528
▁proteger	-10.5532
▁adotou	-10.5535
▁cir	-10.5536
▁professores	-10.5536
▁estágio	-10.5543
▁adultos	-10.5549
rig	-10.5555
▁considerava	-10.5565
▁palm	-10.5568
trans	-10.557
▁hierarquia	-10.5578
▁mensagem	-10.5578
▁ficção	-10.5579
▁dodô	-10.5579
ólogo	-10.5581
máticos	-10.5587
sistema	-10.5588
▁gerado	-10.559
▁relaciona	-10.5591
homo	-10.5591
gência	-10.561
▁caracterizada	-10.5621
▁ossos	-10.5622
▁cristão	-10.5623
▁conseguir	-10.5623
mara	-10.5625
▁adversário	-10.5628
▁filipinas	-10.5628
▁brilhante	-10.5628
▁castela	-10.5628
▁fiscal	-10.5629
▁vertente	-10.5629
▁gastos	-10.5631
▁indiana	-10.5633
▁33	-10.5635
▁recurso	-10.5637
▁coleção	-10.5638
▁tupi	-10.566
▁cop	-10.5672
▁podiam	-10.5678
▁cerâmica	-10.5679
▁cobertura	-10.5679
▁largura	-10.5679
▁meridional	-10.5679
▁recomenda	-10.5679
▁expressões	-10.5679
▁navio	-10.5679
▁invés	-10.568
▁house	-10.568
patri	-10.5685
▁mapa	-10.5687
software	-10.569
▁retirada	-10.5697
▁xv	-10.5699
▁aplicado	-10.5702
▁alimentação	-10.5702
▁voz	-10.5709
way	-10.5711
▁chu	-10.5719
▁representada	-10.573
▁óleo	-10.573
▁republicano	-10.573
▁ribeira	-10.573
▁iria	-10.573
▁90%	-10.5735
▁1948	-10.5736
▁lunar	-10.5737
▁comandante	-10.5756
▁julga	-10.577
▁atlântica	-10.5781
▁unesco	-10.5781
▁prolonga	-10.5781
▁habitada	-10.5783
▁1973	-10.5785
▁pó	-10.5788
▁peixe	-10.579
▁denomina	-10.5798
▁bou	-10.5799
▁existente	-10.5821
▁fifa	-10.5823
▁ocorreram	-10.5824
▁status	-10.5828
▁(2011).	-10.5833
▁modalidade	-10.5833
▁adequada	-10.5833
▁amostra	-10.5834
sider	-10.5839
pina	-10.5844
▁fri	-10.5849
▁64	-10.5856
▁orientação	-10.5857
▁naval	-10.5858
▁encontrava	-10.5878
▁controlar	-10.588
▁tornam	-10.588
▁alexandre	-10.5885
▁júpiter	-10.5885
▁santiago	-10.5885
▁astronomia	-10.5885
▁licença	-10.5885
▁finlândia	-10.5885
▁smith	-10.5885
▁você	-10.5885
▁concepção	-10.5885
▁confronto	-10.5885
▁1962	-10.5888
▁2022	-10.5889
▁xiv	-10.5893
▁margens	-10.5893
▁produzem	-10.5896
▁povoação	-10.5907
ulação	-10.5907
▁secular	-10.591
mato	-10.5912
▁20%	-10.5914
▁cem	-10.5918
imp	-10.593
▁frei	-10.5932
▁beneficia	-10.5937
▁diplomática	-10.5937
▁gravitacional	-10.5937
▁telefone	-10.5937
▁basicamente	-10.594
▁soares	-10.5941
▁shi	-10.5941
▁anglo	-10.5942
▁falantes	-10.5948
▁pou	-10.596
▁servidor	-10.5963
ibilidade	-10.5975
planta	-10.5975
stein	-10.5985
▁crowley	-10.5989
▁hemisfério	-10.5989
fosfato	-10.5989
▁divina	-10.599
▁royal	-10.599
▁aparelho	-10.599
▁segmento	-10.5991
▁1983	-10.5993
lateral	-10.5994
▁futura	-10.5995
▁influenciada	-10.5995
▁nobres	-10.6001
▁evidência	-10.6005
▁diminuição	-10.6023
▁lula	-10.6024
▁raça	-10.6031
▁preço	-10.6032
bico	-10.6042
▁astrônomo	-10.6042
▁desaparece	-10.6042
▁jurídica	-10.6042
▁municipais	-10.6042
▁texas	-10.6042
desambiguação	-10.6046
1)	-10.6061
▁comunica	-10.6068
ínio	-10.6072
;/	-10.6088
▁diâmetro	-10.6095
▁oliveira	-10.6095
▁dimensão	-10.6095
▁sentimento	-10.6095
▁dezenas	-10.6095
▁perdido	-10.6097
%).	-10.61
▁considerando	-10.6107
▁estrangeiro	-10.6114
▁preferi	-10.6114
▁correta	-10.612
▁juan	-10.6121
ciano	-10.6122
▁entender	-10.6131
▁explorado	-10.6145
▁linguagens	-10.6148
▁mosteiro	-10.6148
hor	-10.6154
▁serão	-10.6155
▁nós	-10.6157
▁tentar	-10.6159
▁comunicações	-10.6159
▁tru	-10.618
▁java	-10.6182
▁ficam	-10.6182
▁chuva	-10.6183
well	-10.6193
católico	-10.6198
lândia	-10.6199
▁marítimo	-10.6201
▁mínima	-10.6201
▁confederação	-10.6201
▁índico	-10.6201
▁federais	-10.6201
▁rendimento	-10.6202
▁cabral	-10.6202
-18	-10.6242
▁benefício	-10.6255
▁cordilheira	-10.6255
▁guilherme	-10.6255
▁necessita	-10.6255
▁atitude	-10.6255
▁tipicamente	-10.6255
▁netuno	-10.6255
▁universitário	-10.6255
▁registo	-10.6255
▁abraão	-10.6257
▁feriado	-10.6257
▁ji	-10.6258
▁fraca	-10.6267
▁leão	-10.6267
▁poderoso	-10.6273
▁passam	-10.6273
▁iniciais	-10.6289
▁preservação	-10.6289
▁pessoais	-10.6292
▁familiar	-10.6293
▁pala	-10.6294
▁quadrado	-10.6302
spam	-10.6303
▁arqueológico	-10.6309
▁numerosos	-10.6309
▁pergunta	-10.6309
▁vítima	-10.6309
▁culmina	-10.6309
▁percorre	-10.631
▁aprovação	-10.631
onsideravelmente	-10.6314
▁reduzida	-10.6318
▁aumentando	-10.6324
aviões	-10.6328
▁evita	-10.6328
▁largo	-10.6339
▁guia	-10.6345
deus	-10.6349
vê	-10.6353
▁difere	-10.6354
▁muita	-10.6356
▁feira	-10.6359
▁atuação	-10.6363
▁cerimônia	-10.6364
▁fascismo	-10.6364
▁inimigo	-10.6364
▁necessariamente	-10.6364
▁possibilita	-10.6364
▁tropicais	-10.6364
▁prisioneiro	-10.6364
▁panamá	-10.6364
▁nobreza	-10.6364
▁ocorrido	-10.6364
graduação	-10.6364
▁regista	-10.6364
▁islândia	-10.6364
idae	-10.6365
▁ecologia	-10.6366
▁1964	-10.6367
▁paralelo	-10.6367
▁1967	-10.6368
▁apresentado	-10.6378
▁conspiração	-10.6381
▁areia	-10.6382
▁marcou	-10.6388
▁crítico	-10.6393
king	-10.6394
▁campeão	-10.6395
▁comida	-10.6395
▁exportador	-10.6404
▁ética	-10.6407
▁ônibus	-10.6418
▁expulso	-10.6418
▁desafio	-10.6418
▁serviu	-10.642
▁biografia	-10.6423
▁mercadorias	-10.6424
▁turca	-10.6424
▁cometa	-10.6427
ículo	-10.6432
▁dominado	-10.6435
▁ambi	-10.6437
tino	-10.6438
▁psico	-10.6442
▁tendem	-10.6463
tive	-10.6471
▁considerar	-10.6473
▁albânia	-10.6473
▁mandioca	-10.6473
▁aéreo	-10.6473
▁minutos	-10.6473
▁evidente	-10.6474
▁protestos	-10.6474
▁atenas	-10.6477
▁1968	-10.6477
▁causado	-10.6506
▁pares	-10.6507
▁partícula	-10.6507
▁acelera	-10.6508
▁ganhar	-10.6516
▁anarquismo	-10.6528
▁duque	-10.6528
▁personagens	-10.6528
▁prefeitura	-10.6528
▁tecnológico	-10.6528
▁trabalhista	-10.6528
▁vestígios	-10.6528
▁ilustra	-10.6528
▁percepção	-10.6528
▁artístico	-10.6528
▁convenção	-10.6528
▁detalhes	-10.6529
proclama	-10.6529
▁coberta	-10.6529
▁consegue	-10.6529
▁hinduísmo	-10.6529
▁leoa	-10.6529
▁hélio	-10.653
▁contêm	-10.6533
▁alterna	-10.654
açúcar	-10.6549
fen	-10.6557
▁raro	-10.6558
9"	-10.6561
pelo	-10.6566
eia	-10.6576
▁ascendência	-10.6584
▁trecho	-10.6584
▁carvalho	-10.6584
▁protegida	-10.6584
▁leito	-10.6584
▁assume	-10.6585
▁armazenamento	-10.659
▁alimento	-10.659
string	-10.659
▁mediante	-10.6592
ming	-10.6597
▁40%	-10.6597
▁proteína	-10.6624
▁substitu	-10.6632
▁ficando	-10.6638
▁amazônia	-10.664
▁corinthians	-10.664
▁intensidade	-10.664
▁sintetiza	-10.664
▁úmido	-10.664
▁invenção	-10.664
▁80%	-10.6648
▁timor	-10.6649
▁50%	-10.665
tradicionalmente	-10.6656
▁envolvendo	-10.6658
éria	-10.6659
▁designação	-10.6663
▁tende	-10.6683
▁causada	-10.6687
▁episódio	-10.6696
▁estratégica	-10.6696
▁fácil	-10.6696
▁holandeses	-10.6696
▁instalações	-10.6696
▁observou	-10.6696
▁tráfego	-10.6696
▁gravidade	-10.6696
▁pioneiro	-10.6696
▁pequim	-10.6696
▁operacionais	-10.6698
▁frutas	-10.67
▁chipre	-10.6701
▁1949	-10.6703
▁assassinato	-10.6708
ller	-10.6722
▁imediata	-10.6739
▁adotado	-10.674
▁inspira	-10.6743
▁cidadania	-10.6752
▁ferroviário	-10.6753
▁defensor	-10.6753
▁depressão	-10.6753
▁beleza	-10.6753
▁fibras	-10.6754
▁turística	-10.6754
▁bombarde	-10.6755
▁auxiliar	-10.6772
química	-10.6774
▁aconteceu	-10.6785
▁regulares	-10.679
fla	-10.6805
▁comparado	-10.6806
▁encerra	-10.681
▁vira	-10.6811
▁plena	-10.6811
▁eventualmente	-10.6813
▁morre	-10.6814
ócitos	-10.6815
▁dispõe	-10.6815
▁aprende	-10.6817
▁controlado	-10.6818
▁dominada	-10.682
▁vasto	-10.6821
▁neuro	-10.6822
bé	-10.6823
▁viveu	-10.6837
▁guara	-10.6837
▁recuperação	-10.6841
açu	-10.6841
▁situações	-10.6842
ísmo	-10.6846
▁exteriores	-10.6849
já	-10.6852
▁roberto	-10.6861
▁obrigado	-10.6866
▁arménia	-10.6866
▁controvérsia	-10.6866
▁poluição	-10.6866
▁quinze	-10.6866
▁intervalo	-10.6867
▁sueco	-10.6867
▁herói	-10.6867
▁hidrográfica	-10.6868
▁equação	-10.6869
▁retrata	-10.687
▁coletiva	-10.6872
▁sagan	-10.6876
pati	-10.6887
▁haja	-10.6894
▁vital	-10.6897
▁similares	-10.6898
▁braço	-10.6898
▁mineiro	-10.6899
▁faro	-10.69
mida	-10.6912
▁canta	-10.6914
▁apresentando	-10.6924
▁atletas	-10.6924
▁candomblé	-10.6924
▁impulsiona	-10.6924
▁dúvida	-10.6924
▁músico	-10.6924
▁adeptos	-10.6924
▁restrições	-10.6924
▁manipula	-10.6924
▁causou	-10.6924
▁incentivo	-10.6924
▁profundo	-10.6924
▁naquela	-10.6926
▁chamar	-10.693
▁integrada	-10.6931
▁legado	-10.6936
▁navegação	-10.6941
▁indicam	-10.6942
▁pertencem	-10.6944
pintada	-10.6946
▁proporcional	-10.6948
à	-10.6949
▁observar	-10.6964
▁poderá	-10.6966
▁observada	-10.6969
▁explicação	-10.6974
logista	-10.6978
▁governamentais	-10.6982
▁jardim	-10.6982
▁consenso	-10.6982
▁parceria	-10.6982
▁pretende	-10.6982
▁firme	-10.6982
▁positivo	-10.6983
▁contribuiu	-10.6984
▁1987	-10.6986
▁1958	-10.6986
leste	-10.701
▁capitalista	-10.7014
▁metro	-10.7019
▁continuaram	-10.7026
▁vêm	-10.7027
▁espectro	-10.7035
▁disto	-10.7037
estar	-10.7038
▁atômico	-10.704
▁durkheim	-10.704
▁exercício	-10.704
▁favelas	-10.704
▁1971	-10.704
▁zinco	-10.704
▁favorece	-10.7041
▁obrigatório	-10.7042
▁apple	-10.7042
▁1917	-10.7046
incluindo	-10.7066
▁lucro	-10.7082
ident	-10.7097
▁artista	-10.7098
▁gráfico	-10.7098
▁género	-10.7098
▁primavera	-10.7098
▁sucessão	-10.7098
▁artesanato	-10.7098
▁ibge	-10.7098
▁preciso	-10.7098
▁consulta	-10.7099
▁receptor	-10.71
▁sugere	-10.7111
veja	-10.7112
▁povoamento	-10.7113
▁catar	-10.7114
▁citado	-10.7122
▁relacionada	-10.7128
ep	-10.7131
▁processa	-10.7141
▁oxida	-10.7141
▁circular	-10.7143
▁especializada	-10.7146
▁absoluto	-10.7157
▁câncer	-10.7157
▁cérebro	-10.7157
▁depósitos	-10.7157
▁jurídico	-10.7157
▁probabilidade	-10.7157
▁virtual	-10.7157
▁vincula	-10.7157
▁raramente	-10.7157
▁treze	-10.7158
▁delimita	-10.7158
▁demográfica	-10.7158
▁aprecia	-10.716
histori	-10.716
▁1965	-10.7161
▁public	-10.7163
gá	-10.7164
▁arquivo	-10.7168
▁xiii	-10.7169
▁negociações	-10.717
▁prove	-10.7174
▁700	-10.7178
▁forçado	-10.7183
▁cari	-10.7198
▁teriam	-10.72
▁monge	-10.7205
▁simultaneamente	-10.7216
▁triângulo	-10.7216
▁construiu	-10.7216
▁definições	-10.7216
▁ilegal	-10.7216
▁ferreira	-10.7216
▁isolada	-10.7217
▁destinado	-10.7218
win	-10.7219
▁1941	-10.7221
▁recorre	-10.7224
▁contesta	-10.7224
▁muscular	-10.7227
▁vê	-10.7229
consequentemente	-10.7231
▁designar	-10.7232
▁projeta	-10.7255
▁qualifica	-10.7275
▁alcançou	-10.7276
▁complexidade	-10.7276
▁evolutiva	-10.7276
▁rituais	-10.7276
▁senegal	-10.7276
▁revolucionária	-10.7278
▁teórica	-10.7278
▁árvore	-10.7281
▁cientista	-10.7282
▁macro	-10.7286
▁julgamento	-10.7291
▁2021).	-10.7303
▁conter	-10.7308
▁fundamento	-10.7314
▁crescer	-10.7316
▁estudado	-10.7321
▁profundidade	-10.7336
▁reforça	-10.7336
▁frank	-10.7336
▁principado	-10.7336
▁250	-10.7336
▁controlada	-10.7338
▁linear	-10.7338
▁batista	-10.734
▁afirmação	-10.7357
▁gerar	-10.7368
▁identificar	-10.7368
ómica	-10.7368
▁sector	-10.7371
▁relativo	-10.7375
▁predomina	-10.7376
▁sons	-10.7379
▁deixaram	-10.7381
▁sugerem	-10.7383
▁colónia	-10.7396
▁fisiologia	-10.7396
▁provável	-10.7396
▁1939	-10.7403
▁luc	-10.7407
▁renome	-10.7419
▁presidencial	-10.7421
▁designa	-10.7432
▁fen	-10.7435
▁mesa	-10.7436
▁implementação	-10.7438
▁convenc	-10.7448
▁praga	-10.7451
▁guatemala	-10.7457
▁numerosas	-10.7457
▁equatorial	-10.7457
▁1972	-10.7457
▁ideais	-10.7457
▁útil	-10.7457
▁isolado	-10.7457
▁formou	-10.7457
▁pacote	-10.7457
▁1966	-10.7461
▁ceuta	-10.7462
óide	-10.7467
▁todavia	-10.7473
▁devast	-10.7475
▁concluiu	-10.7481
▁juli	-10.7486
▁gerações	-10.7487
▁mário	-10.7505
viking	-10.7505
▁rna	-10.7513
▁nascente	-10.7513
sistência	-10.7518
▁testemunha	-10.7518
▁reproduz	-10.7518
▁expandir	-10.7518
▁solicita	-10.7518
▁geográfico	-10.7523
▁banana	-10.7526
▁enzima	-10.7532
▁associações	-10.7533
▁contrato	-10.7535
europe	-10.7536
▁israelense	-10.7542
▁restauração	-10.7548
▁islã	-10.755
▁negativo	-10.7552
gene	-10.7553
▁promulga	-10.7579
▁enxofre	-10.7579
▁festivais	-10.7579
▁instalação	-10.7579
▁juízes	-10.7579
▁roraima	-10.7579
▁ensaio	-10.7579
▁obtida	-10.7579
▁obrigatória	-10.758
▁substituição	-10.7581
▁nominal	-10.7582
▁questiona	-10.7582
▁1977	-10.7584
▁1918	-10.7585
▁tensão	-10.7585
▁coloniz	-10.7589
▁raiz	-10.759
▁canções	-10.7592
▁finalidade	-10.7597
▁nela	-10.7603
▁raio	-10.7604
▁importações	-10.7606
free	-10.7608
front	-10.7617
▁defender	-10.7629
iforme	-10.7638
▁alguém	-10.7641
▁intelectual	-10.7641
▁territoriais	-10.7641
▁admiti	-10.7641
▁mantendo	-10.7641
▁introduziu	-10.7641
▁vidro	-10.7641
▁stalin	-10.7643
▁1946	-10.7646
▁70%	-10.7648
▁gomes	-10.7648
▁teologia	-10.7652
▁xii	-10.7654
▁dieta	-10.7658
▁liberais	-10.7662
▁interessa	-10.7671
▁punk	-10.768
▁possuíam	-10.7685
▁malta	-10.7691
▁combustível	-10.7703
▁extremidade	-10.7703
▁incêndio	-10.7703
▁manganês	-10.7703
▁ocasião	-10.7703
▁tecnológica	-10.7703
▁invasões	-10.7703
▁reflete	-10.7703
▁iorque	-10.7703
▁clã	-10.7703
▁antropologia	-10.7704
▁elevação	-10.7704
▁civilizações	-10.7704
▁alves	-10.7707
▁1956	-10.7709
▁praticantes	-10.7711
▁armada	-10.7711
▁impedir	-10.772
post	-10.7722
▁recebem	-10.7729
▁acrescenta	-10.7765
▁anatomia	-10.7765
▁hectares	-10.7765
▁módulo	-10.7765
▁ocasiões	-10.7765
▁respeita	-10.7765
▁dumont	-10.7765
▁inflação	-10.7765
▁oriundo	-10.7765
▁coloração	-10.7765
▁barreira	-10.7766
field	-10.7767
▁relatividade	-10.7768
▁oscila	-10.7769
▁camponeses	-10.7769
▁1981	-10.7769
▁sagrado	-10.777
▁comuna	-10.7773
▁helen	-10.7775
ical	-10.7776
▁bola	-10.7782
▁colocada	-10.7784
▁experimental	-10.7795
erva	-10.7799
ville	-10.7804
▁preocupação	-10.7807
▁fundadores	-10.7811
▁albert	-10.7812
▁falam	-10.7818
phy	-10.7822
▁desigualdade	-10.7828
▁incluído	-10.7828
▁instalado	-10.7828
▁variável	-10.7828
▁extenso	-10.7828
▁parceiro	-10.7828
conf	-10.7833
▁governado	-10.7835
▁originais	-10.785
▁30%	-10.7851
▁provi	-10.786
▁vaga	-10.7872
▁distribui	-10.7889
▁combustíveis	-10.7891
▁discussão	-10.7891
▁holandesa	-10.7891
▁periódica	-10.7891
▁ajudou	-10.7891
▁hetero	-10.7892
▁onze	-10.7893
▁introduzida	-10.7896
▁administrada	-10.7905
▁derrotado	-10.7928
capital	-10.7928
▁conspira	-10.7935
▁coopera	-10.7935
federa	-10.7942
▁cobra	-10.795
▁caracteres	-10.7955
▁florença	-10.7955
▁músculo	-10.7955
▁telescópio	-10.7955
▁vénus	-10.7955
britannica	-10.7955
▁1963	-10.7955
▁incentiva	-10.7955
▁infante	-10.7955
▁martinho	-10.7958
▁pontua	-10.7958
▁estáveis	-10.7967
▁agregada	-10.7969
▁seguem	-10.797
▁viol	-10.7972
culares	-10.7976
▁louis	-10.7977
▁max	-10.7987
▁urss	-10.7998
▁exige	-10.8
▁adaptação	-10.8009
▁secreta	-10.8013
▁praticada	-10.8015
hardware	-10.8019
▁evangelho	-10.8019
▁intermediária	-10.8019
▁álcool	-10.8019
▁abandono	-10.8019
▁meteoro	-10.8019
▁especula	-10.8021
▁rocha	-10.8022
web	-10.8022
▁treinamento	-10.8025
▁1,5	-10.8025
▁1938	-10.8027
▁bauru	-10.8027
▁sant	-10.8029
▁iniciada	-10.8033
folk	-10.8035
▁irá	-10.8036
▁estimado	-10.804
▁media	-10.8055
▁horário	-10.8061
▁diminuiu	-10.8083
▁argélia	-10.8084
▁impossível	-10.8084
▁inteligência	-10.8084
▁islamismo	-10.8084
▁paradigma	-10.8084
▁remanescente	-10.8084
▁transformou	-10.8084
▁brunei	-10.8084
▁inunda	-10.8084
▁palco	-10.8084
▁jogar	-10.8086
▁aborda	-10.8087
▁alasca	-10.8087
▁urano	-10.8088
▁1947	-10.8091
▁tiro	-10.8099
▁bell	-10.8099
▁existia	-10.8103
▁oxidação	-10.8106
▁circula	-10.8114
▁olímpico	-10.8121
▁sucedido	-10.8122
▁armado	-10.8123
▁capa	-10.814
▁acusado	-10.8141
▁pastor	-10.8144
▁antártida	-10.8149
▁filosófico	-10.8149
▁jamaica	-10.8149
▁infância	-10.8149
▁alcance	-10.8149
▁globo	-10.8149
▁batata	-10.8151
▁conseguiram	-10.8155
▁retoma	-10.8156
reino	-10.8162
▁reside	-10.8174
pression	-10.818
químico	-10.8189
▁irregular	-10.8214
▁alcobaça	-10.8214
▁liechtenstein	-10.8214
▁instabilidade	-10.8214
▁carnaval	-10.8214
▁afluente	-10.8215
▁propaganda	-10.8216
▁aquiles	-10.8217
ítica	-10.8223
▁sancho	-10.8224
▁totalidade	-10.8227
▁recorde	-10.8242
▁dizem	-10.8243
▁adicional	-10.8245
▁complementar	-10.8251
categoria	-10.8255
desambiguaç	-10.8275
▁praticado	-10.8276
▁apresentada	-10.8279
▁envolvida	-10.828
▁glândula	-10.828
▁óptica	-10.828
▁bioquímica	-10.8281
▁destinada	-10.8281
▁1943	-10.8284
shima	-10.8288
▁processador	-10.8294
▁adicionais	-10.8298
▁proposto	-10.8298
odice	-10.8303
▁xxi	-10.8319
▁caba	-10.8321
vá	-10.8325
▁criança	-10.8329
▁inspirado	-10.8334
▁austral	-10.8336
▁filo	-10.8346
commonwealth	-10.8346
▁economista	-10.8346
▁feudal	-10.8346
▁perfeita	-10.8346
▁eficiência	-10.8346
▁havendo	-10.8346
▁divino	-10.8346
sucedida	-10.8346
▁pascal	-10.8347
▁termodinâmica	-10.8347
▁bolsa	-10.8347
▁60%	-10.8355
▁designada	-10.8357
▁traduzido	-10.8358
▁representante	-10.8359
▁poderosa	-10.8363
▁profundamente	-10.8367
feira	-10.8374
lly	-10.8381
▁nele	-10.8387
▁pista	-10.8391
valente	-10.8398
▁fama	-10.8401
▁ovos	-10.8405
gru	-10.8405
▁receberam	-10.8408
▁entendimento	-10.8413
▁feminina	-10.8413
▁lítio	-10.8413
▁napoleão	-10.8413
▁instalada	-10.8413
▁descobrimento	-10.8413
▁johann	-10.8413
▁estátua	-10.8413
▁condenado	-10.8414
▁alegre	-10.8415
▁secretaria	-10.8423
▁participantes	-10.8426
▁trance	-10.8427
▁mancha	-10.8433
▁palma	-10.8438
▁atacar	-10.8448
_3	-10.8456
gênio	-10.846
biologia	-10.8472
4)	-10.8475
▁nucle	-10.8476
▁surgir	-10.8476
ceno	-10.8477
génio	-10.848
▁abastecimento	-10.848
▁amazônica	-10.848
▁escassez	-10.848
▁ligeiramente	-10.848
▁metálico	-10.848
▁sacerdote	-10.848
▁escritório	-10.848
▁concedido	-10.848
▁coberto	-10.848
▁celta	-10.8483
▁assinatura	-10.8483
▁1954	-10.8486
▁generalizada	-10.8492
▁pagamento	-10.8502
▁fluido	-10.8503
telecomunicações	-10.8547
▁eletromagnética	-10.8547
▁jerusalém	-10.8547
▁joaquim	-10.8547
▁plástico	-10.8547
▁construções	-10.8547
▁santuário	-10.8548
▁glico	-10.8548
▁roupa	-10.8548
▁convoca	-10.8549
▁acompanhado	-10.8564
▁lobo	-10.8583
▁bsd	-10.8583
▁marxista	-10.8588
liga	-10.8589
guarda	-10.8595
ministra	-10.8602
▁trem	-10.8613
▁autônoma	-10.8615
▁catedral	-10.8615
▁hidrelétrica	-10.8615
▁palestina	-10.8615
▁paróquia	-10.8615
▁society	-10.8615
▁maurício	-10.8615
▁ranking	-10.8615
▁hábito	-10.8616
partidário	-10.8621
▁prédio	-10.8623
▁1955	-10.8625
▁vídeo	-10.8632
▁sabor	-10.8641
▁testa	-10.8641
▁metano	-10.8643
▁consistente	-10.8655
alter	-10.866
▁barba	-10.8668
porto	-10.8679
▁agricultores	-10.8684
▁contínuo	-10.8684
▁juventude	-10.8684
▁propriamente	-10.8684
▁essenciais	-10.8684
▁substituída	-10.8684
▁compilado	-10.8684
▁pediu	-10.8684
▁penetra	-10.8685
▁confiança	-10.8685
▁belém	-10.8685
▁avenida	-10.8685
▁posiciona	-10.8686
▁1969	-10.8688
▁aprovado	-10.869
▁mantida	-10.8692
▁doutor	-10.8695
▁daquela	-10.8695
▁karl	-10.8697
▁criaram	-10.8697
▁pereira	-10.873
rich	-10.8743
▁montanha	-10.8753
▁anselmo	-10.8753
▁malvinas	-10.8753
▁primitiva	-10.8753
▁herdeiro	-10.8753
▁vouga	-10.8753
▁atômica	-10.8753
▁1932	-10.8759
▁yu	-10.876
▁parlamentares	-10.878
cker	-10.8784
▁entraram	-10.8805
▁enviada	-10.881
▁receita	-10.8818
▁bielorrússia	-10.8822
▁discípulo	-10.8822
▁espaciais	-10.8822
▁rodrigues	-10.8822
▁ópera	-10.8822
▁excelente	-10.8822
▁iguais	-10.8822
▁reúne	-10.8823
▁nuvens	-10.8823
▁esquema	-10.8823
▁violenta	-10.8823
▁1944	-10.8827
▁1922	-10.8828
▁1919	-10.8831
▁efetivamente	-10.8834
▁casca	-10.8835
▁saara	-10.8835
▁gnu	-10.8843
▁projetado	-10.8847
▁auxilia	-10.8869
▁saud	-10.8872
▁distinta	-10.889
avelmente	-10.889
▁ancestrais	-10.8892
▁intimamente	-10.8892
▁metodologia	-10.8892
▁tráfico	-10.8892
▁eduardo	-10.8892
▁intenso	-10.8892
▁emergência	-10.8892
▁aparência	-10.8893
▁precursor	-10.8893
▁produzindo	-10.8895
▁1959	-10.8897
puseram	-10.8899
▁mega	-10.8905
▁competições	-10.8919
▁fermi	-10.8921
▁estabelecendo	-10.8926
▁interessante	-10.8929
▁tour	-10.8932
ontologia	-10.894
▁identificação	-10.8945
▁alteração	-10.8952
▁saint	-10.8959
▁intelectuais	-10.8963
▁júlio	-10.8963
▁nigéria	-10.8963
▁rugby	-10.8963
▁drogas	-10.8963
▁sindicato	-10.8963
▁andrade	-10.8963
▁consagra	-10.8963
▁quaisquer	-10.8963
▁chá	-10.8964
▁mantêm	-10.8964
▁combinado	-10.8965
▁expresso	-10.8968
fort	-10.8968
▁paralela	-10.8969
▁1933	-10.8969
▁1914	-10.8971
grado	-10.8989
▁alcançado	-10.8991
▁vencer	-10.8996
língua	-10.9014
produto	-10.9016
▁infra	-10.9017
▁inaugura	-10.9021
▁perdendo	-10.9023
mail	-10.9025
nã	-10.9033
▁inteiramente	-10.9034
▁sobrevivência	-10.9034
▁tocantins	-10.9034
▁álbum	-10.9034
▁escritura	-10.9034
▁ordenou	-10.9034
▁revelou	-10.9034
▁carioca	-10.9034
▁bohr	-10.9034
▁sexta	-10.9035
▁politicamente	-10.9036
▁crosta	-10.9044
▁avaliação	-10.9064
▁navega	-10.9066
▁primo	-10.9095
▁ganho	-10.9096
▁exemplar	-10.9105
▁symbian	-10.9105
▁austríaco	-10.9105
▁chomsky	-10.9105
▁intermediário	-10.9105
▁metabolismo	-10.9105
▁microscópio	-10.9105
▁sebastião	-10.9105
▁palestra	-10.9105
▁referida	-10.9105
▁pago	-10.9111
▁desconhecido	-10.9111
▁rodovia	-10.9111
▁camões	-10.9113
▁interações	-10.9115
▁atraí	-10.9116
▁1910	-10.9118
▁mineira	-10.9119
▁diária	-10.9121
▁severa	-10.9125
▁especialistas	-10.9126
▁fechada	-10.9146
principalmente	-10.9158
▁registrou	-10.916
izaram	-10.9171
▁atualidade	-10.9174
▁energética	-10.9177
▁homicídio	-10.9177
▁imagina	-10.9177
▁incluída	-10.9177
▁mexicano	-10.9177
▁michelangelo	-10.9177
▁prosperidade	-10.9177
▁rebelião	-10.9177
▁expandiu	-10.9177
▁judaísmo	-10.9177
▁produtividade	-10.9177
▁degradação	-10.9177
▁gratuita	-10.9177
▁isolamento	-10.9177
▁revisão	-10.9177
▁ibm	-10.9179
▁substituir	-10.9183
▁segura	-10.9185
▁seguiram	-10.919
▁intuit	-10.9192
▁morro	-10.9203
▁verões	-10.9208
▁perseguição	-10.9208
▁adoção	-10.921
▁arara	-10.922
plast	-10.9225
república	-10.9231
nunciou	-10.9246
▁permaneceram	-10.9246
▁bulgária	-10.9249
▁friedrich	-10.9249
▁germânica	-10.9249
▁influenciou	-10.9249
▁originou	-10.9249
▁personagem	-10.9249
▁reconquista	-10.9249
▁faraday	-10.9249
▁provocou	-10.9249
▁garantia	-10.9249
▁instruções	-10.925
▁incidente	-10.925
▁distribuída	-10.925
▁pacto	-10.925
▁terreiro	-10.9252
▁esperanto	-10.9257
▁aparentemente	-10.9262
▁pobre	-10.9276
▁claramente	-10.9278
▁justa	-10.9279
sub	-10.9283
▁inaugurada	-10.9288
▁soja	-10.9293
▁acabaram	-10.9299
▁treina	-10.9316
▁pavimenta	-10.9322
▁cinturão	-10.9322
▁incapaz	-10.9322
▁jordânia	-10.9322
▁quântico	-10.9322
▁topônimo	-10.9322
▁orquestra	-10.9322
▁exatamente	-10.9322
▁multiplica	-10.9322
▁excesso	-10.9322
▁conversão	-10.9322
▁chão	-10.9323
▁compensa	-10.9325
curi	-10.9326
▁eficaz	-10.9334
▁dinis	-10.9336
▁cidadão	-10.9337
▁morreram	-10.9343
▁tubo	-10.9346
▁opção	-10.9347
▁barros	-10.9356
estrutura	-10.9364
formula	-10.9364
▁minho	-10.9369
▁almada	-10.9377
▁contribuíram	-10.9396
▁privilégio	-10.9396
▁amapá	-10.9396
▁difusão	-10.9396
▁isabel	-10.9396
▁precisão	-10.9396
▁york	-10.9396
▁holanda	-10.9396
▁rumo	-10.9438
▁gastronomia	-10.947
▁metrópole	-10.947
▁abolição	-10.947
▁judicial	-10.947
▁radicais	-10.947
▁sétimo	-10.947
▁adequado	-10.947
íssima	-10.947
▁temperado	-10.947
▁amarelo	-10.947
▁aprovou	-10.947
▁bernard	-10.947
▁dizendo	-10.947
▁induz	-10.9471
▁silício	-10.9472
culos	-10.9476
▁mental	-10.948
▁bits	-10.9485
▁dispositivo	-10.949
▁molécula	-10.949
▁puro	-10.9492
▁puni	-10.9494
▁mendel	-10.9523
▁quadr	-10.9523
▁tentaram	-10.9528
▁antrop	-10.9533
▁representações	-10.9543
▁music	-10.9545
▁coalizão	-10.9545
▁diocese	-10.9545
▁fragmenta	-10.9545
▁monopólio	-10.9545
▁ordinais	-10.9545
▁césar	-10.9545
▁rebeldes	-10.9545
▁cozinha	-10.9545
▁quark	-10.9545
▁replica	-10.9545
▁anéis	-10.9546
▁procede	-10.9549
▁petro	-10.9549
▁ecológico	-10.9552
▁regularmente	-10.957
▁terminal	-10.9573
▁imposto	-10.9574
pessoa	-10.9589
▁aliado	-10.9597
evolução	-10.961
▁cristóvão	-10.962
▁palestino	-10.962
▁provisório	-10.962
▁recusou	-10.962
▁trindade	-10.962
▁restrita	-10.962
▁cavaleiro	-10.962
▁maciço	-10.962
▁defendia	-10.962
▁piloto	-10.962
▁dominação	-10.9623
▁secreto	-10.9623
▁modela	-10.9625
▁1929	-10.9625
▁mencionado	-10.9626
▁gravado	-10.9627
ity	-10.9627
▁definitivamente	-10.963
▁fraco	-10.9632
▁sódio	-10.9634
▁relacionamento	-10.9637
▁familiares	-10.9643
▁publicações	-10.9646
▁servidores	-10.9647
▁gaza	-10.9655
▁tang	-10.966
▁dizia	-10.966
▁inferiores	-10.9663
cruz	-10.9683
▁constitucionais	-10.9696
▁endereço	-10.9696
▁sufrágio	-10.9696
▁tungstênio	-10.9696
▁college	-10.9696
▁assinou	-10.9696
▁fiéis	-10.9696
▁santarém	-10.9696
▁promoção	-10.9696
▁divisa	-10.9696
▁colinas	-10.9702
▁drama	-10.9702
▁nutri	-10.9706
▁deslocamento	-10.9707
flores	-10.9718
▁dificuldade	-10.9724
▁25%	-10.9732
ocitose	-10.9735
▁fuga	-10.975
perante	-10.9766
▁jurisdição	-10.9772
▁kuwait	-10.9772
▁litorânea	-10.9772
▁potássio	-10.9772
▁romênia	-10.9772
▁urbanização	-10.9772
▁lentamente	-10.9772
▁estética	-10.9772
▁examina	-10.9772
▁igualdade	-10.9773
▁fixo	-10.9777
▁excede	-10.9778
▁edições	-10.9784
▁mini	-10.9806
▁august	-10.9818
▁sementes	-10.9818
ónico	-10.9818
embora	-10.9836
▁francis	-10.9839
nomia	-10.9841
▁classificou	-10.9849
▁suicídio	-10.9849
▁tempestade	-10.9849
▁adquirir	-10.9849
▁belize	-10.9849
▁impulso	-10.9849
▁michael	-10.9849
▁show	-10.9849
▁sugeriu	-10.9849
▁vantagem	-10.9849
▁pinheiro	-10.9849
▁dividir	-10.9849
▁genoma	-10.9849
cionar	-10.9849
▁violento	-10.9849
▁seleciona	-10.985
▁calvin	-10.986
▁rompe	-10.986
▁inspiração	-10.9877
▁abrir	-10.9878
▁representava	-10.9912
agregada	-10.9914
teoria	-10.9915
▁basílica	-10.9926
▁facilidade	-10.9926
▁rodoviária	-10.9926
▁válido	-10.9926
▁utilidade	-10.9926
▁1957	-10.9926
▁ocasionalmente	-10.9926
▁destruída	-10.9926
▁postula	-10.9926
▁suíço	-10.9927
▁escudo	-10.9928
▁vivia	-10.9928
▁aveiro	-10.9929
▁fracasso	-10.993
▁1924	-10.9933
▁1936	-10.9935
mãe	-10.9948
▁1890	-10.9953
▁anarquista	-10.9964
▁estimativa	-10.9975
▁aparente	-10.9994
existe	-10.9994
▁competência	-11.0005
▁discrimina	-11.0005
▁economicamente	-11.0005
▁guerreiro	-11.0005
▁inquisição	-11.0005
▁singular	-11.0005
▁repressão	-11.0005
▁combustão	-11.0005
▁sindical	-11.0005
▁clero	-11.0005
▁curva	-11.0007
▁essência	-11.0008
▁outono	-11.0008
coreana	-11.0012
▁zeus	-11.0014
▁milênio	-11.0016
▁tomé	-11.0024
▁alberto	-11.0041
▁islão	-11.0042
▁gosta	-11.0047
▁conclui	-11.0052
áculo	-11.0053
▁reconstrução	-11.0083
▁entretenimento	-11.0083
▁laranja	-11.0083
▁ignora	-11.0083
▁primitivo	-11.0083
▁duplica	-11.0083
▁federativa	-11.0083
pronuncia	-11.0083
▁assentos	-11.0084
requisito	-11.0084
▁escura	-11.0084
▁malaio	-11.0084
▁vendido	-11.0085
▁emirados	-11.0085
▁jacob	-11.0085
▁subsistência	-11.0087
express	-11.0089
▁venera	-11.0091
▁nervoso	-11.0108
calcul	-11.0134
países	-11.0152
▁expedições	-11.0163
▁parâmetro	-11.0163
▁sacrifício	-11.0163
▁elaborado	-11.0163
▁estufa	-11.0163
▁aparecimento	-11.0163
▁equações	-11.0165
▁merece	-11.0166
▁controlo	-11.0166
▁traça	-11.0196
▁gerou	-11.02
órica	-11.0215
▁acadêmica	-11.0243
▁citoplasma	-11.0243
▁célebre	-11.0243
▁folclore	-11.0243
▁preferência	-11.0243
▁proibição	-11.0243
▁piauí	-11.0243
▁umbanda	-11.0243
▁condiciona	-11.025
▁fidel	-11.0251
▁dominicana	-11.0255
▁sudão	-11.0261
▁rende	-11.0272
río	-11.0276
▁record	-11.031
húngaro	-11.0323
▁assemelha	-11.0323
▁marquês	-11.0323
▁privilegia	-11.0323
▁objetiva	-11.0323
íssimo	-11.0323
▁1953	-11.0323
▁absorve	-11.0323
▁demográfico	-11.0328
▁pilha	-11.0328
▁delta	-11.0333
▁permitiram	-11.0335
psd	-11.0344
chefe	-11.0345
▁morais	-11.0368
▁assassinado	-11.0377
industrialização	-11.0389
▁turno	-11.0395
▁representativa	-11.0398
▁france	-11.04
▁exercido	-11.0405
▁holandês	-11.0405
▁medievais	-11.0405
▁prejudica	-11.0405
▁rodoviário	-11.0405
▁trânsito	-11.0405
▁conexões	-11.0405
▁normandia	-11.0405
▁eleitorais	-11.0405
▁tensões	-11.0405
town	-11.0407
▁direcion	-11.0408
▁pólo	-11.0452
▁filipe	-11.0455
▁emenda	-11.0481
▁circunstância	-11.0487
▁diversificada	-11.0487
▁egípcio	-11.0487
▁iluminismo	-11.0487
▁implantação	-11.0487
▁resíduos	-11.0487
▁rígido	-11.0487
▁aeronave	-11.0487
▁magnética	-11.0487
▁patriarca	-11.0487
▁suriname	-11.0487
▁simplifica	-11.0487
▁sujeita	-11.0487
▁atingido	-11.0487
▁soluções	-11.0487
▁narrativa	-11.0487
▁nepal	-11.0487
▁elementar	-11.0488
▁insular	-11.0488
▁ecológica	-11.0489
▁colocou	-11.0491
▁barragem	-11.0492
▁platão	-11.0495
▁migrantes	-11.0499
▁1895	-11.0514
▁espada	-11.0532
▁passe	-11.0535
▁psi	-11.0537
têm	-11.0554
▁efetiva	-11.0558
▁abrangente	-11.0559
▁décimo	-11.0569
▁mantiveram	-11.0569
▁subdividido	-11.0569
▁instância	-11.0569
▁reeleito	-11.0569
▁ordinal	-11.0569
▁maringá	-11.0569
▁canadense	-11.0569
▁provém	-11.0569
▁efetua	-11.0569
▁nutrientes	-11.057
▁somália	-11.057
▁promete	-11.0571
▁unificação	-11.0572
▁firma	-11.0574
▁quo	-11.0574
▁abriu	-11.0577
▁1952	-11.0577
▁dirige	-11.0577
▁1912	-11.0578
▁1934	-11.0579
▁jk	-11.0593
▁sport	-11.0613
▁chimpanzé	-11.0653
▁padroniza	-11.0653
▁dirigido	-11.0653
▁henry	-11.0653
▁despesas	-11.0653
▁franca	-11.0653
▁viii	-11.0654
▁macaco	-11.0654
▁colombo	-11.0655
▁pleno	-11.0655
▁percurso	-11.0656
▁1937	-11.0659
imagem	-11.0664
▁atração	-11.0664
▁ocde	-11.0679
órico	-11.0704
africano	-11.073
▁atendimento	-11.0737
▁cazaquistão	-11.0737
▁distingue	-11.0737
▁espetáculo	-11.0737
▁nicarágua	-11.0737
▁prestígio	-11.0737
▁ribeiro	-11.0737
▁saturno	-11.0737
▁supostamente	-11.0737
flexão	-11.0737
▁pierre	-11.0737
▁maomé	-11.0737
▁desastre	-11.0738
▁caminha	-11.074
princip	-11.0743
▁vocal	-11.0743
▁jamais	-11.0743
▁transferida	-11.0746
▁brasão	-11.0749
▁conversa	-11.0756
work	-11.0759
▁cerco	-11.0799
ciclo	-11.0807
▁azerbaijão	-11.0821
▁compromisso	-11.0821
▁juscelino	-11.0821
▁alenquer	-11.0821
▁fornecido	-11.0821
▁digitais	-11.0821
▁manhã	-11.0821
▁balança	-11.0821
▁produções	-11.0821
▁mutações	-11.0821
▁instalar	-11.0822
▁sagrada	-11.0822
▁observatório	-11.0824
▁aguiar	-11.0826
▁avião	-11.0827
▁major	-11.0828
▁1951	-11.0829
▁1925	-11.0831
▁sacro	-11.0839
▁patente	-11.0861
▁aliada	-11.0882
▁exclusiva	-11.0893
▁ferramenta	-11.0897
▁advogado	-11.0907
▁albergaria	-11.0907
▁molibdênio	-11.0907
▁sistemática	-11.0907
▁vietnamita	-11.0907
▁convertido	-11.0907
▁cearense	-11.0907
▁concílio	-11.0907
▁previsto	-11.0907
▁legais	-11.0907
▁convento	-11.0907
▁colonizadores	-11.0908
▁renato	-11.0908
▁prático	-11.0909
terapia	-11.091
queiros	-11.0923
▁auge	-11.0945
▁povoada	-11.0963
▁precipita	-11.0972
▁dominica	-11.0984
▁vizinho	-11.0986
▁peculiar	-11.0993
▁artificiais	-11.0993
▁característico	-11.0993
▁diálogo	-11.0993
▁microsoft	-11.0993
▁recruta	-11.0993
literalmente	-11.0993
▁absorção	-11.0993
▁procurou	-11.0993
▁dissolução	-11.0993
▁crônica	-11.0993
▁esportivo	-11.0993
▁deficiência	-11.0993
ópolis	-11.0993
▁caverna	-11.0993
▁chumbo	-11.0994
▁cinza	-11.0997
▁reunir	-11.0999
▁1926	-11.1001
▁dissemina	-11.1002
▁restaurantes	-11.1002
▁1911	-11.1003
baixo	-11.1044
▁ibn	-11.1047
preendido	-11.108
▁atmosférica	-11.108
▁geometria	-11.108
▁nomenclatura	-11.108
▁ucraniano	-11.108
▁êxito	-11.108
▁lituânia	-11.108
▁metrô	-11.108
▁impresso	-11.108
▁presidi	-11.1081
▁convidado	-11.1081
▁galiza	-11.1084
▁1921	-11.1087
▁imposta	-11.1089
▁ateus	-11.1089
▁exílio	-11.1092
hoje	-11.1093
▁sério	-11.1095
▁barcos	-11.1102
▁xiita	-11.1118
▁cicl	-11.1129
▁biólogo	-11.1158
constit	-11.1164
▁átomo	-11.1167
▁adjacente	-11.1168
▁encarrega	-11.1168
▁mongólia	-11.1168
▁permitido	-11.1168
▁visigodos	-11.1168
▁ritual	-11.1168
▁escrava	-11.1168
▁vênus	-11.1168
▁confia	-11.1171
▁aplicativos	-11.1173
▁admir	-11.1173
▁ducado	-11.1175
▁concurso	-11.1175
▁residente	-11.1175
▁caçadores	-11.118
▁introduzir	-11.1184
▁ouvido	-11.1187
▁coletivo	-11.1236
▁basquete	-11.1255
curso	-11.1255
nômade	-11.1256
▁aniversário	-11.1256
▁aperfeiço	-11.1256
▁autónoma	-11.1256
▁báltico	-11.1256
▁candidatura	-11.1256
▁continuidade	-11.1256
▁keynes	-11.1256
▁quilómetro	-11.1256
▁voluntário	-11.1256
▁desmatamento	-11.1256
▁cientologia	-11.1256
▁conjunta	-11.1256
▁pretendia	-11.1256
▁ruínas	-11.1256
▁reprimi	-11.1257
▁prémio	-11.1257
▁enrique	-11.1257
grupo	-11.1261
▁estiver	-11.1262
▁tortura	-11.1263
▁disposição	-11.1264
▁hotel	-11.1269
▁humor	-11.1269
▁comercializa	-11.1273
▁vetor	-11.1289
▁aminoácidos	-11.1345
▁conselheiro	-11.1345
▁correspondência	-11.1345
▁demonstrou	-11.1345
▁fósforo	-11.1345
▁manufatura	-11.1345
▁carapito	-11.1345
▁sentença	-11.1346
▁aquático	-11.1346
▁apelido	-11.1346
▁gasoso	-11.1346
▁insetos	-11.1347
▁semiótica	-11.1348
▁substituiu	-11.1348
▁fermat	-11.1349
ófilo	-11.1353
0,6	-11.1355
▁caixa	-11.1362
▁quadra	-11.1385
▁impor	-11.1385
igreja	-11.1435
▁autoestrada	-11.1436
▁clínica	-11.1436
▁configuração	-11.1436
▁dawkins	-11.1436
▁disponibiliza	-11.1436
▁evoluiu	-11.1436
▁linguístico	-11.1436
▁presidenciais	-11.1436
▁fertilidade	-11.1436
▁ocupou	-11.1436
▁protetorado	-11.1436
▁plural	-11.1436
▁gramática	-11.1436
▁esportiva	-11.1436
▁neutro	-11.1436
bissau	-11.1436
▁mouros	-11.1437
▁sexto	-11.1437
▁esgoto	-11.1438
▁ruanda	-11.1442
▁1928	-11.1444
▁costume	-11.1445
▁diagrama	-11.1448
escência	-11.1464
▁wei	-11.148
▁parcial	-11.1525
▁aglomerado	-11.1526
▁automóveis	-11.1526
▁dirigida	-11.1526
▁imediato	-11.1526
▁águeda	-11.1526
▁estatístico	-11.1526
▁reuniões	-11.1526
▁imensa	-11.1527
▁tcp	-11.1527
riedade	-11.1529
ométrica	-11.1536
▁elétron	-11.1539
▁australiano	-11.1541
campo	-11.1546
ward	-11.1558
▁gradual	-11.1605
▁paleo	-11.1609
▁escraviz	-11.1618
▁considerou	-11.1618
▁desconhecida	-11.1618
▁disponibilidade	-11.1618
▁feijão	-11.1618
▁finanças	-11.1618
▁trajetória	-11.1618
▁vantagens	-11.1618
▁borracha	-11.1618
▁axioma	-11.1618
▁mantinha	-11.1618
▁substrato	-11.1619
▁unificado	-11.1619
▁ratifica	-11.1621
▁biosfera	-11.1622
ivelmente	-11.1626
▁cook	-11.1632
▁muçulmano	-11.1635
▁étnico	-11.1635
▁pecado	-11.1643
▁agrupamento	-11.1648
▁film	-11.1699
▁adquiriu	-11.1711
▁apostólica	-11.1711
▁contribuem	-11.1711
▁espalhou	-11.1711
▁fernandes	-11.1711
▁guerrilha	-11.1711
▁longitude	-11.1711
▁manuscrito	-11.1711
▁móveis	-11.1711
▁nitrogênio	-11.1711
▁originário	-11.1711
▁setentrional	-11.1711
▁advento	-11.1711
▁antonio	-11.1711
▁estivesse	-11.1711
▁postura	-11.1712
▁cacau	-11.1712
▁diamante	-11.1713
▁estabiliza	-11.1713
▁esgota	-11.1713
▁cerrado	-11.1714
▁criminalidade	-11.1714
▁meditação	-11.1718
▁brilho	-11.1719
▁detém	-11.1726
▁ergue	-11.1727
ventura	-11.1787
▁simula	-11.1791
▁crédito	-11.1804
▁espírita	-11.1804
▁florianópolis	-11.1804
▁supervisiona	-11.1804
▁alquimia	-11.1804
▁móvel	-11.1804
▁auxílio	-11.1804
▁prossegui	-11.1804
▁inovação	-11.1804
▁parcela	-11.1805
▁continha	-11.1805
▁abordagens	-11.1805
▁conferi	-11.181
▁favorável	-11.1812
▁gnome	-11.1813
▁dominar	-11.1818
wood	-11.1841
▁juiz	-11.1844
flor	-11.1884
▁capítulo	-11.1899
▁cativeiro	-11.1899
▁estúdio	-11.1899
▁líquida	-11.1899
▁montanhoso	-11.1899
▁periódico	-11.1899
▁relevância	-11.1899
cipriota	-11.1899
▁arqueológica	-11.1899
▁constantinopla	-11.1899
▁flutua	-11.1899
▁urânio	-11.1899
▁selvagem	-11.1899
▁camarões	-11.1899
▁mérito	-11.1899
▁ártico	-11.1899
▁edward	-11.1899
▁comunismo	-11.1899
▁confere	-11.1904
▁1931	-11.1906
▁financiamento	-11.1908
▁geologia	-11.1908
▁substancial	-11.191
▁compete	-11.1912
▁transferido	-11.1923
stud	-11.1943
▁possuí	-11.1963
escritores	-11.1974
heim	-11.199
▁aprendizagem	-11.1994
▁arcebispo	-11.1994
▁capivara	-11.1994
▁discussões	-11.1994
▁férteis	-11.1994
▁gouveia	-11.1994
▁hollywood	-11.1994
▁incerteza	-11.1994
▁ipatinga	-11.1994
▁nietzsche	-11.1994
▁profissão	-11.1994
▁protestantismo	-11.1994
▁raciocínio	-11.1994
▁papéis	-11.1994
▁reorganiza	-11.1994
▁emissora	-11.1994
▁cloreto	-11.1994
▁quarenta	-11.1994
▁ressalta	-11.1994
▁transcrição	-11.1994
▁agrária	-11.1994
▁tabaco	-11.1994
▁prótons	-11.1994
▁oferecido	-11.1994
▁parecia	-11.1994
▁évora	-11.1995
▁desperta	-11.1998
religio	-11.1998
fundações	-11.2011
▁bangladesh	-11.209
▁cambridge	-11.209
▁carácter	-11.209
▁espermatozoide	-11.209
▁fluminense	-11.209
▁olímpica	-11.209
▁renúncia	-11.209
▁wilhelm	-11.209
▁bilhão	-11.209
▁informática	-11.209
▁visitou	-11.209
▁vertical	-11.209
▁pôde	-11.209
▁terciário	-11.209
▁rebanho	-11.209
▁ocasiona	-11.209
▁instrução	-11.209
▁emergente	-11.2091
▁bovino	-11.2091
▁savana	-11.2091
▁sinônimo	-11.2092
▁oleiros	-11.2093
ónio	-11.2111
▁anima	-11.2115
▁descendente	-11.2125
▁catalisador	-11.2139
▁2,5	-11.216
evangélico	-11.2187
▁alagoas	-11.2187
▁enciclopédia	-11.2187
▁estímulo	-11.2187
▁oceânica	-11.2187
▁rondônia	-11.2187
▁ultramarino	-11.2187
▁amizade	-11.2187
▁recessão	-11.2187
▁university	-11.2187
▁ocorrida	-11.2187
ômica	-11.2187
▁maxwell	-11.2187
▁1906	-11.2192
▁mandou	-11.2192
▁ascende	-11.2192
▁1942	-11.2194
▁prevê	-11.2195
▁abrigo	-11.22
▁isótopo	-11.2226
▁consequente	-11.226
▁difíceis	-11.2285
▁dividiu	-11.2285
▁empréstimo	-11.2285
▁explosão	-11.2285
▁folclórica	-11.2285
▁honduras	-11.2285
▁têxteis	-11.2285
▁decadência	-11.2285
▁emigração	-11.2285
▁gilbert	-11.2285
▁retórica	-11.2285
▁oponente	-11.2285
▁iraniano	-11.2285
▁protegido	-11.2286
▁cinética	-11.2287
▁estiveram	-11.2291
economia	-11.2293
▁1915	-11.2297
▁fundamenta	-11.2299
ópio	-11.2318
▁deputado	-11.2328
▁club	-11.2355
▁definitiva	-11.237
bibli	-11.2378
▁agropecuária	-11.2384
▁burguesia	-11.2384
▁cinematográfica	-11.2384
▁enfrentou	-11.2384
▁neurônio	-11.2384
▁organizou	-11.2384
▁primordial	-11.2384
▁terremoto	-11.2384
▁tunísia	-11.2384
▁tênis	-11.2384
▁washington	-11.2384
▁arthur	-11.2384
▁institucional	-11.2384
▁monetário	-11.2384
▁conceição	-11.2384
▁permitia	-11.2384
▁sergipe	-11.2384
thumb	-11.2384
▁moderado	-11.2385
▁angeles	-11.2385
▁lopes	-11.2387
▁precedentes	-11.2388
▁ernest	-11.2388
▁garante	-11.2389
▁1905	-11.239
▁servido	-11.2406
▁agrava	-11.2407
▁cinquenta	-11.2484
▁endêmica	-11.2484
▁entropia	-11.2484
▁evoluíram	-11.2484
▁promovido	-11.2484
▁selvagens	-11.2484
▁muralha	-11.2484
▁coronel	-11.2484
▁saneamento	-11.2484
▁atingindo	-11.2484
▁úmida	-11.2484
▁expulsa	-11.2484
▁sonora	-11.2484
▁fileira	-11.2485
▁sólida	-11.2486
▁veneza	-11.2486
ífera	-11.2486
▁interliga	-11.2488
▁ramifica	-11.249
enberg	-11.2511
maior	-11.2525
▁purific	-11.2539
dourado	-11.2541
–18	-11.2547
▁lidera	-11.2567
▁dificulta	-11.2585
▁espirituais	-11.2585
▁intitulado	-11.2585
▁tópico	-11.2585
▁censura	-11.2585
▁óssea	-11.2585
▁decidiram	-11.2585
▁ingresso	-11.2585
▁taxon	-11.2585
▁antecede	-11.2585
▁coelho	-11.2585
▁profeta	-11.2585
▁tomás	-11.2586
▁servindo	-11.2587
▁austro	-11.2589
▁1935	-11.2595
tecnologia	-11.2596
▁residi	-11.2596
status	-11.2598
▁west	-11.2598
▁alumínio	-11.2687
▁dinamarquês	-11.2687
▁estratégico	-11.2687
▁mercantilista	-11.2687
▁metálica	-11.2687
▁níquel	-11.2687
▁vesícula	-11.2687
▁impressão	-11.2687
▁engenho	-11.2687
▁cereais	-11.2687
▁simboliza	-11.2687
▁judaico	-11.2687
▁suevo	-11.2687
▁danifica	-11.2688
▁pedaço	-11.2688
▁celeste	-11.2691
▁atentado	-11.2691
▁1923	-11.2696
american	-11.2706
▁grand	-11.2751
cristã	-11.2763
▁embarcações	-11.279
▁maquiavel	-11.279
▁mercantilismo	-11.279
▁mórmon	-11.279
▁nórdico	-11.279
▁tchekhov	-11.279
▁testemunho	-11.279
▁ultravioleta	-11.279
▁reclama	-11.279
▁reputação	-11.279
▁sérvia	-11.279
▁consigo	-11.279
▁project	-11.279
▁machado	-11.2791
▁basquetebol	-11.2791
▁hidrografia	-11.2792
▁paraíso	-11.2793
▁luiz	-11.2801
disciplina	-11.2803
século	-11.2804
militar	-11.2805
ativista	-11.2837
blue	-11.2845
▁christ	-11.2872
down	-11.2875
▁desencadea	-11.2894
cyberpunk	-11.2894
▁amplitude	-11.2894
▁ofensiva	-11.2894
▁opiniões	-11.2894
▁pacífica	-11.2894
▁polónia	-11.2894
▁representou	-11.2894
▁túmulo	-11.2894
▁arranjo	-11.2894
▁mesquita	-11.2894
▁renuncia	-11.2894
▁resistente	-11.2894
▁gratuito	-11.2894
▁castanha	-11.2894
▁coligação	-11.2894
▁camisa	-11.2895
▁nicolau	-11.2895
▁sueca	-11.2895
▁domestic	-11.2896
speito	-11.2897
▁exibe	-11.2897
▁anexo	-11.2898
▁atrações	-11.2902
▁daniel	-11.2907
▁inventor	-11.2911
▁complementa	-11.2941
▁http	-11.295
control	-11.2955
espera	-11.298
▁cemitério	-11.3
▁companheiro	-11.3
▁diagnóstico	-11.3
▁globais	-11.3
▁lourenço	-11.3
▁manifesto	-11.3
▁metropolitano	-11.3
▁mexicana	-11.3
▁rejeitou	-11.3
▁tóxico	-11.3
▁audiência	-11.3
▁coloniais	-11.3
▁controversa	-11.3
▁prestigi	-11.3
▁convencional	-11.3
▁riemann	-11.3
▁policiais	-11.3
▁mondego	-11.3
▁andersen	-11.3
▁rivais	-11.3
▁proibida	-11.3
▁greve	-11.3
▁neolítico	-11.3001
▁versos	-11.3006
▁geológica	-11.3006
small	-11.3006
▁operário	-11.3009
▁cessar	-11.3021
azul	-11.3026
▁equivale	-11.3074
alfândega	-11.3106
▁arquitetônico	-11.3106
▁críquete	-11.3106
▁culminou	-11.3106
▁descendência	-11.3106
▁myanmar	-11.3106
▁oceania	-11.3106
▁tanzânia	-11.3106
▁voleibol	-11.3106
▁elaboração	-11.3106
▁fornecimento	-11.3106
▁setúbal	-11.3106
▁isaac	-11.3106
▁jacques	-11.3106
▁planetário	-11.3106
▁exposições	-11.3106
▁infinita	-11.3106
▁diego	-11.3106
▁berbere	-11.3106
▁amarela	-11.3107
▁diogo	-11.3107
▁felino	-11.3107
▁baleia	-11.3108
▁vacina	-11.3109
▁escava	-11.3109
▁visões	-11.3111
leopard	-11.3115
positiv	-11.3166
▁aritmética	-11.3214
▁autônomo	-11.3214
▁caraíbas	-11.3214
▁cádmio	-11.3214
▁encoraja	-11.3214
▁prevalece	-11.3214
▁relógio	-11.3214
▁sucessivas	-11.3214
▁woolf	-11.3214
▁certeza	-11.3214
▁embaixador	-11.3214
▁porcentagem	-11.3214
▁regressa	-11.3214
▁fértil	-11.3214
▁inflama	-11.3214
▁exigência	-11.3214
▁gabriel	-11.3214
▁adriano	-11.3214
▁definiu	-11.3214
▁tronco	-11.3214
▁militante	-11.3215
▁efetivo	-11.3218
▁desembarca	-11.3322
▁embaixada	-11.3322
▁jardins	-11.3322
▁répteis	-11.3322
▁subcontinente	-11.3322
▁tolerância	-11.3322
▁compromete	-11.3322
▁enquadra	-11.3322
▁expulsão	-11.3322
▁leopold	-11.3322
▁sírio	-11.3322
▁proibido	-11.3323
▁galeria	-11.3323
▁antilhas	-11.3323
▁substituindo	-11.3324
física	-11.3341
▁oculta	-11.3371
▁judeu	-11.3411
▁(0,0	-11.3419
▁analfabetismo	-11.3432
▁centímetros	-11.3432
▁gonçalves	-11.3432
▁magnitude	-11.3432
▁marshall	-11.3432
▁populacionais	-11.3432
▁telefonia	-11.3432
▁álvares	-11.3432
▁samuel	-11.3432
▁inovações	-11.3432
▁duarte	-11.3432
▁iluminação	-11.3432
▁impressiona	-11.3432
▁exceções	-11.3432
▁desportivo	-11.3432
▁visuais	-11.3433
▁escapar	-11.3433
▁ricardo	-11.3434
▁paisagens	-11.3434
▁center	-11.3435
▁perdida	-11.3436
▁adolf	-11.3438
▁henri	-11.3535
▁agostinho	-11.3543
▁arménio	-11.3543
▁catarinense	-11.3543
▁cisjordânia	-11.3543
▁desmembra	-11.3543
▁décima	-11.3543
▁romântico	-11.3543
▁têxtil	-11.3543
▁consciente	-11.3543
▁faleceu	-11.3543
▁inclinação	-11.3543
▁aragão	-11.3543
▁intensifica	-11.3543
▁regresso	-11.3543
▁destruído	-11.3543
▁moderada	-11.3543
▁brown	-11.3543
▁estimou	-11.3543
▁cavidade	-11.3544
▁materna	-11.3544
▁elegeu	-11.3544
afegã	-11.3571
▁pedir	-11.363
▁alcoólica	-11.3656
▁educacionais	-11.3656
▁françois	-11.3656
▁fórum	-11.3656
▁intérprete	-11.3656
▁mesopotâmia	-11.3656
▁nórdica	-11.3656
▁performance	-11.3656
▁pernambucana	-11.3656
▁renováveis	-11.3656
▁suspeita	-11.3656
▁veterinária	-11.3656
▁evidencia	-11.3656
▁existiu	-11.3656
▁masculina	-11.3656
▁pseudo	-11.3656
▁gondomar	-11.3656
▁decisiva	-11.3656
▁notavelmente	-11.3656
▁deteriora	-11.3656
▁conceitua	-11.3656
▁concessão	-11.3656
▁concedida	-11.3656
▁instante	-11.3656
▁marfim	-11.3656
▁decaimento	-11.3657
▁nazismo	-11.3657
saxões	-11.366
▁congela	-11.3666
ocrática	-11.3708
primeiro	-11.3753
▁satisfaz	-11.3769
▁abacaxi	-11.3769
▁albuquerque	-11.3769
▁búlgaro	-11.3769
▁conclusões	-11.3769
▁exclusivo	-11.3769
▁objectivo	-11.3769
▁oxford	-11.3769
▁centrada	-11.3769
▁estónia	-11.3769
▁medicamentos	-11.3769
▁morfologia	-11.3769
▁arqueologia	-11.3769
▁salienta	-11.3769
▁submetido	-11.3769
▁adulta	-11.3769
▁detalhada	-11.3769
▁metafísica	-11.377
▁romeno	-11.377
▁temporada	-11.3775
▁dourada	-11.3782
▁aprovar	-11.3812
▁escravo	-11.3878
trófico	-11.3884
▁chuvoso	-11.3884
▁concluída	-11.3884
▁criptografia	-11.3884
▁envolvimento	-11.3884
▁extensiva	-11.3884
▁hidrocarbonetos	-11.3884
▁inclusão	-11.3884
▁milímetros	-11.3884
▁ninguém	-11.3884
▁polinésia	-11.3884
▁subtropical	-11.3884
▁chicago	-11.3884
▁elaborada	-11.3884
▁oriunda	-11.3884
▁separatista	-11.3884
▁desportiva	-11.3885
▁reuniu	-11.3885
▁angular	-11.3885
▁london	-11.3885
▁aderiu	-11.3885
▁manaus	-11.3885
▁visíveis	-11.3885
▁desafia	-11.3886
▁virgens	-11.3887
▁sediada	-11.3902
▁vascular	-11.3908
▁reviv	-11.3975
▁aprendizado	-11.4001
▁bloqueio	-11.4001
▁concorrência	-11.4001
▁crescido	-11.4001
▁dinâmico	-11.4001
▁irlandês	-11.4001
▁misticismo	-11.4001
▁pérsico	-11.4001
▁vácuo	-11.4001
▁liderou	-11.4001
▁climático	-11.4001
▁descrições	-11.4001
▁formoso	-11.4001
▁diariamente	-11.4001
▁salvação	-11.4001
▁culpa	-11.4001
▁empresário	-11.4003
bacteria	-11.4003
▁michel	-11.4007
▁condutor	-11.4007
▁psicológico	-11.4014
▁pacific	-11.4024
▁atributos	-11.4118
▁contempla	-11.4118
▁legislatura	-11.4118
▁lâmina	-11.4118
▁percentagem	-11.4118
▁sustentável	-11.4118
▁uzbequistão	-11.4118
▁vinicius	-11.4118
▁cúpula	-11.4118
▁fiscais	-11.4118
▁madrid	-11.4118
▁republicana	-11.4118
▁usualmente	-11.4118
▁cabinda	-11.4118
▁permitida	-11.4118
▁proporções	-11.4118
▁submarino	-11.4118
▁cazaque	-11.4118
▁surgido	-11.4118
jpg	-11.4118
▁medula	-11.4118
▁proclamação	-11.4119
▁escuro	-11.4119
▁eólica	-11.412
▁paranaense	-11.412
▁concerto	-11.412
▁queijo	-11.412
▁nokia	-11.4121
▁fresco	-11.4127
distrito	-11.4146
africana	-11.4146
techn	-11.416
▁académico	-11.4237
▁alexander	-11.4237
▁califado	-11.4237
▁consideráveis	-11.4237
▁okinawa	-11.4237
▁polímeros	-11.4237
▁recebida	-11.4237
▁válida	-11.4237
▁maurícia	-11.4237
▁hotéis	-11.4237
▁níger	-11.4237
▁sexuais	-11.4237
▁thelema	-11.4237
▁promessa	-11.4237
▁renovação	-11.4237
▁galego	-11.4237
▁havido	-11.4238
▁antecip	-11.4238
▁existam	-11.4238
▁dorsal	-11.4239
▁itens	-11.424
fried	-11.4253
especialmente	-11.4267
▁aderir	-11.4272
▁entende	-11.4278
▁albufeira	-11.4358
▁bósnia	-11.4358
▁chuvosa	-11.4358
▁metabólica	-11.4358
▁osciloscópio	-11.4358
▁pântano	-11.4358
▁sofrimento	-11.4358
▁incidência	-11.4358
▁respectivas	-11.4358
▁botânico	-11.4358
▁promovida	-11.4358
▁autoritário	-11.4358
▁encosta	-11.4358
▁acervo	-11.4359
▁pagã	-11.4366
▁gigante	-11.4369
município	-11.4388
vírus	-11.4389
gênese	-11.448
▁antibióticos	-11.448
▁divergência	-11.448
▁excessiva	-11.448
▁namíbia	-11.448
▁neerlandesa	-11.448
▁olimpíadas	-11.448
▁plebiscito	-11.448
▁silvestre	-11.448
▁subdividida	-11.448
▁vertebrados	-11.448
▁agripa	-11.448
▁dezesseis	-11.448
▁hebraico	-11.448
▁harmonia	-11.448
▁monetária	-11.448
▁positivismo	-11.448
▁munique	-11.448
▁colheita	-11.448
▁infecção	-11.448
▁league	-11.448
▁prevenção	-11.448
▁estuário	-11.448
▁assumindo	-11.448
▁corrigi	-11.448
▁comédia	-11.448
▁bateria	-11.4481
▁fluor	-11.4483
econômica	-11.4512
vermelha	-11.4512
ocracia	-11.4572
▁castelhano	-11.4603
▁constituía	-11.4603
▁danúbio	-11.4603
▁eslováquia	-11.4603
▁esqueleto	-11.4603
▁fóssil	-11.4603
▁guimarães	-11.4603
▁magalhães	-11.4603
▁rejeição	-11.4603
▁taxonomia	-11.4603
▁telefônica	-11.4603
▁sugerido	-11.4603
▁lavoura	-11.4603
▁reforço	-11.4603
▁ideológica	-11.4603
▁restrito	-11.4603
▁concreto	-11.4604
▁inerente	-11.4604
▁anjos	-11.4604
▁mongol	-11.4604
▁lenin	-11.4612
▁prefere	-11.4614
domínio	-11.4637
livro	-11.4638
natural	-11.4641
▁flui	-11.4697
espécies	-11.4705
stituição	-11.472
▁hídrico	-11.4728
▁ingredientes	-11.4728
▁neutrino	-11.4728
▁refúgio	-11.4728
▁shopping	-11.4728
▁universais	-11.4728
▁vocabulário	-11.4728
▁glória	-11.4728
▁bahamas	-11.4728
▁dispersa	-11.4728
▁nuvem	-11.4728
▁denuncia	-11.4728
▁marselha	-11.4728
▁produtiva	-11.4728
▁pigmento	-11.4729
▁volap	-11.4729
▁elefante	-11.473
▁revoga	-11.4732
▁fosfo	-11.474
▁christian	-11.4755
esquerda	-11.4764
—	-11.4764
▁acessível	-11.4855
▁concluído	-11.4855
▁crânio	-11.4855
▁doméstica	-11.4855
▁eclesiástica	-11.4855
▁evangélica	-11.4855
▁holocausto	-11.4855
▁intermédio	-11.4855
▁prejuízo	-11.4855
▁prolifera	-11.4855
▁hospeda	-11.4855
▁mongóis	-11.4855
▁superficial	-11.4855
▁libéria	-11.4855
▁obstante	-11.4855
▁instituiu	-11.4855
▁1871	-11.4855
▁paleolítico	-11.4855
▁sobrinho	-11.4855
▁exilado	-11.4856
▁gustav	-11.4857
▁desfile	-11.4857
▁comboio	-11.4859
ilumina	-11.4859
▁progressiva	-11.4883
núcleo	-11.4892
profunda	-11.4894
▁antecessor	-11.4983
▁estritamente	-11.4983
▁horizontal	-11.4983
▁hóquei	-11.4983
▁jeová	-11.4983
▁júnior	-11.4983
▁mauritânia	-11.4983
▁organela	-11.4983
▁princesa	-11.4983
▁taubaté	-11.4983
▁xangô	-11.4983
▁marinheiro	-11.4983
▁neutralidade	-11.4983
▁pantanal	-11.4983
▁aquisição	-11.4983
▁universitária	-11.4983
▁dirigir	-11.4983
▁beija	-11.4983
▁jordan	-11.4983
▁radioativo	-11.4983
▁dezoito	-11.4984
▁extraído	-11.4984
▁vendida	-11.4984
▁precede	-11.4987
▁whit	-11.4988
▁descarta	-11.4991
▁actua	-11.5035
▁pássaros	-11.5113
▁adquirido	-11.5113
▁anglicana	-11.5113
▁construíram	-11.5113
▁cotidiana	-11.5113
▁desembarque	-11.5113
▁especiarias	-11.5113
▁existindo	-11.5113
▁fluvial	-11.5113
▁genocídio	-11.5113
▁pernambucano	-11.5113
▁eslavos	-11.5113
▁professa	-11.5113
▁obedece	-11.5113
▁referindo	-11.5113
▁incomum	-11.5113
▁transcende	-11.5113
▁trazendo	-11.5113
▁gravação	-11.5113
▁refut	-11.5158
▁neutra	-11.5244
▁bíblico	-11.5244
▁cristalina	-11.5244
▁cáucaso	-11.5244
▁epidemia	-11.5244
▁fotossíntese	-11.5244
▁gibraltar	-11.5244
▁interferência	-11.5244
▁legitimidade	-11.5244
▁mestiços	-11.5244
▁moldávia	-11.5244
▁mútua	-11.5244
▁philip	-11.5244
▁renascentista	-11.5244
▁repouso	-11.5244
▁revestimento	-11.5244
▁sicília	-11.5244
▁sufixo	-11.5244
▁unicameral	-11.5244
▁utilizou	-11.5244
▁vulgar	-11.5244
▁festividades	-11.5244
▁historiografia	-11.5244
▁iraniana	-11.5244
▁fertilizantes	-11.5244
▁retículo	-11.5244
▁sociólogo	-11.5244
▁tribais	-11.5244
▁concebido	-11.5244
▁predadores	-11.5245
▁condensa	-11.5247
▁negócio	-11.5291
▁quilômetro	-11.5291
▁computacional	-11.5378
▁determinou	-11.5378
▁diversificado	-11.5378
▁escandinavo	-11.5378
▁filogenia	-11.5378
▁metalurgia	-11.5378
▁metodista	-11.5378
▁mistério	-11.5378
▁percentual	-11.5378
▁plasmática	-11.5378
▁recompensa	-11.5378
▁semântica	-11.5378
▁tartaruga	-11.5378
▁álvaro	-11.5378
▁aleatória	-11.5378
▁escocês	-11.5378
▁gonçalo	-11.5378
▁referencial	-11.5378
▁contingente	-11.5378
▁legião	-11.5378
▁papua	-11.5378
▁expoente	-11.5378
▁atingida	-11.5378
▁online	-11.5379
▁emitido	-11.5385
▁concordou	-11.5513
▁enxadrista	-11.5513
▁explicitamente	-11.5513
▁hereditária	-11.5513
▁integridade	-11.5513
▁mísseis	-11.5513
▁nêutrons	-11.5513
▁recuperou	-11.5513
▁resolvido	-11.5513
▁revoluções	-11.5513
▁subordinado	-11.5513
▁vulcão	-11.5513
▁vulcões	-11.5513
▁vértice	-11.5513
▁xogunato	-11.5513
▁úteis	-11.5513
▁evolutivo	-11.5513
▁hebraica	-11.5513
▁retirou	-11.5513
▁viajou	-11.5513
▁cardeal	-11.5513
▁persiste	-11.5513
▁embrião	-11.5514
▁referia	-11.5516
fluxo	-11.5559
▁asteroide	-11.557
integra	-11.5573
▁atletismo	-11.565
▁cláudio	-11.565
▁escandinávia	-11.565
▁idêntico	-11.565
▁ilhéu	-11.565
▁instituído	-11.565
▁inteligente	-11.565
▁surpreende	-11.565
▁vladimir	-11.565
▁adjetivo	-11.565
▁douglas	-11.565
▁jânio	-11.565
▁fornecida	-11.565
▁diretório	-11.565
▁marginal	-11.565
▁barbosa	-11.565
▁sofrido	-11.565
▁rafael	-11.565
▁estoniano	-11.565
▁(...)	-11.5651
▁abolida	-11.5651
▁heinric	-11.5652
▁temporária	-11.5653
▁contacto	-11.5654
histórico	-11.5697
alunos	-11.5698
trópi	-11.5705
▁nicol	-11.5708
governo	-11.5713
élica	-11.576
pirâmide	-11.5789
▁crômio	-11.5789
▁câmera	-11.5789
▁diplomático	-11.5789
▁maugham	-11.5789
▁primórdios	-11.5789
▁science	-11.5789
▁coincide	-11.5789
▁lealdade	-11.5789
▁conformidade	-11.5789
▁obtém	-11.5789
▁ruptura	-11.5789
▁teclado	-11.5789
▁caparica	-11.5789
▁sétima	-11.5789
▁obtivera	-11.5789
▁enterrado	-11.5789
▁calcário	-11.5789
▁sequencia	-11.5789
▁concreta	-11.5789
▁facções	-11.5789
▁conduta	-11.5789
▁polaco	-11.579
▁buraco	-11.579
▁concili	-11.5791
▁confina	-11.5807
gênero	-11.5838
democracia	-11.5838
portugal	-11.5838
cêntrica	-11.593
▁anatólia	-11.593
▁antártica	-11.593
▁aristocracia	-11.593
▁bíblica	-11.593
▁clérigo	-11.593
▁habsburgo	-11.593
▁homossexuais	-11.593
▁idêntica	-11.593
▁intercâmbio	-11.593
▁mármore	-11.593
▁ryukyu	-11.593
encyclop	-11.593
▁excelência	-11.593
▁gaúcho	-11.593
▁campeões	-11.593
▁derrotou	-11.593
▁paixão	-11.593
▁forçou	-11.593
▁1902	-11.593
▁bancário	-11.593
▁dilema	-11.593
▁conjuga	-11.593
▁sentir	-11.5938
▁fertiliz	-11.5938
punk	-11.5982
direita	-11.5983
▁algébrica	-11.6072
▁ambrósio	-11.6072
▁bartolomeu	-11.6072
▁comunhão	-11.6072
▁continentais	-11.6072
▁cânone	-11.6072
▁empírica	-11.6072
▁feudais	-11.6072
▁geograficamente	-11.6072
▁irrigação	-11.6072
▁montenegro	-11.6072
▁neerlandeses	-11.6072
▁patrulha	-11.6072
▁pontífice	-11.6072
▁research	-11.6072
▁rígida	-11.6072
▁stanley	-11.6072
▁trimestre	-11.6072
▁amsterdã	-11.6072
▁romancista	-11.6072
▁school	-11.6072
▁luterana	-11.6072
▁derrubar	-11.6072
▁concretiz	-11.6072
▁paradoxo	-11.6072
▁amplifica	-11.6072
morfismo	-11.6073
▁lutero	-11.6073
▁lixo	-11.6073
▁hooke	-11.6073
▁fraude	-11.6074
▁invoca	-11.6076
homossexualidade	-11.6106
▁adulto	-11.6154
▁dólar	-11.6201
coloniza	-11.6216
herzegovina	-11.6217
▁astronômica	-11.6217
▁atmosférico	-11.6217
▁empreendimento	-11.6217
▁fortalecer	-11.6217
▁fronteiriça	-11.6217
▁híbrido	-11.6217
▁iugoslávia	-11.6217
▁matrícula	-11.6217
▁minoritária	-11.6217
▁periférico	-11.6217
▁ressonância	-11.6217
▁subdesenvolvido	-11.6217
▁talibã	-11.6217
▁término	-11.6217
▁westminster	-11.6217
▁inscrição	-11.6217
▁substantivo	-11.6217
▁romantismo	-11.6217
▁agressão	-11.6217
▁inercial	-11.6217
▁traduções	-11.6217
▁vestuário	-11.6217
▁galilei	-11.6217
▁imenso	-11.6217
▁resistir	-11.6217
▁pilares	-11.6217
▁puderam	-11.6217
▁produtivo	-11.6218
▁1853	-11.6218
▁escassa	-11.6218
▁finito	-11.6219
oblast	-11.6243
dinâmica	-11.6271
ology	-11.6286
progressivamente	-11.6332
▁análogo	-11.6364
▁desaparecimento	-11.6364
▁filogenética	-11.6364
▁giovanni	-11.6364
▁helicóptero	-11.6364
▁ilegais	-11.6364
▁insuficiente	-11.6364
▁sanguínea	-11.6364
▁sanguíneo	-11.6364
▁stephen	-11.6364
▁óvulo	-11.6364
▁regalados	-11.6364
▁subsídios	-11.6364
▁sibéria	-11.6364
▁equilibr	-11.6364
▁jazidas	-11.6364
▁sintomas	-11.6364
▁obtendo	-11.6364
▁oferecida	-11.6364
▁previsão	-11.6364
▁concepções	-11.6364
▁sabedoria	-11.6364
trófica	-11.6365
▁cristais	-11.6365
▁mateus	-11.6365
▁confronta	-11.6366
▁inovador	-11.6366
▁filtra	-11.6366
▁relativ	-11.6372
descobri	-11.6399
▁adventista	-11.6514
▁botânica	-11.6514
▁definitivo	-11.6514
▁distúrbios	-11.6514
▁egípcia	-11.6514
▁energético	-11.6514
▁escândalo	-11.6514
▁etíope	-11.6514
▁exclusão	-11.6514
▁obstáculo	-11.6514
▁quirguistão	-11.6514
▁semicondutor	-11.6514
▁subúrbios	-11.6514
▁teixeira	-11.6514
▁xintoísmo	-11.6514
▁compilação	-11.6514
▁emergiu	-11.6514
▁planetária	-11.6514
▁conhecia	-11.6514
▁recicla	-11.6514
▁disperso	-11.6514
▁rochoso	-11.6514
▁ernst	-11.6514
nucleotídeo	-11.6514
▁neural	-11.6514
▁valiosa	-11.6514
▁trópico	-11.6514
▁quantific	-11.6514
▁roteiro	-11.6514
▁patrono	-11.6514
▁minimiza	-11.6517
ophyta	-11.6542
descoberta	-11.6574
design	-11.6577
▁subespécie	-11.6583
▁explor	-11.6626
ográficos	-11.6643
arrondissement	-11.6665
▁bruxelas	-11.6665
▁desfruta	-11.6665
▁espessura	-11.6665
▁interestelar	-11.6665
▁kubitschek	-11.6665
▁láctea	-11.6665
▁madagascar	-11.6665
▁pulmões	-11.6665
▁quênia	-11.6665
▁versalhes	-11.6665
▁alquimista	-11.6665
▁fóton	-11.6665
▁garantiu	-11.6665
▁previamente	-11.6665
▁nelson	-11.6665
▁projeção	-11.6665
▁comparável	-11.6665
▁interrompe	-11.6665
▁bovina	-11.6665
▁consome	-11.6666
filósofos	-11.6728
▁introduz	-11.6771
▁adquirida	-11.6819
▁arquitetônica	-11.6819
▁celulose	-11.6819
▁estêvão	-11.6819
▁fenómeno	-11.6819
▁foundation	-11.6819
▁instrumental	-11.6819
▁iorubá	-11.6819
▁irlandeses	-11.6819
▁legítimo	-11.6819
▁magnésio	-11.6819
▁microscópica	-11.6819
▁pitagórico	-11.6819
▁reflexo	-11.6819
▁toxicidade	-11.6819
▁virginia	-11.6819
▁copenhague	-11.6819
▁dirigiu	-11.6819
▁dramaturgo	-11.6819
▁garantindo	-11.6819
▁ingestão	-11.6819
▁respiração	-11.6819
▁desabitada	-11.6819
▁artefatos	-11.6819
▁iémen	-11.6819
▁tesouro	-11.6819
▁cachoeira	-11.6819
▁ícone	-11.6819
▁impressa	-11.6819
▁arbitra	-11.6819
▁coruche	-11.6819
▁laguna	-11.6819
▁write	-11.682
▁ioniza	-11.6882
sucedido	-11.6884
habitat	-11.6884
clube	-11.6884
▁catalisa	-11.6896
presidencialista	-11.6909
▁criminal	-11.6969
▁absorvido	-11.6975
▁acessíveis	-11.6975
▁ameríndios	-11.6975
▁anúncio	-11.6975
▁artilharia	-11.6975
▁austríaca	-11.6975
▁bacharel	-11.6975
▁boliviano	-11.6975
▁bárbara	-11.6975
▁cavalaria	-11.6975
▁coincidi	-11.6975
▁confirmou	-11.6975
▁conjuntivo	-11.6975
▁consecutivo	-11.6975
▁diretrizes	-11.6975
▁espiritismo	-11.6975
▁euclides	-11.6975
▁hegemonia	-11.6975
▁hospedeiro	-11.6975
▁iguaçu	-11.6975
▁marroquino	-11.6975
▁polêmica	-11.6975
▁termodinâmico	-11.6975
▁voluntária	-11.6975
▁automaticamente	-11.6975
▁dissolvido	-11.6975
▁drasticamente	-11.6975
▁instalou	-11.6975
▁torcedores	-11.6975
▁neurais	-11.6975
▁salomão	-11.6975
colombiana	-11.6975
▁contrária	-11.6975
▁cobrindo	-11.6975
▁unificada	-11.6975
▁assistente	-11.6976
▁luxo	-11.6976
▁1882	-11.6976
▁oficina	-11.6977
▁fundido	-11.6977
▁turnê	-11.699
▁exclui	-11.7031
campeão	-11.7043
cabeça	-11.7043
direito	-11.7043
▁maçã	-11.7106
ayahuasca	-11.7134
▁adolescente	-11.7134
▁apropriado	-11.7134
▁berkeley	-11.7134
▁bicicleta	-11.7134
▁conseguido	-11.7134
▁eclipse	-11.7134
▁itálica	-11.7134
▁jaguatirica	-11.7134
▁krishna	-11.7134
▁padroeiro	-11.7134
▁românica	-11.7134
▁topónimo	-11.7134
▁convencionais	-11.7134
▁etnicamente	-11.7134
▁exemplifica	-11.7134
▁triunfo	-11.7134
▁supervisão	-11.7134
▁kepler	-11.7134
▁parentesco	-11.7134
▁surpresa	-11.7134
▁uganda	-11.7134
▁infecções	-11.7134
▁restrição	-11.7134
▁zhou	-11.7134
ófitas	-11.7135
trabalho	-11.7204
segunda	-11.7204
umberto	-11.7206
-2010"	-11.7295
cêntrico	-11.7295
hipófise	-11.7295
▁anfíbios	-11.7295
▁antepassados	-11.7295
▁caatinga	-11.7295
▁chéquia	-11.7295
▁cirurgia	-11.7295
▁compreendida	-11.7295
▁controverso	-11.7295
▁déficit	-11.7295
▁irlandesa	-11.7295
▁judiciais	-11.7295
▁meirelles	-11.7295
▁potenciais	-11.7295
▁solidariedade	-11.7295
▁sucessivos	-11.7295
▁tuberculose	-11.7295
▁sultanato	-11.7295
▁decorrência	-11.7295
▁piedade	-11.7295
▁delphi	-11.7295
▁ilustre	-11.7295
▁áudio	-11.7295
▁fuzil	-11.7295
▁convenções	-11.7295
marketing	-11.7295
▁cosseno	-11.7296
▁evapora	-11.7297
antropo	-11.7322
consistente	-11.7368
existência	-11.7368
associa	-11.7368
▁peninsular	-11.7459
smartphone	-11.7459
▁anfitriã	-11.7459
▁aposentado	-11.7459
▁cognitiva	-11.7459
▁consolidou	-11.7459
▁câmbio	-11.7459
▁eletrólise	-11.7459
▁espontânea	-11.7459
▁frederico	-11.7459
▁huxley	-11.7459
▁indícios	-11.7459
▁intensiva	-11.7459
▁madagáscar	-11.7459
▁mandíbula	-11.7459
▁marechal	-11.7459
▁norueguês	-11.7459
▁periferia	-11.7459
▁sapiens	-11.7459
▁vulcânico	-11.7459
▁imortal	-11.7459
▁resolvida	-11.7459
▁líbia	-11.7459
▁exercida	-11.7459
▁psicólogo	-11.7459
▁vereadores	-11.7459
▁félix	-11.7459
▁cobalto	-11.7459
▁tobago	-11.7459
▁fenícios	-11.7459
▁possua	-11.7459
▁vencido	-11.746
professores	-11.7535
eletromagnetismo	-11.7626
▁astronômico	-11.7626
▁capixaba	-11.7626
▁diminuído	-11.7626
▁goodall	-11.7626
▁indonésio	-11.7626
▁inspirou	-11.7626
“	-11.8052
#	-12.337
õ	-12.7305
<	-12.878
