<unk>	0
<s>	0
</s>	0
,	-3.23891
.	-3.42123
▁в	-3.62104
▁	-3.76289
▁и	-3.99918
а	-4.03651
е	-4.40554
▁с	-4.67839
▁на	-4.70053
и	-4.93383
ы	-4.9974
м	-5.01382
-	-5.13678
▁(	-5.14198
▁—	-5.14317
у	-5.1522
о	-5.18184
▁по	-5.18432
▁«	-5.18445
х	-5.24795
ов	-5.34937
▁не	-5.41941
й	-5.44724
ом	-5.45252
▁к	-5.49462
▁из	-5.69757
:	-5.70609
▁а	-5.74557
▁##	-5.75694
ой	-5.80805
▁от	-5.80923
»	-5.83476
"	-5.85234
▁года	-5.87049
▁за	-5.88612
▁году	-5.8975
)	-5.92515
с	-5.94948
я	-5.95215
в	-5.99329
▁при	-6.00004
▁о	-6.03708
▁как	-6.04288
▁что	-6.08448
▁у	-6.1356
ми	-6.14327
▁для	-6.1433
▁до	-6.15375
го	-6.17917
▁"	-6.18937
).	-6.27902
ных	-6.29453
т	-6.30644
ия	-6.31023
▁также	-6.31681
ами	-6.32679
),	-6.34867
="	-6.40295
ной	-6.40304
ки	-6.41067
ли	-6.43975
ся	-6.44166
ные	-6.44581
ая	-6.44673
ого	-6.46822
ка	-6.47437
но	-6.48016
▁его	-6.48139
ий	-6.49435
к	-6.50801
на	-6.5223
▁был	-6.53466
л	-6.58112
ие	-6.60046
д	-6.60862
ный	-6.61114
ного	-6.64549
ых	-6.65833
н	-6.6623
ю	-6.66476
»,	-6.67237
ет	-6.68309
;	-6.69084
ии	-6.70396
▁под	-6.70918
».	-6.7361
▁или	-6.74129
ах	-6.74636
ная	-6.75953
ей	-6.76629
ь	-6.77313
▁но	-6.79984
▁он	-6.80023
▁со	-6.80239
doc	-6.81143
c	-6.81204
>	-6.81414
ской	-6.84592
ла	-6.85486
г	-6.8559
ч	-6.85679
▁во	-6.86877
▁год	-6.91257
▁про	-6.92475
п	-6.94927
▁так	-6.95054
▁г	-6.95291
ые	-6.95512
/	-6.96769
ным	-6.96892
▁м	-6.97575
▁были	-6.9823
▁же	-6.99166
з	-6.99274
▁об	-6.9952
не	-6.99867
▁это	-7.00104
ского	-7.00188
▁то	-7.00389
▁после	-7.00498
▁было	-7.01644
ш	-7.01655
ую	-7.01674
▁время	-7.02555
б	-7.03194
▁18	-7.03866
по	-7.05431
ию	-7.06414
ый	-7.06429
ский	-7.07507
их	-7.08525
▁является	-7.08855
за	-7.10833
▁была	-7.11043
ть	-7.11538
▁пере	-7.15458
▁%	-7.16288
▁раз	-7.16549
им	-7.16975
ж	-7.17597
ное	-7.1816
ам	-7.19108
та	-7.20646
▁более	-7.21183
ская	-7.21193
▁1	-7.24077
ения	-7.25918
ым	-7.26984
es	-7.27336
ни	-7.28368
ое	-7.2892
ную	-7.29225
ем	-7.30297
—	-7.30617
ва	-7.30826
ение	-7.31088
▁их	-7.31835
р	-7.32437
▁т	-7.32523
ется	-7.33034
▁п	-7.34132
▁э	-7.36976
ст	-7.37333
ку	-7.37496
ля	-7.38839
?	-7.38995
ок	-7.39052
▁д	-7.39069
ков	-7.39557
ф	-7.40081
от	-7.40146
▁только	-7.41189
ru	-7.41662
ских	-7.42542
▁её	-7.42666
да	-7.43268
ен	-7.4371
▁вы	-7.46244
▁том	-7.46679
▁н	-7.46927
ном	-7.47591
ль	-7.47624
▁однако	-7.48529
org	-7.48612
ными	-7.48622
▁города	-7.48862
ить	-7.49341
то	-7.49349
сти	-7.4936
▁id	-7.49595
wiki	-7.4968
▁которые	-7.50022
://	-7.50267
wikipedia	-7.50494
https	-7.50494
▁url	-7.5057
▁title	-7.50648
▁<	-7.50649
urid	-7.50708
categori	-7.50724
▁</	-7.50819
▁лет	-7.51579
ло	-7.51651
▁между	-7.51761
▁века	-7.53531
|	-7.53549
те	-7.54483
ко	-7.55349
га	-7.55735
ке	-7.55965
ские	-7.56163
ит	-7.5649
▁formula	-7.56901
▁все	-7.57052
ти	-7.58046
▁россии	-7.58509
ил	-7.60393
см	-7.61789
му	-7.61988
▁ре	-7.6267
ле	-7.62984
▁17	-7.63018
ча	-7.64397
ал	-7.64604
▁может	-7.65086
об	-7.65124
са	-7.6537
▁2	-7.66129
▁страны	-7.66155
ны	-7.66672
▁который	-7.66929
▁де	-7.68035
лись	-7.68214
▁населения	-7.6867
▁человек	-7.69076
че	-7.69427
из	-7.69628
ру	-7.69806
▁они	-7.70165
▁этом	-7.71135
де	-7.72033
▁3	-7.72584
▁я	-7.72847
▁того	-7.73125
▁есть	-7.73181
ре	-7.73889
мен	-7.74
▁которых	-7.74563
s	-7.74858
▁около	-7.75671
ности	-7.75729
ра	-7.76204
▁кон	-7.77452
▁ссср	-7.77482
▁город	-7.77578
ист	-7.77629
вер	-7.79729
ц	-7.80584
до	-7.80641
ин	-7.81428
▁где	-7.81634
▁тем	-7.82129
19	-7.82215
ос	-7.82225
или	-7.82253
2	-7.82377
ском	-7.82417
ют	-7.82453
чи	-7.82923
▁других	-7.8333
категория	-7.83418
▁территории	-7.8354
▁этого	-7.83601
тор	-7.83807
ство	-7.83947
э	-7.84256
ать	-7.8435
ются	-7.84925
▁5	-7.85427
▁часть	-7.86631
ность	-7.86637
▁области	-7.88087
ор	-7.88718
лась	-7.88862
▁период	-7.89114
ты	-7.89381
▁4	-7.89848
ыми	-7.9039
3	-7.90533
▁15	-7.90644
лся	-7.90715
▁через	-7.91041
ться	-7.92008
ское	-7.92112
▁10	-7.92277
ан	-7.9253
▁ф	-7.92661
]]	-7.92824
ния	-7.93098
ги	-7.93329
ве	-7.93509
▁без	-7.93573
ви	-7.93588
▁ещё	-7.93668
ком	-7.93673
ту	-7.93908
ри	-7.93911
▁когда	-7.93934
▁них	-7.94416
▁ли	-7.95104
▁можно	-7.95708
▁быть	-7.9571
ев	-7.95972
ости	-7.96413
▁ш	-7.96705
сть	-7.96795
▁среди	-7.97565
лен	-7.98024
▁уже	-7.98348
▁б	-7.9894
▁стал	-7.9926
тер	-8.00577
▁например	-8.0087
ма	-8.0109
▁рас	-8.01384
ар	-8.01717
▁[[	-8.01998
▁пре	-8.02808
ди	-8.02993
ман	-8.03618
▁16	-8.03676
▁км	-8.03814
▁другие	-8.03852
▁всех	-8.04111
▁чем	-8.04436
▁если	-8.04526
▁части	-8.04725
▁времени	-8.05462
▁пред	-8.06012
ским	-8.06166
▁место	-8.06704
▁6	-8.06735
вод	-8.06831
▁всего	-8.07024
при	-8.07109
▁сша	-8.07163
▁состав	-8.07552
▁являются	-8.07602
лось	-8.07657
мер	-8.08051
▁она	-8.08726
ск	-8.09161
▁ни	-8.09373
нов	-8.09415
ба	-8.09529
▁согласно	-8.09531
па	-8.09767
во	-8.0985
▁(19	-8.10102
ив	-8.1011
▁над	-8.10179
▁сам	-8.10194
он	-8.10689
▁несколько	-8.11003
▁эти	-8.11221
▁войны	-8.11302
▁которой	-8.11786
ства	-8.12299
▁имеет	-8.12753
▁жизни	-8.12914
ние	-8.12934
со	-8.13678
вед	-8.13874
▁ко	-8.14055
али	-8.14213
▁наиболее	-8.14778
ду	-8.14788
▁три	-8.1479
зи	-8.15106
▁12	-8.15122
▁кор	-8.15309
про	-8.155
кой	-8.15727
_	-8.15774
y	-8.15888
",	-8.15895
▁числе	-8.16536
би	-8.17175
▁гор	-8.17552
▁млн	-8.17602
▁7	-8.17791
▁системы	-8.18102
▁образом	-8.18175
▁этот	-8.18226
ат	-8.18464
ци	-8.19221
▁могут	-8.19448
ении	-8.19488
мо	-8.19579
▁которая	-8.19631
ён	-8.19662
00	-8.19691
ну	-8.19873
ось	-8.19897
▁один	-8.20049
▁тыс	-8.20291
ят	-8.20908
▁8	-8.21196
вы	-8.21303
▁качестве	-8.21489
скую	-8.21619
▁лишь	-8.21799
▁мо	-8.21943
▁чтобы	-8.22049
цы	-8.22052
▁годы	-8.22054
=	-8.22057
▁мир	-8.22125
ще	-8.23383
▁годов	-8.23422
зна	-8.23769
▁те	-8.2388
од	-8.24187
ше	-8.24464
7	-8.24726
оз	-8.24953
ья	-8.25257
▁годах	-8.25349
сто	-8.25405
▁двух	-8.25527
ием	-8.25606
си	-8.25674
▁язык	-8.26348
ись	-8.26762
се	-8.26979
▁название	-8.27087
ров	-8.274
овой	-8.27429
▁бы	-8.27696
ний	-8.27867
▁("	-8.28308
жд	-8.28407
▁расположен	-8.28438
▁кроме	-8.29045
▁которого	-8.29141
▁против	-8.29737
▁составляет	-8.29997
▁ряд	-8.30067
изм	-8.30067
ня	-8.3012
▁мира	-8.30509
1	-8.31329
▁этой	-8.31382
▁9	-8.31396
лю	-8.31702
прав	-8.32255
вар	-8.32539
ро	-8.32933
щ	-8.33397
цион	-8.33508
▁связи	-8.33676
ает	-8.34022
▁слова	-8.34128
▁система	-8.34656
▁14	-8.34677
▁своей	-8.34811
4	-8.34833
кон	-8.34837
▁некоторые	-8.35118
▁др	-8.35135
ер	-8.35203
▁воз	-8.35561
▁два	-8.35668
▁мире	-8.35776
▁га	-8.36363
▁много	-8.36393
ур	-8.36413
ических	-8.3646
ры	-8.36494
d	-8.36634
e	-8.3683
▁20	-8.36889
ией	-8.36985
ё	-8.37107
▁виде	-8.37128
род	-8.37137
▁собой	-8.37248
▁себя	-8.37359
▁число	-8.37481
ич	-8.37767
лож	-8.38007
лет	-8.38067
n	-8.38485
▁государства	-8.38506
▁13	-8.38677
ель	-8.38765
▁л	-8.38962
ции	-8.3915
ис	-8.39174
бы	-8.39182
жи	-8.39409
пис	-8.39551
ость	-8.39788
ция	-8.39806
▁результате	-8.39822
▁ан	-8.39886
овых	-8.39909
▁языка	-8.40063
нос	-8.40252
аль	-8.40294
ге	-8.40402
пе	-8.40442
вин	-8.40599
▁человека	-8.40669
▁i	-8.40888
▁второй	-8.40974
тов	-8.41085
m	-8.41279
▁11	-8.41684
▁суд	-8.42014
▁количество	-8.42192
▁прав	-8.42278
гу	-8.42336
▁таким	-8.42539
же	-8.42811
стро	-8.42873
▁хотя	-8.42972
▁многие	-8.43143
ений	-8.4316
o	-8.43172
ась	-8.43189
иль	-8.43191
▁городе	-8.43291
▁власти	-8.43535
▁стран	-8.43805
лад	-8.44158
▁(«	-8.44985
▁ос	-8.44991
▁стали	-8.45021
▁ар	-8.45123
раз	-8.45133
t	-8.45277
ому	-8.45524
▁даже	-8.45591
▁перед	-8.45602
k	-8.46099
ина	-8.46148
▁кар	-8.46228
бо	-8.46336
▁одной	-8.46538
нд	-8.47095
ним	-8.47161
ному	-8.47334
нии	-8.47481
▁вер	-8.47568
▁план	-8.47643
p	-8.47736
▁всё	-8.47802
10	-8.4788
рон	-8.48015
тон	-8.48342
b	-8.4847
цев	-8.48678
▁одним	-8.48976
▁свою	-8.48978
▁тысяч	-8.49274
l	-8.49279
ник	-8.49582
▁российской	-8.49745
вор	-8.4998
дер	-8.50036
изма	-8.50242
▁начале	-8.50283
▁часто	-8.5041
ирован	-8.5071
ают	-8.50789
▁этих	-8.50843
су	-8.50912
▁центр	-8.51248
u	-8.51388
бр	-8.51467
&	-8.5148
дел	-8.51489
▁конце	-8.51524
▁характер	-8.51572
лей	-8.517
▁затем	-8.51875
ические	-8.52076
▁первый	-8.52556
ики	-8.5262
▁обычно	-8.52711
▁января	-8.52815
▁день	-8.52959
ации	-8.5316
0	-8.53184
ению	-8.53294
▁вид	-8.53756
i	-8.54213
овые	-8.54239
▁вместе	-8.54329
▁философ	-8.54352
a	-8.54416
x	-8.54654
стан	-8.54818
en	-8.54881
▁раздел	-8.54886
▁земли	-8.54894
ид	-8.55084
▁менее	-8.55498
лин	-8.55526
щи	-8.55564
▁совет	-8.56594
вал	-8.56607
пу	-8.56652
▁s	-8.56775
▁ему	-8.56897
▁ла	-8.57197
▁им	-8.57333
▁самы	-8.57341
▁класс	-8.57419
ца	-8.5747
▁веке	-8.57499
ян	-8.57547
чен	-8.57716
▁работы	-8.57717
пл	-8.57806
▁мая	-8.58044
▁очень	-8.58083
▁имеют	-8.58311
▁закон	-8.58367
▁стране	-8.58517
▁находится	-8.587
ща	-8.5915
ического	-8.59449
ста	-8.59621
мы	-8.59687
ол	-8.59752
ств	-8.60043
▁c	-8.60081
▁союз	-8.60311
▁больше	-8.60336
▁вод	-8.60378
▁поэтому	-8.60521
▁бо	-8.60557
ёр	-8.60638
▁группы	-8.60807
▁стар	-8.60838
▁почти	-8.609
ут	-8.60943
▁такие	-8.61042
сс	-8.61109
▁пол	-8.61151
нию	-8.61234
́	-8.61542
ша	-8.61563
▁пар	-8.61705
▁мест	-8.61867
ун	-8.61895
▁30	-8.61992
ран	-8.61997
▁транспорт	-8.62111
▁теории	-8.62354
▁частности	-8.62423
▁марта	-8.62481
▁большинство	-8.62587
ды	-8.62679
▁граждан	-8.628
ками	-8.62823
лы	-8.629
ников	-8.63269
r	-8.63413
ций	-8.63588
20	-8.63925
▁случае	-8.64063
▁своих	-8.64107
став	-8.64474
ент	-8.64549
работ	-8.64678
жен	-8.64934
ец	-8.64953
▁право	-8.65106
ировал	-8.65257
▁род	-8.6533
рав	-8.65531
▁культур	-8.65547
▁моря	-8.65921
f	-8.65944
6	-8.65945
▁декабря	-8.65968
ключ	-8.6613
ена	-8.66205
▁числа	-8.66228
▁термин	-8.66288
9	-8.66478
▁способ	-8.66557
ической	-8.66564
сы	-8.66717
▁августа	-8.67029
ика	-8.67273
цен	-8.67436
▁проект	-8.67453
▁которое	-8.67734
ир	-8.67756
ложен	-8.67917
▁некоторых	-8.68226
▁истории	-8.68355
▁программ	-8.68397
▁данным	-8.68793
жа	-8.69087
ству	-8.69261
бер	-8.69423
▁xx	-8.69563
фа	-8.69566
▁дел	-8.6959
пер	-8.69826
ими	-8.69935
▁основном	-8.70159
▁бу	-8.70258
▁котором	-8.70593
▁своего	-8.706
ней	-8.70606
")	-8.70632
▁основан	-8.70758
▁xix	-8.70792
▁бел	-8.70869
▁ра	-8.71142
▁существует	-8.71233
▁широко	-8.71234
▁население	-8.71268
▁здесь	-8.71424
g	-8.71526
▁ю	-8.71607
▁само	-8.71778
▁июля	-8.71951
раж	-8.72071
▁море	-8.72113
▁роль	-8.72115
▁стала	-8.72155
▁республики	-8.72251
▁впервые	-8.72256
ается	-8.72315
▁поскольку	-8.7232
чат	-8.7233
▁ле	-8.7239
5	-8.72452
▁эта	-8.72496
▁таких	-8.72572
▁стороны	-8.72788
тур	-8.72798
бу	-8.72801
h	-8.72892
▁получил	-8.72946
▁ор	-8.72953
▁ин	-8.72993
50	-8.73057
▁па	-8.73065
▁июня	-8.73102
▁ж	-8.73131
▁развития	-8.73234
ход	-8.73804
▁сентября	-8.73809
ировать	-8.73934
▁кол	-8.73937
▁первой	-8.74109
нес	-8.74192
▁построен	-8.74216
▁языке	-8.74473
лов	-8.74606
зы	-8.74696
▁особенно	-8.747
▁кам	-8.74761
▁острова	-8.75233
▁начала	-8.75533
▁ха	-8.75691
мет	-8.75808
дов	-8.75825
▁электро	-8.7605
▁°	-8.7609
гор	-8.76193
▁президент	-8.76194
▁ма	-8.7626
вести	-8.7626
кс	-8.76286
▁су	-8.76336
рус	-8.76384
ены	-8.76658
▁история	-8.76861
тен	-8.76864
▁будет	-8.77133
ющие	-8.77291
ус	-8.77337
ден	-8.77466
стра	-8.77677
ический	-8.77729
▁ди	-8.77916
▁именно	-8.77962
▁вопрос	-8.77989
▁значение	-8.78007
▁установлен	-8.78007
▁%,	-8.78123
его	-8.78197
ска	-8.78222
lt	-8.78484
ант	-8.78628
▁сил	-8.78685
▁момент	-8.78708
ши	-8.78727
▁апреля	-8.78827
▁одно	-8.78998
ями	-8.79021
▁людей	-8.79033
▁течение	-8.79103
▁различных	-8.79221
▁пер	-8.79235
▁октября	-8.7924
▁р	-8.79264
▁европе	-8.7945
луч	-8.79492
вен	-8.79749
▁образ	-8.798
▁завод	-8.79959
v	-8.80046
▁имени	-8.80591
▁25	-8.8078
30	-8.808
ован	-8.8096
▁многих	-8.80977
олог	-8.8107
итель	-8.81087
▁видов	-8.81408
пи	-8.81427
▁настоящее	-8.81539
зд	-8.81542
пол	-8.81858
▁свет	-8.81927
бор	-8.82263
фе	-8.82287
▁него	-8.82303
рен	-8.82382
▁христиан	-8.82393
сп	-8.82411
скому	-8.82467
▁переход	-8.82498
▁первым	-8.82606
▁орган	-8.82617
▁основе	-8.82688
мин	-8.8281
▁тогда	-8.82817
▁порт	-8.82971
11	-8.82982
▁гре	-8.83031
▁з	-8.83053
▁ii	-8.83106
▁да	-8.83281
она	-8.83383
мир	-8.83476
бе	-8.83521
▁северо	-8.83579
▁создан	-8.83606
_1	-8.83923
▁открыт	-8.84116
ёт	-8.84522
▁родились	-8.84582
кре	-8.84611
gt	-8.84693
ления	-8.84754
▁две	-8.84785
образ	-8.84892
▁принцип	-8.8498
стоя	-8.84986
енных	-8.85399
ала	-8.85455
▁александр	-8.85717
кор	-8.85929
▁сер	-8.85971
вид	-8.85987
▁основные	-8.86084
▁используется	-8.86191
»)	-8.86442
ar	-8.86581
▁воды	-8.86599
▁благодаря	-8.86674
▁ку	-8.86926
родившие	-8.87224
ав	-8.87342
▁скончались	-8.87345
ера	-8.87558
▁наук	-8.87622
12	-8.87632
▁ноября	-8.87644
▁развитие	-8.87645
мор	-8.87916
▁размер	-8.87925
ём	-8.87939
▁первые	-8.87945
умершие	-8.87946
▁стало	-8.88004
цию	-8.88151
▁мор	-8.88359
нь	-8.88439
▁трёх	-8.88676
▁армии	-8.8931
тар	-8.89442
▁февраля	-8.89535
▁бес	-8.89692
лог	-8.89728
▁реки	-8.89743
25	-8.89845
ова	-8.89886
нее	-8.8992
▁движения	-8.90149
три	-8.90248
реч	-8.9031
ряд	-8.90486
er	-8.90495
▁совета	-8.90795
ум	-8.90896
▁no	-8.90962
ением	-8.91037
пад	-8.9107
▁отношения	-8.911
▁млрд	-8.91229
▁пор	-8.91278
ел	-8.91421
стр	-8.91427
▁co	-8.91493
▁свои	-8.91623
рос	-8.91641
▁син	-8.9167
воз	-8.91718
тив	-8.91737
ье	-8.91742
▁происходит	-8.92009
▁правительства	-8.92039
изации	-8.92121
нер	-8.92127
▁ту	-8.92159
▁перевод	-8.92192
▁полностью	-8.92259
ила	-8.9258
▁цен	-8.92663
▁государств	-8.9267
40	-8.92681
al	-8.92978
▁мал	-8.93181
▁народ	-8.93224
▁федерации	-8.93269
an	-8.93279
▁дат	-8.93316
фи	-8.93801
▁правительство	-8.93809
смотря	-8.93839
тра	-8.93842
▁слово	-8.93866
re	-8.94112
▁помощью	-8.94421
▁империи	-8.94467
▁объём	-8.94647
▁образование	-8.94652
ъ	-8.94701
поль	-8.94854
овым	-8.94855
▁языков	-8.94954
▁стандарт	-8.95107
▁либо	-8.95155
▁другой	-8.95244
▁император	-8.9527
нского	-8.9529
▁ал	-8.95438
▁бер	-8.9546
ясь	-8.95484
le	-8.95654
80	-8.95692
▁2010	-8.95714
▁влияние	-8.96234
▁статус	-8.96248
стей	-8.96352
▁друг	-8.96404
скими	-8.96406
▁практически	-8.96413
▁ге	-8.96451
▁гу	-8.96583
ром	-8.96678
ана	-8.967
▁анти	-8.96724
▁бар	-8.96787
▁форм	-8.96901
рат	-8.96939
бл	-8.96989
▁люб	-8.97059
▁организации	-8.97164
▁та	-8.97308
ового	-8.9733
▁юго	-8.97379
мест	-8.97499
▁силы	-8.97517
▁свобод	-8.97651
ланд	-8.97725
13	-8.97762
ших	-8.97859
ическая	-8.97904
▁роман	-8.98037
ация	-8.98038
нк	-8.98105
тель	-8.98243
▁ло	-8.98346
ред	-8.98347
▁поля	-8.98363
▁климат	-8.98393
ско	-8.98532
▁германии	-8.9857
ью	-8.98573
▁примерно	-8.98609
▁просто	-8.98623
▁метод	-8.98679
▁республика	-8.98825
▁одного	-8.98945
▁хо	-8.98973
ган	-8.99094
▁новой	-8.9946
▁рек	-8.99614
▁партии	-8.99653
▁смерти	-8.99738
▁компьютер	-8.99951
▁труд	-8.99957
▁пи	-8.99989
▁иногда	-9.00084
▁тур	-9.00091
▁ч	-9.00114
▁там	-9.00125
оп	-9.00238
дель	-9.00293
▁власть	-9.00295
▁церкви	-9.0033
▁мировой	-9.00389
▁мнению	-9.00592
слов	-9.0063
ющих	-9.00644
▁комплекс	-9.00673
лу	-9.00728
▁университет	-9.00957
▁()	-9.00966
▁запад	-9.01068
70	-9.01112
▁счёт	-9.01121
▁относительно	-9.01299
60	-9.01334
тр	-9.01374
in	-9.01421
▁представляет	-9.01427
ился	-9.01444
дан	-9.01594
пут	-9.01633
▁начал	-9.01677
▁кур	-9.0184
15	-9.02057
нский	-9.02207
альный	-9.02273
▁оно	-9.0256
▁лес	-9.02664
ания	-9.02697
(	-9.02909
▁символ	-9.02963
or	-9.03034
18	-9.03179
▁выше	-9.03257
нев	-9.03271
ад	-9.03272
цией	-9.03397
»).	-9.03409
▁культуры	-9.03436
сов	-9.03441
▁жил	-9.0346
▁генерал	-9.03462
гре	-9.03561
▁ру	-9.03635
▁государство	-9.03663
▁войска	-9.03752
град	-9.03872
▁образования	-9.03906
ники	-9.03964
▁достиг	-9.04034
▁рыб	-9.04064
▁сильно	-9.04175
▁события	-9.04227
▁начало	-9.04232
▁слов	-9.04263
▁тот	-9.04269
▁документ	-9.04296
▁«"	-9.04447
▁большой	-9.04555
▁тол	-9.04573
▁баз	-9.04597
аются	-9.04605
ож	-9.04795
дал	-9.04934
▁(18	-9.05106
▁написан	-9.05285
лон	-9.05521
например	-9.05627
st	-9.0575
▁множество	-9.05796
α	-9.05919
la	-9.06208
▁известно	-9.06244
▁ба	-9.06255
▁%)	-9.06275
▁китай	-9.06282
8	-9.06326
▁решение	-9.06432
75	-9.06562
▁своё	-9.06619
ик	-9.06665
▁этим	-9.0667
ях	-9.06687
▁себе	-9.06705
▁100	-9.06737
чер	-9.06746
▁мар	-9.06801
▁состоит	-9.06832
пре	-9.06906
▁официально	-9.06966
▁назван	-9.07158
ёл	-9.07198
▁ста	-9.07233
гн	-9.07285
ились	-9.07317
▁чего	-9.07329
▁пе	-9.07348
▁нет	-9.07367
▁систем	-9.0744
▁тех	-9.07516
истов	-9.07627
▁му	-9.07673
ович	-9.07906
▁деятельности	-9.07935
▁50	-9.07945
вали	-9.08101
▁выход	-9.0811
σ	-9.08203
li	-9.08222
нут	-9.08414
);	-9.08452
▁мало	-9.08691
▁составил	-9.08693
ra	-9.08706
▁очередь	-9.08757
▁самым	-9.08918
▁19	-9.08943
том	-9.08973
▁ри	-9.091
­	-9.09128
зо	-9.09146
уд	-9.09166
ион	-9.09226
▁исследования	-9.09257
▁союза	-9.09357
овая	-9.09365
▁ран	-9.09475
▁деятельность	-9.09679
▁фильм	-9.09897
альные	-9.10161
▁21	-9.10186
кол	-9.10201
14	-9.10347
▁область	-9.10536
ание	-9.10581
емых	-9.1059
▁образован	-9.10747
▁бор	-9.10823
сел	-9.10881
▁крас	-9.10932
z	-9.11098
▁тро	-9.111
▁ро	-9.11286
крыт	-9.11305
▁реш	-9.11347
▁действия	-9.11387
▁север	-9.11493
ch	-9.11652
производ	-9.11832
▁рост	-9.11856
▁вес	-9.11989
▁работ	-9.12012
▁возможно	-9.1204
це	-9.1205
мат	-9.1208
тан	-9.12147
ева	-9.12164
др	-9.12227
бра	-9.12317
▁ходе	-9.12319
слав	-9.12356
▁владимир	-9.12433
кар	-9.12539
▁дж	-9.12589
иться	-9.12589
▁полу	-9.12623
▁постоянно	-9.12629
яз	-9.1268
17	-9.12765
▁крестьян	-9.1282
▁команд	-9.12872
▁автор	-9.12873
гра	-9.12889
▁масс	-9.12921
▁процесс	-9.12922
инг	-9.12953
▁мог	-9.13019
▁разных	-9.13173
▁типа	-9.13183
телей	-9.13258
▁возможность	-9.13427
▁лиц	-9.13459
ул	-9.13491
енные	-9.13496
лага	-9.13558
ям	-9.13643
▁впоследствии	-9.13643
▁городов	-9.13761
▁всей	-9.1385
вшие	-9.13868
под	-9.13873
исты	-9.13958
▁марк	-9.13972
▁северной	-9.14051
▁остров	-9.14078
▁радио	-9.14149
уль	-9.14214
▁институт	-9.14239
зе	-9.14366
▁дорог	-9.14438
шен	-9.14578
▁мер	-9.14717
▁тип	-9.15195
▁2008	-9.1528
дава	-9.15305
▁миф	-9.15376
▁2011	-9.15388
пар	-9.15429
90	-9.15462
48	-9.15499
▁жизнь	-9.15554
рас	-9.15708
br	-9.15726
▁эр	-9.15766
▁государственной	-9.15921
▁(20	-9.15931
▁одна	-9.16112
лев	-9.16128
▁ней	-9.16133
лит	-9.16165
▁код	-9.16194
▁ти	-9.16212
▁считается	-9.16214
оль	-9.163
ень	-9.1635
либо	-9.16392
▁норм	-9.16464
ках	-9.16465
ван	-9.16505
▁23	-9.16581
цов	-9.16633
ическое	-9.16641
▁военно	-9.16751
85	-9.16781
ология	-9.16782
кан	-9.16882
▁мы	-9.1691
▁раствор	-9.16952
ват	-9.16953
▁войск	-9.17
▁европы	-9.17055
▁электрон	-9.17176
▁интерес	-9.17182
атель	-9.1731
▁школы	-9.17365
▁ман	-9.17418
лом	-9.17465
▁24	-9.1747
▁линии	-9.17639
▁театр	-9.17659
▁историк	-9.17672
▁философии	-9.1769
▁президента	-9.17834
кур	-9.17922
▁ранее	-9.18001
▁жителей	-9.18076
▁22	-9.18173
▁m	-9.18182
▁вариант	-9.18203
▁значения	-9.18273
▁f	-9.18325
▁точки	-9.18325
▁причин	-9.18387
▁цар	-9.18434
емые	-9.18508
дж	-9.18528
ника	-9.18602
▁птиц	-9.18614
мон	-9.18682
▁другими	-9.18688
чные	-9.18718
ели	-9.18752
▁позже	-9.18776
▁парламент	-9.18817
зу	-9.18823
▁территория	-9.18878
▁площади	-9.1898
▁функции	-9.1898
действ	-9.18998
ген	-9.1902
▁пост	-9.19029
лиз	-9.19082
▁ц	-9.1923
ющего	-9.1939
эт	-9.19435
▁называется	-9.19438
ило	-9.19474
ющий	-9.19681
клон	-9.1969
▁отдел	-9.19728
95	-9.19843
▁участие	-9.19909
▁2017	-9.20036
▁че	-9.20098
рез	-9.20152
ологии	-9.20172
▁противо	-9.20177
▁первая	-9.20228
зем	-9.20273
▁новый	-9.20278
▁составе	-9.20366
28	-9.2046
▁гер	-9.20603
ν	-9.20634
»),	-9.20636
▁активно	-9.2068
кт	-9.2069
▁нём	-9.20719
лён	-9.20788
27	-9.20869
▁ду	-9.20901
▁поли	-9.20909
▁каза	-9.20922
="6	-9.21005
▁дом	-9.21041
ющей	-9.21176
сон	-9.21328
▁отличие	-9.21366
город	-9.21375
▁срок	-9.21409
вол	-9.21429
стат	-9.21546
▁данных	-9.21648
ющая	-9.21723
▁кино	-9.21797
▁уровень	-9.21892
▁зрения	-9.21893
▁состоянию	-9.21998
ита	-9.22068
dice	-9.22108
▁+	-9.22198
▁аппарат	-9.22209
▁степени	-9.2221
us	-9.2239
▁достаточно	-9.22528
▁считал	-9.22589
▁права	-9.22778
▁различные	-9.22792
ено	-9.22841
▁управления	-9.22847
▁тела	-9.22867
▁положение	-9.22899
▁%.	-9.22909
ывает	-9.22939
▁лев	-9.23033
▁тай	-9.23065
▁договор	-9.23079
дар	-9.23086
форм	-9.23164
▁цел	-9.23166
▁большое	-9.23167
цами	-9.23184
сер	-9.23237
▁меньше	-9.23275
фер	-9.233
21	-9.23306
▁системе	-9.23432
▁женщин	-9.23456
▁рамках	-9.23493
▁мед	-9.23525
▁одновременно	-9.23596
казан	-9.23624
▁мил	-9.23652
▁представлен	-9.23681
мар	-9.23711
]	-9.2379
▁2009	-9.23838
▁различ	-9.23925
запад	-9.24048
▁матери	-9.24181
чин	-9.24188
▁ответ	-9.24207
▁названия	-9.24246
▁теле	-9.24309
▁группа	-9.2437
лег	-9.24405
▁температура	-9.2443
▁p	-9.24438
ическую	-9.2444
▁движение	-9.24487
сен	-9.24561
▁атом	-9.24679
▁оста	-9.24681
te	-9.24712
24	-9.24719
▁главным	-9.24763
иков	-9.24784
стве	-9.24831
▁b	-9.24853
сту	-9.24946
▁новых	-9.25052
▁значительно	-9.25175
▁нового	-9.25214
▁следует	-9.25219
▁свой	-9.25237
ост	-9.25368
▁занят	-9.25395
▁строительство	-9.25439
▁полёт	-9.25537
ря	-9.25585
▁имел	-9.25599
▁групп	-9.25638
▁уровня	-9.25656
01	-9.2568
▁век	-9.25747
99	-9.25805
▁украины	-9.25846
илась	-9.25851
▁фа	-9.25869
ак	-9.25878
▁франции	-9.26017
тро	-9.26106
▁карл	-9.26126
▁2020	-9.26139
▁теория	-9.26206
▁"«	-9.26246
асс	-9.26258
пт	-9.26327
▁2018	-9.26346
▁океан	-9.26407
▁нескольких	-9.26426
тели	-9.2645
▁киев	-9.26457
▁месте	-9.26477
▁ген	-9.26489
▁средств	-9.266
33	-9.26616
=6	-9.26676
государственного	-9.26697
▁правило	-9.26747
▁часов	-9.26781
▁общества	-9.26788
гр	-9.2679
куп	-9.26807
ирования	-9.26876
▁ша	-9.26994
▁площадь	-9.27088
▁промышленности	-9.27109
96	-9.27182
▁1991	-9.27213
▁2014	-9.2723
▁2007	-9.27348
49	-9.27417
▁машин	-9.27439
ti	-9.27523
▁формы	-9.27553
метр	-9.27602
▁писал	-9.27633
▁умер	-9.27673
37	-9.27714
▁указ	-9.27802
▁равно	-9.27875
▁d	-9.27876
▁пла	-9.27939
▁первого	-9.27951
▁герман	-9.27957
36	-9.2798
▁ак	-9.28012
▁странах	-9.28019
▁26	-9.28257
▁пути	-9.28397
▁2019	-9.28424
зов	-9.28478
енный	-9.28506
▁определён	-9.28542
▁обще	-9.28567
▁колон	-9.28572
рк	-9.28733
лан	-9.28749
43	-9.28762
86	-9.2881
гар	-9.28878
▁ним	-9.28885
▁страна	-9.28926
▁свойства	-9.28987
▁тонн	-9.28994
эн	-9.29032
альной	-9.29086
▁южной	-9.29088
▁истин	-9.29165
“	-9.29226
▁iii	-9.29243
▁основных	-9.29343
▁кри	-9.29384
▁0	-9.29409
▁целом	-9.2971
▁поэт	-9.29736
▁проблем	-9.29863
▁существуют	-9.2991
▁ги	-9.29949
w	-9.30014
▁украин	-9.30026
▁2013	-9.30057
ек	-9.3011
▁западной	-9.30123
▁бога	-9.30165
▁принят	-9.30178
▁27	-9.30188
▁имя	-9.30269
▁ново	-9.30363
▁2012	-9.30519
атив	-9.30545
42	-9.30663
▁целью	-9.30671
▁2000	-9.3069
▁швед	-9.30715
пс	-9.30903
▁тому	-9.30948
—20	-9.3098
вой	-9.3103
▁всегда	-9.3106
▁тер	-9.31065
нской	-9.3108
льд	-9.31115
вое	-9.31152
26	-9.3119
▁a	-9.31206
рожд	-9.31379
ниж	-9.31385
▁штат	-9.31402
on	-9.3153
▁округа	-9.31663
▁русского	-9.31688
▁благо	-9.31708
▁сто	-9.31712
38	-9.31729
41	-9.31855
▁выс	-9.31935
▁программы	-9.31959
▁известны	-9.32001
▁существ	-9.32042
▁час	-9.32045
78	-9.3205
▁которым	-9.32084
45	-9.32117
is	-9.32142
▁конца	-9.32151
34	-9.32176
ард	-9.32236
▁принял	-9.32312
▁включая	-9.32337
▁островов	-9.32442
▁внутри	-9.32579
еж	-9.32605
▁помимо	-9.32697
▁опыт	-9.32718
доль	-9.32847
ro	-9.32896
▁изменения	-9.32942
гер	-9.33102
▁пу	-9.3318
▁такой	-9.33186
▁40	-9.3328
▁науки	-9.33327
стру	-9.33387
97	-9.33446
ирует	-9.33476
▁вывод	-9.33543
="4	-9.33585
▁направлен	-9.33595
место	-9.33638
строй	-9.3367
вл	-9.3371
▁новые	-9.3379
▁высоко	-9.33908
▁искусств	-9.34019
▁ограничен	-9.34044
вшихся	-9.34309
▁28	-9.34321
▁называют	-9.34441
полн	-9.3447
дон	-9.34568
рь	-9.34584
▁районе	-9.34592
▁би	-9.34612
▁дней	-9.34718
▁общей	-9.34741
▁бог	-9.34765
▁газ	-9.34809
▁мост	-9.34888
▁чел	-9.34894
▁москве	-9.34952
▁современной	-9.34952
▁подход	-9.35016
▁актив	-9.35158
▁частью	-9.35159
▁„	-9.35203
▁голов	-9.35232
▁ум	-9.35399
▁член	-9.3541
▁позднее	-9.35415
▁санкт	-9.35443
47	-9.3551
▁xviii	-9.3558
ο	-9.35605
▁электр	-9.3565
39	-9.35663
▁производства	-9.35677
▁государственный	-9.35691
учи	-9.35793
фор	-9.35928
пон	-9.35975
98	-9.36112
▁ниже	-9.3615
кры	-9.36159
▁аэропорт	-9.36162
руш	-9.36292
вший	-9.36305
▁русской	-9.36342
▁дома	-9.36343
ацию	-9.36355
▁этому	-9.3645
альных	-9.36483
▁занимает	-9.36489
▁россия	-9.36531
▁быстро	-9.36561
▁веществ	-9.36587
▁предмет	-9.36607
центр	-9.36648
▁которую	-9.36651
кр	-9.36668
▁район	-9.36729
ическим	-9.36751
кал	-9.36776
▁низ	-9.36778
▁тре	-9.36817
альная	-9.3689
▁музей	-9.36895
▁гол	-9.36905
▁француз	-9.3695
крас	-9.37052
▁материал	-9.37093
▁используются	-9.37122
▁храм	-9.3716
▁2016	-9.37287
▁герб	-9.37379
▁чисел	-9.37388
пал	-9.37431
ителя	-9.37472
▁единиц	-9.37894
вшим	-9.37928
▁факт	-9.37986
▁работа	-9.38043
шего	-9.38122
▁игр	-9.38134
▁духов	-9.38168
охран	-9.38252
▁формул	-9.38261
▁вокруг	-9.3827
▁своим	-9.38337
▁церковь	-9.38377
="5	-9.38379
▁зависимости	-9.38383
▁условиях	-9.38423
▁дан	-9.38425
▁книги	-9.3847
▁основной	-9.38505
▁лидер	-9.38604
шей	-9.38681
64	-9.38707
▁аб	-9.3874
▁волн	-9.38761
▁первое	-9.3878
▁премьер	-9.38876
каз	-9.38925
▁оп	-9.38939
нс	-9.38946
▁последние	-9.39002
▁революции	-9.39003
яет	-9.39027
изация	-9.39069
▁пункт	-9.39127
▁содержа	-9.39158
46	-9.39173
лер	-9.39222
ri	-9.39231
▁должен	-9.39253
уш	-9.39258
▁h	-9.39315
▁земле	-9.39328
▁первых	-9.3934
▁позволяет	-9.39378
▁пят	-9.39395
▁2015	-9.39412
нг	-9.39616
▁маршрут	-9.3963
▁информации	-9.3963
▁численность	-9.39633
▁лу	-9.39694
▁находятся	-9.39757
29	-9.39791
44	-9.39799
зер	-9.39811
ностью	-9.39857
▁прямо	-9.39884
▁избран	-9.39913
▁систему	-9.40054
▁рос	-9.401
▁29	-9.4012
22	-9.4015
16	-9.40166
▁сохраня	-9.40179
35	-9.40213
сл	-9.40267
▁понятие	-9.40314
▁круг	-9.40353
тек	-9.40365
▁каждый	-9.40379
▁должны	-9.40389
▁цвет	-9.40426
▁уд	-9.40488
72	-9.40494
▁помощи	-9.40516
▁доступ	-9.40537
▁бур	-9.40542
▁работал	-9.40575
чёт	-9.40597
▁детей	-9.40648
▁признан	-9.40696
так	-9.40728
рей	-9.40853
▁аль	-9.40868
кам	-9.40913
▁света	-9.4096
овал	-9.4104
▁относятся	-9.41087
▁архитектур	-9.41123
▁сторон	-9.41131
▁двор	-9.41156
▁четыре	-9.41282
▁2006	-9.41337
▁курс	-9.41372
76	-9.41377
▁административно	-9.4141
пор	-9.41447
▁вскоре	-9.41558
▁развива	-9.41584
▁дня	-9.41744
▁канал	-9.41809
▁кан	-9.41825
▁длин	-9.41826
68	-9.41834
ирование	-9.41881
▁транс	-9.41882
▁крупных	-9.41909
мед	-9.41945
▁соответствии	-9.42053
87	-9.42107
ница	-9.42145
▁(),	-9.42211
▁фи	-9.42245
ток	-9.42251
▁связан	-9.42299
▁ст	-9.42309
▁первую	-9.42312
▁карт	-9.42342
55	-9.4245
▁v	-9.42622
мент	-9.4264
цк	-9.42655
▁восточной	-9.42825
▁объект	-9.42829
▁(1	-9.42866
ата	-9.42913
▁рассматрива	-9.42938
▁поверхности	-9.42961
▁использование	-9.43018
91	-9.43055
сла	-9.43074
—18	-9.43209
▁поле	-9.43277
иц	-9.43279
▁000	-9.43554
овый	-9.43565
▁чувств	-9.4361
пере	-9.43614
92	-9.43666
кси	-9.43684
онов	-9.43699
▁долларов	-9.43769
вели	-9.4385
▁середине	-9.43883
▁работу	-9.43924
▁().	-9.43967
▁the	-9.44008
▁куб	-9.441
▁2005	-9.44176
▁начиная	-9.44177
▁животных	-9.44192
шёл	-9.44201
▁стол	-9.44218
ющихся	-9.44232
7"	-9.44249
ится	-9.44282
рес	-9.44354
няя	-9.4437
71	-9.44452
▁война	-9.44457
▁потом	-9.44591
▁текст	-9.44761
▁языки	-9.44775
▁сбор	-9.44937
тора	-9.45003
рис	-9.4502
▁букв	-9.45099
ителей	-9.45102
▁научно	-9.45115
67	-9.45163
▁ислам	-9.4523
▁приводит	-9.45239
▁произведения	-9.45259
1"	-9.45402
вшего	-9.45436
щён	-9.45481
▁самого	-9.45493
▁лит	-9.45503
▁собственно	-9.45518
▁искусства	-9.45523
▁решения	-9.45566
▁меня	-9.45577
▁пространства	-9.45653
бин	-9.45657
кова	-9.45693
▁60	-9.45797
▁советского	-9.458
▁восточно	-9.4585
нт	-9.45897
3"	-9.45932
=5	-9.45971
69	-9.46096
▁ввп	-9.46117
▁молод	-9.46167
▁центра	-9.46193
88	-9.46206
▁становится	-9.46273
▁станции	-9.46296
▁земля	-9.46456
стер	-9.46504
союз	-9.46523
телем	-9.46528
▁версии	-9.46544
бит	-9.46634
▁постепенно	-9.46654
▁земель	-9.46698
▁экс	-9.46792
▁энергии	-9.46813
▁путём	-9.46813
дом	-9.46831
74	-9.46969
82	-9.47058
▁отряд	-9.47077
▁особо	-9.47131
эр	-9.47148
нцев	-9.47248
селен	-9.47279
se	-9.47426
89	-9.47457
2"	-9.47608
▁главе	-9.47612
▁соответственно	-9.47629
▁составляют	-9.4763
▁жив	-9.47636
6"	-9.47752
▁свойств	-9.47785
66	-9.47793
▁мере	-9.47867
▁периода	-9.47868
▁мол	-9.47978
▁исход	-9.48066
▁элементов	-9.48083
еш	-9.48207
▁2004	-9.48216
пп	-9.48322
▁люди	-9.48337
84	-9.48357
▁своём	-9.48363
нных	-9.48367
▁эксперимент	-9.48392
аться	-9.48405
▁университета	-9.48503
▁вида	-9.48523
93	-9.48525
▁гидро	-9.48563
79	-9.48565
▁задач	-9.48584
▁уровне	-9.48617
▁включает	-9.48618
23	-9.48662
▁флаг	-9.48695
▁труда	-9.48697
▁пара	-9.48848
ике	-9.48875
▁собор	-9.48897
▁кра	-9.48966
77	-9.48991
▁прежде	-9.48994
▁производство	-9.49007
▁сын	-9.49056
5"	-9.49063
▁форма	-9.4911
▁интернет	-9.49147
▁бен	-9.49165
54	-9.49284
▁принято	-9.49289
05	-9.49363
▁опер	-9.4941
▁меж	-9.49421
ари	-9.49519
теля	-9.49551
▁использовать	-9.49674
▁относится	-9.49698
▁возник	-9.49774
▁[	-9.49794
▁дев	-9.49864
тика	-9.49913
63	-9.49922
вет	-9.5003
лия	-9.50045
ида	-9.50074
вшиеся	-9.50165
▁эту	-9.50166
стью	-9.50214
▁большая	-9.50261
ального	-9.50322
▁стан	-9.50455
ительно	-9.50514
08	-9.50627
▁g	-9.50628
сил	-9.50636
▁треть	-9.50647
▁режим	-9.50663
▁первоначально	-9.50712
62	-9.50757
енного	-9.50831
▁фе	-9.50904
me	-9.5094
▁мин	-9.51026
▁фон	-9.51161
▁конституции	-9.51243
▁славян	-9.51259
▁партий	-9.51276
овский	-9.51309
81	-9.51315
▁частиц	-9.51483
лё	-9.5151
▁x	-9.51522
▁азии	-9.51542
▁городской	-9.51558
▁месяц	-9.51576
▁потреб	-9.51612
▁называем	-9.51614
фо	-9.51616
петербург	-9.5164
обра	-9.51643
73	-9.51669
жу	-9.5167
▁парк	-9.51677
▁регион	-9.5168
▁вновь	-9.51682
▁центром	-9.51717
▁ярослав	-9.51811
ma	-9.51819
▁русский	-9.51822
▁пло	-9.51898
крат	-9.51923
ε	-9.51946
ование	-9.51959
▁акт	-9.52067
▁непосредственно	-9.52084
▁четырёх	-9.52096
56	-9.52103
4"	-9.52199
ования	-9.52219
вест	-9.52225
ρ	-9.52238
▁выбор	-9.52266
нская	-9.52313
ура	-9.52319
▁ну	-9.52395
шим	-9.52441
▁e	-9.52448
32	-9.52559
ало	-9.52575
▁получен	-9.52583
▁указан	-9.52588
▁температур	-9.52688
св	-9.52692
чит	-9.52733
▁рим	-9.52802
▁поиск	-9.52863
▁тра	-9.52875
лем	-9.52895
9"	-9.5294
▁солнца	-9.52956
год	-9.52961
вания	-9.52985
▁направления	-9.53042
двига	-9.5309
▁явля	-9.53151
▁бал	-9.5316
ющиеся	-9.53161
▁средства	-9.53181
8"	-9.5322
▁занял	-9.53235
▁подверг	-9.53248
▁блок	-9.53267
ски	-9.53307
ниц	-9.53407
▁пример	-9.53415
_2	-9.53432
▁муж	-9.53485
▁уз	-9.53605
▁обо	-9.5365
▁причём	-9.5368
▁рассказ	-9.53718
▁перемен	-9.53779
втор	-9.53805
▁провод	-9.53858
▁применя	-9.53867
▁окруж	-9.53894
▁це	-9.53919
ируется	-9.53934
▁мужчин	-9.53981
▁звук	-9.54039
at	-9.54074
ющим	-9.54101
тре	-9.54113
грамм	-9.54208
▁античн	-9.54229
фон	-9.54247
готов	-9.54269
▁пап	-9.5427
="3	-9.54352
следствие	-9.54391
рица	-9.54443
▁авто	-9.5449
▁плат	-9.54513
ались	-9.54518
шу	-9.5452
▁региона	-9.54535
▁дела	-9.54538
▁эн	-9.54541
▁экономики	-9.54564
▁планет	-9.54588
▁арабск	-9.54633
▁сократ	-9.54697
▁обнаружен	-9.54699
09	-9.54739
кий	-9.54756
суд	-9.54767
▁района	-9.54768
шие	-9.54773
▁создания	-9.54776
▁диалект	-9.54846
▁1917	-9.54864
▁сан	-9.54876
▁данные	-9.54912
вос	-9.5492
▁опубликован	-9.54977
83	-9.54981
▁чу	-9.5502
▁2021	-9.55025
▁став	-9.55103
ьных	-9.55182
▁образова	-9.55191
кла	-9.55192
▁&	-9.55201
▁финансов	-9.55216
▁другим	-9.55295
нем	-9.55297
▁фактически	-9.55338
▁конфликт	-9.55434
ший	-9.55471
▁океана	-9.55478
▁советской	-9.55523
▁дал	-9.55535
▁дороги	-9.55635
чный	-9.55678
▁точно	-9.55714
▁анализ	-9.55797
бол	-9.55801
нием	-9.55824
61	-9.55825
ta	-9.55857
▁оператор	-9.55882
):	-9.55932
▁рода	-9.55945
фр	-9.55993
эс	-9.56044
▁которому	-9.56047
рок	-9.56059
▁куп	-9.56071
el	-9.56087
▁школа	-9.56091
▁петра	-9.56094
▁возможности	-9.56115
▁честь	-9.56119
пит	-9.56155
▁ряда	-9.56173
02	-9.56236
▁пан	-9.56356
▁русских	-9.56375
▁севере	-9.56402
▁связь	-9.56429
▁сохрани	-9.56478
ально	-9.56525
ia	-9.56532
пан	-9.56539
основ	-9.56576
▁множеств	-9.5658
na	-9.56587
евич	-9.56793
тся	-9.56918
▁мод	-9.56961
07	-9.5699
▁бра	-9.57003
▁крупн	-9.57013
▁роди	-9.57013
▁рсфср	-9.57071
▁внимание	-9.57072
▁оон	-9.57091
леч	-9.57177
▁управление	-9.57223
▁структур	-9.57256
▁доход	-9.57324
▁xvii	-9.57347
▁евро	-9.57351
бел	-9.5736
▁инструмент	-9.57372
▁создание	-9.5746
▁готов	-9.57501
▁удалось	-9.57523
▁компании	-9.57527
вшая	-9.5757
▁центральной	-9.57595
▁модели	-9.57616
▁силу	-9.57702
▁кто	-9.57709
vi	-9.57753
▁суда	-9.57773
▁раб	-9.57802
множ	-9.58029
▁ад	-9.5809
▁границы	-9.58112
кл	-9.58119
▁древне	-9.58128
▁назначен	-9.58241
сибирск	-9.58268
нди	-9.58283
ическом	-9.58352
▁пяти	-9.58355
эк	-9.58475
▁успех	-9.58583
▁книг	-9.58672
▁нью	-9.58707
▁западно	-9.5876
▁исключ	-9.58796
▁выда	-9.58847
ι	-9.58881
da	-9.58883
▁округ	-9.58887
▁ес	-9.58944
58	-9.58944
0"	-9.58954
бли	-9.58988
шин	-9.59018
94	-9.59032
▁великобритании	-9.59041
▁берлин	-9.59101
луж	-9.59103
▁самой	-9.59121
▁кандидат	-9.59194
▁виды	-9.59247
▁каз	-9.59296
▁мак	-9.59319
▁москвы	-9.59347
▁отношении	-9.59347
илось	-9.59406
твер	-9.59424
гла	-9.59436
04	-9.59465
берг	-9.59469
▁получила	-9.59495
▁алфавит	-9.59501
шла	-9.59577
65	-9.59578
▁конечно	-9.59598
▁экономически	-9.59654
▁лондон	-9.59655
▁ленин	-9.59684
▁соверш	-9.59687
▁следующие	-9.59724
▁языках	-9.59735
▁гг	-9.59757
▁класса	-9.59785
кин	-9.59795
фик	-9.59865
емой	-9.59882
рё	-9.59989
▁жанр	-9.59996
▁пр	-9.60017
52	-9.60055
▁использования	-9.60071
▁юге	-9.60106
вать	-9.6016
▁религии	-9.60273
▁фин	-9.60278
рот	-9.60347
▁необходимо	-9.60364
чу	-9.60372
▁резко	-9.60423
am	-9.60497
▁крупные	-9.60537
▁членов	-9.60575
▁мон	-9.60626
▁этап	-9.6065
▁места	-9.60702
оф	-9.60812
▁общая	-9.60823
▁приказ	-9.60827
▁хор	-9.60863
▁разработан	-9.60895
▁появились	-9.60905
занима	-9.60941
рин	-9.6095
▁пояс	-9.60954
▁автобус	-9.6105
=3	-9.61126
ведение	-9.61185
▁далее	-9.61225
▁преимущественно	-9.61286
▁новая	-9.61289
▁развит	-9.61331
▁вероятно	-9.61474
▁атмосфер	-9.61475
▁современных	-9.6152
▁склон	-9.61522
▁мысли	-9.6158
▁идеи	-9.61611
▁начали	-9.61617
▁журнал	-9.61624
▁ок	-9.61649
▁удар	-9.61654
▁полос	-9.61731
51	-9.61828
▁случай	-9.61834
▁двумя	-9.61835
▁миллионов	-9.61839
▁хорошо	-9.61852
▁понятия	-9.61907
цу	-9.62057
▁объектов	-9.62081
▁состояния	-9.62149
▁объясн	-9.62181
дать	-9.62206
▁1990	-9.62211
дина	-9.62221
31	-9.62293
рев	-9.6244
над	-9.62474
▁управля	-9.62475
офи	-9.62475
▁коммун	-9.62492
▁чита	-9.62513
▁неё	-9.62593
▁дни	-9.62635
▁псков	-9.62642
▁получили	-9.62755
▁определя	-9.62827
ируют	-9.62862
▁упомина	-9.62915
▁обе	-9.62985
-1	-9.63002
временн	-9.63146
▁работе	-9.63173
жал	-9.63196
▁лёгк	-9.6326
дин	-9.63299
▁божеств	-9.63336
▁тан	-9.63343
▁кост	-9.63437
▁ху	-9.63461
емого	-9.63511
▁бед	-9.63525
▁руси	-9.63564
▁действие	-9.63629
▁лично	-9.63635
▁граф	-9.63672
53	-9.63679
59	-9.63683
ины	-9.63691
▁коп	-9.63705
▁сети	-9.6373
сор	-9.63752
син	-9.63765
пат	-9.63817
▁ев	-9.63823
▁михаил	-9.63901
▁монарх	-9.63906
▁дело	-9.63911
▁русском	-9.63921
▁традиционно	-9.63923
▁веков	-9.63964
▁поезд	-9.63973
▁депутатов	-9.63976
▁континент	-9.64102
▁рук	-9.6422
ице	-9.64256
▁некоторо	-9.64337
▁брат	-9.64356
▁глубин	-9.64384
▁пока	-9.64437
▁состояние	-9.64546
▁инженер	-9.64578
ед	-9.64582
▁новгород	-9.64709
нные	-9.64721
▁фактор	-9.64732
▁экспорт	-9.6475
▁разум	-9.64807
шем	-9.64814
▁эффект	-9.64827
▁означает	-9.65032
▁продукт	-9.65108
ённых	-9.65118
▁недо	-9.65136
▁яр	-9.65167
▁солдат	-9.65194
▁партия	-9.65197
lo	-9.65216
▁стра	-9.65271
▁един	-9.65279
▁объявлен	-9.65357
▁мел	-9.65421
орож	-9.65454
▁величин	-9.65493
▁закона	-9.65515
▁средняя	-9.6552
▁безопасности	-9.6552
гон	-9.65591
06	-9.65632
вшийся	-9.65648
вес	-9.65659
шев	-9.65679
▁природы	-9.6569
▁квантов	-9.65709
▁руб	-9.65843
▁специально	-9.65855
▁1918	-9.6587
ter	-9.65874
▁форме	-9.659
▁31	-9.65932
="7	-9.65933
▁отмен	-9.6596
03	-9.65967
=1	-9.65995
▁половине	-9.66012
▁открыл	-9.66033
овать	-9.66034
▁городского	-9.66118
").	-9.66128
дор	-9.66131
▁кислот	-9.66171
емый	-9.66175
▁исторически	-9.66199
▁определен	-9.6621
▁xvi	-9.66336
министра	-9.66382
▁вещества	-9.6642
▁кал	-9.66445
коп	-9.66531
▁потому	-9.66578
▁средне	-9.66623
ять	-9.66655
▁кризис	-9.6667
еля	-9.66741
пуска	-9.66766
лек	-9.66815
▁издан	-9.66825
▁создал	-9.66835
▁социал	-9.66836
▁распространение	-9.66836
▁цк	-9.66909
▁острове	-9.66921
▁газа	-9.66928
▁знак	-9.66957
▁гар	-9.66974
▁фаз	-9.67024
▁школ	-9.67054
▁джон	-9.67084
ался	-9.67097
бира	-9.67103
▁погиб	-9.67176
▁микро	-9.67193
▁представления	-9.6729
▁твёрд	-9.67499
▁корпус	-9.67501
▁огромн	-9.67593
▁1000	-9.67833
▁80	-9.67839
енная	-9.67968
▁древ	-9.67976
лли	-9.68046
важ	-9.68047
чества	-9.68091
▁взят	-9.68129
▁клуб	-9.68134
▁ши	-9.68183
as	-9.68223
°	-9.68242
▁президентом	-9.68242
▁необходим	-9.68335
to	-9.68345
▁дух	-9.68385
▁сеть	-9.68418
▁имеется	-9.6844
▁проч	-9.68496
▁равнин	-9.68504
▁министров	-9.68511
ицы	-9.68594
so	-9.68615
мана	-9.68643
▁интер	-9.68719
▁бе	-9.68732
▁пра	-9.6875
ством	-9.68798
ину	-9.68824
▁шар	-9.68857
▁ученик	-9.68881
бар	-9.69016
меня	-9.69051
точ	-9.69061
▁общего	-9.69191
▁мастер	-9.6923
▁пять	-9.6924
▁суб	-9.69289
́н	-9.69296
▁азербайджан	-9.69348
▁традиции	-9.69348
▁услуг	-9.69348
▁смысл	-9.69419
соедин	-9.69578
яют	-9.69682
революционн	-9.69684
▁должно	-9.69689
беж	-9.69726
реб	-9.69732
▁комп	-9.69762
енной	-9.6985
▁близ	-9.69856
▁учение	-9.6988
▁богат	-9.69922
тик	-9.69979
▁действует	-9.70028
▁предприятия	-9.70028
▁протяжении	-9.70028
▁средневеков	-9.70028
▁компания	-9.70041
ора	-9.70043
▁наличие	-9.70076
▁мусульман	-9.70082
▁цифр	-9.70095
▁отлича	-9.70099
▁названием	-9.70126
▁отдельных	-9.70213
▁расход	-9.70227
▁200	-9.70254
▁применение	-9.70299
▁памятник	-9.7037
▁представителей	-9.70371
▁нефти	-9.70373
de	-9.704
кус	-9.70507
рт	-9.70635
коль	-9.70662
▁мета	-9.70721
альным	-9.70739
▁2003	-9.70779
▁спас	-9.70851
▁географическ	-9.70897
язы	-9.70909
▁2022	-9.70918
рет	-9.70921
вание	-9.71055
▁здания	-9.71069
ающих	-9.71084
руб	-9.71148
▁соответствующи	-9.71214
▁сезон	-9.71243
дия	-9.71361
▁действующ	-9.71408
th	-9.71411
▁экономика	-9.71416
▁едино	-9.71437
▁продолжал	-9.7154
▁всю	-9.71564
▁важно	-9.71568
▁основа	-9.7161
▁температуры	-9.71685
▁центре	-9.71688
▁распространён	-9.71695
▁иванов	-9.7173
▁ядер	-9.7175
▁шу	-9.71752
▁италии	-9.71754
▁фигур	-9.71758
▁промышленность	-9.71785
▁хи	-9.71801
▁государственных	-9.71957
▁типов	-9.72055
▁1992	-9.72116
плоть	-9.72132
▁черт	-9.72149
порт	-9.72184
▁de	-9.7228
▁большим	-9.72281
▁организация	-9.72294
шая	-9.72547
▁массы	-9.72624
▁ради	-9.72647
▁каб	-9.72648
что	-9.72677
▁правления	-9.72681
▁осуществля	-9.7274
▁административны	-9.72799
▁цикл	-9.72884
▁70	-9.72907
▁список	-9.72977
▁войне	-9.72984
гал	-9.73028
2.	-9.73127
топ	-9.7313
очные	-9.73137
вит	-9.73141
сь	-9.73145
▁свят	-9.73289
▁японии	-9.73328
▁номер	-9.73373
il	-9.7341
▁ростов	-9.73411
▁основным	-9.73489
▁совместно	-9.73505
▁закрыт	-9.73512
▁рублей	-9.73526
▁компонент	-9.73681
▁выполнен	-9.73693
▁посту	-9.73696
▁подписан	-9.73699
▁политика	-9.73739
▁национально	-9.73748
▁обмен	-9.73807
▁1990-	-9.7381
▁математик	-9.73843
хар	-9.73849
▁весьма	-9.73892
▁путин	-9.73921
эй	-9.73954
▁объявил	-9.74036
▁профессор	-9.74036
логи	-9.74069
▁фонд	-9.74092
лист	-9.74133
un	-9.74153
"»	-9.74191
▁съезд	-9.74214
дя	-9.74246
все	-9.7427
▁рез	-9.74307
—1	-9.74316
▁языком	-9.74331
▁рф	-9.74391
▁привело	-9.74394
▁чаще	-9.74398
▁политики	-9.7441
▁независимости	-9.74444
▁полёта	-9.7445
▁верховного	-9.74457
юр	-9.74543
нор	-9.74567
▁коллектив	-9.74571
▁произошло	-9.74571
▁элементы	-9.74624
▁началось	-9.74646
альную	-9.74683
▁2001	-9.74709
▁пород	-9.74719
вшей	-9.74842
анти	-9.74881
▁связано	-9.74895
▁содержание	-9.75092
▁1941	-9.75127
▁невозможно	-9.75176
▁скорость	-9.75182
цеп	-9.75218
▁существенно	-9.75244
вая	-9.753
▁хлор	-9.75389
▁дав	-9.75422
изирован	-9.75463
стран	-9.7547
▁самолёт	-9.75484
▁иметь	-9.75486
▁могли	-9.75583
▁окончательно	-9.75601
▁точка	-9.75609
▁пространство	-9.7564
▁бассейн	-9.75649
дум	-9.75661
▁транспорта	-9.7569
▁бывши	-9.75736
инд	-9.75739
ur	-9.7575
вших	-9.75814
▁побережье	-9.7583
▁минут	-9.75884
▁сделал	-9.75894
▁зон	-9.75921
▁комитет	-9.75951
▁сталин	-9.75998
▁гипотез	-9.76011
▁заявил	-9.76012
▁народов	-9.76056
национальный	-9.76059
ce	-9.76077
▁общественно	-9.76119
▁набор	-9.76138
▁определение	-9.76187
▁участвовал	-9.76192
▁количества	-9.76204
▁военных	-9.76304
илл	-9.76316
▁речи	-9.76343
бег	-9.76375
щая	-9.76378
хан	-9.76529
▁частично	-9.76542
▁бро	-9.7655
▁культура	-9.76555
раст	-9.76611
▁диск	-9.76682
лок	-9.76711
▁стать	-9.76726
▁среднем	-9.76733
▁большую	-9.76739
▁предложил	-9.7674
ённые	-9.76742
▁наряду	-9.76752
енным	-9.76755
▁располага	-9.76816
▁входит	-9.76817
строитель	-9.76836
▁сад	-9.77007
▁спор	-9.77016
▁картин	-9.77021
объедин	-9.77045
овое	-9.7711
▁армия	-9.77113
si	-9.77131
▁−	-9.77134
▁w	-9.7715
▁традиционн	-9.77166
▁n	-9.772
▁сочета	-9.77206
▁восстановлен	-9.77315
▁великой	-9.77341
стрел	-9.77422
латин	-9.77445
▁сразу	-9.77493
▁верх	-9.77547
▁2002	-9.77565
риф	-9.77574
рик	-9.77576
▁сек	-9.77607
ьев	-9.7763
медицинск	-9.77632
▁сейчас	-9.77656
бал	-9.7766
цин	-9.77662
▁космос	-9.77687
▁идея	-9.77721
сфер	-9.77726
▁великого	-9.77763
рв	-9.77787
фф	-9.77811
ируются	-9.77844
щих	-9.77844
co	-9.77857
▁особенности	-9.78002
▁территорию	-9.78026
▁существование	-9.78037
акт	-9.7813
▁хозяйства	-9.78189
▁пет	-9.78255
▁пал	-9.78266
ge	-9.7827
граф	-9.78307
▁сервер	-9.78324
▁представитель	-9.78397
▁академии	-9.78397
▁рядом	-9.78475
▁проходил	-9.78481
▁считать	-9.78485
▁дву	-9.78508
▁металл	-9.78556
▁событий	-9.78582
аты	-9.78586
it	-9.78664
▁летом	-9.7868
▁корабля	-9.78768
▁модель	-9.7886
▁возможны	-9.78955
▁существования	-9.78966
▁тело	-9.78978
os	-9.78982
▁выделен	-9.79019
▁востоке	-9.79105
▁май	-9.79147
▁приход	-9.79151
а́	-9.79166
▁нижне	-9.7921
▁зем	-9.79211
▁городах	-9.79238
▁проблемы	-9.79277
▁вышл	-9.79305
▁звёзд	-9.79319
яр	-9.79326
▁имели	-9.79413
▁пользу	-9.79478
▁львов	-9.7952
▁бело	-9.79528
▁описан	-9.79543
▁предложен	-9.79577
▁практик	-9.79608
▁выражен	-9.79664
▁метров	-9.79759
ющими	-9.79779
▁приём	-9.79784
▁субъект	-9.79871
▁эйнштейн	-9.79893
▁модерн	-9.79911
▁исследований	-9.79953
▁самая	-9.80023
▁признак	-9.80049
▁общество	-9.80054
гран	-9.80055
▁возраст	-9.80071
▁должна	-9.80082
▁частей	-9.80085
▁моно	-9.80146
евой	-9.80162
▁народа	-9.80172
плат	-9.80215
▁одном	-9.80255
тин	-9.8028
um	-9.80281
серебр	-9.80282
▁самом	-9.80314
▁гри	-9.80368
▁пассажир	-9.80413
движ	-9.80449
▁спин	-9.80454
▁вынужден	-9.8046
▁1945	-9.80479
▁ры	-9.8048
рак	-9.80493
▁импорт	-9.80495
▁армян	-9.80501
▁эл	-9.80531
дент	-9.80546
▁общин	-9.80563
▁организм	-9.80598
▁наблюд	-9.80624
▁международных	-9.80651
▁стен	-9.80705
▁гос	-9.80712
ником	-9.8073
тельных	-9.80796
ятся	-9.80799
▁такое	-9.80839
▁покров	-9.80868
▁космонавт	-9.80899
рова	-9.80909
▁меди	-9.80962
▁механизм	-9.81031
▁=	-9.81033
▁написал	-9.8105
▁крупнейш	-9.81063
рог	-9.81073
▁мм	-9.81127
▁членом	-9.81145
▁взаимодействия	-9.81221
+	-9.81227
▁контроль	-9.8123
▁специальн	-9.81242
▁используют	-9.81249
▁пес	-9.81402
▁отношение	-9.81413
▁преобразован	-9.81417
▁расположены	-9.81442
▁(17	-9.81489
▁кара	-9.81531
ику	-9.81571
яются	-9.81576
▁500	-9.81594
▁посвящён	-9.81604
▁порядка	-9.81607
▁вклад	-9.81641
енно	-9.81669
сказ	-9.81682
ангел	-9.81727
▁рус	-9.81738
▁крест	-9.81765
▁случаях	-9.81796
▁проходит	-9.81796
▁депутат	-9.81899
▁автомобиль	-9.81988
▁сначала	-9.82004
буд	-9.82013
енное	-9.82015
▁операции	-9.82016
тяж	-9.82058
▁воздуха	-9.82115
▁доля	-9.82131
▁юг	-9.82165
▁вене	-9.82255
▁книга	-9.82261
ёв	-9.82267
▁польско	-9.82281
▁имеются	-9.82361
▁леса	-9.82392
▁золота	-9.82393
▁молекул	-9.82461
ограф	-9.82479
▁происхождение	-9.82568
стор	-9.82579
поли	-9.82582
▁дальнейшем	-9.82645
▁пыта	-9.82649
▁реформ	-9.82657
▁линия	-9.82658
остью	-9.82673
▁занимал	-9.82682
▁маг	-9.82687
▁состоял	-9.8269
овского	-9.82708
как	-9.82716
программирования	-9.82851
▁параметр	-9.82858
пле	-9.82919
▁рабочих	-9.82955
▁сравнению	-9.82955
▁свыше	-9.82966
сты	-9.83003
рек	-9.83006
▁концу	-9.8301
▁чер	-9.83033
▁независимость	-9.83063
воль	-9.83065
разреш	-9.83099
ns	-9.83106
▁отсутствие	-9.8315
▁ежегодно	-9.8315
▁красно	-9.83162
▁адрес	-9.83163
▁среды	-9.83166
▁ныне	-9.83176
зон	-9.83291
▁поход	-9.83316
▁врач	-9.83324
▁одну	-9.8335
пы	-9.83365
ании	-9.83553
лам	-9.83605
▁предлага	-9.83609
▁ленина	-9.83633
▁почт	-9.83645
▁золото	-9.83704
▁императора	-9.83737
ске	-9.83763
▁арх	-9.83771
нц	-9.83785
дз	-9.83839
▁выпуска	-9.83935
▁диа	-9.83941
2,	-9.83963
▁командир	-9.84014
зин	-9.84066
бон	-9.84071
глу	-9.84076
фу	-9.84093
сид	-9.84127
▁показал	-9.84168
плав	-9.84203
▁болгар	-9.84207
▁голосов	-9.84247
▁крайне	-9.84269
ьё	-9.84271
▁назад	-9.84347
ba	-9.84357
▁привод	-9.84447
▁сегодня	-9.84518
▁состоянии	-9.84523
▁фронт	-9.84538
▁долг	-9.84577
ически	-9.8461
▁родился	-9.84613
ni	-9.84663
▁той	-9.84683
▁авиа	-9.84782
▁гран	-9.84792
▁большей	-9.84862
вержен	-9.84901
▁холод	-9.84925
▁ожида	-9.84949
▁встречаются	-9.84956
техник	-9.84973
▁отдельно	-9.84978
▁художник	-9.85038
кра	-9.85041
ca	-9.85079
▁ними	-9.85085
▁монет	-9.85118
▁иностранных	-9.85118
люб	-9.85162
sa	-9.8522
ких	-9.85265
ne	-9.85268
▁бан	-9.85269
▁масштаб	-9.85277
mo	-9.85277
химическ	-9.85289
▁всем	-9.85299
▁независимо	-9.85303
▁охот	-9.85339
дь	-9.85416
▁l	-9.85573
рош	-9.85587
▁кали	-9.85658
лёт	-9.85666
▁крем	-9.85675
▁архитектор	-9.85714
▁численности	-9.85715
▁легенд	-9.8572
▁приходится	-9.85723
тай	-9.85862
▁испанск	-9.85925
▁афин	-9.86025
ндр	-9.8603
ing	-9.86039
▁большого	-9.86115
▁непрерывн	-9.86115
▁значительн	-9.86123
бан	-9.8614
▁флор	-9.86156
▁r	-9.86245
ходит	-9.8634
ица	-9.86357
▁вообще	-9.86378
▁подобно	-9.864
дет	-9.86406
▁говорит	-9.86412
▁продолжа	-9.86498
▁пространстве	-9.86502
▁представители	-9.86517
белорус	-9.86523
▁определения	-9.8654
вёл	-9.86541
▁поддержива	-9.86585
▁фото	-9.86598
магистр	-9.86664
▁iv	-9.86682
▁семи	-9.86686
гру	-9.86714
▁зависит	-9.86718
▁довольно	-9.86719
▁престол	-9.86726
▁должность	-9.86837
▁средней	-9.86843
▁отправ	-9.86868
щего	-9.86885
ню	-9.86886
оло	-9.86976
▁долл	-9.87099
▁предприятий	-9.87123
▁смог	-9.8721
начал	-9.87217
около	-9.87272
▁происхождения	-9.87326
▁научных	-9.87326
нат	-9.87398
глав	-9.87468
и́	-9.87498
▁калининград	-9.87509
ваться	-9.87512
▁литературе	-9.87529
▁сельскохозяйств	-9.87529
▁январе	-9.87529
▁пушкин	-9.87536
▁употребля	-9.87733
▁1999	-9.87755
▁скорости	-9.87775
▁такого	-9.87796
▁согласи	-9.87882
групп	-9.87916
▁америки	-9.87937
нуть	-9.87995
никами	-9.88001
рели	-9.88064
ацией	-9.88073
игра	-9.88128
▁вступил	-9.88141
▁международный	-9.88142
▁писа	-9.88198
зр	-9.88235
▁районах	-9.88276
j	-9.88313
▁сектор	-9.88362
▁t	-9.88375
▁органы	-9.88382
очно	-9.88384
▁длительн	-9.88398
чного	-9.88402
истори	-9.88472
▁культ	-9.88504
▁вооружённы	-9.88507
▁даёт	-9.88538
▁исполня	-9.88552
▁строительства	-9.88552
▁индии	-9.88584
▁осадков	-9.88609
ическими	-9.88625
щение	-9.8864
▁пределах	-9.88651
пас	-9.88675
низ	-9.88768
et	-9.88817
▁использовал	-9.88817
▁хар	-9.88836
▁крупнейших	-9.88884
▁свидетельств	-9.88962
▁протокол	-9.88964
▁действий	-9.8897
▁вода	-9.89073
лес	-9.89081
ставки	-9.89093
▁мари	-9.89108
▁спутник	-9.89133
▁выборах	-9.89143
▁берега	-9.89174
тики	-9.89208
▁августе	-9.89269
▁получить	-9.8927
▁человеч	-9.89384
▁абсолютно	-9.89404
▁новое	-9.89432
▁90	-9.89437
▁музыка	-9.89452
▁началась	-9.89457
▁искусство	-9.89495
сом	-9.89496
▁мас	-9.89519
▁дис	-9.89542
▁банк	-9.89546
ива	-9.89546
▁большинства	-9.89584
▁современного	-9.89585
▁положения	-9.8959
▁побед	-9.89663
▁национальной	-9.89681
шка	-9.89721
рит	-9.89779
ква	-9.89786
вел	-9.89792
▁больших	-9.89805
ляции	-9.89823
▁смысле	-9.89848
▁сход	-9.89854
▁вектор	-9.89896
▁хан	-9.89926
нный	-9.89928
▁физики	-9.90015
раб	-9.90052
ic	-9.90071
▁мае	-9.90078
▁иран	-9.90121
▁тел	-9.90138
бил	-9.90152
▁отношений	-9.90209
верх	-9.90232
ho	-9.90315
▁другом	-9.90338
▁корон	-9.90345
▁спорт	-9.90363
гул	-9.90363
▁ломоносов	-9.90419
▁израиль	-9.90419
▁версия	-9.90441
▁вход	-9.90492
▁аналог	-9.90497
гин	-9.90506
▁проблема	-9.9057
эл	-9.90571
▁методы	-9.90626
нских	-9.90636
импер	-9.90641
▁входил	-9.90806
▁западе	-9.90822
▁пас	-9.90823
▁озёр	-9.90841
▁временем	-9.90892
очных	-9.90944
нят	-9.90974
▁спектр	-9.91032
▁грузов	-9.91084
▁элемент	-9.91113
op	-9.91132
▁известных	-9.91156
▁марс	-9.91189
сси	-9.91197
▁o	-9.91225
российско	-9.91228
▁первом	-9.91247
▁фёдор	-9.9126
▁будут	-9.91261
▁исключением	-9.91279
▁сложи	-9.91396
▁обществе	-9.91418
▁назвал	-9.91608
▁путь	-9.9164
▁прожива	-9.91656
▁внешне	-9.91672
▁декабре	-9.91683
▁половины	-9.9169
▁кад	-9.91745
▁лиш	-9.91749
емым	-9.91769
▁бюджет	-9.91895
▁троллейбус	-9.91895
▁восток	-9.91903
▁эпи	-9.9191
▁кирилл	-9.9194
▁получения	-9.92001
▁любой	-9.92017
▁председатель	-9.92109
тал	-9.92181
▁выпуск	-9.92203
▁измерения	-9.92216
bo	-9.92231
▁содержит	-9.92372
нда	-9.92422
▁камер	-9.92432
▁праздник	-9.92468
оров	-9.92479
▁александра	-9.92482
▁прибыл	-9.9249
▁сообщения	-9.92582
-2	-9.92597
▁платон	-9.92598
▁павл	-9.92634
ющее	-9.92643
▁брак	-9.92655
сек	-9.92666
▁занимают	-9.92758
йцев	-9.92765
▁1989	-9.92768
▁1940	-9.92782
▁множества	-9.92911
▁пётр	-9.92964
▁(2	-9.92999
тип	-9.9306
▁ход	-9.93071
сут	-9.93095
▁результат	-9.93097
▁планеты	-9.93103
▁андре	-9.93108
ющийся	-9.93108
▁собира	-9.93116
="8	-9.93137
▁священн	-9.93154
▁пользова	-9.9316
▁здание	-9.93181
▁вне	-9.93462
▁кап	-9.93478
ийского	-9.935
кая	-9.93525
▁марте	-9.93555
британ	-9.93622
▁никогда	-9.93623
▁сделан	-9.93628
нной	-9.93638
▁передачи	-9.93645
▁июле	-9.93658
▁валют	-9.93671
▁знаком	-9.93789
жения	-9.93795
▁наибольш	-9.93812
оген	-9.93835
▁записи	-9.93836
▁телефон	-9.93843
вшейся	-9.93845
ьный	-9.93871
▁1980-	-9.94009
▁организаций	-9.94044
▁теперь	-9.94044
▁историю	-9.94049
▁советских	-9.94065
держи	-9.94068
арх	-9.94104
▁представляют	-9.94115
▁русские	-9.94117
чей	-9.94165
▁1993	-9.94182
ol	-9.94215
▁появление	-9.94261
▁последний	-9.94262
▁второго	-9.943
▁национального	-9.94301
▁иван	-9.94313
▁считают	-9.94317
▁рис	-9.94336
ённой	-9.9439
троп	-9.9442
овую	-9.94484
▁наука	-9.94491
▁местных	-9.94522
лед	-9.94585
▁боль	-9.94625
ители	-9.9464
хол	-9.94645
скоп	-9.94663
счита	-9.94678
▁печ	-9.94717
ведения	-9.94723
▁сср	-9.94772
▁долго	-9.9479
▁непо	-9.94816
▁футбол	-9.94837
▁сокращ	-9.94848
роб	-9.94876
▁взгляд	-9.94903
▁литературы	-9.94916
▁книге	-9.94919
▁переписи	-9.94928
ставлен	-9.94936
тельной	-9.9494
ённый	-9.94946
водород	-9.94958
▁зе	-9.95018
▁полк	-9.95067
▁париж	-9.95104
тир	-9.9516
▁данный	-9.95183
▁органов	-9.95238
поляр	-9.95269
▁солнце	-9.95361
нист	-9.95391
▁топ	-9.95438
сло	-9.95446
мес	-9.95484
еров	-9.95587
даётся	-9.95692
▁художеств	-9.95692
▁осад	-9.95715
▁состава	-9.95781
▁разрушен	-9.95824
po	-9.95892
бург	-9.95935
▁поток	-9.95961
▁низко	-9.95961
праздн	-9.96002
▁сенат	-9.96014
▁политической	-9.96027
▁уезд	-9.96028
▁принимал	-9.96068
▁выража	-9.96084
τ	-9.96168
▁прос	-9.96207
ировали	-9.96216
ed	-9.96221
мыш	-9.96229
▁координат	-9.96239
▁остаётся	-9.96239
▁британски	-9.96255
ходят	-9.9629
▁выборы	-9.96401
гло	-9.96455
ss	-9.96472
сле	-9.96475
цел	-9.96508
физическ	-9.96509
▁руководством	-9.96526
▁юр	-9.96542
▁глас	-9.96602
▁старо	-9.96633
пил	-9.96634
▁участник	-9.96657
зол	-9.96672
ино	-9.96719
цкого	-9.96725
нул	-9.96748
▁наслед	-9.96751
▁животны	-9.96796
▁входят	-9.968
▁исключительно	-9.96844
pe	-9.96851
▁шт	-9.96873
арь	-9.96876
▁районов	-9.9688
▁испании	-9.96908
▁критик	-9.96918
▁плав	-9.97059
пят	-9.97073
▁стиле	-9.97085
▁религия	-9.97131
▁контакт	-9.97133
▁короля	-9.97134
нёс	-9.97134
▁слабо	-9.97159
▁царств	-9.97225
евых	-9.97277
▁зоны	-9.97333
▁полов	-9.97489
после	-9.9753
́р	-9.97535
груз	-9.97535
pa	-9.97545
▁октябре	-9.9758
▁рельеф	-9.9758
▁глагол	-9.97588
▁vi	-9.97588
mi	-9.9759
▁1995	-9.97606
▁семей	-9.97642
"».	-9.97651
боль	-9.97674
▁условия	-9.9779
▁русско	-9.97798
▁300	-9.97821
▁ленинград	-9.97823
▁дик	-9.97849
▁форму	-9.97858
▁последующ	-9.9786
▁остальные	-9.9788
▁сторону	-9.97917
кер	-9.97975
▁организован	-9.98031
▁дар	-9.98121
чик	-9.98132
реж	-9.98132
▁тракт	-9.98135
▁1919	-9.98136
▁районы	-9.98148
нная	-9.98155
▁крым	-9.98168
▁спустя	-9.98257
▁разно	-9.98267
льский	-9.98268
определ	-9.98279
емая	-9.98292
ie	-9.98312
▁важным	-9.98323
»;	-9.98367
правлен	-9.98382
ющую	-9.98395
ницы	-9.98413
▁деление	-9.98463
▁каждого	-9.98484
ичных	-9.98582
овыми	-9.98616
▁начинается	-9.98636
▁времена	-9.98642
▁связ	-9.98643
▁веках	-9.98653
пред	-9.9867
▁автономн	-9.98677
▁памяти	-9.98711
▁современные	-9.98711
ву	-9.98745
ныне	-9.98746
▁глав	-9.98751
▁граница	-9.98783
▁1920	-9.98851
▁стрел	-9.98861
▁велико	-9.98865
▁друга	-9.98877
▁основными	-9.98964
▁правила	-9.98978
▁существующ	-9.9898
▁дополнительны	-9.98999
▁туризм	-9.99012
цкий	-9.99018
▁воздух	-9.99018
▁института	-9.99021
▁усили	-9.9909
▁повышен	-9.99162
▁татар	-9.992
▁семьи	-9.9924
▁весь	-9.99298
гель	-9.9934
▁войну	-9.99346
▁кант	-9.99347
▁арт	-9.99352
▁воронеж	-9.99396
▁титул	-9.99402
▁военной	-9.99413
▁совершил	-9.99419
▁вед	-9.99449
торы	-9.99469
▁кат	-9.99482
▁передач	-9.99592
▁князь	-9.99626
писать	-9.99683
▁роли	-9.99813
▁ап	-9.99832
▁кпсс	-9.99859
sh	-9.99895
▁военного	-10.0007
▁государством	-10.001
енко	-10.0014
квартир	-10.0014
▁пат	-10.0018
▁био	-10.002
▁самостоятельно	-10.0021
▁выступил	-10.0025
устройств	-10.0026
▁посад	-10.0027
▁цели	-10.0029
▁квадрат	-10.0032
▁николай	-10.0032
бри	-10.0043
▁чемпионат	-10.0044
пресс	-10.0044
оны	-10.0054
▁останов	-10.0054
▁губернии	-10.0055
▁международной	-10.0055
чев	-10.0057
▁программа	-10.0061
▁публи	-10.0061
национал	-10.0071
▁осуществляется	-10.0072
▁следующим	-10.0075
▁всеобщ	-10.0077
▁сочинения	-10.0078
▁вызвал	-10.0079
▁изначально	-10.0081
no	-10.0084
▁многочисленные	-10.0085
файл	-10.0085
▁эпоху	-10.0087
католическ	-10.0089
▁математически	-10.0089
▁массовы	-10.009
ственно	-10.0091
▁регистр	-10.0097
▁обладает	-10.0101
▁сопровожда	-10.0101
▁проявля	-10.0101
▁единственно	-10.0102
▁увеличи	-10.0112
▁чисто	-10.0115
иш	-10.0118
узе	-10.0119
▁лейбниц	-10.013
▁выборов	-10.0132
подобн	-10.0137
▁сложно	-10.014
▁своими	-10.0141
▁границе	-10.0143
▁отдельные	-10.0149
▁водо	-10.0151
скор	-10.0153
ve	-10.0153
▁речь	-10.0158
альное	-10.0159
▁страх	-10.0161
▁запас	-10.0161
▁свободы	-10.0169
▁большинстве	-10.0171
▁трамвай	-10.0171
di	-10.0172
▁сфере	-10.0178
▁король	-10.0178
▁пифагор	-10.018
▁отец	-10.018
!	-10.0181
▁захват	-10.0185
котор	-10.0188
▁идеолог	-10.0194
▁масса	-10.0195
октябрь	-10.0195
▁политических	-10.0195
▁ракет	-10.0196
▁некоторым	-10.0196
чки	-10.0199
емое	-10.0201
авших	-10.0203
▁столь	-10.0208
цар	-10.021
▁отмечал	-10.0218
▁запрет	-10.022
▁рад	-10.0222
▁залив	-10.0225
▁учреждения	-10.0227
▁открыты	-10.0229
гидр	-10.0233
▁высокой	-10.0234
▁35	-10.0237
▁азот	-10.0245
▁орден	-10.0247
сан	-10.0252
▁определяется	-10.0262
▁in	-10.0263
▁времён	-10.0266
▁протяжённость	-10.0266
▁xii	-10.0266
▁учения	-10.0266
▁одинаков	-10.027
нную	-10.0273
▁помог	-10.0275
математическ	-10.0277
бес	-10.0282
пек	-10.0286
▁борьбы	-10.0289
▁ци	-10.0291
▁успешно	-10.0291
▁нас	-10.0293
▁объекта	-10.0297
ьные	-10.0301
овка	-10.0301
and	-10.0303
▁велик	-10.0308
▁подраздел	-10.0313
▁апреле	-10.0313
▁вокзал	-10.0314
о́	-10.0314
▁описание	-10.0314
▁найден	-10.0315
▁гон	-10.0318
▁лучше	-10.0318
ёк	-10.0322
закон	-10.0324
▁петербург	-10.0329
▁никак	-10.0331
йорк	-10.0336
физик	-10.0336
▁результаты	-10.034
▁дыр	-10.0341
▁называл	-10.0341
▁плен	-10.0341
▁контр	-10.0343
▁известные	-10.0344
▁фоне	-10.0349
▁общее	-10.0354
▁тепло	-10.0359
▁берегу	-10.0361
▁министр	-10.0364
▁представлены	-10.0366
▁находи	-10.0368
аны	-10.0376
▁идей	-10.0377
▁казахстан	-10.0377
▁проекта	-10.038
▁функция	-10.0385
▁обраща	-10.0385
▁пищев	-10.0386
▁советско	-10.0386
▁основу	-10.0387
▁страну	-10.0389
▁вторая	-10.039
▁приобрет	-10.0391
джа	-10.0392
бат	-10.0393
▁сухо	-10.0397
морф	-10.04
лекс	-10.04
▁составила	-10.0402
▁сентябре	-10.0409
▁текста	-10.0409
ha	-10.0422
кие	-10.0422
▁легко	-10.0424
▁трактат	-10.0425
▁вопросы	-10.0428
▁отношению	-10.0433
▁жертв	-10.0433
▁физически	-10.0436
▁рубеж	-10.0437
есси	-10.0441
au	-10.0441
▁семья	-10.0443
лять	-10.0444
▁память	-10.0457
▁широки	-10.0457
гро	-10.0459
▁обороны	-10.0467
дол	-10.0476
▁доказательств	-10.0481
▁поста	-10.0482
▁1996	-10.0484
▁расчёт	-10.0488
▁представлял	-10.0497
▁оси	-10.0503
▁шести	-10.0505
▁станция	-10.0505
▁сибири	-10.0505
▁менделеев	-10.0505
▁учёных	-10.0505
▁константин	-10.0507
▁1994	-10.0507
▁утверждает	-10.0509
голов	-10.052
лот	-10.052
▁метро	-10.052
▁фил	-10.0523
▁функций	-10.0529
сия	-10.0538
▁королевск	-10.0538
▁увеличен	-10.0542
▁убит	-10.0544
▁известный	-10.0546
▁отказа	-10.0548
▁растений	-10.0554
ань	-10.0556
▁роста	-10.0556
ывают	-10.0558
▁шесть	-10.0558
2)	-10.0559
нет	-10.056
звуч	-10.056
▁песни	-10.0562
▁эс	-10.0562
добр	-10.0565
▁принадлежит	-10.0578
▁происходил	-10.0578
▁международного	-10.0578
▁отвеч	-10.058
▁природе	-10.058
пря	-10.0581
▁влиянием	-10.0582
▁обозначения	-10.0585
▁спец	-10.0585
▁отличается	-10.0588
▁изучение	-10.0589
созда	-10.059
▁объектив	-10.0595
▁деле	-10.0595
▁создании	-10.0597
▁1970-	-10.06
▁финляндии	-10.0603
▁k	-10.0605
▁землю	-10.0606
▁агент	-10.0607
цер	-10.0607
▁возраста	-10.0608
▁месяцев	-10.0609
▁московского	-10.061
▁тор	-10.0611
▁прес	-10.0611
▁устройство	-10.062
луб	-10.0624
щит	-10.0624
▁близки	-10.0627
▁млекопитающих	-10.0627
▁иоанн	-10.0628
▁румын	-10.0628
▁виктор	-10.0628
ьная	-10.0628
▁спорта	-10.0629
▁сахар	-10.0632
▁встреч	-10.0632
▁палат	-10.0634
ливо	-10.0636
▁реформы	-10.0639
▁южно	-10.0639
тельные	-10.0644
славянск	-10.0647
▁святого	-10.0649
▁след	-10.0652
▁образуют	-10.0652
▁службы	-10.0652
▁северного	-10.066
▁биография	-10.0668
▁республик	-10.067
ii	-10.067
▁разные	-10.067
▁древней	-10.067
▁алгоритм	-10.0676
▁велосипед	-10.0676
▁берегов	-10.0676
▁вавилов	-10.0676
▁губернатор	-10.0677
▁утверждал	-10.0678
▁астроном	-10.0682
▁являлся	-10.0683
ьер	-10.0684
▁социально	-10.0686
▁составлен	-10.0688
▁царя	-10.0692
▁плотность	-10.0694
▁рождения	-10.0702
▁образу	-10.0703
вей	-10.0704
▁беспо	-10.0706
▁военные	-10.0707
▁праздники	-10.0709
▁нашей	-10.0716
▁синтез	-10.0724
араб	-10.0725
▁новосибирск	-10.0727
▁служил	-10.0728
▁борис	-10.0738
щу	-10.0739
▁причиной	-10.075
▁изображения	-10.0751
▁отечественной	-10.0751
▁позиции	-10.0751
▁взаимо	-10.0751
▁пирамид	-10.0751
▁словам	-10.0752
▁1-	-10.0757
совет	-10.0758
▁обобщ	-10.0762
▁мани	-10.077
ex	-10.0772
▁массив	-10.0772
руд	-10.0775
▁учёные	-10.0775
▁большие	-10.0776
▁идёт	-10.0776
▁1998	-10.0778
восток	-10.0779
▁капитал	-10.0782
строения	-10.0783
▁бол	-10.0791
▁совершенно	-10.0796
торгов	-10.0799
сель	-10.0801
▁богослов	-10.0801
▁цель	-10.081
▁процесса	-10.081
▁морской	-10.0811
ийский	-10.0815
летний	-10.0818
шест	-10.0818
▁обслужива	-10.0823
ut	-10.0823
дисциплин	-10.0825
▁глубоко	-10.0825
▁кров	-10.0825
—17	-10.0826
▁пролив	-10.0836
брос	-10.0846
▁совершен	-10.085
▁зарегистрирован	-10.085
▁предназначен	-10.085
▁ничего	-10.0851
▁популярность	-10.0852
▁штаб	-10.0857
▁поздне	-10.0858
▁применяется	-10.0862
лаб	-10.0873
▁руд	-10.0874
бот	-10.0875
▁ноябре	-10.0876
▁фридрих	-10.0876
▁музыки	-10.0876
▁торговли	-10.0876
нском	-10.0878
▁тысячи	-10.088
▁ат	-10.0883
▁бре	-10.0884
▁обеспечения	-10.0885
▁элемента	-10.0894
▁попытки	-10.0895
▁гражданской	-10.0896
уля	-10.0896
щик	-10.09
▁формально	-10.0901
▁референдум	-10.0901
▁уничтожен	-10.0901
▁действительно	-10.0904
баш	-10.0905
▁концерт	-10.0905
ывать	-10.0907
be	-10.0918
гур	-10.0919
ng	-10.0923
ивший	-10.0926
▁директор	-10.0926
▁явления	-10.0926
▁железной	-10.0926
▁какой	-10.0927
▁гроз	-10.0928
▁указывает	-10.0928
▁свободно	-10.0932
▁такая	-10.0932
▁допуск	-10.0933
▁мудр	-10.0933
▁квантовой	-10.0948
▁устройства	-10.0949
▁действуют	-10.0951
▁изучения	-10.0951
▁древних	-10.0951
▁середины	-10.0952
▁смерть	-10.0952
net	-10.0953
▁направлении	-10.0953
▁сигнал	-10.0955
▁городом	-10.0956
елл	-10.0958
▁мнение	-10.0962
ver	-10.0965
▁члены	-10.0967
ph	-10.0968
телями	-10.0973
▁предел	-10.0976
▁убийств	-10.0977
ip	-10.0978
голос	-10.0984
▁супер	-10.0985
▁минск	-10.0988
нова	-10.0993
анта	-10.0995
кле	-10.0998
▁гали	-10.1001
▁цицерон	-10.1002
▁сотрудник	-10.1002
▁подписал	-10.1004
▁оказал	-10.1005
▁кавказ	-10.1005
ящим	-10.101
интер	-10.1011
▁носит	-10.1015
▁слав	-10.1018
▁объединя	-10.1019
▁структура	-10.1019
итальян	-10.1023
▁внутренних	-10.1028
▁иисус	-10.103
▁дуб	-10.1035
▁демон	-10.1038
▁исполнитель	-10.104
▁космонавтов	-10.1041
▁советский	-10.1042
▁способность	-10.1045
▁сверх	-10.1045
▁процессе	-10.1045
▁2-	-10.105
▁австралии	-10.1053
▁африки	-10.1053
▁георг	-10.1053
▁нужно	-10.1054
сол	-10.1054
▁пишет	-10.1055
▁1960-	-10.1056
▁сведения	-10.1062
▁островах	-10.1062
▁считает	-10.1063
▁делает	-10.1064
»".	-10.1072
▁полно	-10.1072
▁эпохи	-10.1073
▁лето	-10.1079
▁основании	-10.1082
▁собрание	-10.1088
спар	-10.1089
▁(3	-10.1091
▁теорию	-10.1105
▁октавиан	-10.1105
вшись	-10.1108
▁рам	-10.1109
▁должности	-10.1113
▁стреми	-10.1116
▁господ	-10.1125
▁сим	-10.1125
▁экологическ	-10.113
▁музея	-10.113
▁1997	-10.1133
[	-10.1137
воздушн	-10.1137
ительные	-10.1139
▁мотив	-10.114
член	-10.1142
▁соединя	-10.1148
▁фу	-10.1155
▁провинции	-10.1156
▁переименован	-10.1157
▁греции	-10.1164
алл	-10.1171
▁десяти	-10.1177
▁изменение	-10.1177
▁судов	-10.1178
▁учёт	-10.1178
▁возрасте	-10.1181
▁территорий	-10.1182
▁окончил	-10.1182
▁своему	-10.1182
▁единственным	-10.1182
идов	-10.1183
▁степень	-10.1183
▁фра	-10.1186
нга	-10.1188
ителем	-10.119
▁встречается	-10.119
▁работает	-10.1191
▁произведений	-10.1191
▁снова	-10.1192
▁ян	-10.1199
рия	-10.12
▁преоблада	-10.1204
вшаяся	-10.1204
ad	-10.1204
творческ	-10.1209
▁бак	-10.121
▁среде	-10.1212
▁вещ	-10.1213
труд	-10.1215
▁народных	-10.1217
рут	-10.1229
симметри	-10.1234
▁политические	-10.1234
▁начальник	-10.1234
тической	-10.1235
▁хозяйство	-10.1235
▁способствовал	-10.1236
уса	-10.1237
do	-10.1237
▁обратно	-10.1238
▁лагер	-10.124
▁строго	-10.124
маленьк	-10.124
▁связаны	-10.1241
▁использован	-10.1247
▁достигает	-10.1248
▁психолог	-10.1252
ающий	-10.1253
▁лю	-10.1253
»"	-10.1258
орд	-10.1265
▁соли	-10.1268
выш	-10.1269
▁регулярно	-10.127
▁применения	-10.127
▁отца	-10.1271
▁направление	-10.1272
▁крупным	-10.1272
_3	-10.1277
▁объекты	-10.1288
▁лица	-10.1289
▁реализации	-10.1292
▁издания	-10.1293
жан	-10.1295
▁горы	-10.1297
▁перенос	-10.131
▁соответствует	-10.1313
ял	-10.1313
▁имена	-10.1314
▁семье	-10.1315
▁душу	-10.1316
▁пир	-10.1317
ci	-10.1321
▁край	-10.1321
айн	-10.1325
▁экспериментальн	-10.1327
▁глава	-10.1331
▁конституционн	-10.1334
▁1944	-10.1342
▁выполня	-10.1342
▁хорош	-10.1346
иан	-10.1349
жит	-10.1358
звезд	-10.136
▁вагон	-10.1365
▁вьетнам	-10.1365
▁окончания	-10.1365
▁иркутск	-10.1365
▁известен	-10.1365
▁письма	-10.1365
▁английский	-10.1366
▁оборот	-10.1367
nd	-10.1368
▁флот	-10.1375
культ	-10.1379
▁вал	-10.1381
тян	-10.1387
▁законы	-10.1389
▁плутарх	-10.1392
▁нередко	-10.1392
▁фабрик	-10.1392
тюр	-10.1393
▁феврале	-10.1418
▁каждой	-10.1418
щей	-10.1419
▁ma	-10.142
мель	-10.1422
уголь	-10.1422
ительных	-10.1424
▁нужд	-10.1424
▁бит	-10.1424
▁единицы	-10.1429
▁человеком	-10.1442
▁получив	-10.1443
▁горбачёв	-10.1445
▁побережья	-10.1445
▁июне	-10.1457
писа	-10.147
нцы	-10.1471
▁князя	-10.1472
▁вызван	-10.1472
▁появился	-10.1473
галь	-10.1481
▁популярны	-10.1484
▁естественно	-10.1491
▁длина	-10.1493
▁китае	-10.1494
000	-10.1498
▁именем	-10.15
▁река	-10.1503
▁архитектуры	-10.1505
▁лесо	-10.1507
▁св	-10.1513
▁необходимости	-10.1514
турецк	-10.1515
▁производстве	-10.1516
ивают	-10.1517
дук	-10.1519
▁российских	-10.1525
▁сыграл	-10.1525
▁знания	-10.1526
▁платформ	-10.1527
▁редко	-10.1532
жил	-10.1534
народ	-10.154
итов	-10.1546
вис	-10.1548
▁ликвид	-10.1552
▁основой	-10.1553
чё	-10.1554
▁ордена	-10.1555
▁эконом	-10.1556
▁домов	-10.1557
ада	-10.1559
ляется	-10.1561
ивается	-10.1563
▁всяк	-10.1569
cl	-10.1573
▁оценив	-10.1577
▁игры	-10.1578
▁выпущен	-10.1579
▁факультет	-10.1579
▁секунд	-10.1579
▁главы	-10.158
ново	-10.1604
▁кер	-10.1605
▁собран	-10.1606
▁инфраструктур	-10.1606
▁кабинет	-10.1606
▁лег	-10.1606
инский	-10.161
▁заключен	-10.1616
▁почв	-10.1624
▁странами	-10.1627
▁сообщение	-10.1628
▁единица	-10.1629
▁сар	-10.1631
▁деревянн	-10.1633
▁альбом	-10.1633
▁помещен	-10.1634
▁внешней	-10.1635
ступен	-10.1637
▁%).	-10.1637
▁создана	-10.1638
▁равен	-10.1641
нести	-10.1643
▁поведение	-10.1647
▁уступ	-10.165
▁демократическ	-10.1652
душ	-10.1659
▁рейтинг	-10.166
▁разработки	-10.166
▁последовател	-10.1667
стями	-10.1674
▁верн	-10.1674
очной	-10.1677
ящих	-10.1686
▁швеции	-10.1688
▁экономического	-10.1689
▁сформировал	-10.1691
▁вырос	-10.1693
▁генеральн	-10.1705
экономич	-10.1709
▁америка	-10.1709
▁англии	-10.1715
▁xv	-10.1715
▁обряд	-10.1721
▁техники	-10.1721
▁досто	-10.1732
авший	-10.174
▁базе	-10.174
пир	-10.1741
долго	-10.1742
▁композитор	-10.1742
▁влияния	-10.1742
кристалл	-10.1743
▁шаг	-10.1747
▁структуры	-10.1753
сколько	-10.1755
▁обоснова	-10.1759
▁заряд	-10.176
▁мне	-10.176
▁источников	-10.1764
спользуем	-10.1769
▁москву	-10.177
▁столица	-10.1771
▁этимология	-10.1773
▁основания	-10.1773
▁re	-10.1777
рад	-10.1782
▁души	-10.1783
честве	-10.1785
▁развитии	-10.1792
▁взаимодействие	-10.1797
▁таблиц	-10.1797
▁одни	-10.1799
▁самое	-10.1804
ему	-10.1808
▁населением	-10.181
▁балтийск	-10.1824
▁герцог	-10.1825
▁персонаж	-10.1825
▁xiv	-10.1827
рам	-10.1831
▁кос	-10.1838
ификации	-10.1841
вшее	-10.1841
▁темп	-10.1843
▁равны	-10.1845
фан	-10.185
▁буддизм	-10.1852
▁ситуация	-10.1853
▁фрагмент	-10.1853
▁бесконечно	-10.1853
▁проведён	-10.1854
▁чист	-10.1855
ящие	-10.1857
▁проявлен	-10.1861
▁зи	-10.1861
xi	-10.1867
▁источника	-10.1868
▁главный	-10.1869
▁населённы	-10.187
▁среднего	-10.1871
▁государственным	-10.1876
▁оборон	-10.1878
▁момента	-10.188
лова	-10.188
▁призыв	-10.188
▁заимствован	-10.188
▁конгресс	-10.188
▁расстояние	-10.188
▁зданий	-10.188
▁1960	-10.1881
▁изготовлен	-10.1882
▁актёр	-10.1884
▁встреча	-10.1889
▁цвета	-10.1895
▁доме	-10.1897
ённым	-10.1901
▁газов	-10.1901
▁рассел	-10.1902
▁потенциал	-10.1906
▁письмо	-10.1908
▁будучи	-10.1908
▁горазд	-10.1909
▁экономической	-10.191
един	-10.1912
▁рок	-10.1912
▁научной	-10.1916
транс	-10.1918
нного	-10.1918
▁наблюдения	-10.1918
▁пассажиров	-10.1921
▁частот	-10.1924
▁характерны	-10.1926
лез	-10.1927
▁дорога	-10.1931
▁лат	-10.1934
▁соглашение	-10.1936
▁давление	-10.1936
▁ощущ	-10.1937
▁угроз	-10.1937
▁газет	-10.1938
эп	-10.1943
▁включают	-10.1943
▁европейской	-10.1949
▁русским	-10.195
без	-10.1954
кция	-10.1962
▁петроград	-10.1964
▁нельзя	-10.1964
▁посредством	-10.1964
▁вошли	-10.1965
▁источник	-10.1969
▁эст	-10.197
▁всеми	-10.1979
актив	-10.1982
▁местах	-10.1982
сар	-10.1985
▁десят	-10.1985
▁получает	-10.1992
▁крепости	-10.1994
▁находился	-10.1997
▁войсками	-10.2002
части	-10.2003
магнит	-10.2005
▁45	-10.2006
▁расп	-10.201
▁собрания	-10.2012
меж	-10.2012
▁крупнейшим	-10.2014
▁правил	-10.2015
▁омск	-10.2016
▁итоге	-10.2016
вшегося	-10.2022
▁новым	-10.2023
▁интеллект	-10.2027
▁пожар	-10.2027
▁основы	-10.2031
▁говорил	-10.2031
▁ночь	-10.2032
ску	-10.2032
тес	-10.2034
дру	-10.2037
▁тест	-10.2037
чное	-10.2039
стях	-10.2043
▁памятны	-10.2049
▁красноярск	-10.2049
▁32	-10.205
кров	-10.2067
▁жар	-10.2069
▁религиозных	-10.2077
▁распространены	-10.2077
изацию	-10.2077
нис	-10.2078
▁красной	-10.2078
▁установил	-10.2078
▁равна	-10.208
гры	-10.2083
▁юм	-10.2085
▁европейских	-10.2087
▁африка	-10.2089
енными	-10.2103
нюю	-10.2104
▁конституция	-10.2105
▁подготовки	-10.2105
▁появилась	-10.2107
ичной	-10.2108
пр	-10.2108
▁данной	-10.2119
овской	-10.2128
стар	-10.2128
арктическ	-10.2129
▁уровнем	-10.2129
▁временно	-10.2131
гри	-10.2132
▁сих	-10.2135
цит	-10.2145
кса	-10.2146
▁хозяйств	-10.2146
▁николая	-10.2147
шер	-10.2159
▁тоже	-10.2161
эм	-10.2163
▁сделать	-10.2163
▁глаз	-10.2164
▁общем	-10.2167
▁канон	-10.2167
▁спирт	-10.2173
▁новую	-10.2174
ографии	-10.2174
нять	-10.2174
▁частицы	-10.218
министр	-10.2182
востоке	-10.2188
партнёр	-10.2191
▁законодательств	-10.2191
▁изображение	-10.2191
▁парламента	-10.2193
▁буквы	-10.2193
▁математики	-10.2194
▁xiii	-10.2194
▁панк	-10.2196
▁старше	-10.2196
дра	-10.2199
▁комитета	-10.2201
▁системой	-10.2201
▁необходимость	-10.2215
▁продукции	-10.222
▁переворот	-10.222
нин	-10.2223
▁раза	-10.2223
литовск	-10.2223
лик	-10.2225
▁открыто	-10.2227
▁разнообразны	-10.223
▁развитию	-10.2236
▁помощь	-10.2236
план	-10.2237
▁края	-10.2246
▁u	-10.2247
▁неоднократно	-10.2249
▁сельского	-10.2249
▁авторов	-10.225
пуля	-10.2251
▁местного	-10.2256
рождение	-10.2257
▁мат	-10.2258
▁стоя	-10.226
▁петров	-10.2261
▁хе	-10.2264
▁скоро	-10.2268
▁уни	-10.2271
▁египет	-10.2278
▁взрыв	-10.2278
▁отверг	-10.2284
▁признал	-10.2292
▁высказыва	-10.2293
▁относительности	-10.2297
бой	-10.2305
▁солнечной	-10.2305
▁мыс	-10.2313
▁победы	-10.2314
▁лист	-10.2325
▁j	-10.2327
▁руководство	-10.2327
▁сократа	-10.2331
▁хлеб	-10.2336
▁машины	-10.2336
фар	-10.2338
▁доклад	-10.2343
ово	-10.2344
▁склад	-10.2345
маз	-10.2348
▁труб	-10.2349
▁еврейско	-10.2356
▁сама	-10.2357
близи	-10.237
орган	-10.237
сим	-10.2372
▁неза	-10.2373
▁миллиона	-10.2374
нец	-10.2374
▁думы	-10.2374
▁назнача	-10.2376
ённого	-10.2377
овича	-10.2378
чка	-10.2383
▁дума	-10.2391
информ	-10.2391
▁натуральн	-10.2392
▁реакции	-10.2394
▁бизнес	-10.2394
▁создать	-10.2394
▁1939	-10.2397
▁банков	-10.2398
▁соединения	-10.241
▁3-	-10.2411
атом	-10.2417
▁строе	-10.2418
▁опасно	-10.242
▁решил	-10.2422
▁средние	-10.2423
▁председателя	-10.2424
▁выступал	-10.2424
▁конец	-10.2433
▁боги	-10.2434
тв	-10.2438
вшую	-10.2439
▁германия	-10.2442
▁развиты	-10.2445
очный	-10.2447
▁меч	-10.2448
▁биограф	-10.2449
▁зеландии	-10.2453
бах	-10.2453
▁заключён	-10.2456
▁работать	-10.2456
испыта	-10.2457
бен	-10.2457
▁фирм	-10.2457
▁утвержден	-10.2459
▁150	-10.2463
▁сохранились	-10.2464
остей	-10.2467
▁силами	-10.2469
▁эффективно	-10.2469
▁методов	-10.2471
▁xxi	-10.2471
▁τ	-10.2471
▁анализа	-10.2478
▁называли	-10.2481
▁стоит	-10.2482
▁эстонии	-10.2482
▁основная	-10.2483
▁российского	-10.2483
▁физико	-10.249
▁римской	-10.2491
▁времен	-10.25
▁дальнейше	-10.2504
миллион	-10.2505
▁литература	-10.2512
▁опубликовал	-10.2512
▁орбитальн	-10.2512
▁верховны	-10.2513
▁грамот	-10.2513
ивает	-10.2514
▁жители	-10.2514
▁эфир	-10.2516
▁сказал	-10.2521
ac	-10.2525
▁статье	-10.2531
зва	-10.2537
▁описания	-10.2541
▁термит	-10.2544
su	-10.2548
бул	-10.2553
▁нему	-10.2554
▁изменил	-10.2557
▁получают	-10.2558
чил	-10.2567
▁отправил	-10.2568
▁фронта	-10.257
▁составляла	-10.2571
▁фер	-10.2572
▁пита	-10.2579
▁женщины	-10.258
еврейск	-10.2583
▁увеличение	-10.2586
▁сына	-10.2589
нит	-10.2595
▁1943	-10.2601
▁армении	-10.2601
▁похож	-10.2603
▁боевы	-10.2606
▁найти	-10.2607
▁протест	-10.2617
брать	-10.2617
▁гимна	-10.2623
▁главной	-10.2624
▁израиля	-10.2631
▁индекс	-10.2631
жён	-10.2633
▁наблюдается	-10.2634
камен	-10.2637
▁царь	-10.2637
▁приток	-10.2639
▁скот	-10.2639
▁вечер	-10.2644
цам	-10.2647
евский	-10.2649
▁началом	-10.2651
тельного	-10.2653
измом	-10.2656
четвёр	-10.2661
▁китая	-10.2663
▁государственные	-10.2665
▁формирования	-10.2669
▁трав	-10.2672
▁косм	-10.2673
ллер	-10.2677
▁распространя	-10.2679
демократ	-10.2682
▁сфера	-10.2682
чество	-10.2687
▁луи	-10.2691
▁поддержку	-10.2691
▁общий	-10.2692
▁дании	-10.2698
цем	-10.2703
носят	-10.271
▁обеспечив	-10.2715
ьян	-10.2717
▁федерального	-10.2722
▁государственная	-10.2724
▁эв	-10.2726
▁ката	-10.2727
▁законов	-10.273
▁атомов	-10.2734
для	-10.2734
▁работают	-10.2738
▁предоставля	-10.2741
▁экз	-10.2742
карт	-10.2748
▁тар	-10.2748
линг	-10.2749
)"	-10.2751
▁национальных	-10.2752
▁изобража	-10.2752
▁клиент	-10.2752
▁общественного	-10.2757
ированы	-10.2757
▁холм	-10.2758
▁москов	-10.2759
▁вполне	-10.2761
▁пен	-10.2761
▁перво	-10.2769
ализации	-10.2771
▁французский	-10.2773
▁флота	-10.2777
класс	-10.2779
▁москва	-10.2782
▁поселения	-10.2783
▁линий	-10.2783
▁процент	-10.2784
▁черно	-10.2786
▁связанные	-10.2789
▁главой	-10.2793
▁проход	-10.2795
вил	-10.2797
▁преврати	-10.2802
▁гимн	-10.2809
▁архипелаг	-10.2813
▁екатеринбург	-10.2813
▁сюжет	-10.2813
▁зимой	-10.2813
измен	-10.2821
▁серб	-10.2825
ография	-10.283
▁начина	-10.2834
▁проводил	-10.2838
)|	-10.2838
▁лётчик	-10.2844
▁аксиом	-10.2844
▁представление	-10.2855
▁вооружённых	-10.2862
▁началу	-10.2869
▁лавр	-10.2873
▁можайск	-10.2874
▁порядок	-10.2874
▁высоким	-10.2874
▁селе	-10.2878
▁сум	-10.288
▁ядра	-10.2881
шир	-10.2884
▁содержат	-10.2887
печата	-10.2891
▁залива	-10.2894
▁реально	-10.2896
▁сила	-10.2902
▁процессов	-10.2902
▁исследователи	-10.2905
▁немецкий	-10.2905
очным	-10.2905
▁театра	-10.2906
▁жидко	-10.2906
▁задачи	-10.291
▁введён	-10.293
▁исполни	-10.2931
▁мини	-10.2932
▁исчез	-10.2935
▁зачастую	-10.2936
▁польши	-10.2936
▁1988	-10.2938
▁1946	-10.2938
▁данном	-10.2945
май	-10.295
▁регионе	-10.295
fi	-10.2953
виду	-10.2955
pl	-10.2961
▁передан	-10.2963
▁известна	-10.2963
ствовал	-10.2966
▁категории	-10.2967
ённая	-10.297
дания	-10.2974
▁утра	-10.2976
▁культуре	-10.298
фин	-10.2981
способ	-10.2984
тремя	-10.2987
▁этно	-10.2989
▁страда	-10.2993
▁аргумент	-10.2998
▁этнически	-10.2998
осуществ	-10.3001
▁франк	-10.3002
▁лингвист	-10.3005
▁строк	-10.3007
пет	-10.301
домашни	-10.3013
▁...	-10.3026
▁космически	-10.3027
▁слишком	-10.3029
▁владивосток	-10.3029
▁россией	-10.3029
▁действовал	-10.3029
▁мать	-10.3029
лёв	-10.303
▁писатель	-10.3031
▁1905	-10.3031
▁сир	-10.3032
▁открытие	-10.3034
▁короле	-10.3041
▁востока	-10.3041
▁хром	-10.3058
▁состоящи	-10.306
▁коллекци	-10.3061
▁семь	-10.3061
ir	-10.3062
▁взял	-10.3062
▁производит	-10.3064
лизм	-10.3067
▁1970	-10.3068
гиб	-10.3075
▁звуков	-10.3077
данного	-10.3083
▁местные	-10.3084
▁основыва	-10.3088
▁распада	-10.309
революц	-10.3091
▁стабильн	-10.3091
▁музее	-10.3093
нские	-10.3094
коротк	-10.3095
▁1975	-10.3095
▁импульс	-10.31
▁классической	-10.3101
▁держав	-10.3102
com	-10.3103
▁получ	-10.3104
▁связанных	-10.3105
сона	-10.3122
▁обусловлен	-10.3123
▁гагарин	-10.3123
▁1942	-10.3126
▁бос	-10.3131
теле	-10.3133
▁философия	-10.3134
▁частно	-10.3134
▁городских	-10.3134
▁следующий	-10.3138
били	-10.3138
анг	-10.3139
мас	-10.314
один	-10.3141
▁социальной	-10.3147
▁каса	-10.3147
tra	-10.3149
▁распространения	-10.3154
▁наконец	-10.3154
▁вуз	-10.3155
▁степ	-10.3156
▁1961	-10.3157
▁1979	-10.3157
зме	-10.3158
▁опира	-10.3159
оценка	-10.3159
ставить	-10.3163
▁созданы	-10.3166
территориальн	-10.3176
▁атак	-10.318
▁статистик	-10.3186
▁кислоты	-10.3189
▁случаев	-10.3191
▁использованием	-10.3193
▁продолжительно	-10.3196
рим	-10.3196
▁реке	-10.3201
▁библиотека	-10.3201
▁подводн	-10.3204
−	-10.3213
▁следующ	-10.3215
▁привели	-10.3215
монастыр	-10.3216
▁африке	-10.3218
▁кислород	-10.3218
▁убежд	-10.3218
▁достижения	-10.3224
▁дворян	-10.3225
водится	-10.3226
глас	-10.3233
сср	-10.324
одно	-10.3246
▁америке	-10.325
западе	-10.325
▁филиал	-10.325
▁поверхность	-10.3251
▁продаж	-10.3253
несли	-10.3253
va	-10.326
▁знаменит	-10.3272
▁заявлен	-10.3272
▁остальн	-10.3273
защищ	-10.3273
▁насчитывал	-10.3281
▁бо́льш	-10.3281
▁порядке	-10.3282
▁столицы	-10.3283
▁втором	-10.3286
▁4-	-10.3286
▁сообщ	-10.3287
▁1980	-10.3291
▁груз	-10.3294
2,5	-10.3296
бож	-10.3307
▁обязан	-10.3309
ницей	-10.3313
▁кгб	-10.3315
джи	-10.3315
ированных	-10.3316
▁операция	-10.3317
▁проведения	-10.332
▁/	-10.3321
евро	-10.3331
чика	-10.3331
▁состоят	-10.3333
▁окружающе	-10.3334
▁вычислительн	-10.3339
▁учёный	-10.3346
▁сформирован	-10.3347
промышленн	-10.3351
▁областн	-10.3363
▁открытия	-10.3364
▁религиозно	-10.3366
▁полезны	-10.3367
англ	-10.3371
▁журнала	-10.3372
▁полномочия	-10.3378
▁укреплен	-10.3378
▁последнее	-10.3378
▁требования	-10.3378
▁теорем	-10.3378
▁явление	-10.3378
▁приблизительно	-10.3379
▁кро	-10.3379
▁второе	-10.3381
▁программе	-10.3386
»:	-10.3387
пел	-10.3393
▁птицы	-10.3398
▁сен	-10.3407
▁раньше	-10.341
▁тепловоз	-10.3415
▁пустын	-10.3415
▁играл	-10.3416
▁московской	-10.3422
ation	-10.3423
▁горизонт	-10.3424
▁меры	-10.3426
ющейся	-10.3427
▁режиссёр	-10.3428
▁значительное	-10.3432
▁последнего	-10.3443
▁борьбе	-10.3443
▁условий	-10.3443
▁определить	-10.3444
++	-10.3444
▁украине	-10.3445
▁уравнения	-10.3445
▁музыкально	-10.3446
монт	-10.3448
▁экипажа	-10.3449
джер	-10.3449
▁регионов	-10.3452
▁шест	-10.3455
▁текстов	-10.3457
▁называются	-10.3458
▁классов	-10.3458
▁гео	-10.3461
гент	-10.3461
▁говорят	-10.3461
▁планк	-10.3462
▁григор	-10.3469
▁(15	-10.3473
▁преобразования	-10.3475
▁скульптур	-10.3475
▁неудач	-10.3475
▁защиты	-10.3476
▁оксид	-10.3479
▁существовал	-10.3482
▁обеспечивает	-10.3483
▁бат	-10.3483
▁страной	-10.3488
распредел	-10.3491
▁министерства	-10.3501
▁трудов	-10.3503
▁окис	-10.3506
▁официальным	-10.3508
▁негативн	-10.3508
▁максимальн	-10.3508
▁величины	-10.351
▁1922	-10.3511
▁правительством	-10.3516
▁числу	-10.3516
▁арест	-10.3518
id	-10.352
▁торгово	-10.3528
вещание	-10.3532
▁главных	-10.3535
▁итогам	-10.3539
▁формат	-10.3542
▁паровоз	-10.3542
события	-10.3543
ище	-10.3546
▁попал	-10.3546
▁незначительн	-10.3548
▁рассмотрен	-10.3548
пада	-10.3549
▁газеты	-10.3555
pi	-10.3555
▁художественно	-10.3556
▁ирак	-10.3559
▁банка	-10.3564
▁платона	-10.3564
▁республике	-10.3572
▁верхне	-10.3572
▁династии	-10.3574
▁современном	-10.3574
▁коммунистическ	-10.3575
▁широт	-10.3576
▁храни	-10.3577
fe	-10.3578
▁зло	-10.3579
естественн	-10.3579
▁чрезвычайно	-10.358
the	-10.3582
▁группу	-10.3584
▁сталина	-10.3589
▁кот	-10.3591
▁дополнительно	-10.3594
▁железнодорожны	-10.3596
mp	-10.3597
_4	-10.3599
▁экспедиции	-10.3601
кош	-10.3604
▁идеал	-10.3605
нским	-10.3606
▁явлений	-10.3607
▁конкретны	-10.3607
▁средний	-10.3607
▁социальных	-10.3608
▁отказ	-10.3612
ивать	-10.3616
▁располагается	-10.3619
элементарн	-10.3625
▁севера	-10.3627
▁вопросам	-10.3628
▁больниц	-10.3634
▁обязательно	-10.3637
▁превышает	-10.364
▁излучения	-10.364
▁доброволь	-10.364
▁поглощ	-10.3641
▁использовались	-10.3645
▁суток	-10.3646
▁ивана	-10.3648
▁сыр	-10.3654
▁источником	-10.3658
первичн	-10.366
правда	-10.366
▁крепость	-10.3665
▁распространи	-10.3666
самостоятельн	-10.3667
ичным	-10.367
▁трудно	-10.3677
▁возникновени	-10.3681
▁смертн	-10.3689
станция	-10.3693
рный	-10.3693
▁швейцар	-10.3694
▁1930-	-10.3694
▁усилен	-10.3694
▁тропическ	-10.3696
▁сосед	-10.37
▁зоне	-10.3705
▁опти	-10.3705
▁епископ	-10.3706
▁впрочем	-10.3706
▁кошки	-10.3707
▁премии	-10.3709
▁исторических	-10.3714
соглас	-10.3714
федеральн	-10.3715
▁центрально	-10.3716
ленд	-10.3721
ориент	-10.3721
▁значительной	-10.3724
▁охват	-10.3726
!»	-10.3727
▁ограничива	-10.3728
▁прибор	-10.3734
▁договора	-10.3734
▁империя	-10.374
▁1964	-10.3743
▁чеченск	-10.3743
▁качества	-10.3745
▁искусственно	-10.375
гун	-10.3752
▁имела	-10.3756
bi	-10.376
▁автомат	-10.3769
▁привлек	-10.377
▁обнаружил	-10.3773
▁осенью	-10.3773
▁минимум	-10.3773
ительным	-10.3775
▁составляли	-10.3777
▁озеро	-10.3778
▁выхода	-10.378
▁предложение	-10.3782
▁высокого	-10.3782
клады	-10.3783
тол	-10.3784
▁ix	-10.3788
ступает	-10.3789
▁of	-10.379
▁соответствующе	-10.3794
▁пределами	-10.3797
▁учебн	-10.3798
▁последних	-10.3807
▁кафедр	-10.3807
▁предыдущ	-10.3807
▁европейского	-10.3807
▁сборник	-10.3808
▁обучение	-10.3811
▁использоваться	-10.3813
▁вершин	-10.3813
▁вели	-10.3816
▁подчинен	-10.3818
▁польше	-10.382
жат	-10.3822
▁присоединен	-10.3822
▁практике	-10.3825
▁ше	-10.3825
тами	-10.3827
▁пришёл	-10.3837
▁постановление	-10.3841
▁сочинений	-10.3841
▁высокая	-10.3841
ходящих	-10.3841
▁политику	-10.3842
▁высота	-10.3843
▁1967	-10.3844
восточной	-10.3851
▁служит	-10.3854
▁вильгельм	-10.3855
функцион	-10.3856
альными	-10.3856
▁роз	-10.3858
▁связана	-10.386
▁суды	-10.3862
эль	-10.3863
имость	-10.3866
гляд	-10.3874
▁взгляды	-10.3877
▁реал	-10.3878
▁сравнительно	-10.3881
▁университете	-10.3884
▁учреждений	-10.3884
▁произведение	-10.3886
om	-10.3887
▁z	-10.3888
▁прошло	-10.3888
▁относят	-10.3893
▁христианство	-10.3895
иды	-10.3895
гам	-10.3895
▁различными	-10.39
▁лун	-10.3901
▁столицей	-10.3909
▁современник	-10.3909
▁путей	-10.391
▁бесплатн	-10.3911
▁звание	-10.3912
▁центров	-10.3913
▁заключается	-10.3915
▁космическо	-10.3917
▁выражение	-10.392
нское	-10.392
▁(4	-10.3932
▁улицы	-10.3935
▁богов	-10.3935
▁морских	-10.3936
▁терминал	-10.394
ресурс	-10.394
▁псевдо	-10.3943
▁разрабатыва	-10.3943
▁обуча	-10.3944
▁отображ	-10.3945
▁восстание	-10.3949
бас	-10.3953
▁мирового	-10.3955
▁деньги	-10.3967
▁налогов	-10.3967
▁мэр	-10.3973
▁полуостров	-10.3975
▁латвии	-10.3977
▁россию	-10.3977
▁сергей	-10.3977
▁денег	-10.3977
▁механики	-10.3979
▁проник	-10.3982
▁библиотек	-10.3991
▁выделяют	-10.3995
▁соседни	-10.3996
▁называть	-10.4006
▁магнитно	-10.4007
▁посвящен	-10.4008
▁говор	-10.4009
▁пуст	-10.4011
▁столыпин	-10.4011
▁каждом	-10.4012
▁технологии	-10.4012
▁комнат	-10.4012
▁никол	-10.4014
▁мифологии	-10.4015
ющаяся	-10.4016
▁65	-10.402
арт	-10.4022
чем	-10.4035
▁книгу	-10.4039
▁продолжает	-10.404
linux	-10.4046
▁законодательно	-10.4046
▁комиссии	-10.4047
▁пригород	-10.406
▁вооруж	-10.4061
▁использует	-10.4064
▁создав	-10.4074
сед	-10.4079
▁третий	-10.408
▁традиция	-10.4081
▁подъём	-10.4081
▁аристотеля	-10.4081
уха	-10.4083
▁1965	-10.4083
▁карьер	-10.4084
ированные	-10.4086
▁которыми	-10.4088
▁антони	-10.409
▁сайт	-10.409
очная	-10.4095
▁стороне	-10.4098
▁называемый	-10.4103
вращен	-10.4103
▁гранж	-10.4108
▁выступ	-10.411
▁последовательно	-10.4111
▁измене	-10.4112
▁универсальн	-10.4115
▁эквивалент	-10.4115
▁объединения	-10.4116
▁бывшего	-10.4122
▁римски	-10.4126
двин	-10.4128
▁волны	-10.4131
▁относил	-10.4132
▁предпринима	-10.4139
▁вред	-10.4144
▁другое	-10.4147
▁метода	-10.4149
▁обучения	-10.415
▁уменьшен	-10.415
▁доктрин	-10.415
▁процессы	-10.415
▁операций	-10.415
▁компаний	-10.415
▁представлена	-10.415
▁автора	-10.4151
▁восстания	-10.4153
▁статья	-10.4155
▁ион	-10.4156
▁протека	-10.4158
▁стиль	-10.4162
▁месяца	-10.4163
дали	-10.4167
▁требовал	-10.4168
▁главного	-10.4171
▁прирост	-10.4176
▁весной	-10.4178
▁послан	-10.4178
▁северном	-10.418
▁администрации	-10.4185
▁возвраща	-10.4185
▁конструкции	-10.4185
▁размещен	-10.4185
клар	-10.4187
▁фре	-10.4188
▁киров	-10.4189
влад	-10.4191
▁создаёт	-10.4198
▁недели	-10.4206
▁крупный	-10.4206
▁писателя	-10.4209
▁na	-10.4209
▁коэффициент	-10.422
▁ричард	-10.422
▁современный	-10.422
▁харьков	-10.422
▁представля	-10.4221
ивания	-10.4222
суббот	-10.4224
▁изложен	-10.4224
▁париже	-10.4228
косм	-10.4231
бразил	-10.4238
▁школу	-10.4239
▁общины	-10.424
дик	-10.4244
ющем	-10.4244
еро	-10.4251
евые	-10.4255
▁мотоцикл	-10.4255
▁рекорд	-10.4258
▁диоген	-10.4258
▁1987	-10.4259
сион	-10.4259
▁расширен	-10.426
▁плот	-10.4263
▁эры	-10.4265
▁франция	-10.427
тельный	-10.4271
полковник	-10.4274
▁всему	-10.4278
▁плато	-10.4279
▁пик	-10.4282
▁издание	-10.4283
торг	-10.4286
▁пруссии	-10.4291
▁обладают	-10.4291
▁кредит	-10.4291
▁турнир	-10.4291
▁социолог	-10.4299
▁щит	-10.4304
▁кип	-10.4306
▁поднима	-10.4313
систем	-10.4314
▁белоруссии	-10.4326
▁внешняя	-10.4326
▁фольклор	-10.4326
▁высоких	-10.4326
▁колумб	-10.4326
́т	-10.433
▁(5	-10.4334
▁нигер	-10.4337
▁реформа	-10.4344
▁250	-10.4346
▁соединен	-10.4356
▁пресс	-10.4357
▁глобальн	-10.4362
чить	-10.4362
▁ранних	-10.4362
▁сельское	-10.4362
▁возглавля	-10.4364
▁доктор	-10.4364
▁выступает	-10.4372
рид	-10.4376
▁километров	-10.4377
▁княжества	-10.4379
сад	-10.4391
▁кир	-10.4391
▁рейс	-10.4394
▁немецких	-10.4397
▁обстоятельств	-10.4397
▁расстояния	-10.4397
▁областей	-10.4398
▁прекратил	-10.4398
ka	-10.44
шта	-10.44
очную	-10.4409
линейны	-10.4409
▁атлантическ	-10.4416
▁приписыва	-10.4428
▁преимуществ	-10.4431
марк	-10.4432
▁аммиак	-10.4433
▁единственный	-10.4433
▁резерв	-10.4434
ab	-10.4435
▁авторы	-10.4437
▁1985	-10.4438
ывая	-10.4438
▁сент	-10.444
▁находились	-10.444
▁снят	-10.4443
шек	-10.4444
▁монеты	-10.4448
▁уст	-10.445
▁крупнейшие	-10.445
▁провёл	-10.4451
имости	-10.4454
▁называемые	-10.4461
▁начинает	-10.4468
▁магнитны	-10.4468
▁разговор	-10.4469
▁важную	-10.447
▁экономике	-10.447
▁проведени	-10.4471
▁утверждён	-10.4471
▁черты	-10.4473
▁улице	-10.4475
▁курган	-10.4476
▁результатам	-10.4481
▁упоминается	-10.4484
▁проживал	-10.4485
▁диалог	-10.4486
▁бас	-10.4487
▁1930	-10.4489
▁собора	-10.449
кую	-10.4492
▁клин	-10.4494
▁познания	-10.4502
▁статьи	-10.4503
▁отмечен	-10.4505
▁подготовку	-10.4505
▁бюро	-10.4505
▁конкурс	-10.4506
▁одноимённ	-10.4506
▁лежит	-10.4508
селя	-10.4509
▁400	-10.4512
▁стихи	-10.4516
крест	-10.452
▁границ	-10.4528
▁реальн	-10.4532
▁центрального	-10.4533
ll	-10.4534
▁творчество	-10.4542
▁индуизм	-10.4542
▁разгром	-10.4542
▁формирование	-10.4543
▁кипр	-10.4543
▁1962	-10.4545
▁аналогичны	-10.4547
спир	-10.4551
▁определяет	-10.4554
▁личности	-10.4557
▁ед	-10.4558
восход	-10.4561
▁источники	-10.4563
▁термо	-10.4566
▁воде	-10.4566
▁парус	-10.4569
▁промышленно	-10.4573
▁vii	-10.4575
▁процедур	-10.4578
▁продолжил	-10.4578
▁тёпл	-10.4578
▁концепции	-10.4578
▁очередн	-10.4578
эфиоп	-10.4578
▁обязательн	-10.4581
▁1978	-10.4582
▁оказались	-10.4582
▁высших	-10.4582
▁1921	-10.4582
▁практич	-10.4586
▁включал	-10.4593
▁миру	-10.4595
▁использовали	-10.4596
рост	-10.4598
▁биологическ	-10.46
wa	-10.4606
мут	-10.4607
▁описывает	-10.4609
▁товар	-10.4609
▁1983	-10.4612
▁(16	-10.4612
▁пришлось	-10.4615
▁появилось	-10.4616
▁глаза	-10.4616
▁принимает	-10.4619
ящей	-10.4623
жир	-10.4625
▁различают	-10.4631
▁прекращ	-10.4639
таль	-10.4642
шива	-10.4642
▁томск	-10.4643
▁нарушен	-10.4649
▁предоставлен	-10.4651
▁стоимость	-10.4652
▁арестован	-10.4653
▁запись	-10.4654
▁народной	-10.4655
▁гам	-10.4659
▁поэм	-10.4673
▁измерен	-10.4673
▁жан	-10.4677
падают	-10.4678
▁группе	-10.4682
серьёзн	-10.4684
ицизм	-10.4685
национальная	-10.4685
фицирован	-10.4686
▁окраин	-10.4688
▁дочь	-10.4689
▁xi	-10.469
▁имеющие	-10.47
▁отмечает	-10.4708
▁ответственн	-10.4713
▁серии	-10.4717
▁достижени	-10.4718
▁лод	-10.4718
▁южном	-10.4721
▁ей	-10.4723
▁советские	-10.4724
▁многим	-10.4725
▁частных	-10.4725
▁отдыха	-10.4725
▁глин	-10.4725
герман	-10.4729
▁говоря	-10.473
0,5	-10.4734
▁вышел	-10.4734
▁племена	-10.4734
▁исследование	-10.4736
▁атома	-10.4738
▁богом	-10.474
▁дополнен	-10.4745
▁нефте	-10.4752
▁полной	-10.4756
▁джа	-10.4756
▁конференции	-10.4762
▁ситуации	-10.4762
▁международные	-10.4762
телю	-10.4763
▁соль	-10.4767
▁мнения	-10.4767
hi	-10.4768
▁могла	-10.4772
▁освободи	-10.4774
меняются	-10.4775
фра	-10.4781
▁крови	-10.4781
▁поведения	-10.4784
_5	-10.4784
▁пери	-10.4786
истами	-10.4787
▁фотограф	-10.4788
▁улица	-10.4791
▁следов	-10.4791
▁драм	-10.4798
энергетическ	-10.4799
▁сосредоточен	-10.4799
▁теоретически	-10.4799
▁христа	-10.4799
▁областях	-10.4799
▁скорее	-10.4799
▁военный	-10.4801
вшееся	-10.4808
▁ярко	-10.4813
▁школе	-10.4816
метров	-10.4821
▁заключа	-10.4822
▁строя	-10.4823
▁враг	-10.4824
▁видимо	-10.4824
▁законом	-10.4826
▁противоположно	-10.4836
стратегическ	-10.4836
▁результатом	-10.4837
▁нефть	-10.4837
▁пакет	-10.4838
▁1986	-10.484
▁2000-	-10.4841
▁водорода	-10.4843
▁1,5	-10.4845
▁воздушно	-10.4847
▁играет	-10.4848
▁распространённы	-10.485
▁многочисленн	-10.485
▁начались	-10.4851
опыт	-10.4852
ухи	-10.4857
метил	-10.4862
▁спутников	-10.4866
ty	-10.4868
▁другого	-10.487
▁произошёл	-10.4874
▁течения	-10.4874
▁собственные	-10.4874
▁простых	-10.4874
▁молотов	-10.4874
▁йо	-10.4875
▁построены	-10.4876
▁питания	-10.4879
рные	-10.4879
лас	-10.4883
▁массовой	-10.4886
▁учебных	-10.4887
tu	-10.4893
▁почвы	-10.4893
абель	-10.4893
▁требует	-10.4895
ствовать	-10.4899
▁наследия	-10.4904
▁считали	-10.4905
▁характеристика	-10.4905
▁дворец	-10.4905
▁душа	-10.4906
▁студентов	-10.4908
▁1973	-10.4909
даёт	-10.491
▁продуктов	-10.4911
▁подчёркива	-10.4911
▁творчества	-10.4911
▁каждая	-10.4911
▁общие	-10.4912
▁ресурсов	-10.4913
▁войн	-10.4913
рю	-10.4913
▁посетил	-10.4914
▁философа	-10.4914
▁1974	-10.4915
▁зона	-10.492
▁бир	-10.4925
▁радиус	-10.4929
▁эсперанто	-10.4929
▁джаз	-10.4931
хищн	-10.4934
▁космического	-10.4937
▁дважды	-10.4949
▁снг	-10.495
▁почита	-10.495
▁проф	-10.4952
▁образует	-10.4953
движен	-10.4955
▁брю	-10.4955
▁правильно	-10.496
природных	-10.4966
▁архив	-10.4966
▁технически	-10.4967
фил	-10.4972
▁великий	-10.4975
ковых	-10.4975
▁работах	-10.4977
▁интенсивно	-10.4979
▁многом	-10.4982
▁оборудование	-10.4983
▁типы	-10.4986
▁аспект	-10.4987
▁поддержан	-10.4987
▁поддержки	-10.4987
▁появления	-10.4987
▁смешанн	-10.4987
▁отличаются	-10.4996
ga	-10.4999
мобил	-10.4999
▁значительные	-10.5006
ber	-10.5007
▁считаются	-10.5016
▁запасы	-10.5021
железнодорожн	-10.5024
▁замеча	-10.5025
▁оценки	-10.5025
▁поражение	-10.5026
▁тесно	-10.5027
независим	-10.5028
популярн	-10.5028
▁целях	-10.503
...»	-10.5036
шан	-10.5038
▁заметно	-10.5041
ct	-10.5042
▁ферм	-10.5053
ализма	-10.5063
водятся	-10.5063
▁телеканал	-10.5063
▁авторитет	-10.5063
▁отрасли	-10.5063
▁рациональн	-10.5064
▁изменений	-10.5066
ag	-10.5068
праздники	-10.5069
▁возникает	-10.507
свет	-10.5076
пра	-10.5079
▁остальных	-10.5079
▁водой	-10.509
орт	-10.5101
▁вызывает	-10.5101
▁воздействие	-10.5102
▁внимания	-10.5102
падает	-10.5104
▁давления	-10.5104
▁оценкам	-10.5107
▁содержания	-10.5113
луг	-10.5117
▁улиц	-10.5121
бук	-10.5123
тельным	-10.513
▁материалов	-10.5133
▁проб	-10.5137
▁британской	-10.5138
▁внутренней	-10.514
▁получивши	-10.514
▁академик	-10.5141
▁составлял	-10.5142
▁героя	-10.5143
▁общим	-10.5145
▁туристов	-10.5145
▁бег	-10.5149
▁1900	-10.5152
▁плотин	-10.5158
▁позволяющ	-10.5158
▁металлов	-10.516
▁прибрежн	-10.5164
ts	-10.5168
бур	-10.5169
▁указом	-10.5173
▁команды	-10.5176
юн	-10.5178
▁кинематограф	-10.5179
▁предполагал	-10.5179
▁стихотвор	-10.5179
благоприятн	-10.5179
▁экран	-10.5179
▁натрия	-10.5181
бог	-10.5184
▁письме	-10.5189
обознач	-10.519
per	-10.5193
очного	-10.5194
▁отмечается	-10.5196
▁полем	-10.5201
▁объёма	-10.5207
▁месторождения	-10.5217
▁добавлен	-10.5217
▁ельцин	-10.5217
▁канады	-10.5217
▁600	-10.5218
▁высшего	-10.522
▁библиотеки	-10.5222
▁ядро	-10.5222
▁называ	-10.5227
ционных	-10.5236
vo	-10.5237
▁флага	-10.5243
ul	-10.5245
▁скоростью	-10.5246
ющегося	-10.5249
ванию	-10.5252
▁профессионально	-10.5255
▁отсутствует	-10.5256
▁соглашения	-10.5256
политик	-10.5257
космонавт	-10.5263
▁существовали	-10.5264
lu	-10.5265
▁показан	-10.5268
▁обеспечение	-10.5271
▁энергия	-10.5274
▁основал	-10.5275
▁гром	-10.5276
▁двойн	-10.5278
скоростн	-10.5281
циан	-10.5286
▁вечно	-10.5294
▁подразумева	-10.5295
▁динамическ	-10.5296
ируя	-10.5296
олит	-10.5296
▁идею	-10.5299
▁стиля	-10.53
▁величина	-10.5302
▁функционал	-10.5303
счёт	-10.5307
▁иванович	-10.5314
рной	-10.5323
▁местности	-10.5324
▁одному	-10.5329
ell	-10.5334
▁1957	-10.5334
▁информацию	-10.5335
▁македо	-10.5335
▁1949	-10.5339
▁1924	-10.5339
▁физике	-10.5339
▁народного	-10.5339
▁избира	-10.534
▁диаметр	-10.534
кул	-10.5347
▁1963	-10.5348
ap	-10.5349
▁северный	-10.535
▁колониальн	-10.5352
▁ключевы	-10.5354
▁попытка	-10.5357
▁российский	-10.5357
▁границу	-10.5358
▁подвижн	-10.5359
▁герой	-10.5372
▁приняты	-10.5372
▁предложения	-10.5373
▁подтвержден	-10.5374
предположительно	-10.5374
▁принадлежал	-10.5374
▁достигнут	-10.5374
▁1947	-10.5378
▁1948	-10.5379
▁богаты	-10.5379
▁экспедици	-10.538
▁физических	-10.5382
▁август	-10.5389
▁наций	-10.539
▁предан	-10.5391
пин	-10.5396
пустил	-10.54
▁царство	-10.5403
▁правительственн	-10.5403
▁экспорта	-10.5405
▁форт	-10.5409
▁следовательно	-10.5413
▁уменьша	-10.5413
▁проспект	-10.5413
▁алексеев	-10.5413
▁реакция	-10.5414
▁технологий	-10.5414
▁химических	-10.5414
▁придержива	-10.5414
▁армию	-10.5414
▁условно	-10.5416
▁соединённы	-10.5418
▁байт	-10.5418
точных	-10.5419
▁закончил	-10.5422
евым	-10.5423
▁обрати	-10.5424
▁казахстана	-10.5425
▁налич	-10.543
ica	-10.5431
▁всемирного	-10.5433
лип	-10.5449
▁филиппин	-10.5452
▁гонконг	-10.5453
▁параллельно	-10.5454
sm	-10.5454
▁череп	-10.5456
гигант	-10.5457
▁делятся	-10.5457
▁режима	-10.5458
▁песня	-10.5459
▁событие	-10.5461
стал	-10.5464
▁рима	-10.5466
ницу	-10.5469
▁академическ	-10.5471
тическая	-10.5473
▁принятия	-10.5474
финанс	-10.5478
▁существовало	-10.5481
▁газета	-10.5484
▁интерфейс	-10.5493
▁используя	-10.5493
▁наоборот	-10.5493
▁палестин	-10.5493
технолог	-10.5494
▁троцкий	-10.5495
▁развитием	-10.5495
▁освоен	-10.5503
▁материально	-10.5506
▁мозга	-10.5509
спорт	-10.5509
▁перевоз	-10.5511
обще	-10.5513
▁ограничения	-10.5516
▁поставлен	-10.5517
рика	-10.552
▁недостаточно	-10.5524
▁жена	-10.5525
▁вернул	-10.5525
бек	-10.5527
▁зафиксирован	-10.5533
▁двадцат	-10.5533
▁контроля	-10.5533
▁химии	-10.5534
восточная	-10.5534
▁секрет	-10.5535
▁примеру	-10.5535
▁появляется	-10.5538
▁единого	-10.554
▁процессор	-10.5543
перед	-10.5545
ичность	-10.5548
▁дю	-10.5548
▁священник	-10.5552
▁важнейш	-10.5554
тельное	-10.5555
▁состоялся	-10.5567
▁начался	-10.5571
▁афганистан	-10.5573
▁евреев	-10.5573
▁наступление	-10.5573
▁высокий	-10.5573
▁физика	-10.5574
▁1938	-10.5577
▁1936	-10.5577
▁повторя	-10.5578
▁другая	-10.5579
▁отказался	-10.558
▁редки	-10.5583
▁ранние	-10.5587
ent	-10.5587
устар	-10.5594
▁руки	-10.5597
▁алгебр	-10.56
пенс	-10.5613
▁борьба	-10.5613
▁железных	-10.5614
▁1968	-10.5617
▁1935	-10.5617
▁сферы	-10.5619
▁проверк	-10.562
ig	-10.5621
▁созданию	-10.5622
▁слух	-10.5623
▁психологии	-10.5633
▁связей	-10.5634
ивание	-10.5635
литературн	-10.564
▁способности	-10.5642
▁народный	-10.5642
▁знамен	-10.5649
▁товары	-10.5649
олимпийск	-10.5654
▁оружия	-10.5654
▁командованием	-10.5654
▁христо	-10.5654
▁задача	-10.5658
iii	-10.566
▁оставил	-10.5661
▁график	-10.5661
ea	-10.5662
ard	-10.5664
▁сооружения	-10.5668
петербурге	-10.5675
ушки	-10.5677
▁поддерживает	-10.568
▁примеры	-10.5683
▁мис	-10.5684
чков	-10.5685
▁использовался	-10.5686
▁вопросов	-10.569
▁di	-10.5691
▁исследователь	-10.5692
▁google	-10.5695
▁зарубежн	-10.5695
ходящие	-10.5698
▁1959	-10.5698
перепис	-10.5699
▁долгое	-10.5699
▁характеризуется	-10.5699
▁сохранил	-10.57
▁длины	-10.5704
отрицательно	-10.5707
даль	-10.5707
▁рассматривать	-10.5712
▁требуется	-10.5712
▁носил	-10.5714
▁1950	-10.5725
▁принципа	-10.5725
▁понят	-10.5734
▁значит	-10.5735
▁кладбище	-10.5735
▁настолько	-10.5735
▁добыча	-10.5735
▁стадион	-10.5735
▁промышленных	-10.5736
▁отсчёта	-10.5736
▁опор	-10.5737
▁крит	-10.574
▁поезда	-10.574
▁запада	-10.5744
ps	-10.5746
▁товаров	-10.5748
север	-10.575
▁соединений	-10.5753
500	-10.5757
▁1920-	-10.576
▁советским	-10.5762
▁позволил	-10.5763
▁главные	-10.5765
▁эль	-10.5769
▁гармони	-10.5771
▁причине	-10.5772
ответ	-10.5774
▁великобритания	-10.5776
▁высотой	-10.5776
▁южная	-10.5776
▁участия	-10.5776
▁вселенной	-10.5778
▁подавлен	-10.5779
▁древние	-10.5784
▁пространств	-10.5784
▁северная	-10.5785
▁бай	-10.5785
звон	-10.5788
▁австрии	-10.5788
▁любого	-10.5789
четвер	-10.5797
берт	-10.5803
▁попытк	-10.5805
▁эпох	-10.5812
▁исследователей	-10.5817
▁классификация	-10.5817
▁становятся	-10.5817
▁падеж	-10.5818
▁мифологическ	-10.5818
▁объединение	-10.5819
▁1977	-10.5821
▁1926	-10.5822
der	-10.5822
▁производитель	-10.5824
▁имеющих	-10.583
▁расширение	-10.5832
▁способны	-10.5833
▁проводится	-10.5833
писывал	-10.5835
▁позволяю	-10.5841
▁песен	-10.5855
▁английском	-10.586
▁предсказа	-10.5862
▁появляются	-10.5862
▁1982	-10.5863
▁1971	-10.5863
▁насчитывается	-10.5867
▁республикой	-10.5868
очка	-10.5868
▁горах	-10.5875
▁вернулся	-10.5876
▁отчёт	-10.5876
скрип	-10.5877
▁голод	-10.5877
государственн	-10.5878
ивших	-10.589
▁прошёл	-10.589
▁перспектив	-10.59
▁python	-10.59
▁восприятия	-10.59
▁уильям	-10.59
▁торговля	-10.5901
▁приговор	-10.5901
▁курорт	-10.5902
▁эпикур	-10.5903
▁оказалась	-10.5904
▁участников	-10.5905
▁всемирно	-10.5911
▁меха	-10.5912
▁атмосферы	-10.5912
▁позволило	-10.5915
▁интересов	-10.5916
чеш	-10.5916
▁провозглашен	-10.5922
известн	-10.5927
▁казаков	-10.5928
более	-10.5928
рожден	-10.5928
▁согласны	-10.593
▁различия	-10.593
▁плохо	-10.5931
▁президиума	-10.5932
филь	-10.5936
безопасн	-10.5942
▁собственных	-10.5942
▁слуша	-10.5942
▁углерода	-10.5944
▁волги	-10.5944
▁цирк	-10.5946
▁запуск	-10.5951
▁титана	-10.5951
чку	-10.5953
▁увеличива	-10.5953
▁либерал	-10.5954
▁русская	-10.5959
▁максимально	-10.5959
▁куда	-10.5961
▁специальные	-10.5962
▁проходят	-10.5965
▁приняли	-10.5965
▁обращение	-10.5973
▁победу	-10.5975
против	-10.5975
▁экипаж	-10.5976
▁открыва	-10.5982
▁средних	-10.5984
▁днём	-10.5984
▁япония	-10.5984
▁массово	-10.5984
▁нынешне	-10.5984
▁ладо	-10.5985
▁волос	-10.5987
▁западных	-10.5989
дис	-10.5991
▁дворца	-10.5991
▁намерен	-10.5995
▁осуществляет	-10.5997
▁полюс	-10.5997
щиков	-10.5998
▁профессиональны	-10.5999
▁королевство	-10.6
ировании	-10.6002
▁сути	-10.6006
▁аналогично	-10.601
▁оказался	-10.6011
рван	-10.6013
▁французского	-10.6015
▁французской	-10.602
▁вертолёт	-10.6026
▁норвегии	-10.6026
▁возвышенн	-10.6026
▁подобные	-10.6027
▁табак	-10.6027
pro	-10.6027
▁мощн	-10.603
▁1914	-10.6031
▁полное	-10.6032
эксперт	-10.6033
▁жидкости	-10.6034
▁родственн	-10.6035
▁запрос	-10.6035
требова	-10.6044
автоном	-10.6045
▁небесны	-10.6048
▁научного	-10.6051
▁потеря	-10.6052
▁брон	-10.6052
▁назначения	-10.6061
▁государственном	-10.6063
▁уголовн	-10.6065
▁соловьёв	-10.6068
▁граничит	-10.6068
▁последней	-10.6068
▁высоте	-10.6068
▁выполнения	-10.6069
▁поступил	-10.607
▁старейши	-10.607
▁полуострова	-10.6071
▁1956	-10.6072
▁снег	-10.6075
ведении	-10.6076
▁журналист	-10.6077
▁памятники	-10.6078
ставка	-10.6078
▁обращения	-10.6082
авиационн	-10.6084
gu	-10.6088
президент	-10.6093
▁метрополитен	-10.6094
▁юрий	-10.6099
▁структуру	-10.6101
образовательн	-10.611
▁евклид	-10.611
▁положительно	-10.611
▁открытый	-10.611
▁властей	-10.6112
▁научные	-10.6113
▁площадью	-10.6117
носить	-10.6118
фантаст	-10.612
ящий	-10.6127
ологию	-10.6127
мак	-10.6128
▁болгарии	-10.6138
▁боя	-10.6144
▁макро	-10.6146
▁дальнейш	-10.6147
▁принять	-10.6147
▁людьми	-10.6153
▁числ	-10.6155
▁1929	-10.6157
▁поводу	-10.6157
▁1976	-10.6157
▁близко	-10.6159
▁метрополитена	-10.6169
▁королевства	-10.6176
▁юпитера	-10.6181
▁значений	-10.6196
▁училище	-10.6196
▁участка	-10.6196
▁султан	-10.6196
▁современным	-10.6196
▁пользователя	-10.6196
▁корм	-10.6199
коммерческ	-10.6199
ine	-10.6203
▁сообщества	-10.6204
именова	-10.6219
▁полном	-10.6226
▁верховн	-10.6227
риан	-10.6238
▁покинул	-10.6239
▁записан	-10.6244
▁крайней	-10.6251
sk	-10.6261
▁мировых	-10.6264
▁произведен	-10.6277
▁критика	-10.6281
▁десятилетия	-10.6282
▁патриарх	-10.6282
▁возврат	-10.6282
▁немецкой	-10.6282
▁приобрел	-10.6283
▁сказать	-10.6283
▁подземн	-10.6285
▁превраща	-10.6289
▁осуществлени	-10.6289
im	-10.6291
функционально	-10.6292
▁конечны	-10.6293
гряз	-10.6296
▁советская	-10.6298
ke	-10.6301
▁вторым	-10.6303
nt	-10.6305
▁итог	-10.6316
▁значительным	-10.6316
▁космических	-10.6317
министром	-10.6321
тинг	-10.6325
энергетик	-10.6325
▁взросл	-10.6325
▁прошли	-10.6326
велесов	-10.6326
▁уравнений	-10.6326
▁городские	-10.6328
▁заказ	-10.6335
▁характерно	-10.6335
▁цветов	-10.6342
▁чёрного	-10.6343
▁индо	-10.635
▁тут	-10.6353
▁франц	-10.6358
▁памятников	-10.6358
▁коммерчески	-10.6365
▁узбекистан	-10.6368
▁февраль	-10.6368
▁оружие	-10.6368
▁прогноз	-10.6368
▁феномен	-10.6369
▁достоинств	-10.6369
▁встретил	-10.6369
▁израиле	-10.6369
▁революция	-10.6369
▁принимать	-10.6369
▁простые	-10.6369
▁будущи	-10.637
▁столице	-10.637
▁1937	-10.6373
▁портрет	-10.6373
go	-10.6375
шел	-10.6375
▁супруг	-10.6376
▁результатов	-10.6377
▁германией	-10.6378
▁бытов	-10.6379
маг	-10.638
▁испо	-10.6381
▁география	-10.6385
штейн	-10.6386
▁1950-	-10.6388
▁никаки	-10.6388
▁соответствую	-10.6389
ущий	-10.639
▁небольшой	-10.6391
—15	-10.6401
▁государственное	-10.6402
gi	-10.6407
фестиваль	-10.6412
▁специализирован	-10.6412
▁небольшие	-10.6412
▁олимпийских	-10.6412
▁заговор	-10.6413
▁приметы	-10.6413
▁получение	-10.6414
▁враща	-10.6414
▁настроен	-10.642
▁христианства	-10.6431
▁рассматривается	-10.6432
▁воспроизв	-10.6435
дерев	-10.6436
ja	-10.6437
▁малых	-10.6438
▁говорить	-10.6444
▁справедливо	-10.6447
▁кораблей	-10.6449
▁тёмн	-10.645
▁800	-10.6454
комисси	-10.6455
▁водохранилищ	-10.6456
▁наполеон	-10.6456
▁быстр	-10.6456
▁ресурсы	-10.6458
▁озера	-10.6458
совместим	-10.6459
летнего	-10.646
▁слоя	-10.6461
мех	-10.6462
▁находилась	-10.6463
▁явно	-10.6463
железн	-10.6464
▁общения	-10.6471
sch	-10.6481
▁будуще	-10.6488
cr	-10.6497
лайн	-10.6497
▁внутреннего	-10.65
▁испытыва	-10.65
▁получал	-10.6502
▁общественных	-10.6502
▁подчиня	-10.6502
▁1966	-10.6504
▁тексты	-10.6505
▁выпустил	-10.6508
хождения	-10.6515
▁символов	-10.6516
ленин	-10.6516
▁присоединил	-10.6516
▁минерал	-10.6521
глаша	-10.6526
▁размера	-10.6529
▁силой	-10.653
ложить	-10.6533
▁отправлен	-10.6536
ступают	-10.6538
▁палео	-10.6538
%	-10.6539
▁1933	-10.6539
▁земной	-10.6542
▁выражения	-10.6544
▁иерусалим	-10.6544
▁оркестр	-10.6544
▁точке	-10.6545
▁латинской	-10.6545
▁страниц	-10.6545
▁социальные	-10.6546
катерин	-10.6547
sp	-10.6551
ko	-10.6556
▁являлись	-10.6558
▁грузии	-10.6562
ходить	-10.6568
▁максим	-10.6569
▁отделения	-10.6575
▁вошла	-10.6579
▁психо	-10.6582
▁занимался	-10.6582
▁плоско	-10.6589
▁авраам	-10.6589
▁сохранения	-10.6589
▁человеческого	-10.6589
▁зевс	-10.6591
▁1984	-10.6593
▁делится	-10.6595
▁потери	-10.6595
▁московский	-10.6601
▁гост	-10.6603
▁железнодорожный	-10.6604
▁захватил	-10.6605
▁зуб	-10.661
▁прошлом	-10.6617
корейск	-10.6623
▁официальной	-10.6625
альтернатив	-10.6628
очек	-10.6632
▁департамент	-10.6633
▁королём	-10.6633
▁послужил	-10.6633
адвентист	-10.6633
▁пакистан	-10.6633
▁последним	-10.6634
▁аристотель	-10.6634
▁1969	-10.6637
▁чём	-10.6645
▁сумма	-10.6645
▁проводятся	-10.6647
▁нежел	-10.6659
▁существенны	-10.6664
▁образуется	-10.6665
▁группой	-10.6669
▁восста	-10.6676
internet	-10.6678
▁полномочий	-10.6678
▁джордж	-10.6678
▁воспитан	-10.6678
▁современная	-10.6678
▁обработки	-10.6678
▁квартал	-10.668
фильм	-10.6682
высшая	-10.6683
▁трети	-10.6686
▁признание	-10.6688
▁целей	-10.669
▁длиной	-10.6695
▁баб	-10.6699
▁известность	-10.6702
▁террор	-10.6702
десят	-10.6703
вшимся	-10.6705
▁хозяйственн	-10.6705
абсолют	-10.6706
▁противника	-10.6711
▁нико	-10.6712
▁окружающ	-10.6718
▁сак	-10.6721
▁кинотеатр	-10.6723
▁религиозные	-10.6723
▁составляющи	-10.6725
▁1953	-10.6732
▁сложности	-10.6735
▁собственной	-10.6735
▁следующих	-10.6735
день	-10.6736
▁турции	-10.6736
▁направля	-10.6736
▁направлений	-10.6737
тельная	-10.6738
▁обозначает	-10.6739
очист	-10.6742
ающее	-10.6753
iv	-10.6753
▁умеренно	-10.6757
▁чёрной	-10.6762
▁предметов	-10.6762
губернатор	-10.6768
▁лукашенко	-10.6769
▁принадлежат	-10.6769
▁ухудш	-10.6769
▁java	-10.6769
▁преступн	-10.6769
▁исторической	-10.6769
▁столетия	-10.6769
▁службу	-10.677
▁классификации	-10.6772
▁политике	-10.6772
▁знание	-10.6774
▁объединённы	-10.6774
▁восьми	-10.6776
цкой	-10.6778
▁рыбинск	-10.6787
▁знамениты	-10.679
▁жителя	-10.6797
▁стены	-10.6808
▁внутренние	-10.6814
▁гитлер	-10.6814
▁завершени	-10.6814
▁пехот	-10.6814
▁знаний	-10.6815
▁проезд	-10.6815
▁основного	-10.6815
3,5	-10.6815
▁учёным	-10.6816
▁1958	-10.6818
▁ибн	-10.6823
америка	-10.6825
▁регулярны	-10.6828
▁мартин	-10.6831
кот	-10.6834
▁чехи	-10.6845
▁устав	-10.6845
▁добыва	-10.6845
▁уход	-10.6848
▁палаты	-10.685
▁экономический	-10.6851
▁вошёл	-10.6856
▁главнокомандующ	-10.686
▁приоритет	-10.686
▁теоретическо	-10.686
▁председателем	-10.686
▁болезни	-10.686
▁взаимно	-10.6861
▁оформлен	-10.6862
▁собственным	-10.6863
жест	-10.6869
звол	-10.687
▁хотел	-10.6873
▁бель	-10.6876
▁мария	-10.688
bu	-10.6881
ительная	-10.6885
▁ветра	-10.6891
напряжен	-10.6893
▁морю	-10.6896
▁мелко	-10.6897
действительности	-10.69
▁кёнигсберг	-10.6905
▁комиссар	-10.6906
▁греческой	-10.6906
▁оставался	-10.6906
▁посещени	-10.6906
▁кнр	-10.6907
▁солнечно	-10.6908
▁словами	-10.6911
▁иначе	-10.6913
▁астрономическ	-10.6917
́д	-10.6924
_6	-10.6924
▁будущего	-10.6927
0,1	-10.6929
молекулярн	-10.6931
одных	-10.6933
▁принц	-10.6934
очки	-10.6936
▁каст	-10.694
авто	-10.6942
▁поддержке	-10.6952
▁племён	-10.6952
▁показатель	-10.6952
▁английского	-10.6952
металлург	-10.6952
▁изделия	-10.6952
▁высказал	-10.6953
нефтян	-10.6954
▁схож	-10.6954
арктик	-10.6958
▁мобильн	-10.6958
▁астролог	-10.696
▁дерево	-10.6965
="12	-10.6967
▁занимается	-10.6968
соль	-10.6969
чук	-10.6973
▁властью	-10.6976
▁добро	-10.6978
▁характеристик	-10.698
▁бого	-10.6984
▁значительная	-10.6989
con	-10.6989
▁облик	-10.6991
▁литературно	-10.6991
▁давал	-10.6992
="14	-10.6993
▁отступ	-10.6997
▁устойчиво	-10.6997
▁атрибут	-10.6998
▁понимание	-10.6998
▁чиновник	-10.6998
▁высоты	-10.6998
▁немецкого	-10.6998
▁монастырь	-10.6998
▁рынка	-10.6998
▁урал	-10.6999
включая	-10.7003
ительный	-10.7004
спеш	-10.7005
▁начинают	-10.7006
▁литвы	-10.7008
аналитическ	-10.7008
par	-10.7011
▁предполагается	-10.7013
▁прекращени	-10.7014
▁viii	-10.7017
▁использовании	-10.702
▁зависимость	-10.7024
▁вещей	-10.7024
▁последующие	-10.7027
▁минеральны	-10.7039
▁церковно	-10.7043
▁руководства	-10.7044
▁деревьев	-10.7044
▁провинция	-10.7044
▁разработал	-10.7045
варшав	-10.7046
▁минимальны	-10.7047
▁правление	-10.7048
экваториальн	-10.7052
▁преобладают	-10.7052
гели	-10.7055
▁меш	-10.7061
user	-10.7061
▁фри	-10.7062
▁прочих	-10.707
▁ведёт	-10.7078
▁избираемы	-10.7079
▁возникла	-10.708
▁народно	-10.7083
▁монах	-10.7085
английск	-10.7088
▁внешних	-10.7091
▁функцию	-10.7091
▁рабочей	-10.7091
▁греческого	-10.7091
▁дети	-10.7092
▁волк	-10.7094
▁присвоен	-10.7095
▁1934	-10.7096
▁возникли	-10.7097
▁1925	-10.7098
▁призван	-10.7099
▁напротив	-10.71
▁теплов	-10.7103
▁кедр	-10.7108
▁мавр	-10.7109
▁заканчива	-10.7138
▁переехал	-10.7138
▁академия	-10.7138
▁православной	-10.7138
▁вращения	-10.7139
▁физической	-10.714
утвержд	-10.714
▁кольца	-10.7141
▁высшей	-10.7142
▁серьёзно	-10.7142
▁1972	-10.7143
▁создавал	-10.7143
▁военным	-10.7143
▁стремление	-10.7144
▁чётко	-10.7144
▁кндр	-10.7147
▁служить	-10.7154
байт	-10.7161
▁работающи	-10.7162
▁следующем	-10.7162
▁данное	-10.7169
ождение	-10.7172
ировались	-10.7176
▁кратко	-10.7176
▁любо	-10.7176
▁распределение	-10.7181
gen	-10.7184
▁титан	-10.7184
▁информация	-10.7185
▁разряд	-10.7186
▁политическая	-10.7187
▁примером	-10.7187
▁персонал	-10.7188
▁кошек	-10.7189
▁кажды	-10.719
▁особенностью	-10.7191
сообщить	-10.7194
сексуальн	-10.7196
▁центральный	-10.7196
▁британско	-10.7196
▁ясно	-10.72
sta	-10.7201
▁вероятность	-10.7202
▁собак	-10.7205
▁зерно	-10.7206
▁губ	-10.7207
▁племен	-10.7222
древнегреческ	-10.7226
▁лап	-10.7227
▁поэзии	-10.7233
▁катастроф	-10.7233
▁оплаты	-10.7233
▁специалистов	-10.7234
▁американский	-10.7235
▁мамонт	-10.7236
▁1906	-10.7236
▁станций	-10.7239
▁древности	-10.7245
▁правительств	-10.725
▁стимул	-10.7255
атлант	-10.7263
▁обоих	-10.7263
▁(8	-10.7267
▁ошибке	-10.728
▁калькулятор	-10.728
▁людям	-10.728
▁своеобразн	-10.728
▁высшее	-10.728
▁движении	-10.7281
горяч	-10.7284
▁колонии	-10.7286
▁играх	-10.7288
="13	-10.7289
▁критики	-10.7292
▁полного	-10.7293
▁верхней	-10.7301
▁славянских	-10.7301
▁определённых	-10.731
▁применен	-10.7313
▁социального	-10.7321
▁руках	-10.7324
▁спрос	-10.7328
▁значении	-10.7328
▁скептицизм	-10.7328
▁обсужда	-10.7328
▁отмечают	-10.7328
▁углекисл	-10.7328
▁высокие	-10.7328
▁церковны	-10.7328
▁выделить	-10.7328
▁печати	-10.7328
▁национальным	-10.7329
▁монастыря	-10.7331
▁блог	-10.7332
▁1981	-10.7332
▁состоялось	-10.7335
▁переходит	-10.7342
▁источниках	-10.7346
▁муницип	-10.7348
▁пришли	-10.7352
▁коротко	-10.7357
▁прокл	-10.736
▁креп	-10.7363
▁казахск	-10.7364
▁колес	-10.7365
блок	-10.7369
▁южного	-10.7369
▁исследован	-10.7376
▁гильберт	-10.7376
▁концепция	-10.7376
▁поколения	-10.7377
▁знал	-10.7377
▁роберт	-10.7378
▁мощны	-10.739
▁популярным	-10.7395
▁вирус	-10.7395
▁луны	-10.7397
иностранн	-10.7401
▁веб	-10.7409
▁номинал	-10.7414
▁120	-10.7418
▁отметил	-10.7421
▁таджикистан	-10.7424
▁дионис	-10.7425
▁седьм	-10.7425
▁южный	-10.7425
▁1928	-10.743
▁авиации	-10.743
▁списка	-10.7435
́в	-10.7435
▁золотой	-10.7437
▁подробно	-10.7438
▁составляло	-10.7439
tur	-10.744
этажн	-10.7463
▁выгод	-10.7465
1,3	-10.7466
австрийск	-10.7467
mon	-10.747
диапазон	-10.747
▁якобы	-10.7473
▁beatles	-10.7473
▁мюнхен	-10.7473
▁вычисления	-10.7473
▁растения	-10.7474
круп	-10.7474
▁далеко	-10.7474
арка	-10.7474
ставлял	-10.748
изацией	-10.7486
▁обеспечен	-10.7486
▁усилия	-10.7487
100	-10.7489
▁светл	-10.7505
тождеств	-10.7507
▁критику	-10.7508
▁похоронен	-10.7522
▁обнаружив	-10.7522
▁официальных	-10.7522
▁экземпляр	-10.7522
▁надёжн	-10.7522
▁римлян	-10.7522
▁большевиков	-10.7523
▁статей	-10.7523
▁двигателя	-10.7524
▁обладающ	-10.7526
▁округов	-10.7527
▁живут	-10.7529
▁ведут	-10.753
протестант	-10.7533
▁формировани	-10.7533
▁княжество	-10.7536
▁науру	-10.7538
▁вулкан	-10.754
ющееся	-10.7541
▁жилищ	-10.7543
мягк	-10.7544
▁километр	-10.755
вероятн	-10.7555
▁возникновения	-10.756
▁свободной	-10.7561
энциклопеди	-10.7569
▁расцвет	-10.7574
▁международном	-10.7574
▁разделён	-10.7574
ion	-10.7575
прикладно	-10.7577
▁гипер	-10.7579
▁временного	-10.7581
▁считалось	-10.7584
ившись	-10.7585
▁обратил	-10.7588
▁представляющ	-10.7589
▁художников	-10.759
▁болот	-10.7592
▁чили	-10.7593
▁развивается	-10.7596
uni	-10.7598
▁потребовал	-10.7599
3)	-10.7609
▁наследник	-10.7614
▁соотношение	-10.762
▁украшен	-10.762
▁юнеско	-10.762
▁бельгии	-10.762
▁библии	-10.762
▁каспий	-10.762
чиков	-10.7621
▁альберт	-10.7621
▁надежд	-10.7622
ющимся	-10.7622
▁владения	-10.7622
▁бумаг	-10.7623
▁назвать	-10.7624
русский	-10.7624
▁решений	-10.7632
географическ	-10.7637
▁рассматривал	-10.7638
большевик	-10.764
▁кругл	-10.7642
▁выделяются	-10.7644
▁выходит	-10.7644
▁членами	-10.7646
▁специальных	-10.765
категор	-10.7653
▁познани	-10.7656
партийн	-10.7659
▁среда	-10.7664
▁констант	-10.7668
▁лауреат	-10.767
▁участки	-10.767
▁сознания	-10.767
▁хлоп	-10.767
▁ниуэ	-10.767
▁научным	-10.767
▁профсоюз	-10.7671
▁пьес	-10.7671
▁ведомств	-10.7672
▁метра	-10.7675
▁долина	-10.7677
tion	-10.7678
ki	-10.768
исполнен	-10.7682
монгольск	-10.7682
философ	-10.7686
▁древнего	-10.7689
od	-10.7691
▁выполняет	-10.7692
материал	-10.7693
▁финал	-10.7693
je	-10.7694
▁удерж	-10.7697
▁характеристики	-10.7698
очет	-10.7702
▁морские	-10.7704
▁льда	-10.7708
антроп	-10.7714
▁храмов	-10.7714
▁мероприятия	-10.7719
▁немецкие	-10.7719
▁небольших	-10.7719
▁возглавил	-10.7719
▁мышления	-10.7719
▁нобелевск	-10.7719
▁пионер	-10.772
▁разработка	-10.772
удовлетвор	-10.772
▁политическим	-10.7721
▁италия	-10.7721
▁молитв	-10.7721
▁красного	-10.7722
ει	-10.7722
▁сторонников	-10.7726
зелен	-10.7727
салют	-10.7728
▁парков	-10.7729
▁тюрк	-10.7731
▁сообщил	-10.7732
▁заведения	-10.7734
▁ритм	-10.7736
балтийск	-10.7742
1,2	-10.7747
▁исторический	-10.7752
вшему	-10.7754
▁устанавливает	-10.7766
▁меньшинств	-10.7769
▁хрущёв	-10.7769
▁колледж	-10.7769
допустим	-10.7769
▁осозна	-10.777
▁обширн	-10.777
▁тяжел	-10.7771
▁коллеги	-10.7771
▁писателей	-10.7772
▁пребывания	-10.7772
▁1916	-10.7774
завод	-10.7774
tor	-10.7786
▁иордан	-10.7789
▁чемпион	-10.7793
▁фраз	-10.7794
bot	-10.7795
▁расширения	-10.7795
▁знаков	-10.7796
▁исходя	-10.7797
▁чуть	-10.7799
▁абстрактн	-10.782
▁редактор	-10.782
▁архимед	-10.782
▁рынок	-10.782
▁частях	-10.782
▁бон	-10.782
▁закрепи	-10.782
▁подобных	-10.7821
▁поселение	-10.7821
▁создавать	-10.7822
▁крупнейши	-10.7822
▁троцкого	-10.7822
парк	-10.7823
▁плит	-10.7825
▁ремонт	-10.7828
▁ворота	-10.7829
▁территориальны	-10.7829
песчан	-10.783
▁древнейши	-10.7831
▁семейства	-10.7838
▁собственности	-10.7841
▁построил	-10.7843
▁балтийского	-10.7849
▁пророк	-10.7863
▁русь	-10.7864
▁нескольким	-10.787
▁партизан	-10.787
▁прокофьев	-10.787
▁реализован	-10.787
▁количеству	-10.7871
▁бытия	-10.7871
▁выступления	-10.7872
▁владел	-10.7875
информационны	-10.7878
▁1923	-10.7879
▁уверен	-10.7881
▁пережив	-10.7882
служб	-10.7882
▁дипломатические	-10.7883
газ	-10.7884
▁периодически	-10.7887
▁дже	-10.789
▁определил	-10.7892
ченко	-10.7898
▁полный	-10.7898
▁логически	-10.7902
▁святой	-10.7907
▁аэродром	-10.7921
▁провозгласил	-10.7921
▁совокупность	-10.7921
▁содружества	-10.7921
▁компанией	-10.7921
▁политического	-10.7921
▁ньютона	-10.7921
▁дочери	-10.7922
▁пограничн	-10.7923
▁1955	-10.7926
▁изгнан	-10.7928
▁мысль	-10.7931
месячн	-10.7933
▁московском	-10.7937
▁мгу	-10.7941
▁общих	-10.7948
энд	-10.7948
▁зеркал	-10.795
▁лисп	-10.7955
▁появля	-10.7961
евского	-10.7963
▁северных	-10.7967
▁ключев	-10.7968
▁ассоциации	-10.7972
▁дефицит	-10.7972
▁позволял	-10.7972
▁рассужд	-10.7972
▁смеси	-10.7974
▁топлива	-10.7976
▁1932	-10.7976
▁противопоставл	-10.7977
▁протон	-10.7987
▁итальянско	-10.7988
▁уравнение	-10.7994
▁алма	-10.7995
плот	-10.8
we	-10.8
международн	-10.8002
горьк	-10.8004
▁правительству	-10.8004
▁предполагает	-10.8007
▁югу	-10.801
amp	-10.8016
▁консул	-10.802
▁исторического	-10.8023
▁расширя	-10.8023
▁контролиру	-10.8023
▁размеща	-10.8024
если	-10.8026
▁сквер	-10.8028
▁леон	-10.8029
превращ	-10.8029
▁автоматически	-10.8031
▁серебра	-10.8036
▁являлась	-10.8036
▁бутан	-10.8038
▁реальности	-10.8038
▁многочисленных	-10.8041
▁закономерно	-10.8044
▁перевозки	-10.8044
▁перси	-10.8051
ue	-10.8057
▁кул	-10.8059
▁чёрно	-10.8063
▁будущем	-10.8064
▁windows	-10.8075
▁ближайши	-10.8075
▁волгоград	-10.8075
▁вячеслав	-10.8075
▁публикации	-10.8075
▁батальон	-10.8075
▁лучших	-10.8075
▁человеческой	-10.8075
▁комиссия	-10.8076
▁мелких	-10.8077
▁максимум	-10.8077
▁офицер	-10.8079
▁1927	-10.8081
▁химик	-10.8081
▁корабле	-10.8083
▁визит	-10.8094
▁понятий	-10.8094
ностями	-10.8096
▁нагрева	-10.8099
▁сильным	-10.81
▁могло	-10.811
▁густ	-10.8123
▁1913	-10.8124
▁казани	-10.8124
▁диплом	-10.8126
▁политбюро	-10.8127
▁самоуправления	-10.8127
▁землёй	-10.8127
▁оценке	-10.8127
▁приближен	-10.8127
▁облегч	-10.8127
▁ветер	-10.8128
▁пользователей	-10.8129
▁половина	-10.8132
▁доллар	-10.8135
▁археолог	-10.8137
ступить	-10.8138
▁министерство	-10.814
▁религиозной	-10.8145
чуж	-10.8147
▁перестал	-10.8148
▁указывал	-10.8152
tri	-10.8166
интеллектуальн	-10.8166
▁содержится	-10.8166
▁определяют	-10.8166
▁узко	-10.8172
▁матч	-10.8175
▁называемых	-10.8176
archive	-10.8179
▁глубоки	-10.8179
▁гравитационно	-10.8179
▁джеймс	-10.8179
▁последствия	-10.8179
▁присутствует	-10.8179
▁эволюции	-10.8179
▁эксплуатацию	-10.8179
▁шеллинг	-10.8179
▁грамматик	-10.8179
▁учёного	-10.8179
▁объясняется	-10.8179
▁таиланд	-10.8179
▁освобождения	-10.8179
▁американских	-10.818
▁международным	-10.8182
▁нервн	-10.8185
▁1912	-10.8187
▁1911	-10.8187
4,5	-10.8188
▁отдельным	-10.8189
▁передал	-10.819
▁представителями	-10.8193
▁уральск	-10.8195
▁ведётся	-10.8197
▁включён	-10.82
▁гражданин	-10.8206
▁молодёжи	-10.8231
▁хранения	-10.8231
нибудь	-10.8231
▁возрождения	-10.8231
▁расстоянии	-10.8231
▁сатурна	-10.8231
▁дизайн	-10.8231
▁судебны	-10.8231
▁живописи	-10.8232
▁геологическ	-10.8233
▁описал	-10.8233
▁десять	-10.8234
▁берн	-10.8235
туркмен	-10.8235
▁присущ	-10.824
▁интервал	-10.8241
▁оказывается	-10.8242
▁располагаются	-10.8242
▁абсолютны	-10.8245
ритор	-10.825
вещания	-10.825
▁швейцарии	-10.8251
промысл	-10.8255
▁санкци	-10.8265
▁танков	-10.8267
живот	-10.8274
▁австралийск	-10.8284
▁отсутствуют	-10.8284
▁электроэнергии	-10.8284
гвардейск	-10.8284
▁обсужден	-10.8284
▁разнообразие	-10.8284
▁иосиф	-10.8284
▁федеральный	-10.8284
▁здоровья	-10.8285
▁привела	-10.8285
▁связывает	-10.8286
▁рельс	-10.8286
▁разрыв	-10.8288
▁студент	-10.8289
▁оказалось	-10.8289
▁заключил	-10.829
угл	-10.8293
▁употреблен	-10.8295
▁десятков	-10.8295
▁держа	-10.8296
▁неизвестно	-10.8299
▁пьер	-10.83
—16	-10.832
▁восстановление	-10.8329
▁потерял	-10.8331
ot	-10.8333
текст	-10.8334
▁живых	-10.8335
▁национальные	-10.8337
▁большом	-10.8337
▁атолл	-10.8338
▁немало	-10.8339
▁отчасти	-10.8341
▁государ	-10.8342
▁состоялась	-10.8343
▁индийски	-10.8346
радио	-10.8347
▁основание	-10.8348
▁наблюдал	-10.835
="16	-10.8361
▁записыва	-10.837
генетическ	-10.8374
▁упомянут	-10.839
▁поверхностн	-10.839
▁федеративн	-10.839
▁препарат	-10.839
▁1931	-10.8394
баль	-10.8397
▁разделение	-10.8398
▁поставил	-10.8401
pr	-10.8404
▁сооружен	-10.8409
▁количестве	-10.8409
▁отождествл	-10.8411
▁определённой	-10.8414
▁фундаментальн	-10.8419
▁мозг	-10.8423
▁маха	-10.8427
гитар	-10.8435
▁700	-10.8436
▁александрович	-10.8438
▁офицеров	-10.8439
лично	-10.844
▁инициативе	-10.8443
▁обозначение	-10.8443
▁частные	-10.8443
▁отставку	-10.8443
▁торговых	-10.8444
▁мульти	-10.8444
▁угля	-10.8445
▁телескоп	-10.8445
▁высшим	-10.8447
▁природа	-10.8448
▁мур	-10.845
▁обязанности	-10.845
▁корпораци	-10.8451
▁выпадает	-10.8454
▁интенсивн	-10.8454
▁матриц	-10.8457
▁ориентирован	-10.846
▁сумел	-10.846
▁еже	-10.8466
▁перешла	-10.8471
▁индивид	-10.8475
▁ввс	-10.8475
▁заключения	-10.848
▁феодал	-10.8486
▁тысячелетия	-10.8492
▁microsoft	-10.8497
▁здравоохранения	-10.8497
▁участок	-10.8497
▁специфическ	-10.8497
▁наименьш	-10.8497
▁talk	-10.8497
▁приходилось	-10.8499
▁научный	-10.8499
▁формирова	-10.85
▁симметрии	-10.85
▁бесед	-10.8516
▁промышленного	-10.8529
▁временных	-10.8532
▁регионально	-10.8534
▁изобретени	-10.8536
▁зла	-10.8538
▁третьей	-10.8543
▁сопротивление	-10.8551
▁термодинамическ	-10.8551
▁небольшим	-10.8551
▁тяжёло	-10.8551
▁реализу	-10.8551
▁железная	-10.8551
▁естественных	-10.8551
▁маори	-10.8551
▁откуда	-10.8552
▁учился	-10.8552
▁инвариант	-10.8552
▁михайлович	-10.8553
▁сталинград	-10.8555
▁1952	-10.8555
▁замок	-10.8558
▁неизвестны	-10.8558
▁привёл	-10.8565
▁старт	-10.8566
▁сокращение	-10.8571
▁балет	-10.8574
▁сцена	-10.8575
▁производится	-10.858
ze	-10.8585
влечения	-10.859
ae	-10.8597
прежнему	-10.8605
▁автомобилей	-10.8605
▁заседании	-10.8605
▁колебания	-10.8605
▁теорий	-10.8605
▁основное	-10.8606
▁наибольшее	-10.8609
▁приведен	-10.861
▁предостави	-10.8617
▁будд	-10.8619
▁билет	-10.8619
движение	-10.8623
▁студи	-10.8624
chem	-10.8629
ow	-10.8634
▁иерарх	-10.8635
▁линейно	-10.8641
tv	-10.8644
форд	-10.8645
▁дипломатическ	-10.8646
▁рейн	-10.8647
▁снима	-10.8652
социал	-10.8656
▁произошли	-10.866
▁обеспечить	-10.866
▁губерния	-10.866
индустриальн	-10.866
▁талант	-10.8661
▁шельф	-10.8661
благо	-10.8661
▁называет	-10.8661
▁химические	-10.8661
▁дают	-10.8661
▁учрежден	-10.8664
▁кофе	-10.8665
▁философских	-10.8665
жье	-10.8666
▁заверши	-10.867
▁сохранилось	-10.8675
▁март	-10.8681
устанавлива	-10.8684
▁влиятельн	-10.869
писывается	-10.8695
▁утверждение	-10.8706
строил	-10.8709
лук	-10.8712
▁ансамбл	-10.8715
▁кишинёв	-10.8715
▁переговоры	-10.8715
▁догмат	-10.8715
▁ближе	-10.8715
▁пластин	-10.8715
бумажн	-10.8716
▁хроматограф	-10.8717
▁деятель	-10.8718
▁удалён	-10.8718
ведена	-10.8719
▁легион	-10.8719
man	-10.872
▁риск	-10.8748
▁утверждения	-10.875
зритель	-10.8751
▁геометр	-10.8753
шкин	-10.8756
▁целый	-10.8761
проект	-10.8763
держать	-10.8765
ичности	-10.8766
сматрива	-10.8767
специалист	-10.8768
▁рекомендаци	-10.877
▁борьбу	-10.877
▁поддержал	-10.877
▁последняя	-10.877
▁gnu	-10.877
▁заведений	-10.877
▁гамбург	-10.8771
▁падения	-10.8771
▁медленно	-10.8772
▁поддерживал	-10.8772
▁сохранение	-10.8773
▁бронзов	-10.8773
цвет	-10.8774
▁пересека	-10.8776
▁плотности	-10.8777
▁генеральны	-10.8779
▁тираж	-10.878
▁решению	-10.8782
енбург	-10.8787
▁доступны	-10.8787
троф	-10.879
доступ	-10.8796
▁интеграл	-10.8798
▁кардинал	-10.8799
▁растительность	-10.8804
американско	-10.8813
ant	-10.8816
когда	-10.8818
▁сообщество	-10.8818
▁компилятор	-10.8826
▁отсюда	-10.8826
▁музыку	-10.8826
▁строительстве	-10.8826
▁добычи	-10.8826
▁повлиял	-10.8826
▁наименование	-10.8826
▁колёс	-10.8826
▁тихого	-10.8827
▁исполнение	-10.8827
▁сутки	-10.8829
▁организацию	-10.8829
▁целостн	-10.8832
монгол	-10.8832
▁полагал	-10.8834
▁2023	-10.8835
▁отражение	-10.8838
значения	-10.884
▁николаев	-10.8851
▁принятие	-10.8851
летней	-10.8862
▁село	-10.8865
▁уникальн	-10.8876
▁обращен	-10.8878
▁церквей	-10.8882
▁андропов	-10.8882
▁слобод	-10.8882
▁магазин	-10.8882
▁рынке	-10.8882
▁позицию	-10.8882
▁филипп	-10.8883
▁жить	-10.8884
▁сложных	-10.8884
▁принципиально	-10.8884
▁обладал	-10.8884
▁фиджи	-10.8885
▁татарстан	-10.8887
one	-10.8887
▁согласован	-10.889
▁проводились	-10.8891
▁морского	-10.8894
▁геометрии	-10.8894
▁географ	-10.8898
▁фотографии	-10.8901
▁активность	-10.8903
русски	-10.8906
▁благ	-10.8915
▁победил	-10.8915
▁ранен	-10.8921
▁распад	-10.8928
зима	-10.8931
христиан	-10.8934
библейск	-10.8938
▁мурманск	-10.8938
восточный	-10.894
▁сложения	-10.894
▁водоём	-10.8941
▁качеств	-10.8943
▁старший	-10.8945
▁китайской	-10.8948
сознательн	-10.895
▁обширны	-10.8952
ходящий	-10.8954
родолжительность	-10.8957
▁вело	-10.8957
▁металлическ	-10.8974
▁пусть	-10.8975
▁условиям	-10.8978
▁прочие	-10.8991
▁заболевания	-10.8994
▁молдавии	-10.8994
▁российские	-10.8994
▁скончался	-10.8994
▁гарнизон	-10.8994
▁кирибати	-10.8994
▁восточных	-10.8995
▁сторонники	-10.9
▁выделяется	-10.9002
▁центральных	-10.9004
▁снизил	-10.9006
технических	-10.9008
ордин	-10.9009
защитник	-10.9014
▁повышение	-10.9019
▁сотни	-10.9022
ft	-10.9025
▁овощ	-10.9026
ld	-10.9034
сиб	-10.9041
▁отражен	-10.9042
▁археологически	-10.9048
▁отсутствия	-10.9051
▁продукция	-10.9051
▁напряжённ	-10.9051
▁кикимор	-10.9051
заповедник	-10.9051
▁железные	-10.9051
▁армией	-10.9052
▁изделий	-10.9052
▁дракон	-10.9052
▁иоганн	-10.9052
апостол	-10.9052
▁следующее	-10.9054
▁любим	-10.9055
▁1907	-10.9056
▁1954	-10.9056
▁использовалась	-10.9057
▁делать	-10.9061
▁работников	-10.9062
▁касается	-10.9063
▁главное	-10.9071
избав	-10.9074
ry	-10.9085
топлив	-10.9099
▁римского	-10.9102
▁оккупирован	-10.9105
▁египта	-10.9108
▁нидерландов	-10.9108
▁суверенитет	-10.9108
▁человечества	-10.9108
▁испания	-10.9108
▁судебно	-10.9109
▁тезис	-10.9109
пустить	-10.911
▁штурм	-10.911
▁торговле	-10.9114
следовать	-10.9115
точнее	-10.9115
▁возникают	-10.9117
▁создают	-10.9119
▁индия	-10.9122
▁любых	-10.9127
▁остались	-10.9132
▁интегра	-10.9137
▁выведен	-10.915
▁советник	-10.9164
▁зиновьев	-10.9166
▁подавляюще	-10.9166
▁предприятие	-10.9166
▁произошла	-10.9166
▁сибирь	-10.9166
▁тьюринг	-10.9166
▁дифференциал	-10.9166
▁независимых	-10.9166
▁перешли	-10.9166
▁важных	-10.9168
▁компакт	-10.9168
тихо	-10.9169
▁азиатск	-10.9178
▁угле	-10.9181
нейтральн	-10.9186
▁углов	-10.919
▁потребител	-10.9198
το	-10.92
данная	-10.9202
«	-10.9206
▁поднял	-10.9207
бытие	-10.9207
▁завершил	-10.9214
▁белорусски	-10.922
▁закреплен	-10.9224
▁бэкон	-10.9224
▁восемь	-10.9224
▁топоним	-10.9224
▁дальше	-10.9224
▁совсем	-10.9224
▁карибск	-10.9224
▁сущности	-10.9224
▁торговые	-10.9224
▁американской	-10.9227
▁биолог	-10.9232
▁битве	-10.9232
▁особенностей	-10.9235
▁полиции	-10.9238
▁протестантск	-10.924
▁литературного	-10.925
академ	-10.9253
▁применять	-10.926
чувствительн	-10.9262
советск	-10.9264
▁ведь	-10.9269
▁продолжение	-10.9271
▁миг	-10.9276
▁сменил	-10.9277
▁англичан	-10.9282
▁восприятие	-10.9282
▁люксембург	-10.9282
▁бригад	-10.9282
▁захвачен	-10.9282
▁денежны	-10.9282
▁однозначно	-10.9282
▁денежно	-10.9282
ошибочн	-10.9282
▁природные	-10.9282
▁поворот	-10.9282
▁железа	-10.9283
▁указывают	-10.9284
▁назначение	-10.9284
▁влажны	-10.9285
▁обвиня	-10.9286
▁воевод	-10.9288
▁охраны	-10.9289
▁третьего	-10.9289
▁европу	-10.9289
▁важнейших	-10.9294
индус	-10.9297
▁сооружений	-10.9298
▁установить	-10.9299
▁великих	-10.9304
▁показывает	-10.9309
0,0	-10.9314
ers	-10.9315
▁признавал	-10.9319
▁мощность	-10.933
▁австри	-10.9331
mar	-10.9332
▁антисфен	-10.934
▁немецким	-10.934
▁фотоаппарат	-10.934
▁музыкальных	-10.934
▁грунт	-10.934
▁служат	-10.934
▁индивидуально	-10.9341
адмирал	-10.9341
▁евросоюз	-10.9343
▁смоленск	-10.9344
▁смесь	-10.9344
▁фундаментальны	-10.935
язык	-10.9351
международная	-10.936
▁остался	-10.936
▁лиги	-10.936
▁вероятности	-10.9362
▁возникло	-10.9363
▁слой	-10.938
▁юридическ	-10.9387
▁материальны	-10.9389
▁имён	-10.939
▁великим	-10.9395
▁хонеккер	-10.9399
▁происходят	-10.9399
▁пересечени	-10.9399
▁научная	-10.9399
▁деревья	-10.9399
▁микроскоп	-10.9401
▁образца	-10.9402
▁1915	-10.9407
▁пальм	-10.9407
▁юридически	-10.9412
▁уникальны	-10.9419
▁стоял	-10.9421
фир	-10.9427
очник	-10.943
▁различным	-10.9437
tro	-10.9437
▁отказыва	-10.9437
▁проводить	-10.9441
▁развил	-10.9444
▁отделение	-10.9455
▁производил	-10.9456
;...&	-10.9458
▁венгрии	-10.9458
▁дмитрий	-10.9458
▁значимы	-10.9458
▁ссылки	-10.9458
▁ведущих	-10.9458
▁орбиты	-10.9458
▁приложения	-10.9459
▁преемник	-10.946
▁днепр	-10.946
▁химической	-10.946
▁венеры	-10.9466
▁падение	-10.9472
▁боб	-10.9473
▁новороссийск	-10.9485
устойчив	-10.9487
▁пытал	-10.9496
▁for	-10.9497
▁собрал	-10.9507
ступать	-10.9514
▁подготовлен	-10.9518
▁прямым	-10.9518
▁раздраж	-10.9518
▁версий	-10.9518
▁зимне	-10.952
▁кольцо	-10.952
▁янтарн	-10.9521
▁1951	-10.9522
видимому	-10.9524
эстетическ	-10.9525
▁центральная	-10.9527
▁оборудования	-10.953
▁положил	-10.953
виртуальн	-10.954
музыкант	-10.9547
▁нарушения	-10.9548
▁ледников	-10.9551
1,4	-10.956
держав	-10.9563
ставляет	-10.9571
▁предпоч	-10.9574
освобожден	-10.9575
скандинавск	-10.9578
▁корабль	-10.9578
▁оказывают	-10.9578
▁православных	-10.9578
▁заслуг	-10.9578
▁южных	-10.9578
▁растёт	-10.9578
▁запреща	-10.9578
▁общественный	-10.9579
▁австро	-10.9579
▁стоимости	-10.9579
▁мандат	-10.9579
▁пляж	-10.958
следственн	-10.9582
▁точек	-10.9588
▁павел	-10.959
▁наличии	-10.9597
▁корне	-10.9597
▁прибыв	-10.9601
▁огромное	-10.9605
▁десятки	-10.9614
1,6	-10.9615
▁угол	-10.962
1,8	-10.9632
▁украинской	-10.9632
▁ребёнка	-10.9638
▁провинций	-10.9638
▁утвердил	-10.9638
▁здании	-10.9638
▁значимо	-10.9638
▁вычислений	-10.9638
▁музеи	-10.9638
▁форум	-10.9638
▁кодекс	-10.9638
▁новокузнецк	-10.9639
тягива	-10.9639
▁связывают	-10.9639
▁снижение	-10.9639
▁контракт	-10.9639
▁предположение	-10.964
ечь	-10.964
▁круж	-10.964
▁наблюдений	-10.9645
▁определённым	-10.9645
▁одобрен	-10.9651
особенно	-10.9652
▁обрабатыва	-10.9655
▁служба	-10.966
▁разбит	-10.9661
произвольн	-10.9668
▁съёмк	-10.9669
▁ливан	-10.9674
▁фед	-10.9678
чувств	-10.9681
▁активности	-10.9693
▁села	-10.9696
▁алюминия	-10.9698
▁концентрации	-10.9698
▁соревнования	-10.9698
▁сотрудничества	-10.9698
▁современное	-10.9698
▁иудаизм	-10.9699
▁достоевского	-10.9699
эмпирическ	-10.9699
▁таллин	-10.9699
▁военную	-10.97
▁излучение	-10.97
▁гостиниц	-10.97
▁изучал	-10.97
▁мясо	-10.9701
▁существовать	-10.9702
▁письменности	-10.9703
андер	-10.9704
▁планируется	-10.9707
▁накоплен	-10.9707
▁влажно	-10.9707
▁фундамент	-10.9715
▁качество	-10.9725
▁областного	-10.9728
▁столкновения	-10.9759
▁хайдеггер	-10.9759
▁екатерины	-10.9759
▁подготовке	-10.9759
▁состояний	-10.9759
▁настоящего	-10.9759
▁особый	-10.9759
▁защиту	-10.976
▁нацистск	-10.976
▁неделю	-10.976
киргиз	-10.9761
▁банкнот	-10.9761
́ль	-10.9762
▁выбран	-10.9762
▁николаевич	-10.9763
▁являясь	-10.9765
▁принимают	-10.9765
▁кошка	-10.9774
▁остаются	-10.9781
▁братья	-10.9782
▁публично	-10.979
▁часты	-10.9791
▁этаж	-10.9805
немецко	-10.9813
живопис	-10.9818
свято	-10.982
▁локомотив	-10.9821
▁организовал	-10.9821
▁традиций	-10.9821
▁каждое	-10.9821
▁консервативн	-10.9821
▁тувалу	-10.9821
▁поражения	-10.9821
▁введены	-10.9821
▁сложные	-10.9823
▁схема	-10.9825
▁учителя	-10.9825
▁двигатель	-10.9825
▁лифт	-10.9825
▁социалистическо	-10.9828
▁аниме	-10.9828
▁текстиль	-10.9831
орфизм	-10.9832
▁1910	-10.9836
▁продолжительн	-10.9841
▁распределения	-10.9841
▁корня	-10.9869
провер	-10.9879
▁мега	-10.988
▁ландшафт	-10.9882
▁религией	-10.9882
▁религий	-10.9882
▁гумилёв	-10.9882
▁немедленно	-10.9882
▁очевидно	-10.9882
▁публицист	-10.9882
radio	-10.9883
▁гибели	-10.9883
▁стадии	-10.9883
▁воздушных	-10.9883
▁возмущ	-10.9884
комбинаци	-10.9884
майор	-10.9886
▁происходящ	-10.9886
▁прилегающ	-10.9887
▁среднегодов	-10.9889
▁плоскости	-10.9891
▁нейро	-10.9904
степ	-10.9914
▁астрономии	-10.9914
▁ответственность	-10.9924
патр	-10.9924
главная	-10.9924
ационные	-10.9929
▁упоминание	-10.9929
▁инвестиций	-10.9945
▁рождаемости	-10.9945
▁интервью	-10.9945
▁воздействия	-10.9945
▁разработке	-10.9945
▁столицу	-10.9945
▁эпизод	-10.9945
▁генрих	-10.9945
▁моделей	-10.9945
▁состояще	-10.9946
▁фасад	-10.9947
▁прежни	-10.9948
ошло	-10.995
▁дворцов	-10.9951
▁достоверно	-10.9951
▁оптически	-10.9952
▁личность	-10.9953
общую	-10.996
смысл	-10.9962
▁играют	-10.9966
▁метрическ	-10.9968
собственн	-11.0001
▁индонезии	-11.0007
▁мировоззрени	-11.0007
▁рабочие	-11.0007
▁энергию	-11.0007
▁обычных	-11.0007
▁эдуард	-11.0007
▁существовании	-11.0007
▁признаёт	-11.0007
▁кеплер	-11.0007
▁пещер	-11.0008
▁минимально	-11.0009
▁железо	-11.001
вавилон	-11.001
nn	-11.0012
▁любовь	-11.0014
▁территориально	-11.0014
справедлив	-11.002
▁точку	-11.0022
▁разделена	-11.0031
▁покрыва	-11.0034
кроме	-11.0038
▁новому	-11.0039
land	-11.004
технического	-11.005
▁вызов	-11.0051
релятивистск	-11.007
▁телевизионн	-11.007
▁телевидение	-11.007
▁теорией	-11.007
▁показателя	-11.007
▁капитан	-11.007
▁ницше	-11.0071
▁католической	-11.0072
полицейск	-11.0072
▁прекрасно	-11.0073
▁битвы	-11.0077
друг	-11.0078
▁выделил	-11.0079
▁единства	-11.0082
▁нулев	-11.0088
▁выброс	-11.009
▁августин	-11.0097
вальд	-11.0112
▁признав	-11.0116
электро	-11.0117
▁делают	-11.0119
▁концентрация	-11.0133
▁подтвердил	-11.0133
▁армения	-11.0134
▁четверти	-11.0134
▁социальная	-11.0135
▁никто	-11.0135
▁имеющий	-11.0136
▁товарищ	-11.015
▁раскол	-11.0153
▁критически	-11.0153
▁грузин	-11.0154
времени	-11.016
компьютер	-11.0163
▁объяснить	-11.0169
▁филолог	-11.0179
▁ставит	-11.018
▁материков	-11.0182
▁жидкость	-11.0183
▁лент	-11.0188
▁детско	-11.0194
▁жёстко	-11.0197
▁маринеско	-11.0197
▁свердловск	-11.0197
▁синтаксис	-11.0197
▁циолковского	-11.0197
▁остатки	-11.0197
▁бразилии	-11.0197
▁исполнения	-11.0197
▁демократии	-11.0198
сообществ	-11.0198
▁попытал	-11.0199
▁предпочита	-11.0201
▁суммы	-11.0202
▁живёт	-11.0204
▁находилось	-11.0205
▁статистически	-11.0212
человек	-11.0225
воспоминания	-11.0227
чел	-11.023
▁коренны	-11.0232
▁отзыв	-11.0236
1,7	-11.0239
▁слияни	-11.0247
▁буддийск	-11.025
значительный	-11.0253
▁параллел	-11.0254
▁выявлен	-11.0255
▁муниципалитет	-11.0261
▁оккупации	-11.0261
▁ошибок	-11.0261
▁португалии	-11.0261
▁деревни	-11.0261
▁европейский	-11.0261
▁завоевал	-11.0262
▁рыночн	-11.0263
▁голландск	-11.0264
казывать	-11.0265
▁сообщений	-11.0265
▁увеличивается	-11.0271
▁опрос	-11.0278
▁важнейшим	-11.0278
▁учреждение	-11.028
▁черед	-11.0284
панк	-11.0291
▁традиционные	-11.0295
хлор	-11.0302
▁альп	-11.0317
книг	-11.032
▁греков	-11.0321
▁княж	-11.0325
▁туркменистан	-11.0326
тихоокеанско	-11.0326
▁конституцию	-11.0326
▁посёлок	-11.0326
▁резонанс	-11.0326
▁политический	-11.0326
▁иностранные	-11.0326
▁шрифт	-11.0326
▁представил	-11.0326
pri	-11.0327
▁регулиру	-11.0327
▁выполнять	-11.0327
▁электромагнитно	-11.0327
▁точностью	-11.0329
▁немцы	-11.0331
▁адам	-11.0332
▁древнегречески	-11.0334
▁бывшей	-11.0335
▁простым	-11.0338
▁метан	-11.0339
▁мощностью	-11.0341
▁июль	-11.0349
▁механически	-11.0355
▁англо	-11.0355
▁террорист	-11.0356
▁телевидения	-11.039
▁месторождений	-11.039
▁тягот	-11.0391
▁технология	-11.0391
▁латинского	-11.0391
▁частным	-11.0394
▁высший	-11.0395
позитив	-11.0395
▁корея	-11.0396
несены	-11.0399
▁обслуживания	-11.04
▁валери	-11.0405
▁твери	-11.0407
ирующих	-11.0408
▁отрыв	-11.0417
▁растительно	-11.0418
▁людвиг	-11.0421
банк	-11.0423
▁бомб	-11.0426
волок	-11.0426
▁письменны	-11.0427
▁календарь	-11.0456
▁оппозиции	-11.0456
▁ошибки	-11.0456
▁поддержка	-11.0456
▁анархист	-11.0456
▁горожан	-11.0456
▁алексей	-11.0456
▁time	-11.0457
▁приспособлен	-11.0457
▁декрет	-11.0457
байкал	-11.0458
▁автоматическ	-11.046
▁сельском	-11.0465
дневник	-11.0465
здрав	-11.0476
▁юпитер	-11.0478
▁юнг	-11.049
▁вулканическ	-11.0498
рец	-11.0503
стад	-11.0504
▁столичн	-11.0506
▁заметны	-11.0511
▁спам	-11.0511
▁напрямую	-11.0522
▁рабочего	-11.0522
▁суффикс	-11.0522
#	-11.0522
▁выдвинул	-11.0522
▁юстиции	-11.0522
▁избежать	-11.0522
▁комплект	-11.0522
▁пароход	-11.0522
▁сравнив	-11.0522
▁позиция	-11.0522
▁сегодняшни	-11.0523
▁последовал	-11.0524
▁отражает	-11.0529
▁устья	-11.053
демократическая	-11.0536
▁типичны	-11.0552
_8	-11.0552
air	-11.0556
▁оригинал	-11.0563
программ	-11.0566
хотя	-11.0571
▁употребление	-11.0573
▁медаль	-11.0575
▁экватор	-11.0578
▁украински	-11.058
▁аристократ	-11.0588
▁тензор	-11.0588
▁шухевич	-11.0588
▁кирпич	-11.0588
▁отметить	-11.0588
▁сердце	-11.0588
молодёжн	-11.0588
▁постройки	-11.0588
▁достоевский	-11.0589
▁экономику	-11.0589
служив	-11.0591
помни	-11.0591
▁барьер	-11.0592
▁праздновани	-11.0596
▁увеличилось	-11.0597
ment	-11.06
▁книжн	-11.0611
▁пыл	-11.0619
▁мемориальн	-11.0624
ируемых	-11.0637
▁делал	-11.0637
культурно	-11.0643
▁евгени	-11.0644
▁боево	-11.0649
▁лютер	-11.0651
▁здравоохранение	-11.0655
▁изобретател	-11.0655
▁кеннеди	-11.0655
▁наступления	-11.0655
▁объявля	-11.0655
▁показатели	-11.0655
▁помощник	-11.0655
▁законопроект	-11.0655
▁шоссе	-11.0655
▁обвинения	-11.0655
▁синтоизм	-11.0655
▁раннего	-11.0655
▁поставщик	-11.0655
▁построить	-11.0655
▁туристически	-11.0656
▁энциклопедии	-11.0657
▁разрешение	-11.0658
▁балкан	-11.0665
▁избирается	-11.0666
▁проведена	-11.0667
▁лютеран	-11.0668
▁калининградско	-11.0669
▁развиваться	-11.0673
государств	-11.0677
▁психически	-11.0677
▁бухт	-11.0684
▁пилот	-11.0699
0,4	-11.0703
кузнецк	-11.0721
▁скульптор	-11.0722
▁участков	-11.0722
▁музыке	-11.0722
▁одержал	-11.0722
▁шахмат	-11.0722
▁царицын	-11.0722
▁природу	-11.0724
▁позвоночных	-11.0729
▁перевозок	-11.0732
▁пользуются	-11.0736
▁замка	-11.0736
▁вооружённо	-11.0738
▁прохождени	-11.0739
▁бокс	-11.0739
▁оригинальны	-11.0742
электрон	-11.0742
▁начать	-11.0745
ориентированн	-11.0748
tt	-11.0749
▁самовар	-11.075
щё	-11.0759
консерв	-11.0765
фикация	-11.0775
крив	-11.0778
▁учебно	-11.0778
▁оборонительн	-11.0779
▁абрикос	-11.0789
▁ископаемых	-11.0789
▁общепринят	-11.0789
▁противоположны	-11.0789
▁российским	-11.0789
▁циолковский	-11.0789
▁перечислен	-11.0789
▁деятелей	-11.0789
▁популярности	-11.0789
▁спортсмен	-11.0789
▁партию	-11.0789
▁точкой	-11.079
▁канаде	-11.079
▁математической	-11.0791
▁якоб	-11.0793
▁францией	-11.0793
▁фалес	-11.0793
▁сервис	-11.0794
ступлении	-11.0794
▁1908	-11.0795
▁имея	-11.0796
▁вышедш	-11.0799
▁пользоваться	-11.08
▁сумму	-11.0802
ещал	-11.0807
▁получаем	-11.0809
красив	-11.0815
▁кавалер	-11.0815
▁комм	-11.0821
formula	-11.0834
процесс	-11.0835
all	-11.0845
▁урожай	-11.0857
высочайш	-11.0857
▁ближне	-11.0857
▁контролем	-11.0857
▁лысенко	-11.0857
▁бродского	-11.0857
▁вторжения	-11.0858
▁сущность	-11.0858
▁механике	-11.0859
▁оперативн	-11.0861
▁учебник	-11.0863
▁дерева	-11.0864
▁омывает	-11.0865
6,5	-11.0868
▁мезо	-11.0882
▁торжеств	-11.0883
▁пищи	-11.0891
ещает	-11.0893
▁понимает	-11.0905
▁обеспечивающ	-11.0925
исследователя	-11.0926
▁австралия	-11.0926
▁аминокислот	-11.0926
▁воскресенье	-11.0926
▁соответствие	-11.0926
▁внешний	-11.0926
▁политическое	-11.0926
▁понимания	-11.0926
▁теннис	-11.0926
▁коперник	-11.0926
▁свидетельствует	-11.0926
▁простира	-11.0926
ремесленн	-11.0926
▁властями	-11.0926
▁ливии	-11.0927
▁ватикан	-11.0927
▁сближени	-11.0929
ачёв	-11.0932
τα	-11.0933
▁леший	-11.0934
▁затрат	-11.0935
▁отказаться	-11.0938
▁проживают	-11.0939
▁показывают	-11.094
▁получать	-11.0942
▁соблюд	-11.0947
волжско	-11.0958
2,3	-11.0961
телеком	-11.0982
сети	-11.0988
▁появи	-11.0988
▁возглавлял	-11.099
▁конфесси	-11.099
стон	-11.0991
▁ущерб	-11.0995
▁освобождён	-11.0995
▁повседневн	-11.0995
▁чтения	-11.0995
▁единственная	-11.0995
▁лекции	-11.0995
▁баланс	-11.0995
▁промышленные	-11.0995
жёлто	-11.0996
▁символизиру	-11.0997
▁фунт	-11.1
mit	-11.1
▁следствием	-11.1002
▁сложение	-11.1004
▁сетей	-11.1004
▁понижен	-11.102
▁объединил	-11.1031
▁буквально	-11.1038
официально	-11.1044
▁крыш	-11.1051
технической	-11.1054
герцеговин	-11.1064
▁официальные	-11.1064
▁парадокс	-11.1064
▁пуэрто	-11.1064
▁судебная	-11.1064
▁оставалась	-11.1064
парадигм	-11.1064
▁издательств	-11.1064
▁изменяется	-11.1064
▁виноград	-11.1064
▁сочинение	-11.1064
▁экзамен	-11.1065
▁экономическая	-11.1067
▁1904	-11.107
военно	-11.107
▁избираются	-11.1071
▁выразил	-11.1071
▁герои	-11.1072
▁возможностей	-11.1074
▁занимались	-11.1074
▁победител	-11.108
ничество	-11.1085
▁старинн	-11.1092
факто	-11.1097
▁помеща	-11.1107
▁единство	-11.1115
jpg	-11.1134
▁конструкция	-11.1134
▁окончании	-11.1134
▁предусматривал	-11.1134
▁реконструкции	-11.1134
▁творчестве	-11.1134
▁эксплуатации	-11.1134
▁внешние	-11.1134
▁описывают	-11.1134
▁увидеть	-11.1134
▁греческих	-11.1134
▁кампании	-11.1134
▁марокко	-11.1134
▁высокую	-11.1134
▁заместитель	-11.1134
▁введено	-11.1135
▁списке	-11.1135
▁требование	-11.1136
▁американского	-11.1138
▁яхт	-11.1139
▁независимым	-11.1144
▁зависим	-11.1162
▁именовал	-11.1164
одесск	-11.1171
московск	-11.1173
́к	-11.1186
физиолог	-11.1199
середин	-11.1202
▁вспоминал	-11.1204
▁диоксид	-11.1204
▁египте	-11.1204
▁ежедневно	-11.1204
▁сравнения	-11.1204
▁счисления	-11.1204
▁астероид	-11.1204
▁эмоциональн	-11.1204
▁южнее	-11.1204
▁проведены	-11.1205
▁акцент	-11.1205
▁мальчик	-11.1205
▁взлёт	-11.1205
▁блюд	-11.1206
▁жуков	-11.1206
▁сырья	-11.121
▁формируется	-11.1211
▁капитул	-11.1211
ывались	-11.1214
▁нулю	-11.1219
химия	-11.1227
▁подлинно	-11.123
▁леонид	-11.1232
украинск	-11.1235
▁смертность	-11.1245
7,5	-11.1265
▁захоронен	-11.1275
▁исследу	-11.1275
▁князей	-11.1275
▁награждён	-11.1275
▁сопротивления	-11.1275
▁территорией	-11.1275
▁цивилизации	-11.1275
▁преследовани	-11.1275
▁свидетельствуют	-11.1276
▁рассчитан	-11.1276
▁совпадает	-11.1276
▁увидел	-11.1276
▁запах	-11.1281
▁тысячелети	-11.1282
▁вначале	-11.1287
▁решающ	-11.1287
остров	-11.1289
фашист	-11.1291
▁принадлежащи	-11.1291
1,1	-11.1295
▁возведен	-11.1317
▁амстердам	-11.1347
▁изучению	-11.1347
▁шарапова	-11.1347
▁замкнут	-11.1347
▁трамвая	-11.1347
▁вакуум	-11.1347
▁василий	-11.1347
▁щелоч	-11.1347
▁участии	-11.1347
▁нейтрон	-11.1347
▁наркома	-11.1347
▁почему	-11.1349
▁индивидуальны	-11.1349
▁пребыва	-11.1353
▁бояр	-11.1354
африкан	-11.1363
5,5	-11.1365
ирующие	-11.1368
▁осуществляют	-11.1372
jo	-11.1376
семейств	-11.1378
▁произвольно	-11.1384
▁типограф	-11.1397
председател	-11.1417
▁ирландии	-11.1419
▁композиции	-11.1419
▁недалеко	-11.1419
▁пруссия	-11.1419
▁ситуацию	-11.1419
▁гуманитарн	-11.1419
▁янтаря	-11.1419
▁спортивных	-11.1419
▁зарплат	-11.1419
▁керенский	-11.1419
▁секретаря	-11.1419
▁контексте	-11.1419
▁добиться	-11.1419
▁сознание	-11.1419
▁разрешения	-11.1419
▁польша	-11.142
▁губернск	-11.142
▁затвор	-11.142
▁изотоп	-11.142
▁музыканты	-11.1421
▁алжир	-11.1422
▁канада	-11.1422
▁огонь	-11.1423
▁звезды	-11.1423
▁немцев	-11.1423
▁немецком	-11.1427
▁обозначен	-11.1436
▁бежал	-11.1437
▁княжеств	-11.1437
▁ограничи	-11.1445
▁измеря	-11.145
▁суши	-11.1465
кратк	-11.1469
ходящего	-11.1475
idae	-11.1482
▁собственность	-11.1488
▁посёлка	-11.1491
▁демографическ	-11.1491
▁способствует	-11.1491
▁суждения	-11.1491
▁тормоз	-11.1491
▁ширина	-11.1491
▁ежегодны	-11.1492
▁героев	-11.1492
▁оказывал	-11.1492
▁реализация	-11.1493
lisp	-11.1493
обретения	-11.1493
также	-11.1494
▁региональных	-11.1496
▁высшие	-11.1496
▁голосования	-11.1496
▁естественным	-11.1497
▁воинско	-11.1497
▁представить	-11.1499
▁сильные	-11.1499
▁наблюдать	-11.1503
персидски	-11.1506
следовательности	-11.1509
▁предоставляет	-11.1518
2,4	-11.1534
модификаци	-11.1538
▁государственно	-11.1544
▁бород	-11.1545
▁основатель	-11.1563
tal	-11.1564
▁обязательств	-11.1564
▁предпринял	-11.1564
▁принадлежности	-11.1564
▁присутствии	-11.1564
▁сформулирован	-11.1564
▁установки	-11.1564
▁инстанции	-11.1564
▁коалиции	-11.1564
▁хребта	-11.1564
▁собственную	-11.1564
▁похорон	-11.1565
джан	-11.1565
▁фауна	-11.1565
▁ссыла	-11.1566
▁мощности	-11.157
▁исаак	-11.1572
▁лежат	-11.1574
▁критиковал	-11.1574
▁техника	-11.159
▁однородн	-11.1591
her	-11.1596
▁приступил	-11.1601
▁строить	-11.1621
▁черноморск	-11.1624
▁появлению	-11.1638
▁участвует	-11.1638
▁натурфилософ	-11.1638
▁уровню	-11.1638
▁медицины	-11.1638
▁рассеян	-11.1638
▁мятеж	-11.1638
▁случаи	-11.1638
▁опроверг	-11.1638
▁популярной	-11.1639
▁оставаться	-11.1641
▁литовского	-11.1642
▁механика	-11.1643
таджик	-11.1647
▁бывают	-11.1649
▁избирательно	-11.1657
▁опасны	-11.166
проникновен	-11.1673
log	-11.1688
▁познакомился	-11.1712
▁превысил	-11.1712
▁зависят	-11.1712
▁неправильн	-11.1712
▁отрасль	-11.1712
▁испытания	-11.1712
▁существовавши	-11.1714
▁братьев	-11.1715
▁нравственно	-11.1715
▁месс	-11.1716
▁косвенн	-11.172
▁восходит	-11.1723
▁фотон	-11.1731
▁производят	-11.1741
ехать	-11.1749
▁сообщает	-11.1754
рижск	-11.1759
▁бомбардир	-11.1784
xviii	-11.1786
▁арифметическ	-11.1786
▁мероприятий	-11.1786
▁миссионер	-11.1786
▁присутствуют	-11.1786
▁расследовани	-11.1786
▁вильнюс	-11.1786
▁включены	-11.1787
▁php	-11.1787
▁здоровье	-11.1788
▁премию	-11.1789
▁руководитель	-11.1789
▁примыка	-11.1789
▁долины	-11.179
▁кристаллическ	-11.179
▁успешны	-11.1795
▁исполнительны	-11.1844
республика	-11.1861
▁повсеместно	-11.1862
▁рсдрп	-11.1862
▁ibm	-11.1862
▁противоречия	-11.1862
▁заседания	-11.1862
▁молдавск	-11.1862
▁тщательно	-11.1862
▁кораллов	-11.1863
▁движений	-11.1863
▁специалисты	-11.1864
▁прямоугольн	-11.1865
▁решено	-11.1871
▁адрон	-11.1876
волжски	-11.1885
африкански	-11.1889
▁файлов	-11.1893
▁гомер	-11.1894
▁продолжают	-11.1898
▁торжественно	-11.1909
▁оказывает	-11.1921
назван	-11.1934
▁друзья	-11.1937
▁соответствовал	-11.1937
▁январь	-11.1937
▁настоящий	-11.1937
▁понимании	-11.1937
▁известняк	-11.1937
синтаксическ	-11.1938
▁геральд	-11.1938
▁корабли	-11.1938
▁кейнс	-11.1938
▁сведений	-11.1938
▁жестоко	-11.1939
▁нормально	-11.1942
▁службе	-11.1942
▁пользователь	-11.1942
католик	-11.1942
▁обновлен	-11.1942
▁модуля	-11.1944
эстонск	-11.1944
▁заставил	-11.1945
▁федеральном	-11.1946
▁звания	-11.1947
йдёт	-11.1951
▁продолжен	-11.1952
золото	-11.1952
▁локальны	-11.1955
0,8	-11.1955
▁выполняют	-11.1971
съём	-11.1978
▁числитель	-11.1979
пятидесят	-11.1985
▁линз	-11.1991
▁министерств	-11.201
▁степан	-11.2012
▁«[[	-11.2014
▁полушарии	-11.2014
▁тенденция	-11.2014
▁финляндия	-11.2014
▁наркотик	-11.2014
▁манифест	-11.2014
▁постоянным	-11.2014
▁медицине	-11.2014
▁монумент	-11.2014
▁языческ	-11.2014
▁эйлер	-11.2014
▁нижний	-11.2014
▁маршалловы	-11.2014
1,5	-11.2015
▁пострадал	-11.2015
спектрометр	-11.2015
▁подчинён	-11.2016
▁замысл	-11.2016
россия	-11.2017
▁вслед	-11.2018
▁послевоенны	-11.2018
▁функционировани	-11.2024
княжеск	-11.2025
▁муниципально	-11.2031
▁господство	-11.2035
шифр	-11.2035
▁футбольн	-11.2036
рвал	-11.2044
▁виртуальны	-11.2064
▁назначает	-11.2076
2,6	-11.2086
▁википедии	-11.2091
▁колебаний	-11.2091
▁одежды	-11.2091
▁предусмотрен	-11.2091
▁совокупности	-11.2091
▁разновидность	-11.2091
▁дебют	-11.2091
▁оценку	-11.2091
▁собственный	-11.2091
▁внедрен	-11.2093
▁европейским	-11.2094
звёзд	-11.2095
▁гелия	-11.2101
обычно	-11.2105
▁буддист	-11.2115
лест	-11.2116
▁скоб	-11.2145
▁бангладеш	-11.2168
▁интерпретации	-11.2168
▁нидерланды	-11.2168
▁эмиграции	-11.2168
▁чёрных	-11.2168
▁летописи	-11.2168
▁выделял	-11.2169
▁женился	-11.2169
▁секретарь	-11.2169
▁американским	-11.2169
▁защите	-11.2169
▁трибун	-11.217
▁желание	-11.2171
▁армий	-11.2172
▁низкая	-11.2172
звук	-11.2174
прежде	-11.219
▁поручен	-11.2194
▁понимал	-11.22
▁пилотируем	-11.2202
▁избирательны	-11.2217
учение	-11.2219
▁соблюдени	-11.2223
▁насчитывает	-11.223
8,5	-11.2233
узбек	-11.2235
▁связывал	-11.2246
▁принадлежность	-11.2246
▁удостоен	-11.2246
величайш	-11.2247
▁литературный	-11.2247
▁климент	-11.2247
▁таможенн	-11.2247
▁семинар	-11.2247
▁муниципальных	-11.2248
▁химическая	-11.2248
▁исчезновени	-11.2248
▁огня	-11.2248
▁иврит	-11.2249
▁сюда	-11.2252
▁1909	-11.2253
▁федеральным	-11.2256
исторически	-11.2267
▁операционны	-11.2272
2,8	-11.2274
▁усовершенствова	-11.2278
лектр	-11.2279
▁отклонени	-11.2283
▁крещен	-11.2294
▁письменность	-11.2312
▁повторно	-11.2312
2,7	-11.2317
▁небольшое	-11.2325
▁окончание	-11.2325
▁возвращения	-11.2325
▁организатор	-11.2325
▁византийско	-11.2325
▁фосфор	-11.2325
▁треугольник	-11.2325
▁аполлон	-11.2325
▁башня	-11.2325
▁синоним	-11.2325
▁железнодорожной	-11.2326
▁быстрее	-11.2328
▁утверждают	-11.2329
▁стерео	-11.233
повесть	-11.233
▁чекан	-11.2335
крепостн	-11.2344
▁педагогическ	-11.2349
▁лишён	-11.2353
▁эффективны	-11.2365
▁устойчивы	-11.2368
4,4	-11.2378
▁представителя	-11.2382
использова	-11.2392
▁происхождении	-11.2404
▁редакции	-11.2404
▁религиозным	-11.2404
гомофоб	-11.2404
▁руководил	-11.2404
▁отличия	-11.2404
▁музыкальные	-11.2404
▁свифт	-11.2404
▁постоянных	-11.2404
▁станислав	-11.2404
▁действовать	-11.2405
▁анатоли	-11.2405
▁кемеровск	-11.2405
аристотел	-11.2405
▁категорий	-11.2405
▁руководителя	-11.2405
▁надпись	-11.2406
▁выиграл	-11.2406
▁мелкие	-11.2408
▁змей	-11.2408
▁диапазоне	-11.2409
▁речной	-11.2409
▁националист	-11.2411
▁удобны	-11.2411
▁альтернативны	-11.2415
▁смещен	-11.2416
▁превышаю	-11.2422
0,7	-11.2426
3,6	-11.2426
юкос	-11.2443
эффективн	-11.2456
▁доказыва	-11.246
▁устье	-11.246
▁двенадцат	-11.2484
▁конференция	-11.2484
▁копенгаген	-11.2484
▁поздних	-11.2484
▁путешественник	-11.2484
▁сотрудничество	-11.2484
▁зеландия	-11.2484
▁невысок	-11.2484
▁постоянная	-11.2484
▁ульянов	-11.2484
▁сердца	-11.2484
▁политическую	-11.2484
▁потерпел	-11.2485
▁характеризуют	-11.2485
▁ослаблен	-11.2485
▁требуют	-11.2485
▁государственную	-11.2485
▁населению	-11.2485
▁вызывал	-11.2485
▁ткани	-11.2485
▁клетки	-11.2486
▁расширил	-11.2486
▁фрг	-11.2486
▁насыщен	-11.2486
▁отдельный	-11.2489
▁замуж	-11.249
▁среду	-11.2491
▁изменить	-11.2496
беларус	-11.2498
xvii	-11.2499
▁полагают	-11.25
▁тесн	-11.2503
▁физиологическ	-11.2522
ящем	-11.2526
▁вольф	-11.2535
▁провел	-11.2546
▁пропорционально	-11.2546
упруг	-11.2553
▁струн	-11.2554
осмотр	-11.2563
▁безработицы	-11.2565
▁присутствие	-11.2565
декабрь	-11.2565
▁сегмент	-11.2565
▁швеция	-11.2565
▁снабжен	-11.2565
▁евреи	-11.2565
▁демонстриру	-11.2565
▁италию	-11.2566
▁особым	-11.2566
▁митинг	-11.2566
▁сельских	-11.2567
▁утратил	-11.2568
исследовательски	-11.2575
▁образовыва	-11.2577
▁технологически	-11.2578
масштаб	-11.2581
▁1903	-11.2583
▁перенесен	-11.2584
▁публичны	-11.2586
▁любы	-11.26
▁покрыты	-11.26
▁мик	-11.2601
▁смол	-11.2603
▁римско	-11.2604
▁оценивал	-11.2612
▁крепостно	-11.2618
▁включил	-11.2645
▁достичь	-11.2646
▁информационно	-11.2646
▁казачьи	-11.2646
▁митрополит	-11.2646
▁равновесия	-11.2646
▁регламент	-11.2646
▁котловин	-11.2646
▁new	-11.2646
▁последнем	-11.2646
▁упадок	-11.2647
▁престиж	-11.2647
▁английской	-11.2648
▁приехал	-11.2648
▁общественные	-11.2649
▁президентски	-11.2655
▁растительны	-11.2657
следовательность	-11.2658
▁ветви	-11.2658
▁базовы	-11.266
▁доминик	-11.2671
▁единичн	-11.2692
▁пересмотр	-11.2709
фантастическ	-11.2714
социалистической	-11.2721
▁статистическо	-11.2726
путешествие	-11.2728
▁анаксагор	-11.2728
▁восстанавлива	-11.2728
▁лозунг	-11.2728
▁служебн	-11.2728
▁соотношения	-11.2728
эмигрант	-11.2728
▁оставались	-11.2728
▁осужден	-11.2728
▁ресторан	-11.2728
▁этническо	-11.2728
▁обычным	-11.2728
▁европейские	-11.2729
▁организацией	-11.2731
▁деревне	-11.2731
▁понимать	-11.2734
распростран	-11.2734
жизне	-11.2742
цензур	-11.2747
время	-11.2749
▁каталог	-11.2749
▁письменно	-11.2752
равновесн	-11.277
▁михайлов	-11.2808
▁администрация	-11.2811
▁гравитации	-11.2811
▁императрицы	-11.2811
▁конструкций	-11.2811
▁основоположник	-11.2811
▁мышление	-11.2811
▁особые	-11.2811
▁сьерра	-11.2811
▁кувейт	-11.2811
▁лучшим	-11.2811
▁нехватк	-11.2811
▁международное	-11.2811
▁животного	-11.2811
▁поселений	-11.2812
▁аромат	-11.2812
▁изучает	-11.2812
▁дюйм	-11.2812
▁порядков	-11.2813
▁постулат	-11.2813
▁учёб	-11.2813
▁сессии	-11.2813
▁васильевич	-11.2814
▁заработн	-11.2814
ообразных	-11.2814
▁чьи	-11.2815
▁девять	-11.2815
азиат	-11.2815
венгерско	-11.2824
▁переведен	-11.2843
▁крыла	-11.2866
▁снял	-11.2868
▁почётно	-11.2872
▁смотр	-11.2877
▁необычн	-11.2885
▁артиллерийск	-11.2894
▁архиепископ	-11.2894
▁впечатление	-11.2894
▁интерпретатор	-11.2894
▁конституцией	-11.2894
▁неоплатонизм	-11.2894
▁уменьшил	-11.2894
▁выдвинут	-11.2894
▁прозрачн	-11.2894
▁прямых	-11.2894
▁бульвар	-11.2894
▁отраслей	-11.2894
▁паскаль	-11.2894
▁барабан	-11.2894
▁объединены	-11.2894
▁посещал	-11.2895
▁гомосексуал	-11.2895
▁федеральных	-11.2895
▁саратов	-11.2895
▁медицинских	-11.2895
▁простейши	-11.2896
▁многократно	-11.2896
метеор	-11.2896
▁снежн	-11.2902
▁низким	-11.2905
▁повышает	-11.2905
▁кэш	-11.2906
▁окончательн	-11.2916
▁вариаци	-11.2919
▁руководит	-11.2975
озавр	-11.2978
▁smtp	-11.2978
▁внутренний	-11.2978
▁иммигрантов	-11.2978
▁секретарём	-11.2978
схоластик	-11.2978
▁гегеля	-11.2978
▁гибрид	-11.2978
▁кальция	-11.2979
▁рамбам	-11.2979
▁встроен	-11.2979
▁торговый	-11.2979
▁движущ	-11.2979
▁дискретн	-11.2982
▁латыш	-11.2983
▁иностранным	-11.2988
▁созвезди	-11.299
▁офис	-11.2993
▁первоначальны	-11.3001
первых	-11.3005
▁заполнен	-11.3009
▁устранен	-11.3016
▁полагает	-11.3025
ечник	-11.3028
продуктивн	-11.3042
world	-11.3063
▁просьбой	-11.3063
▁недавно	-11.3063
▁произведён	-11.3063
счастлив	-11.3063
▁фиксированн	-11.3063
▁князем	-11.3063
▁обитают	-11.3063
▁чудес	-11.3063
▁позиций	-11.3063
▁фокус	-11.3063
▁микрорайон	-11.3064
▁лежащ	-11.3064
▁безопасность	-11.3065
▁церковнославян	-11.3065
▁знать	-11.3068
▁условие	-11.3068
▁показать	-11.307
▁оригинально	-11.307
▁действительны	-11.3072
▁вычисли	-11.3075
▁облака	-11.3075
▁имеющим	-11.3083
▁мышц	-11.3086
▁авиационны	-11.3119
пользовались	-11.3131
5,6	-11.3135
лаборатори	-11.3147
вычислен	-11.3148
▁амплитуд	-11.3149
▁аристипп	-11.3149
▁бортинженера	-11.3149
▁внутреннее	-11.3149
▁гамильтон	-11.3149
▁денежная	-11.3149
▁дивизии	-11.3149
▁заболеваний	-11.3149
▁религию	-11.3149
▁небольшая	-11.3149
▁клавиш	-11.3149
▁скептик	-11.3149
▁гектар	-11.3149
▁верующих	-11.3149
▁судоходн	-11.3149
▁монголии	-11.3149
▁перемеща	-11.3149
▁проявил	-11.315
▁музыкантов	-11.315
▁труп	-11.3151
▁канадско	-11.3153
▁болезнь	-11.3154
0,9	-11.3155
▁понимают	-11.3167
▁знаю	-11.317
▁применим	-11.3178
▁воплощен	-11.3202
педагог	-11.3209
большой	-11.3222
▁алексея	-11.3235
▁возобновил	-11.3235
▁гильгамеш	-11.3235
▁присутствовал	-11.3235
▁концепцию	-11.3235
▁функционирует	-11.3235
▁особую	-11.3235
▁находясь	-11.3235
▁застройки	-11.3235
▁запланирован	-11.3235
▁выполнил	-11.3235
▁аграрно	-11.3236
▁табачн	-11.3236
▁калужско	-11.3236
▁избирателей	-11.3237
▁экономическом	-11.3237
▁процвета	-11.3238
природный	-11.3262
муниципального	-11.3265
▁уравн	-11.3296
▁вероисповед	-11.3322
упанишад	-11.3322
▁оппозиционн	-11.3322
▁продовольственн	-11.3322
▁описывающ	-11.3322
▁сформулировал	-11.3322
▁чехословак	-11.3322
▁ведущим	-11.3322
▁внешним	-11.3322
▁въезд	-11.3322
▁предварительно	-11.3322
▁транзит	-11.3322
▁рабочим	-11.3322
▁ценностей	-11.3322
▁возвращение	-11.3322
▁гимназии	-11.3322
▁строится	-11.3322
▁бастион	-11.3322
▁железнодорожная	-11.3323
▁нефтепродукты	-11.3323
▁показыва	-11.3323
▁глюон	-11.3323
▁английским	-11.3324
▁логики	-11.3324
▁экономическое	-11.3325
▁обозначают	-11.3336
рюрик	-11.334
круг	-11.3348
▁номинальн	-11.3349
▁вспомогательны	-11.3354
▁идеально	-11.3365
▁задне	-11.3375
ауэр	-11.3378
▁парламентски	-11.3379
▁жалова	-11.3393
▁оборудован	-11.34
▁васильев	-11.3406
ультрафиолет	-11.3409
▁внутренним	-11.3409
▁нидерландски	-11.3409
▁сотрудничестве	-11.3409
▁недостатки	-11.3409
▁реакцию	-11.3409
▁руководителей	-11.3409
▁друзей	-11.3409
▁вермахт	-11.341
▁обитания	-11.341
▁человеческих	-11.341
▁версию	-11.341
▁расстройств	-11.341
▁заверша	-11.3411
ходящая	-11.3414
▁июнь	-11.3415
▁оратор	-11.3417
▁отстаива	-11.3419
▁очаг	-11.3425
▁торговым	-11.3428
▁привлечен	-11.3439
▁слыш	-11.3441
демократическ	-11.3445
российский	-11.3457
1,9	-11.3467
континентальн	-11.348
▁днестр	-11.3482
▁вольно	-11.3487
▁учреди	-11.3489
▁pascal	-11.3498
▁преступления	-11.3498
▁радиостанции	-11.3498
▁респу́блика	-11.3498
▁солнечных	-11.3498
авангард	-11.3498
▁провинциальн	-11.3498
▁греческий	-11.3498
▁чёрный	-11.3498
▁сергея	-11.3498
▁голосованием	-11.3498
▁миссии	-11.3498
▁абдул	-11.3498
исполком	-11.3498
▁частями	-11.3498
▁неопределённо	-11.3498
инерциальн	-11.3499
▁американские	-11.3499
▁скелет	-11.3499
▁меир	-11.35
▁систематически	-11.3503
связывающ	-11.3504
4,7	-11.3507
▁заложил	-11.3511
ировок	-11.3521
объект	-11.3531
▁лейб	-11.3541
▁мягко	-11.3551
▁рецепт	-11.357
▁стремлени	-11.3576
испытатель	-11.358
жизнеописани	-11.3587
▁переговоров	-11.3587
▁чарльз	-11.3587
▁руководителем	-11.3587
▁гвинеи	-11.3587
▁несомненн	-11.3587
▁прототип	-11.3587
▁участвовать	-11.3587
▁большевистск	-11.3587
▁следуют	-11.3587
▁угрожа	-11.3587
▁углич	-11.3587
▁католики	-11.3589
▁наружн	-11.359
суннит	-11.359
▁калинин	-11.3591
▁удобно	-11.3592
▁живопись	-11.3592
▁маршал	-11.3596
▁средиземноморск	-11.363
смотреть	-11.3638
корреспондент	-11.3677
▁беженцев	-11.3677
▁окрестностях	-11.3677
▁упорядочен	-11.3677
▁гвинея	-11.3677
операционной	-11.3677
▁дмитриев	-11.3677
▁цилиндр	-11.3677
ноябрь	-11.3677
▁чёрная	-11.3677
▁зачислен	-11.3677
▁midi	-11.3677
▁давлении	-11.3677
▁прокурор	-11.3677
▁сохранении	-11.3678
▁империей	-11.3678
▁тягов	-11.3678
▁тибет	-11.3678
▁добавил	-11.3678
▁четверть	-11.3678
▁дыхательн	-11.3678
▁парапсихолог	-11.3678
▁варяг	-11.3678
▁белорусского	-11.3678
▁сражения	-11.3678
▁отложения	-11.3679
▁лаборатории	-11.3679
▁латинский	-11.368
▁уделял	-11.368
▁нижегородск	-11.3681
▁яйца	-11.3681
▁геометрически	-11.3683
▁спортивно	-11.3685
▁признать	-11.3686
▁автомобили	-11.3691
▁кисл	-11.3697
▁впадин	-11.3705
механик	-11.3714
достоверн	-11.3725
▁узнав	-11.3727
прогул	-11.373
крывает	-11.3731
ношения	-11.3742
программирование	-11.3743
углерод	-11.3762
▁рекомендова	-11.3768
▁посполитой	-11.3768
▁предполагаем	-11.3768
▁проголосовал	-11.3768
▁хоккей	-11.3768
▁юрисдикци	-11.3768
▁изображён	-11.3768
▁intel	-11.3768
▁восстановить	-11.3768
▁константинополь	-11.3768
▁православные	-11.3768
лейтенант	-11.3768
▁южную	-11.3768
▁вернуться	-11.3768
▁назначил	-11.3768
▁течений	-11.3768
▁апрель	-11.3769
▁лечения	-11.3769
▁допущен	-11.377
влечь	-11.377
▁сибирского	-11.377
▁писем	-11.3772
▁молока	-11.3774
▁случаю	-11.3804
▁0,2	-11.3814
▁никит	-11.3818
▁ледник	-11.3821
▁подража	-11.3824
спутник	-11.3827
▁возбужден	-11.386
▁елизавета	-11.386
▁петропавловск	-11.386
▁ведущие	-11.386
▁внутренняя	-11.386
▁дискуссии	-11.386
▁католицизм	-11.386
▁рождаемость	-11.386
▁четвёртый	-11.386
▁галактик	-11.386
▁запрещён	-11.386
▁синтоистск	-11.386
▁плодородн	-11.386
▁распространено	-11.386
▁тайвань	-11.386
▁анархизм	-11.386
▁японской	-11.386
▁шенгенск	-11.386
▁орудия	-11.386
▁змея	-11.3865
тысячн	-11.3876
▁социо	-11.3894
▁сложным	-11.3899
энергия	-11.391
5,2	-11.391
▁пригодн	-11.3913
конечно	-11.3914
▁нейтралитет	-11.3953
▁дмитрия	-11.3953
▁исследовал	-11.3953
▁недовольство	-11.3953
▁поддержкой	-11.3953
▁сотруднича	-11.3953
▁сравнении	-11.3953
▁широкую	-11.3953
▁выглядит	-11.3953
▁миграции	-11.3953
▁завоевания	-11.3953
▁валентин	-11.3953
▁екатерина	-11.3953
▁длится	-11.3953
▁димитр	-11.3953
▁лагранжиан	-11.3953
▁приложений	-11.3953
▁радикально	-11.3953
▁учению	-11.3953
анархо	-11.3955
▁освобождение	-11.3955
европейской	-11.3983
▁заменил	-11.399
распространяется	-11.4001
▁ареал	-11.4011
▁объяснял	-11.4015
совершенн	-11.4034
развлекательн	-11.4046
▁автодорог	-11.4046
▁законодательная	-11.4046
▁колеблется	-11.4046
▁постановления	-11.4046
▁предположил	-11.4046
▁путешествия	-11.4046
▁зороастризм	-11.4046
▁кукуруз	-11.4046
▁нквд	-11.4046
▁произошедш	-11.4046
▁протекторат	-11.4046
▁учитывать	-11.4046
▁постоянные	-11.4046
дальнего	-11.4046
▁дизель	-11.4046
▁гидроксид	-11.4046
▁кухня	-11.4046
▁используемых	-11.4047
▁добыче	-11.4048
▁праздничны	-11.4049
▁нужны	-11.4053
▁осуществил	-11.4067
4,6	-11.4073
положение	-11.4074
▁сериал	-11.4076
▁воински	-11.4077
поезд	-11.41
экспресс	-11.4128
▁поклонени	-11.413
болезн	-11.4134
▁наивысш	-11.4135
▁эволюционн	-11.414
▁запрещено	-11.414
▁изображений	-11.414
▁отсутствии	-11.414
▁распоряжение	-11.414
▁участвуют	-11.414
▁участке	-11.414
хронологическ	-11.414
▁исландии	-11.414
▁цезаря	-11.414
▁принудительн	-11.414
▁распространена	-11.414
▁разработку	-11.414
▁управлении	-11.414
зелёный	-11.4141
▁судьба	-11.4141
▁носителей	-11.4141
▁строги	-11.4144
▁атеист	-11.4163
▁полезно	-11.4163
▁требующ	-11.4165
искусств	-11.419
▁избрал	-11.4202
всякого	-11.4206
0,6	-11.4213
▁ассамблеи	-11.4236
▁ассемблер	-11.4236
▁галерея	-11.4236
▁новозеланд	-11.4236
▁перемещения	-11.4236
▁сплошн	-11.4236
▁хребет	-11.4236
▁публикация	-11.4236
▁марксистск	-11.4236
▁адаптаци	-11.4236
побратим	-11.4236
▁перестройки	-11.4236
▁деревня	-11.4236
▁прохлад	-11.4237
▁детских	-11.4237
▁успел	-11.4238
генетик	-11.4238
▁младше	-11.424
рыболов	-11.4245
▁троицк	-11.4248
▁софист	-11.4252
▁вторично	-11.4255
▁приняв	-11.4278
▁кубинск	-11.4287
вариант	-11.4297
среди	-11.4304
примечательности	-11.4332
▁вашингтон	-11.4332
▁вперёд	-11.4332
▁вступления	-11.4332
▁ксенофонт	-11.4332
▁подтверждает	-11.4332
▁просвещения	-11.4332
▁самоуправление	-11.4332
▁энергией	-11.4332
▁заявлял	-11.4332
▁изучении	-11.4332
▁преподавал	-11.4332
▁обезьян	-11.4332
▁свергнут	-11.4332
▁наименования	-11.4332
▁дыхания	-11.4332
▁изучать	-11.4332
▁святилищ	-11.4332
▁альянс	-11.4332
▁покинуть	-11.4332
▁фараон	-11.4332
▁пришло	-11.4332
▁боумен	-11.4332
▁посыла	-11.4333
▁химического	-11.4334
▁волге	-11.4334
▁посетител	-11.434
▁осени	-11.4343
▁формальны	-11.4346
▁антрополог	-11.4346
▁подробн	-11.4355
▁убив	-11.4391
▁пермско	-11.4414
▁анекдот	-11.4429
▁оппонент	-11.4429
▁гиппократ	-11.4429
▁демокрит	-11.4429
▁консерватор	-11.4429
▁олимпиад	-11.4429
▁разновидности	-11.4429
▁рептилий	-11.4429
▁трудоспособно	-11.4429
▁низменности	-11.4429
▁спортивные	-11.4429
▁пассивн	-11.4429
▁орбите	-11.4429
▁академию	-11.4429
▁магистрали	-11.4429
▁сыновей	-11.4429
▁литературных	-11.443
▁делегат	-11.443
▁социальным	-11.4432
▁специфика	-11.4436
▁потенциально	-11.4438
4,2	-11.4475
▁поселил	-11.4483
4,3	-11.4502
9,5	-11.4503
дошли	-11.4511
▁проживающи	-11.4516
остроительный	-11.4527
▁баскетбол	-11.4527
▁лоренца	-11.4527
▁мухаммед	-11.4527
▁понедельник	-11.4527
▁представителем	-11.4527
▁прослежива	-11.4527
▁драгоценн	-11.4527
▁заместителем	-11.4527
▁дешёв	-11.4527
▁кампания	-11.4527
▁доказать	-11.4527
▁двигателей	-11.4527
▁болезней	-11.4527
▁небесной	-11.4527
▁жидки	-11.4527
▁доминирующ	-11.4527
штадт	-11.4528
▁блюз	-11.4528
humb	-11.4531
▁либерально	-11.4535
▁голубо	-11.4535
проводник	-11.4537
▁призвал	-11.4543
▁президиум	-11.4549
▁школьно	-11.4559
▁отрицал	-11.4564
▁неизменно	-11.4565
гетеро	-11.457
родственник	-11.4581
▁андреев	-11.4591
кладывают	-11.4598
▁отметк	-11.4601
▁демонстрации	-11.4626
▁обыкновенно	-11.4626
▁чрезмерн	-11.4626
▁византии	-11.4626
▁реакций	-11.4626
▁плутон	-11.4626
▁музыкальный	-11.4626
▁среднюю	-11.4626
▁геродот	-11.4626
▁скептическ	-11.4626
▁партией	-11.4626
▁смешива	-11.4626
▁условии	-11.4626
▁усложн	-11.4626
▁мяса	-11.4627
▁доказал	-11.4628
▁юноше	-11.4628
разнообразн	-11.4632
▁базиру	-11.4659
▁позволит	-11.467
▁ускори	-11.4676
▁оптическо	-11.4682
▁индоевропейск	-11.4706
психическ	-11.4708
5,9	-11.471
▁почтово	-11.4711
5,8	-11.4721
▁конкурент	-11.4725
▁стокгольм	-11.4726
▁tcp	-11.4726
▁гравитационны	-11.4726
▁посвятил	-11.4726
▁смягч	-11.4726
▁функцией	-11.4726
антибиотик	-11.4726
▁гибель	-11.4726
▁tele	-11.4726
▁серьёзные	-11.4727
▁учитель	-11.4727
насильственн	-11.4727
▁избыточн	-11.4727
заслуженн	-11.4727
▁канадски	-11.4728
мейстер	-11.4728
баптист	-11.4732
▁недостаточн	-11.4749
▁установи	-11.48
▁цифровы	-11.48
элемент	-11.4806
▁средиземном	-11.4825
▁меридиан	-11.4827
▁хичкок	-11.4827
▁хронологии	-11.4827
▁эйзенштейн	-11.4827
плодотвор	-11.4827
▁бахрейн	-11.4827
▁неожиданно	-11.4827
▁пациент	-11.4827
▁англоязычн	-11.4827
▁дэвид	-11.4827
▁трамвае	-11.4827
▁фурье	-11.4827
▁зимний	-11.4827
▁примитивны	-11.4827
▁слоёв	-11.4827
▁схемы	-11.4827
▁сердечно	-11.4827
▁гнездо	-11.4828
▁саванн	-11.4829
▁командующи	-11.4838
органическ	-11.4858
form	-11.4877
3—19	-11.4899
▁изобразительно	-11.4914
▁устроен	-11.4914
хирург	-11.4929
▁ближайше	-11.4929
▁неотъемлем	-11.4929
▁никарагуа	-11.4929
▁последствий	-11.4929
▁промежутк	-11.4929
▁становление	-11.4929
▁имущество	-11.4929
▁москвой	-11.4929
▁накануне	-11.4929
▁неоднозначн	-11.4929
▁первобытн	-11.4929
▁сомнения	-11.4929
▁развернул	-11.4929
▁деталей	-11.4929
▁подготовка	-11.4929
▁экологии	-11.4929
▁тростник	-11.4929
▁смешени	-11.493
▁солёность	-11.493
▁учении	-11.493
агрегат	-11.4931
▁изучающ	-11.4931
▁обзор	-11.4931
▁обещан	-11.4932
▁привлекательн	-11.4939
▁количественно	-11.4944
▁наполнен	-11.4949
существу	-11.4961
▁суммарны	-11.4962
акустическ	-11.497
4,8	-11.4984
правительственн	-11.5013
инженер	-11.5013
технический	-11.5017
▁удельны	-11.5021
присвоено	-11.5023
фельдмаршал	-11.5032
▁загрязнения	-11.5032
▁засушлив	-11.5032
▁провозглашён	-11.5032
▁тяжести	-11.5032
▁машиностроения	-11.5032
▁православная	-11.5032
▁произраста	-11.5032
▁неизбежно	-11.5032
▁крылья	-11.5032
▁шириной	-11.5032
▁рыболовство	-11.5032
▁сильнее	-11.5032
▁хроник	-11.5032
▁киргизии	-11.5033
▁останки	-11.5033
▁высади	-11.5043
хромат	-11.5053
малайск	-11.5067
▁количественны	-11.5096
характер	-11.5114
▁этически	-11.5134
▁газообразн	-11.5135
▁бранденбург	-11.5136
▁взаимоотношения	-11.5136
▁вступление	-11.5136
▁закреплён	-11.5136
▁мёртвых	-11.5136
▁освобожда	-11.5136
▁сигарет	-11.5136
▁тенденции	-11.5136
▁трамваи	-11.5136
▁эквадор	-11.5136
настоящему	-11.5136
▁взаимодействий	-11.5136
▁прошедши	-11.5136
▁рождества	-11.5136
▁кажется	-11.5136
▁японского	-11.5136
▁инвестор	-11.5136
▁сомнение	-11.5136
▁содержащие	-11.5136
▁производителей	-11.5136
магнетизм	-11.5137
▁ускорение	-11.5137
▁английских	-11.5137
▁ftp	-11.5137
▁статическ	-11.5138
▁изучают	-11.5138
▁отдалённы	-11.5139
▁наместник	-11.5151
район	-11.5156
▁удовлетворен	-11.5173
▁обозначал	-11.5179
ностям	-11.5179
5,7	-11.52
продукт	-11.521
▁существенн	-11.5223
гражданская	-11.5225
4,1	-11.5231
▁visual	-11.5241
▁лабиринт	-11.5241
▁недостаток	-11.5241
▁оруэлл	-11.5241
▁учитывая	-11.5241
▁установка	-11.5242
▁василия	-11.5242
▁осуществлён	-11.5242
▁орудий	-11.5242
▁сгорания	-11.5242
▁латыни	-11.5242
▁хокинг	-11.5242
▁беркли	-11.5242
▁слабые	-11.5242
▁протяну	-11.5242
▁промышленный	-11.5242
▁оттуда	-11.5242
▁ветвь	-11.5243
▁рогат	-11.5243
▁произвел	-11.5244
▁текущи	-11.5246
▁алгебраически	-11.5255
▁детали	-11.526
▁правильны	-11.5263
бытии	-11.5265
▁дальни	-11.5271
▁тихон	-11.5271
▁желающ	-11.5293
▁населённ	-11.5298
вспомогательн	-11.5309
золотая	-11.5337
зависящ	-11.5341
▁вытеснен	-11.5348
▁египтян	-11.5348
▁елизаветы	-11.5348
▁миролюбов	-11.5348
▁норвегия	-11.5348
▁тяжёлых	-11.5348
▁отсутствовал	-11.5348
▁вызывают	-11.5348
гвардии	-11.5348
▁преображен	-11.5348
патриотическ	-11.5348
▁двигатели	-11.5348
▁вертикально	-11.5348
▁однажды	-11.5348
▁южные	-11.5348
▁муссон	-11.5348
▁европой	-11.5348
▁уехал	-11.5349
▁монако	-11.5349
▁жизненно	-11.5351
▁произносит	-11.5351
▁оспарива	-11.5352
восточным	-11.5352
ставляя	-11.5353
▁плюс	-11.5355
симпати	-11.5356
становился	-11.5375
▁данилов	-11.5377
7,8	-11.5384
▁моральны	-11.5393
▁обозначающ	-11.5397
▁рассмотре	-11.5411
тично	-11.5431
парламент	-11.5441
кавказск	-11.5443
иногда	-11.5444
ролл	-11.545
▁здоров	-11.5452
продемонстрирова	-11.5455
▁предпосылк	-11.5455
▁военнослужащих	-11.5455
▁иностранцев	-11.5455
▁немногих	-11.5455
▁ознаменовал	-11.5455
▁улучшения	-11.5455
▁шотландии	-11.5455
мотороллер	-11.5455
▁мелекесс	-11.5455
▁характеризовал	-11.5455
▁барокко	-11.5455
▁подразделяется	-11.5455
▁диктатор	-11.5455
▁скотовод	-11.5455
социалистическая	-11.5456
финляндск	-11.5456
▁улучши	-11.5456
зелёных	-11.5456
▁льгот	-11.5456
▁аудио	-11.5456
▁обладател	-11.5462
▁оценил	-11.5463
▁очищен	-11.5464
▁всадник	-11.5466
▁закрыва	-11.5471
малоросс	-11.5485
▁прорыв	-11.5488
регулярн	-11.5489
▁воспоминани	-11.5513
6,7	-11.5533
первый	-11.5555
нравственн	-11.5559
9,8	-11.5563
▁агломерации	-11.5564
▁арифметики	-11.5564
▁ассамблея	-11.5564
▁коррупции	-11.5564
▁машиностроение	-11.5564
▁немецкая	-11.5564
▁предположения	-11.5564
▁психиатр	-11.5564
▁рабочий	-11.5564
▁династия	-11.5564
▁лабораторн	-11.5564
▁пейзаж	-11.5564
▁португальско	-11.5564
▁двойственн	-11.5564
▁десятилетий	-11.5564
▁ботсва	-11.5564
фосфат	-11.5564
▁встретить	-11.5564
▁киренаик	-11.5564
▁гуманизм	-11.5564
▁ориген	-11.5564
▁нептун	-11.5564
техническое	-11.5565
▁противоречит	-11.5565
▁ирландск	-11.5565
▁электромагнитны	-11.5566
▁возвыша	-11.5566
▁обвинил	-11.5569
эпоса	-11.5572
▁параллельны	-11.5574
▁вещественн	-11.5578
единственн	-11.5598
▁чрезвычайн	-11.5652
корпора	-11.5653
6,4	-11.5654
кооператив	-11.5674
▁великобританией	-11.5674
▁вырабатыва	-11.5674
▁епархии	-11.5674
▁интегрирован	-11.5674
▁ксенофан	-11.5674
▁напоминает	-11.5674
▁просуществовал	-11.5674
▁солнечный	-11.5674
▁гипатии	-11.5674
▁дальневосточн	-11.5674
▁маймонид	-11.5674
▁творения	-11.5674
▁действовавш	-11.5674
▁ориентации	-11.5674
▁выступление	-11.5674
▁нижняя	-11.5674
▁превышал	-11.5674
▁увенча	-11.5674
▁явился	-11.5674
▁затрудня	-11.5674
▁протяжённ	-11.5675
▁бессознательно	-11.5675
▁наблюдателя	-11.5676
▁постсоветско	-11.5676
▁бесцветн	-11.5677
▁дорожно	-11.569
▁выработк	-11.5694
подземных	-11.5709
▁армянски	-11.5761
▁приступ	-11.5776
▁завоёван	-11.5785
▁коммуникации	-11.5785
▁конфигураци	-11.5785
▁помочь	-11.5785
▁предусматривает	-11.5785
▁промежуточно	-11.5785
▁прошедше	-11.5785
▁дефект	-11.5785
▁динамика	-11.5785
▁оболочки	-11.5785
▁сухопутных	-11.5785
▁столкнул	-11.5785
▁бельгия	-11.5785
▁unix	-11.5785
▁экономикой	-11.5785
▁ширины	-11.5785
▁требований	-11.5785
▁эстония	-11.5785
руководящ	-11.5785
пешеходн	-11.5785
▁учителем	-11.5785
модерн	-11.5785
▁литвинов	-11.5786
▁гаусс	-11.5786
▁выбрал	-11.5797
посадочн	-11.5804
капиталистическ	-11.5884
▁оказав	-11.5885
структур	-11.5889
▁([[	-11.5897
▁сельхоз	-11.5897
▁взаимодействии	-11.5897
▁мембран	-11.5897
▁популяризаци	-11.5897
▁соответствия	-11.5897
▁эдвард	-11.5897
▁экосистем	-11.5897
▁альфред	-11.5897
▁одежда	-11.5897
▁редакция	-11.5897
крокодил	-11.5897
▁заместителя	-11.5897
▁последнюю	-11.5897
▁приближа	-11.5897
▁яковлев	-11.5897
▁увлека	-11.5898
▁распозна	-11.5898
▁мрамор	-11.5898
▁ювелир	-11.5898
▁эскадр	-11.5898
▁уменьшит	-11.5898
брутто	-11.5898
▁тканей	-11.5898
▁средним	-11.5898
▁семёнов	-11.5898
морфологическ	-11.5898
▁чтение	-11.5899
▁вынесен	-11.5907
▁вселенск	-11.5912
▁изменять	-11.5915
▁варьирует	-11.5932
▁сферическ	-11.5994
континент	-11.6005
инструктор	-11.6011
▁водопровод	-11.6011
▁принадлежавш	-11.6011
▁прогрессивн	-11.6011
▁рабочая	-11.6011
▁усадьб	-11.6011
▁агрессивн	-11.6011
▁возвращении	-11.6011
▁выступлений	-11.6011
▁семьёй	-11.6011
▁персоны	-11.6011
▁посольство	-11.6011
▁гарантиру	-11.6012
▁протестантизм	-11.6013
▁изъят	-11.6013
▁полноценно	-11.6014
организационн	-11.6014
▁побывал	-11.6014
▁упрощен	-11.6015
▁превосходя	-11.6016
▁благородны	-11.6017
▁этанол	-11.6019
▁ледян	-11.6024
▁наблюдаемы	-11.6025
образующ	-11.6042
▁предельно	-11.6046
▁взяв	-11.6049
▁уэльс	-11.6055
▁устанавливают	-11.6083
профессиональн	-11.6088
различ	-11.6104
▁волапюк	-11.6126
▁ассоциация	-11.6126
▁императрица	-11.6126
▁индустрии	-11.6126
▁катализатор	-11.6126
▁комментарии	-11.6126
▁кронштадт	-11.6126
▁приурочен	-11.6126
▁противоречивы	-11.6126
▁рукописи	-11.6126
▁сопровождени	-11.6126
▁федерация	-11.6126
▁централизованно	-11.6126
▁ошибка	-11.6126
▁трудящихся	-11.6126
▁осуждён	-11.6126
▁прямые	-11.6126
▁постоянный	-11.6126
▁японских	-11.6126
▁популяции	-11.6126
▁степеней	-11.6126
▁зрителей	-11.6126
▁октав	-11.6127
▁греческом	-11.6127
стандарт	-11.6129
▁восстановил	-11.613
▁аллегори	-11.6134
▁звено	-11.6137
▁отравлен	-11.6138
пропорциональн	-11.6153
▁правяще	-11.6165
▁признают	-11.6182
музыка	-11.6219
православно	-11.624
▁телекоммуникаци	-11.6242
▁зоопарк	-11.6242
▁лошадей	-11.6242
▁насекомых	-11.6242
▁основополагающ	-11.6242
▁стационарны	-11.6242
▁фрукты	-11.6242
▁младший	-11.6242
▁basic	-11.6242
▁противостояние	-11.6242
▁брюллов	-11.6242
▁земледелия	-11.6242
▁эмоции	-11.6242
▁православие	-11.6242
▁дружин	-11.6242
▁критерия	-11.6242
▁сыновья	-11.6242
▁особей	-11.6242
▁деятели	-11.6242
▁поздние	-11.6243
▁конфуци	-11.6244
политическом	-11.6245
▁школьник	-11.6245
▁областям	-11.6246
▁цитат	-11.6249
▁скромн	-11.625
психолог	-11.6251
▁осмыслен	-11.6255
▁лекарств	-11.6263
превратился	-11.6282
▁отошл	-11.6289
саксонск	-11.6299
▁телесн	-11.6314
возможно	-11.6324
8,9	-11.6336
▁адвокат	-11.636
▁драматург	-11.636
▁интерпретация	-11.636
▁креационизм	-11.636
▁меерсон	-11.636
▁плеханов	-11.636
▁повреждени	-11.636
▁показателю	-11.636
▁предотвращени	-11.636
▁предполагают	-11.636
▁реконструкция	-11.636
▁учащихся	-11.636
▁черняховск	-11.636
▁светлогорск	-11.636
▁возможна	-11.636
▁причисля	-11.636
▁становились	-11.636
▁финансирование	-11.636
▁судьбы	-11.636
▁финансирования	-11.636
▁вызвать	-11.636
▁историческое	-11.636
▁строительству	-11.636
▁вытесня	-11.636
▁абакан	-11.636
▁десант	-11.6361
▁идеальны	-11.6362
▁субъективно	-11.6369
▁королевств	-11.6369
синтез	-11.637
▁учредительно	-11.6372
▁спектральн	-11.6374
▁защищён	-11.6378
▁всесоюзно	-11.638
▁симметричн	-11.6382
влиять	-11.6388
▁попадани	-11.6411
▁горизонтальны	-11.6427
▁стремительно	-11.6434
▁ведийск	-11.6475
▁альбрехт	-11.6479
▁гондурас	-11.6479
▁лицензии	-11.6479
▁останавлива	-11.6479
▁термодинамики	-11.6479
▁трансцендент	-11.6479
▁яблочков	-11.6479
▁грамматически	-11.6479
▁затрагива	-11.6479
▁инвестиции	-11.6479
▁духовенства	-11.6479
▁сочинении	-11.6479
▁современную	-11.6479
▁скалярн	-11.6479
▁дошкольн	-11.6479
▁штраф	-11.6479
▁низменность	-11.648
▁координаци	-11.6482
дисперс	-11.6494
8,7	-11.6503
исследовательско	-11.6513
ренессанс	-11.6599
▁авиакомпания	-11.6599
▁воспринимал	-11.6599
▁дивизия	-11.6599
▁дистрибутив	-11.6599
▁компромисс	-11.6599
▁посёлков	-11.6599
▁продовольствия	-11.6599
▁соглашений	-11.6599
▁гипотетическ	-11.6599
▁изготавлива	-11.6599
▁инфляции	-11.6599
▁матерью	-11.6599
▁обязанностей	-11.6599
▁предназнача	-11.6599
▁корректн	-11.66
▁мгновенн	-11.66
▁you	-11.66
▁звучание	-11.66
▁особых	-11.66
▁инвестиционн	-11.66
▁таблич	-11.66
▁присваива	-11.66
▁коридор	-11.66
▁берингов	-11.66
шотландск	-11.66
▁бинарн	-11.6602
паразит	-11.6658
основанный	-11.6666
8,6	-11.6715
▁лагранж	-11.6721
гюйгенс	-11.6721
шереметьево	-11.6721
▁outlaws	-11.6721
▁воззрения	-11.6721
▁корбюзье	-11.6721
▁максвелл	-11.6721
▁мексиканск	-11.6721
▁обнаружить	-11.6721
▁олицетворя	-11.6721
▁племянник	-11.6721
▁площадка	-11.6721
▁преступлений	-11.6721
▁реагирует	-11.6721
▁учреждён	-11.6721
▁rfc	-11.6721
▁организовать	-11.6721
▁сульфат	-11.6721
▁изменчив	-11.6721
▁уксусн	-11.6721
▁экспанси	-11.6721
▁историческом	-11.6721
▁охраняемы	-11.6721
▁блестящ	-11.6722
социалистических	-11.6722
терапии	-11.6724
▁жизненны	-11.6725
▁деятеля	-11.673
▁отличны	-11.6762
▁раскрыва	-11.6779
ообразования	-11.6791
ock	-11.6811
▁аббревиатур	-11.6845
▁аргентины	-11.6845
▁готфрид	-11.6845
▁джозеф	-11.6845
▁навсегда	-11.6845
▁полотнище	-11.6845
▁поощря	-11.6845
▁посёлке	-11.6845
▁пресмыкающихся	-11.6845
бессмерти	-11.6845
▁древнерусского	-11.6845
▁завершён	-11.6845
▁контейнер	-11.6845
▁уничтожа	-11.6845
▁урбанизаци	-11.6845
▁сконцентрирова	-11.6845
▁услыш	-11.6845
▁распространению	-11.6845
▁копеек	-11.6845
▁даосизм	-11.6845
▁обеспечил	-11.6845
▁маневр	-11.6846
▁актуально	-11.685
▁равномерно	-11.685
▁годовщин	-11.6851
связан	-11.6866
▁позвоночн	-11.6964
▁дискримин	-11.697
▁клавиатур	-11.697
▁лихтенштейн	-11.697
▁обсерватории	-11.697
▁полушария	-11.697
▁эволюция	-11.697
▁адекватн	-11.697
▁целесообразн	-11.697
▁потребностей	-11.697
массового	-11.697
▁накаплива	-11.697
▁чёрные	-11.697
кассини	-11.697
зелёные	-11.697
▁добавк	-11.697
▁вытянут	-11.697
▁критерие	-11.6971
▁неподвижно	-11.6971
комсомол	-11.6972
▁трансформаци	-11.6973
▁текуще	-11.6973
▁модифицирова	-11.6973
▁доминиканск	-11.6983
конституционного	-11.6991
регистр	-11.6993
▁непосредственн	-11.7013
▁суммарно	-11.7041
▁выделяет	-11.708
оснащен	-11.7081
▁способствую	-11.7084
▁framework	-11.7096
▁freebsd	-11.7096
▁аксельрод	-11.7096
▁блаватской	-11.7096
▁иероглиф	-11.7096
▁набережной	-11.7096
▁одиннадцат	-11.7096
▁пассажиропоток	-11.7096
▁продовольствие	-11.7096
▁разъясн	-11.7096
▁традицию	-11.7096
▁индейцев	-11.7096
▁состоящая	-11.7096
vision	-11.7096
целлюлоз	-11.7096
▁односторонн	-11.7096
▁индуистск	-11.7096
▁казачье	-11.7096
▁оставалось	-11.7096
▁автомобиля	-11.7096
▁попыток	-11.7097
▁верований	-11.7097
▁миграционн	-11.7097
▁синагог	-11.7097
▁многообразие	-11.7097
▁хроническ	-11.71
▁мясн	-11.7106
▁должностны	-11.7108
граждан	-11.712
▁распределени	-11.7141
николаевск	-11.7164
исполнительная	-11.7213
▁побочн	-11.7219
▁благотворительн	-11.7225
▁сергеевич	-11.7225
▁внутреннюю	-11.7225
▁группировки	-11.7225
▁добродетели	-11.7225
▁загрязнение	-11.7225
▁зороастрийц	-11.7225
▁интеллигенции	-11.7225
▁литературу	-11.7225
▁нидерландско	-11.7225
▁орфографии	-11.7225
▁разработчиков	-11.7225
▁сингапур	-11.7225
▁василиск	-11.7225
▁публикаций	-11.7225
▁рождество	-11.7225
▁устраивал	-11.7225
▁моллюск	-11.7225
▁чёрным	-11.7225
▁консульств	-11.7225
▁ячейк	-11.723
изначальн	-11.7231
▁предписан	-11.7231
полтавск	-11.7232
▁неприятн	-11.7236
▁словенск	-11.724
днестровск	-11.7252
август	-11.7263
▁обследова	-11.7339
▁рекомендует	-11.7355
▁тирасполь	-11.7355
▁алкоголь	-11.7355
▁арчимбольдо	-11.7355
▁законодательный	-11.7355
▁законодательным	-11.7355
▁камбоджи	-11.7355
„	-12.2103
<	-13.1306
