<unk>	0
<s>	0
</s>	0
,	-3.26878
.	-3.45801
▁в	-3.6472
▁	-3.77535
а	-3.97636
▁и	-4.02588
е	-4.35931
▁с	-4.61457
▁на	-4.70589
и	-4.88562
ы	-4.93705
м	-4.97973
у	-5.09147
о	-5.11803
-	-5.14781
▁по	-5.15016
▁(	-5.16527
▁—	-5.1856
▁«	-5.20731
ов	-5.28276
х	-5.3043
▁не	-5.42004
й	-5.42594
▁к	-5.47105
ом	-5.47733
▁из	-5.69943
:	-5.73403
▁а	-5.74244
с	-5.78933
▁##	-5.79651
▁от	-5.79774
ой	-5.81544
▁за	-5.84065
»	-5.85172
в	-5.867
я	-5.87542
"	-5.88334
▁года	-5.89821
▁году	-5.92532
)	-5.94357
▁при	-5.96175
▁о	-5.97375
▁у	-5.99508
▁как	-6.05979
▁что	-6.11508
го	-6.12669
▁до	-6.14355
▁для	-6.18713
ия	-6.21506
ми	-6.21515
ных	-6.22292
▁"	-6.22866
т	-6.24597
ки	-6.25643
ли	-6.30322
ами	-6.30889
).	-6.31172
ка	-6.31879
ной	-6.32039
но	-6.32461
▁также	-6.3547
),	-6.38583
="	-6.39263
к	-6.40332
ные	-6.44252
ся	-6.44757
н	-6.44811
ого	-6.46993
ий	-6.47238
на	-6.49614
ный	-6.50836
▁его	-6.51668
ие	-6.51744
л	-6.51982
ет	-6.52655
ая	-6.54377
ых	-6.55821
ии	-6.56473
▁был	-6.56628
ь	-6.57609
ю	-6.57618
д	-6.58356
ного	-6.60062
ла	-6.60648
ей	-6.61842
ах	-6.63258
▁про	-6.68437
»,	-6.69697
г	-6.70645
▁со	-6.71118
▁под	-6.71513
;	-6.7316
ш	-6.73228
ная	-6.73293
».	-6.76019
▁или	-6.78988
ской	-6.79275
п	-6.80368
ч	-6.81186
ского	-6.82481
▁но	-6.83572
▁он	-6.8365
▁во	-6.85022
б	-6.85265
▁м	-6.85278
doc	-6.8541
>	-6.85676
не	-6.90876
по	-6.91084
ным	-6.91766
▁об	-6.93241
▁год	-6.94652
ые	-6.9633
р	-6.97041
/	-6.9783
▁г	-6.99044
▁так	-6.99311
d	-7.00966
ский	-7.0169
з	-7.01719
▁были	-7.01765
▁то	-7.01839
▁после	-7.01913
та	-7.02578
за	-7.02742
ть	-7.03259
▁это	-7.03759
ию	-7.03889
ый	-7.03981
▁было	-7.05088
ую	-7.05724
▁раз	-7.06247
их	-7.06413
ное	-7.06459
▁время	-7.06856
▁же	-7.07444
▁18	-7.07612
ва	-7.08178
ж	-7.11013
им	-7.11929
▁является	-7.12358
ение	-7.13256
да	-7.13323
▁была	-7.14389
ни	-7.14677
ам	-7.15369
ения	-7.17087
ков	-7.18231
▁%	-7.19049
ская	-7.20699
ку	-7.21352
ло	-7.21452
—	-7.22867
ф	-7.2353
ских	-7.23847
ля	-7.24169
▁пере	-7.24514
ем	-7.25495
▁более	-7.25811
ль	-7.26166
ст	-7.26575
ется	-7.27625
ое	-7.27774
ить	-7.2794
▁э	-7.28701
от	-7.29144
▁д	-7.29538
ную	-7.32193
▁1	-7.32345
▁п	-7.33205
ым	-7.33755
ко	-7.3429
ен	-7.34572
сти	-7.34964
ок	-7.35361
▁их	-7.35646
▁вы	-7.35937
ил	-7.36382
▁т	-7.37117
то	-7.41345
ские	-7.4144
те	-7.42652
?	-7.4299
му	-7.43152
ном	-7.44044
ит	-7.44652
га	-7.44839
▁только	-7.45381
ными	-7.45545
▁её	-7.46266
ru	-7.46273
ют	-7.46624
ти	-7.47871
▁ре	-7.48172
че	-7.48242
ле	-7.492
▁том	-7.49657
▁города	-7.52297
об	-7.52495
ies	-7.52742
ны	-7.52884
ке	-7.52908
org	-7.52923
▁однако	-7.52951
▁н	-7.53134
ал	-7.53581
▁id	-7.5378
▁которые	-7.53824
wiki	-7.53899
вер	-7.54227
://	-7.54604
curi	-7.54679
▁де	-7.5472
wikipedia	-7.54775
https	-7.54814
▁url	-7.54852
▁title	-7.54909
▁<	-7.54912
▁categor	-7.54986
▁</	-7.55079
ру	-7.55212
▁между	-7.55296
де	-7.56211
▁века	-7.56363
ра	-7.56671
▁лет	-7.57207
s	-7.57418
тор	-7.5863
из	-7.58708
▁все	-7.58775
▁россии	-7.59957
лись	-7.60067
ча	-7.6009
ности	-7.60102
са	-7.60634
▁formula	-7.6196
мен	-7.62056
ты	-7.6234
ре	-7.6316
ист	-7.63581
см	-7.64172
чи	-7.64806
c	-7.65407
▁17	-7.65573
ство	-7.65896
ются	-7.66069
ать	-7.66089
ри	-7.66332
или	-7.67308
▁ли	-7.68161
▁б	-7.68225
нов	-7.6838
▁страны	-7.68434
до	-7.68574
▁3	-7.68682
▁может	-7.69237
▁кон	-7.70297
▁2	-7.70342
ви	-7.70681
▁населения	-7.70685
▁который	-7.70864
ан	-7.70891
▁человек	-7.71831
ги	-7.72236
ин	-7.72696
ц	-7.73414
сть	-7.73956
▁город	-7.7435
▁я	-7.74419
▁этом	-7.74721
▁они	-7.75534
|	-7.75956
▁того	-7.76821
▁есть	-7.76925
19	-7.77405
▁которых	-7.78494
▁пре	-7.78579
▁ссср	-7.78593
лен	-7.79415
▁около	-7.79419
ев	-7.79872
2	-7.79892
▁4	-7.79918
э	-7.80361
ском	-7.80428
ться	-7.8059
ком	-7.80625
ор	-7.81227
ность	-7.81824
ма	-7.82432
ве	-7.83851
ди	-7.84149
ар	-7.84501
▁тем	-7.85268
▁где	-7.85499
ще	-7.85613
▁ш	-7.86059
во	-7.86333
тер	-7.86538
▁территории	-7.86991
▁других	-7.87337
▁5	-7.87358
ос	-7.87713
▁пред	-7.87834
лась	-7.88027
▁этого	-7.88324
па	-7.88692
он	-7.88941
ба	-7.89424
вод	-7.89782
▁часть	-7.90836
3	-7.90847
t	-7.90852
ское	-7.91326
лся	-7.91377
▁ф	-7.91437
▁области	-7.91665
▁период	-7.91724
категория	-7.92071
лось	-7.92276
▁рас	-7.92389
ния	-7.92406
▁15	-7.925
00	-7.92761
ск	-7.9288
про	-7.93988
ыми	-7.94287
▁через	-7.94304
▁10	-7.95209
лю	-7.95948
ства	-7.95998
▁без	-7.96195
▁когда	-7.97038
ман	-7.97092
▁ко	-7.97854
од	-7.98121
мер	-7.98199
▁ещё	-7.98386
▁них	-7.98835
со	-7.98871
ости	-7.99019
▁кор	-7.99207
▁быть	-7.99424
▁сам	-7.99467
▁можно	-7.99636
ров	-8.01515
▁уже	-8.01735
▁стал	-8.01752
ат	-8.01861
ении	-8.0199
зи	-8.02007
▁среди	-8.02075
цион	-8.02782
ским	-8.03453
ту	-8.03537
▁бы	-8.04799
▁например	-8.04927
кой	-8.05095
али	-8.05164
ив	-8.05323
би	-8.05642
ня	-8.05912
ции	-8.06765
u	-8.06902
ше	-8.07208
зна	-8.07257
_	-8.07722
▁16	-8.07832
7	-8.07891
▁км	-8.07959
жд	-8.08075
▁другие	-8.08165
при	-8.08269
лет	-8.08274
▁части	-8.08426
▁всех	-8.08585
сс	-8.08613
вы	-8.08685
вед	-8.09104
▁если	-8.09206
се	-8.0937
▁чем	-8.09432
▁место	-8.09759
▁состав	-8.0978
▁времени	-8.09849
▁всего	-8.10535
▁сша	-8.10676
▁6	-8.10745
4	-8.10757
мо	-8.10904
▁ни	-8.11134
ён	-8.1143
▁являются	-8.11869
щ	-8.11957
ием	-8.1212
ци	-8.12492
▁согласно	-8.12502
▁12	-8.12544
изм	-8.12885
ья	-8.12904
▁она	-8.13122
▁(19	-8.13192
▁гор	-8.13194
оз	-8.13468
▁мир	-8.13649
y	-8.14136
рав	-8.14207
▁войны	-8.14234
тов	-8.1458
▁над	-8.14731
си	-8.15066
▁эти	-8.15093
▁несколько	-8.15215
▁три	-8.15269
▁которой	-8.15685
гу	-8.15685
ник	-8.15999
▁имеет	-8.16267
ние	-8.17073
▁жизни	-8.17137
▁7	-8.17361
▁те	-8.17587
пис	-8.1784
▁бо	-8.17854
бы	-8.18362
ний	-8.18445
i	-8.18614
▁наиболее	-8.19083
",	-8.19286
ических	-8.19361
иль	-8.19515
род	-8.19874
▁воз	-8.19925
скую	-8.2016
▁этот	-8.20205
ры	-8.20218
ну	-8.20245
ер	-8.20633
ро	-8.20637
▁числе	-8.21266
▁млн	-8.2185
▁годов	-8.21885
▁один	-8.23039
▁образом	-8.23058
▁суд	-8.23254
цы	-8.2343
аль	-8.23661
▁системы	-8.23733
▁которая	-8.2389
6	-8.24098
жи	-8.2434
▁могут	-8.24473
▁центр	-8.24553
▁много	-8.24555
же	-8.2462
▁тыс	-8.24868
▁8	-8.24967
ирован	-8.25221
ель	-8.25588
ией	-8.25631
▁ар	-8.25684
▁чтобы	-8.25827
▁лишь	-8.25895
лож	-8.25943
▁годы	-8.26003
1	-8.26277
ений	-8.26505
▁мо	-8.26688
=	-8.26965
овой	-8.26989
▁з	-8.27295
ят	-8.27465
▁ос	-8.28395
ду	-8.28398
▁качестве	-8.28678
▁годах	-8.28789
дер	-8.28819
g	-8.28853
▁язык	-8.28859
ге	-8.28932
▁га	-8.29197
ич	-8.292
▁двух	-8.29778
бо	-8.30439
k	-8.30625
став	-8.30744
вин	-8.31024
▁название	-8.31419
ред	-8.31587
▁расположен	-8.31815
ур	-8.32318
n	-8.3237
уч	-8.32585
овых	-8.32658
▁слова	-8.32698
ают	-8.32789
▁ряд	-8.3283
▁которого	-8.33121
▁кроме	-8.33531
▁против	-8.33581
нд	-8.3365
пе	-8.34019
▁составляет	-8.34099
▁мира	-8.34204
▁("	-8.34311
▁оста	-8.35071
▁пол	-8.35256
▁прав	-8.35279
▁9	-8.35427
ось	-8.35497
▁этой	-8.3559
стан	-8.35602
▁философ	-8.35681
ща	-8.35841
▁14	-8.36014
лин	-8.36128
ена	-8.3613
▁характер	-8.36213
▁вод	-8.36697
тель	-8.36746
▁связи	-8.36808
нии	-8.36831
ина	-8.36838
ись	-8.37384
ические	-8.37475
вал	-8.37819
▁ин	-8.38001
изма	-8.38186
кон	-8.38262
▁план	-8.38373
▁система	-8.38429
ость	-8.38434
ению	-8.38512
сто	-8.38531
x	-8.38784
▁мире	-8.38832
10	-8.38836
▁своей	-8.38849
▁им	-8.38914
тон	-8.39171
ций	-8.39225
ает	-8.39381
▁вер	-8.39421
рон	-8.39681
▁перед	-8.39695
раз	-8.39723
ств	-8.39747
▁20	-8.39789
p	-8.39814
▁два	-8.39853
▁люб	-8.39867
ложен	-8.40103
▁собой	-8.40334
▁13	-8.40524
▁себя	-8.40595
▁ю	-8.4093
мы	-8.41523
▁некоторые	-8.41547
итель	-8.41588
▁виде	-8.41686
су	-8.41697
▁государства	-8.41787
вар	-8.41826
лей	-8.41826
▁ан	-8.42228
ция	-8.42284
ид	-8.42428
ис	-8.43011
▁число	-8.43107
пу	-8.43458
▁человека	-8.43526
▁стро	-8.43547
▁л	-8.43619
▁результате	-8.43656
ации	-8.43775
ному	-8.4379
▁ла	-8.43803
сы	-8.43825
▁11	-8.43835
ё	-8.43841
▁языка	-8.44042
▁сил	-8.44399
8	-8.44518
▁второй	-8.44901
▁власти	-8.45033
цев	-8.4518
b	-8.45246
▁культур	-8.45255
ней	-8.45346
стро	-8.45474
▁др	-8.45958
▁количество	-8.46209
▁стали	-8.46289
▁i	-8.46347
▁стран	-8.4656
ол	-8.46631
▁раздел	-8.46632
́	-8.46679
e	-8.46789
ца	-8.46807
▁хотя	-8.46976
o	-8.47006
▁день	-8.47099
▁городе	-8.47224
▁совет	-8.47301
5	-8.47476
▁таким	-8.47481
стей	-8.47505
дел	-8.47609
▁(«	-8.47698
▁многие	-8.47748
▁ле	-8.479
ир	-8.47982
▁закон	-8.48092
▁ба	-8.48156
бе	-8.48242
ент	-8.4836
▁кар	-8.48369
ика	-8.48465
нос	-8.48559
m	-8.4876
▁право	-8.48985
пл	-8.49122
ась	-8.49173
en	-8.49174
▁даже	-8.49337
ста	-8.49453
ников	-8.49615
ша	-8.49935
9	-8.50065
▁s	-8.50066
кс	-8.50377
ним	-8.50579
▁ге	-8.50982
▁граждан	-8.51049
ход	-8.51221
▁всё	-8.51452
▁тысяч	-8.51599
▁одной	-8.51607
фи	-8.51737
ун	-8.51871
сп	-8.52045
овые	-8.5238
▁19	-8.52396
зд	-8.52595
▁свою	-8.52718
▁вид	-8.5288
0	-8.53433
r	-8.53626
ству	-8.53699
▁одним	-8.5381
▁конце	-8.53914
▁начале	-8.54048
ключ	-8.54136
ировал	-8.54284
f	-8.54308
▁часто	-8.5442
ому	-8.54543
▁способ	-8.54824
образ	-8.551
&	-8.55171
▁российской	-8.55192
пер	-8.55327
▁этих	-8.55372
ут	-8.55649
▁затем	-8.5567
фе	-8.55894
▁программ	-8.56122
ды	-8.5638
▁первый	-8.56451
раж	-8.56501
▁января	-8.56504
жа	-8.56561
работ	-8.57092
▁стар	-8.57302
нес	-8.5745
▁обычно	-8.57464
▁ор	-8.57654
▁земли	-8.57807
▁менее	-8.5816
a	-8.58165
20	-8.58209
▁сер	-8.58237
лад	-8.58323
лы	-8.58363
бер	-8.58515
▁c	-8.58611
▁вместе	-8.58777
▁ему	-8.58793
бр	-8.58825
▁бес	-8.58851
ши	-8.58963
▁ч	-8.59093
▁пер	-8.59283
▁само	-8.59478
▁основан	-8.59732
щи	-8.59803
ками	-8.59932
чен	-8.59969
ёр	-8.60136
енных	-8.60138
лог	-8.60141
▁открыт	-8.60277
▁мая	-8.6057
жен	-8.60573
цен	-8.60805
▁мор	-8.60922
▁построен	-8.60992
▁веке	-8.61113
▁транспорт	-8.61386
▁стране	-8.61392
пад	-8.61484
фа	-8.61568
▁находится	-8.61662
ско	-8.61785
▁эта	-8.61816
ден	-8.61964
▁союз	-8.62224
▁очень	-8.62275
▁ди	-8.62361
▁работы	-8.6257
▁пар	-8.62653
▁дел	-8.62841
ек	-8.63267
l	-8.63298
вен	-8.63321
▁поэтому	-8.63696
▁больше	-8.63704
▁гу	-8.6371
ления	-8.63724
ики	-8.63955
▁30	-8.63962
цию	-8.64138
▁имеют	-8.64267
▁вопрос	-8.6435
▁класс	-8.64388
стр	-8.64605
оль	-8.64787
мин	-8.64864
лов	-8.64918
ания	-8.64983
зе	-8.65066
▁почти	-8.65158
an	-8.65195
▁род	-8.65333
▁такие	-8.65492
▁мест	-8.6554
▁группы	-8.65693
ант	-8.65828
ены	-8.66009
бу	-8.66018
▁да	-8.66045
рус	-8.66188
▁марта	-8.66295
▁частности	-8.66521
ической	-8.66691
тар	-8.66741
ями	-8.66864
er	-8.67115
▁большинство	-8.67272
пре	-8.67381
▁гре	-8.67504
]]	-8.67573
▁запад	-8.67682
▁августа	-8.67686
ье	-8.67714
пи	-8.67742
▁теории	-8.68041
▁президент	-8.68241
▁своих	-8.68308
▁особенно	-8.6831
▁случае	-8.68311
▁декабря	-8.68517
▁самы	-8.68642
вид	-8.68683
др	-8.68827
▁па	-8.68885
▁орган	-8.68925
▁истории	-8.68937
тен	-8.6906
нь	-8.69476
ова	-8.69615
ряд	-8.69621
ировать	-8.69648
▁термин	-8.69699
▁числа	-8.69881
▁моря	-8.70009
h	-8.7034
ец	-8.70374
▁эконом	-8.70473
ъ	-8.70501
ген	-8.70638
▁проект	-8.70692
ян	-8.70845
▁образ	-8.70903
ован	-8.71135
чат	-8.71154
▁автор	-8.71217
12	-8.71375
▁бел	-8.71576
гор	-8.71723
стоя	-8.71725
▁которое	-8.72038
▁ха	-8.72558
▁xx	-8.72574
▁принцип	-8.72592
нию	-8.72638
вести	-8.72975
▁бер	-8.73004
стра	-8.73151
▁свет	-8.73316
▁данным	-8.7337
▁кам	-8.73517
▁население	-8.73533
▁июля	-8.73552
тур	-8.73563
ран	-8.73645
▁кол	-8.73671
▁xix	-8.73787
▁июня	-8.73792
▁своего	-8.73812
▁некоторых	-8.73846
ала	-8.73849
▁форм	-8.73911
ющие	-8.73923
▁основном	-8.74225
▁котором	-8.74369
50	-8.74583
▁север	-8.74622
▁сентября	-8.74667
▁здесь	-8.74731
▁республики	-8.74807
▁существует	-8.74927
ация	-8.74976
▁широко	-8.75113
ими	-8.75238
ический	-8.75344
▁[[	-8.7537
▁переход	-8.75822
▁ма	-8.76046
▁поскольку	-8.76073
▁роль	-8.76082
▁выход	-8.76267
ание	-8.76286
▁стала	-8.76474
▁размер	-8.76721
▁таких	-8.76731
ника	-8.76737
▁развитие	-8.76755
зы	-8.76779
▁впервые	-8.76912
▁получил	-8.77129
▁одно	-8.77161
▁первой	-8.77242
ел	-8.7735
ёт	-8.77373
▁поли	-8.77384
ением	-8.77493
▁стороны	-8.77535
▁пи	-8.77706
▁море	-8.77805
or	-8.77825
▁дж	-8.78012
▁языке	-8.78071
слав	-8.78075
▁развития	-8.78106
тр	-8.78143
")	-8.78211
три	-8.78277
▁начала	-8.78828
луч	-8.78838
чита	-8.78839
z	-8.78878
скому	-8.78882
▁острова	-8.79011
реч	-8.79567
ус	-8.79613
▁возник	-8.79806
al	-8.7988
▁25	-8.8006
▁ту	-8.80141
нского	-8.80181
ическая	-8.80194
▁именно	-8.80202
ился	-8.80272
▁объём	-8.80277
▁°	-8.80302
уш	-8.80308
▁ра	-8.80371
ска	-8.80387
▁рек	-8.80459
она	-8.80609
▁ж	-8.80734
▁октября	-8.80748
ющих	-8.80754
13	-8.80803
▁бар	-8.80857
▁будет	-8.80946
▁история	-8.80952
▁народ	-8.80996
▁%,	-8.81061
▁университет	-8.81214
рос	-8.81252
▁р	-8.8131
▁государств	-8.81578
ила	-8.81723
v	-8.81881
▁установлен	-8.81899
▁апреля	-8.81968
мест	-8.81984
lt	-8.82065
мор	-8.82215
▁мар	-8.82409
ического	-8.82467
его	-8.82479
▁значение	-8.82516
▁порт	-8.8253
▁людей	-8.82814
дель	-8.82856
▁электро	-8.82872
▁европе	-8.82939
▁момент	-8.83028
пол	-8.83094
▁имени	-8.83103
▁течение	-8.83136
▁определён	-8.83176
ar	-8.8326
▁парламент	-8.83273
альных	-8.83318
нее	-8.83424
▁завод	-8.8365
кан	-8.83668
▁мал	-8.83774
тан	-8.83778
▁%)	-8.83802
ясь	-8.83852
▁различных	-8.83943
16	-8.8396
▁метод	-8.84065
▁христиан	-8.84144
ью	-8.84715
11	-8.84754
▁многих	-8.84876
бл	-8.84973
30	-8.84976
ера	-8.85055
▁существ	-8.8509
▁основе	-8.85102
▁групп	-8.85118
▁значительно	-8.8525
▁символ	-8.85315
телей	-8.85429
▁создан	-8.85505
▁ii	-8.85541
дов	-8.85671
том	-8.857
▁первым	-8.85728
кор	-8.86034
▁тип	-8.86109
▁власть	-8.86159
▁бу	-8.86306
▁фа	-8.86366
тив	-8.86461
▁настоящее	-8.86576
▁него	-8.8675
овал	-8.86938
▁тогда	-8.87007
олог	-8.87142
слов	-8.87238
ники	-8.87382
▁пример	-8.87473
рен	-8.87476
▁команд	-8.87508
ром	-8.87552
мат	-8.87668
нг	-8.87669
▁северо	-8.87704
▁ста	-8.87776
▁трёх	-8.87871
тра	-8.87901
▁гер	-8.88143
gt	-8.88278
▁родились	-8.88421
»)	-8.88516
ана	-8.88605
уз	-8.88831
енные	-8.89169
дал	-8.89186
re	-8.89234
поль	-8.89422
▁че	-8.89648
▁используется	-8.89806
уд	-8.89807
▁две	-8.89807
ум	-8.89914
скими	-8.89926
▁наук	-8.90146
ём	-8.90177
▁ноября	-8.90215
▁основные	-8.90365
рат	-8.90533
воз	-8.90596
▁фе	-8.90715
▁кри	-8.90727
▁процесс	-8.90761
▁различ	-8.90802
_1	-8.90812
ёл	-8.90821
родившие	-8.90885
вали	-8.90959
14	-8.90982
▁анти	-8.90993
▁скончались	-8.91033
▁баз	-8.91076
▁воды	-8.91124
▁благодаря	-8.91183
▁официально	-8.91204
вать	-8.91381
▁театр	-8.9142
цией	-8.91432
▁видов	-8.91454
лит	-8.9147
рас	-8.91495
умершие	-8.91634
чёт	-8.91661
еж	-8.91702
овым	-8.91777
ик	-8.9179
▁цен	-8.91887
le	-8.91889
15	-8.91889
ились	-8.91912
▁дат	-8.91993
стру	-8.92081
▁февраля	-8.92236
▁свобод	-8.92275
▁цар	-8.92451
25	-8.92504
▁стало	-8.92527
▁дан	-8.92531
ав	-8.92644
ланд	-8.92646
лу	-8.92669
▁армии	-8.92848
иц	-8.9287
бор	-8.93134
▁слово	-8.9324
▁реки	-8.93326
▁отношения	-8.93376
▁первые	-8.9353
▁та	-8.93577
емых	-8.93615
альный	-8.93746
▁собственно	-8.93871
▁цел	-8.93879
▁хо	-8.93948
изации	-8.94023
▁рим	-8.94188
on	-8.94191
▁перевод	-8.94217
це	-8.9431
ового	-8.94511
нк	-8.94517
▁co	-8.94529
▁млрд	-8.9453
▁совета	-8.94703
▁юго	-8.95126
▁китай	-8.95237
▁свои	-8.95259
40	-8.95469
щих	-8.95473
▁движения	-8.95699
▁крас	-8.95743
▁правительства	-8.95777
кре	-8.95816
ается	-8.95897
▁ти	-8.95927
▁ру	-8.95935
кт	-8.95959
смотря	-8.96012
▁пор	-8.96025
▁полу	-8.96124
▁интерес	-8.96418
▁жив	-8.96659
вол	-8.96693
вет	-8.96893
la	-8.96927
мир	-8.97192
▁no	-8.97235
сел	-8.97394
▁происходит	-8.97594
▁правительство	-8.97611
казан	-8.97612
▁образование	-8.97687
ари	-8.97751
град	-8.97761
▁полностью	-8.97779
▁ги	-8.97826
ям	-8.97845
нер	-8.97951
α	-8.97994
ших	-8.98006
ган	-8.9808
▁каза	-8.98136
▁помощью	-8.98354
45	-8.9839
▁статус	-8.98396
▁империи	-8.98397
запад	-8.98421
▁языков	-8.98471
рь	-8.98491
▁критик	-8.98652
▁стандарт	-8.98717
▁договор	-8.98718
li	-8.98881
▁либо	-8.9895
▁ран	-8.98964
▁реш	-8.99012
сл	-8.99385
▁император	-8.994
енный	-8.99484
▁2010	-8.99487
▁влияние	-8.99571
▁сын	-8.99577
▁считал	-8.99813
▁роман	-8.99818
▁другой	-8.99827
▁друг	-8.99863
80	-9.0013
▁федерации	-9.0018
▁длин	-9.00247
ад	-9.00329
▁игр	-9.00331
лев	-9.00334
▁организации	-9.00362
▁мог	-9.00417
▁f	-9.0054
▁выс	-9.00788
▁текст	-9.00801
фер	-9.00852
▁причин	-9.00906
▁практически	-9.01006
▁александр	-9.01022
▁слов	-9.01084
▁представлен	-9.01168
▁имел	-9.01178
▁силы	-9.01306
▁партии	-9.01422
ван	-9.01549
гре	-9.0157
ях	-9.01982
▁климат	-9.02249
in	-9.02252
▁германии	-9.02274
▁атом	-9.02324
▁мнению	-9.02337
ак	-9.02363
▁ман	-9.02377
▁тех	-9.02483
альная	-9.02489
сту	-9.02567
▁просто	-9.02567
вания	-9.0271
обра	-9.02751
▁одного	-9.0291
▁возможно	-9.02914
▁новой	-9.03069
дж	-9.03083
истов	-9.03119
▁республика	-9.03299
▁компьютер	-9.0348
▁войска	-9.0357
действ	-9.03622
▁комплекс	-9.03682
▁тур	-9.03691
70	-9.0374
▁мировой	-9.03747
атель	-9.03819
чер	-9.03829
▁примерно	-9.03975
▁лес	-9.04082
▁()	-9.04122
▁пе	-9.04126
бра	-9.04179
▁церкви	-9.04189
▁там	-9.04234
кол	-9.04353
▁представляет	-9.04628
▁мед	-9.04668
▁иногда	-9.04701
вшие	-9.04838
оф	-9.0485
▁смерти	-9.04875
▁отдел	-9.04875
тели	-9.04925
»).	-9.04974
аются	-9.05008
уль	-9.05089
▁указ	-9.05169
60	-9.05244
нский	-9.05278
st	-9.05304
клад	-9.05305
пар	-9.0533
сов	-9.05388
фор	-9.05523
▁жил	-9.05571
дан	-9.05734
▁относительно	-9.05757
▁активно	-9.0593
▁мил	-9.0598
лён	-9.06306
▁счёт	-9.06334
▁государство	-9.06413
крыт	-9.06457
твор	-9.06733
▁начал	-9.06829
▁труд	-9.0685
▁2000	-9.06855
▁тот	-9.06857
▁документ	-9.06866
(	-9.06872
▁низ	-9.07095
оп	-9.07132
▁норм	-9.0714
пон	-9.0717
▁ней	-9.07251
альные	-9.0732
▁выше	-9.07359
­	-9.07393
▁генерал	-9.07447
зо	-9.07474
ард	-9.07484
сер	-9.07561
75	-9.07578
▁развива	-9.07598
▁культуры	-9.07655
лом	-9.07746
▁события	-9.07823
▁начало	-9.07844
движ	-9.07875
▁оно	-9.07907
▁тро	-9.0797
▁рук	-9.08054
▁«"	-9.0807
▁образования	-9.08146
иться	-9.08168
▁достиг	-9.08239
под	-9.08256
▁ро	-9.08367
▁колон	-9.08551
кл	-9.08612
альной	-9.08712
чные	-9.08759
▁ал	-9.08778
вл	-9.0882
▁тол	-9.08827
▁50	-9.0893
▁зон	-9.08973
▁(18	-9.09043
▁множество	-9.09044
▁этим	-9.09052
ках	-9.09121
зов	-9.09127
▁кур	-9.09142
▁большой	-9.09226
атив	-9.09272
▁одна	-9.09478
▁написан	-9.0958
исты	-9.09726
▁21	-9.09802
▁себе	-9.09872
▁рыб	-9.09985
цов	-9.10133
▁син	-9.10209
▁100	-9.10213
например	-9.10245
ший	-9.10262
▁решение	-9.10426
▁назван	-9.10428
▁сильно	-9.10469
▁принял	-9.10504
18	-9.10513
ro	-9.1053
лон	-9.10569
▁известно	-9.10575
▁чего	-9.10664
ологии	-9.10701
▁своё	-9.10742
куп	-9.10752
▁m	-9.10943
▁ло	-9.10998
пт	-9.11003
▁пост	-9.11016
пят	-9.1102
▁материал	-9.11065
лиз	-9.11074
▁деятельности	-9.11075
▁радио	-9.11085
ович	-9.11134
пор	-9.11201
▁работ	-9.11239
кры	-9.11368
▁поля	-9.11449
яз	-9.11483
▁систем	-9.11527
гра	-9.11831
ющей	-9.11866
▁связан	-9.1196
▁матери	-9.12004
▁состоит	-9.12076
▁фильм	-9.12187
▁эр	-9.12259
▁очередь	-9.12261
▁p	-9.12267
▁волн	-9.12282
▁нет	-9.12342
▁образован	-9.12377
▁союза	-9.12426
σ	-9.12446
);	-9.12501
нут	-9.12529
▁деятельность	-9.12722
▁владимир	-9.12724
▁направлен	-9.12767
▁принят	-9.12851
лага	-9.1294
ируется	-9.12941
▁составил	-9.13031
▁ак	-9.1309
▁самым	-9.13163
един	-9.13254
▁земле	-9.13312
дар	-9.1338
сен	-9.13411
ева	-9.13429
▁школ	-9.13483
ено	-9.13543
▁теле	-9.13667
▁противо	-9.1373
▁мало	-9.13841
▁исследования	-9.13883
▁работа	-9.14131
инг	-9.14236
ост	-9.14322
▁область	-9.14513
овая	-9.1452
▁сторон	-9.1469
каз	-9.14734
te	-9.1484
ющая	-9.14896
ило	-9.14937
▁памятник	-9.15184
▁лиц	-9.15195
▁24	-9.152
▁крестьян	-9.15359
рица	-9.15364
овать	-9.15437
▁22	-9.15569
▁миф	-9.15585
▁ходе	-9.15618
▁действия	-9.15648
гн	-9.15748
▁бал	-9.1582
ват	-9.15854
зу	-9.15872
луж	-9.15878
ря	-9.15922
▁остров	-9.15942
▁институт	-9.1611
▁рост	-9.16123
▁постоянно	-9.1622
ющий	-9.16273
стью	-9.16415
▁час	-9.16682
ическом	-9.16689
▁занимает	-9.16743
▁вес	-9.16748
▁член	-9.16807
▁ново	-9.1684
▁предмет	-9.1685
емые	-9.17136
▁масс	-9.17149
▁дорог	-9.1716
▁мин	-9.172
стор	-9.172
▁историк	-9.17202
▁впоследствии	-9.1723
сон	-9.17359
▁разных	-9.17469
охран	-9.17477
▁возможность	-9.17492
▁городов	-9.17587
32	-9.17617
▁побед	-9.17797
▁23	-9.1793
▁актив	-9.17978
▁(20	-9.18068
▁государственной	-9.18174
17	-9.18208
▁жизнь	-9.18257
ющего	-9.18274
▁бог	-9.18287
48	-9.18302
мент	-9.1832
ально	-9.18339
w	-9.18454
▁марк	-9.18544
▁аль	-9.18597
▁2008	-9.18779
▁храм	-9.18848
вая	-9.18853
▁дела	-9.18992
ющим	-9.1901
▁всей	-9.19032
▁мер	-9.19074
нят	-9.19098
▁0	-9.191
ирования	-9.19161
ита	-9.19203
▁северной	-9.19226
ул	-9.19252
▁войск	-9.19258
ителей	-9.19306
▁военно	-9.19375
▁месяц	-9.19396
ra	-9.19555
кар	-9.19641
▁типа	-9.19775
кур	-9.19782
▁цвет	-9.19836
строй	-9.19858
илась	-9.19896
▁президента	-9.19937
85	-9.19966
▁2011	-9.19971
▁точки	-9.2011
▁экс	-9.20187
▁жителей	-9.20256
вается	-9.20272
▁пара	-9.20278
▁электрон	-9.20381
▁считается	-9.20405
либо	-9.20455
▁флаг	-9.2054
▁опер	-9.20545
▁научно	-9.2055
]	-9.20619
вой	-9.2064
▁круг	-9.20717
ti	-9.20735
▁рассматрива	-9.2086
эт	-9.21031
▁европы	-9.21049
ическим	-9.21204
▁собор	-9.21235
▁территория	-9.21243
▁доступ	-9.21276
стве	-9.21575
лия	-9.21661
▁дома	-9.21684
рез	-9.21714
▁площади	-9.21852
енного	-9.21852
▁вариант	-9.21852
коп	-9.21976
▁линии	-9.21983
▁раствор	-9.21998
кси	-9.22008
бит	-9.22026
эн	-9.22048
▁обще	-9.22166
▁лит	-9.22287
▁философии	-9.223
▁ранее	-9.22307
▁значения	-9.22335
▁пу	-9.22429
▁оп	-9.22525
90	-9.22607
▁би	-9.2266
▁школы	-9.22698
br	-9.22736
точ	-9.22776
сси	-9.22799
▁равно	-9.22901
ch	-9.22927
▁функции	-9.22976
город	-9.23016
▁задач	-9.23081
▁тер	-9.23087
▁b	-9.23149
мар	-9.23172
клон	-9.23194
▁называется	-9.23216
▁ну	-9.23225
▁код	-9.23256
▁первая	-9.23307
65	-9.23322
▁новый	-9.23351
метр	-9.23361
мон	-9.23447
так	-9.23488
»),	-9.23503
шёл	-9.23512
▁ген	-9.2366
цами	-9.23722
▁гол	-9.23768
▁режим	-9.23806
▁участие	-9.23807
рок	-9.23941
еш	-9.23956
▁применя	-9.23971
▁испан	-9.24043
▁2017	-9.24138
форм	-9.24141
▁нём	-9.24196
▁зрения	-9.2422
▁позже	-9.2422
ели	-9.24255
чин	-9.24407
▁ри	-9.24422
▁другими	-9.24455
▁мон	-9.24547
▁кино	-9.24598
▁ц	-9.24628
ится	-9.2464
▁срок	-9.24648
ν	-9.2474
▁древне	-9.24968
27	-9.25175
▁един	-9.25211
▁ду	-9.2522
▁уровень	-9.25265
us	-9.25291
▁составе	-9.25316
ическую	-9.25333
▁мы	-9.25367
="6	-9.25388
▁%.	-9.25424
ология	-9.2559
▁дом	-9.25669
нской	-9.25767
▁тай	-9.25782
гар	-9.2588
24	-9.25887
dice	-9.25913
▁объясн	-9.26102
▁управления	-9.26111
▁бор	-9.26113
▁украины	-9.2612
95	-9.26121
▁двор	-9.26129
▁птиц	-9.26136
▁достаточно	-9.26216
▁евро	-9.26301
▁степени	-9.26323
ниж	-9.26359
лег	-9.26392
пут	-9.26425
▁рамках	-9.26541
▁состоянию	-9.26642
▁полно	-9.26643
рожд	-9.26669
иков	-9.26677
▁a	-9.26712
фик	-9.26723
▁движение	-9.26759
▁большое	-9.26855
▁отличие	-9.26855
▁аппарат	-9.26962
28	-9.27022
стер	-9.27072
is	-9.27084
▁различные	-9.27085
▁журнал	-9.27108
▁женщин	-9.27207
▁став	-9.2722
▁2020	-9.2733
21	-9.27386
▁данных	-9.27571
полн	-9.27649
государственного	-9.27673
33	-9.27677
▁лев	-9.2768
▁аб	-9.27699
▁+	-9.27704
чная	-9.27758
▁киев	-9.27799
▁назначен	-9.27864
▁права	-9.27916
▁меньше	-9.2794
▁десят	-9.27962
na	-9.27963
▁2009	-9.27963
▁ответ	-9.28006
ёв	-9.28053
▁нового	-9.2813
вели	-9.28142
▁положение	-9.2816
▁одновременно	-9.28364
▁использовал	-9.28366
▁1991	-9.28488
▁поле	-9.28522
ическое	-9.28688
▁строительство	-9.28691
ирование	-9.28738
▁названия	-9.2883
енной	-9.28952
▁системе	-9.29017
зем	-9.29112
▁исход	-9.29115
▁главным	-9.29165
ож	-9.29177
ион	-9.29182
▁средств	-9.29187
▁температура	-9.29224
“	-9.29235
▁следует	-9.29241
▁структур	-9.29249
рк	-9.29321
ирует	-9.29339
▁свой	-9.29374
▁проч	-9.29431
▁26	-9.29457
▁наблюд	-9.29479
фр	-9.29482
▁занят	-9.29527
49	-9.29594
▁карл	-9.29608
99	-9.29656
▁уровня	-9.29784
▁2018	-9.29812
▁букв	-9.29857
▁общества	-9.29933
▁лу	-9.30065
▁площадь	-9.30086
▁му	-9.3014
язы	-9.30243
▁2007	-9.30262
▁треть	-9.30281
▁провод	-9.30337
▁новых	-9.30407
=6	-9.30466
▁франции	-9.3051
▁машин	-9.30529
▁промышленности	-9.3059
43	-9.30605
двига	-9.30657
▁месте	-9.30764
▁океан	-9.30827
▁часов	-9.30906
▁ад	-9.30967
ять	-9.31075
▁страна	-9.31077
▁бога	-9.3115
чик	-9.31163
01	-9.31245
▁герман	-9.31269
ацию	-9.31331
▁духов	-9.3137
36	-9.31431
▁нескольких	-9.31449
шен	-9.3149
▁проблем	-9.3151
86	-9.31554
▁веществ	-9.31601
▁правило	-9.3168
эр	-9.3172
▁имя	-9.31783
▁теория	-9.31785
крат	-9.31796
▁брат	-9.31809
ющее	-9.31845
петербург	-9.31897
нс	-9.31941
▁27	-9.31948
▁писал	-9.31992
▁полёт	-9.31998
▁век	-9.32032
▁странах	-9.32058
яет	-9.32084
▁истин	-9.32095
▁первого	-9.32115
кла	-9.3217
ндр	-9.32189
рак	-9.32214
над	-9.32245
▁пути	-9.3227
кова	-9.32289
▁округ	-9.32294
стат	-9.32359
ителя	-9.32378
ностью	-9.32381
лед	-9.32418
▁называем	-9.32469
▁поэт	-9.32475
▁западной	-9.32572
▁содержа	-9.32588
▁iii	-9.32638
▁признан	-9.32687
▁ним	-9.32689
▁тонн	-9.32707
ri	-9.32719
▁продукт	-9.32751
ток	-9.32811
▁умер	-9.32822
▁2014	-9.32835
щие	-9.33032
▁экспорт	-9.33149
▁парк	-9.33218
льд	-9.33218
стями	-9.33236
▁основных	-9.3326
—20	-9.3332
центр	-9.33399
37	-9.33475
доль	-9.33568
гель	-9.33592
▁существуют	-9.33599
леч	-9.33631
34	-9.33644
св	-9.33652
ины	-9.33671
▁южной	-9.33685
▁поезд	-9.33846
▁группа	-9.33854
▁всегда	-9.33942
▁свойства	-9.33983
крас	-9.34004
42	-9.34009
41	-9.34011
альным	-9.34064
▁формы	-9.34119
▁2019	-9.34167
▁атмосфер	-9.34172
es	-9.34272
▁тому	-9.34311
▁русского	-9.34378
▁конца	-9.34391
▁швед	-9.34433
▁2012	-9.34444
96	-9.34484
▁благо	-9.34485
▁штат	-9.34547
▁мол	-9.34657
▁целью	-9.34719
▁целом	-9.34739
▁40	-9.34755
пан	-9.34969
тал	-9.3497
▁чу	-9.35017
лли	-9.35073
ата	-9.35074
теля	-9.35093
▁включая	-9.35208
▁явля	-9.35266
▁опыт	-9.35342
▁занимал	-9.35373
▁мост	-9.35446
▁„	-9.3546
▁28	-9.35585
▁программы	-9.3562
нц	-9.35655
пат	-9.35769
▁тела	-9.35775
26	-9.35787
цк	-9.35827
▁2013	-9.35834
▁тра	-9.35842
▁рос	-9.35883
пра	-9.36068
▁островов	-9.36183
▁g	-9.36186
▁"«	-9.36187
▁округа	-9.36203
▁которым	-9.36209
▁такой	-9.36249
жения	-9.36292
онов	-9.36384
▁внутри	-9.36385
▁помимо	-9.36386
дон	-9.36425
▁формул	-9.36445
▁след	-9.36534
▁искусств	-9.36551
▁вывод	-9.36626
▁изменения	-9.36632
38	-9.36647
▁науки	-9.36651
лан	-9.3671
▁пан	-9.36784
78	-9.3687
▁сталин	-9.36925
▁величин	-9.36973
гер	-9.36974
вшихся	-9.37185
▁современной	-9.37326
няя	-9.37344
дор	-9.37346
▁регион	-9.37367
39	-9.37376
ального	-9.37378
телем	-9.37452
вор	-9.37504
▁черт	-9.37598
▁позднее	-9.37683
▁авто	-9.37761
▁подход	-9.3777
▁xviii	-9.37828
▁общей	-9.37848
▁новые	-9.37963
▁называют	-9.38033
08	-9.38161
▁ограничен	-9.3819
="4	-9.38194
▁газ	-9.38245
▁быстро	-9.38246
производ	-9.38338
▁государственный	-9.38543
грамм	-9.38559
щит	-9.38574
▁практик	-9.38641
кал	-9.38715
▁гидро	-9.38724
▁эн	-9.38837
▁россия	-9.38889
▁частью	-9.38892
союз	-9.38896
евич	-9.38934
▁районе	-9.39062
▁дней	-9.39063
лем	-9.39077
шие	-9.39077
изация	-9.39103
▁москве	-9.39123
год	-9.39144
кам	-9.39249
44	-9.39296
▁точно	-9.39409
▁район	-9.39473
▁ша	-9.39539
▁русской	-9.39585
64	-9.39589
▁санкт	-9.39621
▁известны	-9.39635
▁тан	-9.39732
пс	-9.39774
▁француз	-9.39786
▁стан	-9.40062
97	-9.40066
эк	-9.40079
▁ниже	-9.40108
ο	-9.40145
▁обо	-9.40218
▁высоко	-9.40288
▁аэропорт	-9.40338
▁чисел	-9.4034
шей	-9.40347
бин	-9.40371
▁карт	-9.40412
▁которую	-9.40461
▁книги	-9.4047
▁значительн	-9.40598
▁знак	-9.40695
22	-9.40715
47	-9.40739
▁используются	-9.40807
09	-9.40866
ывает	-9.40888
тро	-9.40942
жал	-9.40973
шего	-9.4102
▁этому	-9.41047
55	-9.41234
▁сан	-9.4124
▁стол	-9.41242
j	-9.41249
гр	-9.41329
▁лидер	-9.41366
▁це	-9.41372
me	-9.41438
▁информации	-9.41446
="5	-9.41471
вших	-9.41502
▁реформ	-9.41539
овый	-9.4157
▁численность	-9.41573
тек	-9.41601
нская	-9.41601
дава	-9.41711
▁29	-9.41717
▁единиц	-9.41749
▁музей	-9.41942
▁голов	-9.41967
ования	-9.42007
▁вокруг	-9.42066
▁исторически	-9.42089
▁первое	-9.42125
▁избран	-9.4222
▁вероятно	-9.42228
▁церковь	-9.42315
▁своим	-9.42406
вший	-9.42423
72	-9.4243
▁мета	-9.42435
▁пункт	-9.42441
▁упомина	-9.42496
▁премьер	-9.42565
▁революции	-9.42566
▁основной	-9.42569
▁2016	-9.42605
вел	-9.42624
▁латин	-9.42633
▁должен	-9.42691
▁производства	-9.42817
▁прямо	-9.42818
син	-9.42873
98	-9.43029
▁первых	-9.43068
04	-9.43127
▁глав	-9.43151
lo	-9.43153
▁зависимости	-9.43198
ющихся	-9.43206
▁систему	-9.43285
▁последние	-9.43319
▁восток	-9.43365
щён	-9.43389
ительно	-9.43447
▁условиях	-9.43459
▁герб	-9.43479
гл	-9.43554
▁d	-9.43585
▁каждый	-9.4369
29	-9.43733
▁молод	-9.43739
un	-9.4376
▁свят	-9.43822
35	-9.43825
▁куб	-9.4384
▁потреб	-9.43923
енно	-9.43941
▁уз	-9.43969
готов	-9.44056
▁позволяет	-9.44077
▁2015	-9.44116
▁жел	-9.44121
vi	-9.44145
▁административно	-9.44204
▁меня	-9.44205
пал	-9.44325
▁объект	-9.44374
щая	-9.4439
▁понятие	-9.44464
▁банк	-9.44579
▁обе	-9.44608
▁дня	-9.44618
ике	-9.44618
46	-9.44639
76	-9.44673
▁детей	-9.44722
▁помощи	-9.44842
▁курс	-9.44897
▁находятся	-9.44971
▁2006	-9.45007
▁война	-9.45013
тора	-9.45014
▁произведения	-9.45033
▁чел	-9.45087
мед	-9.45094
▁сохраня	-9.45166
▁[	-9.45215
▁бур	-9.45292
орож	-9.4534
▁работал	-9.45347
▁должны	-9.45355
ниц	-9.45396
▁товар	-9.45413
▁четыре	-9.45484
дом	-9.45595
яется	-9.45602
вшим	-9.45649
вшего	-9.45653
▁(),	-9.45695
▁иван	-9.45844
реб	-9.45867
▁первую	-9.45871
вшей	-9.45892
▁платон	-9.45927
ски	-9.46011
кая	-9.46063
68	-9.46127
▁маршрут	-9.46389
▁восточной	-9.46392
▁работу	-9.46396
—18	-9.46402
дв	-9.46672
▁60	-9.46756
82	-9.46772
▁кра	-9.46828
▁относятся	-9.46843
сибирск	-9.46901
▁использование	-9.46953
▁акт	-9.46955
▁000	-9.46974
▁крупных	-9.47089
▁начиная	-9.47164
енная	-9.47174
▁рез	-9.47203
поли	-9.47262
03	-9.47297
▁канал	-9.47312
▁().	-9.47318
▁вскоре	-9.47333
▁специальн	-9.47342
▁лично	-9.47393
▁долларов	-9.47466
▁одном	-9.47493
ывают	-9.47502
▁зем	-9.47561
▁огромн	-9.47569
▁света	-9.47585
шест	-9.47597
23	-9.476
▁выражен	-9.47674
87	-9.47677
▁середине	-9.47698
пере	-9.47706
7"	-9.47719
▁архитектур	-9.47768
54	-9.47792
▁советского	-9.47858
▁сто	-9.47952
▁соответствии	-9.47961
ником	-9.47964
▁станции	-9.47998
▁2005	-9.47999
▁интер	-9.4805
▁языки	-9.48068
▁решения	-9.48086
ора	-9.48135
▁земля	-9.4817
▁сбор	-9.48205
▁чувств	-9.48208
▁пользова	-9.48433
▁поверхности	-9.48491
91	-9.48491
92	-9.48494
1"	-9.48498
рес	-9.48498
▁плат	-9.48503
глу	-9.48575
69	-9.48664
нем	-9.4872
пп	-9.48776
▁ислам	-9.48783
▁бе	-9.48806
▁восточно	-9.48857
▁потом	-9.48878
еля	-9.48896
▁земель	-9.48922
▁the	-9.48925
шин	-9.49006
84	-9.49015
▁версии	-9.49025
▁вместо	-9.49055
▁славян	-9.49095
▁v	-9.49157
=5	-9.49187
▁рис	-9.49187
▁самого	-9.49369
▁постепенно	-9.49424
67	-9.49438
3"	-9.49519
кин	-9.49556
▁основа	-9.4956
▁становится	-9.49692
71	-9.49698
74	-9.49704
▁искусства	-9.49806
63	-9.49907
жу	-9.49987
▁приводит	-9.50119
▁мере	-9.50147
тре	-9.50176
суд	-9.50398
▁свойств	-9.50422
▁предполага	-9.50432
▁(1	-9.50446
▁ввп	-9.50643
чки	-9.50749
боль	-9.50783
66	-9.50821
at	-9.50933
▁париж	-9.50934
2"	-9.5097
▁крайне	-9.5112
ограф	-9.51127
шим	-9.51129
▁золото	-9.51159
▁восстановлен	-9.51181
▁особо	-9.51242
▁элементов	-9.51263
»"	-9.51282
вест	-9.51298
▁качеств	-9.51329
▁пространства	-9.51345
▁главе	-9.51404
нди	-9.51453
▁фон	-9.51481
▁маг	-9.51547
▁путём	-9.51591
6"	-9.51626
▁эксперимент	-9.51668
▁божеств	-9.51731
89	-9.51736
79	-9.51749
▁факт	-9.51793
▁рус	-9.51852
▁соответственно	-9.51865
ень	-9.51914
кий	-9.51923
илось	-9.52011
▁уровне	-9.5204
ma	-9.52045
▁2004	-9.52051
▁мел	-9.52071
62	-9.52074
▁мощ	-9.52154
▁люди	-9.52277
чного	-9.5231
▁составляют	-9.52417
▁партий	-9.52424
ида	-9.5248
▁зе	-9.52508
хан	-9.52525
▁ши	-9.5257
▁меж	-9.52579
▁включает	-9.52582
▁труда	-9.52626
77	-9.52694
ьер	-9.52715
▁традиционн	-9.52732
▁фи	-9.52745
el	-9.52745
▁яв	-9.52751
шни	-9.5277
▁использовать	-9.52809
▁исключ	-9.5282
▁конституции	-9.5283
лист	-9.52998
▁ум	-9.53144
лё	-9.53147
бол	-9.53225
▁микро	-9.53252
5"	-9.53292
бег	-9.53328
химическ	-9.53329
рик	-9.53344
▁стен	-9.53448
▁прежде	-9.53518
▁первоначально	-9.53526
▁интернет	-9.53533
▁долго	-9.53536
нцев	-9.53576
▁своём	-9.53607
▁центра	-9.53608
73	-9.5362
▁древ	-9.53733
начал	-9.53883
вшиеся	-9.53905
▁куп	-9.54059
▁большая	-9.54089
88	-9.54198
▁пр	-9.54289
▁осуществля	-9.54289
лок	-9.54355
▁относится	-9.54367
▁непосредственно	-9.54393
▁бен	-9.54425
▁русский	-9.54462
▁животных	-9.54507
▁эту	-9.54573
▁транс	-9.5461
81	-9.54612
▁хи	-9.54619
енную	-9.54642
▁получен	-9.54664
nd	-9.54667
чит	-9.54673
▁принято	-9.54681
▁последующ	-9.54706
93	-9.54778
05	-9.548
ближ	-9.54858
нные	-9.54874
▁городской	-9.54908
▁n	-9.54912
овский	-9.54917
▁вновь	-9.54955
ством	-9.54988
▁утвержден	-9.54997
▁рассказ	-9.55123
▁выбор	-9.55139
вшая	-9.55149
временн	-9.55195
ование	-9.55232
▁фин	-9.55314
▁азии	-9.55376
▁производство	-9.55411
сла	-9.55431
лер	-9.55549
▁окруж	-9.55552
▁результат	-9.5557
цу	-9.55574
▁поиск	-9.55585
it	-9.55593
▁ярослав	-9.55641
знание	-9.55666
▁рей	-9.5579
▁периода	-9.55809
4"	-9.56021
▁ок	-9.56031
▁юг	-9.56033
▁солнца	-9.5607
▁подверг	-9.56077
ε	-9.56207
▁университета	-9.56227
9"	-9.56231
se	-9.56287
лес	-9.56306
▁сохрани	-9.56432
▁муж	-9.56498
ставлен	-9.56518
83	-9.56547
▁температур	-9.5657
▁центром	-9.56632
▁опубликован	-9.56644
строитель	-9.56686
▁частиц	-9.56808
to	-9.56848
▁избира	-9.56876
ница	-9.56962
▁2021	-9.56964
рис	-9.57
▁h	-9.57004
8"	-9.57011
▁перемен	-9.57019
бель	-9.57077
бург	-9.57084
▁продолжа	-9.57094
_2	-9.5715
56	-9.57157
ину	-9.5717
▁ст	-9.57174
▁средства	-9.57187
▁участник	-9.57222
вались	-9.57244
▁русских	-9.573
▁форма	-9.57325
▁энергии	-9.57367
▁вед	-9.57375
нев	-9.57383
▁указан	-9.57401
▁дал	-9.57438
дент	-9.57496
ику	-9.57505
▁суб	-9.57509
ρ	-9.57512
▁субъект	-9.57512
▁диалект	-9.57512
▁характеристик	-9.57514
тики	-9.57585
чный	-9.57723
▁звук	-9.57726
▁создания	-9.57783
ически	-9.57808
▁отряд	-9.57816
шев	-9.57853
▁занял	-9.57871
▁ев	-9.57888
тика	-9.5791
▁запас	-9.5793
ура	-9.57948
▁экономики	-9.57995
министра	-9.5803
▁фактически	-9.58178
▁финансов	-9.58224
возможны	-9.58243
▁цифр	-9.58275
61	-9.58287
▁вида	-9.58293
▁выдел	-9.58305
▁арабск	-9.58348
▁тре	-9.58357
▁коп	-9.58362
ьев	-9.58407
▁модели	-9.5841
▁водо	-9.58415
▁советской	-9.58427
▁петра	-9.58443
зр	-9.58474
основ	-9.58514
▁четырёх	-9.58534
▁мужчин	-9.58547
▁дороги	-9.58569
▁направления	-9.58572
дет	-9.58607
▁конфликт	-9.58681
▁сократ	-9.587
▁пап	-9.58713
▁выполня	-9.58746
коль	-9.58746
рова	-9.5878
▁античн	-9.58796
▁района	-9.58817
вёл	-9.58818
▁компании	-9.58828
▁кров	-9.58869
▁вене	-9.58872
):	-9.58882
логи	-9.58903
▁блок	-9.58924
▁честь	-9.58985
="3	-9.58999
ta	-9.5901
▁связь	-9.59024
▁анализ	-9.59029
▁1920	-9.59031
ало	-9.59046
зия	-9.59075
▁обнаружен	-9.59122
▁данные	-9.59153
▁1917	-9.59153
▁художник	-9.5927
▁кос	-9.59289
ia	-9.59295
▁планет	-9.59308
емой	-9.59325
▁комп	-9.59361
жан	-9.59364
казать	-9.59385
▁рсфср	-9.59418
меня	-9.59418
▁континент	-9.59447
нием	-9.5947
▁пользу	-9.59568
эс	-9.59608
фф	-9.59654
▁пока	-9.59657
▁см	-9.59716
▁роди	-9.59742
▁выда	-9.59751
фо	-9.59801
▁стра	-9.59827
▁&	-9.59916
ённых	-9.59918
▁центральной	-9.59961
▁должно	-9.59974
▁возможности	-9.59977
▁множеств	-9.60028
▁e	-9.60051
ce	-9.6007
▁жанр	-9.60076
оло	-9.60079
ходит	-9.60129
▁причём	-9.60162
▁посту	-9.60247
▁океана	-9.60257
ьных	-9.60288
▁оператор	-9.60318
▁управление	-9.60323
▁самой	-9.60334
▁сум	-9.60341
▁оон	-9.60396
бан	-9.60399
▁внимание	-9.60461
▁готов	-9.60484
нт	-9.60567
енное	-9.60574
енным	-9.60598
ваться	-9.60599
▁кан	-9.60604
▁региона	-9.60637
пит	-9.60693
▁удалось	-9.60761
▁содержит	-9.60761
▁книг	-9.60782
ющиеся	-9.60787
52	-9.60888
▁другим	-9.60909
▁отношении	-9.6091
▁границы	-9.60927
▁xvii	-9.61006
▁которому	-9.61017
02	-9.61017
▁севере	-9.61028
▁пяти	-9.6105
▁физически	-9.61149
▁доход	-9.61161
ведения	-9.61178
яр	-9.61205
▁кто	-9.61229
▁силу	-9.61255
дина	-9.61299
юр	-9.61323
0"	-9.61388
▁рода	-9.61425
рей	-9.61496
▁создание	-9.61505
▁великобритании	-9.61512
▁ряда	-9.61523
▁правительств	-9.61684
министр	-9.61718
кр	-9.6184
▁социал	-9.61857
▁соверш	-9.61872
▁инструмент	-9.61967
▁мод	-9.62023
▁ленин	-9.62031
▁установ	-9.62033
▁следующие	-9.62042
▁бра	-9.62051
фон	-9.62073
▁кандидат	-9.62119
▁будуще	-9.62119
▁нью	-9.62121
медицинск	-9.62121
▁вели	-9.62206
▁лондон	-9.62272
сом	-9.62334
▁прожива	-9.62364
▁москвы	-9.62424
▁казахстан	-9.62424
▁усили	-9.62516
▁идеи	-9.62534
94	-9.62592
ter	-9.62683
шу	-9.62714
▁успех	-9.62729
07	-9.6273
▁разно	-9.62827
▁языках	-9.62918
торгов	-9.62978
ι	-9.63029
2,	-9.63032
емого	-9.63056
▁резко	-9.6309
▁ошиб	-9.63135
▁украинск	-9.63162
▁алфавит	-9.63189
▁мысли	-9.63264
▁производств	-9.63331
▁взаимо	-9.63344
53	-9.6342
51	-9.63766
▁использования	-9.63772
▁сегодня	-9.63806
аться	-9.63807
занима	-9.63924
▁красно	-9.6393
▁коммун	-9.63961
58	-9.64016
сил	-9.6402
▁преимущественно	-9.64045
ведение	-9.6405
▁гг	-9.64079
th	-9.64095
▁приказ	-9.64279
▁юге	-9.64324
as	-9.64326
что	-9.64331
емый	-9.64352
▁голосов	-9.64353
▁1990	-9.64498
▁начали	-9.64734
▁времен	-9.64759
▁определя	-9.64763
▁крупные	-9.6478
=3	-9.6485
▁общая	-9.64866
▁михаил	-9.64895
▁новая	-9.649
▁далее	-9.64916
▁суда	-9.64921
эм	-9.64951
▁склон	-9.65013
▁мак	-9.6502
▁этап	-9.65038
▁объектов	-9.65051
оров	-9.65073
чу	-9.65141
▁необходимо	-9.65146
▁развит	-9.65196
▁получили	-9.6523
▁членов	-9.65254
скор	-9.65288
▁веков	-9.65405
множ	-9.65486
▁каз	-9.65506
am	-9.65532
ируют	-9.65545
▁класса	-9.65571
▁получила	-9.65642
▁двумя	-9.65681
-1	-9.65702
▁ху	-9.65758
▁автобус	-9.65838
▁западно	-9.65856
чества	-9.65966
рош	-9.65992
▁понятия	-9.65997
▁удар	-9.66017
▁хор	-9.66062
▁палат	-9.66067
▁социально	-9.66068
▁миллионов	-9.66154
▁случай	-9.66154
очно	-9.66213
▁неё	-9.6623
▁пояс	-9.66284
кос	-9.66299
▁почв	-9.66316
берг	-9.66337
▁виды	-9.66341
пы	-9.66458
▁появились	-9.66471
▁псков	-9.66492
▁берлин	-9.6658
▁объявлен	-9.6663
▁разум	-9.66641
▁места	-9.66643
▁2022	-9.6666
59	-9.66747
▁кал	-9.66747
▁депутатов	-9.66902
тик	-9.66962
▁хорошо	-9.66991
рё	-9.67025
национал	-9.67062
▁недо	-9.67075
мес	-9.67104
▁религии	-9.67108
▁гос	-9.6713
▁бед	-9.67256
▁новгород	-9.67271
беж	-9.67292
▁южно	-9.67372
▁дело	-9.67392
▁русском	-9.67421
▁монарх	-9.67438
бил	-9.67464
лек	-9.67472
▁татар	-9.67476
брос	-9.67507
бал	-9.67529
▁расп	-9.67593
▁дни	-9.67646
▁руси	-9.67652
▁сети	-9.67729
▁состояния	-9.6775
шем	-9.67787
▁инженер	-9.67789
▁действие	-9.67817
а́	-9.67905
▁состояние	-9.67911
▁школа	-9.67913
▁80	-9.67919
лл	-9.67925
▁диск	-9.67935
вшийся	-9.68009
мана	-9.68018
31	-9.6804
▁условия	-9.68054
▁фото	-9.68059
▁некоторо	-9.68073
изирован	-9.68221
▁армян	-9.68235
▁природы	-9.68242
▁31	-9.68352
da	-9.68384
▁1918	-9.68432
▁эффект	-9.68492
▁разработан	-9.68558
овского	-9.68637
▁электр	-9.68655
▁почт	-9.68659
so	-9.68662
▁потому	-9.68674
▁означает	-9.6872
▁солдат	-9.6872
▁глубин	-9.6872
▁половине	-9.68721
▁партия	-9.68739
▁пра	-9.68751
▁фра	-9.68775
▁издан	-9.68828
▁отмен	-9.68846
▁полос	-9.68846
пуска	-9.68863
▁княжеств	-9.68894
▁фактор	-9.68933
дин	-9.68983
ющими	-9.6904
▁средняя	-9.69046
▁70	-9.69112
▁увеличи	-9.69142
▁дис	-9.69157
▁человеч	-9.69214
▁глаз	-9.69246
▁работе	-9.69314
▁повышен	-9.69358
de	-9.69371
▁безопасности	-9.69372
▁кризис	-9.69373
кус	-9.69426
белорус	-9.69501
зол	-9.69628
▁джон	-9.69671
тин	-9.69712
▁президентом	-9.69722
▁газет	-9.69739
бира	-9.69764
ицы	-9.69775
▁газа	-9.69831
нюю	-9.69848
лекс	-9.69917
▁выступ	-9.69922
▁сообщ	-9.69929
▁городского	-9.69977
▁прес	-9.69991
▁xvi	-9.70022
▁клуб	-9.7004
▁определен	-9.7012
▁кислот	-9.70132
▁современных	-9.70193
=1	-9.70215
▁создал	-9.70241
▁представления	-9.70281
="7	-9.70282
▁географическ	-9.70293
▁форме	-9.70331
▁ес	-9.70397
▁граф	-9.70418
▁обществе	-9.70437
▁острове	-9.7047
кие	-9.70506
альное	-9.70529
рин	-9.70539
▁руб	-9.70553
бел	-9.70588
▁открыл	-9.70648
▁корпус	-9.70691
бат	-9.70789
ацией	-9.70799
украин	-9.70823
▁погиб	-9.70844
▁цк	-9.70961
▁дух	-9.70974
▁яр	-9.71049
▁средне	-9.71118
▁распространение	-9.71191
тся	-9.71201
ающих	-9.71215
гран	-9.71234
нат	-9.71363
▁пла	-9.71464
бар	-9.71468
▁смысл	-9.71487
▁кост	-9.71564
▁общего	-9.71587
овое	-9.71622
▁май	-9.71661
▁ант	-9.71671
▁азербайджан	-9.71688
▁твёрд	-9.71688
▁управля	-9.71697
▁министров	-9.717
рев	-9.71761
ятся	-9.71787
il	-9.7182
▁1000	-9.71821
американ	-9.71842
▁традиции	-9.71856
▁имеется	-9.71951
▁спас	-9.71968
▁x	-9.72039
пуля	-9.72064
вшись	-9.72068
фу	-9.72111
▁конечно	-9.72114
иан	-9.72116
▁находи	-9.72121
арх	-9.72154
▁пять	-9.72182
▁конкрет	-9.72194
ic	-9.72201
si	-9.72213
▁учебн	-9.72219
▁богат	-9.72234
плат	-9.72269
▁равнин	-9.72361
▁необходим	-9.72391
").	-9.72397
альную	-9.72419
▁распространён	-9.72484
▁тепло	-9.72543
▁t	-9.72629
▁иванов	-9.72696
▁учение	-9.72752
▁андре	-9.7277
▁продолжительно	-9.72867
▁наличие	-9.72867
вес	-9.72874
co	-9.72902
°	-9.72972
▁войне	-9.73013
06	-9.73091
▁ученик	-9.73102
шая	-9.73159
сад	-9.73196
▁мусульман	-9.73206
▁200	-9.73314
▁взят	-9.73334
пир	-9.73374
▁средневеков	-9.73376
сек	-9.7342
τ	-9.7352
▁предприятия	-9.73546
▁лёгк	-9.73546
▁действует	-9.73546
топ	-9.73589
хар	-9.73624
техник	-9.73698
импер	-9.73709
мыш	-9.73711
▁услуг	-9.73717
▁нефти	-9.7372
▁национально	-9.73742
пресс	-9.73872
▁меха	-9.73889
▁близ	-9.73896
▁компания	-9.73908
▁квантов	-9.73931
▁сеть	-9.73945
сь	-9.73979
бон	-9.73987
▁перевоз	-9.74055
▁популярны	-9.74059
▁названием	-9.74245
плоть	-9.74373
▁публи	-9.74472
um	-9.74479
▁входит	-9.74531
▁вещества	-9.74548
▁фигур	-9.74581
▁расход	-9.74584
▁шар	-9.74585
▁экономика	-9.74638
▁промышленность	-9.74654
▁протяжении	-9.74747
▁список	-9.7475
▁италии	-9.74751
▁действующ	-9.74752
рог	-9.74756
сия	-9.74809
▁фаз	-9.74815
▁правления	-9.7482
селен	-9.74854
▁закона	-9.74903
▁важнейш	-9.7492
▁государственных	-9.74967
▁применение	-9.75059
▁цикл	-9.75074
▁америка	-9.75075
▁сезон	-9.75107
▁отдельных	-9.75109
▁всю	-9.7512
рт	-9.75336
▁астроном	-9.75397
▁шу	-9.75399
▁японии	-9.7544
▁политика	-9.75462
никами	-9.75464
▁1992	-9.75466
▁2003	-9.75508
▁соответствующи	-9.75527
▁традиционно	-9.75563
▁ядер	-9.75654
́н	-9.75662
▁отлича	-9.75678
ске	-9.75719
▁здания	-9.75804
▁1941	-9.75819
▁ростов	-9.76007
торы	-9.76027
▁мастер	-9.7603
руд	-9.76034
тян	-9.76119
▁хозяйств	-9.76124
▁чер	-9.76143
▁ци	-9.76158
дол	-9.76191
нул	-9.76234
▁основным	-9.76257
▁1990-	-9.76266
▁авиа	-9.76281
▁административны	-9.76312
▁языком	-9.76411
порт	-9.76487
▁представителей	-9.76488
▁раб	-9.76492
▁подписан	-9.765
▁важно	-9.76553
ённые	-9.76661
▁компонент	-9.76663
дя	-9.76684
▁путин	-9.76811
▁заявил	-9.7684
▁организация	-9.76864
▁железнодорожны	-9.76888
▁независимости	-9.76897
▁de	-9.76943
инд	-9.76947
▁контр	-9.76991
▁коллектив	-9.77016
▁космически	-9.77062
тяж	-9.77172
▁привело	-9.77196
ll	-9.77208
▁политики	-9.77213
▁рублей	-9.77217
▁центре	-9.77301
▁приход	-9.77322
▁объявил	-9.77369
▁большим	-9.77377
стран	-9.77418
▁совместно	-9.77549
фра	-9.77563
▁открыты	-9.77619
▁зи	-9.7764
▁закрыт	-9.77645
▁хлор	-9.77648
▁чаще	-9.77735
▁содержание	-9.77744
ическими	-9.77752
▁специально	-9.77753
▁существенно	-9.77762
▁массы	-9.77824
щик	-9.7789
▁произошло	-9.77902
евой	-9.77924
▁гран	-9.77924
ge	-9.77934
▁невозможно	-9.77968
▁началось	-9.77969
▁картин	-9.77982
ался	-9.78031
держи	-9.78035
▁общественно	-9.78041
2.	-9.78051
эль	-9.78053
эй	-9.78062
▁температуры	-9.78081
▁обмен	-9.78144
выш	-9.78228
▁народов	-9.78237
▁точка	-9.78251
сель	-9.78281
▁номер	-9.78387
▁стоя	-9.78387
▁гри	-9.78403
акт	-9.7845
▁окончательно	-9.78498
▁верховного	-9.78535
▁заключен	-9.78554
▁математик	-9.78575
▁типов	-9.78601
национальный	-9.78644
▁военных	-9.78658
▁могли	-9.78659
ьные	-9.7868
▁непо	-9.78802
▁производит	-9.78899
▁семей	-9.78904
▁фонд	-9.7892
"»	-9.78991
вос	-9.79044
▁балтийск	-9.79083
▁обслужива	-9.79166
гло	-9.79183
▁минут	-9.79234
▁отказа	-9.79237
▁вышл	-9.79304
▁бассейн	-9.79337
▁гипотез	-9.79337
▁побережье	-9.79337
▁среднем	-9.79427
▁мари	-9.79444
▁дву	-9.79453
▁транспорта	-9.79511
▁профессор	-9.79518
▁сделал	-9.79581
тип	-9.79599
нных	-9.79613
▁элементы	-9.79641
▁армия	-9.79711
▁существование	-9.79718
▁полёта	-9.79792
граф	-9.79803
▁r	-9.79806
тюр	-9.79851
▁съезд	-9.79881
яются	-9.79894
▁весьма	-9.79922
▁скорость	-9.79952
▁сад	-9.79989
чка	-9.79992
▁комитет	-9.79993
▁2001	-9.80019
▁речи	-9.80063
▁космос	-9.80064
▁предложил	-9.80064
▁рф	-9.80108
▁буд	-9.80137
▁генеральн	-9.80142
водород	-9.80143
ино	-9.80144
▁пространство	-9.80169
дум	-9.80237
▁участвовал	-9.80245
▁иметь	-9.80261
▁великой	-9.80358
федеральн	-9.80373
▁количества	-9.80427
▁связано	-9.80431
▁сразу	-9.80453
английск	-9.80495
▁2002	-9.8052
воль	-9.80545
сказ	-9.8059
пен	-9.806
▁стать	-9.80607
▁определение	-9.80669
▁рядом	-9.80676
оны	-9.80676
▁набор	-9.80921
части	-9.80943
▁событий	-9.80977
▁территорию	-9.80977
▁идея	-9.81132
вит	-9.8114
стрел	-9.8127
ует	-9.8129
▁пород	-9.81299
▁представитель	-9.81345
▁сочета	-9.8135
▁предложен	-9.81356
▁существования	-9.81367
▁великого	-9.81378
вание	-9.81528
руб	-9.81545
▁улиц	-9.81588
▁располага	-9.81597
▁вне	-9.8162
▁приём	-9.81637
дук	-9.81663
лот	-9.81683
▁пыта	-9.81792
▁спор	-9.81821
ne	-9.81851
морф	-9.81887
▁особенности	-9.81914
▁наряду	-9.81917
▁метров	-9.81982
рот	-9.82021
▁степ	-9.82074
▁сейчас	-9.82085
▁итальян	-9.82085
et	-9.82127
ing	-9.82155
▁диа	-9.82231
▁считать	-9.8224
▁выполнен	-9.82279
и́	-9.82289
▁едино	-9.823
▁десяти	-9.82319
▁частично	-9.82337
ируются	-9.8237
совет	-9.82416
▁корабля	-9.82457
▁львов	-9.82462
▁сервер	-9.82465
▁велико	-9.82468
▁источника	-9.8258
▁крупнейш	-9.82614
▁полуостров	-9.82643
▁самолёт	-9.82662
рв	-9.82662
гон	-9.82692
▁общин	-9.82692
▁−	-9.82708
все	-9.82817
▁большую	-9.8283
сут	-9.82836
▁летом	-9.82859
▁импорт	-9.82871
▁культура	-9.82887
дь	-9.82927
▁называ	-9.83012
▁проходил	-9.83018
▁народа	-9.83062
▁1945	-9.83064
▁нижне	-9.83108
▁моно	-9.83127
▁востоке	-9.83195
праздн	-9.83196
мень	-9.83281
▁проблемы	-9.83281
mo	-9.83328
пред	-9.83466
▁бит	-9.83491
▁хозяйства	-9.83558
▁городах	-9.83578
▁частей	-9.83588
чей	-9.83589
▁депутат	-9.83637
▁модель	-9.83693
▁описан	-9.83697
▁вынужден	-9.8377
ительные	-9.83837
▁дав	-9.83837
▁пассажир	-9.83911
▁пен	-9.83913
▁международных	-9.83962
▁груз	-9.83972
▁написал	-9.83974
поляр	-9.83998
лез	-9.84062
кул	-9.84074
ol	-9.8412
▁посвящён	-9.84149
▁академии	-9.8415
▁исследований	-9.8421
▁должна	-9.84338
джа	-9.84347
сор	-9.84412
культ	-9.84417
▁мас	-9.84509
+	-9.84533
▁самая	-9.84536
▁операции	-9.84572
▁ры	-9.84588
▁проходит	-9.84593
▁500	-9.84614
ировали	-9.84655
▁независимость	-9.84659
▁(17	-9.84665
▁случаях	-9.84719
▁космонавт	-9.84735
зон	-9.84774
нор	-9.84838
бли	-9.84904
▁порядка	-9.84915
▁прошло	-9.84936
▁имели	-9.85005
os	-9.85035
▁крест	-9.85062
▁эс	-9.85063
▁пес	-9.85106
▁господ	-9.85117
▁такое	-9.85118
▁протест	-9.85136
труд	-9.85145
▁=	-9.85161
▁общество	-9.85162
▁предлага	-9.85185
йцев	-9.85203
железнодорожн	-9.85239
▁лун	-9.85277
▁автомобиль	-9.85293
▁отсутствие	-9.85293
▁самом	-9.85357
цеп	-9.85361
▁членом	-9.85369
ur	-9.85385
▁книга	-9.85444
пас	-9.8545
▁выпуска	-9.85483
▁взаимодействия	-9.85484
▁механизм	-9.85485
ичных	-9.85487
▁болгар	-9.85538
ns	-9.85597
▁золота	-9.85662
▁отношение	-9.85677
▁сначала	-9.85703
цин	-9.8577
▁эл	-9.85811
▁спин	-9.85829
▁кирилл	-9.85871
▁состоял	-9.8588
вис	-9.85881
▁признак	-9.859
измен	-9.85913
mi	-9.85953
▁доля	-9.85998
▁тело	-9.86017
еров	-9.8609
▁покров	-9.86093
▁поход	-9.86124
тес	-9.86151
▁l	-9.86221
▁свыше	-9.86272
▁дальнейшем	-9.86356
▁писа	-9.86372
▁параметр	-9.86403
▁происхождение	-9.8645
▁рабочих	-9.8645
▁w	-9.86468
▁ожида	-9.86478
▁пло	-9.86525
▁молекул	-9.86589
▁ежегодно	-9.86644
▁используют	-9.86678
▁концу	-9.8671
▁первом	-9.86871
▁продолжал	-9.86998
разреш	-9.87037
▁привод	-9.87078
▁бело	-9.87081
▁расположены	-9.87112
сфер	-9.87153
▁имеются	-9.87195
▁вклад	-9.87198
▁мм	-9.87217
▁вещ	-9.87238
▁воздуха	-9.87243
днев	-9.87255
рит	-9.87319
звезд	-9.87384
глав	-9.87399
▁преобразован	-9.87412
▁звёзд	-9.87417
плав	-9.87427
▁элемент	-9.87467
существ	-9.87485
гул	-9.87559
▁численности	-9.87621
▁фронт	-9.87644
▁среды	-9.87656
▁польско	-9.87672
▁ними	-9.87768
▁масштаб	-9.87809
▁меди	-9.87816
▁эйнштейн	-9.87817
▁линия	-9.87821
▁возраст	-9.87878
ba	-9.87908
чество	-9.87909
▁родился	-9.8792
▁монет	-9.8792
▁сравнению	-9.88014
▁одну	-9.8802
▁командир	-9.88025
ho	-9.88089
дия	-9.88139
▁плав	-9.88153
▁религиозно	-9.88211
ню	-9.88353
▁должность	-9.88375
▁ныне	-9.88408
▁большого	-9.88409
▁долг	-9.88435
▁пал	-9.88529
емым	-9.88581
▁большей	-9.88582
▁подраздел	-9.88607
реж	-9.88616
▁приходится	-9.88618
▁адрес	-9.88624
▁попытк	-9.8865
▁независимо	-9.8874
▁говорит	-9.8877
▁ленина	-9.88872
нуть	-9.88891
как	-9.88902
▁вход	-9.8892
▁ход	-9.88952
ляции	-9.88965
▁крем	-9.88982
▁иностранных	-9.89006
ca	-9.89012
▁возникновени	-9.89027
ангел	-9.89069
▁императора	-9.89117
▁поддержива	-9.89119
▁верхне	-9.89123
нин	-9.8914
▁холод	-9.89223
▁калининград	-9.89292
▁выборах	-9.89398
▁литературе	-9.89403
▁афин	-9.89408
▁легенд	-9.89411
рю	-9.89433
▁семи	-9.89445
▁поста	-9.89465
▁свободно	-9.89589
▁состоянии	-9.89603
▁геометр	-9.89603
▁подобно	-9.89691
тай	-9.89769
di	-9.89797
▁контроль	-9.89822
▁позволяю	-9.90004
о́	-9.90011
▁организм	-9.90043
▁показал	-9.90058
метил	-9.90147
звуч	-9.90238
▁флор	-9.9026
▁прос	-9.903
▁швейцар	-9.90407
▁исполня	-9.90408
игра	-9.90422
▁оценив	-9.90436
▁леса	-9.9051
▁той	-9.90555
▁всем	-9.90577
▁культ	-9.90606
▁предприятий	-9.90609
▁происхождения	-9.90609
▁деле	-9.90652
▁долл	-9.90708
ких	-9.90731
▁даёт	-9.90771
▁вооружённы	-9.90771
▁августе	-9.90811
▁пушкин	-9.90811
▁зависит	-9.90811
▁1999	-9.90849
▁бан	-9.90872
▁формировани	-9.90888
рек	-9.90932
▁отдельно	-9.90959
▁январе	-9.91014
▁племен	-9.91018
▁престол	-9.91047
▁90	-9.91053
лёт	-9.91061
▁началась	-9.91088
▁пас	-9.91185
программирования	-9.91199
▁непрерывн	-9.91217
▁сельскохозяйств	-9.91217
▁международный	-9.91219
▁определения	-9.91266
енко	-9.91307
▁александра	-9.91345
сид	-9.91386
▁iv	-9.91387
▁ше	-9.91399
▁научных	-9.9143
▁смог	-9.91461
▁встречаются	-9.91467
орд	-9.91488
люб	-9.91518
▁действий	-9.91634
▁такого	-9.91685
роб	-9.91689
▁свидетельств	-9.91823
▁пространстве	-9.91829
▁вообще	-9.9183
▁вступил	-9.9183
▁индии	-9.9187
▁иран	-9.91911
▁употребля	-9.92034
▁современного	-9.92035
▁израиль	-9.92035
▁сектор	-9.92048
низ	-9.92063
▁кали	-9.92065
▁старо	-9.92126
▁районах	-9.9215
▁крупнейших	-9.92153
▁строительства	-9.92241
▁музыка	-9.92255
▁хар	-9.92323
▁новое	-9.92329
▁пределах	-9.92354
▁согласи	-9.92406
▁америки	-9.92446
▁берега	-9.92449
ni	-9.92461
▁осадков	-9.92518
нских	-9.9257
ица	-9.92582
▁корон	-9.92594
льский	-9.926
▁довольно	-9.92653
▁выделяют	-9.92664
▁назад	-9.92678
▁праздник	-9.92737
▁русские	-9.92746
ял	-9.92759
▁военной	-9.92779
анти	-9.92821
▁ломоносов	-9.92858
▁версия	-9.92893
▁скорости	-9.92906
филь	-9.92919
▁1950	-9.92925
▁спутник	-9.93039
тельный	-9.93104
▁аналог	-9.93109
▁стреми	-9.93121
ительных	-9.93169
▁искусство	-9.9318
▁национальной	-9.93192
международн	-9.93201
▁декабре	-9.93273
[	-9.93275
▁составлял	-9.93297
▁(2	-9.93306
▁длительн	-9.9333
▁спорт	-9.93333
▁смысле	-9.9343
▁входил	-9.93452
ci	-9.9346
▁фёдор	-9.93481
гру	-9.93581
sa	-9.93602
▁средней	-9.93624
▁крупнейши	-9.93772
зя	-9.93796
▁отношений	-9.93898
▁позволил	-9.93898
▁представители	-9.93898
лаб	-9.93918
▁бри	-9.93959
▁вектор	-9.94028
▁захват	-9.94043
▁западе	-9.9405
▁озёр	-9.94111
▁получить	-9.94119
тической	-9.94158
чил	-9.94167
▁переписи	-9.94173
▁другом	-9.94206
▁временем	-9.94207
пле	-9.94289
тельной	-9.94319
дз	-9.94357
▁расширен	-9.94445
▁1980-	-9.94492
файл	-9.94508
российско	-9.94518
▁органы	-9.94526
▁метрополитен	-9.94527
▁председатель	-9.94528
▁назнача	-9.94563
▁1940	-9.94582
▁павл	-9.94649
▁дев	-9.94768
▁прибыл	-9.94772
▁хан	-9.94776
▁методы	-9.94792
▁сход	-9.94802
созда	-9.94806
сол	-9.94853
▁жидко	-9.94885
рели	-9.94917
верх	-9.94943
▁больших	-9.94961
▁сср	-9.95025
▁советских	-9.95052
▁кара	-9.9507
▁печ	-9.95087
сан	-9.95142
▁вследствие	-9.9516
▁пётр	-9.9516
▁петербург	-9.95161
▁положения	-9.95169
▁будут	-9.95193
▁ради	-9.95202
ющую	-9.95251
▁получения	-9.95253
▁брак	-9.9528
▁кад	-9.9531
▁словам	-9.95368
▁1989	-9.95403
▁назвал	-9.95471
групп	-9.9557
▁троллейбус	-9.95584
бас	-9.95602
▁каса	-9.95626
▁мае	-9.95684
около	-9.95704
▁сложи	-9.95757
▁здание	-9.958
▁записи	-9.9581
▁марте	-9.95862
зин	-9.9587
кер	-9.95876
▁тел	-9.95885
дерев	-9.95902
▁образова	-9.95918
▁фу	-9.95938
▁литературы	-9.9601
▁охот	-9.96033
ённой	-9.96114
▁знаком	-9.96116
▁кап	-9.96124
▁эпи	-9.96136
▁любой	-9.96159
бри	-9.96224
▁спектр	-9.96251
▁1993	-9.96254
▁июле	-9.96284
овую	-9.9632
▁измерения	-9.9634
овыми	-9.96351
цкого	-9.96372
▁собира	-9.96393
ющийся	-9.96397
▁кант	-9.96409
▁внешне	-9.96421
▁интеллект	-9.96426
нист	-9.9643
▁путь	-9.96433
спользуем	-9.96438
▁бюджет	-9.96438
▁половины	-9.96447
▁абсолютно	-9.96475
дра	-9.96504
втор	-9.96642
▁устанавлива	-9.96652
▁протокол	-9.96654
▁сделан	-9.96668
▁наибольш	-9.96852
▁теперь	-9.96867
▁проблема	-9.9688
▁физики	-9.96882
▁уезд	-9.96883
▁исключением	-9.96892
▁священн	-9.96979
▁большинства	-9.97083
▁историю	-9.97087
▁фоне	-9.97102
▁считают	-9.9714
ницы	-9.97146
▁сообщения	-9.97183
ставить	-9.97204
▁занимают	-9.9736
▁валют	-9.9739
нга	-9.97409
▁организаций	-9.97515
▁политической	-9.97533
▁национального	-9.97578
даётся	-9.97596
▁местных	-9.97625
-2	-9.97643
▁марс	-9.97676
раб	-9.97688
▁планеты	-9.97713
▁разрушен	-9.97733
кра	-9.97751
против	-9.97753
▁известных	-9.97766
▁врач	-9.97783
▁числ	-9.9782
▁метро	-9.97831
▁выпуск	-9.97846
bo	-9.97899
раст	-9.97916
▁промышленно	-9.97918
пря	-9.97924
нец	-9.97929
▁самостоятельно	-9.97944
▁35	-9.97974
▁выража	-9.98022
▁передачи	-9.98028
▁руководством	-9.98259
▁верх	-9.98273
▁многочисленн	-9.9828
ss	-9.98287
кош	-9.98302
▁октябре	-9.98386
ve	-9.98471
▁представляют	-9.98471
▁камер	-9.98559
▁наука	-9.98625
▁сенат	-9.98696
▁борис	-9.98725
той	-9.98768
▁временно	-9.98802
▁вас	-9.98821
▁последний	-9.98825
▁британски	-9.98827
▁никогда	-9.98837
▁предоставля	-9.98841
араб	-9.98854
be	-9.98878
▁множества	-9.98886
▁осад	-9.98907
▁титан	-9.98908
io	-9.98921
тир	-9.98926
учи	-9.98929
кция	-9.98945
ьё	-9.98957
▁грузов	-9.98964
▁футбол	-9.99022
▁ката	-9.99032
▁появление	-9.99044
ённый	-9.99044
▁потенциал	-9.99052
емая	-9.99075
авших	-9.99124
▁автономн	-9.99134
▁сим	-9.99149
вшейся	-9.99151
гин	-9.99163
▁состава	-9.99413
▁районы	-9.99467
▁архитектор	-9.99485
▁остаётся	-9.99485
▁выборы	-9.99503
▁второго	-9.99534
▁книге	-9.99602
телями	-9.99661
▁короля	-9.9971
▁солнце	-9.99711
▁принимал	-9.9973
▁идеолог	-9.99757
▁наслед	-9.99801
▁крым	-9.99888
остью	-9.99924
ственно	-9.99926
▁памяти	-9.99928
испыта	-9.99949
тельных	-10.0009
▁пифагор	-10.0015
▁воронеж	-10.0015
▁vi	-10.0037
▁фотограф	-10.0039
ители	-10.0039
▁демократическ	-10.0041
▁муницип	-10.0049
▁k	-10.0051
▁роли	-10.0051
▁дыр	-10.0052
▁300	-10.0052
▁вода	-10.0053
▁взгляд	-10.0055
после	-10.0055
▁пищев	-10.0061
▁1995	-10.0064
▁районов	-10.0064
▁глас	-10.0069
»;	-10.0074
▁веках	-10.0075
́р	-10.008
▁форму	-10.0081
▁контакт	-10.0082
▁связ	-10.0096
▁кат	-10.0098
байт	-10.0101
▁данный	-10.0103
▁организован	-10.0104
чев	-10.0105
емое	-10.0108
▁испании	-10.0113
рут	-10.0127
▁координат	-10.0127
▁рельеф	-10.0127
▁глагол	-10.0127
▁ленинград	-10.0129
▁государством	-10.0129
▁органов	-10.0138
щение	-10.0139
▁князь	-10.0149
▁николай	-10.015
▁нарушен	-10.015
▁исключительно	-10.0151
физическ	-10.0153
▁o	-10.0162
▁поток	-10.0178
"».	-10.018
падает	-10.0188
цкий	-10.0195
▁телефон	-10.0196
▁зоны	-10.0198
▁изначально	-10.0198
▁войну	-10.02
нском	-10.0202
▁распространя	-10.0204
евых	-10.0209
▁туризм	-10.0209
▁начинается	-10.021
▁низко	-10.0211
▁русско	-10.0212
▁1919	-10.0214
▁стрел	-10.0215
▁входят	-10.0217
▁титул	-10.0218
маш	-10.022
▁сторону	-10.0227
ографии	-10.0229
май	-10.0229
ходят	-10.0236
▁передач	-10.0238
▁последовател	-10.0238
▁каждого	-10.024
▁слабо	-10.0246
▁дополнительны	-10.0246
▁совершил	-10.0248
▁военного	-10.025
троп	-10.0259
нёс	-10.0263
писать	-10.027
▁юр	-10.0276
евро	-10.0277
▁масса	-10.0278
▁друга	-10.0279
▁проявля	-10.0286
▁спустя	-10.0286
▁всеобщ	-10.0287
▁смертн	-10.0288
ителем	-10.0291
▁остальные	-10.0293
▁чемпионат	-10.0296
▁массовы	-10.0301
▁деление	-10.0303
▁весь	-10.0304
▁граница	-10.0305
▁религия	-10.0308
▁отмечал	-10.0308
▁вызвал	-10.0309
▁семьи	-10.031
▁института	-10.0311
очных	-10.0312
▁существующ	-10.0323
▁цели	-10.0325
пек	-10.0328
▁правила	-10.0329
▁большинстве	-10.0331
▁губернии	-10.0331
▁основными	-10.0339
стар	-10.0342
▁реально	-10.0342
▁никак	-10.0346
▁страх	-10.0349
▁обладает	-10.0354
▁показыва	-10.0361
▁скот	-10.0363
▁хе	-10.0376
▁кпсс	-10.0378
ывать	-10.0383
▁времена	-10.0384
ac	-10.0386
▁речь	-10.0388
ныне	-10.039
▁король	-10.039
▁выборов	-10.0391
▁высокой	-10.0393
▁следующим	-10.0395
no	-10.0396
▁сыр	-10.0398
▁единственно	-10.0399
▁сопровожда	-10.0401
▁политических	-10.0401
▁австри	-10.0403
▁био	-10.0406
тическое	-10.0408
▁советско	-10.0412
▁эпоху	-10.0413
цар	-10.0419
▁воздух	-10.0422
октябрь	-10.0424
▁квадрат	-10.0424
▁регистр	-10.0424
▁in	-10.0426
▁отец	-10.0432
даль	-10.0435
▁многочисленные	-10.0435
="8	-10.0438
йорк	-10.044
▁дар	-10.0445
▁современные	-10.0447
▁важным	-10.0448
▁основу	-10.0449
▁мозг	-10.045
квартир	-10.045
▁ответственн	-10.0453
▁выступил	-10.0454
восход	-10.0455
влад	-10.0463
устройств	-10.0466
пил	-10.047
▁возглавля	-10.047
▁пат	-10.0472
▁1996	-10.0474
▁сложно	-10.0477
▁сфере	-10.0477
▁семья	-10.0478
▁математически	-10.0482
▁боль	-10.0485
▁границе	-10.0488
▁идей	-10.0489
▁дик	-10.049
▁осуществляется	-10.049
▁борьбы	-10.0493
▁выделен	-10.0494
▁орден	-10.05
гри	-10.051
▁своими	-10.0511
▁некоторым	-10.0517
▁легко	-10.0518
ивший	-10.0519
ающий	-10.052
нские	-10.052
енными	-10.052
финанс	-10.0524
славянск	-10.0526
▁лейбниц	-10.054
▁сочинения	-10.054
▁вокзал	-10.0541
ёк	-10.055
▁арт	-10.0551
▁залив	-10.0558
▁чисто	-10.0561
▁международной	-10.0564
▁тракт	-10.0572
▁трактат	-10.0582
▁xii	-10.0587
▁апреле	-10.0587
▁учения	-10.0589
▁страну	-10.059
▁запрет	-10.059
мол	-10.059
▁перво	-10.0592
▁свободы	-10.06
▁республик	-10.0601
революционн	-10.0627
груз	-10.063
▁столь	-10.0633
▁трамвай	-10.0634
▁времён	-10.0634
гал	-10.065
▁сентябре	-10.0658
▁утверждал	-10.0659
▁лучше	-10.0663
▁персон	-10.0666
▁шт	-10.0669
▁королевск	-10.0672
▁гон	-10.0678
▁тор	-10.0678
▁эв	-10.068
▁берегу	-10.0682
▁маль	-10.0683
▁одинаков	-10.0684
▁описание	-10.069
музыкант	-10.0702
▁полк	-10.0703
▁определяется	-10.0703
▁программа	-10.0704
▁корабле	-10.0706
▁успешно	-10.0708
▁рубеж	-10.0712
▁помог	-10.0713
кварк	-10.0729
▁отношению	-10.073
▁найден	-10.0732
▁1994	-10.0733
▁вопросы	-10.0741
▁j	-10.0747
▁протяжённость	-10.0749
жат	-10.0754
▁ракет	-10.0755
▁убит	-10.0756
▁являлся	-10.0761
ii	-10.0763
▁топ	-10.0766
▁составила	-10.0769
▁художеств	-10.077
op	-10.077
оборот	-10.0773
▁1970-	-10.0775
▁создании	-10.0779
ent	-10.078
▁объекта	-10.0782
▁сахар	-10.0783
sp	-10.0784
математическ	-10.0788
▁письменно	-10.0788
информ	-10.079
▁учреждения	-10.0795
▁приобрет	-10.0801
▁воспринима	-10.0802
▁иоанн	-10.0802
▁константин	-10.0804
▁общее	-10.0811
!	-10.0815
▁рад	-10.082
▁доказательств	-10.0826
▁отдельные	-10.0827
▁исполнитель	-10.0829
▁вторая	-10.0832
ьная	-10.0841
▁плен	-10.0848
▁сибири	-10.085
▁обраща	-10.0851
▁природе	-10.0852
▁плотность	-10.0852
▁эст	-10.0853
▁утверждает	-10.0853
глас	-10.0853
тинг	-10.0856
▁месяцев	-10.0861
▁полов	-10.0862
▁роста	-10.0867
ex	-10.0867
▁происходил	-10.0874
▁функций	-10.0874
▁азот	-10.0878
▁гражданской	-10.088
▁шести	-10.0888
эл	-10.0889
▁спорта	-10.0891
▁еврей	-10.0893
▁проекта	-10.0897
▁результаты	-10.0897
▁менделеев	-10.0898
▁память	-10.0898
▁отвеч	-10.0901
▁ведёт	-10.0901
▁посад	-10.0902
▁агент	-10.0903
▁совершенно	-10.0904
▁святого	-10.0904
▁леон	-10.0907
▁фил	-10.0907
инский	-10.091
ивают	-10.0911
▁известные	-10.0911
▁представлены	-10.0914
▁военные	-10.0915
ie	-10.0917
▁международного	-10.0923
▁виктор	-10.0924
▁землю	-10.0929
▁руд	-10.093
▁обозначения	-10.094
▁биография	-10.0941
▁изображения	-10.0947
▁синтез	-10.0947
▁румын	-10.0948
гро	-10.0953
▁объектив	-10.0955
▁семь	-10.0956
очные	-10.0957
▁шесть	-10.0961
▁обороны	-10.0961
▁устройство	-10.0964
▁нашей	-10.0967
ящий	-10.0968
добр	-10.0972
промышленн	-10.0981
▁отечественной	-10.0983
ийский	-10.0987
▁референдум	-10.0996
▁функция	-10.0996
▁службы	-10.0996
▁берегов	-10.0996
сион	-10.1001
▁древней	-10.1002
▁считает	-10.1005
▁отличается	-10.1006
авший	-10.1012
▁велосипед	-10.102
▁вавилов	-10.1021
▁широки	-10.1021
—17	-10.1025
▁обобщ	-10.1026
▁оси	-10.1028
плот	-10.1029
▁песни	-10.1031
ализации	-10.1033
▁реформы	-10.1041
▁увеличен	-10.1042
▁алгоритм	-10.1045
▁губернатор	-10.1046
▁изучение	-10.1047
▁северного	-10.1049
▁крупно	-10.1049
душ	-10.1051
▁московского	-10.1054
▁короле	-10.1056
▁естественно	-10.1057
▁влиянием	-10.1057
▁праздники	-10.1059
▁составлен	-10.106
▁действительно	-10.1062
▁встреч	-10.1064
▁образу	-10.1066
▁учёных	-10.107
▁растений	-10.107
▁рождения	-10.107
▁1960-	-10.1073
гряз	-10.1077
вшими	-10.108
вался	-10.1084
▁известный	-10.1087
▁африки	-10.1095
▁принадлежит	-10.1095
▁уничтожен	-10.1095
▁финляндии	-10.1095
▁капитал	-10.1096
pa	-10.1098
▁1998	-10.1099
▁служил	-10.1099
▁царя	-10.1103
▁близки	-10.1104
▁цель	-10.1105
подобн	-10.1106
интер	-10.1107
sh	-10.1108
▁расчёт	-10.1108
au	-10.1118
▁лето	-10.1119
▁ноябре	-10.1119
▁станция	-10.112
▁пирамид	-10.112
▁торговли	-10.112
▁большие	-10.112
▁идёт	-10.1121
▁1-	-10.1122
жир	-10.1128
▁мнение	-10.113
ивает	-10.1133
▁разные	-10.1136
▁середины	-10.1144
▁позиции	-10.1144
нет	-10.1144
▁георг	-10.1145
▁сотрудник	-10.1145
▁концерт	-10.1148
▁носит	-10.1148
цер	-10.1152
▁допуска	-10.1154
▁применяется	-10.1161
ённого	-10.118
▁пролив	-10.1185
▁образуют	-10.1192
▁новосибирск	-10.1196
▁рам	-10.1202
фин	-10.121
▁текста	-10.1213
фан	-10.1214
▁советский	-10.1216
▁предназначен	-10.1219
▁богослов	-10.1219
▁ничего	-10.1219
турецк	-10.122
▁супер	-10.1222
▁указывает	-10.1225
▁стиле	-10.1227
▁представлял	-10.1228
физик	-10.1228
▁предел	-10.1233
ed	-10.1233
летний	-10.1238
▁плоско	-10.1238
▁возраста	-10.1241
жил	-10.1241
парти	-10.1241
▁зарегистрирован	-10.1244
защищ	-10.1246
ориент	-10.1248
▁мудр	-10.1252
▁произведений	-10.1254
▁должности	-10.1255
право	-10.1259
▁глубоко	-10.127
▁убийств	-10.127
▁железной	-10.127
▁тысячи	-10.1271
▁явления	-10.1273
вшее	-10.1274
▁животны	-10.1274
▁городом	-10.1275
▁верхов	-10.1276
творческ	-10.1278
▁обеспечения	-10.128
▁массив	-10.1282
▁психолог	-10.1285
▁учёные	-10.1295
▁сверх	-10.1295
▁слав	-10.1308
▁собрание	-10.131
идов	-10.1312
▁формально	-10.1312
▁эпохи	-10.1317
восток	-10.1319
▁переименован	-10.1321
▁оказал	-10.1324
▁демон	-10.1328
▁литературно	-10.1333
нной	-10.1336
▁основании	-10.1342
▁руководит	-10.1346
ификации	-10.1352
▁члены	-10.1357
голос	-10.1359
▁причиной	-10.1363
▁такая	-10.1369
айн	-10.137
▁устройства	-10.137
▁древних	-10.1371
▁гроз	-10.1373
▁1997	-10.1375
▁популярность	-10.1386
▁кавказ	-10.1395
▁уступ	-10.1396
▁действуют	-10.1396
▁фридрих	-10.1396
▁цицерон	-10.1396
▁окончил	-10.1397
четвёр	-10.1397
▁подписал	-10.1398
▁поздне	-10.1404
ёз	-10.1406
▁сведения	-10.141
ливо	-10.141
▁направлении	-10.1411
▁объекты	-10.1413
▁попытки	-10.1417
▁обязан	-10.1417
литовск	-10.1417
▁внутренних	-10.1422
▁территорий	-10.1422
▁музыки	-10.1422
▁морской	-10.1422
овича	-10.1422
▁смерть	-10.1423
▁нужно	-10.1423
▁сигнал	-10.1426
▁отправ	-10.1426
pe	-10.143
ящим	-10.143
▁франц	-10.1434
▁процессе	-10.1441
▁октавиан	-10.1448
▁соединя	-10.1449
▁штаб	-10.1451
ver	-10.1453
▁космонавтов	-10.1466
▁дуб	-10.1469
▁кер	-10.1471
ut	-10.1471
▁регулярно	-10.1473
▁провинции	-10.1473
▁изучения	-10.1474
▁этно	-10.1474
▁снова	-10.1474
▁островах	-10.1475
▁пишет	-10.1475
▁объединя	-10.1482
net	-10.1482
▁издания	-10.1484
▁ат	-10.1485
▁ап	-10.1486
теле	-10.1491
▁делает	-10.1492
▁получив	-10.1492
▁имена	-10.1494
▁офицер	-10.1499
▁бре	-10.1505
▁лагер	-10.1505
вращен	-10.1512
▁греции	-10.1513
▁ma	-10.152
шир	-10.1529
1,5	-10.1529
▁использован	-10.1531
▁способность	-10.1531
▁работает	-10.1547
▁князя	-10.1551
▁политические	-10.1551
▁единственным	-10.1551
po	-10.1552
▁1944	-10.1555
▁австралии	-10.1561
воздушн	-10.1564
▁достигает	-10.1566
измом	-10.1568
ha	-10.1572
▁ян	-10.1575
▁юпитер	-10.1577
▁алгебр	-10.1577
▁музея	-10.1577
▁степень	-10.1578
▁гал	-10.1579
▁своему	-10.158
нами	-10.1585
линг	-10.1585
▁июне	-10.1589
бот	-10.1591
▁семье	-10.1594
▁преоблада	-10.1597
▁террор	-10.1603
▁иисус	-10.1605
металл	-10.1607
▁крупным	-10.1609
вшаяся	-10.1611
тельные	-10.1615
▁главы	-10.162
▁минск	-10.1625
▁начальник	-10.1629
▁2-	-10.1632
▁реализации	-10.1635
▁мотив	-10.164
he	-10.1641
▁источник	-10.1645
▁флот	-10.1647
▁изменение	-10.1651
▁максим	-10.1653
▁проход	-10.1653
▁горбачёв	-10.1655
▁директор	-10.1655
▁экологическ	-10.1655
▁английский	-10.1656
щу	-10.166
маленьк	-10.1661
▁встречается	-10.1663
▁применения	-10.1666
▁перенос	-10.168
брать	-10.168
▁народных	-10.1681
▁хозяйство	-10.1682
▁структура	-10.1682
▁душу	-10.1685
_3	-10.1689
близи	-10.1699
▁лат	-10.1701
▁судов	-10.1704
▁элемента	-10.1706
▁возрасте	-10.1707
▁вьетнам	-10.1708
▁плутарх	-10.1708
▁соответствует	-10.1708
▁теорию	-10.1708
▁письма	-10.1708
сам	-10.1708
▁край	-10.1709
▁среде	-10.1716
▁нужд	-10.1717
тельного	-10.1724
рид	-10.1726
нять	-10.1728
▁ликвид	-10.1734
▁известен	-10.1734
▁хорош	-10.1739
▁обратно	-10.1739
▁горы	-10.1741
ящей	-10.1741
▁странами	-10.1755
▁процесса	-10.1757
пел	-10.1761
▁фабрик	-10.1761
▁персонаж	-10.1762
российский	-10.1767
голов	-10.1776
▁направление	-10.1779
ань	-10.178
удовлетвор	-10.1787
▁феврале	-10.1787
▁нередко	-10.1787
▁мани	-10.1788
▁основой	-10.1789
нил	-10.1791
▁вагон	-10.1795
▁соли	-10.18
нским	-10.1801
▁необходимости	-10.1804
▁обряд	-10.1805
▁строго	-10.1805
▁связаны	-10.1807
▁конституционн	-10.1812
цит	-10.1813
▁побережья	-10.1814
▁появился	-10.1814
▁российских	-10.1814
▁бол	-10.1814
▁редко	-10.1826
▁отца	-10.183
спар	-10.1836
▁инициатив	-10.184
▁окончания	-10.184
▁деревянн	-10.184
уголь	-10.1846
▁научной	-10.1853
▁лица	-10.1858
cl	-10.1858
систем	-10.1861
цам	-10.1864
▁населением	-10.1867
▁иркутск	-10.1867
▁каждой	-10.1867
▁способствовал	-10.1867
▁сокращени	-10.1867
▁знания	-10.1868
▁ордена	-10.1872
▁досто	-10.1885
▁единицы	-10.189
▁(3	-10.1891
▁факультет	-10.1894
▁вызван	-10.1894
▁жертв	-10.1894
ьную	-10.1896
▁платформ	-10.1896
▁всяк	-10.19
жит	-10.1907
▁основы	-10.1916
▁разработки	-10.1921
2)	-10.1922
▁вал	-10.193
▁обширн	-10.1933
▁кабинет	-10.1948
▁секунд	-10.1948
▁сыграл	-10.1948
▁альбом	-10.1948
▁этимология	-10.1951
эп	-10.1962
▁человеком	-10.1968
▁квантовой	-10.1968
▁китае	-10.197
▁поведение	-10.197
▁помещен	-10.1975
▁столица	-10.1976
▁именем	-10.1977
▁внешней	-10.1977
▁экономического	-10.1981
серьёзн	-10.1984
ation	-10.1985
▁создана	-10.1986
нести	-10.1995
▁игры	-10.1996
▁глава	-10.1998
галь	-10.1999
▁выпущен	-10.2002
▁заимствован	-10.2002
▁англии	-10.2002
▁актёр	-10.2006
▁равен	-10.2011
ir	-10.2014
литературн	-10.2015
▁сообщение	-10.202
▁композитор	-10.2029
▁главный	-10.2034
▁обоснова	-10.2035
▁сформировал	-10.2035
▁собран	-10.2037
▁законы	-10.2048
гур	-10.2049
▁встреча	-10.205
do	-10.2051
▁влияния	-10.2057
▁мне	-10.2064
▁получает	-10.2067
▁домов	-10.2073
узы	-10.2078
изацию	-10.208
▁момента	-10.208
▁называл	-10.2081
▁рейтинг	-10.2085
▁гали	-10.2085
▁1960	-10.2087
▁друж	-10.209
▁царство	-10.2095
▁шаг	-10.2096
▁архитектуры	-10.2096
▁рассел	-10.2108
▁петроград	-10.2112
▁xiv	-10.2113
ново	-10.2114
va	-10.2117
▁оборот	-10.2118
член	-10.2121
▁популярно	-10.2122
▁николая	-10.2125
▁души	-10.2128
англ	-10.2137
▁xv	-10.2138
▁ситуация	-10.2139
▁темп	-10.2139
долго	-10.2139
симметри	-10.214
▁сооружен	-10.2145
бул	-10.2147
▁добро	-10.2149
▁одни	-10.2159
▁единица	-10.2166
▁герцог	-10.2166
▁москву	-10.2166
▁швеции	-10.2166
▁бесконечно	-10.2167
экономич	-10.2169
▁франк	-10.2172
▁вырос	-10.2174
▁re	-10.2182
мель	-10.2186
ичной	-10.2189
▁урал	-10.2193
энергия	-10.2194
▁письмо	-10.2194
▁давление	-10.2194
▁крепости	-10.2196
▁пир	-10.2197
▁техники	-10.2201
▁войсками	-10.2203
▁призыв	-10.2204
сколько	-10.2208
▁населённы	-10.2209
▁русским	-10.2209
▁идеал	-10.2213
▁собрания	-10.2215
▁фре	-10.2217
▁заряд	-10.2218
план	-10.222
▁фрагмент	-10.2221
▁буддизм	-10.2222
кристалл	-10.2233
нцы	-10.2238
▁млекопитающих	-10.2249
▁появилась	-10.2249
▁ощущ	-10.225
▁угроз	-10.225
▁основания	-10.2251
▁якоб	-10.2252
▁тар	-10.2255
▁оборон	-10.2263
стях	-10.2267
транс	-10.227
▁соглашение	-10.2277
▁расстояние	-10.2277
ичным	-10.2284
тического	-10.2284
▁экономической	-10.2285
▁государственным	-10.2287
▁структуры	-10.2291
▁чист	-10.2294
▁опти	-10.2301
народ	-10.2303
▁взаимодействие	-10.2305
▁проведён	-10.2307
▁источников	-10.2311
▁ночь	-10.2317
▁экспериментальн	-10.2317
вшегося	-10.2325
определ	-10.2325
▁синто	-10.2326
▁правил	-10.2327
▁самое	-10.2332
▁переворот	-10.2333
▁сюжет	-10.2333
▁заверши	-10.2333
▁вошли	-10.2334
евский	-10.2337
▁2023	-10.2338
▁красной	-10.2339
▁мус	-10.2345
рад	-10.2357
▁сар	-10.2362
▁европейской	-10.2362
▁река	-10.2363
бек	-10.2365
▁базе	-10.2365
▁находился	-10.2367
▁сокр	-10.2368
▁посредством	-10.2389
▁президиум	-10.2389
▁подготовки	-10.2389
▁таблиц	-10.2389
упруг	-10.2389
▁красноярск	-10.2389
▁сделать	-10.239
▁дорога	-10.2392
▁черно	-10.2396
▁сказал	-10.2397
▁среднего	-10.2397
▁фундаментальн	-10.2406
обознач	-10.2407
▁наблюдения	-10.2409
▁изображение	-10.2418
▁нельзя	-10.2418
▁итоге	-10.2418
▁xiii	-10.2422
▁гар	-10.2426
▁канон	-10.2427
ённым	-10.2428
▁буквы	-10.2432
▁африка	-10.2433
▁жар	-10.2445
энциклопеди	-10.2446
▁египет	-10.2446
▁конституция	-10.2446
▁религиозных	-10.2446
▁математики	-10.2452
бож	-10.2456
▁увеличива	-10.2458
объедин	-10.2459
▁тест	-10.246
▁края	-10.2466
▁бак	-10.2466
▁мыс	-10.2466
▁представля	-10.247
актив	-10.2472
▁индо	-10.2472
▁развитии	-10.2472
▁равны	-10.2473
▁продукции	-10.2474
▁охват	-10.2475
▁будучи	-10.2475
четвер	-10.2477
▁победы	-10.248
▁пожар	-10.2483
▁доме	-10.2486
▁новую	-10.2486
▁петров	-10.2487
▁помощь	-10.2489
▁газов	-10.249
▁руководство	-10.2491
▁местах	-10.2492
▁анализа	-10.2493
▁лег	-10.2497
▁значим	-10.2503
▁европейских	-10.2503
▁новым	-10.2504
▁изготовлен	-10.2505
востоке	-10.2506
▁отражен	-10.2506
арктическ	-10.2529
ec	-10.2529
▁говорил	-10.2531
▁конгресс	-10.2531
▁горазд	-10.2532
▁меч	-10.2533
▁отверг	-10.2536
▁крупнейшим	-10.2537
▁включают	-10.2541
▁комитета	-10.2542
строения	-10.2543
▁xxi	-10.2547
▁старше	-10.2549
▁экз	-10.2551
вшую	-10.2552
гры	-10.2556
партнёр	-10.256
▁хлеб	-10.256
▁хром	-10.2565
▁спирт	-10.2567
мобил	-10.257
▁конец	-10.2572
▁тоже	-10.2574
▁длина	-10.258
▁общем	-10.2582
▁уровнем	-10.2583
чное	-10.2584
▁распространены	-10.2589
▁модерн	-10.2589
▁сельского	-10.259
▁скоро	-10.2591
▁боги	-10.2595
уса	-10.2596
▁методов	-10.2597
▁доклад	-10.2605
▁высказыва	-10.2608
▁признал	-10.2609
▁германия	-10.2613
▁литература	-10.2618
▁председателя	-10.2618
▁взрыв	-10.2618
▁панк	-10.262
магнит	-10.2621
▁данной	-10.2629
▁соединения	-10.2635
▁пассажиров	-10.2638
католич	-10.2639
▁законодательств	-10.2646
▁бизнес	-10.2646
шер	-10.2647
▁силами	-10.2647
▁цвета	-10.2652
▁пространств	-10.2654
▁системой	-10.2655
▁думы	-10.2657
▁сократа	-10.2669
▁миллиона	-10.2675
▁зданий	-10.2675
▁фирм	-10.2677
▁биограф	-10.2679
▁натуральн	-10.2682
▁гимна	-10.2687
▁авторов	-10.2691
▁развитию	-10.2692
▁грамот	-10.2704
▁опубликовал	-10.2704
▁российского	-10.2705
▁дума	-10.2707
▁1939	-10.2709
▁1943	-10.271
▁алк	-10.2714
▁вечер	-10.2718
▁подробн	-10.2719
шива	-10.2722
▁установил	-10.2722
▁относительности	-10.2726
▁памятны	-10.2727
авиационн	-10.2727
▁омск	-10.2729
▁армении	-10.2734
▁юридическ	-10.2734
тическая	-10.2735
сед	-10.2738
ph	-10.2752
правд	-10.2757
▁солнечной	-10.2762
▁неоднократно	-10.2763
очной	-10.277
ip	-10.2772
▁150	-10.2772
▁местного	-10.2775
▁работать	-10.2777
▁необходимость	-10.278
▁автоматическ	-10.2783
лизм	-10.2783
ad	-10.2788
сар	-10.279
▁зеландии	-10.2792
▁поддержку	-10.2792
▁средние	-10.2792
▁создать	-10.2793
▁кро	-10.2793
▁описания	-10.2795
▁главой	-10.2803
▁машины	-10.2807
▁пуст	-10.2808
ительным	-10.2808
без	-10.281
fi	-10.2813
▁называли	-10.2817
▁банков	-10.2818
▁реакции	-10.2822
▁разнообразны	-10.2822
▁эфир	-10.2823
▁сохранились	-10.2833
▁эффективно	-10.2837
▁τ	-10.2838
▁жители	-10.2854
▁рок	-10.2859
нит	-10.2859
▁римской	-10.2863
▁главной	-10.2864
▁труб	-10.2864
▁частицы	-10.2875
▁совершен	-10.2877
▁эстонии	-10.2881
▁орбитальн	-10.2881
▁основная	-10.2881
именова	-10.2882
▁равна	-10.2882
▁термит	-10.2884
▁получают	-10.2884
▁заключён	-10.2884
▁лесо	-10.2886
рождение	-10.2894
▁повтор	-10.2901
mp	-10.2907
▁фронта	-10.2908
▁дальнейше	-10.2914
▁изменил	-10.2923
▁гимн	-10.2924
орган	-10.293
▁верн	-10.2931
▁формирования	-10.2937
▁решил	-10.2937
▁опасно	-10.294
▁индекс	-10.294
▁физико	-10.294
▁поселения	-10.2941
▁приток	-10.2941
▁либерал	-10.2947
▁стоит	-10.2949
▁спец	-10.2962
▁учрежден	-10.2963
▁выступал	-10.2965
▁национальных	-10.297
▁аксиом	-10.2971
▁китая	-10.2972
ьян	-10.2973
▁государственная	-10.2974
▁писатель	-10.2974
▁увеличение	-10.2974
один	-10.2975
▁сфера	-10.2986
▁частот	-10.2988
государственн	-10.2994
▁царь	-10.2995
▁начина	-10.2997
нис	-10.2997
▁юм	-10.3
▁употреблен	-10.3
▁процент	-10.3002
▁боевы	-10.3004
▁дании	-10.3005
демократ	-10.3008
▁задачи	-10.3012
цел	-10.3016
изацией	-10.3031
▁наблюдается	-10.3034
▁атомов	-10.3034
▁вполне	-10.3041
▁женщины	-10.3051
▁передан	-10.3053
▁израиля	-10.306
▁исследователи	-10.306
▁москва	-10.306
▁изобража	-10.306
маз	-10.3065
▁государственные	-10.3066
▁трудно	-10.3068
ллер	-10.3071
сим	-10.3072
▁началом	-10.3084
▁отправил	-10.309
▁лингвист	-10.309
▁итогам	-10.309
▁статье	-10.309
▁федерального	-10.3091
▁похож	-10.3092
▁распада	-10.3093
▁селе	-10.3098
▁холм	-10.31
категор	-10.3102
▁вооружённых	-10.3106
▁преврати	-10.311
▁французский	-10.3113
елл	-10.3119
▁екатеринбург	-10.3121
бен	-10.3123
▁пет	-10.3132
▁составляла	-10.3133
▁москов	-10.3136
▁обеспечив	-10.3137
ированных	-10.314
▁связанные	-10.3143
▁дисциплин	-10.3145
▁псевдо	-10.3151
▁россией	-10.3151
▁тысячелети	-10.3151
▁порядок	-10.3151
▁испо	-10.3155
▁общественного	-10.3158
▁найти	-10.3158
▁ядра	-10.316
требова	-10.3167
▁флота	-10.3169
▁известна	-10.3171
носят	-10.3174
▁архипелаг	-10.3181
▁лётчик	-10.3182
сона	-10.3182
фар	-10.3183
▁ферм	-10.3185
▁началу	-10.3188
com	-10.3194
функцион	-10.3198
очный	-10.32
▁развиты	-10.3203
печата	-10.3209
▁серб	-10.321
▁обозначен	-10.3212
▁предпринима	-10.3212
▁оказывает	-10.3212
▁действовал	-10.3212
▁общий	-10.3212
▁1946	-10.3217
карт	-10.3226
▁следующий	-10.3227
▁атак	-10.3233
цем	-10.324
▁зачастую	-10.3243
▁можайск	-10.3243
▁коллекци	-10.3243
▁залива	-10.3258
фантаст	-10.3263
▁никол	-10.3265
▁взял	-10.3267
▁исполни	-10.3276
для	-10.328
▁1975	-10.3281
▁1970	-10.3284
▁регионе	-10.3287
▁министерств	-10.3289
нское	-10.3291
тремя	-10.3292
−	-10.3294
свет	-10.3296
▁социальной	-10.3298
▁работают	-10.3301
диапазон	-10.3304
▁следствие	-10.3304
▁высоким	-10.3305
▁категории	-10.3305
▁зимой	-10.3305
циан	-10.331
▁украине	-10.3312
ённая	-10.3318
ёрт	-10.3321
▁данном	-10.3324
иностранн	-10.3333
▁слишком	-10.3335
▁стремлени	-10.3335
электро	-10.3357
▁...	-10.3359
▁местные	-10.3361
▁ритуал	-10.3362
▁клиент	-10.3367
▁музее	-10.3367
▁утра	-10.3368
▁1988	-10.3371
▁законов	-10.3379
▁достижения	-10.3383
▁философия	-10.3389
▁этнически	-10.3395
▁аргумент	-10.3398
▁династии	-10.3398
▁полномочия	-10.3398
▁распространения	-10.3398
▁польши	-10.3398
▁1942	-10.3403
▁продаж	-10.3403
▁трав	-10.3412
▁характерны	-10.342
▁представление	-10.3431
▁1979	-10.3433
▁бос	-10.3434
оценка	-10.3437
▁держав	-10.3444
▁луи	-10.3453
▁горизонт	-10.3455
территориальн	-10.3455
▁введён	-10.3455
▁немецкий	-10.346
▁статистик	-10.346
▁стабильн	-10.346
очным	-10.346
om	-10.3461
▁состоящи	-10.3461
▁городских	-10.3463
▁1961	-10.3464
ичность	-10.3471
джер	-10.3471
▁привели	-10.3474
▁линий	-10.3476
▁григор	-10.3479
▁открытие	-10.3486
значения	-10.3486
▁жёстк	-10.3492
▁связанных	-10.3496
▁дворян	-10.35
▁частно	-10.3508
▁проведения	-10.351
опер	-10.3511
▁исследователь	-10.3513
▁страда	-10.3514
класс	-10.3523
▁серебрян	-10.3523
internet	-10.3523
▁теорем	-10.3523
▁художественно	-10.3527
▁оксид	-10.3527
▁плод	-10.3535
the	-10.3537
▁страной	-10.3543
способ	-10.3548
▁африке	-10.3555
▁владивосток	-10.3555
▁порядке	-10.3555
▁лавр	-10.3556
▁гарант	-10.356
распростран	-10.3566
▁республике	-10.3568
▁1980	-10.3568
!»	-10.3569
▁библиотека	-10.357
▁объединен	-10.357
фил	-10.3578
▁случаев	-10.3579
▁лист	-10.358
▁содержат	-10.3586
▁режиссёр	-10.3587
▁заявлен	-10.3587
▁столицы	-10.3588
▁созданы	-10.3592
ходящих	-10.3592
▁числу	-10.3605
монастыр	-10.3616
уха	-10.3618
▁насчитывал	-10.3618
▁укреплен	-10.3618
▁последнее	-10.3618
▁операция	-10.3624
▁втором	-10.3627
tu	-10.3629
▁кислоты	-10.363
▁знаменит	-10.363
▁(15	-10.3632
▁мать	-10.3633
▁подводн	-10.3638
▁процессов	-10.3641
▁следующ	-10.3645
▁восста	-10.3646
немецко	-10.3651
правил	-10.3658
ленд	-10.366
коротк	-10.3662
несли	-10.3675
▁полезны	-10.3682
▁мотоцикл	-10.3682
▁обусловлен	-10.3682
▁гагарин	-10.3682
▁звуков	-10.369
▁вычислительн	-10.3691
▁использованием	-10.3695
▁исчез	-10.3714
▁бо́льш	-10.3715
▁борьбе	-10.3715
▁негативн	-10.3715
▁филиал	-10.3715
▁убежд	-10.3715
дания	-10.3715
▁1905	-10.3719
2,5	-10.3721
мут	-10.3724
▁классической	-10.3724
▁массово	-10.3726
▁рассмотрен	-10.373
▁официальным	-10.3747
▁представителя	-10.3747
▁требования	-10.3747
▁явление	-10.3747
▁сформирован	-10.3748
▁коммунистическ	-10.3748
▁поверхность	-10.3748
▁социальных	-10.3748
▁остальн	-10.3762
сср	-10.3764
аргент	-10.3777
▁кислород	-10.3779
▁защиты	-10.378
▁преобразования	-10.3781
▁тепловоз	-10.3782
▁регионов	-10.3785
буд	-10.3796
▁мощность	-10.3797
pi	-10.3802
▁наконец	-10.3812
▁неудач	-10.3812
▁кгб	-10.3813
▁девят	-10.3814
▁храни	-10.3815
user	-10.3817
▁1922	-10.3817
водится	-10.3827
▁приблизительно	-10.3844
▁условий	-10.3844
▁второе	-10.3848
▁музыкально	-10.3848
▁окис	-10.3849
▁опира	-10.3851
пет	-10.3852
били	-10.3853
▁правительством	-10.3856
▁московской	-10.3857
кро	-10.3871
сообщить	-10.3876
▁распространи	-10.388
анарх	-10.3887
▁классов	-10.3888
▁подчинен	-10.3889
▁проводил	-10.389
▁формат	-10.3895
▁главных	-10.3895
▁трудов	-10.3896
▁говорят	-10.3898
имость	-10.3902
▁центрально	-10.3904
ющем	-10.3907
▁америке	-10.391
▁продолжен	-10.391
▁современном	-10.391
▁империя	-10.3911
▁1964	-10.3915
▁последовательно	-10.3919
▁попал	-10.3922
▁арест	-10.3923
естественн	-10.3924
▁космическо	-10.3926
▁называются	-10.3928
▁открытия	-10.3933
▁торгово	-10.3933
имости	-10.3934
▁прибор	-10.3935
▁экспедиции	-10.3941
▁уравнения	-10.3943
▁столыпин	-10.3943
▁раньше	-10.3943
▁определить	-10.3943
▁перепис	-10.3944
▁незначительн	-10.3946
▁зло	-10.3946
события	-10.3946
евым	-10.3948
▁ошибке	-10.3955
див	-10.3955
▁крепость	-10.3962
▁источником	-10.3963
▁состоят	-10.3971
▁другое	-10.3974
▁сочинений	-10.3976
▁чрезвычайно	-10.3976
▁паровоз	-10.3977
▁всеми	-10.3981
ницей	-10.3982
▁играл	-10.3982
▁больниц	-10.3987
антроп	-10.3988
▁экипажа	-10.3998
ющейся	-10.3999
▁текстов	-10.4
▁предложение	-10.4001
▁сосед	-10.4005
▁меры	-10.4008
▁импульс	-10.4009
▁последнего	-10.4009
▁широт	-10.4011
▁суток	-10.4011
монгол	-10.4012
ография	-10.4021
▁1930-	-10.4028
tra	-10.4038
устойчив	-10.4039
специалист	-10.4041
▁обнаружил	-10.4042
▁превышает	-10.4042
▁предыдущ	-10.4042
произвольн	-10.4042
▁доброволь	-10.4043
▁столицей	-10.4043
▁кошки	-10.4043
▁обязательно	-10.4047
▁газеты	-10.4054
самостоятельн	-10.4054
▁произведение	-10.4059
данного	-10.4061
станция	-10.4066
▁епископ	-10.4075
▁средний	-10.4075
▁озеро	-10.4076
▁лютер	-10.4077
▁исторических	-10.4078
_4	-10.4081
чук	-10.4082
▁вершин	-10.4084
▁искусственно	-10.4089
▁основыва	-10.4089
▁автомат	-10.409
▁министерства	-10.4092
вании	-10.41
▁тропическ	-10.4101
▁птицы	-10.4102
▁усилен	-10.4102
▁улицы	-10.4103
▁вопросам	-10.4106
▁постановление	-10.4109
▁сравнительно	-10.4109
▁политику	-10.4109
виртуальн	-10.4111
▁мифологии	-10.4113
▁чеченск	-10.4114
▁окружающе	-10.4116
▁бывшего	-10.4117
▁говоря	-10.4119
марк	-10.4121
▁мирового	-10.4122
▁обеспечивает	-10.4123
ступает	-10.4124
▁максимально	-10.4131
▁явлений	-10.4142
++	-10.4143
wa	-10.4144
▁использовались	-10.415
▁располагается	-10.4155
▁польше	-10.4159
▁ix	-10.4159
▁осенью	-10.4176
▁россию	-10.4176
▁обучение	-10.4176
▁технологии	-10.4176
▁современник	-10.4176
▁of	-10.418
▁звание	-10.4181
▁использоваться	-10.4181
▁взгляды	-10.4183
▁посвящен	-10.4185
монт	-10.4185
▁богом	-10.4187
лёв	-10.419
▁учреждений	-10.4194
▁христианство	-10.4204
▁сборник	-10.4206
▁относил	-10.4206
bot	-10.4208
▁сергей	-10.421
▁налогов	-10.4211
▁1965	-10.4216
▁которыми	-10.4226
бог	-10.4227
pl	-10.4227
▁пределами	-10.4235
▁подъём	-10.4244
▁каждом	-10.4244
▁европейского	-10.4244
ухи	-10.4246
▁величины	-10.4247
▁соответствующе	-10.4247
▁бесплатн	-10.4247
▁карьер	-10.4249
▁мэр	-10.4251
▁богов	-10.4256
▁дополнительно	-10.4263
▁соседни	-10.4263
▁отказ	-10.4267
▁границ	-10.4268
▁различными	-10.427
▁бомб	-10.427
ресурс	-10.4275
восточной	-10.4275
▁писателя	-10.4277
▁латвии	-10.4278
▁денег	-10.4278
▁составляли	-10.4279
▁пита	-10.4282
▁1967	-10.4283
преступ	-10.429
▁роз	-10.429
▁использует	-10.4296
▁терминал	-10.4297
▁прирост	-10.4305
▁магнитно	-10.4306
ig	-10.4308
▁деньги	-10.4309
▁разрабатыва	-10.4312
▁фольклор	-10.4312
▁заключается	-10.4318
▁требовал	-10.4319
▁восстание	-10.432
▁ограничива	-10.432
▁пришёл	-10.4329
▁пригород	-10.433
фицирован	-10.4343
▁относят	-10.4344
▁традиция	-10.4346
▁минимум	-10.4346
▁размещен	-10.4346
▁высота	-10.4349
▁премии	-10.435
▁курган	-10.4353
ированные	-10.4355
▁группу	-10.4362
▁впрочем	-10.438
▁присоединен	-10.438
▁высокого	-10.438
▁путей	-10.4382
▁служит	-10.4382
▁комиссии	-10.4382
▁поглощ	-10.4382
▁рекорд	-10.4383
▁книгу	-10.4384
▁социолог	-10.4385
стол	-10.4392
▁плато	-10.4392
▁общины	-10.441
жён	-10.4412
▁скульптур	-10.4415
▁последних	-10.4415
▁библиотек	-10.4426
суббот	-10.443
ka	-10.443
смысл	-10.4435
соглас	-10.4444
▁весной	-10.4447
▁коэффициент	-10.4449
▁законодательно	-10.4449
▁высокая	-10.4449
▁обучения	-10.4449
▁аристотеля	-10.445
▁разгром	-10.445
▁комнат	-10.4451
▁главного	-10.4452
▁доктор	-10.4452
▁восстания	-10.4453
ализма	-10.4458
▁протека	-10.4459
ющаяся	-10.4461
▁соединен	-10.4462
▁сайт	-10.4462
▁обуча	-10.4465
▁киров	-10.4475
linux	-10.4484
▁турнир	-10.4485
▁механики	-10.4487
▁гранж	-10.4489
▁школу	-10.4491
первичн	-10.4493
▁кип	-10.4494
▁упоминается	-10.4503
▁объединения	-10.4507
▁привлек	-10.4515
управлен	-10.4516
▁универсальн	-10.4519
▁белоруссии	-10.4519
▁доктрин	-10.4519
▁концепции	-10.4519
▁уменьшен	-10.4519
▁третий	-10.4519
▁компаний	-10.4519
▁1987	-10.4524
▁статья	-10.4525
▁xi	-10.4531
камен	-10.4531
▁создаёт	-10.4535
▁франция	-10.4546
▁прекращ	-10.4553
archive	-10.4554
▁возвраща	-10.4554
▁обстоятельств	-10.4554
▁харьков	-10.4554
▁глобальн	-10.4554
▁сельское	-10.4554
технолог	-10.4555
▁кук	-10.456
▁советские	-10.4563
▁находились	-10.4564
селя	-10.4571
маг	-10.4582
▁называемый	-10.4583
▁послан	-10.4584
бласт	-10.4586
▁конструкции	-10.4589
▁отмечен	-10.4589
▁современный	-10.4589
▁высоких	-10.4589
▁областей	-10.4589
▁кредит	-10.459
▁проник	-10.4605
▁дифференци	-10.4624
▁пруссии	-10.4624
▁ричард	-10.4624
▁диоген	-10.4624
гиб	-10.4628
▁выступает	-10.4638
▁выражение	-10.4642
bi	-10.4648
▁антони	-10.4648
ab	-10.465
мех	-10.4654
полковник	-10.4655
▁внешняя	-10.466
▁творчество	-10.466
▁операций	-10.466
▁индуизм	-10.466
национальная	-10.4665
▁крупный	-10.4668
...»	-10.4674
▁северном	-10.4676
▁отмечает	-10.4679
▁диалог	-10.4679
▁ельцин	-10.4695
глаша	-10.4696
▁приписыва	-10.4699
▁атлантическ	-10.4712
▁кипр	-10.4713
fe	-10.4714
▁поднима	-10.4714
▁оборудован	-10.4717
▁недели	-10.4717
чё	-10.4722
▁эквивалент	-10.4731
▁администрации	-10.4731
▁прекратил	-10.4733
▁1978	-10.4737
дут	-10.4739
▁всему	-10.4741
▁нигер	-10.4741
▁вооруж	-10.4744
▁немецких	-10.4766
▁творчества	-10.4766
▁talk	-10.4766
▁ранних	-10.4767
▁1962	-10.4772
▁400	-10.4775
▁измене	-10.4798
теизм	-10.4801
▁продолжил	-10.4802
▁аммиак	-10.4802
▁колумб	-10.4802
▁резерв	-10.4802
закон	-10.4803
▁торжеств	-10.4803
▁лежит	-10.4805
▁запись	-10.4806
▁статьи	-10.4808
академ	-10.4808
▁1985	-10.481
▁стихи	-10.4814
▁верховны	-10.4814
▁аналогичны	-10.4814
▁личности	-10.482
▁называть	-10.4838
▁процедур	-10.4838
▁гонконг	-10.4838
▁окраин	-10.4838
киргиз	-10.484
▁высших	-10.4844
▁издание	-10.4849
▁определяет	-10.4856
▁монеты	-10.4863
гун	-10.4866
▁источники	-10.487
▁важную	-10.4874
эфиоп	-10.4875
▁конкурс	-10.4875
▁250	-10.4877
▁магнитны	-10.4877
▁экономике	-10.4879
▁улице	-10.489
линейны	-10.4891
▁военный	-10.4893
▁иванович	-10.4901
▁обязательн	-10.4905
▁провёл	-10.4905
▁называемые	-10.491
▁командованием	-10.491
▁разговор	-10.4911
▁пришлось	-10.4911
▁утверждён	-10.4912
▁арестован	-10.4913
▁1973	-10.4916
▁ледник	-10.4922
руша	-10.4926
▁километров	-10.493
▁тесно	-10.4931
▁парус	-10.4935
бразил	-10.4938
▁глин	-10.494
▁результатом	-10.4944
▁подготовку	-10.4947
▁бюро	-10.4947
▁одноимённ	-10.4948
▁1983	-10.4952
ходящие	-10.4957
колониальн	-10.4958
▁драм	-10.4967
▁интенсивно	-10.4968
▁1930	-10.4972
крест	-10.4981
▁расстояния	-10.4983
▁ситуации	-10.4983
▁обладают	-10.4983
▁продолжает	-10.4986
▁1921	-10.499
▁распределен	-10.4992
▁начались	-10.4996
живопис	-10.5
▁vii	-10.5005
▁дополнен	-10.5008
пин	-10.5013
рост	-10.5014
ap	-10.5018
освобожден	-10.502
▁эсперанто	-10.502
▁мифологическ	-10.5021
▁начинает	-10.5022
▁вышел	-10.5024
▁пусты	-10.5024
▁познания	-10.5032
▁лод	-10.5036
iv	-10.5038
▁ярко	-10.5042
сознательн	-10.5051
очную	-10.5052
▁центрального	-10.5053
ируя	-10.5054
▁стихотвор	-10.5057
▁единственный	-10.5057
▁очередн	-10.5057
▁частных	-10.5057
▁отдыха	-10.5057
▁оказались	-10.506
▁кир	-10.5061
▁мнения	-10.5063
▁сферы	-10.5063
▁водорода	-10.5065
▁практич	-10.508
▁народной	-10.5083
▁поведения	-10.5086
▁тёпл	-10.5094
▁учёный	-10.5094
▁собственные	-10.5094
▁стоимость	-10.5095
честве	-10.5096
улучшен	-10.5097
▁стиль	-10.511
падают	-10.5112
▁термо	-10.5116
▁могла	-10.5118
_5	-10.5118
▁преимуществ	-10.5128
▁нефте	-10.513
▁сосредоточен	-10.5131
▁международные	-10.5131
▁ресурсов	-10.5132
▁южном	-10.5133
▁великий	-10.5133
▁1986	-10.5137
0,5	-10.5139
▁томск	-10.5142
▁массовой	-10.5155
▁заключа	-10.5156
▁сумма	-10.516
▁студентов	-10.5166
энергетическ	-10.5168
▁предоставлен	-10.5168
▁течения	-10.5168
▁дважды	-10.5168
▁нефть	-10.5169
▁троцкий	-10.517
▁героя	-10.5172
▁1974	-10.5173
баш	-10.5175
герман	-10.5181
▁играет	-10.5189
▁результатам	-10.5198
▁появилось	-10.5205
▁произошёл	-10.5205
▁противоположно	-10.5205
▁областях	-10.5205
▁отрасли	-10.5205
▁молотов	-10.5206
▁дочь	-10.5206
▁принимает	-10.5209
ber	-10.5209
вшееся	-10.5227
sta	-10.5229
тельным	-10.5233
▁серии	-10.5234
▁наследия	-10.5239
▁душа	-10.5244
▁прибрежн	-10.5247
бук	-10.5248
▁воздушно	-10.5248
ul	-10.5251
▁имеющие	-10.5256
▁технически	-10.5261
берт	-10.5264
▁джаз	-10.5267
per	-10.5272
▁оценки	-10.5281
▁простых	-10.5281
▁заметно	-10.5281
▁полной	-10.5289
▁радиус	-10.5293
▁достижени	-10.5298
▁говор	-10.5301
▁требует	-10.5302
iii	-10.5303
крит	-10.5305
▁космического	-10.5305
▁спутников	-10.5306
▁проведени	-10.5306
▁освободи	-10.5309
▁проживал	-10.5312
▁учебных	-10.5313
▁лекци	-10.5313
▁британской	-10.5317
▁кинематограф	-10.5318
▁поддержан	-10.5318
▁алексеев	-10.5318
▁хокинг	-10.5318
▁скорее	-10.5318
▁архив	-10.5318
▁рациональн	-10.5319
▁оценкам	-10.5323
ивание	-10.5346
▁подчёркива	-10.5356
▁многим	-10.5356
▁различают	-10.5357
▁биологическ	-10.5362
ировались	-10.537
▁исследование	-10.5372
▁владел	-10.5373
▁создав	-10.5375
▁теоретически	-10.5394
▁христа	-10.5394
▁каждая	-10.5394
▁замеча	-10.5394
стратегическ	-10.5394
▁посетил	-10.5394
con	-10.5397
▁высшего	-10.5398
▁измерен	-10.5399
▁возникает	-10.5409
▁пик	-10.5411
▁видимо	-10.5411
ющегося	-10.5426
▁другого	-10.5429
▁включал	-10.5432
▁телеканал	-10.5432
▁экран	-10.5433
▁поражение	-10.5434
▁металлов	-10.5434
▁изменений	-10.5435
▁целях	-10.5439
независим	-10.5439
▁библиотеки	-10.5439
▁открыва	-10.5443
природных	-10.5455
ag	-10.5464
▁общие	-10.5467
▁появления	-10.547
▁аспект	-10.547
▁авторитет	-10.547
▁излучения	-10.547
▁македо	-10.5471
▁академик	-10.5472
▁враг	-10.5474
праздники	-10.5478
▁содержания	-10.5483
▁обрати	-10.5485
▁оборудование	-10.5485
ard	-10.5492
даёт	-10.5499
▁значительные	-10.5502
▁дворец	-10.5505
▁подразумева	-10.5509
▁поддержки	-10.5509
▁смешанн	-10.5509
▁народного	-10.5511
▁натрия	-10.5511
▁давления	-10.5513
▁туристов	-10.5515
водятся	-10.5524
▁600	-10.5542
▁конференции	-10.5547
▁1957	-10.5547
▁добавлен	-10.5547
▁канады	-10.5548
▁питания	-10.5552
бык	-10.5555
▁отличаются	-10.5558
▁бир	-10.5558
чить	-10.5575
▁академическ	-10.5578
́т	-10.558
▁письме	-10.5582
▁описывает	-10.5584
▁соглашения	-10.5586
▁месторождения	-10.5586
▁информацию	-10.5586
▁параллельно	-10.5587
▁правильно	-10.56
метров	-10.5605
▁получивши	-10.561
▁профессионально	-10.5623
▁армию	-10.5626
▁вселенной	-10.5626
▁идею	-10.563
▁1924	-10.5633
▁вечно	-10.5635
▁морских	-10.5636
▁образует	-10.5637
ke	-10.5638
▁освоен	-10.5639
▁обеспечение	-10.5645
двор	-10.5646
▁гром	-10.5649
▁всемирного	-10.5653
▁мис	-10.5658
▁внутренней	-10.5664
▁зафиксирован	-10.5664
▁существовало	-10.5664
благоприятн	-10.5664
▁воздействие	-10.5664
▁внимания	-10.5665
▁экспедици	-10.5666
▁казаков	-10.5668
▁1963	-10.567
▁плотин	-10.567
космонавт	-10.5672
▁1948	-10.5672
сухопутн	-10.5677
sm	-10.5678
▁сухо	-10.5681
▁остальных	-10.5682
небесн	-10.5688
министром	-10.5691
▁считаются	-10.5694
▁евреев	-10.5703
▁борьба	-10.5703
▁железных	-10.5704
▁соединённы	-10.5704
▁физике	-10.5708
▁общим	-10.5709
▁цирк	-10.571
▁1947	-10.571
▁песня	-10.571
▁австрал	-10.5713
▁психологии	-10.5726
скоростн	-10.5727
▁единого	-10.5731
▁двойн	-10.5734
▁реакция	-10.5743
▁существовали	-10.5743
▁вызывает	-10.5743
▁технологий	-10.5743
▁предложения	-10.5748
▁диаметр	-10.5748
▁ядро	-10.575
▁1949	-10.575
xvii	-10.5755
▁перси	-10.5759
▁отмечается	-10.5761
▁местности	-10.5778
▁следовательно	-10.5782
▁двадцат	-10.5782
▁проспект	-10.5782
▁принятия	-10.5788
▁оставил	-10.5795
▁йо	-10.5801
▁переселен	-10.5807
▁условно	-10.5808
▁границу	-10.5813
▁скоростью	-10.5814
▁уильям	-10.5822
▁форт	-10.5836
ущий	-10.5841
▁угле	-10.5842
▁закончил	-10.5859
предположительно	-10.5862
▁зарубежн	-10.5862
восточная	-10.5862
▁секрет	-10.5862
орт	-10.5864
▁ключевы	-10.5866
▁филиппин	-10.5866
счёт	-10.5867
▁1959	-10.5867
▁придержива	-10.5867
▁1982	-10.5868
▁1968	-10.5868
▁отказался	-10.5871
ty	-10.5877
▁отступ	-10.5888
писывал	-10.5891
▁советским	-10.5892
▁знамен	-10.5896
крепостн	-10.59
▁google	-10.5902
▁кладбище	-10.5902
▁наступление	-10.5902
▁отсутствует	-10.5902
▁характеризуется	-10.5902
▁королевство	-10.5902
▁химических	-10.5902
▁подавлен	-10.5905
▁делятся	-10.5906
▁элементарны	-10.5909
▁событие	-10.5911
▁северный	-10.5915
▁вернул	-10.5917
▁соединений	-10.592
▁процессор	-10.5931
прусск	-10.5933
▁начался	-10.5938
▁пласт	-10.5939
▁афганистан	-10.5942
▁используя	-10.5942
▁перспектив	-10.5942
▁принадлежал	-10.5942
▁высокий	-10.5942
▁южная	-10.5942
▁достигнут	-10.5942
▁динамическ	-10.5943
▁борт	-10.5945
хождения	-10.5945
▁появляется	-10.5947
▁1977	-10.5948
▁1938	-10.5949
▁эпох	-10.5967
▁состоялся	-10.5976
эффективн	-10.5977
▁носил	-10.598
▁великобритания	-10.5982
▁контроля	-10.5982
▁добыча	-10.5982
гигант	-10.5987
▁1935	-10.5989
▁1936	-10.599
▁основал	-10.599
▁главные	-10.5993
▁крупн	-10.5997
стал	-10.6005
▁участия	-10.6023
▁брон	-10.6028
▁1971	-10.6029
▁еврейско	-10.6033
дик	-10.6034
тихо	-10.6036
точных	-10.6037
▁провозглашен	-10.6046
пустил	-10.6049
▁богаты	-10.6052
▁способности	-10.6062
▁недостаточно	-10.6063
▁исследователей	-10.6063
▁палестин	-10.6063
▁приговор	-10.6064
▁другая	-10.6067
▁священник	-10.607
▁народный	-10.6073
▁русская	-10.6086
▁связей	-10.6088
▁люд	-10.6094
ванию	-10.6097
▁физика	-10.6101
▁стадион	-10.6104
▁христо	-10.6104
lu	-10.6112
▁ранние	-10.612
▁требуется	-10.6122
спорт	-10.6124
▁ограничения	-10.6135
▁сооружения	-10.6135
▁объединение	-10.6139
▁настолько	-10.6145
▁днём	-10.6145
▁япония	-10.6145
▁промышленных	-10.6146
▁отсчёта	-10.6146
▁химии	-10.6146
▁английском	-10.6149
▁проверк	-10.6149
—15	-10.6151
▁металлическ	-10.6159
▁имеющих	-10.616
▁вернулся	-10.6162
▁использовался	-10.6165
▁редки	-10.6165
▁полюс	-10.6167
ine	-10.6168
▁северная	-10.6181
▁французского	-10.6182
▁оружия	-10.6186
▁королевства	-10.6186
▁падеж	-10.6187
▁портрет	-10.6187
бур	-10.6189
▁поддерживает	-10.619
▁1956	-10.6192
▁1926	-10.6194
ведении	-10.6194
▁древние	-10.6195
▁созданию	-10.6197
▁распространённы	-10.6201
▁приступ	-10.6206
▁плохо	-10.6207
индус	-10.6207
▁куда	-10.621
апостол	-10.6212
рван	-10.6215
▁римски	-10.6219
▁интерфейс	-10.6228
▁высотой	-10.6228
▁торговля	-10.6228
▁нынешне	-10.6228
▁предан	-10.623
▁эпикур	-10.623
▁оказалась	-10.6231
католик	-10.6233
север	-10.6235
▁прошёл	-10.6236
▁производитель	-10.6237
▁жидкости	-10.624
▁потеря	-10.6242
▁получал	-10.6245
президент	-10.6249
▁проходят	-10.6255
▁песен	-10.6256
▁значит	-10.6269
▁норвегии	-10.6269
▁становятся	-10.6269
▁васильев	-10.627
▁волос	-10.627
▁подвижн	-10.627
▁воспроизв	-10.6271
▁курорт	-10.6271
▁республикой	-10.628
эксперт	-10.6282
▁риф	-10.6283
▁расширение	-10.6287
ga	-10.6287
▁хол	-10.6287
▁проводится	-10.6289
▁материально	-10.63
▁сути	-10.6303
▁согласны	-10.6305
▁французской	-10.6308
▁узбекистан	-10.6311
▁людьми	-10.6311
▁волги	-10.6313
▁властей	-10.6314
▁стиля	-10.6317
0,1	-10.6318
скрип	-10.6329
im	-10.633
▁голод	-10.6332
▁приняты	-10.6336
▁аналогично	-10.6338
▁1900	-10.6341
более	-10.6342
ологию	-10.6342
▁высоте	-10.6353
▁записан	-10.6354
▁углерода	-10.6355
▁выполнения	-10.6356
▁дворца	-10.6362
▁запрос	-10.6365
▁экипаж	-10.6366
▁профессиональны	-10.6369
▁оказался	-10.6379
▁болгарии	-10.6385
▁википеди	-10.6395
▁восприятия	-10.6395
▁значений	-10.6395
▁классификация	-10.6395
▁собственных	-10.6395
▁пакет	-10.6397
▁старейши	-10.6397
▁государственном	-10.6398
ps	-10.6399
▁повторя	-10.6399
▁1976	-10.6402
▁сообщества	-10.6403
▁площадью	-10.6406
▁снег	-10.6412
▁запуск	-10.6416
▁осуществляет	-10.6423
▁специальные	-10.6427
▁обращение	-10.6429
луг	-10.6434
▁гармони	-10.6436
▁вертолёт	-10.6437
▁соловьёв	-10.6437
▁училище	-10.6437
▁граничит	-10.6437
▁последней	-10.6437
▁султан	-10.6437
▁возвышенн	-10.6437
▁поступил	-10.6439
▁появляются	-10.6441
▁научные	-10.6441
▁государственное	-10.6441
▁1929	-10.6444
▁1914	-10.6448
▁слух	-10.6449
▁еже	-10.6454
перед	-10.6464
автоном	-10.6466
▁мировых	-10.6468
▁говорить	-10.6474
▁средних	-10.6479
▁заговор	-10.648
▁подобные	-10.648
▁функционал	-10.648
велесов	-10.6481
известн	-10.6481
▁макро	-10.6502
▁вторым	-10.6503
▁пользователя	-10.6517
▁евклид	-10.6522
▁прогноз	-10.6522
безопасн	-10.6522
▁феномен	-10.6522
ko	-10.6522
▁покинул	-10.6522
▁слуша	-10.6523
коммерческ	-10.6524
▁уголовн	-10.6528
▁насчитывается	-10.653
▁олимпийских	-10.653
▁намерен	-10.6535
▁небольшой	-10.6544
носить	-10.6545
▁юрий	-10.6553
▁десятилетия	-10.6565
▁заявля	-10.6565
▁положительно	-10.6565
▁католическо	-10.6566
▁бывший	-10.6576
▁христианства	-10.6586
▁советская	-10.6588
▁произведен	-10.6592
▁коммерчески	-10.6605
▁патриарх	-10.6607
▁наполеон	-10.6607
▁простые	-10.6608
▁дальнейш	-10.6622
чёрно	-10.6623
▁настроен	-10.6632
▁подземн	-10.6636
▁страниц	-10.6649
▁водохранилищ	-10.6651
▁полномочий	-10.6651
▁авраам	-10.6651
▁участка	-10.6651
▁революция	-10.6651
▁прошли	-10.6652
pro	-10.6659
▁журналист	-10.6665
▁обращения	-10.6666
▁турции	-10.6667
▁линейно	-10.6667
рожден	-10.6668
▁принять	-10.667
▁получение	-10.6674
▁департамент	-10.6694
▁возврат	-10.6694
▁принимать	-10.6694
▁поводу	-10.67
▁1937	-10.6702
▁германией	-10.6705
▁конечны	-10.6707
▁uni	-10.6727
▁петро	-10.673
▁тёмн	-10.6732
▁латинской	-10.6733
▁столице	-10.6736
▁уравнений	-10.6737
▁гитлер	-10.6737
▁израиле	-10.6738
▁квартал	-10.6738
▁приобрел	-10.6739
▁социальные	-10.6739
▁подчиня	-10.674
совместим	-10.6742
▁выпустил	-10.6746
▁общения	-10.6753
▁олимпийск	-10.6772
▁близко	-10.6776
лаборатори	-10.6781
▁февраль	-10.6781
энергетик	-10.6781
▁приметы	-10.6781
vo	-10.6784
▁будущи	-10.6786
▁1958	-10.6787
▁1933	-10.6789
штейн	-10.6796
авто	-10.6808
go	-10.6822
▁превраща	-10.6824
▁королём	-10.6825
▁присоединил	-10.6825
▁встретил	-10.6825
комисси	-10.6826
▁немецкой	-10.6826
▁общественных	-10.6826
▁ресурсы	-10.6827
▁география	-10.6828
летнего	-10.6829
▁1984	-10.6832
▁потери	-10.6833
▁800	-10.684
▁присвоен	-10.6853
альтернатив	-10.6858
▁психо	-10.6861
sch	-10.6865
▁специализирован	-10.6869
▁взросл	-10.6869
▁достоинств	-10.6869
▁озера	-10.687
▁вошла	-10.687
▁знаний	-10.687
▁осуществлени	-10.6871
▁кнр	-10.6872
▁враща	-10.6872
катерин	-10.6873
▁небесны	-10.6877
▁находилась	-10.6879
▁следующих	-10.6881
▁московский	-10.6882
▁существенны	-10.6884
▁соответствую	-10.6886
▁являлись	-10.6888
▁справедливо	-10.6891
▁испытыва	-10.6913
▁небольшие	-10.6913
▁оружие	-10.6913
▁председателем	-10.6913
▁оркестр	-10.6913
▁человеческого	-10.6914
▁зевс	-10.6917
▁значительным	-10.6919
▁1969	-10.692
▁рассматривать	-10.6922
▁захватил	-10.6928
ложить	-10.6937
▁график	-10.6943
высшая	-10.6949
▁ветра	-10.6949
▁кинотеатр	-10.6958
▁послужил	-10.6958
▁пакистан	-10.6958
▁службу	-10.6958
▁исторической	-10.6958
▁завершени	-10.6958
▁точке	-10.6958
▁1953	-10.6964
▁восьми	-10.6964
▁трети	-10.6979
ica	-10.6979
▁рассматривается	-10.6988
▁вице	-10.6994
▁джордж	-10.7002
адвентист	-10.7002
▁иерарх	-10.7002
▁последним	-10.7002
ационные	-10.7003
▁современным	-10.7003
▁чёрной	-10.7003
▁1966	-10.7009
▁мартин	-10.7013
действительности	-10.7016
▁проводятся	-10.7019
абсолют	-10.7023
▁противника	-10.7024
регуля	-10.7027
звон	-10.7033
▁отделения	-10.7043
▁внутреннего	-10.7047
▁туркменистан	-10.7047
металлург	-10.7047
▁печати	-10.7047
▁аристотель	-10.7048
нравственн	-10.7049
▁отправлен	-10.705
▁объединённы	-10.7051
▁делится	-10.7055
▁станций	-10.7056
▁сложности	-10.706
мета	-10.7065
▁окружающ	-10.7066
десят	-10.7067
▁слоя	-10.707
▁всемирн	-10.7084
губернатор	-10.7091
▁современная	-10.7092
▁имуществ	-10.7092
▁пехот	-10.7092
▁основного	-10.7093
▁троцкого	-10.7095
▁писателей	-10.7095
▁создавал	-10.7101
▁экономический	-10.7104
ставка	-10.7113
железн	-10.7125
▁иерусалим	-10.7137
▁лукашенко	-10.7137
▁принадлежат	-10.7137
▁информация	-10.7137
▁политике	-10.7137
▁показатель	-10.7138
▁правление	-10.7138
▁нежел	-10.7147
▁ибн	-10.715
▁сохранил	-10.7151
▁минерал	-10.7161
▁грузии	-10.7172
▁мелко	-10.7181
▁трен	-10.7181
▁религиозные	-10.7183
▁столетия	-10.7183
▁обработки	-10.7183
▁рынка	-10.7183
▁проезд	-10.7184
▁составляющи	-10.7185
3,5	-10.7193
▁рыбинск	-10.7202
cr	-10.7205
очист	-10.721
▁вещей	-10.7215
▁java	-10.7228
▁ухудш	-10.7228
▁греческой	-10.7229
▁посещени	-10.7229
▁собственным	-10.7232
▁схож	-10.7232
▁иначе	-10.7238
▁хотел	-10.7239
арктик	-10.7244
▁обозначает	-10.7247
лично	-10.725
этажн	-10.726
▁умеренно	-10.7267
▁обсужда	-10.7274
▁атрибут	-10.7274
▁кёнигсберг	-10.7274
▁поддержке	-10.7274
▁племён	-10.7274
▁регулярны	-10.7274
▁разработал	-10.7275
▁прекращени	-10.7276
▁солнечно	-10.7276
▁специалистов	-10.7276
▁британско	-10.7278
нефтян	-10.7278
▁1934	-10.7283
▁чехи	-10.7286
этническ	-10.7287
gen	-10.7287
хождение	-10.7292
спеш	-10.7292
▁каст	-10.7313
▁главнокомандующ	-10.732
▁поэзии	-10.732
▁теоретическо	-10.732
▁воспитан	-10.732
▁высказал	-10.7321
▁английского	-10.7321
▁взаимно	-10.7322
▁оставался	-10.7325
▁высшей	-10.7325
▁предполагается	-10.7344
▁фри	-10.7356
▁жителя	-10.7358
напряжен	-10.7361
гели	-10.7361
▁колес	-10.7366
▁внутренние	-10.7367
▁приоритет	-10.7367
▁внешних	-10.7367
▁кавалер	-10.7367
▁монастырь	-10.7367
▁чёрного	-10.7367
варшав	-10.7369
включая	-10.7372
▁1981	-10.7373
▁1972	-10.7374
▁преобладают	-10.7377
▁функционально	-10.7379
▁чём	-10.7382
▁литвы	-10.7382
▁облик	-10.7397
экваториальн	-10.7399
we	-10.7406
▁провинция	-10.7413
▁чиновник	-10.7413
▁минимальны	-10.7414
́д	-10.7414
▁роберт	-10.7415
▁никаки	-10.7421
▁следующем	-10.7427
▁известность	-10.7429
▁санкци	-10.7443
▁знал	-10.7444
▁серьёзно	-10.7444
▁церковно	-10.7459
▁национальным	-10.746
▁высоты	-10.746
▁академия	-10.7461
▁устойчиво	-10.7464
▁добыва	-10.7465
опыт	-10.7465
▁призван	-10.7466
▁зерно	-10.7466
▁1925	-10.7473
▁списка	-10.7475
▁кратко	-10.7477
▁мавр	-10.7483
▁славянских	-10.7486
▁обоих	-10.7496
▁python	-10.7507
▁руководства	-10.7507
▁греческого	-10.7507
▁оплаты	-10.7507
сексуальн	-10.7508
▁политическая	-10.751
▁американский	-10.7511
▁кажды	-10.7511
▁военным	-10.7516
утвержд	-10.7519
▁начинают	-10.7522
▁исправ	-10.7524
▁использовании	-10.7534
▁пришли	-10.7538
▁образуется	-10.754
▁viii	-10.7543
▁скептицизм	-10.7554
▁болезни	-10.7554
▁обнаружив	-10.7554
▁высшее	-10.7554
▁движении	-10.7554
▁рабочей	-10.7555
▁немецкого	-10.7555
▁вращения	-10.7555
адмирал	-10.7555
▁людям	-10.7556
▁классификации	-10.7557
▁1906	-10.756
▁1928	-10.7563
▁чётко	-10.7566
▁революционно	-10.757
▁дерево	-10.7579
▁финал	-10.758
атлант	-10.7588
▁распределение	-10.759
▁знамениты	-10.7593
▁заканчива	-10.7601
▁таджикистан	-10.7601
▁катастроф	-10.7601
▁отмечают	-10.7601
▁православной	-10.7602
▁церковны	-10.7602
▁учёным	-10.7603
▁жилищ	-10.7604
▁кольца	-10.7606
лайн	-10.7614
вероятн	-10.7618
▁ясно	-10.762
par	-10.7643
▁минеральны	-10.7647
революц	-10.7648
▁функцию	-10.7649
▁понимание	-10.7649
▁переехал	-10.7649
▁поколения	-10.765
▁монастыря	-10.7652
▁мамонт	-10.7652
▁состоялось	-10.7655
▁палео	-10.7662
▁центральный	-10.7666
текст	-10.7676
▁казахск	-10.7681
▁брун	-10.7684
▁избираемы	-10.7686
ja	-10.769
▁значении	-10.7697
▁калькулятор	-10.7697
▁партизан	-10.7697
▁южный	-10.7697
тождеств	-10.7698
▁далеко	-10.7698
▁льда	-10.7699
▁спрос	-10.7704
▁астролог	-10.7708
▁номинал	-10.7724
▁креп	-10.7727
▁выделить	-10.7732
▁относя	-10.7741
воспоминания	-10.7745
▁содружества	-10.7745
▁гильберт	-10.7745
▁концепция	-10.7745
▁юнеско	-10.7745
▁пьес	-10.7747
▁решений	-10.776
▁служить	-10.7765
▁километр	-10.7767
▁зависимость	-10.7768
держать	-10.7772
древнегреческ	-10.7786
▁применен	-10.779
ae	-10.7792
вшему	-10.7792
▁углекисл	-10.7793
▁комиссар	-10.7793
▁дионис	-10.7793
▁высокие	-10.7793
▁кошек	-10.7794
▁своеобразн	-10.7795
▁авиации	-10.7802
▁живут	-10.7806
молекулярн	-10.7807
▁вулкан	-10.781
▁древности	-10.7811
▁давал	-10.7812
▁вирус	-10.7815
вспомогательн	-10.7842
▁beatles	-10.7842
пропорциональн	-10.7842
▁седьм	-10.7842
▁сознания	-10.7842
▁колледж	-10.7842
▁хлоп	-10.7842
▁сохранения	-10.7842
▁завоеван	-10.7842
▁баб	-10.7842
▁римлян	-10.7843
▁позвоночн	-10.7844
▁пребывания	-10.7844
▁обеспечен	-10.7846
▁урана	-10.7849
mon	-10.7849
1,2	-10.7851
▁электрическо	-10.7889
▁обрабатыва	-10.7891
▁официальных	-10.7891
▁экземпляр	-10.7891
▁библии	-10.7891
▁большевиков	-10.7892
▁физической	-10.7892
▁выгод	-10.7892
▁статей	-10.7892
▁обладающ	-10.7893
▁надежд	-10.7893
▁волк	-10.7893
▁двигателя	-10.7894
▁древнейши	-10.7898
▁особенностью	-10.7899
▁пережив	-10.79
информационны	-10.7902
определённ	-10.7909
%	-10.791
▁науру	-10.7912
1,3	-10.7919
ставлял	-10.7923
▁исследован	-10.7931
▁коротко	-10.7933
▁реализован	-10.794
▁хрущёв	-10.794
▁изделия	-10.7941
▁череп	-10.7945
рыболов	-10.7946
▁международном	-10.7947
▁учёто	-10.7948
▁похоронен	-10.795
▁сторонников	-10.795
▁московском	-10.7951
▁реальности	-10.7954
структур	-10.7956
▁стимул	-10.796
▁болот	-10.7966
▁зуб	-10.7966
зеркал	-10.7968
▁научным	-10.7969
▁свое	-10.7972
большевик	-10.7978
▁редактор	-10.7989
▁каспий	-10.7989
▁деревьев	-10.7989
▁поселение	-10.7991
▁оформлен	-10.7992
▁ведомств	-10.7992
▁1955	-10.7997
man	-10.8002
▁метра	-10.8003
▁работающи	-10.8003
▁матч	-10.8003
исполнен	-10.8006
▁определил	-10.8009
▁вероятность	-10.801
географическ	-10.8011
▁чемпион	-10.8017
▁долина	-10.8025
▁создавать	-10.8029
▁потребовал	-10.8037
▁провозгласил	-10.8038
▁участки	-10.8038
▁возглавил	-10.8038
▁профсоюз	-10.8038
▁мышления	-10.8039
▁италия	-10.8041
▁назвать	-10.8042
▁пятниц	-10.8043
▁мобильн	-10.8047
▁дипломатические	-10.8053
если	-10.8056
монгольск	-10.806
круп	-10.8068
▁архимед	-10.8088
▁лауреат	-10.8088
▁меньшинств	-10.8088
▁соотношение	-10.8088
▁нобелевск	-10.8088
допустим	-10.8088
▁ниуэ	-10.8089
▁молитв	-10.809
▁политическим	-10.809
▁владения	-10.809
▁территориальны	-10.8103
салют	-10.8103
▁вернуть	-10.8114
материал	-10.8119
янтарн	-10.8129
ступают	-10.8136
▁абстрактн	-10.8138
▁количеству	-10.8138
▁немецкие	-10.8138
▁присутствует	-10.8138
▁расцвет	-10.8138
▁рынок	-10.8138
▁частях	-10.8138
▁противопоставл	-10.8141
▁политического	-10.8141
▁бумаг	-10.8142
▁наследник	-10.8144
▁визит	-10.8155
▁бутан	-10.8155
месячн	-10.8157
балтийск	-10.8159
tur	-10.8175
▁осозна	-10.8181
▁джеймс	-10.8188
▁небольших	-10.8188
▁частные	-10.8189
▁ньютона	-10.8189
▁расширя	-10.8189
▁контролиру	-10.8189
▁закрепи	-10.8189
▁разработка	-10.8189
▁подобных	-10.819
▁тяжел	-10.819
▁среда	-10.8192
▁логически	-10.8192
▁объясняется	-10.8192
▁гипер	-10.8202
▁ведут	-10.8205
▁ключев	-10.8205
▁иордан	-10.8207
психолог	-10.8215
▁периодически	-10.8224
▁археолог	-10.8236
▁мероприятия	-10.8239
▁прокофьев	-10.8239
▁рассужд	-10.8239
▁уравнение	-10.8239
▁оценке	-10.8239
▁растения	-10.824
▁пограничн	-10.8241
▁изгнан	-10.8245
▁ритм	-10.8256
▁разделён	-10.8257
философ	-10.8265
▁государ	-10.8276
▁диплом	-10.8287
▁ассоциации	-10.829
▁бельгии	-10.829
▁исторического	-10.829
▁пионер	-10.829
▁вычисления	-10.829
▁человеческой	-10.829
писывается	-10.8292
▁коллеги	-10.8292
ει	-10.8292
▁смеси	-10.8292
▁отождествл	-10.8293
▁выступления	-10.8295
▁указывал	-10.8296
▁1927	-10.83
▁1932	-10.83
▁мысль	-10.8303
▁считалось	-10.8305
▁обратил	-10.8309
песчан	-10.832
▁констант	-10.8338
▁вячеслав	-10.8341
▁позволял	-10.8341
▁совокупность	-10.8341
▁бытия	-10.8342
▁максимум	-10.8345
▁сквер	-10.8348
▁1923	-10.8349
▁построил	-10.836
▁появля	-10.838
▁алма	-10.8391
▁молодёжи	-10.8392
▁батальон	-10.8392
▁описал	-10.8394
▁альберт	-10.8394
▁пользователей	-10.8398
▁состоялась	-10.8398
▁1931	-10.8398
▁уникальны	-10.8399
▁ворота	-10.8401
▁ремонт	-10.8402
▁обязанности	-10.8402
▁1916	-10.8407
▁потерял	-10.8408
▁уверен	-10.8411
▁включён	-10.8416
горьк	-10.8416
▁аэродром	-10.8444
▁таиланд	-10.8444
▁лучших	-10.8444
▁размеща	-10.8444
▁освобождения	-10.8444
▁корпораци	-10.8444
▁американских	-10.8446
▁топлива	-10.8448
▁химик	-10.8452
▁располагаются	-10.8457
▁перестал	-10.8466
▁windows	-10.8495
▁волгоград	-10.8495
▁гравитационно	-10.8495
▁дефицит	-10.8495
▁сатурна	-10.8495
▁серебра	-10.8496
▁отставку	-10.8496
▁судебны	-10.8496
▁дочери	-10.8497
▁рельс	-10.85
▁доллар	-10.8504
▁являлась	-10.8512
one	-10.8539
▁ближайши	-10.8547
▁глубоки	-10.8547
гвардейск	-10.8547
▁политбюро	-10.8547
▁самоуправления	-10.8547
▁электроэнергии	-10.8547
▁землёй	-10.8547
▁расстоянии	-10.8547
▁хранения	-10.8547
▁понятий	-10.8548
▁облегч	-10.8548
▁оказалось	-10.8552
▁высшим	-10.8553
▁неизвестно	-10.8562
▁1912	-10.8564
▁предостави	-10.8567
▁кафедр	-10.8593
▁упомянут	-10.86
▁шеллинг	-10.86
▁обсужден	-10.86
▁компанией	-10.86
▁публикации	-10.86
▁приходилось	-10.8602
▁нагрева	-10.8617
▁изобретени	-10.8623
▁сообщил	-10.8624
▁собак	-10.8636
▁александрович	-10.8647
▁здоровья	-10.8652
▁эксплуатацию	-10.8652
▁грамматик	-10.8653
▁закономерно	-10.8653
▁человечества	-10.8653
▁торговых	-10.8654
▁угля	-10.8654
▁матриц	-10.8655
▁связывает	-10.8659
▁международным	-10.8661
▁держа	-10.8662
▁1913	-10.8668
▁поставил	-10.867
превращ	-10.8672
▁образовательн	-10.8687
▁сильным	-10.8689
доступ	-10.8694
4,5	-10.8705
▁microsoft	-10.8705
▁эволюции	-10.8705
▁мурманск	-10.8705
▁поддержал	-10.8705
▁надёжн	-10.8705
▁федеральный	-10.8706
▁живописи	-10.8708
▁половина	-10.8711
▁заключил	-10.8714
▁разрыв	-10.8714
▁ориентирован	-10.8718
chem	-10.8728
▁узко	-10.8732
▁сумел	-10.8734
▁бесед	-10.8737
▁снима	-10.8737
▁поверхностн	-10.8759
▁федеративн	-10.8759
▁отсутствуют	-10.8759
▁участок	-10.8759
▁специфическ	-10.8759
нибудь	-10.8759
▁возрождения	-10.8759
▁тяжёло	-10.8759
▁иосиф	-10.8759
▁атолл	-10.8759
▁большом	-10.8759
▁комиссия	-10.876
▁учился	-10.876
▁табак	-10.8761
▁мелких	-10.8761
▁сталинград	-10.8764
fr	-10.877
▁работников	-10.8771
▁покрыва	-10.8779
▁австралийск	-10.8779
вещания	-10.8796
сматрива	-10.8809
▁здравоохранения	-10.8812
▁последствия	-10.8812
▁лагранж	-10.8812
▁кикимор	-10.8812
▁разнообразие	-10.8812
▁железная	-10.8812
▁аналитическ	-10.8813
▁шельф	-10.8813
▁геологическ	-10.8814
▁студент	-10.8815
▁привела	-10.8815
▁немало	-10.8816
▁металла	-10.8816
▁сцена	-10.8822
▁индийски	-10.8823
корейск	-10.8825
▁отдельным	-10.8825
▁интервал	-10.8828
▁сохранилось	-10.8828
▁мораль	-10.8829
▁абсолютны	-10.8831
▁приведен	-10.8836
бывших	-10.8845
▁кардинал	-10.8847
защитник	-10.8848
▁деятель	-10.8864
▁заседании	-10.8866
▁обеспечить	-10.8866
▁украшен	-10.8866
▁привержен	-10.8866
▁перешла	-10.8866
▁откуда	-10.8867
▁мульти	-10.8867
▁научный	-10.887
▁горяч	-10.8873
▁природа	-10.8873
▁николаев	-10.8875
▁ближе	-10.8877
▁записыва	-10.8877
▁битве	-10.8879
демократическ	-10.8895
▁наблюдал	-10.8902
▁определяют	-10.8903
промысл	-10.8906
▁автомобилей	-10.892
▁мюнхен	-10.892
▁реализу	-10.892
▁телескоп	-10.892
▁национальные	-10.892
▁догмат	-10.892
▁маори	-10.8921
▁основное	-10.8921
▁1952	-10.8927
▁индивид	-10.8931
▁астрономическ	-10.8934
радио	-10.8944
▁количестве	-10.8952
▁присущ	-10.8956
▁феодал	-10.8956
tri	-10.896
▁отсутствия	-10.8974
▁небольшим	-10.8974
▁теорий	-10.8974
▁препарат	-10.8975
▁химические	-10.8976
▁исполнение	-10.8976
▁михайлович	-10.8976
▁протестантск	-10.8977
▁археологически	-10.8978
▁неизвестны	-10.8982
▁1911	-10.899
▁снизил	-10.9007
▁сообщество	-10.902
австрийск	-10.9023
amp	-10.9026
▁колебания	-10.9029
▁сопротивление	-10.9029
▁gnu	-10.9029
▁заведений	-10.9029
индустриальн	-10.9029
▁колёс	-10.9029
▁плотности	-10.9029
▁удалён	-10.9032
▁наибольшее	-10.9033
чуж	-10.9037
▁проводились	-10.904
▁миг	-10.904
▁студи	-10.9045
▁дипломатическ	-10.9071
когда	-10.9074
штадт	-10.9084
▁слобод	-10.9084
родственник	-10.9084
▁гамбург	-10.9084
▁хроматограф	-10.9084
▁позицию	-10.9084
▁топоним	-10.9084
▁талант	-10.9084
бумажн	-10.9085
▁иоганн	-10.9085
▁медленно	-10.9087
▁принципиально	-10.9087
▁легион	-10.9087
▁организацию	-10.9087
топлив	-10.909
▁пересека	-10.909
технических	-10.9095
▁тираж	-10.9099
▁фундамент	-10.9107
зритель	-10.9111
▁влиятельн	-10.912
нефтепродукт	-10.9139
▁компилятор	-10.9139
▁рекомендаци	-10.9139
▁борьбу	-10.9139
▁оккупирован	-10.9139
▁магазин	-10.9139
▁бэкон	-10.9139
▁наименьш	-10.9139
▁армией	-10.914
восточный	-10.9141
▁сторонники	-10.9147
▁согласован	-10.9148
▁1954	-10.9148
▁поддерживал	-10.9159
влечения	-10.9161
▁переговоры	-10.9195
▁церквей	-10.9195
▁андропов	-10.9195
▁ансамбл	-10.9195
▁последняя	-10.9195
▁строительстве	-10.9195
▁независимых	-10.9195
библейск	-10.9195
▁тихого	-10.9196
▁бронзов	-10.9198
▁научная	-10.9199
▁маха	-10.9203
целостн	-10.9206
▁овощ	-10.9209
0,0	-10.9214
▁полагал	-10.9218
друг	-10.9222
аристотел	-10.925
▁произошли	-10.925
▁губерния	-10.925
▁отсюда	-10.925
▁музыку	-10.925
▁рынке	-10.9251
заповедник	-10.9251
▁дальше	-10.9251
▁механически	-10.9252
▁фиджи	-10.9252
▁падения	-10.9252
▁сложных	-10.9253
▁сохранение	-10.9254
▁интегра	-10.926
▁обращен	-10.9297
▁растительность	-10.9299
▁филипп	-10.9301
прежнему	-10.9307
▁естественных	-10.9307
▁штурм	-10.9309
▁следующее	-10.931
▁сутки	-10.931
▁симметрии	-10.931
▁сложения	-10.9311
▁благ	-10.9311
▁складыва	-10.9311
▁индия	-10.9323
социал	-10.9349
▁кирибати	-10.9363
▁молдавии	-10.9363
▁суверенитет	-10.9363
▁гарнизон	-10.9363
▁продукция	-10.9363
▁учёного	-10.9363
▁историограф	-10.9363
▁повлиял	-10.9363
▁железные	-10.9363
▁указывают	-10.9368
пустить	-10.937
▁замок	-10.9371
▁торговле	-10.9372
▁биолог	-10.9382
статистическ	-10.9385
▁нервн	-10.9388
▁пластин	-10.9393
▁направля	-10.9394
▁выполняет	-10.9398
▁регионально	-10.9398
▁сменил	-10.9414
▁египта	-10.942
▁скончался	-10.942
▁напряжённ	-10.942
▁денежны	-10.942
▁наименование	-10.942
▁торговые	-10.9421
▁перешли	-10.9421
▁тезис	-10.9421
▁дракон	-10.9421
▁третьего	-10.9429
▁старший	-10.9432
▁создают	-10.9458
▁захвачен	-10.9477
▁зиновьев	-10.9477
▁немецким	-10.9477
▁нидерландов	-10.9477
▁российские	-10.9477
▁восточных	-10.9477
▁карибск	-10.9478
▁обладал	-10.9479
▁компакт	-10.9479
ставляет	-10.948
▁украина	-10.9492
бытие	-10.9514
▁сотни	-10.9515
▁признавал	-10.9517
▁интеграл	-10.9525
▁предприятие	-10.9535
▁произошла	-10.9535
▁бригад	-10.9535
▁совсем	-10.9535
▁выделяется	-10.9538
▁американской	-10.9539
air	-10.9541
точнее	-10.9545
исследовательски	-10.9551
▁поднял	-10.9563
нейтральн	-10.9567
▁люксембург	-10.9592
▁тьюринг	-10.9592
▁сущности	-10.9592
▁поворот	-10.9593
▁судебно	-10.9593
▁белорусски	-10.9593
▁химической	-10.9595
▁отказыва	-10.9606
το	-10.9626
чувствительн	-10.9637
▁задерж	-10.964
▁магистраль	-10.965
▁антисфен	-10.965
▁восприятие	-10.965
▁заболевания	-10.965
▁сибирь	-10.965
▁закреплен	-10.9651
▁происходят	-10.9651
▁буддийск	-10.9651
▁однозначно	-10.9651
▁денежно	-10.9651
▁новокузнецк	-10.9651
▁великим	-10.9655
эстетическ	-10.9656
христиан	-10.9657
▁углов	-10.9663
следовать	-10.9679
чувств	-10.968
«	-10.9698
▁дмитрий	-10.9709
▁фотоаппарат	-10.9709
▁интервью	-10.9709
▁одержал	-10.9709
▁восемь	-10.9709
▁грунт	-10.9709
▁служат	-10.9709
▁смоленск	-10.9709
▁раздраж	-10.9709
▁индивидуально	-10.971
▁железа	-10.9711
▁днепр	-10.9712
▁круж	-10.9712
▁влажны	-10.9714
▁водоём	-10.9715
▁1907	-10.9717
▁воевод	-10.9717
▁производил	-10.972
проект	-10.9722
▁одобрен	-10.9723
▁свердловск	-10.9768
▁подавляюще	-10.9768
▁хонеккер	-10.9768
▁ведущих	-10.9768
▁важных	-10.9768
▁природные	-10.9768
▁точек	-10.9769
▁обвиня	-10.9771
▁зимне	-10.9773
▁смесь	-10.9774
▁1951	-10.9776
▁пальм	-10.9777
генетическ	-10.9782
благо	-10.9818
;...&	-10.9827
телевизионн	-10.9827
▁англичан	-10.9827
▁ребёнка	-10.9827
▁сотрудничества	-10.9827
▁столкновения	-10.9827
▁достоевского	-10.9827
▁музыкальных	-10.9827
▁провинций	-10.9827
▁форум	-10.9827
▁версий	-10.9828
▁нацистск	-10.9828
▁николаевич	-10.9831
видимому	-10.9834
▁охраны	-10.9837
▁выведен	-10.9853
▁термодинамическ	-10.9886
▁подготовке	-10.9887
▁подготовлен	-10.9887
▁микроскоп	-10.9887
▁наличии	-10.9887
▁областного	-10.9887
▁общественный	-10.9887
▁заслуг	-10.9887
▁служба	-10.9887
▁снижение	-10.9888
▁великих	-10.9889
▁пляж	-10.989
▁евросоюз	-10.9891
избав	-10.9892
▁венгрии	-10.9946
▁хайдеггер	-10.9946
▁корабль	-10.9946
▁запреща	-10.9947
▁кодекс	-10.9947
▁гостиниц	-10.9947
▁таллин	-10.9948
▁стоимости	-10.9948
▁мандат	-10.9949
▁мясо	-10.995
1,4	-10.9954
особенно	-10.996
▁новороссийск	-10.9969
▁интенсивн	-10.9971
▁алюминия	-11.0007
▁соревнования	-11.0007
▁оказывают	-11.0007
▁очевидно	-11.0007
▁православных	-11.0007
▁современное	-11.0007
▁публицист	-11.0007
▁орбиты	-11.0007
▁прямым	-11.0007
▁моделей	-11.0007
▁брюс	-11.0007
▁изделий	-11.0007
▁возмущ	-11.0008
▁связывают	-11.0009
▁происходящ	-11.0011
▁среднегодов	-11.0013
▁падение	-11.0028
▁всемирно	-11.0035
▁съёмк	-11.0041
▁публично	-11.0046
▁параллел	-11.0058
▁рождаемости	-11.0067
▁состояний	-11.0067
▁музеи	-11.0067
▁вычислений	-11.0067
▁южных	-11.0067
▁введены	-11.0068
▁неделю	-11.0069
▁угол	-11.0071
▁товарищ	-11.0072
▁лифт	-11.0076
▁изучал	-11.0078
▁влажно	-11.0078
▁положил	-11.0083
▁территориально	-11.0121
▁религий	-11.0128
▁концентрации	-11.0128
▁немедленно	-11.0128
▁каждое	-11.0128
▁здании	-11.0128
▁добычи	-11.0128
▁поправк	-11.0129
▁примитивн	-11.0129
▁поражения	-11.0129
▁преемник	-11.0131
▁выбран	-11.0131
▁аниме	-11.0136
технического	-11.0149
▁критически	-11.0158
пустын	-11.0163
▁программировани	-11.0185
▁настоящего	-11.019
▁организовал	-11.019
radio	-11.019
▁екатерины	-11.019
▁особый	-11.019
▁тувалу	-11.019
▁растёт	-11.019
▁капитан	-11.019
▁иудаизм	-11.019
тягива	-11.019
эмпирическ	-11.0191
▁излучение	-11.0191
▁движущ	-11.0191
▁контракт	-11.0192
▁банкнот	-11.0193
▁кольцо	-11.0194
▁любовь	-11.0202
1,8	-11.0207
▁филолог	-11.0214
ирующих	-11.0224
▁материальны	-11.0237
прикладно	-11.0248
▁ссылки	-11.0251
▁гумилёв	-11.0251
▁традиций	-11.0251
▁эдуард	-11.0251
▁консервативн	-11.0251
▁воплощен	-11.0251
▁эпизод	-11.0251
▁столицу	-11.0251
▁исполнения	-11.0252
▁вторжения	-11.0252
▁защиту	-11.0252
▁австро	-11.0253
полицейск	-11.0255
1,6	-11.0259
0,3	-11.0262
фантастическ	-11.0272
компьютер	-11.0273
▁познан	-11.0296
▁княж	-11.03
кроме	-11.0304
держав	-11.031
▁локомотив	-11.0313
▁религией	-11.0313
▁гибели	-11.0314
▁воздушных	-11.0314
▁четверти	-11.0314
▁ницше	-11.0315
▁прилегающ	-11.0318
▁принимают	-11.032
▁корея	-11.0321
▁метрическ	-11.0352
▁мега	-11.0372
следственн	-11.0373
▁калибровочн	-11.0376
▁суффикс	-11.0376
▁инвестиций	-11.0376
▁обычных	-11.0376
▁предпочита	-11.0376
▁разработке	-11.0376
▁признаёт	-11.0376
▁деревни	-11.0376
▁минимально	-11.0377
▁социальная	-11.0378
▁сложные	-11.0378
▁учителя	-11.0381
▁собрал	-11.0387
▁оптически	-11.0388
▁александрийск	-11.039
времени	-11.0401
собственн	-11.0407
▁социалистическо	-11.0421
▁индонезии	-11.0439
▁ландшафт	-11.0439
▁оккупации	-11.0439
▁подтвердил	-11.0439
▁подтверждени	-11.0439
▁рабочие	-11.0439
▁показателя	-11.0439
▁стадии	-11.0439
▁демократии	-11.0439
комбинаци	-11.0441
▁железо	-11.0442
▁схема	-11.0444
▁двигатель	-11.0444
человек	-11.0465
▁достоверно	-11.0501
▁конституцию	-11.0502
▁мемориальн	-11.0502
▁синтаксис	-11.0502
▁муниципалитет	-11.0502
▁воздействия	-11.0502
▁творчестве	-11.0502
▁деревья	-11.0502
▁состояще	-11.0503
▁попытал	-11.0503
сообществ	-11.0503
▁армения	-11.0503
▁приложения	-11.0503
▁никто	-11.0505
▁имеющий	-11.0506
▁валери	-11.0515
справедлив	-11.0533
▁циолковского	-11.0566
▁маринеско	-11.0566
▁завоевал	-11.0566
▁лекарств	-11.0566
▁генрих	-11.0566
▁европейский	-11.0566
▁бразилии	-11.0566
вавилон	-11.0568
▁рыночн	-11.0568
▁прекрасно	-11.057
▁прежни	-11.0571
▁немцы	-11.0571
▁слияни	-11.0572
общую	-11.0575
ошло	-11.0576
▁отрыв	-11.0586
хищн	-11.0588
▁отечественн	-11.06
тихоокеанско	-11.063
▁концентрация	-11.063
▁энергию	-11.063
▁телевидение	-11.063
▁существовании	-11.063
▁столичн	-11.0637
править	-11.0637
хлор	-11.0666
ещает	-11.0673
▁письменны	-11.0681
государств	-11.0689
▁оригинал	-11.0694
▁выдвинул	-11.0694
▁посёлок	-11.0694
▁телевидения	-11.0694
▁издательств	-11.0694
▁дизайн	-11.0694
▁выявлен	-11.0694
▁освещен	-11.0695
▁декрет	-11.0696
ещал	-11.0698
▁частным	-11.0699
▁сельском	-11.0705
▁простым	-11.0706
байкал	-11.0709
▁экватор	-11.0714
formula	-11.0727
▁статистически	-11.0737
▁отзыв	-11.0739
▁потребител	-11.0741
▁решающ	-11.0746
▁аристократ	-11.0759
▁месторождений	-11.0759
▁напрямую	-11.0759
▁российским	-11.0759
▁кирпич	-11.0759
▁алексей	-11.076
▁рабочего	-11.076
▁иностранные	-11.076
▁технология	-11.076
▁природу	-11.0762
▁последовал	-11.0762
казывать	-11.0763
▁твери	-11.0763
позитив	-11.0766
▁праздновани	-11.0769
ируемых	-11.0786
▁воинско	-11.0797
▁признав	-11.0808
▁календарь	-11.0825
▁кеннеди	-11.0825
▁оппозиции	-11.0825
▁португалии	-11.0825
▁шрифт	-11.0825
▁помощник	-11.0825
▁поставщик	-11.0825
▁политический	-11.0825
▁time	-11.0825
▁спортсмен	-11.0825
▁позиция	-11.0825
молодёжн	-11.0825
▁туристически	-11.0826
▁регулиру	-11.0827
▁голландск	-11.0829
▁анархист	-11.083
▁древнегречески	-11.0834
семейств	-11.0858
характер	-11.0861
африкански	-11.0871
ориентированн	-11.0882
▁инвариант	-11.089
▁цивилизации	-11.089
▁теорией	-11.089
▁шухевич	-11.089
▁комплект	-11.0891
▁горожан	-11.0891
▁пароход	-11.0891
▁достоевский	-11.0891
▁коррект	-11.0892
▁свидетельствует	-11.0893
служив	-11.0904
▁вооружённо	-11.0907
1,7	-11.0917
▁представляющи	-11.0918
▁детско	-11.0931
▁здравоохранение	-11.0957
▁резонанс	-11.0957
▁тензор	-11.0957
▁обвинения	-11.0957
▁деятелей	-11.0957
▁экзамен	-11.0957
▁евгени	-11.0958
туркмен	-11.096
▁людвиг	-11.0963
книг	-11.0992
▁понимает	-11.0998
▁типичны	-11.1009
▁поддержка	-11.1023
▁противоположны	-11.1023
▁проявления	-11.1023
▁законопроект	-11.1023
▁избежать	-11.1023
▁тягот	-11.1023
▁шахмат	-11.1023
▁чтения	-11.1024
▁раннего	-11.1024
▁откровен	-11.1024
▁постройки	-11.1024
▁электромагнитно	-11.1025
▁кустар	-11.1025
▁фунт	-11.103
▁отражает	-11.1031
▁книжн	-11.1037
0,4	-11.105
факто	-11.1054
▁помеща	-11.1058
▁бухт	-11.1059
▁вулканическ	-11.1067
▁начать	-11.1073
кузнецк	-11.109
▁воскресенье	-11.109
▁перечислен	-11.109
▁юстиции	-11.1091
▁царицын	-11.1091
▁построить	-11.1091
▁списке	-11.1092
▁представил	-11.1092
▁ватикан	-11.1092
▁жуков	-11.1093
свято	-11.11
▁оборонительн	-11.11
▁прибыв	-11.1112
процесс	-11.1129
▁пытал	-11.1135
консерв	-11.114
технической	-11.1143
исследователя	-11.1158
▁аминокислот	-11.1158
▁изобретател	-11.1158
▁наступления	-11.1158
▁объявля	-11.1158
▁повседневн	-11.1158
▁скульптор	-11.1158
▁абрикос	-11.1158
▁астероид	-11.1158
▁лысенко	-11.1158
▁контролем	-11.1158
▁теннис	-11.1158
▁языческ	-11.1159
▁точкой	-11.1159
▁простира	-11.1159
ремесленн	-11.1159
жёлто	-11.1161
▁получаем	-11.1161
▁разрешение	-11.1162
▁независимым	-11.1166
▁боево	-11.1185
ирующие	-11.1196
▁пыл	-11.1213
ачёв	-11.1221
▁участков	-11.1226
▁циолковский	-11.1226
▁парадокс	-11.1226
▁музыке	-11.1226
▁пуэрто	-11.1226
▁сущность	-11.1226
▁акцент	-11.1226
▁остатки	-11.1227
▁канаде	-11.1227
▁партию	-11.1227
▁ливии	-11.1229
▁выразил	-11.1236
▁вышедш	-11.1237
▁психически	-11.125
▁соблюд	-11.1259
▁огне	-11.1265
ступать	-11.1279
▁официальные	-11.1295
▁шоссе	-11.1295
▁понимания	-11.1295
▁единственная	-11.1295
▁сочинение	-11.1295
▁промышленные	-11.1295
▁символизиру	-11.1298
▁сближени	-11.1302
лежаще	-11.1335
волжско	-11.1341
официально	-11.1344
▁переправ	-11.1354
6,5	-11.136
релятивистск	-11.1364
▁египте	-11.1364
▁окончании	-11.1364
▁соответствие	-11.1364
высочайш	-11.1364
▁показатели	-11.1364
▁сопротивления	-11.1364
▁ущерб	-11.1364
парадигм	-11.1364
▁греческих	-11.1364
▁оставалась	-11.1364
▁математической	-11.1365
▁затрат	-11.1375
ступлении	-11.1376
▁сложение	-11.1378
▁похорон	-11.1419
герцеговин	-11.1433
▁освобождён	-11.1433
▁судебная	-11.1433
▁эксплуатации	-11.1433
▁диоксид	-11.1433
▁предусматривал	-11.1433
▁высокую	-11.1433
▁проведены	-11.1433
▁щелоч	-11.1433
▁тормоз	-11.1433
▁героев	-11.1433
▁пещер	-11.1434
▁губернск	-11.1434
▁блюд	-11.1437
▁заметны	-11.1437
▁капитул	-11.1438
▁растительно	-11.1445
▁зависим	-11.1467
значительный	-11.1473
▁именовал	-11.1474
▁подлинно	-11.1477
▁ограничи	-11.1486
▁конфесси	-11.1497
▁амстердам	-11.1503
▁захоронен	-11.1503
▁князей	-11.1503
▁сравнения	-11.1503
▁территорией	-11.1503
▁урожай	-11.1503
▁южнее	-11.1503
▁виноград	-11.1503
▁изменяется	-11.1503
▁тверской	-11.1503
▁нейтрон	-11.1504
▁сварог	-11.1504
▁прошла	-11.1504
▁почему	-11.1504
▁обеспечивающ	-11.1505
▁яхт	-11.156
▁крыш	-11.1563
одесск	-11.1566
▁инфраструктуры	-11.1573
▁счисления	-11.1573
▁эмоциональн	-11.1573
▁увидеть	-11.1573
▁внешний	-11.1573
▁описывают	-11.1573
▁мятеж	-11.1573
▁внешние	-11.1573
▁зарплат	-11.1573
▁василий	-11.1573
▁изучению	-11.1573
▁заместитель	-11.1573
▁введено	-11.1574
образовательных	-11.1575
▁объединил	-11.1583
континент	-11.1631
▁оригинальны	-11.1638
▁конструкция	-11.1644
▁награждён	-11.1644
▁реконструкции	-11.1644
▁ежедневно	-11.1644
▁преследовани	-11.1644
▁спортивных	-11.1644
▁марокко	-11.1644
▁трамвая	-11.1644
эрмитаж	-11.1644
▁секретаря	-11.1644
▁контексте	-11.1644
▁собственную	-11.1644
▁лоренц	-11.1645
▁включены	-11.1645
▁баланс	-11.1645
▁увидел	-11.1646
▁совпадает	-11.1646
▁старинн	-11.1677
1,1	-11.1716
▁скандинавск	-11.1716
▁ситуацию	-11.1716
▁шарапова	-11.1716
▁исследу	-11.1716
▁кампании	-11.1716
▁вакуум	-11.1716
▁свидетельствуют	-11.1716
▁наркома	-11.1716
▁разрешения	-11.1716
▁приспособлен	-11.1717
▁жестоко	-11.1717
▁требование	-11.1718
▁естественным	-11.1721
▁пребыва	-11.1727
▁секст	-11.1735
ходящего	-11.1785
председател	-11.1786
▁интерпретации	-11.1788
▁ирландии	-11.1788
▁недалеко	-11.1788
▁демографическ	-11.1788
▁отметить	-11.1788
▁посёлка	-11.1788
▁янтаря	-11.1788
▁керенский	-11.1788
▁оказывал	-11.1788
▁сердце	-11.1788
▁предсказани	-11.1788
▁индивидуальны	-11.179
▁премию	-11.179
▁примыка	-11.179
таджик	-11.1791
▁восходит	-11.1796
▁незаконн	-11.1803
персидски	-11.184
▁понижен	-11.1843
7,5	-11.1854
#	-11.186
▁замкнут	-11.186
▁мероприятий	-11.186
▁пруссия	-11.186
▁суждения	-11.186
▁реализация	-11.186
▁способствует	-11.186
▁ежегодны	-11.186
▁добиться	-11.1861
▁участии	-11.1861
▁польша	-11.1861
▁канада	-11.1862
▁огня	-11.1862
▁исаак	-11.187
▁калининградско	-11.19
▁гуманитарн	-11.1933
▁теоретик	-11.1933
▁вильнюс	-11.1933
▁композиции	-11.1933
▁предпринял	-11.1933
▁инстанции	-11.1933
▁натурфилософ	-11.1933
▁службе	-11.1933
▁испытания	-11.1933
▁фауна	-11.1934
▁черноморск	-11.1935
5,5	-11.194
проникновен	-11.1946
московск	-11.1953
восточно	-11.1959
▁производят	-11.196
▁прохождени	-11.1972
физиолог	-11.2001
▁избирательно	-11.2007
▁обязательств	-11.2007
▁опроверг	-11.2007
▁присутствии	-11.2007
▁рассчитан	-11.2007
▁участвует	-11.2007
▁хребта	-11.2007
▁уровню	-11.2007
▁отрасль	-11.2007
▁изотоп	-11.2008
▁послевоенны	-11.2012
▁косвенн	-11.2026
▁однородн	-11.2043
повесть	-11.205
модификаци	-11.2062
▁познакомился	-11.2081
▁появлению	-11.2081
▁медицины	-11.2081
▁монумент	-11.2081
▁дебют	-11.2081
▁php	-11.2082
▁взлёт	-11.2082
▁лишён	-11.2088
▁успешны	-11.2091
▁опасны	-11.211
волжски	-11.2113
обретения	-11.2123
▁возведен	-11.2151
европейской	-11.2153
▁повсеместно	-11.2155
▁принадлежности	-11.2155
▁расследовани	-11.2155
▁сформулирован	-11.2155
▁арифметическ	-11.2155
▁друзья	-11.2155
▁январь	-11.2155
▁коалиции	-11.2155
▁противоречия	-11.2155
▁восприня	-11.2155
▁молдавск	-11.2155
▁случаи	-11.2155
▁пострадал	-11.2156
▁ширина	-11.2156
▁коперник	-11.2156
назван	-11.2162
йдёт	-11.2171
золото	-11.2176
▁одежды	-11.223
▁редакции	-11.223
гомофоб	-11.2231
▁ibm	-11.2231
▁превысил	-11.2231
▁постоянным	-11.2231
▁оценку	-11.2231
▁движений	-11.2231
▁прямоугольн	-11.2234
▁кристаллическ	-11.2238
▁обновлен	-11.2239
▁кольце	-11.2255
▁миссионер	-11.2306
▁присутствуют	-11.2306
▁наркотик	-11.2306
▁рассеян	-11.2306
предпочт	-11.2306
▁летописи	-11.2306
▁тщательно	-11.2306
синтаксическ	-11.2307
▁кейнс	-11.2307
республика	-11.2308
▁средиземноморск	-11.2308
▁выиграл	-11.2308
может	-11.231
▁существовавши	-11.231
▁функционировани	-11.2318
▁заставил	-11.2319
▁понимал	-11.2326
съём	-11.2344
▁коренны	-11.2349
эстонск	-11.2357
следовательности	-11.2364
совершенств	-11.2373
0,8	-11.2379
▁нидерланды	-11.2383
▁полушарии	-11.2383
▁эмиграции	-11.2383
▁манифест	-11.2383
▁заседания	-11.2383
▁секретарь	-11.2383
▁чёрных	-11.2383
▁настоящий	-11.2383
▁свифт	-11.2383
▁кораллов	-11.2383
▁корабли	-11.2383
▁требуют	-11.2383
▁сведений	-11.2383
величайш	-11.2383
▁маршалловы	-11.2383
спектрометр	-11.2384
▁подчинён	-11.2384
звёзд	-11.2386
масштаб	-11.2386
▁перенесен	-11.239
▁крещен	-11.2421
▁колебаний	-11.246
▁понимании	-11.246
▁предусмотрен	-11.246
▁пилотируем	-11.246
▁зависят	-11.246
▁анатоли	-11.246
▁известняк	-11.246
▁чудес	-11.246
▁эйлер	-11.246
▁таможенн	-11.246
▁модуля	-11.2463
▁внедрен	-11.2463
▁европейским	-11.2463
▁утверждают	-11.2464
▁связывал	-11.2465
▁поручен	-11.2466
беларус	-11.2476
▁локальны	-11.249
обычно	-11.2491
исторически	-11.2492
8,5	-11.2493
прежде	-11.2498
▁бангладеш	-11.2537
▁тенденция	-11.2537
▁политическую	-11.2537
▁разновидность	-11.2537
▁действовать	-11.2537
▁демонстриру	-11.2537
▁нижний	-11.2538
▁литературный	-11.2538
▁климент	-11.2538
▁отдельный	-11.2538
▁семинар	-11.2538
▁деревне	-11.2543
▁образовыва	-11.2549
пятидесят	-11.2585
▁копенгаген	-11.2615
▁происхождении	-11.2615
▁соответствовал	-11.2615
▁сотрудничество	-11.2615
▁организатор	-11.2615
▁медицине	-11.2615
▁характеризуют	-11.2615
▁башня	-11.2615
▁женился	-11.2616
▁вызывал	-11.2616
▁переведён	-11.2617
азиатско	-11.2618
▁националист	-11.2623
▁шахт	-11.2638
▁усовершенствова	-11.2638
▁избирательны	-11.2672
▁религиозным	-11.2694
▁удостоен	-11.2694
▁финляндия	-11.2694
▁чарльз	-11.2694
▁треугольник	-11.2694
▁фосфор	-11.2694
▁евреи	-11.2694
▁собственный	-11.2694
▁синоним	-11.2694
▁геральд	-11.2694
▁населению	-11.2694
▁публичны	-11.2695
▁федеральным	-11.271
▁византийско	-11.2773
▁императрицы	-11.2773
▁поздних	-11.2773
▁принадлежность	-11.2773
▁путешественник	-11.2773
▁возвращения	-11.2773
▁зеландия	-11.2773
▁отличия	-11.2773
▁музыкальные	-11.2773
▁аполлон	-11.2773
▁кемеровск	-11.2773
▁неправильн	-11.2774
▁особым	-11.2775
▁учёб	-11.2775
▁замысл	-11.2776
▁понимать	-11.2779
рабоче	-11.2779
▁технологически	-11.279
▁альтернативны	-11.2793
▁превышаю	-11.2793
▁педагогическ	-11.2797
▁отклонени	-11.2813
▁соблюдени	-11.2814
▁насчитывает	-11.2837
▁футбольн	-11.2849
▁безработицы	-11.2853
▁двенадцат	-11.2853
▁конференция	-11.2853
▁окончание	-11.2853
▁казачьи	-11.2853
▁мышление	-11.2853
▁руководил	-11.2853
▁постоянных	-11.2853
▁лучшим	-11.2854
▁престиж	-11.2854
▁расширил	-11.2855
▁надпись	-11.2856
восточные	-11.2858
▁стерео	-11.2862
цензур	-11.2874
0,7	-11.2882
рижск	-11.2899
жизне	-11.2901
использова	-11.293
▁решительн	-11.2931
путешествие	-11.2934
▁восстанавлива	-11.2934
▁информационно	-11.2934
▁митрополит	-11.2934
▁небольшое	-11.2934
▁постоянная	-11.2934
▁невысок	-11.2934
▁подвержен	-11.2934
▁ослаблен	-11.2934
▁гомосексуал	-11.2934
▁поселений	-11.2935
▁удобны	-11.2935
▁оригинально	-11.2941
▁варьиру	-11.2942
▁приведён	-11.2946
княжеск	-11.2965
▁артиллерийск	-11.3015
▁архиепископ	-11.3015
▁конструкций	-11.3015
▁присутствие	-11.3015
декабрь	-11.3015
▁алексея	-11.3015
▁служебн	-11.3015
▁швеция	-11.3015
▁new	-11.3015
▁потерпел	-11.3015
▁ресторан	-11.3015
▁упадок	-11.3015
▁сьерра	-11.3016
▁многократно	-11.3017
▁исчезновени	-11.3017
▁полагают	-11.3034
▁смещен	-11.3037
▁окончательн	-11.307
▁михайлов	-11.3094
▁анаксагор	-11.3097
▁выдвинут	-11.3097
▁достичь	-11.3097
▁котловин	-11.3097
▁лозунг	-11.3097
▁регламент	-11.3097
▁быстрее	-11.3097
▁революционер	-11.3097
▁сегмент	-11.3097
▁уменьшил	-11.3097
▁сессии	-11.3097
▁нехватк	-11.3097
▁переведен	-11.3098
▁утратил	-11.31
▁продав	-11.3103
социалистической	-11.3122
муниципального	-11.3137
схоластик	-11.318
▁администрация	-11.318
▁конституцией	-11.318
▁кувейт	-11.318
▁прямых	-11.318
▁ульянов	-11.318
счастлив	-11.318
▁станислав	-11.318
▁снабжен	-11.318
▁европейские	-11.318
▁ткани	-11.3181
▁насыщен	-11.3182
▁церковнославян	-11.3182
▁постулат	-11.3183
осмотр	-11.3191
▁созвезди	-11.3198
▁необычн	-11.3238
▁пересмотр	-11.3239
троицк	-11.3244
▁амплитуд	-11.3263
▁болезнь	-11.3263
▁внутренний	-11.3263
▁впечатление	-11.3263
▁гравитации	-11.3263
▁присутствовал	-11.3263
▁соотношения	-11.3263
▁основоположник	-11.3263
▁первоначальны	-11.3263
▁рабочим	-11.3263
▁отраслей	-11.3263
эмигрант	-11.3263
▁паскаль	-11.3263
▁обычным	-11.3263
▁посещал	-11.3263
▁саратов	-11.3264
▁приехал	-11.3265
▁глюон	-11.3266
▁латыш	-11.3268
▁условие	-11.3271
следовательность	-11.3272
▁снежн	-11.3275
звук	-11.3289
▁физиологическ	-11.3304
▁исполнительны	-11.332
▁заработн	-11.334
▁дмитрия	-11.3347
▁секретарём	-11.3347
▁smtp	-11.3347
▁дмитриев	-11.3347
▁бульвар	-11.3347
▁прозрачн	-11.3347
▁гегеля	-11.3347
▁гибрид	-11.3347
▁особые	-11.3347
▁кальция	-11.3347
▁рамбам	-11.3348
метеор	-11.3348
▁буддист	-11.3348
▁аромат	-11.335
▁изучает	-11.3363
время	-11.3374
▁доказыва	-11.3385
▁устранен	-11.339
сущего	-11.3397
▁победител	-11.3424
▁продовольственн	-11.3432
сентябрь	-11.3432
▁денежная	-11.3432
▁иммигрантов	-11.3432
▁неоплатонизм	-11.3432
▁просьбой	-11.3432
▁равновесия	-11.3432
▁ценностей	-11.3432
▁князем	-11.3432
▁последнем	-11.3432
▁аграрно	-11.3432
▁судоходн	-11.3432
▁синтетическ	-11.3433
▁допущен	-11.3434
▁проявил	-11.3435
▁действительны	-11.3442
правительственн	-11.3456
▁единичн	-11.3462
▁вычисли	-11.3494
большой	-11.3503
▁учреди	-11.3513
▁pascal	-11.3517
▁аристипп	-11.3517
▁бортинженера	-11.3517
▁дивизии	-11.3517
▁инфраструктура	-11.3517
▁оппозиционн	-11.3517
▁произведён	-11.3517
▁религию	-11.3517
▁гамильтон	-11.3517
▁возобновил	-11.3517
▁клавиш	-11.3517
▁концепцию	-11.3517
▁вермахт	-11.3517
▁гектар	-11.3518
▁областной	-11.3518
▁сергея	-11.3518
▁безопасность	-11.3519
▁канадско	-11.3524
▁понимают	-11.3537
▁номинальн	-11.3565
▁привлечен	-11.3576
▁гильгамеш	-11.3604
▁внутреннее	-11.3604
▁интерпретатор	-11.3604
▁реакцию	-11.3604
▁транзит	-11.3604
▁въезд	-11.3604
▁небольшая	-11.3604
▁предварительно	-11.3604
▁скептик	-11.3604
▁друзей	-11.3604
▁сердца	-11.3604
▁функционирует	-11.3604
▁особую	-11.3604
▁голосованием	-11.3604
▁запланирован	-11.3604
▁серебро	-11.3605
▁калужско	-11.3606
▁простейши	-11.3607
▁обозначают	-11.3624
элемент	-11.3636
упанишад	-11.3691
▁переговоров	-11.3691
▁вероисповед	-11.3691
▁руководителей	-11.3691
▁миссии	-11.3691
▁барабан	-11.3691
▁находясь	-11.3691
▁фокус	-11.3691
▁хроник	-11.3691
исполком	-11.3691
▁тибет	-11.3691
▁бастион	-11.3691
▁топологическ	-11.3692
природный	-11.373
▁заполнен	-11.3732
▁чехословак	-11.3778
world	-11.3778
▁елизавета	-11.3778
▁сотрудничестве	-11.3778
▁уменьшается	-11.3778
▁участвовать	-11.3778
▁ведущим	-11.3778
▁гвинея	-11.3778
▁недостатки	-11.3778
▁восстановить	-11.3778
▁фиксированн	-11.3778
▁возвращение	-11.3778
▁греческий	-11.3778
▁преступления	-11.3778
▁большевистск	-11.3778
▁перемеща	-11.3779
▁труп	-11.3782
▁повышает	-11.3793
смотреть	-11.3796
жизнеописани	-11.3867
▁внутренним	-11.3867
▁рождаемость	-11.3867
▁четвёртый	-11.3867
ультрафиолет	-11.3867
▁провинциальн	-11.3867
авангард	-11.3867
▁чёрный	-11.3867
▁дискретн	-11.3867
▁абдул	-11.3867
▁святилищ	-11.3867
▁внешним	-11.3867
суннит	-11.387
▁отстаива	-11.3873
связывающ	-11.3874
▁маршал	-11.3877
▁автомобили	-11.3902
▁лежащ	-11.3906
▁днестр	-11.3939
вычислен	-11.3956
▁проявление	-11.3956
▁респу́блика	-11.3956
▁рсдрп	-11.3956
▁солнечных	-11.3956
▁сформулировал	-11.3956
▁юрисдикци	-11.3956
▁изображён	-11.3956
▁недавно	-11.3956
▁проголосовал	-11.3956
ноябрь	-11.3956
▁галактик	-11.3956
▁гимназии	-11.3956
сульфат	-11.3956
▁обитают	-11.3956
▁удобно	-11.3957
инерциальн	-11.3958
▁растительны	-11.3966
тысячн	-11.3983
пользовались	-11.3996
продуктивн	-11.3999
педагог	-11.4019
▁рецепт	-11.4043
▁нидерландски	-11.4046
▁описывающ	-11.4046
▁посполитой	-11.4046
▁хоккей	-11.4046
▁intel	-11.4046
▁радиостанции	-11.4046
▁широкую	-11.4046
▁гвинеи	-11.4046
▁несомненн	-11.4046
▁руководителем	-11.4046
▁тайвань	-11.4046
▁зачислен	-11.4046
▁midi	-11.4046
▁распространено	-11.4046
▁животного	-11.4046
▁разработку	-11.4046
▁южную	-11.4046
▁углич	-11.4046
▁течений	-11.4046
▁гидроксид	-11.4046
▁прокурор	-11.4046
▁тягов	-11.4046
▁расстройств	-11.4047
▁выполнил	-11.4047
▁систематически	-11.4052
▁трансляци	-11.4063
венгерско	-11.4063
объект	-11.4091
равновесн	-11.4103
углерод	-11.4104
▁упорядочен	-11.4137
корреспондент	-11.4137
▁беженцев	-11.4137
▁нейтралитет	-11.4137
▁поддержкой	-11.4137
▁константинополь	-11.4137
▁японской	-11.4137
▁шенгенск	-11.4137
▁добавил	-11.4138
▁радикально	-11.4138
▁варяг	-11.4138
▁спортивно	-11.4145
достоверн	-11.4193
спутник	-11.4207
▁гондурас	-11.4229
лейтенант	-11.4229
▁заболеваний	-11.4229
▁консерватор	-11.4229
▁окрестностях	-11.4229
▁отсутствии	-11.4229
▁сравнении	-11.4229
▁принудительн	-11.4229
операционной	-11.4229
▁свергнут	-11.4229
▁чёрная	-11.4229
▁постоянные	-11.4229
▁плодородн	-11.4229
побратим	-11.4229
▁екатерина	-11.4229
▁обитания	-11.4229
▁змея	-11.4229
▁угрожа	-11.4229
▁димитр	-11.4229
▁уделял	-11.423
▁нижегородск	-11.4232
▁растущ	-11.4236
▁поклонени	-11.432
▁петропавловск	-11.4321
▁автодорог	-11.4321
▁изображений	-11.4321
▁недовольство	-11.4321
▁нквд	-11.4321
▁предположил	-11.4321
▁просвещения	-11.4321
развлекательн	-11.4321
▁кукуруз	-11.4321
▁публикация	-11.4321
▁марксистск	-11.4321
▁давлении	-11.4321
▁валентин	-11.4322
▁мягко	-11.4322
▁длится	-11.4322
зелёный	-11.4322
▁посетител	-11.4323
▁осуществил	-11.4327
▁уникально	-11.4332
признанн	-11.4375
▁ассамблеи	-11.4415
▁ассемблер	-11.4415
▁выглядит	-11.4415
▁законодательная	-11.4415
▁перемещения	-11.4415
▁привязан	-11.4415
▁произошедш	-11.4415
▁протекторат	-11.4415
▁путешествия	-11.4415
▁сотруднича	-11.4415
хронологическ	-11.4415
▁миграции	-11.4415
▁первобытн	-11.4415
▁запрещён	-11.4415
▁неизбежно	-11.4415
▁спортивные	-11.4415
▁православные	-11.4415
▁кухня	-11.4415
▁социальным	-11.4418
эволюционн	-11.4509
▁вступления	-11.4509
▁зороастризм	-11.4509
▁исландии	-11.4509
▁исследовал	-11.4509
▁католицизм	-11.4509
▁колеблется	-11.4509
▁постановления	-11.4509
▁распоряжение	-11.4509
▁цезаря	-11.4509
▁дизель	-11.4509
▁праздничны	-11.4513
▁электродинами	-11.4514
▁младше	-11.4514
▁наивысш	-11.4522
всякого	-11.4581
▁воински	-11.4596
▁специфика	-11.4602
▁возбужден	-11.4604
▁внутренняя	-11.4604
▁галерея	-11.4604
▁ксенофонт	-11.4604
▁новозеланд	-11.4604
▁участке	-11.4604
▁анекдот	-11.4604
▁хребет	-11.4604
▁сплошн	-11.4604
▁ведущие	-11.4604
▁фараон	-11.4605
▁нужны	-11.4616
▁случаю	-11.4632
экспресс	-11.4656
▁кубинск	-11.4664
совершенн	-11.4685
„	-12.2051
<	-12.996
