<unk>	0
<s>	0
</s>	0
.	-3.24444
,	-3.38307
▁je	-3.76963
a	-3.88882
▁v	-4.09356
▁in	-4.15951
i	-4.19953
e	-4.44319
o	-4.61543
▁na	-4.70158
▁	-4.76085
"	-4.79754
▁so	-4.82716
▁se	-4.89201
="	-4.93746
h	-5.00682
▁za	-5.08418
▁ki	-5.11306
u	-5.14958
m	-5.1754
d	-5.19513
▁s	-5.25835
▁(	-5.27741
▁po	-5.28219
▁z	-5.34111
doc	-5.38903
>	-5.393
▁pa	-5.57783
na	-5.58222
▁"	-5.59887
▁-	-5.63215
▁leta	-5.68295
▁da	-5.70557
no	-5.72327
ov	-5.72814
▁kot	-5.73925
▁iz	-5.75712
ni	-5.80212
)	-5.8086
▁od	-5.81225
ne	-5.83089
#	-5.85422
ih	-5.8588
▁–	-5.86142
▁#	-5.87099
▁tudi	-5.8743
/	-5.89553
jo	-5.90689
sl	-5.95044
▁pri	-6.0013
-	-6.01243
l	-6.0149
▁do	-6.02181
▁id	-6.04723
org	-6.05032
ja	-6.06089
?	-6.06329
wiki	-6.07294
curi	-6.08148
://	-6.08203
▁<	-6.08342
wikipedia	-6.08391
https	-6.08454
▁url	-6.08512
▁title	-6.08613
▁categories	-6.08613
▁</	-6.0889
ti	-6.10762
s	-6.11184
v	-6.15505
ga	-6.17483
▁med	-6.19878
:	-6.20296
n	-6.20894
▁bil	-6.2257
li	-6.22703
la	-6.23538
▁o	-6.24996
mi	-6.25279
om	-6.25335
▁ne	-6.27209
▁ko	-6.27412
je	-6.29436
k	-6.4027
▁ali	-6.45101
▁ga	-6.45191
t	-6.47974
▁n	-6.50743
▁pr	-6.51401
j	-6.51763
▁bi	-6.52954
ta	-6.53568
c	-6.56098
z	-6.56515
▁bila	-6.61543
▁ob	-6.63439
▁ni	-6.64075
ka	-6.64573
▁to	-6.67349
nih	-6.68178
▁še	-6.68617
▁lahko	-6.71632
▁št	-6.73642
▁sta	-6.74064
lo	-6.7533
ega	-6.75972
),	-6.76983
▁tako	-6.77105
p	-6.77146
).	-6.78398
le	-6.79839
mo	-6.82475
y	-6.85434
em	-6.86205
▁bilo	-6.87589
▁ter	-6.87712
▁več	-6.88152
b	-6.91523
r	-6.93618
▁pre	-6.95226
ci	-6.96952
▁tem	-6.97516
ž	-6.97734
nje	-6.97762
ju	-6.97954
š	-6.9814
▁le	-6.99199
▁zaradi	-7.00411
g	-7.00848
▁kar	-7.00911
▁a	-7.01617
ski	-7.02836
nega	-7.03119
sko	-7.03179
;	-7.03204
2	-7.0379
▁pod	-7.03812
ska	-7.06976
▁k	-7.08074
č	-7.10437
▁ta	-7.10701
en	-7.10726
▁jo	-7.11478
▁pred	-7.11686
re	-7.12353
▁»	-7.13068
▁m	-7.13843
▁jih	-7.14059
▁18	-7.14687
▁del	-7.15579
f	-7.173
va	-7.17938
te	-7.19353
▁de	-7.19584
=	-7.20347
=3	-7.21681
ca	-7.24105
ce	-7.25203
in	-7.25336
ko	-7.27561
ske	-7.27802
="3	-7.27876
ke	-7.28021
▁bo	-7.29665
to	-7.30095
▁te	-7.31144
▁že	-7.31524
al	-7.32375
▁kjer	-7.32553
ma	-7.32567
ki	-7.32731
st	-7.33322
▁ima	-7.3333
x	-7.33798
vi	-7.36016
il	-7.39744
▁če	-7.43292
w	-7.43428
ji	-7.4374
▁u	-7.43997
po	-7.46651
▁vendar	-7.47429
nja	-7.47766
=1	-7.47916
▁naj	-7.49085
5	-7.49196
▁vse	-7.49497
skih	-7.50203
za	-7.50391
an	-7.50702
▁raz	-7.50845
▁proti	-7.51972
",	-7.52358
sti	-7.53272
de	-7.53273
ra	-7.53357
ve	-7.53651
▁("	-7.53999
▁mu	-7.54091
▁bili	-7.54671
▁let	-7.55097
ro	-7.55818
▁si	-7.56024
jem	-7.56523
▁1	-7.58316
▁mesto	-7.59389
▁zelo	-7.59671
se	-7.60021
▁primer	-7.60496
vo	-7.60702
nem	-7.61927
ija	-7.62319
▁prvi	-7.62533
di	-7.63752
me	-7.64071
im	-7.64839
▁leto	-7.65408
▁ime	-7.65698
▁saj	-7.65719
▁i	-7.65742
skega	-7.65971
1	-7.66275
▁veliko	-7.67256
▁tega	-7.68933
do	-7.6936
▁al	-7.69571
go	-7.69883
▁c	-7.70226
kov	-7.70285
▁divizija	-7.70422
ijo	-7.70772
ba	-7.70839
▁zato	-7.70859
▁stoletja	-7.71047
«	-7.71547
▁ker	-7.72081
sa	-7.72426
▁g	-7.73359
da	-7.74341
jev	-7.74368
ec	-7.74528
zi	-7.74655
")	-7.74927
▁e	-7.75028
▁re	-7.75523
▁17	-7.75993
▁3	-7.76872
▁la	-7.77377
▁okoli	-7.79733
▁2	-7.80077
bi	-7.80506
be	-7.80977
ri	-7.81571
▁samo	-7.82031
cev	-7.82245
3	-7.82476
▁najbolj	-7.82821
el	-7.85134
▁bolj	-7.85347
er	-7.85457
▁tri	-7.85709
pa	-7.85827
▁h	-7.86211
▁nekaj	-7.86453
▁p	-7.86551
▁postal	-7.86914
▁drugi	-7.87183
▁število	-7.87419
bo	-7.87456
nik	-7.87629
ami	-7.88103
▁|	-7.8957
či	-7.8995
če	-7.90697
▁vojne	-7.90933
▁di	-7.90973
sta	-7.91288
▁svoje	-7.913
ter	-7.9165
ev	-7.92143
▁nad	-7.93022
▁d	-7.93422
ge	-7.93751
us	-7.93761
ku	-7.94218
▁letih	-7.94253
▁t	-7.94805
▁4	-7.94899
▁času	-7.95115
▁ma	-7.95374
▁seznam	-7.9582
mu	-7.95839
▁zda	-7.96039
si	-7.96511
▁b	-7.96887
▁niso	-7.97943
4	-7.98172
▁uss	-7.98707
▁prav	-8.00132
ije	-8.00955
▁njegov	-8.01066
val	-8.01202
▁%	-8.01419
imi	-8.01812
▁približno	-8.01827
▁delo	-8.02078
▁f	-8.02545
▁koledarju	-8.02613
▁16	-8.0335
on	-8.0372
▁danes	-8.04084
0	-8.05153
▁10	-8.05344
▁države	-8.05773
▁brez	-8.0637
▁x	-8.06403
▁15	-8.06581
del	-8.06742
▁začel	-8.07092
tu	-8.0781
▁stoletju	-8.07951
ur	-8.07966
▁kasneje	-8.0819
▁š	-8.08412
▁predvsem	-8.08525
nost	-8.0912
▁formula	-8.09203
▁nato	-8.09824
▁sistem	-8.09864
ali	-8.10717
iji	-8.11374
▁1.	-8.11935
▁r	-8.12019
nim	-8.1223
▁km	-8.12584
it	-8.12868
'	-8.12882
▁vedno	-8.13244
8	-8.13669
▁ti	-8.14575
ša	-8.14885
▁mesta	-8.14939
▁dela	-8.1523
▁čeprav	-8.15374
▁bile	-8.16072
é	-8.16803
▁ba	-8.16822
▁začelo	-8.17557
▁strani	-8.17679
co	-8.17818
▁druge	-8.18396
▁ž	-8.18874
pi	-8.19187
ati	-8.19206
ži	-8.19474
▁svetu	-8.20101
▁imajo	-8.20335
ar	-8.20789
▁poleg	-8.20819
q	-8.2117
ost	-8.21298
ča	-8.21765
ver	-8.22102
▁svet	-8.22168
▁li	-8.2227
nica	-8.22928
▁uporablja	-8.23316
nju	-8.23706
ova	-8.23838
ek	-8.23865
▁velja	-8.24058
is	-8.24126
▁drugih	-8.24269
▁pogosto	-8.24342
mer	-8.24731
lu	-8.24927
gi	-8.24941
at	-8.25805
ton	-8.2639
▁tu	-8.26571
men	-8.27268
ck	-8.27556
▁dve	-8.27561
▁hms	-8.27567
▁*	-8.27593
▁eno	-8.27966
nosti	-8.28316
▁svojo	-8.28471
▁5	-8.29019
um	-8.29407
▁pomeni	-8.29545
▁w	-8.3012
▁kr	-8.30191
▁polk	-8.30231
▁skupaj	-8.30367
▁teh	-8.31117
6	-8.31157
iz	-8.31388
▁12	-8.31448
▁14	-8.31706
▁pol	-8.3173
stvo	-8.32192
▁kon	-8.3237
red	-8.32628
od	-8.32678
ze	-8.32766
nu	-8.32862
7	-8.33267
▁njegovo	-8.33523
▁ha	-8.3388
▁vseh	-8.34007
et	-8.34149
ran	-8.34184
▁dan	-8.34228
ob	-8.34836
▁ar	-8.34949
nimi	-8.35183
9	-8.36092
▁vojni	-8.36105
▁navadno	-8.365
tev	-8.36556
▁pi	-8.36759
▁ro	-8.36968
zo	-8.37104
20	-8.37339
or	-8.37468
čen	-8.37665
man	-8.38267
ovi	-8.3839
pre	-8.38442
▁vojno	-8.38543
su	-8.3897
iti	-8.3988
▁celo	-8.39979
30	-8.40173
ška	-8.40566
▁ju	-8.40575
že	-8.40625
▁števil	-8.40724
pe	-8.40797
▁način	-8.40879
10	-8.4107
ili	-8.41128
▁oz	-8.41318
▁†	-8.41441
▁pe	-8.41501
▁izraz	-8.4151
▁ena	-8.41605
skem	-8.41865
▁julijanskem	-8.42384
▁l	-8.42517
▁en	-8.42546
▁imel	-8.42554
▁glede	-8.42632
▁8	-8.43592
▁he	-8.44365
▁moč	-8.44421
27	-8.44446
▁ja	-8.44585
▁pet	-8.44748
▁skoraj	-8.44814
▁življenje	-8.45013
son	-8.45245
▁[[	-8.45333
▁katerih	-8.45455
|	-8.45726
▁njegova	-8.45727
▁sam	-8.45731
▁pro	-8.46185
ško	-8.4631
ch	-8.4641
▁takrat	-8.47128
▁lu	-8.47543
▁delu	-8.4756
▁ho	-8.47766
▁letu	-8.47879
▁jezik	-8.48093
▁program	-8.48112
tvi	-8.48619
ng	-8.49244
▁držav	-8.49641
▁lo	-8.50005
še	-8.50106
nov	-8.50137
▁njegovi	-8.50367
▁j	-8.50382
▁večina	-8.50477
krat	-8.5079
▁novo	-8.50858
▁sin	-8.51049
uje	-8.51457
čni	-8.51656
▁prvo	-8.51912
▁13	-8.51973
▁mo	-8.52083
▁11	-8.52214
per	-8.52341
▁dva	-8.52358
ovo	-8.52513
▁sicer	-8.52607
den	-8.5262
▁6	-8.52901
▁an	-8.53136
▁medtem	-8.53166
var	-8.53419
▁vojske	-8.53666
ss	-8.53719
▁2.	-8.53824
28	-8.54039
▁druga	-8.54132
ij	-8.54268
os	-8.54286
▁različnih	-8.54294
25	-8.54542
▁zakon	-8.54736
ica	-8.54979
let	-8.55137
"),	-8.55945
99	-8.55993
es	-8.56624
izem	-8.56982
▁(19	-8.57402
▁7	-8.57591
▁glavni	-8.57626
▁9	-8.57711
ove	-8.57858
▁kateri	-8.57914
njem	-8.57942
ber	-8.58139
▁skozi	-8.58423
▁ljudi	-8.58597
▁država	-8.58642
]]	-8.58792
▁njihov	-8.58823
ten	-8.59028
▁drugo	-8.59031
sel	-8.59131
▁katerem	-8.59139
▁ra	-8.59197
▁op	-8.59243
▁vodil	-8.59249
cu	-8.59254
▁dni	-8.59507
]	-8.59715
▁čas	-8.59909
▁oziroma	-8.60175
stva	-8.60322
kar	-8.60384
lja	-8.60927
▁ci	-8.60981
▁nekateri	-8.61154
▁sloveniji	-8.61289
▁kralj	-8.61327
kom	-8.6142
▁prva	-8.61706
▁bar	-8.61909
▁kljub	-8.62055
tve	-8.62179
▁19.	-8.6224
sto	-8.62268
ine	-8.62296
▁vode	-8.62328
▁prebivalcev	-8.62343
ši	-8.62843
tro	-8.62981
▁smrti	-8.63599
▁20.	-8.63821
vr	-8.63908
▁mestu	-8.64092
ški	-8.64101
mar	-8.64114
▁časa	-8.6428
tov	-8.64309
▁manj	-8.64412
pis	-8.64578
«.	-8.64821
.000	-8.64856
▁mar	-8.64999
▁stoletje	-8.65292
▁=	-8.65316
▁per	-8.65324
▁imenuje	-8.65575
lje	-8.65743
▁gre	-8.65957
▁č	-8.66045
▁razvoj	-8.66507
(	-8.66561
▁zgodovina	-8.66692
izma	-8.67094
ina	-8.67095
▁znan	-8.67318
ing	-8.67448
ul	-8.67656
▁y	-8.6772
▁dr	-8.68408
čne	-8.68459
pol	-8.68647
ut	-8.68837
▁ka	-8.68853
▁umrl	-8.69291
▁os	-8.69438
▁prostor	-8.69517
á	-8.69656
▁be	-8.69679
▁slovenske	-8.69863
th	-8.70049
nice	-8.70253
▁ste	-8.70415
▁slovenije	-8.70469
▁fa	-8.70747
ant	-8.7104
_	-8.7112
▁[	-8.7159
ven	-8.71753
▁ii	-8.71967
▁obstaja	-8.71999
▁preko	-8.72061
▁veliki	-8.72121
▁or	-8.72197
▁slovenski	-8.72299
▁enot	-8.72477
94	-8.72548
nsko	-8.72578
ent	-8.72622
čna	-8.72648
▁eden	-8.72711
▁svojega	-8.73059
land	-8.73193
so	-8.73294
▁boj	-8.73312
▁oblast	-8.73461
▁ku	-8.7355
▁20	-8.73678
í	-8.73919
▁član	-8.74116
osti	-8.74187
▁'	-8.74197
tra	-8.74201
39	-8.7423
ila	-8.74244
▁močno	-8.74302
26	-8.7434
pri	-8.74498
▁njegove	-8.74661
▁pot	-8.74711
pro	-8.74836
tor	-8.75156
▁dveh	-8.7518
▁vojna	-8.75204
▁območje	-8.75839
gu	-8.75845
itev	-8.75908
stan	-8.75934
▁svojih	-8.75982
60	-8.76098
▁evropi	-8.76119
▁du	-8.76219
niki	-8.76436
▁predstavlja	-8.76558
▁ponovno	-8.76684
–	-8.77102
▁običajno	-8.7745
▁sil	-8.77487
▁par	-8.77687
▁zapis	-8.77871
nski	-8.78013
▁svoj	-8.78298
ala	-8.78581
čno	-8.7864
▁mi	-8.78685
▁občina	-8.78696
▁velike	-8.78733
ren	-8.78797
▁su	-8.78992
▁red	-8.79715
▁me	-8.79725
ščina	-8.79982
▁velika	-8.80049
▁svetovne	-8.80072
▁postala	-8.80194
86	-8.80458
▁obdobju	-8.80492
▁koncu	-8.80818
").	-8.80916
▁katerega	-8.80965
▁začetku	-8.8108
▁nekaterih	-8.81458
tek	-8.81555
vati	-8.81966
90	-8.82012
▁štiri	-8.82054
▁vlada	-8.8224
▁tr	-8.8226
log	-8.82272
▁števila	-8.82561
▁3.	-8.82593
as	-8.83172
▁vsak	-8.8329
ške	-8.83311
▁proces	-8.83553
▁film	-8.83577
▁am	-8.83763
▁njem	-8.83812
raz	-8.83815
▁sveta	-8.83878
▁imena	-8.83977
čev	-8.84027
▁skupine	-8.84147
▁bog	-8.84259
▁republike	-8.84324
▁vrst	-8.84487
rod	-8.84802
▁kmalu	-8.84915
▁ri	-8.85014
▁+	-8.8506
fa	-8.85106
▁potem	-8.85121
▁gor	-8.85143
82	-8.85172
▁co	-8.85194
▁jim	-8.85414
ved	-8.8554
29	-8.85595
40	-8.85638
▁uporabljajo	-8.85805
95	-8.85855
▁vpliv	-8.86216
▁imela	-8.86221
▁obliki	-8.86706
▁of	-8.86874
59	-8.87024
▁otok	-8.87063
78	-8.87237
▁tam	-8.8726
▁malo	-8.87295
▁velik	-8.8732
tar	-8.87352
žen	-8.87453
▁tur	-8.87494
▁ravni	-8.87729
▁sile	-8.87815
▁4.	-8.8787
len	-8.87881
ru	-8.87976
▁roman	-8.88026
▁q	-8.88201
▁občin	-8.88212
ó	-8.88408
▁nove	-8.88449
itve	-8.88527
tri	-8.88702
98	-8.88729
▁verjetno	-8.88809
▁temu	-8.8885
50	-8.89052
▁john	-8.89056
bil	-8.89085
▁občine	-8.89128
šč	-8.89192
▁skupina	-8.89384
▁večinoma	-8.89678
ry	-8.89694
97	-8.89872
van	-8.89954
▁predsednik	-8.90161
76	-8.90431
mor	-8.90498
▁različne	-8.90506
63	-8.90523
▁cel	-8.90527
sen	-8.90619
▁ur	-8.90777
▁nekatere	-8.9091
▁sto	-8.91058
▁ver	-8.91206
ö	-8.91563
24	-8.91776
▁krog	-8.91823
70	-8.9183
«,	-8.91926
▁napad	-8.91983
▁začela	-8.92296
▁dobro	-8.92305
▁grad	-8.92339
▁bu	-8.92559
▁snovi	-8.92686
grad	-8.92901
▁živi	-8.92907
tr	-8.92946
fer	-8.93067
▁gu	-8.93196
ic	-8.9326
▁letoma	-8.93523
▁zvezd	-8.93556
lik	-8.93595
▁prve	-8.93666
ll	-8.93673
▁prek	-8.93842
išče	-8.9431
der	-8.94427
nika	-8.94508
nji	-8.94568
▁hi	-8.94592
▁cesar	-8.94603
rt	-8.94698
▁maja	-8.94881
št	-8.94959
23	-8.95351
▁katero	-8.95413
▁pu	-8.95601
nico	-8.95618
ster	-8.95625
▁mnogo	-8.95641
▁pozneje	-8.95658
ol	-8.96115
▁dobil	-8.96123
▁vsi	-8.96199
▁oseb	-8.96237
▁res	-8.96362
34	-8.96428
33	-8.96555
▁igra	-8.96777
▁mir	-8.96822
▁enote	-8.96881
alni	-8.9689
15	-8.96943
▁ab	-8.96946
▁zlasti	-8.9701
anja	-8.97132
▁kor	-8.97156
▁prebivalstva	-8.97208
11	-8.97301
pu	-8.9737
▁(18	-8.97403
▁katere	-8.97425
▁upor	-8.97479
▁go	-8.97533
▁prvič	-8.97644
nikov	-8.9768
▁posebej	-8.97813
nd	-8.97839
ff	-8.97857
nska	-8.97879
ak	-8.97883
▁junija	-8.97903
cem	-8.98092
šča	-8.9819
91	-8.98369
▁vrste	-8.98414
stra	-8.98625
▁meh	-8.9872
▁vsebuje	-8.98942
▁ca	-8.99349
▁sv	-8.9941
▁šele	-8.99428
▁republika	-8.99512
du	-8.99527
▁hu	-8.99586
tudi	-8.99644
▁car	-8.99651
zija	-8.9967
)"	-8.99707
▁str	-8.99796
ice	-8.99802
jih	-8.99827
kla	-8.99909
▁pravi	-8.99909
▁5.	-8.99915
ovega	-9.00116
▁poti	-9.00256
▁ljubljani	-9.00283
▁izmed	-9.00377
vod	-9.00411
▁njimi	-9.00433
▁reke	-9.00443
▁vrnil	-9.00469
▁°	-9.00524
▁simbol	-9.00695
▁energije	-9.00731
pred	-9.00737
mes	-9.00847
jeva	-9.00883
stvu	-9.00953
▁življenja	-9.01034
jan	-9.01144
prav	-9.01212
▁cerkve	-9.01219
fe	-9.01334
▁kri	-9.01461
▁vodo	-9.01486
▁okrog	-9.01552
kon	-9.0156
▁leži	-9.01622
▁napisal	-9.01796
▁središče	-9.01868
tan	-9.01872
46	-9.01971
00	-9.02042
35	-9.02045
16	-9.02084
▁enota	-9.02111
bu	-9.02588
nske	-9.02607
▁julija	-9.02707
▁pomembno	-9.02907
▁igral	-9.02987
▁san	-9.0302
▁podobno	-9.03032
▁deset	-9.03099
▁ivan	-9.03261
88	-9.033
▁prejel	-9.03369
čas	-9.03496
93	-9.03502
▁the	-9.03549
anje	-9.03568
▁dobi	-9.03746
19	-9.03768
12	-9.0377
▁decembra	-9.03829
▁njih	-9.03924
▁obdobje	-9.04015
▁enako	-9.0404
▁številne	-9.04055
ovih	-9.04136
ljen	-9.0415
vez	-9.04166
▁mož	-9.04315
ist	-9.04437
▁6.	-9.04476
nes	-9.04498
▁30	-9.04512
▁vol	-9.04649
ujejo	-9.04695
▁vrednost	-9.05045
80	-9.05103
▁včasih	-9.05138
lin	-9.05139
▁vrt	-9.05297
ment	-9.0531
▁sistema	-9.05348
▁državi	-9.05388
gen	-9.05505
▁mogoče	-9.05563
oma	-9.05688
▁organ	-9.05706
▁katerim	-9.0582
96	-9.05912
nt	-9.05966
un	-9.06222
43	-9.06254
op	-9.06283
▁anti	-9.0629
gon	-9.06301
83	-9.06372
acije	-9.06397
▁mora	-9.06671
nci	-9.06798
▁precej	-9.06816
▁januarja	-9.06864
▁vrh	-9.06881
▁bor	-9.06904
▁ru	-9.06954
▁oktobra	-9.07122
▁področju	-9.07122
▁svetovni	-9.07128
br	-9.07135
ključ	-9.07217
▁pomočjo	-9.07367
▁dolgo	-9.07436
ion	-9.07468
85	-9.07913
84	-9.08108
vanju	-9.08183
lom	-9.08196
67	-9.08554
44	-9.08567
▁največji	-9.08618
▁svetovno	-9.08666
2.	-9.0873
45	-9.08733
▁ok	-9.08916
17	-9.08938
87	-9.08943
47	-9.08994
▁svoji	-9.09027
▁južni	-9.0906
▁torej	-9.09254
▁pojav	-9.09298
ard	-9.09523
▁severni	-9.0964
acija	-9.09685
met	-9.09858
slov	-9.09909
har	-9.10147
▁rib	-9.10191
▁marca	-9.10253
ks	-9.10434
ir	-9.10441
▁man	-9.10563
▁večji	-9.1074
▁oče	-9.10969
▁drugim	-9.11021
▁vodi	-9.111
▁največje	-9.11276
ris	-9.11286
61	-9.11287
49	-9.11308
▁npr	-9.11367
pla	-9.11461
▁vir	-9.11556
ira	-9.11776
res	-9.11912
▁lastnosti	-9.11933
▁astronom	-9.11935
▁šest	-9.1199
▁novembra	-9.12126
37	-9.12168
75	-9.12249
▁septembra	-9.12425
▁pesmi	-9.12457
gor	-9.12617
▁najprej	-9.12728
▁pis	-9.12794
14	-9.13061
▁prej	-9.13188
▁območju	-9.13235
89	-9.13347
bel	-9.13425
lt	-9.13611
▁oblasti	-9.13736
&	-9.13821
54	-9.13827
▁mest	-9.13827
svet	-9.139
48	-9.14014
tur	-9.14186
▁večino	-9.14216
fi	-9.14305
▁otrok	-9.14433
▁izrek	-9.14496
▁znana	-9.1451
▁hitro	-9.14624
▁polet	-9.14658
▁hr	-9.1468
ot	-9.14683
▁mit	-9.14718
rov	-9.14855
▁nova	-9.14868
▁deli	-9.14908
▁16.	-9.14963
▁general	-9.14965
▁aprila	-9.15092
ron	-9.15233
▁50	-9.15396
ologija	-9.15451
▁dvo	-9.15591
▁nadzor	-9.16013
▁naselje	-9.16071
uss	-9.16087
▁vključno	-9.16097
▁model	-9.16167
ico	-9.16168
▁znak	-9.16257
šen	-9.16278
▁odkril	-9.16388
▁teles	-9.16413
▁slav	-9.16419
3"	-9.16471
▁dvor	-9.16595
▁avgusta	-9.16627
▁naprej	-9.16756
dru	-9.16803
ley	-9.16968
79	-9.16975
21	-9.17099
▁element	-9.17133
rija	-9.17137
▁novi	-9.17271
▁sodeloval	-9.17281
▁stroj	-9.17283
kal	-9.1731
58	-9.17554
18	-9.17567
▁zbor	-9.17584
▁prehod	-9.17712
zna	-9.17783
▁združeni	-9.17812
▁moral	-9.17829
▁imeli	-9.17846
tis	-9.17863
13	-9.17948
vid	-9.17954
vin	-9.18036
up	-9.18074
▁uporabi	-9.18181
▁ji	-9.18245
▁pomen	-9.18358
▁meri	-9.18401
▁fi	-9.18437
med	-9.18521
▁enega	-9.18528
▁njen	-9.18551
ok	-9.18599
81	-9.18624
▁vojska	-9.18677
dor	-9.18821
38	-9.18892
ph	-9.1891
▁imenovan	-9.18917
ža	-9.18977
56	-9.19143
▁jugu	-9.19254
▁nemški	-9.19295
▁polja	-9.19347
▁plin	-9.19422
36	-9.19494
▁prijatelj	-9.1953
▁svojem	-9.19629
▁kam	-9.19734
▁tok	-9.19841
▁hkrati	-9.19856
▁promet	-9.19931
0.000	-9.19937
▁vlogo	-9.19995
▁nahaja	-9.20086
vali	-9.20117
ici	-9.20121
▁7.	-9.20153
65	-9.20195
pelj	-9.20238
▁15.	-9.20518
▁lov	-9.20522
66	-9.20531
▁okraj	-9.20536
▁9.	-9.20614
▁njegovega	-9.20693
▁oblika	-9.20732
▁17.	-9.20734
▁ozemlje	-9.20838
▁konec	-9.20927
▁her	-9.21015
kr	-9.21089
▁njim	-9.21232
▁franc	-9.2133
▁uporabo	-9.21389
▁40	-9.21563
▁gra	-9.21605
▁von	-9.21646
▁bodo	-9.21729
▁vzhodu	-9.21778
▁25	-9.21922
▁treh	-9.22012
▁glavno	-9.22054
▁zveze	-9.22064
▁smrt	-9.22072
▁zemlji	-9.22117
▁var	-9.22117
skim	-9.22119
ator	-9.22162
▁projekt	-9.22164
ščen	-9.22199
▁sir	-9.22287
▁severu	-9.22376
▁šport	-9.22399
▁gibanje	-9.22446
ilo	-9.22486
▁problem	-9.22643
▁and	-9.22674
62	-9.22678
ana	-9.22716
▁sila	-9.2274
▁prihod	-9.22841
▁zahodni	-9.23181
▁tedaj	-9.23213
▁standard	-9.23236
acijo	-9.2329
bor	-9.23355
▁zemlje	-9.23377
▁tej	-9.2361
▁vas	-9.23616
▁cerkev	-9.23619
lov	-9.23644
▁ustanovil	-9.23944
9"	-9.23968
▁cesarstva	-9.23982
▁el	-9.24023
▁brat	-9.24051
▁vojaški	-9.2408
▁bur	-9.24152
vanja	-9.24214
seznam	-9.24249
▁8.	-9.24277
kle	-9.24371
▁park	-9.24425
ljub	-9.24425
dan	-9.24538
por	-9.24597
▁razvil	-9.24695
▁vid	-9.24727
▁obsega	-9.24741
▁razred	-9.24795
ger	-9.24804
51	-9.24809
01	-9.2488
iziran	-9.24978
ste	-9.24983
▁voda	-9.24996
▁splošno	-9.25096
rij	-9.2534
ščini	-9.25452
dr	-9.25476
ič	-9.2558
gt	-9.25589
▁telesa	-9.25601
▁rastlin	-9.25644
03	-9.25762
▁vsako	-9.25803
▁gr	-9.25861
▁severno	-9.26141
▁oblike	-9.26143
▁plovil	-9.26232
72	-9.26329
▁tip	-9.264
▁čemer	-9.26415
bar	-9.26434
alno	-9.26465
▁načrt	-9.26469
▁ce	-9.26511
stri	-9.26543
64	-9.26556
nj	-9.26594
▁ocean	-9.26607
bra	-9.26728
▁sedež	-9.26759
sp	-9.26773
▁pla	-9.2683
zor	-9.26844
▁prišlo	-9.26947
▁val	-9.27075
▁ge	-9.27285
▁vojsko	-9.27305
%	-9.27387
ler	-9.27407
31	-9.27436
zij	-9.27473
▁spor	-9.27586
ner	-9.27589
▁ampak	-9.27647
▁naslednje	-9.27649
▁ozemlja	-9.27673
▁besede	-9.27676
fo	-9.27755
▁kralja	-9.27809
▁obliko	-9.27821
par	-9.2826
istega	-9.28309
kt	-9.28316
tom	-9.28336
tel	-9.28397
pr	-9.28418
mb	-9.28605
="14	-9.2872
▁širi	-9.28784
▁izhaja	-9.28851
▁evropske	-9.28893
cija	-9.28902
▁čez	-9.28912
▁visoko	-9.29113
▁10.	-9.29118
▁biti	-9.29139
="15	-9.29182
▁francoski	-9.29206
▁18.	-9.29327
ej	-9.29349
▁milijonov	-9.29455
▁top	-9.29548
▁gregorijanskem	-9.29663
ovanje	-9.29672
▁beseda	-9.29698
škega	-9.299
emu	-9.29906
▁muzej	-9.29922
▁cesarstvo	-9.29938
▁objavil	-9.30044
▁telo	-9.30171
▁filozof	-9.30207
▁rezultat	-9.30264
▁naslov	-9.30274
sil	-9.30395
lon	-9.30503
="13	-9.30551
▁dal	-9.30599
▁položaj	-9.30665
▁kal	-9.3073
▁območja	-9.30748
▁100	-9.30863
▁kako	-9.30923
57	-9.31065
▁večje	-9.31126
000	-9.31209
▁12.	-9.31299
▁družbe	-9.31388
iranje	-9.31391
the	-9.3147
kot	-9.31563
55	-9.31578
▁boga	-9.31588
ser	-9.31713
▁februarja	-9.31746
gar	-9.31949
▁vrednosti	-9.31965
▁vrsta	-9.3197
rja	-9.32098
▁anton	-9.32149
▁popolnoma	-9.32238
▁les	-9.32284
kor	-9.32336
="16	-9.32363
▁velikih	-9.32436
▁60	-9.32444
▁predmet	-9.32543
▁material	-9.3257
▁zahodu	-9.32638
▁nič	-9.32802
slav	-9.32823
▁cilj	-9.32837
▁gi	-9.32859
▁vlade	-9.32865
▁imenoval	-9.32941
▁leti	-9.32943
77	-9.33044
▁ljudje	-9.33076
bri	-9.33087
▁uporabljali	-9.33095
▁skupnosti	-9.33135
▁deluje	-9.33189
mp	-9.33203
▁pl	-9.33226
▁tak	-9.3333
sh	-9.33492
▁zadnji	-9.3353
jski	-9.33575
▁fo	-9.3372
69	-9.33744
▁william	-9.33745
▁kre	-9.33775
▁11.	-9.33801
▁dokaz	-9.33801
▁parlament	-9.33823
▁hitrost	-9.33852
▁odločil	-9.33876
sk	-9.33881
iral	-9.33965
▁tal	-9.34004
spe	-9.34099
skimi	-9.34099
▁2000	-9.34117
nk	-9.3415
▁poveljnik	-9.34293
str	-9.34373
ščine	-9.34395
rne	-9.34399
sch	-9.34441
ika	-9.34504
nom	-9.34509
▁ad	-9.34591
▁deloval	-9.34644
22	-9.3472
▁imenom	-9.34733
jše	-9.34779
▁pokazal	-9.34828
vor	-9.35054
▁ča	-9.3517
▁vzhodno	-9.35175
▁is	-9.35307
▁bataljon	-9.35333
▁14.	-9.35525
nil	-9.35589
▁poli	-9.3561
▁1991	-9.35862
▁glasbe	-9.35885
74	-9.35917
▁tir	-9.35942
▁poteka	-9.36344
▁pomemben	-9.36353
▁janez	-9.36374
▁har	-9.36376
▁smeri	-9.36387
telj	-9.36409
▁državni	-9.36414
▁morje	-9.36443
ino	-9.36482
▁profesor	-9.3661
bit	-9.36636
lec	-9.36653
▁stran	-9.36659
▁južno	-9.36736
▁značilnosti	-9.36744
▁nikoli	-9.36873
▁jezikov	-9.36905
▁kompleks	-9.37125
7"	-9.37162
und	-9.3717
▁bal	-9.37201
kri	-9.37243
▁0	-9.37254
▁mag	-9.37271
▁končal	-9.37277
glas	-9.37287
▁rim	-9.37378
–1	-9.37604
▁univerzi	-9.37616
▁živali	-9.37729
▁dovolj	-9.37734
ps	-9.37788
▁pride	-9.37792
rd	-9.37946
tna	-9.38078
▁temelji	-9.38163
rit	-9.38181
uk	-9.38205
▁er	-9.3823
▁znano	-9.38434
▁šol	-9.38435
="12	-9.3851
god	-9.38546
▁toda	-9.38588
alne	-9.38609
▁gozd	-9.38613
32	-9.38618
68	-9.38678
▁funkcija	-9.38697
▁znanosti	-9.3876
▁častnik	-9.38781
metri	-9.38791
▁človek	-9.38901
▁študij	-9.38916
▁jan	-9.38931
les	-9.38941
▁vod	-9.38984
▁namenjen	-9.38987
pot	-9.39013
▁13.	-9.39015
▁nadaljeval	-9.39148
▁znani	-9.39306
▁prebivalstvo	-9.39351
▁opis	-9.39384
▁fu	-9.39419
41	-9.39544
koli	-9.39587
▁ameriški	-9.39598
▁ev	-9.39643
jši	-9.39665
tež	-9.39666
▁evrope	-9.39741
▁blizu	-9.39741
▁namen	-9.39813
glav	-9.39878
▁zveza	-9.39894
▁mer	-9.39968
▁ostal	-9.39989
▁nagrado	-9.40022
jša	-9.40084
▁des	-9.40107
ari	-9.40178
▁matematik	-9.40246
▁govori	-9.40286
▁new	-9.40378
čil	-9.40408
teg	-9.40452
▁izvor	-9.40579
ü	-9.40609
▁razmer	-9.40625
▁treba	-9.40675
ično	-9.40679
-1	-9.40744
šo	-9.40783
="11	-9.40835
▁kraj	-9.40909
▁znotraj	-9.40941
▁staro	-9.41072
▁tretji	-9.41075
▁kan	-9.41108
lar	-9.41126
az	-9.41177
ite	-9.41178
njo	-9.41284
09	-9.41303
42	-9.41351
▁obeh	-9.41391
▁uni	-9.41436
olog	-9.41605
71	-9.41668
čnih	-9.41686
que	-9.4175
▁zgrajen	-9.41903
ču	-9.41906
ščino	-9.41916
="21	-9.41938
npr	-9.4214
▁namesto	-9.42158
tt	-9.42167
▁sprv	-9.42198
kop	-9.42265
▁gora	-9.42426
▁drugimi	-9.42461
dob	-9.42587
rab	-9.42738
▁ak	-9.42751
▁2004	-9.4278
▁bra	-9.42866
▁mor	-9.42913
iv	-9.42929
▁ostaja	-9.42978
▁morja	-9.42995
alna	-9.4305
pan	-9.43067
▁nov	-9.43192
▁pravo	-9.4321
▁mornarice	-9.43253
▁motor	-9.43388
▁slovenskih	-9.43406
▁gori	-9.43435
han	-9.43474
▁spreminja	-9.43496
oj	-9.4352
▁bel	-9.43563
▁mil	-9.43614
▁navadi	-9.43668
▁inter	-9.43818
▁primeru	-9.43824
vanje	-9.43874
▁zdaj	-9.43925
▁pomembni	-9.43937
▁prebivalci	-9.43967
pra	-9.44019
nos	-9.4407
▁bru	-9.44071
▁rok	-9.44171
dra	-9.44253
▁nacional	-9.44254
▁svojim	-9.44272
pust	-9.4429
lj	-9.44359
73	-9.44361
nova	-9.44527
ić	-9.44667
▁vzhodni	-9.44735
▁temperatura	-9.44803
lju	-9.44807
rk	-9.44824
ida	-9.44836
ben	-9.44874
jen	-9.44982
ita	-9.45218
▁raziskoval	-9.45232
▁ber	-9.45263
už	-9.4533
▁doseže	-9.45341
▁izvira	-9.45349
bre	-9.45397
▁con	-9.45588
▁maj	-9.45695
nici	-9.45726
▁posledica	-9.45808
ični	-9.45837
▁avtor	-9.45952
▁ruski	-9.46092
▁največ	-9.46101
▁1,	-9.46243
▁umetnosti	-9.46282
▁uradno	-9.46438
▁mol	-9.46497
▁et	-9.46568
▁označuje	-9.46598
+	-9.46679
bert	-9.46917
zu	-9.46941
strel	-9.46944
▁številnih	-9.46951
▁sledi	-9.46999
▁ljubljana	-9.47025
ab	-9.47035
▁para	-9.47243
е	-9.4731
ani	-9.47396
▁meji	-9.47461
tni	-9.47495
▁odnos	-9.47496
▁morda	-9.47512
▁gibanja	-9.47534
▁kraljestvo	-9.47597
▁ed	-9.47611
▁elektron	-9.4769
▁določa	-9.47741
▁24	-9.47803
▁0,	-9.47816
_1	-9.47875
▁teorija	-9.47892
▁nastala	-9.47909
▁&	-9.47919
vz	-9.4795
kler	-9.48064
▁vsem	-9.48097
▁peter	-9.48137
▁prvih	-9.48159
ik	-9.48203
▁cvet	-9.48219
▁tlak	-9.48258
štev	-9.48297
▁tvori	-9.48336
gra	-9.48352
▁vojaške	-9.48394
▁razširjen	-9.4846
▁sporazum	-9.4846
▁men	-9.48552
▁ana	-9.48586
fu	-9.48633
bl	-9.48635
07	-9.48655
▁rad	-9.48669
▁reka	-9.48678
=21	-9.48754
▁razširil	-9.48807
▁tisoč	-9.48842
▁priljubljen	-9.48864
и	-9.4889
▁robert	-9.48921
jske	-9.48924
▁kraljev	-9.48955
▁šola	-9.48977
▁mati	-9.49114
don	-9.4915
▁jezika	-9.49171
cij	-9.49213
▁bre	-9.49345
▁mm	-9.49427
▁delež	-9.49496
▁lit	-9.4951
▁rev	-9.49517
▁prevzel	-9.49595
="18	-9.49604
▁cest	-9.49609
4"	-9.49637
▁obstoj	-9.49643
▁konca	-9.49695
▁točka	-9.49728
▁pravil	-9.49731
▁poskus	-9.49762
▁podnebje	-9.4977
dela	-9.49798
gin	-9.4987
▁poveča	-9.49963
▁razen	-9.49992
▁fer	-9.501
▁odprt	-9.5011
8"	-9.50123
▁vsaj	-9.50149
vil	-9.50174
▁orožje	-9.50214
▁stra	-9.50411
▁skladatelj	-9.50477
▁dežel	-9.50485
▁hor	-9.50644
▁avgust	-9.50683
▁pove	-9.50704
kul	-9.50731
="22	-9.5078
▁julij	-9.50816
▁mesec	-9.50828
gr	-9.50989
▁dom	-9.5101
▁strel	-9.51016
▁kakor	-9.51056
2)	-9.51069
cijo	-9.51079
vne	-9.51171
tne	-9.51184
ini	-9.51265
▁planet	-9.51265
▁bogov	-9.51338
▁manjši	-9.51373
▁obdobja	-9.51396
▁metrov	-9.51403
▁sr	-9.51406
tika	-9.51437
▁plan	-9.51456
05	-9.51485
▁bitka	-9.5155
▁državo	-9.51555
dd	-9.5158
min	-9.51624
▁social	-9.51631
▁sestavljen	-9.51682
▁zgodovini	-9.51693
cen	-9.51705
▁elektro	-9.51727
▁glasbo	-9.51729
▁skupin	-9.51748
rn	-9.5178
6"	-9.51859
▁sredi	-9.51869
▁slab	-9.51888
▁začne	-9.51935
▁up	-9.52
dar	-9.5215
gn	-9.52239
▁iii	-9.52258
▁sistemu	-9.52279
ike	-9.52312
▁ton	-9.52382
▁as	-9.52439
▁spopad	-9.52444
kro	-9.52531
vel	-9.52567
▁stalin	-9.52609
tično	-9.52679
drž	-9.5268
ft	-9.52732
▁pomembna	-9.52745
▁letal	-9.52822
nskega	-9.52832
▁največja	-9.52845
▁we	-9.52895
iko	-9.53027
▁papež	-9.53051
!	-9.53051
rin	-9.53077
▁izgubil	-9.53103
08	-9.53129
▁tank	-9.5315
▁ustanovljen	-9.53226
▁izdal	-9.53252
▁delov	-9.53265
▁meja	-9.53304
▁bolezni	-9.5335
mat	-9.53376
▁dostop	-9.53382
▁hotel	-9.5339
tal	-9.53408
▁sever	-9.53562
▁njihove	-9.53604
tno	-9.53623
▁člen	-9.53716
▁kap	-9.53804
▁kra	-9.54054
▁fizik	-9.54066
▁delovanje	-9.54148
▁kaj	-9.54194
▁mnogi	-9.5424
▁moči	-9.54321
▁mladi	-9.54344
▁sonca	-9.54356
▁preživel	-9.54419
▁ostali	-9.54512
dol	-9.54575
rat	-9.54632
▁70	-9.54646
▁ustanov	-9.54793
deset	-9.54801
▁21	-9.54859
pet	-9.54879
▁omogoča	-9.54941
▁av	-9.54944
04	-9.54972
šek	-9.54991
▁meje	-9.55012
а	-9.55023
▁njej	-9.55117
▁obe	-9.55156
▁podlagi	-9.5519
sov	-9.55238
tični	-9.55363
ških	-9.55478
▁ši	-9.55512
▁srednji	-9.55563
nskih	-9.55574
▁star	-9.55626
▁us	-9.55652
▁njeno	-9.55679
▁prevod	-9.55681
▁naziv	-9.55719
▁(1	-9.55832
▁prišel	-9.55917
▁br	-9.55932
▁log	-9.55944
▁naboj	-9.5599
▁sklad	-9.56168
pt	-9.56207
▁udar	-9.56222
▁odkrit	-9.56274
▁podatkov	-9.56278
▁ag	-9.56622
▁trg	-9.56651
▁van	-9.56718
we	-9.56728
▁gospodarstvo	-9.56758
anju	-9.56764
о	-9.56899
▁teorije	-9.56995
ly	-9.5718
▁mas	-9.57266
net	-9.57312
2"	-9.57341
elj	-9.57377
rb	-9.57385
▁obstajajo	-9.57389
▁sprejet	-9.57394
▁predstav	-9.57517
▁vasi	-9.57611
▁sovjetske	-9.57683
▁ravno	-9.57807
▁poslan	-9.57864
dom	-9.5798
gan	-9.57987
▁more	-9.58008
▁preselil	-9.58016
▁bla	-9.58018
▁1945	-9.5802
▁lev	-9.58022
▁slovenija	-9.58045
▁nu	-9.58099
▁polje	-9.58115
▁ohranil	-9.58132
▁obali	-9.58135
▁pomembne	-9.58151
▁spomenik	-9.58172
▁ben	-9.58237
isti	-9.58287
▁sp	-9.58297
▁enaka	-9.58316
est	-9.58326
▁njegovem	-9.58359
tre	-9.58371
▁razvit	-9.58436
▁celotne	-9.58442
▁obravnava	-9.58496
▁najdemo	-9.58558
bur	-9.58579
ham	-9.58639
▁osvojil	-9.58729
amp	-9.58854
▁doda	-9.58963
▁razprav	-9.58976
▁ladje	-9.59007
▁uporabljal	-9.59011
▁varnost	-9.59012
▁james	-9.59042
▁no	-9.59158
▁enačba	-9.59385
▁vojaško	-9.59455
▁gol	-9.59505
▁slovensko	-9.59512
zem	-9.59568
▁občini	-9.59603
▁pas	-9.59609
▁amerike	-9.59617
▁puščav	-9.59618
▁plač	-9.59645
rije	-9.59689
▁velikega	-9.59692
▁postavil	-9.59704
▁odgovor	-9.59715
alnih	-9.59739
ovem	-9.59762
▁kovin	-9.5977
▁količina	-9.59777
="19	-9.59827
▁cor	-9.59955
ktor	-9.60006
ograf	-9.60115
ier	-9.60178
▁pisal	-9.60235
▁svetlobe	-9.60282
06	-9.60395
▁potencial	-9.60433
▁pogled	-9.60437
▁paul	-9.60498
▁besed	-9.60623
šče	-9.60725
▁stanje	-9.60743
▁omogočil	-9.60753
▁energija	-9.60755
▁molekul	-9.60791
▁at	-9.60804
▁posebno	-9.60818
▁kaže	-9.60875
▁razliko	-9.60885
▁zagotavlja	-9.60919
▁produkt	-9.60928
ple	-9.60931
▁glas	-9.61018
▁dž	-9.61075
izmu	-9.61115
nic	-9.61315
rska	-9.61364
▁vojvod	-9.61412
▁uporaba	-9.61413
rski	-9.61421
▁želel	-9.61482
▁zahteva	-9.61519
lit	-9.61544
wa	-9.61616
▁česar	-9.61621
▁poskušal	-9.6164
▁večkrat	-9.61723
▁ust	-9.61741
▁rodil	-9.61744
lič	-9.61817
sod	-9.61872
▁živel	-9.61955
▁oksid	-9.62025
ker	-9.62096
▁80	-9.62118
▁dne	-9.62166
▁tra	-9.62233
▁zvezde	-9.62265
▁velikosti	-9.62351
▁politične	-9.62368
▁srednje	-9.62425
▁omenjen	-9.62572
▁sprememb	-9.62636
▁mnogih	-9.62677
[	-9.62711
▁zmanjša	-9.62798
▁ustvaril	-9.62839
mann	-9.62885
▁uspeh	-9.62905
kraj	-9.62953
vni	-9.6298
and	-9.62999
▁severne	-9.63143
mir	-9.63243
▁tro	-9.63246
▁ustanovljena	-9.63291
ang	-9.6332
▁enak	-9.63345
▁brigada	-9.63435
▁zapustil	-9.63436
ret	-9.63437
▁um	-9.63452
▁razpad	-9.63462
▁ul	-9.63487
klo	-9.63494
▁manjše	-9.63495
▁mater	-9.63512
▁neposredno	-9.63575
▁glavna	-9.63579
▁list	-9.63599
▁snov	-9.6364
▁življenjsk	-9.6373
stro	-9.63755
▁jezero	-9.63761
▁pohod	-9.63766
▁njeni	-9.6381
▁računalnik	-9.63844
▁rast	-9.63912
▁mis	-9.64
kli	-9.64004
▁državah	-9.64023
▁sledil	-9.64026
daj	-9.64057
▁observatorij	-9.6408
▁ukvarja	-9.64235
▁slovenska	-9.64307
ú	-9.64419
▁galaksij	-9.64419
▁gro	-9.64433
▁kvadrat	-9.64474
▁takoj	-9.64518
▁namreč	-9.64589
▁vektor	-9.64612
▁družine	-9.64614
▁opazoval	-9.64759
dal	-9.64773
▁(20	-9.64775
nce	-9.65
▁sestavi	-9.6506
bol	-9.6509
▁fe	-9.65141
▁škof	-9.65144
▁trans	-9.65148
▁egipt	-9.65166
▁številni	-9.65217
▁vplival	-9.65239
▁stari	-9.65478
▁provinc	-9.65489
);	-9.65513
nar	-9.6557
▁današnje	-9.65574
▁pričel	-9.6573
▁povsem	-9.65786
▁govor	-9.65821
▁novih	-9.65858
▁italija	-9.65862
▁združene	-9.65958
trop	-9.66072
ty	-9.66089
ovič	-9.66179
▁časov	-9.66271
meter	-9.66327
▁pojavlja	-9.66355
▁most	-9.66393
vir	-9.66417
rad	-9.66456
▁spet	-9.6651
vit	-9.66534
▁potreb	-9.66545
▁status	-9.66554
▁rimski	-9.66598
▁kmetij	-9.66601
tes	-9.66615
▁smer	-9.66718
tična	-9.66755
▁samostan	-9.66774
▁vojaških	-9.66809
▁poročil	-9.66869
▁grški	-9.66872
▁električni	-9.66916
▁mes	-9.6695
▁stolp	-9.66954
▁slog	-9.66965
▁nazaj	-9.67009
▁trgov	-9.6703
nekoliko	-9.67031
▁mrež	-9.67053
▁seboj	-9.67053
▁ek	-9.67063
ide	-9.67071
▁hal	-9.67075
▁pridružil	-9.67106
▁grob	-9.6722
▁otoku	-9.67245
pel	-9.67292
tin	-9.67297
▁prestopno	-9.67346
din	-9.67368
▁pomoč	-9.67375
ras	-9.6771
▁nemške	-9.67715
▁šole	-9.67746
▁pridobil	-9.67813
▁real	-9.68088
pod	-9.68195
čnega	-9.68203
▁pojavil	-9.68247
▁ke	-9.68251
nemu	-9.6832
tične	-9.68341
▁vsa	-9.68349
▁angleški	-9.68399
▁23	-9.6841
▁stik	-9.68412
▁uporabe	-9.6843
▁politični	-9.68445
▁nemško	-9.68447
▁22	-9.68477
▁zunanje	-9.68541
▁milijona	-9.6855
▁razglasil	-9.68573
ada	-9.68606
▁21.	-9.68627
▁eks	-9.68673
▁latin	-9.68727
▁pes	-9.68748
hor	-9.68749
▁prenos	-9.6877
vrst	-9.68876
▁koncert	-9.6893
▁cen	-9.69004
▁rod	-9.69073
▁bud	-9.69104
▁bitki	-9.69111
vec	-9.69115
ček	-9.69124
▁celi	-9.69194
▁živ	-9.69221
▁britanski	-9.69289
▁/	-9.69466
▁(17	-9.69522
▁ch	-9.69537
pl	-9.69638
3.	-9.69655
▁zahodno	-9.69693
▁st	-9.69699
▁2005	-9.69715
chi	-9.69768
▁postane	-9.69853
▁mal	-9.69857
tem	-9.7005
▁narod	-9.70144
▁žival	-9.70173
▁šah	-9.70201
več	-9.70211
°	-9.70235
▁super	-9.7024
ljiv	-9.70246
▁sub	-9.70265
▁zlato	-9.70287
▁kraljestva	-9.7036
išča	-9.70374
▁gla	-9.70403
▁spol	-9.70442
zni	-9.70451
nc	-9.7052
▁bližini	-9.70549
pos	-9.70597
niški	-9.70705
▁rimskega	-9.70712
▁omejen	-9.70726
zira	-9.70729
▁elementov	-9.70735
▁operacij	-9.70908
▁divizij	-9.70912
▁dokument	-9.70929
tion	-9.70931
▁alp	-9.70993
▁skupino	-9.71022
▁či	-9.71027
▁januar	-9.71028
▁teorijo	-9.71139
▁križ	-9.71143
▁2007	-9.71146
▁vladal	-9.71188
rez	-9.71197
▁ion	-9.71252
▁narodov	-9.7126
čar	-9.71301
▁drugega	-9.7141
▁rek	-9.7141
▁zgled	-9.71455
▁pokrajin	-9.71515
uš	-9.71621
▁vpliva	-9.71647
▁njena	-9.71652
her	-9.71775
▁težav	-9.71912
="17	-9.71991
▁sončev	-9.72001
▁služil	-9.7214
▁italiji	-9.72177
nejše	-9.72195
arna	-9.72205
▁njihovi	-9.72222
ičnih	-9.72233
irajo	-9.72258
▁35	-9.72276
▁itd	-9.72391
ns	-9.72541
▁ženske	-9.72541
▁ken	-9.72565
▁arab	-9.72591
▁primerjav	-9.72634
▁prvega	-9.7265
▁bri	-9.72656
avi	-9.72711
og	-9.72734
▁odbor	-9.7289
▁glasbeni	-9.72902
▁žar	-9.72907
▁25.	-9.72919
▁državljansk	-9.72921
▁edini	-9.72936
▁ples	-9.73026
▁družina	-9.73034
▁babilon	-9.73098
▁slikar	-9.73098
▁niti	-9.73108
▁fin	-9.73117
▁temperature	-9.73126
9.	-9.73147
▁temveč	-9.73195
▁koren	-9.73196
▁vez	-9.73266
▁mlad	-9.73337
▁neu	-9.73378
▁nastane	-9.73448
▁teče	-9.73469
▁avstro	-9.73478
▁rep	-9.73498
▁stol	-9.73637
▁povezuje	-9.73667
▁predstavljajo	-9.73682
▁pisatelj	-9.7375
jenje	-9.73869
pen	-9.73886
▁dosegel	-9.74043
▁york	-9.74215
▁padavin	-9.74224
▁funkcije	-9.74371
▁200	-9.74378
zijo	-9.74391
▁zaliv	-9.74448
rož	-9.74497
▁sedem	-9.74551
▁ohranjen	-9.74589
▁politično	-9.74601
▁lastni	-9.74641
▁nanaša	-9.74644
▁iv	-9.74754
▁energijo	-9.74776
▁sveti	-9.74797
alo	-9.74815
▁uradni	-9.74852
ale	-9.74863
nda	-9.74891
▁sedaj	-9.7496
vet	-9.74968
▁1990	-9.74978
▁kat	-9.75019
▁devet	-9.75065
▁dobila	-9.75155
▁rdeče	-9.75156
▁zadnjih	-9.75227
▁pomagal	-9.75239
nejši	-9.75257
fr	-9.7529
▁kilometrov	-9.75342
▁izvoljen	-9.75344
ele	-9.75357
kan	-9.75383
▁knez	-9.75407
jevo	-9.75472
▁otoka	-9.75492
▁26	-9.75494
▁uporabil	-9.75496
▁charles	-9.75499
▁uporabljen	-9.75532
▁mednarodni	-9.75619
▁igre	-9.75639
▁slov	-9.75655
iš	-9.75692
▁izdelal	-9.7575
▁zgodovino	-9.75912
▁vrsto	-9.75923
=23	-9.75929
▁narodni	-9.75986
▁2006	-9.75996
wi	-9.76024
▁vsebin	-9.76236
▁mark	-9.76247
▁spomin	-9.76272
▁visoke	-9.76291
tet	-9.7631
200	-9.76323
▁zapor	-9.76437
▁ogljikov	-9.76503
stre	-9.76547
▁predlagal	-9.76596
slovan	-9.76748
▁milan	-9.76827
▁kanal	-9.76859
ital	-9.76867
zar	-9.76997
▁sme	-9.7702
▁imenujejo	-9.77134
▁količine	-9.77162
▁dvema	-9.77212
▁gal	-9.77285
gle	-9.77357
▁atomsk	-9.77363
▁nima	-9.77435
▁ves	-9.77441
klic	-9.77508
▁domov	-9.77509
▁bomb	-9.77546
▁izvaja	-9.77562
▁urban	-9.77594
▁vsaka	-9.77603
▁reform	-9.77672
▁umetnost	-9.77715
ovanja	-9.77722
rg	-9.77736
▁določene	-9.7793
▁državne	-9.77961
▁pritisk	-9.78041
▁rob	-9.78047
▁črt	-9.78206
▁eni	-9.78286
mon	-9.78321
▁eu	-9.78351
▁voz	-9.78388
▁večja	-9.78408
▁izrael	-9.78425
govor	-9.78469
▁zahteval	-9.78483
▁frank	-9.78486
▁%)	-9.78506
▁evropski	-9.78548
čka	-9.78595
▁asteroid	-9.78612
▁področja	-9.78612
istično	-9.78612
▁th	-9.78625
▁ple	-9.7871
▁povzroči	-9.78718
star	-9.78722
▁au	-9.78741
▁februar	-9.78768
▁aleksandr	-9.78771
▁spremenil	-9.78806
kih	-9.78881
cl	-9.78928
▁uspešno	-9.79004
▁koncentracij	-9.79022
▁trenutno	-9.79056
▁tre	-9.79109
▁organizacije	-9.79142
▁koledar	-9.79313
▁konstanta	-9.7932
▁2003	-9.79323
zen	-9.79336
kra	-9.79356
▁2010	-9.79463
▁postalo	-9.79478
rjev	-9.79488
▁najvišji	-9.79594
plo	-9.79603
▁naprav	-9.79607
nija	-9.79669
gre	-9.79692
▁stoji	-9.79762
в	-9.79792
▁kulture	-9.79851
of	-9.79957
▁kritik	-9.79982
▁organizacija	-9.79983
02	-9.8002
▁jezera	-9.80039
▁slovenskem	-9.80052
▁njene	-9.80108
škem	-9.8011
▁ap	-9.80138
krit	-9.8015
▁uran	-9.80166
rek	-9.80223
▁reki	-9.80228
▁moj	-9.80251
▁naslednjih	-9.80262
▁predstavljal	-9.80335
klop	-9.80395
▁mali	-9.80404
▁nastaja	-9.80422
▁cha	-9.80441
arni	-9.80449
▁zapisal	-9.80511
▁vključuje	-9.80512
▁naslednji	-9.80513
▁njun	-9.8053
▁četrt	-9.80603
▁ideal	-9.80618
▁flo	-9.80664
▁pozna	-9.80714
▁poklic	-9.80727
▁90	-9.80733
ble	-9.80748
«)	-9.80837
lan	-9.80956
vis	-9.80959
▁45	-9.80984
▁1941	-9.80992
rji	-9.81009
▁obisk	-9.81052
gal	-9.81132
▁mari	-9.81168
▁znanih	-9.81177
▁povezave	-9.8119
▁učen	-9.81209
▁natančno	-9.81212
stru	-9.81268
▁vodstvom	-9.81357
▁spremembe	-9.81378
▁afriki	-9.81387
▁1944	-9.81396
▁propad	-9.81423
san	-9.81475
▁civil	-9.81477
▁dunaj	-9.81499
▁temelj	-9.8154
▁področje	-9.81588
▁površine	-9.81653
▁vojakov	-9.81816
▁sestavljajo	-9.81856
sled	-9.81872
kin	-9.81913
▁april	-9.81979
▁imperij	-9.81984
▁učitelj	-9.81992
▁27	-9.81996
▁ostala	-9.82084
▁morju	-9.82151
tok	-9.82267
▁slika	-9.82324
dij	-9.82345
▁skupno	-9.8235
che	-9.82391
berg	-9.82411
▁oblikoval	-9.82496
▁grup	-9.82537
▁kali	-9.82559
▁vesoljsk	-9.82618
▁številko	-9.82682
▁sina	-9.82704
čo	-9.82714
▁noben	-9.82715
bru	-9.82795
▁upošteva	-9.82799
▁francija	-9.82906
▁sestavlja	-9.82927
novo	-9.82952
▁kla	-9.83095
▁ene	-9.83124
ksi	-9.83172
="4	-9.83211
▁barve	-9.83253
▁sodobne	-9.83299
▁trž	-9.83333
▁nasprotnik	-9.83354
▁spada	-9.83359
▁posebne	-9.83419
▁naslednik	-9.83424
▁ču	-9.83434
▁obred	-9.8344
taj	-9.83545
ig	-9.83626
▁čimer	-9.83679
▁življenjepis	-9.83694
▁slovenskega	-9.83703
▁zdrav	-9.83717
▁judov	-9.83735
▁ban	-9.83763
▁trdi	-9.83788
▁pravice	-9.83835
art	-9.83859
pov	-9.83968
jet	-9.83983
▁stavb	-9.84001
▁glavnem	-9.84045
▁vstop	-9.84097
▁poplav	-9.84281
ela	-9.84284
▁predsednika	-9.84293
▁raket	-9.84297
▁novega	-9.84308
ral	-9.84327
▁širok	-9.84361
▁nemčiji	-9.84449
▁instrument	-9.84449
▁štirih	-9.84453
7.	-9.84489
▁rom	-9.84505
▁študiral	-9.84656
istov	-9.84692
▁zaprt	-9.84709
vede	-9.84729
▁posameznik	-9.84754
dž	-9.84852
▁razdeljen	-9.84934
▁junij	-9.84943
▁celoti	-9.84998
▁duhov	-9.8502
tski	-9.85042
▁svetega	-9.8505
gla	-9.8507
▁predel	-9.85071
▁jam	-9.85099
▁šolo	-9.85279
▁njihova	-9.85294
▁otoki	-9.85305
▁informacij	-9.85397
▁george	-9.85408
ziji	-9.8546
▁postopek	-9.8549
▁komet	-9.85556
rsko	-9.85557
▁mat	-9.85645
▁es	-9.85655
lji	-9.8566
▁študent	-9.857
▁etničn	-9.85714
▁dvoj	-9.85727
rom	-9.85784
ts	-9.8592
▁notranje	-9.85932
▁zahtev	-9.85945
▁osnovni	-9.86085
▁dejavnosti	-9.86105
▁imenovali	-9.86147
▁hitrosti	-9.86168
▁...	-9.86201
tvijo	-9.86201
▁glavne	-9.86208
anski	-9.86238
▁32	-9.8625
rot	-9.86275
stop	-9.86278
▁kmet	-9.86303
▁rud	-9.8633
▁transport	-9.86337
▁naselja	-9.86341
jska	-9.86415
▁različica	-9.86463
▁300	-9.86497
cije	-9.86542
▁osnovi	-9.86563
ag	-9.86679
▁viri	-9.86698
▁opisuje	-9.86726
lat	-9.8675
▁opravil	-9.86789
▁srednjem	-9.86885
▁special	-9.86897
▁zatem	-9.8692
▁ameriške	-9.86969
▁avto	-9.87055
án	-9.87098
izacija	-9.87123
iki	-9.87128
▁razvoja	-9.87171
▁zunanji	-9.8718
▁naravno	-9.87181
▁album	-9.87183
▁nosil	-9.87262
ijski	-9.87286
▁štab	-9.87288
▁ključ	-9.87355
▁traja	-9.87367
▁mon	-9.87373
ram	-9.8738
▁mineral	-9.87394
qui	-9.87401
▁razume	-9.87406
oli	-9.87424
="5	-9.87464
▁2001	-9.87483
▁sar	-9.87536
▁inštitut	-9.87607
▁nor	-9.87609
▁izredno	-9.87611
▁uspelo	-9.87639
▁kadar	-9.87651
pad	-9.87722
▁ugotovil	-9.87738
eli	-9.87762
▁fizikaln	-9.87793
tz	-9.87795
▁jeziku	-9.8781
▁prihaja	-9.88004
▁gledal	-9.88032
3)	-9.88041
▁obrat	-9.8806
dža	-9.88072
▁asi	-9.88152
▁delih	-9.88196
▁stare	-9.88239
▁večjih	-9.88251
ya	-9.88269
▁troj	-9.88311
pp	-9.88371
▁vrhov	-9.88396
▁cu	-9.88419
▁on	-9.88419
▁bro	-9.88423
bir	-9.88432
▁nemčija	-9.88466
▁določil	-9.88496
čič	-9.88503
▁cer	-9.88507
▁sprejel	-9.88597
▁stvar	-9.88646
▁inženir	-9.88686
▁oddaljen	-9.88695
▁can	-9.88786
▁23.	-9.88797
▁razdalj	-9.88836
▁grof	-9.88842
▁znane	-9.88882
▁kraji	-9.8889
▁posebni	-9.889
▁figur	-9.88906
▁2002	-9.88917
▁2011	-9.88939
▁500	-9.88969
▁dalje	-9.88989
▁lin	-9.89032
▁pariz	-9.89094
čan	-9.89181
▁mestih	-9.89202
▁bol	-9.89269
-2	-9.89302
▁grobnic	-9.89312
ori	-9.89324
▁ohranja	-9.89333
▁župan	-9.89333
▁omenja	-9.89339
▁odpor	-9.89372
▁pojavi	-9.89412
61"	-9.89445
ništvo	-9.89493
ična	-9.89528
▁1943	-9.8956
naj	-9.89564
▁sonce	-9.8958
▁našim	-9.89593
▁razlikuje	-9.89713
idov	-9.89734
▁denar	-9.89736
▁kristal	-9.89737
▁33	-9.89744
▁čast	-9.8975
н	-9.89754
pal	-9.89807
▁glasov	-9.89809
▁pesnik	-9.89828
ston	-9.89831
▁gli	-9.89887
▁predstavnik	-9.89902
▁28	-9.89929
▁imenujemo	-9.89944
▁obiskal	-9.89984
ile	-9.90001
▁univerze	-9.90004
▁osem	-9.90017
ade	-9.90069
▁knjiga	-9.90075
▁poslal	-9.901
▁kažejo	-9.90136
▁vojaška	-9.90207
vesti	-9.90234
▁ogr	-9.90238
▁celotno	-9.90244
▁min	-9.90251
▁videl	-9.90264
▁gore	-9.90328
▁letala	-9.90364
▁južne	-9.90384
▁določi	-9.90402
▁preden	-9.90422
ä	-9.90427
▁ozemlju	-9.90427
▁sami	-9.90435
▁ukvarjal	-9.90446
▁izvir	-9.90456
=24	-9.90456
▁kraljeve	-9.9047
bija	-9.90483
▁kraljevi	-9.9051
▁30.	-9.90555
45"	-9.90557
▁mars	-9.90602
▁težko	-9.90649
▁zunaj	-9.90653
▁letalski	-9.90752
▁kamen	-9.90964
▁london	-9.90972
cha	-9.91
žan	-9.9104
▁najstarejši	-9.91089
▁kvantn	-9.91095
▁vene	-9.91126
▁račun	-9.91148
▁podobne	-9.91158
▁levi	-9.9132
▁vsebujejo	-9.91335
▁sredo	-9.91339
▁center	-9.91373
▁vključen	-9.91384
ljivo	-9.91444
▁ustvarja	-9.91488
▁njega	-9.9149
con	-9.91515
▁ir	-9.91559
▁vso	-9.91584
▁razmerje	-9.91597
bal	-9.91678
▁sad	-9.91742
▁domači	-9.91783
arno	-9.91789
▁tehnik	-9.91889
šnja	-9.92001
▁ac	-9.92035
▁28.	-9.92055
▁dia	-9.92083
▁zvezda	-9.92109
▁postavljen	-9.92113
novi	-9.92326
popoln	-9.92339
mej	-9.92394
▁form	-9.92413
л	-9.92427
▁mlajši	-9.92428
▁1000	-9.92444
polni	-9.92447
ama	-9.92475
▁italijanski	-9.92507
▁mestne	-9.9253
▁mr	-9.92533
▁maso	-9.92536
▁starejši	-9.92584
▁marec	-9.92591
▁plošč	-9.92611
ny	-9.92658
▁voditelj	-9.92678
▁franciji	-9.92718
▁trst	-9.92737
▁delal	-9.9278
▁cesarja	-9.92828
▁isti	-9.92854
▁arhitekt	-9.92864
▁raztopi	-9.92883
▁pres	-9.92884
jskega	-9.92888
▁družin	-9.92895
▁vezi	-9.92968
ros	-9.93026
▁mod	-9.93035
des	-9.93071
▁zvok	-9.93079
▁dar	-9.93093
41"	-9.93107
▁niz	-9.9311
▁uničen	-9.93142
▁načelo	-9.93181
adi	-9.93224
▁ladij	-9.9324
ces	-9.93258
ične	-9.93289
▁mont	-9.93317
▁pregled	-9.93331
▁zvezo	-9.93342
▁pušk	-9.9343
tak	-9.93435
lis	-9.93451
jal	-9.93456
▁rus	-9.93467
bud	-9.93474
jevanje	-9.93478
▁wi	-9.93506
▁analiz	-9.93515
štvo	-9.9352
▁prostoru	-9.93529
▁naravni	-9.93566
▁klub	-9.93592
arja	-9.93603
gel	-9.93665
.«	-9.93668
▁mikro	-9.93675
sar	-9.93688
▁cr	-9.9371
▁mohamed	-9.93783
▁cerkvi	-9.93783
▁štetjem	-9.93783
ljivost	-9.93862
▁običaj	-9.93866
▁ph	-9.93919
▁komun	-9.93999
ez	-9.94075
▁valov	-9.94077
bro	-9.94119
▁dobe	-9.94189
▁višji	-9.94247
▁šoli	-9.94273
▁dalj	-9.94299
▁vlak	-9.94302
_2	-9.94337
mc	-9.94489
▁vede	-9.94498
jeno	-9.9452
▁trije	-9.94525
▁kur	-9.94544
▁mase	-9.94581
▁pripoved	-9.94604
▁vzrok	-9.947
▁večini	-9.94746
▁majhne	-9.94768
▁umetnik	-9.94922
▁orožja	-9.94928
bon	-9.94929
▁osnovne	-9.9495
janje	-9.9498
▁iran	-9.95022
▁gri	-9.95132
▁teoriji	-9.95154
51"	-9.95157
▁satelit	-9.95158
▁avtomobil	-9.95161
▁francoske	-9.95208
išču	-9.95279
▁gru	-9.95305
▁stranke	-9.95337
▁opisal	-9.95362
mak	-9.9538
▁december	-9.95388
▁oktober	-9.95388
▁masa	-9.95397
▁ladja	-9.95401
som	-9.95405
▁črni	-9.95439
▁osman	-9.95442
▁zid	-9.95442
▁okviru	-9.95456
▁sodobni	-9.95458
11"	-9.95477
▁objekt	-9.95486
nike	-9.95494
▁plina	-9.95507
▁prvem	-9.95514
▁zahod	-9.95544
▁mono	-9.95567
▁spojine	-9.9562
▁1918	-9.95629
▁knjige	-9.95674
rc	-9.95709
rju	-9.95714
tik	-9.95741
▁zapisan	-9.9577
vija	-9.95788
31"	-9.95837
inski	-9.95871
šič	-9.95902
▁meša	-9.95933
▁preprost	-9.95979
▁skupnost	-9.96
▁izbran	-9.96014
▁bas	-9.96031
▁period	-9.96087
▁wa	-9.96089
▁človeka	-9.96162
▁čin	-9.96219
cc	-9.96238
niško	-9.96303
int	-9.96314
▁zvezi	-9.96338
▁27.	-9.96339
▁italijanske	-9.96422
▁povezan	-9.96456
▁ostale	-9.96526
▁zraka	-9.96556
▁elementi	-9.96568
▁gregor	-9.96607
▁oči	-9.96751
è	-9.96785
10"	-9.96786
▁toplotn	-9.96787
▁nesreč	-9.96793
▁delno	-9.96811
81"	-9.96823
▁učinkovit	-9.96826
▁duhovnik	-9.96887
▁skladu	-9.96941
letni	-9.97014
▁obrambo	-9.97023
▁pokriva	-9.97039
▁razvoju	-9.97044
▁listi	-9.97051
▁plemen	-9.97077
▁doba	-9.97121
▁prinesl	-9.97138
▁spojin	-9.97161
▁preb	-9.9719
ung	-9.97234
skrb	-9.97248
dina	-9.97251
▁31	-9.97262
ljive	-9.97294
▁barv	-9.97348
▁75	-9.97363
▁raziskave	-9.97369
pul	-9.97384
lf	-9.97458
▁velikost	-9.97486
▁1942	-9.97498
sin	-9.97506
▁praznik	-9.97554
▁fil	-9.97589
▁1998	-9.9774
čenje	-9.97799
▁akcij	-9.97841
▁gospodarske	-9.9785
▁poveljstvo	-9.97857
▁naredil	-9.97919
▁22.	-9.97951
nca	-9.97963
rok	-9.98012
▁blok	-9.98056
▁zdravnik	-9.98108
▁finančn	-9.98204
▁pilot	-9.98231
▁sprožil	-9.98281
eg	-9.98282
število	-9.98329
▁končno	-9.98397
▁kav	-9.98493
▁2008	-9.98516
95"	-9.98529
▁spoznal	-9.98565
sek	-9.98589
▁skal	-9.98608
▁beli	-9.98619
▁kv	-9.98625
pin	-9.98642
▁povzroča	-9.98643
▁uspel	-9.98662
▁vzor	-9.98672
35"	-9.98677
▁zemljo	-9.98679
tivni	-9.98779
▁stre	-9.98796
75"	-9.98951
dro	-9.98969
▁dolg	-9.99018
▁dežele	-9.99158
▁pogost	-9.99181
▁različnim	-9.99202
pon	-9.99253
▁dejansko	-9.99294
slika	-9.993
▁for	-9.99335
15"	-9.99345
▁odšel	-9.99357
▁evropo	-9.99427
▁razstav	-9.99453
-19	-9.99464
▁fre	-9.99507
▁izdelan	-9.99531
01"	-9.99544
▁der	-9.99633
smrt	-9.99642
91"	-9.99752
05"	-9.99756
ena	-9.99791
▁petek	-9.99841
jsko	-9.99844
▁izbruh	-9.99852
▁bodisi	-9.99882
▁ustreza	-9.99887
▁možnost	-9.9995
meri	-9.99952
▁liberal	-10.0005
▁četrti	-10.0008
▁37	-10.0011
▁nek	-10.0016
▁hitre	-10.0018
▁ptic	-10.002
▁kup	-10.002
▁dolini	-10.0021
▁vrat	-10.0022
▁opravlja	-10.0025
▁osi	-10.0028
▁enem	-10.0029
bin	-10.003
▁vietnam	-10.003
▁zaporedno	-10.003
▁neodvisnost	-10.0036
gh	-10.0041
▁bele	-10.0051
▁republiki	-10.0052
glo	-10.0057
▁priznanja	-10.0058
▁nastanek	-10.0058
čeva	-10.0061
▁današnji	-10.0061
▁funkcij	-10.0061
65"	-10.0063
pisan	-10.0063
▁prvotno	-10.0064
21"	-10.0067
▁državljan	-10.0076
▁kle	-10.0085
▁družba	-10.0085
▁dreves	-10.0086
▁debel	-10.0086
▁cezar	-10.0087
rs	-10.0088
▁našli	-10.0089
▁29	-10.009
16"	-10.0091
85"	-10.0098
▁sestavljena	-10.0103
▁povezana	-10.0103
▁38	-10.0105
▁festival	-10.011
▁smislu	-10.011
▁nedeljo	-10.011
▁november	-10.0111
▁ran	-10.0115
mož	-10.0124
▁premo	-10.0126
▁začetka	-10.0134
▁izkazal	-10.0134
18"	-10.0141
eri	-10.0143
▁življenju	-10.0144
▁david	-10.0144
▁cm	-10.0145
47"	-10.0146
▁kultura	-10.015
▁visoki	-10.0151
ologije	-10.0153
▁njo	-10.0153
▁prestol	-10.0155
▁zdravil	-10.0157
60"	-10.0159
nko	-10.0163
▁tabel	-10.0164
jevega	-10.0164
▁2009	-10.0168
ovim	-10.0173
▁prog	-10.0177
▁tisti	-10.0182
▁1994	-10.0185
▁narave	-10.0186
▁kranj	-10.0188
▁prostora	-10.0188
▁predlog	-10.0188
84"	-10.0189
▁knjigi	-10.0196
arji	-10.0197
▁rimsko	-10.02
niti	-10.0201
▁oboroženih	-10.0202
jena	-10.0207
▁24.	-10.0207
aciji	-10.0209
▁domneva	-10.021
▁prestopni	-10.021
▁drugače	-10.021
▁kulturne	-10.0211
▁karl	-10.0218
▁zmanjšal	-10.0224
▁utr	-10.0225
▁loči	-10.0228
for	-10.0228
▁vladar	-10.0229
▁površino	-10.0232
▁slabo	-10.0233
▁pripeljal	-10.0233
▁ara	-10.0241
ation	-10.0242
▁neke	-10.0252
▁vodja	-10.0254
▁september	-10.0258
▁2,	-10.0259
0"	-10.0262
▁31.	-10.0263
▁točke	-10.0266
▁kisik	-10.0269
▁enoto	-10.0269
nskem	-10.0281
dne	-10.0283
▁oblikovan	-10.0293
▁col	-10.0294
vka	-10.0298
53"	-10.0298
▁podporo	-10.0299
▁maribor	-10.0301
reš	-10.0306
sloven	-10.0307
▁zgradil	-10.0308
evanje	-10.0309
▁brigad	-10.0311
nove	-10.0311
▁svojimi	-10.0318
ovec	-10.0321
▁34	-10.0322
55"	-10.0323
▁26.	-10.0324
▁kazal	-10.0329
▁svetovna	-10.0333
šev	-10.0336
="6	-10.034
▁29.	-10.0342
▁postavi	-10.0343
="9	-10.0344
▁kolonij	-10.0348
▁delovanja	-10.0353
▁ure	-10.0355
▁az	-10.0357
▁trdnjav	-10.0358
▁potrebno	-10.0364
joče	-10.0365
▁joseph	-10.0369
▁meta	-10.037
▁izvajal	-10.0371
rske	-10.0373
25"	-10.0376
▁enačbe	-10.0376
▁italijo	-10.0383
▁medaljo	-10.0384
▁rešitev	-10.0384
▁koloni	-10.0389
80"	-10.0393
52"	-10.0394
▁člani	-10.0396
▁spremeni	-10.0402
71"	-10.0403
▁obiskoval	-10.0404
▁morali	-10.0405
dej	-10.0407
izacije	-10.0408
▁soboto	-10.0408
▁podal	-10.0411
44"	-10.0414
40"	-10.0414
▁edina	-10.0419
▁zgradb	-10.0422
▁drugem	-10.0424
90"	-10.0429
▁luni	-10.0433
lci	-10.0442
▁dolžine	-10.0445
▁tj	-10.0445
zan	-10.0447
ujoč	-10.0448
▁organizacij	-10.0455
▁kitajske	-10.0455
▁mednarodne	-10.0459
▁dejavnost	-10.046
▁fl	-10.0462
▁tor	-10.0462
▁nastal	-10.0468
▁dogaja	-10.0478
tru	-10.0478
▁komisij	-10.0484
biti	-10.0484
22"	-10.0485
▁tretje	-10.0489
77"	-10.049
▁lokalne	-10.0493
ers	-10.0495
87"	-10.0496
54"	-10.0497
▁živijo	-10.0499
▁pesem	-10.0501
▁različic	-10.0505
mal	-10.0506
▁aleksander	-10.0509
▁odvisna	-10.0509
sal	-10.0517
▁reda	-10.0525
▁premer	-10.0526
▁tovarn	-10.053
▁atom	-10.0531
▁osrednje	-10.0532
ljeni	-10.0533
▁ponedeljek	-10.0535
▁reakcij	-10.0537
▁1999	-10.0537
38"	-10.054
56"	-10.0541
zer	-10.0543
72"	-10.0544
▁krater	-10.0546
▁manjših	-10.0549
▁adam	-10.0551
▁sovjetski	-10.0552
▁srednjega	-10.0553
▁islam	-10.0557
▁razreda	-10.0558
▁kombinacij	-10.056
gent	-10.0561
▁ukaz	-10.0562
top	-10.0566
64"	-10.0568
▁poznamo	-10.0575
▁uveljavil	-10.0575
▁zrak	-10.0577
jeve	-10.0577
lica	-10.0578
nor	-10.0582
▁ah	-10.0584
▁tekmovanj	-10.0586
▁korpus	-10.0588
▁slovenijo	-10.0591
▁ostane	-10.0591
▁odkrili	-10.0594
▁strukture	-10.0602
morf	-10.0605
▁univerza	-10.0609
▁sloven	-10.0611
▁kongres	-10.0612
▁naravi	-10.0613
▁koz	-10.0622
rava	-10.0622
▁parizu	-10.0629
gg	-10.0643
▁množica	-10.0649
nec	-10.0654
20"	-10.0655
92"	-10.0657
▁razvila	-10.0661
▁jedro	-10.0661
48"	-10.0663
▁met	-10.0666
▁:	-10.067
▁grške	-10.0674
niku	-10.0674
▁zgodnje	-10.0682
79"	-10.0683
▁hitler	-10.0684
▁thomas	-10.0689
▁daleč	-10.069
▁notranji	-10.0692
maj	-10.0692
68"	-10.0702
▁prepozna	-10.0703
▁meril	-10.0711
hen	-10.0713
▁začetek	-10.0715
▁seveda	-10.0721
mil	-10.0721
▁foto	-10.0723
▁bl	-10.0727
▁dirk	-10.0728
29"	-10.0728
17"	-10.073
▁napisan	-10.0733
▁mirovn	-10.0736
ā	-10.0741
▁konstrukcij	-10.0741
▁polovici	-10.0741
▁mur	-10.0743
▁četrtek	-10.0745
▁nemci	-10.0746
▁zanj	-10.0747
▁skladb	-10.0748
▁podoben	-10.075
▁marin	-10.0754
19"	-10.0755
▁misli	-10.0757
fl	-10.0759
▁šteje	-10.0764
▁letalo	-10.0765
▁proton	-10.0767
▁zavzel	-10.0768
▁ras	-10.077
▁milijon	-10.0777
73"	-10.0779
com	-10.0783
▁številu	-10.0784
▁gospodarski	-10.0784
▁težave	-10.0785
▁ep	-10.0786
▁skupini	-10.0787
▁43	-10.0791
12"	-10.0794
▁hel	-10.0797
▁doživel	-10.0799
49"	-10.0808
▁ulic	-10.0812
▁književnost	-10.0813
▁zlata	-10.0814
▁najmanj	-10.0816
▁uničil	-10.0819
▁koordinat	-10.082
▁prod	-10.0833
▁400	-10.0834
▁piše	-10.0836
▁vele	-10.0837
▁65	-10.0843
▁sestav	-10.0852
23"	-10.0852
▁prevoz	-10.0853
42"	-10.0854
hr	-10.0854
▁ant	-10.0857
▁raziskav	-10.086
ling	-10.0865
▁relativno	-10.0867
62"	-10.0873
▁reko	-10.0874
▁zračno	-10.0875
▁povečal	-10.0876
▁ša	-10.0877
▁združil	-10.0878
▁kos	-10.0879
lek	-10.0886
▁divizije	-10.0886
▁izgub	-10.089
▁besedila	-10.0891
irati	-10.0891
▁dovoljen	-10.0891
▁opera	-10.0893
74"	-10.0896
▁36	-10.0897
▁znamenit	-10.0897
tivna	-10.0898
▁jean	-10.0898
▁delom	-10.0902
▁matematiki	-10.0904
istične	-10.0905
▁dol	-10.0905
▁vsej	-10.091
▁pir	-10.0912
▁primerih	-10.0912
▁ibn	-10.0913
▁načrtovan	-10.0919
▁torek	-10.092
32"	-10.092
▁urejen	-10.0922
▁matematike	-10.0922
▁tvorijo	-10.0923
▁smo	-10.0935
oče	-10.0937
▁nadalje	-10.0938
▁razlog	-10.0942
▁jugoslavije	-10.0952
24"	-10.0953
rik	-10.0958
nikom	-10.0962
line	-10.0965
▁umetni	-10.0971
▁klavir	-10.0974
poli	-10.0974
iranja	-10.0975
▁viljem	-10.098
vanjem	-10.0982
glej	-10.0986
▁srednj	-10.0987
teh	-10.0989
▁območjih	-10.0993
zahod	-10.0999
▁tipa	-10.1
96"	-10.1002
▁delcev	-10.1002
83"	-10.1002
▁morajo	-10.1003
14"	-10.1004
iste	-10.1004
";	-10.1004
▁nastop	-10.1009
▁milijard	-10.1012
▁radio	-10.1014
▁možnosti	-10.1019
▁magnet	-10.1026
▁moški	-10.1028
▁sama	-10.103
▁noč	-10.103
▁italije	-10.1032
▁preteklosti	-10.1033
▁podatkih	-10.1038
▁potrdil	-10.1039
▁potrebe	-10.1043
▁konstant	-10.1047
▁legi	-10.1056
▁proizvodnjo	-10.106
▁epi	-10.1065
▁dinastije	-10.1068
▁il	-10.1072
36"	-10.1073
▁aziji	-10.1077
▁regije	-10.1079
▁potovanj	-10.1082
angleško	-10.1083
▁nastopa	-10.1084
▁sploh	-10.1087
500	-10.1095
bul	-10.1097
02"	-10.1101
ciji	-10.1104
▁lok	-10.1108
α	-10.111
▁linij	-10.1114
▁naravo	-10.1116
▁poimenovan	-10.1117
▁gospodarsko	-10.1119
▁črno	-10.1121
▁premika	-10.1124
70"	-10.1129
kel	-10.1129
46"	-10.1133
▁prepričan	-10.1133
burg	-10.1135
erjev	-10.1137
▁osrednji	-10.1139
с	-10.114
▁sredozemsk	-10.114
50"	-10.1142
▁politiko	-10.1146
98"	-10.1147
▁postaja	-10.1155
▁nekdanji	-10.1157
▁isto	-10.1161
razločitev	-10.1167
▁mednarodno	-10.1167
▁1992	-10.1167
▁1960	-10.1169
▁osnova	-10.1176
skemu	-10.1177
▁stranka	-10.118
▁jasno	-10.118
66"	-10.119
▁zavrnil	-10.1195
▁zračna	-10.1195
57"	-10.1198
▁izjemno	-10.12
▁potekal	-10.12
▁drug	-10.1207
cijski	-10.1208
▁imelo	-10.1212
26"	-10.1222
▁eli	-10.1226
▁tečaj	-10.1227
▁zbir	-10.1233
▁ostalih	-10.1238
▁ljubljansk	-10.1238
▁priznan	-10.1239
▁lip	-10.1239
▁regiji	-10.124
vest	-10.1242
rstvo	-10.1243
88"	-10.1246
▁dolžina	-10.1248
▁najde	-10.1249
▁richard	-10.1249
rich	-10.1252
nka	-10.1252
▁reg	-10.1256
▁ekip	-10.1256
89"	-10.1257
nič	-10.1262
▁dežela	-10.1264
▁javno	-10.1266
▁zamenjal	-10.1268
▁jordan	-10.1269
▁ruske	-10.1275
▁umaknil	-10.1277
▁zgodovine	-10.1277
cy	-10.1279
43"	-10.1281
▁tehničn	-10.1282
▁mnoge	-10.1282
▁novem	-10.1286
▁pomaga	-10.1296
▁zajema	-10.1298
▁izotop	-10.1299
ravna	-10.1302
▁večjo	-10.1319
ban	-10.132
ljiva	-10.1322
13"	-10.1328
▁gib	-10.1329
lij	-10.1329
▁imen	-10.133
▁naravnih	-10.1331
σ	-10.1332
▁splošni	-10.1332
fin	-10.1333
▁nagrade	-10.1336
atom	-10.134
▁stopnje	-10.1341
▁dvakrat	-10.1342
▁louis	-10.1343
▁martin	-10.1348
▁manjša	-10.1348
▁42	-10.1352
cher	-10.1355
▁povezani	-10.1355
▁frekvenc	-10.136
▁kakšn	-10.1362
▁2012	-10.1365
▁arabski	-10.1366
▁dogovor	-10.1367
ović	-10.1374
ona	-10.1374
▁(3	-10.1383
▁tar	-10.1385
▁kratko	-10.1389
olo	-10.139
▁bakr	-10.1391
haj	-10.1393
enci	-10.1395
97"	-10.1395
▁umik	-10.1398
▁verig	-10.1399
▁knjig	-10.14
58"	-10.14
▁47	-10.14
▁oseba	-10.1408
hard	-10.1409
lah	-10.1411
las	-10.1413
▁spodnji	-10.1415
▁potres	-10.1423
ens	-10.1434
▁dobri	-10.1437
▁silo	-10.1437
▁opravljal	-10.1442
▁izvoz	-10.1442
▁pripravljen	-10.1443
▁odstrani	-10.145
dil	-10.1452
▁zračne	-10.1455
ls	-10.1457
▁mot	-10.1458
▁pridobi	-10.1461
▁tekočin	-10.1461
▁jeziki	-10.1462
▁kolo	-10.1464
▁port	-10.1466
▁pravico	-10.1467
▁taborišč	-10.147
▁rimljani	-10.1471
▁največjih	-10.1472
▁postali	-10.1475
nis	-10.1476
▁ščit	-10.1479
▁vlad	-10.1481
04"	-10.1487
čnost	-10.1491
▁pen	-10.1491
▁veku	-10.1497
▁zemlja	-10.1499
▁kg	-10.15
▁ugled	-10.15
▁vrsti	-10.1503
▁rojen	-10.1505
▁bat	-10.1506
▁glasba	-10.1508
▁ug	-10.1508
69"	-10.1514
▁plasti	-10.1514
tol	-10.1521
▁izračuna	-10.1522
▁bran	-10.1524
▁zahodne	-10.1527
▁okolje	-10.1528
▁prišla	-10.1529
▁protestant	-10.153
▁gradnjo	-10.1531
07"	-10.154
▁električne	-10.154
93"	-10.1543
▁sal	-10.1545
▁posvečen	-10.1556
▁premagal	-10.1557
▁vojski	-10.156
lina	-10.1563
▁službo	-10.1564
zne	-10.1566
▁gospod	-10.1566
▁vzhodne	-10.1571
09"	-10.1573
lus	-10.1574
▁razdeljena	-10.1575
bla	-10.1576
▁bojev	-10.1579
▁višje	-10.1579
jak	-10.1581
▁regija	-10.1583
eks	-10.1585
▁1920	-10.1587
idi	-10.1589
▁god	-10.1591
▁mesecev	-10.1592
itvijo	-10.1597
▁ustanovili	-10.1597
tih	-10.1601
▁posameznih	-10.1602
zel	-10.1606
▁armad	-10.1607
▁plod	-10.1612
▁prišli	-10.1614
▁napis	-10.1614
▁počasi	-10.1615
tura	-10.1616
▁korak	-10.1616
▁služi	-10.1618
▁dolina	-10.1622
р	-10.164
▁redko	-10.1643
▁kel	-10.1643
▁takšne	-10.1643
▁vrhu	-10.1653
čr	-10.166
="8	-10.1662
▁grb	-10.1666
port	-10.1669
▁faraon	-10.167
▁zemljepisn	-10.1671
▁1997	-10.1671
pat	-10.1672
▁sovjetska	-10.1673
▁neznan	-10.1673
irali	-10.1674
▁religij	-10.168
▁rez	-10.168
▁pomena	-10.1683
kre	-10.1685
▁hčer	-10.1692
▁postopoma	-10.1698
▁objavljen	-10.1698
▁odvisno	-10.1698
▁piramid	-10.1698
▁krivulj	-10.1699
čje	-10.1705
▁pristop	-10.1705
▁celinsk	-10.1723
▁metal	-10.1724
▁44	-10.1726
▁tradicionalni	-10.1727
▁hrvaške	-10.1727
▁evr	-10.1728
nejša	-10.1728
rac	-10.1729
▁rodov	-10.1732
žev	-10.1732
▁oznaka	-10.1734
▁podelil	-10.1735
▁skup	-10.1739
ičen	-10.1742
▁mel	-10.1749
▁19	-10.1754
▁napoleon	-10.1756
▁zgornji	-10.1756
istični	-10.1759
▁39	-10.176
pravi	-10.1761
▁gostota	-10.1767
▁virov	-10.1773
▁gleda	-10.1782
žno	-10.1783
▁sčasoma	-10.1785
▁zgradili	-10.1785
▁izdaja	-10.1793
▁prenaša	-10.1793
▁različni	-10.1799
čnik	-10.1805
▁vlado	-10.1811
▁njegovim	-10.1812
▁znanstvene	-10.1814
ν	-10.1814
▁1995	-10.1815
▁upravlja	-10.1816
▁načelnik	-10.1824
jš	-10.1824
▁55	-10.1824
▁poraz	-10.1825
▁stalno	-10.1826
▁evropskih	-10.1826
vol	-10.183
sku	-10.1834
▁demo	-10.1837
odice	-10.1838
("	-10.1839
ljivi	-10.184
▁fr	-10.1841
▁jedrski	-10.1842
▁nasprotju	-10.1843
▁oblik	-10.1844
▁diplomiral	-10.1844
tus	-10.1845
▁vojak	-10.1846
▁male	-10.1847
▁ohrani	-10.185
▁mini	-10.1852
06"	-10.1853
▁odpravil	-10.1858
▁miru	-10.186
▁papir	-10.1861
▁zapleten	-10.1864
▁kamni	-10.1876
▁ustvarjal	-10.1877
duš	-10.1878
▁(2	-10.1879
="7	-10.1879
▁poznan	-10.1883
▁vreme	-10.1884
▁nadomestil	-10.189
▁podjetje	-10.1901
▁opisan	-10.1902
▁osnovnih	-10.1907
▁dolžino	-10.1908
▁andrej	-10.1908
08"	-10.1911
ct	-10.1914
▁motiv	-10.1916
▁cl	-10.1919
rus	-10.192
▁pan	-10.1923
▁končni	-10.1925
▁korist	-10.1926
▁kamnin	-10.1929
▁monarh	-10.193
▁vladavine	-10.1931
▁vsega	-10.1938
izacijo	-10.1952
▁odsek	-10.1959
▁gost	-10.196
▁ljudske	-10.196
▁hidro	-10.1961
▁kapital	-10.1965
▁bank	-10.1967
▁priredi	-10.1968
▁zadnjem	-10.1972
▁zamenja	-10.1972
eči	-10.1973
ller	-10.1974
▁interes	-10.1975
leg	-10.1978
▁got	-10.1983
т	-10.1989
π	-10.1989
▁kril	-10.1996
▁tiska	-10.1999
▁morski	-10.2
▁boril	-10.2001
ius	-10.2001
▁dejanj	-10.2002
▁vplivom	-10.2007
gram	-10.2009
▁karel	-10.2012
▁carl	-10.2017
▁wal	-10.2017
▁doma	-10.2018
▁regionaln	-10.2019
▁dokončno	-10.2019
▁nadmorsk	-10.2021
▁kitajski	-10.2021
▁želi	-10.2022
sr	-10.2023
centr	-10.2028
▁obale	-10.2032
▁ureja	-10.2033
▁lep	-10.2042
▁dokazal	-10.2044
mba	-10.2047
eder	-10.2048
▁zgodovinsko	-10.2049
▁1993	-10.205
▁1940	-10.205
▁potez	-10.2051
žal	-10.2053
▁geo	-10.2053
▁sekund	-10.2056
▁46	-10.2056
▁belo	-10.2063
▁točk	-10.2065
▁železnišk	-10.2067
▁oklep	-10.2073
▁semen	-10.2074
▁eksploziv	-10.2078
▁desetletja	-10.2078
▁sporočil	-10.2079
▁2013	-10.2083
▁polju	-10.2083
▁možno	-10.2085
▁rusija	-10.2085
jna	-10.2085
▁določena	-10.2089
lice	-10.2092
▁računal	-10.2097
▁legend	-10.2097
▁ger	-10.2103
▁usmerjen	-10.2108
▁arm	-10.2109
▁razlike	-10.2109
▁stara	-10.211
▁kulturno	-10.2111
snov	-10.2112
▁filip	-10.2113
▁šo	-10.2125
mur	-10.2131
▁evropsk	-10.2132
▁prednost	-10.2138
▁sodelovanje	-10.2138
▁srebrn	-10.2138
▁sultan	-10.2139
▁višj	-10.214
tnik	-10.2145
▁vidik	-10.2146
▁albert	-10.2149
▁art	-10.2159
▁označen	-10.2168
▁posvetil	-10.2169
▁izraža	-10.2169
▁radi	-10.2171
▁glasbene	-10.2174
▁jug	-10.2181
▁daje	-10.2183
▁služb	-10.2189
▁henry	-10.2198
▁železa	-10.22
▁delitev	-10.2208
▁stanja	-10.2211
▁pogoje	-10.2213
▁oži	-10.2214
▁pristanišč	-10.2216
vladal	-10.2221
▁lenin	-10.2225
ncev	-10.2227
▁mladost	-10.2228
▁kakovost	-10.2229
▁1989	-10.223
▁doline	-10.2235
tte	-10.2235
▁južnem	-10.2236
▁dosegla	-10.2237
▁neza	-10.2237
bili	-10.224
2,	-10.224
ys	-10.2245
▁tiste	-10.2245
piše	-10.2249
▁rabi	-10.2251
▁različna	-10.2259
▁stratešk	-10.2259
▁nekdanje	-10.226
▁žive	-10.2263
▁post	-10.2266
▁prosto	-10.2266
▁določeno	-10.2269
▁georg	-10.227
▁režim	-10.2275
ár	-10.2275
▁elektromagnet	-10.2278
ovski	-10.2282
▁podatki	-10.2283
▁političnih	-10.2283
▁leon	-10.2284
▁orkester	-10.2289
▁zgodovinske	-10.2289
▁prisotnost	-10.2289
▁koncept	-10.2289
▁nobelov	-10.2289
▁han	-10.229
▁praštevil	-10.2291
stran	-10.2293
▁rock	-10.2294
▁toka	-10.2298
stein	-10.2299
▁spadajo	-10.2299
▁stvari	-10.2304
▁mc	-10.2304
▁ostalo	-10.2305
▁dvajset	-10.2305
zvezd	-10.231
▁sodišče	-10.2311
▁pojem	-10.2312
▁daljnogled	-10.232
▁prikazuje	-10.2321
jenja	-10.2322
▁napetost	-10.2323
▁gran	-10.2324
▁tehnologij	-10.2326
▁skupni	-10.2326
▁osebno	-10.2332
latinsko	-10.2335
▁kratica	-10.2335
▁mala	-10.2339
▁naslovom	-10.2341
▁41	-10.2342
▁članov	-10.2343
▁podjetja	-10.235
▁dušik	-10.2351
▁zrcal	-10.2352
▁1939	-10.2352
▁zakona	-10.2353
▁mejo	-10.2357
▁zevs	-10.236
▁alban	-10.2361
▁končala	-10.2363
ologijo	-10.2366
▁zgodovinar	-10.2369
zda	-10.2369
▁dolgi	-10.2369
▁sled	-10.2371
▁stanju	-10.2377
▁avstral	-10.2378
ê	-10.2381
▁vzdolž	-10.2381
▁razlika	-10.2382
▁giblje	-10.2383
▁nekoč	-10.2387
▁zadnja	-10.2388
ljenje	-10.2388
▁minut	-10.2389
▁idej	-10.239
bach	-10.2391
▁namene	-10.2392
▁očeta	-10.2397
lé	-10.2403
ther	-10.2404
▁najpomembnejši	-10.2406
▁zgrajena	-10.2408
▁desetletje	-10.2412
▁signal	-10.2412
▁dolga	-10.2413
jevanja	-10.2418
iški	-10.2435
▁im	-10.2437
▁koli	-10.2439
▁sladkor	-10.2442
▁industrija	-10.2443
▁zagreb	-10.2444
▁skrb	-10.2447
▁odprl	-10.2449
▁znaša	-10.2454
▁norm	-10.2455
▁250	-10.2465
▁imenovani	-10.2466
▁organiziran	-10.2469
ništva	-10.247
▁potrebuje	-10.2476
▁island	-10.2478
▁razvili	-10.2479
▁naloge	-10.2479
▁tistem	-10.248
▁poleti	-10.2481
▁dele	-10.2481
▁zgodb	-10.2482
▁besedilo	-10.2484
▁glasbenik	-10.2484
▁močne	-10.2485
▁spremlja	-10.2493
irana	-10.2497
▁voljo	-10.2502
▁alkohol	-10.2505
▁višine	-10.2505
▁dioksid	-10.2507
▁jur	-10.2508
▁zakoni	-10.2509
kova	-10.2509
▁voliln	-10.2512
▁stop	-10.2513
▁križa	-10.2515
▁nevtr	-10.2516
▁besedil	-10.2521
▁desni	-10.2522
▁navaja	-10.2523
▁pravic	-10.2528
▁polmer	-10.2531
▁predstavil	-10.2534
▁52	-10.2534
▁dvanajst	-10.2536
▁mnenju	-10.2536
],	-10.2547
▁pisateljev	-10.2551
▁64	-10.2557
▁imp	-10.2558
▁(16	-10.2559
▁članica	-10.2563
▁german	-10.2572
▁površina	-10.2577
▁regij	-10.2577
▁lepo	-10.2578
onom	-10.258
▁trak	-10.2584
mr	-10.2593
▁vojaki	-10.2599
istična	-10.2599
▁rimu	-10.26
▁1970	-10.26
▁rastline	-10.26
▁križarsk	-10.2606
▁hrib	-10.2608
dy	-10.2621
▁sektor	-10.2622
▁kub	-10.2624
got	-10.2628
▁lokalni	-10.2628
▁ukrep	-10.263
▁1980	-10.2631
izmom	-10.2633
▁stopnja	-10.2636
▁kislina	-10.2641
▁helen	-10.2645
▁48	-10.2648
▁enačb	-10.2648
▁kisline	-10.2658
▁posamezne	-10.2659
car	-10.266
▁mitologiji	-10.2661
▁počasnejšem	-10.2661
▁matrik	-10.2663
▁lastne	-10.2664
▁značilnost	-10.2677
▁dobili	-10.2678
▁gene	-10.2679
cho	-10.2687
stal	-10.2695
▁metoda	-10.2697
▁izbral	-10.2701
▁povzročil	-10.2701
▁uporabnik	-10.2716
mobil	-10.2718
▁podpisal	-10.272
▁celice	-10.2723
▁nemčije	-10.2725
▁ameriki	-10.2725
▁uvedel	-10.2725
▁posnet	-10.2726
▁opazovanj	-10.2726
ds	-10.2729
▁francije	-10.2736
4)	-10.2736
▁dvig	-10.2737
▁narašča	-10.2737
▁številom	-10.2741
zelen	-10.2742
▁prispeval	-10.2743
▁konča	-10.2746
stavljen	-10.2748
▁sur	-10.2755
▁temperaturo	-10.2756
́	-10.2757
▁plast	-10.2759
▁hrane	-10.2759
▁verjel	-10.2762
form	-10.2764
▁obseg	-10.2767
▁fizike	-10.2774
▁geograf	-10.2775
čki	-10.2777
▁fran	-10.278
▁tan	-10.2781
col	-10.2781
▁mili	-10.2788
▁sliko	-10.2789
dc	-10.2789
▁generacij	-10.2789
▁starosti	-10.279
▁grki	-10.279
▁nepre	-10.2792
▁obaln	-10.2796
*	-10.28
last	-10.2801
▁egiptu	-10.2801
▁splošne	-10.2812
▁johann	-10.2814
ranje	-10.283
▁zadnje	-10.283
▁cas	-10.2833
ves	-10.2833
▁blago	-10.2839
▁rusko	-10.2842
▁tla	-10.2846
▁narodne	-10.2846
▁poseben	-10.2853
▁imperija	-10.2854
▁španski	-10.2854
▁funkcijo	-10.2855
▁proizvodnja	-10.2859
win	-10.2862
▁wil	-10.2864
▁pogon	-10.2865
▁črne	-10.2867
▁berlin	-10.2874
▁sprememba	-10.2874
▁parti	-10.2877
čevanje	-10.2884
▁arheološk	-10.2885
▁dejavnik	-10.2885
▁polkov	-10.2888
▁2014	-10.289
▁valovn	-10.2891
well	-10.2895
reza	-10.2903
mag	-10.2905
▁zlati	-10.2906
ré	-10.2909
lak	-10.291
▁razmere	-10.2911
cin	-10.2913
bes	-10.2915
▁površini	-10.2916
▁kopenske	-10.2916
▁friedrich	-10.2917
▁tradicionalno	-10.2917
▁ravna	-10.2919
▁rusiji	-10.2922
▁glo	-10.2923
▁razlag	-10.293
▁knjigo	-10.2931
▁ded	-10.2931
▁proizvod	-10.2933
sse	-10.2934
ima	-10.2937
približ	-10.294
▁zaseda	-10.294
▁časopis	-10.295
▁višini	-10.295
▁razdelil	-10.2952
▁astronomi	-10.2953
▁jeseni	-10.2953
▁nog	-10.2953
▁struktur	-10.2957
rumen	-10.2958
▁nastali	-10.2961
▁naravne	-10.2961
▁premik	-10.2962
▁slap	-10.2971
pir	-10.2974
▁spi	-10.2981
ring	-10.2981
▁"(	-10.2982
▁angleške	-10.2983
▁nevarnost	-10.2984
▁toliko	-10.2984
▁1996	-10.2984
▁1950	-10.2985
▁narejen	-10.2985
ogen	-10.2988
▁točno	-10.2995
▁visokih	-10.3002
▁sveto	-10.3006
lnik	-10.3007
bs	-10.3008
zov	-10.301
▁plat	-10.3014
▁priča	-10.3015
▁švica	-10.3017
▁politika	-10.3018
▁ig	-10.3019
▁geografija	-10.3021
▁dobre	-10.3024
▁proizvajal	-10.3025
alnega	-10.3025
▁jezus	-10.3027
reče	-10.3028
▁sol	-10.303
sion	-10.3032
▁fiziki	-10.3032
erja	-10.3032
▁kras	-10.3032
uri	-10.3037
▁ženska	-10.3039
▁kriv	-10.304
100	-10.3043
▁lik	-10.3044
▁avtocest	-10.3048
280	-10.3048
▁populacij	-10.3049
▁določen	-10.3052
▁air	-10.3054
▁veljal	-10.3061
▁značiln	-10.3065
▁prince	-10.3065
▁trdil	-10.3067
▁klasični	-10.307
▁rodu	-10.3072
▁zmago	-10.3079
▁akademiji	-10.3081
▁azije	-10.3087
▁osrednj	-10.3087
▁razlikujejo	-10.3089
ult	-10.3098
nger	-10.3098
▁zgodnjih	-10.31
▁barva	-10.3104
▁ang	-10.3104
šal	-10.3107
▁pasu	-10.3107
dži	-10.3107
arjev	-10.3108
led	-10.311
▁pridobiva	-10.3113
▁opazil	-10.3114
▁nemčijo	-10.3114
▁podatke	-10.3114
▁peru	-10.3115
▁pripadniki	-10.3119
anu	-10.3126
▁britanske	-10.3126
roz	-10.3127
▁zaposlen	-10.3128
▁središča	-10.3133
▁značilno	-10.3136
bran	-10.3141
▁niha	-10.3142
▁laboratorij	-10.3147
▁društva	-10.3147
▁neskončno	-10.3147
▁dioniz	-10.3147
niške	-10.3148
▁našel	-10.3151
▁aj	-10.3153
▁turizem	-10.3155
▁baza	-10.3156
▁medij	-10.3157
kur	-10.3158
ugh	-10.3159
▁severna	-10.3165
▁uvršča	-10.3169
▁kult	-10.3171
▁tru	-10.3172
fizi	-10.3175
▁izven	-10.3177
▁nosi	-10.318
▁eksperiment	-10.318
▁ljudstva	-10.318
▁strokovnjak	-10.318
▁srebra	-10.318
▁rdeči	-10.3181
▁vesolja	-10.3181
rast	-10.3184
▁him	-10.3188
nus	-10.3189
▁odkritje	-10.3189
▁norman	-10.3189
ografija	-10.3194
▁enkrat	-10.3194
mišl	-10.32
ence	-10.3207
▁grofij	-10.3207
▁namenom	-10.3212
▁kristus	-10.3214
▁1948	-10.3215
▁vstopil	-10.3217
▁angleško	-10.3218
▁visok	-10.322
danes	-10.3221
eva	-10.3224
ón	-10.3224
▁mrk	-10.3226
▁pojavljajo	-10.323
dis	-10.3231
▁marc	-10.3241
▁potok	-10.3242
▁poljske	-10.3243
▁dunaju	-10.3243
▁abeced	-10.3245
▁akademije	-10.3247
▁medsebojn	-10.3247
▁bolezen	-10.3247
▁društvo	-10.3247
▁kitajsko	-10.3247
▁vzpon	-10.3248
▁ceste	-10.3248
▁trikotnik	-10.325
▁bronast	-10.325
▁lokacij	-10.325
▁nemških	-10.3254
avlja	-10.3254
▁metod	-10.3259
▁partizan	-10.3261
▁lune	-10.3267
▁londonu	-10.3267
love	-10.3273
▁podpira	-10.3276
▁kaz	-10.3276
▁plinov	-10.3276
▁postaj	-10.3278
▁ubil	-10.3279
▁posledično	-10.3281
▁izdelavo	-10.3281
▁ameriških	-10.3283
▁jožef	-10.3285
▁otokov	-10.3288
,6	-10.3289
▁mestni	-10.3293
▁ex	-10.3293
▁vprašanje	-10.3298
▁oblak	-10.33
rak	-10.3301
▁sprejem	-10.3301
▁starega	-10.3307
▁imenovane	-10.3309
▁verjetnost	-10.331
▁nekatera	-10.3314
▁osnovno	-10.3314
▁osnovna	-10.3314
▁indija	-10.3316
▁priznal	-10.332
▁zračni	-10.332
▁nosilcev	-10.3321
kategorija	-10.3324
fra	-10.3326
▁led	-10.3334
▁not	-10.3336
▁peč	-10.3339
mati	-10.3344
ijskih	-10.3345
▁dediščine	-10.3348
▁severnem	-10.3348
▁tukaj	-10.3348
▁1946	-10.3349
šu	-10.335
▁krono	-10.3351
▁jezer	-10.3354
▁podzemn	-10.3354
▁akt	-10.3359
▁dis	-10.3361
▁proizvaja	-10.3372
▁sodišč	-10.3377
▁zase	-10.3377
▁egipta	-10.338
▁konj	-10.3381
▁kip	-10.3382
▁libanon	-10.3382
▁christ	-10.3387
▁cev	-10.3388
▁imenovano	-10.3389
tivno	-10.339
▁49	-10.3396
mel	-10.3402
▁časti	-10.3414
▁izvedl	-10.3415
▁podobna	-10.3417
▁1919	-10.3418
igra	-10.3429
▁jurij	-10.3431
by	-10.3437
▁grško	-10.3442
tha	-10.3443
▁revolucionar	-10.345
▁povprečna	-10.345
▁ostanki	-10.345
▁industrijsk	-10.3455
▁(»	-10.3455
▁pretežn	-10.3459
▁železo	-10.3466
▁pada	-10.3469
cor	-10.347
▁vhod	-10.3472
fil	-10.3472
▁klasične	-10.3476
▁trup	-10.348
hal	-10.3481
▁razlaga	-10.3482
boj	-10.3482
ρ	-10.3484
▁irak	-10.3484
▁zvon	-10.3487
▁vodni	-10.3489
▁gen	-10.3489
▁boju	-10.3491
▁založ	-10.3491
▁nebesn	-10.3492
▁datum	-10.3494
bus	-10.3496
▁operacije	-10.3497
▁ram	-10.35
▁kulturo	-10.3501
▁okolici	-10.3504
▁tradicij	-10.3511
▁pritok	-10.3516
▁afrike	-10.3519
▁vključeval	-10.3519
▁avstrijski	-10.3519
▁republiko	-10.3522
▁zadeve	-10.3526
krožn	-10.3529
▁naveden	-10.3529
▁kovine	-10.3531
▁obroč	-10.3533
irani	-10.3534
▁čim	-10.3535
manj	-10.3537
▁zgodnji	-10.3538
▁jedra	-10.3544
▁bazi	-10.3544
▁vsaki	-10.3548
▁državno	-10.3548
▁volitvah	-10.3553
]],	-10.3555
▁menil	-10.3556
▁1930	-10.3556
▁zlitin	-10.3556
▁hans	-10.3556
▁cesarstvu	-10.3558
▁last	-10.356
▁veka	-10.3563
▁dolge	-10.3564
▁zvezni	-10.3569
čani	-10.357
▁ljub	-10.3577
ford	-10.3577
rva	-10.3578
▁56	-10.358
▁časom	-10.3584
▁dež	-10.3585
▁matematični	-10.3588
▁odlikovan	-10.3591
▁un	-10.3601
hot	-10.3602
▁njenega	-10.3606
▁62	-10.3607
▁imenu	-10.361
irala	-10.3612
vat	-10.3622
▁helikopter	-10.3622
▁ljubezen	-10.3622
▁človeški	-10.3622
▁nasledil	-10.3623
▁žensk	-10.3626
arhi	-10.3632
_3	-10.3633
▁strun	-10.3636
▁skrbi	-10.3637
▁temperaturi	-10.3639
▁rog	-10.3646
▁opravi	-10.3647
▁vulkan	-10.3649
▁poimenovanja	-10.3653
▁zamisli	-10.3655
▁posest	-10.3657
▁praktično	-10.3657
▁vladimir	-10.3658
▁pozornost	-10.3658
▁kraju	-10.3659
ljene	-10.3661
▁bistveno	-10.3662
ach	-10.3666
pisati	-10.3666
▁operacija	-10.3668
▁hrani	-10.3675
▁savi	-10.3679
irano	-10.3686
▁pripadnik	-10.3689
▁avstrijske	-10.3692
▁150	-10.3693
▁delujejo	-10.3694
▁praviloma	-10.3696
▁znanost	-10.3701
▁izvoli	-10.3703
▁vključujejo	-10.3705
▁osebnosti	-10.3712
strup	-10.3712
▁merjenje	-10.3717
▁vsemi	-10.3722
▁zanimiv	-10.3722
reja	-10.3722
▁kapi	-10.3724
▁izkorišča	-10.3727
▁redu	-10.3727
▁višino	-10.3727
▁uvedb	-10.3728
▁54	-10.3734
▁wales	-10.3734
▁splošnem	-10.3736
kcija	-10.3738
▁reakcija	-10.3738
▁robu	-10.3744
▁morske	-10.3745
▁metode	-10.3746
▁mostov	-10.3754
rši	-10.3757
▁latinske	-10.3761
▁krščanski	-10.3763
▁tovor	-10.3767
▁črk	-10.3767
ccx	-10.377
▁kisika	-10.3771
',	-10.3776
▁okus	-10.3782
▁cesta	-10.3783
▁pogoste	-10.3784
▁jože	-10.3784
▁šu	-10.3785
▁francosko	-10.3786
▁neodvisno	-10.3786
gro	-10.3787
nostjo	-10.379
stor	-10.3797
▁ofenziv	-10.3798
▁ustanovitelj	-10.3798
▁zgolj	-10.3798
▁samoglasnik	-10.3798
▁južna	-10.3798
▁josip	-10.3798
▁edward	-10.3798
▁nemška	-10.3799
▁množi	-10.3801
▁podpiral	-10.3809
▁sinov	-10.3814
▁široko	-10.3814
▁razteza	-10.3816
▁prečka	-10.3817
▁graf	-10.382
▁družini	-10.3826
▁domače	-10.3829
▁toplote	-10.3833
▁majhna	-10.3834
▁global	-10.3834
▁mandat	-10.3835
▁af	-10.3842
ijska	-10.3846
▁nastopil	-10.3851
▁nastale	-10.3852
▁61	-10.3863
▁imenovana	-10.3864
▁starih	-10.3865
▁francis	-10.3866
▁politik	-10.3866
д	-10.3869
▁kompozicij	-10.3869
▁državna	-10.387
▁količino	-10.3873
▁viktor	-10.3875
xx	-10.3875
▁vezan	-10.3876
ljan	-10.3877
znan	-10.3877
kat	-10.3878
▁dobo	-10.388
▁žena	-10.388
▁meglic	-10.3882
▁načel	-10.3888
▁jedrske	-10.3888
prem	-10.3891
▁lastno	-10.3892
irane	-10.3893
▁znova	-10.3895
raj	-10.3897
▁nastalo	-10.3904
▁mednarodna	-10.3905
▁upravno	-10.3905
▁apolon	-10.3905
bas	-10.3908
▁planetov	-10.3912
▁spadal	-10.3915
▁napoved	-10.3916
▁rimske	-10.3925
▁fiziko	-10.393
▁vero	-10.3931
orja	-10.3932
▁petih	-10.3939
▁kole	-10.3939
▁priložnost	-10.394
▁spremenljivk	-10.394
▁komunikacij	-10.3941
▁manjšin	-10.3944
▁letno	-10.395
cker	-10.3951
ting	-10.3959
▁180	-10.397
▁peš	-10.3973
▁koeficient	-10.3976
▁konflikt	-10.3976
▁podmornic	-10.3977
▁nacionalni	-10.3979
▁molekule	-10.3981
▁zgodovinski	-10.3981
▁slad	-10.3988
▁francijo	-10.3993
vič	-10.3994
▁mednarodnih	-10.3996
rl	-10.3997
nder	-10.3999
illa	-10.4009
▁celic	-10.4011
▁ustava	-10.4013
▁hun	-10.4019
▁beg	-10.4025
▁uporabljati	-10.4026
▁otoč	-10.4029
▁ustanovitvi	-10.4034
▁spa	-10.4035
▁proste	-10.4044
▁anglija	-10.4049
▁reaktor	-10.4049
▁kitajska	-10.4049
▁kmetijstvo	-10.4054
vzhod	-10.4074
part	-10.4076
▁odstotkov	-10.4085
▁aten	-10.4087
yer	-10.4097
▁gozdovi	-10.4097
▁severovzhod	-10.41
▁unije	-10.4102
▁živo	-10.4104
▁preveč	-10.4105
▁strah	-10.4105
▁pit	-10.4109
):	-10.411
lova	-10.4116
-3	-10.4118
melj	-10.412
▁aktivno	-10.4121
▁azerbajdžan	-10.4122
▁dirigent	-10.4122
▁zaporedje	-10.4122
▁agencij	-10.4122
▁upravni	-10.4124
▁predor	-10.4132
▁podobni	-10.4135
▁velikim	-10.4135
▁marij	-10.4141
▁zazna	-10.4145
▁jama	-10.4146
▁duh	-10.4156
▁kandidat	-10.4158
▁žrtev	-10.4158
▁sistemov	-10.4158
▁izvedel	-10.416
▁1917	-10.416
▁kratki	-10.416
▁verske	-10.4166
▁zbral	-10.4169
hel	-10.4171
▁središču	-10.4179
▁strank	-10.4183
sten	-10.4186
▁chi	-10.4188
▁velikem	-10.4189
▁javne	-10.4189
▁hiše	-10.4189
▁dogodki	-10.4195
▁posnel	-10.4196
šel	-10.4196
▁1921	-10.4196
▁znanstvenik	-10.4201
▁2015	-10.4202
mas	-10.4202
▁glavo	-10.4208
▁ugotovi	-10.4209
▁popolno	-10.4222
▁osebe	-10.4223
▁prava	-10.4224
bod	-10.4226
▁komunist	-10.423
▁izobraževanje	-10.4232
▁območij	-10.4232
▁direktor	-10.4232
▁nazadnje	-10.4232
▁okolja	-10.4232
▁1955	-10.4233
dovolj	-10.4234
▁požar	-10.4235
▁tuje	-10.4236
▁najpomembnejših	-10.4239
▁kopensk	-10.4239
▁vsakem	-10.424
▁šp	-10.424
▁ustvari	-10.4247
▁nivo	-10.4247
▁madžarske	-10.4247
▁optičn	-10.425
▁72	-10.4258
▁trajal	-10.4259
▁oba	-10.4261
mond	-10.4262
▁vseboval	-10.4269
▁oblačil	-10.427
▁urad	-10.4274
▁liber	-10.4284
▁sprejema	-10.4284
▁plen	-10.4284
▁·	-10.4286
▁središč	-10.4289
čijo	-10.4292
▁številka	-10.4298
▁starodavn	-10.4299
▁kultur	-10.4302
leta	-10.4302
▁občasno	-10.4306
▁sredini	-10.4306
▁1952	-10.4306
▁povezane	-10.4308
nejših	-10.4319
▁trop	-10.432
▁pristanišče	-10.4322
▁prevaja	-10.433
▁hiša	-10.4332
čišče	-10.4335
▁ptolemaj	-10.4343
▁57	-10.4345
▁soglasnik	-10.4347
▁postavili	-10.4347
metra	-10.4349
▁dobimo	-10.4352
▁javnosti	-10.436
▁edino	-10.4361
▁začele	-10.4362
▁skriv	-10.4363
ille	-10.4368
▁reši	-10.4369
▁pretok	-10.4372
▁ostro	-10.4372
▁usod	-10.438
▁definira	-10.438
okoli	-10.4382
▁tuji	-10.4382
rojen	-10.4382
▁obrt	-10.4384
▁wh	-10.4386
ons	-10.4389
▁spominja	-10.4393
▁irske	-10.4395
▁elektronov	-10.4395
▁upad	-10.4401
▁majhnih	-10.4402
iško	-10.4407
▁nista	-10.4407
▁živeli	-10.4411
▁nadaljuje	-10.4419
▁bdp	-10.4419
štva	-10.4421
▁kas	-10.4422
▁pijač	-10.4422
▁znanje	-10.4424
▁lis	-10.4434
▁povezav	-10.4435
▁organiziral	-10.4442
▁kasnejši	-10.4443
ture	-10.4445
▁velikokrat	-10.4451
▁bob	-10.4455
▁zaščito	-10.4456
▁einstein	-10.4456
▁sredstvo	-10.4456
▁kemijski	-10.4457
▁ustanovitev	-10.446
▁državami	-10.4464
▁deloma	-10.4467
▁rezerv	-10.4468
lip	-10.4468
vica	-10.447
▁matematiko	-10.4475
▁pokopan	-10.4475
▁preprosto	-10.4481
▁japonski	-10.4484
tske	-10.4485
▁zgodil	-10.4485
▁test	-10.4488
▁marija	-10.4489
▁ili	-10.4493
▁ferdinand	-10.4494
▁benetk	-10.4495
▁gorenj	-10.4496
▁lib	-10.4499
▁družino	-10.4506
▁področjih	-10.4507
▁notranjosti	-10.451
▁vozil	-10.4515
▁august	-10.4518
vice	-10.4521
▁stalni	-10.4522
▁vzhod	-10.4522
▁dinastija	-10.4526
▁guverner	-10.4532
▁wilhelm	-10.4532
▁srebro	-10.4532
▁službe	-10.4533
300	-10.4534
▁učenjak	-10.4535
▁mogel	-10.4536
▁slike	-10.4538
▁66	-10.4539
▁58	-10.4539
ovci	-10.454
graf	-10.4543
div	-10.4544
▁zmagal	-10.4548
▁majhno	-10.4548
▁jar	-10.4551
▁polo	-10.4552
▁mak	-10.4553
▁znanstveniki	-10.4554
ljivih	-10.4555
▁znanstveno	-10.4557
▁53	-10.456
kril	-10.4561
sad	-10.4562
▁aluminij	-10.4564
jočih	-10.4564
▁olj	-10.4565
▁najvišja	-10.457
▁opremljen	-10.457
▁ureditev	-10.457
▁integral	-10.457
▁najnižj	-10.457
▁nahajajo	-10.4571
▁sosednji	-10.4572
▁petra	-10.4579
00"	-10.458
▁atomov	-10.4583
▁maš	-10.4594
▁evropsko	-10.4595
▁generala	-10.4597
▁tempelj	-10.4603
▁razvijal	-10.4608
▁najpomembnejše	-10.4609
▁upodobljen	-10.4609
▁obrambe	-10.4609
▁kuhinj	-10.4609
tle	-10.461
▁globok	-10.462
▁pokrajina	-10.4623
čke	-10.4624
▁pravila	-10.4625
▁nimajo	-10.4626
▁občino	-10.4627
ante	-10.4629
▁plošča	-10.4631
▁knjižni	-10.4635
▁mestna	-10.4637
rež	-10.4641
▁izpostavljen	-10.4647
▁ogrožen	-10.4647
▁nadškof	-10.4647
▁naročil	-10.4648
▁1914	-10.4649
▁gospodarstva	-10.4649
jevi	-10.466
▁svoja	-10.4664
▁kategorij	-10.4674
▁zgradba	-10.4686
▁hladne	-10.4686
▁1938	-10.4688
▁prestolnica	-10.469
pus	-10.4693
▁madžarska	-10.4694
gur	-10.4694
▁mestno	-10.4694
▁obala	-10.4696
▁imele	-10.4696
▁koles	-10.4697
pog	-10.47
▁vidi	-10.4703
▁ved	-10.4707
▁nje	-10.4708
▁globoko	-10.4713
jevih	-10.4713
▁rimskem	-10.4717
itz	-10.4721
▁oborožen	-10.4721
▁institucij	-10.4724
▁najpogosteje	-10.4724
▁pesnikov	-10.4725
▁izgradnj	-10.4728
▁pogodbo	-10.473
▁rusije	-10.4731
▁umor	-10.4734
▁pokrajine	-10.4736
▁potop	-10.4737
▁krst	-10.4747
▁krožni	-10.4749
dav	-10.475
qua	-10.4751
▁znaka	-10.4751
▁gozdov	-10.4752
▁63	-10.4754
▁kratic	-10.4755
▁besedo	-10.4756
▁gosti	-10.4762
ε	-10.4763
▁tistega	-10.4764
▁dodatno	-10.4765
▁ledeni	-10.4774
▁sloj	-10.4777
franc	-10.4778
▁ps	-10.4779
▁najti	-10.4787
▁naredi	-10.4797
ight	-10.4801
▁membran	-10.4802
▁dejstvo	-10.4803
▁dokaj	-10.4804
▁pripada	-10.4805
▁arhiv	-10.4805
▁članic	-10.4806
▁rož	-10.4808
rig	-10.4811
▁izračun	-10.4812
ičnega	-10.4813
▁sodeluje	-10.4817
▁disk	-10.4821
▁različice	-10.4824
▁moške	-10.4826
▁prodaja	-10.4827
zdrav	-10.4831
▁kulturni	-10.4836
▁imata	-10.4836
jenju	-10.4838
▁1949	-10.4843
▁utrdb	-10.4844
▁rodbin	-10.4845
▁zalog	-10.4846
▁enačbo	-10.4847
▁madžar	-10.485
cht	-10.4851
▁morala	-10.4856
▁vozila	-10.4861
▁črna	-10.4861
▁mornar	-10.4864
▁vprašanja	-10.4871
="31	-10.4873
▁rak	-10.4873
▁opredeli	-10.4873
rid	-10.4877
far	-10.4877
▁zrn	-10.4881
▁jeruzalem	-10.4881
▁ljudski	-10.4881
▁nanj	-10.4883
▁gledališče	-10.4883
▁struktura	-10.4885
▁škr	-10.4886
▁skupne	-10.4886
zin	-10.4894
▁vodikov	-10.49
▁toku	-10.4902
▁france	-10.4903
▁razširi	-10.4903
▁električnega	-10.4911
▁51	-10.4915
▁platon	-10.4916
▁kosov	-10.4917
▁napetosti	-10.4917
▁rojstn	-10.4921
▁1967	-10.4922
sav	-10.4926
tvah	-10.4932
iziral	-10.4939
▁zbirka	-10.494
old	-10.4941
ogrske	-10.4941
▁gospodar	-10.4943
▁vodik	-10.4945
dija	-10.4946
▁polno	-10.4948
▁naše	-10.4953
▁ljudstvo	-10.496
▁preimenoval	-10.496
▁pljuč	-10.4961
▁poznem	-10.4962
mus	-10.4964
▁plov	-10.4964
▁trgu	-10.4966
▁glej	-10.4968
▁mestnih	-10.497
jskem	-10.4971
▁iskal	-10.4978
ür	-10.4979
▁termo	-10.4982
čnosti	-10.4982
bat	-10.4983
▁76	-10.4986
▁zagotovil	-10.4993
mos	-10.4994
▁protest	-10.4998
▁69	-10.4999
▁eksplozij	-10.5
▁okrožje	-10.5
▁obdržal	-10.5
▁1963	-10.5002
▁določeni	-10.5003
▁italijansko	-10.5004
▁resnici	-10.5004
▁enaki	-10.5005
▁potoval	-10.5008
▁laž	-10.5009
▁fant	-10.5013
▁vzpostavi	-10.5013
▁kipar	-10.5017
▁misel	-10.5022
▁črka	-10.5026
▁nacističn	-10.5035
▁povezano	-10.5037
▁gos	-10.5039
▁tolkien	-10.504
▁rokopis	-10.5042
▁istem	-10.5044
▁tik	-10.5047
▁rudnik	-10.5047
▁ub	-10.5047
▁celotni	-10.505
▁spodnje	-10.5054
▁enake	-10.5057
▁češke	-10.5059
▁zdi	-10.5064
▁zakonom	-10.5066
▁tokov	-10.5067
▁bibli	-10.5069
▁rešil	-10.5071
▁najvišje	-10.508
▁merkur	-10.5082
▁slednji	-10.5082
▁filozofije	-10.5092
▁izvora	-10.5093
glavnega	-10.5096
▁atomi	-10.5104
▁ranjen	-10.5105
iii	-10.5111
▁sledila	-10.5112
▁inštrument	-10.5121
▁posebna	-10.5121
▁konvencij	-10.5121
▁kraljestvu	-10.5121
▁značaj	-10.5121
▁pretekl	-10.5124
čko	-10.5124
▁svetlobo	-10.5124
▁veter	-10.5125
račun	-10.5127
▁znakov	-10.513
▁samega	-10.5133
▁raven	-10.5134
▁raziskovanj	-10.5142
▁oddaj	-10.5144
▁naloga	-10.5145
▁množic	-10.5145
▁pogovor	-10.5146
▁pojavila	-10.5151
▁arabske	-10.5152
▁sovražnik	-10.5156
▁združi	-10.5157
▁mesecih	-10.5162
▁moderne	-10.5163
▁moderni	-10.5164
▁uro	-10.5165
▁čaj	-10.5167
▁ideje	-10.5168
▁2016	-10.5168
▁očetov	-10.5171
tiral	-10.5171
▁encim	-10.5171
▁zraku	-10.5172
▁politike	-10.5174
▁izveden	-10.5174
▁prelom	-10.5175
▁oklepn	-10.5176
▁elektrarn	-10.5176
▁diplomat	-10.5182
▁pomenu	-10.5182
▁porabi	-10.5184
▁obraz	-10.519
▁74	-10.519
▁gosto	-10.5192
▁jla	-10.5197
▁prevzela	-10.5199
▁ujet	-10.52
м	-10.5202
▁pomlad	-10.5202
▁električno	-10.5203
▁(15	-10.5207
▁slovencev	-10.5208
▁prikazan	-10.5209
▁armade	-10.5209
▁rasti	-10.5211
▁uporabljala	-10.522
▁polj	-10.5222
▁lege	-10.5226
▁poimenovali	-10.5241
▁krajev	-10.5242
▁okrožja	-10.5243
▁beograd	-10.5243
▁industrije	-10.5243
▁meščan	-10.5244
▁1922	-10.5244
▁1979	-10.5244
▁nižji	-10.5246
▁sovjetsko	-10.5247
▁predela	-10.5248
▁množice	-10.5248
▁stekla	-10.5255
▁posodo	-10.526
▁lastnost	-10.5262
▁pomočnik	-10.5263
')	-10.5269
ning	-10.5272
▁širše	-10.5275
ô	-10.5283
▁ustavo	-10.5284
▁stopnjo	-10.5285
▁poskusi	-10.5288
▁heroj	-10.5292
▁kač	-10.5296
▁privedl	-10.5298
šnik	-10.5299
vajo	-10.5305
▁zaveznik	-10.5306
▁samomor	-10.5307
▁pripravlja	-10.5308
▁pierre	-10.5308
▁javni	-10.5308
▁milijoni	-10.5311
▁rolkar	-10.5315
▁kroni	-10.5319
▁televizijsk	-10.5325
▁premeščen	-10.5325
▁sklenil	-10.5325
▁sredstva	-10.5325
▁pisava	-10.5325
▁1961	-10.5326
▁1929	-10.5327
▁henrik	-10.5327
▁različno	-10.5327
▁tujih	-10.5329
▁nemškega	-10.5334
▁končan	-10.5341
▁vpad	-10.5343
▁vojn	-10.5343
▁boris	-10.5351
▁kolumb	-10.5361
▁prepoved	-10.5364
▁cambridge	-10.5366
▁evklid	-10.5366
▁izročil	-10.5366
▁dolarjev	-10.5367
▁tomaž	-10.5367
▁kemični	-10.5368
▁violin	-10.5368
▁ut	-10.537
▁obstoječ	-10.5379
▁otroke	-10.5381
▁senat	-10.5388
reg	-10.5392
▁fal	-10.5392
▁raste	-10.5395
▁napovedal	-10.5395
▁pravilno	-10.5397
▁nauk	-10.5405
▁friderik	-10.5407
▁revolucije	-10.5408
▁preostali	-10.5408
▁lennon	-10.5408
▁interakcij	-10.5408
▁naselij	-10.5409
▁potekala	-10.541
▁statistične	-10.5411
▁fotografij	-10.5413
▁največkrat	-10.5413
▁kislin	-10.5414
▁2017	-10.5416
▁pik	-10.5416
▁hrast	-10.5417
▁osvobodi	-10.5418
▁obnaša	-10.5421
▁washington	-10.5423
▁sklepa	-10.5426
▁točko	-10.5436
▁gradnja	-10.5437
ifici	-10.5445
gy	-10.5445
▁astronomije	-10.5446
▁ameriška	-10.5449
▁udeležil	-10.5449
▁angliji	-10.5449
▁nizko	-10.5457
zid	-10.5457
▁redno	-10.5474
▁tistih	-10.548
▁polotok	-10.5481
▁glasbi	-10.5481
ljal	-10.5488
▁sprejeli	-10.5489
▁intenzivn	-10.5491
▁sigismund	-10.5491
▁opreme	-10.5491
▁ponuja	-10.5493
voz	-10.5493
▁1958	-10.5493
▁politična	-10.5493
jših	-10.5494
▁prispel	-10.5497
▁poljska	-10.5505
▁moških	-10.5518
▁bojni	-10.5518
▁potovanje	-10.552
▁uporabljamo	-10.5522
arski	-10.553
▁cerkva	-10.5533
▁rudolf	-10.5533
▁bakterij	-10.5533
▁raciona	-10.5533
▁1968	-10.5534
▁1975	-10.5535
▁leonard	-10.5535
▁1900	-10.5535
▁2018	-10.554
čiti	-10.5543
ong	-10.5544
▁kitajskem	-10.5551
iranih	-10.5551
ijsko	-10.5552
▁mogoč	-10.5552
▁vojaškega	-10.5553
right	-10.5554
mont	-10.5556
▁cevi	-10.5558
▁reakcije	-10.5559
▁lažje	-10.5559
▁prvak	-10.5566
▁ustavi	-10.5567
vrat	-10.5572
▁kovina	-10.5573
xxx	-10.5574
б	-10.5575
ι	-10.5575
▁nameščen	-10.5575
▁višina	-10.5575
▁vesolje	-10.5576
▁vetrov	-10.5576
▁1933	-10.5577
▁videti	-10.5577
▁zemljevid	-10.558
▁bela	-10.5582
▁segajo	-10.5582
▁družbeni	-10.5586
-18	-10.5588
▁verz	-10.5588
▁hus	-10.5589
fik	-10.5594
▁est	-10.5595
▁centra	-10.5602
▁sodi	-10.5604
▁žene	-10.5606
▁aristotel	-10.5618
▁občutljiv	-10.5618
▁družbo	-10.5618
▁prostovolj	-10.5618
▁izdeloval	-10.5618
▁arhitekture	-10.5618
▁vodne	-10.562
▁68	-10.5623
▁nafte	-10.5623
▁internet	-10.5623
▁volitve	-10.5624
▁hitrostjo	-10.5626
▁breg	-10.5626
▁močan	-10.5626
▁koliko	-10.5627
▁poveljnika	-10.5628
113	-10.5631
▁plemena	-10.5631
▁svetoval	-10.5631
▁poljsko	-10.5632
▁skušal	-10.5633
▁nacionalne	-10.5637
brat	-10.5644
▁helij	-10.5647
▁filmu	-10.5648
▁poljski	-10.5648
▁ptič	-10.5648
▁tv	-10.5651
▁modro	-10.5655
▁delavsk	-10.5656
▁nevtron	-10.5658
▁istočasno	-10.566
▁katalog	-10.566
lski	-10.5661
▁glagol	-10.5661
▁1969	-10.5662
cit	-10.5663
▁levo	-10.5665
▁visoka	-10.5667
▁lega	-10.5668
▁las	-10.5672
▁bližnje	-10.5674
▁junak	-10.5677
dos	-10.5683
primer	-10.5684
metro	-10.5688
▁67	-10.5689
▁srečanj	-10.5692
▁rs	-10.5694
▁dodaja	-10.5695
vnost	-10.5695
▁klas	-10.5697
▁77	-10.5698
▁abraham	-10.5703
▁disciplin	-10.5703
▁rdeča	-10.5703
▁1953	-10.5703
▁starost	-10.5703
▁japonska	-10.5708
▁gostoto	-10.571
▁pokopališč	-10.5713
ville	-10.5714
ferenc	-10.5714
▁far	-10.5727
▁partizansk	-10.573
▁majhni	-10.573
▁kad	-10.5734
list	-10.5734
▁maha	-10.5739
▁hrvaški	-10.5746
▁otroci	-10.5746
▁znamenj	-10.5746
▁koncil	-10.5754
▁roko	-10.5756
▁vere	-10.5761
elektri	-10.5763
ccc	-10.5763
▁kamor	-10.5765
▁dviga	-10.5766
▁duše	-10.5767
cs	-10.5777
▁omogočajo	-10.5779
inja	-10.5783
▁egipčanski	-10.5783
▁infrastruktur	-10.5789
▁krščanstvo	-10.5789
▁združenj	-10.5789
▁avstriji	-10.5789
▁pogajanj	-10.579
▁1974	-10.579
▁nujno	-10.5791
▁oblegan	-10.5791
▁oskrbo	-10.5796
▁čisto	-10.5797
produkcij	-10.58
▁dosegli	-10.58
▁mongoli	-10.58
▁izum	-10.5803
▁pravni	-10.5805
▁zvezne	-10.5809
wood	-10.5818
sor	-10.5825
▁največjo	-10.583
γ	-10.5832
▁120	-10.5835
▁pret	-10.5839
▁mik	-10.5851
té	-10.5853
▁ubit	-10.5857
▁vladi	-10.5858
▁gradu	-10.586
cer	-10.586
▁nogomet	-10.5861
▁povzročilo	-10.5864
▁pripadnikov	-10.5873
▁družbi	-10.5876
▁uvrščen	-10.5876
▁ludvik	-10.5876
▁prilagodi	-10.5876
▁najdaljš	-10.5876
▁600	-10.5876
▁povezava	-10.5878
ković	-10.5882
▁vrata	-10.5884
▁hol	-10.5885
▁osebni	-10.5886
▁proizvodnje	-10.5888
▁pel	-10.5893
▁sloves	-10.5893
▁predlaga	-10.5896
▁rodila	-10.5897
čkov	-10.5898
▁rjav	-10.5898
▁mere	-10.5899
▁zgornje	-10.5901
▁glasbil	-10.5903
▁sha	-10.5904
▁province	-10.5908
▁she	-10.5912
▁obema	-10.5914
▁grških	-10.5916
▁oddaja	-10.5918
▁energijsk	-10.592
▁simfoničn	-10.592
▁stil	-10.592
▁1947	-10.5921
▁win	-10.5923
▁sankt	-10.5924
ander	-10.5926
▁kovinski	-10.593
▁splet	-10.5932
▁diplom	-10.5939
▁papeža	-10.5941
▁prenese	-10.595
▁fen	-10.5954
ć	-10.5955
vljen	-10.5959
▁2020	-10.5961
pedi	-10.5962
▁alfred	-10.5963
▁1964	-10.5965
▁starejše	-10.5965
▁elektronski	-10.5967
▁hrano	-10.5967
▁napada	-10.5968
pravlja	-10.5971
▁59	-10.5977
▁slogu	-10.5981
▁prevajal	-10.5985
arje	-10.5989
war	-10.5992
▁73	-10.5998
▁pomoči	-10.6001
▁henri	-10.6007
▁bližnji	-10.6007
▁pogreb	-10.6008
▁odred	-10.601
njak	-10.6012
magnet	-10.6014
▁zvest	-10.6015
▁redov	-10.6016
▁radij	-10.602
▁padalsk	-10.6023
▁gorski	-10.6025
▁obenem	-10.6026
ney	-10.6027
▁pogodbe	-10.6027
▁zgradbe	-10.6032
▁določenih	-10.6035
▁letališče	-10.6039
▁dejal	-10.6043
-6	-10.6044
▁ženo	-10.6046
▁straž	-10.6047
cijsko	-10.6048
▁elektr	-10.6049
▁uspešni	-10.6051
▁takšno	-10.6052
▁priključil	-10.6052
▁črko	-10.6055
▁plemič	-10.6056
▁zgodba	-10.6057
blo	-10.606
deč	-10.606
▁meč	-10.6062
▁zastopa	-10.6068
zakon	-10.6068
vre	-10.6072
▁govoril	-10.6073
▁zgodbe	-10.6083
▁pomenilo	-10.6085
▁vzhoda	-10.6087
bb	-10.6089
▁800	-10.6092
hol	-10.6093
▁lan	-10.6093
▁dolenj	-10.6093
▁fon	-10.6095
▁splošna	-10.6096
▁ekvator	-10.6096
▁takšna	-10.6096
▁svetlo	-10.6102
▁latinski	-10.6103
▁ogljika	-10.6108
▁mejn	-10.6111
▁govoreč	-10.6112
▁hipo	-10.6119
▁zavezniki	-10.6123
▁javnih	-10.6124
▁označil	-10.6132
▁spletn	-10.6134
▁zgodovinskih	-10.6134
tska	-10.6138
ejšo	-10.614
đ	-10.6141
▁polovico	-10.6141
▁vladavino	-10.6141
▁kardinal	-10.6142
▁kratke	-10.6142
▁zasebni	-10.6142
▁podprl	-10.6143
▁časih	-10.6143
▁max	-10.6148
▁petr	-10.615
▁delci	-10.6152
▁postavlja	-10.6158
▁nastanejo	-10.6162
▁oklepno	-10.6163
▁71	-10.6163
meta	-10.6167
▁gradbeni	-10.6172
▁lom	-10.6172
▁dodal	-10.6175
▁okvir	-10.6176
▁začetni	-10.6181
▁srečal	-10.6184
ο	-10.6185
▁brata	-10.6185
▁poučeval	-10.6185
▁dogodkov	-10.6185
▁šahovski	-10.6186
▁izključno	-10.6186
▁palača	-10.6186
laj	-10.6187
▁ladjo	-10.6188
▁2019	-10.6193
▁relativnosti	-10.6195
▁luc	-10.6201
▁letom	-10.6208
▁človeške	-10.6209
▁svetlobn	-10.621
▁vodika	-10.6212
ogla	-10.6212
▁deželo	-10.6216
▁gibanju	-10.6219
▁veja	-10.6222
cus	-10.6227
▁družbene	-10.6229
▁take	-10.6231
▁noči	-10.6232
▁anatol	-10.6232
▁abeceda	-10.6234
▁jakob	-10.6234
▁pustil	-10.6235
stev	-10.6239
▁spe	-10.6241
▁prevzeli	-10.6242
▁zakonu	-10.6242
loški	-10.6244
▁vzpostavil	-10.6246
▁nizki	-10.6255
▁indiji	-10.6256
▁fra	-10.6256
340	-10.6257
cijska	-10.626
▁dosega	-10.6264
naša	-10.6265
▁zapiše	-10.6268
▁čete	-10.627
▁che	-10.6271
▁prebival	-10.6272
ø	-10.6276
▁nasprotno	-10.6276
▁položaje	-10.6276
▁olimpij	-10.6276
▁zločin	-10.6276
jpg	-10.6276
▁nastanka	-10.6277
▁poseljen	-10.6277
▁zaključil	-10.6277
▁mošej	-10.6278
▁povezal	-10.6279
▁skupn	-10.6282
šar	-10.6284
▁stopinj	-10.6285
▁razlogov	-10.6287
▁črke	-10.6292
▁tankovsk	-10.6295
iranju	-10.6301
▁igralec	-10.6302
▁marko	-10.6303
▁svetišč	-10.6305
▁rimska	-10.6306
▁študija	-10.631
▁vladanja	-10.6313
sco	-10.6317
▁hum	-10.6317
▁nasprotoval	-10.6321
▁sezoni	-10.6323
▁svetloba	-10.6326
▁ledenik	-10.6327
▁princip	-10.6328
fosfat	-10.6331
▁današnjega	-10.6332
heim	-10.6333
▁novinar	-10.6334
ál	-10.6337
▁vztraj	-10.6341
angl	-10.6351
▁tang	-10.6354
knjiž	-10.6354
▁razvija	-10.6358
▁vera	-10.6359
▁korpusa	-10.6365
▁jugoslaviji	-10.6367
▁nikolaj	-10.6367
▁majhen	-10.6368
▁škofij	-10.6384
▁bregu	-10.6389
▁krvi	-10.6391
jočega	-10.6392
▁aero	-10.6392
▁črn	-10.6393
▁prerok	-10.6395
▁sosed	-10.6396
▁mez	-10.6397
▁hiš	-10.6398
soci	-10.6399
▁položaju	-10.6404
▁njenem	-10.6405
▁imeni	-10.6406
▁zgodnjem	-10.6411
▁komponent	-10.6413
▁ljubezni	-10.6413
▁zasedli	-10.6413
▁orient	-10.6413
▁ipd	-10.6414
▁odziv	-10.6415
▁portugalske	-10.6417
▁vzel	-10.6421
▁natrijev	-10.6423
▁nalogo	-10.6424
sovraž	-10.6427
▁parišk	-10.643
▁temeljil	-10.6431
▁povzročila	-10.6434
▁raziskovanje	-10.6435
▁vodnik	-10.6443
▁zgodilo	-10.6449
▁rezervat	-10.6453
▁položaja	-10.6453
▁jakost	-10.6453
▁domini	-10.6454
▁izraelsk	-10.6458
▁takt	-10.6458
▁artilerijsk	-10.6459
▁krščanske	-10.6459
▁1972	-10.646
▁1986	-10.6461
znega	-10.6462
▁nižje	-10.6463
▁verskih	-10.6467
▁tipičn	-10.6469
▁verski	-10.647
▁najboljši	-10.6473
▁oborožene	-10.6473
gul	-10.6474
ruš	-10.648
▁mesti	-10.6483
▁trenutn	-10.6493
▁poročila	-10.6493
▁vesel	-10.6494
▁uporabili	-10.6496
▁simon	-10.6497
▁drži	-10.6497
▁razsežnost	-10.6505
▁pretvori	-10.6505
▁priimek	-10.6505
▁1936	-10.6507
▁premier	-10.6508
▁posledice	-10.651
▁"»	-10.651
▁balkan	-10.6522
▁temperaturn	-10.6523
▁bistven	-10.6524
▁obalo	-10.6526
▁ele	-10.6527
▁drag	-10.6529
▁pogoj	-10.6531
226	-10.6532
▁prinaša	-10.6537
rum	-10.6537
▁piha	-10.6538
▁vsota	-10.6538
delovati	-10.6538
▁sho	-10.6541
▁trdo	-10.6542
▁planeta	-10.6543
tvami	-10.6549
▁izboljšal	-10.6549
▁ukazal	-10.655
▁ponudil	-10.6552
▁arhitektura	-10.6552
▁površinsk	-10.656
▁klo	-10.6561
▁količin	-10.6569
▁hiper	-10.657
meš	-10.658
▁državnih	-10.658
▁širš	-10.6591
gs	-10.6591
▁gv	-10.6594
▁standardni	-10.6595
▁združeno	-10.6598
▁pehote	-10.6598
▁izkrca	-10.6598
▁perzijski	-10.6599
▁praksi	-10.6599
▁1965	-10.66
▁michel	-10.66
▁1988	-10.66
▁1956	-10.66
▁rekord	-10.6601
▁bolgari	-10.6602
▁znatn	-10.6604
▁bizantinske	-10.6609
živi	-10.661
▁klor	-10.6611
stati	-10.6614
▁šolanje	-10.6619
▁točki	-10.6621
▁sestava	-10.6621
-4	-10.6622
▁izobraževal	-10.6624
gue	-10.6625
gener	-10.6629
stvi	-10.6637
▁zlate	-10.664
▁predhodnik	-10.6645
▁španiji	-10.6645
▁geometrijsk	-10.6645
▁tretja	-10.6645
▁transformacij	-10.6646
▁japonske	-10.6646
▁1962	-10.6647
▁1934	-10.6647
bog	-10.6648
▁priznava	-10.6649
▁roke	-10.6651
▁uvrstil	-10.6651
▁katera	-10.6651
▁temelje	-10.6654
sy	-10.6656
fal	-10.6658
▁rimskih	-10.666
▁mac	-10.6663
▁štel	-10.6663
▁cap	-10.6669
▁razvojem	-10.6682
▁načela	-10.6683
▁sodobnih	-10.6688
▁elemente	-10.6691
▁neposredni	-10.6692
▁hrvaško	-10.6692
▁pravzaprav	-10.6692
▁američan	-10.6692
▁upravo	-10.6693
▁uprave	-10.6693
▁1973	-10.6694
▁izšla	-10.6695
▁javnost	-10.6695
▁marx	-10.6695
▁straneh	-10.6696
▁walter	-10.6698
▁vključil	-10.6699
▁videz	-10.6702
čila	-10.6705
▁nagrada	-10.671
▁izjav	-10.6711
▁generalov	-10.6715
▁nabor	-10.6715
▁doseg	-10.672
indi	-10.672
▁nobene	-10.672
▁odloči	-10.6721
▁preliv	-10.6725
▁poseg	-10.6727
▁com	-10.6728
▁odpravi	-10.6729
▁obnovi	-10.6729
▁drago	-10.6732
▁izrazito	-10.6734
▁bolnišnic	-10.674
▁spremenjen	-10.674
▁udeležen	-10.674
▁odpoved	-10.674
▁madžarski	-10.6741
▁nobenega	-10.6742
▁1935	-10.6742
▁saint	-10.6742
▁ciril	-10.6745
▁samostojno	-10.6745
▁delijo	-10.6748
sol	-10.6751
▁zapusti	-10.6754
ostjo	-10.6765
▁katar	-10.6766
▁ogljik	-10.6769
▁brigade	-10.6775
ril	-10.6776
file	-10.6781
▁sprejeta	-10.6783
▁povprečno	-10.6787
▁hrvaška	-10.6787
▁relief	-10.6787
▁avstrija	-10.6787
▁vrednot	-10.6788
▁svetovnih	-10.6789
▁znamk	-10.6789
▁budističn	-10.679
▁znamenitosti	-10.6791
▁drama	-10.6793
▁zanesljiv	-10.6794
▁ozn	-10.6795
▁razum	-10.6796
▁ross	-10.6801
▁posamezni	-10.6803
rag	-10.6806
▁sprejela	-10.6809
▁glasbeno	-10.6812
▁zemljišč	-10.6818
▁egipčan	-10.6819
štvu	-10.6822
▁prepovedan	-10.6824
▁kazni	-10.6826
▁draž	-10.6828
▁polotoka	-10.6829
ér	-10.6833
▁mimo	-10.6833
françois	-10.6835
▁tradicionalne	-10.6835
▁vrnitvi	-10.6836
▁vsebnost	-10.6837
▁sestavljal	-10.6837
▁1983	-10.6837
▁trajala	-10.6839
▁praštevilo	-10.6841
▁nenehn	-10.6841
nacional	-10.6843
▁večine	-10.6845
▁tovrstn	-10.6847
ijci	-10.6849
▁govorijo	-10.6851
▁kraljeva	-10.6855
▁apnen	-10.6856
▁termin	-10.6865
▁komunistične	-10.6865
musliman	-10.6873
▁poznali	-10.6876
▁izdan	-10.6879
▁konji	-10.688
▁zavzema	-10.6883
▁beljakovin	-10.6883
▁najverjetneje	-10.6883
▁oxford	-10.6883
▁zgoraj	-10.6883
▁arthur	-10.6883
renesančn	-10.6883
▁storil	-10.6889
▁sestavljeno	-10.6891
nskim	-10.6892
▁grič	-10.6896
▁prejšnjega	-10.6897
▁zgodovinarji	-10.6898
▁prizadevanj	-10.6909
▁virus	-10.6911
▁dy	-10.6913
▁lunin	-10.6915
▁brad	-10.6917
▁računa	-10.6917
džu	-10.6918
▁neko	-10.692
▁glava	-10.692
▁znanja	-10.6921
▁lasti	-10.6922
ičnem	-10.6923
▁magnetno	-10.6927
▁napade	-10.6931
▁dogodek	-10.6932
▁poškodb	-10.6932
▁naslednja	-10.6932
▁polovica	-10.6932
▁odvisnost	-10.6932
▁definiran	-10.6932
▁1928	-10.6935
▁fosil	-10.6936
jevem	-10.6941
▁indijske	-10.6946
▁predstavniki	-10.6952
▁ljubljanski	-10.6952
▁cal	-10.6953
▁fevdal	-10.6955
▁titan	-10.6957
ward	-10.6962
400	-10.6967
▁sestavni	-10.6968
▁novim	-10.6978
▁naprave	-10.6978
▁jugoslovanske	-10.698
▁poudarja	-10.698
▁povprečju	-10.698
▁človeško	-10.698
▁žuželk	-10.698
konjeniška	-10.698
▁predvideva	-10.698
▁revolucijo	-10.698
rica	-10.698
▁črte	-10.6981
▁ogled	-10.6981
▁pobegnil	-10.6982
▁minister	-10.6982
ničar	-10.6983
▁vroči	-10.6983
▁vzhodnem	-10.6984
▁redke	-10.6985
▁olimpijski	-10.6988
▁rusijo	-10.6991
▁zgodnj	-10.6993
▁obsežne	-10.6997
▁rečn	-10.6997
▁spiral	-10.6998
▁civilizacij	-10.7
▁izvajanje	-10.7005
▁povezavo	-10.7006
▁študije	-10.7006
chel	-10.7007
▁newton	-10.7008
▁vsakega	-10.7009
▁loka	-10.7009
▁menja	-10.7017
▁kraja	-10.702
▁uživa	-10.7021
▁letališč	-10.7026
▁prevladujoč	-10.7029
▁površje	-10.7029
▁britanska	-10.7029
▁zgodaj	-10.7029
▁urednik	-10.703
▁izgnan	-10.703
▁zamisel	-10.703
▁potreboval	-10.7031
▁usmeri	-10.7033
▁španske	-10.7034
▁častni	-10.7038
▁modul	-10.704
▁hermann	-10.7051
▁stavbe	-10.7062
olucij	-10.7067
▁podpis	-10.707
▁dokazov	-10.7071
▁angleščini	-10.7078
▁najpomembnejša	-10.7078
pozdravljen	-10.7078
▁mikroskop	-10.7078
▁vesolju	-10.7078
▁valižan	-10.7078
▁1957	-10.708
▁jezikih	-10.708
▁pozimi	-10.7081
▁premog	-10.7085
▁bes	-10.7086
aktivne	-10.7088
▁trideset	-10.7091
energ	-10.7091
rog	-10.7091
▁vietnamsk	-10.7091
občina	-10.7092
▁tehnike	-10.7093
▁članek	-10.7098
▁slovenci	-10.7099
▁presega	-10.7108
▁faza	-10.7109
▁problema	-10.7115
▁jurišn	-10.7115
▁predstavljen	-10.7116
▁dinastij	-10.7119
▁prosti	-10.7126
▁matematične	-10.7127
▁bral	-10.7127
▁zavzet	-10.7127
▁definicija	-10.7128
▁univerzitetn	-10.7128
▁rtv	-10.7129
▁žveplov	-10.7129
▁kratek	-10.7132
▁ognje	-10.7133
▁tesno	-10.7134
▁tigr	-10.7145
▁indijski	-10.7148
▁čisti	-10.7152
▁sklep	-10.7157
▁euler	-10.7162
kakor	-10.7163
ans	-10.7164
▁lastnik	-10.7165
▁proizvede	-10.7177
▁prejšnji	-10.7177
▁protein	-10.7177
▁opremo	-10.7177
▁prekriva	-10.7178
▁opus	-10.7178
▁socialistične	-10.7179
▁1915	-10.7179
▁1981	-10.718
▁metodo	-10.7186
▁prof	-10.7189
▁ib	-10.7189
▁neodvisnosti	-10.7194
▁razdalje	-10.7194
▁blo	-10.7195
odnih	-10.7199
▁sevanje	-10.7205
▁bogati	-10.7208
▁end	-10.7209
▁kak	-10.721
▁organizira	-10.721
rp	-10.7213
▁luna	-10.7225
к	-10.7225
▁napredoval	-10.7227
▁partner	-10.7227
▁vatikan	-10.7228
▁1984	-10.7229
▁upravne	-10.7229
▁1923	-10.7229
▁pripravil	-10.7229
▁krvav	-10.723
ington	-10.7232
▁potrebna	-10.7233
▁spremenila	-10.7238
▁pastir	-10.7238
▁vozilo	-10.7239
▁zahodnem	-10.7239
vita	-10.7239
▁izgubljen	-10.724
▁nekdanj	-10.7245
▁−	-10.7254
▁dre	-10.7254
▁bab	-10.7258
▁tekoč	-10.7263
▁nastanku	-10.7277
kcije	-10.7277
▁portret	-10.7278
▁1916	-10.7279
▁uprava	-10.7279
▁boginja	-10.7279
▁1954	-10.7279
▁menih	-10.7281
▁pripisuje	-10.7282
▁igor	-10.7283
▁tremi	-10.7283
▁letalstva	-10.7283
▁sledijo	-10.7284
ravno	-10.7285
▁koder	-10.7292
▁slednje	-10.7294
▁kdaj	-10.7302
▁armada	-10.7303
▁antični	-10.7305
▁pavel	-10.7309
▁umetniški	-10.7309
106	-10.7311
▁odprti	-10.7316
▁abu	-10.7322
▁britansko	-10.7327
▁povišan	-10.7327
▁prisiljen	-10.7327
▁1971	-10.7328
▁rež	-10.7329
▁psiho	-10.733
▁hesse	-10.7332
▁delimo	-10.734
▁tekočine	-10.734
▁nemir	-10.7341
▁površin	-10.7341
▁veda	-10.7346
▁povečalo	-10.7346
▁značilne	-10.7348
_4	-10.7348
▁hribov	-10.736
▁našega	-10.736
▁železnice	-10.7363
lacija	-10.7364
▁zmaga	-10.7364
▁sončne	-10.7366
▁pravica	-10.7366
▁fri	-10.737
▁svetovnega	-10.7372
▁igri	-10.7374
▁lang	-10.7375
▁fakulteti	-10.7377
▁nizozemske	-10.7377
▁mestom	-10.7378
▁strukturo	-10.738
sova	-10.7382
▁reforme	-10.7383
▁nedavn	-10.7388
▁živelo	-10.7397
▁zgornjem	-10.7399
▁prispeva	-10.7399
jevič	-10.7406
delež	-10.7411
▁znašal	-10.7417
ništvu	-10.7419
▁vrhovni	-10.7421
▁izšel	-10.7422
▁samostojni	-10.7428
▁ameriško	-10.7428
▁sekretar	-10.7428
kotnik	-10.7429
▁povojn	-10.7429
▁perzijske	-10.7429
▁poimenoval	-10.743
▁1910	-10.7432
▁ledu	-10.7434
▁tlaka	-10.7443
▁slovanski	-10.7443
znanstveno	-10.7445
▁opazovanja	-10.7448
▁celica	-10.7448
▁are	-10.745
▁obvezno	-10.7451
pas	-10.7461
▁segreva	-10.7462
way	-10.7463
▁meg	-10.7466
ín	-10.7467
▁izboljšan	-10.747
▁galen	-10.7471
▁bojne	-10.7475
▁najstarejše	-10.7479
▁namestnik	-10.7479
▁sorazmerno	-10.7479
▁evropa	-10.7479
▁fluor	-10.7479
▁verjame	-10.7479
▁dodeljen	-10.748
▁1966	-10.7481
▁šent	-10.7485
▁kate	-10.7487
▁princ	-10.7489
▁dolino	-10.7491
▁skladišč	-10.7492
▁ruskega	-10.7493
▁kontra	-10.75
varja	-10.7501
▁zavod	-10.7512
▁atoma	-10.7512
ett	-10.7517
▁doživela	-10.7519
cci	-10.752
▁atp	-10.7521
gos	-10.7525
▁zahteve	-10.7527
▁nihanj	-10.7527
▁predstojnik	-10.753
▁uveljavlja	-10.753
▁štirje	-10.753
▁ustave	-10.7531
▁sodobna	-10.7532
▁boljše	-10.7533
▁1976	-10.7533
▁formalno	-10.7533
▁možgansk	-10.7533
▁ženski	-10.7533
▁nastajajo	-10.7536
▁karla	-10.7537
▁zmagoval	-10.7537
▁izbruhnil	-10.7537
▁dneh	-10.7537
▁celje	-10.7545
▁približa	-10.7548
lum	-10.755
-9	-10.7551
▁spek	-10.7553
▁spominski	-10.7568
▁prenehal	-10.7572
▁1848	-10.7577
▁razmnož	-10.7582
▁podrejen	-10.7582
▁1959	-10.7585
tos	-10.7587
▁ocena	-10.7587
▁tobak	-10.7591
▁ustavil	-10.7594
▁mariboru	-10.7599
▁spremljal	-10.7601
nell	-10.7602
▁zajel	-10.7604
▁zanimivo	-10.7605
▁bak	-10.7611
▁trav	-10.7611
▁večer	-10.7614
marie	-10.7622
▁had	-10.7627
▁indije	-10.7632
▁prekop	-10.7633
▁ljudska	-10.7634
▁referendum	-10.7634
▁obnovljen	-10.7634
mehaniziran	-10.7634
▁kemijske	-10.7634
▁mišic	-10.7635
▁tkiv	-10.7637
▁10.000	-10.7637
▁čoln	-10.7637
▁policija	-10.7638
▁zavarovan	-10.7641
▁knjižnica	-10.7644
▁islamsk	-10.7646
šin	-10.7648
▁financira	-10.7651
▁oblek	-10.7653
▁odboj	-10.7654
▁mostu	-10.7654
▁rolk	-10.7657
▁poveljstvom	-10.7657
▁hudi	-10.7661
▁veljajo	-10.7663
▁mešani	-10.7671
▁notranjost	-10.7671
ključen	-10.7673
▁svojemu	-10.7674
▁posesti	-10.7676
▁zemeljsk	-10.7677
ł	-10.7686
chen	-10.7687
▁1937	-10.7688
▁tankov	-10.7691
▁osvoji	-10.7691
▁taborišča	-10.7692
▁delavcev	-10.7693
čica	-10.7695
▁polinom	-10.7697
▁trdijo	-10.7703
poročnik	-10.7709
▁tradicijo	-10.773
▁njemu	-10.7736
–18	-10.7737
▁grafit	-10.7738
▁kneževin	-10.7738
▁najzgodnejš	-10.7738
▁ljudsko	-10.7738
▁tehnološk	-10.7738
▁izumil	-10.7739
teče	-10.774
▁prestolnico	-10.7741
▁kasnejše	-10.7744
▁aleksandra	-10.7748
▁vseeno	-10.7751
field	-10.7754
sur	-10.7758
dnevni	-10.7761
▁pristal	-10.7762
▁urada	-10.7768
▁olimp	-10.7769
▁krvn	-10.777
▁krep	-10.7771
▁tujini	-10.778
▁celičn	-10.7782
▁značilni	-10.7783
!"	-10.7789
▁sodnik	-10.779
▁pomanjkanja	-10.7791
▁srednjeveški	-10.7791
▁komisar	-10.7791
▁doseči	-10.7791
▁obrob	-10.7793
▁sredine	-10.7794
▁resnično	-10.7798
▁naravna	-10.7807
▁narodnost	-10.7811
▁topov	-10.7817
▁stalne	-10.7823
▁politiki	-10.7823
vlada	-10.7828
▁univerzo	-10.783
▁žensko	-10.7832
▁plaz	-10.7834
▁oblikovanje	-10.7842
▁poznal	-10.7843
▁učil	-10.7843
▁številnim	-10.7844
▁edinstven	-10.7844
▁industriji	-10.7844
▁ponavlja	-10.7844
▁pridobivanje	-10.7844
▁napadel	-10.7845
▁zvezna	-10.7845
▁lokalno	-10.7846
▁železnica	-10.7847
prost	-10.7847
▁preprečil	-10.7848
ičnim	-10.7851
▁plošče	-10.7862
▁izid	-10.7872
▁trdni	-10.7874
tke	-10.7874
▁izliva	-10.7876
▁350	-10.7878
▁tabor	-10.7883
▁nadaljnje	-10.7887
▁obstajala	-10.7891
▁elit	-10.7896
▁neptun	-10.7897
▁žiraf	-10.7897
▁gustav	-10.7897
▁očitno	-10.7899
▁1951	-10.7899
▁slovenščini	-10.7899
▁izmenja	-10.7899
▁tleh	-10.7899
▁odprave	-10.7899
▁1987	-10.79
▁šestih	-10.79
▁maršal	-10.7901
▁spozna	-10.791
▁dosegl	-10.7915
▁astro	-10.7919
▁objektov	-10.7919
▁poimenovanje	-10.7933
▁priznanje	-10.7937
▁poslali	-10.7945
▁dosežke	-10.795
▁kazahstan	-10.795
▁učinek	-10.795
▁arhimed	-10.795
▁grčiji	-10.795
▁nadomestn	-10.795
grško	-10.7951
▁svinec	-10.7951
▁navadni	-10.7952
▁oblikuje	-10.7953
▁zob	-10.7954
▁cikel	-10.7954
▁podobo	-10.7955
▁dodatni	-10.7958
▁pismo	-10.7961
▁emil	-10.7963
▁takšnih	-10.7963
▁industrijski	-10.7967
▁west	-10.797
▁prevladuje	-10.7977
▁odstop	-10.7983
▁(14	-10.7989
▁sevanja	-10.7992
▁fizikalne	-10.7992
▁1500	-10.7992
▁organizacijo	-10.8001
▁afganistan	-10.8004
▁sedmih	-10.8005
▁situacij	-10.8005
inter	-10.8005
▁kemik	-10.8006
▁pošilja	-10.8006
▁prehaja	-10.8006
▁1985	-10.8007
▁1927	-10.8008
▁spektraln	-10.801
▁hidr	-10.8014
▁sposobnosti	-10.8016
▁vloge	-10.8021
▁dnk	-10.8022
▁nemce	-10.8026
▁pisanje	-10.8028
▁postaje	-10.8029
▁hči	-10.8032
pes	-10.8032
vrže	-10.8033
izvirno	-10.8034
vzdrž	-10.8035
▁vplivajo	-10.8036
▁vedel	-10.8038
▁izstreli	-10.8039
▁japonskem	-10.8043
▁takšni	-10.8046
▁milijarde	-10.8046
▁izjemo	-10.8047
▁vilin	-10.8052
portugal	-10.8053
▁(10	-10.8053
▁opredeljen	-10.8058
▁arnold	-10.8058
▁hiparh	-10.8058
▁revolucija	-10.8058
▁meteor	-10.8059
▁peterburg	-10.806
▁indeks	-10.8063
latin	-10.8066
clx	-10.8071
▁moment	-10.8071
én	-10.8072
▁celoten	-10.808
▁številke	-10.8081
▁smrtjo	-10.8084
▁prstan	-10.8088
enberg	-10.8089
▁religija	-10.8093
▁fort	-10.8096
▁nadzorom	-10.8108
▁navdih	-10.8109
▁izgube	-10.811
oksid	-10.8111
▁osebnih	-10.8114
▁diagram	-10.8114
▁začasno	-10.8114
▁domač	-10.8114
▁upravna	-10.8114
national	-10.8116
▁osebnost	-10.8117
▁denarja	-10.8117
▁izrazit	-10.8118
▁označi	-10.8124
▁sum	-10.8125
▁gradil	-10.8128
▁franz	-10.8129
▁100.000	-10.8137
▁železov	-10.8142
▁tetra	-10.8148
▁patent	-10.815
haus	-10.8152
▁vprašanj	-10.8153
▁kvadratnih	-10.8154
magnetnega	-10.8157
▁izhodišč	-10.8164
▁naselili	-10.8166
▁okras	-10.8167
▁diferencialn	-10.8167
▁kvalitet	-10.8167
▁sredstev	-10.8167
▁wagner	-10.8167
▁ponekod	-10.8167
▁storitve	-10.8167
▁podnebn	-10.8168
▁zasnoval	-10.8168
▁računalniški	-10.8169
▁enajst	-10.8169
▁nos	-10.8172
▁celotna	-10.8177
▁žal	-10.8181
atlantsk	-10.8182
▁hišo	-10.8183
▁neki	-10.8188
▁telesu	-10.8193
rian	-10.8195
▁jak	-10.8203
▁zaplet	-10.8204
▁pogodba	-10.8206
▁prepreči	-10.8218
▁gorica	-10.8221
▁jugovzhodu	-10.8222
▁najstarejša	-10.8222
▁postopki	-10.8223
▁preskus	-10.8223
▁aleksej	-10.8224
▁1912	-10.8225
▁proračun	-10.8225
▁italijanska	-10.8226
▁opere	-10.8228
▁pomenov	-10.8229
▁timur	-10.8231
▁zdravje	-10.8236
pil	-10.8237
▁pic	-10.8238
▁klin	-10.8242
▁napadal	-10.8245
▁razpada	-10.8256
▁medved	-10.8258
▁sončni	-10.8262
▁dober	-10.8263
▁zakonov	-10.8268
▁tehnologije	-10.8268
▁obsegu	-10.8269
▁plosk	-10.8269
▁kant	-10.8272
▁uradnik	-10.8273
▁merjen	-10.8274
▁ločil	-10.8277
▁etimologija	-10.8277
▁navdušen	-10.8277
▁enostavno	-10.8278
▁gnezd	-10.8278
▁los	-10.8278
▁zemeljski	-10.8279
▁opustil	-10.828
▁omeji	-10.828
▁sun	-10.829
▁madžarsko	-10.829
▁polotoku	-10.8299
▁konstantin	-10.8301
dvajset	-10.8304
vse	-10.8304
▁obratno	-10.8307
low	-10.8308
▁steklo	-10.8308
▁ideja	-10.8314
cijske	-10.8318
▁bogato	-10.8327
▁michael	-10.8333
▁avstrijo	-10.8333
▁navzdol	-10.8333
▁okolju	-10.8333
▁edvard	-10.8333
▁anglijo	-10.8333
▁policije	-10.8336
▁gradnje	-10.834
▁trgovine	-10.834
▁znanstvenih	-10.8342
▁pozno	-10.8347
▁posledic	-10.836
▁iger	-10.8369
sir	-10.8371
▁zadeva	-10.8374
▁stopil	-10.8378
▁omogočal	-10.838
▁treb	-10.8384
▁sodobno	-10.8385
▁vzdrževanje	-10.8389
▁svobodo	-10.8389
▁razcvet	-10.8389
▁osvajanj	-10.8389
▁ostanke	-10.8389
▁hidroksid	-10.8389
▁simfonij	-10.8392
▁1925	-10.8393
icami	-10.8398
▁gorska	-10.8398
▁moramo	-10.8401
avto	-10.8401
▁vulkansk	-10.8402
▁skrivnost	-10.8404
▁raje	-10.8406
▁oman	-10.8407
pur	-10.8409
▁razpadu	-10.8412
▁pakt	-10.8414
▁baj	-10.8419
▁množico	-10.842
▁raj	-10.8421
▁ljubi	-10.8432
▁pogojih	-10.8436
▁vloga	-10.8437
▁amon	-10.8438
▁problemov	-10.8442
-7	-10.8443
sky	-10.8445
▁intelektual	-10.8445
▁doktoriral	-10.8445
▁spoznanj	-10.8445
▁kavkaz	-10.8446
▁mnenja	-10.8446
▁bitko	-10.8446
▁morjem	-10.8448
▁faktor	-10.8451
▁galerij	-10.8451
▁imamo	-10.8461
▁gostil	-10.8466
▁sedanje	-10.8472
▁severovzhodu	-10.8478
ogrska	-10.8481
▁gram	-10.8483
▁war	-10.849
600	-10.8495
▁branil	-10.8498
▁desetletjih	-10.8501
▁obrambni	-10.8501
▁rojstva	-10.8501
▁postopku	-10.8501
▁450	-10.8502
▁rommel	-10.8503
▁zdravljenje	-10.8503
▁portugalski	-10.8503
▁1931	-10.8503
▁protokol	-10.8504
▁odločitev	-10.8504
▁vpisal	-10.8505
▁trgovino	-10.8506
kralj	-10.8508
▁sorodnik	-10.851
▁ločeni	-10.851
▁prevladoval	-10.8514
▁virih	-10.8515
▁deževn	-10.8515
▁3000	-10.8516
▁mavri	-10.8517
kristjan	-10.8519
▁napadli	-10.8522
▁zavrača	-10.8527
▁univerz	-10.8529
▁svež	-10.853
▁ozemelj	-10.8536
▁poskuša	-10.8536
▁raf	-10.854
▁marie	-10.8553
▁napadu	-10.8555
▁nizozemski	-10.8558
▁porazdelitev	-10.8558
▁združuje	-10.8558
▁samostojne	-10.8558
▁avtohton	-10.8558
▁datotek	-10.8558
▁1913	-10.8561
▁spodbuja	-10.8564
▁pogoji	-10.8567
▁francozi	-10.857
▁gospodarska	-10.8571
▁obljub	-10.8574
▁prebivalce	-10.8575
▁železni	-10.8576
thumb	-10.8583
▁konstante	-10.8584
▁odkritja	-10.8587
▁zasluge	-10.8594
anda	-10.8599
▁balet	-10.86
▁pobeg	-10.86
▁predavanj	-10.8609
▁turki	-10.8612
▁poštn	-10.8615
▁razglašen	-10.8615
grenadirsk	-10.8615
▁toplota	-10.8616
▁svinca	-10.8616
▁pričakovan	-10.8616
▁nahajališč	-10.8616
dur	-10.8617
145	-10.8618
▁denimo	-10.8618
▁skrbel	-10.8618
▁odhod	-10.862
▁gotovo	-10.8622
onij	-10.8624
▁valovanje	-10.8626
▁prvotni	-10.8634
kazati	-10.8635
▁vidimo	-10.8635
▁krajevni	-10.8639
▁dolžnost	-10.8646
▁namib	-10.8649
▁posebnost	-10.8651
dežel	-10.8655
▁you	-10.8656
▁samostojnost	-10.8667
▁podaja	-10.8667
▁barvo	-10.8669
▁izpod	-10.8671
▁oceanu	-10.8671
▁mussolini	-10.8673
▁svobode	-10.8673
▁železniški	-10.8673
▁prevzem	-10.8673
▁pisave	-10.8674
▁1932	-10.8675
▁povečuje	-10.8675
▁sedanji	-10.8675
▁ustvarjanje	-10.8675
▁atentat	-10.8676
▁1911	-10.8676
▁centralne	-10.8678
ističnih	-10.8679
▁najboljše	-10.8689
▁pravimo	-10.8692
▁dejanje	-10.8698
▁kraljevine	-10.8701
nut	-10.8705
▁cerkveni	-10.8706
▁spodnjem	-10.871
▁atene	-10.8717
▁baltsk	-10.8724
▁narodno	-10.8725
▁barvi	-10.8726
▁črnega	-10.8726
▁hudo	-10.8729
▁sinus	-10.873
world	-10.8731
▁moskovsk	-10.8731
▁zanimanje	-10.8731
▁začimb	-10.8732
▁italijanskih	-10.8733
▁aktivni	-10.8733
▁radijski	-10.8733
▁pianist	-10.8734
▁riž	-10.8735
▁pehotne	-10.8739
▁trgovina	-10.8739
▁dodatk	-10.8741
▁himna	-10.8742
▁okr	-10.8758
▁hil	-10.8759
afrišk	-10.8762
▁vokal	-10.8763
▁spodbudil	-10.8767
▁bistvu	-10.8767
▁bližnjem	-10.877
▁moremo	-10.8773
▁okrepil	-10.8774
▁jezeru	-10.8776
▁egipčani	-10.8778
▁angel	-10.8787
▁absorbira	-10.8789
▁spomladi	-10.8789
▁podjetij	-10.8789
▁preučuje	-10.8789
▁prvenstvo	-10.8789
▁portugalska	-10.8789
▁fašističn	-10.8789
▁francoska	-10.8789
▁narodna	-10.8791
▁kulturnih	-10.8792
▁harmon	-10.8793
▁dandanes	-10.8793
▁prikaz	-10.8798
▁lokalnih	-10.8798
▁zagotovi	-10.8799
▁prihajal	-10.88
tch	-10.88
▁sprosti	-10.88
▁obveščevaln	-10.8807
▁hiši	-10.8807
▁pridruži	-10.8811
▁tekoče	-10.8814
▁blaž	-10.8815
▁ločimo	-10.8816
▁pokop	-10.8817
▁din	-10.8818
črt	-10.882
▁fronta	-10.8827
▁formacij	-10.8833
▁berlinu	-10.8836
▁nudi	-10.8837
▁ekvador	-10.8847
▁matematično	-10.8847
▁neodvisna	-10.8847
▁pedagog	-10.8847
▁poveljeval	-10.8847
▁funkcional	-10.8847
▁špansko	-10.8847
▁zaščiti	-10.8848
▁ogromno	-10.8848
▁oznako	-10.8848
▁vrhunec	-10.8848
▁prizadel	-10.8849
shire	-10.8849
▁kolidž	-10.885
▁zasede	-10.8852
▁redkih	-10.8853
▁gostote	-10.8859
pozitiv	-10.8861
dig	-10.8862
▁pojasnil	-10.8871
joseph	-10.8881
▁uniči	-10.8883
▁pisma	-10.8891
▁zagovarjal	-10.8892
▁sposobnost	-10.8894
▁lovsko	-10.8896
▁valj	-10.8897
▁dolžini	-10.8897
▁severozahodu	-10.8906
▁sodelovanju	-10.8906
▁naselbin	-10.8906
▁strupen	-10.8907
▁švedske	-10.8907
▁prisilil	-10.8907
▁širjenje	-10.8908
▁1982	-10.8909
▁fotograf	-10.891
▁odnosi	-10.8911
▁bizantinski	-10.8911
▁znanstveni	-10.8913
▁jajc	-10.8915
▁pomorski	-10.8916
▁desno	-10.8917
zur	-10.892
▁alfa	-10.8924
▁sreča	-10.8924
šir	-10.8931
▁najboljših	-10.8934
▁spusti	-10.8935
▁zaščiten	-10.8947
▁narodi	-10.8952
▁takih	-10.8953
▁azijo	-10.8954
▁šahovsk	-10.8961
sedaj	-10.8962
▁smučar	-10.8963
▁administrativn	-10.8965
▁frankfurt	-10.8965
▁spoštovan	-10.8965
antarktičn	-10.8965
▁britanci	-10.8965
▁madrid	-10.8965
▁španija	-10.8965
▁objavlja	-10.8965
▁odloča	-10.8966
▁pobudo	-10.8967
▁zopet	-10.8967
▁uveden	-10.8968
▁komite	-10.8968
▁2021	-10.8974
▁mino	-10.8977
▁trdne	-10.8979
▁igro	-10.8986
▁interval	-10.8999
▁samem	-10.9005
▁kulturi	-10.9008
▁sestavil	-10.9014
▁nadaljnji	-10.9018
▁grškega	-10.9019
▁dnu	-10.902
poslan	-10.9022
▁občinski	-10.9023
▁zavezniški	-10.9025
▁odraža	-10.9025
▁obzidje	-10.9026
▁zastava	-10.9026
▁kalif	-10.9026
▁vrača	-10.9026
▁700	-10.9028
žar	-10.9028
▁kapitan	-10.9029
▁smith	-10.9029
▁drevo	-10.9032
▁α	-10.9032
▁aktivnosti	-10.9034
industri	-10.9036
▁povečanje	-10.9037
▁političnega	-10.9041
▁bul	-10.9042
▁akad	-10.9044
▁krajih	-10.9052
5.000	-10.9055
▁modre	-10.9056
▁main	-10.9057
▁pogostost	-10.9065
rusko	-10.9067
▁vmesni	-10.9069
▁andre	-10.9071
▁rudar	-10.9073
▁bogate	-10.9074
▁prizor	-10.9083
▁literarni	-10.9085
▁telefon	-10.9085
▁obsežni	-10.9085
▁zaščitni	-10.9085
▁spodaj	-10.9085
▁ocenjuje	-10.9085
▁ocenjen	-10.9085
▁tvorb	-10.9085
▁odcepi	-10.9086
▁povabil	-10.9086
▁1907	-10.9086
▁predhodni	-10.9087
▁simetrij	-10.9089
▁vladarja	-10.9091
▁odprava	-10.9091
▁japonsko	-10.9092
▁zanimal	-10.9094
▁izhajal	-10.9105
▁uradne	-10.9106
▁360	-10.9111
▁ciklo	-10.9111
▁dolžnosti	-10.9113
▁slovani	-10.9117
▁filozofski	-10.9124
▁vodenje	-10.9126
indoevropsk	-10.9137
▁jugoslavijo	-10.9145
▁samostojna	-10.9145
▁atlantik	-10.9145
▁philip	-10.9145
▁pehotna	-10.9146
▁stefan	-10.9146
▁izumrl	-10.9147
▁mornariške	-10.9147
▁1905	-10.9147
▁otočje	-10.9148
▁kritizira	-10.9148
▁analiza	-10.9149
▁izstopa	-10.9151
hindu	-10.9156
▁camp	-10.9157
▁milj	-10.916
▁zbirko	-10.916
▁tradicije	-10.9168
▁filozofijo	-10.917
▁pont	-10.917
▁obdan	-10.917
▁civilizacije	-10.9173
▁gorivo	-10.9175
▁predal	-10.9177
▁prizadeval	-10.9188
▁avstrijsko	-10.9206
▁algoritem	-10.9206
▁pomanjkanje	-10.9206
▁katoliške	-10.9206
▁tisočletja	-10.9206
▁diamant	-10.9206
▁iskanje	-10.9207
▁1924	-10.9209
▁1926	-10.9209
▁božič	-10.9211
▁gibaln	-10.9216
▁enim	-10.9217
▁očetu	-10.9225
▁trenutku	-10.9236
feld	-10.9244
▁homer	-10.9249
▁prešl	-10.926
▁proto	-10.926
▁kapljevin	-10.9267
▁habsburžan	-10.9267
▁jugoslovanski	-10.9267
▁neodvisni	-10.9267
▁odpotoval	-10.9267
▁avstrije	-10.9267
▁toploto	-10.9267
▁reagira	-10.9267
▁heraklej	-10.9267
▁fronte	-10.9267
▁oprema	-10.9268
▁varovan	-10.9268
▁zasnovan	-10.9268
▁magnetn	-10.9268
▁uredil	-10.927
▁popisu	-10.9272
▁mlin	-10.9274
▁greben	-10.9279
▁kazen	-10.9286
296	-10.9287
▁živega	-10.9289
▁števk	-10.9289
▁zaprl	-10.9294
▁admiral	-10.9297
▁obnovil	-10.9297
linear	-10.93
▁partije	-10.9302
▁goriva	-10.9304
▁posamez	-10.9306
louis	-10.9306
▁raziskovalci	-10.9309
▁irska	-10.9314
▁trgovski	-10.9314
▁veščin	-10.9316
▁izboljša	-10.9319
▁podeli	-10.932
▁—	-10.932
...)	-10.9321
▁protiletalsk	-10.9328
▁razporejen	-10.9328
▁španije	-10.9328
▁dovolil	-10.9328
▁stabilnost	-10.9329
▁neviht	-10.9329
▁1908	-10.933
▁1977	-10.933
▁1978	-10.9331
▁načrtoval	-10.9331
▁sovražnikov	-10.9337
▁psiholog	-10.9339
▁strog	-10.9344
row	-10.9348
▁230	-10.9349
▁starem	-10.9349
▁astronomske	-10.9353
▁znal	-10.9353
▁nizke	-10.9354
▁izjavil	-10.936
▁jack	-10.9364
lyn	-10.9365
▁modri	-10.9385
▁dihal	-10.9386
▁magnetni	-10.9389
▁jugoslavija	-10.939
▁osončja	-10.939
▁predsednišk	-10.939
▁katoliški	-10.939
▁patriarh	-10.939
▁templja	-10.939
▁industrijo	-10.939
▁kampanj	-10.9391
▁akademsk	-10.9391
▁ležijo	-10.9392
▁porazu	-10.9392
▁oskar	-10.9393
▁wilson	-10.9394
▁osnovo	-10.9396
▁pojmov	-10.9397
▁popolni	-10.9397
▁manjšo	-10.9399
▁teže	-10.941
▁ruska	-10.942
▁zmaj	-10.9421
▁italijani	-10.9424
▁zeleni	-10.9429
risto	-10.9435
formacij	-10.9443
▁kraljevina	-10.9444
▁površja	-10.9452
▁ljudmi	-10.9452
▁organizmi	-10.9452
▁povezoval	-10.9452
▁mehanike	-10.9452
▁izražen	-10.9452
▁začetko	-10.9452
▁ernst	-10.9452
▁obrnjen	-10.9452
▁zmagi	-10.9454
▁rešitve	-10.9455
▁sestavo	-10.9456
▁templje	-10.9456
▁podeželsk	-10.9459
▁kubičn	-10.9459
▁izkoristil	-10.9461
oseb	-10.9463
▁sledeč	-10.9466
▁prepovedal	-10.947
▁nasprotni	-10.9471
▁premic	-10.9473
ević	-10.9474
▁delovne	-10.9474
▁baker	-10.9474
▁zniža	-10.9475
▁čut	-10.9476
▁družbeno	-10.9484
▁britanskega	-10.9492
μ	-10.9492
▁specializira	-10.9493
kvadr	-10.9498
▁kamniti	-10.9502
▁pokrit	-10.9502
▁tretjega	-10.9504
▁heinrich	-10.9514
▁domnevno	-10.9514
▁srednjeveške	-10.9514
▁oznake	-10.9515
▁zbran	-10.9515
▁ernest	-10.9515
▁surovin	-10.9516
▁pomembnejši	-10.9519
▁mnenje	-10.9519
rič	-10.9521
▁poznejši	-10.9523
▁marinsk	-10.9525
▁johannes	-10.9528
▁step	-10.9544
▁priključen	-10.9545
drom	-10.9551
lub	-10.9554
jevim	-10.9561
▁komaj	-10.9562
▁večjega	-10.9565
▁geografske	-10.9565
lá	-10.9568
▁kraljem	-10.9569
▁potuje	-10.9577
▁jugovzhodni	-10.9577
▁mrtvih	-10.9577
▁vakuum	-10.9577
▁šibke	-10.9577
glu	-10.9579
▁tedanje	-10.9579
ukrajinsk	-10.958
▁stric	-10.958
▁mišljen	-10.958
▁kemične	-10.9581
▁povedal	-10.9584
▁povzročajo	-10.9587
▁tisk	-10.9588
▁likov	-10.9593
▁pesnišk	-10.9604
▁vladarji	-10.9607
benešk	-10.9608
▁kompo	-10.9609
▁karlov	-10.9613
▁mach	-10.9614
▁razmišlja	-10.9621
▁sekundarn	-10.9627
▁njihovem	-10.9627
▁človekove	-10.9636
▁dejansk	-10.9637
▁sodijo	-10.964
▁prešernov	-10.964
▁ugotavlja	-10.964
▁uveljavljen	-10.964
▁uvedli	-10.964
▁režiser	-10.964
▁teoretično	-10.9641
▁palače	-10.9642
▁muslimani	-10.9642
▁izbris	-10.9644
▁zalivu	-10.9645
▁turk	-10.9646
▁ustanovitve	-10.9646
town	-10.9646
▁češko	-10.9649
192	-10.965
▁zakaj	-10.9652
▁hitri	-10.9654
▁masiv	-10.9657
▁popolne	-10.9668
▁haiti	-10.9674
▁alpin	-10.9684
▁izjema	-10.9693
▁hip	-10.9702
▁preživlja	-10.9704
▁zaznamoval	-10.9704
▁enakomerno	-10.9704
▁spodnja	-10.9704
▁naklonjen	-10.9704
▁potrjen	-10.9705
▁char	-10.9707
▁odigral	-10.9708
▁težki	-10.9709
▁jadran	-10.9709
mongol	-10.971
▁vpeljal	-10.971
▁mejni	-10.9719
▁video	-10.9719
▁psi	-10.9729
▁centri	-10.973
▁poročal	-10.9732
▁beton	-10.9739
▁razdeli	-10.9743
▁turški	-10.9748
▁podobnih	-10.9758
▁pripadal	-10.9758
▁tekmoval	-10.9768
▁jugozahodu	-10.9768
▁župnij	-10.9768
▁obsežno	-10.9768
▁švedska	-10.9768
sanskrt	-10.9768
▁izvidnišk	-10.9769
makedonsk	-10.9769
▁jacob	-10.9769
▁prinesel	-10.9769
▁radikal	-10.9772
▁takšen	-10.9773
▁tistim	-10.9774
▁alžir	-10.9774
▁daniel	-10.9774
tsch	-10.9779
▁zapišemo	-10.9784
▁revije	-10.9785
rup	-10.9801
▁krajevn	-10.9807
▁teži	-10.9811
▁hav	-10.9811
▁socialne	-10.9812
▁bojan	-10.9815
▁razmerja	-10.9817
▁izvirajo	-10.9819
_5	-10.9823
gruzijsk	-10.9825
▁rub	-10.9828
scen	-10.9829
▁jadransk	-10.9831
▁najpogostejši	-10.9833
▁britanija	-10.9833
▁ljubljane	-10.9833
▁posredovan	-10.9833
▁ukinjen	-10.9833
▁pridobljen	-10.9833
▁mogli	-10.9833
▁porekla	-10.9833
▁oddelka	-10.9833
▁morebitn	-10.9834
▁divji	-10.9837
▁jezuit	-10.9838
▁medalja	-10.9839
▁vrtiln	-10.9844
▁zbiral	-10.9847
▁stanovanj	-10.9853
299	-10.9855
▁judovski	-10.9855
andra	-10.9861
▁izhajajo	-10.9867
▁konstrukt	-10.9874
▁odlok	-10.9875
▁dobra	-10.9877
rá	-10.9886
▁madžarskem	-10.9891
▁argument	-10.9898
▁zmogljiv	-10.9898
▁tople	-10.9898
▁električna	-10.9898
▁stez	-10.99
▁izgled	-10.99
▁kroži	-10.9902
▁nepal	-10.991
▁češki	-10.9911
▁korejsk	-10.9914
▁blaga	-10.9921
▁vege	-10.9921
▁čelu	-10.9931
izaciji	-10.9931
▁veteran	-10.9936
▁zahodna	-10.9937
snežn	-10.995
opera	-10.9952
▁navajajo	-10.9955
▁...)	-10.9958
▁francoskega	-10.9958
sklad	-10.9959
▁revoluciji	-10.9963
▁jazz	-10.9965
▁tito	-10.9966
▁padcu	-10.9966
▁kolobar	-10.9966
▁obdaja	-10.9967
▁gorovje	-10.9967
▁trajno	-10.9973
▁skladateljev	-10.9976
▁prosil	-10.998
lovska	-10.9982
▁pomorske	-10.9985
▁μ	-10.9986
▁veje	-10.9987
▁žalost	-10.9988
▁prizorišč	-10.9989
▁strogo	-10.9997
237	-10.9999
▁pojavijo	-11.0013
▁otto	-11.0017
▁sedežem	-11.0027
250	-11.0028
▁nizozemska	-11.0029
▁sprejme	-11.0029
▁orkestra	-11.0029
▁odplul	-11.0029
▁zasedla	-11.0029
▁vzhodna	-11.0029
▁težke	-11.0029
▁avtobus	-11.003
▁operator	-11.0033
355	-11.0037
▁izhod	-11.004
▁grška	-11.0041
▁izsev	-11.0046
▁silicij	-11.0048
sibirsk	-11.0054
▁arheologi	-11.006
▁rajh	-11.0062
lly	-11.007
▁afro	-11.0071
▁newtonov	-11.0071
▁materialov	-11.0072
▁nosijo	-11.009
▁alternativ	-11.0095
▁poškodovan	-11.0095
▁preoblikovan	-11.0095
▁skandinav	-11.0095
▁tranzistor	-11.0095
▁razsvetljen	-11.0095
▁razpolovn	-11.0095
▁doktrin	-11.0095
▁vpleten	-11.0095
▁bizantinsko	-11.0095
▁medicine	-11.0095
▁potomci	-11.0096
▁rahlo	-11.0096
▁1906	-11.0097
▁potekajo	-11.01
škodljiv	-11.01
▁srbski	-11.0102
▁harry	-11.0103
▁mediji	-11.0103
▁prebivalca	-11.0106
▁razumevanje	-11.0107
▁socialni	-11.0112
▁bitke	-11.0115
gorje	-11.0136
▁naraščajoč	-11.0136
▁kristjani	-11.0143
oslovje	-11.0146
▁odpira	-11.0154
▁kvadratni	-11.0157
▁južnega	-11.0159
▁časovni	-11.0161
▁britanije	-11.0162
▁deklaracij	-11.0162
▁obrambne	-11.0162
▁izumitelj	-11.0162
▁obsojen	-11.0162
▁znanega	-11.0162
▁norveške	-11.0162
▁strinjal	-11.0162
▁pozitivno	-11.0162
▁štetja	-11.0162
▁obrnil	-11.0162
▁anglež	-11.0162
▁izloča	-11.0163
▁registr	-11.0163
▁operacijski	-11.0164
▁odpravo	-11.0164
▁utrdil	-11.0165
▁genov	-11.0174
▁precejšnj	-11.0177
▁afriški	-11.0182
▁by	-11.0184
kakšen	-11.0184
urs	-11.0189
▁človeškega	-11.0193
▁unesco	-11.0193
▁izbira	-11.0199
▁trgovci	-11.02
ogrski	-11.0224
▁krščanstva	-11.0229
▁omrežje	-11.0229
▁ljubljano	-11.0229
▁rojstvu	-11.0229
▁tisočletje	-11.0229
▁recept	-11.0229
▁upravljanje	-11.023
▁pripravi	-11.023
▁redki	-11.0234
▁slovar	-11.0237
▁tvegan	-11.0237
▁razglasi	-11.0239
▁teolog	-11.0244
prevod	-11.0246
▁vodstvo	-11.0252
▁marinske	-11.0257
▁bay	-11.0258
▁bogata	-11.0268
ljanje	-11.0278
800	-11.0283
▁comp	-11.0288
▁dvojni	-11.0289
▁celine	-11.0294
plin	-11.0295
ç	-11.0296
▁izobražen	-11.0296
▁obkroža	-11.0296
▁kontekst	-11.0296
▁uradna	-11.0298
▁judje	-11.0298
▁nekdaj	-11.0298
▁razcep	-11.0299
▁karavan	-11.0299
▁jedrsko	-11.0302
sburg	-11.0302
▁zvrsti	-11.0302
▁ujetnik	-11.0304
▁osvobodil	-11.0306
▁gradnji	-11.0307
▁postajal	-11.0307
▁češka	-11.0311
▁ravne	-11.032
▁eulerjev	-11.0321
▁padla	-11.0322
▁opisujejo	-11.0322
nemško	-11.0346
▁morsko	-11.0348
▁mladinsk	-11.0349
oznaka	-11.0349
rí	-11.035
▁astronomski	-11.0358
▁1895	-11.0363
▁termodinamsk	-11.0364
▁opozoril	-11.0364
▁znanstvena	-11.0364
▁značilen	-11.0364
▁konstantinopel	-11.0364
▁moskvi	-11.0364
▁geometrije	-11.0364
▁dokončan	-11.0364
▁konfucij	-11.0364
▁ustrezni	-11.0365
▁obsodil	-11.0365
▁razvije	-11.0365
▁maksim	-11.0365
▁mednarodnem	-11.0366
▁omejuje	-11.0366
▁razdelitev	-11.0367
▁cesarjev	-11.037
▁pripadajo	-11.0373
▁preimenovan	-11.0374
▁delitelj	-11.0375
▁lir	-11.0379
▁ruš	-11.0386
▁flam	-11.0387
▁diana	-11.0388
▁izvajajo	-11.0392
▁teden	-11.0394
▁bell	-11.0404
zvočn	-11.0409
▁sabo	-11.0411
▁trgovske	-11.0416
▁ehnaton	-11.0433
▁označeval	-11.0433
▁podčastnik	-11.0433
▁poveljstva	-11.0433
▁odgovarja	-11.0433
▁najmlajš	-11.0433
▁sodelovanja	-11.0433
▁kilogram	-11.0433
▁začetne	-11.0433
▁fronti	-11.0434
▁bernard	-11.0434
▁brown	-11.0435
▁uporabno	-11.0435
▁bitja	-11.0437
▁starodavni	-11.0448
▁otošk	-11.0448
▁bolnik	-11.0449
▁hčerko	-11.045
▁vitez	-11.045
▁volk	-11.0451
▁skalar	-11.0452
▁vetra	-11.0455
▁organski	-11.046
▁razpon	-11.0462
▁cirk	-11.0462
▁štejemo	-11.0463
▁teb	-11.0464
misli	-11.0467
▁vladarjev	-11.0477
▁interpretacij	-11.0502
▁neodvisne	-11.0502
▁afriko	-11.0502
▁ustvarjen	-11.0502
▁zaposlil	-11.0502
▁okrašen	-11.0502
▁petnajst	-11.0502
▁preučevanje	-11.0502
▁ekstrem	-11.0502
▁zgornja	-11.0502
▁cesarski	-11.0502
▁izdelkov	-11.0502
▁švedski	-11.0502
▁dipol	-11.0502
▁prekinil	-11.0503
▁plečnik	-11.0504
▁alojz	-11.0504
▁zapornik	-11.0504
▁sladkorn	-11.0505
▁ocene	-11.0506
▁petrov	-11.0509
▁bazen	-11.0517
▁običajni	-11.0518
▁arabsko	-11.052
▁splav	-11.0521
▁usposabljanje	-11.0522
▁prevladujejo	-11.0537
▁stanj	-11.0542
▁krajevne	-11.0546
▁primerjal	-11.0555
▁hranil	-11.0558
▁trdno	-11.0566
▁bern	-11.0568
▁oddaljenost	-11.0568
▁besedilih	-11.0569
▁euro	-11.057
uniform	-11.057
▁dokončal	-11.0571
▁začetki	-11.0571
▁sarajevo	-11.0571
▁nakazuje	-11.0571
▁alexander	-11.0572
▁victor	-11.0572
▁vgrajen	-11.0572
▁pisar	-11.0572
▁izginil	-11.0573
▁vzporedno	-11.0575
▁podrobnosti	-11.0575
▁ledene	-11.0577
▁trdnost	-11.0581
▁uvoz	-11.0584
▁natančneje	-11.059
▁geografski	-11.0596
▁državljanov	-11.0596
▁letalske	-11.0597
stveni	-11.0597
▁bron	-11.0598
▁množično	-11.0602
▁izvirni	-11.0619
▁long	-11.062
137	-11.0625
▁obravnaval	-11.064
▁aminokislin	-11.0641
▁britaniji	-11.0641
▁katastrof	-11.0641
▁štefan	-11.0641
▁adolf	-11.0641
▁josé	-11.0642
▁zasebne	-11.0644
▁nevro	-11.0646
▁delavnic	-11.0646
jujejo	-11.0647
▁risb	-11.066
▁izloči	-11.0662
▁brit	-11.0668
▁bankovc	-11.0675
▁cink	-11.0676
▁natančne	-11.0696
trg	-11.0701
nščina	-11.0702
▁zimski	-11.0708
▁vzhodnega	-11.071
▁ludwig	-11.0712
▁preizkus	-11.0712
▁zabeležen	-11.0712
▁izgovarja	-11.0712
▁ramzes	-11.0712
▁opravljen	-11.0712
▁odvisen	-11.0712
▁kepler	-11.0712
▁kariero	-11.0712
▁erevan	-11.0712
▁1904	-11.0713
▁policijske	-11.0714
▁mig	-11.0714
▁dvignil	-11.0719
▁valovanja	-11.072
▁kristaln	-11.0728
▁raba	-11.0735
▁zaslon	-11.0738
▁komunistični	-11.074
▁vzorce	-11.0742
angel	-11.075
▁svetlobni	-11.0751
▁herman	-11.0776
▁cent	-11.0777
▁onesnažen	-11.0783
▁ministrstva	-11.0783
▁praznovanj	-11.0783
▁žrtve	-11.0783
▁prisotni	-11.0783
▁svinčev	-11.0783
▁valentin	-11.0783
▁oddelek	-11.0783
▁1890	-11.0785
▁1903	-11.0785
▁črpa	-11.0785
imenovan	-11.0786
▁bombaž	-11.0787
▁božje	-11.0787
▁polkovnik	-11.0787
▁človekovih	-11.079
▁spretn	-11.079
▁poglavar	-11.0791
▁izmeril	-11.0791
▁izotopov	-11.0796
▁zunanjega	-11.0797
▁olimpijske	-11.0801
▁oliv	-11.0805
▁dajal	-11.0806
▁foton	-11.0825
▁koroškem	-11.0826
▁dlje	-11.083
▁trikrat	-11.0834
▁uvod	-11.0835
▁filmski	-11.0839
▁krajši	-11.0839
▁umetno	-11.0842
▁original	-11.0854
rodnoosvobodiln	-11.0854
▁okrožij	-11.0854
▁raznolikost	-11.0854
▁zaporedja	-11.0854
▁posveča	-11.0854
▁srbije	-11.0854
▁pluton	-11.0854
▁okolico	-11.0862
▁pozitivni	-11.0863
rick	-11.0866
▁220	-11.0867
▁čutil	-11.087
▁versko	-11.0872
▁menijo	-11.0881
▁opek	-11.0889
▁unescov	-11.0892
▁poroča	-11.0895
razen	-11.0896
nčič	-11.09
▁ognjenik	-11.0901
▁preide	-11.0901
▁miha	-11.0902
▁hongkong	-11.0926
▁mitraljez	-11.0926
▁maščob	-11.0926
▁reševanje	-11.0926
▁dejstva	-11.0926
▁premaga	-11.0928
▁plemišk	-11.0928
▁podeljuje	-11.0929
▁preplet	-11.093
▁vzporedni	-11.0936
▁geografsko	-11.0946
▁razmišljanj	-11.0948
▁krona	-11.0949
▁plašč	-11.0965
▁industrijske	-11.0965
▁topnišk	-11.0966
▁krši	-11.0971
▁podpisan	-11.0973
▁zadnjega	-11.0974
▁fazi	-11.0977
▁prisiln	-11.0983
▁enakost	-11.0983
▁1850	-11.0996
▁klinopis	-11.0998
▁afrika	-11.0998
▁tektonsk	-11.0999
▁gaulle	-11.0999
▁odrasli	-11.0999
▁izdelki	-11.1
▁zadnjo	-11.1
▁naletel	-11.1003
▁začetnik	-11.1006
▁upravi	-11.1007
▁zahodnega	-11.1008
▁desant	-11.1014
▁prevodnost	-11.1015
▁zaporednih	-11.1018
▁ujema	-11.1019
▁odgovornost	-11.102
▁svetnik	-11.1021
▁zaslug	-11.1028
▁mačk	-11.1029
▁georges	-11.1034
▁zasedel	-11.1036
255	-11.1052
sint	-11.1057
▁1870	-11.1067
▁bližin	-11.1068
▁presek	-11.1068
▁razpored	-11.107
▁ljudem	-11.1071
▁prilagojen	-11.1071
▁suverenost	-11.1071
▁zmanjšuje	-11.1071
▁jaroslav	-11.1071
▁navzgor	-11.1071
▁dogodke	-11.1071
▁napredek	-11.1072
▁poročen	-11.1072
▁terorističn	-11.1072
▁kariera	-11.1072
▁orodje	-11.1074
▁watt	-11.1077
▁mornarica	-11.1078
▁pragi	-11.1078
▁monarhije	-11.1081
▁najdišč	-11.1081
▁učinkovitost	-11.1084
▁boljši	-11.1089
▁tekstil	-11.1089
▁krajše	-11.109
▁prepričanje	-11.109
▁šahovske	-11.1093
rman	-11.1094
▁razlikoval	-11.1094
▁dobesedno	-11.1097
▁revija	-11.1113
▁trgovinsk	-11.112
▁umetniške	-11.112
_6	-11.1122
▁izračunal	-11.1125
▁vrstic	-11.1126
▁nevtronov	-11.1128
predvsem	-11.1134
xxii	-11.1138
▁osamosvojitvi	-11.1145
▁psevdo	-11.1145
▁akademija	-11.1145
▁stoletij	-11.1145
kalifornija	-11.1145
▁metropolitansk	-11.1145
▁sprošča	-11.1145
▁mozart	-11.1145
▁ogroža	-11.1145
itorial	-11.1146
▁klasično	-11.1146
▁odpeljal	-11.1147
▁1901	-11.1148
▁sodobnega	-11.1148
šteti	-11.1148
▁pehotni	-11.1148
▁turistov	-11.115
▁nadzoroval	-11.115
▁geolog	-11.1151
večer	-11.1156
▁1800	-11.1163
▁književn	-11.1163
▁železnic	-11.1165
▁srbske	-11.1167
brahma	-11.117
▁pismu	-11.1173
xviii	-11.1177
▁dneva	-11.1181
▁japon	-11.1184
▁dnevi	-11.1185
▁zgodi	-11.119
▁naravnega	-11.1193
▁rabo	-11.1203
▁20.000	-11.1204
special	-11.1207
avstr	-11.1209
▁okupator	-11.1219
▁benjamin	-11.1219
▁razloži	-11.1219
▁suženj	-11.1219
▁vladajoč	-11.1221
▁gaussov	-11.1222
▁atlantski	-11.1224
▁jedrska	-11.1226
orum	-11.1229
▁sliki	-11.1232
jočim	-11.1232
kratica	-11.1237
▁zbirke	-11.1238
▁meritev	-11.1245
▁porazil	-11.1249
▁litij	-11.1258
kovič	-11.1272
▁astronomska	-11.1282
▁spušča	-11.1286
▁spodbujal	-11.1286
trans	-11.1293
▁doživlja	-11.1294
▁letalonosilk	-11.1294
▁literature	-11.1294
▁nekakšn	-11.1294
▁osamosvojitve	-11.1294
▁uspešen	-11.1294
▁istoimensk	-11.1294
▁obzidja	-11.1294
▁pitagor	-11.1294
▁trinajst	-11.1294
▁metropol	-11.1294
▁izčrpa	-11.1294
▁nagrajen	-11.1294
▁cestni	-11.1294
▁povsod	-11.1294
οσ	-11.1294
▁saturn	-11.1294
ische	-11.1295
▁gledališča	-11.1296
▁vroče	-11.1297
▁združitev	-11.1298
▁muslimanski	-11.1298
▁upravičen	-11.1303
▁slep	-11.1303
▁molekularn	-11.131
▁učenec	-11.131
▁primarni	-11.1311
_10	-11.1326
▁bojevanje	-11.1327
lerjev	-11.1328
▁nosilci	-11.1329
▁marjan	-11.1332
▁tisto	-11.1333
▁potenc	-11.1351
▁1849	-11.1352
▁antične	-11.1356
700	-11.1358
papešk	-11.1362
▁organizmov	-11.1369
▁zunanjo	-11.1369
▁leopold	-11.1369
▁prevedel	-11.1369
▁negativni	-11.1369
▁hektar	-11.137
▁kopnem	-11.137
▁kopernik	-11.1371
▁zmage	-11.1371
▁1909	-11.1371
▁multi	-11.1372
▁kovač	-11.1373
▁papežev	-11.1373
▁ploščic	-11.1375
▁teorij	-11.1377
▁turnir	-11.1379
sopran	-11.1387
▁kupil	-11.1389
▁graditi	-11.1394
▁major	-11.1395
▁srce	-11.1397
▁eric	-11.1419
▁prejšnje	-11.1424
▁1880	-11.1431
▁absorpcij	-11.1445
▁zdravstvene	-11.1445
▁osemdesetih	-11.1445
▁dimenzij	-11.1445
▁reševal	-11.1445
▁pristojnosti	-11.1446
▁notranja	-11.1446
▁begunce	-11.1446
▁dnevnik	-11.1451
▁podeljen	-11.1451
▁vidni	-11.1452
▁naselil	-11.1454
▁dalí	-11.1456
put	-11.1466
▁kraljica	-11.1471
clav	-11.1473
▁uveljavi	-11.1477
▁pojasni	-11.149
▁programski	-11.151
republika	-11.1513
▁pritlikavk	-11.1521
▁vzdevek	-11.1521
▁fosfor	-11.1521
▁skrajnem	-11.1521
▁oziris	-11.1521
▁stališče	-11.1521
▁podpore	-11.1522
▁ločeno	-11.1522
▁omemb	-11.1522
▁obarvan	-11.1523
▁proizvodnji	-11.1524
▁ponoči	-11.1525
hip	-11.1532
▁lotil	-11.1534
▁žil	-11.1537
grafije	-11.1545
▁mandel	-11.1554
▁razvijati	-11.1558
ridge	-11.1562
▁beat	-11.1569
▁člankov	-11.1571
▁namaka	-11.1574
▁dodan	-11.158
▁mok	-11.1583
▁giovanni	-11.1598
▁ministrstvo	-11.1598
▁generalštab	-11.1598
▁ustrezno	-11.1598
▁kriminal	-11.1598
▁preprečevanj	-11.1598
▁poražen	-11.1598
▁napačno	-11.1598
▁arhitekturni	-11.1599
▁ploskev	-11.1603
▁neenak	-11.1604
▁naučil	-11.1606
enot	-11.1608
▁topli	-11.161
▁butan	-11.1619
▁zaščite	-11.1622
arch	-11.1629
▁spominsk	-11.164
▁učenje	-11.164
polar	-11.1649
▁drugje	-11.1651
▁prazni	-11.166
▁sodobnik	-11.1674
▁gravitacijske	-11.1675
▁nasproti	-11.1675
▁obdobjih	-11.1675
▁svobodne	-11.1675
▁osvajal	-11.1675
▁pospešek	-11.1675
▁razširja	-11.1675
▁melodij	-11.1676
▁kriterij	-11.1676
▁napake	-11.1677
▁razmerah	-11.1683
▁budizem	-11.1684
▁trditev	-11.1685
▁pavla	-11.1686
▁stabilni	-11.1688
polis	-11.1689
▁daljši	-11.1692
▁zameno	-11.1694
▁sovjet	-11.1695
▁podoba	-11.17
▁matej	-11.1704
▁osmansko	-11.1705
▁trgovsko	-11.1715
▁koreja	-11.1723
▁paleo	-11.1726
ór	-11.174
▁specialni	-11.1742
▁oceni	-11.1742
▁islamske	-11.1747
▁pooblastil	-11.1753
▁stoletjih	-11.1753
▁svobodno	-11.1753
▁astrofizik	-11.1753
▁britanijo	-11.1753
▁pigment	-11.1753
▁college	-11.1754
▁scott	-11.1754
▁pionir	-11.1754
▁sfrj	-11.1754
▁bruselj	-11.1754
▁škodo	-11.1754
▁pripadnost	-11.1754
▁zssr	-11.1754
▁aritmetičn	-11.1755
▁švicarski	-11.1755
▁oltar	-11.1756
▁zoper	-11.1761
▁klemen	-11.1761
▁uprl	-11.1763
▁novejše	-11.1763
▁hoče	-11.1766
▁končne	-11.1768
▁letalstvo	-11.1768
▁grafičn	-11.1771
▁dragocen	-11.1771
▁krizo	-11.1775
▁nadaljnj	-11.1778
▁tesla	-11.1782
▁raziskovalec	-11.1783
▁irašk	-11.1786
▁širil	-11.1791
ežejo	-11.1793
▁planetarn	-11.1794
▁zaveza	-11.1797
▁1868	-11.1799
▁turistični	-11.1802
−	-11.1802
▁strojev	-11.1811
▁mislil	-11.1812
▁temeljni	-11.1816
▁helenističn	-11.182
formula	-11.1827
▁poslušal	-11.1829
▁vlaga	-11.1831
▁hidroelektrarn	-11.1832
▁ljudstev	-11.1832
▁preostanek	-11.1832
infrardeč	-11.1832
▁perzijci	-11.1832
▁arhitekturo	-11.1832
▁sediment	-11.1833
▁ločena	-11.1833
▁plezal	-11.1834
▁razvrsti	-11.1835
▁mitologije	-11.1836
▁dopolnil	-11.1836
▁jolie	-11.1846
▁stebri	-11.1847
▁potnikov	-11.1849
▁365	-11.185
▁izboljšav	-11.186
▁nakup	-11.1863
▁nadomesti	-11.1864
▁zmerno	-11.1872
▁notranjo	-11.19
▁optik	-11.1902
▁koncentracijsk	-11.1904
▁prispevek	-11.1912
▁veroizpoved	-11.1912
▁zgodovinska	-11.1912
▁akademijo	-11.1912
▁argentinsk	-11.1912
▁odsotnost	-11.1912
▁uspešne	-11.1912
▁formule	-11.1912
▁ukinil	-11.1912
▁christian	-11.1912
▁klasična	-11.1913
mednarodnega	-11.1913
▁božanstvo	-11.1913
▁obletnic	-11.1916
▁potnišk	-11.1917
▁izdeluje	-11.1928
▁ključni	-11.193
▁delil	-11.1932
▁meritve	-11.1934
▁venera	-11.1935
▁sneg	-11.1938
▁spin	-11.1939
▁save	-11.1951
▁arabci	-11.1953
▁900	-11.1953
▁hude	-11.1955
▁gradec	-11.1955
▁480	-11.1957
▁balkansk	-11.1974
klasifikacij	-11.199
▁diktatur	-11.1992
▁jugovzhodne	-11.1992
▁upodablja	-11.1992
▁šestnajst	-11.1992
▁pištol	-11.1992
▁grčije	-11.1992
▁nameraval	-11.1992
▁kemično	-11.1992
▁usmerja	-11.1992
▁maxwell	-11.1992
▁wolf	-11.1992
▁zasebno	-11.1993
▁centralni	-11.1995
▁nadarjen	-11.1998
▁sarat	-11.1998
▁kranjske	-11.1999
▁suhi	-11.2002
▁ikon	-11.2003
▁okoliščin	-11.2003
▁zemeljskega	-11.201
▁koncem	-11.2016
▁avtorji	-11.2035
▁indijo	-11.2044
▁odstopil	-11.2047
▁odmev	-11.2048
kanadsk	-11.2057
▁kanon	-11.2061
▁izoblikoval	-11.2072
▁komandant	-11.2072
▁zračnoprevozn	-11.2072
▁postojank	-11.2072
▁ureditve	-11.2072
▁izogib	-11.2072
▁mehaniki	-11.2073
▁olajša	-11.2073
▁palačo	-11.2073
▁nastanjen	-11.2074
iformes	-11.2081
▁priprava	-11.2082
▁judovske	-11.2084
▁odklon	-11.2087
▁bogastvo	-11.209
▁5000	-11.2093
▁gibanj	-11.2098
roman	-11.2099
▁filozofija	-11.2107
religio	-11.2114
▁dedič	-11.2116
▁dolžin	-11.2117
rgel	-11.2127
▁kanton	-11.2131
▁delovni	-11.2132
▁1889	-11.2141
▁kontinent	-11.2153
▁preprečuje	-11.2154
▁devetdesetih	-11.2154
▁ameriko	-11.2154
▁avtoritet	-11.2154
▁subjekt	-11.2156
▁policist	-11.2156
▁strokovni	-11.2157
▁nagnjen	-11.2158
▁herbert	-11.2159
▁navodil	-11.2161
▁zaklad	-11.2162
▁najmanjši	-11.2162
▁preveden	-11.2163
▁držal	-11.2163
▁hermes	-11.2164
kraljev	-11.2165
▁izziv	-11.2179
▁lož	-11.2196
▁titanic	-11.2203
▁viden	-11.2209
▁simbolizira	-11.2223
▁poziv	-11.2223
147	-11.2231
▁1898	-11.2232
▁gimnaziji	-11.2235
▁spektroskop	-11.2235
▁preostale	-11.2236
▁sklenjen	-11.2236
▁pakistan	-11.2236
▁orodja	-11.2236
▁srbov	-11.2237
▁težnost	-11.2241
▁predaval	-11.2244
▁krone	-11.2248
▁ocenil	-11.2261
gant	-11.2275
▁godal	-11.2284
▁egipčanske	-11.2286
▁edine	-11.2289
▁čiste	-11.229
▁force	-11.2291
▁glave	-11.2292
▁esej	-11.2296
▁hill	-11.2307
▁osemnajst	-11.2318
▁hrvatov	-11.2318
▁nemogoč	-11.2318
▁štirinajst	-11.2318
▁tkanin	-11.2319
▁templji	-11.2319
pristajaln	-11.2319
ст	-11.2319
▁težka	-11.2319
▁ljubitelj	-11.232
▁tablic	-11.232
▁alex	-11.2321
▁indijsk	-11.2322
▁izmeničn	-11.2325
▁medalje	-11.2326
▁poznih	-11.2327
wan	-11.2333
▁urah	-11.2334
▁mnogokrat	-11.2338
▁prebiva	-11.2338
▁vnuk	-11.2339
▁uvrščamo	-11.2347
▁močnim	-11.2347
▁faze	-11.2352
▁klorid	-11.2352
▁polarni	-11.2374
▁1896	-11.2386
▁teža	-11.2392
▁širjenj	-11.24
▁jacques	-11.2401
▁posploši	-11.2401
▁pripomogl	-11.2401
▁engels	-11.2402
▁enostavne	-11.2402
▁izmišljen	-11.2402
▁delavci	-11.2402
▁lewis	-11.2402
▁gradivo	-11.2403
▁ciklu	-11.2403
▁ločuje	-11.2403
▁oporišč	-11.2403
▁oksidacijsk	-11.2403
▁pravokotni	-11.2404
▁srbija	-11.2405
▁željo	-11.2406
vleče	-11.2406
▁proučevan	-11.2411
▁najmanjše	-11.2411
▁mešanica	-11.2423
▁vazal	-11.2426
▁mihail	-11.2439
ameriški	-11.2467
▁emb	-11.2469
▁potrdi	-11.247
▁strmoglav	-11.2486
▁izkopavanj	-11.2486
▁turčije	-11.2486
▁aksiom	-11.2486
▁teritorialne	-11.2486
▁planote	-11.2486
▁international	-11.2487
▁boginje	-11.2487
▁verovanj	-11.2491
▁spekter	-11.2492
▁določitev	-11.2495
▁humanist	-11.2495
▁aluminijev	-11.25
229	-11.2505
▁nadaljevanje	-11.2506
▁sudan	-11.2506
▁kripto	-11.2513
slovensko	-11.2516
▁gradben	-11.2551
▁združitvi	-11.2557
bombnišk	-11.2566
▁nizozemsko	-11.257
▁radioaktivni	-11.257
▁tbilisi	-11.257
▁windows	-11.257
▁mehanizem	-11.257
▁španijo	-11.257
▁pritegnil	-11.257
▁prizadet	-11.257
▁obramba	-11.257
▁posadke	-11.257
▁zaprosil	-11.257
▁turčija	-11.257
▁paket	-11.257
▁ponudb	-11.257
zgodovina	-11.2571
▁zavzemal	-11.2571
▁dušan	-11.2572
▁ladji	-11.2572
▁slovanov	-11.2572
▁stekleni	-11.2573
▁lahka	-11.2574
▁armenski	-11.2574
▁omejitev	-11.2574
▁umetniško	-11.2577
▁zimske	-11.2578
blanc	-11.258
▁2022	-11.2582
▁enlil	-11.2584
▁kraljice	-11.2589
▁njihovim	-11.2594
▁mihael	-11.2594
▁užival	-11.2595
▁ročno	-11.2599
▁pripoveduje	-11.2605
▁bled	-11.2606
▁preboj	-11.263
▁1881	-11.2631
▁množični	-11.2634
▁računanje	-11.2643
▁praznuje	-11.2656
▁moskva	-11.2656
▁habitat	-11.2656
▁nepravilno	-11.2656
▁posadko	-11.2656
▁konferenci	-11.2656
▁kemije	-11.2656
▁polovice	-11.2657
▁harold	-11.2658
▁suhe	-11.2663
▁jernej	-11.2667
▁pisanja	-11.2668
▁objektiv	-11.2669
ključitev	-11.267
▁knjižnice	-11.2672
▁vzorec	-11.2673
▁afriške	-11.268
▁stopenj	-11.2711
▁turške	-11.2716
▁polimer	-11.2718
▁xii	-11.272
▁pogodb	-11.2721
▁julijsk	-11.2726
▁žarki	-11.2733
nović	-11.2734
▁pokrovitelj	-11.274
▁datiran	-11.2741
▁energetsk	-11.2742
▁prepričal	-11.2742
▁simptom	-11.2742
▁kakršne	-11.2742
▁podnebja	-11.2742
▁herodot	-11.2742
▁school	-11.2742
▁laplace	-11.2742
▁prisoten	-11.2742
▁grčija	-11.2742
▁anglije	-11.2742
▁puščic	-11.2742
▁definiciji	-11.2742
▁predviden	-11.2742
▁mount	-11.2743
▁južnoafrišk	-11.2743
▁verižn	-11.2744
▁bosne	-11.2746
▁baterij	-11.2746
▁varoval	-11.2749
▁slovaške	-11.2751
▁nekako	-11.2754
▁močnejši	-11.2763
owski	-11.2771
▁1873	-11.279
▁stranski	-11.2792
▁zvezno	-11.2797
▁enotnost	-11.2806
▁francoz	-11.2819
▁cornwall	-11.2829
▁federativn	-11.2829
▁gimnazijo	-11.2829
▁nenavadno	-11.2829
▁področij	-11.2829
▁šestdesetih	-11.2829
▁lestvici	-11.2829
▁posredno	-11.2829
▁zadolžen	-11.2829
▁hladiln	-11.2829
▁mlajše	-11.2829
▁prevelik	-11.2829
▁ogenj	-11.283
▁konzerv	-11.283
▁ognja	-11.283
▁vsakdanje	-11.283
▁označevanj	-11.2831
▁težje	-11.2832
▁zaznava	-11.2832
▁nihče	-11.2836
▁mrtve	-11.2837
▁pevec	-11.284
▁tekst	-11.2842
▁obmorsk	-11.2845
▁nosilec	-11.285
ekološk	-11.285
avtomat	-11.2852
▁opern	-11.2877
▁1871	-11.2879
▁slovanske	-11.2883
▁drog	-11.2892
▁luč	-11.2892
▁žita	-11.2895
dravsk	-11.2913
▁profesional	-11.2917
▁churchill	-11.2917
▁saksofon	-11.2917
▁zavezništvo	-11.2917
▁haydn	-11.2917
▁rojstvo	-11.2917
▁ekonomske	-11.2917
▁ostankov	-11.2917
▁kapljic	-11.2917
▁zbolel	-11.2917
▁pričakoval	-11.2917
dinamika	-11.2917
▁zapoved	-11.2917
▁ustrezne	-11.2917
▁božji	-11.292
▁odločitve	-11.292
▁osmih	-11.2921
▁skupščina	-11.2921
▁velesil	-11.2921
zemelj	-11.2923
▁umetne	-11.2923
▁kopij	-11.2928
▁armenske	-11.2928
▁ujel	-11.2935
dorf	-11.2943
▁prodal	-11.2943
▁dokazuje	-11.2952
▁osvojitvi	-11.2954
▁naselju	-11.296
▁astronomiji	-11.296
fried	-11.2961
▁radar	-11.2965
▁irski	-11.2979
−1	-11.299
▁spektra	-11.2999
konservativn	-11.3005
▁kondenzator	-11.3005
▁navidezno	-11.3005
▁renesanse	-11.3005
▁salzburg	-11.3005
▁schrödinger	-11.3005
▁specifični	-11.3005
▁upokojil	-11.3005
▁usposobljen	-11.3005
vretenčar	-11.3005
▁kemijsko	-11.3005
▁lendava	-11.3005
▁svobodni	-11.3005
▁pospešen	-11.3005
▁dotedanj	-11.3005
▁ekonomski	-11.3005
▁homogen	-11.3005
▁vrnitev	-11.3005
▁švici	-11.3005
▁pokaže	-11.3006
ро	-11.3007
ра	-11.3007
▁stopnji	-11.3009
▁sezone	-11.3009
zemlja	-11.3011
▁kvark	-11.3015
▁gornji	-11.3021
▁dramatik	-11.3021
▁bitje	-11.3035
▁čop	-11.304
▁trk	-11.304
▁razdelitvi	-11.3048
▁zakonik	-11.3055
357	-11.307
▁prizadeva	-11.3073
▁preganja	-11.308
▁bismarck	-11.3094
▁diktator	-11.3094
▁džingiskan	-11.3094
▁literarne	-11.3094
▁najmočnejši	-11.3094
▁nietzsche	-11.3094
▁tutmoz	-11.3094
▁ekspedicij	-11.3094
▁tenzor	-11.3095
▁hladno	-11.3095
▁javna	-11.3096
▁statistični	-11.3096
▁hawk	-11.3097
▁normalno	-11.3098
▁upravljal	-11.3099
▁knjižnico	-11.3101
▁najmanjša	-11.3105
kjer	-11.3107
▁kartograf	-11.311
▁razdelimo	-11.311
▁bozon	-11.3111
▁franklin	-11.3114
▁podobe	-11.3167
▁sosednje	-11.3179
▁benedikt	-11.3184
▁enciklopedij	-11.3184
▁izvršil	-11.3184
▁literaturi	-11.3184
▁transcendent	-11.3184
▁razvršča	-11.3184
▁maurice	-11.3184
▁lestvica	-11.3185
▁pravoslavne	-11.3185
▁matjaž	-11.3185
▁zagotovo	-11.3185
▁kemijo	-11.3185
▁josef	-11.3186
pacifišk	-11.3186
▁ležeč	-11.3187
▁izgnal	-11.3188
▁oporo	-11.3189
▁razreši	-11.319
▁evangeli	-11.3191
▁avstraliji	-11.3194
▁zbiranje	-11.3194
▁cement	-11.3195
▁opero	-11.3195
prodaj	-11.3198
▁palm	-11.3214
▁materni	-11.3235
▁republik	-11.3252
▁prevlado	-11.3256
▁eksponent	-11.3275
▁specifična	-11.3275
▁povprečne	-11.3275
▁aplikacij	-11.3275
▁emisij	-11.3276
▁orbital	-11.3276
▁gradient	-11.3276
▁firenc	-11.3276
▁boljševik	-11.3276
▁zgoreva	-11.328
▁odvisni	-11.3283
▁sistematično	-11.3283
▁zeleno	-11.3287
▁andrew	-11.3289
▁obiskovalcev	-11.329
▁razkol	-11.3325
▁ozemeljsk	-11.3333
▁kuhan	-11.3333
oskop	-11.3334
▁tutankamon	-11.3367
eugène	-11.3367
▁sedemdesetih	-11.3367
▁tradicionalna	-11.3367
▁učinki	-11.3367
▁prisotna	-11.3367
▁možganov	-11.3367
▁globina	-11.3367
▁rdečo	-11.3367
▁izdelave	-11.3367
▁okoljsk	-11.3367
▁absolutna	-11.3367
-----	-11.3368
▁doslej	-11.3368
▁božanstva	-11.3368
▁podaljšan	-11.3368
▁poljubno	-11.337
▁atenah	-11.3371
▁policijski	-11.3371
▁ministra	-11.3371
▁prikazal	-11.3378
alkalijsk	-11.338
▁razkril	-11.3384
▁prenesl	-11.3386
▁širitev	-11.3386
grup	-11.3386
▁priljubljenost	-11.3387
▁forum	-11.3389
▁marmor	-11.3394
stičnega	-11.3396
▁podporn	-11.3396
teološk	-11.3406
▁vdrl	-11.3408
obraz	-11.3409
▁1200	-11.3411
reichs	-11.3426
▁skuša	-11.3426
▁litovsk	-11.3431
▁pokopali	-11.3443
▁ponovne	-11.3451
▁konservatorij	-11.346
▁jupitrov	-11.346
▁najvišjo	-11.346
▁razpolago	-11.346
▁štajerske	-11.346
▁kancler	-11.346
▁rezidenc	-11.346
▁armenije	-11.346
▁kolektiv	-11.346
▁pokojni	-11.346
▁komunicira	-11.346
▁hladni	-11.346
▁ribolov	-11.346
▁dimitrij	-11.3461
▁izoliran	-11.3461
▁prostornino	-11.3461
▁količnik	-11.3462
▁slovenščino	-11.3463
▁roger	-11.3464
▁ugank	-11.3467
▁težji	-11.3469
▁makav	-11.3469
▁davčn	-11.3472
▁kozmolog	-11.3474
▁opredelil	-11.3478
▁daljše	-11.348
▁pompej	-11.3483
▁damask	-11.3483
▁dolgoletn	-11.3486
▁antropo	-11.3496
▁tropski	-11.3517
▁naselji	-11.3521
imperial	-11.3523
▁strok	-11.3539
poznavanje	-11.3543
▁starogrški	-11.3553
▁system	-11.3553
▁ozemlji	-11.3553
▁vihar	-11.3553
▁čaščenje	-11.3553
▁domnevo	-11.3553
▁prototip	-11.3553
▁prepustil	-11.3554
▁uspeva	-11.3554
▁pisavo	-11.3554
▁vrniti	-11.3554
▁tolmač	-11.3554
▁zmožnost	-11.3554
▁1902	-11.3555
▁kozmičn	-11.3558
▁prodrl	-11.3559
▁angeles	-11.356
▁grščine	-11.356
▁primorske	-11.3562
▁budizma	-11.3563
▁linearni	-11.3563
▁težo	-11.3564
▁spreminjal	-11.3571
▁ibersk	-11.3574
▁nabojev	-11.3579
bosansk	-11.3586
▁počasne	-11.3588
▁pretiran	-11.361
enburg	-11.3629
▁manifest	-11.3648
▁dostojevski	-11.3648
▁raziskuje	-11.3648
▁človeštva	-11.3648
▁pomnilnik	-11.3648
▁tragedij	-11.3648
▁študirat	-11.3648
▁sprednji	-11.3648
▁jadraln	-11.3648
▁tretjo	-11.3648
▁hipotez	-11.3648
▁strežnik	-11.3648
▁premirje	-11.3648
▁bolečin	-11.3648
▁mitološk	-11.3648
▁vrzel	-11.3648
▁zastavo	-11.3649
▁arktičn	-11.3649
▁aparat	-11.3649
▁vodnjak	-11.3652
▁ptuj	-11.3656
▁sociolog	-11.3658
▁kraški	-11.3664
▁kopic	-11.3685
▁jeklen	-11.3686
▁zelene	-11.3703
▁potrebni	-11.3724
▁apostol	-11.373
▁obljubil	-11.3733
▁odlično	-11.3741
▁hamilton	-11.3743
▁matematična	-11.3743
▁schumacher	-11.3743
▁taylor	-11.3743
▁generator	-11.3743
▁obrambi	-11.3743
▁geometrija	-11.3743
▁furlan	-11.3743
▁zunanja	-11.3743
▁theodor	-11.3743
▁fermatov	-11.3743
▁ferrari	-11.3743
▁formulo	-11.3743
▁negativno	-11.3743
▁dnevno	-11.3743
html	-11.3743
▁royal	-11.3743
aritmeti	-11.3746
на	-11.3746
▁trubar	-11.3746
▁obširn	-11.3748
▁prestolnice	-11.3749
▁poganja	-11.3751
▁osnove	-11.3754
▁lahki	-11.3755
▁nečak	-11.3759
▁dvorana	-11.3761
▁uporabni	-11.3762
▁varnostni	-11.3767
▁grafik	-11.3774
▁vztrajnost	-11.3798
▁kast	-11.3817
enstein	-11.3817
▁travnik	-11.3838
▁leipzig	-11.3839
▁podpredsednik	-11.3839
▁poslabšal	-11.3839
▁uprizori	-11.3839
▁kuvajt	-11.3839
▁negativne	-11.3839
▁neposredne	-11.3839
▁sposobni	-11.3839
▁algebra	-11.3839
▁ekosistem	-11.3839
▁krompir	-11.3839
▁prvenstvu	-11.3839
▁turčiji	-11.3839
▁prilagaja	-11.3839
▁zakonodaja	-11.3839
▁spontan	-11.3839
▁iskanju	-11.3839
▁omeniti	-11.3839
▁zlahka	-11.3839
▁konzul	-11.384
▁lokalna	-11.3842
▁izdajo	-11.3845
▁komentar	-11.3845
▁banovin	-11.3848
▁priprave	-11.3848
▁vrtenje	-11.3848
▁sergej	-11.3849
▁kmetijstva	-11.3849
▁city	-11.385
—	-11.3851
▁hitlerjev	-11.3858
▁hodil	-11.3859
▁biološki	-11.3859
▁povratn	-11.3881
▁plemensk	-11.3897
▁460.	-11.3898
136	-11.3907
▁gojen	-11.3924
▁ekvivalent	-11.3936
▁federacije	-11.3936
▁izkušnje	-11.3936
▁nadomešča	-11.3936
▁osončju	-11.3936
▁preoblikoval	-11.3936
▁publikacij	-11.3936
▁učbenik	-11.3936
▁depresij	-11.3936
▁dediščino	-11.3936
▁zmeraj	-11.3936
▁paralaks	-11.3936
▁gruzije	-11.3936
▁samostalnik	-11.3936
▁shranjen	-11.3936
▁definicije	-11.3936
▁hetitsk	-11.3937
▁pomorska	-11.3937
▁potrjuje	-11.3938
▁pripravo	-11.3939
ни	-11.3939
▁kolonialne	-11.3942
▁kruh	-11.3946
▁pokrov	-11.3946
▁muslimanske	-11.3949
▁civilne	-11.4019
▁londonsk	-11.4027
▁ekonomsko	-11.4034
▁krščansko	-11.4034
▁ozračju	-11.4034
▁paragvaj	-11.4034
▁demokratični	-11.4034
▁plemstvo	-11.4034
▁dediščina	-11.4034
▁izdelke	-11.4035
▁vrtenja	-11.4035
▁zastave	-11.4035
▁kofein	-11.4035
▁planota	-11.4036
▁smisel	-11.4036
▁pridevnik	-11.4036
▁stadion	-11.4036
▁arhitekturi	-11.4036
▁andré	-11.4037
▁minimaln	-11.4037
▁latinščini	-11.4039
▁štirideset	-11.4044
▁poslikav	-11.4044
▁zadev	-11.4047
▁pozitivne	-11.4055
▁golob	-11.4061
▁dobrodeln	-11.4073
▁odgovorn	-11.4105
biološk	-11.412
▁suho	-11.4123
▁predpostavk	-11.4133
▁bagdad	-11.4133
▁omrežja	-11.4133
▁paradoks	-11.4133
▁polprevodnik	-11.4133
▁izognil	-11.4133
▁bistrica	-11.4133
▁demografija	-11.4133
▁opazuje	-11.4133
▁izdelavi	-11.4133
▁prusija	-11.4133
▁linearna	-11.4134
▁uporabne	-11.4134
▁clark	-11.4134
▁kemikalij	-11.4134
▁klasifikacija	-11.4135
▁podlaga	-11.4136
▁fizične	-11.4137
▁hlap	-11.414
▁dvoboj	-11.4141
▁kolumbija	-11.4146
▁žanr	-11.4146
▁pripadl	-11.4146
▁trend	-11.4153
ogrsko	-11.4156
▁izredni	-11.4182
▁granat	-11.4185
▁pečat	-11.4206
▁temperatur	-11.4212
▁oksidira	-11.4218
phys	-11.422
▁fresk	-11.4232
wehrmacht	-11.4233
▁hieroglif	-11.4233
▁šibko	-11.4233
▁dotlej	-11.4233
▁postopkov	-11.4233
▁kmečki	-11.4233
▁bospor	-11.4234
▁muslimanov	-11.4234
▁planckov	-11.4234
▁kemija	-11.4234
▁posnema	-11.4234
▁izmerjen	-11.4235
▁ustavno	-11.4235
▁črpalk	-11.4235
▁ušes	-11.4236
▁nižja	-11.4236
▁utrpel	-11.4237
▁pozval	-11.4239
▁domovino	-11.4241
▁elektrolit	-11.4244
▁trpel	-11.4244
▁bohinjsk	-11.4249
▁preganjanj	-11.4252
tribut	-11.4268
▁smuč	-11.4275
stadt	-11.4283
▁koroške	-11.4291
▁sproži	-11.4301
chester	-11.4317
▁sodb	-11.4318
▁podrobno	-11.4328
▁kromosom	-11.4334
▁lokomotiv	-11.4334
▁prefektur	-11.4334
▁angleščina	-11.4334
▁dosežki	-11.4334
▁gverilsk	-11.4334
▁obdobij	-11.4334
▁wolfgang	-11.4334
▁približek	-11.4334
▁lojze	-11.4334
▁konferenca	-11.4334
▁kaspijsk	-11.4334
▁srečo	-11.4334
▁luknje	-11.4334
▁pošlje	-11.4335
▁douglas	-11.4335
▁železne	-11.4336
▁pascal	-11.4336
▁vzdržuje	-11.4336
▁davkov	-11.4337
▁likvor	-11.4338
▁stanovanjsk	-11.4339
▁razširitev	-11.434
▁dialog	-11.4344
▁pretres	-11.4344
izkušen	-11.4347
▁zrasl	-11.4371
▁pogansk	-11.4373
▁spoj	-11.4385
fir	-11.4396
▁finske	-11.4402
▁prevzame	-11.4424
▁ustanavlja	-11.4436
▁gravitacijski	-11.4436
▁oborožitev	-11.4436
▁osredotoča	-11.4436
▁priporočil	-11.4436
▁raznovrstnost	-11.4436
▁singularnost	-11.4436
▁tamkajšnji	-11.4436
▁gutenberg	-11.4436
▁premaknil	-11.4436
▁neprekinjen	-11.4436
▁fizično	-11.4436
▁mladenič	-11.4436
▁storitev	-11.4436
▁mozaik	-11.4436
▁belorusi	-11.4436
▁mehanika	-11.4436
▁1892	-11.4436
▁poznejše	-11.4437
▁sesalci	-11.4437
▁dialekt	-11.4437
▁ureditvi	-11.4437
▁zagovornik	-11.4439
▁oskrbe	-11.4439
▁zelišč	-11.4441
▁navdihnil	-11.4442
▁ivanovič	-11.4443
▁državljanstvo	-11.4447
▁sokol	-11.445
najbolj	-11.4455
▁preneha	-11.4457
▁fiziolog	-11.446
▁katedr	-11.4462
rimski	-11.4468
house	-11.4496
▁zrel	-11.4502
▁klarinet	-11.4539
▁ljudeh	-11.4539
▁novoustanovljen	-11.4539
▁ozračje	-11.4539
▁rentgensk	-11.4539
▁specifično	-11.4539
▁uspešna	-11.4539
▁vzpostavljen	-11.4539
▁povprečni	-11.4539
▁vzdrževal	-11.4539
▁razprostira	-11.4539
▁opuščen	-11.4539
▁izvedbo	-11.4539
▁poldnevnik	-11.4539
▁okužb	-11.4539
▁definicijo	-11.454
▁ozadje	-11.454
▁privržence	-11.454
▁zdravstveni	-11.454
▁freud	-11.4542
▁razvrstitev	-11.4542
▁angelina	-11.4544
▁atlas	-11.4544
▁pomembnejše	-11.4545
▁soncu	-11.4545
▁tibet	-11.4546
▁romunsk	-11.4547
▁prišteva	-11.4547
▁variacij	-11.4549
charles	-11.4559
▁karate	-11.4566
▁prelaz	-11.4567
▁nasip	-11.4588
silikat	-11.4612
▁vstaje	-11.4614
▁brskalnik	-11.4643
▁frederick	-11.4643
▁svoboda	-11.4643
▁uzbekistan	-11.4643
▁geometriji	-11.4643
▁romunija	-11.4643
▁scenarij	-11.4643
▁pesnitev	-11.4643
▁portugalsko	-11.4643
▁prakse	-11.4644
▁harvard	-11.4644
▁naložb	-11.4644
▁poezije	-11.4644
▁postopka	-11.4644
▁rečemo	-11.4644
▁kristjanov	-11.4644
▁gorovja	-11.4644
▁pregnal	-11.4645
▁magnezij	-11.4645
ко	-11.4645
▁kolegij	-11.4646
▁smatra	-11.4648
▁kitarist	-11.4649
▁pridobitev	-11.4652
▁avtomatsk	-11.4657
188	-11.4657
▁pogum	-11.4676
▁nogometn	-11.468
▁ponovni	-11.4699
▁usposablja	-11.4717
lxxxi	-11.4731
▁izliv	-11.4732
harmoni	-11.4735
▁inovacij	-11.4745
trigonometr	-11.4748
▁demokratična	-11.4749
▁descartes	-11.4749
▁izpopolnjeval	-11.4749
▁jugozahodni	-11.4749
▁republišk	-11.4749
▁razočaran	-11.4749
▁preusmeri	-11.4749
▁teritorij	-11.4749
▁obremeni	-11.4749
▁prevzet	-11.4749
▁izdelava	-11.4749
▁napolnjen	-11.4749
▁carigrad	-11.4749
▁zaigrala	-11.4749
▁komando	-11.4749
▁razgled	-11.4749
▁stephen	-11.475
▁aretacij	-11.475
▁levstik	-11.475
▁računalniške	-11.4751
▁gospodarstvu	-11.4752
▁zraste	-11.4752
▁omejitve	-11.4752
▁deklet	-11.4754
▁slovenščina	-11.4755
▁mleko	-11.4756
▁egiptovski	-11.4757
▁izbere	-11.4758
▁zmesi	-11.4758
▁popravil	-11.4768
▁elementarn	-11.478
▁osvobodiln	-11.4814
▁učinkov	-11.4817
▁north	-11.483
▁izgublja	-11.4838
▁ptolemej	-11.4855
▁amsterdam	-11.4855
▁avstrijska	-11.4855
▁demokratično	-11.4855
▁literatura	-11.4855
▁severozahodni	-11.4855
▁sulfid	-11.4855
▁frančišk	-11.4855
▁epizod	-11.4855
▁nosečnost	-11.4855
▁tolmin	-11.4856
▁maistra	-11.4856
▁skakač	-11.4856
▁dihanje	-11.4856
▁arhej	-11.4857
▁omenil	-11.4857
www	-11.4858
▁prišle	-11.4858
▁staršev	-11.4858
▁sobota	-11.486
▁kanadi	-11.4861
▁pojma	-11.4861
▁oceno	-11.4861
▁sezona	-11.4862
▁navadne	-11.4862
▁kronan	-11.4863
▁pisanju	-11.4863
▁fidži	-11.4865
▁plakat	-11.4866
▁nafto	-11.487
▁zastavi	-11.4879
▁410.	-11.4882
dejan	-11.4889
="353	-11.4925
▁socialistični	-11.4944
▁440.	-11.4945
▁ukrivljen	-11.4963
▁digitalni	-11.4963
▁izobraževanja	-11.4963
▁komercialni	-11.4963
▁opredeljuje	-11.4963
▁sorazmerna	-11.4963
▁epidemij	-11.4963
▁zaustavi	-11.4963
▁napredovanje	-11.4963
▁zgraditi	-11.4963
▁odstranjevanj	-11.4963
xix	-11.4963
▁kemiji	-11.4963
▁navzoč	-11.4963
▁licenc	-11.4965
▁bavarske	-11.4967
▁320.	-11.4968
▁prejemnik	-11.4968
▁sezono	-11.4968
▁turistične	-11.497
▁rotacij	-11.4971
▁kazensk	-11.4976
▁statut	-11.4978
arabsko	-11.4988
javnega	-11.5018
▁rastlinski	-11.5029
▁grajsk	-11.5061
▁http	-11.5067
rimske	-11.5069
▁argentina	-11.5071
▁nasprotuje	-11.5071
▁oglaševanje	-11.5071
▁površju	-11.5071
▁pospešil	-11.5071
▁desetletju	-11.5071
▁predhodno	-11.5071
▁etiopsk	-11.5071
▁uporabna	-11.5071
▁pacifik	-11.5071
▁najnovejš	-11.5071
▁gladino	-11.5071
▁luknja	-11.5071
▁reducira	-11.5072
▁tednov	-11.5072
▁kariere	-11.5072
▁samuel	-11.5072
▁omogoči	-11.5073
▁stavek	-11.5073
▁ugrabi	-11.5073
▁skupščine	-11.5075
▁vzmet	-11.5075
▁rolkanje	-11.5075
▁križarji	-11.5076
▁teoretični	-11.5077
▁rezervoar	-11.5079
▁uvaja	-11.508
▁sazu	-11.5083
▁turbin	-11.5091
▁tržaške	-11.5097
▁podpornik	-11.5108
▁izpit	-11.511
▁odvaja	-11.5114
▁škofovsk	-11.5117
▁420.	-11.5146
▁rezervn	-11.5155
=353	-11.516
▁dokumentiran	-11.5164
▁braunschweig	-11.5181
▁gravitacije	-11.5181
▁habsburški	-11.5181
▁logaritemsk	-11.5181
▁plebiscit	-11.5181
▁priseljenci	-11.5181
▁termodinamike	-11.5181
▁zjutraj	-11.5181
▁jupiter	-11.5181
▁naslednjo	-11.5181
▁estonija	-11.5181
▁sužnji	-11.5181
▁neprestano	-11.5181
▁španska	-11.5181
▁nezakonit	-11.5181
▁kositra	-11.5181
▁pritrjen	-11.5182
▁vladavina	-11.5182
▁tednu	-11.5182
▁zaporedn	-11.5183
▁škotske	-11.5183
▁podelitve	-11.5185
▁lobanj	-11.5185
▁izdaje	-11.5187
▁možgani	-11.52
verjetno	-11.5208
astronom	-11.5212
semitsk	-11.5226
▁opira	-11.5237
▁realni	-11.5239
▁okrepi	-11.5244
▁skrajno	-11.5257
▁prodira	-11.5257
▁mnog	-11.5258
head	-11.5262
▁dopušča	-11.5291
▁opozarja	-11.5292
▁grosuplje	-11.5292
▁massachusetts	-11.5292
▁stroškov	-11.5292
▁vznožju	-11.5292
▁moskvo	-11.5292
▁norveška	-11.5292
▁obdelovaln	-11.5292
▁razpršen	-11.5292
▁rimljanov	-11.5292
▁obtožb	-11.5292
▁norveški	-11.5292
script	-11.5292
▁srbiji	-11.5292
▁izvedba	-11.5292
▁amerika	-11.5292
▁doktorat	-11.5292
▁oddelku	-11.5293
▁poenoten	-11.5293
▁pretvarja	-11.5293
▁oficir	-11.5293
▁pomorsko	-11.5293
▁liszt	-11.5294
▁darwin	-11.5294
▁razporeditev	-11.5295
▁grčijo	-11.5295
▁donave	-11.5297
▁botanik	-11.5298
▁centru	-11.53
▁dimnik	-11.5314
notranj	-11.5315
▁harmoničn	-11.5341
▁nacisti	-11.5361
▁pridiga	-11.5364
▁schl	-11.537
▁skok	-11.538
lagrangeev	-11.5382
▁praštevilsk	-11.5388
▁pristojn	-11.5404
▁raztaplja	-11.5405
▁pomorščak	-11.5405
▁reprezentanc	-11.5405
▁sodelavci	-11.5405
▁sužnjev	-11.5405
▁kombinira	-11.5405
▁sedemnajst	-11.5405
▁občutek	-11.5405
▁sponzor	-11.5405
▁ohladi	-11.5405
▁zavezniške	-11.5405
▁kemijska	-11.5405
▁globino	-11.5405
▁lombard	-11.5405
▁svečenik	-11.5405
▁armenija	-11.5405
▁plezanje	-11.5405
▁absolutno	-11.5405
▁podjetji	-11.5405
▁zlorab	-11.5405
▁škotski	-11.5405
▁pobraten	-11.5405
ка	-11.5406
▁variant	-11.5407
▁presegl	-11.5409
▁alpah	-11.5414
▁mornariški	-11.5417
▁mongolske	-11.5418
▁pomeša	-11.5419
▁nakit	-11.542
▁mehanske	-11.5432
naravoslovn	-11.5478
▁darej	-11.5492
▁brezposelnost	-11.5518
▁demokracije	-11.5518
▁dostojevskega	-11.5518
▁nasprotje	-11.5518
▁neuspešno	-11.5518
▁učinke	-11.5518
▁dvoživk	-11.5518
▁okrožju	-11.5518
▁razpuščen	-11.5518
▁ukrajina	-11.5518
▁obtožil	-11.5518
▁neskončne	-11.5518
▁sovpada	-11.5518
▁uvrsti	-11.5519
▁peking	-11.5519
▁recimo	-11.5519
▁skorje	-11.5519
▁izpeljal	-11.552
▁gradiva	-11.552
▁prostornina	-11.552
▁bizanc	-11.5521
▁290.	-11.5521
▁egejsk	-11.5522
▁bivališč	-11.5522
▁queen	-11.5522
▁karieri	-11.5522
▁turistična	-11.5523
▁dosledno	-11.5525
▁vzlet	-11.5528
▁cenjen	-11.5532
▁arkad	-11.5536
▁zadovolji	-11.5542
kasneje	-11.5548
▁preveri	-11.5555
komunist	-11.5562
▁nevarne	-11.5564
▁trenutk	-11.5575
▁poslovni	-11.5584
▁izjemne	-11.559
▁kartic	-11.5613
atlant	-11.5628
▁žveplo	-11.563
▁mezopotamiji	-11.5633
▁odstotka	-11.5633
▁zakonodaje	-11.5633
▁razvrščen	-11.5633
▁čudovit	-11.5633
▁školjk	-11.5633
▁departma	-11.5633
▁generalmajor	-11.5633
▁goethe	-11.5633
▁obtožen	-11.5633
▁premoženje	-11.5633
▁konjeniški	-11.5633
▁podrobne	-11.5633
▁polobli	-11.5633
▁narečje	-11.5634
▁kopališč	-11.5634
▁ašur	-11.5634
▁stritar	-11.5635
▁absolutni	-11.5635
▁znašl	-11.5635
▁preiskova	-11.5635
▁zaznamuje	-11.5636
▁vergil	-11.5636
▁mongolski	-11.5637
▁310.	-11.5638
▁strokovne	-11.564
▁biološke	-11.5642
▁folk	-11.5643
▁razpok	-11.5646
▁zapira	-11.5661
▁zvočni	-11.5663
▁navedb	-11.5667
▁mesečn	-11.5668
▁raztez	-11.5693
▁prazne	-11.5714
▁garde	-11.572
▁vzet	-11.5724
▁blagovn	-11.5726
▁antičn	-11.5729
▁dolnj	-11.5731
▁boltzmann	-11.5744
▁gibraltar	-11.5749
▁brzostrelk	-11.5749
▁nepričakovan	-11.5749
▁visokošolsk	-11.5749
▁današnjo	-11.5749
▁fakultete	-11.5749
▁luksemburg	-11.5749
▁umakniti	-11.5749
▁zdravstveno	-11.5749
▁privrženci	-11.5749
▁poveljnišk	-11.5749
▁preučeval	-11.5749
▁zdravljenja	-11.5749
▁sintetizira	-11.575
▁obnavlja	-11.575
▁julius	-11.575
▁prestopil	-11.575
▁promovira	-11.575
▁aachen	-11.575
▁ataše	-11.575
▁invazijo	-11.575
▁vohun	-11.575
▁luteran	-11.575
▁postopno	-11.575
▁pravljic	-11.5751
▁natanko	-11.5751
elektrotehnik	-11.5752
▁arterij	-11.5755
▁gledališki	-11.5755
▁hetero	-11.5757
▁emirat	-11.5759
kript	-11.5762
migrant	-11.5764
▁podvodn	-11.5793
▁ognjenišk	-11.5806
▁financ	-11.5835
▁preseže	-11.5835
▁razpoložljiv	-11.5867
nukleotid	-11.5867
▁pomanjkljivost	-11.5867
▁vzgoji	-11.5867
▁moskve	-11.5867
▁nikolajevič	-11.5867
▁konstantinopla	-11.5867
▁obdelavo	-11.5867
▁zapuščina	-11.5867
▁čudež	-11.5867
▁kositer	-11.5868
▁porušen	-11.5868
▁bolgarsk	-11.5868
▁globus	-11.5868
▁prostornine	-11.5869
▁izrecn	-11.5869
▁nepremičn	-11.5869
▁390.	-11.587
▁komunistična	-11.5871
▁poroko	-11.5872
▁bosni	-11.5872
▁podprt	-11.5873
▁dramsk	-11.5873
▁delegacij	-11.5874
▁vsakodnevn	-11.5879
▁nasilje	-11.5884
▁frankovske	-11.5889
▁nekovin	-11.5889
▁relacij	-11.5903
▁natrij	-11.5921
strankarsk	-11.5932
▁atensk	-11.5972
▁privilegij	-11.5986
▁eskadron	-11.5986
▁jugovzhodno	-11.5986
▁nasprotne	-11.5986
▁osvobojen	-11.5986
▁tričrkovn	-11.5986
▁katastrsk	-11.5986
▁množenje	-11.5986
▁zasedbo	-11.5986
▁sodelavce	-11.5986
▁ruševin	-11.5986
▁federaln	-11.5986
▁anorgansk	-11.5987
▁potaplj	-11.5987
▁pravoslavni	-11.5987
▁poskrbel	-11.5987
▁porušil	-11.5988
▁fronto	-11.5988
▁fritz	-11.5989
vesolj	-11.5991
▁tekmi	-11.5992
egipčansk	-11.5993
▁opremi	-11.5995
castel	-11.6008
▁skrajni	-11.6009
▁atmosfere	-11.6107
▁empiričn	-11.6107
▁jugozahodne	-11.6107
▁katoliška	-11.6107
▁presenetljiv	-11.6107
▁priseljencev	-11.6107
▁protektorat	-11.6107
▁skulptur	-11.6107
▁sredozemlju	-11.6107
▁angleška	-11.6107
▁genocid	-11.6107
▁poenostavi	-11.6107
▁izobrazbe	-11.6107
▁okriljem	-11.6107
▁povzpel	-11.6107
▁energiji	-11.6107
▁paleolitik	-11.6107
▁stebrov	-11.6107
▁nevtralnost	-11.6107
="208	-11.6107
▁šibki	-11.6107
▁migracij	-11.6107
▁hindujsk	-11.6108
▁vitamin	-11.6108
▁odpadn	-11.6108
▁estetsk	-11.6108
▁izpustil	-11.611
▁podatek	-11.611
▁žlez	-11.6114
▁opisoval	-11.6115
▁odzval	-11.6116
=221	-11.613
▁klavirsk	-11.6132
="101	-11.6132
▁poslovne	-11.6136
▁sezonsk	-11.6144
vključno	-11.6145
jordan	-11.6146
▁razumljiv	-11.6147
bizantinsk	-11.6191
▁križišč	-11.6218
▁trojansk	-11.6222
▁demonstracij	-11.6229
▁katoličan	-11.6229
▁veličastn	-11.6229
▁antarktiki	-11.6229
▁atmosfero	-11.6229
▁ozračja	-11.6229
▁poškodoval	-11.6229
▁šempeter	-11.6229
▁demokratične	-11.6229
▁gaudí	-11.6229
▁sredstvi	-11.6229
▁švedsko	-11.6229
▁podjetju	-11.6229
▁ulomek	-11.6229
▁ideološk	-11.6229
▁zasedba	-11.6229
▁direktn	-11.6229
▁diagonal	-11.6229
▁geološki	-11.623
▁uravnava	-11.623
▁podvržen	-11.6233
▁popotnik	-11.6234
▁egiptovske	-11.6253
▁oklepaj	-11.627
odstotn	-11.6328
zlasti	-11.6333
▁objavi	-11.6334
▁identificira	-11.6352
▁telekomunikacij	-11.6352
▁žrtvovan	-11.6352
▁amazonk	-11.6352
▁feynman	-11.6352
▁microsoft	-11.6352
▁navdušil	-11.6352
▁obvladoval	-11.6352
▁odškodnin	-11.6352
▁pobočja	-11.6352
▁proučeval	-11.6352
▁roosevelt	-11.6352
▁angleščine	-11.6352
▁kromatograf	-11.6352
▁svoboščin	-11.6352
▁jersey	-11.6352
▁belgijski	-11.6352
▁sesalcev	-11.6352
▁stabilen	-11.6352
▁akustičn	-11.6352
▁zraven	-11.6353
▁uničeval	-11.6353
▁medicini	-11.6353
▁dolgoročn	-11.6353
▁mrzli	-11.6353
▁vostok	-11.6354
▁premalo	-11.6354
▁koreji	-11.6354
▁primarno	-11.6355
▁piščal	-11.6355
▁odkrivanj	-11.6356
ower	-11.6357
▁ogromne	-11.6365
▁primitiv	-11.6377
▁ionsk	-11.6378
▁zagovarja	-11.6381
="104	-11.6383
jurišn	-11.6395
▁predstavnišk	-11.64
celičn	-11.6467
▁literaturo	-11.6477
▁oktavijan	-11.6477
▁preživetje	-11.6477
▁navidezni	-11.6477
▁izobrazbo	-11.6477
▁sulfat	-11.6477
▁priročnik	-11.6477
▁russell	-11.6477
▁izpoved	-11.6477
▁oblečen	-11.6478
▁viking	-11.6478
▁izurjen	-11.6478
▁teritorialni	-11.6479
▁ladjevje	-11.6479
▁podpora	-11.6479
fašizem	-11.648
▁trdna	-11.6481
▁grozd	-11.6482
▁priključitv	-11.6483
▁podaril	-11.6483
▁velikonočn	-11.6505
gospodar	-11.6519
▁vrhunsk	-11.6555
socialist	-11.6557
▁privatn	-11.6562
absolut	-11.659
▁antarktike	-11.6604
▁avguštin	-11.6604
▁kapacitet	-11.6604
▁mavzolej	-11.6604
▁obrambno	-11.6604
▁poudarek	-11.6604
▁specifične	-11.6604
▁thompson	-11.6604
▁viadukt	-11.6604
▁nedoločen	-11.6604
▁nečistoč	-11.6604
podpolkovnik	-11.6604
▁ravnovesje	-11.6604
baptiste	-11.6604
▁thomson	-11.6604
▁neuspeh	-11.6604
▁cantorjev	-11.6604
▁ničesar	-11.6604
▁dublin	-11.6604
▁odobril	-11.6604
▁amonijak	-11.6604
▁sredozemlja	-11.6604
▁prevaža	-11.6605
▁lahke	-11.6607
motorizirana	-11.6616
▁kanaan	-11.6625
▁območji	-11.6664
kirch	-11.6666
▁svinj	-11.6693
▁artefakt	-11.6732
▁nestabilnost	-11.6732
relativističn	-11.6732
▁božanstev	-11.6732
▁makedonija	-11.6732
▁trbovlje	-11.6732
▁ultravijoličn	-11.6732
▁združena	-11.6732
▁človeška	-11.6732
▁angleščino	-11.6732
▁ravnotežje	-11.6732
▁narečja	-11.6732
▁tisočletju	-11.6732
▁tramvaj	-11.6732
▁claude	-11.6732
▁vertikaln	-11.6732
▁zasedbe	-11.6732
▁osvojen	-11.6732
▁vložil	-11.6732
▁slišal	-11.6732
▁ustavne	-11.6733
▁jabolk	-11.6733
▁horjul	-11.6733
▁monsun	-11.6734
▁strokovno	-11.6734
▁oslabi	-11.6737
▁linearne	-11.6746
▁metričn	-11.6752
▁analizira	-11.6753
count	-11.6775
▁konjenik	-11.6806
▁vrteč	-11.6821
izseljen	-11.6825
cepci	-11.6845
▁restavracij	-11.6862
▁združeval	-11.6862
▁amenhotep	-11.6862
▁fakulteta	-11.6862
▁hercegovine	-11.6862
▁jugoslovansko	-11.6862
▁najbogatejš	-11.6862
▁najpogostejše	-11.6862
▁povprečje	-11.6862
▁prafaktor	-11.6862
▁statistika	-11.6862
sław	-11.6862
▁winslet	-11.6862
▁enostavni	-11.6862
▁kovalentn	-11.6862
worth	-11.6862
▁chopin	-11.6862
▁prisotne	-11.6862
▁kmečke	-11.6862
▁cassini	-11.6862
▁aktivist	-11.6862
▁mojzes	-11.6862
▁medicino	-11.6863
▁trigonometričn	-11.6863
▁medicinski	-11.6863
▁sestoji	-11.6863
▁sumerski	-11.6864
▁viteški	-11.6865
▁kairo	-11.6866
▁stoječ	-11.6866
▁krovn	-11.687
▁music	-11.687
▁ugodno	-11.6875
▁zahodnoevropsk	-11.688
=223	-11.6885
▁medzvezdn	-11.689
united	-11.6893
▁pristaš	-11.6897
francosko	-11.6909
▁nevarni	-11.6911
▁polarne	-11.6984
▁algebrski	-11.6993
▁opustošil	-11.6993
▁sposoben	-11.6993
▁stacionarn	-11.6993
▁urugvaj	-11.6993
▁višavje	-11.6993
▁osamljen	-11.6993
▁boštjan	-11.6993
▁raztopljen	-11.6993
▁spodnjo	-11.6993
▁kvalifikacij	-11.6993
▁eduard	-11.6993
▁aktivira	-11.6993
▁zasedbi	-11.6993
▁odstavil	-11.6993
▁volfram	-11.6993
▁neomejen	-11.6993
▁nomadsk	-11.6994
▁isaac	-11.6994
▁ustavni	-11.6994
▁endemičn	-11.6994
▁kovanci	-11.6994
▁namestil	-11.6994
▁snemanje	-11.6995
▁oblegal	-11.6995
▁odrasle	-11.6995
▁trajekt	-11.6995
▁nemščini	-11.6995
▁tolstoj	-11.6996
▁zaklep	-11.7
▁fužin	-11.7
mouth	-11.7001
▁istrsk	-11.7008
▁trajni	-11.7009
▁nitrat	-11.701
▁odkup	-11.7011
=92	-11.705
vladi	-11.7054
▁gardn	-11.7055
sistem	-11.7055
▁križarje	-11.7056
▁primarne	-11.706
▁arheolog	-11.7063
▁kodiran	-11.7063
▁fragment	-11.7127
▁stockholm	-11.7127
▁avstrijci	-11.7127
▁avtonomijo	-11.7127
▁gravitacijska	-11.7127
▁hubblov	-11.7127
▁najlepši	-11.7127
▁obsežna	-11.7127
▁okupacijsk	-11.7127
▁osredotočen	-11.7127
▁posplošen	-11.7127
▁samouprave	-11.7127
▁taksonomij	-11.7127
▁kroženje	-11.7127
▁literarno	-11.7127
frekvenčn	-11.7127
▁hladna	-11.7127
▁nasploh	-11.7127
▁prošnjo	-11.7127
▁ronald	-11.7127
▁geometrijo	-11.7127
▁relativna	-11.7127
▁sodelavec	-11.7127
▁university	-11.7127
▁belgija	-11.7127
▁praksa	-11.7127
▁avtonomni	-11.7127
▁gojijo	-11.7127
▁katolik	-11.7127
▁najkrajš	-11.7127
▁posamič	-11.7128
▁domorodn	-11.7128
▁prikazoval	-11.7128
▁inzulin	-11.7129
▁tekma	-11.7129
▁sotočj	-11.713
▁manevr	-11.713
▁odisej	-11.7132
▁joyce	-11.7132
▁odvisne	-11.7133
=222	-11.7152
▁stabilne	-11.7163
▁biotsk	-11.7171
▁legendarn	-11.7218
▁identitete	-11.7262
▁konstantinoplu	-11.7262
▁nedvomno	-11.7262
▁priporoča	-11.7262
▁veleposlanik	-11.7262
▁perzijsko	-11.7262
▁burgund	-11.7262
▁muzikolog	-11.7262
▁asistent	-11.7262
▁porazdeljen	-11.7262
▁ovojnic	-11.7262
▁privlači	-11.7262
▁gandhi	-11.7262
▁condita	-11.7262
▁evropejci	-11.7262
▁muškatn	-11.7262
▁občutn	-11.7263
▁manuel	-11.7263
▁stroški	-11.7264
▁povzet	-11.7264
▁pritrdi	-11.7264
▁benečan	-11.7264
▁višinsk	-11.7265
▁teoretične	-11.7267
▁kljun	-11.727
▁baročne	-11.7277
front	-11.7278
▁apostolsk	-11.728
geometr	-11.7297
tisoč	-11.7304
▁zvezk	-11.7312
▁spodbud	-11.7314
august	-11.7314
▁kovance	-11.7317
▁fevd	-11.7338
▁termičn	-11.7365
▁predpostavlja	-11.7399
▁bizantinci	-11.7399
▁hezbolah	-11.7399
▁münchnu	-11.7399
▁najpogostejša	-11.7399
▁okupacijo	-11.7399
▁poljedelstvo	-11.7399
▁sarkofag	-11.7399
▁devetnajst	-11.7399
▁poudaril	-11.7399
▁aljehin	-11.7399
▁sirakuz	-11.7399
▁dogodku	-11.7399
▁plemstva	-11.7399
▁prakso	-11.7399
▁ladjedelnic	-11.7399
▁predhodne	-11.7399
▁marksističn	-11.7399
▁predvidel	-11.74
▁1852	-11.74
▁medicina	-11.74
▁medicinske	-11.74
▁dolomit	-11.7401
▁mehaniko	-11.7402
▁iztreb	-11.7408
=224	-11.7429
▁dvojišk	-11.7503
▁konkurenč	-11.7538
▁najrazličnejš	-11.7538
▁podmnožic	-11.7538
▁posredoval	-11.7538
▁upodobitev	-11.7538
▁norveško	-11.7538
▁čreves	-11.7538
▁prehranjuje	-11.7538
▁zürich	-11.7538
▁nenadoma	-11.7538
▁zgornjo	-11.7538
▁španci	-11.7538
▁centralna	-11.7538
▁fermion	-11.7538
▁bazilika	-11.7539
▁škode	-11.7539
fosf	-11.7541
▁baskovsk	-11.7542
▁drobni	-11.7546
rodnega	-11.7582
▁odločno	-11.7595
▁nadzorovan	-11.7597
▁tirensk	-11.7615
hidrat	-11.7627
▁ugotovljen	-11.7678
estolonaslednik	-11.7678
▁distribucij	-11.7678
▁opazimo	-11.7678
▁pozejdon	-11.7678
▁producent	-11.7678
▁renesansa	-11.7678
▁sarajevu	-11.7678
▁valvasor	-11.7678
▁zabeležil	-11.7678
▁zagotovljen	-11.7678
▁harrison	-11.7678
▁integracij	-11.7678
▁portorož	-11.7678
▁belgiji	-11.7678
▁orjakinj	-11.7678
▁praktični	-11.7678
▁werner	-11.7679
▁palestinsk	-11.7679
▁evfrat	-11.7679
▁nasledstvo	-11.7679
▁protinapad	-11.7679
▁društev	-11.7679
▁župnik	-11.7679
▁science	-11.7679
▁karantansk	-11.7679
▁predpisuje	-11.7679
▁skromno	-11.7679
▁podvoji	-11.7679
▁botaničn	-11.768
▁zmrz	-11.768
▁polarizacij	-11.7681
▁aktualn	-11.7681
▁abdul	-11.7682
sedanja	-11.7692
▁formuli	-11.7705
=227	-11.7707
▁vetrn	-11.7711
oziroma	-11.7737
pierre	-11.7737
▁sosesk	-11.7751
starogrško	-11.7759
▁rudarsk	-11.7803
▁kapitalističn	-11.7807
vrgli	-11.7815
kasnejš	-11.782
▁dopolnjuje	-11.7821
▁nespremenjen	-11.7821
▁demokracija	-11.7821
▁kontingent	-11.7821
▁najbližji	-11.7821
▁oktobrsk	-11.7821
▁služenje	-11.7821
▁upočasni	-11.7821
protiterorističn	-11.7821
▁desetletij	-11.7821
▁maradona	-11.7821
▁armeniji	-11.7821
▁sladkovodn	-11.7821
obrambna	-11.7821
▁galilejev	-11.7821
▁izpeljana	-11.7821
▁najbrž	-11.7821
▁globine	-11.7821
▁panteon	-11.7821
▁proglasil	-11.7822
▁fischer	-11.7822
▁tomšič	-11.7822
▁patrulj	-11.7823
▁otroški	-11.7823
▁dragulj	-11.7823
▁zaslužn	-11.7824
▁vipav	-11.7824
▁naslednic	-11.7829
▁imperialn	-11.7867
revoluci	-11.7899
="103	-11.7908
▁delavce	-11.7955
prestreznišk	-11.7966
▁jugoslovanska	-11.7966
▁komercialno	-11.7966
▁predavatelj	-11.7966
▁vojašnici	-11.7966
▁češkoslovaške	-11.7966
▁poissonov	-11.7966
▁zakonodajo	-11.7966
▁zaporedju	-11.7966
▁prostozidar	-11.7966
▁armencev	-11.7966
▁anderson	-11.7966
▁spencer	-11.7966
▁odstotek	-11.7966
▁hibrid	-11.7966
▁incident	-11.7966
▁intervju	-11.7966
▁postopke	-11.7966
▁ogromen	-11.7967
▁posadka	-11.7967
▁zasedle	-11.7967
▁graditelj	-11.7967
▁slovaška	-11.7967
▁obrača	-11.7967
▁pearl	-11.7967
▁iskanja	-11.7967
▁boginjo	-11.7967
▁neformaln	-11.7967
▁seznanil	-11.7968
▁izstopil	-11.7968
▁command	-11.7969
▁čezmorsk	-11.7969
▁zaužit	-11.7969
▁fizični	-11.797
▁sumerske	-11.7972
▁ločevanj	-11.7977
▁pomožni	-11.7988
numeričn	-11.7998
bariton	-11.8018
metrsk	-11.8025
▁individu	-11.8052
▁zrakoplov	-11.8113
▁copleyjev	-11.8113
▁göttingen	-11.8113
▁jugozahodno	-11.8113
▁kakršno	-11.8113
▁katoliško	-11.8113
▁novgorod	-11.8113
▁poenostavljen	-11.8113
▁ponazarja	-11.8113
▁zadrževal	-11.8113
▁astronavt	-11.8113
▁otroštvo	-11.8113
▁ozadju	-11.8113
▁plazilci	-11.8113
▁lokostrel	-11.8113
▁pritožb	-11.8113
▁brazilsk	-11.8113
▁konference	-11.8113
▁škotska	-11.8113
▁zaščita	-11.8113
▁ohlap	-11.8113
▁asirci	-11.8114
▁podložni	-11.8114
▁natisnjen	-11.8114
▁poimenuje	-11.8114
▁preobrazb	-11.8114
▁pričakuje	-11.8114
▁ritual	-11.8114
▁smodnik	-11.8115
▁pobožn	-11.8116
▁pasivn	-11.8126
evropski	-11.8153
------+	-11.8187
▁plastičn	-11.8203
▁bernoulli	-11.8263
▁najvplivnejš	-11.8263
▁inšpektor	-11.8263
▁leibniz	-11.8263
▁povzdignil	-11.8263
▁utemeljitelj	-11.8263
▁devterij	-11.8263
▁evdoks	-11.8263
▁krščanska	-11.8263
▁leksikon	-11.8263
▁herschel	-11.8263
▁kabinet	-11.8263
▁kozmološk	-11.8263
▁prešeren	-11.8263
▁domnevni	-11.8263
▁posojil	-11.8263
▁navidezne	-11.8263
▁prvenstva	-11.8263
▁felix	-11.8263
▁najhujš	-11.8263
▁izkušenj	-11.8263
▁vzgoje	-11.8263
▁centralno	-11.8263
▁nastankom	-11.8263
▁vklesan	-11.8263
▁regulira	-11.8263
▁arhaičn	-11.8263
▁bajkalsk	-11.8263
▁mehansko	-11.8263
▁ministrsk	-11.8263
▁demokratsk	-11.8263
▁izumrtj	-11.8263
▁pismenost	-11.8264
▁tragičn	-11.8264
puščanje	-11.8264
▁tablet	-11.8265
▁resnični	-11.8267
▁živahn	-11.8267
▁čustven	-11.8273
▁logističn	-11.8276
▁absolutne	-11.8276
▁življenj	-11.8323
molekul	-11.8329
=276	-11.8335
▁atmosfera	-11.8414
▁bejrut	-11.8414
▁bombardiranje	-11.8414
▁okoljih	-11.8414
▁organizator	-11.8414
▁prazgodovinsk	-11.8414
▁rutherford	-11.8414
▁tübingen	-11.8414
▁človeštvo	-11.8414
▁teodozij	-11.8414
▁premoženja	-11.8414
▁fašizma	-11.8414
▁destinacij	-11.8414
▁posreduje	-11.8414
▁zavaroval	-11.8414
▁raziskal	-11.8415
▁šentjur	-11.8415
▁tolkal	-11.8415
▁odvzel	-11.8416
▁tržaški	-11.8416
▁polemik	-11.8417
▁pristanišk	-11.8419
▁pospešk	-11.8419
▁posluša	-11.8421
▁moravske	-11.8423
▁užit	-11.8437
▁obdelan	-11.8459
elektron	-11.848
papež	-11.8484
pehotn	-11.8494
▁utrdit	-11.8494
▁zemljišk	-11.8534
▁izkoristi	-11.8545
▁braziliji	-11.8568
▁evkariont	-11.8568
▁feldmaršal	-11.8568
▁huygens	-11.8568
▁pobočjih	-11.8568
▁porazdelitve	-11.8568
▁publicist	-11.8568
▁reaktivni	-11.8568
▁rimskokatoliške	-11.8568
▁romuniji	-11.8568
▁samarkand	-11.8568
▁siciliji	-11.8568
▁upodobil	-11.8568
▁grožnjo	-11.8568
▁varšavsk	-11.8568
▁usedlin	-11.8568
▁usklajen	-11.8568
▁invariant	-11.8568
▁heziod	-11.8568
▁operativne	-11.8568
▁lestvice	-11.8568
▁sploščen	-11.8568
▁določb	-11.8568
▁intervencij	-11.8568
▁ritmičn	-11.8568
▁obsežen	-11.8568
▁templju	-11.8568
▁tujcev	-11.8568
▁začetno	-11.8568
▁bruslju	-11.8568
▁evolucijsk	-11.8568
▁rekreacij	-11.8568
▁usmrtil	-11.8568
▁stroške	-11.8568
▁facto	-11.8569
▁nordijsk	-11.857
▁arhitekturne	-11.857
▁obhodn	-11.857
▁bliža	-11.8571
▁približuje	-11.8572
▁pripisal	-11.8575
▁obvestil	-11.8575
ifikacija	-11.8594
▁agregatn	-11.8724
▁aristarh	-11.8724
▁eratosten	-11.8724
▁mezopotamsk	-11.8724
▁oglaševal	-11.8724
▁oglaševanja	-11.8724
▁pleistocen	-11.8724
▁regiomontan	-11.8724
▁služabnik	-11.8724
▁sposobna	-11.8724
▁uresničil	-11.8724
▁salvador	-11.8724
▁teoretik	-11.8724
▁ukrajine	-11.8724
▁učinka	-11.8724
▁nominiran	-11.8724
▁vzpetin	-11.8724
▁osumljen	-11.8724
▁karolinšk	-11.8724
▁praktične	-11.8724
▁proletarsk	-11.8724
▁armenijo	-11.8724
▁postopkom	-11.8724
▁presenečen	-11.8724
▁sarajevsk	-11.8724
▁kontroln	-11.8724
▁balističn	-11.8724
▁podeželju	-11.8724
▁trenažn	-11.8724
▁odtlej	-11.8724
▁hispan	-11.8724
▁izvršne	-11.8724
▁šmarje	-11.8724
▁1792	-11.8725
▁salomon	-11.8725
▁nadrejen	-11.8725
srednjeveška	-11.8725
peptid	-11.8729
▁šiitsk	-11.8731
▁ugodne	-11.8739
▁enoličn	-11.8757
▁odpornišk	-11.8842
▁algebrska	-11.8883
▁antwerpen	-11.8883
▁armstrong	-11.8883
▁atmosferi	-11.8883
▁holokavst	-11.8883
▁onemogoči	-11.8883
▁prepričati	-11.8883
▁višavja	-11.8883
▁družabn	-11.8883
▁posrečil	-11.8883
▁prislužil	-11.8883
▁avtonomna	-11.8883
▁koncentriran	-11.8883
▁pravoslavna	-11.8883
▁božansko	-11.8883
·	-12.0168
»	-12.5882
<	-13.274
†	-13.274
