<unk>	0
<s>	0
</s>	0
.	-3.21175
,	-3.62457
s	-3.7523
▁och	-3.75445
▁i	-3.83145
▁av	-4.25049
▁	-4.25696
▁som	-4.40541
▁en	-4.51959
en	-4.5922
▁att	-4.63902
▁till	-4.71698
▁den	-4.77426
▁för	-4.82727
▁med	-4.86468
▁är	-4.88001
▁på	-4.88522
"	-4.92744
a	-4.94069
t	-5.0558
▁"	-5.08385
▁det	-5.14446
▁de	-5.14829
er	-5.15382
▁var	-5.30807
▁ett	-5.38883
-	-5.45747
#	-5.47465
▁har	-5.47907
▁#	-5.50544
▁(	-5.51045
n	-5.51188
▁från	-5.5794
="	-5.6173
d	-5.63652
▁han	-5.64388
e	-5.64916
▁under	-5.70646
▁om	-5.79962
▁år	-5.919
na	-5.95378
ar	-5.96468
▁vid	-6.0205
)	-6.04645
▁sig	-6.0794
et	-6.09045
r	-6.09214
▁men	-6.15034
▁inte	-6.1515
▁efter	-6.20156
:	-6.20868
▁även	-6.2325
doc	-6.24759
>	-6.25942
▁eller	-6.26103
de	-6.37469
talet	-6.39994
▁hade	-6.40127
▁man	-6.40136
▁kan	-6.40677
▁sin	-6.42765
▁andra	-6.44525
▁över	-6.48271
erna	-6.50217
/	-6.51491
▁blev	-6.53593
▁finns	-6.54093
▁då	-6.54437
▁där	-6.54732
▁genom	-6.62919
▁mot	-6.63206
▁ut	-6.6473
▁så	-6.661
▁mellan	-6.67972
▁bland	-6.70161
▁också	-6.72922
▁in	-6.73205
▁första	-6.75145
▁detta	-6.75781
▁upp	-6.79472
▁sedan	-6.79934
sv	-6.83993
).	-6.84309
i	-6.86583
▁ha	-6.88156
org	-6.88548
",	-6.8897
?	-6.89214
ies	-6.89456
▁hans	-6.90693
▁sverige	-6.90854
▁två	-6.90889
wiki	-6.9306
o	-6.93416
wikipedia	-6.93625
▁skulle	-6.93836
curi	-6.93846
),	-6.94703
://	-6.94943
▁url	-6.95099
▁<	-6.95119
https	-6.95182
▁categor	-6.95186
▁title	-6.95254
▁</	-6.95402
▁fick	-6.98265
▁när	-6.98496
▁samt	-7.00135
▁dock	-7.00242
▁id	-7.00802
▁svenska	-7.01703
".	-7.03519
▁annat	-7.04909
▁olika	-7.05001
▁många	-7.06516
▁vilket	-7.08143
▁dessa	-7.08601
▁flera	-7.09698
▁inom	-7.1153
▁än	-7.1229
▁del	-7.1303
an	-7.13469
arna	-7.13652
▁denna	-7.14787
▁kom	-7.15348
▁hon	-7.15834
k	-7.16038
▁stora	-7.19815
c	-7.19868
▁senare	-7.20975
m	-7.22678
ning	-7.23684
▁fram	-7.24642
;	-7.24812
▁sina	-7.26047
▁stor	-7.26297
▁1	-7.26753
▁alla	-7.28808
▁vara	-7.29587
▁sitt	-7.32691
p	-7.34068
▁mer	-7.35061
▁mycket	-7.352
are	-7.35596
h	-7.35815
ade	-7.37117
▁tre	-7.37592
in	-7.38737
▁staden	-7.3911
re	-7.39319
▁samma	-7.39847
▁enligt	-7.40277
des	-7.41373
y	-7.41859
▁landet	-7.42333
▁tid	-7.42494
▁exempel	-7.42908
iska	-7.43249
f	-7.43532
g	-7.43993
▁000	-7.44103
–	-7.45118
▁största	-7.45467
▁o	-7.46797
ts	-7.48396
ande	-7.49326
▁ofta	-7.4949
v	-7.4995
▁nya	-7.50681
▁utan	-7.52151
▁grund	-7.52563
at	-7.55123
▁16	-7.55299
▁ny	-7.55997
▁15	-7.56859
ska	-7.57616
▁kunde	-7.57737
▁tidigare	-7.57857
l	-7.58007
ens	-7.58637
or	-7.58811
▁dess	-7.58882
▁ligger	-7.58995
▁död	-7.60923
▁be	-7.61807
nde	-7.6424
▁17	-7.65091
b	-7.66762
▁större	-7.66878
▁stockholm	-7.6763
")	-7.68535
as	-7.68808
▁kommun	-7.69132
▁–	-7.69455
▁karl	-7.69993
▁några	-7.70485
es	-7.71588
▁2	-7.71775
▁f	-7.72295
▁hela	-7.72432
u	-7.73051
▁namn	-7.73747
▁varit	-7.74173
▁början	-7.75036
us	-7.75038
för	-7.75595
▁("	-7.76359
▁procent	-7.78812
▁mest	-7.7975
is	-7.79785
▁fanns	-7.8019
▁namnet	-7.80261
▁började	-7.80262
▁här	-7.80604
▁vissa	-7.81127
j	-7.82048
▁både	-7.822
'	-7.83631
▁3	-7.83695
▁hos	-7.83895
▁kung	-7.83972
▁mindre	-7.84553
▁språk	-7.84569
▁ur	-7.84616
▁honom	-7.84828
ad	-7.84853
al	-7.84885
ta	-7.85443
▁få	-7.85652
▁används	-7.86151
▁medan	-7.86425
▁åt	-7.87048
▁eftersom	-7.87254
da	-7.88179
▁ska	-7.89289
▁kallas	-7.8954
▁allt	-7.89578
▁gjorde	-7.899
se	-7.90725
▁cirka	-7.91117
▁e	-7.91261
it	-7.91408
▁tillsammans	-7.9238
man	-7.92422
▁delar	-7.92479
▁något	-7.93069
▁usa	-7.95706
▁k	-7.9627
endast	-7.96364
▁bara	-7.96886
x	-7.97084
▁m	-7.97543
▁svensk	-7.98287
▁tog	-7.98872
▁ta	-7.99815
▁dem	-8.00057
kr	-8.00354
redan	-8.00661
▁idag	-8.01632
▁an	-8.02202
▁delen	-8.02396
▁först	-8.02575
um	-8.02615
▁c	-8.02858
▁sveriges	-8.03385
▁omkring	-8.03449
sk	-8.03862
▁barn	-8.04057
▁per	-8.04619
▁folk	-8.04974
on	-8.05449
som	-8.05897
▁kommer	-8.06203
▁14	-8.06475
▁la	-8.06495
▁själv	-8.06628
▁10	-8.06749
▁form	-8.06946
▁därför	-8.07016
▁någon	-8.07099
▁d	-8.07102
ma	-8.07653
▁deras	-8.07829
ing	-8.07957
▁bli	-8.08136
▁4	-8.08315
▁historia	-8.08693
▁se	-8.08883
▁gustav	-8.08946
▁nu	-8.09471
▁län	-8.0997
▁före	-8.10016
te	-8.10027
▁kallade	-8.10108
▁5	-8.10253
▁vatten	-8.1036
den	-8.10473
▁”	-8.10622
▁13	-8.10774
▁hög	-8.10977
▁12	-8.11035
▁%	-8.11131
▁tiden	-8.11783
be	-8.11995
▁gamla	-8.12014
▁sätt	-8.12195
▁fyra	-8.12667
lig	-8.12701
le	-8.12939
▁antal	-8.14176
ra	-8.14272
land	-8.14666
▁främst	-8.15099
la	-8.15658
▁området	-8.16511
▁därefter	-8.16524
▁gick	-8.17576
▁personer	-8.17597
▁land	-8.17637
tal	-8.18335
ne	-8.18598
▁landets	-8.18758
▁norra	-8.19266
sson	-8.19499
▁norr	-8.19864
liga	-8.1993
▁slutet	-8.20638
▁meter	-8.20737
▁vilka	-8.20759
ö	-8.20831
▁son	-8.20907
ns	-8.21209
▁hur	-8.21376
▁södra	-8.21466
▁vi	-8.22013
▁varje	-8.22084
▁december	-8.22191
▁åter	-8.22258
het	-8.22382
▁hennes	-8.22401
▁innan	-8.22546
▁dag	-8.22771
▁g	-8.22916
berg	-8.22982
ter	-8.23062
▁europa	-8.23831
▁miljoner	-8.23958
19	-8.24197
▁befolkningen	-8.24468
▁flesta	-8.24522
▁åren	-8.25316
▁stort	-8.25371
▁6	-8.25555
▁vilken	-8.25672
▁fri	-8.25921
ut	-8.25983
=	-8.26592
▁carl	-8.267
▁(19	-8.26821
by	-8.27317
el	-8.27983
▁helt	-8.28157
ja	-8.28668
▁re	-8.2874
▁vill	-8.29147
ig	-8.29162
▁består	-8.2919
▁invånare	-8.29343
▁går	-8.2946
▁tyska	-8.29466
▁johan	-8.29482
▁kungen	-8.29512
▁länder	-8.30169
▁samtidigt	-8.30471
▁vad	-8.30529
▁von	-8.30548
▁låg	-8.30699
ur	-8.30812
▁januari	-8.3089
▁of	-8.30922
bo	-8.31023
8	-8.31429
▁äldre	-8.31501
w	-8.31606
▁gav	-8.3162
▁exempelvis	-8.31993
▁söder	-8.32433
z	-8.3258
▁ge	-8.32634
▁lik	-8.32653
▁kultur	-8.33046
▁7	-8.33327
▁världen	-8.3337
▁trots	-8.33372
▁runt	-8.33464
▁förekommer	-8.33558
▁uppsala	-8.33642
▁maj	-8.33826
▁kriget	-8.34342
ka	-8.34345
▁båda	-8.34542
▁sten	-8.34626
▁8	-8.34715
▁ledde	-8.35467
ia	-8.3554
▁val	-8.35673
▁lång	-8.36239
▁får	-8.36273
iga	-8.36436
os	-8.36491
▁huvud	-8.36538
▁erik	-8.36603
▁människor	-8.37021
▁ibland	-8.37371
▁vidare	-8.37731
isk	-8.37821
▁tyskland	-8.37895
▁året	-8.3797
▁egen	-8.38082
▁fem	-8.38128
▁t	-8.38351
▁20	-8.38387
▁danmark	-8.39043
▁al	-8.39417
▁p	-8.40082
ga	-8.40121
▁stockholms	-8.40419
▁stad	-8.40825
om	-8.41591
ge	-8.41886
▁a	-8.4201
▁juli	-8.42012
▁blivit	-8.42176
▁sista	-8.42202
▁far	-8.42243
▁dessutom	-8.42261
▁lag	-8.43117
–1	-8.4317
▁kommunen	-8.43566
▁the	-8.44034
▁annan	-8.44056
▁politiska	-8.44062
▁mars	-8.44512
▁1800-	-8.44763
▁samband	-8.44798
▁liv	-8.4492
▁särskilt	-8.45063
ä	-8.45317
ism	-8.4574
▁fall	-8.45955
▁nära	-8.45975
▁kring	-8.46095
▁kvar	-8.46189
son	-8.46361
▁frankrike	-8.46806
▁tillbaka	-8.46924
▁v	-8.47203
▁utanför	-8.47405
▁b	-8.4743
▁kända	-8.47437
▁juni	-8.47673
▁istället	-8.47732
▁gör	-8.47842
▁ungefär	-8.4799
2	-8.48139
▁bo	-8.4815
▁kunna	-8.48717
▁kyrkan	-8.48738
▁plats	-8.48787
▁därmed	-8.4923
min	-8.49257
▁övriga	-8.49582
▁samman	-8.49706
ck	-8.4974
▁franska	-8.50043
▁års	-8.50521
▁oktober	-8.50529
▁född	-8.50732
▁ca	-8.50811
sta	-8.50905
▁verk	-8.50918
”	-8.5103
va	-8.51485
▁slott	-8.51634
▁ned	-8.51723
ul	-8.52059
▁fortfarande	-8.52114
▁ord	-8.52128
é	-8.52219
ades	-8.52513
▁slut	-8.52524
▁blir	-8.52602
▁11	-8.52649
▁göra	-8.52889
▁september	-8.5313
▁november	-8.53592
hus	-8.53954
▁enda	-8.54151
▁ordet	-8.54175
4	-8.54261
ering	-8.5434
ion	-8.54497
▁9	-8.54592
▁ger	-8.54852
var	-8.54918
▁gud	-8.54921
der	-8.55131
▁såsom	-8.5535
▁finland	-8.55719
▁hjälp	-8.56082
ningen	-8.56224
▁små	-8.56264
▁h	-8.56344
▁all	-8.56359
är	-8.56413
ium	-8.57832
erade	-8.57897
▁fått	-8.5809
▁havet	-8.58112
▁30	-8.58138
▁skrev	-8.58429
ell	-8.58517
▁högsta	-8.58786
▁nästan	-8.59324
▁områden	-8.5955
▁stöd	-8.59633
▁längre	-8.59745
▁konst	-8.5983
verk	-8.60263
▁följande	-8.60445
▁augusti	-8.60617
ligt	-8.60625
▁måste	-8.60725
▁gustaf	-8.60775
▁norge	-8.61535
▁april	-8.61537
▁bildades	-8.61705
▁musik	-8.62147
▁nord	-8.62274
▁världskriget	-8.62296
to	-8.62321
▁regeringen	-8.62343
▁w	-8.62441
▁ner	-8.6264
å	-8.62803
▁km	-8.62869
av	-8.62924
ro	-8.63374
▁universitet	-8.63514
▁sa	-8.63568
▁säga	-8.63827
▁tv	-8.64142
▁öster	-8.64143
▁-	-8.64559
▁utgör	-8.64672
med	-8.6476
▁makt	-8.65211
▁hem	-8.66082
▁ytterligare	-8.66404
▁gången	-8.66444
▁nuvarande	-8.66493
▁president	-8.66596
▁ii	-8.66776
ger	-8.67221
▁national	-8.6727
ke	-8.67277
▁stod	-8.67478
▁internationella	-8.67761
▁kristna	-8.67805
▁framför	-8.67903
▁fredrik	-8.68177
▁världens	-8.68198
▁östra	-8.68631
▁västra	-8.69245
▁högre	-8.69466
▁väg	-8.69483
▁skall	-8.69607
▁befolkning	-8.6967
▁februari	-8.69722
▁betydelse	-8.6985
▁ryssland	-8.70086
▁gång	-8.70259
ch	-8.70366
▁ön	-8.70389
▁(18	-8.70457
▁aldrig	-8.70535
▁ab	-8.70784
▁väl	-8.71099
▁riket	-8.71111
▁sex	-8.71113
del	-8.71175
▁å	-8.71257
▁roll	-8.71486
väl	-8.71618
di	-8.72171
▁modern	-8.72526
▁slaget	-8.72529
▁rätt	-8.73247
▁film	-8.73415
▁europeiska	-8.73464
▁anses	-8.73472
20	-8.73807
ström	-8.74034
▁ingen	-8.74238
ningar	-8.74344
▁1900-	-8.74557
▁gånger	-8.74653
▁via	-8.74704
gen	-8.74742
▁kort	-8.74866
▁bort	-8.74879
▁tredje	-8.7497
▁kvinnor	-8.75203
▁rad	-8.7522
▁ville	-8.75502
▁ryska	-8.75729
▁ännu	-8.76184
▁byggdes	-8.76247
▁engelska	-8.76344
▁krig	-8.76412
ko	-8.76593
▁person	-8.76678
▁kallad	-8.76745
▁känd	-8.76796
▁hus	-8.77214
ken	-8.7741
ius	-8.77494
▁sidan	-8.77728
▁hand	-8.77913
▁fler	-8.78065
18	-8.78145
mar	-8.78345
▁väst	-8.78534
men	-8.78932
▁st	-8.79044
▁18	-8.79056
▁mark	-8.79061
▁du	-8.79094
▁antalet	-8.79299
]]	-8.79433
▁djur	-8.79538
ner	-8.79658
utom	-8.79705
the	-8.79723
▁egna	-8.8015
▁mor	-8.80426
▁danska	-8.80952
▁haft	-8.81373
▁område	-8.8144
▁ekonomi	-8.81708
▁arter	-8.81754
kar	-8.81767
▁själva	-8.81777
ton	-8.81833
stad	-8.82017
▁äldsta	-8.82113
▁inför	-8.82317
▁mat	-8.82434
▁slottet	-8.82504
il	-8.8254
▁nytt	-8.82747
▁varav	-8.82986
▁el	-8.83015
▁användes	-8.83017
lag	-8.83301
▁vann	-8.83377
▁magnus	-8.83578
▁mål	-8.83789
tor	-8.84139
▁ursprung	-8.84446
▁göteborg	-8.85059
ation	-8.85384
▁[[	-8.8541
ve	-8.86058
▁utbildning	-8.86172
▁le	-8.86178
▁parti	-8.86191
▁direkt	-8.86283
▁dagar	-8.86312
▁väster	-8.86322
▁paris	-8.86393
▁alltså	-8.86514
▁25	-8.86529
▁ka	-8.86592
me	-8.86673
pa	-8.86752
ling	-8.87003
▁henne	-8.87305
▁står	-8.87512
no	-8.87546
▁ekonomiska	-8.87837
▁sjö	-8.88368
▁rum	-8.8837
▁numera	-8.88377
▁innebär	-8.8864
▁lika	-8.88719
▁öst	-8.89377
ot	-8.89415
▁mo	-8.89696
ist	-8.89847
▁italien	-8.90026
▁ö	-8.90029
▁centrum	-8.90043
ver	-8.90068
mer	-8.90254
ik	-8.90413
▁iii	-8.90534
▁dotter	-8.90725
id	-8.90735
▁rom	-8.90803
▁mitten	-8.90974
▁gift	-8.91144
|	-8.91193
0	-8.91316
▁tal	-8.91455
▁storbritannien	-8.91482
lar	-8.9154
▁tillhör	-8.91541
▁företag	-8.91903
▁general	-8.91913
co	-8.92019
▁minst	-8.92057
▁huvudstad	-8.92072
▁socken	-8.92255
▁städer	-8.92308
▁sett	-8.92553
▁adolf	-8.92575
▁stadens	-8.9263
else	-8.92659
ster	-8.92698
80	-8.927
▁följd	-8.92727
ha	-8.92764
▁viss	-8.93119
▁ingår	-8.93123
po	-8.9315
▁problem	-8.93219
sten	-8.93384
▁new	-8.9345
▁ursprungligen	-8.93489
lt	-8.93597
▁jag	-8.93805
▁gäller	-8.93821
ce	-8.9387
▁bok	-8.9395
▁fortsatte	-8.94012
▁oftast	-8.94179
ci	-8.94272
▁respektive	-8.94413
▁länge	-8.94565
system	-8.94732
mo	-8.94801
▁guld	-8.94892
nas	-8.94905
▁längs	-8.95017
▁viktig	-8.95088
▁lät	-8.95171
▁dog	-8.95201
▁varandra	-8.95204
30	-8.95277
spel	-8.95422
▁bi	-8.95564
▁använda	-8.95759
▁medlemmar	-8.95855
ier	-8.95858
▁makten	-8.95938
▁armén	-8.96117
vis	-8.96163
▁män	-8.96268
▁beroende	-8.96326
▁ra	-8.96366
▁system	-8.96473
▁fast	-8.96581
äck	-8.96808
▁kon	-8.96816
▁partiet	-8.97289
rätt	-8.97305
▁lyckades	-8.97347
▁utveckling	-8.97438
50	-8.97475
▁omfattande	-8.97631
till	-8.97849
aren	-8.9829
lin	-8.98316
▁natur	-8.98426
ca	-8.98453
▁100	-8.98509
▁par	-8.9856
").	-8.9865
25	-8.9866
▁politik	-8.98853
17	-8.98953
th	-8.98993
▁brukar	-8.99042
▁innehåller	-8.99184
▁staten	-8.99287
ör	-8.99465
ex	-8.9947
▁krigs	-8.9965
▁världs	-8.99994
amp	-9.0009
=1	-9.00121
je	-9.00152
ba	-9.00175
=7	-9.00344
▁amerikanska	-9.00461
▁jord	-9.00514
▁central	-9.00528
▁ålder	-9.00924
▁kust	-9.01009
ti	-9.01062
iskt	-9.0121
go	-9.01219
▁stads	-9.01522
orna	-9.01581
▁kungliga	-9.01724
▁sju	-9.01915
lo	-9.01955
=6	-9.01963
▁tur	-9.0203
▁2006	-9.02056
▁gå	-9.02236
▁pa	-9.02348
í	-9.02353
▁dels	-9.0238
▁di	-9.02454
▁flyttade	-9.02464
▁berg	-9.02476
▁centrala	-9.02592
▁50	-9.02613
=4	-9.02881
▁and	-9.02975
▁använder	-9.03074
▁biografi	-9.03075
▁räknas	-9.03244
bi	-9.0336
▁ljus	-9.03375
=3	-9.03433
val	-9.03492
▁radio	-9.03717
▁moderna	-9.03786
▁församling	-9.03846
ry	-9.04161
▁visar	-9.04309
▁riks	-9.04328
ir	-9.04424
3	-9.04554
fall	-9.04571
▁lämnade	-9.04767
▁familjen	-9.04774
▁militär	-9.04799
itet	-9.04935
▁lever	-9.05089
▁spelade	-9.05295
▁betyder	-9.05309
▁tio	-9.05328
▁tar	-9.05337
▁energi	-9.05396
vi	-9.05603
▁kilometer	-9.05629
mp	-9.05814
am	-9.0591
▁tro	-9.06163
▁gifte	-9.06236
▁starkt	-9.0624
▁sp	-9.06251
kor	-9.06264
▁polen	-9.0628
▁stats	-9.06351
▁skåne	-9.06526
▁program	-9.06756
▁däremot	-9.06764
10	-9.06831
▁bra	-9.06922
▁icke	-9.06952
40	-9.06998
▁bas	-9.07014
ri	-9.07029
slag	-9.07034
▁sch	-9.07062
▁kallades	-9.07063
▁l	-9.07067
▁flyg	-9.07091
sjö	-9.07101
▁höga	-9.07106
▁24	-9.07225
▁visade	-9.07404
▁lo	-9.07433
tu	-9.07602
▁2014	-9.07891
▁inflytande	-9.07993
od	-9.08008
ed	-9.08064
▁stället	-9.08308
▁viktigaste	-9.08346
ten	-9.08409
▁j	-9.08525
▁vapen	-9.08662
▁verksamhet	-9.08773
borg	-9.088
▁vanligen	-9.08892
▁skedde	-9.09014
▁england	-9.09016
▁grupper	-9.09135
ernas	-9.09148
▁2007	-9.09158
▁grundades	-9.09171
▁komma	-9.0932
▁2008	-9.09389
▁grupp	-9.09396
▁drottning	-9.09496
ord	-9.09503
ni	-9.09816
upp	-9.09829
gång	-9.09834
vin	-9.10149
▁medlem	-9.10404
▁användas	-9.10432
▁mitt	-9.10437
▁eu	-9.10464
▁2016	-9.10651
▁nordiska	-9.10754
kt	-9.10765
▁jorden	-9.10797
▁ben	-9.11163
▁kyrka	-9.11211
▁jesus	-9.11249
sjön	-9.11254
▁sk	-9.11499
▁klimat	-9.11622
li	-9.11629
▁1700-	-9.11754
▁ordförande	-9.11763
istiska	-9.11781
=2	-9.11852
▁n	-9.11862
▁långt	-9.11954
▁relativ	-9.12042
▁0	-9.12068
2"	-9.12123
▁bor	-9.12191
▁alltid	-9.12226
br	-9.12265
▁liknande	-9.12414
▁dagens	-9.12474
▁knut	-9.12505
tar	-9.12537
▁kina	-9.12744
ans	-9.12943
▁jul	-9.12969
8"	-9.13206
▁2010	-9.13224
▁bild	-9.13323
▁färg	-9.13362
▁inre	-9.13528
▁sida	-9.13607
▁vin	-9.13916
do	-9.14143
▁art	-9.14301
▁2005	-9.14347
▁r	-9.14407
▁ser	-9.14521
▁god	-9.14692
▁valet	-9.1471
4"	-9.14838
59	-9.14867
ste	-9.14906
bar	-9.14918
▁landskapet	-9.1494
15	-9.14978
▁2009	-9.15066
▁co	-9.15133
rän	-9.15167
par	-9.15271
ü	-9.1541
▁x	-9.15448
tid	-9.15565
▁socialdemokrat	-9.15606
▁viktiga	-9.15636
5	-9.15761
tan	-9.15775
▁1990-	-9.15809
▁totalt	-9.15849
▁växte	-9.15865
▁försök	-9.1615
1"	-9.16245
▁såg	-9.1625
▁ga	-9.16258
ler	-9.16416
▁hör	-9.16445
tes	-9.16504
▁emellertid	-9.16517
="7	-9.16625
11	-9.16756
▁gjort	-9.16857
▁31	-9.16857
▁liten	-9.16888
▁enbart	-9.16975
▁handels	-9.17181
▁period	-9.17208
era	-9.17439
mark	-9.17622
▁ingick	-9.17668
▁grekiska	-9.17744
▁mängd	-9.17783
▁brittiska	-9.17799
85	-9.17857
▁ro	-9.17898
tion	-9.18036
▁xii	-9.18062
ff	-9.1807
un	-9.18072
86	-9.18137
▁snart	-9.18143
▁500	-9.18169
▁kol	-9.18185
▁sam	-9.1819
▁gräns	-9.1829
▁1600-	-9.18302
ala	-9.18372
▁innebar	-9.18393
6"	-9.18444
▁inga	-9.18466
▁ökade	-9.18525
em	-9.18645
▁tidiga	-9.18655
▁40	-9.18674
▁me	-9.18682
jä	-9.18714
ki	-9.18747
bb	-9.18764
ic	-9.18768
råd	-9.18859
rna	-9.18904
3"	-9.18924
▁he	-9.18984
▁no	-9.19037
ring	-9.19182
▁'	-9.19313
57	-9.19349
9"	-9.19477
60	-9.19502
▁arbete	-9.1954
▁medel	-9.19627
▁långa	-9.19809
1	-9.1992
▁2000	-9.20037
▁snabbt	-9.20071
gar	-9.20098
▁tidigt	-9.20145
mi	-9.20158
▁yngre	-9.2017
▁ton	-9.20199
att	-9.20245
ren	-9.20321
▁begreppet	-9.20341
▁af	-9.20349
▁te	-9.20404
5"	-9.20472
▁språket	-9.20666
▁självständighet	-9.2077
▁bör	-9.20783
form	-9.2082
▁2011	-9.20837
plan	-9.20921
▁ju	-9.21066
ny	-9.21105
▁författare	-9.21107
▁industri	-9.21149
▁lokala	-9.21222
="6	-9.21361
▁litteratur	-9.21392
▁sol	-9.21402
▁vasa	-9.21416
▁ansåg	-9.21463
▁bruk	-9.21514
▁beslut	-9.21522
53	-9.21754
▁deltog	-9.21762
▁syd	-9.21786
rum	-9.21851
▁sådana	-9.21852
35	-9.21877
ett	-9.21882
▁sovjetunionen	-9.22125
▁samtliga	-9.22238
56	-9.22292
år	-9.22465
▁21	-9.22537
▁delvis	-9.22618
▁bar	-9.22623
ang	-9.22645
fa	-9.22659
pi	-9.2274
▁brev	-9.22747
▁stil	-9.22788
▁skillnad	-9.22853
ndet	-9.22896
▁lund	-9.22961
▁grav	-9.22974
ho	-9.23052
84	-9.23152
▁slag	-9.23164
▁tor	-9.23189
▁to	-9.23233
7"	-9.23244
på	-9.23278
det	-9.23404
▁bil	-9.23471
▁ras	-9.23839
▁regering	-9.24016
▁li	-9.24055
▁vanligt	-9.24106
▁sport	-9.2427
näs	-9.24328
ats	-9.24552
70	-9.24604
90	-9.24626
▁&	-9.24647
hi	-9.24662
▁trä	-9.24669
▁pre	-9.24721
▁samhället	-9.24741
▁följde	-9.24955
12	-9.2503
dom	-9.25051
ly	-9.25096
▁kl	-9.25201
bro	-9.25255
▁kronor	-9.25258
▁bror	-9.25258
52	-9.25264
▁betydande	-9.25308
82	-9.2539
▁trupper	-9.25468
▁olof	-9.25587
▁använde	-9.25718
▁pro	-9.25743
81	-9.25744
skap	-9.25866
kon	-9.26262
led	-9.26311
▁museum	-9.26534
▁ko	-9.26543
▁järn	-9.26561
yr	-9.26673
▁försökte	-9.26772
▁22	-9.26787
▁romerska	-9.26828
▁hertig	-9.26841
sch	-9.26924
▁2002	-9.27284
ismen	-9.27498
▁stat	-9.27545
▁kungens	-9.27555
ligen	-9.27608
▁1970-	-9.27619
▁august	-9.27685
14	-9.27732
▁familj	-9.27885
▁syn	-9.27907
51	-9.28082
ie	-9.28198
▁senaste	-9.28313
▁bakgrund	-9.28324
dag	-9.28355
▁hov	-9.28381
språk	-9.2842
▁berlin	-9.28435
▁2015	-9.28484
▁arbets	-9.28554
▁utgjorde	-9.28626
▁200	-9.28781
lund	-9.28797
▁am	-9.28901
djur	-9.28982
▁medeltiden	-9.28983
58	-9.29093
kan	-9.29195
▁bygga	-9.29204
▁människan	-9.29217
mål	-9.29267
▁maria	-9.29271
▁igen	-9.29327
området	-9.29462
vägen	-9.29592
ber	-9.29618
▁2018	-9.29618
▁råd	-9.29689
huset	-9.2972
rar	-9.29827
▁blå	-9.29979
▁sommaren	-9.30003
ant	-9.30053
▁menar	-9.30117
▁emot	-9.30126
si	-9.30213
▁flertal	-9.30243
▁hölls	-9.30297
▁förlorade	-9.30341
ställ	-9.30454
▁ställning	-9.30485
eri	-9.30495
per	-9.30505
▁byggnader	-9.30541
▁troligen	-9.30583
▁stark	-9.30651
▁1980-	-9.30706
▁sådan	-9.3075
▁islam	-9.30807
tro	-9.30824
▁su	-9.30901
54	-9.30913
▁2004	-9.31051
0"	-9.31068
op	-9.31215
▁uttryck	-9.3126
▁ar	-9.3127
▁gruppen	-9.31297
▁gränsen	-9.31383
▁typ	-9.31461
▁23	-9.31484
ets	-9.31556
▁undantag	-9.31654
ighet	-9.31685
00	-9.31721
tåg	-9.31776
▁min	-9.31886
▁svart	-9.31891
▁republiken	-9.31992
ån	-9.32014
▁hösten	-9.32058
▁y	-9.32109
erat	-9.32128
▁gen	-9.32155
▁religion	-9.32178
▁studier	-9.3226
▁forskning	-9.3239
▁vanliga	-9.3244
96	-9.32566
▁historiska	-9.3258
gi	-9.32584
▁serie	-9.32592
gatan	-9.32676
▁utvecklades	-9.32922
▁drog	-9.33323
▁bestod	-9.33329
▁tysk	-9.33341
au	-9.33452
▁österrike	-9.33465
og	-9.33475
fi	-9.33504
83	-9.33562
▁främsta	-9.33585
im	-9.33615
▁halv	-9.33689
tra	-9.33692
ran	-9.33717
gren	-9.33832
▁malmö	-9.34043
▁plan	-9.34136
▁mar	-9.3415
▁skapa	-9.34164
kategori	-9.34208
▁styre	-9.34236
vik	-9.34309
lösa	-9.34358
13	-9.34419
män	-9.34478
▁19	-9.34481
▁armé	-9.34553
▁pi	-9.34597
▁denne	-9.34725
▁van	-9.34736
▁grad	-9.34828
▁huvudstaden	-9.34852
▁eget	-9.34854
▁huvudsakligen	-9.3494
mor	-9.35024
▁bak	-9.35231
▁tidningen	-9.35383
▁åtta	-9.35447
▁ägde	-9.35536
▁ursprungliga	-9.35566
len	-9.35609
▁1971	-9.35662
▁lu	-9.35723
van	-9.35884
▁sker	-9.35904
erad	-9.35918
▁höjd	-9.35922
▁användning	-9.36008
45	-9.36021
66	-9.36169
▁livet	-9.36173
▁avled	-9.3623
▁ledare	-9.36251
▁28	-9.36294
eller	-9.36343
▁ledning	-9.36378
▁kraft	-9.36455
ven	-9.36465
én	-9.36465
▁känt	-9.36592
▁officiella	-9.36776
▁ej	-9.36828
ol	-9.36841
▁allmänna	-9.3691
▁norska	-9.36997
ung	-9.37011
▁månader	-9.37157
▁export	-9.37221
▁källor	-9.37225
▁funktion	-9.37257
▁san	-9.37308
ina	-9.37353
liv	-9.37361
▁kunskap	-9.37372
▁stift	-9.3738
▁gammal	-9.37393
ian	-9.37528
▁bodde	-9.37536
ek	-9.37592
▁bildade	-9.37636
39	-9.37669
▁omfattar	-9.37712
ön	-9.37733
49	-9.37761
▁bl	-9.37934
87	-9.37938
▁z	-9.38
▁bättre	-9.38107
▁hel	-9.38181
▁anti	-9.38287
▁möjligt	-9.38403
16	-9.38426
&	-9.38549
▁japan	-9.38554
▁fransk	-9.38608
▁si	-9.38633
▁london	-9.38723
▁finska	-9.38756
▁göteborgs	-9.3877
ister	-9.38849
▁anders	-9.38909
▁öppna	-9.3904
▁u	-9.39081
▁bakom	-9.39217
21	-9.39229
▁standard	-9.39268
igt	-9.3933
pe	-9.39568
▁2012	-9.39681
▁släkt	-9.39711
28	-9.39749
▁höll	-9.39769
▁nils	-9.3979
sdotter	-9.39878
▁silver	-9.40027
47	-9.40059
▁nationella	-9.40062
str	-9.4008
▁föddes	-9.40102
efter	-9.40161
rik	-9.40218
varande	-9.40257
mä	-9.40298
kom	-9.40374
talets	-9.40458
sp	-9.40477
▁strax	-9.40603
▁huset	-9.40636
▁kor	-9.40695
▁anna	-9.40726
▁religiösa	-9.40737
▁näst	-9.40738
▁bro	-9.40755
▁2003	-9.40815
▁kommit	-9.40836
55	-9.40839
ou	-9.40854
ben	-9.40858
▁kristian	-9.41167
vet	-9.41168
väg	-9.41177
7	-9.4121
▁26	-9.41256
á	-9.41284
▁tvingades	-9.413
▁ad	-9.41318
▁afrika	-9.41328
gård	-9.41339
71	-9.41358
▁2001	-9.41441
36	-9.41489
▁träd	-9.41597
▁kloster	-9.41608
▁1960-	-9.41712
över	-9.41765
▁lägre	-9.41861
▁indelning	-9.41871
▁sven	-9.41874
77	-9.41884
▁1991	-9.41904
▁sm	-9.42072
▁riksdagen	-9.42103
▁uppdrag	-9.42108
▁ända	-9.42152
▁krav	-9.42211
tiden	-9.42288
ator	-9.42339
▁valde	-9.42356
▁fred	-9.42357
26	-9.42358
▁yta	-9.42389
▁akademien	-9.42421
▁officiellt	-9.42521
▁gjordes	-9.42528
▁mil	-9.426
▁arv	-9.42633
▁trafik	-9.42773
29	-9.42812
88	-9.42937
▁förslag	-9.43
▁dra	-9.43019
▁bär	-9.43031
▁vita	-9.43061
▁lands	-9.4308
▁ljud	-9.43085
dal	-9.43098
▁samhälls	-9.43107
isering	-9.43117
▁geografi	-9.43121
▁os	-9.43143
%	-9.43178
▁frågor	-9.43212
33	-9.43214
▁john	-9.43219
iv	-9.43246
▁tillhörde	-9.43271
▁ne	-9.43358
▁2013	-9.43492
▁samarbete	-9.4363
▁byggnaden	-9.43669
▁svårt	-9.43722
talen	-9.43815
za	-9.43842
ru	-9.43843
▁sydväst	-9.43864
▁säsongen	-9.43893
43	-9.4392
64	-9.43998
93	-9.43999
▁ni	-9.44015
▁°	-9.44018
äng	-9.44025
ud	-9.44119
▁27	-9.44163
▁delas	-9.44177
ok	-9.44283
▁po	-9.44318
44	-9.44354
▁levde	-9.44445
63	-9.44465
75	-9.44481
▁historik	-9.44494
▁folket	-9.44534
38	-9.44575
▁spel	-9.4464
tiska	-9.44664
ll	-9.44684
fl	-9.44684
▁post	-9.44689
24	-9.44699
▁lätt	-9.44848
22	-9.44869
▁arbetade	-9.44897
pp	-9.44925
98	-9.44967
▁sture	-9.45016
▁kraftigt	-9.45207
▁spanien	-9.45266
bok	-9.45337
▁2020	-9.45367
▁unionen	-9.4548
▁text	-9.45495
▁lämna	-9.4554
▁bidrag	-9.45723
▁bank	-9.45814
▁lind	-9.45815
▁delarna	-9.45928
▁information	-9.45934
▁2017	-9.45964
▁politisk	-9.46024
▁sociala	-9.46026
▁band	-9.46027
▁ersatte	-9.46088
▁ihop	-9.4609
▁antingen	-9.46259
▁kr	-9.46299
wa	-9.46318
▁sl	-9.46333
▁ho	-9.46347
97	-9.46469
▁besök	-9.4651
27	-9.46517
▁bandy	-9.46519
▁presidenten	-9.46561
▁kors	-9.46622
”.	-9.46652
▁riktning	-9.46675
▁skogs	-9.46723
▁slutligen	-9.46736
▁kyrko	-9.4684
▁60	-9.46896
bor	-9.46956
▁skiljer	-9.47008
▁tecken	-9.47057
▁tåg	-9.47099
▁syfte	-9.47254
▁vis	-9.4728
▁1500-	-9.47352
▁länderna	-9.47372
art	-9.47376
▁ren	-9.47437
▁togs	-9.47511
37	-9.47518
▁arbetar	-9.47578
▁soldater	-9.47702
namn	-9.47769
tiv	-9.47816
▁fn	-9.47823
partiet	-9.47862
▁hålla	-9.47886
▁delstaten	-9.47899
▁floden	-9.47951
▁2022	-9.47962
ak	-9.47986
34	-9.47988
▁skriva	-9.48001
mannen	-9.48047
▁stenbock	-9.48113
▁1999	-9.48115
▁internet	-9.4815
▁data	-9.48219
holm	-9.48354
▁birger	-9.48448
▁titeln	-9.48597
▁vän	-9.48725
hög	-9.48753
▁ek	-9.48762
istisk	-9.48771
▁kommuner	-9.48877
▁miljö	-9.48891
▁gu	-9.48924
▁pe	-9.49117
plats	-9.49158
▁ma	-9.49272
arnas	-9.49334
tur	-9.49436
▁skapade	-9.49442
▁uppgifter	-9.4946
zon	-9.49552
gt	-9.49597
▁tradition	-9.49625
▁as	-9.49666
▁professor	-9.49699
▁egenskaper	-9.49712
▁forskare	-9.49793
▁axel	-9.49795
▁hall	-9.49817
rad	-9.49879
ern	-9.49891
▁luft	-9.49907
▁belägen	-9.49962
▁tryck	-9.50106
▁york	-9.50164
79	-9.50191
67	-9.50223
▁just	-9.50264
48	-9.50279
32	-9.50279
▁resultat	-9.50507
46	-9.50555
▁infördes	-9.50579
▁sand	-9.50643
▁böcker	-9.50647
▁bahá	-9.50788
▁kristina	-9.50826
▁intresse	-9.50854
▁for	-9.50877
svenska	-9.50905
74	-9.50945
▁heter	-9.51082
▁kar	-9.51176
stone	-9.51235
▁organisation	-9.51239
han	-9.51297
mat	-9.51303
▁perioden	-9.51315
▁invigdes	-9.51391
▁hälften	-9.51458
▁platser	-9.51506
▁norden	-9.51537
▁syster	-9.51565
ment	-9.51567
gruppen	-9.51725
▁ansågs	-9.51738
▁röda	-9.51791
▁kontakt	-9.51849
▁led	-9.51877
▁bästa	-9.51915
eras	-9.52153
▁spår	-9.52163
skolan	-9.52268
▁däribland	-9.5229
jo	-9.52306
▁växt	-9.52327
du	-9.52336
▁bad	-9.52408
41	-9.52462
▁kusten	-9.52487
▁försvars	-9.52531
fors	-9.52579
▁1994	-9.52614
▁skolan	-9.5264
▁material	-9.52684
sam	-9.52716
vel	-9.52933
31	-9.52987
▁indien	-9.53086
▁förste	-9.53132
gården	-9.53349
stat	-9.5336
▁slutade	-9.53382
89	-9.534
62	-9.5343
▁kaffe	-9.53494
bergs	-9.53523
träd	-9.53596
▁röd	-9.53648
far	-9.53846
61	-9.53947
▁fi	-9.54
▁fält	-9.54083
)"	-9.54145
▁dit	-9.54169
▁tack	-9.54226
▁boken	-9.54229
65	-9.54231
▁lista	-9.54252
▁gi	-9.54501
tin	-9.54555
▁drygt	-9.54667
▁museet	-9.54672
▁ed	-9.54698
age	-9.54719
▁hamn	-9.5477
▁ändå	-9.54801
hem	-9.54815
▁dagen	-9.55012
▁regel	-9.55071
▁distrikt	-9.55071
▁mera	-9.5532
▁uppstod	-9.55354
my	-9.55362
▁or	-9.55373
▁peter	-9.55408
▁motsvarande	-9.55434
▁spelar	-9.55735
▁rör	-9.55809
▁strid	-9.56073
mon	-9.56166
▁nio	-9.56196
ill	-9.56328
▁företaget	-9.5633
▁valdes	-9.56373
folk	-9.56473
mma	-9.56522
systemet	-9.56542
▁ekonomisk	-9.56592
▁majoritet	-9.56734
▁mening	-9.56915
▁begrepp	-9.56933
▁platsen	-9.57024
▁städerna	-9.57068
23	-9.57134
▁da	-9.57157
▁kalmar	-9.57162
bu	-9.57205
▁fotboll	-9.57291
▁ätten	-9.57306
och	-9.57425
vatten	-9.5744
rade	-9.57445
▁administrativ	-9.57485
▁brott	-9.5755
banan	-9.57581
eg	-9.57589
▁lokal	-9.57592
▁inget	-9.5763
▁kontroll	-9.57684
▁teater	-9.5778
▁inklusiv	-9.57951
95	-9.57984
▁2019	-9.57988
tä	-9.58052
burg	-9.58132
▁drag	-9.58193
rat	-9.58207
▁öarna	-9.58291
▁asien	-9.58293
▁hustru	-9.58321
san	-9.58372
▁infrastruktur	-9.58465
▁styr	-9.58492
▁mån	-9.58504
fo	-9.5857
▁fa	-9.58576
jord	-9.58686
▁uppfördes	-9.58801
69	-9.58834
▁kritik	-9.58875
▁dennes	-9.58954
▁ses	-9.59132
▁filmen	-9.59153
gående	-9.59173
▁arbetet	-9.59181
▁29	-9.59184
▁fin	-9.59338
▁landskommun	-9.59383
73	-9.59407
▁georg	-9.59514
▁ly	-9.59528
▁typer	-9.59577
▁skäl	-9.59699
42	-9.59792
ien	-9.59878
bas	-9.59918
▁ledamot	-9.59984
▁våren	-9.60011
▁former	-9.60126
▁järnvägs	-9.60189
▁social	-9.60238
▁nå	-9.60349
▁sachsen	-9.60364
▁saknar	-9.60562
ov	-9.60577
▁kör	-9.60664
ju	-9.60676
nar	-9.60748
▁håll	-9.60824
pol	-9.60872
▁prins	-9.60882
▁militära	-9.60928
▁handel	-9.60947
▁utvecklingen	-9.60965
hamn	-9.60966
▁vit	-9.60975
gud	-9.61033
▁tillstånd	-9.61066
lan	-9.61155
▁nilsson	-9.61162
▁fisk	-9.61238
▁uppror	-9.61243
▁so	-9.61278
▁eriksson	-9.61434
erades	-9.61456
▁återfinns	-9.61522
grupper	-9.61619
ku	-9.61627
▁betydligt	-9.61752
▁fjärde	-9.6176
▁formellt	-9.61853
▁storlek	-9.61925
sidan	-9.61942
▁organisationen	-9.62081
ong	-9.62092
gu	-9.62113
▁orden	-9.62116
▁kallat	-9.62143
▁margareta	-9.62217
94	-9.62222
bara	-9.62363
▁regionen	-9.62409
▁således	-9.62496
io	-9.62504
and	-9.62542
▁status	-9.62549
▁flygplats	-9.62555
▁funnits	-9.62559
92	-9.62602
gg	-9.62615
dan	-9.62653
▁linné	-9.62692
▁premiärminister	-9.62727
▁använts	-9.62832
_	-9.62891
▁nådde	-9.62976
▁gott	-9.63159
▁dal	-9.63221
up	-9.63263
▁bu	-9.63267
bruk	-9.63315
6	-9.63323
lu	-9.63377
▁2000-	-9.63441
68	-9.6347
ica	-9.63489
ganska	-9.63505
inge	-9.63574
ab	-9.6359
▁koppar	-9.63667
99	-9.63676
▁1998	-9.63689
he	-9.63776
▁heller	-9.63837
▁80	-9.63891
▁2021	-9.63906
▁miss	-9.63935
rakt	-9.64037
▁pris	-9.64144
▁fortsatt	-9.64149
akt	-9.64243
▁skol	-9.6427
hör	-9.6445
76	-9.64475
▁guds	-9.64515
änd	-9.64567
▁ti	-9.64573
verket	-9.64635
ros	-9.64643
▁1990	-9.64704
lys	-9.64726
▁vetenskap	-9.64775
dagen	-9.64803
skola	-9.6481
brott	-9.64826
▁poäng	-9.649
▁bestående	-9.64907
heten	-9.64963
▁läns	-9.64979
▁spanska	-9.64995
▁princip	-9.65028
▁sofia	-9.65076
▁hundra	-9.65085
▁ifk	-9.6516
områden	-9.65185
gel	-9.65201
72	-9.65205
▁föremål	-9.65214
▁parlamentet	-9.6522
▁con	-9.65271
▁därpå	-9.65294
sin	-9.65326
▁hu	-9.65359
ow	-9.6538
sätt	-9.65403
lands	-9.65409
▁återvände	-9.65482
▁port	-9.65485
makt	-9.65503
▁planer	-9.65538
▁sonen	-9.6557
▁kanske	-9.65577
klass	-9.65594
▁nederländerna	-9.6568
▁ström	-9.65682
▁jo	-9.6571
▁äktenskap	-9.65711
▁vår	-9.65742
▁höger	-9.65847
▁umeå	-9.65883
ker	-9.65925
▁visa	-9.65935
▁oscar	-9.66091
▁arkitektur	-9.66218
▁högst	-9.66291
▁lett	-9.66304
▁bygg	-9.66306
aste	-9.66352
▁sammanhang	-9.66358
▁island	-9.66397
bil	-9.66416
▁utländska	-9.66575
rö	-9.66593
▁horn	-9.66822
▁ch	-9.66836
ock	-9.66842
▁solen	-9.66937
▁hitler	-9.67019
nes	-9.6702
zi	-9.67022
▁internationellt	-9.67036
▁vänster	-9.67102
▁organ	-9.67232
▁napoleon	-9.67311
▁demokrati	-9.67334
▁utrikes	-9.67351
sätta	-9.67397
staden	-9.67426
lös	-9.67477
▁kalla	-9.6754
q	-9.67557
▁uppgick	-9.67562
▁by	-9.67585
if	-9.67624
01	-9.67671
▁version	-9.67686
▁politiskt	-9.67688
▁börjar	-9.67832
▁gemensamma	-9.67958
▁serien	-9.68064
▁katarina	-9.68137
▁närmare	-9.68139
▁1974	-9.68148
▁greve	-9.68154
▁klass	-9.68228
▁vanligaste	-9.6824
▁1950-	-9.68292
▁vanlig	-9.68372
rörelsen	-9.68414
▁startade	-9.68424
▁jordbruk	-9.68452
▁björn	-9.68462
▁dy	-9.68569
▁menade	-9.68618
▁tillgång	-9.68619
▁fråga	-9.68632
▁yttre	-9.68763
ika	-9.68766
ft	-9.68877
we	-9.68896
▁chef	-9.68913
ella	-9.68962
▁precis	-9.68971
▁inleddes	-9.68981
▁ru	-9.69002
▁tagit	-9.69007
▁statens	-9.69009
▁rättigheter	-9.69055
▁lite	-9.69135
▁förklarade	-9.69143
▁fadern	-9.69155
▁varför	-9.69226
åt	-9.69266
lä	-9.69297
▁brist	-9.69298
05	-9.69336
▁privat	-9.69357
lor	-9.69376
ine	-9.69412
▁dom	-9.69623
▁brahe	-9.69646
▁sade	-9.6968
▁kejsaren	-9.69738
bild	-9.69751
program	-9.69762
▁möjlighet	-9.69775
▁karriär	-9.69877
ah	-9.69917
▁seger	-9.7006
lighet	-9.70136
▁betraktas	-9.70153
landet	-9.70256
▁slog	-9.70259
▁projekt	-9.70393
▁resa	-9.70476
▁svarta	-9.7049
▁romersk	-9.7051
▁gas	-9.70524
rus	-9.70566
▁motstånd	-9.7062
▁ban	-9.70658
tt	-9.70693
▁ty	-9.70726
▁varierar	-9.70756
rit	-9.70774
▁dator	-9.70972
▁skrivit	-9.71111
▁enskilda	-9.71115
▁miljarder	-9.71151
▁karaktär	-9.71174
▁fiske	-9.71176
▁krävde	-9.71295
▁brand	-9.71375
▁amerikansk	-9.71383
skt	-9.71384
fri	-9.71475
▁eld	-9.71563
vit	-9.71601
▁klar	-9.71623
▁resten	-9.71664
▁utgörs	-9.71677
▁kur	-9.71685
öd	-9.71809
▁fo	-9.71824
▁sommar	-9.71837
vo	-9.719
tz	-9.7191
▁döda	-9.71947
▁följer	-9.71993
▁ki	-9.72041
09	-9.7221
res	-9.72221
▁au	-9.72248
▁byggde	-9.72273
▁allmänt	-9.72295
vid	-9.72329
under	-9.7233
▁lär	-9.72349
▁härad	-9.72383
lie	-9.72389
▁ordning	-9.72392
▁köpenhamn	-9.72587
▁vanligtvis	-9.72608
▁speciellt	-9.72649
▁sträck	-9.72664
▁talar	-9.72748
ort	-9.72874
▁ram	-9.72893
▁lades	-9.73002
▁steg	-9.73034
▁uppgift	-9.73083
grupp	-9.73088
▁borg	-9.73323
▁300	-9.73368
▁transport	-9.73447
▁ledamöter	-9.73453
▁1992	-9.73456
▁lilla	-9.7346
▁häst	-9.73478
samma	-9.73593
▁våld	-9.7366
▁skog	-9.73663
ris	-9.73689
▁full	-9.73698
område	-9.73771
arbete	-9.73819
▁ba	-9.73878
▁jarl	-9.73902
ron	-9.7397
håll	-9.74029
▁pengar	-9.74042
▁förhållande	-9.74083
ifrån	-9.74089
▁nummer	-9.74167
▁spela	-9.74185
▁fartyg	-9.74189
pen	-9.74268
nade	-9.74436
▁universitetet	-9.74442
ologi	-9.74528
▁tu	-9.74608
▁arkitekt	-9.74613
▁fria	-9.74784
▁1993	-9.7479
▁födelse	-9.74831
nne	-9.74848
▁arabiska	-9.7499
▁1995	-9.75006
▁historien	-9.75012
▁ekonomin	-9.7505
kort	-9.75061
▁populär	-9.75109
▁levande	-9.75123
lopp	-9.7528
▁öar	-9.75328
rop	-9.7555
▁car	-9.75599
gå	-9.75624
▁snarare	-9.75668
▁gård	-9.75683
▁frihet	-9.75704
▁her	-9.75727
▁ifrån	-9.75735
▁lagen	-9.75819
▁högt	-9.7586
▁leder	-9.75877
hl	-9.75884
▁allierade	-9.75968
syn	-9.76172
▁fynd	-9.76179
▁goda	-9.7619
dra	-9.76252
byggnad	-9.76261
▁stater	-9.76295
und	-9.76303
ep	-9.76344
▁strand	-9.76347
▁bildar	-9.7638
▁salt	-9.76405
ings	-9.7643
▁ex	-9.76434
▁grundade	-9.76497
gör	-9.7653
06	-9.76558
▁beslutade	-9.76572
▁gods	-9.76657
utöver	-9.7667
▁bergs	-9.76747
▁90	-9.7685
log	-9.7699
blad	-9.77003
politik	-9.77009
nivå	-9.77024
07	-9.77081
▁mm	-9.77207
tyska	-9.77333
▁normalt	-9.77339
▁anser	-9.77341
▁praktiken	-9.77366
holmen	-9.77382
▁mi	-9.77407
▁utveckla	-9.77428
▁sankt	-9.77441
▁jakob	-9.77474
▁metall	-9.77477
▁skriver	-9.77544
▁slavar	-9.77594
▁framgång	-9.77661
▁privata	-9.77688
lade	-9.77705
▁fil	-9.77772
▁statliga	-9.77823
▁tillverkning	-9.77924
▁ukraina	-9.77927
▁oberoende	-9.77938
▁1945	-9.77941
▁lars	-9.77942
lle	-9.78121
▁havs	-9.78143
vä	-9.78161
▁1986	-9.78173
organ	-9.78181
▁svenskarna	-9.78355
▁grekland	-9.78386
▁latin	-9.78563
▁präst	-9.78565
tre	-9.78725
▁judar	-9.78728
ys	-9.78751
▁sjön	-9.78767
▁beskriver	-9.78846
▁ovan	-9.78878
▁wa	-9.78971
▁historiskt	-9.79002
▁if	-9.79008
▁svenskt	-9.79019
▁bonde	-9.79022
▁henrik	-9.79102
▁vinna	-9.79199
’	-9.7921
▁park	-9.79229
▁vägen	-9.79229
▁thomas	-9.79308
▁1989	-9.7932
▁1997	-9.79321
▁leda	-9.79324
▁demografi	-9.7933
▁satt	-9.79433
▁utom	-9.79449
▁vetenskapliga	-9.79489
sport	-9.79556
▁teori	-9.79577
▁70	-9.79604
ug	-9.79618
▁utnämnde	-9.79636
▁gränsar	-9.79688
▁slotts	-9.79725
▁(17	-9.79765
▁kristendomen	-9.79768
tag	-9.79775
▁skydda	-9.79799
▁ämnen	-9.79812
vil	-9.79839
▁motsvarar	-9.7984
▁grön	-9.79913
▁gett	-9.79964
▁tillkom	-9.79981
▁reste	-9.80051
kraft	-9.80068
ras	-9.80091
▁verkar	-9.80142
▁kejsar	-9.80197
▁behöver	-9.8024
▁starka	-9.80396
trafik	-9.80425
▁jakt	-9.80459
▁medeltida	-9.8047
▁utvecklade	-9.80495
-19	-9.805
▁allmän	-9.80517
▁ledande	-9.8057
▁regler	-9.80639
▁snö	-9.80715
▁bilda	-9.80716
lik	-9.80719
▁traditionella	-9.80805
9	-9.80824
floden	-9.80908
▁gått	-9.80939
ack	-9.80945
▁frukt	-9.80963
▁bevarade	-9.80999
fin	-9.8109
▁freden	-9.81123
▁forn	-9.81163
▁källa	-9.81181
ander	-9.8121
▁gavs	-9.81219
–16	-9.81228
öl	-9.81248
ordning	-9.81248
stra	-9.8128
▁beror	-9.81286
▁övrigt	-9.8129
▁individer	-9.81384
stil	-9.81446
all	-9.81479
▁pu	-9.81569
kyrkan	-9.81649
▁laget	-9.81664
tryck	-9.81665
▁kap	-9.81687
punkt	-9.81695
▁studie	-9.81696
▁sal	-9.81798
▁bur	-9.81815
▁offentliga	-9.81896
film	-9.81899
historia	-9.81911
▁ring	-9.8196
▁språken	-9.82015
▁trans	-9.82132
sal	-9.82137
▁olje	-9.82141
▁1996	-9.82144
,6	-9.82147
▁1918	-9.82154
bet	-9.822
▁internationell	-9.82215
▁windows	-9.82216
▁alexander	-9.82217
kel	-9.82258
grund	-9.82282
▁tros	-9.82306
▁skydd	-9.8231
▁öl	-9.82363
▁småningom	-9.82367
framförallt	-9.82376
▁stu	-9.82468
ätt	-9.82509
▁bygger	-9.82563
förbundet	-9.82584
▁lade	-9.82589
▁definition	-9.8262
▁division	-9.82635
▁regerings	-9.82649
▁närheten	-9.82694
les	-9.82716
▁bytte	-9.82731
pan	-9.82835
▁grunden	-9.82841
▁allmänhet	-9.82865
▁1930-	-9.82899
▁motor	-9.8293
▁unga	-9.82951
ym	-9.83024
lott	-9.83064
▁australien	-9.83089
▁nedan	-9.83123
▁bröt	-9.83149
pro	-9.83201
▁station	-9.8327
▁systemet	-9.83362
91	-9.83386
▁gemensam	-9.83389
che	-9.83496
▁djup	-9.83672
▁porträtt	-9.83678
04	-9.83794
▁författaren	-9.83804
▁vet	-9.83856
▁självständigt	-9.84015
▁sällan	-9.84057
ban	-9.84115
dy	-9.84219
▁rörelse	-9.84239
▁utsågs	-9.84371
▁upphov	-9.84401
▁ja	-9.84563
su	-9.84603
▁ri	-9.8464
▁utifrån	-9.84686
03	-9.84744
▁syfta	-9.8477
▁johannes	-9.84854
▁frågan	-9.84859
vetenskap	-9.84865
▁wi	-9.8487
ng	-9.84878
▁400	-9.84902
▁dans	-9.84996
▁revolutionen	-9.85026
▁synnerhet	-9.85031
▁sen	-9.85045
▁1970	-9.85059
▁avgörande	-9.85072
fe	-9.85078
krig	-9.85086
▁pl	-9.85132
▁sedermera	-9.85184
▁klubben	-9.85186
▁publik	-9.85209
skan	-9.8528
▁aktiv	-9.85494
sättning	-9.85501
rådet	-9.85511
▁do	-9.85518
▁älv	-9.85519
▁färdig	-9.85523
▁andersson	-9.85559
▁ver	-9.85571
▁värde	-9.85632
slut	-9.85734
▁1988	-9.85784
▁jan	-9.85798
▁hårt	-9.858
▁båt	-9.85834
con	-9.86
▁republik	-9.86011
▁handlar	-9.86057
▁nämnas	-9.861
▁besökte	-9.86135
▁köp	-9.8626
▁erhöll	-9.8627
▁välja	-9.8629
▁irak	-9.8637
sak	-9.86372
▁närmast	-9.86412
▁israel	-9.86514
▁motiv	-9.86519
▁robert	-9.86522
▁fort	-9.86523
▁genomfördes	-9.86604
▁hy	-9.86625
▁go	-9.86653
musik	-9.86693
lad	-9.86738
▁förekom	-9.86747
▁gemensamt	-9.86921
kal	-9.86989
▁rikets	-9.8707
▁ung	-9.87074
▁nivå	-9.87122
▁igenom	-9.87237
▁visat	-9.8729
▁tron	-9.87304
vänd	-9.87442
▁arbeta	-9.87444
fil	-9.87454
▁jämfört	-9.8747
▁filmer	-9.87511
▁ludvig	-9.87516
▁härstammar	-9.87562
▁blod	-9.87592
ty	-9.87639
bel	-9.87652
▁klart	-9.87669
so	-9.87724
hu	-9.87747
▁svår	-9.87782
▁1973	-9.8779
▁mänskliga	-9.87797
▁dansk	-9.87824
▁iran	-9.8785
▁föreningen	-9.87933
▁vattnet	-9.87986
▁1952	-9.88037
▁egentligen	-9.88074
▁reformer	-9.88079
▁hot	-9.8812
post	-9.88217
▁fot	-9.88269
▁mag	-9.88419
▁produktion	-9.88433
▁östergötland	-9.88527
▁1979	-9.88537
for	-9.88543
enta	-9.88618
lj	-9.88628
museet	-9.88636
▁straff	-9.88636
▁flytta	-9.88653
▁fåglar	-9.88689
▁växter	-9.88691
nu	-9.8878
▁larsson	-9.88808
▁andel	-9.88863
▁wien	-9.88948
▁heliga	-9.88994
▁mur	-9.88996
▁verket	-9.89028
▁skrifter	-9.89041
▁minnes	-9.89101
chi	-9.89106
▁mängder	-9.89141
jan	-9.89146
▁lek	-9.89216
▁läs	-9.89269
riket	-9.89288
▁järnväg	-9.89288
▁bidrog	-9.89295
▁följa	-9.89298
▁skapades	-9.89321
sök	-9.89383
ländska	-9.89388
uk	-9.89414
▁landskap	-9.89435
typ	-9.89479
▁studerade	-9.89552
död	-9.89587
▁start	-9.89642
ställning	-9.89748
▁stam	-9.89797
▁organisationer	-9.89799
▁ökat	-9.89882
▁förmod	-9.89885
▁avstånd	-9.89887
▁sak	-9.89891
▁varianter	-9.90041
▁sägs	-9.90083
▁hö	-9.90111
▁muslimer	-9.90113
drag	-9.90146
▁tjänst	-9.90156
böcker	-9.90215
▁inledde	-9.90308
▁västergötland	-9.90322
▁minne	-9.90337
pu	-9.90371
▁dr	-9.90389
las	-9.90437
lek	-9.90615
▁föll	-9.90724
▁biskop	-9.90809
▁byggnads	-9.90825
▁yrkes	-9.90841
▁traditionellt	-9.90841
parti	-9.90865
▁1980	-9.90877
industri	-9.90957
▁effekt	-9.90983
gas	-9.90999
stan	-9.91061
yl	-9.9108
▁huvudsak	-9.91089
här	-9.91108
▁rysk	-9.91112
▁nästa	-9.91165
▁italienska	-9.91195
▁inkluderar	-9.91199
▁satte	-9.91235
äg	-9.91253
▁samla	-9.91304
▁länet	-9.91327
läggning	-9.91346
vara	-9.91348
▁1982	-9.9138
gh	-9.9139
▁försvar	-9.91452
▁anfall	-9.91496
ram	-9.91507
ås	-9.91585
▁tidig	-9.91586
▁sn	-9.91592
▁övre	-9.91628
skatt	-9.91671
▁press	-9.91679
▁sannolikt	-9.9168
▁vikt	-9.91685
▁para	-9.91732
▁op	-9.91827
▁riksrådet	-9.91834
tog	-9.91837
▁tra	-9.91895
▁ak	-9.9204
▁grundläggande	-9.9215
▁beskrivs	-9.9215
▁ag	-9.9216
▁polis	-9.92198
▁fru	-9.92238
▁va	-9.92351
hall	-9.92355
tri	-9.92366
grav	-9.92425
▁1200-	-9.92486
▁idrotts	-9.92524
”,	-9.92568
▁dam	-9.92594
▁linje	-9.9266
nen	-9.92665
▁betala	-9.92705
pel	-9.92872
sund	-9.92894
▁roman	-9.92906
ret	-9.92949
gav	-9.9306
namnet	-9.93148
bron	-9.9317
▁katolska	-9.93193
mus	-9.93306
▁viktigt	-9.93312
▁obe	-9.93316
▁beteckna	-9.93326
sberg	-9.93327
▁stig	-9.93328
▁gäst	-9.93348
strid	-9.93399
▁egypten	-9.93476
▁region	-9.93486
▁1985	-9.93495
nor	-9.93499
ls	-9.93546
▁ulrika	-9.93572
▁samhälle	-9.9359
sett	-9.93718
▁1975	-9.93758
▁säger	-9.9376
▁1917	-9.93767
king	-9.93769
▁ges	-9.93847
▁anspråk	-9.93911
▁administrativa	-9.93963
▁store	-9.93968
]	-9.94002
produktion	-9.94048
▁totala	-9.94059
▁publicera	-9.94092
▁ke	-9.94119
liggande	-9.94183
▁kyrkans	-9.94213
▁risk	-9.94214
▁fl	-9.94236
▁partier	-9.94254
▁bnp	-9.94282
▁gran	-9.94299
▁kroppen	-9.94382
fält	-9.94428
ach	-9.94541
▁arten	-9.94607
▁samtida	-9.9461
▁termen	-9.9462
kung	-9.94624
▁th	-9.9464
ley	-9.94646
tter	-9.9475
▁naturen	-9.94752
sgatan	-9.94809
▁däggdjur	-9.9482
▁eleonora	-9.9482
met	-9.94823
est	-9.94843
nan	-9.94868
lev	-9.9488
▁politiker	-9.94913
▁600	-9.95035
▁blixen	-9.95048
▁brun	-9.95136
▁etniska	-9.9515
▁flod	-9.95155
talande	-9.95178
▁nato	-9.95182
▁byggnad	-9.953
▁lära	-9.95312
guld	-9.95312
▁international	-9.95312
▁kyrkor	-9.95346
▁gunnar	-9.95503
▁struktur	-9.95513
▁övertog	-9.95522
har	-9.95569
port	-9.95597
▁dalarna	-9.95655
▁albert	-9.95656
lia	-9.95736
▁samlade	-9.95862
▁lagar	-9.95875
▁kulturella	-9.95879
▁statsminister	-9.95899
▁wilhelm	-9.95908
▁sydafrika	-9.96066
▁(16	-9.96233
▁estland	-9.96234
▁placerade	-9.96262
▁malm	-9.96286
▁bilder	-9.96305
▁mig	-9.96308
från	-9.96323
▁ske	-9.96325
▁borde	-9.96331
▁längd	-9.96332
▁ägg	-9.96358
▁östersjön	-9.96361
län	-9.96396
ast	-9.96423
▁anslutning	-9.96457
▁minska	-9.96477
▁studera	-9.9648
hy	-9.96484
▁framåt	-9.96552
kil	-9.96558
▁texten	-9.96659
▁talas	-9.96674
▁schweiz	-9.96733
▁kristen	-9.96734
männen	-9.96767
▁sådant	-9.96858
▁bildas	-9.96881
▁bevis	-9.96909
skog	-9.96981
liknande	-9.96984
▁skepp	-9.97008
▁vinter	-9.97034
▁smak	-9.97056
hr	-9.97079
ay	-9.97092
▁hette	-9.97095
▁trupperna	-9.97138
▁element	-9.97194
alism	-9.9722
▁my	-9.97225
▁(1	-9.97261
mästare	-9.97265
▁betydelsen	-9.97277
▁bengt	-9.97279
▁br	-9.97301
nät	-9.97328
▁vitt	-9.97333
▁sång	-9.97358
▁förde	-9.97425
▁rike	-9.97509
red	-9.97582
▁stå	-9.97647
off	-9.97686
▁anledning	-9.97691
platser	-9.97694
▁vind	-9.97739
▁run	-9.97753
nö	-9.97755
▁rö	-9.9777
rika	-9.97815
02	-9.97825
▁anhängare	-9.97842
▁utsträckning	-9.97842
▁håller	-9.97855
▁1976	-9.97856
▁city	-9.97862
▁rörelsen	-9.97899
▁800	-9.97919
▁paul	-9.97921
▁rikt	-9.97939
▁sjukdom	-9.97968
▁oden	-9.97977
▁ekonomiskt	-9.97986
▁bred	-9.98048
▁ansvar	-9.98057
▁tekniska	-9.98067
minister	-9.98072
▁småland	-9.98075
▁kalendern	-9.98124
▁holm	-9.98159
▁vilja	-9.98184
▁fängelse	-9.98248
▁teorier	-9.98248
▁minskade	-9.98253
kalla	-9.98256
▁dollar	-9.98346
även	-9.98374
konst	-9.98379
▁hemma	-9.9841
färg	-9.98421
▁slå	-9.98437
▁näringsliv	-9.98452
▁hälsa	-9.98504
företag	-9.98516
tel	-9.98546
teknik	-9.9863
▁ång	-9.98636
▁själ	-9.98647
gl	-9.98674
▁skrift	-9.98732
kultur	-9.98802
▁saint	-9.98817
gre	-9.98818
▁preussen	-9.98849
ap	-9.98921
▁regioner	-9.98957
▁turkiet	-9.98966
▁timmar	-9.98973
▁syftar	-9.98989
▁valdemar	-9.98992
hand	-9.99019
▁gal	-9.99031
▁når	-9.99051
kommun	-9.99087
ix	-9.99147
delar	-9.99161
▁afrikanska	-9.99233
viken	-9.99249
verksamhet	-9.99257
▁1969	-9.9926
▁jordbruks	-9.9935
▁nordväst	-9.99376
▁ku	-9.99423
▁special	-9.99439
▁förening	-9.99458
ani	-9.99475
▁etymologi	-9.9953
▁öppen	-9.99531
bra	-9.99594
▁skrevs	-9.99695
bygg	-9.99794
▁rent	-9.99812
▁helsingfors	-9.99814
▁nämns	-9.99814
syra	-9.99818
▁beskriva	-9.99818
centrum	-9.99836
erande	-9.99872
▁vintern	-9.99978
▁jordens	-10.0003
,7	-10.0004
▁miljon	-10.0006
▁vård	-10.0014
holms	-10.0018
▁kanada	-10.002
que	-10.0022
▁förhållanden	-10.0024
▁rådet	-10.0032
tim	-10.0034
▁marken	-10.0034
▁populära	-10.0034
▁olympisk	-10.0038
▁dominerande	-10.004
▁delta	-10.0043
,3	-10.0046
▁konflikt	-10.0047
▁judiska	-10.0051
▁bandet	-10.0052
bad	-10.0055
▁religioner	-10.0059
▁återigen	-10.0067
▁möjligen	-10.0081
▁fungerar	-10.0084
▁latinska	-10.0086
▁hård	-10.0087
dar	-10.0098
▁cy	-10.0101
wi	-10.0102
grad	-10.0105
▁1900	-10.0113
vall	-10.0119
dalen	-10.0121
▁harald	-10.0126
▁förstå	-10.0134
stig	-10.0135
▁george	-10.0135
▁livs	-10.0139
▁tri	-10.0139
▁world	-10.0146
▁vm	-10.0152
▁kronan	-10.0152
▁tydligt	-10.0169
▁innehåll	-10.0172
skott	-10.0176
▁talade	-10.0184
kn	-10.0184
▁kongo	-10.0195
▁europas	-10.0199
▁teknik	-10.0202
▁majoriteten	-10.0203
band	-10.0207
▁1967	-10.0213
▁öppnade	-10.0213
▁fann	-10.0224
▁objekt	-10.0233
▁1920	-10.0234
lat	-10.0236
tik	-10.0239
▁föda	-10.024
▁tolv	-10.0241
▁1972	-10.0242
▁börjat	-10.0253
ägare	-10.0254
(	-10.0258
oni	-10.0264
ationen	-10.0267
▁slav	-10.0267
▁allsvenskan	-10.027
ya	-10.027
▁initiativ	-10.027
▁1940	-10.0273
▁ändra	-10.0279
född	-10.028
▁medborgare	-10.0294
▁klassiska	-10.0296
ag	-10.0298
▁strindberg	-10.0299
▁veckor	-10.031
▁ås	-10.0311
▁närmaste	-10.0311
▁iv	-10.032
▁säkerhets	-10.0324
▁lägga	-10.0326
hel	-10.0327
▁nämligen	-10.0329
än	-10.0333
▁månen	-10.0335
sel	-10.0337
▁alkohol	-10.0341
▁gren	-10.0345
▁orten	-10.0345
▁glas	-10.0347
▁metod	-10.0352
ze	-10.0355
▁behövde	-10.0358
▁1960	-10.0358
gräns	-10.036
▁holstein	-10.036
▁cha	-10.0363
▁vare	-10.0363
lit	-10.0368
▁befolknings	-10.0368
▁skatte	-10.0381
▁kammaren	-10.0386
▁tak	-10.0391
▁kamp	-10.0397
az	-10.0413
utbildning	-10.0413
eln	-10.0416
▁öka	-10.0417
▁1987	-10.0419
▁särskilda	-10.042
▁jean	-10.0427
pat	-10.0428
▁spelare	-10.0429
▁fel	-10.0431
roll	-10.0434
▁idéer	-10.0436
tisk	-10.0436
▁rus	-10.0443
bit	-10.0444
▁förknippa	-10.0447
svensk	-10.0451
▁ytan	-10.0451
til	-10.0451
▁ting	-10.0452
▁kunnat	-10.0453
▁ber	-10.0454
▁köpte	-10.0455
08	-10.0459
▁tids	-10.0462
uv	-10.0466
▁avsluta	-10.047
▁läge	-10.0475
▁månad	-10.0475
▁flyttades	-10.048
qu	-10.0485
▁skola	-10.0486
▁1920-	-10.0488
▁inbördeskriget	-10.0492
▁mary	-10.0494
spelare	-10.0498
▁skicka	-10.0499
▁symbol	-10.05
▁förenade	-10.0501
▁låta	-10.0502
kur	-10.0505
▁formen	-10.0506
▁mörner	-10.0507
▁utrikesminister	-10.0517
kade	-10.0519
iz	-10.0528
▁regent	-10.0528
▁egendom	-10.0529
▁jämtland	-10.053
bli	-10.053
▁student	-10.0534
▁1981	-10.0539
▁behov	-10.055
▁lärare	-10.0552
▁släkten	-10.0563
qvist	-10.0567
▁förblev	-10.0567
▁regn	-10.0568
▁knutsson	-10.0574
mm	-10.0576
▁argument	-10.0581
▁topp	-10.0582
▁kod	-10.0586
▁hill	-10.0587
▁naturliga	-10.0592
ola	-10.0597
▁upphörde	-10.0597
▁pan	-10.0603
skydd	-10.0604
▁kände	-10.0609
▁villkor	-10.0613
▁publicerades	-10.0614
▁gränser	-10.0619
▁födda	-10.0621
mb	-10.0624
her	-10.0627
2)	-10.0627
▁position	-10.0627
▁inslag	-10.0628
▁otto	-10.0629
▁sammanlagt	-10.0629
▁1968	-10.0629
kl	-10.063
▁styrkor	-10.0632
▁1919	-10.0633
▁intog	-10.0643
▁natt	-10.0649
▁tanke	-10.0653
▁reform	-10.0654
▁metoder	-10.0661
▁traditioner	-10.0667
▁original	-10.067
▁allra	-10.0673
iter	-10.0674
dis	-10.0684
▁ali	-10.0686
int	-10.0686
▁william	-10.0689
▁inrättades	-10.0691
▁slags	-10.0691
af	-10.0692
ski	-10.0702
▁und	-10.0704
åk	-10.0708
▁styrka	-10.0714
▁herr	-10.0716
ec	-10.072
▁oss	-10.0722
unda	-10.0732
▁förändringar	-10.0734
tus	-10.0735
livet	-10.0736
▁ute	-10.0739
▁amerika	-10.074
ji	-10.075
▁sökte	-10.0752
▁1910	-10.0758
▁beteende	-10.0762
▁människans	-10.0775
▁snorre	-10.0781
▁föreslog	-10.0781
▁utvecklats	-10.0786
▁invånarna	-10.0786
▁ärkebiskop	-10.0788
björn	-10.0795
låt	-10.0798
▁kinesiska	-10.08
▁kombination	-10.0801
▁översättning	-10.0804
▁jesu	-10.0805
press	-10.0808
▁punkt	-10.0809
tagande	-10.0811
▁allmänheten	-10.0814
▁märks	-10.0814
▁rösträtt	-10.0814
▁utseende	-10.0816
▁texter	-10.0831
slav	-10.0832
▁söner	-10.0836
platsen	-10.0839
▁[	-10.0839
▁hav	-10.085
▁förbund	-10.0853
▁parken	-10.0854
▁skapar	-10.0855
▁alternativ	-10.0855
▁gö	-10.0862
▁religionen	-10.0864
stående	-10.0867
▁1300-	-10.0874
▁belgien	-10.0874
its	-10.0884
▁cm	-10.0889
▁modell	-10.0895
ordningen	-10.0904
▁tillväxt	-10.0906
▁saknade	-10.0906
▁front	-10.0906
▁drabbades	-10.0907
lov	-10.0908
ip	-10.0912
▁gården	-10.0918
▁johansson	-10.0922
▁skr	-10.0929
stads	-10.0933
▁gällde	-10.0936
▁1400-	-10.0936
▁trodde	-10.0936
▁150	-10.0937
▁gotland	-10.0938
ali	-10.0938
▁sats	-10.0941
▁inter	-10.0945
,9	-10.0947
ham	-10.0947
▁värd	-10.0951
▁föräldrar	-10.0954
▁konstruktion	-10.0956
▁kunga	-10.096
▁rosen	-10.0962
▁kunglig	-10.0962
▁martin	-10.0967
▁beslöt	-10.0967
eringen	-10.0973
jag	-10.0978
kod	-10.0978
former	-10.0991
▁sund	-10.0997
▁väljs	-10.0999
▁blom	-10.0999
▁våg	-10.1
▁berättar	-10.1002
▁demokratiska	-10.1006
▁media	-10.1008
▁kanal	-10.1012
▁muhammed	-10.1016
▁kejsare	-10.1023
▁anlände	-10.1024
▁anställda	-10.1028
▁kvinnliga	-10.103
▁opera	-10.1031
▁charles	-10.1031
▁1948	-10.1032
▁rätts	-10.1034
skrift	-10.1037
▁nationerna	-10.1037
▁kallar	-10.1042
▁enhet	-10.1051
ish	-10.1058
▁järnvägen	-10.1058
byggnaden	-10.1059
▁uppfattning	-10.1061
▁socker	-10.1062
▁order	-10.1063
▁1965	-10.1064
hav	-10.1064
▁west	-10.1069
▁mått	-10.1071
▁riksdag	-10.1076
▁samiska	-10.1076
▁ungern	-10.1076
▁öppnades	-10.1077
▁byn	-10.1078
sområden	-10.1079
▁snabb	-10.1079
▁bal	-10.108
lagen	-10.1084
▁möte	-10.1087
▁tjugo	-10.1089
▁filosofi	-10.1092
▁1941	-10.1095
▁1977	-10.1095
▁bush	-10.1096
stiden	-10.1097
▁35	-10.11
personer	-10.1103
industrin	-10.1104
laget	-10.1107
▁xi	-10.1107
oc	-10.1122
▁vunnit	-10.1126
▁familje	-10.1126
▁kommunreform	-10.1129
▁nordamerika	-10.1132
▁skapat	-10.1137
graf	-10.114
▁enkelt	-10.1143
▁torn	-10.1148
ting	-10.1149
▁sidor	-10.115
▁utbredning	-10.1153
ära	-10.1154
▁visby	-10.1163
visa	-10.1163
▁genomförde	-10.1163
folket	-10.1164
▁mineral	-10.1176
▁norrköping	-10.1177
▁fågel	-10.1182
ationer	-10.1182
▁sjuk	-10.1186
slaget	-10.119
▁fortsätta	-10.119
▁1914	-10.1192
▁skandinavien	-10.1199
kyrka	-10.1201
▁grå	-10.1202
▁mu	-10.1205
sområde	-10.1209
▁match	-10.1211
▁tillräckligt	-10.1211
▁fjäll	-10.1216
▁bibeln	-10.122
▁jordbruket	-10.1231
▁universum	-10.1233
▁femte	-10.1234
vikt	-10.1238
▁dokument	-10.1246
app	-10.1248
eby	-10.1249
gran	-10.1253
demokraterna	-10.1255
▁mandat	-10.1256
stor	-10.1263
▁mörk	-10.1267
▁sub	-10.1268
▁antogs	-10.1276
▁traditionen	-10.1276
▁nationalpark	-10.1279
bildning	-10.1284
▁ishockey	-10.1287
▁domsaga	-10.1287
▁1944	-10.1288
▁värme	-10.1295
▁brittisk	-10.1297
▁alltmer	-10.13
▁delades	-10.1301
▁civil	-10.1305
▁pen	-10.1306
▁extra	-10.1311
▁undan	-10.1313
fra	-10.1314
spår	-10.1314
▁universitets	-10.1315
▁ätt	-10.1315
rin	-10.1316
▁örebro	-10.1319
▁årligen	-10.1319
linjen	-10.132
▁1963	-10.1321
går	-10.1322
▁sur	-10.1322
▁osmanska	-10.1327
yn	-10.134
▁ensam	-10.1341
▁svar	-10.1347
▁arm	-10.1347
aga	-10.1348
▁känneteckna	-10.1351
▁afghanistan	-10.1351
▁1961	-10.1353
▁1946	-10.1353
▁västerås	-10.1353
▁1984	-10.1354
▁flottan	-10.1355
fullmäktige	-10.1359
▁resultatet	-10.1362
▁längst	-10.1363
▁bit	-10.1368
▁planerade	-10.1371
▁testamentet	-10.1372
bert	-10.1379
▁serbien	-10.1384
▁andelen	-10.1385
stedt	-10.1386
▁säkerhet	-10.1389
▁vä	-10.1391
don	-10.1393
ari	-10.1412
▁rock	-10.1416
▁1939	-10.1419
▁vägrade	-10.142
cy	-10.1422
▁marin	-10.1427
▁vägar	-10.1428
▁litet	-10.1435
hult	-10.1436
▁mytologi	-10.1436
▁lån	-10.1438
kä	-10.144
▁svenske	-10.144
▁klara	-10.1444
▁vice	-10.1445
enhet	-10.1447
▁påven	-10.1449
▁svåra	-10.145
▁1958	-10.1452
▁liberal	-10.1452
tals	-10.1455
sol	-10.1458
organisationen	-10.1465
▁närvarande	-10.1469
▁kommunens	-10.1478
▁bredd	-10.1485
ula	-10.1489
▁tolkning	-10.1489
▁euro	-10.149
älven	-10.1497
▁säte	-10.1502
anläggning	-10.1509
▁kul	-10.1513
▁mon	-10.1513
▁exemplar	-10.1516
▁caesar	-10.1516
▁hamburg	-10.1516
▁1964	-10.1518
,1	-10.1523
▁kyrk	-10.1526
▁riksråd	-10.1527
▁undervisning	-10.1529
▁ämne	-10.1533
▁hastighet	-10.1535
jut	-10.1545
departementet	-10.1548
öm	-10.1549
▁formula	-10.1552
▁riksdags	-10.1553
▁adam	-10.1555
dig	-10.1557
▁xiv	-10.1557
▁konstnärer	-10.1558
▁släpptes	-10.1558
hö	-10.1559
▁gar	-10.1565
din	-10.1566
▁polska	-10.1569
erar	-10.1571
▁kvinna	-10.1572
▁em	-10.158
▁we	-10.1583
▁1978	-10.1583
▁affärs	-10.1583
karl	-10.1591
▁1950	-10.1594
▁nordisk	-10.1594
ini	-10.1595
full	-10.1596
▁norrut	-10.1601
▁bin	-10.1607
▁marie	-10.1613
▁överste	-10.1614
por	-10.1616
▁konflikter	-10.1617
▁1983	-10.1618
▁palatset	-10.1631
▁skolor	-10.1635
bygd	-10.1637
▁tidning	-10.1638
eringar	-10.164
▁förmåga	-10.1641
▁barnen	-10.1641
ida	-10.1642
iet	-10.1648
tv	-10.1648
▁sh	-10.1652
▁fysik	-10.1657
▁grader	-10.1658
dotter	-10.1659
▁skillnader	-10.1661
▁etablerade	-10.1662
▁stadsdelen	-10.1664
föreningen	-10.1665
▁stycken	-10.1677
▁debatt	-10.1678
tjänst	-10.1681
▁fiskar	-10.1682
▁innehöll	-10.1683
▁lager	-10.1685
▁skär	-10.1689
▁je	-10.1693
vård	-10.1697
▁bergman	-10.1698
▁hävdade	-10.1702
vida	-10.1703
▁efterträdde	-10.1703
▁statistik	-10.1705
▁hund	-10.1707
mans	-10.1708
▁tala	-10.1711
▁qu	-10.1712
▁banan	-10.1712
▁idrott	-10.1717
▁uppmärksamhet	-10.1717
▁väldigt	-10.1717
▁1966	-10.1719
▁sent	-10.1719
lades	-10.1724
sats	-10.1731
▁avseende	-10.1734
▁omfattade	-10.1738
tänk	-10.1741
▁ulf	-10.1743
▁album	-10.1744
produkter	-10.1751
▁lin	-10.1752
▁josefus	-10.1753
▁tätorter	-10.1756
▁konung	-10.1762
▁ämnet	-10.1763
▁framträdande	-10.1766
▁öde	-10.1773
▁sydamerika	-10.1775
▁tillfällen	-10.1776
▁begravd	-10.178
com	-10.1783
▁fyr	-10.1784
▁meddelade	-10.1788
▁landshövding	-10.1789
▁nic	-10.179
▁kulturen	-10.1794
▁adeln	-10.1795
andet	-10.1796
mod	-10.1801
mil	-10.1804
let	-10.1807
gon	-10.181
▁villa	-10.1812
▁=	-10.1815
torn	-10.1816
▁särskild	-10.1816
▁paret	-10.1817
elsen	-10.182
ev	-10.1822
▁ställde	-10.1824
▁motståndare	-10.1826
▁datera	-10.1826
▁separat	-10.1826
▁prov	-10.1838
▁hä	-10.1843
▁rese	-10.1846
iserade	-10.185
▁verksamheten	-10.1853
▁moskva	-10.1853
▁skal	-10.1853
sområdet	-10.1854
▁birgitta	-10.1854
▁1962	-10.1855
▁engelsk	-10.186
▁vänner	-10.1861
▁anlades	-10.1863
▁framgångar	-10.187
gan	-10.1871
bus	-10.1873
cker	-10.1878
▁dialekt	-10.1881
▁jon	-10.1881
▁vall	-10.1881
▁leva	-10.1884
▁förlag	-10.1884
▁vadstena	-10.1888
▁världsarv	-10.1888
▁bio	-10.1889
▁berömda	-10.1894
ij	-10.1897
▁teologi	-10.1904
▁muslimska	-10.1909
▁sätta	-10.191
▁självständig	-10.1911
▁pol	-10.1916
anska	-10.1916
▁sovjetiska	-10.1917
▁turism	-10.1921
▁lejon	-10.1923
▁gällande	-10.1924
illa	-10.1925
hets	-10.1926
▁svea	-10.1926
▁uppnå	-10.1926
▁utvecklas	-10.1929
▁mos	-10.1938
▁erövrade	-10.1941
▁torr	-10.1943
▁rå	-10.1944
mal	-10.1945
▁behandling	-10.1945
▁kra	-10.1948
▁sed	-10.1949
▁störst	-10.1951
serien	-10.1952
▁försäljning	-10.1953
medel	-10.1954
▁definiera	-10.1954
2.	-10.1957
▁stånd	-10.1958
döme	-10.1959
▁djurgården	-10.196
▁aktiva	-10.196
▁resulterade	-10.1966
▁naturreservat	-10.1967
museum	-10.1969
ef	-10.198
▁persson	-10.1981
▁upptäckt	-10.1989
▁rinner	-10.1991
▁huvudsakliga	-10.1995
▁hud	-10.1999
pl	-10.2001
ard	-10.2001
▁ryssarna	-10.2002
▁kontor	-10.2003
jon	-10.2005
▁sälja	-10.2009
▁variant	-10.2011
▁förändring	-10.2015
▁acceptera	-10.2022
ita	-10.2025
▁befann	-10.2026
▁öppet	-10.2026
▁1924	-10.2028
▁tror	-10.2031
▁buss	-10.2045
▁relationer	-10.2047
▁intill	-10.2053
▁vuxna	-10.2056
▁områdena	-10.2059
▁hotade	-10.206
▁halland	-10.2063
▁jämförelse	-10.2064
projekt	-10.2071
▁urval	-10.2074
▁samling	-10.2075
▁medlemmarna	-10.2079
▁historiker	-10.2083
▁göta	-10.2085
▁hi	-10.2085
▁utmärk	-10.2085
▁stilla	-10.2095
▁bäst	-10.2095
▁frank	-10.2096
▁stalin	-10.2097
▁christian	-10.2097
vapen	-10.2097
▁david	-10.2097
hallen	-10.2101
▁varvid	-10.2108
▁beskrivning	-10.2109
▁stål	-10.2115
▁titel	-10.2115
▁inhemska	-10.2117
▁begränsad	-10.2126
cu	-10.213
▁föreningar	-10.2131
▁abraham	-10.2131
▁1959	-10.2134
▁temperatur	-10.2136
▁äktenskapet	-10.2138
▁anger	-10.2138
▁halvön	-10.2139
flöde	-10.214
▁enkla	-10.2148
ländsk	-10.2149
ugg	-10.2152
▁japanska	-10.2153
▁syre	-10.2154
vad	-10.2158
ål	-10.2159
oli	-10.2161
ld	-10.2161
▁klipp	-10.2163
▁fe	-10.2171
teckna	-10.2178
▁myndigheter	-10.2178
trädde	-10.2178
▁påverka	-10.218
▁förhindra	-10.2184
▁instrument	-10.2187
▁skatt	-10.2188
▁skada	-10.2188
▁nor	-10.2195
mann	-10.2196
arter	-10.2199
▁on	-10.2202
▁tesla	-10.2203
▁odling	-10.2204
▁1912	-10.2205
▁kall	-10.2208
▁uran	-10.2212
fisk	-10.2213
känn	-10.2214
samling	-10.2217
▁lant	-10.2221
huvud	-10.2222
▁hamnade	-10.2222
▁läsa	-10.2223
▁förbättra	-10.2226
▁cor	-10.223
natt	-10.2232
▁utvecklings	-10.2234
kin	-10.2236
▁halmstad	-10.2239
▁super	-10.224
▁slogs	-10.224
▁psalmbok	-10.2243
▁perioder	-10.2245
▁fullt	-10.2247
▁regionala	-10.2261
▁poet	-10.2262
▁avtal	-10.227
skär	-10.2271
rom	-10.2271
kvadratkilometer	-10.2273
▁1949	-10.2276
▁1100-	-10.2283
▁nog	-10.2286
ografi	-10.2287
▁söderut	-10.2291
▁dö	-10.2291
▁nero	-10.2304
▁tider	-10.2306
kriget	-10.2312
▁1862	-10.2312
▁los	-10.2326
▁spelades	-10.2332
▁hol	-10.2332
▁personal	-10.2334
▁expedition	-10.2337
▁hörde	-10.2343
gått	-10.2349
▁kristus	-10.235
bal	-10.2352
▁datorer	-10.2353
▁olja	-10.2354
tron	-10.2356
▁strider	-10.2361
▁germanska	-10.2365
skriv	-10.2366
slagen	-10.2374
▁dia	-10.2374
▁dikter	-10.2375
▁tycks	-10.2381
▁uppland	-10.2382
▁annars	-10.2383
sh	-10.2387
▁konstitution	-10.2398
▁dan	-10.2403
▁likhet	-10.2407
▁albumet	-10.2408
get	-10.2408
▁bestämde	-10.2408
heter	-10.2411
▁pil	-10.2411
▁gårdar	-10.2412
▁klimatet	-10.2417
▁1947	-10.242
▁1956	-10.242
▁minoritet	-10.2425
▁norsk	-10.2427
▁arab	-10.2434
▁kris	-10.2437
stein	-10.2442
▁myr	-10.2448
▁programmet	-10.2451
fr	-10.2451
▁minuter	-10.2455
▁takt	-10.2455
▁1905	-10.2456
vakt	-10.2456
▁hopp	-10.2463
programmet	-10.2475
värd	-10.2479
pet	-10.248
vandring	-10.2483
ub	-10.2483
▁(15	-10.2487
norr	-10.2487
▁portugal	-10.249
▁växer	-10.2491
berget	-10.2491
▁faktisk	-10.2491
regler	-10.2492
car	-10.2496
▁träffade	-10.2497
▁artikel	-10.2497
▁hell	-10.2498
▁irland	-10.2501
▁sorter	-10.2514
▁rot	-10.2515
▁drev	-10.2515
▁mass	-10.2516
▁mång	-10.2524
▁tätort	-10.2525
▁bergen	-10.2526
▁jacob	-10.2527
▁krävs	-10.2527
handel	-10.2529
▁1936	-10.2529
▁forsknings	-10.2535
▁tilldelade	-10.2538
▁spridning	-10.2544
▁utnyttja	-10.2545
▁700	-10.2547
ningarna	-10.2547
kas	-10.2548
▁järnvägar	-10.2549
kant	-10.2549
▁reklam	-10.2552
▁säkra	-10.2556
▁utbildnings	-10.2559
▁undvika	-10.2559
▁dubbel	-10.2571
▁verkade	-10.2577
sattes	-10.2581
▁minskat	-10.2583
barn	-10.2583
ingen	-10.2586
isterna	-10.2589
▁bedöm	-10.2591
kop	-10.2597
rig	-10.2597
dor	-10.2598
landskap	-10.2601
▁ob	-10.2602
▁bibliotek	-10.2603
före	-10.2607
▁artiklar	-10.261
▁tas	-10.261
▁rymd	-10.2612
ios	-10.2613
▁turist	-10.2615
▁väte	-10.2616
▁knappt	-10.2625
die	-10.2628
▁bostads	-10.2631
brev	-10.2631
▁massa	-10.2631
länderna	-10.2632
▁test	-10.2636
▁gul	-10.2637
▁flydde	-10.2638
▁bayern	-10.2639
städer	-10.2644
rå	-10.2647
ljud	-10.2648
▁32	-10.2651
▁människa	-10.2657
▁sve	-10.2658
▁fenomen	-10.2661
▁mynt	-10.2662
▁telefon	-10.2663
▁tusen	-10.2666
ture	-10.2667
vasa	-10.2669
▁köping	-10.2672
▁guvernör	-10.2675
▁människo	-10.2675
▁victoria	-10.2676
▁låga	-10.2677
▁gräs	-10.2678
▁1925	-10.2678
dals	-10.2679
▁kärn	-10.2685
▁anknytning	-10.2687
▁publicerade	-10.2688
tecken	-10.2694
▁hushåll	-10.27
▁service	-10.2704
▁institutioner	-10.2704
▁religiös	-10.2709
▁gjorts	-10.2709
▁byte	-10.271
▁1923	-10.2714
byggnader	-10.2714
▁rest	-10.2721
▁församlingar	-10.2723
▁såldes	-10.2725
abel	-10.2727
▁därtill	-10.2728
gor	-10.273
torp	-10.2731
-1	-10.2739
mö	-10.274
▁händelser	-10.2742
▁ry	-10.2745
▁louis	-10.2746
▁breda	-10.275
▁södergran	-10.2753
▁sträng	-10.2753
▁sä	-10.2753
▁behöll	-10.2753
▁utländsk	-10.2767
▁arbeten	-10.2768
▁undersökning	-10.277
orden	-10.2778
▁beskrev	-10.2778
oxid	-10.2779
linje	-10.2783
▁provinsen	-10.2784
▁fly	-10.2785
▁dialekter	-10.2785
bana	-10.2787
▁tegnér	-10.2787
▁anslöt	-10.2787
▁vers	-10.2789
▁saknas	-10.279
▁matematik	-10.279
▁ideal	-10.2795
▁förklara	-10.2796
leden	-10.2802
▁gestalt	-10.2803
▁sträckan	-10.281
nämnden	-10.2812
öarna	-10.2813
▁fåtal	-10.2817
▁benämningen	-10.282
▁medicin	-10.282
▁lov	-10.2823
▁bosnien	-10.2825
▁hedvig	-10.2825
▁pommern	-10.2825
fart	-10.283
fer	-10.283
▁akt	-10.2831
▁ky	-10.2841
▁com	-10.2844
växter	-10.2851
▁handling	-10.2856
▁åbo	-10.2859
▁flygplatsen	-10.286
temot	-10.286
▁hovet	-10.2861
▁baserat	-10.2862
▁kombinera	-10.2863
▁blekinge	-10.2863
lok	-10.2863
▁beläget	-10.2865
kast	-10.2866
stid	-10.2866
▁kön	-10.2868
ino	-10.2871
bröd	-10.2872
▁evolution	-10.2873
fartyg	-10.2875
världen	-10.2879
▁förut	-10.2879
▁red	-10.2884
▁delade	-10.2884
förbund	-10.2886
ges	-10.2888
▁givit	-10.2889
▁tanken	-10.289
▁torg	-10.2896
▁finnas	-10.2898
▁vände	-10.2899
▁kortare	-10.29
▁utbröt	-10.2901
▁självständiga	-10.2904
▁tronen	-10.2907
▁fördes	-10.2909
▁historisk	-10.2918
lock	-10.2926
▁bri	-10.2928
ms	-10.293
▁kejserliga	-10.2933
▁pass	-10.2936
▁administration	-10.2939
▁vilhelm	-10.2939
▁identifiera	-10.2939
▁mac	-10.294
▁1937	-10.2941
▁1921	-10.2941
▁parlament	-10.2945
▁helst	-10.2947
station	-10.295
▁hålls	-10.2951
▁personliga	-10.2952
▁skickade	-10.2959
▁handeln	-10.296
▁chi	-10.2962
▁tan	-10.2963
▁tidningar	-10.2966
▁linjen	-10.2977
▁kärnvapen	-10.2978
▁skilja	-10.2978
ingar	-10.2978
ät	-10.298
▁helsingborg	-10.2981
▁senast	-10.2983
▁sydöstra	-10.2983
of	-10.2991
regionen	-10.2995
▁fotbolls	-10.2996
▁styra	-10.3003
märk	-10.3005
tta	-10.3009
▁kemiska	-10.301
styrelsen	-10.3014
▁final	-10.3014
▁krist	-10.3016
▁förekommande	-10.302
vers	-10.302
▁flest	-10.3023
▁spelat	-10.303
orm	-10.3035
▁hävdar	-10.3038
lon	-10.3039
ledning	-10.3045
▁freds	-10.3046
åriga	-10.3053
▁brasilien	-10.3055
▁1935	-10.3057
▁skett	-10.306
▁et	-10.3061
▁minsta	-10.3068
▁skepps	-10.3073
▁mesta	-10.3076
got	-10.3076
strand	-10.308
kulturen	-10.3081
▁rörelser	-10.3087
zo	-10.3087
▁1930	-10.3088
▁kvalitet	-10.309
▁ol	-10.3092
▁ansvarig	-10.3095
▁hälso	-10.3096
▁1957	-10.3096
▁sim	-10.31
fabrik	-10.3101
staten	-10.3106
▁filip	-10.3107
▁liknar	-10.3107
▁betydelser	-10.3108
sö	-10.311
gift	-10.311
innan	-10.3114
gal	-10.3123
ända	-10.3126
▁förbundet	-10.3128
▁ungdoms	-10.3131
▁projektet	-10.3132
lláh	-10.3132
▁föregångare	-10.3134
▁tomt	-10.3134
▁korta	-10.3136
▁funktioner	-10.3139
rot	-10.3145
▁helhet	-10.3151
ssystem	-10.3154
▁kemi	-10.3155
▁häng	-10.3156
▁verksam	-10.316
ration	-10.3164
pris	-10.3165
▁krets	-10.3166
dia	-10.3166
▁sprida	-10.3167
▁ökad	-10.3176
▁sy	-10.3177
▁inne	-10.3178
▁ask	-10.318
▁operation	-10.3186
▁berget	-10.319
▁hed	-10.3195
▁röst	-10.3198
församling	-10.3202
ledare	-10.3207
lika	-10.321
▁benämns	-10.321
▁television	-10.3211
▁1906	-10.3212
▁fastlandet	-10.3213
▁antag	-10.3216
▁atom	-10.3216
inna	-10.3218
förening	-10.3218
▁väder	-10.3225
tj	-10.3226
▁gr	-10.3229
▁anpassa	-10.3231
yo	-10.3232
▁skara	-10.3242
▁bulgarien	-10.325
▁försvann	-10.325
▁konstmuseum	-10.3252
▁handlingar	-10.3253
xi	-10.3253
▁priset	-10.3255
▁intressen	-10.326
ick	-10.3261
▁ven	-10.3262
▁unions	-10.3264
▁växande	-10.3264
▁rika	-10.3267
ili	-10.3268
▁koalition	-10.3268
▁tillägg	-10.3273
▁sjukdomar	-10.3274
▁fors	-10.3274
▁personen	-10.3274
▁hantera	-10.3275
▁målet	-10.3276
▁vem	-10.3281
jor	-10.3281
▁design	-10.3282
▁fungera	-10.3284
▁lagstiftning	-10.3287
▁lycka	-10.3288
så	-10.3289
▁fortsätter	-10.329
▁1907	-10.3291
▁nationalmuseum	-10.3291
▁kast	-10.3292
ost	-10.3295
▁dis	-10.3297
▁tillfälle	-10.3298
länder	-10.3299
▁frö	-10.33
▁övergick	-10.3301
ioner	-10.3302
föll	-10.3304
▁kraftig	-10.3308
stå	-10.331
▁ovanligt	-10.3313
fred	-10.332
▁lösa	-10.3324
rut	-10.3327
▁sattes	-10.3328
▁kräver	-10.3329
▁efterträdare	-10.3329
eu	-10.3337
position	-10.3339
▁mun	-10.334
bur	-10.3352
▁dryck	-10.3355
▁hotell	-10.3356
▁författning	-10.3357
forskning	-10.3358
run	-10.3366
▁ökar	-10.3366
▁klockan	-10.3373
ark	-10.3375
ellt	-10.3389
ps	-10.3389
ske	-10.3391
pass	-10.3392
▁storm	-10.3393
▁drift	-10.3395
▁överens	-10.3401
ux	-10.3402
▁styrelse	-10.3403
▁besökare	-10.3405
▁scen	-10.3405
▁konservativa	-10.3408
▁landsbygden	-10.3409
▁1943	-10.3411
lett	-10.3412
▁q	-10.3412
▁maskin	-10.3424
▁atlanten	-10.3426
▁union	-10.343
▁värdet	-10.343
fördelning	-10.3432
▁landskaps	-10.3433
▁berättelser	-10.3435
▁danske	-10.3435
▁blandning	-10.3439
göra	-10.3447
▁befinn	-10.3452
▁brons	-10.3456
▁genomföra	-10.3456
teori	-10.346
▁est	-10.3463
sång	-10.3464
▁invasion	-10.3465
▁isländska	-10.3467
▁visst	-10.3468
▁verb	-10.347
▁total	-10.3471
▁smält	-10.3471
kropp	-10.3474
året	-10.3479
▁tjänste	-10.3485
▁kroatien	-10.3489
▁1909	-10.3491
▁ställa	-10.3494
▁make	-10.3497
rid	-10.3506
▁transporter	-10.3507
nska	-10.3515
rak	-10.3523
▁förmån	-10.3525
▁adels	-10.3526
▁bolag	-10.3528
▁grann	-10.353
▁hypotes	-10.353
▁fas	-10.3531
vald	-10.3532
linjer	-10.3535
▁sjöar	-10.3539
fång	-10.3539
▁magnusson	-10.354
▁dikt	-10.3542
▁stannade	-10.3542
▁bebyggelse	-10.355
organisation	-10.3554
▁kontrollera	-10.3556
▁avsnitt	-10.3569
bolag	-10.3569
▁1942	-10.3572
▁1934	-10.3573
▁ran	-10.3578
▁finans	-10.3582
löst	-10.3582
▁lok	-10.3582
▁rid	-10.3584
▁arrangera	-10.3588
ding	-10.3588
serie	-10.3592
▁lill	-10.3597
▁träffa	-10.3598
▁hästar	-10.3607
färd	-10.3609
▁tillverka	-10.3612
sborg	-10.3613
rör	-10.3615
▁naturligt	-10.3617
mak	-10.362
▁britterna	-10.362
visade	-10.3621
▁moder	-10.3623
▁anges	-10.3624
▁ap	-10.3628
▁kommunal	-10.3631
▁lös	-10.3633
▁mönster	-10.3633
mu	-10.3636
▁produkter	-10.3636
▁allians	-10.3638
latin	-10.3642
▁gävle	-10.3652
alt	-10.3652
▁upplöstes	-10.3654
▁1938	-10.3655
▁värld	-10.3655
▁låtar	-10.3655
▁bokstaven	-10.3658
▁webb	-10.366
▁star	-10.366
kusten	-10.3666
▁sänk	-10.3667
▁finna	-10.3669
▁blad	-10.3669
▁nedre	-10.367
▁gra	-10.367
larna	-10.3673
▁strids	-10.3675
frågor	-10.3676
▁offer	-10.3678
▁sändes	-10.3678
▁därifrån	-10.3679
▁medförde	-10.3685
▁tung	-10.3686
▁samlings	-10.3687
kol	-10.3691
▁alfabetet	-10.3693
▁fängsla	-10.3693
rike	-10.3695
▁nyckel	-10.3696
▁ordningen	-10.3698
▁mjölk	-10.3702
▁ros	-10.3708
▁sil	-10.3711
▁fest	-10.3711
regering	-10.3711
▁antog	-10.3712
▁process	-10.3716
▁botten	-10.3718
församlingen	-10.3719
▁kött	-10.372
▁tj	-10.3722
▁starta	-10.3723
▁inrikes	-10.3726
iff	-10.3733
▁konkurrens	-10.3735
▁gabriel	-10.3735
▁platon	-10.3735
▁rykte	-10.3736
▁fu	-10.3737
▁huru	-10.3738
▁persiska	-10.3738
frihet	-10.3741
terna	-10.3741
▁söka	-10.3742
▁målningar	-10.3743
▁arterna	-10.3745
▁boström	-10.3746
fal	-10.3748
▁generation	-10.3748
▁cup	-10.3752
▁förstör	-10.3754
▁chile	-10.3754
▁riga	-10.3757
▁införde	-10.3758
°	-10.376
▁indiska	-10.3761
▁oro	-10.3761
riv	-10.3763
▁nätverk	-10.3774
▁ci	-10.3775
▁tessin	-10.3776
▁primär	-10.3776
▁1922	-10.3779
▁enkel	-10.3782
▁råder	-10.3784
tagit	-10.3784
▁känna	-10.3787
▁flygplan	-10.3787
bud	-10.3791
▁can	-10.3792
▁folkräkningen	-10.3796
qui	-10.3796
▁åker	-10.3801
kat	-10.3812
mos	-10.3813
▁stödde	-10.3817
itz	-10.3819
▁sovjet	-10.3819
period	-10.3821
▁därigenom	-10.3825
▁tydlig	-10.3826
cent	-10.383
▁stan	-10.383
▁dop	-10.3831
ätten	-10.3831
▁österut	-10.3833
hal	-10.3833
▁hylla	-10.3837
▁påverkade	-10.384
▁skott	-10.3843
▁omnämns	-10.3846
▁säsong	-10.3846
▁block	-10.3852
▁university	-10.386
▁fasad	-10.3862
▁tankar	-10.3862
▁drottningen	-10.3862
▁1911	-10.3863
▁fånga	-10.3863
▁indelat	-10.3865
▁förbunds	-10.3867
▁katt	-10.3871
▁delstat	-10.3872
▁fyll	-10.3877
▁45	-10.3879
▁sky	-10.3882
▁fan	-10.3886
▁ägare	-10.3887
▁ersätta	-10.3888
▁kommande	-10.3888
▁konflikten	-10.3889
▁%)	-10.3893
ori	-10.3895
▁upplev	-10.3896
▁fallet	-10.3898
reform	-10.3898
▁tänkt	-10.3898
▁sånger	-10.3908
homo	-10.3908
▁käll	-10.3908
bart	-10.3909
▁omfattning	-10.3913
net	-10.3919
mund	-10.3921
▁familjer	-10.3922
▁dominerade	-10.3924
▁trapp	-10.3924
▁målade	-10.3927
▁generellt	-10.3929
fåglar	-10.393
typer	-10.3931
▁at	-10.3934
▁kuba	-10.3937
▁serier	-10.3938
dos	-10.3941
▁exakt	-10.3941
▁fasta	-10.3943
tic	-10.3944
▁vokal	-10.3945
▁arkeologiska	-10.3947
bolaget	-10.3949
▁lugn	-10.395
▁någonsin	-10.3952
▁relation	-10.3954
▁tjänster	-10.3955
heim	-10.3962
▁teatern	-10.3965
▁införande	-10.3968
ons	-10.3969
▁mötte	-10.397
▁tillhörande	-10.3971
▁not	-10.3973
▁skillnaden	-10.3973
▁gröna	-10.3976
▁wal	-10.3976
▁kulturer	-10.3981
plikt	-10.3986
▁substantiv	-10.3986
▁päls	-10.3986
▁geijer	-10.3986
▁förslaget	-10.3987
▁utkom	-10.3988
▁1932	-10.3989
▁resurser	-10.399
▁baserad	-10.3991
▁nordvästra	-10.3991
▁motsats	-10.3993
trafiken	-10.3997
▁sort	-10.4002
▁utgår	-10.4006
problem	-10.4015
▁kropp	-10.4018
jer	-10.402
mjöl	-10.4025
lla	-10.4031
▁speciella	-10.4035
▁förlust	-10.4037
▁europeisk	-10.4038
ins	-10.4039
ey	-10.4039
▁spi	-10.4041
▁pågick	-10.4049
▁organiserade	-10.405
ez	-10.4051
▁resor	-10.4051
▁nutida	-10.4054
▁nederländska	-10.4057
▁situationen	-10.4064
▁färger	-10.4066
▁nationell	-10.4067
▁ac	-10.4072
▁kontinenten	-10.4073
▁gardie	-10.4073
▁import	-10.4073
▁skärgård	-10.4076
▁modeller	-10.4078
▁svarade	-10.408
▁förbi	-10.4084
▁socknar	-10.4088
▁omedelbart	-10.4092
▁jönköpings	-10.4097
▁cla	-10.4099
▁egenskap	-10.41
▁ändamål	-10.41
▁mono	-10.4101
▁revs	-10.4102
▁staty	-10.4104
▁perspektiv	-10.4104
▁möjligheter	-10.4105
hon	-10.4106
▁franc	-10.4111
scen	-10.4113
-20	-10.4113
▁mellersta	-10.4115
▁väckte	-10.4115
▁medelhavet	-10.4115
▁äger	-10.4118
kla	-10.4121
ib	-10.413
▁bomb	-10.413
▁jämför	-10.4131
▁gall	-10.4133
▁vardera	-10.4139
▁ljung	-10.414
▁kropps	-10.4141
▁representation	-10.4143
baserade	-10.4144
kov	-10.4145
▁behålla	-10.4146
▁förklaring	-10.4147
▁rang	-10.4151
can	-10.4151
▁framgångsrika	-10.4151
risk	-10.4151
nk	-10.4156
▁begränsade	-10.4156
codice	-10.4158
bank	-10.416
▁hår	-10.4161
▁politiken	-10.4163
▁oslo	-10.4163
▁antika	-10.4164
▁innefattar	-10.4164
dikt	-10.4167
resa	-10.417
▁bevara	-10.4171
▁lärde	-10.4174
▁rötter	-10.4175
▁utförde	-10.4175
▁mel	-10.4176
▁finlands	-10.4176
sky	-10.4179
▁konstnären	-10.418
▁andre	-10.4182
▁indelad	-10.4183
ställda	-10.4183
▁kärlek	-10.4184
fär	-10.4187
▁ögon	-10.4187
▁påbörjades	-10.4187
▁organisera	-10.4188
struktur	-10.4189
▁utföra	-10.419
▁es	-10.4195
▁departement	-10.4195
▁prinsessan	-10.4201
▁observera	-10.4201
▁framställ	-10.4202
▁religions	-10.4203
▁swed	-10.4203
▁1933	-10.4203
▁1955	-10.4204
lus	-10.4205
skolor	-10.4212
▁lokaler	-10.4213
▁indian	-10.4215
tyder	-10.422
rygg	-10.4221
▁återupp	-10.4221
▁win	-10.4224
▁sul	-10.4225
▁liberala	-10.4225
▁befäl	-10.4227
klassen	-10.4228
▁kritiker	-10.4228
kväll	-10.4229
årig	-10.4231
▁hjärn	-10.4232
▁gre	-10.4235
nummer	-10.4236
▁elisabet	-10.4238
▁vägg	-10.424
▁stav	-10.424
rikt	-10.4241
ierna	-10.4244
▁magdalena	-10.4244
eus	-10.4245
▁nederlag	-10.4246
isten	-10.4247
▁vattendrag	-10.425
längd	-10.4253
bland	-10.4256
▁75	-10.4256
rich	-10.4256
följd	-10.4258
▁linjer	-10.4264
▁tysklands	-10.427
▁översatt	-10.4272
fel	-10.4278
▁bly	-10.428
boken	-10.4281
▁centimeter	-10.4288
▁motsvarighet	-10.4288
▁territorium	-10.4288
▁giftermål	-10.4288
▁taube	-10.4288
▁släktet	-10.4288
▁utformning	-10.4289
▁ull	-10.4289
▁håkan	-10.4289
▁kiev	-10.4289
▁elit	-10.429
▁bildandet	-10.4292
▁rä	-10.4294
▁rut	-10.4295
▁näs	-10.4296
▁ändrades	-10.4301
▁landslag	-10.4301
▁påminn	-10.4302
▁vasas	-10.4306
▁bostad	-10.4307
▁ägnade	-10.4311
▁herre	-10.4312
▁koloni	-10.4313
snitt	-10.4317
▁sålde	-10.4317
mot	-10.4323
▁inkomst	-10.4325
▁heidenstam	-10.4332
▁leipzig	-10.4332
▁shelley	-10.4332
▁identitet	-10.4332
▁regional	-10.4332
▁återkommande	-10.4333
▁1951	-10.4335
▁alfred	-10.4335
▁1953	-10.4335
blå	-10.4339
▁storstadsområde	-10.4343
▁norrland	-10.4343
▁lunds	-10.4345
▁skilda	-10.4346
▁analys	-10.4352
▁bet	-10.4353
▁rik	-10.4355
▁tull	-10.4358
–201	-10.4359
fäll	-10.4362
▁kg	-10.4378
iken	-10.4379
▁skid	-10.4379
▁kapten	-10.4382
▁finalen	-10.4386
▁barndom	-10.4387
▁ve	-10.4388
hol	-10.4389
):	-10.4395
▁revolution	-10.4395
▁antas	-10.4397
▁floder	-10.4398
▁tjäna	-10.4404
▁idé	-10.4404
▁genombrott	-10.4405
▁sjukhus	-10.4407
▁läro	-10.4407
▁förstördes	-10.4408
▁fokus	-10.4411
▁staterna	-10.4412
lokal	-10.4412
▁tillgänglig	-10.4412
▁mörda	-10.4414
▁börja	-10.4417
▁röster	-10.4418
ssel	-10.4418
▁egentliga	-10.4418
▁lidingö	-10.442
▁karlskrona	-10.442
▁bellman	-10.4424
▁gudar	-10.4424
▁hitta	-10.443
aktig	-10.4431
▁philip	-10.4432
▁klubb	-10.4434
▁war	-10.4435
atet	-10.4436
▁förbindelser	-10.4437
▁ved	-10.4437
nos	-10.4439
klubb	-10.4439
▁kommunikation	-10.4442
ej	-10.4442
▁fritt	-10.445
▁ze	-10.4451
▁bön	-10.4452
▁efterhand	-10.4453
our	-10.4453
▁vo	-10.4456
▁lön	-10.4463
▁1926	-10.4467
▁myndighet	-10.4475
dr	-10.448
▁uppskattade	-10.448
▁marknaden	-10.4483
match	-10.4484
▁ritningar	-10.4487
▁oxenstierna	-10.4491
▁linköping	-10.4499
▁görs	-10.4499
häll	-10.45
▁rit	-10.4502
▁klassisk	-10.4502
▁geografiska	-10.4502
funktion	-10.4503
▁kvinno	-10.4504
sl	-10.4508
▁besegrade	-10.4509
▁indelas	-10.451
▁nobel	-10.4511
▁turister	-10.4511
▁1928	-10.4512
▁johann	-10.4512
▁nät	-10.4512
cha	-10.4512
▁bolaget	-10.4514
format	-10.4522
loppet	-10.4524
▁närings	-10.4533
▁ingå	-10.4535
▁kyl	-10.4538
▁flytt	-10.4544
▁tvär	-10.4545
–15	-10.4549
one	-10.4553
▁kandidat	-10.4555
▁friidrott	-10.456
▁human	-10.4563
▁gradvis	-10.4567
ppa	-10.4569
skepp	-10.4572
version	-10.4574
▁provins	-10.4574
tis	-10.4576
▁människorna	-10.4581
▁kapital	-10.4583
▁tag	-10.4583
lägger	-10.459
stora	-10.4592
arbetare	-10.4593
▁hindra	-10.4594
▁genomsnitt	-10.4594
▁temperaturen	-10.4594
▁sällskap	-10.4594
▁bröderna	-10.4595
nya	-10.4599
▁rumänien	-10.4599
▁koranen	-10.46
▁skellefteå	-10.46
▁köpa	-10.4601
▁svante	-10.4601
sman	-10.4604
▁inträffade	-10.4605
▁striden	-10.4606
▁adress	-10.4607
▁påverkan	-10.4608
last	-10.4608
källa	-10.4613
▁rätten	-10.4614
▁äventyr	-10.4615
▁psykologi	-10.4621
▁term	-10.4623
▁diagnos	-10.4624
▁tempel	-10.4625
▁za	-10.4626
följ	-10.4631
▁ortnamn	-10.4635
▁försöka	-10.4636
▁dödades	-10.4639
värm	-10.4643
block	-10.4646
▁friherre	-10.4646
▁museer	-10.4646
▁1929	-10.4647
▁lösning	-10.4648
▁orter	-10.4652
▁händelse	-10.4654
politiken	-10.4655
▁vild	-10.4656
vor	-10.4658
▁mikro	-10.4662
▁uttal	-10.4662
▁romarna	-10.4663
▁palats	-10.4663
▁tävlingen	-10.4663
▁civila	-10.4665
▁högskolan	-10.4671
▁faller	-10.4678
▁hamnen	-10.4681
▁klostret	-10.4683
▁geer	-10.4688
▁skarp	-10.4692
▁återvända	-10.4693
ial	-10.4699
avsett	-10.47
ano	-10.47
park	-10.47
▁framstående	-10.47
▁vapnet	-10.4701
sakademien	-10.4703
boll	-10.472
▁max	-10.4725
kv	-10.4725
▁stabil	-10.4725
ytt	-10.473
▁arkitekten	-10.4732
▁regi	-10.4734
▁låt	-10.4735
ider	-10.4735
▁1931	-10.4738
minne	-10.4739
▁konstnär	-10.4743
▁stammar	-10.4747
▁elva	-10.4751
▁låten	-10.4752
▁regemente	-10.4756
▁pal	-10.4762
▁offentlig	-10.4762
▁natten	-10.4765
eriet	-10.4766
▁dar	-10.4769
sikt	-10.4774
iva	-10.4774
▁albrekt	-10.4782
förde	-10.4785
gottorp	-10.4786
▁avskaffades	-10.4789
3)	-10.4789
num	-10.479
tak	-10.479
frågan	-10.4793
▁expansion	-10.4794
ljus	-10.4795
hugg	-10.48
nat	-10.4808
▁experiment	-10.4808
via	-10.4809
▁svenskar	-10.4809
▁syftet	-10.4817
▁skulptur	-10.4823
▁visas	-10.4824
▁importera	-10.4826
▁utbredd	-10.4828
▁syrien	-10.4828
▁godkänd	-10.4828
ther	-10.4829
▁mjuk	-10.4829
▁senaten	-10.4829
▁grip	-10.483
▁öland	-10.4832
▁misslyckades	-10.4832
▁pri	-10.4835
ence	-10.4836
▁tävla	-10.4841
▁lämnat	-10.4844
▁representerad	-10.4847
▁fördel	-10.4851
givning	-10.4853
där	-10.4864
▁studenter	-10.4866
duk	-10.4868
kör	-10.4868
▁introducerades	-10.487
idae	-10.4874
▁uppskattning	-10.4874
▁tjock	-10.4875
▁valuta	-10.4875
▁1915	-10.4877
▁lyft	-10.488
vat	-10.4881
köping	-10.4882
när	-10.4883
▁mälaren	-10.4893
▁diskutera	-10.4896
skapet	-10.4897
▁back	-10.4899
▁framställning	-10.4903
▁tredjedel	-10.4906
grip	-10.4906
rio	-10.4908
▁effektiv	-10.4914
▁planet	-10.4918
▁ideologi	-10.492
gångar	-10.492
▁rösterna	-10.492
▁münchen	-10.492
▁pakistan	-10.492
▁tyckte	-10.492
▁guinea	-10.492
ök	-10.4921
klar	-10.4921
▁lovisa	-10.4922
▁teorin	-10.4925
▁upptäcktes	-10.4925
▁mal	-10.4931
▁produkt	-10.4931
formen	-10.4933
▁försvara	-10.4935
▁char	-10.4938
old	-10.4938
▁samarbetet	-10.4939
▁etc	-10.4939
tagna	-10.4948
iteten	-10.4948
▁industrin	-10.4949
▁patri	-10.495
▁cell	-10.4957
röd	-10.4957
▁mask	-10.4958
▁fästning	-10.4962
dre	-10.4962
▁lagsaga	-10.4963
▁1940-	-10.4966
▁tele	-10.4966
princip	-10.4967
▁folkomröstning	-10.4967
▁mexiko	-10.4967
▁växjö	-10.4967
▁sigismund	-10.4967
▁1908	-10.4969
▁riddare	-10.497
▁jury	-10.4972
torget	-10.4977
▁kristi	-10.4981
▁arena	-10.4984
▁norrlands	-10.499
▁domkyrka	-10.4994
▁temperaturer	-10.4996
▁avsikt	-10.4998
▁flyktingar	-10.4999
▁ortodoxa	-10.5
material	-10.5003
▁real	-10.5007
cke	-10.5009
uz	-10.5015
▁1000	-10.5018
etik	-10.502
made	-10.5025
▁un	-10.5029
▁historie	-10.503
dé	-10.5034
▁fungerade	-10.5034
▁mora	-10.504
▁detaljer	-10.5041
▁produktionen	-10.5043
▁nederbörd	-10.5043
▁individ	-10.5045
▁brunn	-10.5045
iner	-10.5048
▁underhåll	-10.5051
▁vänta	-10.5061
▁förbindelse	-10.5062
▁1916	-10.5064
▁mästare	-10.5069
krets	-10.5072
▁berätta	-10.5078
▁kvinnan	-10.5079
▁skådespelare	-10.5082
▁rekord	-10.5086
▁grekisk	-10.5087
▁upptäckte	-10.5103
▁fordon	-10.5105
▁cecilia	-10.5109
▁science	-10.5109
▁visserligen	-10.5109
▁förlorat	-10.5109
▁(3	-10.5109
språket	-10.5109
▁reaktion	-10.511
▁förekommit	-10.5111
▁främja	-10.5111
▁halvan	-10.5112
▁markera	-10.5113
melodifestivalen	-10.5114
▁ockuperade	-10.5116
hund	-10.5119
▁sel	-10.5127
▁kvinnorna	-10.5135
▁försöker	-10.5142
▁mord	-10.515
▁växa	-10.5151
▁gregorianska	-10.5156
gro	-10.5157
förmåga	-10.5159
inter	-10.516
▁tegel	-10.5161
priset	-10.5162
▁noll	-10.5164
▁gudstjänst	-10.5173
unt	-10.5173
▁fack	-10.5174
▁förebild	-10.5174
▁hälsingland	-10.5175
▁judisk	-10.5181
▁aktivt	-10.5184
eli	-10.5187
▁hantverk	-10.5188
▁kyrkogård	-10.519
▁minister	-10.5191
▁beslutet	-10.5193
banken	-10.5199
▁bilden	-10.5205
▁byggas	-10.5205
säg	-10.5206
kontroll	-10.5207
▁baserade	-10.5207
▁fr	-10.5209
republik	-10.5209
fatt	-10.521
▁lagman	-10.521
▁bana	-10.5214
▁stol	-10.5217
▁faderns	-10.5218
▁likt	-10.5219
topp	-10.5221
▁nr	-10.5223
sida	-10.5225
▁styrdes	-10.523
▁epi	-10.5235
▁fullständig	-10.5237
▁vetenskaps	-10.5248
▁existens	-10.5252
▁nordost	-10.5255
▁lindgren	-10.5255
flytta	-10.5256
avdelning	-10.5259
▁tidpunkt	-10.5259
▁fäst	-10.5261
▁alls	-10.5263
sedda	-10.5268
▁intensiv	-10.5274
▁kron	-10.5278
backen	-10.5284
▁bibel	-10.5287
▁ai	-10.5293
▁bag	-10.5294
tillverkning	-10.5294
▁kanalen	-10.5296
▁wrangel	-10.53
▁valkrets	-10.5303
▁domineras	-10.5305
dator	-10.5308
▁sköld	-10.5311
▁utvecklat	-10.5312
way	-10.5315
▁svenskan	-10.5323
▁matcher	-10.5323
▁bokstav	-10.5324
▁utöka	-10.5328
▁operativsystem	-10.5328
▁fönster	-10.5329
lista	-10.5334
gy	-10.5335
smedel	-10.5341
▁kontrakt	-10.5344
ville	-10.5348
▁införa	-10.5348
flagg	-10.5348
▁konstantinopel	-10.5349
▁multi	-10.5349
▁medverkade	-10.5349
▁ä	-10.5358
stöt	-10.5359
▁fer	-10.536
▁uni	-10.536
▁kröning	-10.5361
▁unge	-10.5362
▁shi	-10.5362
▁skeppet	-10.5364
handlingar	-10.5369
anda	-10.5375
▁bosatte	-10.538
▁torget	-10.5386
▁belägg	-10.5389
▁1000-	-10.5393
▁arbetare	-10.5395
▁poly	-10.5397
▁argentina	-10.5398
▁åtskillig	-10.5398
▁erbjöd	-10.5398
löv	-10.5399
▁1889	-10.5402
▁förhandlingar	-10.5402
författare	-10.5404
▁sitter	-10.5404
parken	-10.5405
▁nyheter	-10.5408
▁you	-10.5413
▁lägsta	-10.5416
▁aik	-10.5417
▁last	-10.5419
▁grönland	-10.5419
lägga	-10.5422
▁mottog	-10.5423
ph	-10.5425
▁sha	-10.5425
fram	-10.5426
åren	-10.5427
▁driva	-10.5428
▁provinser	-10.543
▁personlighet	-10.5432
▁begravning	-10.5434
▁sovjetunionens	-10.5442
▁ökning	-10.5444
▁färd	-10.5444
▁karlsson	-10.5446
▁vikingatiden	-10.5447
▁vetlanda	-10.5447
▁schizofreni	-10.5447
▁nordöstra	-10.5449
▁värmland	-10.545
▁införlivades	-10.545
mängd	-10.5452
motor	-10.5461
▁variera	-10.5462
▁täckt	-10.5466
hed	-10.5475
▁normal	-10.5477
▁livsmedel	-10.5478
▁kommunikationer	-10.5478
▁flertalet	-10.5481
▁orsak	-10.5483
▁ärkebiskopen	-10.5485
ney	-10.5486
▁populärt	-10.5488
flyg	-10.5489
teckning	-10.5489
samt	-10.5491
▁36	-10.5492
tas	-10.5492
öst	-10.5494
nordiska	-10.5494
▁socialistiska	-10.5494
▁mö	-10.5496
▁faktum	-10.5496
▁sistnämnda	-10.5496
▁västmanland	-10.5496
▁nation	-10.5497
▁kollektiv	-10.5497
▁öns	-10.5501
▁upplösning	-10.5504
datorer	-10.5508
▁existerar	-10.5509
▁tom	-10.5512
▁synd	-10.5515
▁rädda	-10.552
▁återkom	-10.5521
▁statsråd	-10.5522
▁studio	-10.5528
▁falun	-10.5529
▁beräkna	-10.5535
▁potatis	-10.5539
▁gruv	-10.5543
sjuk	-10.5544
kostnad	-10.5545
▁arboga	-10.5546
▁täcker	-10.5546
▁dåligt	-10.5549
▁olsson	-10.5549
▁orsaken	-10.5549
tornet	-10.555
▁mestadel	-10.555
▁präster	-10.5556
▁mångfald	-10.5557
givna	-10.5558
▁använt	-10.556
▁segrar	-10.556
▁lopp	-10.5568
▁akademi	-10.5569
▁pr	-10.5571
växt	-10.5575
▁företrädare	-10.5579
märke	-10.5586
▁stör	-10.5587
▁musiken	-10.5587
▁siffror	-10.5587
regeringen	-10.5591
dda	-10.5595
▁församlingen	-10.5596
▁följt	-10.5596
▁2023	-10.5602
dagar	-10.5602
▁peder	-10.5602
då	-10.5603
2,	-10.5603
▁sudan	-10.5604
▁kraftiga	-10.5609
▁augustus	-10.5611
▁kolonial	-10.5615
gin	-10.5616
▁ost	-10.5617
ice	-10.5618
▁mänsklig	-10.5622
▁rund	-10.5623
▁idén	-10.5624
lid	-10.5625
▁etablera	-10.5627
▁spar	-10.5632
äv	-10.5632
inte	-10.5636
cia	-10.5636
▁ytter	-10.5641
▁fra	-10.5642
▁utredning	-10.5643
▁doktor	-10.5645
▁korrekt	-10.5646
▁darwin	-10.5646
▁tusentals	-10.5646
▁leds	-10.5648
▁grundämne	-10.5649
▁hårda	-10.5651
▁erövra	-10.5651
märken	-10.5652
▁kontakter	-10.566
▁västerbotten	-10.5662
våg	-10.5663
▁positiv	-10.5664
▁riksväg	-10.5669
nik	-10.5672
▁mc	-10.5682
▁ständig	-10.5684
sekreterare	-10.5692
▁bryta	-10.5694
▁känner	-10.5697
mur	-10.5698
▁spelas	-10.5698
▁programvara	-10.5698
▁james	-10.5699
▁utställning	-10.57
▁kart	-10.5703
▁förbud	-10.5705
▁lucia	-10.5705
▁tillbringade	-10.5705
▁pop	-10.5706
▁proto	-10.5708
▁regeringstid	-10.5709
▁north	-10.571
▁enheter	-10.5716
ue	-10.5726
▁hoppa	-10.5728
▁betrakta	-10.5732
hopp	-10.5739
▁barnet	-10.5742
tänder	-10.5743
lägg	-10.5746
höjd	-10.5746
▁utomlands	-10.5748
▁sände	-10.5748
bin	-10.5748
länning	-10.5749
▁avdelning	-10.575
▁(2	-10.5751
▁elefant	-10.5751
delning	-10.5751
▁tvungen	-10.5752
▁härrör	-10.5752
sydlig	-10.5753
▁undersökningar	-10.5753
höll	-10.5753
▁honor	-10.5757
▁37	-10.5764
värde	-10.5765
ved	-10.5765
teatern	-10.5765
nämnd	-10.5768
ört	-10.5769
▁antiken	-10.5771
▁kost	-10.5772
kad	-10.5773
hundra	-10.5774
▁järnåldern	-10.5775
ii	-10.5776
▁räknar	-10.5779
▁tornet	-10.578
▁representerade	-10.5783
▁begränsa	-10.5785
1)	-10.579
▁representanter	-10.579
▁volym	-10.5795
town	-10.5795
▁richard	-10.5797
▁gärna	-10.5797
▁ernst	-10.5797
▁öresund	-10.5797
▁fransmännen	-10.5798
▁sjukvård	-10.5798
▁möjliga	-10.5798
▁tyskarna	-10.5799
▁1913	-10.58
byggt	-10.58
ric	-10.5802
steg	-10.5802
pre	-10.5802
fu	-10.5804
▁fokusera	-10.5807
ämne	-10.5808
▁enlighet	-10.5809
visning	-10.5816
▁jönköping	-10.5817
kamp	-10.5818
▁kavalleri	-10.582
asi	-10.5827
▁händer	-10.583
▁påbörjade	-10.583
tävling	-10.5831
tha	-10.5832
▁förutsättningar	-10.5833
▁starkare	-10.5834
▁årliga	-10.5837
▁möjligheten	-10.5838
▁härjedalen	-10.5848
ofta	-10.5849
ford	-10.5849
▁1901	-10.585
▁luc	-10.5851
▁rep	-10.5851
▁skriv	-10.5852
▁sär	-10.5852
▁helgon	-10.5853
grön	-10.5858
▁uppväxt	-10.5859
▁spelen	-10.5862
▁framtida	-10.5862
▁gifta	-10.587
valet	-10.5873
▁bay	-10.5875
ash	-10.5881
▁skrivna	-10.5881
▁finansiera	-10.5883
jung	-10.5885
▁33	-10.589
▁individen	-10.5891
▁sir	-10.5893
▁hit	-10.5893
▁verka	-10.5894
eb	-10.5895
▁daniel	-10.5896
gick	-10.5899
▁jugoslavien	-10.5899
▁verkställande	-10.5899
▁älg	-10.5899
▁enstaka	-10.5899
▁fiender	-10.59
▁parallellt	-10.5909
ogen	-10.591
▁domstol	-10.591
▁kapell	-10.5918
cho	-10.5918
▁kal	-10.5919
iker	-10.5919
gram	-10.5921
▁utgöra	-10.5921
▁terräng	-10.5922
hn	-10.5924
▁lättare	-10.5924
▁utrikespolitik	-10.5927
▁digital	-10.5931
gärd	-10.5932
";	-10.5934
200	-10.5942
röst	-10.5942
mont	-10.5944
▁verkligheten	-10.5945
▁bistånd	-10.5948
varor	-10.5949
▁esperanto	-10.5951
▁brandenburg	-10.5951
▁inriktning	-10.5952
▁peru	-10.5952
▁närvaro	-10.5952
▁1902	-10.5952
▁sagt	-10.5957
▁skrivs	-10.5957
▁ytterst	-10.5959
lagda	-10.5961
▁uppskatta	-10.5971
▁sist	-10.5973
säte	-10.5975
▁advent	-10.598
båtar	-10.5982
▁hörn	-10.5985
fre	-10.5986
▁debut	-10.5995
▁journalist	-10.5995
atom	-10.5999
▁friedrich	-10.6003
▁kritisk	-10.6003
▁bröd	-10.6004
▁1904	-10.6004
▁1890	-10.6005
▁myt	-10.6005
▁registrerade	-10.6005
▁frälse	-10.6007
ringen	-10.6013
▁jerusalem	-10.6014
▁ständigt	-10.6016
▁latinet	-10.6017
aw	-10.6017
▁myndigheterna	-10.6019
▁huvudkontor	-10.602
lé	-10.6021
bak	-10.6022
ned	-10.6027
fältet	-10.6028
▁vetenskaplig	-10.6036
aktiv	-10.604
släkt	-10.6044
▁bud	-10.6045
vagnar	-10.6046
▁kanon	-10.6048
eck	-10.6048
▁bryggeri	-10.6049
▁meta	-10.605
▁tvinga	-10.6052
▁unesco	-10.6055
▁aristoteles	-10.6055
▁etiopien	-10.6055
▁slovenien	-10.6055
▁hektar	-10.6055
▁tillfånga	-10.6056
skikt	-10.6057
▁kläder	-10.6064
▁andliga	-10.6069
examen	-10.6072
▁vilda	-10.6072
▁samhällen	-10.6073
▁spelet	-10.6079
▁premiär	-10.6087
cal	-10.6088
▁medlemskap	-10.6091
social	-10.6092
ura	-10.6093
▁posten	-10.6096
▁sydöst	-10.61
▁col	-10.61
gill	-10.6101
▁lagras	-10.6105
▁sverker	-10.6107
▁passagerare	-10.6107
▁militären	-10.6107
▁alm	-10.611
gr	-10.611
▁grov	-10.6111
manna	-10.6111
▁bebyggelsen	-10.6111
▁byggt	-10.6112
▁nöd	-10.6113
▁bron	-10.6115
▁skottland	-10.6116
ré	-10.6116
▁helg	-10.6117
▁dominerar	-10.6118
▁elektro	-10.6118
▁ökande	-10.612
kull	-10.6121
▁centralort	-10.6121
▁wikipedia	-10.6123
▁byggnadsminne	-10.6128
▁kallats	-10.6128
▁lid	-10.6133
mässigt	-10.6133
▁inbördeskrig	-10.6135
▁sval	-10.6135
▁sc	-10.6136
▁judarna	-10.6136
strömmen	-10.6138
▁fossil	-10.6141
▁bönderna	-10.6142
samiska	-10.6144
mynt	-10.6145
▁monument	-10.6145
▁målare	-10.615
▁singel	-10.6151
▁sw	-10.6152
oner	-10.6152
▁finsk	-10.6153
▁karin	-10.6155
▁center	-10.6158
▁rapport	-10.6162
föreningar	-10.6163
▁jonsson	-10.6164
▁kommunala	-10.6166
▁gatu	-10.6168
födda	-10.6169
▁gudarna	-10.617
▁reserv	-10.6173
▁läkare	-10.6175
▁kronprins	-10.6176
▁stormakt	-10.6179
▁biograf	-10.6179
vu	-10.6186
▁borgen	-10.6191
andra	-10.6192
▁fysiska	-10.6196
ståndet	-10.6201
▁ingenjör	-10.6203
sur	-10.6207
lång	-10.621
▁valt	-10.6211
▁provinserna	-10.6214
▁1927	-10.6215
▁fristående	-10.6217
bergen	-10.6219
gn	-10.6221
▁bränn	-10.6222
ria	-10.6227
▁mängden	-10.6227
win	-10.6228
drift	-10.6231
▁arkiv	-10.6234
▁ivar	-10.6234
uni	-10.624
ansk	-10.624
▁ån	-10.6241
ér	-10.6242
▁vietnam	-10.6244
▁förvaltning	-10.6245
▁figur	-10.6253
▁’	-10.6254
▁uttrycket	-10.6255
▁kansli	-10.6256
los	-10.6256
▁gener	-10.6257
▁svans	-10.6257
▁vetenskapen	-10.6258
vän	-10.6258
▁konstitutionen	-10.6261
▁terminal	-10.6262
▁uppkom	-10.6264
▁bedrev	-10.6266
▁zeeland	-10.6266
▁ankomst	-10.6268
▁avsked	-10.6268
rätten	-10.6269
▁accepterade	-10.6272
▁adel	-10.6272
satser	-10.6273
▁120	-10.6274
lagt	-10.6275
well	-10.628
▁gla	-10.6284
▁kurs	-10.629
▁sj	-10.6296
▁eriks	-10.63
▁blommor	-10.6303
▁konsul	-10.6307
▁upprätta	-10.6312
värld	-10.6313
temperatur	-10.6315
▁elektricitet	-10.6319
apparat	-10.6321
kommittén	-10.6321
▁beräknades	-10.6326
▁direkta	-10.6327
▁bönder	-10.6334
▁åtgärder	-10.6335
erik	-10.6336
lån	-10.6337
kvist	-10.6338
▁thor	-10.6338
▁överförde	-10.6339
▁kungariket	-10.6345
▁rök	-10.6347
▁kam	-10.6347
stick	-10.6348
fråga	-10.6351
stod	-10.6351
kår	-10.6351
▁absolut	-10.6355
▁släktskap	-10.6357
▁mas	-10.636
▁avgick	-10.6361
lingar	-10.6362
kyrk	-10.6366
nis	-10.6369
▁intryck	-10.6369
▁tvingade	-10.6372
▁lagstiftande	-10.6373
▁vuxen	-10.6373
▁reducera	-10.6373
▁skånska	-10.6373
▁himmel	-10.6373
▁kenya	-10.6376
▁statligt	-10.6378
▁byggandet	-10.6379
▁hjälpa	-10.638
▁rhen	-10.638
fon	-10.6382
▁äta	-10.6385
rk	-10.6385
▁bidragit	-10.6385
fan	-10.6388
▁värden	-10.6388
▁västerut	-10.6388
ören	-10.6389
▁joseph	-10.639
▁us	-10.6394
▁fattiga	-10.6394
▁göran	-10.6398
ämbetet	-10.64
▁"(	-10.6403
▁längsta	-10.6406
▁uppföra	-10.6407
arbeta	-10.6411
4)	-10.6412
▁valen	-10.6413
▁monarki	-10.6417
▁od	-10.6424
▁domstolen	-10.6425
pal	-10.6427
▁honan	-10.6429
▁artister	-10.643
▁förr	-10.6431
▁etablerades	-10.6432
president	-10.6436
▁christ	-10.6438
▁fre	-10.6438
▁nyare	-10.644
vagn	-10.6441
zz	-10.6441
köp	-10.6442
junk	-10.6442
▁fader	-10.6442
▁hals	-10.6442
▁prägla	-10.6443
ama	-10.6447
▁fastställ	-10.6453
blo	-10.6456
▁biskops	-10.6458
▁syns	-10.6458
▁tunn	-10.6462
▁sammansättning	-10.6468
gränsen	-10.6469
▁radikal	-10.6469
familjen	-10.647
vägar	-10.6472
▁bern	-10.6475
▁omfatta	-10.6476
svik	-10.6477
▁sta	-10.648
lif	-10.6481
▁modersmål	-10.6481
▁topografi	-10.6482
▁bohuslän	-10.6482
▁naturvetenskap	-10.6482
▁hamnar	-10.6482
▁landsting	-10.6483
▁vakt	-10.6483
▁kritiserade	-10.6485
▁varierande	-10.6487
▁orsakade	-10.6488
▁250	-10.6491
kul	-10.6493
takt	-10.6493
▁statschef	-10.6497
områdena	-10.6497
▁versioner	-10.6505
hammar	-10.6508
▁tidigaste	-10.6508
▁alt	-10.6509
▁tunga	-10.6512
mit	-10.6512
▁danskarna	-10.6515
▁socknarna	-10.6515
salen	-10.6516
▁anledningen	-10.6518
▁stoppa	-10.6518
▁adolfs	-10.6521
udd	-10.6522
figur	-10.6525
tom	-10.6525
▁hag	-10.6525
svis	-10.6535
▁belägna	-10.6536
▁obligatorisk	-10.6536
▁tall	-10.6536
▁ebba	-10.6537
▁ställen	-10.6537
▁anatomi	-10.6539
▁benämning	-10.654
▁permanent	-10.654
▁samfund	-10.6541
▁1897	-10.6541
▁regeringens	-10.6544
▁stiftelsen	-10.6545
hop	-10.6547
▁styrs	-10.6552
▁röstade	-10.6554
▁skilde	-10.6559
hastighet	-10.656
konsten	-10.6566
▁resan	-10.6566
▁köns	-10.6569
▁(200	-10.6569
▁tänd	-10.6573
▁institution	-10.6573
studier	-10.658
▁drivs	-10.6581
▁döden	-10.6582
▁joe	-10.6583
▁sparre	-10.6584
miljö	-10.6586
▁kara	-10.6587
▁firade	-10.6589
▁organismer	-10.6591
▁bolivia	-10.6591
ye	-10.6592
▁befästning	-10.6593
▁mes	-10.6594
▁1954	-10.6594
▁löp	-10.6595
▁stött	-10.6597
▁hittats	-10.6602
▁närke	-10.6605
pin	-10.6607
nätet	-10.6608
▁präglas	-10.6609
▁terror	-10.6609
▁sända	-10.6613
▁utses	-10.6614
▁omgivande	-10.6615
▁tecknade	-10.6615
tidigare	-10.6616
album	-10.6617
▁föreställningar	-10.6617
hål	-10.6621
▁historikern	-10.6622
▁ceremoni	-10.6622
▁utfördes	-10.6623
rädd	-10.6624
▁förbjöds	-10.6624
▁bestämd	-10.6625
▁sekreterare	-10.6627
ble	-10.6627
▁kalif	-10.6629
nord	-10.6629
▁insatser	-10.6632
▁okänd	-10.6633
fest	-10.6634
kha	-10.6636
maskin	-10.6637
▁bon	-10.664
anter	-10.6641
▁skytte	-10.6642
▁báb	-10.6645
▁leopold	-10.6646
▁vuxit	-10.6646
▁licens	-10.6646
gul	-10.6648
▁arbetskraft	-10.6648
▁1895	-10.6651
▁saker	-10.6654
▁artilleri	-10.6654
bj	-10.6655
tia	-10.6656
▁påverkat	-10.6659
▁auto	-10.666
energi	-10.6661
vind	-10.6664
▁björk	-10.6664
▁stödja	-10.667
byte	-10.6671
▁fart	-10.6679
▁global	-10.6687
▁förvalta	-10.6687
▁definieras	-10.6689
▁lämplig	-10.6689
▁änka	-10.669
▁eventuell	-10.6694
▁litteraturen	-10.6695
bru	-10.6696
▁ungdom	-10.6699
ång	-10.67
▁vecka	-10.6702
▁återstår	-10.6702
▁civilisation	-10.6702
▁tobak	-10.6703
▁ibm	-10.6705
▁1863	-10.6707
▁solna	-10.6708
▁begravdes	-10.671
stationer	-10.6712
▁situation	-10.6712
▁likheter	-10.6713
▁framtid	-10.6714
▁partierna	-10.6718
▁förvaltnings	-10.6719
läs	-10.6719
▁best	-10.672
▁närliggande	-10.6721
▁skador	-10.6721
anti	-10.6726
bla	-10.673
▁västerländska	-10.6737
▁påverkar	-10.6739
out	-10.6739
▁ort	-10.674
▁styrde	-10.6741
väsendet	-10.6745
▁rött	-10.6747
jev	-10.6751
▁löv	-10.6751
▁ter	-10.6751
▁följdes	-10.6755
▁grenar	-10.6756
▁michael	-10.6758
▁bernadotte	-10.6758
▁korruption	-10.6758
▁county	-10.6758
▁reformationen	-10.6758
▁strikt	-10.676
staterna	-10.6762
▁principer	-10.6768
”)	-10.6768
▁sid	-10.677
▁slutar	-10.6772
bord	-10.6775
▁got	-10.6775
ming	-10.6775
tek	-10.6775
▁producent	-10.6778
▁syr	-10.6778
▁verkligen	-10.6781
▁konsten	-10.6781
▁hansson	-10.6782
▁gemenskap	-10.6783
olika	-10.6791
▁officiell	-10.6792
▁avslutades	-10.6793
▁spräng	-10.6793
▁evig	-10.6802
ket	-10.6806
▁65	-10.6807
▁angrepp	-10.6807
▁förluster	-10.6808
▁byggts	-10.6808
▁datum	-10.6814
▁islamiska	-10.6814
▁underlätta	-10.6814
kunnig	-10.6815
▁narva	-10.6815
▁mus	-10.6818
ila	-10.682
▁bekräfta	-10.6825
▁planen	-10.6828
utskottet	-10.6828
▁virus	-10.6832
▁slaveriet	-10.6835
prov	-10.6836
▁våra	-10.6837
▁1888	-10.6837
▁matchen	-10.6839
▁dos	-10.6844
▁minoriteter	-10.6844
▁inspirerade	-10.6845
▁elektron	-10.6847
▁böckerna	-10.685
rest	-10.685
▁vattenkraft	-10.6852
rim	-10.6853
▁oför	-10.6853
båt	-10.6853
▁faktorer	-10.6854
▁vanligare	-10.6856
▁tillkomst	-10.6859
handelshögskolan	-10.686
▁lee	-10.6861
▁elev	-10.6862
▁jungfru	-10.6863
ringar	-10.6865
ois	-10.6869
rock	-10.687
aff	-10.687
▁adjektiv	-10.687
▁främmande	-10.687
▁nietzsche	-10.687
▁uppenbarelse	-10.687
▁bomull	-10.687
▁ferdinand	-10.687
▁pension	-10.6871
▁stationer	-10.6871
▁kusin	-10.6872
▁tät	-10.6873
▁sala	-10.6874
▁1809	-10.6875
▁boll	-10.6875
▁lit	-10.6876
▁industrier	-10.688
▁kapacitet	-10.6882
▁uppstår	-10.6882
▁cykel	-10.6887
byggd	-10.6893
▁understöd	-10.6896
▁dottern	-10.6898
ei	-10.6898
▁bröder	-10.6903
▁grundat	-10.6903
fulla	-10.6911
brist	-10.6913
▁datorn	-10.6916
riktning	-10.6917
▁skriven	-10.6919
▁extrem	-10.692
istiskt	-10.6922
▁varor	-10.6923
▁spred	-10.6923
▁ler	-10.6926
▁popularitet	-10.6927
▁melodi	-10.6927
▁fattigdom	-10.6927
▁uppkomst	-10.6927
▁1903	-10.6929
▁vittnen	-10.6929
▁ankar	-10.693
sha	-10.6931
▁nått	-10.6931
▁flyter	-10.6932
▁avrättades	-10.6933
▁portugisiska	-10.6933
▁tam	-10.6935
▁landskommuner	-10.6937
▁försvaret	-10.6937
▁ya	-10.6938
▁erövring	-10.6938
▁veta	-10.6939
ändig	-10.6942
ky	-10.6945
▁vinst	-10.6945
▁area	-10.6945
chef	-10.6948
▁sluta	-10.6949
▁odlas	-10.6952
▁elever	-10.6955
▁fångar	-10.6956
▁borta	-10.6958
▁tillträdde	-10.6959
▁bilar	-10.696
▁vulkan	-10.6961
▁diskussion	-10.6963
▁utfärdade	-10.6965
ale	-10.6968
▁tr	-10.697
mme	-10.6971
▁mod	-10.6972
▁beteckning	-10.6975
▁kommunistiska	-10.6979
▁intervju	-10.6984
▁mecklenburg	-10.6984
▁långvarig	-10.6985
▁böj	-10.6985
▁skandinaviska	-10.6985
▁samlingar	-10.6985
▁bremen	-10.6985
▁900	-10.6987
▁55	-10.6988
▁dömdes	-10.699
▁brygg	-10.6992
▁baden	-10.6993
alis	-10.6997
▁uppkallad	-10.6998
▁ör	-10.7003
▁iso	-10.7003
lem	-10.7005
våning	-10.7007
▁dahl	-10.701
sektion	-10.7011
▁ändrade	-10.7013
person	-10.7015
dräkt	-10.7016
▁dygn	-10.7016
▁indelade	-10.7021
▁behandlar	-10.7022
opp	-10.7022
▁sköts	-10.7025
▁folke	-10.7028
▁placering	-10.7029
bir	-10.7034
▁segern	-10.704
▁klassificera	-10.7042
▁sjätte	-10.7042
▁tolkien	-10.7042
▁hittills	-10.7042
▁fritids	-10.7042
▁ättlingar	-10.7042
▁sydost	-10.7043
gången	-10.7044
▁taget	-10.7046
▁kolonin	-10.7049
▁johnson	-10.705
serier	-10.705
▁lyckats	-10.7052
▁tolkas	-10.7053
▁romanen	-10.7055
▁nationen	-10.7061
jar	-10.7062
▁gais	-10.7063
▁fartyget	-10.7064
fast	-10.7067
unga	-10.707
dynastin	-10.7075
mt	-10.7078
▁trädgårds	-10.7078
▁fal	-10.708
▁litterära	-10.7084
hir	-10.7089
lära	-10.709
▁oppositionen	-10.709
örer	-10.7097
▁tropisk	-10.7097
▁utrymme	-10.7099
▁kejsardömet	-10.71
▁dublin	-10.71
▁rovdjur	-10.71
miss	-10.7101
▁länsstyrelsen	-10.7101
▁ingeborg	-10.7101
▁hävda	-10.7103
▁inge	-10.7104
▁motorväg	-10.7104
▁samerna	-10.7105
göt	-10.7105
▁1891	-10.7105
▁alfa	-10.7111
▁orsaka	-10.7113
▁psalm	-10.7115
▁riktade	-10.7119
ytan	-10.7121
▁litauen	-10.7124
▁decennier	-10.7129
▁stjärnor	-10.7131
plat	-10.7132
▁koppling	-10.7132
klimat	-10.7133
herr	-10.7142
träff	-10.7143
▁sönder	-10.7146
fiskar	-10.7148
▁säkert	-10.7149
▁ställdes	-10.715
▁genomsnittlig	-10.7152
▁flygplatser	-10.7152
▁torka	-10.7152
▁fakultet	-10.7158
▁systematik	-10.7158
▁liseberg	-10.7158
▁hänvisa	-10.7158
▁kritisera	-10.7161
▁statistiska	-10.7162
ity	-10.7166
▁drabbade	-10.7167
▁stanna	-10.7168
▁alperna	-10.7168
▁framgår	-10.7171
▁south	-10.7171
▁imperiet	-10.7178
▁centralt	-10.7186
lind	-10.7188
levande	-10.7189
▁kasta	-10.7189
▁skydds	-10.7191
standard	-10.7192
skol	-10.7193
▁agera	-10.7196
knut	-10.7198
mag	-10.7202
▁etnisk	-10.7204
▁spansk	-10.7208
union	-10.7209
▁rester	-10.7212
▁förtroende	-10.7212
▁riddar	-10.7214
▁skön	-10.7214
▁zagreb	-10.7216
▁fiction	-10.7216
▁jehova	-10.7216
▁hammarby	-10.7218
▁skapelse	-10.7218
lis	-10.7218
▁höj	-10.7218
▁slöt	-10.7219
▁tim	-10.7222
▁venus	-10.7223
▁1898	-10.7229
sim	-10.7231
▁eritrea	-10.7234
▁socialt	-10.7237
▁släktingar	-10.7238
▁bö	-10.7239
▁slätt	-10.7247
uck	-10.7248
▁levnads	-10.725
flyttning	-10.7251
tol	-10.7251
effekt	-10.7252
engelska	-10.7256
logi	-10.7257
awa	-10.7258
▁nej	-10.7259
▁kretsar	-10.7259
▁protester	-10.7261
tradition	-10.7262
5)	-10.7262
forskare	-10.7263
▁furste	-10.7264
▁trädgården	-10.7265
▁matt	-10.7268
eberg	-10.7268
▁finn	-10.7269
▁bostäder	-10.7269
▁kungar	-10.7269
▁kontinental	-10.7269
▁kommunerna	-10.7271
▁tävlings	-10.7271
▁lut	-10.7272
▁hongkong	-10.7275
▁sydkorea	-10.7275
▁syskon	-10.7275
▁mellanöstern	-10.7275
▁eurovision	-10.7275
▁arbetsgivare	-10.7276
ipp	-10.7276
▁jobb	-10.7278
häst	-10.7279
▁konstitutionell	-10.728
ater	-10.7287
▁männen	-10.7287
stånd	-10.7289
▁koppla	-10.7294
▁rak	-10.7296
hild	-10.7297
produktionen	-10.7297
sprogram	-10.73
hantering	-10.7302
▁sjunde	-10.7302
pri	-10.7302
▁ris	-10.7303
▁rena	-10.7305
▁brodern	-10.7305
rummet	-10.7305
▁helige	-10.7307
▁produktions	-10.7307
mir	-10.7309
▁katastrof	-10.731
▁mol	-10.7312
▁bk	-10.7312
▁sko	-10.7312
åring	-10.7316
▁rasism	-10.7317
täckt	-10.732
bildningen	-10.7322
wan	-10.7326
byggda	-10.7329
ore	-10.7329
▁nordkorea	-10.7334
delen	-10.7334
storp	-10.7335
binder	-10.7335
▁goldman	-10.7337
mes	-10.734
▁1896	-10.734
hov	-10.7343
slott	-10.7344
▁konferens	-10.7344
▁lokalt	-10.7346
▁kungsgård	-10.7346
mun	-10.735
▁befälhavare	-10.7353
planet	-10.7355
▁pfalz	-10.7356
▁skickades	-10.7356
▁byta	-10.7357
▁bull	-10.7357
▁rummet	-10.736
▁bildats	-10.7361
▁bronsåldern	-10.7361
▁hovrätt	-10.7364
hof	-10.7366
▁cl	-10.737
▁tru	-10.737
▁borgerliga	-10.7372
▁grundare	-10.7375
▁akademiska	-10.7376
▁kok	-10.7379
fä	-10.7382
▁skaffa	-10.7384
▁häll	-10.7386
▁spe	-10.7391
▁åskådare	-10.7394
▁berodde	-10.7394
rande	-10.7394
▁ifrågasatt	-10.7395
▁dikten	-10.7396
▁vil	-10.7399
blivande	-10.7399
shi	-10.7402
▁eventuellt	-10.7402
▁öken	-10.7407
▁pc	-10.7408
▁avgränsa	-10.7408
▁utgivning	-10.7411
ana	-10.7412
avtal	-10.7413
▁german	-10.7415
▁sikt	-10.7417
▁hål	-10.7422
▁viken	-10.7424
målningar	-10.7425
▁disciplin	-10.7425
▁hittades	-10.7425
▁vagn	-10.7429
▁konungen	-10.7432
▁utbyggnad	-10.7432
elius	-10.7432
▁flytande	-10.7432
litteratur	-10.7433
iserad	-10.7434
skri	-10.7435
▁torra	-10.744
ml	-10.7443
hit	-10.7445
▁state	-10.7446
▁köptes	-10.7448
▁investeringar	-10.7451
▁sågs	-10.7452
▁styrelsen	-10.7452
▁nazityskland	-10.7454
▁insekter	-10.7454
▁konstakademien	-10.7454
▁intelligens	-10.7454
▁banér	-10.7454
▁centerpartiet	-10.7454
▁inredning	-10.7457
▁luften	-10.7458
rem	-10.746
▁spreds	-10.7461
krisen	-10.7464
▁ovanför	-10.7465
iderna	-10.7467
legend	-10.7468
▁inspelning	-10.7468
▁konstantin	-10.7469
mör	-10.747
▁munk	-10.7471
▁ägna	-10.7473
stöd	-10.7476
▁heders	-10.7476
▁drevs	-10.7478
▁protestantiska	-10.7478
▁dela	-10.748
ull	-10.7486
▁avskaffa	-10.749
▁domare	-10.7491
▁utbrott	-10.7493
▁ste	-10.7493
förklaring	-10.7493
ike	-10.7494
bat	-10.7497
▁beteckningen	-10.7501
▁beräknas	-10.7501
▁inkludera	-10.7503
▁samtal	-10.7503
▁styrkorna	-10.7509
▁ansvarar	-10.7509
▁skildra	-10.7511
▁fångenskap	-10.7514
▁ronneby	-10.7514
▁antarktis	-10.7514
stränder	-10.7515
▁veckan	-10.7515
▁kulturarv	-10.7516
▁äter	-10.7519
ata	-10.752
▁kalk	-10.752
▁1885	-10.7521
▁ägs	-10.7522
▁symboler	-10.7523
punkten	-10.7523
▁huvudet	-10.7533
▁gravar	-10.7533
▁bygget	-10.7535
tun	-10.7536
▁sill	-10.7542
kär	-10.7548
▁striderna	-10.755
▁gro	-10.7551
▁jäm	-10.7554
▁lung	-10.7554
karriär	-10.7555
tyr	-10.7558
▁psalmer	-10.7559
part	-10.7561
gods	-10.7563
▁ansvaret	-10.7563
▁medalj	-10.7564
▁josef	-10.757
▁legat	-10.7571
koloni	-10.7573
▁klock	-10.7574
uri	-10.7574
▁nämner	-10.7574
▁columbus	-10.7574
▁angola	-10.7575
▁py	-10.7576
▁skogsbruk	-10.7577
▁drogs	-10.7577
▁georgien	-10.7577
▁helium	-10.7582
europeiska	-10.7583
▁arvid	-10.7583
▁häck	-10.759
▁livstid	-10.7591
▁byggd	-10.7596
fur	-10.7596
▁flykting	-10.7598
▁socialism	-10.7598
▁öis	-10.7603
▁notera	-10.7605
▁gry	-10.7606
▁startades	-10.7606
▁kampen	-10.7608
lön	-10.7609
▁djupt	-10.7613
▁prag	-10.7613
▁detsamma	-10.7614
ova	-10.7614
▁byar	-10.7617
▁lagt	-10.7619
▁herrgård	-10.7621
▁fusion	-10.7622
lagar	-10.7626
ele	-10.7629
mba	-10.763
▁aga	-10.7632
▁kreuger	-10.7635
▁musei	-10.7636
▁budget	-10.7636
▁nämnda	-10.7637
ensis	-10.764
▁1893	-10.7641
▁träng	-10.7645
▁ombyggnad	-10.7647
▁uppdelning	-10.7649
▁fabrik	-10.765
▁musiker	-10.7651
sagor	-10.7652
▁radioaktiv	-10.7652
▁diplomat	-10.7656
ith	-10.766
▁överenskommelse	-10.766
▁pet	-10.7661
▁utför	-10.7665
▁framtiden	-10.7672
tio	-10.7675
▁forna	-10.768
▁trafiken	-10.768
▁stra	-10.7682
▁38	-10.7684
itiska	-10.7685
balk	-10.7686
läge	-10.7692
organisationer	-10.7692
▁hänsyn	-10.7694
▁auktoritet	-10.7697
▁kontroversiell	-10.7697
▁tretton	-10.7697
▁troligtvis	-10.7697
▁löfte	-10.7699
▁barock	-10.77
▁uteslutande	-10.7702
▁förläning	-10.7703
brand	-10.7704
▁kult	-10.7705
▁successivt	-10.7706
▁64	-10.7712
iske	-10.7712
städerna	-10.7715
bäck	-10.7716
▁tagits	-10.7716
tidningen	-10.7717
▁plural	-10.7718
▁halt	-10.7719
▁sido	-10.772
▁tillverkar	-10.7721
angående	-10.7723
▁skuld	-10.7727
▁skilj	-10.7727
▁sök	-10.773
▁dol	-10.7731
▁sällskapet	-10.7734
ägda	-10.7735
ämnen	-10.7735
räv	-10.7737
▁bestämmelser	-10.7741
naturreservat	-10.7741
▁svt	-10.7743
▁strategisk	-10.7745
▁svärd	-10.7746
▁ägo	-10.7747
▁danmarks	-10.7758
▁indonesien	-10.7758
▁luxemburg	-10.7758
▁regelbundet	-10.7758
▁utgångspunkt	-10.7758
▁åkte	-10.7759
▁grafik	-10.7759
öppning	-10.7764
ici	-10.7765
▁1884	-10.7766
klubben	-10.7767
▁sena	-10.777
▁gula	-10.7776
beck	-10.7778
▁34	-10.7778
▁verkliga	-10.7779
▁bränsle	-10.7781
▁varma	-10.7781
▁unionens	-10.7782
▁toppen	-10.7782
▁aktivitet	-10.7785
rev	-10.7785
▁förekomst	-10.7785
▁maken	-10.779
▁igång	-10.779
▁regeringsform	-10.7791
▁militärt	-10.7791
▁avrättning	-10.7792
▁budskap	-10.7798
▁mordet	-10.7799
trä	-10.7801
▁ligga	-10.7806
▁flyttat	-10.7811
▁enskild	-10.7812
▁bollen	-10.7812
vetenskapliga	-10.7814
ect	-10.7815
▁flykt	-10.7818
▁sköt	-10.782
▁nordöst	-10.782
▁lennart	-10.7821
▁tchad	-10.7821
▁avsevärt	-10.7821
▁fältmarskalk	-10.7821
▁håkon	-10.7821
▁skörd	-10.7821
▁ax	-10.7822
▁sjöfart	-10.7823
▁förståelse	-10.7826
▁förekomma	-10.7826
▁nyköping	-10.7828
▁högskola	-10.7828
▁författarskap	-10.7829
fiske	-10.7829
▁1830	-10.783
▁signal	-10.783
sindustrin	-10.7834
-2	-10.7838
sil	-10.7839
▁tittar	-10.7842
kostnader	-10.7845
▁ombord	-10.7854
▁uppmärksammade	-10.7856
▁eva	-10.7858
▁fun	-10.7859
▁format	-10.7859
åker	-10.7864
cirka	-10.7868
/19	-10.7873
▁lantbruk	-10.788
▁förhållandet	-10.7881
katolska	-10.7881
▁framförde	-10.7882
▁dött	-10.7883
▁washington	-10.7883
▁uppmätt	-10.7883
▁spegel	-10.7885
▁peking	-10.7885
meter	-10.7886
möte	-10.7888
▁milles	-10.7889
▁kommunist	-10.7892
sverige	-10.7892
▁flagga	-10.7892
▁gatan	-10.7896
▁södermanland	-10.7899
konventionen	-10.7902
given	-10.7904
esiska	-10.7904
▁jonas	-10.7905
▁donation	-10.7913
▁avgöra	-10.7915
german	-10.7915
▁vistelse	-10.7917
▁väsen	-10.7918
▁palm	-10.7921
rie	-10.7923
▁resultera	-10.7929
vapnet	-10.793
fria	-10.7932
▁betecknas	-10.7933
▁tidnings	-10.7937
▁speciell	-10.7937
handling	-10.7938
▁mental	-10.794
▁ryttare	-10.794
▁flora	-10.794
▁inlandet	-10.7941
▁tätorten	-10.7942
▁flotta	-10.7943
samhet	-10.7945
meddelande	-10.7946
▁expandera	-10.7946
▁amsterdam	-10.7946
▁bestämt	-10.7946
▁millimeter	-10.7946
▁virginia	-10.7946
▁värnplikt	-10.7946
▁sägas	-10.7949
▁sun	-10.7949
▁nhl	-10.7951
▁dålig	-10.7951
▁anföll	-10.7951
▁skottår	-10.7954
mån	-10.7956
▁uppfattningen	-10.7959
▁lanserades	-10.796
hag	-10.7961
▁beordrade	-10.7962
▁engelbrekt	-10.7964
gra	-10.7964
▁upproret	-10.7965
▁lettland	-10.7967
artade	-10.7968
▁representerar	-10.7968
▁utrustning	-10.7968
▁förmedla	-10.7974
lämna	-10.7979
▁innehade	-10.7979
▁rev	-10.798
▁falu	-10.7982
▁folkgrupper	-10.7982
stång	-10.7983
bildningar	-10.7991
▁handla	-10.7992
▁anklagade	-10.7993
sköld	-10.7994
skal	-10.7994
vert	-10.7995
▁islands	-10.7996
▁näringslivet	-10.8
▁samlades	-10.8001
trädgård	-10.8002
träsk	-10.8002
fot	-10.8003
löt	-10.8006
kommen	-10.8006
▁typiska	-10.8006
▁microsoft	-10.8009
▁libyen	-10.8009
▁stanley	-10.801
väst	-10.8012
▁gränserna	-10.8014
rub	-10.8015
uff	-10.8015
gjorde	-10.8017
▁hemmet	-10.8018
▁nivåer	-10.8019
▁föregående	-10.802
▁turkiska	-10.8026
him	-10.8029
▁fullständigt	-10.8029
▁kvarter	-10.803
▁berör	-10.8032
▁tätt	-10.8033
sedan	-10.8034
▁satellit	-10.8035
rov	-10.8036
hum	-10.8038
sort	-10.8038
▁part	-10.8041
lunda	-10.8044
▁dig	-10.8047
▁erkände	-10.8053
▁verkstad	-10.8054
▁song	-10.8056
▁marknads	-10.8062
mord	-10.8066
▁mät	-10.8066
▁förändra	-10.8066
▁textil	-10.8067
▁missnöje	-10.8073
▁observationer	-10.8073
▁warszawa	-10.8073
▁albanien	-10.8073
▁sekelskiftet	-10.8073
neutral	-10.8073
▁fienden	-10.8074
▁torstenson	-10.8075
▁gravfält	-10.8075
▁löper	-10.8076
▁hugo	-10.8077
näring	-10.8078
▁kontrollen	-10.808
▁regnskog	-10.8081
▁framgångsrik	-10.8083
▁hugg	-10.8084
▁förenkla	-10.8087
▁tunnelbana	-10.8088
häng	-10.8089
▁upprepade	-10.8093
▁förbättrade	-10.8094
nie	-10.8098
▁nyligen	-10.8098
▁spetsen	-10.8098
▁överlämnade	-10.8101
▁aktiviteter	-10.8102
▁samfundet	-10.8106
▁hv	-10.8107
▁bosättning	-10.8109
▁lang	-10.8111
▁höra	-10.8112
data	-10.8115
▁borgar	-10.8116
star	-10.812
kvarter	-10.8122
arkitekt	-10.8122
▁härskare	-10.8124
kritik	-10.8129
process	-10.8129
▁reglera	-10.8129
▁1878	-10.813
▁galleri	-10.8131
▁cypern	-10.8137
▁samuel	-10.8137
▁armenien	-10.8137
▁kyrkoherde	-10.8137
▁zink	-10.8137
▁detalj	-10.8138
havet	-10.8139
▁medborgarskap	-10.814
förhållanden	-10.8142
▁biologiska	-10.8142
▁1892	-10.8142
mpa	-10.8144
▁mötet	-10.8149
▁tiderna	-10.8149
yp	-10.815
kun	-10.8151
teorin	-10.8152
▁tidskriften	-10.8153
▁natura	-10.8164
▁boende	-10.8164
▁folkmängd	-10.8167
sektorn	-10.8172
▁upprätthålla	-10.8174
▁järnvägsstation	-10.8175
▁förband	-10.8176
▁företräd	-10.8177
▁tillfälligt	-10.818
perioden	-10.8183
modell	-10.8184
▁traditionell	-10.8185
▁verktyg	-10.8186
▁jätte	-10.8187
▁900-	-10.8188
ole	-10.8189
symbol	-10.8191
▁representera	-10.8192
känd	-10.8192
produkt	-10.8197
▁bära	-10.8201
▁behövs	-10.8202
▁rekommendera	-10.8202
▁stärka	-10.8202
▁efterföljare	-10.8202
▁zappa	-10.8202
▁basket	-10.8203
▁ansikte	-10.8204
▁regeringschef	-10.8208
▁soldaterna	-10.8208
▁finner	-10.821
cor	-10.8212
▁torde	-10.8217
▁presidentvalet	-10.8218
bot	-10.8219
▁visades	-10.822
▁naturskydd	-10.8221
▁snabbare	-10.8221
▁åland	-10.8222
▁kvarteret	-10.8226
▁hebreiska	-10.823
▁uppdraget	-10.8231
stammen	-10.8231
▁terrorism	-10.8234
marker	-10.8235
▁typiskt	-10.8238
▁basera	-10.8239
satta	-10.8244
▁polsk	-10.8244
▁driver	-10.8247
hot	-10.8247
▁högra	-10.8248
▁försökt	-10.8249
tidning	-10.8255
▁grupperna	-10.8258
ianska	-10.8258
▁naturlig	-10.8265
▁inspiration	-10.8266
testimoni	-10.8266
▁hammarskjöld	-10.8266
▁konkurrera	-10.8266
▁merkurius	-10.8266
▁tämlig	-10.8266
▁rudbeck	-10.8267
▁boltic	-10.8267
▁avrätta	-10.8268
▁ce	-10.8269
▁väljer	-10.8269
▁mördades	-10.8276
▁magi	-10.8281
▁bildt	-10.8282
▁namnen	-10.8283
▁hittas	-10.8286
▁passerar	-10.8289
▁ukrainska	-10.8289
▁wei	-10.829
▁frihets	-10.829
▁erbjuder	-10.8293
▁pra	-10.8294
▁hundar	-10.8296
▁dräkt	-10.8296
▁az	-10.8297
▁torp	-10.8298
▁svag	-10.8298
givet	-10.8304
▁por	-10.8305
▁säl	-10.8305
▁bussar	-10.8309
▁rådde	-10.8309
▁hjälpte	-10.8314
banor	-10.8315
▁jämtlands	-10.8316
▁utöva	-10.8319
kunskap	-10.8323
▁registrera	-10.8328
planen	-10.8332
▁swedenborg	-10.8332
▁färre	-10.8332
▁rådgivare	-10.8333
▁mänskligheten	-10.8333
▁moore	-10.8334
▁döttrar	-10.8334
▁frivillig	-10.8334
▁bevilja	-10.8336
▁resterande	-10.834
▁tillgängliga	-10.8345
▁åsikter	-10.8346
▁linköpings	-10.8348
▁testamente	-10.8354
▁företags	-10.8355
▁eric	-10.8356
▁tvist	-10.8356
▁fördelning	-10.8357
▁mode	-10.8362
▁sonson	-10.8364
kastning	-10.8367
ryd	-10.8368
▁presenterade	-10.837
skrivna	-10.8371
kle	-10.8378
vallen	-10.8379
▁profet	-10.8381
fru	-10.8384
▁brytning	-10.8386
fem	-10.8392
▁läran	-10.8392
kommer	-10.8393
▁avlägsna	-10.8398
▁flavianum	-10.8398
▁kalifornien	-10.8398
▁inledningsvis	-10.8398
▁bryssel	-10.8398
▁skulpturer	-10.8399
▁riktigt	-10.84
▁likaså	-10.84
▁cro	-10.8404
▁fastställdes	-10.8406
▁1886	-10.8406
▁1840	-10.8407
kansler	-10.8407
▁döm	-10.8407
▁profil	-10.8407
▁statlig	-10.8409
▁saga	-10.8414
lapp	-10.8421
jul	-10.8426
▁påverkas	-10.8429
▁zoo	-10.8431
distrikt	-10.8432
▁möttes	-10.8435
▁vald	-10.8435
▁nigeria	-10.8436
▁damm	-10.8438
tagning	-10.8439
▁terra	-10.8439
▁processer	-10.8439
▁forskningen	-10.844
▁snabba	-10.8441
▁misstänk	-10.8442
▁fälttåg	-10.8444
not	-10.8446
▁skick	-10.8451
▁fördelade	-10.8451
▁partiledare	-10.8452
▁bill	-10.8454
pra	-10.8455
fallet	-10.8458
▁bysantinska	-10.8464
▁empir	-10.8464
▁tsar	-10.8465
stenar	-10.8466
▁guden	-10.8466
▁bromma	-10.8467
▁övertyga	-10.8467
▁solsystemet	-10.8468
▁evert	-10.8469
▁restaurang	-10.8469
alitet	-10.8474
▁varg	-10.8475
▁gammalt	-10.8475
▁1850	-10.8477
▁möta	-10.8478
▁brukade	-10.8479
▁kontrast	-10.8481
▁efterföljande	-10.8482
▁kyrkorna	-10.8482
▁sar	-10.8485
▁konstruera	-10.8486
dam	-10.8487
▁kupp	-10.8487
▁flickor	-10.8489
▁norrköpings	-10.8493
▁800-	-10.85
▁manliga	-10.8503
▁antikens	-10.8506
▁specifika	-10.8506
▁pant	-10.8506
lic	-10.8506
strömmar	-10.8507
scher	-10.851
▁livsmedels	-10.851
▁läget	-10.8511
polis	-10.8512
kanalen	-10.8515
▁lyder	-10.8515
ller	-10.8516
▁spårväg	-10.8518
klo	-10.8521
▁gator	-10.8523
▁bestå	-10.8523
▁versionen	-10.8526
cell	-10.853
▁intel	-10.8531
▁trädgård	-10.8532
wood	-10.8532
▁negativa	-10.8533
▁angeles	-10.8534
titanic	-10.8534
ativa	-10.8535
▁uppvisar	-10.8538
▁sträv	-10.8538
gymnasiet	-10.854
▁hota	-10.854
▁bekant	-10.854
ward	-10.8541
▁varade	-10.8542
▁turismen	-10.8546
▁floderna	-10.8547
▁grand	-10.8547
▁vårt	-10.8548
▁herrar	-10.8548
▁tillverkades	-10.8548
marknad	-10.8555
▁offentligt	-10.8556
ein	-10.8557
drar	-10.8558
▁sör	-10.8558
▁konsert	-10.8558
▁festival	-10.8559
▁geografiskt	-10.8563
▁ture	-10.8567
▁1848	-10.8575
▁stall	-10.8577
▁%.	-10.8578
norska	-10.8579
▁avsatt	-10.8579
▁mästerskap	-10.8581
vitt	-10.8582
ement	-10.8585
skrifter	-10.8587
sköt	-10.8588
logen	-10.8588
▁julius	-10.859
adress	-10.859
▁alliansen	-10.8593
uch	-10.8593
historiska	-10.8593
emi	-10.8595
gno	-10.8596
▁fortsättning	-10.8597
▁biblioteket	-10.8597
▁omtalas	-10.8598
▁källkod	-10.8598
▁bokstäver	-10.8598
▁frid	-10.8601
▁därav	-10.8601
▁söt	-10.8602
▁genomfört	-10.8603
▁1887	-10.8604
▁utställningar	-10.8605
▁bekämpa	-10.8606
▁flock	-10.8607
handeln	-10.8608
▁beskydd	-10.8609
▁gräv	-10.861
▁utbyte	-10.8611
000	-10.8612
▁listan	-10.8614
▁måleri	-10.8614
▁produceras	-10.8615
▁konstant	-10.862
▁hjärnan	-10.8621
▁problemet	-10.8622
berga	-10.8626
▁identisk	-10.8626
▁äga	-10.8628
strålning	-10.8631
bon	-10.8632
hind	-10.8635
▁konserter	-10.8636
▁jämte	-10.8636
rörelse	-10.8639
▁ph	-10.8639
▁intresset	-10.8642
koncernen	-10.8643
kontor	-10.8645
▁federala	-10.8649
god	-10.8649
▁1,5	-10.8651
pir	-10.8657
sax	-10.8657
▁källorna	-10.866
▁eko	-10.8662
▁kardinal	-10.8665
▁praktiska	-10.8665
▁sundsvall	-10.8665
▁rektor	-10.8665
▁airport	-10.8666
▁diameter	-10.8666
streck	-10.8668
▁ungar	-10.8669
bön	-10.867
▁44	-10.8672
▁smith	-10.8672
▁stenar	-10.8672
▁präglades	-10.8673
▁petri	-10.8675
språkiga	-10.8675
▁deltagit	-10.8678
regemente	-10.8679
▁variation	-10.8683
▁söndag	-10.8683
▁julen	-10.8683
▁utsikt	-10.8684
▁låter	-10.8685
ted	-10.8686
gard	-10.869
▁tour	-10.8691
▁elefanter	-10.8693
▁hjul	-10.8693
halt	-10.8696
▁stavning	-10.8697
lau	-10.8699
▁bruno	-10.87
▁kommersiella	-10.8701
cher	-10.8701
mul	-10.8705
▁folkmängden	-10.8705
▁österrikiska	-10.8706
▁frans	-10.8707
▁komplex	-10.8708
▁konstnärs	-10.8709
▁officer	-10.871
▁påbörja	-10.871
▁marx	-10.8712
▁fattig	-10.8714
▁die	-10.8716
älv	-10.8718
▁mali	-10.8718
▁fira	-10.8721
lösning	-10.8723
▁erövrades	-10.8727
▁händelsen	-10.8728
▁emil	-10.8731
kalender	-10.8733
▁bägge	-10.8733
▁propaganda	-10.8733
▁sarajevo	-10.8733
▁diverse	-10.8733
▁märta	-10.8733
▁merparten	-10.8733
▁timme	-10.8734
▁emellan	-10.8735
▁minskar	-10.8735
▁skugg	-10.8736
▁vänskap	-10.8737
▁titlar	-10.8738
▁sången	-10.8739
begreppet	-10.8742
▁yt	-10.8743
▁time	-10.8744
▁krigets	-10.8748
▁lånord	-10.8749
styrelse	-10.875
▁nerv	-10.8753
afton	-10.8753
▁materia	-10.8753
oh	-10.8753
▁utbildningen	-10.8755
▁mobil	-10.8756
▁rod	-10.8758
▁verklighet	-10.8758
▁opposition	-10.8762
stol	-10.8765
▁firas	-10.8766
▁framställa	-10.8766
▁timmer	-10.8769
bär	-10.8769
▁kristdemokrater	-10.8771
▁odla	-10.8775
▁vol	-10.8778
▁dalarnas	-10.8779
▁svär	-10.878
mästaren	-10.8782
▁skogen	-10.8783
▁gor	-10.8784
▁enhetlig	-10.8786
▁industriella	-10.8787
nia	-10.8793
▁uppfattas	-10.8795
enligt	-10.8796
byrå	-10.8798
central	-10.88
▁hjalmar	-10.8802
▁sibirien	-10.8802
▁league	-10.8802
▁svavel	-10.8802
▁ständerna	-10.8802
▁katoliker	-10.8802
▁entré	-10.8803
▁varumärke	-10.8803
▁pirat	-10.8804
▁43	-10.8805
▁skogar	-10.8805
▁bestämma	-10.8806
▁avslutade	-10.8812
▁moderaterna	-10.8812
värdet	-10.8814
sätter	-10.8814
▁utforma	-10.8816
▁bry	-10.8817
▁plus	-10.8818
lav	-10.882
▁planeten	-10.8822
▁drottningholms	-10.8823
▁mid	-10.8823
▁avancerade	-10.8823
▁ersättning	-10.8825
teater	-10.8825
▁invandring	-10.8826
▁medier	-10.883
styre	-10.8831
▁sac	-10.8835
▁anför	-10.8839
tagen	-10.8839
▁tänkande	-10.8841
▁negativ	-10.8841
▁2020-	-10.8847
▁förändras	-10.8848
samman	-10.8848
▁möjlig	-10.8853
inriktad	-10.8854
muslim	-10.8859
skaffade	-10.8865
nation	-10.8867
marknaden	-10.8868
▁ass	-10.8868
▁stadsplan	-10.8869
▁abc	-10.887
▁gymnasie	-10.8871
▁sysselsatt	-10.8871
▁förnuft	-10.8871
▁amatör	-10.8871
▁persien	-10.8871
▁utgavs	-10.8872
▁bergarter	-10.8874
▁självmord	-10.8874
▁kyrkliga	-10.8877
fördraget	-10.8877
▁läste	-10.8878
stam	-10.888
posten	-10.8884
▁innehålla	-10.8886
▁besegra	-10.8886
▁ledarskap	-10.8894
styrka	-10.8895
▁2010-	-10.8896
▁indelningar	-10.8896
dagligt	-10.8898
▁bosatt	-10.8899
ulf	-10.8904
▁processen	-10.8909
▁sanning	-10.8909
▁älven	-10.8913
▁samlingen	-10.8914
▁don	-10.8917
▁intern	-10.8919
▁rygg	-10.892
▁lönn	-10.8929
low	-10.8935
zar	-10.8939
▁vistades	-10.894
styrkor	-10.8941
▁poesi	-10.8941
mötet	-10.8942
▁vänsterpartiet	-10.8943
▁ericsson	-10.8943
▁anläggningen	-10.8943
▁återkomst	-10.8945
▁1899	-10.8946
▁vir	-10.8946
▁motala	-10.8947
▁artist	-10.8949
▁anställning	-10.8949
▁bördig	-10.8949
flod	-10.895
▁ana	-10.8953
▁ål	-10.8953
▁omvandla	-10.8954
▁sociologi	-10.8954
3,	-10.8955
▁föräldrarna	-10.8957
▁anda	-10.8958
anläggningar	-10.896
▁bot	-10.8963
sättningar	-10.8964
▁abba	-10.8965
▁begränsat	-10.8973
▁afrikaans	-10.8975
▁tillämpa	-10.8977
▁passera	-10.898
▁folkräkning	-10.8981
▁skull	-10.8981
språkig	-10.8983
▁långsamt	-10.8984
▁oppositions	-10.8992
atisk	-10.8994
modern	-10.8996
▁parallell	-10.8997
källor	-10.8999
iserades	-10.9
▁informations	-10.9001
▁cu	-10.9001
▁omgivning	-10.9004
▁ledningen	-10.9005
▁skärgården	-10.9005
▁judendomen	-10.9007
intresse	-10.9008
▁brigad	-10.9009
front	-10.9009
växling	-10.901
▁asteroid	-10.901
▁privilegier	-10.901
▁volkswagen	-10.901
▁xenon	-10.901
▁anarkist	-10.9011
▁mynning	-10.9011
▁olaus	-10.9011
fysik	-10.9011
▁parlamentarisk	-10.9012
▁liberia	-10.9012
▁stambanan	-10.9012
samhället	-10.9012
▁priser	-10.9012
▁tennis	-10.9014
▁semifinal	-10.9014
▁ståthållare	-10.9015
▁förhållandevis	-10.9016
malm	-10.9017
▁1883	-10.9018
roman	-10.9019
▁uppstått	-10.9022
▁rapporterade	-10.9023
ance	-10.9024
genom	-10.9025
mel	-10.9027
▁läger	-10.9031
▁1634	-10.9032
▁biologisk	-10.9033
acc	-10.9033
▁ordens	-10.9036
skij	-10.9039
▁utlands	-10.9041
▁server	-10.9042
non	-10.9046
blick	-10.905
▁övergav	-10.9051
▁miljön	-10.9055
▁personlig	-10.9055
cus	-10.9057
▁funnit	-10.9058
▁kunskaper	-10.9058
mmel	-10.9061
▁studerar	-10.9067
▁byggnaderna	-10.9069
isotop	-10.907
▁rollen	-10.907
▁uteslut	-10.9076
▁attacker	-10.9076
schef	-10.9078
flykt	-10.908
historisk	-10.908
▁lübeck	-10.908
▁reguljär	-10.908
▁belarus	-10.9081
▁algeriet	-10.9081
▁elektriska	-10.9081
▁capita	-10.9082
stått	-10.9082
▁ah	-10.9083
▁evenemang	-10.9083
nuvarande	-10.9083
brunn	-10.9087
hållning	-10.9088
▁1810	-10.909
▁artikeln	-10.9094
▁klassificering	-10.9096
ref	-10.9097
förbindelse	-10.9099
liberal	-10.9099
▁mölle	-10.9099
▁tänder	-10.9103
▁kriterier	-10.9105
▁moral	-10.9106
▁våningar	-10.9107
lagd	-10.9107
▁elektrisk	-10.9112
▁reda	-10.9113
▁aktie	-10.9115
sprocess	-10.9116
gri	-10.9118
gravar	-10.9119
war	-10.912
▁hälft	-10.9121
▁skala	-10.9122
räl	-10.9128
▁köra	-10.9128
▁polisen	-10.9129
▁krossa	-10.9129
▁upprättades	-10.9132
givande	-10.9136
▁mannen	-10.9138
▁utsåg	-10.9139
ira	-10.9144
tuna	-10.9144
▁utforska	-10.9145
▁andlig	-10.9148
▁siste	-10.9148
▁riksbank	-10.9148
▁varv	-10.9149
▁kongress	-10.9149
assi	-10.915
▁ordinarie	-10.9151
▁lördag	-10.9151
▁guyana	-10.9151
▁adhd	-10.9152
▁vättern	-10.9152
▁psykisk	-10.9152
▁stefan	-10.9152
▁medeltemperatur	-10.9153
gåvor	-10.9154
▁koncentration	-10.9161
valla	-10.9171
ssystemet	-10.9172
sällskapet	-10.9173
flygel	-10.9174
▁santa	-10.9175
▁ateljé	-10.9175
▁kru	-10.918
▁strålning	-10.9184
▁dna	-10.9185
▁kva	-10.9186
▁kurfurst	-10.9186
▁krono	-10.9186
sättningen	-10.9188
▁ham	-10.9188
▁upplysning	-10.9194
▁epok	-10.9196
vir	-10.9199
▁förra	-10.9201
▁oklart	-10.9203
▁expert	-10.9203
▁förvärvade	-10.9206
aire	-10.9206
▁viktor	-10.9209
▁helsingborgs	-10.9215
▁fornnordiska	-10.9218
stenen	-10.922
▁strategi	-10.9221
▁århundraden	-10.9222
▁mussolini	-10.9223
▁platt	-10.9223
▁sämre	-10.9223
tecknet	-10.9223
▁house	-10.9223
▁garantera	-10.9223
▁kvinnlig	-10.9223
▁rättegång	-10.9223
anfall	-10.9224
▁salong	-10.9225
▁systematisk	-10.9227
▁luther	-10.9229
▁1861	-10.9229
▁sällsynta	-10.923
▁sommartid	-10.923
▁sekundär	-10.9234
▁inkomster	-10.9235
övning	-10.9238
▁foto	-10.9239
bre	-10.924
▁inköp	-10.924
aq	-10.9244
▁kiss	-10.9246
▁fä	-10.9248
▁orgel	-10.9256
byn	-10.9259
▁utfärda	-10.9266
▁mont	-10.9268
mid	-10.927
bibliotek	-10.9272
▁smålands	-10.9272
▁invaderade	-10.9274
▁producera	-10.9275
▁areal	-10.9276
ada	-10.9278
▁släppte	-10.9279
▁formella	-10.9285
▁mandatperioden	-10.9286
▁skatter	-10.9288
▁parker	-10.929
resor	-10.9291
▁annorlunda	-10.9295
▁eskilstuna	-10.9295
▁slutgiltig	-10.9295
▁kollaps	-10.9295
▁stupade	-10.9295
▁innebörd	-10.9295
▁ånglok	-10.9296
▁humle	-10.9296
bygden	-10.9296
stammar	-10.9297
▁bedriva	-10.9299
laddning	-10.93
▁ladin	-10.9305
bn	-10.9306
ich	-10.9306
▁betraktar	-10.9308
▁39	-10.9308
▁enklare	-10.9308
fader	-10.9309
robot	-10.931
▁sålunda	-10.931
järn	-10.931
▁bod	-10.931
▁gram	-10.9311
▁erfarenhet	-10.9312
▁uppfattade	-10.9312
pha	-10.9312
▁inomhus	-10.9312
▁marschera	-10.9313
ige	-10.9319
▁arkitekter	-10.9323
oid	-10.9324
▁svårigheter	-10.9325
▁regissör	-10.9325
▁biskopen	-10.9326
▁döpt	-10.9326
▁free	-10.933
▁socialist	-10.9331
▁styret	-10.9333
▁redaktör	-10.9335
▁keltiska	-10.9337
▁offensiv	-10.9339
▁kampanj	-10.9341
▁husen	-10.9341
▁webbplats	-10.9349
▁tionde	-10.9351
▁operan	-10.9354
▁harry	-10.9359
▁pat	-10.9361
▁dröjde	-10.9367
▁montenegro	-10.9367
▁himlen	-10.9367
▁förhandla	-10.9368
▁stadsdelar	-10.9368
▁östeuropa	-10.9368
▁patent	-10.9369
▁mount	-10.9369
▁golf	-10.937
▁pin	-10.937
▁indirekt	-10.937
▁kristendom	-10.9371
▁psyko	-10.9372
▁tydliga	-10.9372
▁världsdel	-10.9373
▁branden	-10.9373
▁ansett	-10.9377
▁asiatiska	-10.9378
orum	-10.9379
▁påsk	-10.938
sig	-10.9382
▁pastor	-10.9383
cio	-10.9384
▁sektor	-10.9385
grader	-10.9388
▁möjliggör	-10.9388
▁sjöng	-10.939
▁synen	-10.9395
änt	-10.9396
▁skriftspråk	-10.9398
minut	-10.9399
▁månaden	-10.9407
án	-10.9408
▁skådespel	-10.9409
▁medeltid	-10.9411
▁cd	-10.9412
▁hjärt	-10.9413
▁42	-10.9416
utställningen	-10.9422
▁behandlas	-10.9424
▁hertigen	-10.9429
▁inledning	-10.943
grupperna	-10.9436
▁astronomi	-10.944
▁garnison	-10.944
▁dresden	-10.944
▁hessen	-10.9441
skillnad	-10.9441
dala	-10.9441
status	-10.9441
▁västvärlden	-10.9443
västlig	-10.9443
▁texas	-10.9444
▁placeras	-10.9447
▁förkortning	-10.9447
kamera	-10.9447
▁tiger	-10.9448
▁externa	-10.9449
▁farfar	-10.945
▁måla	-10.9451
▁leg	-10.9452
ställt	-10.9457
_1	-10.9459
▁beskrevs	-10.946
▁italiensk	-10.9462
▁uppträdde	-10.9464
▁allvar	-10.9464
▁morgon	-10.9465
▁pågår	-10.9466
▁pekar	-10.9466
relaterade	-10.9467
taget	-10.9467
national	-10.9474
▁nyhets	-10.9475
bäcken	-10.9475
▁evangelisk	-10.9476
▁betraktades	-10.9478
▁carlsson	-10.9481
▁tillfället	-10.9485
▁95	-10.9486
▁ange	-10.9487
▁stadga	-10.9489
turnering	-10.949
finn	-10.9491
kåren	-10.9491
mått	-10.9491
▁uttalande	-10.9501
▁positiva	-10.9501
▁main	-10.9503
▁rodd	-10.9504
▁stiftelse	-10.9509
institut	-10.9513
▁gäl	-10.9513
▁asp	-10.9513
▁sov	-10.9513
▁alingsås	-10.9514
▁mynnar	-10.9514
▁spannmål	-10.9514
▁spårvidd	-10.9514
▁äldste	-10.9514
▁naturtillgångar	-10.9514
▁fatta	-10.9514
▁ansluta	-10.9515
▁christina	-10.9515
▁ordnade	-10.9516
▁räknat	-10.952
styrkan	-10.952
kandidat	-10.952
fågel	-10.9521
mé	-10.9524
▁höglandet	-10.9524
▁eg	-10.9525
▁eriksdotter	-10.9525
▁nedgång	-10.9527
▁sek	-10.9528
▁ritade	-10.9528
▁symbolisk	-10.9533
▁globala	-10.9534
▁upplaga	-10.9538
▁deltagande	-10.9539
▁der	-10.9541
ath	-10.9543
▁stjärn	-10.9543
▁mah	-10.9543
▁tränare	-10.9544
▁rättvisa	-10.9544
▁bredare	-10.9545
▁passagerar	-10.9548
salt	-10.9549
▁handlade	-10.9556
▁chans	-10.9559
1,	-10.9559
▁utlandet	-10.956
modellen	-10.9561
▁utbilda	-10.9564
▁slaveri	-10.9564
järv	-10.9564
▁jägar	-10.9567
▁strukturer	-10.9567
kål	-10.9569
▁rull	-10.957
▁regimen	-10.9572
▁hämta	-10.9572
▁norges	-10.9573
▁höjden	-10.9573
▁omvärlden	-10.9574
▁locka	-10.9576
▁grundlag	-10.9582
▁frankrikes	-10.9582
▁representant	-10.9583
fläck	-10.9584
▁vete	-10.9588
▁växel	-10.9588
▁douglas	-10.9588
▁petroleum	-10.9588
▁singapore	-10.9588
▁förföljelse	-10.9588
▁churchill	-10.9588
▁beck	-10.9589
▁donau	-10.9589
▁druv	-10.959
▁neuro	-10.959
▁vänstra	-10.959
▁integrera	-10.9591
▁åke	-10.9593
▁kil	-10.9593
▁1873	-10.9594
▁föreslagit	-10.9594
komma	-10.9596
båg	-10.9597
▁1880	-10.96
▁komplettera	-10.9601
▁disk	-10.9604
▁ljuset	-10.9604
hydr	-10.9608
lang	-10.9611
stadion	-10.9612
▁kontrollerade	-10.9614
▁figurer	-10.9616
nära	-10.9618
vic	-10.9622
▁hämtade	-10.9624
▁tyske	-10.9625
▁skyldig	-10.9631
▁spets	-10.9631
erier	-10.9633
▁kärleks	-10.9634
▁bott	-10.9637
▁äkta	-10.964
chan	-10.9643
ägarna	-10.9647
shuset	-10.9647
▁hatt	-10.965
▁risken	-10.965
▁karlstad	-10.9651
ico	-10.9653
–2	-10.9654
▁anta	-10.9655
▁livland	-10.9656
▁riksdagens	-10.9656
▁avhandling	-10.9659
alla	-10.9661
▁säker	-10.9662
avtalet	-10.9662
▁aluminium	-10.9662
▁azerbajdzjan	-10.9662
▁gästrikland	-10.9662
▁taiwan	-10.9662
tavlor	-10.9663
▁gripsholm	-10.9663
▁lyssna	-10.9663
▁hägg	-10.9664
▁bredvid	-10.9664
tåget	-10.9665
▁juridisk	-10.9666
▁trafikeras	-10.9666
▁alternativt	-10.9666
▁vendel	-10.9666
▁exil	-10.9668
▁ögruppen	-10.9669
▁separata	-10.9669
▁1879	-10.9669
oll	-10.9671
dorf	-10.9675
▁bidra	-10.9678
▁mala	-10.9678
▁må	-10.9678
▁stadsdel	-10.9684
▁bidrar	-10.9687
▁anordna	-10.9687
lax	-10.9691
▁finansiella	-10.9692
wo	-10.9693
▁besöka	-10.9695
▁hitlers	-10.9696
giv	-10.9699
▁räkna	-10.9702
lät	-10.9715
kum	-10.9715
▁rösta	-10.9716
▁faktor	-10.9716
▁definitioner	-10.972
följande	-10.9721
▁valda	-10.9721
verksamheten	-10.9721
▁utvidgade	-10.9723
▁garde	-10.9725
▁sittande	-10.9726
▁typen	-10.9729
odling	-10.973
▁leijonhufvud	-10.9733
reg	-10.9733
▁inland	-10.9734
ytor	-10.9734
▁libanon	-10.9738
▁omständigheter	-10.9738
▁kamerun	-10.9738
▁tingsrätt	-10.9738
parentes	-10.9741
▁upplevde	-10.9742
▁1894	-10.9744
borna	-10.9744
▁marknadsföring	-10.9746
▁river	-10.9746
dokument	-10.9748
vattnet	-10.9748
historien	-10.9748
vilja	-10.9748
fynd	-10.9749
franska	-10.975
direktör	-10.9751
▁motorvägar	-10.9752
▁sättet	-10.9756
▁tänka	-10.9758
▁myter	-10.9758
läsning	-10.9758
▁gun	-10.9761
▁tillverkade	-10.9761
▁producerar	-10.9761
kult	-10.9766
▁500-	-10.9769
zy	-10.977
▁nödvändigt	-10.9771
bl	-10.9772
▁konstnärliga	-10.9776
▁lä	-10.9776
▁bat	-10.9776
▁inställning	-10.9777
▁atmosfär	-10.9777
rick	-10.978
▁våning	-10.9781
▁konservativ	-10.9782
▁förlora	-10.9783
▁jär	-10.9784
befolkning	-10.9787
▁berättelse	-10.9787
▁medlemsstaterna	-10.9788
▁gjord	-10.9789
olo	-10.9791
▁talare	-10.9793
▁kulturellt	-10.9795
lega	-10.9795
delad	-10.9796
åsen	-10.9796
brevet	-10.9797
▁neu	-10.9798
▁bekräftade	-10.9799
▁intresserad	-10.9803
▁kval	-10.9805
▁tha	-10.9808
▁regionerna	-10.9809
▁förkasta	-10.9809
▁colombia	-10.9813
▁saudiarabien	-10.9813
▁etanol	-10.9813
▁renovering	-10.9813
▁rudolf	-10.9813
▁stadskommun	-10.9817
▁46	-10.9819
▁1876	-10.9819
▁boy	-10.9819
▁neutroner	-10.9822
▁1881	-10.9822
▁konstnärlig	-10.9822
religion	-10.9824
▁tum	-10.9825
▁köl	-10.9827
▁hercegovina	-10.9827
valdes	-10.9828
ätare	-10.9831
inkomst	-10.9831
▁nazist	-10.9835
enheter	-10.9839
▁bevarat	-10.984
▁arkeologi	-10.9842
▁kin	-10.9844
rätta	-10.9844
▁morgonen	-10.9846
rörelser	-10.9848
▁infanteri	-10.9851
▁lärar	-10.9852
▁troll	-10.9854
icus	-10.9855
▁störta	-10.9856
svart	-10.9857
▁mut	-10.9858
▁bäck	-10.9858
▁allvarligt	-10.9859
▁1800	-10.986
▁osäker	-10.9861
▁högtid	-10.9862
▁51	-10.9865
▁punkter	-10.9866
▁berättade	-10.9868
▁betydelsefulla	-10.9872
▁abu	-10.9874
▁black	-10.9875
▁1700	-10.9877
▁samtid	-10.9881
▁jung	-10.9882
veck	-10.9882
▁taket	-10.9883
ektion	-10.9884
▁direktör	-10.9885
▁uppgår	-10.9886
romerska	-10.9886
affär	-10.9888
▁trakten	-10.9889
▁symbolisera	-10.989
▁romarriket	-10.989
▁territorier	-10.989
byggande	-10.989
▁överlevde	-10.989
▁ingrid	-10.989
▁sammanslagning	-10.989
▁sändebud	-10.989
▁gratis	-10.9891
▁milda	-10.9891
▁sammanfatta	-10.9891
▁betong	-10.9892
rup	-10.9892
▁anglo	-10.9892
▁tendera	-10.9892
▁wall	-10.9893
▁eugen	-10.9894
▁bosatta	-10.9894
lärare	-10.9896
stämma	-10.9899
▁träning	-10.9901
▁elisabeth	-10.9901
palatset	-10.9902
galleri	-10.9902
halvön	-10.9903
field	-10.9904
▁konstverk	-10.9904
▁frisk	-10.9905
johan	-10.9906
trycket	-10.9907
analys	-10.9908
vår	-10.9913
iserat	-10.9915
▁förutsättning	-10.9918
▁smitta	-10.9918
kärl	-10.9921
ille	-10.9921
▁sannolikhets	-10.9922
skor	-10.9922
▁skötte	-10.9922
aya	-10.9924
▁ara	-10.9924
▁birka	-10.9925
▁kammar	-10.9928
▁utsatt	-10.9928
enberg	-10.9928
▁upplagan	-10.9932
alltför	-10.9933
roth	-10.9933
▁intresserade	-10.9939
uppgifter	-10.994
▁pigment	-10.9941
aktiebolag	-10.9944
▁maka	-10.9945
▁skyddade	-10.9947
▁teckning	-10.9947
▁bildat	-10.9949
▁monarken	-10.995
▁skinn	-10.9953
text	-10.9956
deles	-10.9961
▁kat	-10.9961
▁orsakar	-10.9961
▁söker	-10.9962
lever	-10.9963
▁hamilton	-10.9967
▁edvard	-10.9967
▁systrar	-10.9967
▁smalspår	-10.9967
▁medvetande	-10.9967
▁bröllop	-10.9968
▁statsskick	-10.9968
▁dagbladet	-10.9969
▁nässjö	-10.9969
▁benämnd	-10.9969
▁huvuddelen	-10.997
▁högskolor	-10.9972
▁officerare	-10.9974
bukten	-10.9979
dricka	-10.998
elli	-10.9981
fjäll	-10.9981
▁hemliga	-10.9986
fordon	-10.9987
▁modellen	-10.9989
jakt	-10.9989
▁avsåg	-10.9996
kh	-11.0001
målare	-11.0003
▁stående	-11.0007
▁tabell	-11.0019
3.	-11.0021
▁förena	-11.0022
▁lätta	-11.0024
▁pappers	-11.0029
▁dörr	-11.0031
▁flaggan	-11.0037
▁röra	-11.0037
▁2010.	-11.0037
▁halva	-11.0038
litt	-11.004
▁uppge	-11.0042
▁bedrivs	-11.0044
▁google	-11.0044
▁marocko	-11.0044
▁sammanhängande	-11.0044
▁stralsund	-11.0044
▁beatles	-11.0044
▁brutit	-11.0044
▁henry	-11.0044
brytning	-11.0046
▁naturgas	-11.0048
styr	-11.0049
▁synsätt	-11.0051
▁alice	-11.0051
▁bord	-11.0052
▁1877	-11.0052
▁1866	-11.0052
boda	-11.0053
▁frånvaro	-11.0054
▁tillät	-11.0055
▁sto	-11.0055
▁murar	-11.0056
▁dåliga	-11.0062
▁ont	-11.0064
sprocessen	-11.0064
▁årtionden	-11.0067
▁hemlighet	-11.0067
▁ekman	-11.0068
▁liberaler	-11.0071
▁planerna	-11.0072
▁tillhöra	-11.0073
▁sjönk	-11.0074
▁uppmanade	-11.0075
▁fjärdedel	-11.0075
▁simon	-11.0077
begravningsplats	-11.0077
▁förvänta	-11.0081
▁utgav	-11.0081
räkning	-11.0082
eld	-11.0085
bunden	-11.0088
ovi	-11.0088
▁reg	-11.0088
▁fördrag	-11.009
▁övertala	-11.0091
gui	-11.0092
▁hå	-11.0092
▁bröts	-11.0102
vågor	-11.0104
▁smal	-11.0114
▁mau	-11.0117
▁300-	-11.012
▁tand	-11.0121
▁college	-11.0122
▁främre	-11.0122
▁generalguvernör	-11.0122
▁ljusterö	-11.0122
▁statskupp	-11.0122
▁okänt	-11.0122
▁oroligheter	-11.0123
öster	-11.0124
▁nordligaste	-11.0125
▁gösta	-11.0128
▁1865	-11.0129
▁höst	-11.013
▁bengtsson	-11.013
vol	-11.0132
▁kommunstyrelsen	-11.0132
▁vila	-11.0134
▁paulus	-11.0135
jör	-11.0136
▁isotoper	-11.0137
▁motsvara	-11.014
▁stadion	-11.014
▁avsedd	-11.0142
▁sprid	-11.0144
▁maskiner	-11.0144
▁ärvde	-11.0147
▁kinesisk	-11.0152
▁kata	-11.0153
▁sinnes	-11.0155
wall	-11.0156
▁trupp	-11.0157
▁bol	-11.0158
näringen	-11.0158
▁ordna	-11.0159
▁heta	-11.0162
▁kanoner	-11.0162
bomb	-11.0163
lip	-11.0166
quist	-11.0174
▁kristall	-11.0174
▁tema	-11.0175
▁förorter	-11.0177
▁examen	-11.0177
horn	-11.0179
▁falk	-11.0182
▁atlant	-11.0183
▁anne	-11.0187
sagan	-11.0187
räknade	-11.0187
sveriges	-11.0188
▁begravnings	-11.0189
hans	-11.0191
bod	-11.0192
▁etablerat	-11.0194
lager	-11.0194
▁juridiska	-11.0197
▁400-	-11.0201
▁octavianus	-11.0201
▁vladimir	-11.0201
▁wollstonecraft	-11.0201
▁inflation	-11.0201
▁population	-11.0201
▁referera	-11.0201
▁råvaror	-11.0202
▁indoeuropeiska	-11.0202
▁cia	-11.0202
ndustrialisering	-11.0202
▁yttersta	-11.0205
▁1869	-11.0208
▁pojkar	-11.0208
▁önskan	-11.0209
▁räknades	-11.0211
mitt	-11.0214
väldet	-11.0215
▁känslor	-11.0221
demokrat	-11.0222
▁justitie	-11.0224
▁tävling	-11.0224
▁digitala	-11.0231
cle	-11.0233
▁royal	-11.0238
▁marknad	-11.0239
kulla	-11.0241
sinne	-11.0243
▁avståndet	-11.0243
▁trum	-11.0244
summa	-11.0247
lei	-11.0249
▁framställde	-11.0256
▁monark	-11.0256
kris	-11.0256
▁illa	-11.0259
▁kulturhistorisk	-11.026
▁strejk	-11.0262
bom	-11.0263
▁korp	-11.0264
place	-11.0268
kommunistpartiet	-11.0269
bio	-11.0271
skriget	-11.0273
▁konstatera	-11.0275
▁bruket	-11.0277
projektet	-11.0277
▁pär	-11.0277
bjuda	-11.028
befolkningen	-11.028
▁läkemedel	-11.028
▁modifiera	-11.028
▁pierre	-11.0281
▁contest	-11.0281
▁ungerska	-11.0281
▁blix	-11.0282
▁fundamental	-11.0285
spelet	-11.0286
▁delstater	-11.0286
▁1890-	-11.0286
▁somalia	-11.0287
▁ip	-11.0287
▁inträde	-11.0288
▁varmt	-11.0288
fastän	-11.0288
▁furst	-11.0289
lust	-11.0289
▁protest	-11.029
▁ungdomar	-11.0291
":	-11.0292
▁segel	-11.0296
▁bock	-11.0297
▁länsväg	-11.0297
ito	-11.0299
gruva	-11.0299
▁viborg	-11.03
samlingar	-11.0302
▁uppbyggnad	-11.0303
▁love	-11.0306
▁romaner	-11.0307
typen	-11.0311
▁hästen	-11.0311
▁driv	-11.0313
▁kärnkraft	-11.0315
▁ving	-11.0315
iseringen	-11.0318
▁inta	-11.0319
kemi	-11.0321
▁evangeli	-11.0325
▁ställe	-11.0327
▁djurpark	-11.0327
▁1860	-11.0327
▁sri	-11.0327
▁invasionen	-11.0328
▁därutöver	-11.0332
▁blott	-11.0333
▁sinne	-11.0333
▁föds	-11.0334
500	-11.0336
▁regerade	-11.034
gö	-11.034
målning	-11.0341
server	-11.0341
▁palme	-11.0343
▁enheten	-11.0345
cola	-11.0348
▁humor	-11.0354
▁haga	-11.0355
värn	-11.0356
ologiska	-11.0357
▁inbördes	-11.036
▁babylon	-11.036
▁luleå	-11.036
▁makedonien	-11.036
▁symptom	-11.036
▁tillämpning	-11.036
▁tjeckien	-11.036
▁noggrann	-11.0361
▁edward	-11.0361
▁önskade	-11.0361
▁che	-11.0362
rättslig	-11.0362
▁hundratals	-11.0362
▁influenser	-11.0362
▁sprit	-11.0365
▁anime	-11.0369
▁kvarvarande	-11.0371
pot	-11.0372
vägg	-11.0374
▁leverera	-11.0374
▁djupa	-11.0375
▁1820	-11.0376
▁gruppens	-11.0376
expedition	-11.0379
hjälp	-11.0381
▁underarter	-11.0381
regementen	-11.0386
▁fossila	-11.0389
▁hor	-11.039
uf	-11.0392
▁målningen	-11.0393
pad	-11.0396
elin	-11.0397
▁inrätta	-11.0398
▁emma	-11.0398
▁berättelsen	-11.0407
▁verklig	-11.0409
handlare	-11.0409
▁påpeka	-11.0409
▁psykos	-11.0411
lås	-11.0411
duc	-11.0412
▁180	-11.0418
opera	-11.0418
▁kärnan	-11.0421
ryska	-11.0422
▁utövar	-11.0422
partier	-11.0422
▁lust	-11.0422
wald	-11.0426
▁tekniker	-11.0429
▁korea	-11.0431
lingen	-11.0433
lök	-11.0434
förslag	-11.0435
▁insats	-11.0435
▁hjort	-11.0439
▁bedriver	-11.0441
▁engagemang	-11.0441
▁venedig	-11.0441
▁wallenstein	-11.0441
▁örgryte	-11.0441
▁uganda	-11.0441
▁grevskap	-11.0441
▁gotlands	-11.0442
▁sachsiska	-11.0442
▁uppenbara	-11.0442
seger	-11.0443
▁investera	-11.0443
bildad	-11.0445
▁svenskspråkiga	-11.0445
▁bröst	-11.0445
▁grill	-11.0445
öknen	-11.0446
iell	-11.0446
▁riva	-11.0446
▁fersen	-11.0446
centra	-11.0447
▁hegel	-11.0447
▁blått	-11.0447
bock	-11.0448
▁fara	-11.0449
▁louise	-11.0449
▁rysslands	-11.0451
kommission	-11.0451
sexuell	-11.0454
carl	-11.0458
▁tunnelbane	-11.0458
kristna	-11.0463
▁gnu	-11.0465
▁lidande	-11.0466
book	-11.0466
▁100-	-11.0467
dags	-11.0471
▁nazisterna	-11.0472
▁effekter	-11.0473
▁populationer	-11.0474
kungen	-11.0485
▁förneka	-11.0485
▁västkust	-11.0486
skraft	-11.0488
▁1870	-11.0489
▁xvi	-11.0494
▁ford	-11.0495
tekniken	-11.0496
▁raser	-11.0499
regementet	-11.0499
▁överlämna	-11.0506
▁busk	-11.0507
▁fäste	-11.0508
tävlingar	-11.0508
herrar	-11.0508
ulär	-11.0509
▁grep	-11.0509
▁ideologisk	-11.0518
maskiner	-11.052
▁ångermanland	-11.0522
▁lämningar	-11.0522
▁akvarie	-11.0522
▁användbar	-11.0523
▁arlanda	-11.0523
▁zorn	-11.0523
▁citron	-11.0523
fäste	-11.0525
▁gamle	-11.0526
▁express	-11.0526
▁båtar	-11.0527
▁ägt	-11.0528
stater	-11.053
▁dialog	-11.053
▁1849	-11.0531
▁domini	-11.0531
▁essen	-11.0532
▁dalgång	-11.0533
▁uttalas	-11.0534
▁gyllene	-11.0535
tell	-11.0536
▁sträckte	-11.0536
▁hållas	-11.0541
▁presenteras	-11.0541
natur	-11.0542
▁fredrika	-11.0544
▁lovade	-11.0544
▁kollektivtrafik	-11.0544
grekiska	-11.0545
ökning	-11.0545
bonde	-11.0547
metall	-11.0548
▁euron	-11.0549
skillnader	-11.0551
▁41	-11.0552
▁1658	-11.0553
märkt	-11.0555
trupper	-11.0557
▁borgmästare	-11.056
aktioner	-11.056
▁granit	-11.0561
pack	-11.0563
▁personligen	-11.0568
▁mytologin	-11.0568
kommitté	-11.0573
ique	-11.0573
▁instiftade	-11.0575
rib	-11.0575
ledaren	-11.0576
▁västerbottens	-11.0578
▁aktuella	-11.0579
▁85	-11.058
firande	-11.058
▁belägring	-11.0583
▁användningen	-11.0583
motiv	-11.0584
titeln	-11.0586
▁statsministern	-11.059
sidor	-11.0591
▁referens	-11.0595
cin	-11.0596
▁avsattes	-11.0598
massa	-11.0598
olja	-11.0601
▁kolonier	-11.0601
▁andersen	-11.0602
▁tjänstgjor	-11.0602
territoriet	-11.0604
▁associera	-11.0604
▁blasonering	-11.0604
▁schleswig	-11.0604
▁fantasi	-11.0604
▁chefredaktör	-11.0605
▁västeuropa	-11.0605
▁strängnäs	-11.0606
fyl	-11.0607
tillverkare	-11.0607
▁aten	-11.0608
▁1867	-11.0612
▁extremt	-11.0614
▁brant	-11.0616
▁leo	-11.0619
▁grundandet	-11.0619
▁from	-11.0621
rätter	-11.0622
▁andreas	-11.0623
▁förklaras	-11.0625
▁broar	-11.0625
▁700-	-11.0627
▁präglat	-11.0627
▁tillväxten	-11.0632
▁genus	-11.0632
▁introducerade	-11.0632
emot	-11.0633
char	-11.0633
▁bark	-11.0633
unicipalsamhälle	-11.0633
▁anton	-11.0639
politisk	-11.0641
feld	-11.0641
sundet	-11.0641
skick	-11.0641
ident	-11.0642
▁pul	-11.0644
▁nations	-11.0645
▁orm	-11.065
▁förklarar	-11.0655
riksföreståndare	-11.0655
▁broder	-11.0656
frid	-11.0657
▁allvarliga	-11.0657
▁psykolog	-11.066
▁herman	-11.066
▁kronprinsen	-11.0661
arbetar	-11.0663
▁samhällets	-11.0668
▁krafter	-11.0668
▁åsikt	-11.0672
flödet	-11.0675
▁erkänna	-11.0675
dans	-11.0683
vända	-11.0684
försäkring	-11.0687
▁slump	-11.0687
▁slöts	-11.0687
▁protestanter	-11.0687
▁fasaden	-11.0688
▁julafton	-11.0688
▁tillåter	-11.0689
▁dramaten	-11.069
▁enorma	-11.0692
reservat	-11.0695
▁spring	-11.0695
▁percy	-11.0695
regi	-11.0696
fyllda	-11.0696
▁akut	-11.0696
▁1882	-11.0697
▁1856	-11.0697
jen	-11.0697
▁1815	-11.0698
▁jämföras	-11.0699
skapande	-11.07
ligheten	-11.0701
nytt	-11.0701
fond	-11.0703
▁utvidga	-11.0704
▁homosexuella	-11.0708
▁ritades	-11.0709
medalj	-11.0709
▁anklaga	-11.071
▁övergången	-11.071
jämför	-11.0712
slätten	-11.0715
drivna	-11.0718
innehav	-11.0719
▁antagit	-11.0722
▁sigill	-11.0722
kind	-11.0727
▁västliga	-11.0728
försvar	-11.0732
▁historieskriv	-11.0732
▁redaktion	-11.0734
▁knä	-11.0734
fiende	-11.0738
▁slagit	-11.0739
▁tår	-11.0739
▁tillverkas	-11.074
▁turné	-11.0741
▁läroverk	-11.0742
▁punkten	-11.0742
stockholm	-11.0744
mac	-11.0746
herre	-11.0746
lm	-11.0747
▁förändrades	-11.0747
magasin	-11.0748
▁neo	-11.0748
▁interna	-11.075
▁landskapen	-11.0751
koll	-11.0753
▁konsekvenser	-11.0756
▁länkar	-11.0756
gata	-11.0758
olf	-11.0759
luthersk	-11.0759
▁air	-11.076
▁innanför	-11.0761
▁medlemsstater	-11.0761
▁regeringar	-11.0763
▁generationer	-11.0763
▁försvaga	-11.0764
▁medeltids	-11.0768
▁framgångsrikt	-11.077
▁celsius	-11.077
▁illustrera	-11.077
▁inskränk	-11.077
▁zimbabwe	-11.077
ortodoxa	-11.077
▁eftermäle	-11.077
▁petersburg	-11.077
▁habitat	-11.0771
▁ekerö	-11.0771
▁utbildade	-11.0771
▁jazz	-11.0771
linge	-11.0772
▁falsk	-11.0773
▁karlfeldt	-11.0773
▁autonom	-11.0774
▁helena	-11.0775
kk	-11.0777
▁museets	-11.0777
▁1874	-11.0778
▁spårvagn	-11.0778
▁angränsa	-11.0781
▁folktro	-11.0782
▁dör	-11.0783
▁habsburg	-11.0784
▁utövade	-11.0786
▁tidpunkten	-11.0787
▁lake	-11.0788
ekonomi	-11.0796
åldern	-11.0797
▁utropade	-11.0798
▁normer	-11.0798
vänlig	-11.0801
▁muhammeds	-11.0807
▁relationen	-11.0808
kammar	-11.0811
▁aspekter	-11.0817
▁sorg	-11.082
▁stund	-11.082
pil	-11.0821
spets	-11.0821
medlemmar	-11.0823
▁ale	-11.0823
äkta	-11.0827
▁nyttja	-11.0827
show	-11.0833
mol	-11.0838
▁jäst	-11.0839
▁demokratisk	-11.084
▁skelett	-11.0842
titel	-11.0846
ledningen	-11.0846
▁klan	-11.0848
▁redo	-11.0852
▁odlade	-11.0852
▁republikan	-11.0852
▁släpp	-11.0853
cro	-11.0854
▁bestämmer	-11.0854
▁kännetecken	-11.0854
▁sturlasson	-11.0854
▁voxnan	-11.0854
▁förlängning	-11.0854
▁protein	-11.0855
▁disney	-11.0855
▁buddhismen	-11.0856
▁hinder	-11.0856
▁stått	-11.0857
▁genast	-11.0858
▁gårds	-11.0858
tolk	-11.0858
löf	-11.0858
▁satan	-11.0859
cl	-11.0859
intäkter	-11.086
▁lappland	-11.0861
▁skiss	-11.0861
▁utomhus	-11.0862
▁ambassadör	-11.0866
troende	-11.0867
▁boskap	-11.0868
7)	-11.0869
själ	-11.087
▁engelskan	-11.0873
▁hedin	-11.0875
▁vagnar	-11.0877
familj	-11.0878
▁försvarade	-11.0878
▁materialet	-11.0878
▁summa	-11.0881
beslut	-11.0883
▁tabellen	-11.0885
romersk	-11.0886
▁48	-11.0886
▁peka	-11.0887
▁ideell	-11.0889
▁motsvarade	-11.0891
▁behandla	-11.0891
iti	-11.0892
▁samisk	-11.0893
▁skildrar	-11.0907
▁1520	-11.0909
▁grundämnen	-11.0913
pek	-11.0914
▁åka	-11.092
▁arbetsplats	-11.0921
▁utnämn	-11.0922
bör	-11.0922
▁rätta	-11.0922
▁predika	-11.0926
leder	-11.0927
▁skylt	-11.0927
▁gy	-11.0933
▁tillhörighet	-11.0935
▁utformade	-11.0935
sand	-11.0937
gjort	-11.0938
nacka	-11.0938
▁migration	-11.0939
▁patient	-11.0939
▁facto	-11.0939
▁uppträder	-11.0939
▁knappast	-11.094
▁stridigheter	-11.094
▁giltig	-11.094
glöm	-11.0941
▁vincent	-11.0941
▁principen	-11.0945
▁torsten	-11.0946
▁rydberg	-11.0946
▁ruiner	-11.0946
▁elektronik	-11.0949
▁astrid	-11.095
orsak	-11.095
▁tingslag	-11.095
▁grundad	-11.0954
▁vore	-11.0956
▁folken	-11.0959
givit	-11.0965
▁attack	-11.0968
▁besegrades	-11.0968
vilket	-11.097
▁tolkat	-11.0976
▁järnålder	-11.0977
▁ovanliga	-11.0979
kassa	-11.0981
▁1680	-11.0985
▁befälet	-11.0986
▁stängdes	-11.099
kött	-11.0992
element	-11.0992
fjärden	-11.0992
▁public	-11.0996
minnen	-11.0996
lande	-11.0997
▁anor	-11.1001
▁unika	-11.1003
▁scenen	-11.1004
▁svan	-11.1005
▁uppgiften	-11.1009
krav	-11.1013
▁47	-11.1014
orter	-11.1014
vita	-11.1015
▁neutron	-11.1015
▁kå	-11.1016
▁installera	-11.1018
▁papper	-11.1024
▁madagaskar	-11.1025
▁plötsligt	-11.1025
peppar	-11.1025
▁västtyskland	-11.1026
▁blodbad	-11.1026
▁350	-11.1027
▁debuterade	-11.1028
▁miljöpartiet	-11.1028
▁högkvarter	-11.1029
▁planering	-11.1029
sorter	-11.1029
▁marmor	-11.103
driva	-11.1031
▁anlägga	-11.1031
▁tråd	-11.1031
ländare	-11.1031
▁brett	-11.1032
▁gudomlig	-11.1032
▁branting	-11.1032
besvär	-11.1033
▁utgrävningar	-11.1036
▁filosofin	-11.1036
▁erkännande	-11.1037
templ	-11.1037
▁viktigare	-11.1038
▁föreställa	-11.1038
▁terrorist	-11.1039
▁balett	-11.1039
▁smala	-11.104
bärande	-11.104
▁forsberg	-11.1041
▁eksjö	-11.1041
▁kär	-11.1042
tomt	-11.1042
▁vindkraftverk	-11.1045
konstruktion	-11.1053
▁förmyndar	-11.1054
▁ställer	-11.1054
tive	-11.1055
sutveckling	-11.1055
kampanj	-11.1056
▁uppsättning	-11.1056
▁banker	-11.1056
undervisning	-11.1057
listan	-11.1057
igenom	-11.1057
▁kommando	-11.1058
▁ox	-11.1058
▁välkända	-11.1062
▁dödade	-11.1064
▁dubbelt	-11.1065
▁uttryckte	-11.1069
▁isolera	-11.1073
täthet	-11.1074
▁användare	-11.1077
▁raka	-11.1079
motorer	-11.1079
▁2,5	-11.1079
▁förfäder	-11.1082
▁glad	-11.1084
▁olik	-11.1085
▁medicinsk	-11.1087
▁samlat	-11.109
▁utsedd	-11.109
▁byggda	-11.1091
▁socialistisk	-11.1093
väv	-11.1095
▁medveten	-11.1096
▁berömd	-11.1096
konvention	-11.1098
sändningar	-11.1098
▁invandrare	-11.1101
▁värmlands	-11.1106
dryck	-11.1107
▁centralorten	-11.1108
▁motsatte	-11.1109
inska	-11.1109
▁sum	-11.1109
▁bero	-11.111
▁exklusiv	-11.1111
▁förväxla	-11.1111
▁militärkupp	-11.1111
▁konsonant	-11.1111
▁provisorisk	-11.1111
▁behöva	-11.1111
▁styv	-11.1111
▁fröding	-11.1112
▁vacker	-11.1112
▁kvällen	-11.1114
▁moln	-11.1114
▁jemen	-11.1115
▁apple	-11.1116
▁trycktes	-11.1116
gil	-11.1117
tavla	-11.1118
▁skor	-11.1118
▁starkaste	-11.1119
▁inblandning	-11.1122
teckningar	-11.1123
▁skänkte	-11.1124
▁vända	-11.1124
kö	-11.1126
▁skicklig	-11.1128
▁98	-11.1129
skötsel	-11.1131
▁definitionen	-11.1131
linjerna	-11.1134
stuga	-11.1135
▁tvångs	-11.1136
kön	-11.1137
▁nöt	-11.1139
▁avses	-11.1139
▁tillämpas	-11.1142
ordförande	-11.1143
▁starten	-11.1144
mästar	-11.1148
▁styrande	-11.1148
▁användande	-11.1149
▁buk	-11.1152
▁numer	-11.1153
▁engagerade	-11.1154
utveckling	-11.1156
▁tacitus	-11.1159
▁övergångs	-11.1159
▁tidvis	-11.1163
▁isolerade	-11.1164
bildande	-11.1167
uli	-11.1168
▁säsonger	-11.1169
▁teckningar	-11.1175
▁teoretisk	-11.1176
▁trolle	-11.1177
▁kommunikations	-11.118
▁dragon	-11.1183
årsdag	-11.1186
▁splittra	-11.1191
grim	-11.1191
start	-11.1192
▁tidskrifter	-11.1194
brun	-11.1195
-16	-11.1196
▁favorit	-11.1198
▁skänninge	-11.1198
▁kommunicera	-11.1198
▁brann	-11.1199
▁pehr	-11.12
▁anlita	-11.12
bry	-11.1202
▁flygeln	-11.1202
traditionen	-11.1205
▁färje	-11.1207
▁1814	-11.1207
▁djuren	-11.1208
▁arabisk	-11.1208
▁claes	-11.121
▁audi	-11.1214
▁kammare	-11.1215
▁framträdde	-11.1216
▁restes	-11.1216
▁hamna	-11.1218
hard	-11.1218
trädet	-11.1219
▁brita	-11.122
▁restauranger	-11.1221
▁omnämn	-11.1221
▁munkar	-11.1224
▁vetenskapligt	-11.1226
ordet	-11.1229
stred	-11.123
uppfattning	-11.1233
politiska	-11.1236
stadt	-11.1236
▁skrivet	-11.1238
▁metoden	-11.1244
▁regim	-11.1245
uro	-11.1248
▁fattade	-11.1249
▁prinsen	-11.1249
▁biskopar	-11.125
▁deltar	-11.1251
▁inspirerat	-11.1254
▁sympati	-11.1257
▁vintrar	-11.1258
▁mäktiga	-11.1263
▁zo	-11.1263
board	-11.1265
▁ockupation	-11.1265
utgiven	-11.1265
aktivitet	-11.1267
bol	-11.1267
▁stadshus	-11.1268
känslig	-11.1271
▁språkliga	-11.1272
syd	-11.1273
▁turk	-11.1275
▁båg	-11.1277
▁skapas	-11.128
▁bestånd	-11.128
▁känsla	-11.1281
▁dåtiden	-11.1282
▁malta	-11.1283
▁färgen	-11.1285
▁filippinerna	-11.1285
▁generalmajor	-11.1285
▁skulptör	-11.1285
▁unicode	-11.1285
▁polacker	-11.1286
▁lagerlöf	-11.1286
▁gallien	-11.1287
intendent	-11.1287
▁sekund	-11.1288
▁södermalm	-11.1288
▁upplands	-11.1289
▁undersöka	-11.129
▁fabriken	-11.129
▁unix	-11.1293
▁besättning	-11.1293
▁dödsfall	-11.1294
▁1875	-11.1294
▁1864	-11.1294
▁publiken	-11.1295
▁rim	-11.1296
▁banor	-11.1296
▁kår	-11.1297
▁stationen	-11.13
vandrade	-11.1301
▁växla	-11.1302
axel	-11.1304
▁debatten	-11.1305
ministr	-11.1306
sensor	-11.1307
▁utfört	-11.1309
ical	-11.1309
▁namngiv	-11.131
▁felaktig	-11.1311
▁flitigt	-11.1312
ifiering	-11.1315
▁omröstning	-11.1316
▁specifik	-11.1316
platån	-11.1317
▁bevisa	-11.1318
▁dras	-11.1321
▁miljöer	-11.1322
katalog	-11.1323
▁oklar	-11.1323
▁bearbeta	-11.1324
▁lyd	-11.1324
▁århundradet	-11.1324
hela	-11.1326
▁hys	-11.1327
▁trettio	-11.1327
▁maximal	-11.1328
▁existera	-11.1329
▁analysera	-11.1333
▁uppåt	-11.1334
▁list	-11.1346
▁omöjligt	-11.1347
▁kläd	-11.1351
▁sekunder	-11.1352
vre	-11.1354
▁märke	-11.1358
▁utfall	-11.1358
tusen	-11.1358
▁afrikas	-11.1359
ologisk	-11.1361
▁korn	-11.1361
▁delat	-11.1363
▁fascist	-11.1369
skandinavisk	-11.1373
▁sediment	-11.1374
▁betydde	-11.1374
▁konkurrent	-11.1374
▁oldenburg	-11.1374
▁splittring	-11.1374
▁diktatur	-11.1374
▁rugby	-11.1374
▁school	-11.1374
▁mozart	-11.1374
▁möbler	-11.1374
▁svält	-11.1375
▁befolkade	-11.1375
▁medelpad	-11.1375
▁miljöproblem	-11.1376
▁ombildade	-11.1376
▁monte	-11.1376
▁dvs	-11.1377
värden	-11.1378
▁campus	-11.1378
▁döptes	-11.138
▁lutherska	-11.1381
▁1871	-11.1383
▁långfilm	-11.1383
▁regerande	-11.1383
▁erbjuda	-11.1384
kling	-11.1385
▁insåg	-11.1385
▁anställd	-11.1385
▁visor	-11.1387
▁(5	-11.1388
hom	-11.1392
röda	-11.1392
▁nationalism	-11.1396
börd	-11.1396
▁rapporter	-11.1396
förvaltningen	-11.14
arm	-11.1405
▁diskussioner	-11.1407
▁kir	-11.141
bebyggelse	-11.1411
▁penning	-11.1412
allians	-11.1413
tillväxt	-11.1414
gne	-11.1417
näck	-11.1419
månad	-11.142
mässiga	-11.1421
▁filosofen	-11.1422
▁aftonbladet	-11.1423
▁teknisk	-11.1429
avgift	-11.143
▁office	-11.1433
▁600-	-11.1438
▁djuret	-11.1438
▁källan	-11.1443
2000	-11.1445
▁solo	-11.1449
lf	-11.1452
sändare	-11.1455
▁möten	-11.1457
akademin	-11.1458
▁metaller	-11.1458
▁vinden	-11.1463
▁(10	-11.1463
▁dvärg	-11.1463
▁bibehåll	-11.1463
▁tendens	-11.1463
▁hänvisning	-11.1463
▁belgrad	-11.1464
▁amiral	-11.1464
▁antonius	-11.1465
▁dylan	-11.1466
▁muntlig	-11.1467
▁federationen	-11.1467
▁våldsamma	-11.1469
▁tidskrift	-11.1469
▁bach	-11.1471
▁tilläts	-11.1471
▁ungarna	-11.1472
▁börje	-11.1472
▁krön	-11.1483
▁redskap	-11.1485
▁handskrift	-11.149
▁nämnde	-11.1491
ägande	-11.1491
mätning	-11.1493
);	-11.1495
▁gymnasium	-11.1496
visor	-11.15
instrument	-11.15
▁uppskattas	-11.1501
amb	-11.1503
trogna	-11.1506
▁marsch	-11.1506
läget	-11.1506
▁dokumentera	-11.1509
▁siffra	-11.1513
▁boberg	-11.1513
▁författarna	-11.1516
▁krydd	-11.1518
▁lim	-11.1518
▁stranden	-11.1519
▁camp	-11.1519
▁producerade	-11.152
▁upprättade	-11.1527
▁felaktigt	-11.1528
▁dröm	-11.1528
cci	-11.153
▁tillfälliga	-11.153
▁behovet	-11.1532
▁samer	-11.1532
▁inkluderade	-11.1536
▁xv	-11.1537
▁utmana	-11.1537
▁ocean	-11.1538
▁förbjöd	-11.154
▁sporter	-11.1544
ette	-11.1545
zj	-11.1547
plåt	-11.1549
magnet	-11.1552
▁alltjämt	-11.1553
▁grammatik	-11.1553
▁heinrich	-11.1553
▁sevärdheter	-11.1553
▁kuwait	-11.1553
▁pendeltåg	-11.1553
▁konkret	-11.1553
▁dittills	-11.1553
▁anmäl	-11.1554
▁återupptog	-11.1554
▁semi	-11.1555
▁tecknare	-11.1557
▁värderingar	-11.1557
▁liberalerna	-11.1557
figurer	-11.1561
▁rådhus	-11.1561
▁återstående	-11.1561
gle	-11.1561
▁lukt	-11.1562
▁99	-11.1563
▁legitim	-11.1563
listor	-11.1563
▁normala	-11.1566
▁reglerna	-11.1566
present	-11.1567
▁konsekvens	-11.157
▁mini	-11.157
diskett	-11.1571
▁desto	-11.1572
▁ei	-11.1575
▁smärt	-11.1575
▁omöjlig	-11.1576
▁genomgick	-11.1577
100	-11.1578
▁rättigheterna	-11.1578
▁femton	-11.1579
utvinning	-11.1581
kammaren	-11.1581
▁kopplade	-11.1583
läpp	-11.1584
▁110	-11.1584
▁blek	-11.1584
▁parning	-11.1584
▁effektivt	-11.1587
▁behandlade	-11.1588
▁hövding	-11.1588
▁dragit	-11.159
stall	-11.159
▁foster	-11.1591
▁distribution	-11.1592
▁gummi	-11.1595
▁väv	-11.1599
▁uppfattningar	-11.1599
▁pelar	-11.1602
inus	-11.1604
▁inspirerad	-11.1606
▁mörka	-11.1612
▁geologi	-11.1612
▁ok	-11.1616
stugan	-11.1617
▁vardags	-11.1621
▁vig	-11.1626
stock	-11.1627
halv	-11.163
▁sektorn	-11.1633
celler	-11.1638
skogen	-11.1639
▁förtryck	-11.1641
▁sammansatt	-11.1641
▁kämpa	-11.1643
▁gälla	-11.1643
tjänster	-11.1644
▁ambition	-11.1644
▁carolina	-11.1644
▁praktiskt	-11.1644
▁skämt	-11.1644
▁tanzania	-11.1644
▁ulvsunda	-11.1644
▁venezuela	-11.1644
▁british	-11.1644
▁jamaica	-11.1644
▁farbror	-11.1644
▁konkurs	-11.1644
▁depression	-11.1644
▁tvung	-11.1645
▁lanka	-11.1645
▁klättra	-11.1646
▁kröntes	-11.1649
▁runstenar	-11.165
▁översättningar	-11.165
▁filosofisk	-11.1651
imp	-11.1651
▁app	-11.1652
▁åtal	-11.1652
kningar	-11.1653
▁trossamfund	-11.1654
▁1812	-11.1655
▁sträckning	-11.1655
▁möts	-11.1658
▁citat	-11.1658
▁klassa	-11.1658
▁upphöjde	-11.166
▁ämbetsman	-11.1662
▁sönderfall	-11.1663
röstning	-11.1663
hagen	-11.1664
evangeliet	-11.1667
media	-11.1669
▁insikt	-11.167
givare	-11.167
radio	-11.1672
▁kontinuerlig	-11.1672
▁placerar	-11.1674
▁out	-11.1674
▁utmärkt	-11.1679
ligan	-11.168
▁logisk	-11.1682
▁svin	-11.1683
berättelse	-11.1686
mönster	-11.1687
▁live	-11.1689
arkitektur	-11.169
▁uppförande	-11.1692
▁spindlar	-11.1692
0,5	-11.1694
▁hansan	-11.1695
▁bielke	-11.1697
▁hållbar	-11.1698
▁bildning	-11.1698
▁arbetat	-11.1702
senare	-11.1704
▁konstruerade	-11.1705
▁stick	-11.1705
▁halvt	-11.1705
▁kontinuerligt	-11.1708
kontinent	-11.1712
play	-11.1713
▁alv	-11.1716
▁mission	-11.1717
▁ligan	-11.1717
▁innehållet	-11.1719
stationen	-11.1725
zel	-11.1726
väster	-11.173
handla	-11.173
▁fornlämningar	-11.1734
▁termer	-11.1735
▁mikael	-11.1736
▁einstein	-11.1736
▁berggrunden	-11.1736
▁förverkliga	-11.1736
▁centralbyrån	-11.1737
▁francisco	-11.1737
▁olaglig	-11.1737
▁handboll	-11.1739
▁demokratin	-11.174
▁befattning	-11.174
▁östersund	-11.1742
▁martinson	-11.1743
▁utrota	-11.1743
▁hjärta	-11.1744
▁gynna	-11.1745
▁någonting	-11.1746
▁riktningar	-11.1747
▁kommitté	-11.1749
▁institutet	-11.1749
▁wil	-11.175
▁gäng	-11.1751
▁verksamma	-11.1752
plattform	-11.1755
▁franz	-11.1756
▁nar	-11.1757
▁huvudort	-11.1758
▁1792	-11.1759
bundna	-11.1761
▁väsentlig	-11.1767
▁brändes	-11.1772
▁1660	-11.1774
▁diktsamling	-11.1775
▁populationen	-11.1776
medicin	-11.178
▁diplomatiska	-11.1781
rekord	-11.1783
kista	-11.1783
kritiska	-11.1784
▁förhandlingarna	-11.1788
▁fran	-11.1788
etisk	-11.1789
▁samlar	-11.1791
itu	-11.1792
offer	-11.1794
sommar	-11.1796
egel	-11.1798
▁transportera	-11.1798
▁klä	-11.1798
alistiska	-11.1798
▁alf	-11.1798
komst	-11.1799
▁deltagare	-11.18
▁klasser	-11.18
▁nationer	-11.1801
▁vanligast	-11.1805
▁introducera	-11.1805
vetenskapen	-11.1806
▁tidigast	-11.1806
▁rymden	-11.1808
–14	-11.1808
▁kärr	-11.1808
eau	-11.1811
▁födelsedag	-11.1812
ställe	-11.1813
▁fond	-11.1815
▁kategorier	-11.1816
▁kulturell	-11.1818
▁tillkommit	-11.1818
▁nä	-11.1819
▁sällsynt	-11.1819
▁arbetslöshet	-11.1821
▁permanenta	-11.1821
sexuella	-11.1822
▁samarbets	-11.1824
ray	-11.1825
sbefolkningen	-11.1828
▁mongol	-11.1828
årsjubileum	-11.1829
▁riksdagsledamot	-11.1829
▁charlotta	-11.1829
▁kungamakten	-11.1829
qaida	-11.1829
▁administrera	-11.1829
▁sahara	-11.1829
▁mobiltelefon	-11.1829
▁normandie	-11.1829
▁järnvägsnätet	-11.183
▁störningar	-11.183
gli	-11.1833
▁profeten	-11.1834
▁ateist	-11.1839
kameror	-11.1841
▁komponenter	-11.1842
▁bj	-11.1843
▁nederbörden	-11.1843
▁kamrat	-11.1844
▁massiv	-11.1845
nätverk	-11.1845
▁företrädes	-11.1845
▁komposition	-11.1847
sällskap	-11.1847
▁federal	-11.185
▁oliv	-11.185
▁harmoni	-11.1852
▁tatra	-11.1852
▁hustrun	-11.1854
6)	-11.1858
▁she	-11.1859
▁(”	-11.1859
▁pont	-11.186
▁monumental	-11.1861
▁avgå	-11.1861
▁intåg	-11.1863
▁residens	-11.1865
skåda	-11.1868
▁uppgav	-11.1868
finalen	-11.1871
▁musikaliska	-11.1872
hei	-11.1872
▁nationellt	-11.1875
▁hänger	-11.1875
gäst	-11.1875
gamla	-11.1875
historiker	-11.1876
▁mekaniska	-11.1878
skjutning	-11.1879
▁ball	-11.188
▁kvarn	-11.1881
▁erkänd	-11.1884
▁ledd	-11.1884
läger	-11.1885
▁astronom	-11.1889
▁sann	-11.1889
katt	-11.1891
▁matematiska	-11.1892
jern	-11.1892
')	-11.1893
gåva	-11.1894
▁160	-11.1896
▁din	-11.1898
matt	-11.1899
▁ledaren	-11.1899
▁gam	-11.19
bränning	-11.1901
▁feodal	-11.1905
▁passa	-11.1907
▁(4	-11.1911
färgad	-11.1913
▁posse	-11.1916
▁anordnade	-11.1917
▁sidorna	-11.1918
▁pingst	-11.1922
▁association	-11.1922
▁böhmen	-11.1922
▁novgorod	-11.1922
hexadecimalt	-11.1922
▁reduktion	-11.1922
▁tyngre	-11.1922
▁1880-	-11.1922
▁kategorisera	-11.1922
▁pungdjur	-11.1923
▁nominera	-11.1923
klädda	-11.1923
▁mecka	-11.1923
▁reaktioner	-11.1924
▁häftig	-11.1924
▁ingenting	-11.1927
vigning	-11.1928
styrning	-11.193
▁påtaglig	-11.193
▁plast	-11.1931
▁konstaterade	-11.1931
utan	-11.1932
▁may	-11.1932
armén	-11.1935
▁regera	-11.1937
▁henri	-11.1938
ossa	-11.1939
gårdar	-11.1941
stängd	-11.1941
▁hållet	-11.1942
▁citera	-11.1942
▁talman	-11.1948
▁lapp	-11.1948
konferensen	-11.1948
▁vision	-11.1949
▁(14	-11.195
▁alternativa	-11.1951
domstol	-11.1954
▁fog	-11.1955
▁genomgått	-11.1956
▁rh	-11.1961
reich	-11.1964
▁kärna	-11.1966
▁rost	-11.197
udi	-11.1972
amerikanska	-11.1972
gue	-11.1974
▁sago	-11.1976
▁spridda	-11.1981
▁organiska	-11.1986
▁lena	-11.1987
▁längden	-11.1988
metoder	-11.1989
▁atomer	-11.1989
▁bertil	-11.1992
▁celler	-11.1993
▁medarbetare	-11.1996
seende	-11.1997
dimension	-11.1998
viga	-11.1999
▁kraftfull	-11.2
▁riken	-11.2001
▁kanaler	-11.2001
▁främste	-11.2001
▁utropades	-11.2002
▁130	-11.2002
bred	-11.2005
▁tillsatte	-11.2006
▁utökades	-11.2009
▁invald	-11.2009
rörande	-11.201
▁hembygd	-11.2015
▁colorado	-11.2016
▁etnicitet	-11.2016
▁fjorton	-11.2016
▁jersey	-11.2016
▁bemärkelse	-11.2016
▁fission	-11.2016
▁buddha	-11.2016
▁ateism	-11.2017
▁psykiska	-11.2017
▁genomkorsa	-11.2017
▁våldsam	-11.2017
reaktor	-11.2018
vinter	-11.2018
▁innerstad	-11.2019
▁välfärd	-11.202
▁mätt	-11.2021
▁säljs	-11.2021
ålder	-11.2027
▁stabilitet	-11.2028
▁barbar	-11.2028
▁spa	-11.2029
▁klarade	-11.2029
▁krim	-11.203
▁nordsjön	-11.2031
▁newton	-11.2031
två	-11.2032
▁kejserlig	-11.2033
▁djursholm	-11.2033
▁svensson	-11.2033
▁butiker	-11.2034
▁filosofie	-11.2034
▁avgift	-11.2034
▁stabila	-11.2038
real	-11.2038
▁genre	-11.2043
▁uppfostran	-11.2043
släktet	-11.2045
▁ämbetet	-11.2049
▁arne	-11.2051
ppe	-11.2051
▁uttalade	-11.2051
▁baron	-11.206
skriven	-11.2063
▁antyder	-11.2065
▁attentat	-11.2067
▁besittning	-11.2067
▁udda	-11.207
mut	-11.2071
▁jämna	-11.2071
▁mälar	-11.2072
▁utser	-11.2072
färdig	-11.2073
byggnation	-11.2074
backa	-11.2075
▁troende	-11.208
▁oftare	-11.2081
▁våningen	-11.2081
domstolen	-11.2082
▁inflytelserika	-11.2083
▁hållning	-11.2084
▁flor	-11.2094
▁grundlagen	-11.2096
årige	-11.2097
▁rosor	-11.2097
▁lågt	-11.2099
▁rebell	-11.21
▁yttra	-11.21
▁orsaker	-11.2102
barhet	-11.2104
▁anfallet	-11.2109
▁efteråt	-11.211
▁schengen	-11.2111
▁apotek	-11.2112
▁fjärr	-11.2112
▁förmögenhet	-11.2112
▁prägel	-11.2112
▁utmärkelser	-11.2112
▁ullevi	-11.2112
▁övervägande	-11.2112
▁fakta	-11.2112
▁ingvar	-11.2113
▁beskrivits	-11.2113
▁lilje	-11.2113
▁hållits	-11.2114
▁sandviken	-11.2114
kka	-11.2114
▁övervaka	-11.2115
▁överbefälhavare	-11.2115
▁planeterna	-11.2116
▁feministisk	-11.2116
▁stjärna	-11.2118
▁skärgårds	-11.2118
▁käk	-11.2119
▁1844	-11.2121
▁nav	-11.2121
▁framsteg	-11.2124
prim	-11.2132
▁monarkin	-11.2132
▁motverka	-11.2134
▁utgick	-11.2136
▁hil	-11.2136
▁forskar	-11.2139
▁studeras	-11.2143
▁knapp	-11.2144
▁rått	-11.2146
företaget	-11.2147
samlingen	-11.215
▁frys	-11.215
nick	-11.2151
▁administrativt	-11.2151
▁siffran	-11.2155
råtta	-11.2158
▁ögonen	-11.2158
▁anpassade	-11.2159
sarbeten	-11.216
▁engagera	-11.216
stillstånd	-11.216
kedja	-11.2162
▁befordra	-11.2163
fritt	-11.2168
▁1720	-11.2168
▁besk	-11.2169
▁utförda	-11.217
▁inåt	-11.2172
▁latinamerika	-11.2172
▁uppdelad	-11.2173
▁tillfällig	-11.2178
skrivning	-11.2179
fjärd	-11.2184
▁tredjedelar	-11.2184
▁hockey	-11.2185
▁uppehåll	-11.2186
▁mill	-11.2186
mission	-11.219
▁planeter	-11.2191
bostad	-11.2191
▁negativt	-11.2201
grenar	-11.2202
▁täta	-11.2202
slätt	-11.2203
▁strävan	-11.2207
▁socknen	-11.2208
▁vreeswijk	-11.2208
paviljong	-11.2208
▁högskole	-11.2208
▁ängelholm	-11.2208
▁hydrografi	-11.2208
▁marginal	-11.2208
▁retorik	-11.2208
▁thu	-11.2208
▁kväve	-11.2208
▁upplagor	-11.2208
▁runeberg	-11.2209
▁vänorter	-11.2209
▁reträtt	-11.2209
▁baltiska	-11.221
▁rådjur	-11.221
attack	-11.2213
▁vänern	-11.2214
▁asea	-11.2214
▁drabbats	-11.2215
▁balder	-11.2215
▁rekrytera	-11.2215
▁residensstad	-11.2218
▁1858	-11.2221
▁företog	-11.2221
▁träna	-11.2222
▁förespråkade	-11.2225
stockholms	-11.2226
▁nobelpriset	-11.2227
materiel	-11.2227
▁anläggningar	-11.2228
▁följe	-11.223
▁skrå	-11.2231
▁litterär	-11.2233
▁dubbla	-11.2235
▁dekorera	-11.2237
▁produktiv	-11.2237
▁kommissionen	-11.2239
▁bevarad	-11.2241
kap	-11.2241
▁tillräcklig	-11.2241
▁renässansen	-11.2241
▁drabba	-11.2243
ckel	-11.2245
▁fötter	-11.2245
▁kritiken	-11.2245
▁skede	-11.2246
▁krisen	-11.2246
▁ari	-11.2247
brygga	-11.2248
lampor	-11.2248
/2	-11.2248
mästerskapet	-11.2251
tyg	-11.2251
binda	-11.2252
formade	-11.2254
▁studiet	-11.2256
ändelse	-11.2258
▁span	-11.2259
föreställningar	-11.2261
föremål	-11.2264
variant	-11.2264
▁torne	-11.2264
▁redovisa	-11.2266
▁hotel	-11.2266
revolutionen	-11.2272
▁mose	-11.2272
sidig	-11.2273
▁medie	-11.2275
ibland	-11.2277
▁specifikt	-11.2278
oph	-11.2279
▁erkändes	-11.228
▁målning	-11.2281
▁samlingarna	-11.2283
▁intressant	-11.2285
▁älska	-11.2288
▁utförs	-11.2289
krona	-11.2289
table	-11.229
yng	-11.2294
▁haiti	-11.2295
▁klubbar	-11.2296
▁victor	-11.2302
▁kroppar	-11.2304
▁hässelby	-11.2305
▁härnösand	-11.2305
▁tronföljare	-11.2305
▁befrielse	-11.2305
▁kredit	-11.2305
▁örlogs	-11.2305
▁avlidit	-11.2305
▁armeniska	-11.2305
▁distans	-11.2305
▁uppsving	-11.2305
▁taxonomi	-11.2305
▁butik	-11.2308
▁kungahuset	-11.2308
▁härkomst	-11.2309
▁industriell	-11.231
▁ledar	-11.2311
storm	-11.2311
▁ryttar	-11.2314
▁exakta	-11.2314
▁européer	-11.2315
▁uppdelat	-11.2316
innor	-11.2316
▁moralisk	-11.2317
▁relationerna	-11.2317
final	-11.2319
predikant	-11.2321
▁beräkning	-11.2321
▁gemål	-11.2322
stolp	-11.2326
▁befintliga	-11.2326
▁motsättningar	-11.233
▁varierat	-11.2333
hua	-11.2335
▁1819	-11.2335
▁herm	-11.2341
kontoret	-11.2341
▁fragment	-11.2346
800	-11.2349
stjärna	-11.2349
▁norm	-11.235
▁serbiska	-11.2351
▁avslöja	-11.2354
▁utnyttjade	-11.2355
pur	-11.2356
▁1870-	-11.2356
gemenskap	-11.236
▁nordliga	-11.236
▁sovjetisk	-11.2363
▁sjöarna	-11.2366
▁analog	-11.2366
▁brände	-11.2369
▁krönika	-11.2369
▁indo	-11.237
▁moské	-11.237
▁svealand	-11.2375
▁filosofer	-11.2375
▁nöjes	-11.2375
▁döma	-11.2375
▁1868	-11.2376
▁förvaltningen	-11.2376
▁170	-11.2377
▁komplett	-11.2377
▁runor	-11.2377
kämpade	-11.238
numera	-11.2381
tillstånd	-11.2382
▁avlade	-11.2386
▁antagande	-11.2386
komponent	-11.2388
▁jack	-11.2389
▁katedral	-11.239
marsch	-11.2392
▁ramen	-11.2393
▁betraktade	-11.2398
▁krit	-11.2399
▁hittade	-11.2402
doktrin	-11.2403
▁våtmark	-11.2403
▁svåger	-11.2403
▁savann	-11.2403
▁haag	-11.2403
infektion	-11.2403
▁florida	-11.2403
▁interiör	-11.2403
▁gränskontroller	-11.2403
▁boston	-11.2403
▁uppfinning	-11.2405
▁delstaterna	-11.2405
▁åstadkomma	-11.2405
damm	-11.2406
▁fyllde	-11.2408
epos	-11.2409
▁självklar	-11.241
▁arbetslösheten	-11.2412
bandet	-11.2412
▁gränd	-11.2414
▁placerad	-11.2417
▁grannländerna	-11.2419
▁video	-11.2421
▁påve	-11.2425
▁begärde	-11.2425
region	-11.2425
familjer	-11.2428
▁gåva	-11.2428
skalan	-11.2429
▁orsakat	-11.2432
▁68	-11.2432
▁bell	-11.2433
▁synonym	-11.2438
agne	-11.2438
▁fördraget	-11.2439
ungar	-11.2448
▁skriftliga	-11.2448
bilder	-11.245
▁hantverkare	-11.2455
▁arméer	-11.2455
▁tillgångar	-11.2456
▁stavningen	-11.2456
▁bou	-11.2457
▁genetiska	-11.2457
▁radikala	-11.2459
▁läkar	-11.2461
stämning	-11.2461
▁löne	-11.2462
gestalt	-11.2463
kloster	-11.2463
▁norrbottens	-11.2465
▁presenterades	-11.2465
faktor	-11.2467
▁betalning	-11.2469
sarbetet	-11.247
▁strål	-11.247
▁1818	-11.2471
▁underteckna	-11.2472
▁hindrade	-11.2479
▁gudomliga	-11.2487
▁räkning	-11.2488
▁uppmuntra	-11.2495
▁tran	-11.2496
▁britt	-11.25
▁begär	-11.2501
▁frekvens	-11.2502
▁betydelsefull	-11.2502
▁slussen	-11.2502
▁anonym	-11.2502
▁chicago	-11.2502
▁fögderi	-11.2502
▁roskilde	-11.2502
▁rwanda	-11.2502
▁sokrates	-11.2502
▁retirera	-11.2502
▁sömn	-11.2502
▁ulriksdal	-11.2502
▁inverkan	-11.2502
▁uppfann	-11.2502
▁ghana	-11.2502
▁lycklig	-11.2502
▁marcus	-11.2503
▁existerande	-11.2507
▁svaga	-11.251
▁tropiskt	-11.2512
▁förändrats	-11.2513
▁avskaffande	-11.2513
▁tax	-11.2515
▁brorson	-11.2518
▁anlag	-11.252
▁sparbank	-11.2521
▁folkpartiet	-11.2521
▁utskott	-11.2521
tanke	-11.2521
▁sträckor	-11.2523
strum	-11.2523
▁ockupationen	-11.2524
▁kunskapen	-11.2525
vm	-11.2526
▁bond	-11.2526
▁bevarats	-11.2527
▁hiss	-11.2527
▁köpmän	-11.2528
dahl	-11.2532
▁tenn	-11.2534
▁alex	-11.2535
▁major	-11.2537
▁generell	-11.2537
▁distriktet	-11.2538
▁fälttåget	-11.2538
thor	-11.2543
▁drama	-11.2553
▁trettioårig	-11.2554
▁ryggen	-11.2554
▁ursprunget	-11.2556
idrott	-11.2557
▁utövas	-11.256
officer	-11.2561
göteborg	-11.2561
▁teologiska	-11.2563
▁stock	-11.2564
fött	-11.2564
sparre	-11.2565
ungern	-11.2568
▁ormar	-11.257
▁dala	-11.257
dol	-11.2571
▁king	-11.2571
▁erfarenheter	-11.2579
▁försåg	-11.258
▁tunnelbanan	-11.258
▁handskrifter	-11.258
▁drar	-11.2581
▁förhållandena	-11.2582
adel	-11.2583
▁rikedom	-11.2584
jö	-11.2584
▁will	-11.2586
strål	-11.2591
▁fogde	-11.2598
▁medicinska	-11.2598
ritual	-11.2599
pjäs	-11.2601
▁runda	-11.2601
▁danderyd	-11.2602
▁nazismen	-11.2602
▁omväxlande	-11.2602
▁restaurering	-11.2602
▁spanjorerna	-11.2602
▁street	-11.2602
▁united	-11.2602
▁tillåtet	-11.2603
anstalt	-11.2603
▁petrus	-11.2603
▁spåren	-11.2604
▁rikaste	-11.2606
bjälboätten	-11.2609
▁1872	-11.261
light	-11.261
relation	-11.2611
valv	-11.2614
▁1857	-11.2614
▁kritiserats	-11.2614
▁1859	-11.2615
kall	-11.2621
▁ministrar	-11.2622
▁east	-11.2623
blue	-11.2624
▁förstärkt	-11.2625
massan	-11.2626
tull	-11.2627
leb	-11.2627
slip	-11.2628
▁variationer	-11.2629
▁sfär	-11.2629
ortodox	-11.2632
▁utvecklad	-11.2636
▁sune	-11.264
▁gustafsson	-11.2642
förbindelser	-11.2645
▁nordafrika	-11.2645
▁trek	-11.2651
▁örn	-11.2653
▁kong	-11.2657
▁pip	-11.2658
ugh	-11.2662
siffror	-11.2663
gustav	-11.2663
sträcka	-11.2664
biskop	-11.2664
▁representeras	-11.2666
greve	-11.2667
▁kristianstad	-11.2667
uppdrag	-11.2668
bidrag	-11.2668
▁passage	-11.2671
▁förstärk	-11.2672
▁bang	-11.2673
▁uppfostra	-11.2674
hur	-11.2674
srapportering	-11.2675
▁fredsavtal	-11.2676
▁kemisk	-11.2678
armé	-11.2679
löp	-11.2684
▁överföra	-11.2687
▁fat	-11.269
▁slår	-11.269
▁tävlingar	-11.269
▁riksföreståndar	-11.269
▁nikola	-11.269
▁viner	-11.2691
▁wid	-11.2691
fac	-11.2692
bull	-11.2695
smässigt	-11.2699
▁karta	-11.2702
klubbar	-11.2702
▁messias	-11.2703
▁konsument	-11.2703
▁senegal	-11.2703
▁utsmyckning	-11.2703
▁kristofer	-11.2703
▁gravitation	-11.2703
▁konvertera	-11.2703
▁överhöghet	-11.2703
▁drots	-11.2703
▁monopol	-11.2703
▁missions	-11.2704
▁nomad	-11.2704
▁drick	-11.2705
▁bollnäs	-11.2705
▁vigsel	-11.2705
▁bre	-11.2705
metalliskt	-11.2706
▁trafikerar	-11.2706
▁pröva	-11.2707
row	-11.2708
delat	-11.271
▁kalksten	-11.2711
▁tolkningar	-11.2711
▁utställningen	-11.2711
pakten	-11.2711
kvarn	-11.2713
▁fördelar	-11.2713
▁bedömning	-11.2714
▁jansson	-11.2715
hindu	-11.2715
▁elektronisk	-11.2716
▁flug	-11.2717
▁hertigdöme	-11.2718
▁väpnade	-11.272
▁elbe	-11.272
▁högtidlig	-11.2723
▁landsväg	-11.2728
▁1789	-11.273
▁ron	-11.2733
▁afrikansk	-11.2734
högskolan	-11.2736
▁alger	-11.2736
▁drabbas	-11.2739
▁århundradena	-11.2739
fadern	-11.2742
▁kolonisera	-11.2749
▁funktionen	-11.2753
visningar	-11.2755
pojk	-11.2758
▁kavalleriet	-11.2758
artikel	-11.2762
▁dagliga	-11.2762
▁feminism	-11.2767
export	-11.2771
▁lisa	-11.2771
▁manus	-11.2772
möjligheter	-11.2774
▁borggård	-11.2781
▁underrättelse	-11.2785
▁domstolar	-11.2786
▁(6	-11.2786
▁kastade	-11.2786
kommit	-11.2787
▁alp	-11.279
▁väntade	-11.2793
sfären	-11.2795
▁motion	-11.2795
zin	-11.2798
▁tillträde	-11.2798
▁presidentval	-11.2798
beteckning	-11.2801
▁ärenden	-11.2805
▁symtom	-11.2805
▁tengbom	-11.2805
▁ömsesidig	-11.2805
▁involvera	-11.2805
▁stäpp	-11.2805
▁tillhandahåll	-11.2805
▁älvsborgs	-11.2805
▁dödsstraff	-11.2805
▁bernhard	-11.2805
▁madrid	-11.2805
▁utdöda	-11.2805
▁engelskspråkiga	-11.2806
▁världsarvslista	-11.2806
▁regissera	-11.2806
väsen	-11.2806
▁sväng	-11.2806
▁sigurd	-11.2807
▁rikskansler	-11.2807
▁diktator	-11.2808
▁ämbete	-11.2812
▁graven	-11.2812
▁nazistiska	-11.2813
▁festivalen	-11.2815
▁antisemitism	-11.2816
▁hemland	-11.2817
▁ärftlig	-11.2821
hästar	-11.2823
▁existerade	-11.2825
▁kommittén	-11.2827
▁formell	-11.2828
▁strö	-11.283
▁isen	-11.2831
▁grus	-11.2831
▁positivt	-11.2833
▁objektiv	-11.2833
▁succé	-11.2834
▁aktuell	-11.2836
▁grundskolan	-11.2837
▁bohus	-11.2838
▁bitar	-11.284
▁korståg	-11.284
blandning	-11.2841
▁betalade	-11.2846
▁rådande	-11.2846
▁orkester	-11.285
▁lösningar	-11.2851
bindning	-11.2852
▁ladda	-11.2852
▁vegetation	-11.2853
▁fauna	-11.2862
bring	-11.2867
kammare	-11.2868
producent	-11.287
drottning	-11.287
ryssland	-11.287
undersökning	-11.2871
stift	-11.2872
festival	-11.2872
▁uppförd	-11.2876
act	-11.2878
▁inner	-11.2881
afrika	-11.2881
▁katolsk	-11.2882
stadsfullmäktige	-11.2884
▁klädd	-11.2886
▁underhållning	-11.2886
▁gille	-11.2886
▁demokratiskt	-11.2887
blod	-11.2888
▁religionerna	-11.2888
▁moberg	-11.2894
▁ambassad	-11.2894
▁beräkningar	-11.2897
▁populärkultur	-11.2901
▁skillnaderna	-11.2903
▁samverkan	-11.2905
löjtnant	-11.2906
provinsen	-11.2908
▁botswana	-11.2908
▁society	-11.2908
▁hawaii	-11.2908
▁anarkism	-11.2908
▁leopard	-11.2908
▁fideikommiss	-11.2908
▁invigningen	-11.2908
ambique	-11.2908
▁wallenberg	-11.2908
▁sanskrit	-11.2908
▁bergskedjor	-11.2909
▁groddjur	-11.2909
▁aktörer	-11.2909
▁makro	-11.291
▁europaparlament	-11.291
▁sydligaste	-11.291
▁myndigheten	-11.291
▁spänning	-11.2911
▁sanktioner	-11.2911
▁utförande	-11.2911
▁klor	-11.2914
kam	-11.2914
▁ställt	-11.2916
▁underjordisk	-11.2917
▁verksamheter	-11.2918
ische	-11.292
▁1852	-11.292
vetenskaplig	-11.292
liber	-11.2922
▁malt	-11.2923
▁regementet	-11.2924
gångarna	-11.2927
såg	-11.2928
feber	-11.2928
▁godset	-11.2928
▁undervisningen	-11.2929
▁formulera	-11.2929
court	-11.2931
fullt	-11.2932
▁1500	-11.2933
▁molekyl	-11.2934
bilar	-11.2934
ligaste	-11.2935
▁jämn	-11.2942
▁läror	-11.2944
sitt	-11.2947
▁institute	-11.2953
▁befogenheter	-11.2956
hypo	-11.2957
▁bosättningar	-11.2958
▁nödvändiga	-11.2961
mask	-11.2961
▁förväntade	-11.2965
upplevelse	-11.2966
▁jam	-11.2967
▁blot	-11.2967
hålla	-11.2967
▁polar	-11.2968
▁rikena	-11.2972
nisse	-11.2972
▁unik	-11.2973
utrustning	-11.2975
samarbetet	-11.2976
▁komplicera	-11.2978
▁nåd	-11.2978
▁same	-11.2978
▁morän	-11.2984
▁bob	-11.2985
universitetet	-11.299
glas	-11.2992
▁värdefulla	-11.2994
hjul	-11.2996
▁tango	-11.2996
▁sara	-11.3001
▁löste	-11.3001
stiftelsen	-11.3001
▁distinkt	-11.3003
strup	-11.3005
▁upptäckten	-11.3005
▁austral	-11.3006
▁försämra	-11.3006
▁rosa	-11.3007
kare	-11.3009
400	-11.3009
▁böjning	-11.3012
▁skiv	-11.3012
▁auktoritär	-11.3012
▁förbjudet	-11.3012
▁kronprinsessan	-11.3012
▁ladulås	-11.3012
▁forntida	-11.3012
▁ansluter	-11.3012
▁primater	-11.3012
▁kriminal	-11.3012
▁abstrakt	-11.3012
▁templet	-11.3013
▁kungafamiljen	-11.3013
▁arthur	-11.3013
▁krona	-11.3014
▁tallinn	-11.3014
▁minskning	-11.3015
▁världsbanken	-11.3015
▁ingemar	-11.3015
▁nickel	-11.3015
▁belgiska	-11.3016
▁lappmark	-11.3017
smetod	-11.3019
▁skapandet	-11.3021
▁1806	-11.3021
▁begäran	-11.3021
▁ståndpunkt	-11.3022
▁affärer	-11.3024
▁träl	-11.3025
▁grekerna	-11.3032
▁marknadsför	-11.3035
▁gruvan	-11.3039
▁krom	-11.3039
▁hemlig	-11.304
▁matematisk	-11.3046
▁koncentrerade	-11.3046
läggare	-11.3046
staty	-11.3048
dera	-11.3048
krönikan	-11.3049
▁sträcka	-11.3053
▁cer	-11.3055
▁riklig	-11.3055
▁påstod	-11.3056
▁rand	-11.3056
samhälle	-11.3056
kyrkor	-11.3058
▁tillåta	-11.3059
▁besittningar	-11.3061
▁domkyrkan	-11.3061
▁mai	-11.3063
▁decennierna	-11.3065
▁uttrycka	-11.3067
▁konsumtion	-11.3072
▁presentera	-11.3072
4:	-11.3075
▁samarbeta	-11.3079
▁kyrkogården	-11.308
sammanhang	-11.3082
▁träsk	-11.3083
▁dramatiska	-11.3084
▁vii	-11.3084
operation	-11.3085
▁producerades	-11.3086
balans	-11.3087
▁södermanlands	-11.309
▁uppkallade	-11.3092
firma	-11.3092
▁bladen	-11.3096
▁musk	-11.3097
▁fett	-11.3097
▁sångare	-11.3097
▁undertecknades	-11.3107
läran	-11.311
maj	-11.3111
▁bure	-11.3113
baserad	-11.3113
▁cirkel	-11.3114
derivat	-11.3116
▁efterkrigstiden	-11.3117
▁julklapp	-11.3117
▁särskilj	-11.3117
▁södertälje	-11.3117
kinshasa	-11.3117
▁kapitulation	-11.3117
▁åkeshov	-11.3117
▁stegeborg	-11.3117
▁avsaknad	-11.3117
▁mystik	-11.3118
▁minnesota	-11.3118
▁fosfor	-11.3118
▁gävleborgs	-11.3118
▁michel	-11.3118
▁bergskedjan	-11.3118
▁betoning	-11.3118
▁informell	-11.3118
▁dalsland	-11.3118
▁sötvatten	-11.3119
mand	-11.3119
▁tillåtna	-11.3119
▁gåvor	-11.3119
–10	-11.3119
▁författningen	-11.312
▁ansöka	-11.3121
tti	-11.3121
▁vilar	-11.3121
▁densitet	-11.3122
▁återstod	-11.3123
▁sunni	-11.3124
▁nilen	-11.3124
▁mir	-11.3125
▁kelter	-11.3125
▁renässans	-11.3125
▁sjukdomen	-11.3126
kongressen	-11.3128
▁1645	-11.3129
▁färsk	-11.3129
▁texterna	-11.313
▁primtal	-11.313
▁mad	-11.313
▁inledande	-11.313
▁möss	-11.3132
priser	-11.3134
▁tänkte	-11.3134
▁oceanen	-11.3136
▁ämbets	-11.314
▁koalitionen	-11.314
▁engelskans	-11.3146
▁dramatisk	-11.3155
▁norrbotten	-11.3159
▁synes	-11.3161
▁stannar	-11.3161
▁utse	-11.3163
▁sänder	-11.3165
▁skivan	-11.3166
▁bebodd	-11.3166
finska	-11.3168
side	-11.317
▁uppdelade	-11.3172
▁1860-	-11.3174
bell	-11.3181
▁tvingat	-11.3182
▁tillvaro	-11.3182
▁1719	-11.3187
psalm	-11.3188
▁stavelse	-11.3192
▁tolka	-11.3194
helg	-11.3196
▁fysisk	-11.3198
▁dalar	-11.3198
▁uppstå	-11.3199
källan	-11.3202
▁wallin	-11.3202
turbin	-11.3203
▁rättvis	-11.3204
▁uppger	-11.3205
▁teknologi	-11.3205
rep	-11.3208
▁junior	-11.3208
▁ursprunglig	-11.3212
▁fastighets	-11.3213
▁stadgar	-11.3214
▁centre	-11.3217
▁gjorda	-11.3218
▁räls	-11.3219
hin	-11.3219
institutet	-11.3219
▁svagt	-11.3221
▁christopher	-11.3224
▁hunnit	-11.3224
▁michigan	-11.3224
▁adverb	-11.3224
▁imponera	-11.3224
▁befria	-11.3224
▁efternamn	-11.3225
▁fastigheter	-11.3225
▁mottagare	-11.3225
förändringar	-11.3225
▁återupprätta	-11.3225
▁livslängd	-11.3225
fientlig	-11.3225
▁ifrågasätt	-11.3225
▁piano	-11.3226
▁släkting	-11.3228
▁arenan	-11.3229
▁förstärka	-11.3232
hor	-11.3234
▁genrer	-11.3234
▁1813	-11.3235
▁öron	-11.3238
▁dagligen	-11.3246
▁comp	-11.325
▁evangelierna	-11.325
▁matematiker	-11.3251
▁trip	-11.3251
▁svit	-11.3252
▁signaler	-11.3253
zu	-11.3256
▁sandsten	-11.3259
behandling	-11.3261
peter	-11.3263
▁ringa	-11.3265
mou	-11.3266
▁komplexa	-11.3268
▁franskan	-11.3269
▁dynasti	-11.3269
demokratisk	-11.3271
▁växten	-11.3273
kines	-11.3273
▁omgångar	-11.3273
▁revolutionära	-11.3273
▁bab	-11.3273
▁atmosfären	-11.3276
rytm	-11.3279
▁fynden	-11.3281
▁karaktärisera	-11.3281
▁nyår	-11.3282
massor	-11.3282
▁sågverk	-11.3283
▁egendomen	-11.3284
▁påvisa	-11.329
måleri	-11.3291
▁östersjö	-11.3294
timm	-11.3296
▁ryssar	-11.3297
sångare	-11.3298
▁vest	-11.3298
frukt	-11.3299
professor	-11.33
hår	-11.33
▁finansminister	-11.3307
väder	-11.331
plattor	-11.331
▁anfalla	-11.3312
▁sårade	-11.3313
▁ockupera	-11.3314
▁top	-11.3316
▁ersatts	-11.3318
▁hertigdömet	-11.3318
▁uppbyggd	-11.3319
▁hjärtat	-11.332
▁sannolikhet	-11.332
boende	-11.3322
▁klas	-11.3327
▁riddaren	-11.3327
▁lanserade	-11.3327
▁pressen	-11.3328
▁sydliga	-11.3329
▁anlade	-11.3329
▁xiii	-11.3329
▁vackra	-11.333
koncept	-11.3331
▁anckarström	-11.3331
▁ekvatorn	-11.3331
▁folkrikaste	-11.3331
▁pionjär	-11.3331
▁saddam	-11.3331
skäl	-11.3332
▁beskow	-11.3332
▁leksand	-11.3332
▁riksdagsvalet	-11.3332
▁sanna	-11.3333
▁group	-11.3333
övergripande	-11.3333
▁tilldelas	-11.3333
▁eskil	-11.3333
▁nödvändigtvis	-11.3333
▁flygvapnet	-11.3333
▁nepal	-11.3333
▁utkämpades	-11.3334
▁balkan	-11.3335
▁kalium	-11.3336
▁stämning	-11.3336
▁härledas	-11.3337
▁löd	-11.3338
▁definierade	-11.3342
▁mit	-11.3342
▁återtog	-11.3343
▁zeus	-11.3345
▁sax	-11.3345
deklaration	-11.3346
▁själland	-11.3347
▁riddarhuset	-11.3349
skärm	-11.335
▁besläktade	-11.335
▁(12	-11.3355
▁förmågan	-11.3355
▁samväldet	-11.3356
▁säng	-11.3356
▁publicering	-11.3358
▁uppgifterna	-11.3358
▁parterna	-11.3361
▁wer	-11.3363
▁soldat	-11.3363
▁stopp	-11.3363
▁kaj	-11.3364
▁skadade	-11.3365
ycka	-11.3366
▁gärning	-11.3371
kommissionen	-11.3372
▁asatro	-11.3372
▁stärkte	-11.3373
–12	-11.3376
traktor	-11.3379
kedjan	-11.3383
mond	-11.3387
▁placerat	-11.339
▁hört	-11.339
▁utarbeta	-11.3393
▁freja	-11.3396
▁avstå	-11.3396
låg	-11.3397
▁invid	-11.3397
visar	-11.34
europa	-11.3402
▁fullborda	-11.3403
reserv	-11.3405
resultat	-11.3406
filosofi	-11.3407
▁tävlade	-11.3409
exempelvis	-11.3409
▁lax	-11.3411
▁kapitalismen	-11.3412
▁utgåva	-11.3415
▁händelserna	-11.3417
▁arrangerades	-11.3421
▁djursholms	-11.3421
4,5	-11.3426
▁vindar	-11.3428
▁hände	-11.3438
▁ecuador	-11.344
▁hänseende	-11.344
▁nämnt	-11.344
▁pappenheim	-11.344
▁rekommendation	-11.344
▁rubrik	-11.344
▁estniska	-11.344
▁landskrona	-11.3441
▁perfekt	-11.3441
▁inneha	-11.3442
▁sprick	-11.3442
ladugård	-11.3442
▁alaska	-11.3442
▁bergslagen	-11.3442
▁götaland	-11.3442
▁sjunga	-11.3443
▁återspegla	-11.3443
▁reagera	-11.3444
▁plocka	-11.3444
▁albin	-11.3445
▁hörsel	-11.3447
branschen	-11.3449
▁klassen	-11.3451
▁olycka	-11.3453
▁upptäcka	-11.3453
präst	-11.3453
▁kryp	-11.3456
▁försiktig	-11.3458
▁nedanför	-11.346
▁egyptiska	-11.3463
▁försörja	-11.3463
▁loke	-11.3465
utspelar	-11.3466
▁pyramid	-11.3471
formad	-11.3472
▁gode	-11.3472
▁bröllopet	-11.3473
▁östberg	-11.3474
psyk	-11.3476
▁skadades	-11.3479
▁nationalekonomi	-11.3482
▁ingått	-11.3482
regelbundna	-11.3483
djup	-11.3484
▁götalands	-11.3501
sjukhus	-11.3505
evolution	-11.3506
▁ful	-11.3506
▁brevet	-11.3511
▁buddhistisk	-11.3515
ianus	-11.3518
rök	-11.3519
väsende	-11.3519
▁allvarlig	-11.3519
dubbla	-11.3519
villkor	-11.3519
cykel	-11.352
växande	-11.352
frö	-11.3521
▁fc	-11.3522
▁lundberg	-11.3524
▁journalister	-11.3524
▁svarar	-11.3528
▁skivor	-11.3531
▁sco	-11.3534
▁biologi	-11.3538
▁erhålla	-11.3539
lich	-11.354
▁likna	-11.354
▁värdighet	-11.354
illo	-11.3541
▁kongressen	-11.3542
▁beta	-11.3542
▁sannolikheten	-11.3544
kläder	-11.3544
▁saken	-11.3544
▁wales	-11.3545
sluttning	-11.3549
▁domestic	-11.355
▁ryckte	-11.355
▁manuskript	-11.355
▁flandern	-11.355
▁slutsatsen	-11.355
▁sierra	-11.355
mässan	-11.355
mekanism	-11.355
▁riksarkivet	-11.3551
löshet	-11.3552
lycka	-11.3552
isch	-11.3553
vision	-11.3553
▁asyl	-11.3554
▁löst	-11.3554
▁kvarstod	-11.3554
stråk	-11.3555
▁sävar	-11.3556
aux	-11.3556
▁sysselsättning	-11.3557
▁göring	-11.3557
▁läggs	-11.3557
▁storskalig	-11.3558
▁gold	-11.3558
▁750	-11.3559
▁bevarande	-11.3563
sförhandlingar	-11.3568
förhållande	-11.3569
▁140	-11.3572
▁innehar	-11.3574
smältning	-11.3575
thy	-11.3577
kanaler	-11.3577
järnväg	-11.3578
▁vy	-11.3582
▁tunnel	-11.3583
▁tyskt	-11.3589
▁turnera	-11.3592
bladet	-11.3593
▁svårare	-11.36
▁partner	-11.3602
trakter	-11.3604
▁utf	-11.3613
▁besegrat	-11.3619
▁tjänstemän	-11.3619
statliga	-11.3619
▁helig	-11.3619
–13	-11.3621
▁synonymt	-11.3621
list	-11.3622
▁preussisk	-11.3624
▁passerade	-11.3625
▁rotera	-11.3625
karta	-11.3626
▁förekomsten	-11.3626
▁religiöst	-11.3628
▁skriften	-11.363
formation	-11.3631
inklusiv	-11.3632
ledamöter	-11.3632
yta	-11.3633
▁hjälte	-11.3635
▁dagstidning	-11.3635
yan	-11.3643
▁misslyckade	-11.365
▁lägenhet	-11.3655
▁införliva	-11.3658
▁nürnberg	-11.3661
▁subtropisk	-11.3661
▁tammerfors	-11.3661
▁barrskog	-11.3661
▁dessförinnan	-11.3661
▁misslyckat	-11.3661
▁behärska	-11.3661
▁hisingen	-11.3661
▁folkrepubliken	-11.3661
▁initial	-11.3661
▁power	-11.3661
▁synnerlig	-11.3661
▁midsommar	-11.3661
▁sekulär	-11.3661
▁utsläpp	-11.3661
▁grevlig	-11.3662
▁kopia	-11.3662
▁club	-11.3662
inskription	-11.3662
äpple	-11.3662
▁möbel	-11.3662
▁bevaka	-11.3662
▁xml	-11.3663
numret	-11.3663
▁kattdjur	-11.3664
▁frost	-11.3664
▁självstyre	-11.3665
▁korset	-11.3668
▁gitarr	-11.3668
▁florens	-11.367
phi	-11.3672
formerna	-11.3673
juk	-11.3674
förkortat	-11.3675
▁angav	-11.3676
körtlar	-11.3678
tolkning	-11.3679
▁långsam	-11.3679
▁katten	-11.3682
▁somrarna	-11.3683
▁exe	-11.3683
▁ekologisk	-11.3684
▁tidsperiod	-11.3687
▁kontinenter	-11.3687
▁generera	-11.3688
båda	-11.369
skeppet	-11.3693
▁urin	-11.3694
avrinningsområde	-11.3697
▁dominera	-11.3698
affären	-11.3701
▁tidningarna	-11.3703
▁middag	-11.3712
kyl	-11.3715
▁rusta	-11.3716
nivån	-11.3717
▁salen	-11.3717
▁200-	-11.3721
▁kli	-11.3721
▁positioner	-11.3723
▁nora	-11.3723
▁skivbolag	-11.3724
▁fredag	-11.3726
▁placera	-11.373
▁bränslen	-11.3734
förande	-11.3735
afrikanska	-11.3736
▁konspiration	-11.3741
▁beredd	-11.3744
försörjning	-11.3745
august	-11.3745
▁omgivningen	-11.3746
ktlig	-11.3746
konsul	-11.3748
▁stjärnan	-11.3748
silver	-11.3749
▁550	-11.3751
▁bjöd	-11.3752
▁grenen	-11.3753
abba	-11.3755
fattning	-11.3761
▁sändning	-11.3762
▁marina	-11.3762
tider	-11.3762
▁utlopp	-11.3763
▁tyngd	-11.3763
▁eleverna	-11.3767
▁marskalk	-11.3767
▁molekyler	-11.3768
▁gravid	-11.377
▁kungarna	-11.3771
ösa	-11.3772
just	-11.3772
▁prosa	-11.3772
fotograf	-11.3772
▁ragnar	-11.3773
kommissarie	-11.3773
try	-11.3773
▁restaurera	-11.3773
▁katolicism	-11.3773
▁kvalificera	-11.3773
▁slovakien	-11.3773
▁tunisien	-11.3773
▁myanmar	-11.3773
▁kjell	-11.3773
▁föreställer	-11.3774
▁västgötalagen	-11.3774
odemus	-11.3774
▁arrende	-11.3774
▁ingmar	-11.3774
▁järnmalm	-11.3775
▁datering	-11.3775
utbildad	-11.3776
▁godwin	-11.3776
▁ceder	-11.3777
rapport	-11.3777
hud	-11.3781
▁stäm	-11.3781
▁utsatte	-11.3786
▁nätet	-11.3787
▁bjär	-11.3788
▁onda	-11.3789
ordnar	-11.3791
▁agent	-11.3795
▁drivande	-11.3798
▁leta	-11.3799
▁byten	-11.3801
sökning	-11.3802
▁avgjorde	-11.3803
▁belägringen	-11.3803
fyra	-11.3804
▁visste	-11.3806
▁tsaren	-11.3809
▁elsa	-11.3812
▁motståndet	-11.3812
satsning	-11.3813
▁granska	-11.3816
▁hertigarna	-11.3826
▁gyllenstierna	-11.3826
▁tillägna	-11.3827
▁borgerlig	-11.3827
▁gädda	-11.3828
▁fascismen	-11.383
▁öre	-11.3832
idrottsförbund	-11.3835
▁ekologi	-11.3836
▁rimlig	-11.3836
indelning	-11.3839
speglar	-11.384
föroreningar	-11.3844
▁hammar	-11.3846
▁hytt	-11.3847
▁450	-11.3849
artiklar	-11.3849
▁80-	-11.385
▁föreställningen	-11.3853
regeln	-11.3855
detta	-11.3855
▁älvdal	-11.3855
▁räddade	-11.3859
kejsar	-11.386
▁skrifterna	-11.386
skivor	-11.3861
procent	-11.3862
kommande	-11.3865
regimen	-11.3866
arkivet	-11.3872
▁överföring	-11.3872
▁kök	-11.3873
berlin	-11.3874
▁omges	-11.3877
▁godkänna	-11.3877
▁stycke	-11.3879
▁sysselsätt	-11.388
▁furstar	-11.388
▁tiotal	-11.3884
subjekt	-11.3887
▁ludwig	-11.3887
▁persepolis	-11.3887
▁balans	-11.3887
▁bagdad	-11.3887
▁finansiering	-11.3887
▁monaco	-11.3887
▁kvarlevor	-11.3887
▁nunnor	-11.3887
▁platina	-11.3887
tecknen	-11.3887
▁karlshamn	-11.3888
▁upptogs	-11.3888
▁stämmer	-11.3888
▁körde	-11.3889
▁arlöv	-11.389
▁läder	-11.389
▁bredband	-11.3892
▁bakåt	-11.3892
första	-11.3894
ante	-11.3896
▁härstammade	-11.3898
▁smör	-11.3902
kust	-11.3903
▁markant	-11.3904
▁ogift	-11.3904
▁närhet	-11.3905
▁begå	-11.3906
▁kustlinje	-11.3906
▁utsatta	-11.3908
▁adliga	-11.3909
skrivare	-11.3909
▁helge	-11.391
▁profeter	-11.391
villa	-11.3916
▁moderat	-11.3916
▁förespråkar	-11.3918
▁line	-11.3918
▁ledamöterna	-11.3919
▁senator	-11.3921
▁förefall	-11.3922
▁sammanträde	-11.3925
kapell	-11.3927
▁hittat	-11.3928
▁federation	-11.3928
1991	-11.3929
▁arrangemang	-11.3932
▁kapitel	-11.3932
▁fastställa	-11.3935
▁tomas	-11.3936
▁belägrade	-11.3936
▁grundämnet	-11.3936
arkeolog	-11.3937
▁edda	-11.3939
▁svearna	-11.3945
▁proportion	-11.3949
▁läst	-11.395
direktiv	-11.3954
▁fysiskt	-11.3956
▁tunna	-11.3959
▁filmerna	-11.396
bygget	-11.3962
▁gata	-11.3966
▁legering	-11.3967
▁heltal	-11.3972
skildring	-11.3976
ingenjör	-11.3976
signal	-11.3977
▁reglering	-11.3978
▁förstod	-11.3978
frank	-11.3979
kärlek	-11.3981
▁huvudbyggnaden	-11.3982
▁norman	-11.3984
▁blind	-11.3986
▁kandidater	-11.399
▁arch	-11.3993
▁kräva	-11.3993
▁gudinna	-11.3997
danska	-11.3998
▁suverän	-11.3998
buddhism	-11.4
kompani	-11.4001
▁försvunnit	-11.4002
▁hybrid	-11.4002
▁kalcium	-11.4002
▁moldavien	-11.4002
▁narkotika	-11.4002
▁översvämningar	-11.4002
explosion	-11.4002
▁cricket	-11.4002
▁föga	-11.4002
▁fiktiv	-11.4002
▁härled	-11.4002
leverantör	-11.4003
▁dekorativ	-11.4003
sekvens	-11.4003
▁försvåra	-11.4004
▁panama	-11.4004
▁återställa	-11.4004
▁kasus	-11.4004
▁färdigställdes	-11.4006
▁levt	-11.4006
▁mäktig	-11.4007
▁syntes	-11.4012
▁gjut	-11.4012
▁ordbok	-11.4013
▁gross	-11.4017
▁skapad	-11.4017
spor	-11.4017
▁party	-11.402
▁inträffar	-11.4021
▁marknadsekonomi	-11.4021
300	-11.4022
witz	-11.4023
▁fylla	-11.4027
▁skildring	-11.4028
gol	-11.403
▁francis	-11.4031
skuld	-11.4033
ministern	-11.4035
▁spelarna	-11.4035
▁läsare	-11.4037
▁slavhandeln	-11.4039
▁lagring	-11.4039
▁grekiskans	-11.4039
issa	-11.4041
▁muslimsk	-11.4047
▁café	-11.4048
▁erövrat	-11.405
▁grott	-11.4053
▁efterfrågan	-11.4054
▁förvärva	-11.4057
biblioteket	-11.4057
▁hörnet	-11.4057
▁vag	-11.4059
utvecklad	-11.4062
▁bog	-11.4068
▁mari	-11.4068
▁individuella	-11.407
▁scener	-11.4077
iko	-11.4084
▁adelsmän	-11.4086
▁begränsningar	-11.4087
vanlig	-11.4087
▁söndagen	-11.4088
botten	-11.4092
kapacitet	-11.4094
utsätts	-11.4095
personal	-11.4102
straff	-11.4102
uttal	-11.4108
iansk	-11.4108
▁utarbetade	-11.4111
▁betyda	-11.4113
▁beskrivit	-11.4117
inspelning	-11.4117
▁kvicksilver	-11.4118
inflammation	-11.4118
▁advokat	-11.4118
▁himlakropp	-11.4118
▁mexico	-11.4118
▁potentiell	-11.4118
▁representativ	-11.4118
▁ribbing	-11.4118
▁rädsla	-11.4118
▁saturnus	-11.4118
▁sjunkit	-11.4118
▁återhämta	-11.4118
▁beträffande	-11.4118
▁company	-11.4118
▁beirut	-11.4118
▁basilika	-11.4118
▁thiel	-11.4118
▁granskning	-11.4118
▁fastslog	-11.4118
▁harrison	-11.4118
▁fysikalisk	-11.4119
▁motiveringen	-11.412
▁borås	-11.4124
▁skjuta	-11.4124
▁revir	-11.4125
tagg	-11.4125
▁broms	-11.4125
oto	-11.4126
▁uppfört	-11.4126
akademi	-11.4127
▁bensin	-11.4127
▁knop	-11.4128
▁låtit	-11.4128
▁terminologi	-11.413
▁bekostnad	-11.413
prövning	-11.4132
▁påståenden	-11.4133
▁kommunvapen	-11.4134
▁dyrka	-11.4134
▁besatt	-11.4139
▁flam	-11.4141
▁passiv	-11.4143
▁inrättade	-11.4143
▁djurliv	-11.4144
▁huvudperson	-11.4145
▁utdela	-11.4145
▁egentlig	-11.4147
▁upplöst	-11.4149
▁medborgarna	-11.415
▁framkalla	-11.4152
svampar	-11.4152
▁överlevande	-11.4153
▁höjdpunkt	-11.4155
▁lenin	-11.4156
▁författar	-11.4158
▁dagbok	-11.4161
▁samtiden	-11.4168
cla	-11.4171
▁hiv	-11.4172
biologi	-11.4173
▁undervisade	-11.4173
▁kommersiellt	-11.4173
▁artilleriet	-11.4174
▁skifta	-11.4174
▁niger	-11.418
liden	-11.4181
▁sigrid	-11.4188
▁länk	-11.419
▁frön	-11.419
▁genren	-11.4193
▁nämnder	-11.4193
rag	-11.4195
▁zu	-11.4195
▁österrikisk	-11.4199
▁väsentligt	-11.4199
chal	-11.4204
▁melodin	-11.4207
pelle	-11.4209
molekyl	-11.4212
▁erövringen	-11.4213
▁motorvägen	-11.4215
låda	-11.4217
back	-11.4221
▁inrikta	-11.4224
▁kemist	-11.4224
▁respekt	-11.4225
▁akademisk	-11.4226
mellan	-11.4228
▁american	-11.4228
flygplan	-11.4231
▁rou	-11.4231
▁plundrade	-11.4233
▁absorbera	-11.4236
▁augsburg	-11.4236
▁bangladesh	-11.4236
▁ihjäl	-11.4236
▁kännedom	-11.4236
▁latitud	-11.4236
▁malaysia	-11.4236
▁manhattan	-11.4236
▁pseudonym	-11.4236
▁upphävde	-11.4236
▁plundring	-11.4236
▁qatar	-11.4236
mammut	-11.4236
▁friherrlig	-11.4236
▁uraliska	-11.4236
bulgar	-11.4236
▁edith	-11.4237
▁asplund	-11.4237
▁fågelarter	-11.4237
▁kolonialtiden	-11.4238
▁slagfältet	-11.4238
▁high	-11.4238
▁anslag	-11.424
▁alkemi	-11.424
▁astronomisk	-11.4243
▁leonardo	-11.4246
▁godkännande	-11.4247
häft	-11.4247
▁belagt	-11.4248
▁gps	-11.4248
sägelse	-11.4248
skifte	-11.4253
▁framväxt	-11.4253
▁geometri	-11.4255
▁psalmen	-11.4258
▁författade	-11.4259
▁slaviska	-11.426
▁dialekterna	-11.4262
▁botaniska	-11.4262
▁sköta	-11.4264
▁sou	-11.4267
▁utgivna	-11.4267
▁stödet	-11.4268
▁tuna	-11.4269
▁mäta	-11.4269
▁koka	-11.427
▁tyst	-11.4271
▁tryckta	-11.4271
▁erlander	-11.4271
▁lima	-11.4272
▁omnämnd	-11.4275
–202	-11.4279
▁wasa	-11.4279
konung	-11.4281
▁tonga	-11.4281
▁inhemsk	-11.4284
▁fredlig	-11.4284
▁farliga	-11.4286
▁utrusta	-11.4288
▁försäkra	-11.4289
▁grafiska	-11.429
▁grundval	-11.4295
▁indisk	-11.4296
▁fluor	-11.4297
▁privatliv	-11.4297
▁sab	-11.4298
porträtt	-11.43
▁trängde	-11.4303
▁utnämnd	-11.4303
▁influera	-11.4304
▁tåget	-11.4307
▁därvid	-11.4316
regn	-11.4317
▁tekniskt	-11.4322
förvärv	-11.4328
ungefär	-11.4334
▁index	-11.4334
butik	-11.434
prins	-11.4342
▁standardisera	-11.4342
▁home	-11.435
▁inleda	-11.4351
pär	-11.4352
▁emigrera	-11.4355
▁erkänt	-11.4355
▁karakteristisk	-11.4355
▁konsensus	-11.4355
▁tillkännagav	-11.4355
▁tokyo	-11.4355
▁zambia	-11.4355
bevakning	-11.4355
▁sundbyberg	-11.4355
▁edsbyn	-11.4355
▁landstigning	-11.4355
▁förvaltar	-11.4355
▁djurgårds	-11.4355
▁påtryckningar	-11.4355
▁möjliggjorde	-11.4355
▁falkenberg	-11.4356
▁brutal	-11.4356
▁grind	-11.4356
▁uppnådde	-11.4356
▁meditation	-11.4356
▁åttonde	-11.4356
▁värst	-11.4358
▁pansar	-11.4358
fjorden	-11.4359
bac	-11.4359
▁bjur	-11.4359
▁wahl	-11.4359
beredning	-11.436
paret	-11.4361
▁förstärkningar	-11.4361
▁vrak	-11.4362
▁förvaras	-11.4365
▁riktiga	-11.4366
▁serveras	-11.4366
▁1847	-11.4367
icum	-11.4368
▁1811	-11.437
▁västafrika	-11.4371
▁kamel	-11.4371
motstånd	-11.4374
bakterie	-11.4375
▁märklig	-11.4376
hundar	-11.4378
▁beställning	-11.4379
▁lämpliga	-11.4381
institution	-11.4383
▁historier	-11.439
▁ägaren	-11.439
▁likväl	-11.4392
▁amerikaner	-11.4398
▁nutid	-11.4398
▁stadfäst	-11.4398
▁nam	-11.4399
▁ört	-11.4401
▁förvandla	-11.4401
▁inriktade	-11.4407
värt	-11.4408
▁synlig	-11.4411
▁tänkare	-11.4413
▁fästningen	-11.4413
▁diktning	-11.4415
▁passade	-11.4416
tysk	-11.442
▁bronsålder	-11.4421
▁koncentrerad	-11.4421
▁européerna	-11.4421
▁unikt	-11.4431
▁skeppslag	-11.4436
▁mandatperiod	-11.4437
hak	-11.4439
tjärn	-11.4447
pati	-11.4448
▁spinn	-11.4455
▁skänk	-11.4457
▁intag	-11.4458
isation	-11.446
▁erbjudande	-11.446
▁bergig	-11.4462
geografi	-11.4463
▁mäter	-11.4464
▁japansk	-11.4469
▁genomslag	-11.4472
▁benin	-11.4472
jacques	-11.4475
▁belönades	-11.4475
▁council	-11.4475
▁factbook	-11.4475
▁fortplantning	-11.4475
▁jerevan	-11.4475
▁jylland	-11.4475
▁kazakstan	-11.4475
▁mexikansk	-11.4475
▁sölvesborg	-11.4475
▁dominans	-11.4475
▁kabul	-11.4475
▁nybildade	-11.4476
▁tintin	-11.4476
▁storhetstid	-11.4476
▁batteri	-11.4476
▁diamant	-11.4476
▁kvant	-11.4476
▁trång	-11.4476
▁jens	-11.4476
▁instans	-11.4477
▁siljan	-11.4477
▁östgöta	-11.4477
synpunkt	-11.4478
▁dalälven	-11.4478
▁inleds	-11.4478
▁orange	-11.4479
▁ledda	-11.4479
▁karolinska	-11.448
▁psykoser	-11.448
täkt	-11.4483
▁witt	-11.4483
fyndigheter	-11.4483
▁platå	-11.4484
▁vintertid	-11.4484
▁femtio	-11.4486
festivalen	-11.449
▁vinkel	-11.4491
dragning	-11.4491
▁namngav	-11.4496
▁organiserad	-11.4498
▁holland	-11.4501
våningen	-11.4502
värdering	-11.4503
▁recept	-11.4506
▁nationalitet	-11.451
▁stenåldern	-11.4513
bussar	-11.4515
▁sigtuna	-11.4516
▁förklarat	-11.4516
▁islamisk	-11.4517
▁krönt	-11.4517
▁anklagelser	-11.4519
▁pengarna	-11.452
▁fredriksson	-11.452
uppgift	-11.4522
▁skiva	-11.4524
▁individuell	-11.4526
▁samordna	-11.4528
▁mätningar	-11.4534
tech	-11.4535
medlemmarna	-11.4535
▁oändlig	-11.4536
▁diskuterade	-11.4538
▁ryd	-11.4546
sedlar	-11.4546
▁minnet	-11.455
vänliga	-11.455
medeltid	-11.4553
▁återta	-11.456
resan	-11.4562
konstnär	-11.4564
▁omkom	-11.457
faldig	-11.4574
rött	-11.4574
turné	-11.458
banorna	-11.4581
chefen	-11.4586
▁betona	-11.4589
▁motivet	-11.4593
▁snu	-11.4593
hielm	-11.4595
▁hjälm	-11.4596
▁emanuel	-11.4597
▁vänersborg	-11.4597
▁webbläsare	-11.4597
▁xhtml	-11.4597
▁ascii	-11.4597
▁cicero	-11.4597
▁white	-11.4597
▁goethe	-11.4597
▁kompromiss	-11.4597
▁bulgariska	-11.4598
miniatyr	-11.4598
trelleborg	-11.4598
▁framträder	-11.4598
▁gravhögar	-11.4598
▁vicepresident	-11.4598
▁telegraf	-11.4598
▁schengenområdet	-11.4599
▁konfederationen	-11.4599
▁linux	-11.4599
▁näbb	-11.4599
konvent	-11.4599
▁österbotten	-11.4599
▁martyr	-11.4599
▁hyres	-11.4602
▁databas	-11.4603
▁mega	-11.4605
▁walter	-11.4606
▁skå	-11.4607
strof	-11.4609
▁1821	-11.461
▁geologiska	-11.4611
▁kostade	-11.4613
▁nationalistiska	-11.4616
▁ändringar	-11.4621
▁talang	-11.4622
▁uttalat	-11.4622
▁allmogen	-11.4625
▁studenterna	-11.4625
▁kryptering	-11.4627
▁plantera	-11.4628
texten	-11.4636
▁snabbast	-11.4636
▁forskarna	-11.4636
▁bearbetning	-11.4637
▁målar	-11.4638
▁okända	-11.4639
▁infanteriet	-11.4639
▁beskrivningar	-11.464
▁universell	-11.4641
▁modernare	-11.4646
new	-11.4646
▁afrikaner	-11.4648
▁dygnet	-11.4655
▁omgiven	-11.4658
reglering	-11.4659
▁tord	-11.4661
▁värvade	-11.4661
▁omsorg	-11.4667
▁grod	-11.4671
▁statsrådet	-11.4672
▁kartor	-11.4676
▁kim	-11.4676
fyllt	-11.4678
värja	-11.4682
hållande	-11.4683
▁bai	-11.4683
▁uppfatta	-11.4684
miljöer	-11.4689
▁partiklar	-11.469
▁klarar	-11.4692
▁rapportera	-11.4692
växlar	-11.4699
▁teoretiska	-11.4699
▁kraftverk	-11.47
▁fredspris	-11.4706
teknisk	-11.471
förklara	-11.4712
▁petro	-11.4713
ögon	-11.4718
▁hedersdoktor	-11.4721
▁maktövertagande	-11.4721
▁tjeckoslovakien	-11.4721
▁utvidgning	-11.4721
▁hergé	-11.4721
▁rymmer	-11.4721
▁urskilj	-11.4721
▁dylikt	-11.4721
▁hämnd	-11.4721
▁engdahl	-11.4721
▁riksdaler	-11.4721
▁centralasien	-11.4721
▁hindi	-11.4722
▁morfologi	-11.4722
▁jöns	-11.4722
▁julkalender	-11.4723
▁jönsson	-11.4723
▁mogna	-11.4723
▁kupol	-11.4724
▁finländska	-11.4724
▁fornsvenska	-11.4725
▁slutsatser	-11.4726
fattig	-11.4727
▁landsteg	-11.4728
▁tjur	-11.4729
kanal	-11.4732
skador	-11.4733
▁1839	-11.4733
▁1816	-11.4733
▁processor	-11.4737
norge	-11.4739
▁serber	-11.474
▁axelsson	-11.4741
▁simma	-11.4742
▁betonar	-11.4744
▁runsten	-11.4745
▁must	-11.4747
indian	-11.4748
▁värt	-11.475
▁varuhus	-11.4755
▁stamfader	-11.4756
▁lasse	-11.4761
▁förespråkare	-11.4764
▁1770	-11.4765
video	-11.4769
▁resande	-11.4773
bach	-11.4773
▁sydafrikansk	-11.4775
▁glädje	-11.4777
klädd	-11.4779
▁västerländsk	-11.4779
work	-11.4783
▁undervisa	-11.4784
▁avslöjade	-11.4784
▁linde	-11.4787
▁segra	-11.4788
brödra	-11.4788
utvecklingen	-11.4792
sånger	-11.4792
▁bataljon	-11.4793
▁domän	-11.4798
▁centralstation	-11.4799
▁stjärnorna	-11.4799
▁vikingar	-11.4801
▁bett	-11.4805
▁fåglarna	-11.4808
pop	-11.4817
▁versal	-11.4817
▁skärm	-11.4818
wil	-11.482
artist	-11.4823
▁manuel	-11.4823
▁lansera	-11.4824
▁hydro	-11.4825
gustaf	-11.4831
artad	-11.4831
▁medverkan	-11.4832
▁scientologi	-11.4833
▁betecknade	-11.4833
▁nybro	-11.4834
▁sönerna	-11.4834
▁byarna	-11.4835
arkiv	-11.4836
mässig	-11.4838
▁ersatt	-11.4838
förbud	-11.4842
besök	-11.4842
▁brittiskt	-11.4843
▁bahrain	-11.4846
▁baltikum	-11.4846
▁everest	-11.4846
▁kattegatt	-11.4846
▁protektorat	-11.4846
▁sleipner	-11.4846
▁änkedrottning	-11.4846
▁tvivel	-11.4846
▁html	-11.4846
▁kosmologi	-11.4846
▁theodor	-11.4846
▁illegal	-11.4846
▁försvarsmakten	-11.4846
▁häradshövding	-11.4846
▁burundi	-11.4846
▁apollo	-11.4846
▁osmanerna	-11.4846
▁uppgörelse	-11.4846
▁återförena	-11.4846
▁kompaniet	-11.4846
▁redigera	-11.4847
▁elitserien	-11.4847
▁härjade	-11.4847
▁östtyskland	-11.4847
▁guldmedalj	-11.4848
▁blank	-11.4848
▁gabon	-11.4848
▁fotografi	-11.4849
▁gerhard	-11.4849
▁kapstaden	-11.4849
▁glo	-11.4849
▁ovanlig	-11.4851
▁ovanpå	-11.4851
▁påstås	-11.4851
▁erhållit	-11.4852
▁sanningen	-11.4852
▁spridd	-11.4852
▁orkan	-11.4854
▁bål	-11.4854
egendom	-11.4854
▁folkslag	-11.4858
▁1845	-11.4859
▁prop	-11.4859
▁1851	-11.486
▁facklig	-11.4861
▁befriade	-11.4863
▁sociolog	-11.4863
▁parlamentsvalet	-11.4864
▁engels	-11.4865
▁troligt	-11.4866
▁avfärda	-11.4868
virus	-11.4868
▁rån	-11.4872
flottan	-11.4874
cap	-11.4874
▁kopplat	-11.4877
nordisk	-11.4878
skred	-11.4879
▁dagstidningar	-11.4879
▁knutpunkt	-11.4879
▁världsliga	-11.488
▁great	-11.488
maritim	-11.4881
▁markerade	-11.4883
▁1697	-11.4886
▁försörjning	-11.4887
▁stadium	-11.4887
▁kommunismen	-11.489
▁mg	-11.4892
▁noterade	-11.4893
▁fördöm	-11.4895
▁fame	-11.4896
term	-11.4896
förfarande	-11.4897
▁kontext	-11.4899
glo	-11.4901
▁utnämning	-11.4907
▁beslutande	-11.4908
sträng	-11.4909
▁fabriker	-11.491
▁assist	-11.4914
▁kala	-11.4923
▁nasa	-11.4924
▁ingående	-11.4933
▁folkliga	-11.4933
kärnor	-11.4934
▁alba	-11.4936
▁allsvenska	-11.4937
▁minsk	-11.4937
splaner	-11.4938
belysning	-11.4941
▁ängs	-11.4944
orientera	-11.4947
▁riksdagsman	-11.4948
förband	-11.4949
▁nobelpris	-11.4949
säter	-11.4951
beroende	-11.4953
▁hett	-11.4954
public	-11.4959
division	-11.4961
profil	-11.4961
tyskland	-11.4963
fasad	-11.4965
▁instabil	-11.4965
▁aktier	-11.4966
▁kolonn	-11.4969
makare	-11.4972
▁guatemala	-11.4972
▁intellektuella	-11.4972
▁istanbul	-11.4972
▁plutonium	-11.4972
▁salvador	-11.4972
potential	-11.4972
▁rekonstruera	-11.4972
▁neapel	-11.4972
▁uppslagsverk	-11.4972
▁botanik	-11.4973
▁fastigheten	-11.4973
▁kairo	-11.4973
oskarshamn	-11.4973
▁fornminnen	-11.4973
▁dramatik	-11.4973
▁ansträngningar	-11.4973
▁gregor	-11.4973
▁normalspår	-11.4974
▁mariefred	-11.4974
▁riddarholmen	-11.4974
årsperiod	-11.4974
▁landsflykt	-11.4974
▁holländska	-11.4974
▁lysande	-11.4975
▁kisel	-11.4976
▁vittnar	-11.4976
▁täcka	-11.4978
▁billigare	-11.4979
night	-11.4979
▁brud	-11.4982
▁stormän	-11.4983
tillverkaren	-11.4983
▁lindh	-11.4986
▁utmaning	-11.4986
rymd	-11.4987
▁blodiga	-11.4987
▁kryddor	-11.4987
▁rotation	-11.4988
epidemi	-11.4993
▁jordbävning	-11.4994
▁kolonner	-11.4996
right	-11.5
▁marg	-11.5
▁textilier	-11.5002
▁3,5	-11.5002
▁järnvägarna	-11.5004
▁krydda	-11.5008
texter	-11.5011
▁1648	-11.5011
▁undertecknade	-11.5015
▁lp	-11.5016
▁djupare	-11.5017
feldt	-11.5017
▁marsk	-11.5017
▁1790	-11.5018
psykologi	-11.5021
▁trav	-11.5022
▁invigd	-11.5025
▁mottagande	-11.5027
▁borgare	-11.5031
▁lagra	-11.5036
föreståndare	-11.504
▁planerat	-11.5041
▁bebodde	-11.5042
▁undersökte	-11.5044
▁borgmästaren	-11.5046
▁undantaget	-11.5049
trans	-11.505
stark	-11.5052
▁jämnt	-11.5052
▁intressera	-11.5053
▁relatera	-11.5053
▁mottagaren	-11.5055
▁misstag	-11.5058
▁vilt	-11.5063
▁antar	-11.5064
▁maxim	-11.5068
▁åtgärd	-11.5072
▁elektroniska	-11.5076
▁införts	-11.5078
▁shia	-11.5078
▁ändring	-11.5078
▁paket	-11.508
▁självbiografi	-11.5082
hai	-11.5082
trogen	-11.5083
bä	-11.5083
olof	-11.5084
▁big	-11.5085
▁1808	-11.5085
dyrkan	-11.5087
främst	-11.5089
▁stabilisera	-11.5089
▁marknader	-11.509
kapital	-11.5092
▁ledarna	-11.5093
gränd	-11.5093
redskap	-11.5094
▁missionärer	-11.5094
fysiologi	-11.5095
kabinett	-11.5097
▁bergslag	-11.5098
lyft	-11.5098
▁nsdap	-11.5101
▁föranledde	-11.5101
▁ljubljana	-11.5101
▁relevant	-11.5101
▁sicilien	-11.5101
▁dricksvatten	-11.5101
▁grönsaker	-11.5101
iki	-11.5101
▁sommarspelen	-11.5101
▁hussein	-11.5101
▁anpassning	-11.5101
▁rankade	-11.5101
overall	-11.5101
▁uppenbart	-11.5101
▁överstelöjtnant	-11.5101
mekanik	-11.5101
▁brown	-11.5101
▁ordförråd	-11.5101
▁syssla	-11.5101
▁riksmarskalk	-11.5102
▁världsrekord	-11.5102
förvaltning	-11.5105
▁dokumenterade	-11.5105
▁vistas	-11.5105
▁platta	-11.5107
▁fascistiska	-11.5109
▁camping	-11.511
▁schön	-11.5111
▁prata	-11.5111
▁störtades	-11.5112
bruten	-11.5115
▁invånarantalet	-11.5115
▁fungerande	-11.5117
▁nationalsång	-11.5118
dök	-11.5118
behov	-11.5119
▁varmare	-11.512
▁bitter	-11.512
▁force	-11.5121
▁spara	-11.5121
▁kullar	-11.5121
▁innefattade	-11.5123
▁1791	-11.5126
▁språkbruk	-11.5127
ington	-11.5127
▁hedra	-11.5131
▁1772	-11.5131
▁torv	-11.5133
▁absoluta	-11.5143
▁kock	-11.5145
ministrar	-11.5146
▁1756	-11.5148
▁1654	-11.5148
▁inträdde	-11.5148
▁sound	-11.5149
▁tål	-11.5149
▁genetisk	-11.5162
bestånd	-11.5163
▁medelhavs	-11.5164
▁kalv	-11.5167
lilla	-11.5169
▁mangan	-11.5169
▁flygbolag	-11.5172
säsongen	-11.5174
▁tex	-11.5179
byrån	-11.5182
▁loket	-11.5185
skiftet	-11.5187
skåp	-11.5188
▁klot	-11.5191
▁knyta	-11.5194
fej	-11.5194
▁skulder	-11.5196
ologer	-11.5196
▁wolf	-11.5199
▁pir	-11.52
blomma	-11.5201
▁möter	-11.5202
▁omvandlade	-11.5205
▁högtider	-11.5206
▁stab	-11.5208
▁taxi	-11.521
golv	-11.5214
▁vidsträckta	-11.5215
▁tyg	-11.5216
medlem	-11.5219
▁stadsbild	-11.522
skyldig	-11.522
▁slät	-11.5221
frälse	-11.5221
▁nordlig	-11.5222
stjärnor	-11.5223
arabiska	-11.5224
▁sor	-11.5228
främling	-11.5231
encyklopedi	-11.5231
olyckor	-11.5231
▁bojkott	-11.5231
▁haddock	-11.5231
▁massachusetts	-11.5231
▁namibia	-11.5231
▁sävsjö	-11.5231
▁bonnier	-11.5231
▁neutralitet	-11.5231
poäng	-11.5231
▁uppkallat	-11.5231
▁sharia	-11.5231
▁hyllning	-11.5232
▁romantiken	-11.5233
▁makarna	-11.5233
▁wilson	-11.5234
▁legenden	-11.5234
sjukdom	-11.5235
▁gruvor	-11.5235
▁yoga	-11.5235
▁centern	-11.5236
hyll	-11.5237
▁komedi	-11.5241
amerikansk	-11.5242
innehåll	-11.5244
▁demonstrationer	-11.5245
▁referenser	-11.5245
▁aires	-11.5247
▁specialiserade	-11.525
stierna	-11.5253
▁pjäser	-11.5256
▁intressanta	-11.5257
människan	-11.5257
▁älskade	-11.5258
▁erhåll	-11.5262
förhållandena	-11.5264
▁kub	-11.5267
hållare	-11.5269
▁östliga	-11.5273
▁dominerat	-11.5274
▁utgåvan	-11.5279
▁livlig	-11.5279
middag	-11.528
▁överge	-11.5282
▁runtom	-11.5284
▁khan	-11.5288
proto	-11.5291
▁fantomen	-11.5292
▁1650	-11.5298
▁omedelbar	-11.5299
▁genomsnittet	-11.5299
▁hittar	-11.5301
▁utökade	-11.5304
▁antyd	-11.5305
▁fallit	-11.5312
vitamin	-11.5313
▁tå	-11.5313
▁road	-11.5314
▁music	-11.5316
▁trafikerade	-11.5317
▁sho	-11.5321
begrepp	-11.5328
▁utförd	-11.5329
▁wol	-11.533
amerika	-11.533
▁finlandssvenska	-11.5334
▁teman	-11.5336
hälso	-11.5343
▁trädgårdar	-11.5344
spänning	-11.5353
monument	-11.5353
student	-11.5354
bau	-11.5354
gudstjänst	-11.5354
främja	-11.5355
holstein	-11.5355
hemmet	-11.5357
hamra	-11.536
▁utropa	-11.5362
kedjor	-11.5362
▁kontrovers	-11.5362
▁åsyfta	-11.5362
▁ingrediens	-11.5362
▁borlänge	-11.5362
▁jordskorpan	-11.5362
▁santiago	-11.5362
▁utpräglad	-11.5362
▁gambia	-11.5362
▁yngsta	-11.5362
▁lärjungar	-11.5362
▁njur	-11.5362
▁puerto	-11.5362
▁kniv	-11.5362
▁tvärtom	-11.5363
▁religionsfrihet	-11.5363
▁franzén	-11.5363
▁skansen	-11.5364
destination	-11.5364
▁västgöta	-11.5366
▁liberalismen	-11.5366
▁varelser	-11.5366
▁dyker	-11.5367
▁norrmalm	-11.5367
▁doft	-11.5368
▁folkmun	-11.5369
▁kopparbergs	-11.537
▁utpeka	-11.537
▁anställdes	-11.537
▁talrika	-11.537
lärd	-11.5373
titlar	-11.5376
▁blodet	-11.5377
▁segrade	-11.538
test	-11.5382
▁ombud	-11.5387
▁vargar	-11.539
bund	-11.5392
▁utgången	-11.5393
▁long	-11.5394
▁släppa	-11.5397
wei	-11.5397
iec	-11.5398
virke	-11.5399
▁diktare	-11.5399
▁act	-11.5404
▁översikt	-11.5407
▁hierarki	-11.541
▁glest	-11.5414
▁konsthall	-11.5415
▁krog	-11.5419
▁tomat	-11.542
drog	-11.5426
▁arbetarna	-11.5427
kvinna	-11.5428
▁1630	-11.5432
▁gagn	-11.5434
▁förmå	-11.5435
▁siffrorna	-11.5436
vek	-11.5436
▁händerna	-11.5439
1990	-11.5441
▁oxider	-11.5446
olycka	-11.5454
▁hämtat	-11.5458
▁ämbeten	-11.5471
▁guid	-11.5478
▁kontra	-11.548
demonstration	-11.548
▁handelsmän	-11.5481
▁nivån	-11.5481
▁salu	-11.5484
▁sakta	-11.5488
definition	-11.5489
debatt	-11.5489
gräs	-11.5489
situation	-11.5489
panel	-11.5489
▁mellanrum	-11.549
▁hotet	-11.549
tidningar	-11.5491
▁skolorna	-11.5493
▁byråkrati	-11.5495
▁commodore	-11.5495
▁hällkistor	-11.5495
▁kyrassiär	-11.5495
▁lützen	-11.5495
▁magnesium	-11.5495
▁mauretanien	-11.5495
▁frankfurt	-11.5495
▁påträffats	-11.5495
▁kalmarunionen	-11.5495
▁väckelse	-11.5495
▁lennon	-11.5496
▁presley	-11.5496
applikation	-11.5496
▁hällristningar	-11.5496
▁uddevalla	-11.5496
▁flank	-11.5496
▁oxford	-11.5496
▁kortvarig	-11.5496
▁mongoliet	-11.5496
▁tranås	-11.5496
▁dalregementet	-11.5497
▁täckte	-11.5497
▁ansökt	-11.5497
▁generallöjtnant	-11.5497
▁tortyr	-11.5498
▁uggla	-11.5498
▁milano	-11.5498
▁ahl	-11.5498
furstendöme	-11.55
▁spjut	-11.55
▁situationer	-11.5501
▁bueno	-11.5503
▁kolonisering	-11.5504
▁hovdjur	-11.5504
▁julianska	-11.5507
upproret	-11.5507
▁1846	-11.5507
▁sca	-11.5508
riksdag	-11.5509
▁1854	-11.551
▁1853	-11.5511
▁nuuk	-11.5512
▁tillämpade	-11.5512
▁reella	-11.5513
▁bortgång	-11.5514
▁temat	-11.5514
▁alnö	-11.5515
▁donerade	-11.5518
▁dimensioner	-11.5521
▁typisk	-11.5524
▁bält	-11.5535
▁liter	-11.5536
▁liknade	-11.5537
▁köpman	-11.5538
▁ritat	-11.5543
▁kommentarer	-11.5544
▁puts	-11.5548
atlantiska	-11.5548
wick	-11.5549
invest	-11.555
▁1838	-11.5556
▁bokstäverna	-11.5557
huvudstad	-11.5557
▁trovärdig	-11.556
▁still	-11.5565
count	-11.5566
kapten	-11.5569
▁urban	-11.5575
▁duk	-11.5575
–9	-11.5578
möten	-11.5589
▁lagarna	-11.5591
odlingar	-11.5591
▁juan	-11.5592
▁jude	-11.5596
▁hinduismen	-11.5596
▁kolonierna	-11.5603
▁synliga	-11.5603
▁billig	-11.5604
modul	-11.5605
▁anderna	-11.5612
▁uppförde	-11.5612
vingad	-11.5612
▁mekanisk	-11.5612
protokollet	-11.5614
förstör	-11.5624
▁vägarna	-11.5625
komplex	-11.5625
evenemang	-11.5625
konflikt	-11.5625
luk	-11.5627
▁jupiter	-11.5631
▁karakterisera	-11.5631
▁konsthantverk	-11.5631
entreprenör	-11.5631
restriktioner	-11.5631
▁glaciärer	-11.5631
▁godtycklig	-11.5631
▁hårleman	-11.5631
▁omdiskuterad	-11.5631
▁pinochet	-11.5631
▁omloppsbana	-11.5631
▁professur	-11.5631
▁spekulera	-11.5631
▁stumfilm	-11.5631
▁övertygelse	-11.5631
uppsättning	-11.5631
tjänstgöring	-11.5631
▁överallt	-11.5631
kaka	-11.5631
▁kommersiell	-11.5632
▁övrig	-11.5632
▁revidera	-11.5632
▁centraleuropa	-11.5632
fluorid	-11.5633
▁sydstaterna	-11.5633
▁omtalade	-11.5633
▁nordamerikanska	-11.5635
▁uppnått	-11.5636
▁judendom	-11.5637
▁ulv	-11.5637
hjärn	-11.5638
▁kamrar	-11.5642
▁västervik	-11.5644
helsing	-11.5646
▁protokoll	-11.5648
▁färdas	-11.5648
transporter	-11.5649
försvarsminister	-11.5649
▁stadigt	-11.5651
▁återförening	-11.5653
▁marsvin	-11.5657
▁sexton	-11.5658
▁1,2	-11.5661
▁1631	-11.5671
▁prästgård	-11.5671
driven	-11.5674
▁komplicerade	-11.5675
▁bosätta	-11.5676
▁pojke	-11.5684
▁turkisk	-11.5691
▁professionella	-11.5694
grå	-11.5696
▁förklaringar	-11.5698
▁skyldighet	-11.5699
▁belys	-11.5703
▁kommunisterna	-11.5704
▁omgången	-11.5707
▁utrustade	-11.5709
länk	-11.5718
▁kemiskt	-11.5719
▁östafrika	-11.5724
▁hermann	-11.5725
▁avdelningar	-11.5727
▁alliera	-11.5728
▁diesel	-11.5728
▁upprepa	-11.573
▁krigare	-11.5736
världsmästerskap	-11.5741
▁användaren	-11.5741
samhällen	-11.5743
sjukdomar	-11.5752
▁biskoparna	-11.5757
▁bransch	-11.5757
▁spårvägar	-11.5757
▁suf	-11.5764
bränsle	-11.5764
konsert	-11.5764
fik	-11.5767
illustratör	-11.5768
▁förbjudna	-11.5768
▁jämlikhet	-11.5768
▁koldioxid	-11.5768
▁pennsylvania	-11.5768
▁skopje	-11.5768
▁teheran	-11.5768
▁umgänge	-11.5768
▁uppfyller	-11.5768
▁upprustning	-11.5768
▁tideräkning	-11.5768
▁nackdel	-11.5768
skribent	-11.5768
▁flottning	-11.5768
▁singular	-11.5768
kalendrar	-11.5768
▁kopiera	-11.5768
▁förberedelser	-11.5769
▁deltagarna	-11.5769
▁essä	-11.5769
▁medvetna	-11.5769
▁uppsatt	-11.577
terapi	-11.577
▁publikationer	-11.577
▁vägnätet	-11.5772
▁avvecklades	-11.5773
▁danielsson	-11.5775
▁steget	-11.5777
ál	-11.5777
▁salem	-11.5779
▁1842	-11.5779
▁respektera	-11.578
▁scb	-11.578
▁längan	-11.5781
▁personligt	-11.5785
▁koncentrera	-11.5785
vänner	-11.5787
kristi	-11.5787
reaktion	-11.579
▁utbrytning	-11.5791
▁undvik	-11.5791
▁seglade	-11.5791
▁olav	-11.5793
▁företeelser	-11.5794
▁inflyttning	-11.5798
▁kineser	-11.5799
▁faso	-11.5799
förlust	-11.58
dramat	-11.5802
▁belagd	-11.5805
▁kroatiska	-11.5806
▁1536	-11.5813
preussiska	-11.5814
▁hårdare	-11.5816
▁separera	-11.582
▁betonade	-11.5823
▁föreläsningar	-11.5825
▁bakre	-11.5826
▁härskar	-11.5826
räder	-11.583
▁pik	-11.584
▁smed	-11.5843
▁0,0	-11.5846
▁sparsam	-11.585
passager	-11.5852
▁igelkotten	-11.5852
▁förvandlade	-11.5853
murar	-11.5855
ränta	-11.5855
röse	-11.5856
▁urbana	-11.5856
▁kari	-11.5861
▁berättelserna	-11.5862
▁slavhandel	-11.5865
▁kulle	-11.5873
▁phil	-11.5881
höjning	-11.5882
▁nödvändig	-11.5886
▁lägenheter	-11.5891
▁segla	-11.5897
▁pauli	-11.5897
schema	-11.5899
tommy	-11.5904
objekt	-11.5905
general	-11.5906
▁triumf	-11.5906
▁blomstrade	-11.5906
▁joakim	-11.5906
▁nairobi	-11.5906
▁nordmakedonien	-11.5906
▁närbelägna	-11.5906
▁omtyckt	-11.5906
▁ratificera	-11.5906
▁reflektera	-11.5906
▁skilsmässa	-11.5906
▁kiruna	-11.5907
▁enskilt	-11.5907
▁censur	-11.5907
▁variabel	-11.5907
▁kungaparet	-11.5907
▁sabbat	-11.5907
▁rättfärdiga	-11.5907
▁staaff	-11.5907
▁pingströrelsen	-11.5907
▁ansgar	-11.5908
▁bakterier	-11.5908
▁studentexamen	-11.5908
▁stoft	-11.5908
▁dekoration	-11.5908
▁kameran	-11.5908
eryd	-11.5909
▁besvara	-11.5909
▁privatpersoner	-11.5909
▁brännvin	-11.5909
▁flack	-11.5909
▁idrottsplats	-11.591
kräft	-11.591
▁ädel	-11.5911
▁pryd	-11.5913
luft	-11.5918
▁kapitulerade	-11.5918
kräm	-11.5919
islam	-11.5919
▁beslutat	-11.5921
▁förvärra	-11.5921
▁rättvik	-11.5922
▁invandrar	-11.5923
▁1805	-11.5923
▁day	-11.5927
▁utgjort	-11.5928
▁producerat	-11.593
▁(9	-11.5932
▁antropologi	-11.5934
▁frilufts	-11.5937
tåig	-11.5939
▁delaktig	-11.5939
processor	-11.5947
▁bortom	-11.5948
blom	-11.5949
stugor	-11.5958
1976	-11.596
▁lindberg	-11.596
kulturell	-11.5962
▁vulkanisk	-11.5963
▁sammanlagd	-11.5965
▁måndag	-11.5966
▁angel	-11.5972
▁tage	-11.5972
▁revolt	-11.5973
▁reglerade	-11.5973
▁radon	-11.5979
[...]
