<unk>	0
<s>	0
</s>	0
.	-3.31469
s	-3.59294
,	-3.72269
▁och	-3.85707
▁i	-3.92047
▁	-3.94896
en	-4.28463
▁av	-4.32689
▁som	-4.50714
a	-4.6207
▁en	-4.62186
t	-4.70242
▁att	-4.73734
er	-4.79357
▁till	-4.79573
▁för	-4.84897
▁den	-4.87677
▁med	-4.9495
▁på	-4.96908
▁är	-4.98139
"	-5.02383
n	-5.15701
▁"	-5.1885
▁de	-5.23068
▁det	-5.24553
d	-5.31484
▁var	-5.3727
e	-5.39591
-	-5.48754
▁ett	-5.49181
#	-5.57228
▁(	-5.57389
▁har	-5.57544
ar	-5.60584
▁#	-5.61319
▁från	-5.68206
et	-5.68833
="	-5.71848
r	-5.72922
▁han	-5.73353
▁under	-5.78555
na	-5.80873
▁om	-5.83663
de	-5.90112
▁år	-5.98915
)	-6.11594
▁vid	-6.12173
▁sig	-6.15063
erna	-6.21711
▁inte	-6.23505
▁men	-6.24408
▁efter	-6.27017
:	-6.28289
▁även	-6.33519
doc	-6.34899
>	-6.36202
▁eller	-6.36399
▁ut	-6.3774
▁in	-6.433
▁över	-6.44475
i	-6.45479
▁man	-6.4602
▁sin	-6.48555
talet	-6.48851
▁hade	-6.50492
▁kan	-6.50515
▁andra	-6.54569
▁upp	-6.55208
/	-6.58695
▁då	-6.60528
▁där	-6.61376
m	-6.62621
k	-6.62694
▁blev	-6.63856
▁finns	-6.64265
▁mot	-6.69264
▁genom	-6.69375
an	-6.7122
▁så	-6.74592
g	-6.74672
o	-6.75463
▁be	-6.76664
▁mellan	-6.77484
c	-6.7836
des	-6.7883
▁bland	-6.80428
p	-6.81159
ning	-6.83087
▁också	-6.83182
are	-6.83224
▁ha	-6.83904
▁första	-6.84831
in	-6.84968
▁detta	-6.86271
or	-6.86799
sv	-6.8721
arna	-6.87856
v	-6.89992
▁sedan	-6.90208
).	-6.90657
ade	-6.92261
ande	-6.94439
re	-6.94443
org	-6.95909
▁18	-6.96074
",	-6.97632
ies	-6.98881
l	-6.99146
y	-6.9923
?	-6.99475
▁två	-7.00349
▁sverige	-7.00747
▁hans	-7.00813
wikipedia	-7.01379
iska	-7.02002
wiki	-7.02695
),	-7.02948
▁skulle	-7.04098
curi	-7.04254
h	-7.04698
://	-7.05204
▁när	-7.05297
▁url	-7.0538
▁<	-7.05389
https	-7.05433
▁categor	-7.05446
▁title	-7.05514
▁</	-7.05652
at	-7.07109
▁svenska	-7.07369
▁samt	-7.08191
▁fick	-7.08532
f	-7.10317
▁dock	-7.10511
▁id	-7.10818
".	-7.1094
▁del	-7.12062
ta	-7.12287
▁kom	-7.14136
▁olika	-7.15112
▁annat	-7.15196
▁o	-7.1669
▁många	-7.16789
▁vilket	-7.18413
ens	-7.18548
as	-7.18624
sk	-7.18954
▁dessa	-7.19037
us	-7.19255
▁inom	-7.19644
▁hon	-7.19686
▁flera	-7.20025
▁än	-7.21653
al	-7.21699
da	-7.23178
▁fram	-7.23486
ska	-7.24296
j	-7.24383
▁an	-7.24988
▁stor	-7.25021
▁denna	-7.25519
b	-7.25648
it	-7.26182
–	-7.2648
▁17	-7.28936
;	-7.29656
▁stora	-7.30429
ts	-7.31054
▁senare	-7.31218
▁16	-7.31256
▁1	-7.31985
▁f	-7.33732
liga	-7.34123
för	-7.35451
u	-7.35919
▁sitt	-7.36501
▁sina	-7.3705
▁tid	-7.38805
▁alla	-7.39301
▁vara	-7.41305
▁tre	-7.4332
▁grund	-7.43549
man	-7.44155
es	-7.44474
▁mer	-7.44599
ad	-7.44803
▁mycket	-7.4545
▁k	-7.45534
nde	-7.46387
▁staden	-7.49312
lig	-7.49836
▁ny	-7.50449
▁enligt	-7.50746
▁samma	-7.50962
on	-7.5135
ur	-7.51804
is	-7.51865
ter	-7.52369
▁landet	-7.52524
▁exempel	-7.53138
ra	-7.5421
▁000	-7.5431
te	-7.55037
▁största	-7.55745
▁15	-7.55793
le	-7.5694
▁ofta	-7.57376
um	-7.58698
▁e	-7.59047
▁nya	-7.59334
ma	-7.6047
x	-7.61527
▁utan	-7.62605
el	-7.6283
▁död	-7.63313
▁bo	-7.63924
ut	-7.64966
▁kommun	-7.6554
▁re	-7.67947
▁kunde	-7.68023
▁tidigare	-7.68155
▁ligger	-7.69256
▁dess	-7.69267
▁här	-7.69988
▁g	-7.70044
ä	-7.70909
ne	-7.71127
se	-7.71897
▁namn	-7.72635
land	-7.73149
▁karl	-7.7339
w	-7.74301
be	-7.75557
▁c	-7.76033
la	-7.77076
▁större	-7.77141
▁stockholm	-7.77524
tal	-7.77614
berg	-7.77643
")	-7.78729
▁före	-7.79345
ö	-7.794
ing	-7.7952
▁kung	-7.79929
▁folk	-7.80103
▁några	-7.80746
▁–	-7.81104
é	-7.81411
ig	-7.81902
19	-7.82037
▁mest	-7.82276
kr	-7.82607
▁hela	-7.82797
▁2	-7.82852
är	-7.83645
bo	-7.84322
▁al	-7.84658
▁3	-7.84725
▁varit	-7.84853
om	-7.8503
▁p	-7.85134
▁början	-7.85309
ga	-7.85837
▁("	-7.86252
▁ta	-7.86255
▁språk	-7.86501
sson	-7.86953
▁ur	-7.87232
ck	-7.87406
▁m	-7.88191
▁åt	-7.88451
▁se	-7.88503
▁procent	-7.89037
▁t	-7.89162
ns	-7.89428
'	-7.8994
▁fanns	-7.90499
▁började	-7.9053
▁namnet	-7.90782
å	-7.91005
ul	-7.91109
▁ska	-7.91129
den	-7.91319
▁vissa	-7.91485
isk	-7.91646
ka	-7.92069
▁fri	-7.92106
▁både	-7.9246
▁b	-7.92621
▁hos	-7.93064
▁mindre	-7.94812
▁honom	-7.95126
▁åter	-7.9556
▁få	-7.95587
▁la	-7.95946
erade	-7.96175
ja	-7.96317
▁används	-7.96412
▁eftersom	-7.97501
▁medan	-7.97502
▁d	-7.9755
▁form	-7.97553
▁allt	-7.98759
os	-7.98774
▁vi	-7.99514
▁kallas	-7.99876
▁gjorde	-7.99896
ia	-7.99969
ningar	-8.00403
ge	-8.00722
▁cirka	-8.01406
ch	-8.01473
ke	-8.01479
var	-8.01541
▁barn	-8.02155
▁tillsammans	-8.02612
z	-8.03113
▁delar	-8.03315
▁något	-8.0333
ör	-8.03804
gen	-8.0445
iga	-8.04769
▁svensk	-8.04891
der	-8.05216
▁hög	-8.05896
▁usa	-8.05939
ell	-8.06172
endast	-8.06734
ligt	-8.06847
▁per	-8.07222
▁nu	-8.07281
▁län	-8.07335
som	-8.07426
▁dem	-8.07496
▁bara	-8.07742
▁st	-8.07743
▁själv	-8.09029
▁tog	-8.09134
▁först	-8.09282
ningen	-8.09407
het	-8.09598
to	-8.09614
▁val	-8.10098
redan	-8.10845
▁någon	-8.10904
▁4	-8.11453
▁bli	-8.11619
sta	-8.11636
2	-8.11938
▁idag	-8.12446
▁huvud	-8.12976
ro	-8.13172
kt	-8.1321
▁omkring	-8.13671
▁delen	-8.13977
▁sveriges	-8.14845
▁a	-8.14938
▁14	-8.1518
hus	-8.15219
▁%	-8.15257
av	-8.15332
ion	-8.15411
son	-8.15458
ation	-8.15609
▁ge	-8.16162
▁sätt	-8.16205
▁sa	-8.16519
▁kommer	-8.1659
by	-8.16757
▁h	-8.16761
min	-8.16871
verk	-8.17092
▁kultur	-8.17242
▁5	-8.1735
▁dag	-8.17373
▁land	-8.17381
▁därför	-8.17384
di	-8.17636
ism	-8.17715
▁gustav	-8.17874
ner	-8.17874
▁deras	-8.18149
▁vatten	-8.18271
lag	-8.18289
▁10	-8.18383
ling	-8.18462
▁13	-8.18626
▁historia	-8.19042
▁12	-8.19184
▁lik	-8.19288
20	-8.19482
▁kallade	-8.2004
va	-8.20424
▁främst	-8.20428
ik	-8.20529
ce	-8.20589
id	-8.20629
del	-8.20867
il	-8.21014
▁”	-8.21314
▁slut	-8.21631
▁gamla	-8.22296
ades	-8.22376
▁v	-8.22823
▁fyra	-8.23082
ger	-8.23281
▁verk	-8.2348
▁tiden	-8.23865
▁norr	-8.23902
vis	-8.24137
else	-8.24199
▁antal	-8.24404
sten	-8.2465
▁ka	-8.24769
lo	-8.25193
ti	-8.25683
▁son	-8.25733
▁lag	-8.25854
▁söder	-8.26733
▁därefter	-8.26783
▁området	-8.27194
▁w	-8.27235
▁innan	-8.27399
▁ned	-8.2756
ering	-8.27645
▁europa	-8.27744
ic	-8.27776
▁gick	-8.28354
▁personer	-8.2839
me	-8.28526
rätt	-8.28682
▁johan	-8.28781
▁liv	-8.28806
▁(19	-8.28919
▁norra	-8.29904
▁landets	-8.29919
▁carl	-8.30223
bi	-8.30385
▁vilka	-8.31028
▁slutet	-8.31108
▁meter	-8.31168
ium	-8.31604
▁hur	-8.31646
▁södra	-8.31684
ton	-8.31736
kar	-8.31854
▁6	-8.3189
▁låg	-8.32081
▁lång	-8.32102
▁far	-8.32326
▁all	-8.3236
▁varje	-8.3242
▁december	-8.32451
▁sten	-8.32503
▁hennes	-8.32878
▁väl	-8.33281
mp	-8.3335
▁erik	-8.3409
▁samman	-8.34197
▁miljoner	-8.34274
▁stort	-8.34494
8	-8.34734
▁flesta	-8.34817
▁stad	-8.34943
▁befolkningen	-8.3503
▁sp	-8.35128
▁nord	-8.35263
▁helt	-8.35357
▁kvar	-8.3537
ci	-8.35416
▁le	-8.35727
stad	-8.35743
▁vilken	-8.35937
▁tyskland	-8.35977
år	-8.36138
=	-8.36402
mar	-8.36637
▁konst	-8.36723
ster	-8.36911
ten	-8.36949
▁fem	-8.37245
▁kriget	-8.37348
▁å	-8.37582
▁hem	-8.37699
un	-8.37809
lar	-8.38569
▁kon	-8.38602
ko	-8.38612
▁sam	-8.39023
▁7	-8.39323
▁består	-8.39435
▁invånare	-8.39587
▁maj	-8.39604
▁åren	-8.39743
▁går	-8.39956
▁vill	-8.40096
▁kungen	-8.40176
▁gör	-8.40301
▁ca	-8.40331
▁runt	-8.40363
▁fall	-8.40381
▁danmark	-8.40472
▁mo	-8.40515
▁tyska	-8.4052
▁mor	-8.40551
▁länder	-8.40565
00	-8.40732
▁samtidigt	-8.40732
▁von	-8.40916
▁januari	-8.4115
▁ab	-8.41216
▁vad	-8.41261
ier	-8.41302
▁ord	-8.41397
▁of	-8.41694
▁äldre	-8.4173
▁sk	-8.41818
▁juli	-8.41885
tion	-8.41977
▁gav	-8.4202
▁exempelvis	-8.42219
▁öster	-8.42441
▁mål	-8.42569
▁trots	-8.42598
▁musik	-8.43121
ström	-8.43468
▁världen	-8.43534
▁egen	-8.43671
▁förekommer	-8.43823
str	-8.43843
po	-8.43858
▁uppsala	-8.4387
▁mars	-8.44148
pa	-8.44347
ry	-8.44571
▁båda	-8.44831
▁8	-8.45362
▁människor	-8.45648
▁ledde	-8.46052
ha	-8.46212
th	-8.46621
no	-8.46637
▁gud	-8.46735
▁öst	-8.46958
▁vidare	-8.47004
▁får	-8.47059
▁national	-8.47188
ol	-8.47211
ist	-8.47359
ot	-8.47593
li	-8.47741
▁ibland	-8.47756
fall	-8.48526
ve	-8.48607
med	-8.48615
ver	-8.48812
ken	-8.48946
▁frankrike	-8.49075
▁el	-8.49318
▁rätt	-8.49331
▁ro	-8.49448
men	-8.4957
▁året	-8.49934
▁20	-8.50094
▁tv	-8.50492
op	-8.50656
0	-8.50814
▁su	-8.51475
▁stockholms	-8.51505
ri	-8.51686
gel	-8.51792
tan	-8.51909
▁the	-8.51927
tar	-8.52007
▁juni	-8.52207
4	-8.52282
▁blivit	-8.52444
▁dessutom	-8.52518
▁sista	-8.52595
väl	-8.53059
mer	-8.54071
”	-8.54082
▁politiska	-8.54322
led	-8.54346
▁annan	-8.54404
▁syn	-8.54439
äng	-8.54473
▁hjälp	-8.54566
ung	-8.54583
▁kommunen	-8.54584
val	-8.54701
djur	-8.5488
borg	-8.54968
▁1800-	-8.54989
▁samband	-8.55061
▁franska	-8.5519
ex	-8.55279
▁särskilt	-8.55291
▁års	-8.55517
▁väst	-8.55684
▁tillbaka	-8.55717
▁di	-8.56041
tes	-8.56094
äck	-8.56228
ll	-8.56364
▁kring	-8.56409
itet	-8.56851
▁pa	-8.56879
▁11	-8.56898
50	-8.57169
▁nära	-8.57427
mi	-8.5743
tiv	-8.57503
▁utanför	-8.57721
orna	-8.57837
▁kända	-8.57888
▁istället	-8.57995
▁stads	-8.5805
iskt	-8.58148
åt	-8.58169
▁ungefär	-8.58277
▁pro	-8.58417
vin	-8.58464
kon	-8.58596
▁kunna	-8.58715
▁plats	-8.58772
▁ger	-8.58825
▁bi	-8.58869
▁l	-8.58904
▁kyrkan	-8.59075
▁stöd	-8.5917
tag	-8.59172
gång	-8.59191
▁därmed	-8.59519
lä	-8.59627
co	-8.59696
ord	-8.59818
tor	-8.59834
▁övriga	-8.59855
▁natur	-8.60055
▁små	-8.60418
▁slott	-8.60491
▁regeringen	-8.60543
▁oktober	-8.60763
▁född	-8.60937
ala	-8.61184
▁ingen	-8.61293
▁utgör	-8.61527
▁tor	-8.61672
–1	-8.61692
18	-8.61804
ba	-8.61845
▁ma	-8.6207
▁film	-8.62156
od	-8.62204
▁ön	-8.62303
▁fortfarande	-8.62374
▁or	-8.62521
▁norge	-8.62535
▁blir	-8.6305
▁säga	-8.6312
ismen	-8.63217
iv	-8.6329
▁september	-8.63403
▁bort	-8.63559
▁9	-8.63666
mo	-8.63747
▁november	-8.63813
gar	-8.639
▁utbildning	-8.63928
▁göra	-8.63939
▁fredrik	-8.63939
▁djur	-8.63955
▁gustaf	-8.64244
tro	-8.644
▁ordet	-8.64555
▁tal	-8.64562
im	-8.64985
ella	-8.65058
▁ra	-8.65205
slag	-8.65499
▁finland	-8.65546
▁såsom	-8.6556
▁hus	-8.65668
dag	-8.65846
ang	-8.65936
vi	-8.65963
upp	-8.65987
▁president	-8.65987
▁enda	-8.66103
▁30	-8.66161
lt	-8.66197
ian	-8.662
lin	-8.6626
ius	-8.66273
▁me	-8.66314
▁br	-8.66595
▁framför	-8.66979
till	-8.67177
det	-8.67693
män	-8.678
▁hand	-8.67957
ny	-8.68096
5	-8.6813
ni	-8.6815
▁kl	-8.68281
▁skrev	-8.68289
▁fått	-8.68374
▁högsta	-8.68381
▁makt	-8.68448
aren	-8.68547
▁havet	-8.68549
spel	-8.68765
ste	-8.69099
▁augusti	-8.69396
rna	-8.69455
▁nästan	-8.69654
plan	-8.69911
do	-8.69924
▁områden	-8.69999
▁längre	-8.70014
▁inför	-8.70138
▁följande	-8.70577
att	-8.70771
▁måste	-8.70984
▁väg	-8.71103
▁du	-8.71163
▁central	-8.71184
▁ryssland	-8.71185
▁roll	-8.71336
pp	-8.71374
▁världs	-8.71477
10	-8.7157
▁par	-8.71701
▁april	-8.71766
▁bildades	-8.72215
kor	-8.72245
▁försök	-8.72303
ho	-8.72328
▁sex	-8.72337
▁lu	-8.72446
▁världskriget	-8.7256
▁parti	-8.7258
▁bild	-8.72825
ran	-8.73213
ans	-8.73331
ställ	-8.73335
▁km	-8.7345
sp	-8.73518
▁riks	-8.73678
bar	-8.73684
▁universitet	-8.73877
▁sjö	-8.74041
▁ne	-8.74043
▁person	-8.74064
ir	-8.74295
▁mark	-8.74424
ber	-8.74533
hi	-8.74581
▁modern	-8.74743
sätt	-8.75002
tiska	-8.75045
em	-8.7562
je	-8.75639
▁ar	-8.75771
▁direkt	-8.75779
system	-8.75841
ed	-8.75906
huset	-8.76142
▁and	-8.76151
▁militär	-8.76248
▁krig	-8.76301
lighet	-8.76451
jä	-8.76457
▁industri	-8.7664
▁ner	-8.76658
▁ytterligare	-8.76664
ern	-8.76806
▁nuvarande	-8.76813
▁led	-8.77164
skap	-8.77445
▁gången	-8.7777
ring	-8.77786
▁styr	-8.77864
▁kort	-8.77993
▁internationella	-8.78106
pe	-8.78125
▁kristna	-8.78185
▁jul	-8.78241
80	-8.78246
▁stod	-8.78432
▁bar	-8.78561
▁väster	-8.7857
tu	-8.78595
mål	-8.7861
era	-8.78616
▁ursprung	-8.78703
form	-8.78741
▁östra	-8.78949
au	-8.78967
▁världens	-8.79057
▁pi	-8.79062
ud	-8.79191
▁gift	-8.79286
mon	-8.79289
▁västra	-8.79553
▁ex	-8.79564
▁högre	-8.79832
rö	-8.79835
▁betydelse	-8.79867
▁fler	-8.79906
▁februari	-8.79939
ca	-8.80006
ernas	-8.80062
▁skall	-8.80095
sjö	-8.80156
▁gång	-8.80196
▁ö	-8.80246
▁mat	-8.80583
sikt	-8.80634
▁mar	-8.80738
▁aldrig	-8.80795
ighet	-8.80808
▁gen	-8.80813
▁(18	-8.80892
go	-8.80894
mor	-8.81004
▁dotter	-8.81154
pi	-8.81296
am	-8.81299
tid	-8.81306
▁bro	-8.81349
van	-8.81417
▁kr	-8.81588
▁riket	-8.81602
len	-8.81621
ligen	-8.81893
ment	-8.81947
▁ek	-8.82078
istiska	-8.82237
▁ben	-8.82338
▁he	-8.82353
▁rad	-8.82454
ie	-8.82542
▁nytt	-8.82967
rän	-8.82989
▁slaget	-8.83104
nes	-8.83202
▁europeiska	-8.83593
▁anses	-8.83744
▁stats	-8.8389
und	-8.8391
▁ii	-8.8412
fa	-8.8414
the	-8.84322
ön	-8.84422
erad	-8.84668
▁tredje	-8.84804
▁1900-	-8.84816
sättning	-8.84826
▁bra	-8.85014
▁kvinnor	-8.85199
▁gånger	-8.85232
▁tur	-8.85393
▁lo	-8.85541
vik	-8.85581
▁håll	-8.85609
▁li	-8.85801
▁problem	-8.859
▁ryska	-8.85949
sch	-8.85965
▁plan	-8.85969
▁engelska	-8.85998
▁ville	-8.86081
erat	-8.86371
▁via	-8.86407
▁adolf	-8.8642
ff	-8.86431
ant	-8.86447
▁ännu	-8.86456
▁fred	-8.86518
▁sl	-8.86544
▁byggdes	-8.86641
▁kallad	-8.86953
kan	-8.87202
▁politik	-8.87205
▁känd	-8.87209
äg	-8.87356
ow	-8.87935
▁syd	-8.87997
▁am	-8.88015
▁färg	-8.88059
all	-8.88076
▁jord	-8.88148
▁italien	-8.88241
▁sol	-8.88317
gu	-8.88324
▁sidan	-8.88414
igt	-8.88433
lade	-8.88451
30	-8.88458
▁företag	-8.88566
ndet	-8.8871
akt	-8.88742
mm	-8.88798
fin	-8.88804
▁-	-8.89084
ok	-8.89545
ats	-8.89562
▁tillhör	-8.89595
]]	-8.89693
ett	-8.8973
rat	-8.89751
▁fast	-8.89784
17	-8.8979
▁vasa	-8.8984
▁ga	-8.89893
rum	-8.89919
▁antalet	-8.90213
bb	-8.90314
stat	-8.9038
▁egna	-8.90384
utom	-8.90471
▁so	-8.90518
ställning	-8.90578
▁flyg	-8.90759
▁as	-8.90786
▁uttryck	-8.90821
▁j	-8.90951
io	-8.90976
tt	-8.91188
per	-8.91213
▁hör	-8.91283
▁ni	-8.91284
▁danska	-8.91311
▁område	-8.91452
ill	-8.91502
håll	-8.91552
▁trä	-8.91632
▁haft	-8.91695
ort	-8.91844
▁bu	-8.91867
▁sju	-8.91969
▁grav	-8.91974
▁lund	-8.92188
▁new	-8.92259
▁ekonomi	-8.92283
dom	-8.92288
▁äldsta	-8.92373
ler	-8.92442
ien	-8.92505
▁pre	-8.92598
br	-8.92739
▁själva	-8.92763
▁kol	-8.92931
▁slottet	-8.92934
3	-8.93039
▁arter	-8.93075
öd	-8.931
▁befolkning	-8.93176
▁använda	-8.93336
▁tro	-8.93427
ru	-8.93476
mark	-8.93514
amp	-8.93544
▁användes	-8.93549
drag	-8.93582
bro	-8.93684
▁general	-8.93701
▁magnus	-8.93755
▁tio	-8.93771
▁varav	-8.93773
▁vann	-8.93861
▁sm	-8.93873
fi	-8.93882
vet	-8.93957
ren	-8.93982
▁eu	-8.94052
▁ba	-8.94197
▁ljus	-8.94247
▁fl	-8.9448
▁mi	-8.94811
▁forskning	-8.94843
▁göteborg	-8.94889
nas	-8.94946
▁lika	-8.95088
▁berg	-8.95102
si	-8.95117
▁2010	-8.95155
▁sch	-8.9517
▁halv	-8.95341
▁jag	-8.95376
▁[[	-8.95581
▁kust	-8.95597
▁guld	-8.95694
▁typ	-8.95717
▁100	-8.95849
ü	-8.95943
▁san	-8.96071
råd	-8.9611
45	-8.96185
▁for	-8.96201
▁krigs	-8.96383
▁25	-8.96484
▁vin	-8.96493
▁bil	-8.96507
väg	-8.96571
▁paris	-8.96708
▁alltså	-8.9679
samma	-8.97118
▁henne	-8.97159
kom	-8.9721
lund	-8.97265
språk	-8.97423
nar	-8.97488
▁dagar	-8.97613
og	-8.97833
▁står	-8.97866
▁pe	-8.98085
bild	-8.98114
▁ekonomiska	-8.98255
▁dra	-8.98431
▁mil	-8.98543
▁numera	-8.98581
▁handels	-8.98591
up	-8.986
▁gjort	-8.98626
ft	-8.98659
▁församling	-8.98667
▁bruk	-8.98846
▁innebär	-8.98896
punkt	-8.98925
▁viktig	-8.9903
▁såg	-8.99049
▁hamn	-8.99112
▁rum	-8.9913
tiden	-8.99196
ator	-8.99446
▁no	-8.996
▁skillnad	-8.99624
ån	-8.99631
14	-8.99784
▁to	-8.99928
eg	-8.99977
par	-9.00163
▁centrum	-9.0047
vil	-9.00728
▁iii	-9.00914
ki	-9.00931
40	-9.00967
▁bor	-9.00997
eri	-9.01018
▁ti	-9.01034
▁skriv	-9.01051
lek	-9.01214
▁ju	-9.01346
|	-9.01454
▁mitten	-9.01546
liv	-9.01683
▁storbritannien	-9.01742
▁viss	-9.01832
▁huvudstad	-9.01889
▁lokal	-9.01908
▁si	-9.01948
▁minst	-9.02084
▁längs	-9.02098
▁kar	-9.02415
▁socken	-9.02517
▁visade	-9.02604
▁vis	-9.02726
▁bok	-9.02747
12	-9.02751
▁rom	-9.02833
11	-9.0284
▁städer	-9.02845
▁skapa	-9.02862
ty	-9.02868
▁lät	-9.03005
lands	-9.03081
▁sett	-9.03083
í	-9.03197
▁följd	-9.03393
nade	-9.03418
▁co	-9.03468
▁ingår	-9.03469
▁ki	-9.0354
vä	-9.0366
▁ursprungligen	-9.03685
ak	-9.03783
ologi	-9.03836
▁bas	-9.03857
▁kor	-9.03978
▁gäller	-9.04084
▁te	-9.04126
ly	-9.04214
▁art	-9.0428
▁fortsatte	-9.04327
ld	-9.04456
▁wi	-9.04471
▁oftast	-9.04484
▁råd	-9.04587
▁respektive	-9.04673
▁länge	-9.04864
▁stadens	-9.04886
landet	-9.04911
▁af	-9.04939
▁x	-9.0494
▁system	-9.05208
hl	-9.05276
▁program	-9.05293
▁vapen	-9.05328
▁hy	-9.05335
log	-9.05407
▁varandra	-9.05476
▁dal	-9.05589
▁dog	-9.05636
▁centrala	-9.06201
bu	-9.0622
▁medlemmar	-9.06376
▁mängd	-9.06553
▁beroende	-9.06626
▁grupper	-9.06799
▁armén	-9.06808
rar	-9.06833
▁0	-9.06864
▁makten	-9.06866
▁gräns	-9.06953
▁fin	-9.07049
15	-9.07089
").	-9.07115
ets	-9.07121
mma	-9.07121
ou	-9.07188
25	-9.07374
▁lyckades	-9.07622
▁y	-9.07638
75	-9.07668
▁god	-9.07728
▁ser	-9.07783
▁omfattande	-9.07807
▁kraft	-9.07931
sjön	-9.07949
isering	-9.08084
erades	-9.08116
dig	-9.08152
▁män	-9.08177
▁ton	-9.08255
näs	-9.08304
▁po	-9.08327
▁höga	-9.08361
▁verksamhet	-9.0852
yl	-9.08537
▁partiet	-9.08606
▁ålder	-9.0866
▁sovjetunionen	-9.0872
ov	-9.08762
ven	-9.08969
rik	-9.09034
13	-9.09063
wa	-9.09077
60	-9.09103
rade	-9.09282
▁hi	-9.09331
tra	-9.09366
56	-9.09415
▁by	-9.09494
▁utveckling	-9.09507
▁grupp	-9.0954
▁brukar	-9.09545
▁staten	-9.09654
▁innehåller	-9.09755
=1	-9.10036
34	-9.10093
ju	-9.10172
70	-9.10192
▁miljö	-9.102
åk	-9.10225
▁hertig	-9.10382
▁slag	-9.10478
▁min	-9.10491
▁do	-9.10506
58	-9.10518
én	-9.10611
öl	-9.10662
▁amerikanska	-9.10701
▁beslut	-9.10721
=7	-9.10721
▁litteratur	-9.10721
16	-9.10769
▁ko	-9.10939
▁ho	-9.10965
▁moderna	-9.11008
ph	-9.11035
lu	-9.11063
res	-9.11084
ab	-9.11092
55	-9.11098
ek	-9.11123
▁trafik	-9.11336
▁n	-9.11409
▁2006	-9.11474
▁ad	-9.11588
träd	-9.11651
51	-9.11656
▁gå	-9.11666
á	-9.1176
▁rör	-9.11822
mat	-9.11841
▁roman	-9.11882
▁ed	-9.12114
lan	-9.1219
▁kungliga	-9.12225
=6	-9.12283
bud	-9.12295
rad	-9.12373
▁kunskap	-9.12392
▁flyttade	-9.12412
stå	-9.12518
▁500	-9.1252
▁medlem	-9.12725
rus	-9.12978
på	-9.12993
=4	-9.13266
▁drottning	-9.13275
▁biografi	-9.13282
makt	-9.13313
▁lands	-9.13408
▁använder	-9.13411
ål	-9.13496
▁följde	-9.13596
bok	-9.13603
=3	-9.13647
59	-9.13712
▁tysk	-9.13745
che	-9.13762
▁knut	-9.13795
▁radio	-9.13807
▁fa	-9.13813
▁50	-9.13973
▁visar	-9.14282
vit	-9.14289
▁räknas	-9.14306
36	-9.1442
pro	-9.14556
▁bygga	-9.14835
gatan	-9.14856
kel	-9.14932
▁lever	-9.14937
varande	-9.15022
▁bör	-9.15048
▁sal	-9.15064
gård	-9.15101
▁spår	-9.15152
▁lämnade	-9.15171
▁familjen	-9.15199
tik	-9.15289
▁spelade	-9.15315
fatt	-9.15369
▁u	-9.15426
▁arbets	-9.15427
▁hä	-9.15506
▁betyder	-9.1559
gift	-9.1564
▁energi	-9.15774
fri	-9.15827
hu	-9.15884
▁kilometer	-9.15889
85	-9.15952
eras	-9.16019
bel	-9.16119
99	-9.1616
▁höjd	-9.16201
▁relativ	-9.16334
82	-9.16355
▁tidiga	-9.16407
tåg	-9.16546
tter	-9.16625
64	-9.16644
▁biskop	-9.16657
▁starkt	-9.16751
▁skåne	-9.16781
▁långt	-9.16863
lik	-9.16902
▁klass	-9.16963
57	-9.1698
▁däremot	-9.17005
83	-9.17081
skt	-9.17117
sin	-9.17178
▁gifte	-9.17199
▁polen	-9.17204
▁xii	-9.17367
▁brev	-9.17387
=2	-9.17398
app	-9.17409
▁dels	-9.17434
▁lind	-9.17523
▁spel	-9.17527
▁24	-9.17537
▁2008	-9.17714
▁icke	-9.17718
tur	-9.17834
lös	-9.17842
37	-9.17848
▁vä	-9.17862
▁blå	-9.17968
65	-9.18112
▁2014	-9.18158
han	-9.18179
▁inflytande	-9.18246
90	-9.18298
▁kallades	-9.18471
▁regering	-9.18477
▁viktigaste	-9.18618
▁grekiska	-9.18623
▁z	-9.18634
▁stället	-9.18701
▁borg	-9.18789
▁stil	-9.19103
bergs	-9.19108
bas	-9.19221
▁sträck	-9.19259
▁skedde	-9.19275
▁england	-9.19282
▁vanligen	-9.19368
off	-9.1937
44	-9.194
▁viktiga	-9.19408
▁2007	-9.19412
81	-9.19415
▁tryck	-9.19487
▁period	-9.19558
▁grundades	-9.19707
ku	-9.19714
▁mitt	-9.19882
39	-9.19948
▁samhället	-9.19954
▁tar	-9.19991
▁pu	-9.20027
▁ras	-9.20043
21	-9.20074
▁stat	-9.20098
▁komma	-9.20117
värd	-9.20197
54	-9.20247
▁arkitekt	-9.20259
▁post	-9.20281
▁kritik	-9.20311
full	-9.20457
ister	-9.2073
gi	-9.20745
sel	-9.20835
gren	-9.20863
▁2016	-9.20916
▁sport	-9.21019
1	-9.21041
lev	-9.21097
partiet	-9.21237
rakt	-9.21317
47	-9.21358
▁inre	-9.21362
band	-9.21408
▁nordiska	-9.21411
▁jorden	-9.21432
området	-9.21475
namn	-9.21562
▁användas	-9.21567
▁kyrka	-9.21588
▁jesus	-9.21643
86	-9.21679
52	-9.21809
▁1700-	-9.21949
▁vår	-9.21958
skriv	-9.21967
▁klimat	-9.21968
ker	-9.22034
53	-9.22057
▁jo	-9.22115
svenska	-9.22132
tä	-9.22168
▁drog	-9.22189
▁ordförande	-9.22192
▁växte	-9.22281
fl	-9.22398
boll	-9.22412
38	-9.22445
▁järn	-9.22476
fors	-9.2253
▁alltid	-9.22555
kategori	-9.22657
▁r	-9.22707
▁liknande	-9.22885
▁dagens	-9.23121
▁kina	-9.23172
2"	-9.23233
▁bror	-9.2324
▁bär	-9.23275
▁va	-9.23296
▁gi	-9.23348
▁forn	-9.23399
gg	-9.23529
▁kur	-9.23538
▁sida	-9.23641
ron	-9.23728
tus	-9.23808
8"	-9.24032
▁kors	-9.2408
yr	-9.24146
43	-9.24194
gräns	-9.24331
▁hel	-9.2449
35	-9.24534
bil	-9.24585
▁2005	-9.24621
lle	-9.24654
▁van	-9.24685
▁run	-9.24746
holm	-9.24773
97	-9.25058
76	-9.25095
▁miss	-9.25125
ök	-9.25138
gav	-9.2517
dan	-9.25226
far	-9.25256
▁bak	-9.25276
▁afrika	-9.25302
hög	-9.25327
▁2009	-9.2533
▁landskapet	-9.25331
ard	-9.25573
burg	-9.25599
so	-9.25611
red	-9.25626
bygg	-9.25756
1"	-9.25767
▁version	-9.25777
mä	-9.25783
▁valet	-9.25937
▁socialdemokrat	-9.26001
uk	-9.26065
▁1990-	-9.26076
4"	-9.26179
▁totalt	-9.26222
▁40	-9.26246
▁dr	-9.26275
▁hov	-9.26319
mannen	-9.26344
▁intresse	-9.2642
41	-9.26453
▁hitta	-9.26459
▁gruppen	-9.26471
▁ban	-9.26535
▁luft	-9.26554
stra	-9.26612
ack	-9.26638
plats	-9.26676
▁funktion	-9.26713
trädde	-9.26761
▁emellertid	-9.26777
▁byggnader	-9.2678
42	-9.26794
▁gammal	-9.26901
fe	-9.26908
arnas	-9.2697
33	-9.27006
sam	-9.27029
fo	-9.27045
my	-9.272
▁sven	-9.2721
▁indelning	-9.27254
▁ly	-9.2743
▁enbart	-9.27454
▁31	-9.27608
▁tri	-9.27674
▁sand	-9.27689
▁källor	-9.27701
lägg	-9.27763
▁liten	-9.27775
71	-9.27779
77	-9.27787
▁vän	-9.2779
▁köp	-9.27821
7	-9.27843
aste	-9.27944
pel	-9.27992
▁djup	-9.28
▁ingick	-9.28053
▁nor	-9.2818
▁regler	-9.28253
▁brittiska	-9.28255
▁bygg	-9.2828
▁200	-9.28302
if	-9.28371
▁da	-9.28401
▁snart	-9.2841
bor	-9.28469
▁1600-	-9.28525
▁vanliga	-9.28539
▁ledning	-9.28563
klar	-9.28626
dal	-9.28634
66	-9.28636
▁innebar	-9.2866
▁princip	-9.28662
3"	-9.28849
▁ökade	-9.28902
än	-9.28904
▁koloni	-9.28923
eln	-9.29259
▁användning	-9.29282
▁arbetar	-9.29308
49	-9.29335
vägen	-9.29385
▁ovan	-9.29446
▁2000	-9.29461
▁inga	-9.29509
79	-9.29652
▁släkt	-9.29662
="7	-9.29669
and	-9.29679
46	-9.29695
▁islam	-9.29829
▁pass	-9.29883
6"	-9.30066
▁uppdrag	-9.30252
▁armé	-9.30379
▁arbete	-9.30389
▁begreppet	-9.30423
▁yngre	-9.30431
▁serie	-9.30437
48	-9.30453
tin	-9.30483
▁tidigt	-9.30586
san	-9.3061
▁snabbt	-9.30734
ym	-9.30754
▁skog	-9.30919
9"	-9.31013
▁arv	-9.31028
▁självständighet	-9.3104
▁långa	-9.31082
▁2011	-9.31101
▁undantag	-9.31223
▁produktion	-9.31262
▁bad	-9.31291
▁ansåg	-9.31307
heten	-9.31483
▁författare	-9.31517
▁'	-9.31598
95	-9.3161
lor	-9.31726
ings	-9.31737
▁språket	-9.3175
▁kontakt	-9.31859
systemet	-9.31861
its	-9.31888
▁sen	-9.31915
▁kristian	-9.31922
▁anders	-9.31967
viken	-9.31982
▁deltog	-9.32061
5"	-9.3219
▁dator	-9.32311
▁medel	-9.32321
▁lokala	-9.32327
iet	-9.32347
▁sådana	-9.32359
▁unionen	-9.32386
andet	-9.32467
▁gu	-9.32637
ug	-9.32673
▁fre	-9.32682
gl	-9.32735
du	-9.3279
sök	-9.32809
▁pris	-9.32837
▁samtliga	-9.32862
▁21	-9.3299
▁delvis	-9.3302
län	-9.33041
▁ledare	-9.33046
▁kör	-9.33178
hör	-9.3329
▁riksdagen	-9.33299
lad	-9.33312
ländska	-9.33363
▁bl	-9.33384
nor	-9.33385
zon	-9.33507
ära	-9.33618
ah	-9.33728
="6	-9.33729
▁styre	-9.33826
▁religion	-9.33899
▁berlin	-9.3403
ting	-9.34116
gn	-9.34138
▁2020	-9.34153
ock	-9.34175
vall	-9.34176
lopp	-9.34184
▁ansvar	-9.34215
▁anti	-9.34234
▁böcker	-9.34284
eller	-9.34302
▁drag	-9.34315
▁sc	-9.34431
94	-9.34481
änd	-9.34495
hem	-9.34511
▁vanligt	-9.34548
▁strid	-9.34589
stående	-9.34707
pat	-9.3474
lott	-9.34773
▁information	-9.34791
▁mö	-9.34803
gre	-9.34811
27	-9.3485
▁station	-9.34884
▁stark	-9.34902
7"	-9.34933
jut	-9.35071
verket	-9.35199
▁ku	-9.35247
▁export	-9.35307
▁&	-9.35342
vo	-9.35442
84	-9.35445
▁använde	-9.35468
▁lär	-9.35498
0"	-9.35544
▁betydande	-9.3557
▁kronor	-9.3564
▁olof	-9.35703
bruk	-9.35736
▁trupper	-9.35841
▁2018	-9.35878
dra	-9.3588
▁ren	-9.35951
istisk	-9.35955
post	-9.3616
▁fi	-9.36168
’	-9.3624
▁svart	-9.36323
ätt	-9.36329
▁22	-9.36347
vetenskap	-9.364
31	-9.36434
lit	-9.36506
▁malmö	-9.36537
ari	-9.36588
67	-9.36672
▁rik	-9.36724
inge	-9.36778
▁euro	-9.36821
▁soldater	-9.36845
▁japan	-9.36845
▁sn	-9.36847
▁gre	-9.36888
▁besök	-9.36916
▁lätt	-9.37005
▁museum	-9.37016
▁försökte	-9.37028
22	-9.37071
%	-9.37082
▁mag	-9.371
▁dikt	-9.37155
nska	-9.37162
heter	-9.37208
tog	-9.37393
▁my	-9.37514
▁försvar	-9.37531
▁2002	-9.37558
▁dy	-9.37568
▁romerska	-9.37621
les	-9.37657
gor	-9.37666
28	-9.37814
▁utveckla	-9.37839
ben	-9.37883
gick	-9.37911
▁1970-	-9.37911
tz	-9.37938
stånd	-9.38029
tim	-9.38039
▁gran	-9.38165
▁kontroll	-9.38194
▁familj	-9.38209
▁ske	-9.38473
bet	-9.38568
▁bakgrund	-9.38585
▁senaste	-9.38615
73	-9.38649
▁2015	-9.38747
he	-9.38747
▁sak	-9.38794
vid	-9.38831
▁planer	-9.3888
▁utgjorde	-9.3893
▁människan	-9.3898
▁kungens	-9.39102
▁social	-9.39124
▁privat	-9.39189
▁data	-9.39218
tas	-9.39264
88	-9.39319
▁maria	-9.39467
▁studier	-9.39503
▁medeltiden	-9.39615
sdotter	-9.39621
68	-9.39702
▁lista	-9.39828
fil	-9.3985
▁axel	-9.39861
konst	-9.39906
vänd	-9.39917
6	-9.39931
teckning	-9.39967
▁wa	-9.40175
▁emot	-9.40189
▁kyrko	-9.40204
ag	-9.40214
▁ag	-9.40224
▁natt	-9.40232
över	-9.40279
film	-9.40281
72	-9.40357
▁bank	-9.40366
▁flertal	-9.40419
▁ak	-9.40496
▁bilda	-9.40497
61	-9.405
mästare	-9.40507
▁sådan	-9.40533
▁full	-9.40542
32	-9.40571
▁sommaren	-9.40608
▁förlorade	-9.40677
art	-9.40764
så	-9.40766
gå	-9.40812
▁landskommun	-9.4084
▁troligen	-9.40857
▁hålla	-9.40884
▁os	-9.40909
program	-9.40927
▁august	-9.40939
▁hölls	-9.4094
▁1980-	-9.40945
slut	-9.41143
▁tra	-9.41178
89	-9.41194
gh	-9.41254
▁bandy	-9.41268
▁orsak	-9.41286
▁2004	-9.41314
fal	-9.41378
rev	-9.41505
▁kallat	-9.41511
bara	-9.41526
▁visa	-9.41574
lösa	-9.41615
96	-9.41625
minister	-9.41635
dagen	-9.41643
29	-9.41683
▁23	-9.41683
▁riktning	-9.41704
ica	-9.41715
23	-9.41717
ika	-9.41807
74	-9.41853
ski	-9.41855
26	-9.41866
98	-9.41881
rid	-9.41917
24	-9.41965
vatten	-9.4197
▁hot	-9.42019
ationer	-9.42026
bildning	-9.42032
▁gränsen	-9.42082
69	-9.42197
skolan	-9.42233
ina	-9.42275
▁vetenskap	-9.42375
▁hösten	-9.42456
nne	-9.4246
▁geografi	-9.42489
▁republiken	-9.42518
▁skydd	-9.42552
▁samhälls	-9.42562
▁th	-9.42641
▁historiska	-9.42644
pu	-9.42698
▁fadern	-9.42858
erar	-9.42865
period	-9.42991
byggnad	-9.43041
▁ställning	-9.43055
▁möte	-9.43118
▁menar	-9.43135
▁flygplats	-9.43237
sal	-9.4344
▁utvecklades	-9.43513
▁mån	-9.43536
tom	-9.43566
▁växt	-9.43662
▁bestod	-9.43674
▁seger	-9.43713
▁österrike	-9.43734
▁igen	-9.43832
kraft	-9.43836
arbete	-9.4387
hy	-9.43959
▁möjlighet	-9.44037
▁vinter	-9.44261
▁material	-9.44281
▁dom	-9.44281
▁hu	-9.44301
kär	-9.44316
age	-9.44348
ris	-9.44395
kla	-9.44435
▁demokrati	-9.44506
▁pan	-9.44506
tryck	-9.44582
hal	-9.44599
▁uppror	-9.44839
▁främsta	-9.44866
▁våld	-9.44899
efter	-9.45002
▁regel	-9.45024
▁eget	-9.45097
93	-9.45116
▁huvudsakligen	-9.45204
gående	-9.45322
ellt	-9.45366
ya	-9.4541
grip	-9.45468
▁kunga	-9.45489
gan	-9.45579
▁näst	-9.45611
▁28	-9.45704
▁huvudstaden	-9.45719
▁ursprungliga	-9.45771
▁museet	-9.4579
▁1971	-9.45802
▁ägde	-9.45822
▁utom	-9.45829
▁åtta	-9.45973
▁grad	-9.46026
▁tidningen	-9.46103
▁definition	-9.46155
politik	-9.46292
stan	-9.46317
folk	-9.46356
staden	-9.46405
ine	-9.46414
▁denne	-9.46417
kin	-9.46434
▁ja	-9.46446
jo	-9.46468
vän	-9.46629
92	-9.46675
za	-9.46754
▁sh	-9.46809
▁känt	-9.46872
▁sjön	-9.46873
▁fransk	-9.46884
ros	-9.46887
kil	-9.47011
▁vind	-9.47041
ep	-9.47101
▁officiella	-9.47108
gården	-9.47142
jord	-9.47142
▁ej	-9.47159
▁allmänna	-9.4721
▁livet	-9.47262
mb	-9.47333
▁avsluta	-9.47446
▁text	-9.47474
ley	-9.4748
met	-9.47576
▁norska	-9.47597
▁värde	-9.47638
▁avled	-9.47655
▁stift	-9.47728
▁fält	-9.4775
▁bodde	-9.47768
▁bildade	-9.478
▁ve	-9.47879
stor	-9.47965
▁omfattar	-9.48
hamn	-9.48135
▁trans	-9.48147
87	-9.48159
port	-9.48228
&	-9.48312
▁sker	-9.48345
q	-9.4836
▁bättre	-9.48368
▁bal	-9.48421
▁förhållande	-9.48494
▁möjligt	-9.48521
▁månader	-9.48594
männen	-9.4862
▁distrikt	-9.48689
▁spela	-9.48699
▁driv	-9.48717
▁rest	-9.48735
we	-9.48784
▁red	-9.48894
▁london	-9.48984
▁vita	-9.49037
▁öppna	-9.49055
▁utför	-9.49205
▁con	-9.49214
▁finska	-9.49236
▁organ	-9.49268
▁au	-9.49359
yn	-9.49429
▁bakom	-9.4952
▁administrativ	-9.49561
▁island	-9.49617
▁skrift	-9.4975
▁göteborgs	-9.49848
▁standard	-9.49925
▁her	-9.49942
▁nils	-9.49942
▁startade	-9.49944
▁2012	-9.49948
skola	-9.49957
▁studera	-9.49959
▁höll	-9.50006
▁silver	-9.501
▁hustru	-9.50111
▁kap	-9.50211
ret	-9.50277
cent	-9.50301
▁tagit	-9.50352
▁föddes	-9.50405
▁uppgifter	-9.50405
▁nationella	-9.50451
▁rikt	-9.5046
ins	-9.50472
pan	-9.50541
▁19	-9.5056
▁strax	-9.50856
▁bidrag	-9.50861
▁prins	-9.51052
▁2003	-9.51072
▁kul	-9.51106
▁gar	-9.51125
station	-9.51135
jan	-9.51141
▁lägre	-9.51172
▁religiösa	-9.5125
▁inter	-9.51308
▁26	-9.51356
nu	-9.51384
▁anna	-9.51388
kyrkan	-9.514
▁go	-9.51464
▁skogs	-9.51473
gas	-9.51491
arter	-9.51555
rop	-9.51663
har	-9.51663
▁kommit	-9.51686
▁2001	-9.51702
▁tvingades	-9.51715
▁orden	-9.51742
pol	-9.5175
elsen	-9.51841
▁fo	-9.51885
est	-9.51901
▁1960-	-9.51931
▁1991	-9.5197
▁tecken	-9.51981
▁nivå	-9.51998
▁kloster	-9.52015
63	-9.52029
▁yta	-9.52039
grad	-9.52182
klass	-9.52194
▁värd	-9.52221
▁metall	-9.52275
▁krav	-9.52294
▁fartyg	-9.5234
följ	-9.52385
▁slotts	-9.52485
ip	-9.52569
anska	-9.52682
lys	-9.52712
▁valde	-9.52757
▁påverka	-9.52773
grupper	-9.5283
▁liberal	-9.52834
▁officiellt	-9.52857
ux	-9.52897
▁läs	-9.52982
▁hitler	-9.53082
industrin	-9.53087
▁hed	-9.53105
ras	-9.53213
▁svårt	-9.53279
▁tåg	-9.53311
▁john	-9.53379
skog	-9.53406
▁akademien	-9.53541
▁ljud	-9.53542
▁ända	-9.5356
▁samarbete	-9.53643
▁frågor	-9.53668
kade	-9.53676
▁huset	-9.53734
▁2013	-9.5376
▁tillhörde	-9.53764
linjer	-9.53798
▁nå	-9.5388
pl	-9.53886
▁es	-9.53931
rörelsen	-9.54017
zi	-9.54022
▁träd	-9.54113
▁sydväst	-9.54113
▁uppgift	-9.54239
▁förslag	-9.54282
▁beteckna	-9.5429
▁nation	-9.54306
▁process	-9.54307
▁säsongen	-9.54399
rika	-9.54418
fär	-9.54468
▁°	-9.54474
▁historik	-9.54476
▁delas	-9.54491
wi	-9.54599
▁gjordes	-9.54698
▁levde	-9.54712
▁ch	-9.54816
▁2022	-9.54893
▁fil	-9.5491
▁byggnaden	-9.5498
▁internet	-9.55035
kal	-9.55037
parti	-9.55072
▁ru	-9.55138
gången	-9.55139
▁just	-9.55171
trafik	-9.55187
▁300	-9.55278
tjänst	-9.55285
▁arbetade	-9.55295
banan	-9.55303
▁27	-9.55309
▁sture	-9.55319
tisk	-9.55444
▁spanien	-9.55525
▁sköt	-9.55536
ham	-9.55588
▁kommuner	-9.55756
jer	-9.5582
▁kraftigt	-9.55861
▁folket	-9.55915
tri	-9.55931
▁sång	-9.55946
områden	-9.55948
▁nio	-9.55956
don	-9.55999
under	-9.56058
▁rå	-9.56062
blo	-9.5612
▁utrikes	-9.56175
▁lämna	-9.56202
▁2017	-9.56227
▁innehåll	-9.56279
▁ihop	-9.56288
blad	-9.56345
hel	-9.56403
▁brand	-9.56417
strid	-9.56426
last	-9.5644
▁uttal	-9.56503
▁antingen	-9.56522
ong	-9.56573
”.	-9.56599
▁politisk	-9.56608
gör	-9.56624
▁spelar	-9.56664
▁mal	-9.56664
▁skriva	-9.56711
▁sociala	-9.56803
▁delarna	-9.56889
▁slutligen	-9.56913
91	-9.56942
▁ersatte	-9.56963
rak	-9.57042
▁syfte	-9.5713
▁hö	-9.57138
▁ros	-9.5718
▁tron	-9.57192
alt	-9.57256
ram	-9.57333
▁skiljer	-9.57347
nö	-9.5735
ås	-9.57428
▁frihet	-9.57451
nen	-9.5751
▁gods	-9.57519
▁publik	-9.57523
▁1500-	-9.57524
▁samla	-9.57681
▁60	-9.57723
arbeta	-9.57727
▁park	-9.5774
▁förklara	-9.57769
ng	-9.57782
▁ty	-9.57802
▁herr	-9.57828
▁förändra	-9.57872
går	-9.57893
bus	-9.57921
▁on	-9.57939
▁motiv	-9.57971
nivå	-9.58043
▁länderna	-9.58075
▁presidenten	-9.58139
illa	-9.58174
stone	-9.58209
▁slav	-9.58257
ske	-9.5828
▁80	-9.58294
rå	-9.58319
ys	-9.58356
▁stenbock	-9.58377
▁1999	-9.5838
eringen	-9.5851
lat	-9.58584
▁titeln	-9.5865
▁rättigheter	-9.58665
▁tack	-9.58693
vald	-9.587
▁birger	-9.58708
pen	-9.58711
01	-9.58742
▁älv	-9.58774
▁band	-9.58876
▁betrakta	-9.58901
▁floden	-9.58999
talen	-9.5902
▁delstaten	-9.59089
(	-9.59214
▁definiera	-9.5922
▁sä	-9.59245
sund	-9.59379
▁uppfattning	-9.59408
gud	-9.59412
▁lin	-9.59417
▁brott	-9.59433
▁tradition	-9.59468
talets	-9.59523
▁skapade	-9.59523
▁togs	-9.59592
las	-9.59714
▁anfall	-9.59784
9	-9.59822
▁koppar	-9.59907
▁filosofi	-9.59935
ordning	-9.59992
▁professor	-9.60039
rom	-9.60089
▁para	-9.60154
gon	-9.60198
jör	-9.60238
▁egenskaper	-9.60317
▁häst	-9.60347
▁york	-9.60425
06	-9.60541
utöver	-9.60605
▁försvars	-9.60637
▁rike	-9.60707
stads	-9.60746
sidan	-9.60811
gruppen	-9.60871
▁tan	-9.60883
tagande	-9.60883
▁resultat	-9.60942
▁bahá	-9.60945
▁term	-9.61053
▁populär	-9.611
▁gård	-9.61141
▁kristina	-9.61143
▁infördes	-9.61177
▁reste	-9.6123
▁fn	-9.61242
▁organisation	-9.61297
ix	-9.61312
▁com	-9.61333
brott	-9.61421
handla	-9.6144
▁forskare	-9.61534
gran	-9.61606
▁skol	-9.61624
▁invigdes	-9.61644
_	-9.6167
▁hälften	-9.61809
▁syster	-9.61835
▁belägen	-9.61838
▁röda	-9.61878
▁planet	-9.61896
▁perioden	-9.61908
▁fotboll	-9.61909
▁storlek	-9.61943
sattes	-9.61943
62	-9.61955
pir	-9.62069
▁vet	-9.62131
▁hall	-9.62145
▁jäm	-9.62297
▁bästa	-9.62309
sätta	-9.62409
▁trädgård	-9.6243
▁däribland	-9.62525
▁pol	-9.62535
▁ansågs	-9.62559
iserade	-9.62582
bli	-9.62681
▁1994	-9.62712
▁ri	-9.62808
▁alternativ	-9.62879
▁punkt	-9.62882
)"	-9.62912
syn	-9.62934
▁motstånd	-9.6302
▁dam	-9.63148
▁heter	-9.63189
rit	-9.63205
▁indien	-9.63249
stod	-9.63379
07	-9.63453
marknad	-9.63514
samling	-9.63582
▁ärkebiskop	-9.63591
▁födelse	-9.63591
▁kaffe	-9.63599
▁platser	-9.63608
abba	-9.63651
05	-9.63718
rk	-9.63743
▁karaktär	-9.6379
▁slutade	-9.63831
nk	-9.63835
▁psyko	-9.63929
▁paul	-9.63932
▁400	-9.63966
▁skolan	-9.64044
pri	-9.64056
▁kusten	-9.64086
que	-9.64095
por	-9.64361
▁vitt	-9.64428
gt	-9.64497
▁majoritet	-9.6451
az	-9.64526
09	-9.647
▁risk	-9.64705
typ	-9.64724
holmen	-9.64729
▁havs	-9.64742
▁blod	-9.64786
uv	-9.64802
▁norden	-9.64804
▁drygt	-9.6485
▁strand	-9.64867
ec	-9.64925
▁förste	-9.64938
▁ändå	-9.65034
färd	-9.65135
▁röd	-9.65138
ration	-9.65198
▁minoritet	-9.65213
ick	-9.65241
▁snabb	-9.65309
ationen	-9.65356
▁flytta	-9.65413
▁gott	-9.65423
▁motsvarande	-9.65609
lov	-9.65617
▁begrepp	-9.65619
erande	-9.65622
▁kön	-9.65626
▁uppstod	-9.65724
▁napoleon	-9.65759
▁boken	-9.6576
vel	-9.65806
▁ram	-9.65815
▁utöva	-9.65864
▁peter	-9.65911
03	-9.6596
kort	-9.65972
kalla	-9.65998
▁atom	-9.66046
dor	-9.66088
▁kamp	-9.66113
▁ledamöter	-9.66256
▁ekonomisk	-9.66259
▁port	-9.66274
produktion	-9.66298
▁kommunikation	-9.66309
▁bur	-9.66396
▁bröt	-9.66496
kommun	-9.6661
▁delta	-9.66611
hr	-9.66613
▁företaget	-9.66658
ningarna	-9.66674
▁op	-9.66682
▁anledning	-9.6675
tel	-9.67006
vandring	-9.67065
▁valdes	-9.67104
bin	-9.67131
▁bred	-9.67213
född	-9.67317
▁dit	-9.67424
▁kalmar	-9.67437
▁upphov	-9.67483
▁fynd	-9.67499
▁placera	-9.67529
▁topp	-9.67551
▁städerna	-9.67617
▁pengar	-9.67623
su	-9.67686
▁sankt	-9.67689
▁hundra	-9.67692
ander	-9.67697
▁inget	-9.6772
▁kärn	-9.67729
herr	-9.67871
▁landskap	-9.679
of	-9.6794
lj	-9.67974
▁klar	-9.68039
▁sände	-9.68093
▁fyll	-9.6814
▁riksdags	-9.68148
▁mera	-9.68149
▁teater	-9.68222
torp	-9.68262
riv	-9.68272
▁idrotts	-9.6829
▁inklusiv	-9.68296
▁2019	-9.68296
▁dagen	-9.68326
gångar	-9.68489
▁ätten	-9.6855
▁asien	-9.68597
kl	-9.68627
kriget	-9.68658
▁färdig	-9.68692
ierna	-9.68718
▁infrastruktur	-9.68725
cy	-9.68732
▁uppfördes	-9.68748
▁vänster	-9.68754
▁platsen	-9.68954
iva	-9.6903
▁talar	-9.69083
▁låt	-9.69175
▁mu	-9.69407
våning	-9.6948
kung	-9.69519
▁öarna	-9.6966
▁georg	-9.69708
ingar	-9.69813
längd	-9.69825
▁arbetet	-9.69849
aff	-9.69878
▁läns	-9.69893
▁steg	-9.69906
▁vit	-9.69934
inna	-9.69937
▁skäl	-9.70083
▁ses	-9.70118
kas	-9.7012
lie	-9.70129
▁ledamot	-9.70247
▁und	-9.70358
▁29	-9.70609
▁sachsen	-9.70625
▁ång	-9.70629
hets	-9.70633
▁polis	-9.7065
▁filmen	-9.70692
▁pr	-9.70722
▁mening	-9.70733
din	-9.70739
ban	-9.70768
▁järnvägs	-9.70803
▁dennes	-9.70822
▁saknar	-9.70839
och	-9.70914
▁minska	-9.70995
▁tj	-9.71011
▁brist	-9.71023
märk	-9.71097
▁fe	-9.7113
▁fisk	-9.71156
styrelsen	-9.71172
▁fjärde	-9.71254
▁opera	-9.71273
älven	-9.71296
▁tillverka	-9.71311
▁nilsson	-9.71433
▁producera	-9.71461
▁våren	-9.71529
grupp	-9.71597
▁höger	-9.71646
▁utvecklingen	-9.71653
släkt	-9.71658
▁källa	-9.7169
sång	-9.71712
▁eriksson	-9.71743
▁återfinns	-9.71782
▁hemma	-9.71807
pet	-9.71808
▁nic	-9.71841
▁samlade	-9.71872
02	-9.71896
▁betydligt	-9.71976
▁obe	-9.7201
▁formellt	-9.72023
▁start	-9.72069
▁typer	-9.72074
▁näringsliv	-9.7215
kv	-9.72185
▁framställ	-9.7219
▁em	-9.72205
▁kast	-9.72205
▁tolka	-9.72222
jung	-9.72224
int	-9.7226
ytt	-9.72317
▁militära	-9.72341
▁präst	-9.72347
▁margareta	-9.72365
▁tu	-9.72371
▁je	-9.72414
▁bergs	-9.72433
▁status	-9.72498
▁mät	-9.72504
▁lära	-9.72571
löst	-9.72585
▁dalarna	-9.72593
▁800	-9.7264
▁skr	-9.72662
▁förvaltning	-9.72685
▁således	-9.72758
▁opposition	-9.72762
bron	-9.72763
▁vil	-9.72768
▁arbeta	-9.72828
förbindelse	-9.72928
▁funnits	-9.72935
▁frukt	-9.72942
▁premiärminister	-9.72952
▁linné	-9.72953
oc	-9.72958
▁dokument	-9.73084
ledning	-9.73088
tyr	-9.73116
▁nådde	-9.73153
▁organisationen	-9.73157
▁mur	-9.73217
▁konung	-9.73226
▁former	-9.73238
▁använts	-9.73257
drar	-9.73266
bru	-9.73313
torget	-9.73322
▁eld	-9.73398
▁handel	-9.7348
▁regionen	-9.7349
lid	-9.73503
▁student	-9.73569
▁2000-	-9.73577
▁kyrkor	-9.73589
▁effekt	-9.73594
▁kanal	-9.73608
▁nedan	-9.73739
platser	-9.73945
▁1998	-9.7395
▁sek	-9.74016
familj	-9.7405
▁symbol	-9.74065
▁lite	-9.74125
▁sommar	-9.74127
▁studie	-9.74129
vara	-9.7417
▁2021	-9.74173
▁salt	-9.74258
▁starka	-9.74273
▁tillstånd	-9.74296
räkning	-9.74306
▁fortsatt	-9.74317
lagen	-9.74319
mot	-9.74322
▁greve	-9.74339
▁heller	-9.74346
▁lov	-9.74348
▁skydda	-9.74469
▁byggnads	-9.74486
▁kam	-9.74495
handel	-9.74498
▁gro	-9.74585
▁struktur	-9.74615
▁mos	-9.74656
▁1990	-9.74688
▁köpte	-9.74809
▁rätts	-9.74874
malm	-9.74901
▁minne	-9.74948
▁poäng	-9.74974
til	-9.74989
skan	-9.75009
ioner	-9.75078
tron	-9.75101
vir	-9.75153
▁föremål	-9.75254
zo	-9.75274
▁bestående	-9.75308
▁sofia	-9.75336
▁pl	-9.75349
▁spanska	-9.75367
▁befolknings	-9.75389
förbundet	-9.75402
▁tillgång	-9.7546
▁ifk	-9.7548
▁parlamentet	-9.75577
ls	-9.75583
▁därpå	-9.75591
▁snö	-9.75641
vakt	-9.75689
ografi	-9.75696
▁ring	-9.75698
▁resa	-9.75712
▁återvände	-9.75748
▁äktenskap	-9.75789
sak	-9.75845
▁småland	-9.75864
cu	-9.75874
▁nederländerna	-9.75941
▁styrkor	-9.75945
▁kanske	-9.75957
vård	-9.76079
▁riddar	-9.76095
fisk	-9.76121
▁ke	-9.76129
▁umeå	-9.76143
öm	-9.76168
lett	-9.76178
▁dö	-9.76184
fyl	-9.76199
▁match	-9.76212
▁arkitektur	-9.76237
▁upprätta	-9.76332
▁oscar	-9.76355
fader	-9.76402
ganska	-9.7646
▁teknik	-9.76475
▁fort	-9.76492
▁sammanhang	-9.76714
▁buss	-9.76724
ingen	-9.76783
▁kalla	-9.76833
arbetare	-9.76856
04	-9.76885
verksamhet	-9.76937
▁statsminister	-9.76978
bad	-9.77044
▁högst	-9.7706
▁horn	-9.77101
▁utländska	-9.77142
hall	-9.77154
▁jan	-9.77155
▁motor	-9.77162
▁vanlig	-9.772
▁prägla	-9.77247
ons	-9.77525
▁internationellt	-9.77526
▁fra	-9.77537
▁jämtland	-9.77574
ståndet	-9.77688
▁600	-9.77756
▁guds	-9.77809
kultur	-9.77878
rin	-9.77894
kop	-9.7797
▁tak	-9.77975
▁uppgick	-9.77989
▁ver	-9.77997
▁finans	-9.7803
▁sonen	-9.78031
bra	-9.78043
▁lett	-9.78123
▁börjar	-9.78135
▁torr	-9.78148
▁gemensamma	-9.78234
slav	-9.78252
▁politiskt	-9.78282
▁regerings	-9.78396
▁katarina	-9.78397
▁närmare	-9.78402
äv	-9.78407
▁1974	-9.78409
▁vanligaste	-9.78444
spår	-9.78447
bord	-9.78494
▁1950-	-9.78528
▁tidning	-9.78592
död	-9.78671
▁latin	-9.78673
▁chef	-9.7868
▁ac	-9.78743
▁skärgård	-9.78751
▁kommunal	-9.78771
jor	-9.78782
här	-9.78796
ryd	-9.78873
ani	-9.78951
▁fråga	-9.78964
gått	-9.78969
▁yttre	-9.79023
▁inne	-9.7904
▁stig	-9.79125
byggnaden	-9.79159
▁björn	-9.79205
▁längd	-9.79218
▁precis	-9.79232
▁månad	-9.79271
▁ström	-9.79335
▁serien	-9.79355
▁jordbruk	-9.79468
▁solen	-9.79492
▁hård	-9.79567
▁inleddes	-9.79577
▁livs	-9.79605
▁sade	-9.79653
▁domstol	-9.7967
ket	-9.79671
▁etablerade	-9.7969
xi	-9.79752
▁betala	-9.7976
▁samling	-9.79795
ugg	-9.79837
område	-9.79906
▁brahe	-9.79919
unda	-9.79925
kostnad	-9.80039
skott	-9.80108
ach	-9.80148
▁tillkom	-9.80163
▁statens	-9.80175
stig	-9.80203
▁slog	-9.80209
mission	-9.8025
museet	-9.80286
▁menade	-9.80305
produkt	-9.8031
▁karriär	-9.80311
vagn	-9.80333
▁förklarade	-9.80356
▁döda	-9.80419
samfund	-9.80501
▁uni	-9.80524
▁press	-9.80529
ement	-9.8053
▁brun	-9.80537
▁kejsaren	-9.80556
oni	-9.80606
▁romersk	-9.80639
stiden	-9.80641
stil	-9.80748
▁fåglar	-9.80796
▁ci	-9.80898
musik	-9.81012
bygd	-9.81027
kår	-9.81118
kur	-9.81119
▁varierar	-9.81133
▁tom	-9.81159
king	-9.81193
orm	-9.81231
världen	-9.81244
▁transport	-9.81285
▁fiske	-9.81302
▁svarta	-9.81309
ång	-9.81327
▁miljarder	-9.81342
▁projekt	-9.81358
▁lön	-9.81373
▁varför	-9.81396
08	-9.81446
▁enskilda	-9.81467
▁gren	-9.81544
▁krävde	-9.81556
▁stam	-9.81573
▁skrivit	-9.81624
mal	-9.81662
▁konstitution	-9.81711
grund	-9.81753
▁ung	-9.81827
▁amerikansk	-9.81845
krig	-9.81846
▁gr	-9.8187
öarna	-9.81885
oli	-9.81916
bot	-9.81928
nät	-9.81995
fred	-9.82045
▁ran	-9.82076
göra	-9.82101
-19	-9.82217
▁byggde	-9.82284
▁följer	-9.82291
▁ställde	-9.82303
ges	-9.82403
företag	-9.82519
▁hol	-9.82532
grav	-9.82533
▁mont	-9.82622
riket	-9.82645
▁norrköping	-9.82651
▁fas	-9.8273
▁bevis	-9.82813
▁betraktas	-9.82819
▁allmänt	-9.82843
▁köpenhamn	-9.82847
▁vol	-9.82855
▁föräldrar	-9.82869
▁vanligtvis	-9.82891
▁olje	-9.82932
▁speciellt	-9.8294
▁utmärk	-9.8304
dy	-9.83068
▁härad	-9.83082
dis	-9.83087
sats	-9.83106
fäll	-9.83146
▁blom	-9.83176
▁tros	-9.83239
▁välja	-9.83248
▁modell	-9.83298
bre	-9.8333
▁svag	-9.83334
▁längst	-9.83376
ola	-9.83461
▁metod	-9.83492
▁1992	-9.83511
▁upptäckte	-9.83524
sekreterare	-9.83573
▁delstat	-9.83702
▁louis	-9.83718
▁lilla	-9.83728
▁resten	-9.83762
graf	-9.83832
ifrån	-9.83863
▁svår	-9.83865
▁gal	-9.83901
växt	-9.83953
▁jordbruks	-9.83967
▁normal	-9.84074
▁ör	-9.84139
▁krön	-9.84143
▁utgörs	-9.84154
▁jarl	-9.84165
teknik	-9.84237
kvarter	-9.84279
organ	-9.84281
▁ber	-9.84383
lla	-9.84408
ark	-9.84487
▁gul	-9.84673
▁arabiska	-9.84674
▁universitetet	-9.8477
▁sjukdom	-9.848
dia	-9.84827
dalen	-9.84836
▁ögon	-9.84838
▁ordning	-9.84843
▁nummer	-9.84859
▁sim	-9.84875
mur	-9.84918
▁gas	-9.8492
▁lades	-9.85016
färg	-9.85022
chi	-9.8504
▁1993	-9.8505
▁1995	-9.85052
bod	-9.85131
delning	-9.85142
plat	-9.85198
▁allmän	-9.85211
abel	-9.85219
▁dubbel	-9.8526
lus	-9.85279
▁1918	-9.85288
visa	-9.85351
tyska	-9.85357
klubb	-9.85496
▁själ	-9.85521
▁historien	-9.85654
▁förut	-9.85659
▁ges	-9.85668
vad	-9.85767
▁ekonomin	-9.85786
sberg	-9.85811
▁leda	-9.85839
▁bonde	-9.85859
▁hund	-9.85867
vapen	-9.85875
▁adels	-9.85904
▁snarare	-9.85929
▁tydlig	-9.85949
▁levande	-9.85952
▁uppnå	-9.86033
▁likhet	-9.8606
▁öar	-9.86065
▁allierade	-9.86152
ay	-9.86243
▁enhet	-9.86292
nan	-9.86306
fält	-9.8631
▁ifrån	-9.86361
▁kart	-9.86368
▁introducera	-9.86376
▁flod	-9.86526
▁iran	-9.86637
▁behov	-9.86669
▁sve	-9.86672
▁odla	-9.86679
▁stater	-9.86709
▁tätort	-9.86726
▁ol	-9.86741
▁grundade	-9.86769
▁krist	-9.8679
kat	-9.86804
▁rymd	-9.86855
rike	-9.86894
▁gotland	-9.86931
▁kraftig	-9.86959
▁ze	-9.86997
▁scen	-9.86998
▁linje	-9.87046
tv	-9.87062
▁beslutade	-9.87093
▁tillväxt	-9.87211
▁bildar	-9.87223
▁car	-9.87239
▁läge	-9.87303
▁goda	-9.87312
ät	-9.87423
kant	-9.87463
ländsk	-9.87464
▁tids	-9.87474
▁praktiken	-9.87504
alism	-9.87538
gal	-9.87575
▁objekt	-9.87589
eringar	-9.87603
▁rus	-9.87628
mun	-9.87652
▁mun	-9.87676
▁bibliotek	-9.87685
▁högt	-9.87705
▁jakob	-9.87732
▁robert	-9.87751
▁framgång	-9.87782
▁drev	-9.878
▁minnes	-9.87808
▁leder	-9.87842
stick	-9.87855
hav	-9.87863
▁anser	-9.87876
prov	-9.87877
dar	-9.87927
let	-9.87934
holms	-9.87964
▁slå	-9.87965
▁statliga	-9.87972
jul	-9.88019
risk	-9.88032
▁förstärk	-9.88048
ekonomi	-9.88141
tta	-9.88151
▁förbättra	-9.88188
▁ukraina	-9.88188
▁översättning	-9.88194
▁tät	-9.88195
▁oberoende	-9.88202
▁1945	-9.88208
part	-9.8824
sport	-9.88295
▁muhammed	-9.88416
läggning	-9.88432
hag	-9.88433
▁1986	-9.88433
▁tillverkning	-9.88433
▁90	-9.88434
tidning	-9.88514
▁normalt	-9.88515
ric	-9.88542
▁norrland	-9.8855
talande	-9.88552
▁bri	-9.88602
▁grekland	-9.88646
▁marin	-9.88661
▁gäst	-9.88663
▁rö	-9.88667
examen	-9.88675
▁(17	-9.88733
▁fu	-9.88735
▁svenskarna	-9.88772
▁privata	-9.88792
▁turism	-9.88819
▁lars	-9.88852
▁position	-9.88853
▁båt	-9.88903
▁judar	-9.88963
▁regioner	-9.89002
namnet	-9.89013
ze	-9.89081
▁positiv	-9.89106
▁beskriver	-9.89108
▁vall	-9.89136
regering	-9.89185
skatt	-9.89201
▁ämnen	-9.89238
▁skal	-9.89291
die	-9.89296
▁ä	-9.89326
bland	-9.8934
▁henrik	-9.89377
▁historiskt	-9.89433
process	-9.89456
▁skriver	-9.89457
▁erövrade	-9.89542
▁thomas	-9.89569
▁1989	-9.89582
▁1997	-9.89585
▁demografi	-9.89605
▁teori	-9.89641
▁rot	-9.89729
ial	-9.89743
▁skrifter	-9.89824
innan	-9.89881
▁kejsar	-9.89987
årig	-9.90022
▁jönköping	-9.90033
▁stabil	-9.90041
bart	-9.90045
▁cla	-9.90059
▁slavar	-9.90102
spelare	-9.90147
atet	-9.9015
ji	-9.90151
▁kristendomen	-9.90183
▁grön	-9.90188
▁gränsar	-9.90197
cha	-9.90205
▁region	-9.90209
▁motsvarar	-9.90217
▁70	-9.90224
ub	-9.90226
con	-9.90269
▁satt	-9.90302
▁jakt	-9.90363
▁vetenskapliga	-9.90402
▁vinna	-9.90479
när	-9.90486
▁behöver	-9.905
▁mytologi	-9.9051
▁individ	-9.90515
▁utvecklade	-9.90536
▁martin	-9.90538
▁egendom	-9.90561
itz	-9.90566
▁mass	-9.90576
▁fyr	-9.90577
▁uppfatta	-9.9059
isten	-9.90607
▁våg	-9.90659
ektion	-9.90724
▁gett	-9.90733
delar	-9.90749
känd	-9.90772
af	-9.90779
▁separat	-9.90795
▁partier	-9.90823
ledare	-9.90848
▁lagen	-9.9085
▁ledande	-9.9087
▁svenskt	-9.91007
▁tung	-9.91023
kn	-9.91048
▁fria	-9.91073
▁medeltida	-9.91099
▁utnämnde	-9.91144
▁säte	-9.91146
▁traditionella	-9.91181
▁wal	-9.9119
floden	-9.91201
komst	-9.91249
känn	-9.91314
▁verkar	-9.91345
▁kod	-9.91393
möte	-9.91399
▁skickade	-9.91408
▁påbörjade	-9.91412
▁bevarade	-9.91423
–16	-9.9149
gil	-9.91498
mus	-9.91518
ull	-9.91535
räv	-9.91564
▁bit	-9.91574
▁beror	-9.91578
▁övrigt	-9.91597
▁unga	-9.91642
tre	-9.91651
historia	-9.91672
▁offentlig	-9.91681
kammar	-9.91746
▁mm	-9.91776
▁psalm	-9.918
▁internationell	-9.91942
▁west	-9.91956
mann	-9.91994
gärd	-9.92035
▁fru	-9.92041
▁tjänst	-9.92047
vers	-9.92173
▁fot	-9.92235
▁återupp	-9.92261
▁vägen	-9.92297
▁katt	-9.92325
▁mörk	-9.92366
▁alexander	-9.92389
▁windows	-9.92389
▁1996	-9.92403
rådet	-9.92442
▁gått	-9.92465
▁kal	-9.92545
▁erbjud	-9.92549
▁löp	-9.92559
bry	-9.92568
▁småningom	-9.92628
▁division	-9.92642
fra	-9.92653
framförallt	-9.92653
pre	-9.92681
▁antag	-9.92695
kul	-9.92712
▁allmänhet	-9.92715
bäck	-9.92739
▁syfta	-9.92743
▁närheten	-9.92799
▁sats	-9.9281
▁filmer	-9.92835
▁offentliga	-9.92863
population	-9.92872
▁bytte	-9.92872
gram	-9.92876
▁järnväg	-9.92885
▁bröd	-9.92885
ap	-9.92929
▁torn	-9.93071
position	-9.93126
▁1930-	-9.9316
▁relation	-9.93162
▁sidor	-9.93192
▁representera	-9.93221
▁uppland	-9.93274
▁lok	-9.93293
,6	-9.93307
▁australien	-9.93353
▁gemensam	-9.93361
▁gavs	-9.934
▁förhållanden	-9.93443
▁laget	-9.93451
▁sällskap	-9.93514
medel	-9.93587
▁konsert	-9.93592
sö	-9.93616
skär	-9.93632
organisation	-9.93645
▁porträtt	-9.93648
for	-9.9365
industri	-9.93652
▁ap	-9.9367
▁aktiv	-9.93709
▁bygger	-9.93712
projekt	-9.93867
▁artikel	-9.93939
▁freden	-9.93958
▁bin	-9.93985
▁handlar	-9.94026
lades	-9.94063
alis	-9.94093
tuna	-9.9416
vagnar	-9.94179
byte	-9.9425
liggande	-9.94276
▁ry	-9.94284
▁individer	-9.94299
▁sällan	-9.9432
huvud	-9.94359
▁självständigt	-9.94464
▁republik	-9.94549
▁fan	-9.9474
▁säkerhets	-9.94751
▁holm	-9.94763
▁utsågs	-9.94773
▁debatt	-9.94778
stått	-9.94817
▁rörelse	-9.94948
▁författaren	-9.94955
▁utifrån	-9.94993
sky	-9.95027
flyg	-9.95038
▁arrangera	-9.95046
lämna	-9.95084
▁utställning	-9.95098
▁johannes	-9.95138
▁andre	-9.95205
▁regn	-9.95231
▁skär	-9.95247
▁1970	-9.95265
tornet	-9.95265
▁amerika	-9.95277
fr	-9.9528
▁special	-9.95281
▁sedermera	-9.95291
▁synnerhet	-9.95291
▁avgörande	-9.95295
iz	-9.95305
▁stu	-9.95342
cker	-9.95364
▁klubben	-9.95377
sol	-9.95436
▁sovjet	-9.95447
press	-9.95474
▁överens	-9.95517
örer	-9.95612
▁systemet	-9.95626
▁dans	-9.95631
ps	-9.95703
▁kapital	-9.9571
oxid	-9.95718
▁klara	-9.9583
▁grundämne	-9.95835
▁andersson	-9.95844
▁frågan	-9.95941
▁öl	-9.95942
iker	-9.95998
givning	-9.96021
steg	-9.9604
▁1988	-9.96045
▁furst	-9.96048
▁språken	-9.96115
flöde	-9.9614
▁stånd	-9.96145
▁avstånd	-9.96148
tio	-9.96158
▁spi	-9.96165
▁jämför	-9.96183
teckna	-9.96192
▁revolutionen	-9.96204
bolag	-9.96237
▁teologi	-9.96261
fullmäktige	-9.96279
▁söner	-9.96302
▁hårt	-9.96319
fon	-9.96328
▁igenom	-9.96349
▁förekom	-9.96393
▁nämnas	-9.96418
▁besökte	-9.96508
▁beskrev	-9.96526
▁erhöll	-9.96537
▁tolkning	-9.96554
▁närmast	-9.96569
enhet	-9.96579
mil	-9.9673
▁israel	-9.96775
personer	-9.96869
▁lant	-9.96888
ida	-9.96941
her	-9.96951
mod	-9.96979
▁helsingborg	-9.97024
låt	-9.9711
▁utförde	-9.97166
▁genomfördes	-9.97182
▁händelse	-9.97307
troende	-9.97379
larna	-9.97408
▁svar	-9.97409
▁räkna	-9.9744
▁gemensamt	-9.97456
flykt	-9.97472
väsen	-9.97604
▁lade	-9.97607
▁skepp	-9.97649
▁konstnär	-9.9776
▁undervisning	-9.97774
▁ludvig	-9.97776
▁vice	-9.97794
▁rit	-9.97825
▁dansk	-9.97835
roll	-9.97858
rekord	-9.97866
mu	-9.97906
▁härstammar	-9.97909
▁tjänste	-9.98005
▁700	-9.98017
▁egentligen	-9.98028
slagen	-9.98038
▁1973	-9.98043
▁gruv	-9.98048
pris	-9.98077
▁stå	-9.98194
▁mänskliga	-9.98197
▁lös	-9.98199
▁fågel	-9.98207
▁irak	-9.98222
▁klart	-9.98232
▁sprid	-9.98253
▁1952	-9.98298
▁jämfört	-9.98333
fram	-9.98354
▁arm	-9.98357
rot	-9.98381
▁(200	-9.98384
platsen	-9.98391
▁vattnet	-9.98413
▁straff	-9.98542
▁1979	-9.9855
▁sed	-9.98562
▁svea	-9.98562
▁sund	-9.98614
▁ändrade	-9.98631
▁rä	-9.98642
rick	-9.98684
▁visat	-9.98698
▁(1	-9.98709
▁rikets	-9.98734
▁östergötland	-9.98787
▁arab	-9.98794
▁frö	-9.98891
▁allians	-9.9908
▁larsson	-9.99082
▁grunden	-9.99086
▁reformer	-9.99126
stein	-9.99134
▁föreningen	-9.99359
kyrk	-9.9942
handling	-9.99442
fu	-9.99481
ätten	-9.99522
ända	-9.99525
nämnd	-9.99525
▁bidrog	-9.9956
▁skatte	-9.99565
▁vild	-9.99569
▁brittisk	-9.99589
▁tillfälle	-9.99666
▁andel	-9.9971
▁mon	-9.99726
▁heliga	-9.99755
▁motorväg	-9.99763
▁akademi	-9.99774
aga	-9.9979
▁koppla	-9.99832
▁religioner	-9.99933
böcker	-9.99953
▁förmåga	-9.99992
▁följa	-10.0001
▁lagar	-10.0003
▁frank	-10.0008
▁populära	-10.0008
▁utöka	-10.0015
▁inledde	-10.0016
▁gö	-10.0017
▁organisationer	-10.0018
former	-10.0019
▁if	-10.0028
▁studerade	-10.0028
▁marie	-10.0032
▁mötte	-10.0033
▁sägs	-10.0033
ökning	-10.0036
▁skapades	-10.0038
▁ökat	-10.0039
▁förmod	-10.0039
▁muslimer	-10.0043
▁fotbolls	-10.0046
▁mängder	-10.0049
▁make	-10.0051
get	-10.0052
cke	-10.0054
skydd	-10.0056
▁västergötland	-10.0058
▁glas	-10.0059
▁botten	-10.006
▁nordamerika	-10.0061
▁kemi	-10.0069
▁gränser	-10.0071
syra	-10.0081
▁varianter	-10.0083
▁italienska	-10.0087
ali	-10.0096
sgatan	-10.0099
chef	-10.0107
▁yrkes	-10.011
▁revolution	-10.0117
▁1980	-10.0118
▁at	-10.0119
▁tidig	-10.012
▁satte	-10.0121
▁traditionellt	-10.0122
▁föll	-10.0131
▁huvudsak	-10.0132
bär	-10.0133
▁rysk	-10.0149
▁inkluderar	-10.0159
▁col	-10.0161
▁växter	-10.0161
▁initiativ	-10.0162
▁1982	-10.0164
▁kyrk	-10.0169
▁nästa	-10.0183
▁borde	-10.0188
▁övre	-10.0189
yng	-10.0199
▁fördel	-10.0199
▁röst	-10.0201
▁wien	-10.0203
miljö	-10.0208
kritisk	-10.0216
eb	-10.0218
▁verket	-10.0219
▁riksrådet	-10.0219
▁ai	-10.0227
gy	-10.0235
▁sannolikt	-10.024
▁grundläggande	-10.0241
▁beskrivs	-10.0242
ider	-10.0242
▁tunn	-10.0243
parken	-10.0243
klo	-10.0243
▁dominera	-10.0245
eriet	-10.0247
▁tele	-10.0251
▁byte	-10.0259
”,	-10.0259
gri	-10.0261
▁lek	-10.0262
▁cha	-10.0265
▁dis	-10.0266
▁tillgänglig	-10.0267
▁1200-	-10.0267
▁katolska	-10.0269
▁vikt	-10.0269
▁länet	-10.0272
▁skiv	-10.0272
före	-10.0274
stid	-10.0291
qvist	-10.0294
▁tidskrift	-10.0307
▁mig	-10.0308
▁upplev	-10.0313
▁argument	-10.032
▁linköping	-10.0321
byggda	-10.0322
bert	-10.0326
▁pil	-10.0328
▁lit	-10.0329
old	-10.0334
svensk	-10.0342
▁miljon	-10.0361
▁vo	-10.0363
ish	-10.0364
▁överste	-10.0373
▁egypten	-10.0374
▁utnyttja	-10.0374
▁ulrika	-10.0374
server	-10.0375
▁1985	-10.0376
▁maskin	-10.0379
▁skatt	-10.0383
järn	-10.0387
▁publicera	-10.039
▁sub	-10.039
trafiken	-10.0391
▁invasion	-10.04
▁profet	-10.0401
monument	-10.0401
▁1975	-10.0402
▁1917	-10.0403
▁säger	-10.0405
▁förstör	-10.0407
ford	-10.0409
▁marknads	-10.0409
rig	-10.0421
]	-10.0426
▁rygg	-10.0438
▁anspråk	-10.0438
▁totala	-10.044
▁we	-10.044
qu	-10.0442
▁viktigt	-10.0443
▁samhälle	-10.0445
▁bnp	-10.0455
ef	-10.0456
▁livsmedel	-10.0456
stedt	-10.0457
ipp	-10.0458
guld	-10.0459
serien	-10.0462
torn	-10.0463
strand	-10.0469
▁lid	-10.0469
▁byggnad	-10.0477
▁bedöm	-10.0481
▁blixen	-10.0482
▁tillfällig	-10.0485
▁(16	-10.0487
▁administrativa	-10.0488
banken	-10.049
ré	-10.0494
städer	-10.0494
▁förbund	-10.0497
▁däggdjur	-10.0508
▁eleonora	-10.0508
▁samtida	-10.0521
▁can	-10.0524
hn	-10.0525
▁effektiv	-10.0525
hugg	-10.0526
enta	-10.0528
livet	-10.053
hållning	-10.0531
text	-10.0532
lia	-10.0534
▁spar	-10.0534
▁fel	-10.0534
material	-10.0535
▁international	-10.0536
▁beräkna	-10.0538
▁nato	-10.054
▁bevara	-10.0541
▁styrelse	-10.0541
▁skulptur	-10.0542
förening	-10.0547
▁kroppen	-10.0549
▁etniska	-10.0553
▁ob	-10.0554
,1	-10.0557
▁gunnar	-10.0563
baserade	-10.0573
iter	-10.0582
▁behandla	-10.0586
källa	-10.0586
▁kärlek	-10.059
▁beskrivning	-10.059
▁albert	-10.0594
▁övertog	-10.0594
▁sydafrika	-10.0596
jon	-10.0597
▁kulturella	-10.0601
kod	-10.0602
▁akt	-10.0609
▁texter	-10.061
▁inkomst	-10.0612
▁fullständig	-10.0617
▁wilhelm	-10.0617
från	-10.0622
▁skolor	-10.0623
▁kyrkans	-10.0629
berättelse	-10.063
sjuk	-10.0639
▁termen	-10.064
byggd	-10.0644
▁socker	-10.0646
person	-10.0648
▁östersjön	-10.065
▁estland	-10.0653
▁cy	-10.0656
fer	-10.0656
▁nödvändig	-10.0672
▁anslutning	-10.0672
liknande	-10.0675
isterna	-10.0677
▁arten	-10.0679
▁ägg	-10.068
▁bio	-10.0684
sområden	-10.0697
▁schweiz	-10.0699
▁pet	-10.0701
sområde	-10.0701
▁element	-10.0702
hål	-10.0702
▁framåt	-10.0704
politisk	-10.0705
▁kropps	-10.0705
björn	-10.0706
▁lån	-10.0709
▁hette	-10.0728
▁generation	-10.0728
▁politiker	-10.073
▁franc	-10.0731
mö	-10.0736
▁smak	-10.0739
▁skicka	-10.0741
▁styrka	-10.0746
▁texten	-10.0746
▁rep	-10.0749
▁trupperna	-10.075
hundra	-10.075
eby	-10.0753
2)	-10.0753
▁bengt	-10.0754
▁elisabet	-10.0755
▁lejon	-10.0757
car	-10.0758
▁ste	-10.0759
▁talas	-10.0761
eu	-10.0762
▁store	-10.0763
▁sådant	-10.0764
orden	-10.0767
▁fasad	-10.0768
▁religiös	-10.0768
▁prov	-10.0769
linjen	-10.0774
pin	-10.0774
aktig	-10.0775
rör	-10.0779
▁matematik	-10.0782
▁1976	-10.0784
ita	-10.0784
▁kristen	-10.0791
ula	-10.0795
ämne	-10.0795
medalj	-10.0801
▁betydelsen	-10.0803
▁oden	-10.0806
▁byggt	-10.0806
▁utsträckning	-10.081
▁anhängare	-10.081
▁extrem	-10.081
maskin	-10.0811
▁anpassa	-10.0811
▁tekniska	-10.0812
▁vilja	-10.0814
▁femte	-10.0814
▁city	-10.0815
▁hud	-10.0835
▁fängelse	-10.0838
▁lyd	-10.0839
▁kalendern	-10.0839
▁dollar	-10.0839
vikt	-10.0841
▁hindra	-10.0841
▁häng	-10.0856
▁grann	-10.0857
▁ekonomiskt	-10.0867
▁naturen	-10.0871
▁placerade	-10.0879
regi	-10.0879
olf	-10.0881
▁idrott	-10.0889
öst	-10.0891
▁preussen	-10.0894
▁eva	-10.0895
▁minskade	-10.0895
▁upptäckt	-10.0897
minne	-10.0901
afrika	-10.0904
▁säsong	-10.091
▁fabrik	-10.091
▁hälsa	-10.0913
▁saint	-10.0914
▁teorier	-10.0917
▁malm	-10.0918
värde	-10.0919
▁timmar	-10.0923
▁turkiet	-10.0923
▁stalin	-10.0923
god	-10.0924
▁valdemar	-10.0927
▁syftar	-10.0938
▁kandidat	-10.0939
köping	-10.0943
▁nordväst	-10.0943
▁händelser	-10.0949
▁1969	-10.0952
▁passera	-10.0956
hult	-10.096
centrum	-10.0962
▁når	-10.0963
brytning	-10.0969
iteten	-10.097
▁etymologi	-10.0979
▁öppen	-10.0979
sett	-10.098
▁rörelsen	-10.098
▁konflikt	-10.0982
tänk	-10.0984
▁afrikanska	-10.0989
följd	-10.0992
▁sär	-10.0993
skepp	-10.0993
▁lärare	-10.0994
sektorn	-10.0997
bit	-10.1002
förbund	-10.1005
▁håller	-10.1006
▁nämns	-10.1007
▁helsingfors	-10.1007
▁bildas	-10.1009
▁valuta	-10.101
▁beskriva	-10.1011
▁torg	-10.1022
▁bilder	-10.1022
▁ås	-10.1025
▁kontrollera	-10.1027
även	-10.1029
slaget	-10.1029
kä	-10.1037
▁sist	-10.104
▁kanada	-10.1042
▁1919	-10.1044
rib	-10.1045
▁idéer	-10.1045
▁odling	-10.1053
▁rent	-10.1056
▁cell	-10.106
▁sent	-10.1063
▁möjligen	-10.1065
▁olympisk	-10.1065
▁judiska	-10.1066
▁dominerande	-10.1071
▁bandet	-10.1072
▁förening	-10.1082
,7	-10.1085
▁allvar	-10.1086
teckningar	-10.1089
▁återigen	-10.1094
▁vintern	-10.1097
▁latinska	-10.1103
heim	-10.1104
▁proto	-10.1112
▁experiment	-10.1117
▁eventuell	-10.1122
▁fungerar	-10.1124
▁antiken	-10.1128
▁sjuk	-10.1133
▁koalition	-10.1137
▁1900	-10.1142
,3	-10.1142
▁skrevs	-10.1143
▁jordens	-10.1145
laget	-10.1148
▁ändra	-10.1149
▁befäl	-10.115
▁world	-10.1151
▁författning	-10.1153
▁bostads	-10.1153
▁familje	-10.1153
▁harald	-10.1155
▁spe	-10.1156
▁cor	-10.1157
ägare	-10.1162
▁vecka	-10.1176
▁kronan	-10.1176
▁elefant	-10.118
▁föda	-10.1181
▁george	-10.1183
▁rådet	-10.1186
▁pen	-10.119
hand	-10.1194
nos	-10.1198
▁vm	-10.12
▁nederbörd	-10.1208
▁hämta	-10.1209
▁utrikesminister	-10.121
konvention	-10.1211
▁regera	-10.1215
sområdet	-10.1216
▁villa	-10.1217
▁öppnade	-10.1218
▁kongo	-10.1218
gra	-10.1219
▁kron	-10.1224
▁berätta	-10.123
▁reserv	-10.1235
utbildning	-10.1239
▁1967	-10.1239
▁transporter	-10.124
▁sur	-10.1241
▁begränsa	-10.1255
▁super	-10.1258
▁förstå	-10.1258
▁allsvenskan	-10.1267
▁tolv	-10.1267
▁tydligt	-10.1267
▁1920	-10.1268
▁1972	-10.1269
▁vård	-10.1269
▁spred	-10.1273
▁lägga	-10.1274
▁svåra	-10.1275
▁marken	-10.1276
utveckling	-10.1282
▁kost	-10.1287
▁relationer	-10.1288
▁majoriteten	-10.1293
▁medborgare	-10.1296
▁börjat	-10.1297
▁kropp	-10.1298
uni	-10.13
ture	-10.1302
▁1940	-10.1305
▁nationell	-10.1312
kol	-10.1313
▁fann	-10.1318
▁strindberg	-10.1325
▁orten	-10.1327
▁fira	-10.1328
stall	-10.1334
▁verklighet	-10.1336
länder	-10.1337
▁blad	-10.1344
skick	-10.1347
▁närmaste	-10.135
▁talade	-10.1353
▁klassiska	-10.1354
▁nämligen	-10.1355
konferens	-10.1355
▁holstein	-10.1355
▁förbunds	-10.1357
▁exakt	-10.1361
▁veckor	-10.1361
▁dialekt	-10.1361
▁turist	-10.1364
▁brons	-10.1368
bur	-10.1368
ini	-10.1371
stift	-10.1377
▁alkohol	-10.1384
▁behövde	-10.1384
skolor	-10.1388
▁öka	-10.139
▁1960	-10.1392
▁mol	-10.1397
▁dan	-10.1398
format	-10.1399
▁kolonial	-10.1402
▁rh	-10.1411
▁besegrade	-10.1416
natt	-10.1428
rummet	-10.1428
motor	-10.1436
rött	-10.1437
▁fiskar	-10.1444
▁1987	-10.1445
▁sydamerika	-10.1447
▁kammaren	-10.1448
fördelning	-10.1457
▁jean	-10.1467
hol	-10.1468
▁skola	-10.1468
▁särskilda	-10.1469
▁förknippa	-10.1473
olo	-10.1474
▁inrikes	-10.1474
▁vägar	-10.148
▁moder	-10.1496
com	-10.1501
▁1920-	-10.1508
▁stilla	-10.1509
▁europas	-10.1517
▁mineral	-10.1524
▁mynt	-10.1524
▁inbördeskriget	-10.1524
bj	-10.1531
ect	-10.1531
▁månen	-10.1532
visade	-10.1533
▁tillämpa	-10.1533
▁mörner	-10.1533
▁regent	-10.1534
▁religions	-10.1535
hö	-10.1541
▁undan	-10.1543
▁real	-10.1547
esiska	-10.1549
barn	-10.1553
▁förenade	-10.1553
▁pal	-10.1554
▁mary	-10.1556
historisk	-10.1556
▁etablera	-10.1557
träff	-10.1558
▁1981	-10.1565
▁tänkt	-10.1575
▁ideologi	-10.1575
bana	-10.1576
nätet	-10.1578
veck	-10.1584
▁900	-10.1585
ordningen	-10.1593
▁förblev	-10.1593
▁naturliga	-10.1594
▁fungera	-10.1595
▁förklaring	-10.16
▁lansera	-10.16
▁ytan	-10.16
▁hill	-10.1603
▁knutsson	-10.1604
▁kunnat	-10.1605
▁lager	-10.1617
▁förde	-10.162
▁tanke	-10.1622
▁upphörde	-10.1624
▁låta	-10.1629
▁35	-10.1631
▁flyttades	-10.1633
▁spelare	-10.1636
▁sha	-10.1639
▁astronom	-10.1654
▁sammanlagt	-10.1654
lagda	-10.1654
förvärv	-10.1655
▁villkor	-10.1655
▁1968	-10.1656
▁otto	-10.1656
▁stav	-10.1657
▁tänd	-10.1659
▁mus	-10.1662
mos	-10.1663
▁reform	-10.1663
▁inrättades	-10.1664
föreningen	-10.1666
▁rese	-10.1669
yo	-10.1672
▁utvecklats	-10.1674
▁kände	-10.1675
▁publicerades	-10.1679
snitt	-10.1679
▁original	-10.1684
köp	-10.1686
▁pri	-10.1691
▁intog	-10.1693
▁födda	-10.1694
▁mord	-10.1694
rygg	-10.1698
▁vers	-10.1708
▁william	-10.1715
dräkt	-10.1715
got	-10.1719
tj	-10.172
▁skillnader	-10.172
▁allra	-10.1721
▁finlands	-10.1726
institut	-10.1728
▁inslag	-10.1728
back	-10.1732
▁tidpunkt	-10.1735
▁nog	-10.1741
bla	-10.1741
▁150	-10.1743
▁diplomat	-10.1745
▁tjugo	-10.1745
▁mikro	-10.1745
▁släkten	-10.1748
▁kris	-10.1749
▁ute	-10.1751
mak	-10.1756
▁förändringar	-10.1763
▁järnvägar	-10.1766
loppet	-10.1768
▁hell	-10.177
ori	-10.1772
▁invånarna	-10.1776
▁beteende	-10.1776
▁sökte	-10.1776
▁sy	-10.1776
▁personlig	-10.1778
lock	-10.1779
▁1910	-10.178
▁sil	-10.1782
▁hörn	-10.1783
▁traditioner	-10.1787
givna	-10.179
▁jesu	-10.1798
banor	-10.18
▁kombination	-10.1807
▁snorre	-10.1807
▁föreslog	-10.1807
kast	-10.1822
▁kinesiska	-10.1837
▁rösträtt	-10.1841
▁märks	-10.1846
▁utseende	-10.1847
▁extra	-10.1851
homo	-10.1853
▁metoder	-10.1853
linje	-10.1855
▁ting	-10.1855
▁helg	-10.1857
▁stjärn	-10.1861
signal	-10.1862
tänder	-10.1872
ble	-10.1873
▁poly	-10.1877
ologiska	-10.1885
▁människans	-10.1893
▁allmänheten	-10.1894
▁västerbotten	-10.19
▁1300-	-10.19
▁belgien	-10.19
▁berättelser	-10.1903
konserv	-10.1906
natur	-10.1916
▁figur	-10.1918
året	-10.1918
▁formen	-10.1926
valet	-10.1929
▁digital	-10.1931
▁saknade	-10.1935
frihet	-10.1943
▁framtid	-10.1944
▁drabbades	-10.1954
▁[	-10.1957
▁johansson	-10.1957
▁gällde	-10.1962
▁1400-	-10.1962
modell	-10.1962
▁värmland	-10.1962
▁mått	-10.1963
▁trodde	-10.1963
▁medlemsstat	-10.1967
▁slags	-10.1967
▁ky	-10.1968
ici	-10.197
skrift	-10.1979
▁hav	-10.1983
▁universitets	-10.1983
▁beslöt	-10.1994
cho	-10.1994
tävling	-10.1998
ili	-10.2001
▁front	-10.2002
▁kalk	-10.201
▁demokratiska	-10.2011
▁religionen	-10.2013
lista	-10.2014
vida	-10.2019
▁1890	-10.202
▁skara	-10.2021
karl	-10.2021
▁väljs	-10.2026
▁ägare	-10.2033
▁konstruktion	-10.2035
▁oss	-10.2038
▁kejsare	-10.2043
▁kanon	-10.2044
qui	-10.2054
▁förlag	-10.2055
▁epi	-10.2057
▁charles	-10.2057
▁söka	-10.2058
▁1948	-10.2058
▁ungern	-10.206
▁kvinnliga	-10.2068
▁samiska	-10.2068
▁cm	-10.207
▁stiftelse	-10.2073
▁media	-10.2078
ino	-10.208
,9	-10.2084
▁breda	-10.2087
▁global	-10.2088
▁berättar	-10.209
döme	-10.209
▁1965	-10.209
▁anställda	-10.2092
▁anlände	-10.2098
ios	-10.2104
▁nationerna	-10.2104
jag	-10.2109
▁dialekter	-10.2113
affär	-10.2115
▁massa	-10.2115
▁fossil	-10.212
▁1977	-10.2122
▁1941	-10.2122
▁bush	-10.2123
lägenhet	-10.2128
▁ytterst	-10.2132
fä	-10.2133
▁organisera	-10.2134
▁tredjedel	-10.2141
▁genomförde	-10.2143
▁reaktion	-10.2146
▁mac	-10.2146
▁järnvägen	-10.2151
▁vunnit	-10.2152
▁parken	-10.2154
▁kommunreform	-10.2155
etik	-10.2159
▁öppnades	-10.2159
▁skapar	-10.216
äkta	-10.2166
kulturen	-10.2169
▁byn	-10.2172
folket	-10.2176
▁rosen	-10.2181
samt	-10.2182
▁förhandlingar	-10.2184
▁existera	-10.2187
kommission	-10.2187
▁enkelt	-10.2191
▁visby	-10.2194
kyrka	-10.2204
▁kunglig	-10.2205
▁käll	-10.2206
▁kallar	-10.221
▁skandinavien	-10.2216
▁fortsätta	-10.2217
▁1914	-10.2218
2.	-10.2221
asi	-10.2222
lika	-10.2228
skapet	-10.223
▁gården	-10.2231
▁naturligt	-10.2232
rädd	-10.224
ligaste	-10.2243
▁tillräckligt	-10.2245
▁grå	-10.2246
▁kronprins	-10.2248
▁universum	-10.2248
▁ämbets	-10.2248
ole	-10.225
▁debut	-10.2251
▁bibeln	-10.2253
▁mandat	-10.2254
▁hantverk	-10.2254
▁ungdom	-10.2259
demokraterna	-10.2261
▁fjäll	-10.2263
▁uppskatta	-10.2268
▁genomföra	-10.2269
▁filosof	-10.2272
▁jordbruket	-10.2274
tun	-10.2276
▁levnads	-10.228
▁bekräfta	-10.2282
cykel	-10.2288
▁lösning	-10.2289
fond	-10.2293
▁öde	-10.2295
▁utbredning	-10.2301
▁civil	-10.2303
▁kontor	-10.2304
▁högtid	-10.2305
▁tävla	-10.2313
▁domsaga	-10.2314
▁flottan	-10.2314
▁1944	-10.2315
▁ishockey	-10.2315
▁nationalpark	-10.2321
ljud	-10.2321
▁traditionen	-10.2322
▁nätverk	-10.2324
▁utvecklings	-10.2331
▁alltmer	-10.2332
▁antogs	-10.2334
iff	-10.2337
▁meta	-10.2339
▁xi	-10.2344
▁osmanska	-10.2345
▁örebro	-10.2345
▁värme	-10.2345
▁1963	-10.2346
▁chi	-10.2355
▁riksdag	-10.2355
▁elit	-10.2357
▁order	-10.2359
▁tidningar	-10.2362
dals	-10.2368
▁begravning	-10.2375
▁takt	-10.2376
▁rock	-10.2376
▁känneteckna	-10.2377
▁afghanistan	-10.2377
▁misslyckade	-10.2377
▁kommersiell	-10.2378
▁1961	-10.2379
▁1984	-10.2379
▁1946	-10.2379
▁västerås	-10.2381
▁vänta	-10.2383
▁centralort	-10.2384
frågan	-10.2385
▁årligen	-10.2388
▁domkyrka	-10.2389
▁py	-10.239
▁säker	-10.2398
▁delades	-10.2403
▁skapat	-10.2406
dikt	-10.2407
kommen	-10.2408
▁resultatet	-10.2409
▁serbien	-10.241
▁testamentet	-10.2412
båtar	-10.2413
▁variera	-10.2414
▁genomsnitt	-10.2415
▁morgon	-10.2415
bibliotek	-10.2417
rörelse	-10.242
ativa	-10.2425
▁åker	-10.2426
eli	-10.2437
bolaget	-10.2442
▁ensam	-10.2443
▁1939	-10.2445
▁vägrade	-10.2449
republik	-10.245
▁block	-10.2451
▁andelen	-10.2457
▁planerade	-10.2457
▁iv	-10.2468
▁radikal	-10.2476
▁1958	-10.2478
▁visst	-10.2479
vor	-10.248
höjd	-10.2484
▁kyrkogård	-10.2484
nazist	-10.249
gjorde	-10.249
▁unions	-10.2499
fältet	-10.25
▁närvarande	-10.2502
teori	-10.2504
hallen	-10.2509
▁bry	-10.2512
▁folkmängd	-10.2512
programmet	-10.2519
▁påven	-10.2528
▁skepps	-10.253
▁arena	-10.253
vision	-10.2531
▁ungdoms	-10.2533
▁jon	-10.2537
▁kvinna	-10.2538
▁exemplar	-10.2542
▁hamburg	-10.2542
▁caesar	-10.2542
▁1964	-10.2544
▁riksråd	-10.2544
▁stan	-10.2545
▁oro	-10.2547
rich	-10.2549
organisationen	-10.2551
▁litet	-10.2551
anläggning	-10.2555
▁parlament	-10.2558
▁läsa	-10.2559
änt	-10.2563
▁floder	-10.2563
▁svenske	-10.257
▁landskaps	-10.2572
våg	-10.2574
atlant	-10.2577
▁vetenskaplig	-10.2579
▁formula	-10.258
oll	-10.2581
▁tala	-10.2584
▁strids	-10.2584
▁adam	-10.2587
departementet	-10.2588
▁xiv	-10.2592
rest	-10.2592
▁statsråd	-10.2594
▁regemente	-10.2597
▁släpptes	-10.2604
▁hastighet	-10.2605
▁1978	-10.2608
▁ätt	-10.2611
acc	-10.2614
museum	-10.2615
▁polska	-10.2618
▁affärs	-10.2619
▁human	-10.2622
▁1950	-10.2625
▁ali	-10.2625
näring	-10.263
mässigt	-10.264
▁stadsdelen	-10.2642
▁1983	-10.2644
▁norrut	-10.2646
▁säkerhet	-10.2649
▁bomb	-10.2654
flotta	-10.2655
länderna	-10.2659
▁syr	-10.2661
▁begär	-10.2663
▁tvär	-10.2671
▁patri	-10.2672
▁bredd	-10.2673
▁diskutera	-10.2676
▁stycken	-10.2678
produkter	-10.2688
▁palatset	-10.2688
▁myr	-10.2696
▁grader	-10.2701
▁myndighet	-10.2703
▁ämne	-10.2706
bal	-10.2707
▁hävdade	-10.2709
▁statistik	-10.2709
▁innehöll	-10.271
iske	-10.2715
skift	-10.2715
▁konflikter	-10.2718
▁bergman	-10.2723
▁nordisk	-10.274
▁uppmärksamhet	-10.2743
▁väldigt	-10.2743
▁1966	-10.2745
▁fysik	-10.2745
▁gall	-10.2746
▁vare	-10.2748
▁ersätta	-10.2748
junk	-10.275
fart	-10.2751
röd	-10.2753
löv	-10.2754
figur	-10.2756
▁biologisk	-10.2759
▁efterträdde	-10.2761
pek	-10.2762
hund	-10.2764
kansler	-10.2765
▁historie	-10.2767
▁evolution	-10.2768
bröd	-10.2769
▁timme	-10.277
gill	-10.2775
▁omfattade	-10.2776
▁framträdande	-10.2777
▁kavalleri	-10.2777
▁tjäna	-10.2779
▁josefus	-10.2781
▁engelsk	-10.2782
▁kommunens	-10.2784
▁fästning	-10.2786
anda	-10.2789
▁avseende	-10.2789
▁verksam	-10.2794
▁begravd	-10.2804
lem	-10.2806
▁förhindra	-10.2812
▁landshövding	-10.2815
▁album	-10.2815
▁särskild	-10.2815
fång	-10.2816
▁meddelade	-10.2816
win	-10.2817
▁ämnet	-10.2818
▁anlades	-10.2822
kull	-10.2825
församlingen	-10.2841
▁adeln	-10.2844
krisen	-10.2844
▁mandatperiod	-10.2846
▁banan	-10.2848
väst	-10.285
▁tillfällen	-10.285
▁ulf	-10.285
dam	-10.2856
▁vänner	-10.2862
▁datera	-10.2863
inter	-10.2864
▁självständig	-10.2872
samhälle	-10.2873
▁qu	-10.2875
▁moskva	-10.2879
▁artilleri	-10.2879
▁motståndare	-10.288
▁läkar	-10.288
▁1962	-10.2881
▁birgitta	-10.2883
▁slöt	-10.2884
lapp	-10.2885
▁uppföra	-10.2891
▁framgångar	-10.2894
▁gla	-10.2899
▁paret	-10.291
▁fack	-10.2911
▁permanent	-10.2914
▁vadstena	-10.2914
▁regi	-10.2914
▁världsarv	-10.2914
ycka	-10.2916
▁erövra	-10.2917
▁variant	-10.2918
▁sträv	-10.2918
legend	-10.2922
▁döm	-10.2926
▁sovjetiska	-10.2926
▁berömda	-10.2929
▁utbilda	-10.2932
koll	-10.2933
delat	-10.2935
▁muslimska	-10.2943
▁rädda	-10.2947
gin	-10.2947
▁gällande	-10.2948
-1	-10.2948
ming	-10.295
▁trapp	-10.2953
dagar	-10.2958
▁orsaka	-10.2959
åriga	-10.2959
▁störst	-10.296
▁test	-10.2961
agne	-10.2974
▁verksamheten	-10.2974
▁stammar	-10.2976
▁kuba	-10.2981
▁behandling	-10.2981
cell	-10.2981
▁ideal	-10.2982
▁djurgården	-10.2987
▁försäljning	-10.2991
▁leva	-10.2991
strålning	-10.2995
▁resulterade	-10.2998
▁sälja	-10.2999
sverige	-10.3001
▁flagga	-10.3003
▁total	-10.3003
▁acceptera	-10.3006
mör	-10.301
båg	-10.3011
▁samlings	-10.3012
▁aktiva	-10.3016
▁diskussion	-10.3017
▁rinner	-10.3017
▁persson	-10.302
▁naturreservat	-10.302
dotter	-10.3024
▁huvudsakliga	-10.3026
▁ryssarna	-10.3029
▁konstnärer	-10.3044
▁vuxna	-10.3052
▁öppet	-10.3052
▁befann	-10.3052
föreställningar	-10.3054
▁1924	-10.3054
▁tvinga	-10.3057
▁kammar	-10.3057
ämbetet	-10.3064
▁förändring	-10.3065
▁skada	-10.3074
▁medlemmarna	-10.3077
kap	-10.3079
katolsk	-10.3085
väv	-10.3088
▁halland	-10.3091
▁hotade	-10.3094
▁jämförelse	-10.3095
▁bäst	-10.3095
ålder	-10.3098
▁unik	-10.3103
tradition	-10.3104
german	-10.3106
fåglar	-10.3108
fabrik	-10.3108
fria	-10.3109
▁tror	-10.3114
emi	-10.312
out	-10.3121
▁vulkan	-10.3122
▁skildra	-10.3122
▁urval	-10.3123
▁journalist	-10.3123
▁christian	-10.3124
▁david	-10.3125
skyldig	-10.3126
▁german	-10.3131
▁temperatur	-10.314
▁japanska	-10.3144
▁anger	-10.3144
▁vägg	-10.3145
kommittén	-10.3148
▁inhemska	-10.3151
▁hushåll	-10.3151
▁abraham	-10.3157
▁klipp	-10.316
▁1959	-10.316
▁sjöar	-10.3165
▁stål	-10.3165
▁barnen	-10.3167
▁varvid	-10.3172
▁begränsad	-10.3173
▁=	-10.3179
president	-10.3181
▁äktenskapet	-10.3184
▁historiker	-10.3185
lm	-10.3186
ssel	-10.3186
kontor	-10.3188
molekyl	-10.3193
lax	-10.3199
döpt	-10.32
▁tätorter	-10.3211
▁rund	-10.3212
komma	-10.3213
▁filip	-10.3213
▁ved	-10.3221
▁uran	-10.3221
▁za	-10.3222
▁halvön	-10.3224
▁titel	-10.3228
▁vietnam	-10.3228
▁sönder	-10.3228
▁göta	-10.3229
▁tesla	-10.323
▁människo	-10.323
duk	-10.3231
▁1912	-10.3231
▁förvalta	-10.3238
▁myndigheter	-10.3252
▁webb	-10.3254
▁synd	-10.3255
ytan	-10.3257
assi	-10.3261
▁halmstad	-10.3264
gemenskap	-10.3264
▁utvecklas	-10.3266
▁instrument	-10.3266
▁hamnade	-10.3267
▁gra	-10.3268
▁psalmbok	-10.3274
värm	-10.3275
sparre	-10.3287
▁poet	-10.3293
▁områdena	-10.3294
kvadratkilometer	-10.33
▁1100-	-10.33
▁1949	-10.3302
▁regionala	-10.331
byggnader	-10.3317
kommit	-10.3317
▁föreningar	-10.3318
åldern	-10.3319
befolkningen	-10.333
▁framgångsrik	-10.3333
▁skid	-10.3333
▁slogs	-10.3336
▁olja	-10.3337
▁söderut	-10.3338
▁avskaffa	-10.3338
200	-10.3344
▁personal	-10.3344
▁enkla	-10.3346
given	-10.3347
▁palm	-10.3348
▁syre	-10.3351
▁1862	-10.3355
▁fullt	-10.3366
▁tag	-10.3371
▁bestämde	-10.3373
tagit	-10.3374
▁inkludera	-10.3375
▁germanska	-10.3379
▁täckt	-10.3381
temot	-10.3382
▁expedition	-10.3385
▁kristus	-10.3385
▁kall	-10.3386
höll	-10.3389
regionen	-10.3394
fartyg	-10.3397
elius	-10.3404
bull	-10.3404
▁perioder	-10.3407
▁litterär	-10.3408
▁tycks	-10.3408
▁lill	-10.3408
teknisk	-10.3408
▁konsul	-10.341
▁annars	-10.341
▁nero	-10.3412
▁fest	-10.3414
boken	-10.3424
▁fastställ	-10.3428
▁kulturen	-10.3429
kamp	-10.3432
▁siffror	-10.344
via	-10.344
▁christ	-10.3441
▁bön	-10.3442
▁sätta	-10.3442
producent	-10.3444
▁albumet	-10.3446
▁1947	-10.3446
▁1956	-10.3447
ringen	-10.3448
regler	-10.3452
▁(15	-10.3456
landskap	-10.3478
▁klimatet	-10.3479
▁kritisera	-10.3479
▁minuter	-10.348
▁1905	-10.3482
▁kristi	-10.3485
▁underteckna	-10.3489
▁strider	-10.349
▁färd	-10.3491
▁hörde	-10.3496
▁stäm	-10.3497
kusten	-10.3498
märke	-10.3505
can	-10.3506
▁munk	-10.3509
▁spelades	-10.3513
▁portugal	-10.3517
▁undvika	-10.3517
▁läro	-10.3517
▁växer	-10.3517
▁faktisk	-10.3518
▁tropisk	-10.352
ez	-10.3522
mästar	-10.3524
hon	-10.3525
▁sorter	-10.353
▁shi	-10.353
▁monark	-10.3531
nummer	-10.3532
▁medicin	-10.3536
▁monarki	-10.354
▁irland	-10.354
▁programmet	-10.3547
▁utforma	-10.3548
bestämd	-10.3551
staterna	-10.3553
▁jacob	-10.3553
▁reklam	-10.3553
▁krävs	-10.3553
sax	-10.3554
▁säkra	-10.3555
▁brunn	-10.3556
▁1936	-10.3556
stängd	-10.3566
▁mång	-10.3567
▁utgav	-10.3568
▁träffade	-10.3569
▁baserad	-10.3572
▁tilldelade	-10.3573
giv	-10.3579
▁chile	-10.3583
park	-10.3583
ringar	-10.3584
förde	-10.3586
▁ost	-10.3587
▁vetenskaps	-10.3589
▁händer	-10.3592
fel	-10.3595
säte	-10.3595
mmel	-10.36
tyg	-10.3611
pjäs	-10.3612
▁norsk	-10.3614
gro	-10.362
▁knappt	-10.3626
▁bosatt	-10.3629
▁spridning	-10.3634
▁tillverkade	-10.3635
▁mono	-10.3637
hjort	-10.364
▁verkade	-10.364
▁wall	-10.3643
▁tusen	-10.3644
vind	-10.3648
▁väte	-10.3649
▁not	-10.3658
▁pop	-10.3661
tecken	-10.3662
▁fenomen	-10.3664
marskalk	-10.3664
▁flydde	-10.3664
frälse	-10.3665
▁telefon	-10.3665
▁bayern	-10.3665
▁uppkallad	-10.3675
▁äga	-10.3675
▁publicerade	-10.3687
hammar	-10.3691
▁bergen	-10.3693
▁minskat	-10.3695
häst	-10.3699
lära	-10.37
▁anknytning	-10.3701
▁guvernör	-10.3701
▁service	-10.3701
▁krydd	-10.3701
▁victoria	-10.3702
▁1925	-10.3704
vasa	-10.3708
▁bö	-10.3708
▁artiklar	-10.3708
▁skön	-10.3713
▁gräs	-10.3717
▁sel	-10.3719
sida	-10.3725
▁datorer	-10.3727
▁människa	-10.3728
▁inrätta	-10.3738
▁decennier	-10.3738
▁daniel	-10.3738
▁1923	-10.374
▁genre	-10.3742
▁los	-10.3756
ii	-10.3756
▁hopp	-10.3764
▁fly	-10.3768
temperatur	-10.3772
turné	-10.3773
▁undersökning	-10.3774
arkitekt	-10.3774
▁därtill	-10.3775
kör	-10.378
▁södergran	-10.3781
▁utländsk	-10.3781
▁rim	-10.3781
match	-10.3782
▁arbeten	-10.3783
▁center	-10.3783
berget	-10.3785
▁såldes	-10.3787
▁behöll	-10.3788
rapport	-10.3792
block	-10.3793
▁provinsen	-10.3793
▁löv	-10.3795
▁avdelning	-10.3799
▁ockupation	-10.3813
▁tegnér	-10.3813
▁anslöt	-10.3814
▁fattiga	-10.3814
▁32	-10.3815
▁saknas	-10.382
cia	-10.3822
▁institutioner	-10.3836
▁kra	-10.3838
blå	-10.3846
▁pommern	-10.3851
▁bosnien	-10.3851
▁hedvig	-10.3851
▁locka	-10.3853
▁givit	-10.3855
▁psykologi	-10.3859
▁sträckan	-10.3859
▁fåtal	-10.3867
▁bly	-10.387
▁sträng	-10.3871
▁gestalt	-10.3872
▁leg	-10.3874
▁styra	-10.3875
▁åbo	-10.3881
▁baserat	-10.3885
▁svärd	-10.3887
▁absolut	-10.3889
▁blekinge	-10.3889
▁lämplig	-10.3889
▁kombinera	-10.389
▁köping	-10.3895
▁beläget	-10.3899
summa	-10.3899
aktivitet	-10.3899
sexuell	-10.3903
▁sky	-10.3903
▁låga	-10.3906
▁benämningen	-10.3907
ij	-10.3908
▁storm	-10.392
kapacitet	-10.3927
▁utbröt	-10.3927
▁avancera	-10.3928
▁gårdar	-10.3933
▁final	-10.3936
mir	-10.3936
▁luc	-10.3937
▁hovet	-10.3937
▁medeltid	-10.3937
▁församlingar	-10.3938
▁okänd	-10.3942
▁tanken	-10.3942
galleri	-10.3954
▁kortare	-10.3954
▁helst	-10.3956
▁gymnasie	-10.3956
▁klubb	-10.3957
▁bränn	-10.3958
▁självständiga	-10.3959
stam	-10.3964
▁administration	-10.3965
▁identifiera	-10.3965
▁vilhelm	-10.3965
▁melodi	-10.3965
▁kryp	-10.3965
▁ryttar	-10.3967
▁1921	-10.3968
▁1937	-10.3968
▁kejserliga	-10.397
gåva	-10.3975
▁utnämn	-10.3975
▁inriktning	-10.3977
måleri	-10.3979
▁finna	-10.3981
▁finnas	-10.3981
▁stanna	-10.3986
▁företräd	-10.3993
norr	-10.3997
▁senast	-10.3997
▁mini	-10.3999
▁erövring	-10.4003
▁erkände	-10.4004
▁juridisk	-10.4004
▁multi	-10.4004
▁kärnvapen	-10.4005
skillnad	-10.4006
▁turk	-10.4012
▁sydöstra	-10.4012
läsning	-10.402
▁dia	-10.4023
tyder	-10.4023
▁flest	-10.4025
▁handling	-10.403
satser	-10.4041
▁hävdar	-10.4042
församling	-10.4042
▁konstruera	-10.4043
ville	-10.4044
▁förekommande	-10.4046
▁skilja	-10.4046
▁historisk	-10.4048
▁flygplatsen	-10.406
ence	-10.4065
löt	-10.407
levande	-10.4077
▁kemiska	-10.4079
▁brasilien	-10.4081
▁rörelser	-10.4083
▁1935	-10.4083
▁personliga	-10.4083
rut	-10.4084
▁varma	-10.4084
hopp	-10.4085
▁kvalitet	-10.4086
brev	-10.4086
handeln	-10.4092
stock	-10.4093
▁tronen	-10.4093
▁linjen	-10.4093
typer	-10.4096
▁skett	-10.41
plikt	-10.41
▁kok	-10.4102
▁projektet	-10.4111
▁1930	-10.4114
▁ris	-10.4115
▁delade	-10.4118
▁1957	-10.4122
▁ändamål	-10.4123
uz	-10.4124
▁handeln	-10.4134
▁liknar	-10.4134
▁got	-10.4144
▁hälso	-10.4148
ulf	-10.4157
▁tunnelbana	-10.4158
lláh	-10.4158
▁föregångare	-10.4163
▁operation	-10.4164
scen	-10.4167
▁borgerlig	-10.4175
krets	-10.4175
▁näs	-10.4179
klassen	-10.4183
▁helhet	-10.4187
▁situation	-10.4193
kanalen	-10.4195
▁federal	-10.4197
▁betydelser	-10.42
▁dygn	-10.42
▁minsta	-10.4202
▁ökad	-10.4208
magnet	-10.4211
▁väder	-10.4211
▁krets	-10.4213
meter	-10.4213
▁korta	-10.4223
nämnden	-10.4228
▁kläd	-10.4232
▁markera	-10.4232
bjöd	-10.4235
▁benämns	-10.4237
▁södermanland	-10.4237
utrustning	-10.4237
▁television	-10.4237
▁1906	-10.4238
kampanj	-10.4238
ianska	-10.4239
regementet	-10.4242
▁fastlandet	-10.4242
▁anne	-10.4243
författare	-10.4243
▁spelat	-10.4244
vapnet	-10.4246
▁ritade	-10.4255
▁union	-10.4256
▁lycka	-10.4259
duc	-10.4264
▁vände	-10.4271
flagg	-10.4271
topp	-10.4273
▁bulgarien	-10.4276
▁försvann	-10.4276
▁utvidga	-10.4276
föll	-10.4276
▁design	-10.4277
hind	-10.4278
▁konstmuseum	-10.4279
▁tillägg	-10.4281
festival	-10.4283
▁ansvarig	-10.4284
växter	-10.4284
cal	-10.4288
styre	-10.4293
▁tam	-10.4298
▁produkter	-10.4299
▁bosättning	-10.4301
sagor	-10.4304
▁rid	-10.4304
▁inneha	-10.4305
tillstånd	-10.4307
▁sånger	-10.4308
▁växande	-10.431
▁fortsätter	-10.4315
▁förbundet	-10.4316
▁bibel	-10.4316
▁1907	-10.4317
▁nationalmuseum	-10.4318
▁hotell	-10.4321
ändelse	-10.4322
▁bidra	-10.4323
forskning	-10.4323
▁ovanligt	-10.4325
▁lagstiftning	-10.4327
▁sjukdomar	-10.4328
▁benämning	-10.4336
▁fäst	-10.4337
▁stol	-10.4339
språket	-10.4341
smedel	-10.4343
▁berget	-10.4343
▁funktioner	-10.4347
▁intresserad	-10.4348
▁dikter	-10.4348
ologisk	-10.4349
▁koncentrera	-10.4355
▁kräver	-10.4355
▁handlingar	-10.4355
▁efterträdare	-10.4355
▁övergick	-10.4361
▁sänk	-10.4361
drift	-10.4364
▁klockan	-10.4366
▁underhåll	-10.4369
specifik	-10.4382
▁mask	-10.4391
▁konservativa	-10.4395
▁atlanten	-10.4398
▁priset	-10.4399
▁intressen	-10.44
takt	-10.44
läpp	-10.4401
▁tema	-10.4401
alitet	-10.4403
▁träng	-10.4403
▁konstnärlig	-10.4405
▁bränsle	-10.441
▁ökar	-10.4414
▁vem	-10.4418
staten	-10.4421
flyttning	-10.4423
skrifter	-10.4424
givande	-10.4424
▁dryck	-10.4427
kvist	-10.443
▁est	-10.4431
▁utföra	-10.4435
löjtnant	-10.4435
▁landsbygden	-10.4435
kunnig	-10.4435
▁stoppa	-10.4437
▁fälttåg	-10.4438
▁1943	-10.4438
problem	-10.4445
▁presenterade	-10.4446
sällskap	-10.4447
▁besökare	-10.4448
kropp	-10.445
▁hantera	-10.4456
▁målet	-10.4458
inspelning	-10.446
pass	-10.446
▁smält	-10.4468
▁förekomst	-10.4472
krona	-10.4472
▁mjuk	-10.4475
▁ocean	-10.4475
▁neutron	-10.4476
▁befinn	-10.4479
▁danske	-10.448
▁regim	-10.4482
resa	-10.4487
▁slätt	-10.4497
▁isländska	-10.4504
▁drift	-10.4506
▁kroatien	-10.4515
▁sällsynt	-10.4515
▁1909	-10.4517
▁erhåll	-10.4523
▁variation	-10.4527
▁win	-10.4527
▁grundlag	-10.4528
stadion	-10.4532
avtal	-10.4533
▁anges	-10.4533
▁ställa	-10.4534
▁värdet	-10.4536
fäste	-10.4539
båt	-10.454
▁ask	-10.4545
vol	-10.4549
▁fatta	-10.4549
▁joseph	-10.4556
▁hypotes	-10.4556
▁báb	-10.4556
hov	-10.4559
direktör	-10.4559
▁verb	-10.456
▁motsvara	-10.456
▁stjärnor	-10.4563
▁psykisk	-10.4563
ställda	-10.4564
▁studenter	-10.4569
▁magnusson	-10.457
fast	-10.458
▁hjärn	-10.458
▁bebyggelse	-10.4581
ding	-10.4582
▁marx	-10.4584
fördraget	-10.4585
▁stannade	-10.4587
ash	-10.4588
▁agera	-10.4588
▁1942	-10.4599
▁1934	-10.46
▁gäl	-10.4604
reform	-10.4609
serie	-10.4611
▁avsnitt	-10.4611
lät	-10.4612
▁intill	-10.4613
▁stavning	-10.4617
▁tomt	-10.4618
▁personen	-10.4622
anläggningar	-10.4626
▁blandning	-10.4627
▁festival	-10.463
▁träffa	-10.4633
▁förmån	-10.4634
▁britterna	-10.4637
▁diagnos	-10.4637
latin	-10.4644
▁offer	-10.4647
▁sprida	-10.4652
frågor	-10.4652
▁hästar	-10.4662
▁lösa	-10.4665
lé	-10.4668
▁etc	-10.4672
kommer	-10.4675
▁gävle	-10.4678
▁upplöstes	-10.4678
utrymme	-10.4679
▁1938	-10.4681
▁mönster	-10.4682
▁söt	-10.4686
▁q	-10.4688
▁sattes	-10.47
▁därifrån	-10.4704
▁oför	-10.4707
▁antog	-10.4714
▁bokstaven	-10.4716
▁alfabetet	-10.472
▁koppling	-10.472
▁fängsla	-10.472
▁nyckel	-10.472
▁anordna	-10.472
▁persiska	-10.4722
▁medförde	-10.4723
▁präster	-10.4723
▁mjölk	-10.4725
▁nedre	-10.4727
▁flygplan	-10.4728
°	-10.4736
▁cup	-10.4756
▁konkurrens	-10.4761
▁gabriel	-10.4761
▁platon	-10.4761
▁indiska	-10.4764
kov	-10.4765
▁rykte	-10.4765
▁kött	-10.4769
▁minister	-10.4771
social	-10.4776
teorin	-10.478
▁sort	-10.4785
▁målningar	-10.4786
▁huru	-10.4786
▁platt	-10.4788
styrka	-10.4789
▁motsatt	-10.4791
anti	-10.4796
▁boström	-10.4798
▁primär	-10.4803
▁tessin	-10.4803
▁riga	-10.4804
▁1922	-10.4805
▁bolag	-10.4806
▁luther	-10.4807
redskap	-10.4807
▁star	-10.4811
slätt	-10.4812
▁1880	-10.4813
erik	-10.4817
▁komplex	-10.4819
titel	-10.4819
▁bern	-10.482
▁värld	-10.4821
-20	-10.4826
▁känna	-10.4828
metall	-10.4829
▁införde	-10.483
▁arterna	-10.4832
▁därigenom	-10.4844
▁folkräkningen	-10.4844
▁hylla	-10.4854
lic	-10.486
▁fånga	-10.4862
▁rötter	-10.4866
▁kommande	-10.4867
logi	-10.4868
▁förlust	-10.4871
lång	-10.4876
sakademien	-10.4878
▁österut	-10.4882
▁besegra	-10.4883
▁ordningen	-10.4886
katastrof	-10.4886
▁erfarenhet	-10.4886
▁university	-10.4886
▁resurser	-10.4886
▁århundraden	-10.4886
opp	-10.4887
▁1911	-10.4889
▁tillät	-10.4892
▁skuld	-10.4894
▁tankar	-10.4895
▁göran	-10.4903
▁betona	-10.4904
fan	-10.4905
▁indelat	-10.4908
medlemmar	-10.4908
istiskt	-10.4909
▁ven	-10.4916
ney	-10.4922
▁tsar	-10.4924
bach	-10.4924
nordiska	-10.4924
▁öresund	-10.4928
▁generellt	-10.4928
▁omfattning	-10.4928
▁rang	-10.4929
▁erkänna	-10.493
hild	-10.4931
▁familjer	-10.4938
standard	-10.4949
▁omnämns	-10.4954
▁fallet	-10.4956
▁enkel	-10.496
▁troll	-10.4969
▁konflikten	-10.4971
▁vokal	-10.4971
▁arkeologiska	-10.4974
målning	-10.4975
▁tjänster	-10.4978
▁behålla	-10.4978
▁lugn	-10.498
spänning	-10.4982
flygel	-10.4983
▁någonsin	-10.4984
mitt	-10.4989
▁samlingar	-10.4995
▁resor	-10.4995
▁råder	-10.4997
tagna	-10.5002
sekund	-10.5003
ned	-10.5009
▁päls	-10.5012
▁substantiv	-10.5012
▁geijer	-10.5012
▁nederländska	-10.5012
▁1932	-10.5015
▁tillhörande	-10.5018
▁målade	-10.502
▁nordvästra	-10.5021
▁motsats	-10.5021
▁%)	-10.503
▁textil	-10.5033
rikt	-10.5033
▁gröna	-10.5034
▁kommunist	-10.5041
▁skott	-10.5042
romerska	-10.5042
▁finansiera	-10.5049
gåvor	-10.5052
skildring	-10.5055
▁björk	-10.5055
▁nutida	-10.5055
mjöl	-10.5055
▁förslaget	-10.5055
▁egenskap	-10.5058
▁import	-10.506
träsk	-10.5071
demokratisk	-10.5071
▁utgår	-10.5074
▁noll	-10.5075
▁speciella	-10.5079
▁hår	-10.5081
▁smal	-10.5081
förhållanden	-10.5081
tek	-10.5083
▁stormakt	-10.5085
▁utkom	-10.5089
hir	-10.5092
▁införande	-10.5094
▁teatern	-10.5096
atisk	-10.5096
▁söndag	-10.5098
▁gardie	-10.51
▁nät	-10.51
▁kontinenten	-10.5101
väsendet	-10.5101
▁fysi	-10.5105
▁notera	-10.5106
▁socknar	-10.511
▁svarade	-10.5115
▁påverkade	-10.5117
▁stödde	-10.512
▁sw	-10.5121
▁starta	-10.5121
priset	-10.5123
länning	-10.5124
▁dop	-10.5125
▁drottningen	-10.5127
▁omedelbart	-10.5127
▁organiserade	-10.513
▁staty	-10.5132
officer	-10.5133
bank	-10.514
▁mellersta	-10.5141
▁representation	-10.5141
▁väckte	-10.5141
▁medelhavet	-10.5141
▁perspektiv	-10.5142
▁ljung	-10.5145
▁betydelsefull	-10.5146
mån	-10.5147
▁konstatera	-10.5147
satta	-10.515
▁vardera	-10.515
▁back	-10.5153
▁äger	-10.5155
▁dominerade	-10.5158
röst	-10.5161
visning	-10.5162
▁situationen	-10.5163
struktur	-10.5166
▁departement	-10.5167
sköt	-10.5176
▁europeisk	-10.518
▁best	-10.5183
codice	-10.5184
lau	-10.5184
balans	-10.5187
▁indelad	-10.5187
▁vattenkraft	-10.5192
▁omgivning	-10.5193
sedda	-10.5194
▁oslo	-10.5195
▁antika	-10.5195
kommitté	-10.5199
▁indian	-10.52
▁innefattar	-10.5203
kompani	-10.5206
▁kongress	-10.5208
mängd	-10.5209
▁mc	-10.5212
▁isolera	-10.5215
▁nobelpris	-10.5218
▁häck	-10.522
▁pågick	-10.5225
▁prinsessan	-10.5227
▁älska	-10.5227
▁observera	-10.5227
▁konsekvens	-10.5228
▁1933	-10.523
▁1955	-10.523
▁swed	-10.5231
▁orter	-10.5246
▁elever	-10.5252
skri	-10.526
▁serier	-10.5263
▁fasta	-10.5265
backen	-10.5266
▁magdalena	-10.5271
▁nederlag	-10.5273
▁framgångsrika	-10.5275
▁låtar	-10.5275
kväll	-10.5275
pra	-10.5275
▁utsatt	-10.5275
spets	-10.5276
▁landslag	-10.5278
läget	-10.5279
▁begränsade	-10.528
▁vattendrag	-10.5284
faktor	-10.5287
▁lärde	-10.529
ward	-10.5294
▁skytte	-10.53
▁sålde	-10.5303
europeisk	-10.5303
▁ingå	-10.5306
▁släktet	-10.5306
renässans	-10.5314
▁centimeter	-10.5314
▁motsvarighet	-10.5314
▁territorium	-10.5314
▁håkan	-10.5314
▁giftermål	-10.5314
▁kiev	-10.5314
▁taube	-10.5315
▁utformning	-10.5315
▁förbindelser	-10.532
häng	-10.5322
▁bildandet	-10.5325
▁tull	-10.5332
–15	-10.5342
▁regional	-10.5347
▁fokus	-10.5355
▁hårda	-10.5356
▁påminn	-10.5357
▁analys	-10.5358
▁heidenstam	-10.5358
▁leipzig	-10.5358
▁shelley	-10.5358
▁skilda	-10.5358
▁återkommande	-10.5358
▁identitet	-10.5358
▁storstadsområde	-10.5358
kalender	-10.5359
▁1953	-10.5361
▁ägnade	-10.5361
▁1951	-10.5361
▁finsk	-10.5362
▁konstnären	-10.5364
strål	-10.5364
▁marknaden	-10.5365
▁alfred	-10.5366
▁resan	-10.5367
▁kapten	-10.5369
▁riddare	-10.537
brand	-10.5374
▁säl	-10.5376
▁förstördes	-10.5378
▁börja	-10.5385
▁personlighet	-10.5386
5)	-10.5386
▁finalen	-10.5389
▁egentliga	-10.5404
andra	-10.5408
▁gjord	-10.5409
läger	-10.5411
ity	-10.5412
avsett	-10.5412
▁disk	-10.5414
▁sjukhus	-10.5416
ställt	-10.5416
lokal	-10.5418
▁barndom	-10.5419
▁bevarat	-10.542
–201	-10.5426
▁fritt	-10.5432
▁genombrott	-10.5433
▁mörda	-10.5436
trädgård	-10.5438
ulär	-10.544
▁sto	-10.5442
▁atmosfär	-10.5446
▁lidingö	-10.5446
▁philip	-10.5446
▁bellman	-10.5446
▁karlskrona	-10.5446
▁utropade	-10.5447
▁flytt	-10.5455
▁liberala	-10.5459
häll	-10.5465
feld	-10.5467
▁efterhand	-10.5476
funktion	-10.5479
kontinent	-10.5486
▁1870	-10.5487
stockholm	-10.549
▁oxenstierna	-10.5491
evangeliet	-10.5491
▁felaktig	-10.5492
▁förvänta	-10.5493
▁1926	-10.5493
▁provins	-10.5494
▁nobel	-10.5505
iserad	-10.5509
▁geografiska	-10.5513
▁war	-10.5517
▁röster	-10.5517
▁översatt	-10.552
front	-10.5526
▁spårväg	-10.5526
▁omöjlig	-10.5527
begrepp	-10.5527
▁bokstäver	-10.5535
▁protestantisk	-10.5536
▁indelas	-10.5536
▁1928	-10.5538
▁närings	-10.5539
beck	-10.5546
tåget	-10.5548
▁ritningar	-10.5553
▁friidrott	-10.5563
▁möjligheter	-10.5564
▁wei	-10.557
▁gudar	-10.5573
▁dödades	-10.5574
version	-10.5576
▁modeller	-10.5581
teatern	-10.5589
▁gradvis	-10.5598
röstning	-10.56
▁staterna	-10.5602
▁(3	-10.5603
▁klassisk	-10.5609
▁kg	-10.5609
byrå	-10.5615
▁presentera	-10.5615
▁kvinno	-10.5619
▁rumänien	-10.5625
▁skellefteå	-10.5625
▁tempel	-10.5625
▁svante	-10.5625
▁bröderna	-10.5626
▁koranen	-10.5626
▁gudomlig	-10.5629
▁tävlingen	-10.5629
▁ortnamn	-10.563
▁mala	-10.5634
▁herre	-10.5635
▁ull	-10.5637
▁människorna	-10.5639
gravar	-10.5639
lån	-10.564
▁inträffade	-10.5645
titlar	-10.566
album	-10.5662
sköld	-10.5662
▁adress	-10.5666
▁bolaget	-10.5667
▁äventyr	-10.5668
▁temperaturen	-10.5669
▁klostret	-10.5671
▁omvandla	-10.5671
▁friherre	-10.5672
▁1929	-10.5673
▁museer	-10.5676
▁samarbeta	-10.5677
▁bostad	-10.5677
▁palats	-10.5679
▁turister	-10.5686
tävlingar	-10.5686
europa	-10.5688
områdena	-10.569
▁matt	-10.5694
▁1850	-10.5695
▁romarna	-10.5702
3)	-10.5703
flytta	-10.5704
▁häll	-10.5711
vre	-10.5712
▁aktuell	-10.5716
▁engagera	-10.5716
▁återvända	-10.572
▁skarp	-10.5722
▁sköld	-10.5725
▁helgon	-10.5728
▁civila	-10.5733
▁uppskattade	-10.574
▁framstående	-10.5741
▁påverkan	-10.5749
▁char	-10.5753
▁mel	-10.5756
▁1860	-10.5758
▁kontinuerlig	-10.5762
▁grekisk	-10.5763
▁1931	-10.5764
▁attacker	-10.5769
ljus	-10.5783
ämbete	-10.5793
▁elva	-10.5795
klimat	-10.5802
ortodox	-10.5806
▁fattigdom	-10.5808
▁albrekt	-10.5808
▁expansion	-10.5808
▁schengen	-10.5808
neutral	-10.5808
▁sannolik	-10.5809
massa	-10.5811
▁högskolan	-10.5812
▁max	-10.5815
gottorp	-10.5816
▁avskaffades	-10.5825
mottagare	-10.5827
▁ställe	-10.5837
övning	-10.5838
göt	-10.5839
▁vapnet	-10.5843
fjärd	-10.5843
▁lagman	-10.5847
lägger	-10.5849
▁ceremoni	-10.5854
▁judendom	-10.5854
▁utbredd	-10.5854
asiatiska	-10.5854
föreningar	-10.5854
▁senaten	-10.5855
▁syrien	-10.5856
▁godkänd	-10.5856
▁lyft	-10.5861
fru	-10.5868
▁stadga	-10.5876
gjort	-10.5882
▁kyl	-10.5884
centra	-10.5886
▁importera	-10.5895
distrikt	-10.5896
tolk	-10.5897
evenemang	-10.59
▁siffra	-10.59
▁uppskattning	-10.5901
stuga	-10.5902
▁tjock	-10.5902
▁gry	-10.5903
▁1915	-10.5904
mässig	-10.5904
▁öland	-10.5905
stycke	-10.5905
peppar	-10.5907
▁syftet	-10.5916
▁ägna	-10.5917
▁driva	-10.5923
▁representerad	-10.593
data	-10.5931
▁rut	-10.5941
princip	-10.5942
intresse	-10.5945
▁terror	-10.5945
▁münchen	-10.5946
▁pakistan	-10.5946
▁tyckte	-10.5946
▁guinea	-10.5946
▁ortodoxa	-10.5948
▁lämnat	-10.5949
▁lovisa	-10.595
sydlig	-10.5952
▁gun	-10.5952
datorer	-10.5959
▁sanning	-10.5963
gärning	-10.5965
▁alm	-10.5967
▁rösterna	-10.5968
▁skådespelare	-10.597
lok	-10.5973
klädd	-10.5978
▁1940-	-10.5982
▁mälaren	-10.5984
mund	-10.599
▁lagsaga	-10.5991
▁tänka	-10.5992
▁folkomröstning	-10.5993
▁mexiko	-10.5993
▁växjö	-10.5993
▁sigismund	-10.5993
▁1908	-10.5995
▁gator	-10.5997
▁jury	-10.6004
middag	-10.601
▁låten	-10.6015
▁1000	-10.6016
teater	-10.6023
idae	-10.6024
psyk	-10.6029
domstol	-10.6035
▁eritrea	-10.604
stora	-10.6043
ther	-10.6044
▁fordon	-10.6045
▁flyktingar	-10.6055
tillverkare	-10.6063
▁samarbetet	-10.6067
fiskar	-10.6076
▁fungerade	-10.6083
regemente	-10.6085
▁1916	-10.6091
bön	-10.6091
brigad	-10.6093
▁nyköping	-10.6097
1)	-10.6098
▁teorin	-10.6098
▁återkom	-10.6113
▁framställning	-10.6115
▁samtid	-10.6116
▁temperaturer	-10.6117
hof	-10.6127
▁elev	-10.6134
▁belägring	-10.6135
▁cecilia	-10.6135
▁science	-10.6135
▁visserligen	-10.6135
förmåga	-10.6135
melodifestivalen	-10.6135
▁arkiv	-10.6135
▁gudstjänst	-10.6136
▁advent	-10.6137
▁brände	-10.614
▁kvinnan	-10.6141
▁förekommit	-10.6141
▁ya	-10.6142
▁gräv	-10.6145
fot	-10.615
▁halvan	-10.6154
▁främja	-10.6156
▁förebild	-10.6158
▁adel	-10.6173
▁ockuperade	-10.6174
▁växa	-10.6176
▁bay	-10.6179
▁kvinnorna	-10.6181
▁judisk	-10.6181
▁gregorianska	-10.6182
▁hälsingland	-10.6182
▁arbetslöshet	-10.6182
▁förlorat	-10.6183
▁tru	-10.6183
kontroll	-10.6185
▁operativsystem	-10.6185
bock	-10.619
▁tegel	-10.6193
▁detaljer	-10.6193
fre	-10.6193
▁krono	-10.6198
▁handskrift	-10.6202
▁protester	-10.6207
▁berör	-10.6215
aktiv	-10.6217
▁stör	-10.6218
givare	-10.6221
serier	-10.6222
▁störta	-10.6226
tillverkning	-10.6232
avdelning	-10.6242
bomb	-10.6248
▁arvid	-10.6248
▁leo	-10.6253
älv	-10.6258
▁urban	-10.6261
▁aktivt	-10.6267
▁existens	-10.6278
▁dar	-10.6278
▁nordost	-10.6279
▁mount	-10.6279
▁intensiv	-10.6279
▁bokstav	-10.6283
▁lindgren	-10.6283
▁sj	-10.6284
handlingar	-10.6289
▁beslutet	-10.6291
▁kval	-10.6297
▁geologi	-10.6302
▁alt	-10.6303
gno	-10.6304
▁medicinsk	-10.6308
▁wrangel	-10.6327
▁fönster	-10.6327
växling	-10.6327
▁himmel	-10.6328
▁kontrakt	-10.6328
lind	-10.6329
▁invadera	-10.633
▁valkrets	-10.633
kam	-10.6331
[	-10.6334
▁skeppet	-10.6358
▁ytter	-10.6366
▁konstantinopel	-10.6375
▁segrar	-10.6376
▁musei	-10.6376
▁medverkade	-10.6376
▁kontinental	-10.6377
▁sko	-10.6383
▁institute	-10.6403
▁rapporter	-10.6412
märken	-10.6418
▁1000-	-10.6418
stöt	-10.6419
språkiga	-10.642
disciplin	-10.6424
▁argentina	-10.6424
▁lägsta	-10.6424
▁uppfostra	-10.6424
▁åtskillig	-10.6424
▁erbjöd	-10.6426
▁klock	-10.6427
▁you	-10.6428
hastighet	-10.643
effekt	-10.643
▁nr	-10.6431
▁ungar	-10.6432
▁kröning	-10.6439
▁nyheter	-10.6448
▁bosatte	-10.6453
▁aik	-10.6454
way	-10.6455
▁1889	-10.6456
▁grönland	-10.6457
▁mottog	-10.6469
givet	-10.6471
iserat	-10.6472
▁schizofreni	-10.6473
▁vikingatiden	-10.6473
▁vetlanda	-10.6473
▁misstänk	-10.6475
hed	-10.6477
▁nordöstra	-10.6477
▁införlivades	-10.6478
▁provinser	-10.648
▁stadsdelar	-10.6481
▁engelskan	-10.6487
▁belägg	-10.6491
▁institution	-10.6493
▁korp	-10.6493
▁hoppa	-10.6496
▁karlsson	-10.6496
▁unge	-10.6497
▁kollektiv	-10.6508
▁känslo	-10.6522
▁matematisk	-10.6522
▁sistnämnda	-10.6522
▁faktum	-10.6522
▁västmanland	-10.6522
▁upplösning	-10.6522
▁studio	-10.6523
parlament	-10.6533
blick	-10.6535
rov	-10.6535
▁socialistiska	-10.654
▁använt	-10.6545
▁flertalet	-10.6546
uff	-10.6552
▁hals	-10.657
▁arboga	-10.6572
▁mångfald	-10.6572
▁existerar	-10.6572
▁täcker	-10.6572
▁mestadel	-10.6573
▁maxim	-10.6574
▁falun	-10.6576
▁potatis	-10.658
roman	-10.6581
wald	-10.6581
▁olsson	-10.6581
meddelande	-10.6584
▁mänsklig	-10.6588
▁eric	-10.66
▁aktie	-10.6606
▁dåligt	-10.6607
▁idén	-10.6617
▁besittning	-10.6621
▁hänsyn	-10.6621
▁utredning	-10.6623
▁populärt	-10.6624
▁borgmästare	-10.6626
▁följt	-10.6627
▁2023	-10.6629
▁härrör	-10.663
▁sudan	-10.6632
▁företrädare	-10.6634
frukt	-10.6635
djup	-10.664
▁tax	-10.6643
▁peder	-10.6643
▁riksväg	-10.6644
▁augustus	-10.6648
▁doktor	-10.6671
leijonhufvud	-10.6671
▁tusentals	-10.6672
▁möjliga	-10.6672
▁darwin	-10.6672
▁korrekt	-10.6672
▁bryta	-10.6673
arkeolog	-10.6678
sektor	-10.6683
▁ständig	-10.6685
▁matcher	-10.6692
lön	-10.6709
ofta	-10.6713
▁författar	-10.6717
bestämmelser	-10.6722
▁referens	-10.6722
▁tillbringade	-10.6722
▁tvungen	-10.6722
▁james	-10.6722
▁nöje	-10.6722
national	-10.6724
▁känner	-10.6725
▁programvara	-10.6726
▁regeringstid	-10.6738
▁lucia	-10.6741
▁north	-10.6754
▁nerv	-10.6758
▁skilj	-10.677
▁djursholm	-10.6774
▁volym	-10.6775
▁utomlands	-10.6777
▁emellan	-10.6777
kemi	-10.6781
religion	-10.6785
varor	-10.6791
gata	-10.6793
▁elektron	-10.6805
stöd	-10.6813
▁järnåldern	-10.6813
▁undersökningar	-10.682
▁fransmännen	-10.6823
▁teoretisk	-10.6823
▁richard	-10.6823
▁gärna	-10.6823
▁ernst	-10.6824
▁sjukvård	-10.6824
▁1913	-10.6827
grön	-10.6828
kedja	-10.6844
samhet	-10.6847
▁hjärta	-10.685
oid	-10.6856
▁producerade	-10.6856
▁bag	-10.6859
▁tyskarna	-10.686
▁förlora	-10.6867
▁uppmärksamma	-10.687
▁härjedalen	-10.6874
▁norrbotten	-10.6874
▁modersmål	-10.6874
▁1901	-10.6876
fluor	-10.6879
▁prag	-10.6879
▁räknar	-10.6882
town	-10.6888
upplaga	-10.6888
armén	-10.6889
halvön	-10.689
▁kapell	-10.689
▁starkare	-10.689
issa	-10.6892
▁musk	-10.6892
▁böj	-10.6905
▁uppväxt	-10.6907
attack	-10.6911
▁representerade	-10.6919
public	-10.6923
▁förutsättningar	-10.6924
▁släpp	-10.6924
▁jugoslavien	-10.6925
▁terräng	-10.6925
▁verkställande	-10.6925
▁south	-10.6925
dubbla	-10.6926
▁fiender	-10.6926
▁älg	-10.6926
▁enstaka	-10.6926
tavla	-10.6927
▁utrikespolitik	-10.6928
▁fokusera	-10.6929
▁trum	-10.6931
bunden	-10.6949
▁parallellt	-10.695
▁nämnde	-10.6953
▁infanteri	-10.6963
▁lättare	-10.6967
havet	-10.6969
▁representanter	-10.6973
▁framtida	-10.6976
▁esperanto	-10.6977
▁brandenburg	-10.6977
▁budget	-10.6977
▁väsentlig	-10.6977
▁forskar	-10.6978
▁1902	-10.6979
▁närvaro	-10.698
bring	-10.698
▁huvudkontor	-10.6981
▁sagt	-10.6987
muslim	-10.7007
▁samhällen	-10.7023
▁bistånd	-10.7027
▁friedrich	-10.7029
▁jerusalem	-10.7029
▁kupp	-10.7029
▁1904	-10.7031
▁lagras	-10.7039
▁uppkom	-10.7043
löp	-10.7049
▁herman	-10.7049
▁benämnd	-10.7052
▁bryggeri	-10.7055
4)	-10.7057
▁artister	-10.7063
▁myndigheterna	-10.7066
▁ständigt	-10.707
region	-10.7071
▁andliga	-10.7076
▁aristoteles	-10.7081
▁etiopien	-10.7081
▁slovenien	-10.7081
▁synonym	-10.7081
▁unesco	-10.7081
▁hektar	-10.7081
▁tillfånga	-10.7082
▁hertigdöme	-10.7083
▁medlemskap	-10.7088
▁intryck	-10.709
▁registrerade	-10.7091
▁latinet	-10.7092
förvaltning	-10.71
▁naturvetenskap	-10.7103
▁spelet	-10.7108
▁fog	-10.712
▁sydöst	-10.7123
skikt	-10.7125
▁svär	-10.7128
▁vete	-10.713
miss	-10.7131
▁beskrivit	-10.7133
▁fuktig	-10.7133
krönikan	-10.7134
▁sverker	-10.7134
▁byggnadsminne	-10.7134
▁fascist	-10.7136
samiska	-10.7144
▁skottland	-10.7147
▁ökande	-10.7149
▁inbördeskrig	-10.7149
6)	-10.7152
▁nöd	-10.7153
▁passagerare	-10.7158
▁bebyggelsen	-10.716
mynt	-10.7168
▁peru	-10.717
▁judarna	-10.717
▁bönderna	-10.7172
strömmen	-10.7174
▁120	-10.7178
strategi	-10.7179
värld	-10.7183
▁växel	-10.7186
lip	-10.7186
▁åtgärder	-10.7186
▁dramatisk	-10.7186
▁jonsson	-10.7192
▁fysiska	-10.7195
▁dominerar	-10.7196
present	-10.7198
inte	-10.7201
▁förmå	-10.7203
▁gatu	-10.7206
rub	-10.7212
koloni	-10.7214
▁karin	-10.7216
demokrat	-10.7228
▁anställd	-10.7228
▁biograf	-10.7235
▁1927	-10.7242
odling	-10.7243
▁kansli	-10.7245
aire	-10.7247
▁provinserna	-10.7251
▁gudarna	-10.7253
▁fristående	-10.7253
dorf	-10.7254
▁viktor	-10.7268
▁singel	-10.7275
värt	-10.7277
▁invandrar	-10.7292
▁zeeland	-10.7292
▁bedrev	-10.7292
▁fritids	-10.7293
▁representant	-10.7296
▁blommor	-10.7296
▁ädel	-10.7299
▁avsked	-10.73
▁ankomst	-10.7308
fråga	-10.731
kamera	-10.7311
▁pär	-10.7311
▁bönder	-10.7312
▁borgar	-10.7316
▁sir	-10.7327
fläck	-10.7329
▁kir	-10.7331
▁överförde	-10.7333
▁grov	-10.7333
klubbar	-10.7334
sträng	-10.7335
▁sval	-10.7338
beredd	-10.7343
▁elektricitet	-10.7345
apparat	-10.7346
▁kungariket	-10.7347
marsch	-10.7356
hydr	-10.7359
▁sammansättning	-10.7362
▁accepterade	-10.7362
▁beräknades	-10.7369
▁zoo	-10.7375
▁thor	-10.7379
▁tvingade	-10.7381
▁släktskap	-10.739
zz	-10.7397
▁lagstiftande	-10.7399
▁skånska	-10.7399
▁vuxen	-10.7399
▁reducera	-10.7399
▁kenya	-10.74
▁komplettera	-10.7401
▁byggandet	-10.7412
▁bidragit	-10.7423
▁understöd	-10.7432
▁västerut	-10.7434
▁statligt	-10.7434
▁götaland	-10.7448
▁äta	-10.7448
▁250	-10.7452
▁franz	-10.7453
▁falu	-10.7456
bak	-10.7462
turnering	-10.7464
ändig	-10.7472
▁omfatta	-10.7474
högskolan	-10.7474
▁kläder	-10.748
▁insatser	-10.748
▁rök	-10.7491
afton	-10.7505
▁topografi	-10.7507
▁bohuslän	-10.7507
▁försvaga	-10.7508
▁förbjöds	-10.751
▁statschef	-10.7511
känslig	-10.7511
▁landsting	-10.7512
furstendöme	-10.7514
▁varierande	-10.7518
▁tidigaste	-10.7519
▁maka	-10.7522
▁grott	-10.7523
▁utses	-10.7533
studier	-10.7536
▁socknarna	-10.7547
▁hittats	-10.7549
▁danskarna	-10.7552
lif	-10.7556
▁antisemit	-10.7562
▁avslöja	-10.7562
▁belägna	-10.7562
▁obligatorisk	-10.7562
▁inspiration	-10.7562
▁mongol	-10.7562
▁anatomi	-10.7562
▁zink	-10.7562
▁skilde	-10.7563
▁ebba	-10.7564
▁röstade	-10.7565
stång	-10.7568
binder	-10.7569
tidigare	-10.7592
styrelse	-10.7596
▁cro	-10.7601
▁1897	-10.7605
städerna	-10.7611
▁foto	-10.7613
energi	-10.7614
känsla	-10.7617
▁organismer	-10.7618
▁bolivia	-10.7618
utskottet	-10.7619
magasin	-10.762
▁tecknade	-10.7621
▁1954	-10.7621
▁befästning	-10.7622
▁ställen	-10.7622
▁karolin	-10.7622
▁mobil	-10.7628
▁stött	-10.7629
▁faktorer	-10.763
▁orsakade	-10.7651
▁historikern	-10.7653
▁omgivande	-10.7658
▁kalif	-10.7663
▁leopold	-10.7672
▁vuxit	-10.7672
strejk	-10.7672
dimension	-10.7672
▁licens	-10.7673
▁kritiserade	-10.7674
▁lang	-10.7676
▁arbetskraft	-10.7676
▁sända	-10.7677
handelshögskolan	-10.7682
▁anime	-10.7696
▁skador	-10.7698
▁sör	-10.7699
▁närke	-10.7702
skötsel	-10.7707
brevet	-10.7708
▁stödja	-10.7711
▁1895	-10.7713
▁auto	-10.7716
▁igelkott	-10.7728
▁intressant	-10.7728
▁civilisation	-10.7728
▁återstår	-10.7728
▁gynna	-10.7728
▁tobak	-10.7729
▁lantbruk	-10.773
▁västerländska	-10.7734
▁ibm	-10.7736
▁evig	-10.7739
▁begravdes	-10.774
▁närliggande	-10.7748
▁protest	-10.7754
▁1863	-10.7761
▁officiell	-10.7764
olika	-10.7768
fest	-10.7782
▁county	-10.7784
▁korruption	-10.7784
▁michael	-10.7784
▁angrepp	-10.7784
▁bernadotte	-10.7784
▁inspirerade	-10.7784
▁sysselsätt	-10.7784
▁aspekt	-10.7784
▁spräng	-10.7784
▁pingst	-10.7784
▁vintrar	-10.7784
▁reformationen	-10.7785
jev	-10.7786
▁strikt	-10.7788
▁skicklig	-10.7796
▁lim	-10.7799
▁genetisk	-10.7802
▁användare	-10.7812
gränd	-10.7816
trä	-10.7821
▁skadade	-10.7821
polis	-10.7823
▁islamiska	-10.7823
▁mäktiga	-10.7833
▁änka	-10.7834
seende	-10.7839
▁jungfru	-10.784
▁datum	-10.784
▁narva	-10.784
▁underlätta	-10.7841
▁påverkar	-10.7843
▁pont	-10.7845
▁rull	-10.785
butik	-10.786
▁slaveriet	-10.7871
”)	-10.7873
▁firade	-10.7894
▁adjektiv	-10.7896
▁ferdinand	-10.7896
▁främmande	-10.7896
▁nietzsche	-10.7896
▁uppenbarelse	-10.7896
▁bomull	-10.7896
▁uppstår	-10.7897
▁pension	-10.7897
▁installera	-10.7898
teknologi	-10.7899
▁kusin	-10.7903
mäktig	-10.7904
artikel	-10.7909
▁vanligare	-10.7914
▁1809	-10.7926
brist	-10.7928
räl	-10.7933
målningar	-10.7947
utställningen	-10.7949
▁avrättning	-10.795
▁popularitet	-10.7953
▁splittra	-10.7953
▁upplysning	-10.7954
▁ankar	-10.7956
▁1903	-10.7956
▁republikan	-10.7956
▁vittnen	-10.7959
▁dahl	-10.796
table	-10.7962
▁flyter	-10.7963
▁nått	-10.7963
▁avrättades	-10.7964
stämning	-10.7969
▁portugisiska	-10.7969
▁taget	-10.7969
▁förluster	-10.798
▁rått	-10.7986
konstruktion	-10.7992
hjälp	-10.7992
▁ersatt	-10.7994
riktning	-10.7994
mellan	-10.7997
▁kommunistiska	-10.8
ministrar	-10.8005
▁uppkomst	-10.8006
▁grenar	-10.8006
▁intervju	-10.801
▁mecklenburg	-10.801
▁placering	-10.8011
▁bremen	-10.8011
▁långvarig	-10.8011
▁skandinaviska	-10.8012
▁basera	-10.8013
▁inrikta	-10.8015
▁dömdes	-10.803
▁tävlings	-10.8034
▁brygg	-10.8035
well	-10.8041
▁fångar	-10.8044
central	-10.8046
▁utfärdade	-10.8046
▁tall	-10.8046
▁anton	-10.805
▁1888	-10.8053
förslag	-10.8057
trakter	-10.8062
▁försvaret	-10.8067
▁hittills	-10.8068
▁klassificera	-10.8068
▁sjätte	-10.8068
▁tolkien	-10.8068
▁ättlingar	-10.8068
▁sydost	-10.8068
▁indelade	-10.8069
▁autonom	-10.8069
besök	-10.807
▁fortsättning	-10.8072
▁johnson	-10.8079
amerikansk	-10.808
▁lyckats	-10.8081
firande	-10.8086
▁korea	-10.8096
▁behandlar	-10.8114
dynastin	-10.8115
him	-10.8117
▁kejsardömet	-10.8126
▁dublin	-10.8126
▁litauen	-10.8126
▁rovdjur	-10.8126
▁ingeborg	-10.8126
▁länsstyrelsen	-10.8128
▁godkänna	-10.8128
▁kärnkraft	-10.8128
▁släktingar	-10.8129
tillhörighet	-10.8132
▁gais	-10.814
▁drabbade	-10.8141
▁domini	-10.8145
▁1891	-10.8159
engelska	-10.817
▁fakultet	-10.8184
▁liseberg	-10.8184
▁systematik	-10.8184
▁imperiet	-10.8184
frekvens	-10.8184
▁alperna	-10.8184
▁spansk	-10.8185
▁hänvisa	-10.8185
knut	-10.8185
▁riktade	-10.8187
▁statistiska	-10.8191
▁etnisk	-10.8204
▁framgår	-10.8209
▁jätte	-10.8213
▁vinst	-10.8214
pojk	-10.822
▁kemisk	-10.8226
▁kiss	-10.8241
▁zagreb	-10.8242
▁fiction	-10.8242
▁jehova	-10.8242
▁hammarby	-10.8242
▁föds	-10.8244
▁skapelse	-10.8248
▁venus	-10.8256
balk	-10.8261
forskare	-10.8264
fientlig	-10.8269
▁skaffa	-10.8281
▁1898	-10.8296
kräft	-10.8298
▁hongkong	-10.8301
▁komplicera	-10.8301
▁mellanöstern	-10.8301
▁sydkorea	-10.8301
▁syskon	-10.8301
▁dagstidning	-10.8301
▁helige	-10.8301
▁arbetsgivare	-10.8302
▁eurovision	-10.8303
▁alba	-10.8305
reserv	-10.8307
▁jobb	-10.8308
place	-10.8309
▁bostäder	-10.8311
▁elektronisk	-10.8316
besvär	-10.8319
▁förmedla	-10.8319
▁area	-10.8329
▁mau	-10.8331
▁antyd	-10.8339
▁ving	-10.8341
▁sjunde	-10.8342
▁kretsar	-10.8349
▁grep	-10.8355
▁numer	-10.8358
vänlig	-10.836
försörjning	-10.836
▁befälhavare	-10.836
▁goldman	-10.836
▁nordkorea	-10.836
▁pfalz	-10.836
▁individuell	-10.836
▁bronsåldern	-10.8361
▁förespråkar	-10.8365
▁musikalisk	-10.8366
▁kungsgård	-10.837
▁hovrätt	-10.8372
▁akademiska	-10.8377
▁nej	-10.838
språkig	-10.8387
▁utgåva	-10.8388
biologi	-10.839
▁satan	-10.8393
▁krim	-10.8394
täckt	-10.8397
▁1896	-10.84
▁passagerar	-10.84
▁rasism	-10.8406
▁omnämn	-10.8408
litteratur	-10.8409
sjukdom	-10.8412
▁mah	-10.8417
hantering	-10.8417
vetenskapliga	-10.8418
▁åskådare	-10.842
▁investeringar	-10.842
▁berodde	-10.842
hielm	-10.842
▁flytande	-10.842
▁ifrågasatt	-10.8422
zu	-10.8427
blivande	-10.8433
▁konstitutionell	-10.8436
start	-10.844
▁byta	-10.8448
olycka	-10.8453
▁öken	-10.8453
förklaring	-10.847
▁bergslag	-10.8476
▁osäker	-10.8477
▁intelligens	-10.848
▁nazityskland	-10.848
▁insekter	-10.848
▁konstakademien	-10.848
▁banér	-10.848
▁centerpartiet	-10.8481
▁dröm	-10.8483
▁inredning	-10.8486
▁strategisk	-10.8488
▁konstantin	-10.8498
video	-10.851
▁ovanför	-10.851
▁avgränsa	-10.8525
▁rådhus	-10.8525
▁dokumentera	-10.8531
karriär	-10.8531
▁utbrott	-10.8539
▁fångenskap	-10.854
▁ronneby	-10.854
▁antarktis	-10.854
åring	-10.854
▁reagera	-10.8542
▁kulturarv	-10.8544
stränder	-10.8544
▁lung	-10.8546
innehav	-10.8551
▁specifika	-10.8559
▁ombyggnad	-10.8562
▁åstadkom	-10.8563
▁äter	-10.8563
▁sido	-10.8567
▁ägs	-10.8577
▁stund	-10.858
▁flykting	-10.8581
▁1885	-10.8592
▁semi	-10.8592
▁josef	-10.8593
▁columbus	-10.86
▁uppmuntra	-10.86
▁nämner	-10.86
▁angola	-10.8601
▁fusion	-10.8601
▁västgöta	-10.8602
▁växla	-10.8602
▁skogsbruk	-10.8604
▁bill	-10.8604
icus	-10.8605
▁georgien	-10.8606
▁belg	-10.8608
▁claes	-10.8608
ländare	-10.8611
▁flora	-10.8611
▁helium	-10.8613
▁genomsnittlig	-10.8617
▁sill	-10.8619
▁striderna	-10.8624
elli	-10.8625
▁livstid	-10.8625
lög	-10.8634
▁torka	-10.8641
▁herrgård	-10.8645
▁öis	-10.865
▁heders	-10.865
▁austral	-10.866
▁kreuger	-10.8661
▁nikola	-10.8661
cirkel	-10.8662
▁nämnda	-10.8666
▁humor	-10.8668
▁socialism	-10.8671
derivat	-10.8688
▁domare	-10.8696
▁1893	-10.8701
▁uppdelning	-10.8702
naturreservat	-10.8717
▁stadshus	-10.8718
hop	-10.8723
▁auktoritet	-10.8723
▁distinkt	-10.8723
▁successivt	-10.8723
▁troligtvis	-10.8723
▁kontroversiell	-10.8723
▁plural	-10.8723
ritual	-10.8723
▁tretton	-10.8724
▁tittar	-10.8726
▁löfte	-10.8727
▁barock	-10.873
▁uteslutande	-10.8732
▁folkgrupper	-10.8741
▁aktiviteter	-10.8744
bjuda	-10.8744
▁radioaktiv	-10.875
▁förläning	-10.875
▁utbyggnad	-10.8774
instrument	-10.878
ordförande	-10.878
uppfattning	-10.8781
▁indonesien	-10.8784
▁luxemburg	-10.8784
▁regelbundet	-10.8784
▁utgångspunkt	-10.8784
▁fullborda	-10.8785
▁åkte	-10.8785
▁grafik	-10.8786
▁budskap	-10.8789
▁jöns	-10.8794
▁regeringsform	-10.8796
öppning	-10.8799
act	-10.8811
▁enskild	-10.8813
▁hjärt	-10.8814
▁legat	-10.8817
▁svt	-10.8819
▁1884	-10.8828
▁högskola	-10.8836
ägda	-10.8838
cirka	-10.8844
▁nordöst	-10.8846
▁buddhist	-10.8847
▁försämra	-10.8847
▁ståthållare	-10.8847
▁lennart	-10.8847
▁håkon	-10.8847
▁avsevärt	-10.8847
▁tchad	-10.8847
▁fastighets	-10.8847
▁fältmarskalk	-10.8848
▁ligga	-10.8848
▁sjöfart	-10.885
▁formulera	-10.885
▁skörd	-10.8851
▁pirat	-10.8861
▁förekomma	-10.8862
▁författarskap	-10.8864
▁kru	-10.8871
▁förståelse	-10.8879
skivor	-10.8886
▁washington	-10.8909
▁support	-10.8909
▁uppmätt	-10.8909
▁speciell	-10.891
bol	-10.891
▁vistelse	-10.8912
▁dött	-10.8912
▁peking	-10.8913
▁spegel	-10.8914
▁donation	-10.8914
▁milles	-10.8916
▁1830	-10.8917
▁ändring	-10.8921
▁yttra	-10.8923
dricka	-10.8927
inkomst	-10.8937
▁resultera	-10.8945
sidor	-10.8945
▁jonas	-10.8948
▁jär	-10.8966
▁detalj	-10.8966
hockey	-10.8967
▁amsterdam	-10.8972
▁bestämt	-10.8972
▁engelbrekt	-10.8972
▁frilufts	-10.8972
▁millimeter	-10.8972
▁virginia	-10.8972
▁beordrade	-10.8972
▁expandera	-10.8972
▁värnplikt	-10.8972
▁sediment	-10.8972
brunn	-10.8974
▁skottår	-10.898
▁hemmet	-10.8982
▁foster	-10.8983
▁anföll	-10.8984
▁nhl	-10.8987
▁turkiska	-10.8987
löf	-10.899
▁kök	-10.9003
skjuta	-10.9003
▁lettland	-10.9004
sedan	-10.9028
▁inträffa	-10.9035
▁respekt	-10.9035
▁microsoft	-10.9035
▁satellit	-10.9035
▁libyen	-10.9036
▁överlämnade	-10.9036
hertig	-10.9036
▁stanley	-10.9037
▁utrusta	-10.9037
▁spetsen	-10.904
▁uppmärksammade	-10.904
amerika	-10.9041
▁föregående	-10.9055
liber	-10.9058
akademi	-10.9069
▁anklagade	-10.9082
skij	-10.9087
▁ägo	-10.9093
▁missnöje	-10.9099
▁observationer	-10.9099
▁sekelskiftet	-10.9099
▁upprepade	-10.9099
▁warszawa	-10.9099
▁torstenson	-10.9099
▁albanien	-10.9099
▁fienden	-10.9099
▁regnskog	-10.9101
▁hugo	-10.9106
kritik	-10.9106
▁mälar	-10.9112
▁innehade	-10.9115
stjärna	-10.9143
▁förenkla	-10.9143
▁nyligen	-10.9146
läge	-10.9151
▁gravfält	-10.916
▁traditionell	-10.9162
symbol	-10.9162
▁medborgarskap	-10.9163
▁cypern	-10.9163
▁samuel	-10.9163
▁armenien	-10.9163
▁kyrkoherde	-10.9163
▁förvandla	-10.9163
artiklar	-10.9163
▁järnvägsstation	-10.9166
resultat	-10.9166
förändring	-10.9166
▁serbisk	-10.9167
▁naturskydd	-10.9168
▁verktyg	-10.9168
▁balkan	-10.9169
▁1892	-10.9204
hindu	-10.9206
▁nav	-10.9211
störningar	-10.9211
▁influera	-10.9212
▁verkstad	-10.9221
fotograf	-10.9226
▁höst	-10.9226
▁behövs	-10.9228
▁hebreiska	-10.9228
▁rekommendera	-10.9228
▁stärka	-10.9228
▁zappa	-10.9228
▁efterföljare	-10.9228
artade	-10.9229
▁regeringschef	-10.9229
▁kvarteret	-10.923
sagan	-10.9231
▁presidentvalet	-10.9231
▁basket	-10.9232
▁typiskt	-10.9241
▁ansikte	-10.9254
▁1878	-10.9261
bakterie	-10.9265
onomi	-10.9266
▁snabbare	-10.9266
drog	-10.9268
▁registrera	-10.928
▁terrorism	-10.9281
▁testamente	-10.9288
▁hammarskjöld	-10.9293
▁konkurrera	-10.9293
▁merkurius	-10.9293
▁boltic	-10.9293
▁rudbeck	-10.9293
testimoni	-10.9293
▁tämlig	-10.9293
koncept	-10.9293
▁glöd	-10.9293
▁nigeria	-10.9293
stammen	-10.9297
kunskap	-10.9298
▁väljer	-10.9303
▁mördades	-10.931
monopol	-10.9312
chan	-10.9315
▁dol	-10.9319
▁avrätta	-10.9329
upplevelse	-10.9332
▁åland	-10.935
▁legitim	-10.9358
▁bevilja	-10.9358
▁swedenborg	-10.9358
▁färre	-10.9359
▁mänskligheten	-10.9359
▁moore	-10.9359
▁rådgivare	-10.936
▁resterande	-10.9361
▁döttrar	-10.9362
horn	-10.9363
begravningsplats	-10.9364
motiv	-10.9365
▁hjälpte	-10.938
▁polsk	-10.9383
▁redo	-10.9395
▁statlig	-10.9399
▁sonson	-10.9406
▁avlägsna	-10.9424
▁flavianum	-10.9424
▁inledningsvis	-10.9424
▁kalifornien	-10.9424
demonstration	-10.9424
▁penning	-10.9424
▁bryssel	-10.9424
▁oändlig	-10.9426
▁partiledare	-10.9428
▁riktigt	-10.943
▁likaså	-10.9431
greve	-10.9433
▁fastställdes	-10.9446
▁terra	-10.9455
▁tvist	-10.9464
▁1886	-10.9477
▁1840	-10.949
▁fornlämning	-10.949
▁inflytelserik	-10.949
▁negativa	-10.949
▁efterföljande	-10.949
▁kontrast	-10.949
▁bysantinska	-10.9491
▁evert	-10.9491
▁empir	-10.9493
▁solsystemet	-10.9497
▁påbörja	-10.9498
▁bromma	-10.95
▁övertyga	-10.95
norska	-10.9516
▁avsatt	-10.9519
råtta	-10.9523
▁mästerskap	-10.9527
▁fördelade	-10.9532
angående	-10.9534
titanic	-10.9557
▁angeles	-10.9557
wood	-10.9557
▁uppvisar	-10.9558
▁flickor	-10.9558
fem	-10.956
▁falk	-10.9561
kastning	-10.9561
▁geografiskt	-10.9562
adress	-10.957
strömmar	-10.9592
beslut	-10.9592
▁myter	-10.9594
▁bekant	-10.9594
▁möta	-10.9597
formation	-10.9614
▁katoliker	-10.9624
▁befogenhet	-10.9624
▁omtalas	-10.9625
▁källkod	-10.9625
▁konstant	-10.9632
▁genomfört	-10.9634
▁neu	-10.9643
▁flock	-10.9645
▁1,5	-10.9646
▁beskydd	-10.9654
▁hjärnan	-10.9658
▁riva	-10.9659
▁1887	-10.9666
aktioner	-10.9669
▁jämte	-10.9671
2000	-10.9671
överföring	-10.9676
▁identisk	-10.9679
ifikation	-10.9691
▁airport	-10.9691
▁österrikiska	-10.9691
▁kardinal	-10.9691
▁praktiska	-10.9691
▁sundsvall	-10.9691
▁smith	-10.9691
▁rektor	-10.9692
▁diameter	-10.9692
antropolog	-10.9692
dryck	-10.9693
streck	-10.9695
▁bott	-10.9702
▁deltagit	-10.9707
▁petri	-10.9717
värn	-10.9721
▁grafisk	-10.9727
▁präglades	-10.9731
▁tour	-10.9734
▁jordbävning	-10.9759
▁propaganda	-10.9759
▁sarajevo	-10.9759
▁bägge	-10.9759
▁diverse	-10.9759
▁märta	-10.9759
▁merparten	-10.976
▁uppehåll	-10.976
▁drottningholms	-10.9763
▁skugg	-10.9767
▁vänskap	-10.9768
▁lånord	-10.977
▁materia	-10.9774
▁bruno	-10.9775
▁1848	-10.9775
▁marschera	-10.9786
▁bekämpa	-10.9788
▁emil	-10.9794
▁våningar	-10.9798
▁hjalmar	-10.9828
▁league	-10.9828
▁sibirien	-10.9828
▁svavel	-10.9828
▁moderaterna	-10.9828
▁ständerna	-10.9828
▁plundra	-10.9828
▁väpnad	-10.9829
▁varumärke	-10.9829
▁entré	-10.9831
lampor	-10.9832
▁bestämma	-10.9838
▁rättvisa	-10.984
halv	-10.9841
▁ersättning	-10.9841
▁styck	-10.9841
transport	-10.9845
betalning	-10.9846
▁stadsplan	-10.9847
▁skifta	-10.9862
▁härstamma	-10.9865
▁läste	-10.9866
▁plus	-10.9869
▁nöt	-10.9876
▁sociologi	-10.988
▁vecko	-10.9886
flod	-10.9888
▁kristdemokrater	-10.9894
▁tänkande	-10.9895
▁sysselsatt	-10.9897
▁förnuft	-10.9897
hjälte	-10.9897
▁amatör	-10.9897
▁självmord	-10.9897
▁persien	-10.9898
▁ledarskap	-10.9898
▁vikingar	-10.9899
▁externa	-10.9903
▁bergarter	-10.9904
styrkor	-10.9913
▁kyrkliga	-10.9915
▁färdigställd	-10.9915
universitet	-10.9915
▁segla	-10.9915
▁fotografi	-10.9947
låg	-10.9949
lärare	-10.9966
▁proportion	-10.9966
▁vistades	-10.9967
▁poesi	-10.997
▁vänsterpartiet	-10.997
▁långsamt	-10.9972
▁ericsson	-10.9972
▁anläggningen	-10.9972
källor	-10.9974
▁räls	-10.9979
▁folkräkning	-10.9981
▁bördig	-10.9982
fysik	-10.9986
▁parallell	-11.0002
histo	-11.0005
▁skull	-11.0009
▁afrikaans	-11.0015
▁återkomst	-11.0017
▁rapporterade	-11.002
gymn	-11.0035
▁asteroid	-11.0036
▁elektriska	-11.0036
▁privilegier	-11.0036
▁semifinal	-11.0036
▁volkswagen	-11.0036
▁ragnar	-11.0036
▁tennis	-11.0036
▁sunni	-11.0036
▁xenon	-11.0037
▁anarkist	-11.0038
▁liberia	-11.0038
▁stambanan	-11.0038
▁olaus	-11.0039
▁mynning	-11.0039
▁parlamentarisk	-11.0039
▁funnit	-11.0042
▁förhållandevis	-11.005
nuvarande	-11.0062
feminism	-11.0062
försvar	-11.0073
▁innefatta	-11.0075
isotop	-11.0087
▁uteslut	-11.0099
▁sago	-11.0104
unicipalsamhälle	-11.0107
▁klassificering	-11.0107
▁lübeck	-11.0107
▁reguljär	-11.0107
▁algeriet	-11.0107
▁kriterier	-11.0107
▁gädd	-11.0107
▁belarus	-11.0107
▁fornnordiska	-11.0108
▁capita	-11.0108
▁parlamentsval	-11.011
▁hälft	-11.0111
▁utsåg	-11.0115
▁mölle	-11.0116
▁uppförd	-11.0124
modern	-11.0129
säsong	-11.0129
▁utforska	-11.015
massiv	-11.0161
▁krossa	-11.0166
▁kurfurst	-11.0169
liberal	-11.0174
▁enhetlig	-11.0176
distribution	-11.0177
▁ateljé	-11.0177
▁ordinarie	-11.0177
▁guyana	-11.0177
▁lördag	-11.0178
▁adhd	-11.0178
▁vättern	-11.0178
▁epok	-11.0178
▁stefan	-11.0178
▁medeltemperatur	-11.0179
ossa	-11.0222
▁kvinnlig	-11.0223
▁riksbank	-11.0224
▁evangelisk	-11.0249
▁mussolini	-11.0249
aristokrati	-11.0249
tecknet	-11.0249
▁sämre	-11.0249
▁vackra	-11.0249
▁garantera	-11.0249
▁house	-11.0249
orientera	-11.0249
▁sekundär	-11.025
▁utfärda	-11.025
▁rättegång	-11.0251
höjning	-11.0252
▁salong	-11.0254
ident	-11.0256
▁systematisk	-11.0256
▁sommartid	-11.026
befolkning	-11.0264
▁färsk	-11.0269
▁släppte	-11.0269
soldater	-11.0274
stammar	-11.0281
▁areal	-11.0317
▁annorlunda	-11.0321
▁innebörd	-11.0321
▁kollaps	-11.0321
▁professionell	-11.0321
▁eskilstuna	-11.0321
▁regissör	-11.0321
▁stupade	-11.0321
▁keltiska	-11.0321
▁humle	-11.0321
▁svårigheter	-11.0321
lås	-11.0322
▁sålunda	-11.0322
▁ånglok	-11.0322
räknade	-11.0323
inriktad	-11.0327
▁bedriva	-11.0331
laddning	-11.0339
▁ladin	-11.0341
▁enklare	-11.0344
▁kristendom	-11.035
dagligt	-11.0361
▁orgel	-11.037
▁webbplats	-11.0375
right	-11.0375
▁dröjde	-11.0393
▁indirekt	-11.0393
▁montenegro	-11.0393
▁möjliggör	-11.0393
▁näbb	-11.0393
▁hierarki	-11.0393
▁himlen	-11.0393
▁färje	-11.0393
▁årtionden	-11.0394
▁patent	-11.0394
▁östeuropa	-11.0397
▁socialist	-11.0399
▁golf	-11.0406
gymnasiet	-11.0411
▁ansett	-11.0416
▁pastor	-11.0417
▁världsdel	-11.0425
månad	-11.0437
quist	-11.0441
▁skriftspråk	-11.0458
processor	-11.0465
▁garnison	-11.0466
▁suverän	-11.0466
▁dresden	-11.0466
▁texas	-11.0466
▁hessen	-11.0467
▁kungadöme	-11.0468
västlig	-11.0472
▁västvärlden	-11.0473
▁avveckla	-11.0476
kista	-11.0477
▁förkortning	-11.0477
▁tränare	-11.048
▁farfar	-11.0482
index	-11.0482
▁ordnade	-11.0491
▁tiger	-11.0492
fågel	-11.0495
kandidat	-11.0497
byggande	-11.0531
kanaler	-11.0538
▁alingsås	-11.054
▁naturtillgångar	-11.054
▁spannmål	-11.054
▁äldste	-11.054
konsumtion	-11.054
▁mynnar	-11.054
▁spårvidd	-11.054
▁christina	-11.0542
▁avsedd	-11.0543
▁tvångs	-11.0543
▁flick	-11.0545
▁ansluta	-11.0545
bälte	-11.0546
▁knä	-11.0547
▁eriksdotter	-11.0553
▁undersökt	-11.0561
▁höglandet	-11.0563
själ	-11.0565
▁jägar	-11.0569
kongress	-11.0572
▁slaveri	-11.0582
robot	-11.0583
▁chans	-11.0604
▁churchill	-11.0614
▁douglas	-11.0614
▁petroleum	-11.0614
▁singapore	-11.0614
▁förföljelse	-11.0614
reglering	-11.0615
▁donau	-11.0615
▁integrera	-11.0617
▁knyt	-11.0619
▁druv	-11.0619
▁vänstra	-11.062
järv	-11.0635
gestalt	-11.0648
▁skådespel	-11.065
relaterade	-11.0665
▁mali	-11.0679
▁aluminium	-11.0688
▁azerbajdzjan	-11.0688
▁gästrikland	-11.0688
▁taiwan	-11.0688
▁finansiella	-11.0689
▁gripsholm	-11.0689
subjekt	-11.0689
tavlor	-11.069
▁lyssna	-11.069
▁bredvid	-11.0692
▁ögruppen	-11.0696
▁vendel	-11.0696
▁hägg	-11.0696
▁trafikeras	-11.0697
mått	-11.0699
järnväg	-11.0708
sfären	-11.0717
dokument	-11.0724
vattnet	-11.0724
historien	-11.0724
fogde	-11.0726
fynd	-11.0726
franska	-11.0731
kärnor	-11.0737
–202	-11.0753
trupper	-11.0759
▁uppträda	-11.0759
▁libanon	-11.0764
▁omständigheter	-11.0764
▁marknadsföring	-11.0764
▁kamerun	-11.0764
▁tingsrätt	-11.0764
▁sannolikhets	-11.0765
▁inblandad	-11.077
parentes	-11.0772
skaffade	-11.078
▁river	-11.0786
uppror	-11.0801
ministr	-11.0805
luthersk	-11.0835
▁självbiografi	-11.0839
▁colombia	-11.0839
▁hercegovina	-11.0839
▁saudiarabien	-11.0839
▁rudolf	-11.0839
▁renovering	-11.0839
▁etanol	-11.0839
▁feodal	-11.084
aktiebolag	-11.0843
▁black	-11.0846
▁förutsättning	-11.0846
▁stadskommun	-11.0847
▁förkasta	-11.0854
▁neuro	-11.0854
▁zoolog	-11.086
palatset	-11.0878
ärenden	-11.0879
metoder	-11.0881
johan	-11.0884
analys	-11.0887
▁allvarliga	-11.0912
▁territorier	-11.0916
▁romarriket	-11.0916
vegetation	-11.0916
▁överlevde	-11.0916
▁sammanslagning	-11.0916
▁anglo	-11.0917
▁ingrid	-11.0917
▁gratis	-11.0917
▁lilje	-11.0917
▁arkeologi	-11.0917
▁symbolisk	-11.0917
▁hinduism	-11.0917
▁upplagan	-11.0918
▁ceder	-11.0918
▁separera	-11.0918
▁smitta	-11.0919
▁dörr	-11.0919
▁sändebud	-11.092
field	-11.092
▁express	-11.0921
▁betong	-11.0923
▁tendera	-11.0923
▁sammanfatta	-11.0924
▁söker	-11.0925
▁birka	-11.0942
▁symbolisera	-11.0943
fjäll	-11.0957
roth	-11.0968
▁trupp	-11.0972
_1	-11.0981
▁hamilton	-11.0993
horisont	-11.0993
▁sympati	-11.0993
▁dagbladet	-11.0993
▁smeknamn	-11.0993
▁edvard	-11.0993
▁officerare	-11.0993
▁systrar	-11.0993
▁tyngd	-11.0993
▁huvuddelen	-11.0994
▁smalspår	-11.0994
▁medvetande	-11.0995
bukten	-11.0996
▁nässjö	-11.0996
▁statsskick	-11.0997
▁högskolor	-11.1001
stämma	-11.1005
invest	-11.1022
rättslig	-11.1029
▁kulle	-11.1039
blue	-11.1041
utvecklad	-11.1043
▁fjärdedel	-11.1066
▁google	-11.107
▁sammanhängande	-11.107
▁stralsund	-11.107
▁bedrivs	-11.107
▁marocko	-11.107
▁beatles	-11.107
▁brutit	-11.107
▁henry	-11.1071
vandrade	-11.1071
▁uppmanade	-11.1072
föroreningar	-11.1072
▁alice	-11.1077
▁kulturhistorisk	-11.1077
▁naturgas	-11.1081
▁frånvaro	-11.109
ifiering	-11.1093
▁inträde	-11.1118
harmoni	-11.112
▁främre	-11.1148
▁generalguvernör	-11.1148
▁college	-11.1148
▁ljusterö	-11.1148
▁statskupp	-11.1148
▁okänt	-11.1148
▁oroligheter	-11.1149
▁kinesisk	-11.1149
▁underrättelse	-11.115
▁nordligaste	-11.1154
▁hembygd	-11.1157
▁övertala	-11.1158
▁gösta	-11.1159
▁bengtsson	-11.1159
▁isotoper	-11.1171
funn	-11.1213
▁ärvde	-11.1216
▁octavianus	-11.1227
▁vladimir	-11.1227
▁wollstonecraft	-11.1227
▁inflation	-11.1227
▁royal	-11.1227
▁referera	-11.1228
▁råvaror	-11.1228
ndustrialisering	-11.1228
▁indoeuropeiska	-11.1228
substans	-11.123
▁önskan	-11.1236
▁office	-11.1241
▁pojkar	-11.1246
nordisk	-11.1249
cur	-11.1294
▁fundamental	-11.1306
▁modifiera	-11.1306
▁läkemedel	-11.1306
▁samarbets	-11.1306
▁invånarantal	-11.1306
▁contest	-11.1307
▁ungerska	-11.1307
▁pierre	-11.1307
▁länsväg	-11.1313
▁somalia	-11.1317
kommunistpartiet	-11.1323
▁tyst	-11.1343
räder	-11.1356
expedition	-11.1357
människa	-11.1357
▁djurpark	-11.1381
▁inbördes	-11.1385
▁babylon	-11.1386
▁symptom	-11.1386
▁tjeckien	-11.1386
▁luleå	-11.1386
▁makedonien	-11.1386
▁tillämpning	-11.1386
▁noggrann	-11.1387
▁hundratals	-11.1387
▁önskade	-11.1387
▁edward	-11.1389
▁frost	-11.1389
▁influenser	-11.139
▁specialisera	-11.139
▁xvi	-11.1398
▁sprit	-11.1399
kristna	-11.1439
▁bedriver	-11.1467
▁engagemang	-11.1467
▁hjälm	-11.1467
▁sachsiska	-11.1467
▁örgryte	-11.1467
▁wallenstein	-11.1467
▁venedig	-11.1467
▁instabil	-11.1467
▁uganda	-11.1467
kabinett	-11.1467
▁grevskap	-11.1467
skjutning	-11.1468
▁nazisterna	-11.1469
▁uppenbara	-11.1469
▁fersen	-11.1469
▁svenskspråkiga	-11.1472
▁investera	-11.1473
▁grill	-11.1475
▁bröst	-11.1479
▁blått	-11.1483
▁påpeka	-11.1498
fastän	-11.1511
▁västkust	-11.1516
grekiska	-11.1522
kloster	-11.1529
▁gyllene	-11.1548
▁ångermanland	-11.1548
▁lämningar	-11.1548
▁gamle	-11.1549
▁förfäder	-11.1549
▁användbar	-11.1549
▁instiftade	-11.1549
▁företeelse	-11.1549
▁akvarie	-11.1549
▁zorn	-11.1549
▁arlanda	-11.1549
riksföreståndare	-11.1551
▁historieskriv	-11.1551
▁citron	-11.1551
▁dialog	-11.1551
▁förneka	-11.1553
afrikanska	-11.1572
▁kollektivtrafik	-11.1572
▁ägt	-11.1572
platån	-11.1592
▁leverera	-11.1592
stolp	-11.1597
gyllenstierna	-11.163
territoriet	-11.163
▁associera	-11.163
▁blasonering	-11.163
▁chefredaktör	-11.163
▁schleswig	-11.163
bataljon	-11.163
▁fantasi	-11.1631
▁strängnäs	-11.1633
▁smärt	-11.1633
▁västeuropa	-11.1634
▁anklaga	-11.1653
▁medelhavs	-11.166
jämför	-11.1686
▁tjänstgjor	-11.1698
försäkring	-11.1713
▁homosexuella	-11.1713
▁dramaten	-11.1713
▁slump	-11.1713
▁protestanter	-11.1714
▁julafton	-11.1715
▁tillåter	-11.1723
▁enorma	-11.1724
reich	-11.1735
romersk	-11.1764
gruva	-11.1765
▁läroverk	-11.1787
▁habsburg	-11.1796
▁celsius	-11.1796
▁illustrera	-11.1796
▁inskränk	-11.1796
▁zimbabwe	-11.1796
▁eftermäle	-11.1796
american	-11.1796
▁karlfeldt	-11.1796
▁petersburg	-11.1796
▁habitat	-11.1797
intäkter	-11.1797
▁moské	-11.1797
▁jazz	-11.1798
▁fackförening	-11.1798
▁ekerö	-11.1799
▁helena	-11.1808
▁justitie	-11.1837
▁angränsa	-11.1871
sträcka	-11.1877
▁bestämmer	-11.188
▁kapitulera	-11.188
▁kännetecken	-11.188
▁sturlasson	-11.188
▁voxnan	-11.188
▁förlängning	-11.188
▁protein	-11.188
▁lappland	-11.1881
▁disney	-11.1881
▁genast	-11.1882
▁buddhismen	-11.1883
▁jäst	-11.1884
▁hinder	-11.1886
▁skylt	-11.1886
▁ambassadör	-11.1889
▁latinamerika	-11.1891
infektion	-11.1901
▁skiss	-11.1904
årsdag	-11.1911
firma	-11.192
alltför	-11.1931
▁predika	-11.1945
medlem	-11.1947
vilket	-11.1951
▁katedral	-11.1965
▁patient	-11.1965
▁knappast	-11.1965
▁facto	-11.1965
▁migration	-11.1966
▁uppträder	-11.1966
▁rydberg	-11.1966
▁stridigheter	-11.1967
▁giltig	-11.1968
glöm	-11.1971
▁vincent	-11.1972
▁elektronik	-11.1973
sändningar	-11.1974
▁arbetsplats	-11.1975
▁tingslag	-11.1977
▁ruiner	-11.1981
▁järnålder	-11.1986
golv	-11.1995
▁2,5	-11.2003
work	-11.203
undervisning	-11.2034
▁madagaskar	-11.2051
▁plötsligt	-11.2051
▁västtyskland	-11.2051
▁vindkraftverk	-11.2051
primitiv	-11.2051
▁ultra	-11.2051
▁kommando	-11.2053
▁blodbad	-11.2053
▁materiell	-11.2056
▁terrorist	-11.2068
▁balett	-11.2068
templ	-11.2088
▁berömd	-11.2099
▁föreställa	-11.2102
▁socialistisk	-11.2114
kött	-11.2136
instruktion	-11.2137
arrangemang	-11.2137
▁exklusiv	-11.2137
▁förväxla	-11.2137
▁provisorisk	-11.2137
▁behöva	-11.2137
▁konsonant	-11.2137
▁militärkupp	-11.2137
förbättring	-11.2137
▁automatisk	-11.2137
▁inblandning	-11.2137
▁styv	-11.2138
▁kvant	-11.2138
▁fröding	-11.2138
katalog	-11.2139
▁vacker	-11.2141
▁kvällen	-11.2142
▁utsedd	-11.2145
▁skänkte	-11.2157
driva	-11.2161
▁ideell	-11.2165
▁synlig	-11.2168
▁favorit	-11.2224
▁skänninge	-11.2224
nacka	-11.2224
▁kommunicera	-11.2225
▁brann	-11.2229
▁pehr	-11.223
▁skotsk	-11.2234
▁anlita	-11.2235
skuld	-11.2255
drivna	-11.2298
hei	-11.2304
▁filippinerna	-11.2311
▁generalmajor	-11.2311
▁skulptör	-11.2311
▁unicode	-11.2312
▁laurent	-11.2312
▁lagerlöf	-11.2312
▁polacker	-11.2313
▁dödsfall	-11.2314
intendent	-11.2314
▁gallien	-11.2316
▁undersöka	-11.2324
axel	-11.2365
▁trettio	-11.2366
bebyggelse	-11.2388
allians	-11.2392
helsing	-11.2397
skandinavisk	-11.2398
djävul	-11.24
▁aftonbladet	-11.24
▁betydde	-11.24
▁federationen	-11.24
▁konkurrent	-11.24
▁oldenburg	-11.24
▁splittring	-11.24
glädje	-11.24
▁mozart	-11.24
▁rugby	-11.24
▁school	-11.24
▁campus	-11.24
▁möbler	-11.24
▁diktatur	-11.24
▁medelpad	-11.24
▁insåg	-11.24
▁befolkade	-11.24
▁befordra	-11.24
▁svält	-11.2402
▁miljöproblem	-11.2402
▁ombildade	-11.2403
▁dvs	-11.2409
0,5	-11.2437
▁analysera	-11.2445
sändare	-11.2449
gustav	-11.2479
▁gymnasium	-11.2489
▁bibehåll	-11.2489
▁dvärg	-11.2489
▁vidsträckt	-11.2489
▁hänvisning	-11.2489
preussiska	-11.2489
▁tendens	-11.2489
▁amiral	-11.2491
▁belgrad	-11.2491
▁antonius	-11.2492
▁frys	-11.2495
▁dylan	-11.2497
▁muntlig	-11.2502
▁butiker	-11.2522
▁hövding	-11.2565
trogna	-11.257
▁kämpa	-11.2578
kassa	-11.2579
▁alltjämt	-11.2579
▁grammatik	-11.2579
▁heinrich	-11.2579
▁pendeltåg	-11.2579
▁sevärdheter	-11.2579
▁kuwait	-11.2579
▁gummi	-11.258
▁dittills	-11.258
▁konkret	-11.258
▁upphöjde	-11.258
▁anmäl	-11.2581
▁upptäcka	-11.2581
▁återupptog	-11.2583
▁värderingar	-11.2585
▁tecknare	-11.2586
invigd	-11.2587
plattform	-11.2605
utvinning	-11.2639
mönster	-11.2663
▁ulvsunda	-11.267
▁jamaica	-11.267
▁skämt	-11.267
▁tanzania	-11.267
▁venezuela	-11.267
▁carolina	-11.267
▁praktiskt	-11.267
▁british	-11.267
▁ambition	-11.267
▁farbror	-11.267
▁klättra	-11.2671
▁depression	-11.2671
▁konkurs	-11.2671
▁trossamfund	-11.2673
▁lanka	-11.2673
▁kräva	-11.268
play	-11.269
böjning	-11.2705
diskett	-11.2708
▁citat	-11.272
▁sammansatt	-11.272
kämpade	-11.2724
medicin	-11.2757
▁francisco	-11.2762
▁einstein	-11.2762
▁centralbyrån	-11.2762
▁mikael	-11.2762
▁berggrunden	-11.2762
ladugård	-11.2763
▁förverkliga	-11.2763
skåda	-11.2766
▁diktsamling	-11.2766
▁olaglig	-11.2768
▁centre	-11.2769
riksdag	-11.2774
▁utrota	-11.2776
▁logisk	-11.2785
mätning	-11.2792
kvarn	-11.2794
▁utmana	-11.2821
idrott	-11.2846
gamla	-11.2851
historiker	-11.2851
▁mobiltelefon	-11.2855
årsjubileum	-11.2855
▁normandie	-11.2855
▁riksdagsledamot	-11.2855
▁charlotta	-11.2855
▁mekaniska	-11.2855
symmetri	-11.2855
▁administrera	-11.2855
qaida	-11.2855
▁kungamakten	-11.2855
▁sahara	-11.2855
gäst	-11.2855
▁järnvägsnätet	-11.2857
▁posse	-11.286
kristi	-11.2866
▁ateist	-11.2876
▁komponenter	-11.2876
kameror	-11.2901
rymd	-11.2922
reaktion	-11.2938
▁association	-11.2948
▁novgorod	-11.2948
▁reduktion	-11.2948
hexadecimalt	-11.2948
▁böhmen	-11.2948
▁pungdjur	-11.2948
▁tyngre	-11.2948
▁kategorisera	-11.2949
▁nominera	-11.295
▁mecka	-11.2951
▁häftig	-11.2952
vigning	-11.2961
utgiven	-11.2967
▁bertil	-11.2971
▁soldat	-11.2971
bränning	-11.2978
▁påtaglig	-11.2991
▁henri	-11.3002
▁citera	-11.3006
▁kejserlig	-11.3029
journal	-11.304
▁etnicitet	-11.3042
▁buddha	-11.3042
▁colorado	-11.3042
▁fjorton	-11.3042
▁jersey	-11.3042
▁fission	-11.3042
▁bemärkelse	-11.3042
▁ateism	-11.3043
▁säljs	-11.3043
▁genomkorsa	-11.3043
täthet	-11.3044
▁arktis	-11.3045
reaktor	-11.3046
▁rebell	-11.3049
▁udda	-11.3051
▁attentat	-11.3054
beredning	-11.3058
förklara	-11.3063
lojal	-11.3068
byggnation	-11.3099
▁tillträde	-11.3129
▁komplett	-11.3134
▁apotek	-11.3138
▁förmögenhet	-11.3138
▁överbefälhavare	-11.3138
▁prägel	-11.3138
▁fjärr	-11.3138
▁utmärkelser	-11.3138
▁ullevi	-11.3138
▁övervägande	-11.3138
▁fakta	-11.3139
▁feministisk	-11.3139
▁ingvar	-11.3141
▁övervaka	-11.3143
▁käk	-11.3155
▁förmyndar	-11.3169
▁motverka	-11.3175
försvarsminister	-11.3182
materiel	-11.3232
paviljong	-11.3234
▁rekrytera	-11.3234
▁residensstad	-11.3234
▁vreeswijk	-11.3234
▁hydrografi	-11.3234
▁högskole	-11.3234
▁marginal	-11.3234
▁socknen	-11.3234
▁ängelholm	-11.3234
▁retorik	-11.3234
▁vänorter	-11.3235
▁kväve	-11.3235
▁reträtt	-11.3235
▁upplagor	-11.3236
▁knapp	-11.3237
nederbörd	-11.3237
▁tillräcklig	-11.3241
▁asea	-11.3253
revolutionen	-11.3254
brygga	-11.3262
▁dekorera	-11.3282
▁redovisa	-11.3284
▁fötter	-11.3292
▁konspiration	-11.331
▁ingripa	-11.3313
▁victor	-11.3327
▁härnösand	-11.3331
▁hässelby	-11.3331
▁fragment	-11.3331
▁tronföljare	-11.3331
▁kredit	-11.3331
bädd	-11.3331
▁befrielse	-11.3331
▁taxonomi	-11.3331
▁örlogs	-11.3331
▁avlidit	-11.3331
▁armeniska	-11.3331
▁uppsving	-11.3331
▁distans	-11.3332
skägg	-11.3337
▁följe	-11.3353
predikant	-11.3355
komponent	-11.3406
▁våtmark	-11.3429
▁florida	-11.3429
doktrin	-11.3429
▁svåger	-11.3429
prefekt	-11.3429
▁savann	-11.3429
▁lingvist	-11.3429
▁interiör	-11.343
▁gränskontroller	-11.343
▁grannländerna	-11.343
▁boston	-11.3432
bindning	-11.3433
kanadensisk	-11.3434
▁uppfinning	-11.3438
relation	-11.3469
▁tunnelbane	-11.3526
▁fögderi	-11.3528
▁chicago	-11.3528
▁rwanda	-11.3528
▁sokrates	-11.3528
▁ulriksdal	-11.3528
▁roskilde	-11.3528
▁anonym	-11.3528
▁retirera	-11.3528
▁manifest	-11.3528
▁sömn	-11.3528
▁marcus	-11.3528
▁uppfann	-11.3528
▁inverkan	-11.3528
▁ghana	-11.3529
▁lycklig	-11.353
göteborg	-11.3537
samarbetet	-11.3538
light	-11.3546
▁trettioårig	-11.3566
▁sparbank	-11.3571
fött	-11.3571
▁teolog	-11.3574
▁omväxlande	-11.3628
▁restaurering	-11.3628
▁spanjorerna	-11.3628
▁nazismen	-11.3628
▁danderyd	-11.3628
▁triumf	-11.3628
▁united	-11.3628
▁fredsavtal	-11.3628
▁renovera	-11.3629
▁street	-11.3629
srapportering	-11.3632
anstalt	-11.3632
bjälboätten	-11.3636
biskop	-11.3639
siffror	-11.3639
debatt	-11.364
▁konsument	-11.3729
▁messias	-11.3729
▁utsmyckning	-11.3729
▁gynnsam	-11.3729
▁konvertera	-11.3729
▁kristofer	-11.3729
▁senegal	-11.3729
▁gravitation	-11.3729
▁vigsel	-11.3729
▁överhöghet	-11.3729
▁pröva	-11.373
▁drots	-11.373
▁nomad	-11.3731
▁afrikansk	-11.3735
pakten	-11.3757
mönstr	-11.3758
▁relatera	-11.3761
mästerskapet	-11.3765
möjligheter	-11.3769
▁kolonisera	-11.38
▁tillhandahåll	-11.3831
illustration	-11.3831
▁portugiser	-11.3831
▁tengbom	-11.3831
▁ömsesidig	-11.3831
▁bernhard	-11.3831
▁dödsstraff	-11.3831
▁involvera	-11.3831
▁symtom	-11.3831
▁älvsborgs	-11.3831
branschen	-11.3831
▁stäpp	-11.3831
▁världsarvslista	-11.3831
▁madrid	-11.3831
▁djurgårds	-11.3832
▁engelskspråkiga	-11.3832
▁utdöda	-11.3832
▁regissera	-11.3833
drottning	-11.3846
undersökning	-11.3847
ryssland	-11.3847
förstör	-11.3847
sexual	-11.3848
belysning	-11.385
legering	-11.3868
▁riksföreståndar	-11.3879
▁ärftlig	-11.3884
▁statssekreterar	-11.3899
▁ambassad	-11.3923
ambique	-11.3934
▁botswana	-11.3934
▁society	-11.3934
▁hawaii	-11.3934
▁groddjur	-11.3934
▁sanskrit	-11.3934
▁leopard	-11.3934
▁fideikommiss	-11.3934
▁anarkism	-11.3934
▁invigningen	-11.3934
registrering	-11.3934
▁wallenberg	-11.3935
▁bergskedjor	-11.3935
▁makro	-11.3938
svampar	-11.3939
▁underjordisk	-11.3946
court	-11.3991
styrning	-11.4002
nisse	-11.4011
egypti	-11.4038
▁auktoritär	-11.4038
▁förbjudet	-11.4038
▁kronprinsessan	-11.4038
▁ladulås	-11.4038
▁lappmark	-11.4038
▁arthur	-11.4038
▁forntida	-11.4038
▁für	-11.4038
▁grekerna	-11.4039
▁ansluter	-11.4039
▁ingemar	-11.4039
▁arrestera	-11.4039
▁primater	-11.4039
▁abstrakt	-11.4039
▁kriminal	-11.4039
▁templet	-11.4039
▁tallinn	-11.4041
sammanhang	-11.4058
kinshasa	-11.4143
▁kapitulation	-11.4143
▁särskilj	-11.4143
▁södertälje	-11.4143
▁åkeshov	-11.4143
▁efterkrigstiden	-11.4143
▁julklapp	-11.4143
▁bergskedjan	-11.4144
▁stegeborg	-11.4144
▁avsaknad	-11.4144
▁minnesota	-11.4144
▁fosfor	-11.4144
▁gävleborgs	-11.4144
▁mystik	-11.4144
speglar	-11.4144
▁michel	-11.4145
▁primtal	-11.4146
▁betoning	-11.4146
▁informell	-11.4146
▁dalsland	-11.4146
▁kelter	-11.4156
▁ansöka	-11.4158
psalm	-11.4165
båda	-11.4167
skäl	-11.4235
psykiatri	-11.425
▁christopher	-11.425
▁hunnit	-11.425
▁michigan	-11.425
▁adverb	-11.425
▁imponera	-11.425
pseudo	-11.425
▁ifrågasätt	-11.4251
▁fastigheter	-11.4252
▁piano	-11.4253
▁återupprätta	-11.4253
▁karaktärisera	-11.4265
8–18	-11.4265
▁ockupera	-11.4269
▁dynasti	-11.427
professor	-11.4274
kräm	-11.4274
▁ryssar	-11.432
▁motivera	-11.4321
▁pionjär	-11.4357
▁anckarström	-11.4357
▁ekvatorn	-11.4357
▁stärkte	-11.4357
▁folkrikaste	-11.4357
▁saddam	-11.4357
▁nödvändigtvis	-11.4358
▁beskow	-11.4358
▁leksand	-11.4358
analytisk	-11.4358
▁utkämpades	-11.4358
▁publicering	-11.4358
övergripande	-11.4363
rytm	-11.4364
evolution	-11.4364
traktor	-11.4365
häft	-11.4376
filosofi	-11.4383
deklaration	-11.4409
filosofiska	-11.4451
regelbundna	-11.4466
▁ecuador	-11.4466
▁nämnt	-11.4466
▁pappenheim	-11.4466
▁rekommendation	-11.4466
▁hänseende	-11.4466
▁försörja	-11.4466
hälsinge	-11.4466
▁rubrik	-11.4466
▁egyptiska	-11.4466
▁estniska	-11.4466
▁återspegla	-11.4466
▁perfekt	-11.4469
▁plocka	-11.4474
hälso	-11.4495
växande	-11.4495
villkor	-11.4496
4,5	-11.4505
▁asatro	-11.4506
utspelar	-11.4509
kläder	-11.4564
▁manuskript	-11.4576
▁riksarkivet	-11.4576
▁ryckte	-11.4576
▁domestic	-11.4576
▁flandern	-11.4576
▁slutsatsen	-11.4576
▁sierra	-11.4577
mässan	-11.4577
mekanism	-11.4577
myndigheten	-11.4579
sförhandlingar	-11.4585
▁försiktig	-11.4585
vingad	-11.4588
▁storskalig	-11.4591
smältning	-11.4594
inklusiv	-11.4608
ledamöter	-11.4608
rättigheter	-11.4612
avrinningsområde	-11.4642
▁införliva	-11.4683
inskription	-11.4687
sprivilegier	-11.4687
▁midsommar	-11.4687
▁misslyckat	-11.4687
▁nürnberg	-11.4687
▁subtropisk	-11.4687
▁tammerfors	-11.4687
▁dessförinnan	-11.4687
▁barrskog	-11.4687
▁initial	-11.4687
▁behärska	-11.4687
▁club	-11.4687
▁hisingen	-11.4687
▁folkrepubliken	-11.4687
▁stjäl	-11.4688
▁sammanslutning	-11.4688
▁power	-11.4688
▁synnerlig	-11.4688
▁roslags	-11.4689
▁kopia	-11.4689
▁grevlig	-11.4691
äpple	-11.4692
▁bevaka	-11.4693
förkortat	-11.4708
körtlar	-11.4719
august	-11.4722
makedon	-11.4747
massor	-11.4755
fyra	-11.4786
kommissarie	-11.4799
▁koldioxid	-11.4799
▁katolicism	-11.4799
▁kvalificera	-11.4799
▁slovakien	-11.4799
▁tunisien	-11.4799
▁myanmar	-11.4799
▁restaurera	-11.4799
▁kjell	-11.48
▁föreställer	-11.48
odemus	-11.48
idrottsförbund	-11.4801
▁sändning	-11.4801
▁arrende	-11.4801
▁datering	-11.4804
plantage	-11.4824
▁bjär	-11.4829
hälsa	-11.4836
kejsar	-11.4838
efolkningstäthet	-11.4879
▁frälsning	-11.4913
▁ludwig	-11.4913
▁persepolis	-11.4913
▁bagdad	-11.4913
▁finansiering	-11.4913
▁monaco	-11.4913
tecknen	-11.4913
▁platina	-11.4914
▁nunnor	-11.4914
▁kvarlevor	-11.4914
▁sammanträde	-11.495
kapital	-11.4976
buddhism	-11.5025
explosion	-11.5028
▁försvunnit	-11.5028
▁moldavien	-11.5028
▁narkotika	-11.5028
▁översvämningar	-11.5028
▁hybrid	-11.5028
▁kalcium	-11.5028
▁cricket	-11.5028
▁föga	-11.5028
▁fiktiv	-11.5028
▁försvåra	-11.5029
leverantör	-11.5029
▁dekorativ	-11.503
▁panama	-11.5031
sekvens	-11.5033
▁återställa	-11.5035
▁muslimsk	-11.5048
passager	-11.506
▁dyrka	-11.513
▁betyda	-11.5138
▁himlakropp	-11.5144
inflammation	-11.5144
▁advokat	-11.5144
▁company	-11.5144
▁kvicksilver	-11.5144
▁mexico	-11.5144
▁potentiell	-11.5144
▁ribbing	-11.5144
▁saturnus	-11.5144
▁återhämta	-11.5144
▁representativ	-11.5144
▁rädsla	-11.5144
▁sjunkit	-11.5144
▁beträffande	-11.5144
▁basilika	-11.5144
▁beirut	-11.5144
▁terminologi	-11.5144
▁thiel	-11.5145
▁granskning	-11.5145
▁fastslog	-11.5145
▁harrison	-11.5145
▁fysikalisk	-11.5146
▁knop	-11.5162
prövning	-11.5179
direktiv	-11.5238
▁bolsjevik	-11.5262
▁augsburg	-11.5262
<	-12.8948
