<unk>	0
<s>	0
</s>	0
,	-3.2333
.	-3.31486
▁	-3.90559
а	-4.21286
▁в	-4.35691
▁у	-4.52382
у	-4.52401
і	-4.55793
▁на	-4.58032
▁з	-4.65918
и	-4.67461
▁і	-4.74269
▁та	-4.97469
▁—	-5.0227
о	-5.07724
▁(	-5.13552
-	-5.14099
▁до	-5.14159
▁за	-5.32452
"	-5.33175
ів	-5.35617
их	-5.40148
ий	-5.45358
▁«	-5.45585
'	-5.49167
е	-5.52605
в	-5.60439
ого	-5.6244
ом	-5.65564
м	-5.67554
#	-5.69593
▁що	-5.69654
="	-5.71101
▁від	-5.72182
▁#	-5.73939
ої	-5.74456
х	-5.74687
▁по	-5.77821
▁року	-5.7848
▁не	-5.79808
ні	-5.83428
на	-5.85625
:	-5.90869
▁а	-5.91699
с	-5.94978
)	-5.97256
й	-5.98537
).	-6.00722
▁про	-6.03161
»	-6.03564
ою	-6.04169
я	-6.06466
ами	-6.17889
▁є	-6.18042
),	-6.18307
ка	-6.22779
▁як	-6.25623
к	-6.27153
им	-6.29347
▁під	-6.30534
ю	-6.31321
т	-6.31978
doc	-6.32884
>	-6.33021
ій	-6.3352
ти	-6.3386
ї	-6.36838
▁с	-6.40363
▁при	-6.40514
до	-6.40585
ки	-6.41599
з	-6.43506
▁й	-6.43561
▁для	-6.45276
ла	-6.51444
▁його	-6.51654
д	-6.52417
не	-6.53222
ах	-6.5331
них	-6.53465
ли	-6.56672
c	-6.57129
ч	-6.59161
го	-6.59505
б	-6.59952
▁ви	-6.61064
но	-6.61664
▁о	-6.63647
ня	-6.63744
▁також	-6.64998
ш	-6.65251
ому	-6.65656
р	-6.65856
н	-6.6614
п	-6.66789
ми	-6.6834
▁р	-6.68482
ся	-6.69374
/	-6.70797
ну	-6.71299
▁м	-6.74187
▁"	-6.75224
▁із	-6.75945
▁році	-6.76074
ний	-6.76883
г	-6.77269
ку	-6.7996
;	-6.81172
▁18	-6.82585
ж	-6.82616
▁пере	-6.82635
▁де	-6.82876
▁було	-6.83355
»,	-6.83534
ими	-6.85226
є	-6.87774
ії	-6.89074
ці	-6.89534
▁був	-6.89615
▁об	-6.89673
▁він	-6.92055
ло	-6.93408
▁україни	-6.94486
та	-6.95676
?	-6.95865
▁п	-6.99338
▁роз	-6.99565
ія	-6.99619
uk	-7.00845
▁це	-7.01309
ies	-7.01602
org	-7.01631
://	-7.01685
https	-7.01941
▁id	-7.01996
wiki	-7.02165
wikipedia	-7.022
▁<	-7.02222
▁url	-7.02268
▁categor	-7.02277
urid	-7.02288
▁title	-7.02333
▁</	-7.02456
▁які	-7.03278
▁%	-7.05293
ного	-7.05872
=	-7.05907
▁після	-7.07503
ля	-7.07798
▁або	-7.07855
▁е	-7.08444
ни	-7.08593
».	-7.08914
▁час	-7.09381
л	-7.10801
▁1	-7.10885
ь	-7.12973
ль	-7.13077
▁населення	-7.14261
ва	-7.17708
ма	-7.18097
по	-7.19118
лі	-7.19595
ок	-7.19851
▁але	-7.20031
—	-7.21373
▁її	-7.21569
▁району	-7.21587
за	-7.23796
ського	-7.24075
му	-7.24572
ф	-7.24852
ов	-7.2685
▁були	-7.27999
ної	-7.31998
▁між	-7.3295
да	-7.33373
ський	-7.34291
ив	-7.34479
▁території	-7.34933
▁була	-7.35192
ті	-7.36601
ість	-7.39398
ості	-7.40227
▁який	-7.40281
▁років	-7.40973
то	-7.41463
▁період	-7.41673
▁район	-7.41794
ків	-7.42327
19	-7.44763
ити	-7.44889
▁має	-7.45101
ди	-7.45539
▁ст	-7.45632
ав	-7.45684
ко	-7.46106
ської	-7.46355
▁17	-7.47067
▁ж	-7.47728
ту	-7.4837
▁через	-7.49236
▁так	-7.49451
від	-7.50358
▁2	-7.50466
▁області	-7.51121
▁їх	-7.5251
ан	-7.52922
▁3	-7.52944
мі	-7.53168
▁км	-7.53461
ру	-7.53514
ц	-7.5452
те	-7.54922
▁к	-7.55388
▁те	-7.56182
ним	-7.56602
▁тому	-7.56802
▁пов	-7.57059
ст	-7.57547
▁15	-7.57748
▁г	-7.58057
нь	-7.59169
ра	-7.59199
▁д	-7.59478
▁тис	-7.59522
ська	-7.59774
ати	-7.60068
▁ре	-7.62238
ію	-7.63381
ви	-7.64141
сь	-7.64298
▁(19	-7.64323
▁над	-7.65284
▁імперії	-7.65375
га	-7.65476
ові	-7.65639
са	-7.67212
2	-7.67886
ді	-7.69108
▁став	-7.69337
▁16	-7.69751
▁4	-7.70104
ється	-7.70105
▁чи	-7.70203
ною	-7.70285
▁ко	-7.70328
▁вони	-7.70783
ре	-7.70974
про	-7.71785
ування	-7.71884
▁століття	-7.72037
▁бо	-7.72113
▁ка	-7.72172
ем	-7.72436
▁i	-7.72769
▁га	-7.72882
ував	-7.73638
увати	-7.74004
ян	-7.74025
ба	-7.74069
лю	-7.74646
▁5	-7.74669
цій	-7.75116
▁ш	-7.75764
▁б	-7.75977
▁коли	-7.76044
или	-7.76477
▁рік	-7.77044
▁серед	-7.77079
▁яка	-7.77271
▁н	-7.77566
▁яких	-7.7772
ова	-7.78065
▁вона	-7.783
▁міста	-7.78539
мо	-7.789
де	-7.79902
ією	-7.80247
ній	-7.80487
▁країни	-7.80514
али	-7.81029
сти	-7.81413
ню	-7.82194
ві	-7.82541
сі	-7.82659
ам	-7.82969
▁пам	-7.83118
су	-7.83135
ає	-7.83478
▁править	-7.8357
ають	-7.83655
▁10	-7.83707
ей	-7.83875
ор	-7.84006
▁ме	-7.84057
ських	-7.8457
чи	-7.8512
▁13	-7.85454
▁інших	-7.85689
▁того	-7.86318
ними	-7.86355
▁багато	-7.86451
▁ще	-7.87079
ували	-7.87257
ос	-7.87311
ши	-7.87367
▁кон	-7.87412
▁12	-7.87492
3	-7.87994
▁ін	-7.88277
ком	-7.88315
▁частина	-7.8929
▁лише	-7.89399
кою	-7.89648
ович	-7.89823
ри	-7.904
▁ii	-7.90647
▁ф	-7.90759
▁інші	-7.90864
▁близько	-7.909
▁життя	-7.91095
|	-7.91801
▁склад	-7.92162
▁кількість	-7.92242
ує	-7.92607
00	-7.92822
▁осіб	-7.92871
▁я	-7.92896
вер	-7.93145
▁них	-7.93382
он	-7.93426
кон	-7.94325
▁без	-7.94388
▁то	-7.95506
ують	-7.95595
ання	-7.96013
▁6	-7.96268
▁14	-7.96619
▁вод	-7.97441
▁цього	-7.97696
па	-7.98016
ції	-7.98279
▁зі	-7.98302
́	-8.00114
▁перед	-8.0041
ень	-8.00472
▁11	-8.007
▁7	-8.00758
▁зокрема	-8.01214
1	-8.01505
▁три	-8.01533
тя	-8.01534
ро	-8.01585
ське	-8.02004
ча	-8.02413
ве	-8.02735
▁землі	-8.0328
ців	-8.03846
s	-8.04316
лу	-8.04428
▁ді	-8.0458
рі	-8.04618
▁роки	-8.04673
ле	-8.04741
ець	-8.05497
▁зв	-8.05506
▁триває	-8.05811
▁держави	-8.05919
роб	-8.05965
▁8	-8.05994
ські	-8.06148
▁цей	-8.0619
гу	-8.06207
во	-8.06484
кла	-8.06953
бі	-8.07549
▁української	-8.07935
че	-8.08056
▁війни	-8.08124
тор	-8.08407
ться	-8.0926
ник	-8.10589
ше	-8.10619
ність	-8.10803
▁ла	-8.1098
▁мають	-8.11056
▁може	-8.11057
лення	-8.11235
чі	-8.11487
лив	-8.11782
▁9	-8.12039
▁займає	-8.1215
тів	-8.1231
зи	-8.1236
▁проти	-8.12696
▁сам	-8.12716
ар	-8.12737
зі	-8.13407
▁королівство	-8.14164
аль	-8.14321
]]	-8.14335
▁сша	-8.14345
об	-8.14746
▁місце	-8.14886
▁україні	-8.14915
щ	-8.1499
ному	-8.15175
ду	-8.1542
▁частину	-8.15839
▁становить	-8.16001
ес	-8.16124
▁тільки	-8.16493
як	-8.16701
ності	-8.16907
ков	-8.16938
▁належить	-8.16952
ця	-8.17197
▁су	-8.17211
нов	-8.1738
ман	-8.17661
ють	-8.17951
мін	-8.1808
ила	-8.18245
зна	-8.1844
i	-8.18616
тер	-8.18704
си	-8.19004
ську	-8.19257
ин	-8.19345
▁син	-8.197
ським	-8.19822
ському	-8.19888
▁ба	-8.20133
u	-8.20192
ста	-8.20251
t	-8.20363
▁центр	-8.20489
▁ге	-8.20673
▁[[	-8.2074
▁правління	-8.20849
ових	-8.21022
▁кор	-8.21107
мен	-8.21149
мов	-8.21228
ала	-8.21438
▁початку	-8.21662
ть	-8.22047
▁півночі	-8.2222
се	-8.22695
ель	-8.22799
▁районі	-8.22885
▁королем	-8.23163
▁роках	-8.23205
ван	-8.23228
лен	-8.24423
▁ар	-8.24786
бор	-8.24963
ство	-8.25345
ується	-8.25589
▁моря	-8.25691
▁значення	-8.26402
би	-8.26612
твор	-8.2721
▁ради	-8.27297
▁більш	-8.27412
▁однак	-8.27999
▁виборців	-8.28181
▁місто	-8.28415
вод	-8.28481
▁один	-8.2858
от	-8.28844
▁ан	-8.29461
ації	-8.29856
бу	-8.29871
▁півдні	-8.29936
▁індії	-8.30268
пе	-8.30546
▁води	-8.30604
ства	-8.30613
▁назва	-8.30678
▁мі	-8.30713
▁млн	-8.3111
▁т	-8.31168
▁деякі	-8.31388
10	-8.31533
▁гу	-8.31773
▁складу	-8.31856
категорія	-8.3197
▁ці	-8.32023
4	-8.32404
▁20	-8.32477
прав	-8.32542
20	-8.32765
▁всі	-8.32814
лів	-8.32958
p	-8.33426
▁якого	-8.34007
ення	-8.34244
▁щоб	-8.34388
▁ку	-8.34428
▁мови	-8.34589
ція	-8.34668
▁бути	-8.34899
▁культури	-8.35277
▁слов	-8.35467
▁проте	-8.35467
▁тут	-8.35471
ша	-8.35516
▁історії	-8.35742
▁пер	-8.35743
ск	-8.36366
0	-8.364
ме	-8.36406
гор	-8.36456
сті	-8.36476
ал	-8.36504
▁можна	-8.36686
▁північ	-8.36689
▁мо	-8.36744
▁се	-8.36974
ат	-8.37152
фе	-8.37362
▁понад	-8.37434
▁мар	-8.37582
▁розвитку	-8.37725
▁разом	-8.37909
пу	-8.38023
▁держав	-8.38035
6	-8.38124
ги	-8.383
▁ім	-8.38433
▁міст	-8.38444
▁наук	-8.38704
▁кар	-8.39039
▁лі	-8.39408
став	-8.39651
ській	-8.397
▁со	-8.39717
▁гор	-8.39786
при	-8.40166
e	-8.40213
стр	-8.40276
мер	-8.40353
гр	-8.40437
▁тощо	-8.40653
фа	-8.40981
y	-8.41002
яз	-8.41079
▁кри	-8.41115
▁майже	-8.41235
ден	-8.41333
▁ю	-8.4238
▁династія	-8.42636
дж	-8.42929
чен	-8.42969
7	-8.43002
ет	-8.43508
▁iii	-8.43947
▁участь	-8.44158
▁бу	-8.44647
▁19	-8.44694
▁імперія	-8.4481
▁(18	-8.45439
ят	-8.45507
▁вже	-8.45541
▁найбільш	-8.4577
▁()	-8.45833
тися	-8.46784
чин	-8.46832
ер	-8.46968
▁пан	-8.46988
▁часто	-8.47381
ками	-8.47825
ран	-8.48184
істю	-8.48623
нос	-8.48648
▁заході	-8.48665
a	-8.48731
9	-8.48788
50	-8.48853
▁полі	-8.48886
ін	-8.49009
сто	-8.49148
▁змін	-8.4928
▁схід	-8.49341
▁ос	-8.49435
▁культур	-8.49635
▁гре	-8.49669
▁країн	-8.49823
ння	-8.49834
род	-8.5
єр	-8.50081
▁суд	-8.50202
ход	-8.50793
▁японії	-8.51131
▁ор	-8.51135
▁ніж	-8.51318
ація	-8.51345
▁все	-8.51404
▁прав	-8.51588
k	-8.51603
▁ма	-8.5163
ен	-8.51761
▁влади	-8.51779
o	-8.51833
це	-8.51845
▁само	-8.51866
ючи	-8.51906
▁ні	-8.51927
єм	-8.52302
ються	-8.52472
8	-8.52547
літ	-8.52598
дав	-8.52603
▁світ	-8.52613
▁дуже	-8.5285
бо	-8.5286
g	-8.52865
–	-8.53017
дер	-8.53246
кі	-8.53496
рос	-8.53499
▁той	-8.53502
▁більше	-8.53971
▁область	-8.54268
▁протягом	-8.54629
▁цьому	-8.54836
трим	-8.54897
▁володимир	-8.54907
ист	-8.55123
кс	-8.55143
d	-8.55175
▁30	-8.55264
тон	-8.55372
40	-8.5538
слав	-8.55411
▁крім	-8.55461
▁25	-8.55645
рах	-8.55652
гі	-8.55774
30	-8.55781
▁(«	-8.55824
▁такі	-8.55959
);	-8.56032
▁народ	-8.56062
▁автор	-8.56115
гідно	-8.56208
▁різних	-8.56235
пов	-8.56254
▁наприклад	-8.56257
l	-8.56419
▁саме	-8.56425
пис	-8.56651
ився	-8.56888
▁справ	-8.56944
▁іван	-8.57037
ять	-8.57057
▁українського	-8.57258
▁можуть	-8.57348
▁сил	-8.57443
▁йому	-8.57456
▁держава	-8.57531
увала	-8.57707
лися	-8.58055
▁травня	-8.5818
▁китаї	-8.58307
▁транспорт	-8.58469
▁січня	-8.58644
▁право	-8.58737
▁південь	-8.58845
єв	-8.58879
▁стала	-8.58925
▁свою	-8.59163
▁літератур	-8.5952
▁па	-8.59531
бір	-8.59759
год	-8.60154
▁("	-8.60178
▁франції	-8.60221
▁світі	-8.6025
овий	-8.60568
▁річки	-8.60728
▁сході	-8.61353
ич	-8.61399
11	-8.61403
ге	-8.61581
▁рух	-8.61655
▁два	-8.61666
▁згодом	-8.6174
кор	-8.62107
▁х	-8.62201
b	-8.62361
тра	-8.62388
▁певн	-8.62395
▁тим	-8.62451
▁системи	-8.6256
▁фа	-8.6261
фі	-8.6278
▁да	-8.63114
їв	-8.63176
▁березня	-8.63272
ак	-8.63395
▁термін	-8.63485
нський	-8.63689
▁король	-8.63774
▁повітря	-8.63864
вір	-8.64109
5	-8.64192
▁територія	-8.64317
оз	-8.64363
ун	-8.64454
▁історія	-8.64478
україн	-8.64986
▁світу	-8.65037
ган	-8.65279
▁людей	-8.65299
▁якщо	-8.65416
▁оскільки	-8.65591
бер	-8.65625
дів	-8.65724
▁вид	-8.65993
▁одним	-8.66038
раз	-8.66151
▁свого	-8.66207
▁існує	-8.66211
14	-8.66269
нів	-8.66308
▁тоді	-8.66357
тов	-8.66402
▁столітті	-8.66442
▁липня	-8.66484
олог	-8.66495
13	-8.6688
▁комп	-8.66927
r	-8.6708
▁вплив	-8.67356
▁рад	-8.67402
▁цих	-8.67402
▁сільського	-8.67509
▁власн	-8.67586
ент	-8.67608
▁срср	-8.6761
ген	-8.67674
▁мов	-8.67802
▁вір	-8.67805
▁кам	-8.6811
▁якої	-8.68146
крит	-8.68259
▁частині	-8.68268
80	-8.68306
ження	-8.68779
▁своїх	-8.68816
ґ	-8.69055
енко	-8.69178
нд	-8.69214
жен	-8.69245
▁особливо	-8.69366
тар	-8.69447
▁біля	-8.69651
роз	-8.69678
▁°	-8.69715
▁організації	-8.69763
рів	-8.7002
▁мали	-8.70139
▁рим	-8.7019
шир	-8.70285
12	-8.70334
ників	-8.70346
вся	-8.70679
▁жив	-8.70697
▁грудня	-8.70713
▁член	-8.70775
▁мор	-8.70777
▁очолює	-8.70842
▁межах	-8.70953
▁чином	-8.71118
том	-8.71158
▁створення	-8.71249
▁діяльності	-8.71259
тур	-8.71278
▁пе	-8.71426
▁кілька	-8.71504
15	-8.71589
▁клімат	-8.71641
▁хоча	-8.71765
▁більшість	-8.71783
ус	-8.71999
▁роман	-8.7204
▁належать	-8.72177
▁числі	-8.7252
▁бар	-8.72532
70	-8.72586
▁діяльність	-8.7267
ток	-8.72703
ші	-8.72733
сте	-8.72771
▁місті	-8.72792
▁біл	-8.7284
▁фе	-8.7287
▁часу	-8.73422
▁києві	-8.73477
▁система	-8.73492
▁план	-8.7356
уються	-8.73669
▁себе	-8.73684
▁англії	-8.73787
▁поділ	-8.73812
со	-8.73902
▁мав	-8.74189
лов	-8.74211
див	-8.74247
нення	-8.74253
▁італії	-8.74353
▁щодо	-8.74505
▁відповідно	-8.74536
▁рослин	-8.74709
▁стар	-8.7472
ало	-8.74843
▁мало	-8.74891
чу	-8.75014
▁північному	-8.75016
▁шлях	-8.75078
▁потім	-8.75367
кар	-8.75453
▁пізніше	-8.75574
▁тисяч	-8.75677
бл	-8.75681
дар	-8.75804
▁ле	-8.7592
▁отримав	-8.75936
w	-8.76063
▁великих	-8.76064
▁че	-8.76123
ур	-8.76186
ового	-8.764
▁брат	-8.76639
▁яке	-8.7691
▁кра	-8.76943
▁свят	-8.76994
▁iv	-8.77017
ци	-8.77253
95	-8.77537
▁всіх	-8.77798
жив	-8.77856
фік	-8.77872
▁частини	-8.7802
пі	-8.78143
▁вересня	-8.78392
▁уряд	-8.78698
▁програм	-8.78736
▁союз	-8.78757
▁захід	-8.78859
60	-8.78977
▁земель	-8.7905
▁навіть	-8.79181
▁пар	-8.79202
буд	-8.79242
▁день	-8.79277
ацію	-8.79367
вар	-8.79369
аючи	-8.79485
▁різні	-8.79534
n	-8.79611
▁республіка	-8.79704
уючи	-8.79864
65	-8.7987
▁петро	-8.79893
17	-8.80088
нім	-8.80343
нт	-8.80476
ової	-8.8077
37	-8.80774
48	-8.80818
▁ново	-8.80907
85	-8.8093
18	-8.80932
▁сто	-8.8097
хід	-8.81062
ол	-8.81284
16	-8.81312
▁жовтня	-8.8138
ини	-8.81399
ською	-8.81449
▁сім	-8.81577
▁стали	-8.81682
▁нього	-8.81743
пер	-8.81978
▁спо	-8.82022
▁мала	-8.82265
мар	-8.82318
▁центральн	-8.82457
стан	-8.82539
слов	-8.82557
▁цар	-8.82631
фер	-8.82946
римській	-8.82947
▁листопада	-8.83084
39	-8.83205
▁висок	-8.83223
x	-8.83303
▁походження	-8.83354
▁українських	-8.83355
▁важлив	-8.83489
ана	-8.83591
▁якому	-8.83671
ені	-8.83763
▁двох	-8.83907
ову	-8.83912
f	-8.8418
▁дерев	-8.84192
▁ряд	-8.84196
сту	-8.84237
▁тур	-8.84579
▁польщі	-8.84599
кол	-8.84613
▁дві	-8.84682
in	-8.84768
▁вер	-8.84816
▁стан	-8.84904
34	-8.84971
▁ті	-8.85283
ями	-8.85307
▁європи	-8.8531
пи	-8.85387
рад	-8.85507
бр	-8.85618
▁лютого	-8.85709
47	-8.85804
54	-8.85829
▁середньовіччя	-8.8586
▁площа	-8.8586
25	-8.85897
▁хо	-8.85916
▁переважно	-8.85918
она	-8.86113
▁дослідження	-8.86248
▁бі	-8.86319
▁коро	-8.86421
▁країні	-8.86582
цією	-8.866
75	-8.86611
▁даними	-8.8665
аються	-8.86662
илася	-8.86695
різ	-8.8687
од	-8.86877
▁ро	-8.87148
▁перший	-8.87289
▁ди	-8.87326
▁бр	-8.87424
же	-8.87545
рон	-8.87581
▁помер	-8.87711
_	-8.87759
96	-8.87885
іння	-8.87924
▁са	-8.88027
▁мовою	-8.88521
ліз	-8.88531
зу	-8.88738
▁квітня	-8.8876
ще	-8.8878
▁вищ	-8.88789
▁багатьох	-8.88795
▁статус	-8.88867
▁займають	-8.89012
▁свої	-8.89033
▁нова	-8.89128
ина	-8.89325
▁цієї	-8.89376
▁ск	-8.89486
m	-8.89517
55	-8.89517
іст	-8.89539
▁карл	-8.89572
▁смерті	-8.89596
83	-8.8961
із	-8.8963
▁фі	-8.89656
38	-8.89711
ить	-8.8979
▁баз	-8.89944
▁роботи	-8.89962
ника	-8.89976
▁олександр	-8.90017
▁громад	-8.90043
стор	-8.90046
▁владу	-8.902
▁церкви	-8.90256
пере	-8.90463
▁півострів	-8.90477
44	-8.90477
▁півострова	-8.90551
лад	-8.90615
▁серпня	-8.90699
64	-8.90706
72	-8.90808
ит	-8.90827
▁ду	-8.90838
43	-8.91098
▁ло	-8.91105
82	-8.91375
▁рр	-8.91629
▁використання	-8.91654
ках	-8.91758
▁0	-8.91766
три	-8.91825
46	-8.92043
жу	-8.92113
▁права	-8.92172
▁ця	-8.92373
▁таких	-8.92525
▁ха	-8.92563
сон	-8.92611
кра	-8.9273
74	-8.92827
▁(1	-8.92861
▁видів	-8.93107
▁тварин	-8.93117
▁священн	-8.93211
ке	-8.93252
▁спів	-8.93313
»)	-8.93439
▁роль	-8.93448
тан	-8.93486
нк	-8.9351
90	-8.93536
бач	-8.93647
▁міжнародн	-8.93783
вор	-8.93853
нг	-8.93884
▁ситуація	-8.93932
▁озера	-8.94038
▁аль	-8.94054
89	-8.94227
лан	-8.94269
▁університету	-8.94276
▁людини	-8.94385
сел	-8.9464
▁промислов	-8.94667
97	-8.94698
▁великий	-8.94776
63	-8.9491
us	-8.95075
▁велика	-8.95089
▁південно	-8.95168
▁кінця	-8.95212
en	-8.95358
▁червня	-8.95395
41	-8.95431
▁римської	-8.95468
▁опис	-8.95473
▁стало	-8.95511
▁характер	-8.95667
▁існують	-8.95706
▁верховн	-8.95792
▁український	-8.95941
▁море	-8.96215
▁імені	-8.96283
▁formula	-8.9633
86	-8.96392
▁міф	-8.96465
35	-8.96539
гра	-8.96616
▁завдяки	-8.96643
▁праці	-8.96648
алі	-8.96817
єднання	-8.96844
al	-8.96971
88	-8.9701
кри	-8.97123
фор	-8.97212
бе	-8.97369
98	-8.97503
▁пояс	-8.97623
▁структур	-8.97849
кін	-8.97922
▁світової	-8.9802
▁переклад	-8.98037
сл	-8.98176
овані	-8.98183
▁пост	-8.98207
▁"«	-8.98244
94	-8.98261
76	-8.983
▁тих	-8.98319
▁одна	-8.98444
міс	-8.98537
▁микола	-8.98609
▁май	-8.98636
49	-8.98694
▁допомогою	-8.98707
66	-8.98805
68	-8.98844
92	-8.98901
▁внаслідок	-8.98909
▁сер	-8.98921
▁vi	-8.98947
йн	-8.99006
оп	-8.9915
▁одного	-8.99361
▁будь	-8.99523
▁владою	-8.99676
▁азії	-8.99678
▁ста	-8.99685
▁досяг	-8.99785
▁мова	-8.99805
45	-8.99856
▁таким	-8.99882
▁русі	-8.99997
рен	-9.00069
▁київ	-9.0008
ічних	-9.00199
▁рос	-9.00241
▁яку	-9.00288
57	-9.00379
81	-9.00496
продовж	-9.00516
гад	-9.00541
▁буд	-9.00637
лей	-9.00662
стер	-9.00689
гір	-9.00738
іш	-9.00834
▁xix	-9.00894
(	-9.00949
▁європі	-9.00991
▁чорн	-9.00994
▁росії	-9.01006
илися	-9.01231
▁мас	-9.01267
▁основні	-9.01475
42	-9.01489
яти	-9.01494
▁оп	-9.01537
")	-9.01586
▁армії	-9.01635
%	-9.01804
▁воло	-9.01831
▁50	-9.019
▁процес	-9.01944
▁дітей	-9.02048
ант	-9.02075
87	-9.02096
▁ціл	-9.02178
▁групи	-9.02353
▁же	-9.02362
▁чолі	-9.02379
▁усі	-9.02409
▁22	-9.02459
▁створено	-9.02487
бут	-9.02583
▁офіційн	-9.02607
нського	-9.02668
69	-9.02726
ники	-9.02738
93	-9.02766
▁загально	-9.02768
▁no	-9.02804
територіальн	-9.02872
▁працював	-9.02886
▁села	-9.02947
▁приблизно	-9.02947
▁прем	-9.03
щини	-9.03002
▁чоловік	-9.03077
▁розвиток	-9.03131
ину	-9.03139
▁лист	-9.0314
ика	-9.03174
ера	-9.03179
іль	-9.03226
or	-9.03349
▁партії	-9.03383
остей	-9.03451
▁спільн	-9.03458
▁v	-9.03477
▁текст	-9.03503
»"	-9.03517
▁xx	-9.03521
61	-9.03541
▁станом	-9.03626
тин	-9.03732
мон	-9.03832
▁суб	-9.03899
язку	-9.03931
ar	-9.03996
▁перші	-9.04101
62	-9.04172
▁тобто	-9.0422
▁управління	-9.0427
▁%.	-9.04353
▁економ	-9.04408
лася	-9.04625
▁фільм	-9.04691
▁гі	-9.04762
▁іншими	-9.04803
▁2001	-9.04865
▁мін	-9.04884
▁s	-9.04885
53	-9.04989
▁мер	-9.04997
▁узбережжя	-9.05163
гар	-9.0523
▁зміни	-9.05264
ща	-9.05303
▁2014	-9.0537
▁друг	-9.0539
▁змі	-9.05498
чення	-9.05632
ило	-9.05657
нув	-9.05764
ічні	-9.05776
▁міськ	-9.05803
кова	-9.05822
67	-9.05866
▁слова	-9.05952
▁екс	-9.06011
▁24	-9.0602
▁республіки	-9.06031
▁100	-9.06172
▁наприкінці	-9.06194
re	-9.06365
служ	-9.06422
▁школи	-9.06456
▁підприємств	-9.06565
▁сп	-9.06577
пар	-9.06582
▁собою	-9.06629
▁університет	-9.06656
важ	-9.0668
▁гер	-9.0679
er	-9.06831
хо	-9.06952
сть	-9.0709
▁тре	-9.07097
цями	-9.07232
▁питання	-9.07236
78	-9.07273
ров	-9.07284
01	-9.07346
▁принцип	-9.075
91	-9.07607
▁риб	-9.07712
▁президент	-9.0774
пан	-9.07791
▁якій	-9.07811
стро	-9.07819
▁геополітичн	-9.07937
ово	-9.07946
▁складається	-9.07946
лем	-9.08002
56	-9.08041
▁форм	-9.08043
▁форму	-9.08051
▁складі	-9.08094
77	-9.08146
▁північно	-9.08252
99	-9.0826
▁значно	-9.08313
▁голосів	-9.08346
▁війна	-9.08442
єднан	-9.08443
▁назву	-9.08563
сн	-9.0862
▁собі	-9.08721
мир	-9.08957
▁розмір	-9.09004
▁селян	-9.09017
51	-9.09037
лін	-9.09038
елі	-9.0914
▁груп	-9.09278
▁виробництва	-9.09467
▁л	-9.09481
▁війська	-9.09592
84	-9.0967
▁селі	-9.09683
сько	-9.09691
город	-9.09783
▁музичн	-9.09824
илося	-9.09897
▁ки	-9.09944
▁діє	-9.09989
▁державами	-9.10087
59	-9.10183
івський	-9.10378
▁под	-9.10433
▁23	-9.10453
ях	-9.10474
on	-9.10477
єкт	-9.10499
▁ми	-9.10503
иці	-9.10534
дат	-9.10633
арх	-9.10681
ска	-9.10819
лом	-9.10849
▁євро	-9.10863
▁нові	-9.10896
▁османськ	-9.10979
▁кур	-9.11013
▁дво	-9.11024
брали	-9.11342
▁селищ	-9.11399
івка	-9.1146
33	-9.11479
ик	-9.11524
міст	-9.11537
▁завод	-9.11611
▁віль	-9.11684
52	-9.11695
▁америці	-9.11699
▁дні	-9.11843
▁гір	-9.11843
▁ра	-9.11852
▁ком	-9.11864
▁результаті	-9.11899
▁ад	-9.11932
73	-9.12001
▁ту	-9.12014
▁газ	-9.12049
▁російської	-9.12065
▁документ	-9.12224
71	-9.1227
▁шар	-9.12356
пуст	-9.12372
▁папськ	-9.12376
▁сан	-9.12389
▁1918	-9.12462
▁менш	-9.12516
віт	-9.12655
ове	-9.12669
пол	-9.12673
▁утворення	-9.12759
ований	-9.12769
v	-9.12812
▁основі	-9.12903
▁розв	-9.12938
ланд	-9.12965
▁називають	-9.12986
▁установ	-9.13061
▁рід	-9.13218
▁сільськ	-9.13261
др	-9.13272
ас	-9.13336
58	-9.13379
▁твори	-9.13383
ряд	-9.13435
поль	-9.13467
най	-9.13585
▁символ	-9.13638
▁сум	-9.13639
вали	-9.13687
зо	-9.13784
ено	-9.1384
▁часів	-9.13862
▁вол	-9.13879
▁потреб	-9.13916
їзд	-9.14079
▁батько	-9.14106
▁руху	-9.14336
▁військ	-9.14349
▁вияв	-9.14384
▁напрям	-9.14431
▁країна	-9.14434
21	-9.1446
оль	-9.14473
▁днів	-9.1448
▁розділен	-9.14539
шу	-9.14568
▁різн	-9.14575
ном	-9.14596
▁адміністративно	-9.14612
▁27	-9.14683
серед	-9.14713
▁глибин	-9.14765
чне	-9.14799
▁умов	-9.14806
▁генріх	-9.14855
плат	-9.14968
ог	-9.15016
▁висот	-9.15052
▁анти	-9.15078
▁почали	-9.15108
ря	-9.15124
ючись	-9.15201
більш	-9.1527
нути	-9.1528
мет	-9.15374
технічн	-9.15478
▁головн	-9.15671
32	-9.15709
▁комплекс	-9.15804
▁тривал	-9.15834
▁кі	-9.15893
▁залізничн	-9.15906
▁дж	-9.15949
22	-9.15978
▁орган	-9.15993
▁закон	-9.1603
ву	-9.16193
лер	-9.16244
цький	-9.16373
вал	-9.16376
▁си	-9.16485
ож	-9.16553
▁хор	-9.16572
іс	-9.16573
▁мистецтва	-9.16581
▁народився	-9.16605
▁навчання	-9.16658
▁21	-9.16721
полі	-9.16801
вели	-9.16884
▁2006	-9.16887
05	-9.16893
▁освіти	-9.16957
сер	-9.16958
▁великі	-9.16985
коп	-9.16986
▁північній	-9.17039
▁першим	-9.17196
чна	-9.17223
стат	-9.17225
▁честь	-9.17254
▁бур	-9.17318
ізму	-9.17326
▁авто	-9.1736
дія	-9.17363
▁влада	-9.17422
стра	-9.17446
зе	-9.17454
▁28	-9.17528
▁рівня	-9.17613
▁електро	-9.1762
міт	-9.17694
▁пі	-9.17754
▁прийнят	-9.17783
▁великої	-9.17802
▁ти	-9.17892
част	-9.18007
▁розгляд	-9.18011
an	-9.18087
▁тем	-9.18139
▁північної	-9.18155
ене	-9.18199
▁спочатку	-9.18205
▁бор	-9.18237
вич	-9.18682
чним	-9.18768
▁знаходиться	-9.18791
▁окрем	-9.18813
▁ліс	-9.18969
▁штат	-9.19006
▁рада	-9.1906
вид	-9.19142
79	-9.19143
лев	-9.19199
цен	-9.19202
▁деяких	-9.19214
ств	-9.19289
нє	-9.19303
мір	-9.194
▁куп	-9.19407
▁річ	-9.1947
▁урср	-9.19479
▁михайло	-9.19497
▁гар	-9.19518
кові	-9.1956
▁розподіл	-9.19599
▁культура	-9.19686
нич	-9.19692
▁центром	-9.19745
бар	-9.19818
▁мед	-9.19826
рин	-9.1985
бул	-9.19962
метр	-9.19973
▁берег	-9.20027
▁громадян	-9.20122
▁візантії	-9.20172
під	-9.20225
фон	-9.2032
="10	-9.20383
▁зазвичай	-9.20454
над	-9.20512
слід	-9.20551
цем	-9.20567
́н	-9.20617
кт	-9.20685
▁люди	-9.20694
дивись	-9.20771
руч	-9.20806
▁перша	-9.20809
▁гал	-9.20915
31	-9.20938
▁піс	-9.21195
ут	-9.21198
▁промисловості	-9.21251
пон	-9.21257
▁цін	-9.21267
▁лів	-9.21349
уш	-9.21384
▁театр	-9.21392
▁лев	-9.21441
▁активн	-9.21493
▁прото	-9.21593
бит	-9.21613
кур	-9.21651
ологія	-9.21767
▁січ	-9.218
▁26	-9.21822
▁дія	-9.21826
▁україна	-9.21928
▁вис	-9.21962
▁династії	-9.21977
▁p	-9.21983
▁дав	-9.22157
ra	-9.22164
▁діяч	-9.22232
▁мати	-9.22251
▁королівства	-9.22281
ався	-9.22345
▁поверхні	-9.22382
▁досить	-9.22385
овано	-9.22413
ізм	-9.22473
▁слід	-9.22504
▁40	-9.22539
="11	-9.22547
ології	-9.22603
вши	-9.22689
▁їхні	-9.22689
так	-9.22711
▁великого	-9.22764
▁ху	-9.2277
▁товариства	-9.22804
ch	-9.22867
померли	-9.23151
▁порт	-9.23303
ел	-9.23355
лись	-9.23367
▁бал	-9.23375
▁померли	-9.23467
▁ним	-9.23476
світ	-9.23592
шт	-9.23625
рем	-9.23734
▁уряду	-9.23858
36	-9.23968
пл	-9.23987
23	-9.24005
▁імператор	-9.24064
ям	-9.24182
▁шевченка	-9.24228
▁церква	-9.24228
▁раді	-9.24241
▁союзу	-9.24285
28	-9.24384
▁британськ	-9.24435
▁лу	-9.24448
▁одно	-9.24537
▁спеціальн	-9.24542
▁існування	-9.24643
тро	-9.24648
26	-9.2472
▁світов	-9.24729
▁галузі	-9.24747
▁пре	-9.24824
дан	-9.24862
▁000	-9.24904
▁племена	-9.24905
]	-9.24935
жа	-9.24954
▁приклад	-9.2511
▁особист	-9.25118
▁вік	-9.25132
▁даних	-9.25149
▁поет	-9.25206
оч	-9.25217
▁озер	-9.25264
▁банк	-9.25295
▁ман	-9.25324
ань	-9.25353
йшли	-9.25359
▁кримськ	-9.25417
іон	-9.25467
▁сир	-9.255
▁ґрунт	-9.25512
изм	-9.25598
▁храм	-9.25622
▁кер	-9.25664
він	-9.25671
▁короля	-9.25708
▁данії	-9.25798
мат	-9.25926
▁мир	-9.25985
▁розташований	-9.26
ап	-9.26019
ліс	-9.26115
24	-9.26122
27	-9.26166
зер	-9.26251
ведення	-9.2626
▁близьк	-9.26266
▁%)	-9.26328
бур	-9.26333
ro	-9.26333
▁поля	-9.2639
дор	-9.26429
▁%,	-9.26439
молод	-9.26464
▁вперше	-9.26533
міністр	-9.26589
▁антон	-9.26609
▁національний	-9.26636
рок	-9.26644
▁усіх	-9.26744
чер	-9.26794
▁вигляді	-9.26821
▁територію	-9.26848
▁бе	-9.26874
ані	-9.26893
▁широк	-9.26956
▁англ	-9.27017
ром	-9.27199
▁рівнин	-9.27279
▁тро	-9.27289
енка	-9.27301
▁письменник	-9.27304
▁ак	-9.27354
вав	-9.27364
діл	-9.27404
овим	-9.27433
жі	-9.27442
▁обов	-9.27536
лег	-9.27566
▁івана	-9.27577
▁здоров	-9.27602
08	-9.2763
▁29	-9.2766
▁тра	-9.27678
▁культ	-9.27697
▁приватн	-9.27743
▁книг	-9.2775
вський	-9.27876
▁цим	-9.27897
▁ам	-9.27908
▁озеро	-9.27931
▁кордон	-9.28017
▁опер	-9.28128
ходу	-9.28129
гал	-9.28151
▁млрд	-9.28239
▁трьох	-9.28239
ятки	-9.28493
▁нині	-9.28494
▁ке	-9.28498
ням	-9.28499
▁відділ	-9.28586
▁виступ	-9.28606
▁зберіг	-9.28634
▁свій	-9.28646
лет	-9.28918
ір	-9.2897
▁причорномор	-9.28995
▁гол	-9.29124
▁промисловість	-9.29191
ози	-9.29193
▁початок	-9.29213
▁невелик	-9.2923
▁проблем	-9.29258
▁рівні	-9.29322
шев	-9.29392
куп	-9.29448
▁форми	-9.29634
▁залишається	-9.29649
нці	-9.29661
▁види	-9.29751
—18	-9.29756
щина	-9.2987
06	-9.30126
▁гори	-9.30163
▁образ	-9.30187
▁афін	-9.30294
▁марк	-9.3036
ічний	-9.30366
▁літопис	-9.30423
▁головним	-9.30448
▁знову	-9.30451
ена	-9.30692
ев	-9.30729
хар	-9.30885
тік	-9.30984
веде	-9.31043
▁метою	-9.31105
▁сили	-9.31142
▁річок	-9.31167
ек	-9.31178
▁рівень	-9.31193
ключ	-9.31238
овича	-9.31271
▁другої	-9.31384
▁реформ	-9.31438
▁московськ	-9.31446
▁запис	-9.31568
ниці	-9.3159
нська	-9.31711
можлив	-9.31829
шка	-9.31903
▁команд	-9.31949
▁академії	-9.31969
07	-9.31982
▁температура	-9.32118
▁ал	-9.32179
силь	-9.32217
▁мак	-9.32232
сій	-9.32245
лон	-9.32401
топ	-9.32402
▁господарства	-9.32405
▁видання	-9.32492
▁там	-9.32519
тен	-9.32533
h	-9.32739
▁опадів	-9.32756
▁розум	-9.32771
▁c	-9.32859
▁яким	-9.32878
твер	-9.32882
▁гр	-9.32889
▁бог	-9.32907
яс	-9.3298
▁каганат	-9.33094
▁ша	-9.3313
ацією	-9.33174
держ	-9.33195
▁політика	-9.33259
▁східній	-9.33377
рис	-9.33379
араб	-9.33443
▁тер	-9.33517
▁суспільн	-9.33665
▁американськ	-9.33689
▁колон	-9.3376
▁дитяч	-9.33775
▁найвищ	-9.33777
▁творів	-9.33802
▁хто	-9.33904
мор	-9.33924
▁державного	-9.33997
▁ост	-9.34001
▁1919	-9.34018
▁слово	-9.34025
рог	-9.34057
29	-9.34102
▁фронт	-9.3412
▁рішення	-9.34121
▁підприємства	-9.3413
▁народу	-9.34276
пт	-9.34339
▁особи	-9.34397
▁ц	-9.34424
дра	-9.34522
рив	-9.34583
▁парламент	-9.3459
мент	-9.3468
▁проєкт	-9.34902
ськими	-9.34934
жан	-9.34938
ництво	-9.35111
народились	-9.35117
ятник	-9.35194
▁однією	-9.35265
▁ґ	-9.35296
тв	-9.35298
олі	-9.35301
▁відповідн	-9.35353
▁машин	-9.35403
град	-9.35429
▁раз	-9.35505
▁журнал	-9.35513
▁2000	-9.3566
адміністративний	-9.35685
▁лікар	-9.35734
▁князівство	-9.35798
окрім	-9.35869
▁парк	-9.35874
▁ча	-9.35879
▁потужн	-9.36194
▁нових	-9.36252
la	-9.36327
▁виборах	-9.36376
сен	-9.36401
st	-9.36401
▁першої	-9.36484
пр	-9.36485
▁1920	-9.36606
▁сільських	-9.36647
▁ярослав	-9.36661
▁мм	-9.36773
▁рис	-9.3678
04	-9.3684
рей	-9.36962
▁теле	-9.37006
▁єгипет	-9.37013
▁типу	-9.37029
▁от	-9.37032
форм	-9.37048
плав	-9.37063
▁назви	-9.37149
▁німеччини	-9.37249
цю	-9.37266
▁наступ	-9.37343
▁кочов	-9.37403
▁боку	-9.37491
▁андр	-9.3756
▁океану	-9.37606
європейськ	-9.37635
▁лежить	-9.37721
ед	-9.37771
увався	-9.37841
is	-9.37883
уль	-9.37907
иця	-9.37958
▁південному	-9.38073
le	-9.38101
▁60	-9.38125
лин	-9.38572
▁острів	-9.38574
▁просто	-9.38584
▁почав	-9.38634
▁середню	-9.38639
▁лісостепової	-9.38673
▁рельєф	-9.38673
івського	-9.38732
ско	-9.38804
алися	-9.38831
▁золота	-9.38867
09	-9.38906
▁професор	-9.38912
▁океан	-9.38932
▁гра	-9.38938
▁всього	-9.3894
▁систем	-9.39002
▁населених	-9.39019
ниця	-9.39109
рош	-9.39205
▁членом	-9.39252
▁островів	-9.39281
▁гру	-9.39323
лося	-9.39338
▁послуг	-9.39394
крі	-9.39417
▁2010	-9.39464
▁провідн	-9.3948
▁масов	-9.39485
дати	-9.39489
▁курс	-9.39505
▁києва	-9.39521
▁високо	-9.39522
▁президента	-9.39558
▁природи	-9.39638
раж	-9.3973
▁своєї	-9.39791
▁показ	-9.39798
чні	-9.39819
▁руд	-9.39836
▁кол	-9.39886
▁чотири	-9.39997
▁сад	-9.4003
°	-9.40064
▁новий	-9.40127
▁видав	-9.40139
▁василь	-9.40211
▁медичн	-9.40223
▁пал	-9.40269
ики	-9.40414
▁(20	-9.40425
▁гетьман	-9.40481
▁духов	-9.40512
чно	-9.40608
▁традицій	-9.40681
▁пап	-9.40774
еля	-9.40828
зем	-9.40947
спа	-9.40987
лія	-9.40997
гон	-9.41008
▁суспільства	-9.41093
▁розділ	-9.41194
▁ваг	-9.41233
▁коз	-9.41256
тр	-9.41257
▁українська	-9.41307
несен	-9.41422
▁львові	-9.41461
біг	-9.41555
▁адміністративн	-9.41582
▁загальна	-9.41585
пад	-9.41655
▁умови	-9.41663
▁поблизу	-9.41707
▁інформації	-9.41708
екс	-9.41734
▁пунктів	-9.41897
ват	-9.42009
▁острова	-9.4201
лось	-9.42026
▁африки	-9.42078
▁буде	-9.42137
жит	-9.42152
▁водо	-9.42221
▁клас	-9.42372
03	-9.42419
сія	-9.42554
▁метод	-9.42562
▁бога	-9.42585
▁пра	-9.42595
▁утворен	-9.42606
пор	-9.4261
лені	-9.42614
яни	-9.43015
▁рус	-9.43081
демократичн	-9.43121
▁організацій	-9.43212
▁чу	-9.43221
▁русь	-9.43228
▁вибори	-9.43262
▁колонії	-9.43311
▁острови	-9.43322
▁філ	-9.43325
▁гри	-9.43354
червон	-9.43375
▁художник	-9.43452
час	-9.43468
▁літератури	-9.43685
▁британії	-9.43699
▁жителів	-9.43736
▁дан	-9.43748
▁юридичн	-9.43951
▁православн	-9.43961
щині	-9.4397
▁віктор	-9.4398
▁фінансов	-9.43988
▁см	-9.43993
▁цю	-9.44059
▁відомий	-9.4414
из	-9.4428
▁вважається	-9.44339
річ	-9.44363
янськ	-9.44409
▁народились	-9.44498
▁вважають	-9.44509
джа	-9.4455
▁поняття	-9.44582
рес	-9.4463
пек	-9.44636
вин	-9.44713
▁географія	-9.44722
▁собор	-9.4479
ri	-9.44796
решт	-9.4481
▁f	-9.44848
▁дії	-9.44871
▁науково	-9.44874
▁інститут	-9.44935
▁vii	-9.4494
▁перемог	-9.44975
лян	-9.44986
▁результат	-9.45018
▁національної	-9.45074
лік	-9.45079
▁мон	-9.45079
▁королює	-9.451
▁пів	-9.45126
націонал	-9.4515
рус	-9.45352
піль	-9.45395
▁кап	-9.45422
▁київської	-9.45435
▁колектив	-9.45474
▁раніше	-9.45478
▁площі	-9.45602
▁музей	-9.45625
вести	-9.45641
▁1917	-9.45645
луч	-9.45668
ляр	-9.4569
▁реконкіста	-9.4573
▁перших	-9.45743
▁економіка	-9.4584
вати	-9.45875
▁шляхом	-9.4593
▁голова	-9.45935
ивши	-9.45948
▁чого	-9.45984
▁сі	-9.46052
дя	-9.46054
▁державний	-9.46066
▁національного	-9.46075
▁подальш	-9.46117
▁декілька	-9.46245
▁2020	-9.46321
▁відбувається	-9.46374
02	-9.46383
альні	-9.46396
тал	-9.46429
▁написан	-9.4654
▁частин	-9.46655
▁відомі	-9.4666
шко	-9.46678
▁італійськ	-9.46766
вищ	-9.46866
вен	-9.46903
▁розташовані	-9.46936
▁сьогодні	-9.47022
▁можливість	-9.47023
▁[	-9.47138
▁обсяг	-9.47168
дум	-9.4736
енні	-9.47444
▁маг	-9.47497
схід	-9.47537
▁формування	-9.47643
▁генерал	-9.47657
ютер	-9.47686
цін	-9.4769
▁входить	-9.47692
▁австр	-9.47823
арт	-9.47877
лій	-9.4788
▁останні	-9.4792
▁виділяють	-9.47942
рід	-9.47953
▁(2	-9.47991
▁сина	-9.48074
іт	-9.48261
▁цінн	-9.48281
▁велику	-9.48333
▁річка	-9.4835
ована	-9.48381
▁но	-9.48501
▁військов	-9.48547
▁володіння	-9.48593
енд	-9.48602
хім	-9.48609
ованих	-9.48649
без	-9.48668
увалися	-9.48689
▁своє	-9.48695
▁леон	-9.48757
▁перше	-9.48797
овою	-9.48807
▁клуб	-9.4886
▁епі	-9.48909
▁своїм	-9.48938
▁старо	-9.4895
сії	-9.48964
▁сучасної	-9.4899
▁халіфат	-9.4899
нням	-9.49104
▁тов	-9.49153
▁ска	-9.49158
тек	-9.4925
хоп	-9.49289
▁середня	-9.49328
порт	-9.49338
▁постанов	-9.49385
▁німецько	-9.49391
кл	-9.49419
йшла	-9.4942
▁кількості	-9.49522
▁широко	-9.49526
▁незалежність	-9.49532
▁князя	-9.49655
гл	-9.4983
сп	-9.49871
▁теорії	-9.49923
▁іноді	-9.49932
▁імператором	-9.49978
прям	-9.49991
лот	-9.49997
▁температури	-9.50032
бра	-9.50121
▁дня	-9.50126
▁значні	-9.50195
▁окремі	-9.50214
▁люб	-9.50243
▁людськ	-9.50255
▁оун	-9.50302
▁аб	-9.50305
▁кат	-9.50339
ював	-9.50569
▁київського	-9.50578
елл	-9.5061
сс	-9.50699
▁гот	-9.50754
▁повністю	-9.50779
▁пас	-9.508
▁інтерес	-9.50887
▁українців	-9.50891
чені	-9.50929
▁іспанії	-9.50998
ез	-9.51
▁1923	-9.51027
івці	-9.51097
итися	-9.51161
▁неї	-9.51171
або	-9.51189
▁жит	-9.51253
▁мит	-9.51325
чук	-9.51449
▁тан	-9.51476
нес	-9.51486
▁етнічн	-9.51541
▁31	-9.51554
▁генеральн	-9.51562
альних	-9.51578
▁воно	-9.51602
дин	-9.51671
перед	-9.51816
▁віт	-9.51838
верш	-9.51924
▁поселення	-9.5195
використовується	-9.51954
▁могил	-9.51963
між	-9.51977
▁визначення	-9.5207
▁історично	-9.52106
цькі	-9.52107
▁од	-9.52203
овський	-9.52218
▁нової	-9.5228
▁нос	-9.52326
▁періоду	-9.52335
▁норвегії	-9.5236
▁північну	-9.52476
▁стандарт	-9.52636
▁літ	-9.52647
▁пара	-9.52664
▁україну	-9.52686
▁австрійськ	-9.52703
li	-9.52721
▁низьк	-9.52727
нер	-9.52844
▁мікро	-9.52947
▁інституту	-9.53119
▁частиною	-9.53166
▁навколо	-9.53188
▁1930	-9.53245
▁відбулися	-9.53324
▁граф	-9.53347
▁метал	-9.53351
▁організ	-9.53399
єктів	-9.53418
▁королівству	-9.53463
▁холод	-9.53581
▁єгипті	-9.53601
нців	-9.53623
▁тимошенко	-9.5374
мага	-9.5377
▁контролю	-9.53771
▁гідро	-9.53851
▁m	-9.53935
нні	-9.53946
лід	-9.54005
▁(3	-9.54035
пір	-9.54073
▁долин	-9.54093
▁чер	-9.54127
▁працю	-9.54154
сад	-9.54202
мед	-9.54245
▁доба	-9.54283
▁край	-9.54323
▁дуб	-9.54344
▁повстання	-9.54438
▁школа	-9.54549
▁іспанія	-9.54578
гер	-9.54596
захід	-9.54617
▁творчості	-9.54632
▁геракл	-9.54749
▁хі	-9.54817
цька	-9.54817
▁св	-9.54858
▁кіно	-9.54888
▁їм	-9.55022
▁вистав	-9.55042
▁2008	-9.55051
тру	-9.55211
▁роботу	-9.55281
▁відкрито	-9.55289
▁економіки	-9.55367
▁основному	-9.554
дали	-9.55407
▁швидко	-9.55413
иться	-9.55416
▁значними	-9.55422
комун	-9.55431
▁районів	-9.55444
віз	-9.55503
na	-9.55728
▁виборч	-9.55746
бро	-9.5584
▁xviii	-9.55867
▁країнах	-9.55911
тори	-9.55928
▁побудов	-9.5602
»).	-9.56087
стрі	-9.56164
▁бер	-9.56171
ює	-9.56199
вр	-9.56208
▁200	-9.56322
▁часом	-9.56323
оні	-9.5633
изму	-9.56335
▁державою	-9.56336
ністю	-9.564
▁частково	-9.56419
бан	-9.56421
▁споруд	-9.56436
—20	-9.5644
▁науки	-9.56514
▁яр	-9.56517
прийма	-9.56721
▁речі	-9.56777
смер	-9.56826
ником	-9.56833
▁численні	-9.56845
овими	-9.56902
▁капітал	-9.56906
овського	-9.56927
▁кан	-9.56965
▁народів	-9.56986
▁кастилія	-9.56989
▁радіо	-9.57005
▁доларів	-9.57135
▁верх	-9.57245
▁наказ	-9.57275
▁вивчення	-9.57406
▁господарство	-9.5743
▁обмежен	-9.57445
▁бл	-9.57446
лог	-9.57489
вала	-9.57605
▁погляд	-9.57624
▁1991	-9.57746
▁хрест	-9.5786
▁посад	-9.57876
друж	-9.57876
▁перебувають	-9.57999
▁жертв	-9.57999
▁множин	-9.58006
▁стра	-9.58074
▁каз	-9.58094
▁кос	-9.58139
▁лісов	-9.5815
нню	-9.58176
▁рук	-9.582
вського	-9.58207
▁виробництво	-9.58237
тні	-9.58317
2.	-9.58329
зв	-9.58433
ицький	-9.58468
ходять	-9.58557
▁2004	-9.58557
▁продукції	-9.58581
ti	-9.58642
чки	-9.58644
нині	-9.58674
▁працює	-9.58688
▁великим	-9.58727
▁форма	-9.58763
тичні	-9.58773
ізації	-9.58804
▁межі	-9.58806
▁пласт	-9.58928
яті	-9.5902
▁сезон	-9.59041
альний	-9.59104
▁постійно	-9.59175
пс	-9.59228
сом	-9.59242
▁брав	-9.59371
уватися	-9.59374
▁розташована	-9.59425
▁назвою	-9.59463
▁слав	-9.5959
▁валют	-9.59625
кро	-9.59707
▁закінчив	-9.59755
▁часи	-9.59837
es	-9.5984
▁фактично	-9.59842
▁стає	-9.59882
▁будівель	-9.59903
▁керівник	-9.59914
▁полтав	-9.59994
ений	-9.60009
ніс	-9.60022
▁1939	-9.60054
арі	-9.60068
▁голов	-9.60131
центр	-9.60296
▁пла	-9.60339
ійського	-9.60359
гін	-9.6037
▁наш	-9.60486
▁забезпечення	-9.60495
пал	-9.60539
▁характерн	-9.60544
▁хар	-9.60595
▁відродження	-9.60645
▁акт	-9.60652
ворот	-9.6068
ma	-9.60706
дається	-9.6074
стів	-9.60821
▁першого	-9.60894
ктор	-9.60898
▁округ	-9.60904
▁господарств	-9.60954
суд	-9.61022
▁сіл	-9.61047
язки	-9.6105
▁кал	-9.61205
цев	-9.61209
▁унр	-9.61246
цьким	-9.61254
▁призвел	-9.61294
ограф	-9.6133
▁зображення	-9.61364
ріг	-9.61368
▁дані	-9.61433
▁1941	-9.61434
цької	-9.6146
▁джерела	-9.61486
▁здійсн	-9.6153
▁мол	-9.61558
▁поро	-9.61562
язані	-9.61652
▁початков	-9.61694
▁місцевого	-9.61698
▁султанат	-9.61743
меж	-9.61744
уля	-9.6177
▁перепису	-9.61803
▁португалія	-9.61843
▁ген	-9.61868
2,	-9.61878
▁більшості	-9.61928
▁солон	-9.61987
▁канал	-9.62126
▁критик	-9.62155
▁оон	-9.62188
▁фонд	-9.62243
▁земля	-9.62289
істів	-9.62304
водить	-9.62452
▁середній	-9.62564
▁старш	-9.62668
ради	-9.62681
ськ	-9.62684
▁великій	-9.62691
дем	-9.62747
▁батька	-9.62753
▁князів	-9.62784
вання	-9.62797
▁львівськ	-9.62821
▁род	-9.62845
▁фу	-9.6288
▁кара	-9.6289
▁америки	-9.62904
▁загалом	-9.62906
▁хмар	-9.63017
▁закладів	-9.63045
▁глибок	-9.6306
▁різноманітн	-9.63095
▁70	-9.6317
держав	-9.63206
▁герб	-9.63256
▁решта	-9.63284
▁нового	-9.63302
▁незалежності	-9.63383
▁організація	-9.63393
ери	-9.63468
▁знак	-9.63479
▁годин	-9.63555
віль	-9.63576
▁проходить	-9.63595
▁оле	-9.63604
▁володимира	-9.63609
нищ	-9.63625
▁80	-9.63642
▁вірус	-9.63649
▁причин	-9.63658
▁найкращ	-9.63668
кладен	-9.63703
▁родин	-9.6377
▁призначен	-9.63809
▁предмет	-9.63832
▁поширення	-9.63835
▁українські	-9.6388
морськ	-9.63962
льський	-9.63974
ічного	-9.6398
тки	-9.63991
▁продукт	-9.63998
ріс	-9.64043
янські	-9.64165
um	-9.64173
▁тверд	-9.64226
▁цикл	-9.64229
ходили	-9.6423
▁царство	-9.64326
▁далі	-9.64351
ta	-9.64385
▁революції	-9.64438
▁франція	-9.64498
шкільн	-9.64604
▁газет	-9.64657
▁будівництво	-9.64748
▁сусід	-9.64752
мах	-9.64815
ліг	-9.6497
▁захопили	-9.65059
▁b	-9.65106
єю	-9.65146
льник	-9.65196
▁своєму	-9.65303
▁творч	-9.65316
ювали	-9.65331
▁ними	-9.65331
▁основн	-9.65374
▁представник	-9.65376
тери	-9.65483
▁філіп	-9.65548
чів	-9.65609
▁членів	-9.6566
▁зростання	-9.65684
▁диск	-9.65786
▁боротьби	-9.6584
хан	-9.65885
▁релігійн	-9.65899
голос	-9.65946
дії	-9.65988
▁монарх	-9.66066
▁окремих	-9.66096
▁населен	-9.6614
▁директор	-9.66154
▁режим	-9.66181
ходить	-9.6627
еле	-9.66308
▁завжди	-9.66312
▁пізн	-9.66352
▁західній	-9.66359
▁xvii	-9.66368
▁державної	-9.66392
іл	-9.66412
▁поки	-9.66563
▁використовують	-9.66566
▁відносини	-9.66597
▁імен	-9.66642
▁університеті	-9.66656
▁ознак	-9.66704
▁ісламу	-9.66773
▁події	-9.66805
▁практично	-9.66814
▁регіон	-9.66916
▁заклад	-9.67003
цьких	-9.67035
▁конфлікт	-9.67103
▁павло	-9.67158
▁написав	-9.67264
▁філософ	-9.67333
▁ігор	-9.67341
▁важк	-9.67472
вався	-9.67641
▁менше	-9.67645
▁лідер	-9.67665
ох	-9.67713
▁спортивн	-9.67754
▁планет	-9.67755
нку	-9.67768
поряд	-9.67887
ювати	-9.67895
▁торгівлі	-9.67901
▁температур	-9.68037
▁засновник	-9.68097
▁шкіл	-9.68148
▁підпис	-9.68206
te	-9.68299
▁проведен	-9.68315
щі	-9.68329
▁сучасних	-9.68382
▁доби	-9.68392
▁2015	-9.68446
▁куб	-9.68476
яч	-9.68519
уть	-9.68521
▁незалежні	-9.68537
▁виконання	-9.68545
▁більшу	-9.68644
нець	-9.68675
▁спроб	-9.68686
мати	-9.68686
▁розп	-9.68777
▁містить	-9.68828
▁заборон	-9.68837
▁наявн	-9.68853
▁поступово	-9.68963
мисл	-9.68988
it	-9.69001
▁одночасно	-9.69028
▁мета	-9.69028
чат	-9.69041
▁меж	-9.69091
ia	-9.69131
▁становила	-9.69191
ченко	-9.69199
▁коло	-9.69229
рег	-9.69235
▁соціально	-9.69246
▁розділений	-9.69299
інь	-9.69319
▁степан	-9.69359
рат	-9.69375
▁програми	-9.69533
▁першу	-9.69554
▁момент	-9.69556
кан	-9.69565
▁почала	-9.69569
фо	-9.6959
▁поза	-9.69603
▁соціал	-9.69629
▁офіційно	-9.69723
▁сцен	-9.6983
▁код	-9.70026
▁познач	-9.70031
▁виник	-9.70317
фр	-9.70511
шен	-9.70538
▁торгов	-9.70546
▁своїй	-9.70569
▁дмитро	-9.70632
▁виділ	-9.70651
▁величезн	-9.70661
▁сонця	-9.70662
▁морем	-9.70721
▁лінії	-9.70765
▁2005	-9.70888
льд	-9.70918
▁бен	-9.70919
▁океані	-9.7096
що	-9.70971
▁спад	-9.70988
▁жінок	-9.70991
▁церковн	-9.71011
▁масив	-9.71091
▁міл	-9.71107
▁визначен	-9.7114
▁бюджет	-9.71156
▁князь	-9.71156
▁дій	-9.71157
нки	-9.71161
нар	-9.71247
▁присвячен	-9.71321
ійський	-9.71325
▁влітку	-9.71326
▁поширен	-9.71336
пра	-9.71379
▁довго	-9.71406
▁швеції	-9.71487
▁означає	-9.71508
▁вище	-9.71521
▁лук	-9.71544
▁голови	-9.71558
▁ант	-9.71605
▁явищ	-9.71607
шов	-9.71609
▁політики	-9.71609
▁думку	-9.71657
▁раннє	-9.71661
▁політичних	-9.71672
▁2011	-9.71726
итель	-9.71739
ецький	-9.718
ієм	-9.71954
▁краю	-9.71959
рид	-9.72064
▁співіснують	-9.72153
▁шевченко	-9.72153
▁біло	-9.72158
▁систему	-9.72163
шки	-9.72167
▁етап	-9.72169
▁латинськ	-9.72201
станов	-9.72212
▁можливо	-9.7223
бол	-9.72231
▁басейн	-9.72243
лії	-9.723
гур	-9.72369
▁бра	-9.72408
▁поп	-9.72413
▁атом	-9.72545
▁видатн	-9.72592
алася	-9.72639
▁супереч	-9.72642
▁ньому	-9.72679
крес	-9.72683
вій	-9.72718
▁село	-9.72738
ора	-9.72748
▁ат	-9.72785
▁втрати	-9.72791
▁російська	-9.72831
нок	-9.72886
▁нафто	-9.7291
▁стати	-9.72993
▁атмосфер	-9.73125
▁функції	-9.73161
▁міського	-9.73174
▁організм	-9.73211
▁2009	-9.73219
менш	-9.73227
▁монастир	-9.7325
▁угод	-9.73389
▁правило	-9.73411
чок	-9.73482
▁застосування	-9.73559
▁борис	-9.73572
вшись	-9.73602
▁місця	-9.73729
▁захист	-9.738
▁районах	-9.7383
▁одну	-9.73832
▁межує	-9.73879
▁класи	-9.73887
▁ввп	-9.73941
язок	-9.73958
▁вар	-9.73995
▁губернії	-9.74008
▁штату	-9.74016
нія	-9.7409
ur	-9.74133
▁цивілізація	-9.74178
▁писав	-9.74186
▁продовжується	-9.74188
ізація	-9.7431
▁революція	-9.74349
▁шлюб	-9.7439
республік	-9.74399
нова	-9.744
▁золот	-9.74421
▁заснован	-9.74504
▁українською	-9.74586
▁олег	-9.74591
міністра	-9.7463
▁іншого	-9.74694
▁походить	-9.74708
▁вимог	-9.74729
▁встановлен	-9.74734
чини	-9.748
▁xvi	-9.74845
▁учасник	-9.74939
рик	-9.7494
▁устрій	-9.75046
▁досліджень	-9.75059
▁підземн	-9.75109
▁середземномор	-9.75207
▁виклик	-9.75287
▁цій	-9.75306
тепл	-9.75356
▁мінеральн	-9.7538
▁освіта	-9.75406
зар	-9.75477
▁ци	-9.75482
▁відносно	-9.75494
́р	-9.75527
▁(17	-9.75531
дні	-9.75547
▁пала	-9.75572
▁харківськ	-9.75575
▁ханство	-9.75597
річн	-9.75698
▁незалежно	-9.75808
▁станції	-9.75842
▁раб	-9.75858
увало	-9.75877
▁2007	-9.75963
▁міг	-9.76017
▁складала	-9.76066
▁африці	-9.76072
тол	-9.76103
енер	-9.76147
ред	-9.76191
литовськ	-9.76223
▁мір	-9.76223
▁життєпис	-9.76246
▁сар	-9.76264
воль	-9.76281
щу	-9.76373
▁вважав	-9.7647
▁своєю	-9.76483
▁мову	-9.76506
ювання	-9.76557
▁розвинен	-9.76597
▁народної	-9.76645
▁навчальн	-9.76663
ько	-9.76716
▁місці	-9.76775
руд	-9.768
▁більша	-9.76862
▁бере	-9.76881
мп	-9.76885
▁містах	-9.769
▁моно	-9.76901
▁встановлено	-9.76945
▁сучасні	-9.76955
▁кре	-9.77006
▁елементів	-9.77016
▁апеннінський	-9.77036
▁центру	-9.77072
юють	-9.77128
рак	-9.77217
▁нью	-9.77303
▁полон	-9.77308
рас	-9.77331
▁найбільші	-9.77333
▁ен	-9.77338
▁готи	-9.77377
нським	-9.77387
ріш	-9.77396
звичай	-9.77402
▁християнські	-9.77412
▁історик	-9.77456
▁візантійськ	-9.77472
▁весь	-9.77526
▁двома	-9.77587
наприклад	-9.77595
яток	-9.77619
▁повіт	-9.77721
▁реальн	-9.77775
дь	-9.77786
vi	-9.77803
ічної	-9.77805
▁епоха	-9.77825
▁лін	-9.7798
▁професійн	-9.78002
▁тимчасов	-9.78003
▁статті	-9.78004
▁1944	-9.78054
▁юрій	-9.78124
▁успіх	-9.78179
лювання	-9.78222
віс	-9.78239
▁експорт	-9.78247
▁зони	-9.78287
▁котр	-9.78294
▁державних	-9.78409
десят	-9.78446
▁картин	-9.78569
▁єс	-9.78697
▁партія	-9.78716
▁центральної	-9.78864
▁острові	-9.7888
▁царя	-9.78905
бет	-9.78987
зон	-9.79057
▁охоплює	-9.7907
▁зображ	-9.79091
▁зайнят	-9.79092
▁завдання	-9.79172
радянської	-9.79238
▁секретар	-9.79248
▁габсбург	-9.79249
▁починаючи	-9.7925
▁політичні	-9.79276
▁пен	-9.79279
▁ніч	-9.79308
▁васил	-9.79341
▁наукових	-9.79371
▁добре	-9.79443
рет	-9.79546
▁ас	-9.79788
▁супутник	-9.79789
кових	-9.79838
xi	-9.7984
▁застосов	-9.79856
▁1940	-9.79865
вад	-9.79913
▁факультет	-9.7997
▁фрідріх	-9.7997
▁положення	-9.7997
▁варіант	-9.79971
син	-9.80134
▁португалії	-9.8015
нської	-9.80231
кер	-9.80259
▁виконавч	-9.80264
▁греції	-9.80277
явилися	-9.8029
тика	-9.80357
▁число	-9.80369
▁королівськ	-9.80441
▁показник	-9.80484
▁перебуває	-9.80513
▁єпископ	-9.80513
кет	-9.80536
▁зміст	-9.80577
▁київська	-9.80627
▁ев	-9.8065
▁вал	-9.80675
язан	-9.80683
істи	-9.80692
▁лип	-9.80692
▁практик	-9.80695
▁активно	-9.80695
▁континентальн	-9.80813
▁книги	-9.80826
стві	-9.80848
▁добро	-9.80872
▁жіноч	-9.80877
[	-9.80881
▁тіла	-9.80896
am	-9.80951
▁тип	-9.80959
довж	-9.80989
▁прип	-9.81033
▁1960	-9.81121
▁гл	-9.81131
▁протест	-9.81143
лод	-9.81162
▁роду	-9.81263
▁обласн	-9.81264
▁вигляд	-9.81289
▁внутрішні	-9.81289
▁відомо	-9.81317
▁рівно	-9.81382
▁аполлон	-9.81426
▁математичн	-9.81449
▁факт	-9.81453
▁посил	-9.81463
▁сонячн	-9.81473
▁покрив	-9.81479
▁лис	-9.8152
▁античн	-9.81608
▁костянтин	-9.81609
▁персії	-9.81643
ичної	-9.81737
▁a	-9.81742
="12	-9.81834
стру	-9.81863
▁тонн	-9.81894
▁тепер	-9.81904
▁чергу	-9.81917
▁35	-9.81917
▁циклон	-9.81929
co	-9.81967
▁конституції	-9.81977
▁половині	-9.81977
▁географічн	-9.81979
▁створив	-9.81996
▁освіту	-9.81998
▁500	-9.82066
валися	-9.82107
▁група	-9.82117
▁основних	-9.82141
▁миколи	-9.82162
▁головні	-9.82195
▁транс	-9.82232
▁тепло	-9.82289
ілл	-9.82371
пен	-9.82431
▁viii	-9.8245
ництва	-9.82493
▁актор	-9.82509
▁західної	-9.82523
▁законодавч	-9.82531
▁титул	-9.8255
▁відміну	-9.82554
▁природн	-9.82575
рія	-9.82579
пін	-9.8258
▁мешканців	-9.82644
▁(4	-9.82649
▁західно	-9.82671
▁питань	-9.82717
▁григоріанськ	-9.82717
▁інтернет	-9.8272
▁проведення	-9.82758
▁судов	-9.82759
▁фон	-9.82761
▁перероб	-9.82799
▁g	-9.82807
▁джерел	-9.82904
▁людовик	-9.82905
иць	-9.8291
ального	-9.82923
de	-9.83054
ліп	-9.83087
▁площею	-9.83089
▁немає	-9.83102
▁випуск	-9.83139
▁голос	-9.83146
лась	-9.83159
бін	-9.83203
▁низовин	-9.83276
▁туризм	-9.83292
нор	-9.83309
▁глин	-9.83324
▁появ	-9.83338
▁донецьк	-9.83345
іше	-9.83366
▁представлен	-9.83398
▁султан	-9.83399
▁становлять	-9.83463
▁вдалося	-9.83465
▁державу	-9.8355
▁пункт	-9.8355
волинськ	-9.8362
)"	-9.83667
▁матері	-9.83687
глиб	-9.83735
▁сір	-9.83795
орган	-9.83801
сподарських	-9.83826
▁місцевих	-9.83847
▁спр	-9.83848
▁працюють	-9.83876
▁юлія	-9.83881
▁1992	-9.83889
юр	-9.83912
риф	-9.83918
▁залізн	-9.83927
▁календар	-9.83961
▁сильно	-9.83997
▁ліси	-9.83999
▁апарат	-9.84029
▁престол	-9.84037
язков	-9.84121
▁звук	-9.84134
▁льодовик	-9.84155
івської	-9.84161
уванням	-9.84166
▁ґрунти	-9.84179
▁планети	-9.84188
▁індонезії	-9.84214
▁велике	-9.84214
▁орди	-9.84236
ковий	-9.84356
рез	-9.84383
▁галицько	-9.84518
нка	-9.84519
▁зустріч	-9.84577
▁президентом	-9.84596
свідом	-9.84597
▁партій	-9.84647
▁найбільше	-9.84679
▁франко	-9.84754
▁господарськ	-9.8478
▁величин	-9.84861
▁мистецтво	-9.84861
тичних	-9.84863
чка	-9.84911
▁карт	-9.84955
▁сергій	-9.84971
▁злочин	-9.84988
at	-9.85019
▁пред	-9.85132
▁сун	-9.85163
▁якою	-9.85241
▁орден	-9.85264
льт	-9.85297
▁входять	-9.85328
▁громадянськ	-9.85413
иків	-9.85416
▁див	-9.85469
▁водночас	-9.85542
окупували	-9.85547
▁відкрив	-9.85608
лик	-9.85707
▁найважливіш	-9.85733
▁громади	-9.85846
▁дійсн	-9.85847
▁актив	-9.85866
▁дар	-9.85871
▁матеріал	-9.85879
▁вихід	-9.8596
▁смт	-9.86024
о́	-9.8606
▁їй	-9.86089
▁замість	-9.86143
▁одне	-9.86145
▁імпорт	-9.86159
стар	-9.86164
священній	-9.86223
▁діють	-9.86293
▁штучн	-9.86314
горськ	-9.8632
▁карпат	-9.86335
луг	-9.8634
▁жодн	-9.86352
увалося	-9.86369
проголосувал	-9.8638
▁зовнішні	-9.8641
▁святого	-9.8644
соці	-9.86486
маль	-9.86581
▁зараз	-9.86614
▁кров	-9.8667
тет	-9.86675
▁взаємо	-9.86688
валася	-9.86714
▁стародавн	-9.86727
фран	-9.86757
віст	-9.86791
▁східно	-9.86796
▁разів	-9.86825
▁схил	-9.86847
тю	-9.86908
▁дрібн	-9.86969
▁поступ	-9.87047
рит	-9.87056
▁класичн	-9.8711
дже	-9.87154
▁режисер	-9.87276
кут	-9.87294
чан	-9.87295
▁міфології	-9.87301
▁відносин	-9.87315
▁повіту	-9.87316
▁ленін	-9.87327
▁2013	-9.87358
ший	-9.87397
вач	-9.87402
▁глав	-9.87443
▁рай	-9.87537
инський	-9.87578
▁випадку	-9.87666
сор	-9.8767
▁том	-9.87701
▁богів	-9.87712
▁методи	-9.87723
▁1970	-9.87736
▁друга	-9.87737
сей	-9.87739
▁розміщен	-9.87861
▁норм	-9.87933
▁свято	-9.87975
▁археологічні	-9.8801
хова	-9.88028
▁відкриття	-9.88057
ище	-9.88101
▁ямато	-9.88254
▁монгольська	-9.88263
▁попри	-9.88312
▁творчість	-9.8833
▁південній	-9.88366
▁заходу	-9.88397
▁міжнародних	-9.88434
▁інструмент	-9.88449
▁імператора	-9.88481
lo	-9.88533
▁центрі	-9.88551
▁перехід	-9.8857
▁народження	-9.88709
▁ери	-9.88758
▁стін	-9.88818
еві	-9.88838
зупин	-9.88873
▁особа	-9.8889
▁елемент	-9.89006
▁інтер	-9.89016
▁олександра	-9.89078
▁речовин	-9.89095
▁депутат	-9.89159
брав	-9.89216
▁використовувати	-9.89239
▁здебільшого	-9.89239
▁деяк	-9.8924
▁течії	-9.89241
івська	-9.8928
▁мат	-9.8932
▁користу	-9.89329
ілля	-9.89393
▁архітектури	-9.89432
▁авари	-9.89448
▁форт	-9.89563
▁значну	-9.89636
▁національно	-9.89653
воєнн	-9.89665
▁літер	-9.89671
▁галичини	-9.89849
▁числа	-9.8986
▁напрямку	-9.89878
▁обмін	-9.89884
▁залишив	-9.8994
▁умовах	-9.89965
христ	-9.9
▁зовнішньо	-9.90035
▁колишні	-9.90193
▁кількох	-9.90235
▁рівнем	-9.90235
▁характеристик	-9.90235
▁безпеки	-9.90236
▁християнськ	-9.90317
▁давньогрецьк	-9.90435
▁китай	-9.90482
▁сільське	-9.90489
▁1943	-9.90494
▁місцеві	-9.90508
азов	-9.90555
моск	-9.90597
▁сот	-9.90605
▁олімпійськ	-9.9062
чита	-9.90628
▁реаліз	-9.90644
▁безпосередньо	-9.90647
шта	-9.90665
▁велико	-9.90679
▁пошук	-9.90714
▁гіл	-9.90726
▁др	-9.9073
андр	-9.90752
▁збройн	-9.90787
▁рахунок	-9.90837
єднують	-9.90838
▁називається	-9.90846
▁княжить	-9.90847
▁добр	-9.9087
▁зон	-9.9088
▁кро	-9.90886
увалася	-9.90931
▁андрій	-9.90947
▁поділяється	-9.91039
▁контроль	-9.91047
me	-9.91078
▁революційн	-9.91109
▁2012	-9.91122
прес	-9.91126
▁авіа	-9.91143
▁українській	-9.91168
філь	-9.91232
▁кандидатів	-9.91238
▁річков	-9.91246
▁вода	-9.91295
душ	-9.91306
▁дніпро	-9.91353
▁d	-9.91374
▁комітету	-9.91378
▁євген	-9.91448
дій	-9.915
чор	-9.91638
▁боротьба	-9.91646
▁сучасного	-9.91646
▁століть	-9.91646
▁ідеї	-9.91659
▁такий	-9.91664
▁франк	-9.91706
▁птахів	-9.91765
▁невеликі	-9.91848
▁провінції	-9.9185
ol	-9.91986
▁300	-9.92003
уванні	-9.92014
▁десяти	-9.92027
трі	-9.92047
▁повернувся	-9.92053
▁єврейськ	-9.92054
▁впливом	-9.92055
▁колишній	-9.92105
▁середині	-9.92134
▁походи	-9.92153
альна	-9.92176
лює	-9.92177
▁племен	-9.92182
▁найбільших	-9.9219
▁поряд	-9.92211
▁своїми	-9.92227
▁отримала	-9.92257
▁відбувся	-9.92258
▁зробив	-9.92354
▁театру	-9.92389
анти	-9.92471
ально	-9.92488
▁робіт	-9.92633
▁довжина	-9.92667
▁очолив	-9.92669
▁музеї	-9.92672
▁чисельність	-9.9268
▁відмінн	-9.927
▁абсолютн	-9.92792
▁утримують	-9.92889
▁метрів	-9.92894
▁доктор	-9.92895
▁африканськ	-9.92906
▁крас	-9.92906
▁вершин	-9.92925
▁посаду	-9.92977
▁бойов	-9.92985
▁мистецтв	-9.93024
▁здобув	-9.93065
▁навчався	-9.93078
▁представників	-9.93084
▁володар	-9.93123
реб	-9.93189
▁пат	-9.93195
граф	-9.93256
▁аеропорт	-9.93284
▁материк	-9.9329
▁власності	-9.9329
▁би	-9.93395
воло	-9.9341
▁військових	-9.93447
▁вступ	-9.93478
▁гімназії	-9.93491
▁зевс	-9.93556
офі	-9.93616
▁головою	-9.93639
▁минул	-9.93666
тора	-9.93686
▁реєстр	-9.937
▁склав	-9.93736
▁постав	-9.93736
бон	-9.93761
▁завда	-9.93854
▁компанії	-9.93906
▁32	-9.93942
▁уже	-9.93964
носять	-9.94052
▁мові	-9.9408
нула	-9.94106
▁британія	-9.94113
▁столиці	-9.94114
▁називали	-9.94165
▁арагонськ	-9.94252
▁трі	-9.94256
ce	-9.94306
▁сассанідів	-9.94321
▁необхідно	-9.94321
▁інформаційн	-9.94322
▁українську	-9.94323
біл	-9.94362
▁пір	-9.94469
тюр	-9.94505
▁кирил	-9.94544
▁міністрів	-9.94548
▁південної	-9.94576
▁закінчення	-9.94621
▁зелен	-9.94707
▁люд	-9.94712
▁харчов	-9.94747
інформ	-9.94769
ватися	-9.94832
ter	-9.94881
▁людина	-9.94933
▁здатн	-9.94951
▁богдан	-9.94985
▁бай	-9.95047
▁сфера	-9.95055
▁петра	-9.95076
▁трав	-9.95104
▁народи	-9.95135
▁узбережжі	-9.95159
▁порошенко	-9.95159
▁цікав	-9.95187
▁алани	-9.95187
▁вважали	-9.95206
увань	-9.95218
▁нез	-9.95234
▁1000	-9.95276
▁черн	-9.953
▁додатков	-9.95379
▁поле	-9.95379
▁1950	-9.95465
▁осі	-9.95471
▁північна	-9.95502
▁зевса	-9.95534
струк	-9.95577
▁звання	-9.95588
▁кінці	-9.95659
використовуються	-9.95663
▁сполучен	-9.95666
гай	-9.95703
▁кас	-9.95756
▁пункти	-9.9579
▁історію	-9.95793
▁значна	-9.95799
▁іванович	-9.95881
вським	-9.95886
люб	-9.95916
▁смерть	-9.96005
▁робота	-9.96008
il	-9.96009
правлять	-9.96012
▁шан	-9.96044
▁райони	-9.96078
▁християн	-9.96088
▁h	-9.96096
основ	-9.96135
▁бага	-9.96196
▁німецьких	-9.96216
▁органів	-9.96224
стю	-9.96273
▁парламенту	-9.96306
▁мис	-9.96342
▁приток	-9.96392
▁анатолій	-9.96429
▁зобов	-9.96432
ріх	-9.96451
ицю	-9.96542
жер	-9.96582
▁спрямован	-9.96645
▁розташован	-9.96659
▁ян	-9.96684
▁нижче	-9.96704
▁палац	-9.96769
▁напів	-9.96828
▁недійсн	-9.96856
▁дис	-9.96867
▁полк	-9.96894
▁–	-9.96899
▁піренейський	-9.97045
▁фр	-9.97057
леж	-9.97068
кового	-9.97118
шин	-9.97132
▁сходу	-9.97203
▁33	-9.97213
▁прихильник	-9.97256
▁густ	-9.97257
▁однієї	-9.97285
▁другий	-9.97287
▁клітин	-9.97345
▁середньому	-9.97352
алізм	-9.97355
▁прес	-9.97449
▁чернігівськ	-9.9752
народн	-9.97573
▁виход	-9.97644
▁біо	-9.97651
▁південний	-9.97715
▁політичної	-9.97718
▁меншу	-9.97721
▁татар	-9.97727
сил	-9.97731
▁1990	-9.97838
▁скоро	-9.97895
▁хей	-9.97914
▁видан	-9.97991
▁великому	-9.98011
▁російській	-9.98035
▁михайла	-9.98069
культур	-9.98099
льні	-9.98118
▁починається	-9.98166
▁франкськ	-9.98168
▁переваг	-9.98192
▁намага	-9.98198
▁реформи	-9.98231
▁призначення	-9.98289
▁соф	-9.98302
юється	-9.98312
se	-9.98318
грам	-9.9833
публік	-9.98349
річчя	-9.9835
май	-9.98451
▁районами	-9.9846
▁дипломатичн	-9.98517
ичних	-9.98534
книж	-9.98554
▁школі	-9.98586
ері	-9.98591
▁грудні	-9.98598
явка	-9.98627
▁кін	-9.98716
▁запорозьк	-9.988
▁російською	-9.988
▁георг	-9.98802
ne	-9.98806
0-	-9.98851
юк	-9.98879
дам	-9.98945
▁пав	-9.9896
▁австрії	-9.98971
▁ефективн	-9.98978
▁грн	-9.99048
▁доміну	-9.99087
▁президентські	-9.99094
йорк	-9.99134
▁римська	-9.99203
▁інтенсивн	-9.99237
▁відзнача	-9.99239
▁2016	-9.99317
▁дружина	-9.99341
▁фактор	-9.99354
алося	-9.99378
▁представники	-9.99442
▁таємн	-9.99455
▁знаходяться	-9.99456
▁фольклор	-9.99456
▁спорт	-9.99523
▁чола	-9.99557
▁керівництвом	-9.99594
мудр	-9.99659
▁будинку	-9.99683
▁почалося	-9.99717
el	-9.99771
тре	-9.99781
▁«"	-9.99787
▁сармати	-9.99908
▁болгар	-9.99911
цького	-9.99914
хоро	-10.0004
сан	-10.0007
▁художні	-10.0008
ографії	-10.0011
▁кількістю	-10.0012
▁міністерств	-10.0012
▁місць	-10.0012
▁вулиці	-10.0012
ерта	-10.002
▁коп	-10.0024
▁жанр	-10.0025
галь	-10.0027
▁індо	-10.0029
▁представля	-10.0034
рії	-10.0035
заповідн	-10.0036
▁майстер	-10.0037
▁1945	-10.004
▁ли	-10.0043
користувач	-10.0045
▁доступ	-10.0051
▁посполитої	-10.0056
▁подорож	-10.0056
▁перш	-10.0069
грес	-10.0069
▁регіональн	-10.0072
▁90	-10.0073
▁дає	-10.0075
альної	-10.0075
▁формально	-10.0075
▁автомобільн	-10.0078
▁розроблен	-10.008
▁князівства	-10.0082
▁басейну	-10.0089
ицею	-10.0091
язана	-10.0094
▁хоч	-10.0097
був	-10.0098
▁орда	-10.0099
масштаб	-10.0101
▁генуя	-10.0101
▁війну	-10.0107
▁маси	-10.0107
▁івано	-10.0108
▁блок	-10.0108
ківський	-10.011
фін	-10.0111
▁великою	-10.0121
бож	-10.0122
to	-10.0123
▁перебував	-10.0123
▁голод	-10.0128
▁зір	-10.0134
):	-10.014
▁переважають	-10.0145
▁будинок	-10.0145
инського	-10.0146
вів	-10.0151
овому	-10.0152
▁тор	-10.0153
▁набув	-10.0153
▁похід	-10.0159
лена	-10.016
▁заяв	-10.0163
▁франка	-10.0163
▁2003	-10.0165
▁січні	-10.0166
лек	-10.0166
▁радянського	-10.0177
▁(16	-10.0179
▁іноземн	-10.0189
▁пору	-10.019
▁конкретн	-10.019
▁традиції	-10.019
▁інженер	-10.019
▁народних	-10.0208
▁редактор	-10.0213
▁венеція	-10.0213
as	-10.0225
▁народного	-10.0227
освіт	-10.0231
▁незважаючи	-10.0235
▁угорщини	-10.0235
▁колег	-10.0246
▁композитор	-10.0258
▁національні	-10.0258
▁далек	-10.026
▁муз	-10.0261
▁нею	-10.0264
▁вітру	-10.0269
щин	-10.0277
▁гетьмана	-10.0278
▁приз	-10.0279
илась	-10.028
▁ландшафт	-10.028
кре	-10.0285
▁гімн	-10.0288
▁ско	-10.0292
di	-10.0295
ицького	-10.03
▁цукров	-10.0303
▁складають	-10.0305
▁житті	-10.0305
▁степ	-10.031
▁досі	-10.0318
▁добу	-10.0318
▁лондон	-10.032
▁xiv	-10.0326
▁землях	-10.0329
являється	-10.033
▁архітектур	-10.0341
▁війні	-10.0342
мал	-10.0345
▁булгари	-10.0349
▁москві	-10.0349
▁1921	-10.0354
▁стри	-10.0356
▁свобод	-10.037
▁джон	-10.0371
▁отримали	-10.0372
▁збільшення	-10.0372
▁точки	-10.0378
гран	-10.0389
▁мур	-10.0394
▁зіпсован	-10.0395
▁піренейськ	-10.0397
▁дев	-10.0399
▁найбільша	-10.0404
▁вірмен	-10.0406
▁регіону	-10.0414
ичний	-10.0414
▁імперію	-10.0418
▁увагу	-10.0418
▁родини	-10.042
▁боро	-10.0422
▁берлін	-10.0423
▁плато	-10.0431
▁закону	-10.0432
бран	-10.0437
▁митрополит	-10.0441
▁півострові	-10.0441
▁схож	-10.0441
▁прапор	-10.0442
▁1932	-10.0446
▁битв	-10.0448
▁електронн	-10.0448
▁львів	-10.0452
▁сектор	-10.0455
▁бюлетенів	-10.0464
▁індостану	-10.0464
▁включає	-10.0464
si	-10.0464
▁широт	-10.0464
▁ліквід	-10.047
незалежн	-10.0471
▁яс	-10.0473
▁справи	-10.0479
▁райо́н	-10.0487
▁руках	-10.0489
▁комітет	-10.0494
▁північного	-10.0499
un	-10.0508
▁аргентин	-10.051
▁засоби	-10.051
▁могли	-10.051
тка	-10.0513
▁віце	-10.0518
клі	-10.0518
вол	-10.0522
▁знання	-10.0523
тій	-10.0525
▁кліматичн	-10.0528
▁територією	-10.0533
▁юпітер	-10.0533
▁різними	-10.0537
▁дух	-10.054
▁правила	-10.054
▁операцій	-10.0541
▁2019	-10.0544
тись	-10.055
огляд	-10.0553
▁самого	-10.0556
▁споруджен	-10.0556
▁конституційн	-10.0557
▁релігії	-10.0557
▁південного	-10.0574
▁монет	-10.058
▁провінцій	-10.058
▁робоч	-10.058
▁ресурси	-10.0581
товар	-10.0581
▁фігур	-10.0582
▁другій	-10.0582
ць	-10.0586
тропічн	-10.0588
▁березі	-10.0592
▁проблеми	-10.0594
▁поширені	-10.0601
▁гурт	-10.0601
▁магрибі	-10.0603
▁аграрн	-10.0603
▁могутн	-10.0604
член	-10.0607
▁польсько	-10.061
політ	-10.0611
▁власник	-10.0613
карпат	-10.0614
нді	-10.0618
нське	-10.0622
▁корпус	-10.0627
▁товариство	-10.0632
▁римі	-10.0633
▁станція	-10.0636
▁t	-10.0639
фар	-10.064
▁мотив	-10.0652
▁борщ	-10.0654
ієн	-10.0656
▁нато	-10.0663
дала	-10.0674
▁османів	-10.0674
▁березні	-10.0681
▁божеств	-10.0694
▁художньо	-10.0698
▁місяця	-10.0698
▁агро	-10.0701
▁бібліотек	-10.0705
▁греко	-10.071
▁2002	-10.0712
▁всю	-10.0712
▁одному	-10.072
▁відбулося	-10.0721
тель	-10.0723
da	-10.0725
▁досягнення	-10.0726
▁східної	-10.0727
▁якими	-10.0728
po	-10.0739
▁воєн	-10.074
▁районний	-10.0742
▁охорони	-10.0745
▁сніг	-10.0747
▁мод	-10.0748
▁переказ	-10.0749
▁дослідник	-10.0751
▁страхов	-10.0753
▁повинн	-10.0754
▁письменників	-10.0756
єва	-10.0759
▁спорту	-10.0768
▁найвідоміш	-10.0769
▁повернення	-10.0769
▁шведськ	-10.077
▁аж	-10.0772
▁праця	-10.0783
▁45	-10.0786
▁август	-10.0793
▁суду	-10.0795
▁виникнення	-10.0795
лоп	-10.0797
▁створені	-10.0798
▁раду	-10.08
▁вираз	-10.0806
електр	-10.081
▁місяців	-10.0817
▁кандидат	-10.0817
▁допомоги	-10.0817
▁нафти	-10.082
▁створен	-10.0826
▁середньо	-10.0828
▁літературі	-10.0837
▁останній	-10.0839
▁основними	-10.0839
▁xv	-10.084
▁ініціатив	-10.0841
▁південна	-10.0841
▁черняхівськ	-10.0841
▁молдова	-10.0841
▁районом	-10.0842
▁учнів	-10.0843
▁виш	-10.0844
▁основу	-10.0844
▁головний	-10.0848
▁150	-10.0855
▁визнан	-10.0857
▁розташування	-10.087
▁напад	-10.0871
тами	-10.0871
▁кожен	-10.0884
▁крим	-10.0887
▁квіт	-10.0887
▁відповідає	-10.0889
▁національних	-10.0889
▁засобів	-10.0889
▁договір	-10.0889
▁1999	-10.0895
▁депутатів	-10.0899
▁швидк	-10.0904
американськ	-10.0907
цьку	-10.0908
▁легенд	-10.0912
▁найдавніш	-10.0913
цям	-10.0913
▁окупован	-10.0913
▁європейського	-10.0914
▁загальні	-10.0916
кевич	-10.0917
▁відомості	-10.0918
стал	-10.0918
▁2017	-10.0922
▁кле	-10.0924
▁виклад	-10.0931
▁давньо	-10.0933
▁галич	-10.0935
▁столиця	-10.0938
▁герцог	-10.0939
▁здійснюється	-10.094
▁залишилися	-10.0941
ична	-10.0943
▁ара	-10.0951
єкти	-10.0954
▁36	-10.0954
чар	-10.0956
петр	-10.0959
▁мережі	-10.0961
▁можливості	-10.0965
ством	-10.0968
▁мовами	-10.097
▁франц	-10.0971
▁міжнародного	-10.0979
▁справжн	-10.098
▁банд	-10.0986
▁становив	-10.0986
▁товарів	-10.0987
біт	-10.0989
▁музика	-10.099
▁впливу	-10.0995
▁комуністичн	-10.0998
▁послідовн	-10.1
▁розселення	-10.101
▁підтримки	-10.101
▁континенту	-10.1011
▁прибережн	-10.1014
люють	-10.1017
▁1996	-10.1018
▁подій	-10.1027
анні	-10.1027
яви	-10.1032
торг	-10.1039
пат	-10.1046
▁газу	-10.1049
кал	-10.1052
▁стефан	-10.1059
▁ресурсів	-10.106
яр	-10.1062
▁гай	-10.1073
рам	-10.1078
▁енергії	-10.1084
▁діалект	-10.1084
орд	-10.1085
ічну	-10.1086
▁процесів	-10.1088
▁самому	-10.1093
господар	-10.1093
▁перетин	-10.1093
бага	-10.1094
▁вірш	-10.1094
▁спец	-10.1095
▁смуг	-10.1095
ней	-10.1099
▁найбільшим	-10.11
gt	-10.1104
▁півдня	-10.1108
▁землю	-10.1109
ецького	-10.1109
▁марія	-10.1115
▁1925	-10.1116
▁утворили	-10.1117
популярн	-10.1121
▁вільгельм	-10.1121
▁золотої	-10.1123
нському	-10.1129
▁матеріальн	-10.1132
▁формі	-10.1133
▁рамках	-10.1133
▁японськ	-10.1135
▁іншим	-10.1139
сфери	-10.1141
▁західна	-10.1142
▁театральн	-10.1144
▁вітри	-10.1145
▁поразки	-10.1158
франківськ	-10.1159
▁важливим	-10.1159
визнач	-10.1159
▁корисн	-10.1162
▁2-	-10.1164
техн	-10.1164
▁письменника	-10.1165
▁захисту	-10.1167
▁обраний	-10.1169
▁утворено	-10.1181
=12	-10.1182
▁збудован	-10.1187
▁біографія	-10.1188
▁ер	-10.1189
яні	-10.119
▁ній	-10.119
▁вступив	-10.1191
▁2018	-10.1192
▁системі	-10.1202
▁такого	-10.1206
▁затверджен	-10.1207
▁допомогу	-10.1208
цьке	-10.1211
лював	-10.122
▁включен	-10.1222
▁гелі	-10.1222
лений	-10.1223
▁отримання	-10.123
▁бізнес	-10.1232
▁чітк	-10.1233
▁криму	-10.124
▁центральній	-10.1248
логі	-10.125
пп	-10.1255
▁незабаром	-10.1257
▁мільйонів	-10.1258
мід	-10.1263
кіль	-10.1268
▁наукові	-10.1273
▁труб	-10.1276
▁хр	-10.1279
▁стоїть	-10.1283
чному	-10.1286
▁мірою	-10.1294
▁кост	-10.1295
▁властив	-10.13
▁кут	-10.1305
▁наймогутніш	-10.1308
▁бразилії	-10.1308
▁змушен	-10.1308
кам	-10.131
▁відмови	-10.131
▁проект	-10.131
▁ворог	-10.1311
▁штаб	-10.1312
▁припадає	-10.1319
▁бідн	-10.132
кування	-10.1325
рік	-10.1326
▁хліб	-10.1333
▁австралії	-10.1333
▁спосіб	-10.1333
the	-10.1336
▁погоди	-10.1337
▁словами	-10.1345
госп	-10.1347
аторів	-10.1348
▁цілому	-10.1348
▁хмари	-10.1349
тою	-10.1354
▁спостерігається	-10.1358
▁унікальн	-10.1358
▁народний	-10.1364
").	-10.1364
▁1993	-10.1365
▁згадують	-10.1365
▁похований	-10.1383
▁ганза	-10.1384
▁торговельн	-10.1385
▁консул	-10.1398
голов	-10.1399
▁молоді	-10.14
▁марс	-10.1403
цин	-10.1405
▁дозволяє	-10.1406
▁декілько	-10.1409
▁організован	-10.141
еро	-10.1415
▁прямо	-10.1417
▁зібран	-10.1418
▁родині	-10.142
▁підписан	-10.1423
▁румун	-10.1424
▁програмування	-10.1432
▁нідерланди	-10.1434
▁падіння	-10.1434
▁зустрічаються	-10.1436
▁теж	-10.1444
▁ран	-10.1448
▁процесі	-10.145
▁стріл	-10.1452
свят	-10.1455
1,5	-10.1469
береж	-10.1484
▁вугілля	-10.1485
▁німеччині	-10.1485
and	-10.1489
▁другого	-10.1491
▁агент	-10.1493
▁календарі	-10.1494
філ	-10.1501
▁чорного	-10.1504
▁грав	-10.1504
бат	-10.1508
никами	-10.1509
тел	-10.1509
▁угорщина	-10.1511
▁австро	-10.1512
друк	-10.1513
▁хан	-10.152
▁нову	-10.1522
▁низк	-10.1522
▁порядку	-10.1526
▁берез	-10.153
▁болгарське	-10.1534
▁футбол	-10.1534
▁цифр	-10.1538
▁золото	-10.1545
▁збереження	-10.1551
▁відома	-10.1559
▁галісія	-10.1562
▁живопис	-10.1562
▁тюрки	-10.1563
остями	-10.1567
▁швидкість	-10.1569
▁київській	-10.157
▁свин	-10.1571
▁інду	-10.1572
бель	-10.1574
▁морі	-10.1575
▁брон	-10.1576
пле	-10.1583
єс	-10.1583
▁становило	-10.1588
цькому	-10.1589
▁космічн	-10.1589
дик	-10.1591
▁максимальн	-10.1592
▁всеукраїнськ	-10.1593
▁ква	-10.1613
▁заступник	-10.1614
▁природно	-10.1627
кове	-10.1627
піл	-10.1635
lt	-10.1636
▁ляшко	-10.164
▁зоні	-10.1642
ni	-10.1648
▁льо	-10.1649
▁особливості	-10.1651
▁тисячі	-10.1655
губернатор	-10.1666
▁опублікован	-10.1666
▁індійськ	-10.1668
▁дочка	-10.1668
▁1933	-10.1672
▁надав	-10.1674
▁n	-10.1681
▁ix	-10.1683
▁палат	-10.1691
▁політична	-10.1692
▁мережа	-10.1692
ійців	-10.1694
▁премії	-10.1698
політично	-10.1699
пас	-10.1699
▁вчення	-10.1709
▁геологічн	-10.171
▁de	-10.171
місячн	-10.171
▁дніпра	-10.172
▁римського	-10.1723
люд	-10.1727
творення	-10.1727
▁пле	-10.173
▁розташоване	-10.174
звільн	-10.1743
▁молекул	-10.1745
▁очолював	-10.1745
▁x	-10.1747
▁отже	-10.1748
▁маврів	-10.1752
▁1937	-10.1753
▁арешт	-10.1755
вед	-10.1755
▁залишк	-10.1756
ича	-10.176
▁містять	-10.1767
▁(5	-10.1768
▁надання	-10.1769
станом	-10.177
▁теорія	-10.1771
▁імперськ	-10.1772
▁римлян	-10.1776
▁природні	-10.1778
▁власне	-10.1789
▁передан	-10.1792
▁самі	-10.1796
лас	-10.1796
янських	-10.1797
▁взимку	-10.1797
▁початком	-10.1797
▁хвиль	-10.1797
▁ринку	-10.1798
▁здійснюють	-10.18
▁політику	-10.1802
▁конгрес	-10.1802
хай	-10.1802
▁визнання	-10.1806
▁поета	-10.1808
▁флот	-10.181
слів	-10.181
укр	-10.1813
▁липні	-10.1814
▁низ	-10.1819
▁допомага	-10.1824
▁сторін	-10.1825
▁демон	-10.1826
▁участі	-10.1827
▁красно	-10.183
▁1938	-10.1832
▁дани	-10.1834
ходом	-10.184
▁середини	-10.1842
▁(6	-10.1845
▁промислових	-10.1848
▁залежить	-10.185
▁монгол	-10.186
▁північний	-10.1868
▁визнав	-10.1876
▁регулярн	-10.1877
▁львова	-10.1877
▁негативн	-10.1877
▁четверт	-10.1877
▁першою	-10.188
▁вбив	-10.188
▁молодш	-10.1881
et	-10.1891
ювала	-10.1893
сол	-10.19
сар	-10.1905
▁отриман	-10.1907
захис	-10.1911
▁гірських	-10.1915
▁повинні	-10.1918
▁вірші	-10.1925
▁таке	-10.193
▁кабінет	-10.193
▁порівняно	-10.193
▁друку	-10.1932
▁сторіччя	-10.1932
▁затоки	-10.1934
▁героя	-10.1934
▁нігер	-10.1936
▁аналіз	-10.1944
▁вибор	-10.1947
▁помітн	-10.1953
▁троні	-10.1955
▁остаточно	-10.1956
▁відновлення	-10.1956
▁середовища	-10.1957
▁карибськ	-10.1957
▁працювати	-10.1959
▁політичний	-10.1959
кот	-10.196
▁обряд	-10.1961
▁кордовськ	-10.1962
▁створена	-10.1963
▁точка	-10.1965
уха	-10.1966
били	-10.1973
▁лан	-10.1974
▁благо	-10.1974
▁нашої	-10.1975
▁(15	-10.1975
▁незначн	-10.198
▁кохан	-10.198
▁половини	-10.1984
▁розташову	-10.1984
▁китаю	-10.1984
єднує	-10.1984
▁азот	-10.1988
▁ват	-10.1994
несення	-10.1996
▁заселен	-10.2
so	-10.2001
▁органи	-10.2009
ванні	-10.201
▁вересні	-10.2011
▁процесу	-10.2013
▁портрет	-10.2013
▁народила	-10.2014
▁полку	-10.2015
▁400	-10.2022
кле	-10.2025
поля	-10.2029
▁інтерпрет	-10.2038
▁яскрав	-10.2038
річний	-10.2044
волі	-10.2046
▁чинн	-10.2047
▁брати	-10.2054
▁чоловіків	-10.2056
піш	-10.2062
▁відбулася	-10.2065
mo	-10.2066
▁зору	-10.2085
▁пісні	-10.209
▁підтримку	-10.2092
дро	-10.2095
▁цк	-10.2097
▁вест	-10.2101
▁україною	-10.2103
▁забезпечує	-10.2105
інг	-10.2108
ac	-10.2109
▁внутрішніх	-10.2113
▁представлена	-10.2114
▁члени	-10.2119
▁думки	-10.2121
▁передав	-10.2126
▁1962	-10.2127
́й	-10.2133
▁травні	-10.2136
▁печер	-10.2138
ійські	-10.2144
▁військово	-10.2146
▁сюжет	-10.2147
▁ногайськ	-10.2147
▁нащадк	-10.2147
▁позиції	-10.2147
▁станіслав	-10.2147
▁жінки	-10.2147
▁цивільн	-10.2147
▁повно	-10.215
ференц	-10.215
▁дик	-10.2152
▁кола	-10.2152
▁властивості	-10.2154
▁помірно	-10.2163
шан	-10.2167
овій	-10.2168
кцію	-10.2179
▁вільно	-10.2182
▁1934	-10.2183
ir	-10.2188
валося	-10.219
▁земле	-10.219
▁нас	-10.2192
▁сприял	-10.2202
теле	-10.2203
ріб	-10.2208
▁болгарія	-10.2213
▁епохи	-10.2229
▁хвилі	-10.2229
▁разі	-10.2234
батьківщин	-10.2234
▁завершен	-10.2238
▁1995	-10.2239
▁загального	-10.2247
▁родовищ	-10.2251
▁аббасидськ	-10.2257
▁гіпотез	-10.2257
▁відновлен	-10.2259
▁чимало	-10.2259
▁водойм	-10.2261
▁усього	-10.2262
кір	-10.2263
▁любов	-10.2266
▁парламентськ	-10.2267
▁наявність	-10.2267
ph	-10.2268
▁взят	-10.2271
▁ролі	-10.2273
▁студент	-10.2273
▁досвід	-10.2278
▁лес	-10.2279
▁загроз	-10.2285
▁рср	-10.2286
▁юр	-10.229
янського	-10.2292
▁бібліотека	-10.2305
▁плав	-10.2311
▁компанія	-10.2313
▁грошов	-10.2313
чев	-10.2324
▁латин	-10.2325
▁богом	-10.2327
ква	-10.2339
▁південних	-10.234
▁механізм	-10.234
▁історичних	-10.234
▁високосні	-10.2341
цер	-10.2341
▁1989	-10.2342
▁зроблен	-10.2343
ca	-10.2344
перш	-10.2347
▁руб	-10.2351
джер	-10.2354
▁істот	-10.236
▁зазнал	-10.2364
▁розвивається	-10.2368
▁ухвал	-10.2369
▁статут	-10.2369
▁зображен	-10.237
▁літак	-10.237
▁лютер	-10.2372
▁матеріалів	-10.2382
ho	-10.2384
демократ	-10.2385
вез	-10.2395
▁водосховищ	-10.2396
▁сидить	-10.2396
чною	-10.2397
▁луганськ	-10.2397
▁листопаді	-10.2398
▁надзвичайно	-10.2402
▁хвор	-10.2402
▁державні	-10.2404
▁інституті	-10.2416
▁осел	-10.2419
▁ранні	-10.2419
▁національна	-10.2424
▁скульптур	-10.2424
▁голодомор	-10.2424
▁кожного	-10.2424
▁клі	-10.2428
▁ідей	-10.2428
▁1994	-10.2432
ниць	-10.2433
▁ранньо	-10.2435
бен	-10.2438
▁наступного	-10.2445
▁город	-10.2448
▁віл	-10.2451
▁запорізьк	-10.2452
▁маршрут	-10.2452
▁територій	-10.2452
▁релігія	-10.2452
▁найменш	-10.2453
▁основою	-10.2453
▁праць	-10.2453
▁астроном	-10.2454
▁святослав	-10.2455
▁увійшли	-10.2457
▁квітні	-10.2459
▁федор	-10.2459
▁1946	-10.2461
▁1914	-10.2463
▁ході	-10.2469
▁островах	-10.2469
▁королівством	-10.2479
хмельницьк	-10.2479
▁загальний	-10.2481
▁версія	-10.2485
ійська	-10.2488
▁одиниця	-10.2492
▁селах	-10.2506
▁періодичн	-10.2507
▁шляху	-10.2508
▁місяць	-10.2509
▁спостереження	-10.2509
▁заснував	-10.2509
▁ніколи	-10.2509
сам	-10.251
▁новим	-10.2512
os	-10.2518
ографія	-10.2525
явився	-10.2533
▁тіло	-10.2534
_1	-10.2547
▁калі	-10.2548
▁апеннінськ	-10.2551
льського	-10.2553
▁рас	-10.2553
сільськогосподар	-10.2556
фінанс	-10.2557
▁елементи	-10.2558
рівня	-10.2565
▁теоретичн	-10.2566
▁увійшов	-10.2566
▁заснування	-10.2566
▁щільн	-10.2566
▁присутні	-10.2566
▁почесн	-10.2566
зоря	-10.257
▁етно	-10.257
▁контр	-10.2572
розум	-10.2575
ованого	-10.2582
▁фрак	-10.2585
наслідок	-10.2586
▁сухо	-10.2594
▁комісії	-10.2595
▁італія	-10.2595
▁сонце	-10.26
▁1998	-10.2602
арагон	-10.2604
▁військові	-10.2605
▁зниж	-10.2607
▁географічних	-10.2609
ччина	-10.2614
▁перес	-10.262
▁боротьбу	-10.2623
▁винятком	-10.2623
▁конкурс	-10.2623
▁роботі	-10.2623
око	-10.2623
▁l	-10.2627
▁найбільший	-10.2629
▁метео	-10.2632
▁оточен	-10.2635
▁ібері	-10.2635
▁кілометрів	-10.2637
▁культурно	-10.2639
▁основним	-10.265
▁партнер	-10.2652
▁школу	-10.2652
▁сфері	-10.2653
тє	-10.2654
територіально	-10.2655
▁париж	-10.2667
▁відомих	-10.2667
мистецьк	-10.267
▁включаючи	-10.2681
чик	-10.2684
▁архів	-10.2685
▁антаркти	-10.2689
робіт	-10.27
▁висота	-10.2702
міфологія	-10.2705
▁обох	-10.2706
▁фізично	-10.2714
▁бел	-10.2717
▁залежно	-10.2718
▁інків	-10.2722
▁країнами	-10.2727
▁створений	-10.2733
теля	-10.2734
▁александр	-10.2739
▁вестготськ	-10.2739
▁змагання	-10.2739
▁визначається	-10.2741
друг	-10.2744
іших	-10.2745
▁індія	-10.2751
▁греція	-10.2753
▁частка	-10.2753
▁мід	-10.2754
▁структури	-10.276
▁першій	-10.2762
акти	-10.2764
▁піза	-10.2764
▁місцях	-10.2764
▁проголошен	-10.2765
тепер	-10.2766
▁договору	-10.2768
▁жовтні	-10.2768
▁екологічн	-10.2768
▁витрати	-10.2769
▁швейцар	-10.2772
▁лісів	-10.2774
▁кінець	-10.2774
▁делійськ	-10.2775
▁горах	-10.278
ийшла	-10.2781
▁віком	-10.279
▁президії	-10.2797
▁слабк	-10.2797
янський	-10.2797
▁олекс	-10.2799
фабрик	-10.2799
▁селянськ	-10.2805
▁межами	-10.2807
бот	-10.2812
рай	-10.2824
▁зосереджен	-10.2826
▁родовища	-10.2832
▁чому	-10.2837
▁археолог	-10.2854
кен	-10.2855
▁закони	-10.2856
▁ужгород	-10.2856
▁музики	-10.2857
▁1924	-10.2862
давати	-10.2864
▁полягає	-10.2868
▁екз	-10.287
▁представлені	-10.2872
▁запаси	-10.2874
▁педагог	-10.2879
▁церков	-10.2881
тичний	-10.2882
▁лінія	-10.2882
▁хвороб	-10.2883
▁гриценко	-10.2885
▁полковник	-10.2885
▁червні	-10.2885
▁папи	-10.2887
▁степов	-10.2887
▁породи	-10.2888
▁природних	-10.2897
▁крив	-10.2901
▁гептархії	-10.2914
▁серпні	-10.2914
тотожн	-10.2915
ленд	-10.2918
гель	-10.2923
▁експеримент	-10.2926
▁легк	-10.2929
▁закрит	-10.2935
▁містом	-10.2937
▁оголошен	-10.2944
▁пеньківськ	-10.2944
▁шухевич	-10.2944
▁окупації	-10.2944
▁туристичн	-10.2944
▁діоніс	-10.2944
вались	-10.2945
do	-10.2947
▁2022	-10.2952
ителів	-10.2954
▁переселен	-10.2958
▁павла	-10.2965
▁щорічно	-10.2969
▁українським	-10.2978
▁українському	-10.2979
▁знань	-10.2979
▁стійк	-10.2982
▁василя	-10.2983
значення	-10.2986
▁берегів	-10.2987
▁магістра	-10.299
▁битві	-10.2991
▁морські	-10.2994
▁громадсько	-10.2998
em	-10.3002
▁кредит	-10.3006
▁звичайно	-10.3006
клас	-10.3009
▁1965	-10.3013
▁головного	-10.3015
▁утворюють	-10.3021
рожа	-10.3021
▁захоплен	-10.3021
▁релігійних	-10.3031
▁самостійно	-10.3033
▁автономн	-10.3034
▁радянський	-10.3035
▁шука	-10.3039
▁взяв	-10.3043
язків	-10.3044
▁процеси	-10.3046
▁державна	-10.3047
▁поетичн	-10.3051
▁міжнародний	-10.3051
▁базі	-10.3056
▁папа	-10.3056
▁позитивн	-10.3063
▁місцевості	-10.3063
▁виражен	-10.3071
▁птах	-10.3079
▁внутрішньо	-10.3079
брати	-10.308
▁стилі	-10.3082
▁власні	-10.3086
ns	-10.3088
олов	-10.3092
▁запропонував	-10.3093
▁нідерландів	-10.3093
▁газети	-10.3094
▁вулкан	-10.3095
▁1929	-10.3101
▁аналізу	-10.3109
▁експорту	-10.3115
▁сек	-10.3115
▁обран	-10.3122
▁суспільство	-10.3123
▁історичні	-10.3123
▁будівництва	-10.3123
▁урочищ	-10.3123
▁служби	-10.3123
▁вологи	-10.3124
▁схем	-10.3124
берг	-10.3129
лею	-10.3129
▁літо	-10.3133
▁прибув	-10.3138
▁військовий	-10.3139
віл	-10.3144
▁академік	-10.3154
▁радянських	-10.3156
▁відстані	-10.3156
▁морських	-10.3174
▁ідеолог	-10.3177
th	-10.3181
єднали	-10.3184
▁діаметр	-10.3184
▁піщан	-10.3185
▁гостр	-10.3185
▁корінн	-10.3187
▁герцогства	-10.3187
▁округи	-10.3192
▁вироби	-10.3193
ндр	-10.3198
ed	-10.3198
▁навчальних	-10.3202
▁розширення	-10.3203
сса	-10.3214
▁простяг	-10.3214
▁вздовж	-10.3215
▁своєрідн	-10.3215
▁перебування	-10.3215
монт	-10.3216
́в	-10.3216
▁варто	-10.3217
▁інший	-10.3221
▁1922	-10.3221
▁типи	-10.3226
▁індійському	-10.323
янка	-10.3238
▁максим	-10.3238
дал	-10.3238
енс	-10.3242
▁відсутні	-10.3244
▁посейдон	-10.3245
▁перетворення	-10.3245
▁вважати	-10.3245
▁києво	-10.3247
▁європейських	-10.3247
▁роберт	-10.3248
▁дід	-10.3251
▁1905	-10.3252
подібно	-10.3255
▁визначають	-10.3256
ul	-10.3259
▁козацько	-10.326
▁видавництв	-10.3274
▁традиційно	-10.3274
▁алгоритм	-10.3275
▁вулиця	-10.3277
▁поштов	-10.3278
▁княж	-10.3279
пав	-10.328
являються	-10.3282
▁їхньо	-10.3285
лекс	-10.3288
▁сервер	-10.329
▁реп	-10.3295
▁почалася	-10.3299
▁зимов	-10.3305
▁обласного	-10.3306
▁конституція	-10.3306
▁гео	-10.3311
▁відділення	-10.3313
sa	-10.3317
▁сувор	-10.3319
▁обліку	-10.3324
▁тернопільськ	-10.3324
могу	-10.3327
▁різноманітні	-10.3329
орф	-10.3329
▁ідея	-10.3335
▁барселона	-10.3337
▁самоврядування	-10.3337
▁вікінгів	-10.3337
▁виробнич	-10.3337
▁обслуговування	-10.3339
▁міської	-10.3343
no	-10.3344
дані	-10.3345
▁північних	-10.3348
▁підпорядковані	-10.3355
▁низку	-10.3356
правда	-10.3359
▁чим	-10.3361
▁українці	-10.3363
▁мирн	-10.3364
▁москви	-10.3368
▁емірат	-10.3368
▁герой	-10.3368
▁причому	-10.3368
▁тараса	-10.337
▁приплив	-10.3373
▁світло	-10.3382
2,5	-10.339
▁німці	-10.3396
▁дорівнює	-10.3399
▁найближч	-10.3399
▁переживає	-10.3399
▁восени	-10.3399
єднані	-10.3399
ницький	-10.3402
верс	-10.3426
▁архітектор	-10.343
▁загинув	-10.343
єднува	-10.343
▁кращ	-10.3431
▁оповідання	-10.3431
▁розчин	-10.3432
▁щит	-10.3437
▁військової	-10.3438
крат	-10.3441
▁дружини	-10.3445
▁сал	-10.3447
▁богиня	-10.345
▁роком	-10.3451
▁встановлю	-10.3454
▁слів	-10.3459
▁велосипед	-10.3461
▁комерційн	-10.3461
▁значний	-10.3461
▁всеволод	-10.3461
▁федеральн	-10.3461
▁пізніш	-10.3464
▁кп	-10.3464
▁позначення	-10.3467
▁вантаж	-10.347
пам	-10.3471
жин	-10.3473
янської	-10.3475
бог	-10.3476
▁філософії	-10.3481
▁палео	-10.3482
▁істин	-10.3485
▁виборів	-10.3486
▁бібліотеки	-10.349
▁автошлях	-10.3492
▁жорсток	-10.3492
▁переписом	-10.3492
▁статей	-10.3492
▁робить	-10.3504
▁всіє	-10.3506
характеризується	-10.3506
▁астурія	-10.3507
▁активну	-10.3507
влас	-10.3508
▁виступав	-10.351
▁лісо	-10.3512
▁перевищує	-10.3512
▁указом	-10.3514
▁математики	-10.3517
▁визвольн	-10.3523
▁закарпаття	-10.3523
▁гітлер	-10.3523
▁попередні	-10.3525
▁свободи	-10.3526
▁ракет	-10.3526
▁логік	-10.3531
▁склала	-10.3535
▁порід	-10.3536
ic	-10.3537
▁віці	-10.354
▁рах	-10.3541
▁спис	-10.3543
▁заклади	-10.3546
▁янукович	-10.3555
▁створити	-10.3555
▁колгосп	-10.3556
▁заповідник	-10.3556
▁боги	-10.3562
▁1997	-10.3564
чем	-10.3576
▁високе	-10.3576
▁фото	-10.3579
▁корисні	-10.3586
▁серйозн	-10.3586
▁пасажир	-10.3586
▁плутон	-10.3586
▁хозари	-10.3586
▁викликал	-10.3586
▁сторони	-10.3586
▁наварра	-10.3587
▁литовському	-10.3587
▁розповіда	-10.3587
▁згадується	-10.3588
київ	-10.359
▁полярн	-10.359
▁миру	-10.359
миколаївськ	-10.3593
▁сербія	-10.3594
▁діти	-10.3597
атлантичн	-10.3598
▁ґрунтов	-10.3608
▁1990-	-10.3609
бал	-10.3613
▁неаполітанськ	-10.3618
▁туристів	-10.3618
▁перевезен	-10.3621
▁наукова	-10.3621
дель	-10.3624
▁захопив	-10.3624
▁рівняння	-10.3625
груп	-10.3627
▁ірані	-10.3629
▁економічного	-10.3632
▁червоної	-10.3633
▁задач	-10.3637
▁історико	-10.3645
тичного	-10.3645
▁(7	-10.3646
▁джерелом	-10.3647
▁угорщину	-10.365
▁функціонує	-10.365
▁церкві	-10.365
▁нептун	-10.365
▁відсотк	-10.365
▁прагну	-10.365
інтегр	-10.3651
дослідн	-10.3651
▁виконан	-10.3651
католик	-10.3656
язн	-10.3657
▁природний	-10.3659
язаний	-10.3664
▁супровод	-10.3672
зен	-10.3675
▁країною	-10.3676
▁класу	-10.3677
▁арт	-10.3678
▁стародавньо	-10.3678
▁відображ	-10.3679
▁виникла	-10.3679
▁випадках	-10.3682
▁височин	-10.3682
▁повідомлення	-10.3684
▁1948	-10.3692
▁прийняття	-10.3693
▁виконав	-10.3694
▁атмосфери	-10.3697
водяться	-10.3699
люється	-10.3701
▁здійснення	-10.3701
▁файл	-10.3707
—17	-10.3707
▁ймовірно	-10.371
пізн	-10.371
▁філософськ	-10.3713
▁інфраструктур	-10.3714
▁чоловіч	-10.3714
▁кожна	-10.3714
▁балтійськ	-10.3714
▁організатор	-10.3715
▁брод	-10.3715
▁xiii	-10.3716
▁релігійні	-10.3718
▁малі	-10.3721
▁турецьк	-10.3723
▁легко	-10.3734
▁козаків	-10.3737
▁богині	-10.3738
молочн	-10.3743
франкське	-10.3744
▁чотирьох	-10.3746
▁набагато	-10.3746
▁трохи	-10.3749
▁регіонів	-10.375
pt	-10.3752
спіл	-10.3766
▁лібер	-10.3767
▁чума	-10.3769
▁граб	-10.377
день	-10.3773
▁воєвод	-10.3778
▁виконує	-10.378
▁кордону	-10.3781
com	-10.3787
▁селище	-10.3788
▁лютому	-10.3788
мусульман	-10.3789
▁засновано	-10.3792
100	-10.3797
▁стану	-10.3798
▁київський	-10.3805
сіон	-10.3807
▁такими	-10.3808
▁зростає	-10.381
▁цирк	-10.3812
бактер	-10.3815
бас	-10.3817
▁юрія	-10.3826
▁типов	-10.3829
▁встановлення	-10.3836
▁боротьбі	-10.3842
▁закавказзя	-10.3842
▁трудов	-10.3843
▁використан	-10.3856
▁колом	-10.386
коло	-10.3863
▁кардинал	-10.3864
▁козак	-10.3866
▁психолог	-10.3866
▁сонячної	-10.3867
▁режиму	-10.3871
▁публічн	-10.3875
▁філіппіни	-10.3875
▁цзінь	-10.3875
▁рукопис	-10.3875
▁статтю	-10.3875
брала	-10.3875
▁знайом	-10.3876
▁тракт	-10.3883
▁заснована	-10.3889
▁регіоні	-10.389
▁дату	-10.3896
▁дещо	-10.3898
едон	-10.3901
▁світового	-10.3902
▁штатів	-10.3903
▁мене	-10.3906
▁найчастіше	-10.3907
▁повинен	-10.3907
▁поезії	-10.3907
▁уявлення	-10.3908
▁солдат	-10.3908
▁сполучення	-10.391
▁1926	-10.3914
▁християнство	-10.3921
▁копалини	-10.3922
▁нижч	-10.3931
альним	-10.3933
▁відкриттів	-10.394
▁єдиний	-10.3941
▁виробництв	-10.3943
▁лікування	-10.3944
▁граніт	-10.3944
алізації	-10.3957
▁причиною	-10.3958
▁наступні	-10.3963
▁численних	-10.3973
▁відсутність	-10.3974
▁бік	-10.3975
▁спільнот	-10.3976
▁виховання	-10.3989
▁камен	-10.3991
▁підприємство	-10.3992
▁чинник	-10.3994
▁студентів	-10.3996
▁сином	-10.4001
▁федерації	-10.4006
▁передбачає	-10.4006
▁внесок	-10.4006
▁одяг	-10.4007
▁річці	-10.4007
▁європейської	-10.4008
▁всесвітньо	-10.4011
▁підвищення	-10.4013
bo	-10.4013
▁аналогічн	-10.4015
▁урядов	-10.4027
▁тиску	-10.4028
▁атмосферн	-10.403
▁техніки	-10.4039
▁будинків	-10.4039
▁іноземних	-10.404
▁вийшов	-10.404
▁гідр	-10.4048
▁михайлович	-10.405
▁названо	-10.4058
▁військами	-10.4061
▁спроби	-10.4065
▁визначає	-10.4069
кіст	-10.4072
католицької	-10.4072
квартир	-10.4072
▁волинь	-10.4072
компонент	-10.4072
сін	-10.4079
▁титан	-10.4082
iii	-10.4083
▁чол	-10.4095
▁адже	-10.4099
▁різко	-10.4099
▁журналіст	-10.41
▁етнограф	-10.4103
▁німеччина	-10.4105
▁словник	-10.4109
▁крем	-10.4111
▁товариств	-10.4111
▁математик	-10.4111
▁операції	-10.4113
▁створює	-10.4115
стон	-10.4117
дніпро	-10.4117
▁джерело	-10.4124
▁місцем	-10.4133
▁справедлив	-10.4138
▁фредерік	-10.4138
▁існували	-10.4139
нівка	-10.4142
▁розвинут	-10.4145
ріан	-10.4152
▁зверта	-10.4159
▁досягає	-10.4159
▁рішенням	-10.4171
▁вторгнення	-10.4172
▁вартість	-10.4172
▁значною	-10.4174
▁китайськ	-10.4178
▁фонду	-10.4179
▁верхньо	-10.419
▁сенат	-10.4192
▁еміграції	-10.4205
▁монтессорі	-10.4205
▁підрозділ	-10.4205
▁первинн	-10.4207
▁(9	-10.4208
▁рідко	-10.4213
▁долині	-10.4216
▁заказники	-10.4222
▁жителі	-10.4239
▁десятиліття	-10.4239
явилася	-10.4242
▁новгород	-10.4247
▁тіл	-10.4249
▁данило	-10.4255
окси	-10.4266
▁надалі	-10.4266
фіз	-10.4268
лювати	-10.4271
▁побут	-10.4272
▁князем	-10.4273
▁розпочала	-10.4273
▁індивідуальн	-10.4273
▁збереглися	-10.4277
▁заявив	-10.4281
▁список	-10.4281
▁історики	-10.4283
▁алк	-10.429
тип	-10.4295
▁морів	-10.43
цит	-10.4301
▁кіл	-10.4303
▁підпорядкував	-10.4307
▁паралельн	-10.4307
▁платформ	-10.4307
▁залізниці	-10.4309
▁чудов	-10.4309
▁змінюється	-10.431
▁малю	-10.4316
▁васалами	-10.4318
ічними	-10.4324
▁прояв	-10.433
▁шість	-10.4333
▁чемпіонат	-10.4339
▁переслідува	-10.4341
▁відрізняється	-10.4341
▁повноваження	-10.4341
▁колоніальн	-10.4345
▁продаж	-10.4345
▁судно	-10.4345
▁1942	-10.435
▁празьк	-10.4352
▁органічн	-10.4356
▁лікарні	-10.4358
▁законом	-10.4367
▁угоди	-10.4369
▁використовували	-10.4369
альд	-10.437
валась	-10.4372
▁дозволил	-10.4375
▁телескоп	-10.4375
▁західного	-10.4377
▁електричн	-10.4377
▁політик	-10.438
▁заборонен	-10.4382
буття	-10.439
загальнодержавн	-10.4391
▁пря	-10.4392
изації	-10.4395
єднав	-10.4399
▁нижньо	-10.4409
енергетичн	-10.4409
▁системою	-10.4409
тіс	-10.4413
▁семи	-10.4416
▁оберт	-10.4419
▁строк	-10.4422
ніших	-10.4427
▁дружиною	-10.4431
▁парижі	-10.4432
▁норман	-10.4437
▁долини	-10.4438
кладання	-10.4441
▁колишнього	-10.4444
▁суттєв	-10.4444
▁епоху	-10.4444
▁прийняв	-10.4444
▁темп	-10.4444
▁земної	-10.4445
▁біологічн	-10.4449
▁очі	-10.445
▁основна	-10.4453
▁номер	-10.4455
▁обіг	-10.4458
▁природного	-10.4459
бург	-10.4463
евич	-10.447
▁еврі	-10.4473
▁одружився	-10.4478
▁тяжк	-10.4478
▁версією	-10.4478
▁грамот	-10.4479
ґрунт	-10.4483
▁урядом	-10.4492
ізацію	-10.4497
▁олексій	-10.4499
▁росіян	-10.4505
▁повідомл	-10.4511
▁розповсюджен	-10.4513
▁богемію	-10.4513
▁посткласичн	-10.4513
▁музею	-10.4513
▁середньовічн	-10.4513
▁меморіальн	-10.4514
▁лад	-10.4517
go	-10.4525
ba	-10.4533
▁першому	-10.4534
▁степовій	-10.4535
▁вимір	-10.4535
▁академічн	-10.4547
петербург	-10.4547
▁азовським	-10.4547
▁виявлено	-10.4549
▁російського	-10.455
▁матеріали	-10.4553
художн	-10.4554
шар	-10.4557
▁львівської	-10.4559
▁останніх	-10.4563
▁економічної	-10.4566
▁каль	-10.4572
▁середньої	-10.4573
▁заклик	-10.4574
▁прохання	-10.4584
▁політичного	-10.4585
▁єдиним	-10.4585
▁гарант	-10.4588
▁західних	-10.459
▁ворон	-10.4595
▁складен	-10.4602
▁формою	-10.4609
▁дослідники	-10.4615
▁здійснює	-10.4616
▁областей	-10.4617
▁юстиніана	-10.4617
▁безліч	-10.4618
▁здобул	-10.4618
▁родюч	-10.4618
▁законів	-10.462
ходити	-10.4625
▁давні	-10.4625
▁збройних	-10.4626
▁(8	-10.4631
▁нове	-10.4632
дання	-10.4643
▁діячів	-10.4645
▁взагалі	-10.4652
...»	-10.4654
фізик	-10.4655
▁мус	-10.4663
овується	-10.4663
▁розпочав	-10.4676
▁учасників	-10.468
▁методів	-10.4682
▁хмельницького	-10.4688
▁складаються	-10.469
▁льоду	-10.4692
▁лавр	-10.4692
дунайськ	-10.4694
▁моральн	-10.4694
фір	-10.4697
▁склали	-10.4699
▁фірм	-10.4708
▁трої	-10.4712
коль	-10.4713
▁говори	-10.4717
▁xii	-10.472
▁хорватією	-10.4723
▁творах	-10.4726
▁600	-10.4726
нцями	-10.4727
▁мистецтві	-10.4728
▁нагороджен	-10.4729
▁старшин	-10.4731
▁школах	-10.4733
▁одній	-10.4734
▁цілком	-10.4739
▁військового	-10.4739
▁драматичн	-10.4739
▁правов	-10.4744
▁проходять	-10.4746
▁приєднан	-10.4747
▁водою	-10.4749
▁вінницьк	-10.4751
▁поверхнев	-10.4758
▁дільниць	-10.4758
▁вшанування	-10.4758
▁письмо	-10.4758
▁лиш	-10.476
▁волощина	-10.4762
▁1935	-10.4768
язання	-10.4768
▁московського	-10.4774
▁звільнення	-10.4776
▁речовини	-10.4784
▁котрі	-10.4788
▁аби	-10.479
▁ефект	-10.4792
▁мая	-10.4794
▁чорнозем	-10.4794
▁потенціал	-10.4794
▁комісар	-10.4794
▁шельф	-10.4794
▁натомість	-10.4794
▁кошти	-10.4794
▁багатств	-10.4794
▁морський	-10.4797
фашист	-10.4801
▁2023	-10.4802
▁списку	-10.4807
▁педагогічн	-10.4807
близько	-10.4808
▁наступним	-10.4809
▁жили	-10.4814
▁означ	-10.4821
▁владі	-10.4822
▁являє	-10.4827
▁обладнання	-10.483
▁отримати	-10.483
▁кораблі	-10.483
▁іншою	-10.483
▁контакт	-10.4831
▁шкір	-10.4836
▁зона	-10.4844
▁основною	-10.4848
▁запас	-10.4848
▁континент	-10.4856
iv	-10.4858
▁дніпропетровськ	-10.4865
▁позбавлен	-10.4865
▁фізичних	-10.4865
▁богослов	-10.4866
▁стабільн	-10.4866
▁ділянка	-10.4866
▁фізики	-10.4867
▁леонід	-10.4871
▁дисциплін	-10.4891
▁андрія	-10.4895
▁порівнянні	-10.4901
▁насамперед	-10.4901
▁соціальних	-10.4901
▁відстань	-10.4902
▁статистичн	-10.4902
▁армія	-10.4902
▁одиниць	-10.4906
▁1936	-10.4909
▁владислав	-10.4915
▁фізико	-10.4923
▁економік	-10.4933
▁сформован	-10.4938
▁концентраці	-10.4939
▁запит	-10.494
▁гірнич	-10.4942
мовний	-10.4945
▁німецької	-10.4948
▁свідчення	-10.4974
pa	-10.4979
▁симон	-10.4986
▁буряк	-10.4996
▁типів	-10.4997
▁щоденн	-10.4998
▁драм	-10.4998
▁втрат	-10.5002
ард	-10.501
▁неодноразово	-10.501
▁різновид	-10.501
▁іоанн	-10.5012
▁француз	-10.5012
▁засуджен	-10.5012
▁російський	-10.5013
нських	-10.5014
▁супер	-10.5018
▁герман	-10.5026
▁державним	-10.5026
астурія	-10.503
язаних	-10.5032
ичного	-10.5032
▁лежать	-10.5047
▁невдовзі	-10.5047
▁персонаж	-10.5047
▁численними	-10.5047
▁розрізняють	-10.5047
▁коротко	-10.5048
▁статев	-10.5048
▁харкові	-10.5049
▁продуктів	-10.505
▁перешкод	-10.5051
ологію	-10.5053
▁1928	-10.5054
▁ігри	-10.5055
▁зазнав	-10.5055
▁григорій	-10.5061
падають	-10.5063
правил	-10.5075
▁місяці	-10.5083
▁сигізмунд	-10.5083
▁співпрацю	-10.5083
▁урочист	-10.5083
▁інша	-10.5083
▁кримінальн	-10.5083
▁житлов	-10.5089
▁1931	-10.5091
▁виділен	-10.5096
ing	-10.5099
▁шум	-10.5105
▁явище	-10.5106
▁відповідь	-10.5107
▁швидке	-10.5108
▁збірн	-10.5114
▁віджаянагара	-10.512
▁едуард	-10.512
▁мамлюки	-10.512
▁найпоширеніш	-10.512
▁тканин	-10.512
▁народні	-10.512
▁іслам	-10.5122
▁розуміння	-10.5125
▁загальною	-10.5125
▁розстріл	-10.5126
▁залежності	-10.5128
▁орієнт	-10.5136
▁шахт	-10.5143
▁майно	-10.5144
▁польської	-10.5148
▁співробітництв	-10.5157
▁москов	-10.5158
▁виникає	-10.5166
▁серб	-10.5166
▁1947	-10.5168
▁поїзд	-10.5169
▁1913	-10.5171
ліст	-10.5173
▁обрано	-10.5173
▁тривалість	-10.5181
▁виникли	-10.5189
▁галузь	-10.5194
▁становище	-10.5194
▁моголів	-10.5194
▁семен	-10.5194
▁оригінальн	-10.5195
▁посади	-10.5196
▁працювали	-10.5197
ологічні	-10.52
▁хвороби	-10.52
ation	-10.5201
▁1958	-10.5203
▁успішно	-10.5213
▁знайде	-10.522
▁останнього	-10.5231
▁пагорб	-10.5231
▁казимир	-10.5231
▁спілки	-10.5231
▁розпаду	-10.5232
▁курорт	-10.5232
▁оборони	-10.5233
▁адрес	-10.5235
▁лікарня	-10.5237
mi	-10.524
сид	-10.5242
▁захоплення	-10.5247
▁тяг	-10.5247
▁батьків	-10.5262
▁починає	-10.5265
▁однойменн	-10.5268
▁цвинтар	-10.5268
▁діяльністю	-10.5268
лиця	-10.5269
▁скоропадськ	-10.5269
▁білорусі	-10.5269
net	-10.527
▁пише	-10.527
▁римський	-10.5271
▁футбольн	-10.5271
▁припис	-10.5273
▁ньютон	-10.5274
▁кордоном	-10.5279
▁високого	-10.5281
▁заказник	-10.5287
▁вітер	-10.5289
продукт	-10.529
id	-10.5304
вард	-10.5305
комбінат	-10.5307
▁дворян	-10.5307
▁санкт	-10.531
▁вироблен	-10.5312
▁білоруськ	-10.5314
▁складає	-10.532
▁дружин	-10.5325
▁сотні	-10.5329
▁знят	-10.5342
▁венеціанськ	-10.5343
▁фатіміди	-10.5343
▁порушення	-10.5343
▁іншої	-10.5344
кладення	-10.5345
▁зброї	-10.5346
▁беруть	-10.5346
▁1966	-10.5354
▁економічно	-10.5361
стов	-10.5364
▁стік	-10.5365
падає	-10.5368
ss	-10.5372
вантаж	-10.5374
▁клітор	-10.5376
▁гідрологічн	-10.5378
плач	-10.5378
бел	-10.5379
петербурзі	-10.5381
▁зовсім	-10.5381
▁колумб	-10.5381
▁євразійськ	-10.5381
▁ризик	-10.5382
▁берегов	-10.5389
▁результати	-10.5396
▁кожні	-10.54
▁отримува	-10.5406
ie	-10.5412
▁функцій	-10.5419
▁хрестоносці	-10.5419
▁навесні	-10.5419
▁становлення	-10.5419
▁ахілл	-10.5421
гіт	-10.5421
даються	-10.5438
▁1959	-10.5442
▁англія	-10.5452
▁грузії	-10.5457
▁перейшов	-10.5457
▁користь	-10.5457
▁фермер	-10.5457
▁протилежн	-10.5459
▁1927	-10.5465
▁1956	-10.5467
повільн	-10.5468
▁сенс	-10.5471
▁тісно	-10.5476
▁копалин	-10.5478
▁здійснив	-10.5478
▁хвиля	-10.5495
▁радянсько	-10.5496
▁республікою	-10.5496
▁терор	-10.5497
▁версії	-10.55
▁артист	-10.5501
user	-10.5501
▁командир	-10.5501
▁букв	-10.552
pe	-10.5528
▁атланти	-10.5531
знавства	-10.5532
▁використовує	-10.5532
▁посольств	-10.5534
▁ділянки	-10.5534
▁достатньо	-10.5534
зруйнован	-10.5534
▁передачі	-10.5534
▁сполук	-10.5535
берт	-10.5535
▁німф	-10.554
▁1980-	-10.5551
▁успішн	-10.5552
▁виступає	-10.5554
ve	-10.5556
▁провів	-10.556
ha	-10.5563
▁свідчать	-10.5572
небезпечн	-10.5572
▁гуптів	-10.5572
▁обставин	-10.5573
▁зробити	-10.5573
▁надає	-10.5574
▁живуть	-10.5576
▁багать	-10.5576
▁степів	-10.5581
–18	-10.5583
станції	-10.5586
▁полтавської	-10.5587
▁двічі	-10.5589
▁переважн	-10.5591
▁здійснен	-10.5599
▁1900	-10.5602
▁інше	-10.5617
▁відомим	-10.5635
руб	-10.5637
спів	-10.5639
петербурзьк	-10.5649
▁єгипту	-10.5649
▁двигун	-10.5649
▁побутов	-10.5652
▁слух	-10.5653
▁доросл	-10.5656
▁поділяються	-10.5656
▁1975	-10.5661
▁1954	-10.5661
▁житомир	-10.5662
▁1910	-10.567
▁буг	-10.5686
▁тютюн	-10.5688
▁мешкало	-10.5688
▁вивчає	-10.5689
▁заміни	-10.5689
▁знайти	-10.5689
▁череп	-10.569
▁відразу	-10.5691
▁основи	-10.5692
▁викладач	-10.5695
язане	-10.57
▁1916	-10.5701
▁стосунки	-10.5704
▁альп	-10.5706
технологічн	-10.571
▁використа	-10.5717
▁останнім	-10.572
▁гірські	-10.5721
▁площу	-10.5727
▁технології	-10.5728
▁уздовж	-10.5728
▁утворюється	-10.573
помірн	-10.5735
▁протокол	-10.5739
▁червоного	-10.575
▁ерік	-10.575
овик	-10.5753
▁потрібно	-10.5756
be	-10.5758
▁червоно	-10.5759
▁вислови	-10.576
жев	-10.5766
▁медицини	-10.5767
▁саакашвілі	-10.5767
▁свідчить	-10.5767
▁арендт	-10.5767
▁плоск	-10.5767
▁призводить	-10.5768
▁робітнич	-10.5769
▁намагався	-10.577
▁занепад	-10.5774
ad	-10.5776
▁2021	-10.5777
▁адам	-10.5788
▁зерно	-10.5796
▁сумнів	-10.5797
▁вулканічн	-10.5804
▁національним	-10.5806
▁захища	-10.5806
▁юнеско	-10.5806
▁російських	-10.5806
▁виноград	-10.5806
▁глобальн	-10.5806
▁концерт	-10.5806
▁виникають	-10.5816
нґ	-10.5819
▁євреїв	-10.5823
▁поруч	-10.5826
▁росія	-10.5827
▁харківської	-10.584
множ	-10.5843
▁східних	-10.5845
▁візантію	-10.5845
▁звинувачен	-10.5845
▁протекторат	-10.5845
▁сефевід	-10.5845
▁богемії	-10.5845
▁покоління	-10.5845
▁баланс	-10.5846
0,5	-10.5856
▁одиниці	-10.5858
▁царства	-10.586
▁хімічно	-10.5867
▁малу	-10.5879
промислов	-10.5884
▁кислот	-10.5885
▁проживання	-10.5885
▁правильн	-10.5886
▁третій	-10.5887
▁аралом	-10.5887
▁відмовився	-10.5888
▁фактичн	-10.5889
зький	-10.5892
▁зазначен	-10.5896
▁археологічн	-10.5897
▁плем	-10.5902
▁куди	-10.5909
громад	-10.5922
▁архіпелаг	-10.5925
▁процедур	-10.5925
▁розвитком	-10.5925
▁сковород	-10.5925
▁життєв	-10.5925
▁співробітник	-10.5925
▁сучасна	-10.5925
▁вирішив	-10.5925
▁моделі	-10.5927
▁продуктивн	-10.5932
▁сповід	-10.5937
▁сталін	-10.594
ковський	-10.5949
фун	-10.5951
▁громадський	-10.596
▁виходить	-10.5965
▁обидва	-10.5965
▁алгебр	-10.5965
▁всередині	-10.5965
▁соціальна	-10.5965
▁алжир	-10.5966
▁проголошення	-10.5969
▁формальн	-10.5973
▁чуж	-10.5978
▁трон	-10.5985
▁визначн	-10.5986
▁шотланд	-10.6005
▁представництв	-10.6005
▁теорію	-10.6005
▁писемн	-10.6005
▁гирл	-10.6006
нські	-10.6007
бирається	-10.6007
▁реалізації	-10.6016
▁1961	-10.6017
▁утворюються	-10.6022
▁полог	-10.6029
арктичн	-10.6034
▁навпаки	-10.6045
▁хвилин	-10.6045
▁мінімум	-10.6045
▁коледж	-10.6046
▁автобус	-10.6046
▁сільрад	-10.6046
▁резерв	-10.6046
▁зниження	-10.605
тичними	-10.6052
інтер	-10.6056
риг	-10.6056
▁вирощування	-10.6059
▁баб	-10.6063
ng	-10.6077
▁1980	-10.6083
▁тисячоліття	-10.6086
▁взяли	-10.6086
▁спектр	-10.6086
▁подібні	-10.6086
▁гігант	-10.6086
їзм	-10.6087
▁ворож	-10.6087
▁ацтеків	-10.6091
▁працівників	-10.6092
лежала	-10.6092
ницю	-10.6093
▁чисто	-10.61
єктивн	-10.6104
▁твір	-10.6107
▁громадських	-10.6107
▁чисел	-10.6109
▁луї	-10.6117
▁майбутньо	-10.6119
▁керування	-10.6122
▁вважає	-10.6124
▁михайл	-10.6125
▁запроваджен	-10.6127
▁відбуваються	-10.6127
▁імперією	-10.6127
▁інформація	-10.6127
▁сукупність	-10.6131
▁1963	-10.6138
▁наукового	-10.6146
▁практичн	-10.6161
▁1949	-10.6164
▁патріарх	-10.6167
▁відношення	-10.6167
▁гончар	-10.6167
▁середніх	-10.6169
▁срібн	-10.6174
мільйон	-10.6174
▁київському	-10.6181
завод	-10.6182
▁східного	-10.6187
цтво	-10.6188
▁звільнен	-10.6193
логічних	-10.6194
▁платон	-10.6198
дін	-10.6201
▁знаменит	-10.6208
▁геноцид	-10.6208
▁перейменован	-10.6208
▁тігіпко	-10.6208
▁службов	-10.6208
per	-10.6208
▁оголосив	-10.6209
op	-10.6213
▁душу	-10.622
▁залежн	-10.6224
▁плит	-10.623
▁обмеження	-10.6244
▁кооператив	-10.625
▁референдум	-10.625
▁худоби	-10.625
▁заслужен	-10.6253
▁сильні	-10.627
▁закордонних	-10.6275
va	-10.6284
▁1979	-10.6285
ab	-10.6285
▁апостол	-10.629
▁скульптор	-10.6291
▁люксембург	-10.6291
▁суспільстві	-10.6291
▁столицею	-10.6291
▁проживає	-10.6291
▁of	-10.6291
▁протестантськ	-10.6291
▁героїв	-10.6292
сідає	-10.6292
▁маршал	-10.6292
▁фауна	-10.6294
▁серце	-10.6294
▁будуть	-10.6294
fi	-10.6307
▁літні	-10.6323
▁лангобардськ	-10.6332
▁муроматі	-10.6332
▁португальськ	-10.6332
▁йосип	-10.6332
▁кожному	-10.6332
▁інформацію	-10.6332
▁аспект	-10.6333
▁страв	-10.6333
▁могла	-10.6333
▁спира	-10.6333
▁западин	-10.6334
▁пішов	-10.6336
▁рослинність	-10.6352
карпатської	-10.6359
▁юнак	-10.6362
▁ступінь	-10.6374
▁семінар	-10.6374
▁обертання	-10.6378
механічн	-10.638
▁1957	-10.6385
груд	-10.6389
▁внутрішнього	-10.6393
лінг	-10.6401
▁описан	-10.6408
▁працівник	-10.6412
▁переїхав	-10.6416
▁зафіксован	-10.6416
▁сягає	-10.6416
▁українське	-10.6416
▁налічується	-10.6418
—16	-10.6424
▁250	-10.6426
▁ірану	-10.6427
▁лиман	-10.6427
ut	-10.6427
▁потрібн	-10.6427
транс	-10.6428
▁1972	-10.6428
▁зберігання	-10.643
дністров	-10.6431
▁монастиря	-10.6436
́т	-10.6441
▁аналог	-10.645
he	-10.6451
▁областях	-10.6458
▁стосовно	-10.6458
▁службу	-10.6458
▁переміщ	-10.6459
▁модель	-10.6466
▁1911	-10.6474
▁відступ	-10.6475
▁марії	-10.6478
лювали	-10.6481
ївський	-10.6482
українська	-10.6494
▁опублікував	-10.65
▁людьми	-10.65
єтнам	-10.65
▁сигнал	-10.65
▁будівлі	-10.65
▁розробки	-10.65
▁становили	-10.65
▁голосування	-10.6508
ницького	-10.6509
▁доказ	-10.6512
ex	-10.6512
▁правив	-10.6517
▁пік	-10.6517
▁виготовлення	-10.6519
▁польського	-10.6529
▁сицилійськ	-10.6542
▁торгівля	-10.6542
▁галичині	-10.6543
▁матір	-10.6545
▁отримує	-10.655
▁черкаськ	-10.6552
▁убив	-10.6557
▁роками	-10.6559
▁їхнього	-10.6562
▁належн	-10.6566
▁ключов	-10.6576
▁підвищен	-10.6577
▁піднят	-10.658
▁поверхня	-10.6585
▁створили	-10.6585
▁перейменува	-10.6585
▁князівстві	-10.6587
▁тропічних	-10.6587
▁середземн	-10.6589
—15	-10.6601
▁1890	-10.6604
▁називати	-10.6604
▁лют	-10.6606
блиск	-10.6609
▁солі	-10.661
західній	-10.6612
▁новгородськ	-10.6618
▁утворює	-10.6625
▁очол	-10.6627
▁французької	-10.6628
▁книзі	-10.6628
▁укріплен	-10.6628
▁начальник	-10.6628
▁куліш	-10.663
▁щороку	-10.663
▁радянські	-10.6635
▁випадає	-10.6644
▁наполеон	-10.6647
східній	-10.6657
▁кавказ	-10.6663
▁ліберальн	-10.6664
сподарські	-10.6668
▁дворі	-10.6669
▁паннонії	-10.6671
▁поверхню	-10.6671
▁товари	-10.6678
▁розпочався	-10.6686
поділ	-10.6692
▁минулого	-10.6703
▁відпочинку	-10.6714
▁фрукт	-10.6714
▁анатом	-10.6715
▁1906	-10.6723
▁керував	-10.6738
▁драматург	-10.6757
▁лауреат	-10.6757
▁протяжність	-10.6757
▁ступеня	-10.6757
▁казахстан	-10.6757
▁охорона	-10.6757
▁попередньо	-10.6757
▁увійшл	-10.6758
▁займали	-10.6758
▁зунр	-10.6758
▁дмитра	-10.6759
▁почався	-10.6759
▁течія	-10.6759
хоч	-10.676
▁всьому	-10.6761
мель	-10.6763
▁розріз	-10.677
▁1964	-10.677
▁горизонт	-10.677
▁заходи	-10.6772
значних	-10.6774
▁віддален	-10.6774
▁південні	-10.6775
▁ансамбл	-10.6801
▁специфічн	-10.6801
▁рідкісн	-10.6801
▁авторитет	-10.6801
▁німецький	-10.6801
▁бюро	-10.6801
▁входив	-10.6801
▁кінцев	-10.6802
▁бароко	-10.6803
▁1908	-10.6809
▁комеді	-10.6819
▁знищен	-10.6819
лягають	-10.6824
▁республіканськ	-10.6825
▁місцями	-10.6834
▁принаймні	-10.6844
▁магнітн	-10.6844
▁існував	-10.6844
хрещен	-10.6844
▁податков	-10.6845
▁квт	-10.6846
▁турнір	-10.6852
▁пил	-10.686
▁мусульманськ	-10.6872
▁троянськ	-10.6875
▁місцевим	-10.6876
листопад	-10.6884
▁антициклон	-10.6888
▁винятков	-10.6888
▁прогноз	-10.6888
▁підпорядкування	-10.6888
▁ускладн	-10.6888
▁зовнішня	-10.6888
▁теперішн	-10.689
▁крок	-10.689
▁дороги	-10.689
▁патент	-10.6892
щиною	-10.6894
▁1967	-10.6899
▁послан	-10.691
▁деякими	-10.6912
▁посів	-10.6917
▁похован	-10.6921
▁відчув	-10.6923
аварського	-10.6924
▁виступив	-10.6928
▁ніяк	-10.6928
▁відрізняються	-10.6932
▁настільки	-10.6932
▁роздроблена	-10.6932
енергетик	-10.6932
▁володінь	-10.6932
▁канон	-10.6938
▁григорія	-10.6941
географічн	-10.6954
бирали	-10.6955
▁плати	-10.6955
▁церкву	-10.6976
▁тюркськ	-10.6976
▁продовжилося	-10.6976
▁страхування	-10.6977
▁вибух	-10.6977
▁проводом	-10.6977
im	-10.6978
▁галичина	-10.6979
люються	-10.6981
амазон	-10.6981
ae	-10.6983
▁проводили	-10.6988
явлен	-10.6988
▁людиною	-10.6997
▁випромінювання	-10.7021
▁законодавство	-10.7021
▁класифікація	-10.7021
▁усрр	-10.7021
▁випадків	-10.7021
▁радянська	-10.7021
▁пізньо	-10.7021
▁вимірювання	-10.7022
▁пожеж	-10.7022
▁азію	-10.7023
▁політичну	-10.7023
▁ухвален	-10.7027
▁метро	-10.7034
колишня	-10.7035
▁архітектурн	-10.7038
▁гроз	-10.704
▁середньорічн	-10.7041
освітні	-10.7043
оборон	-10.7047
єць	-10.7049
▁царем	-10.7051
3,5	-10.7059
▁давніх	-10.7062
ресурс	-10.7063
▁сприятлив	-10.7065
▁офіцер	-10.7065
▁покращ	-10.7066
▁феодальн	-10.7067
тернопіль	-10.7084
▁священник	-10.7085
зокрема	-10.709
4,5	-10.7109
▁екваторіальн	-10.711
▁карибах	-10.711
▁спеціалізован	-10.711
▁фердинанд	-10.711
▁дивізії	-10.711
▁мстислав	-10.711
▁чернівецьк	-10.7111
▁виключно	-10.7112
▁спадщини	-10.7114
▁різк	-10.7115
▁порядок	-10.7128
тихоокеанськ	-10.7155
▁прикордонн	-10.7155
▁відношенні	-10.7155
▁пустель	-10.7156
▁максимум	-10.7159
▁тонк	-10.717
▁зборів	-10.7174
ga	-10.7182
▁афганістан	-10.7201
▁запропонован	-10.7201
▁потрапил	-10.7201
підтверджен	-10.7201
▁словен	-10.7202
▁параметр	-10.7204
▁організацію	-10.7207
▁змішан	-10.7208
▁наступних	-10.7211
▁нагляд	-10.7212
▁гіпер	-10.7218
ica	-10.7229
▁1648	-10.7232
▁перетворен	-10.7234
▁балка	-10.7244
▁метрополітен	-10.7246
▁довелося	-10.7246
▁відносяться	-10.7246
▁існувала	-10.7246
▁ізяслав	-10.7246
▁небесн	-10.7246
▁стаття	-10.7246
▁будинки	-10.7247
▁берд	-10.7255
▁григор	-10.7257
▁1986	-10.7259
▁стиль	-10.7262
▁1912	-10.7263
▁зареєстровано	-10.7263
▁ставлення	-10.7264
львів	-10.7264
▁родич	-10.7266
корпора	-10.7278
▁берест	-10.7284
▁значенні	-10.7292
▁німецькі	-10.7292
▁правителя	-10.7292
▁історичний	-10.7292
▁харчування	-10.7292
▁компаній	-10.7292
▁шести	-10.7293
▁реклам	-10.7296
▁рогат	-10.7298
▁збори	-10.7303
▁іменем	-10.7306
uni	-10.7322
▁панування	-10.733
▁соціального	-10.733
▁струм	-10.7331
▁губернія	-10.7338
▁найпопулярніш	-10.7338
▁випадков	-10.7338
▁взаємодії	-10.7339
▁руських	-10.7342
▁вільям	-10.7345
▁московії	-10.7351
студ	-10.736
функціональн	-10.7384
▁галузей	-10.7384
▁рейтинг	-10.7384
▁кристіан	-10.7384
▁одеської	-10.7384
▁сатурн	-10.7385
▁радикальн	-10.7386
▁колекці	-10.7387
▁сполуч	-10.7389
▁1907	-10.7393
ціонал	-10.7395
▁кріп	-10.7397
▁готов	-10.7403
▁швидкості	-10.7403
первісн	-10.7407
▁принц	-10.7408
▁треба	-10.7408
▁бояр	-10.7411
▁дозволя	-10.7411
письмен	-10.7413
▁піднесення	-10.7415
африканськ	-10.7416
▁схилах	-10.742
президент	-10.742
▁валов	-10.7421
класти	-10.7428
католицька	-10.743
▁притаманн	-10.743
▁федір	-10.743
▁мінімальн	-10.743
▁рішень	-10.743
▁технологій	-10.743
▁часопис	-10.743
▁заповіт	-10.743
▁канади	-10.7431
▁волині	-10.7432
▁передбачен	-10.7432
▁чемпіон	-10.7432
▁субтропічн	-10.7432
▁нараховує	-10.7433
▁робітників	-10.7434
▁людства	-10.7436
▁сейм	-10.7436
▁викладав	-10.7442
▁вивчен	-10.7443
▁видань	-10.7457
▁городищ	-10.7457
▁словацьк	-10.7464
діяльн	-10.7466
▁лікарськ	-10.7468
▁конференції	-10.7476
▁зменшення	-10.7477
▁прийшов	-10.7477
▁потрійн	-10.7477
▁гранада	-10.7477
▁нерідко	-10.7477
▁продовження	-10.7477
▁юліан	-10.7477
▁інколи	-10.7477
▁сюди	-10.7477
▁європейський	-10.748
▁популярні	-10.748
зького	-10.7485
tra	-10.7492
▁середнього	-10.7503
▁ліквідовано	-10.7504
▁державному	-10.7507
цар	-10.7516
▁азербайджан	-10.7523
▁вирушив	-10.7523
▁категорії	-10.7523
▁прізвище	-10.7523
єднала	-10.7523
▁кодекс	-10.7526
▁1969	-10.7531
▁снігов	-10.7532
▁труп	-10.7532
▁1901	-10.7535
юнацьк	-10.7536
▁вовч	-10.7546
▁озброєн	-10.757
▁телебачення	-10.757
▁створюють	-10.757
▁підсумк	-10.757
▁відтоді	-10.7571
▁залишила	-10.7571
▁інтелектуальн	-10.7571
▁надрукован	-10.7573
▁світогляд	-10.7574
▁перекладач	-10.7586
▁1915	-10.7587
▁інтелект	-10.7588
▁французька	-10.7617
▁поселень	-10.7617
▁покарання	-10.7617
▁вісім	-10.7617
▁євангелі	-10.7618
▁здобуття	-10.7621
▁тогочасн	-10.7621
▁християнства	-10.7623
▁стверджує	-10.7629
маючи	-10.763
тичну	-10.7635
▁продовжував	-10.7636
▁називав	-10.7647
▁житомирськ	-10.7649
▁студентськ	-10.7651
▁українсько	-10.7656
близнюк	-10.7665
▁вертикальн	-10.7665
▁вітчизнян	-10.7665
▁підготовки	-10.7665
▁індекс	-10.7665
▁писати	-10.7666
▁палеолог	-10.7666
генетичн	-10.7666
▁ліквідований	-10.7667
▁вчений	-10.7673
▁реформація	-10.7673
▁перелік	-10.7674
гет	-10.7681
▁туман	-10.7684
▁тропічні	-10.7688
вірус	-10.7691
біль	-10.7702
глядач	-10.7703
ap	-10.7709
▁банківськ	-10.7712
▁видобуток	-10.7712
▁потрапив	-10.7712
▁уперше	-10.7713
▁олімп	-10.7716
▁зведен	-10.772
▁курган	-10.7723
▁сатир	-10.7732
ницею	-10.774
▁експериментальн	-10.7741
▁монархії	-10.7744
▁підводн	-10.7748
зелен	-10.7751
▁публіцист	-10.7755
▁лікувальн	-10.776
▁африку	-10.776
▁довжиною	-10.776
▁маленьк	-10.776
▁улоговин	-10.776
▁балканах	-10.776
▁виконувати	-10.7761
▁виробів	-10.7761
▁древн	-10.7762
▁природу	-10.7762
▁варвар	-10.7766
▁відомого	-10.7768
pr	-10.777
▁вирішення	-10.7783
▁матч	-10.78
зька	-10.7801
▁електроенергії	-10.7808
▁приміщення	-10.7808
суздальськ	-10.7808
роджуватися	-10.7808
▁закономірн	-10.7809
▁соціальні	-10.7809
▁загальним	-10.7809
крил	-10.781
▁задля	-10.7811
учасник	-10.7821
▁1988	-10.7822
ников	-10.7824
▁прагнення	-10.783
▁точно	-10.7836
▁шахов	-10.7843
▁облік	-10.785
▁здобут	-10.7854
▁лівобережн	-10.7857
▁найстаріш	-10.7857
▁пруссії	-10.7857
▁середовище	-10.7857
▁ситуації	-10.7857
▁традиція	-10.7857
▁завоювання	-10.7857
▁збірки	-10.7858
▁ідеал	-10.7858
▁вказує	-10.7859
▁науковці	-10.7861
▁1968	-10.787
жир	-10.7899
▁забезпечують	-10.79
▁насправді	-10.7905
▁норвезьк	-10.7905
▁французький	-10.7905
▁підпільн	-10.7905
▁звідси	-10.7906
▁розгром	-10.7908
загальноосвітніх	-10.7916
▁знайдено	-10.7921
азійськ	-10.7934
▁надзвичайн	-10.7948
королівство	-10.795
▁очевидн	-10.7954
▁конфедера	-10.7954
▁гнізд	-10.7954
▁розмовля	-10.7954
▁атлантичного	-10.7955
▁гаряч	-10.796
▁грецької	-10.796
греб	-10.7962
▁утворилос	-10.7967
онізм	-10.7969
▁письменниц	-10.7971
▁віденськ	-10.7977
▁персонал	-10.8001
після	-10.8001
▁редакції	-10.8003
▁болеслав	-10.8003
▁хребта	-10.8003
▁стосується	-10.8003
▁священик	-10.8004
▁лицар	-10.8004
фікації	-10.8012
луцьк	-10.8018
▁збірник	-10.8018
▁національному	-10.8021
бей	-10.8035
▁дощов	-10.8042
▁льодов	-10.8045
кель	-10.8049
▁впроваджен	-10.8052
▁зусилля	-10.8052
▁клієнт	-10.8052
▁споживання	-10.8052
▁коштів	-10.8052
▁цейлоні	-10.8053
▁економіці	-10.8053
▁литви	-10.8053
▁давньоруськ	-10.8053
▁чергов	-10.8055
▁займався	-10.806
бавовн	-10.8099
▁пейзаж	-10.8102
▁сельджуки	-10.8102
▁ланцюг	-10.8102
▁королева	-10.8102
▁зернових	-10.8102
▁поклади	-10.8102
▁хозарськ	-10.8102
▁ісламськ	-10.8104
▁збірка	-10.8114
подоб	-10.8122
кликав	-10.8126
▁дельф	-10.8131
пускають	-10.8145
▁околиці	-10.8151
▁регулювання	-10.8151
▁контролем	-10.8151
▁існувало	-10.8151
▁розпочат	-10.8152
▁кожної	-10.8152
▁витрат	-10.8152
механік	-10.8153
▁ватикан	-10.8154
▁ідею	-10.8155
▁друкован	-10.8156
станція	-10.8171
▁зеландії	-10.8201
▁мільярд	-10.8201
▁найнижч	-10.8201
▁хорватії	-10.8201
▁нобелівськ	-10.8201
▁катерина	-10.8201
▁зробили	-10.8202
▁визначити	-10.8202
▁ринок	-10.8203
▁кальвін	-10.8203
визвольн	-10.8204
▁руські	-10.8207
▁освоєн	-10.8209
▁жуан	-10.8212
▁овочі	-10.8216
▁думка	-10.8218
▁пісень	-10.8218
▁термо	-10.8227
▁безпосередн	-10.8249
▁сучасний	-10.8252
▁запозичен	-10.8252
▁паризьк	-10.8253
▁командуванням	-10.8254
▁указ	-10.8255
▁прісн	-10.8259
▁1952	-10.8264
▁торф	-10.8265
▁літературознав	-10.8268
пратіхара	-10.8302
їжджа	-10.8302
▁маринід	-10.8302
▁буддизм	-10.8302
▁польща	-10.8302
▁починають	-10.8313
▁здатність	-10.8317
sh	-10.8318
▁поховання	-10.8327
▁застосовують	-10.8335
сіверськ	-10.834
▁судан	-10.8344
▁образотворч	-10.8353
▁взаємн	-10.8353
▁загальних	-10.8353
▁москва	-10.8353
▁відкритий	-10.8354
▁знайшли	-10.8355
уванню	-10.8356
тобто	-10.8358
▁рідин	-10.836
▁1904	-10.8363
▁1951	-10.8366
▁товариш	-10.8373
▁багаті	-10.8382
повідь	-10.8382
▁бажан	-10.8392
▁васильович	-10.8395
▁відкриті	-10.8401
▁практиці	-10.8404
▁сприяє	-10.8404
▁трансильванію	-10.8404
▁кольоров	-10.8404
▁переважає	-10.8404
▁третього	-10.8404
▁дзеркал	-10.8404
йосиф	-10.8405
▁обіця	-10.8406
▁литовського	-10.8406
▁керівн	-10.8412
▁проводив	-10.8414
▁припинення	-10.8417
▁читач	-10.8418
▁королі	-10.8424
▁ритуал	-10.8426
▁забезпечу	-10.8438
▁підтримує	-10.8438
▁ацте	-10.8451
обов	-10.8453
▁загинули	-10.8455
▁зберегла	-10.8455
▁польщею	-10.8455
▁середовищі	-10.8455
▁сприйнят	-10.8455
▁спадщину	-10.8455
▁протікає	-10.8455
▁довгий	-10.8455
▁одразу	-10.8455
▁паперів	-10.8455
▁будучи	-10.8456
▁польських	-10.8456
▁скарб	-10.8457
союз	-10.8458
▁констант	-10.8459
▁включають	-10.8462
▁звернен	-10.8463
xviii	-10.8463
золот	-10.8469
▁наведен	-10.8472
1,2	-10.8481
бирати	-10.8482
▁бажання	-10.8486
▁знищення	-10.849
вугле	-10.8496
▁утримува	-10.85
банк	-10.8505
▁діаспор	-10.8507
▁загинуло	-10.8507
▁колишньої	-10.8507
▁закріплен	-10.8507
▁хребет	-10.8507
▁належав	-10.8507
▁зберігається	-10.8507
▁заслуг	-10.8507
▁необхідність	-10.8508
▁англійська	-10.8509
▁скорочення	-10.851
▁тваринництво	-10.8513
▁ймовірн	-10.8513
▁контракт	-10.8515
▁1973	-10.8519
▁істотн	-10.8523
▁нот	-10.8541
аційні	-10.8548
тлумач	-10.8559
▁відокремлен	-10.8559
▁посушлив	-10.8559
▁стадіон	-10.8559
▁вигнан	-10.8559
▁відвідав	-10.856
▁опади	-10.856
крізь	-10.8561
▁жінка	-10.8562
par	-10.8562
▁площин	-10.8563
▁вітрів	-10.8565
бирають	-10.8566
▁кіпр	-10.8568
▁кристалічн	-10.8568
▁натуральн	-10.8569
▁1978	-10.8572
▁1953	-10.8572
▁верхній	-10.8574
▁підкорен	-10.8577
▁пальм	-10.858
бразил	-10.8583
▁російські	-10.8588
▁інвестицій	-10.8591
om	-10.8601
увалось	-10.8604
▁повітов	-10.8607
▁найп	-10.8607
▁альтернатив	-10.8611
▁євпатор	-10.8611
▁сировини	-10.8611
▁вплинул	-10.8611
▁обчислювальн	-10.8611
▁хімії	-10.8612
▁уваги	-10.8612
▁кристал	-10.8613
▁виробник	-10.8615
генез	-10.8656
▁фундаментальн	-10.8662
▁академія	-10.8663
▁караханіди	-10.8663
▁катастроф	-10.8663
▁функціонують	-10.8663
▁французького	-10.8663
▁тієї	-10.8663
▁винахід	-10.8664
▁азовського	-10.8664
▁приділя	-10.8664
▁універсальн	-10.8664
▁волочиськ	-10.8664
▁дочкою	-10.8665
▁стражда	-10.8666
▁камінь	-10.8669
▁христа	-10.8671
язнення	-10.8686
▁благодійн	-10.8687
▁дозволяють	-10.8691
▁просторі	-10.8694
▁неможливо	-10.8699
▁визнає	-10.8714
▁кіровоградськ	-10.8716
▁спостерігаються	-10.8716
▁зумовлен	-10.8716
ячеслав	-10.8716
▁відіграв	-10.8716
▁альянс	-10.8717
▁бронзов	-10.8717
▁властивостей	-10.8718
▁відображення	-10.872
▁хлоп	-10.8721
▁звані	-10.8726
систем	-10.873
▁громадянин	-10.8733
ine	-10.8755
▁(2001):	-10.8769
▁газневіди	-10.8769
▁жорстк	-10.8769
▁містечка	-10.8769
▁податків	-10.8769
▁хлопчик	-10.8769
▁енерго	-10.877
▁проголосив	-10.877
▁стрілецьк	-10.8776
▁виконують	-10.8777
остях	-10.8778
▁божественн	-10.8778
▁вчених	-10.8779
▁стимул	-10.8779
▁викликан	-10.8788
холод	-10.8817
▁утвердилися	-10.8822
▁валентин	-10.8822
▁трапляються	-10.8822
▁трикутник	-10.8822
▁персію	-10.8822
▁одесі	-10.8822
▁армію	-10.8822
▁ведуть	-10.8823
▁пристрої	-10.8825
▁нарешті	-10.8826
▁вченого	-10.8829
▁1971	-10.8835
ангел	-10.8841
▁європейські	-10.8846
▁аїд	-10.8847
▁бутан	-10.8857
▁герц	-10.8861
ell	-10.8862
скільки	-10.8863
▁соціалісти	-10.8867
білорусь	-10.8868
▁налічує	-10.8872
▁компілятор	-10.8875
▁концепції	-10.8875
▁сприяння	-10.8875
авангард	-10.8875
▁обробки	-10.8876
▁запрошен	-10.8876
▁отаман	-10.8876
▁чисельності	-10.8879
▁мислив	-10.8884
▁посилання	-10.8887
▁встановив	-10.8888
▁1984	-10.8888
▁правопис	-10.8894
ютерн	-10.8895
age	-10.8914
▁приймає	-10.8923
цтва	-10.8925
▁підприємницьк	-10.8929
▁закінчила	-10.8929
▁півкулі	-10.8929
▁угідь	-10.8929
▁змагань	-10.8929
▁аксіом	-10.8929
▁зустрічається	-10.8929
▁миколайович	-10.8929
▁прийом	-10.893
▁течій	-10.893
▁зручн	-10.8932
▁обійма	-10.8936
▁григорович	-10.8948
▁кваліфік	-10.8949
▁проводять	-10.8957
▁мезо	-10.8962
▁адвокат	-10.8983
▁аристократ	-10.8983
▁конституцією	-10.8983
▁налічувало	-10.8983
▁нервов	-10.8984
▁відкрили	-10.8989
північ	-10.899
▁скликання	-10.8991
▁керівництво	-10.9003
if	-10.9012
▁перевищу	-10.9025
▁диктатур	-10.9037
▁карантанія	-10.9037
▁переговори	-10.9037
▁смертність	-10.9037
▁способом	-10.9037
▁розвиваються	-10.9037
▁містечко	-10.9037
▁відбувалися	-10.9038
▁природа	-10.904
▁сімейн	-10.9045
▁наразі	-10.9048
▁ядро	-10.9057
▁збережен	-10.9066
▁соціолог	-10.9071
▁1909	-10.908
район	-10.908
▁дорогоцінн	-10.9092
▁захворювання	-10.9092
▁розпочалося	-10.9092
▁керівництва	-10.9092
▁консерватор	-10.9092
▁скасування	-10.9092
▁губернськ	-10.9093
▁1902	-10.9101
▁єдиного	-10.9105
▁викид	-10.9131
краєзнавч	-10.9147
▁сінгапур	-10.9147
▁розумінні	-10.9147
▁спілкування	-10.9148
▁наслідки	-10.9148
▁зросла	-10.915
▁галлії	-10.9151
▁забруднення	-10.9158
зареєстрован	-10.9182
▁поході	-10.9193
▁фестиваль	-10.9202
▁призначає	-10.9202
цтві	-10.9203
▁зрештою	-10.9203
▁аланів	-10.9205
▁декарт	-10.9205
▁африка	-10.921
▁тісн	-10.9218
▁коливання	-10.9219
літературн	-10.9224
▁розширен	-10.9225
▁україно	-10.9239
відповідальність	-10.925
▁експерт	-10.9255
▁молюсків	-10.9258
▁нібито	-10.9258
▁річчю	-10.9258
▁оцінки	-10.9258
▁розробив	-10.9258
▁чиновник	-10.9259
▁звідки	-10.9263
▁твердження	-10.9264
▁тепла	-10.9268
▁маляр	-10.9269
вісник	-10.9291
монгольськ	-10.9304
▁згадує	-10.9311
▁посполита	-10.9314
▁продукція	-10.9314
▁співпраці	-10.9314
▁двадцят	-10.9314
▁індіанці	-10.9314
▁php	-10.9314
▁чагарник	-10.9314
соціалістичної	-10.9314
▁трансформ	-10.9316
▁згадан	-10.932
▁1977	-10.9328
▁празі	-10.9329
▁закінчен	-10.9346
вертається	-10.935
▁потрапля	-10.9361
▁аргонавт	-10.937
▁використовуючи	-10.937
▁повноважень	-10.937
▁володіє	-10.937
▁незаконн	-10.937
▁частіше	-10.937
▁стратегічн	-10.9372
▁економічний	-10.9376
▁замок	-10.9381
▁мусон	-10.9382
▁партизанськ	-10.9408
▁зворотн	-10.942
▁сукупн	-10.9426
▁припущення	-10.9426
▁сучасному	-10.9426
▁вулицю	-10.9426
▁короткий	-10.9426
▁небезпек	-10.9426
▁рибальство	-10.9426
▁повернули	-10.9426
▁фортеці	-10.9426
▁гермес	-10.9427
▁залишав	-10.9427
▁1955	-10.9443
▁ввійшл	-10.9449
▁наземн	-10.9452
заможн	-10.9456
▁меншин	-10.9478
▁ольгерд	-10.9483
▁англійською	-10.9483
▁господарювання	-10.9483
▁оркестр	-10.9483
▁дівчат	-10.9483
▁служив	-10.9484
▁велич	-10.9486
▁вимагає	-10.9491
«	-10.9497
▁1987	-10.9498
▁1976	-10.9499
мадяр	-10.9499
▁заробітн	-10.9502
▁сестра	-10.9503
▁поставлен	-10.9536
▁херсонес	-10.9539
▁відносн	-10.9539
▁графік	-10.954
▁гривень	-10.954
▁проживають	-10.954
▁належали	-10.954
▁свідомості	-10.9541
▁підручник	-10.9542
▁місцевої	-10.9542
▁питом	-10.9544
▁ліквідації	-10.9547
▁республіку	-10.9548
▁посилення	-10.9549
1,3	-10.955
▁майбутньому	-10.9551
▁доступн	-10.9556
▁херсонськ	-10.9559
▁пройшл	-10.9582
▁династій	-10.9598
▁кладовищі	-10.9598
▁неподалік	-10.9598
▁обидві	-10.9598
▁функція	-10.9598
хірург	-10.9598
▁засідання	-10.9598
▁іспанські	-10.9598
▁індустріальн	-10.9598
єднати	-10.9598
▁пакистан	-10.9598
▁ширина	-10.9598
▁російським	-10.9598
▁еліпс	-10.9599
▁читання	-10.9599
▁англійський	-10.9601
▁суміш	-10.9612
▁розвивати	-10.9614
▁первісно	-10.9617
▁нахил	-10.964
▁королівстві	-10.9656
▁російську	-10.9656
▁теренах	-10.9656
▁хімічних	-10.9656
▁підкорили	-10.9656
▁єдиною	-10.9656
▁здібн	-10.9656
▁отримують	-10.9657
▁технічних	-10.9661
ступила	-10.9662
матеріал	-10.9663
▁опіку	-10.9664
народилися	-10.9666
▁ремонт	-10.9666
▁реалізован	-10.967
▁досліджен	-10.9677
▁відновив	-10.969
▁нагороди	-10.97
▁тектонічн	-10.9714
▁забезпечити	-10.9714
▁посполитою	-10.9714
▁трьома	-10.9714
▁фізичні	-10.9714
▁смертю	-10.9714
▁десятки	-10.9715
▁відходів	-10.9716
▁альберт	-10.9717
▁одружен	-10.9719
▁алківіад	-10.9772
▁законодавства	-10.9772
▁коливається	-10.9772
▁входила	-10.9773
▁хазарськ	-10.9773
▁змусил	-10.9773
▁наближен	-10.9773
▁невдал	-10.9774
▁круп	-10.9776
▁виключен	-10.9777
▁згадка	-10.9783
▁званий	-10.9788
▁втім	-10.9789
1,4	-10.9799
▁вирішен	-10.9804
гуцул	-10.9815
▁гуманітарн	-10.9831
▁омивається	-10.9831
▁тюрінг	-10.9831
▁вживання	-10.9831
▁десять	-10.9832
▁молодий	-10.9836
▁перетворила	-10.9844
▁іменник	-10.9849
явилося	-10.9861
визвол	-10.9866
▁болгарськ	-10.9868
індійськ	-10.9873
▁проходил	-10.988
▁мюнхен	-10.989
▁каспійського	-10.989
▁машинобудування	-10.989
▁містечку	-10.989
▁національну	-10.989
▁прикметник	-10.989
▁республіці	-10.989
▁асоціації	-10.989
▁біблії	-10.989
▁іспанської	-10.989
коцюбинськ	-10.989
▁присвоєн	-10.989
▁спостережень	-10.989
▁депозит	-10.989
▁угорщині	-10.989
▁пустелі	-10.989
▁популярність	-10.9892
▁вбивства	-10.9896
▁ринков	-10.9898
▁1903	-10.9901
дрібн	-10.9908
▁подільськ	-10.9913
революційн	-10.9929
▁новел	-10.9933
▁скандинав	-10.995
▁техніку	-10.995
▁більшовиків	-10.995
▁японія	-10.995
▁атрибут	-10.995
▁половина	-10.995
▁кропив	-10.995
націоналістичн	-10.995
▁розквіт	-10.995
▁сергія	-10.995
▁секретаріат	-10.995
металург	-10.995
▁виконував	-10.9952
▁еллін	-10.9952
▁зерна	-10.9956
▁племінн	-10.9959
▁весел	-10.9959
▁вузько	-10.9975
▁черев	-10.9986
▁чернігів	-11.0004
кореспондент	-11.001
▁аргумент	-11.001
▁випаровування	-11.001
▁виїхав	-11.001
▁етимологія	-11.001
▁училище	-11.001
▁прийняла	-11.001
▁визволення	-11.001
▁псевдонім	-11.001
▁демократії	-11.001
▁захопила	-11.001
▁підтримував	-11.001
▁хмельницький	-11.0011
▁річард	-11.0012
▁швидкістю	-11.0015
▁намагалися	-11.0015
▁писан	-11.0048
▁фрагмент	-11.007
▁константинополь	-11.007
▁мехіко	-11.007
▁оцінками	-11.007
▁рівненськ	-11.007
▁альфонс	-11.007
▁єдності	-11.007
▁гроші	-11.0071
▁сказав	-11.0071
▁спілку	-11.0072
▁харкова	-11.0075
▁залізниця	-11.0076
▁гетьманщини	-11.0076
▁поточн	-11.0078
ava	-11.0079
технолог	-11.0088
філологічн	-11.0088
▁вбивство	-11.0091
▁послідовник	-11.0094
▁оповід	-11.0096
мусив	-11.0104
знавець	-11.0116
▁особливі	-11.013
▁феодал	-11.013
▁відсутності	-11.013
▁ініціатор	-11.013
▁бригад	-11.0131
▁рюрик	-11.0131
стратег	-11.0131
▁залишити	-11.0131
▁улюблен	-11.0131
штейн	-11.0133
▁медіа	-11.0134
ver	-11.0137
▁постійні	-11.0137
дзвін	-11.014
▁сторож	-11.0146
▁вовк	-11.0154
▁мешканці	-11.0154
▁васал	-11.0163
▁албанії	-11.0191
▁експедиції	-11.0191
▁пояснюється	-11.0191
▁хорватів	-11.0191
▁моравія	-11.0191
блакитн	-11.0192
▁препарат	-11.0192
▁зрозуміл	-11.0192
▁політиці	-11.0192
▁веснян	-11.0192
▁сестри	-11.0192
▁привел	-11.0194
▁прилегл	-11.0194
▁оборонн	-11.02
▁цілісн	-11.0201
▁польські	-11.0234
партійн	-11.0242
▁побудовано	-11.0245
▁загибелі	-11.0253
▁майданчик	-11.0253
▁бургунд	-11.0253
▁землетрус	-11.0253
▁англійської	-11.0253
▁кавалер	-11.0253
▁італію	-11.0253
▁друкар	-11.0253
▁враження	-11.0254
▁подвійн	-11.0254
▁європейським	-11.0254
▁чисельністю	-11.0254
▁регент	-11.0254
▁націоналізм	-11.0258
ньйон	-11.0261
▁відповідальн	-11.0289
▁дипломат	-11.0294
▁глух	-11.0298
засновник	-11.03
▁мільйона	-11.0303
▁джеймс	-11.0315
▁діапазон	-11.0315
▁саудівськ	-11.0315
▁комісія	-11.0315
▁канаді	-11.0316
▁екран	-11.0322
▁оформлен	-11.0322
▁грецького	-11.0323
▁трактат	-11.0323
▁висловлюва	-11.0326
▁вокзал	-11.0329
ходячи	-11.0331
тивних	-11.0338
▁онук	-11.034
▁плям	-11.0357
являють	-11.0367
альпійськ	-11.0367
▁продовжує	-11.0374
▁безперервн	-11.0377
▁відповідають	-11.0377
▁німецьким	-11.0377
▁ступенів	-11.0377
▁церквою	-11.0377
▁кольору	-11.0377
▁передусім	-11.0377
▁відноситься	-11.0377
▁адольф	-11.0377
▁аматорськ	-11.0377
▁виробляє	-11.0377
▁автоматичн	-11.0377
▁оповідань	-11.0378
▁біограф	-11.0378
▁стилю	-11.0381
▁президентськ	-11.0433
буржуазн	-11.0439
▁завідувач	-11.0439
▁французькі	-11.0439
▁тувалу	-11.0439
▁простір	-11.044
▁діалог	-11.044
▁локальн	-11.0442
▁колір	-11.0445
▁надмірн	-11.0447
▁говорить	-11.045
▁музику	-11.0452
▁утворюва	-11.0461
▁надано	-11.0462
▁завершив	-11.0464
1,6	-11.0492
▁договором	-11.0502
▁столицю	-11.0502
▁статистики	-11.0502
▁областю	-11.0502
емігрант	-11.0502
▁кисню	-11.0502
▁скрип	-11.0503
▁робити	-11.0508
▁детальн	-11.0512
▁лінійн	-11.0536
домінік	-11.0542
▁дотримува	-11.0548
▁донбас	-11.0559
▁заарештований	-11.0565
▁новостворен	-11.0565
▁покриттям	-11.0565
▁цивілізації	-11.0565
▁значень	-11.0565
▁динамічн	-11.0565
▁зменшується	-11.0565
▁примусов	-11.0565
▁оперативн	-11.0566
▁придніпров	-11.0566
▁приріст	-11.0566
▁рекорд	-11.0566
хлібороб	-11.0567
▁волинської	-11.0568
▁розробка	-11.0568
▁посух	-11.057
▁столітн	-11.0576
пласт	-11.0601
еквівалент	-11.0629
▁правобережжя	-11.0629
▁трагедії	-11.0629
▁вулиць	-11.0629
▁формозі	-11.0629
▁побачити	-11.063
▁радянським	-11.063
▁лебед	-11.063
▁проводити	-11.0631
▁тижні	-11.0632
▁здійснювати	-11.0632
▁крейд	-11.0633
▁систематичн	-11.0637
юваль	-11.0649
▁продовжив	-11.065
▁абстрактн	-11.0693
▁спеціаліст	-11.0693
▁централізован	-11.0693
католицькі	-11.0693
▁відіграє	-11.0693
▁мазепи	-11.0693
▁стверджував	-11.0693
▁туреччини	-11.0693
▁споріднен	-11.0693
▁розпочали	-11.0693
▁партію	-11.0693
▁залишалас	-11.0693
прекрасн	-11.0693
▁теорем	-11.0693
▁фінансування	-11.0694
▁вторинн	-11.0694
▁згадував	-11.0696
▁принесл	-11.0703
0,3	-11.0703
▁талант	-11.0721
0,2	-11.0737
▁необхідні	-11.0756
▁камакура	-11.0758
▁кафедри	-11.0758
▁познайомився	-11.0758
▁нижній	-11.0758
▁обираються	-11.0758
▁лізинг	-11.0758
▁кільком	-11.0758
▁існувати	-11.0758
▁омелян	-11.0758
▁переміг	-11.0758
9—19	-11.0783
▁популярним	-11.0783
▁орбіта	-11.0791
▁відбив	-11.0794
казати	-11.0814
бирає	-11.0821
▁автомобілі	-11.0823
▁антрополог	-11.0823
▁кінематограф	-11.0823
▁навколишньо	-11.0823
▁позицій	-11.0823
▁зайняв	-11.0823
▁шост	-11.0829
▁гомер	-11.0832
ембрі	-11.0837
1,7	-11.0873
html	-11.0888
▁департамент	-11.0888
▁звернувся	-11.0888
▁костомаров	-11.0888
▁співвідношення	-11.0888
▁знайшов	-11.0888
▁корабель	-11.0888
▁вирішальн	-11.0888
▁гнат	-11.0894
▁афро	-11.09
▁ідеологічн	-11.0913
▁придатн	-11.0923
особливо	-11.0952
▁залишаються	-11.0954
▁співдружності	-11.0954
▁рудольф	-11.0954
▁мешкає	-11.0954
▁дніпру	-11.0954
▁існуюч	-11.0954
▁пройшов	-11.0954
▁македонськ	-11.0954
▁утворилася	-11.0954
розвинен	-11.0954
▁подвиг	-11.0954
▁слабо	-11.0954
▁єдиної	-11.0955
▁пилип	-11.0958
пісковик	-11.096
▁томас	-11.0967
▁казанськ	-11.0971
▁бомб	-11.0978
▁зустрів	-11.0984
▁міфологічн	-11.0988
▁стосунк	-11.0993
сподарської	-11.1002
▁випущен	-11.102
▁невисок	-11.102
▁околицях	-11.102
▁пріоритет	-11.102
▁руйнування	-11.102
▁чернігові	-11.102
▁закарпатті	-11.102
▁збільшується	-11.102
▁доктрин	-11.102
▁текстильн	-11.102
▁загони	-11.1026
запорож	-11.1027
▁характеризу	-11.1039
▁графічн	-11.1051
▁гідн	-11.1059
▁перебудов	-11.1085
▁акціонерн	-11.1087
▁архієпископ	-11.1087
▁відокремилися	-11.1087
▁суверенітет	-11.1087
псевдо	-11.1087
▁вирощують	-11.1087
▁проживало	-11.1087
▁вивчав	-11.1087
▁правобережн	-11.1088
▁дедалі	-11.1088
варіант	-11.1089
▁приводу	-11.109
▁людям	-11.109
▁сторона	-11.1096
▁противник	-11.1099
1,8	-11.1114
зовніш	-11.1119
▁грошей	-11.1154
▁поведінки	-11.1154
▁астероїд	-11.1154
▁напружен	-11.1154
▁можливостей	-11.1154
▁оракул	-11.1154
▁особливістю	-11.1154
▁незмінн	-11.1156
▁експертиз	-11.1158
▁направлен	-11.1163
▁почало	-11.1165
провідн	-11.1185
скіф	-11.1195
патріот	-11.1221
▁тоталітарн	-11.1221
▁аудитор	-11.1221
▁обличчя	-11.1221
оподібні	-11.1221
▁надходження	-11.1221
▁швидше	-11.1221
▁приналежн	-11.1221
▁продовжували	-11.1242
▁повторн	-11.1248
▁товарн	-11.1249
5,5	-11.126
▁данськ	-11.1282
▁заняття	-11.1289
▁хімічна	-11.1289
▁джордж	-11.1289
▁ліжок	-11.1289
▁загальну	-11.1289
▁проходив	-11.129
▁густота	-11.129
▁займала	-11.129
▁будови	-11.129
▁коралов	-11.1293
▁осадов	-11.1293
▁канадськ	-11.1293
▁неповн	-11.1306
▁документальн	-11.1308
▁сайт	-11.1309
▁надійн	-11.1323
тверджує	-11.1346
▁зацікавлен	-11.1358
▁феодосія	-11.1358
▁дільниці	-11.1358
▁розчленован	-11.1358
слобод	-11.1358
▁попередник	-11.1361
▁модифік	-11.1365
▁повстанськ	-11.1366
▁протистояння	-11.1368
▁вважала	-11.1385
▁забудов	-11.139
▁нормальн	-11.1422
▁нерівномірн	-11.1427
▁узагальнен	-11.1427
▁пасовищ	-11.1427
▁наслідком	-11.1427
▁звичаї	-11.1427
▁космос	-11.1427
адовго	-11.1432
супереч	-11.1435
▁перегляд	-11.1439
▁введено	-11.1441
▁побачив	-11.1447
▁очікуван	-11.1479
7,5	-11.1493
▁декоративн	-11.1496
▁маратха	-11.1496
▁автономії	-11.1496
▁французькою	-11.1496
▁ізраїль	-11.1496
кентавр	-11.1496
▁відбувалося	-11.1496
▁лекції	-11.1496
▁галактик	-11.1497
▁денікін	-11.1497
▁форум	-11.1497
▁мобільн	-11.1497
▁ольга	-11.1497
▁політолог	-11.1498
▁кореї	-11.1498
▁дослідницьк	-11.1498
▁користування	-11.1499
▁сухий	-11.1499
▁остаточн	-11.15
▁олійн	-11.1507
▁охоло	-11.1524
▁щастя	-11.1566
▁спекотн	-11.1566
▁сузір	-11.1566
▁переїхал	-11.1566
▁нацистськ	-11.1566
▁геометрії	-11.1566
▁станцію	-11.1566
▁спершу	-11.1567
▁відмовля	-11.1567
▁дитини	-11.1567
▁відставку	-11.1567
▁граматик	-11.1567
▁лібералізм	-11.1567
▁участю	-11.1568
▁опору	-11.1568
▁шторм	-11.1571
▁невідомо	-11.1571
▁хиж	-11.1575
▁крайньо	-11.1612
0,1	-11.1623
▁монументальн	-11.1637
▁драгоманов	-11.1637
▁конституцію	-11.1637
▁німецька	-11.1637
▁юдаїзм	-11.1637
▁баварія	-11.1637
▁ростислав	-11.1637
▁роблять	-11.1637
▁імовірно	-11.1637
▁таблиці	-11.1637
▁особу	-11.1637
подібним	-11.1638
▁незалежних	-11.1639
▁частку	-11.1639
▁потяг	-11.1644
історія	-11.1651
0,4	-11.1651
лягає	-11.1671
дмитр	-11.1678
сибірськ	-11.1684
▁херсон	-11.1686
клітинн	-11.1696
▁називає	-11.1704
▁мексиканськ	-11.1707
▁бангладеш	-11.1707
▁галузях	-11.1707
▁еволюції	-11.1707
▁консервативн	-11.1707
▁основоположн	-11.1707
▁інтелігенції	-11.1707
▁ботанічні	-11.1707
рекреаційн	-11.1708
▁святилищ	-11.1708
▁збірку	-11.1709
▁характеризують	-11.1739
постач	-11.1742
▁байкал	-11.1752
▁диплом	-11.1753
▁поділяють	-11.1767
▁нідерландськ	-11.1779
▁концепція	-11.1779
▁федеративн	-11.1779
▁функціонування	-11.1779
▁розпорядження	-11.1779
▁функцію	-11.1779
▁бразильськ	-11.1779
▁іллінойс	-11.1779
▁кімнат	-11.1779
▁вчитель	-11.178
▁молока	-11.178
▁єдина	-11.1783
▁утримує	-11.1789
▁відзнак	-11.18
▁пропонує	-11.1805
▁румунськ	-11.1807
▁проміжн	-11.1813
▁пропаганди	-11.1832
0,8	-11.1838
▁дозвіл	-11.1845
▁астрономічн	-11.1848
▁дієприкметник	-11.1851
▁засіданні	-11.1851
▁виготовля	-11.1851
▁екосистем	-11.1851
▁кінотеатр	-11.1851
▁завойован	-11.1851
▁людвіг	-11.1851
▁металургійн	-11.1851
небудь	-11.1851
▁позиція	-11.1851
сприяв	-11.1851
▁перебуваюч	-11.1851
▁улуси	-11.1852
▁урбан	-11.1852
▁втілення	-11.1853
▁споживач	-11.1853
▁комнін	-11.1855
▁повторю	-11.1872
▁лучн	-11.191
▁безкоштовн	-11.1923
▁тринідад	-11.1923
▁спирт	-11.1923
▁класифікації	-11.1924
▁шкоди	-11.1925
▁помічник	-11.1926
виконком	-11.1929
▁чорт	-11.1953
▁підпорядкован	-11.1954
▁залишили	-11.1984
▁алфавіт	-11.1996
▁училища	-11.1996
▁біблійн	-11.1996
▁висновку	-11.1996
▁ділянок	-11.1996
▁швеція	-11.1996
▁мабуть	-11.1996
▁половину	-11.1996
▁стрімк	-11.1996
▁схвален	-11.1997
▁ніхто	-11.1997
▁добровільн	-11.1997
▁трагічн	-11.1997
▁геометричн	-11.1997
▁правителі	-11.2008
▁болота	-11.2008
▁візит	-11.2012
▁закордонн	-11.2024
▁горизонтальн	-11.2048
▁відгук	-11.2056
▁всесвітн	-11.2067
▁способу	-11.207
▁обумовлен	-11.207
▁довженка	-11.207
▁грузія	-11.207
▁загальне	-11.207
▁леонтович	-11.207
▁особі	-11.2071
▁франциск	-11.2071
▁значне	-11.2072
▁книжков	-11.2075
▁загальноосвітн	-11.2075
▁прохолодн	-11.2078
▁аркад	-11.2088
▁вихован	-11.2107
печерськ	-11.2111
орієнтован	-11.2112
0,7	-11.2126
▁альбрехт	-11.2144
▁несподіван	-11.2144
▁позицію	-11.2144
▁почуття	-11.2144
жовтень	-11.2144
▁значущ	-11.2144
▁роботою	-11.2144
▁неправильн	-11.2144
▁випадок	-11.2144
▁марокко	-11.2144
▁батьки	-11.2144
▁орбіти	-11.2144
▁публікації	-11.2144
▁поглина	-11.2144
▁звичайний	-11.2145
▁елементарн	-11.2147
▁оптичн	-11.2168
абсолют	-11.2173
▁спалах	-11.2203
▁видобутку	-11.2219
▁фінляндія	-11.2219
▁рекомендаці	-11.2219
▁климент	-11.2219
▁накопичен	-11.2219
▁граматичн	-11.2219
▁іншому	-11.2219
▁присвятив	-11.2219
▁студії	-11.2219
▁бучач	-11.222
▁теодор	-11.2221
▁очолюван	-11.2224
▁доведен	-11.2232
▁скіфськ	-11.2247
▁сомалі	-11.2254
розмов	-11.226
єнко	-11.2279
єдино	-11.2286
▁мешкають	-11.2294
шевченківськ	-11.2294
▁катерини	-11.2294
канцеляр	-11.2294
▁нинішньо	-11.2294
▁легіон	-11.2294
▁чехії	-11.2294
▁ураган	-11.2295
▁вказан	-11.2298
▁фізіолог	-11.2302
▁слугува	-11.2306
гумус	-11.2312
▁осип	-11.2317
будинк	-11.2324
могилянськ	-11.2361
▁бахмані	-11.2369
▁координат	-11.2369
▁поміщик	-11.2369
▁сарацини	-11.2369
▁прийняли	-11.2369
▁постачання	-11.237
▁смілив	-11.237
▁гоголя	-11.2371
▁господ	-11.2371
▁досконал	-11.2373
▁формуванн	-11.2375
▁голуб	-11.2378
▁вилучен	-11.2389
▁склало	-11.2391
1,1	-11.24
▁відправлен	-11.2405
▁князі	-11.2445
▁втручання	-11.2446
▁окружн	-11.2446
▁піфагор	-11.2446
▁гесіод	-11.2446
▁потенційн	-11.2446
▁створювати	-11.2446
▁інакше	-11.2446
▁особливостей	-11.2446
▁гепідів	-11.2446
▁уникнути	-11.2446
▁нормативн	-11.2446
▁армією	-11.2446
▁марксизм	-11.2446
▁книжки	-11.2447
сучасне	-11.245
▁польов	-11.2455
▁роздільн	-11.2462
морфологічн	-11.2479
акушерськ	-11.2523
▁1932—1933	-11.2523
▁microsoft	-11.2523
▁адміністрація	-11.2523
▁сексуальн	-11.2523
▁водоспад	-11.2523
▁прибуток	-11.2523
▁фантас	-11.2523
▁вимушен	-11.2523
▁зайняли	-11.2523
▁педру	-11.2523
▁багатий	-11.2523
▁зразок	-11.2524
кобзар	-11.2524
▁охоплен	-11.2526
▁переведен	-11.2532
ect	-11.2543
▁інвестиційн	-11.2552
▁британією	-11.26
▁дитинство	-11.26
▁енциклопедії	-11.26
▁корабля	-11.26
▁письма	-11.26
▁кампанії	-11.26
▁сегмент	-11.26
▁равенна	-11.26
▁загибель	-11.26
▁історична	-11.26
▁сіверян	-11.26
▁літургі	-11.26
▁номінальн	-11.26
▁встановити	-11.2601
▁одеса	-11.2601
▁синонім	-11.2601
етнографічн	-11.2607
▁продовжувала	-11.2625
являти	-11.2631
файл	-11.2638
6,5	-11.2648
▁богородиці	-11.2678
▁мандрівник	-11.2678
▁напередодні	-11.2678
▁німеччиною	-11.2678
▁фестивалі	-11.2678
▁спричиня	-11.2678
▁хорватія	-11.2678
▁тобаго	-11.2679
▁вказують	-11.2679
поверхов	-11.2679
▁квартал	-11.2679
▁яйця	-11.268
▁вивезен	-11.2681
▁постійним	-11.2682
▁пляж	-11.2682
▁символічн	-11.2682
▁комунальн	-11.269
▁стовп	-11.269
біографічн	-11.27
просвіти	-11.2725
магістр	-11.2729
▁акваторія	-11.2757
▁катеринославськ	-11.2757
▁опозиційн	-11.2757
▁тиждень	-11.2757
▁фінляндії	-11.2757
▁володіють	-11.2757
▁мазепа	-11.2757
▁ростуть	-11.2757
▁магазин	-11.2757
▁тлумачення	-11.2757
подібний	-11.2757
▁втримують	-11.2758
▁ліричн	-11.2759
▁земськ	-11.2778
вільгельм	-11.2796
допомог	-11.2808
єдину	-11.2816
виховн	-11.2821
▁диригент	-11.2836
▁опозиції	-11.2836
▁особливу	-11.2836
▁соняшник	-11.2836
▁порівняльн	-11.2836
▁інвестиції	-11.2836
▁ситуацію	-11.2837
▁більшовики	-11.2837
▁суверенн	-11.2837
▁визначил	-11.2861
сумісн	-11.2871
▁панівн	-11.2882
▁насичен	-11.2886
▁недостатньо	-11.2916
▁чжурчженів	-11.2916
▁вживається	-11.2916
▁засобами	-11.2916
▁протестантизм	-11.2917
▁княгин	-11.2917
▁епізод	-11.2917
▁психічн	-11.2917
▁допомогти	-11.2917
▁популярності	-11.2917
▁мозку	-11.2917
▁встановили	-11.2919
▁міфічн	-11.292
спільн	-11.2924
▁польським	-11.2931
▁спалахнул	-11.2933
▁розбудов	-11.2946
▁ідеальн	-11.2948
паперов	-11.2973
командувач	-11.2986
▁психо	-11.2987
▁амплітуд	-11.2997
▁подружжя	-11.2997
▁угкц	-11.2997
▁утворюючи	-11.2997
▁федерація	-11.2997
▁козацтва	-11.2997
▁вчителя	-11.2997
▁засадах	-11.2998
сухопутн	-11.2998
▁старовинн	-11.2999
санітарн	-11.3
▁зробила	-11.3002
індустріа	-11.3007
▁перетворили	-11.3009
▁акваторії	-11.3078
▁гвінеї	-11.3078
▁кількісн	-11.3078
▁тиверців	-11.3078
▁вирішили	-11.3078
машинобудівн	-11.3079
▁сучасним	-11.3079
▁арабських	-11.3079
▁королеви	-11.3079
▁канаду	-11.308
▁сталінськ	-11.3081
▁прикрас	-11.3082
0,6	-11.3082
малорос	-11.3087
▁тодішні	-11.3095
психологічн	-11.3111
драматичн	-11.3125
китайськ	-11.3128
будівн	-11.3128
8,5	-11.3129
відповідальністю	-11.3133
▁нерівн	-11.3143
михайлівськ	-11.3151
▁зберегти	-11.316
▁максиміліан	-11.316
▁раціональн	-11.316
▁ссавців	-11.316
▁дозволив	-11.316
▁делегації	-11.316
▁чигирин	-11.316
▁окупаційн	-11.316
▁покликан	-11.316
▁бурхлив	-11.316
канцлер	-11.3161
▁випадки	-11.3161
▁пустеля	-11.3161
▁чергою	-11.3161
▁поезій	-11.3161
▁технологія	-11.3161
▁будівля	-11.3161
▁реактор	-11.3161
▁сформували	-11.3165
▁актуальн	-11.3165
▁собак	-11.3171
▁похорон	-11.3173
▁колісн	-11.3193
континентальн	-11.3209
▁спрямува	-11.3229
▁займав	-11.3231
▁квадратн	-11.3243
оздоровч	-11.3243
▁батальйон	-11.3243
▁композиції	-11.3243
▁леопольд	-11.3243
▁підготовку	-11.3243
▁прогресивн	-11.3243
▁примірників	-11.3243
▁продукцію	-11.3243
▁південну	-11.3243
▁дядьк	-11.3243
▁нквс	-11.3243
▁охороня	-11.3243
▁абдул	-11.3243
▁висипн	-11.3243
▁утримання	-11.3244
▁мобіліз	-11.3244
▁створила	-11.3245
хвойн	-11.3245
▁заколот	-11.3265
▁користувалис	-11.3266
▁партизан	-11.327
олександр	-11.3294
енциклопедія	-11.3326
▁супротивник	-11.3326
▁буковини	-11.3326
▁змогли	-11.3326
▁перетворюється	-11.3326
▁іноземці	-11.3326
▁дітьми	-11.3326
▁невдач	-11.3327
▁входило	-11.3327
▁вживають	-11.3329
▁сформувала	-11.333
▁пишн	-11.333
▁виконували	-11.3331
▁іспит	-11.3342
xvii	-11.3377
▁альморавіди	-11.341
▁афродіти	-11.341
▁зазначити	-11.341
▁запоріжжя	-11.341
▁талановит	-11.341
▁дебют	-11.341
▁нерухом	-11.341
▁слугує	-11.341
▁фізична	-11.341
▁устаткування	-11.341
діагност	-11.341
▁проходження	-11.341
▁взяла	-11.3411
▁припинила	-11.3411
▁історією	-11.3411
▁речей	-11.3411
▁нульов	-11.3412
▁євреї	-11.3458
▁українця	-11.3475
пророцтв	-11.3476
▁іранськ	-11.3486
кібернетик	-11.3495
▁айдахо	-11.3495
▁бельгії	-11.3495
▁гімназію	-11.3495
▁жовтнев	-11.3495
▁кобилянськ	-11.3495
▁резолюці	-11.3495
▁шашкевич	-11.3495
▁стрільців	-11.3495
▁плоскогір	-11.3495
▁волинян	-11.3495
▁реакції	-11.3495
національне	-11.3495
▁хімічні	-11.3495
▁аварії	-11.3496
▁дракон	-11.3496
▁єрусалимськ	-11.3504
зводять	-11.3506
▁страйк	-11.3512
підійма	-11.3523
сподарського	-11.3546
▁приміськ	-11.3568
▁перерва	-11.358
отримало	-11.358
▁(1923—2020)	-11.3581
▁нескінченн	-11.3581
▁дефіцит	-11.3581
▁виробляють	-11.3581
▁венеційськ	-11.3581
▁розпочина	-11.3581
▁нагадує	-11.3581
▁одеси	-11.3581
▁стороні	-11.3581
▁питн	-11.3611
▁сербськ	-11.3656
world	-11.3667
▁асамблеї	-11.3667
▁довкілля	-11.3667
▁дулібів	-11.3667
▁зіткнення	-11.3667
▁поверхнею	-11.3667
▁респу́бліка	-11.3667
▁сприяють	-11.3667
▁дозволен	-11.3667
▁придушення	-11.3667
▁репресій	-11.3667
▁позначається	-11.3667
▁гефест	-11.3667
конструктор	-11.3668
▁кушанськ	-11.3668
▁патріотичн	-11.3668
▁1481)	-11.3669
▁підозр	-11.3671
биває	-11.3673
▁схильн	-11.3679
7,8	-11.3709
геометр	-11.3716
▁оригінал	-11.3752
▁шкідлив	-11.3754
▁знаходився	-11.3754
▁особливе	-11.3754
▁особливий	-11.3754
▁флорентійськ	-11.3754
▁заболочен	-11.3754
▁аравійський	-11.3754
▁церковнослов	-11.3754
▁миколою	-11.3754
▁індіанськ	-11.3754
▁вессекс	-11.3754
▁довженко	-11.3754
▁литві	-11.3754
▁йдуть	-11.3754
▁секунд	-11.3754
▁делегат	-11.3755
▁клінічн	-11.3756
▁андерс	-11.3757
▁цегельн	-11.3763
▁прихильн	-11.3766
біосфер	-11.377
поміч	-11.3783
▁атлант	-11.3813
пинився	-11.3819
подільської	-11.3835
лейтенант	-11.3842
▁збирання	-11.3842
▁одіссей	-11.3842
▁інтерфейс	-11.3842
▁варшаві	-11.3842
▁призначив	-11.3842
▁молдови	-11.3842
▁повідомив	-11.3842
▁зволоження	-11.3842
▁диктатор	-11.3842
▁уродженц	-11.3842
▁давнину	-11.3842
▁варшавськ	-11.3842
▁загрожу	-11.3842
▁кожний	-11.3842
▁холм	-11.3843
▁авіаційн	-11.3847
▁іспанці	-11.3847
▁видобува	-11.3856
▁корейськ	-11.3858
▁баварськ	-11.3887
▁виготовлен	-11.3891
▁єрусалим	-11.3921
ступити	-11.3924
▁претендент	-11.393
▁безробіття	-11.393
▁ефіопії	-11.393
▁координаці	-11.393
▁пропозицію	-11.393
▁телевізійн	-11.393
▁укрупнен	-11.393
▁привілеї	-11.393
▁тангутів	-11.393
▁місіонер	-11.393
▁невеличк	-11.393
▁кпрс	-11.393
▁прибутку	-11.393
▁підтримав	-11.393
▁патріархату	-11.393
▁правляч	-11.3931
▁міщан	-11.3931
▁негайно	-11.3944
оловнокомандувач	-11.3945
▁допомогл	-11.3959
паралел	-11.4006
▁говорять	-11.4019
▁екватора	-11.4019
▁найпростіш	-11.4019
▁підприємці	-11.4019
▁білоцерківськ	-11.4019
▁дозволу	-11.4019
▁друзів	-11.4019
▁кругл	-11.4019
▁богинею	-11.4019
▁зазначає	-11.4019
▁зважаючи	-11.4019
▁обробля	-11.402
▁албанськ	-11.4021
священ	-11.4062
▁вигідн	-11.4086
▁альмохади	-11.4109
▁брацлав	-11.4109
▁будівництві	-11.4109
▁мальовнич	-11.4109
▁свердловин	-11.4109
▁труднощі	-11.4109
▁щонайменше	-11.4109
▁реакція	-11.4109
знавство	-11.4109
▁постраждал	-11.4109
▁провінція	-11.4109
▁стосуються	-11.4109
▁новоросійськ	-11.411
▁освічен	-11.411
подібна	-11.411
▁джибуті	-11.411
▁нелегальн	-11.4111
іліад	-11.4127
▁приголосн	-11.4137
▁микит	-11.4138
▁потоцьк	-11.414
▁відбудов	-11.4169
використовувався	-11.4181
▁докладн	-11.4189
▁кишк	-11.4196
▁антіохійськ	-11.42
▁вишневецьк	-11.42
▁продовольч	-11.42
революціонер	-11.42
▁візантією	-11.42
▁католицизм	-11.42
▁норвегія	-11.42
▁єпархії	-11.42
▁навчається	-11.42
▁висновок	-11.42
▁codi	-11.42
▁тодішньо	-11.4201
▁грузинськ	-11.4201
▁персональн	-11.4204
▁обстріл	-11.4211
▁використовував	-11.422
пролетар	-11.423
▁агамемнон	-11.4292
▁вацлав	-11.4292
▁лівобережжя	-11.4292
▁обговорення	-11.4292
▁особливим	-11.4292
▁пропозиції	-11.4292
▁радіоактивн	-11.4292
▁французьких	-11.4292
▁політичне	-11.4292
▁інформацією	-11.4292
▁конфуці	-11.4292
▁уйгурськ	-11.4292
▁приваблю	-11.4292
пошкоджен	-11.4293
▁фундамент	-11.4295
кладають	-11.4329
▁прагне	-11.4342
▁наполяга	-11.4346
відповідальності	-11.4375
▁омеядськ	-11.4385
▁благочестив	-11.4385
▁вдосконален	-11.4385
▁дисертацію	-11.4385
▁лабораторії	-11.4385
▁майбутнє	-11.4385
▁меровінгів	-11.4385
▁муніципалітет	-11.4385
▁спадкоємця	-11.4385
▁теоретик	-11.4385
▁моделювання	-11.4385
▁коаліції	-11.4385
▁представницьк	-11.4385
▁дизайн	-11.4385
▁землеробство	-11.4385
▁едвард	-11.4385
▁скасовано	-11.4385
▁підтримувати	-11.4385
▁вітовт	-11.4386
▁щир	-11.4386
лаврент	-11.4406
математичн	-11.4466
▁протистоя	-11.4469
▁переговорів	-11.4478
▁ррфср	-11.4478
▁співтовариств	-11.4478
▁тенденції	-11.4478
▁училищі	-11.4478
▁європейцями	-11.4478
▁більшовиками	-11.4478
▁найдовш	-11.4478
▁нейтральн	-11.4478
▁спостерігати	-11.4478
▁розгалужен	-11.4478
▁французьку	-11.4478
▁остготів	-11.4478
▁проголосили	-11.4478
▁вийшло	-11.4478
▁насадження	-11.4478
▁підтримали	-11.4478
▁нестійк	-11.4478
▁острозьк	-11.4479
▁алчевськ	-11.4479
▁стамбул	-11.448
▁легендарн	-11.4481
▁специфіка	-11.4486
▁невдоволен	-11.4572
▁дитинства	-11.4572
▁корупції	-11.4572
▁магдебурзьк	-11.4572
▁торгівлю	-11.4572
▁тридцяти	-11.4572
▁шептицьк	-11.4572
▁естонії	-11.4572
▁спрощен	-11.4572
▁процвіта	-11.4573
▁втрачає	-11.4573
▁третини	-11.4573
▁корпоративн	-11.4573
▁унітарн	-11.4574
свіч	-11.4581
=105	-11.4581
▁банкнот	-11.4583
▁заповнен	-11.4598
▁переносн	-11.4601
▁незвичайн	-11.4613
▁чарівн	-11.462
подільського	-11.4637
▁чисельн	-11.466
охоронн	-11.4664
▁дніпровсько	-11.4666
▁візантія	-11.4668
▁деревообробн	-11.4668
▁експедиція	-11.4668
▁експлуатацію	-11.4668
▁повсякденн	-11.4668
▁тенденція	-11.4668
▁злиття	-11.4668
▁ознайом	-11.4668
▁помилков	-11.4668
▁михаїл	-11.4668
▁окраїн	-11.4668
▁асоціація	-11.4668
▁змінюються	-11.4668
бібліограф	-11.4668
▁терористичн	-11.4669
▁покровськ	-11.4669
чутлив	-11.467
▁молодіжн	-11.4678
▁оновлен	-11.4717
філософ	-11.4756
▁водопостачання	-11.4764
▁стверджують	-11.4764
▁угіддя	-11.4764
▁єлизавета	-11.4764
▁баскетбол	-11.4764
▁досліджував	-11.4764
▁наближа	-11.4764
▁реалістичн	-11.4764
▁конструкції	-11.4764
▁вважалося	-11.4764
▁мехмед	-11.4764
▁соціальний	-11.4764
▁суцільн	-11.4764
перетворився	-11.4766
▁ідентичн	-11.4767
▁страшн	-11.4786
▁лінгвіст	-11.4805
єретик	-11.4816
▁фінськ	-11.4845
▁зберегли	-11.4848
переважно	-11.4856
▁індивід	-11.486
▁витягнут	-11.4861
▁нестабільн	-11.4861
▁апокриф	-11.4861
▁гектарів	-11.4861
▁гравітаційн	-11.4861
▁завойовник	-11.4861
▁народжуваність	-11.4861
▁спричинен	-11.4861
▁міннесот	-11.4861
▁пшениця	-11.4861
▁окупація	-11.4861
▁пшениці	-11.4861
▁прискорен	-11.4861
тижнев	-11.4861
ступає	-11.4877
▁поліклінік	-11.4959
▁експлуатації	-11.4959
▁зеландія	-11.4959
▁кінорежисер	-11.4959
▁автономію	-11.4959
▁найсильніш	-11.4959
▁релігією	-11.4959
▁чорнобильськ	-11.4959
▁репресії	-11.4959
▁узгоджен	-11.4959
▁акцент	-11.4959
▁рішуч	-11.4959
▁невизначен	-11.496
▁вивчають	-11.496
землевласник	-11.496
▁голландськ	-11.496
<	-12.8772
