<unk>	0
<s>	0
</s>	0
,	-3.13022
.	-3.19737
▁	-4.18851
а	-4.33097
▁в	-4.34248
▁у	-4.4477
▁на	-4.53238
і	-4.63083
▁з	-4.64324
▁і	-4.65446
у	-4.71684
▁та	-4.87883
и	-4.89741
▁—	-4.90851
▁(	-5.0359
-	-5.09109
▁до	-5.14008
о	-5.29617
ий	-5.32474
▁«	-5.34003
их	-5.3402
'	-5.3741
▁за	-5.4063
ого	-5.48561
ів	-5.5739
#	-5.58323
▁що	-5.58489
▁#	-5.61677
е	-5.62142
▁року	-5.6672
ої	-5.72561
ом	-5.72877
="	-5.76813
"	-5.79534
▁від	-5.80113
:	-5.8082
▁не	-5.82766
м	-5.84431
▁а	-5.85957
)	-5.87264
»	-5.94664
в	-5.95277
).	-6.00025
х	-6.02706
▁є	-6.0831
),	-6.11114
ою	-6.12389
▁про	-6.14531
▁як	-6.15354
▁по	-6.19823
doc	-6.21127
>	-6.21265
я	-6.21507
им	-6.23404
ні	-6.24998
на	-6.29465
ами	-6.29532
▁для	-6.33514
▁й	-6.33678
▁під	-6.37482
й	-6.37801
▁його	-6.39937
ій	-6.43084
c	-6.50762
до	-6.52642
с	-6.52888
▁також	-6.53254
ка	-6.55336
ому	-6.55429
ї	-6.57647
▁при	-6.59377
▁"	-6.60343
/	-6.60815
ю	-6.61833
▁році	-6.64312
▁с	-6.66664
▁із	-6.67119
ся	-6.68276
ими	-6.68678
ми	-6.68724
▁р	-6.69676
▁було	-6.71604
ти	-6.72569
»,	-6.72767
▁м	-6.73386
;	-6.74813
ки	-6.75808
з	-6.76979
ах	-6.7968
▁був	-6.80919
▁він	-6.82321
▁україни	-6.82727
?	-6.84108
▁де	-6.84688
к	-6.85646
не	-6.88902
uk	-6.89141
org	-6.8988
://	-6.89926
ies	-6.89929
https	-6.90182
▁id	-6.90212
wiki	-6.90407
wikipedia	-6.90441
▁<	-6.90453
▁url	-6.90507
▁categor	-6.9052
urid	-6.90532
▁title	-6.90577
▁</	-6.90712
▁які	-6.93326
т	-6.9409
▁це	-6.94819
▁о	-6.95336
ла	-6.9614
▁або	-6.96549
▁після	-6.97614
▁%	-6.98337
▁об	-6.99244
».	-7.0009
них	-7.00461
▁час	-7.0106
го	-7.03091
▁1	-7.03697
ш	-7.0423
ли	-7.04928
▁населення	-7.06351
но	-7.07404
▁але	-7.08806
▁району	-7.09501
▁її	-7.09808
є	-7.1168
▁п	-7.11896
ня	-7.1359
▁були	-7.16209
ці	-7.17818
р	-7.20091
п	-7.2021
ну	-7.22359
▁території	-7.23176
▁була	-7.23397
▁ви	-7.23698
ку	-7.23875
▁між	-7.26932
ь	-7.27278
г	-7.28069
д	-7.28073
▁який	-7.28749
▁років	-7.29205
ний	-7.29304
б	-7.3254
—	-7.3287
▁період	-7.33332
▁е	-7.33937
▁пере	-7.34195
ч	-7.34335
▁має	-7.35069
▁через	-7.37501
▁2	-7.37553
та	-7.39261
▁області	-7.39365
ж	-7.41007
▁км	-7.41572
▁район	-7.42075
ок	-7.42347
▁їх	-7.43141
н	-7.43293
▁тому	-7.44989
▁роз	-7.4563
за	-7.4749
▁так	-7.47506
ни	-7.48771
ість	-7.4904
ного	-7.50191
ський	-7.51008
му	-7.51474
ія	-7.51986
ії	-7.52147
▁3	-7.52596
▁ст	-7.5268
ло	-7.52794
▁17	-7.5319
▁імперії	-7.53618
ов	-7.53646
ля	-7.53882
ського	-7.5415
▁тис	-7.56664
лі	-7.56743
▁15	-7.57493
▁вони	-7.59127
▁став	-7.59546
19	-7.59782
▁i	-7.61
ва	-7.62404
▁16	-7.6265
да	-7.62727
сь	-7.63108
▁н	-7.63369
▁(19	-7.64264
▁ж	-7.6429
▁яка	-7.64654
ма	-7.64671
▁рік	-7.65209
▁століття	-7.65611
▁яких	-7.66115
▁вона	-7.66303
л	-7.67877
▁міста	-7.68593
▁країни	-7.68607
▁пов	-7.69519
ті	-7.69543
▁пам	-7.71187
ості	-7.71474
▁10	-7.71689
▁править	-7.7181
▁коли	-7.7234
▁4	-7.72384
▁серед	-7.72752
ної	-7.73415
▁чи	-7.73502
▁5	-7.73684
▁інших	-7.73932
по	-7.74179
▁того	-7.74487
▁18	-7.75074
▁ще	-7.75853
ам	-7.76769
ль	-7.77039
▁них	-7.77169
▁над	-7.77291
▁лише	-7.77633
▁г	-7.78769
▁ii	-7.78934
▁га	-7.78945
від	-7.79155
▁життя	-7.79376
▁кількість	-7.80485
▁осіб	-7.81101
ові	-7.81614
▁частина	-7.81828
▁багато	-7.82086
▁13	-7.83542
▁інші	-7.83696
▁близько	-7.83789
ив	-7.8403
ши	-7.84476
▁те	-7.84616
▁цього	-7.8594
га	-7.86765
ц	-7.8784
|	-7.8787
ської	-7.88826
ію	-7.88926
ди	-7.89362
▁зокрема	-7.89425
те	-7.90535
▁б	-7.90607
▁зі	-7.91239
▁землі	-7.91522
▁12	-7.92218
ту	-7.93306
▁роки	-7.93593
▁держави	-7.93799
ати	-7.93941
▁триває	-7.94054
▁цей	-7.94168
▁6	-7.9531
▁11	-7.95351
ити	-7.95377
ська	-7.95409
ян	-7.95536
ним	-7.95608
▁7	-7.96142
ф	-7.96198
▁української	-7.96274
▁війни	-7.96391
про	-7.97471
ться	-7.9905
ем	-7.99054
▁мають	-7.99157
▁може	-7.99297
▁склад	-7.99337
ст	-7.99503
▁8	-7.99521
2	-7.99713
ків	-7.99829
ко	-7.99937
▁без	-8.00314
▁займає	-8.00395
▁14	-8.01665
▁королівство	-8.02402
ною	-8.025
▁сша	-8.02525
увати	-8.02539
]]	-8.02579
▁україні	-8.02658
▁зв	-8.02691
ню	-8.03172
то	-8.03915
▁частину	-8.03969
▁становить	-8.04244
▁проти	-8.04545
▁9	-8.04659
▁тільки	-8.04767
ан	-8.05118
▁належить	-8.05195
ав	-8.06521
де	-8.06829
▁[[	-8.09024
▁к	-8.09099
s	-8.09235
▁початку	-8.09935
▁півночі	-8.10463
▁районі	-8.10817
ється	-8.11175
нь	-8.11205
▁королем	-8.11401
▁роках	-8.11443
▁три	-8.12257
▁д	-8.13236
▁ко	-8.13351
▁ін	-8.13478
мо	-8.13686
▁моря	-8.13751
▁значення	-8.14569
▁ради	-8.14771
ування	-8.14954
▁правління	-8.15956
▁бо	-8.16092
ович	-8.16103
▁то	-8.16317
▁виборців	-8.16424
▁однак	-8.16493
кою	-8.16667
ба	-8.1735
▁місце	-8.1771
ній	-8.1792
▁місто	-8.18146
▁півдні	-8.18178
▁індії	-8.18505
▁води	-8.18568
мі	-8.18576
ді	-8.18819
▁млн	-8.19353
ував	-8.19502
или	-8.19524
▁складу	-8.19561
3	-8.1958
▁деякі	-8.19639
ви	-8.20112
категорія	-8.20213
ова	-8.20359
ське	-8.20468
ією	-8.2088
▁перед	-8.21106
▁щоб	-8.21584
лю	-8.22033
▁ці	-8.22222
али	-8.22402
▁мови	-8.2244
ець	-8.22671
▁якого	-8.22723
▁культури	-8.22951
▁бути	-8.23025
ра	-8.23637
▁історії	-8.23985
ців	-8.23995
ють	-8.24179
са	-8.24193
▁центр	-8.24746
▁тут	-8.24761
ними	-8.24912
▁можна	-8.24928
▁проте	-8.25116
▁один	-8.25621
▁понад	-8.25667
чи	-8.25688
ських	-8.25945
▁розвитку	-8.25969
▁разом	-8.2608
ві	-8.26179
▁т	-8.26479
▁ре	-8.27794
▁тощо	-8.28894
▁майже	-8.29472
ком	-8.2969
ували	-8.30356
▁20	-8.30413
▁династія	-8.30879
▁я	-8.31047
он	-8.31382
▁кон	-8.31391
▁слов	-8.31511
▁iii	-8.32057
ча	-8.32113
▁участь	-8.32401
▁ф	-8.32575
ре	-8.32583
▁імперія	-8.33053
цій	-8.33092
▁ка	-8.33439
▁вже	-8.33441
▁всі	-8.33751
▁(18	-8.33812
▁міст	-8.34057
▁північ	-8.34763
вер	-8.34774
▁часто	-8.35548
ує	-8.36504
лив	-8.36837
▁найбільш	-8.37311
ник	-8.37648
сі	-8.3774
ують	-8.38923
▁()	-8.39328
су	-8.39352
▁японії	-8.39375
▁більш	-8.39475
тор	-8.39601
▁влади	-8.40018
ду	-8.40371
сти	-8.40592
▁дуже	-8.41086
▁той	-8.41517
▁більше	-8.42066
си	-8.42119
▁область	-8.42512
ле	-8.42584
▁("	-8.42677
▁ніж	-8.42789
▁протягом	-8.42872
▁цьому	-8.43079
▁ім	-8.43435
▁такі	-8.43534
ру	-8.43639
▁крім	-8.43703
▁(«	-8.44073
ські	-8.44337
▁саме	-8.44348
▁держава	-8.44353
▁наприклад	-8.44378
▁різних	-8.44392
▁все	-8.44694
бі	-8.44971
гідно	-8.45071
▁25	-8.45097
▁сільського	-8.4538
▁українського	-8.4558
▁можуть	-8.45591
▁йому	-8.45763
ність	-8.46093
▁травня	-8.46407
▁китаї	-8.4655
▁стала	-8.46754
▁січня	-8.46841
ає	-8.46986
▁південь	-8.47087
▁свою	-8.47417
▁ш	-8.47609
ства	-8.47925
па	-8.47935
ша	-8.48027
▁світі	-8.48176
▁ар	-8.48322
▁франції	-8.4845
ман	-8.48846
▁річки	-8.48909
▁сході	-8.49594
зі	-8.49631
▁два	-8.49833
▁пан	-8.5005
▁згодом	-8.50051
ових	-8.50132
);	-8.5065
▁системи	-8.50702
▁заході	-8.50892
лу	-8.51149
ському	-8.51177
▁березня	-8.51508
ським	-8.51849
ме	-8.51866
че	-8.51871
▁син	-8.51933
▁король	-8.52017
ень	-8.52579
▁історія	-8.52682
▁світу	-8.52915
тер	-8.53179
▁людей	-8.53534
ро	-8.53582
▁якщо	-8.53665
▁оскільки	-8.5383
ала	-8.53846
▁вод	-8.54053
ос	-8.5409
ності	-8.54105
ар	-8.54167
▁одним	-8.54225
лен	-8.54381
▁існує	-8.54454
єр	-8.54462
▁свого	-8.54468
▁тоді	-8.54634
▁столітті	-8.54686
▁тим	-8.547
▁липня	-8.54702
–	-8.55066
ван	-8.55148
▁цих	-8.5549
▁срср	-8.55854
▁країн	-8.55999
▁іван	-8.56271
▁частині	-8.56362
▁світ	-8.5638
5	-8.56395
▁якої	-8.56497
гу	-8.56533
▁своїх	-8.56995
роб	-8.57462
▁особливо	-8.57574
▁°	-8.57718
▁біля	-8.57752
ному	-8.57899
▁організації	-8.57994
зи	-8.58014
істю	-8.58127
би	-8.58486
▁сам	-8.58533
ками	-8.5855
▁кар	-8.58589
▁назва	-8.58594
бу	-8.58638
▁грудня	-8.58956
ила	-8.58985
▁очолює	-8.59081
▁межах	-8.59175
▁чином	-8.59391
▁створення	-8.59423
▁30	-8.59455
▁діяльності	-8.59503
▁кілька	-8.59747
▁хоча	-8.5987
▁територія	-8.59994
▁більшість	-8.59999
ат	-8.60096
лися	-8.60141
▁належать	-8.60421
▁часу	-8.60524
▁місті	-8.60783
▁ні	-8.60863
▁діяльність	-8.60914
об	-8.61455
ння	-8.61674
▁києві	-8.61722
▁себе	-8.61914
▁англії	-8.61983
тів	-8.62199
▁щодо	-8.62346
ство	-8.62535
▁італії	-8.62596
ця	-8.62916
ять	-8.63001
▁північному	-8.63227
▁відповідно	-8.63322
́	-8.63405
кон	-8.63586
▁потім	-8.63608
▁пізніше	-8.63892
▁числі	-8.63921
▁само	-8.64052
▁великих	-8.64307
ста	-8.64381
▁яке	-8.64624
от	-8.648
при	-8.64865
ську	-8.64968
▁мав	-8.65039
▁ан	-8.65087
▁iv	-8.65119
00	-8.65335
▁всіх	-8.65866
єм	-8.66022
▁частини	-8.66071
▁вересня	-8.66635
▁ор	-8.66747
▁прав	-8.66858
▁ла	-8.66867
мен	-8.66972
бор	-8.67082
▁день	-8.67104
▁земель	-8.67292
щ	-8.6738
▁навіть	-8.67424
▁різні	-8.67435
мін	-8.67572
ор	-8.67669
▁уряд	-8.67669
ше	-8.67688
d	-8.68072
ть	-8.68198
▁кор	-8.68215
▁республіка	-8.68328
прав	-8.68685
ція	-8.687
▁термін	-8.68892
ській	-8.68971
▁тисяч	-8.6948
▁стали	-8.69533
нов	-8.69599
▁жовтня	-8.69623
▁роман	-8.69759
ес	-8.70143
▁система	-8.70185
▁нього	-8.70208
▁ті	-8.70326
ується	-8.70396
яз	-8.70465
▁право	-8.70609
▁ку	-8.70861
див	-8.71089
▁листопада	-8.71326
аль	-8.71352
▁суд	-8.71574
римській	-8.71578
▁українських	-8.71701
▁отримав	-8.71749
▁двох	-8.72026
▁якому	-8.72048
ят	-8.72379
▁володимир	-8.72393
тися	-8.72505
▁польщі	-8.72843
ков	-8.73058
рі	-8.7306
▁європи	-8.73545
▁транспорт	-8.73833
▁союз	-8.73903
▁лютого	-8.73941
▁повітря	-8.73988
▁полі	-8.74084
▁середньовіччя	-8.74104
")	-8.74165
▁переважно	-8.74216
ей	-8.7435
▁площа	-8.74356
▁дослідження	-8.74479
▁країні	-8.74516
▁кам	-8.74823
▁даними	-8.74825
ве	-8.74932
мов	-8.74968
▁перший	-8.7552
ри	-8.75838
▁пер	-8.75902
ації	-8.76002
4	-8.76272
n	-8.76394
як	-8.76557
▁мовою	-8.76795
▁квітня	-8.76983
▁багатьох	-8.77038
ають	-8.77089
▁ба	-8.77272
▁свої	-8.77489
тя	-8.77592
▁цієї	-8.77619
1	-8.77647
вся	-8.77662
ання	-8.77713
y	-8.77796
▁смерті	-8.77839
▁ця	-8.78181
▁роботи	-8.78205
20	-8.78342
▁владу	-8.78433
ге	-8.78449
▁церкви	-8.78499
▁півострів	-8.78721
▁півострова	-8.78794
ються	-8.78881
▁права	-8.78891
▁серпня	-8.78942
фа	-8.78994
чі	-8.79098
▁рр	-8.79254
▁нова	-8.79459
ції	-8.7974
▁походження	-8.80293
▁мов	-8.80582
»)	-8.806
▁клімат	-8.80629
▁таких	-8.80645
▁мар	-8.80796
▁видів	-8.80825
▁петро	-8.80983
▁19	-8.81003
▁мо	-8.81156
▁озера	-8.81171
чен	-8.81292
во	-8.815
▁роль	-8.81585
чин	-8.81589
▁держав	-8.81886
▁ситуація	-8.82175
▁університету	-8.82206
50	-8.82428
▁ге	-8.82567
фе	-8.8259
▁людини	-8.82595
▁сім	-8.82621
▁член	-8.8292
ген	-8.8295
▁великий	-8.8312
▁кінця	-8.83441
▁велика	-8.8349
▁змін	-8.83525
ги	-8.83535
ет	-8.83638
▁червня	-8.83649
▁наук	-8.83656
▁римської	-8.8366
ель	-8.83682
▁існують	-8.83949
▁верховн	-8.84028
ист	-8.84301
▁український	-8.84369
▁імені	-8.84461
▁дві	-8.84463
▁formula	-8.84573
зна	-8.8475
▁праці	-8.84859
▁мало	-8.84878
▁завдяки	-8.84887
t	-8.84949
▁мали	-8.8516
▁яку	-8.85535
a	-8.85968
▁одна	-8.86075
▁світової	-8.86164
▁vi	-8.86195
▁південно	-8.86207
слав	-8.86386
▁"«	-8.86489
кла	-8.86514
▁фа	-8.86576
вод	-8.8672
лів	-8.8692
▁допомогою	-8.8695
▁внаслідок	-8.86963
▁море	-8.8704
▁русі	-8.87171
▁одного	-8.87604
▁будь	-8.87716
▁же	-8.87724
ал	-8.87873
оз	-8.87902
▁владою	-8.87918
▁азії	-8.87918
ден	-8.88164
▁таким	-8.8825
ація	-8.8845
єв	-8.8874
0	-8.88762
▁вплив	-8.88816
▁росії	-8.89155
▁європі	-8.89223
▁xix	-8.89242
30	-8.89316
▁основні	-8.89341
том	-8.89824
▁народ	-8.89861
▁армії	-8.89878
l	-8.89993
▁групи	-8.90102
нський	-8.9017
_	-8.90238
▁дітей	-8.90294
▁створено	-8.9042
▁чолі	-8.90617
▁(1	-8.90888
▁ряд	-8.90915
▁села	-8.90916
▁no	-8.90973
▁комп	-8.91023
це	-8.91065
▁приблизно	-8.9117
▁працював	-8.91206
▁0	-8.91243
вали	-8.91281
▁розвиток	-8.91375
▁станом	-8.91442
b	-8.91462
енко	-8.91488
▁партії	-8.91626
язку	-8.92053
▁па	-8.92239
▁перші	-8.92252
▁займають	-8.92343
▁тобто	-8.92382
се	-8.92425
▁стало	-8.92461
пу	-8.92796
ин	-8.929
▁іншими	-8.9298
сто	-8.93016
▁автор	-8.93082
▁2001	-8.93132
▁че	-8.93204
▁узбережжя	-8.93406
ючи	-8.93474
▁мала	-8.93475
▁мі	-8.93569
▁2014	-8.93593
10	-8.93686
▁поділ	-8.93806
ен	-8.93881
ін	-8.94127
▁республіки	-8.9427
▁%.	-8.94283
▁су	-8.94346
▁суб	-8.94426
▁наприкінці	-8.94437
вар	-8.9444
увала	-8.94676
овий	-8.94677
▁статус	-8.94757
▁школи	-8.94784
▁собою	-8.94873
▁якій	-8.9508
▁л	-8.95154
▁стар	-8.95202
гі	-8.95268
▁ме	-8.95345
▁питання	-8.95479
▁складі	-8.95528
▁100	-8.95549
рів	-8.95667
ус	-8.95791
▁цар	-8.9585
▁v	-8.9593
▁геополітичн	-8.96192
▁складається	-8.96204
тон	-8.96235
▁рад	-8.96329
▁22	-8.96333
▁голосів	-8.96544
літ	-8.96563
▁олександр	-8.96593
▁помер	-8.96793
▁собі	-8.96913
лення	-8.96957
сті	-8.96971
▁назву	-8.96994
▁війська	-8.97117
▁війна	-8.97187
▁24	-8.97199
▁ле	-8.97341
▁виробництва	-8.97345
p	-8.97459
дів	-8.97564
▁селі	-8.97623
ґ	-8.97739
тов	-8.97989
▁біл	-8.98014
▁мова	-8.9809
▁державами	-8.98123
вір	-8.98127
▁використання	-8.98312
▁папськ	-8.98468
▁президент	-8.98672
уючи	-8.98719
▁карл	-8.98848
із	-8.98861
▁микола	-8.98899
▁лі	-8.9894
▁бар	-8.98977
▁со	-8.9942
дав	-8.99817
▁америці	-8.99942
▁російської	-9.0034
25	-9.00345
▁менш	-9.00562
бер	-9.00626
e	-9.00883
▁основі	-9.01144
▁часів	-9.01284
дж	-9.0139
m	-9.01497
▁руху	-9.01642
▁твори	-9.01712
ало	-9.01721
чу	-9.0197
пе	-9.01997
івка	-9.02055
ників	-9.02133
40	-9.02164
▁країна	-9.02208
▁процес	-9.02361
▁23	-9.02388
▁північно	-9.0239
▁київ	-9.02413
▁днів	-9.02454
кі	-9.02491
став	-9.0252
од	-9.02624
уються	-9.02864
▁1918	-9.03016
▁кур	-9.03124
ями	-9.03212
єднан	-9.03332
▁бу	-9.03342
бо	-9.03366
їв	-9.03375
роз	-9.0362
▁схід	-9.0367
гор	-9.03706
▁рух	-9.03715
▁слова	-9.03733
лася	-9.03965
▁культура	-9.0412
ход	-9.04213
▁ос	-9.04432
▁21	-9.04606
ення	-9.04721
▁мистецтва	-9.04783
▁народився	-9.04826
пер	-9.0484
o	-9.04853
▁навчання	-9.04902
▁xx	-9.05015
▁адміністративно	-9.05108
▁освіти	-9.05193
▁жив	-9.05198
▁2006	-9.05239
▁північній	-9.05281
▁великі	-9.05312
мер	-9.05371
▁честь	-9.05491
аючи	-9.05526
▁ро	-9.05577
▁влада	-9.05582
▁27	-9.05639
яти	-9.05701
▁рада	-9.05771
(	-9.05954
▁великої	-9.06003
▁тих	-9.06061
рос	-9.06113
▁північної	-9.06294
▁підприємств	-9.06414
род	-9.0645
▁спочатку	-9.06455
▁ним	-9.06477
6	-9.06519
▁ю	-9.06705
▁се	-9.06897
▁знаходиться	-9.07042
▁ді	-9.07074
бл	-9.0715
▁деяких	-9.07472
твор	-9.07545
▁закон	-9.07576
ке	-9.07585
▁урср	-9.07723
▁центром	-9.07783
▁план	-9.08142
▁s	-9.08377
▁50	-9.08407
▁візантії	-9.08416
70	-9.08465
ще	-9.08466
▁зазвичай	-9.08485
нім	-9.08489
▁результаті	-9.08737
▁перша	-9.08857
▁мати	-9.08963
дивись	-9.09014
ун	-9.09229
▁28	-9.09339
▁слід	-9.09349
▁священн	-9.09377
кар	-9.09386
▁промисловості	-9.0944
▁діяч	-9.09657
тан	-9.09845
▁управління	-9.09952
рах	-9.09953
▁династії	-9.1022
тра	-9.10371
мар	-9.10506
▁україна	-9.10541
вати	-9.1055
▁королівства	-9.10612
▁досить	-9.10627
▁поверхні	-9.10644
▁ма	-9.10772
▁великого	-9.10967
▁товариства	-9.10979
ською	-9.11002
60	-9.11033
ився	-9.11117
90	-9.11244
▁зміни	-9.11394
ить	-9.11447
▁гор	-9.11547
▁уряду	-9.11702
щини	-9.11762
▁гу	-9.11787
▁26	-9.11827
померли	-9.1188
▁40	-9.11937
▁союзу	-9.12133
▁форм	-9.1215
▁племена	-9.12281
кор	-9.1229
ового	-9.12431
▁церква	-9.12471
▁шевченка	-9.12471
▁сил	-9.12474
▁адміністративн	-9.12566
▁існування	-9.12886
▁даних	-9.12985
▁галузі	-9.1299
▁ново	-9.1304
▁пе	-9.13161
]	-9.13176
кін	-9.13403
▁000	-9.13486
кри	-9.13513
пере	-9.13518
ган	-9.13813
▁короля	-9.13848
▁данії	-9.13949
k	-9.14009
▁ми	-9.14117
▁розташований	-9.14151
ск	-9.14213
сть	-9.14503
бр	-9.14504
80	-9.1467
▁тварин	-9.14673
▁усіх	-9.14769
▁мін	-9.14842
▁аль	-9.14897
▁вигляді	-9.1492
▁вперше	-9.14937
ацію	-9.14948
пов	-9.14952
▁національний	-9.1496
олог	-9.14971
▁територію	-9.15092
▁шар	-9.15097
єднання	-9.15117
▁івана	-9.15165
▁університет	-9.15215
▁обов	-9.15265
▁утворення	-9.15601
▁там	-9.15731
▁гори	-9.15901
▁здоров	-9.1597
ятки	-9.15997
▁озеро	-9.16067
▁кри	-9.16335
▁нині	-9.16347
▁млрд	-9.16482
▁трьох	-9.16482
▁%,	-9.16483
18	-9.1649
фі	-9.16802
▁свій	-9.16811
ци	-9.16883
f	-9.17102
лов	-9.17115
ток	-9.1716
▁головним	-9.17173
▁причорномор	-9.17247
▁промисловість	-9.17385
▁гір	-9.17452
▁початок	-9.17456
▁михайло	-9.17473
▁рівня	-9.17485
▁форми	-9.17526
▁рослин	-9.17677
▁сили	-9.17706
▁називають	-9.17766
ника	-9.17867
▁залишається	-9.17892
▁форму	-9.18003
—18	-9.18147
»"	-9.18167
ках	-9.18181
ової	-9.18249
пи	-9.18254
вання	-9.18476
▁образ	-9.18609
▁почали	-9.18645
▁цін	-9.18647
▁знову	-9.18675
ич	-9.19004
▁господарства	-9.19079
цем	-9.19101
▁другої	-9.19276
▁метою	-9.1933
▁річок	-9.19354
i	-9.1937
▁пар	-9.194
▁рівень	-9.19434
кс	-9.19537
er	-9.19539
▁бал	-9.19569
▁чоловік	-9.19613
▁температура	-9.19647
продовж	-9.19811
45	-9.19819
g	-9.19945
▁c	-9.20172
▁академії	-9.20213
15	-9.20364
жен	-9.20452
ер	-9.20522
рон	-9.20545
▁видання	-9.20553
▁сп	-9.20688
▁29	-9.20986
▁опадів	-9.20999
рен	-9.21048
▁близьк	-9.21152
al	-9.2131
▁ту	-9.21352
▁батько	-9.21406
▁політика	-9.2141
▁яким	-9.21443
▁народу	-9.21444
▁східній	-9.21462
▁комплекс	-9.2193
▁хто	-9.22034
жа	-9.22057
▁творів	-9.22063
▁державного	-9.221
▁спів	-9.22203
со	-9.22279
▁рішення	-9.22345
▁стан	-9.22358
год	-9.22401
сон	-9.22419
івський	-9.22425
▁османськ	-9.22608
▁сер	-9.22636
цями	-9.22732
▁тур	-9.22984
▁вер	-9.22989
ове	-9.23179
▁особи	-9.23194
ак	-9.23213
▁померли	-9.2323
▁брат	-9.23508
▁однією	-9.2351
фік	-9.23529
город	-9.23529
іст	-9.23551
▁куп	-9.2357
▁мм	-9.23717
тар	-9.23833
народились	-9.23847
різ	-9.23954
▁анти	-9.23982
▁бі	-9.24097
окрім	-9.24099
▁мас	-9.24242
ент	-9.24265
иці	-9.24271
▁значно	-9.24274
▁нових	-9.24439
▁вид	-9.24475
▁сільських	-9.24486
▁імператор	-9.246
▁виборах	-9.24604
▁першої	-9.24703
▁князівство	-9.24705
12	-9.24838
▁2000	-9.24903
▁першим	-9.24956
▁типу	-9.25095
▁пост	-9.25104
він	-9.2523
бе	-9.25255
▁океану	-9.25309
▁масов	-9.25316
▁єгипет	-9.25355
▁боку	-9.25363
▁німеччини	-9.25492
35	-9.2551
сту	-9.25557
же	-9.25562
▁кі	-9.25565
▁назви	-9.25582
▁кочов	-9.25628
ову	-9.25691
▁діє	-9.25812
дан	-9.25856
▁слово	-9.25873
▁лежить	-9.25965
ші	-9.25983
21	-9.26033
en	-9.26045
ження	-9.2618
стан	-9.26254
▁південному	-9.26287
▁нові	-9.26344
an	-9.26398
▁поет	-9.26457
▁почав	-9.26721
▁да	-9.26754
▁1919	-9.2677
▁середню	-9.2683
буд	-9.26913
▁лісостепової	-9.26917
▁генріх	-9.26953
▁острів	-9.26956
▁золота	-9.2703
▁населених	-9.27074
▁шлях	-9.27108
стр	-9.2711
▁всього	-9.27184
▁членом	-9.27306
овані	-9.27354
▁риб	-9.27362
▁розділен	-9.27407
▁островів	-9.27487
▁президента	-9.27522
01	-9.27551
▁прем	-9.27586
▁2010	-9.27672
сел	-9.27747
▁києва	-9.27762
хід	-9.27862
▁природи	-9.27879
▁своєї	-9.28005
▁свят	-9.28094
▁чотири	-9.2824
▁новий	-9.28325
8	-9.28552
°	-9.28795
ені	-9.2883
▁підприємства	-9.2891
▁види	-9.29118
▁умови	-9.29213
пар	-9.29229
дар	-9.29233
▁бур	-9.29343
▁українська	-9.29406
▁суспільства	-9.29471
▁сан	-9.29497
нос	-9.29521
▁буде	-9.29571
кова	-9.29605
▁львові	-9.29704
▁загальна	-9.29828
▁хо	-9.29853
▁люди	-9.29903
▁інформації	-9.29951
▁літератури	-9.29985
▁поблизу	-9.30018
▁бога	-9.30021
▁пунктів	-9.30024
нського	-9.30254
▁ди	-9.30307
▁африки	-9.30321
97	-9.30528
7	-9.30534
три	-9.30786
лін	-9.30873
метр	-9.30911
тур	-9.30937
іння	-9.30952
65	-9.31099
ща	-9.3111
▁завод	-9.3114
ран	-9.31159
▁одно	-9.312
▁систем	-9.31306
17	-9.31329
▁вибори	-9.31413
▁організацій	-9.31445
▁колонії	-9.31473
▁дії	-9.31521
13	-9.31555
▁острови	-9.3174
▁бог	-9.31787
бір	-9.31796
96	-9.31798
▁жителів	-9.31921
▁британії	-9.31942
илися	-9.32038
▁народились	-9.32207
▁відомий	-9.32374
ях	-9.32485
стер	-9.32564
▁вважається	-9.32583
▁голова	-9.32655
▁цим	-9.32683
▁поняття	-9.32826
▁географія	-9.32965
ики	-9.33084
38	-9.33179
▁національної	-9.33271
▁х	-9.33325
▁vii	-9.33326
▁королює	-9.33346
ники	-9.33349
▁економіка	-9.33634
▁київської	-9.33641
▁усі	-9.33667
▁раніше	-9.3372
▁шляхом	-9.33811
11	-9.33823
▁літопис	-9.33889
▁перших	-9.33959
▁музей	-9.33967
▁реконкіста	-9.33974
▁площі	-9.33982
під	-9.34034
лет	-9.34038
▁спільн	-9.34052
▁державний	-9.34089
or	-9.34112
▁національного	-9.34272
▁[	-9.34327
она	-9.34341
ина	-9.34343
▁військ	-9.34362
▁чого	-9.34393
уш	-9.34397
▁русь	-9.34466
▁кра	-9.34487
▁декілька	-9.34488
▁2020	-9.34535
v	-9.34613
▁відбувається	-9.34617
▁їхні	-9.34682
▁си	-9.34712
▁розташовані	-9.34718
сер	-9.34751
зу	-9.34768
▁відомі	-9.34863
нє	-9.34904
54	-9.34978
ило	-9.35048
▁італійськ	-9.35073
▁входить	-9.35251
▁можливість	-9.35267
le	-9.35267
▁мор	-9.35308
▁письменник	-9.35484
раз	-9.35555
ик	-9.358
ас	-9.35822
нт	-9.35844
лося	-9.3586
▁останні	-9.35949
▁дерев	-9.35962
▁формування	-9.35964
міт	-9.36012
▁опис	-9.36124
▁запис	-9.36323
йн	-9.36345
95	-9.3638
▁фе	-9.36591
▁велику	-9.36596
r	-9.36726
▁василь	-9.36767
▁(2	-9.36778
h	-9.36798
▁володіння	-9.36837
▁своє	-9.37028
▁перше	-9.37159
▁окремі	-9.37186
▁леон	-9.3723
▁сучасної	-9.37234
▁халіфат	-9.37237
▁середня	-9.37251
▁своїм	-9.37276
▁неї	-9.37331
▁1917	-9.37385
▁31	-9.37409
us	-9.375
▁умов	-9.37525
▁цю	-9.37642
▁дня	-9.37683
▁кількості	-9.37765
▁незалежність	-9.37774
уль	-9.37815
▁культур	-9.37835
▁са	-9.37892
▁князя	-9.37898
иця	-9.37943
▁температури	-9.37974
14	-9.37989
▁британськ	-9.38024
98	-9.38111
дер	-9.3813
▁імператором	-9.38138
▁теорії	-9.38166
▁іноді	-9.38169
нд	-9.38193
▁оун	-9.38316
▁розділ	-9.38371
илася	-9.38452
▁оп	-9.3846
ол	-9.38512
▁значні	-9.3869
▁київського	-9.38779
▁періоду	-9.38819
▁св	-9.38852
x	-9.38883
аються	-9.38952
мон	-9.38983
▁повністю	-9.38999
▁лів	-9.39081
▁українців	-9.39085
26	-9.39098
▁іспанії	-9.39242
▁1923	-9.39258
u	-9.39382
▁воно	-9.39737
гар	-9.39767
нів	-9.39818
74	-9.39938
▁генеральн	-9.39958
▁рівні	-9.40012
▁дво	-9.40036
гр	-9.40094
оч	-9.4015
адміністративний	-9.40159
▁визначення	-9.40163
▁поселення	-9.40193
ався	-9.40222
єктів	-9.40275
▁нової	-9.40313
ra	-9.40429
використовується	-9.40444
▁північну	-9.40541
ології	-9.40686
▁норвегії	-9.40693
75	-9.40763
▁доба	-9.40829
▁установ	-9.40832
▁україну	-9.40887
ика	-9.40904
▁низьк	-9.40911
▁дні	-9.40971
▁інституту	-9.41038
▁озер	-9.41268
on	-9.41296
вид	-9.41305
▁частиною	-9.41328
22	-9.41394
▁навколо	-9.4143
лом	-9.41447
ант	-9.41505
▁справ	-9.41535
▁відбулися	-9.41567
▁рим	-9.41587
ини	-9.41634
24	-9.41655
▁королівству	-9.41706
ований	-9.41731
▁електро	-9.41731
оп	-9.41827
▁єгипті	-9.41845
▁тимошенко	-9.41983
78	-9.41988
▁селян	-9.41988
▁районів	-9.42154
72	-9.42167
▁(3	-9.42468
нні	-9.4252
мир	-9.42613
вав	-9.42642
▁повстання	-9.42681
ізм	-9.42741
99	-9.4276
▁іспанія	-9.42821
▁творчості	-9.42861
ниця	-9.43013
▁науки	-9.43047
▁громад	-9.43063
▁високо	-9.43165
▁їм	-9.43178
або	-9.433
▁відкрито	-9.43318
▁економіки	-9.43363
▁2008	-9.43417
▁роботу	-9.43524
▁основному	-9.43584
▁виробництво	-9.43587
▁значними	-9.43786
▁країнах	-9.43884
▁школа	-9.43946
▁xviii	-9.43985
▁сьогодні	-9.44077
▁часом	-9.44117
re	-9.44181
2.	-9.44211
▁державою	-9.44218
важ	-9.4424
▁залізничн	-9.44557
чне	-9.44577
▁народів	-9.44614
рей	-9.44781
рад	-9.44804
28	-9.44812
▁швидко	-9.44813
▁буд	-9.44845
93	-9.44856
▁речі	-9.4486
88	-9.4492
поль	-9.44931
79	-9.44982
92	-9.45113
▁ґ	-9.45115
▁розподіл	-9.45154
▁кастилія	-9.45232
тен	-9.45306
нині	-9.4537
▁численні	-9.4545
▁доларів	-9.45456
▁провідн	-9.45465
▁часи	-9.45481
»).	-9.45557
▁вивчення	-9.45601
61	-9.45732
▁частково	-9.45795
▁1991	-9.45968
ел	-9.45984
ліс	-9.45992
▁межі	-9.46203
▁перебувають	-9.46242
нер	-9.46259
▁бе	-9.46323
▁брав	-9.46349
яті	-9.46401
▁розв	-9.46404
▁мед	-9.46414
изм	-9.46417
▁інститут	-9.46421
▁сина	-9.4644
▁60	-9.46502
71	-9.46655
ут	-9.46702
27	-9.46763
▁2004	-9.4679
▁культ	-9.468
▁продукції	-9.46824
▁працює	-9.46856
▁хор	-9.46958
▁театр	-9.46971
лей	-9.4711
▁розташована	-9.4711
ям	-9.47139
▁унр	-9.47184
▁тре	-9.47252
▁ними	-9.47287
дат	-9.47342
ятник	-9.47346
яни	-9.47464
91	-9.47552
05	-9.47698
▁стає	-9.47762
76	-9.47764
▁назвою	-9.47779
33	-9.47801
▁1939	-9.47876
чер	-9.47899
▁лев	-9.47946
▁важлив	-9.47964
▁закінчив	-9.47998
ера	-9.48035
▁постійно	-9.48134
руч	-9.48186
▁200	-9.4828
▁бр	-9.48399
23	-9.48414
нення	-9.48503
▁проблем	-9.48666
▁кіно	-9.48699
стор	-9.48715
w	-9.48759
▁забезпечення	-9.48801
ar	-9.48841
ит	-9.48881
ек	-9.48919
▁відродження	-9.48981
рем	-9.48999
язки	-9.49001
34	-9.49024
▁фактично	-9.49107
56	-9.49123
▁першого	-9.4913
язані	-9.49203
73	-9.4928
▁різн	-9.49358
▁тривал	-9.49387
▁зображення	-9.49475
▁проєкт	-9.49589
▁знак	-9.49645
▁руд	-9.49724
ch	-9.49781
▁фільм	-9.49793
мат	-9.49815
сте	-9.49831
▁загально	-9.49881
трим	-9.4989
▁початков	-9.49936
▁місцевого	-9.4994
▁оон	-9.49989
▁більшості	-9.50071
▁португалія	-9.50086
▁подальш	-9.50091
▁кер	-9.50101
▁гар	-9.50101
07	-9.50126
▁султанат	-9.50134
▁герб	-9.5015
▁характер	-9.50245
09	-9.50269
▁володимира	-9.50379
▁фонд	-9.50477
пор	-9.5048
бар	-9.50509
▁ра	-9.50537
▁утворен	-9.50561
вен	-9.50607
ур	-9.50632
77	-9.5065
алі	-9.50672
рив	-9.50753
▁гер	-9.50759
▁середній	-9.5077
▁великій	-9.50807
▁кримськ	-9.50816
▁земля	-9.5088
єю	-9.50916
▁батька	-9.50995
▁закладів	-9.5103
▁чорн	-9.51114
▁америки	-9.51147
▁загалом	-9.51148
▁нового	-9.51309
мет	-9.51331
ліз	-9.5138
цький	-9.51401
рис	-9.51404
цен	-9.5146
▁решта	-9.51474
▁1920	-9.51502
▁незалежності	-9.5161
▁організація	-9.51612
▁проходить	-9.51678
▁фінансов	-9.51756
кра	-9.5179
слов	-9.51792
ед	-9.51843
брали	-9.51942
гір	-9.51948
▁поширення	-9.51961
лан	-9.51984
▁перепису	-9.51985
щині	-9.51987
стів	-9.52141
лись	-9.52185
▁кал	-9.52204
▁призначен	-9.52221
▁каганат	-9.52247
ой	-9.5229
мор	-9.52353
▁далі	-9.52362
▁сад	-9.52399
ючись	-9.52428
▁царство	-9.52506
▁використовують	-9.52507
▁медичн	-9.52536
▁українські	-9.52597
▁чу	-9.52605
іс	-9.52622
▁ліс	-9.52662
▁революції	-9.52682
▁франція	-9.52708
▁програм	-9.52717
▁гра	-9.52812
▁1941	-9.52862
▁духов	-9.52913
пл	-9.52915
▁будівництво	-9.52992
89	-9.53109
▁захід	-9.53126
62	-9.53192
лер	-9.5321
вал	-9.53257
нці	-9.53263
▁господарство	-9.5329
87	-9.53294
▁захопили	-9.53303
▁гідро	-9.53396
▁острова	-9.53443
пан	-9.53466
енка	-9.53467
▁дав	-9.5349
▁особист	-9.53512
▁своєму	-9.53526
жи	-9.53634
▁дж	-9.53704
▁творч	-9.53755
▁членів	-9.53764
овський	-9.53777
піль	-9.53806
▁потреб	-9.53806
▁(20	-9.53868
остей	-9.53911
▁зростання	-9.53927
▁окремих	-9.53968
ланд	-9.54012
43	-9.54057
▁боротьби	-9.54084
чним	-9.54143
фо	-9.54201
▁юридичн	-9.54228
нув	-9.54267
▁мак	-9.54386
▁західній	-9.54402
▁акт	-9.54476
▁державної	-9.54489
▁xvii	-9.54496
▁принцип	-9.54537
▁завжди	-9.54555
▁режим	-9.5461
▁цій	-9.54659
демократичн	-9.54661
перед	-9.54683
▁відносини	-9.54686
▁події	-9.54715
▁%)	-9.54735
29	-9.5475
зер	-9.54769
▁ісламу	-9.54923
▁обсяг	-9.55091
гад	-9.55099
▁порт	-9.55201
▁доби	-9.55215
шу	-9.55235
▁міф	-9.55271
86	-9.55284
ву	-9.55316
▁сіл	-9.55328
▁більшу	-9.55345
стро	-9.55469
▁написав	-9.55525
▁розум	-9.55599
▁бор	-9.55744
▁менше	-9.55828
94	-9.5592
стра	-9.56012
▁груп	-9.56097
▁екс	-9.56102
39	-9.56132
▁торгівлі	-9.56144
щина	-9.56156
янські	-9.56213
▁програми	-9.56271
▁авто	-9.56315
▁релігійн	-9.56333
ена	-9.56444
ном	-9.56453
te	-9.56455
оль	-9.56544
▁раді	-9.56559
▁найвищ	-9.56596
▁сучасних	-9.56626
▁тер	-9.56661
▁2015	-9.56662
▁практично	-9.56667
▁незалежні	-9.56689
59	-9.56728
▁виконання	-9.56728
▁хі	-9.56734
16	-9.56739
▁кан	-9.56871
▁науково	-9.56882
▁символ	-9.56913
▁австрійськ	-9.56988
▁рис	-9.57129
що	-9.5726
▁хмар	-9.57285
▁переклад	-9.57336
▁становила	-9.57434
▁розділений	-9.57451
ніс	-9.57476
▁першу	-9.57529
▁p	-9.576
▁військов	-9.57637
68	-9.57679
▁виділяють	-9.57794
▁почала	-9.57799
рес	-9.57808
▁стандарт	-9.57911
31	-9.57933
is	-9.58084
▁вис	-9.5809
06	-9.58114
гер	-9.58118
елі	-9.58129
▁кара	-9.58176
▁старо	-9.58193
▁дані	-9.58295
▁одночасно	-9.5833
▁см	-9.58353
▁шкіл	-9.58357
▁рід	-9.58425
пт	-9.58492
нг	-9.58597
▁ки	-9.58608
▁своїй	-9.5863
li	-9.58644
▁ск	-9.58657
▁морем	-9.58737
▁торгов	-9.58758
▁філіп	-9.58786
▁вол	-9.58806
▁80	-9.5883
▁світов	-9.58839
▁величезн	-9.58904
▁сонця	-9.58914
▁лінії	-9.5893
▁напрям	-9.58957
la	-9.58996
▁радіо	-9.5902
▁2005	-9.59118
овим	-9.5914
▁голови	-9.59143
▁жінок	-9.59234
івці	-9.59262
пр	-9.59263
▁ша	-9.59268
ене	-9.59329
▁видав	-9.59341
▁князь	-9.59399
▁широко	-9.594
▁визначен	-9.59483
▁поширен	-9.59515
▁золот	-9.59558
▁влітку	-9.59566
▁воло	-9.59587
▁швеції	-9.5973
▁означає	-9.59737
▁політики	-9.59761
▁вважають	-9.5977
85	-9.59783
▁думку	-9.59897
▁раннє	-9.59902
▁краю	-9.59903
▁2011	-9.59933
▁село	-9.60048
▁політичних	-9.6007
▁систему	-9.60093
▁сі	-9.6016
▁поступово	-9.60206
82	-9.60222
част	-9.60275
▁можливо	-9.60283
▁громадян	-9.60291
дор	-9.603
▁офіційн	-9.60316
▁послуг	-9.60321
▁шевченко	-9.60397
▁співіснують	-9.60398
▁гі	-9.60504
▁фронт	-9.60508
▁просто	-9.6058
▁генерал	-9.60611
▁міського	-9.60648
кові	-9.60743
▁ньому	-9.6091
топ	-9.60952
▁полтав	-9.60999
▁російська	-9.61068
жив	-9.61094
▁вистав	-9.6113
▁штату	-9.61197
▁пі	-9.61207
ох	-9.61282
▁функції	-9.61404
▁текст	-9.61433
▁2009	-9.61441
сія	-9.6145
37	-9.61534
▁районах	-9.6159
▁вище	-9.61605
▁вір	-9.61655
арх	-9.61675
▁ха	-9.61704
крит	-9.61752
▁застосування	-9.61797
лем	-9.6185
▁сто	-9.61923
▁одну	-9.61973
над	-9.61982
▁місця	-9.62052
язок	-9.62063
▁межує	-9.62092
▁ввп	-9.62119
▁пла	-9.62165
▁ц	-9.62179
▁губернії	-9.62251
луч	-9.62314
пуст	-9.62329
▁православн	-9.62356
▁цивілізація	-9.62422
▁писав	-9.62423
▁продовжується	-9.62431
▁реальн	-9.62447
▁олег	-9.62465
яток	-9.62535
66	-9.62582
▁революція	-9.62593
овано	-9.62631
▁гот	-9.62636
республік	-9.62681
▁походить	-9.62681
рус	-9.62737
▁офіційно	-9.62774
04	-9.62776
▁складала	-9.62778
▁українською	-9.62812
▁університеті	-9.62867
▁правило	-9.62918
▁іншого	-9.62936
49	-9.62948
▁більша	-9.6308
▁єс	-9.63111
чення	-9.63255
▁устрій	-9.63282
▁досліджень	-9.63299
▁xvi	-9.633
▁мову	-9.63333
▁баз	-9.63444
▁частин	-9.63445
▁середземномор	-9.6345
плат	-9.63606
▁освіта	-9.63633
▁ду	-9.63643
in	-9.63699
55	-9.63752
▁центру	-9.63768
▁станції	-9.63804
▁ханство	-9.63825
тин	-9.63975
ro	-9.64002
цією	-9.64076
▁судов	-9.64079
▁(17	-9.64158
полі	-9.64167
▁2007	-9.64181
▁гри	-9.64193
кол	-9.64263
▁сезон	-9.64271
▁африці	-9.64315
▁містах	-9.64365
▁кат	-9.64414
світ	-9.64483
▁життєпис	-9.64489
▁дуб	-9.64513
▁розвинен	-9.64558
▁своєю	-9.64665
▁готи	-9.64689
▁народної	-9.64761
жу	-9.64768
вели	-9.64808
▁пра	-9.64836
хо	-9.64853
▁промислов	-9.64868
▁встановлено	-9.64871
▁відносно	-9.64952
▁місці	-9.65014
▁елементів	-9.65091
▁людськ	-9.65115
лія	-9.65167
▁сучасні	-9.6519
47	-9.65207
03	-9.65221
▁люб	-9.65223
▁найбільші	-9.65269
▁апеннінський	-9.65314
ана	-9.65355
▁євро	-9.65384
оні	-9.65413
▁етнічн	-9.65565
▁парламент	-9.65686
ово	-9.65687
▁виборч	-9.6572
▁двома	-9.6574
▁весь	-9.65756
▁християнські	-9.65865
▁планет	-9.66223
▁статті	-9.66263
▁державних	-9.66279
▁професійн	-9.66315
наприклад	-9.66339
сл	-9.66552
▁1944	-9.66557
▁центральної	-9.66567
ір	-9.66597
стат	-9.66602
▁царя	-9.66619
▁зони	-9.66704
радянської	-9.668
)"	-9.66802
▁епоха	-9.66827
▁пал	-9.66869
▁гал	-9.66892
▁рельєф	-9.66953
▁партія	-9.66962
▁міг	-9.67059
ia	-9.67172
ськими	-9.67186
▁ком	-9.67248
▁охоплює	-9.67314
▁зайнят	-9.67324
▁головні	-9.67338
▁острові	-9.67374
▁починаючи	-9.67493
▁наукових	-9.67547
▁курс	-9.67552
▁добре	-9.67583
дин	-9.67594
▁політичні	-9.67721
36	-9.67734
сн	-9.67764
▁відділ	-9.6779
▁дар	-9.67846
▁посил	-9.67892
▁каз	-9.67915
біг	-9.67986
увався	-9.6802
▁вік	-9.68048
▁1940	-9.68073
▁варіант	-9.68081
▁книги	-9.6815
▁число	-9.68177
ta	-9.68203
▁фрідріх	-9.68213
▁храм	-9.6824
▁положення	-9.68268
рин	-9.683
▁португалії	-9.68394
▁греції	-9.68409
чук	-9.68465
▁ак	-9.68529
▁тіла	-9.68547
▁фон	-9.68549
вши	-9.68577
▁перебуває	-9.68756
▁дій	-9.68816
▁київська	-9.68827
▁роду	-9.68913
51	-9.68999
най	-9.69022
▁річка	-9.69073
▁жіноч	-9.6912
81	-9.69158
▁пре	-9.69228
інь	-9.69307
яс	-9.69361
46	-9.6937
32	-9.69412
гра	-9.69412
ієм	-9.69441
▁державу	-9.69448
из	-9.69531
63	-9.69629
сподарських	-9.69697
▁відомо	-9.69706
▁чергу	-9.69765
▁тепер	-9.69777
▁персії	-9.6986
▁сонячн	-9.6987
▁лісов	-9.69896
ев	-9.69905
57	-9.6994
▁гре	-9.69958
▁приватн	-9.70005
тро	-9.70097
▁тип	-9.701
▁основних	-9.7011
▁бере	-9.7011
▁тонн	-9.70111
▁покрив	-9.70118
чна	-9.70128
▁нью	-9.70135
ап	-9.70139
▁би	-9.70165
івського	-9.70201
итися	-9.70214
▁конституції	-9.7022
▁половині	-9.7022
▁створив	-9.70225
▁освіту	-9.70228
▁див	-9.70319
нців	-9.70367
▁миколи	-9.70412
▁актор	-9.70415
▁активно	-9.70456
▁проведення	-9.70541
пол	-9.70583
фон	-9.70623
▁пара	-9.70637
▁ат	-9.70644
нути	-9.70664
▁ліси	-9.70746
бут	-9.70746
▁законодавч	-9.70775
хар	-9.70792
▁титул	-9.70794
лев	-9.70808
▁західної	-9.70835
▁мешканців	-9.70855
▁viii	-9.70878
▁питань	-9.7096
▁інтернет	-9.70961
▁дмитро	-9.71019
іон	-9.7112
▁людовик	-9.71147
▁океані	-9.71156
ченко	-9.71194
пі	-9.71209
▁відміну	-9.71232
увалися	-9.71262
▁площею	-9.71334
58	-9.71336
▁немає	-9.71338
явилися	-9.71414
▁ґрунти	-9.71425
▁голос	-9.71443
▁критик	-9.71511
лік	-9.71533
▁матері	-9.71537
шир	-9.71554
несен	-9.7162
коп	-9.71656
▁франко	-9.71663
изму	-9.71679
▁січ	-9.71701
▁становлять	-9.71706
▁вдалося	-9.71707
▁форма	-9.71735
▁ян	-9.71817
вор	-9.71818
ічні	-9.71867
▁кос	-9.71883
▁пала	-9.719
▁невелик	-9.71948
84	-9.71966
▁сильно	-9.71987
сс	-9.72015
▁холод	-9.72035
▁яр	-9.72063
червон	-9.72067
▁ціл	-9.72082
▁місцевих	-9.72087
▁працюють	-9.72094
▁юлія	-9.72097
▁1992	-9.72101
▁планети	-9.72124
▁професор	-9.7216
▁дан	-9.72166
ань	-9.72248
▁штат	-9.72254
▁гетьман	-9.72288
пон	-9.72317
священній	-9.72334
▁група	-9.72398
▁лист	-9.72405
гал	-9.72445
▁індонезії	-9.72457
▁велике	-9.72463
▁парк	-9.72474
▁якою	-9.725
зе	-9.72552
▁«"	-9.72677
▁громади	-9.72707
▁найбільше	-9.72732
ti	-9.7275
▁президентом	-9.72765
тр	-9.72843
▁входять	-9.72861
▁колектив	-9.72911
▁пас	-9.73048
▁друга	-9.73108
▁розмір	-9.73202
▁сергій	-9.73214
▁злочин	-9.73222
9	-9.73266
48	-9.73429
▁християнськ	-9.73484
віз	-9.73642
ецький	-9.73643
дра	-9.73646
▁методи	-9.73708
ад	-9.7374
алися	-9.73755
▁водночас	-9.73785
окупували	-9.73787
фер	-9.73872
▁зараз	-9.73891
ована	-9.73897
кт	-9.73976
бач	-9.73991
▁смт	-9.74095
▁святого	-9.74183
▁їй	-9.74229
▁одне	-9.74263
▁класичн	-9.74288
▁замість	-9.74377
▁500	-9.74401
▁діють	-9.74423
пис	-9.74502
▁разів	-9.7451
кер	-9.74531
▁штучн	-9.74557
▁відкрив	-9.74592
проголосувал	-9.74603
тери	-9.74694
▁полон	-9.74714
дати	-9.74755
́н	-9.74812
▁рівнин	-9.74855
овича	-9.74856
▁сун	-9.74903
▁павло	-9.74906
так	-9.74938
ізму	-9.74985
42	-9.74999
▁церковн	-9.75021
илося	-9.75107
▁повіту	-9.75153
технічн	-9.7523
шко	-9.753
▁стати	-9.75306
▁метод	-9.75466
лон	-9.75508
▁машин	-9.75514
▁міфології	-9.7553
ri	-9.75549
▁2013	-9.75558
▁поля	-9.75632
▁міжнародних	-9.75655
▁богів	-9.7574
▁відносин	-9.75748
▁попри	-9.75764
▁випадку	-9.75909
жит	-9.75955
▁археологічні	-9.75991
▁імператора	-9.76032
раж	-9.76164
▁заходу	-9.7617
▁стін	-9.76218
▁спеціальн	-9.7622
▁олександра	-9.76288
▁відкриття	-9.763
уля	-9.76394
▁тверд	-9.76421
▁бер	-9.76431
▁ямато	-9.76497
▁південній	-9.76548
▁творчість	-9.76567
▁перехід	-9.76602
лин	-9.76634
▁мистецтв	-9.76635
суд	-9.76642
▁мир	-9.76683
▁тан	-9.7669
спа	-9.76836
▁монгольська	-9.76865
ічних	-9.76926
▁народження	-9.76955
ічний	-9.77016
▁філософ	-9.77069
куп	-9.77073
▁архітектури	-9.77169
▁орди	-9.77191
ину	-9.77195
▁пояс	-9.77319
▁певн	-9.77323
▁b	-9.77338
цев	-9.77363
▁a	-9.77425
▁от	-9.77449
▁використовувати	-9.77482
▁здебільшого	-9.77482
▁течії	-9.77483
бра	-9.77501
▁речовин	-9.77529
▁призвел	-9.77551
альні	-9.77603
▁орган	-9.77618
тика	-9.7766
▁авари	-9.77687
▁наступ	-9.77887
▁значну	-9.77892
▁напрямку	-9.77968
na	-9.77982
бур	-9.78017
▁умовах	-9.78057
▁галичини	-9.78082
▁числа	-9.78088
▁сільське	-9.78096
арт	-9.7816
пал	-9.78222
▁пор	-9.78225
▁річков	-9.78266
▁цінн	-9.78298
▁(4	-9.78386
▁кількох	-9.78478
▁безпеки	-9.78479
▁поза	-9.78496
▁невеликі	-9.78525
▁рівнем	-9.78531
▁приклад	-9.78668
▁1943	-9.78703
▁колишні	-9.78707
час	-9.78714
▁аб	-9.78797
сько	-9.78822
віль	-9.78846
крі	-9.78855
▁безпосередньо	-9.78894
нню	-9.78904
▁род	-9.78943
пад	-9.78962
▁ад	-9.7899
▁директор	-9.79025
▁океан	-9.79029
твер	-9.79046
▁центральн	-9.79072
▁рахунок	-9.79081
▁княжить	-9.79086
▁називається	-9.7909
їзд	-9.79153
ска	-9.7916
▁революційн	-9.79187
▁тов	-9.7923
▁контроль	-9.79287
▁прийнят	-9.7929
▁поділяється	-9.793
▁українській	-9.79304
▁газ	-9.79308
іш	-9.79345
ходу	-9.79399
▁кандидатів	-9.79402
кладен	-9.79433
▁комітету	-9.79454
▁захист	-9.79498
уватися	-9.79515
▁2012	-9.79537
україн	-9.79547
▁євген	-9.79689
▁театру	-9.79714
нар	-9.79731
▁поки	-9.79749
▁нос	-9.79787
67	-9.79816
▁птахів	-9.79834
▁впливом	-9.79889
▁сучасного	-9.7989
▁століть	-9.7989
▁ідеї	-9.79897
ват	-9.79901
▁такий	-9.79913
um	-9.7993
▁боротьба	-9.79991
▁мер	-9.80082
▁провінції	-9.80093
83	-9.80116
▁своїми	-9.80169
пін	-9.80253
▁колишній	-9.80266
▁повернувся	-9.80322
▁посаду	-9.80362
▁середині	-9.80373
▁єврейськ	-9.80452
▁досяг	-9.80467
▁найбільших	-9.80479
▁отримала	-9.80501
▁відбувся	-9.80501
08	-9.80524
▁зробив	-9.80533
▁джерела	-9.80541
▁водо	-9.80649
▁обмежен	-9.80652
▁книг	-9.80653
▁мові	-9.80719
▁35	-9.80722
▁очолив	-9.80808
ниці	-9.80833
41	-9.80854
вала	-9.80899
▁чисельність	-9.80922
▁абсолютн	-9.80938
▁райони	-9.81022
▁представників	-9.81046
▁уже	-9.81052
▁кордон	-9.81091
▁юрій	-9.81106
▁утримують	-9.8112
▁метрів	-9.81125
єкт	-9.81178
▁довжина	-9.81232
▁поряд	-9.81263
▁код	-9.81288
▁навчався	-9.81321
▁кап	-9.81323
▁власності	-9.81345
▁ал	-9.81418
▁фі	-9.81429
▁том	-9.81494
44	-9.81495
▁аеропорт	-9.81528
▁військових	-9.81533
▁масив	-9.81618
▁китай	-9.81643
чан	-9.81664
▁головою	-9.8168
мір	-9.81685
ce	-9.81697
▁гімназії	-9.81734
▁ке	-9.81793
▁центрі	-9.81815
форм	-9.81859
овського	-9.81942
▁склав	-9.81951
▁зевс	-9.8196
▁здобув	-9.82022
▁клуб	-9.82033
мисл	-9.82099
▁народи	-9.82132
▁компанії	-9.8215
голос	-9.82152
69	-9.82202
дається	-9.82216
▁жит	-9.82218
сп	-9.82282
▁британія	-9.82356
▁–	-9.82357
▁столиці	-9.8236
▁називали	-9.82384
64	-9.82386
ованих	-9.82403
▁випуск	-9.82418
▁зелен	-9.82425
▁ло	-9.8248
ід	-9.82493
▁мистецтво	-9.8254
▁сассанідів	-9.82565
▁українську	-9.82565
дія	-9.82659
тю	-9.82673
▁південної	-9.82723
▁температур	-9.82725
сій	-9.82727
ізації	-9.82737
ею	-9.82746
▁спо	-9.82819
▁70	-9.82828
▁закінчення	-9.8283
▁ман	-9.82873
▁людина	-9.82885
▁міністрів	-9.8299
co	-9.83014
▁північна	-9.8317
▁под	-9.83212
▁ери	-9.83235
▁петра	-9.83257
ологія	-9.83334
▁порошенко	-9.83402
▁узбережжі	-9.83403
▁алани	-9.83413
▁сполучен	-9.8343
мп	-9.83443
52	-9.83484
▁ста	-9.83492
▁1000	-9.83512
▁лу	-9.8352
▁видатн	-9.83578
▁зевса	-9.83602
▁додатков	-9.83618
▁парламенту	-9.83632
▁пункти	-9.83637
▁кінці	-9.8365
цю	-9.83684
▁сцен	-9.83694
́р	-9.83703
нок	-9.83717
▁органів	-9.83813
▁ска	-9.83856
▁іванович	-9.83951
▁історію	-9.84036
схід	-9.84037
▁значна	-9.84072
▁звання	-9.84127
▁ти	-9.84146
▁західно	-9.84197
серед	-9.84245
▁смерть	-9.84247
▁робота	-9.84249
▁гр	-9.84252
▁1930	-9.84313
ріс	-9.84335
пс	-9.84383
▁окрем	-9.84431
▁ігор	-9.84452
▁німецьких	-9.84459
▁палац	-9.8454
▁дитяч	-9.84542
▁зобов	-9.84545
еля	-9.84578
іт	-9.84594
правлять	-9.84608
▁другий	-9.84645
▁анатолій	-9.84672
ряд	-9.84705
▁пів	-9.84745
▁ґрунт	-9.84811
▁спрямован	-9.84886
▁контролю	-9.84923
▁нижче	-9.84925
▁арагонськ	-9.84926
▁степан	-9.84933
річ	-9.84958
▁коп	-9.85001
2,	-9.85012
вався	-9.85032
▁поро	-9.85065
▁недійсн	-9.85099
град	-9.851
▁татар	-9.85119
инський	-9.85197
▁сходу	-9.85239
▁пласт	-9.85245
ря	-9.85335
▁піренейський	-9.85341
▁300	-9.8535
▁реформи	-9.85368
▁справи	-9.85432
слід	-9.85455
▁меншу	-9.85519
▁однієї	-9.85528
▁середньому	-9.85571
▁деяк	-9.85649
овими	-9.85651
лег	-9.85663
▁напів	-9.85674
ництво	-9.85709
плав	-9.85727
▁річ	-9.85733
яч	-9.85746
молод	-9.85748
лод	-9.85765
▁михайла	-9.85806
▁раз	-9.85903
53	-9.85915
▁політичної	-9.85961
▁тро	-9.86017
▁південний	-9.86096
дали	-9.86147
▁районами	-9.86153
▁хей	-9.86161
валися	-9.86179
леж	-9.86182
▁великому	-9.86212
територіальн	-9.86241
▁російській	-9.86245
▁призначення	-9.86266
de	-9.8631
чка	-9.8632
▁починається	-9.86411
▁геракл	-9.86457
▁f	-9.86494
▁великим	-9.86512
▁мон	-9.86571
чні	-9.86617
▁вода	-9.86619
зем	-9.86674
▁нею	-9.86682
▁дружина	-9.86699
▁грудні	-9.86831
▁од	-9.86851
st	-9.86871
▁край	-9.86935
▁сир	-9.86948
▁ефективн	-9.87037
лад	-9.87037
▁запорозьк	-9.87043
чно	-9.87051
▁австрії	-9.87057
використовуються	-9.87071
явка	-9.8708
▁довго	-9.87083
▁глибок	-9.87089
▁школі	-9.87094
▁представники	-9.87095
▁російською	-9.87116
▁грн	-9.87135
to	-9.87146
▁змі	-9.87155
тори	-9.87225
▁латинськ	-9.87227
лій	-9.87245
▁дніпро	-9.87278
▁римська	-9.87319
▁документ	-9.87405
▁містить	-9.87406
▁епі	-9.87416
▁повіт	-9.87429
▁президентські	-9.87438
02	-9.87471
▁присвячен	-9.87473
▁інтенсивн	-9.8748
▁2016	-9.8754
▁таємн	-9.87565
▁вар	-9.8758
арі	-9.87597
▁колон	-9.87618
▁ярослав	-9.8762
▁пізн	-9.87622
▁знаходяться	-9.87716
▁чола	-9.87723
▁написан	-9.87733
▁мета	-9.87778
▁монарх	-9.8781
▁керівництвом	-9.87816
▁будинку	-9.87922
▁почалося	-9.87961
▁спорт	-9.87965
▁оле	-9.87974
ено	-9.87975
язана	-9.88048
нич	-9.88061
=	-9.88106
▁сармати	-9.88145
іль	-9.88255
▁дає	-9.88338
▁кількістю	-9.8836
▁місць	-9.8836
▁вулиці	-9.88366
▁франка	-9.88366
▁басейну	-9.8838
▁музичн	-9.88383
иків	-9.88437
кл	-9.88558
▁32	-9.88559
▁1945	-9.88618
▁потужн	-9.8863
гон	-9.88672
нням	-9.88686
▁досі	-9.88745
▁посполитої	-9.88825
▁лук	-9.88852
▁вигляд	-9.88918
сом	-9.88983
▁нато	-9.89013
▁розроблен	-9.89029
зо	-9.89079
▁біло	-9.89102
▁блок	-9.89129
▁орда	-9.89138
▁похід	-9.89182
▁січні	-9.89197
▁маси	-9.89217
▁ній	-9.89218
▁генуя	-9.89251
▁античн	-9.89253
біл	-9.89352
▁великою	-9.89354
▁гол	-9.89361
▁ген	-9.89371
ськ	-9.89406
ням	-9.89409
▁добу	-9.8941
▁перебував	-9.89472
▁війну	-9.89478
▁мікро	-9.89486
іше	-9.89533
дні	-9.89613
▁цікав	-9.89627
▁історик	-9.89644
▁гетьмана	-9.89684
▁львівськ	-9.89687
▁переважають	-9.89695
▁будинок	-9.89695
▁заяв	-9.89706
▁кол	-9.89725
трі	-9.89845
▁(16	-9.89846
▁народного	-9.89851
▁2003	-9.89879
▁формально	-9.89885
ляр	-9.89894
▁карт	-9.89924
▁народних	-9.89951
тв	-9.89958
▁радянського	-9.89963
▁князівства	-9.9
нка	-9.90007
▁традиції	-9.90144
▁конкретн	-9.90144
▁іноземн	-9.90145
чат	-9.90155
ог	-9.90245
івської	-9.90346
▁венеція	-9.9037
▁теле	-9.90419
▁коло	-9.90444
▁вважав	-9.90469
▁незважаючи	-9.90595
нки	-9.90635
▁художник	-9.90656
▁ант	-9.9071
▁гл	-9.90809
▁композитор	-9.90821
єва	-9.90849
▁вітру	-9.90854
▁1990	-9.90925
▁угорщини	-9.90956
волинськ	-9.90975
▁житті	-9.90991
▁національні	-9.90998
ністю	-9.91013
▁ландшафт	-9.91048
▁складають	-9.9105
ож	-9.91081
▁проведен	-9.91151
▁найбільша	-9.91276
▁пат	-9.91289
▁споруд	-9.91357
▁землях	-9.91411
▁регіону	-9.91441
рок	-9.91444
лог	-9.91505
ско	-9.91543
▁родини	-9.91581
▁цукров	-9.91668
ключ	-9.91688
держав	-9.9173
▁москві	-9.91732
міст	-9.9174
▁xiv	-9.91747
▁війні	-9.91809
▁вихід	-9.91857
▁булгари	-9.91877
люб	-9.91889
▁отримали	-9.9196
▁точки	-9.91988
▁показник	-9.92002
▁закону	-9.92002
▁33	-9.92036
▁збільшення	-9.92046
▁реформ	-9.92049
▁піренейськ	-9.9216
▁зіпсован	-9.9219
▁римі	-9.92195
народн	-9.92216
▁представник	-9.92256
▁аж	-9.92315
▁власник	-9.92359
стру	-9.92396
▁імперію	-9.9242
▁увагу	-9.92422
елл	-9.92459
▁собор	-9.92464
▁віктор	-9.92465
нська	-9.92517
▁літературі	-9.92574
▁мат	-9.9263
▁півострові	-9.9265
▁схож	-9.92653
▁самого	-9.92661
▁прапор	-9.92662
захід	-9.92676
гін	-9.92694
▁шлюб	-9.92699
▁кліматичн	-9.92703
▁сектор	-9.92707
віс	-9.92712
▁електронн	-9.92728
").	-9.92778
):	-9.92793
шки	-9.92819
▁бюлетенів	-9.92881
▁індостану	-9.92881
▁включає	-9.92882
▁північного	-9.92907
уванні	-9.92912
▁причин	-9.92959
руд	-9.92969
▁руках	-9.92983
▁математичн	-9.92999
▁джон	-9.93025
▁етап	-9.93053
▁райо́н	-9.93114
нської	-9.9312
▁ху	-9.9319
вів	-9.93287
вський	-9.93315
▁тем	-9.93336
▁засоби	-9.93345
▁могли	-9.93345
▁проблеми	-9.93348
рог	-9.93366
▁виш	-9.93423
▁знання	-9.93433
рик	-9.93489
▁цикл	-9.9351
▁різними	-9.93543
мент	-9.93553
▁комітет	-9.9356
▁територією	-9.93577
▁плато	-9.93579
▁2019	-9.93603
▁григоріанськ	-9.9361
▁ам	-9.93614
▁другій	-9.93644
▁релігії	-9.9381
▁південного	-9.93837
▁суду	-9.93843
нець	-9.93936
▁королівськ	-9.93941
▁конституційн	-9.93945
єкти	-9.93964
▁раду	-9.93974
▁провінцій	-9.94044
▁робоч	-9.94044
▁фігур	-9.94048
▁ресурси	-9.9405
ач	-9.94211
вести	-9.9423
▁магрибі	-9.94278
ником	-9.9428
▁соціально	-9.94287
альних	-9.94312
▁станція	-9.94321
олі	-9.94326
▁аграрн	-9.94417
екс	-9.9447
▁поширені	-9.94508
стрі	-9.94516
▁сір	-9.9453
▁прес	-9.94541
▁товариство	-9.94689
▁борщ	-9.94714
▁літ	-9.94714
▁пір	-9.9472
se	-9.94742
▁мотив	-9.94753
▁географічн	-9.94821
▁крим	-9.94832
▁березі	-9.94837
▁лікар	-9.94838
джа	-9.94855
▁районний	-9.94894
▁спортивн	-9.94912
юр	-9.94926
▁найважливіш	-9.94938
▁звук	-9.94981
▁османів	-9.94984
▁березні	-9.95049
▁місяця	-9.95222
▁греко	-9.95227
▁тор	-9.95236
▁всю	-9.95273
▁традицій	-9.95307
▁слав	-9.95316
▁2002	-9.95331
▁одному	-9.95351
▁90	-9.95421
▁робіт	-9.95431
▁письменників	-9.95442
ивши	-9.95456
▁відбулося	-9.95457
▁досягнення	-9.95466
▁борис	-9.95486
шев	-9.95581
нс	-9.95603
▁східної	-9.95613
▁створені	-9.95634
нес	-9.95651
▁івано	-9.95668
▁охорони	-9.95695
▁спорту	-9.95711
▁районом	-9.95783
щі	-9.95785
▁бібліотек	-9.95833
▁якими	-9.95847
▁головний	-9.9587
el	-9.95887
▁найвідоміш	-9.95933
▁повернення	-9.95933
▁напад	-9.96064
▁виникнення	-9.96219
▁місяців	-9.96341
ne	-9.96371
▁впливу	-9.96398
▁гурт	-9.964
▁основними	-9.96402
▁допомоги	-9.96412
▁нафти	-9.96423
▁візантійськ	-9.96424
il	-9.96468
▁факультет	-9.96472
▁останній	-9.96483
кевич	-9.96491
▁кандидат	-9.96508
▁пункт	-9.96535
▁обласн	-9.96638
▁південна	-9.9665
▁черняхівськ	-9.96651
▁молдова	-9.96651
вського	-9.96659
▁учнів	-9.96664
▁основу	-9.96666
▁xv	-9.9667
▁рай	-9.96688
жан	-9.96709
▁визнан	-9.96731
меж	-9.96738
▁ев	-9.96752
▁газу	-9.96847
інг	-9.96915
▁розташування	-9.9693
▁депутатів	-9.96996
▁міжнародного	-9.97036
▁продукт	-9.97045
▁пап	-9.97089
▁кожен	-9.97107
▁відповідає	-9.97132
▁засобів	-9.97132
▁національних	-9.97132
▁договір	-9.97134
річчя	-9.97146
▁1999	-9.97165
кан	-9.97245
▁різноманітн	-9.97274
ийшла	-9.97366
▁найдавніш	-9.97373
▁європейського	-9.9738
▁загальні	-9.97392
▁встановлен	-9.97396
▁відомості	-9.974
▁московськ	-9.97405
▁2017	-9.97422
▁важливим	-9.97449
▁габсбург	-9.97474
▁журнал	-9.97483
▁клас	-9.97502
ma	-9.97548
▁справжн	-9.97605
▁мовами	-9.97607
ur	-9.97615
▁столиця	-9.97624
▁здійснюється	-9.9764
чки	-9.97648
▁залишилися	-9.97657
тал	-9.97669
▁шведськ	-9.97743
▁віль	-9.97783
▁можливості	-9.97878
▁експорт	-9.97903
тки	-9.9792
син	-9.97937
▁подій	-9.98012
▁завдання	-9.98037
лені	-9.98077
▁становив	-9.98102
▁товарів	-9.98108
▁континенту	-9.98218
▁розселення	-9.98345
▁підтримки	-9.98346
▁прибережн	-9.98355
▁театральн	-9.98359
▁мережі	-9.98368
▁1996	-9.98382
ведення	-9.98415
▁письменника	-9.98506
▁пошук	-9.98509
▁дійсн	-9.98591
аз	-9.986
▁процесів	-9.9862
▁джерел	-9.98642
▁банк	-9.98654
▁реаліз	-9.98657
▁самому	-9.98672
▁канал	-9.98703
▁віт	-9.98799
▁коро	-9.98822
▁ресурсів	-9.98838
▁західна	-9.98887
▁формі	-9.98939
енні	-9.9898
▁енергії	-9.99081
▁діалект	-9.99092
gt	-9.99133
дем	-9.9916
▁марія	-9.99177
▁матеріальн	-9.99194
▁1932	-9.99198
po	-9.99198
▁утворили	-9.99222
шин	-9.99235
▁керівник	-9.99286
шка	-9.9929
▁півдня	-9.99327
▁землю	-9.99329
▁відповідн	-9.99336
▁1925	-9.99375
європейськ	-9.99395
стал	-9.99405
▁золотої	-9.9942
▁захисту	-9.99432
бит	-9.99465
▁єпископ	-9.99492
▁факт	-9.99514
▁граф	-9.99518
▁корисн	-9.99519
альний	-9.99521
▁вітри	-9.99531
▁рамках	-9.9958
▁японськ	-9.9958
▁апарат	-9.99601
ора	-9.99665
▁момент	-9.99687
чів	-9.99744
▁добр	-9.99785
культур	-9.99791
▁обраний	-9.99804
▁поразки	-9.99822
▁іншим	-9.99839
▁утворено	-9.99921
енд	-9.99984
▁львів	-9.99988
▁ч	-10
▁вступив	-10.0001
▁системі	-10.0003
ений	-10.0009
▁біографія	-10.0009
▁2018	-10.0013
▁криму	-10.0015
▁інтерес	-10.002
▁картин	-10.0023
▁центральній	-10.0026
▁дев	-10.0032
▁допомогу	-10.0032
иться	-10.0032
▁доміну	-10.0035
▁1921	-10.0036
▁такого	-10.0039
▁трав	-10.0041
▁тра	-10.0042
▁наукові	-10.0046
▁отримання	-10.0046
дій	-10.0047
вищ	-10.0053
бель	-10.0058
дум	-10.006
▁структур	-10.0064
▁імен	-10.0064
es	-10.0065
єднують	-10.0069
▁організован	-10.0076
▁незабаром	-10.0082
▁мільйонів	-10.0082
▁поле	-10.0084
▁мірою	-10.0096
▁стоїть	-10.0107
▁морі	-10.0115
▁англ	-10.0118
рег	-10.0122
▁бідн	-10.0124
вським	-10.0126
▁процесі	-10.0127
дя	-10.0129
івська	-10.0131
бан	-10.0131
▁наймогутніш	-10.0132
▁бразилії	-10.0132
▁змушен	-10.0132
▁хмари	-10.0133
▁проект	-10.0133
▁ворог	-10.0134
▁кре	-10.0135
▁припадає	-10.0136
др	-10.0137
▁молоді	-10.014
▁родині	-10.0141
▁словами	-10.0142
▁господарськ	-10.0143
▁особа	-10.0145
цьким	-10.0151
▁цілому	-10.0152
▁народний	-10.0154
▁дозволяє	-10.0155
нк	-10.0156
▁спосіб	-10.0157
▁австралії	-10.0157
▁моно	-10.0158
▁дик	-10.0158
▁гімн	-10.0159
▁широк	-10.016
▁теж	-10.0168
шт	-10.0169
▁свято	-10.017
▁150	-10.0172
▁громадянськ	-10.0172
▁спостерігається	-10.0182
▁унікальн	-10.0183
▁реєстр	-10.0184
увалася	-10.0184
сад	-10.0185
▁згадують	-10.0185
▁1993	-10.0186
▁андрій	-10.0187
ацією	-10.0192
▁календарі	-10.0205
▁ганза	-10.0208
ювання	-10.0209
▁похований	-10.0211
ней	-10.0216
▁тимчасов	-10.0222
рід	-10.0223
▁австро	-10.0223
▁торговельн	-10.0224
▁h	-10.0226
▁другого	-10.0226
▁заборон	-10.0231
▁декілько	-10.0233
▁природн	-10.0235
ходять	-10.0237
▁програмування	-10.024
о́	-10.0251
▁тепло	-10.0257
▁нідерланди	-10.0259
▁падіння	-10.0259
▁зустрічаються	-10.0259
▁біо	-10.0261
▁кола	-10.0263
чини	-10.0263
▁36	-10.0272
▁хрест	-10.028
овою	-10.03
решт	-10.0307
▁грав	-10.0309
▁берез	-10.0309
▁вугілля	-10.031
▁німеччині	-10.031
▁виконавч	-10.0317
фр	-10.0318
сен	-10.0319
▁вал	-10.032
▁нову	-10.0327
яна	-10.033
▁орден	-10.0335
▁сар	-10.034
▁порядку	-10.0345
▁суспільн	-10.0347
▁вчення	-10.0348
ter	-10.0349
▁дід	-10.0351
▁зоні	-10.0355
▁болгарське	-10.0355
▁відома	-10.0367
▁угорщина	-10.0367
▁збереження	-10.037
тюр	-10.0373
▁галісія	-10.0387
▁тюрки	-10.0387
лот	-10.0387
▁київській	-10.0391
▁швидкість	-10.0392
кам	-10.0398
товар	-10.0404
▁природно	-10.0408
▁становило	-10.0413
▁чорного	-10.0413
▁диск	-10.0417
▁x	-10.0419
більш	-10.042
▁тисячі	-10.0425
▁перш	-10.0428
они	-10.0432
▁космічн	-10.0432
▁сум	-10.0435
яні	-10.0439
▁віце	-10.0458
▁власне	-10.0463
▁ляшко	-10.0465
▁дочка	-10.0467
▁правила	-10.047
▁особливості	-10.047
▁конфлікт	-10.0479
▁походи	-10.0479
▁куб	-10.0482
голов	-10.0482
▁годин	-10.0485
бет	-10.0486
▁опублікован	-10.0491
▁1933	-10.0494
основ	-10.0499
lt	-10.0501
▁місцеві	-10.0501
▁премії	-10.0503
вич	-10.0507
ходом	-10.0508
▁будівель	-10.0519
▁друку	-10.052
▁геологічн	-10.0523
горськ	-10.0525
▁римського	-10.0527
▁надання	-10.0531
▁поета	-10.0532
сан	-10.0532
▁політична	-10.0538
▁розташоване	-10.0538
▁брати	-10.0542
▁хліб	-10.0543
▁дніпра	-10.0544
язков	-10.0544
▁арешт	-10.0548
▁(5	-10.0548
▁наш	-10.0548
▁ix	-10.0549
▁всеукраїнськ	-10.055
▁2-	-10.0551
лось	-10.0553
▁др	-10.0554
▁природні	-10.0556
ограф	-10.0559
▁45	-10.0565
▁очолював	-10.0569
▁отже	-10.057
▁1937	-10.0572
▁маврів	-10.0574
▁промислових	-10.0589
▁повинні	-10.0592
▁імперськ	-10.0596
мах	-10.0597
▁поступ	-10.0598
▁таке	-10.0601
▁супутник	-10.061
▁важк	-10.0611
▁політику	-10.0611
▁липні	-10.0613
▁теорія	-10.0615
▁визнання	-10.0618
▁взимку	-10.0622
▁початком	-10.0622
▁ринку	-10.0622
віт	-10.0623
▁елемент	-10.0624
▁опер	-10.0625
нова	-10.0627
▁здійснюють	-10.0632
хім	-10.0638
▁d	-10.0649
▁участі	-10.065
дже	-10.0652
▁1938	-10.0652
▁визнав	-10.0653
▁середини	-10.0657
фор	-10.0659
▁північний	-10.066
▁вважали	-10.0662
шен	-10.0663
іл	-10.0667
▁залежить	-10.0675
без	-10.0675
▁швидк	-10.0675
жі	-10.0679
▁лис	-10.0681
▁режисер	-10.0688
тель	-10.0694
▁депутат	-10.0695
▁органи	-10.0696
▁першою	-10.0698
▁львова	-10.0701
▁молодш	-10.0703
орган	-10.0704
▁кут	-10.0705
пра	-10.0709
vi	-10.0711
прийма	-10.0712
▁створена	-10.0714
▁вбив	-10.0716
▁жанр	-10.0717
▁лідер	-10.0724
▁троні	-10.0727
▁монгол	-10.0728
▁гірських	-10.0734
▁отриман	-10.074
▁процесу	-10.0743
▁державні	-10.0744
▁дух	-10.0745
▁схил	-10.0749
▁сторіччя	-10.0756
▁затоки	-10.0756
▁героя	-10.0756
▁ча	-10.0759
ані	-10.076
▁(6	-10.0762
▁забезпечує	-10.0762
▁помітн	-10.0763
ром	-10.0763
▁відновлення	-10.0764
%	-10.0765
▁обряд	-10.0767
▁m	-10.0769
▁нашої	-10.0769
▁порівняно	-10.0773
▁престол	-10.0775
▁полку	-10.0778
▁середовища	-10.0782
тись	-10.0782
▁карибськ	-10.0782
▁працювати	-10.0782
▁кордовськ	-10.0783
▁незначн	-10.0786
▁точка	-10.0786
▁представлена	-10.0792
▁ли	-10.0794
▁вибор	-10.0799
можлив	-10.0803
▁половини	-10.0808
▁китаю	-10.0808
▁політичний	-10.0813
центр	-10.082
▁чоловіків	-10.082
▁рук	-10.0826
дн	-10.0828
▁вересні	-10.0835
фран	-10.0839
▁посад	-10.0841
▁практик	-10.0842
▁аналіз	-10.0848
біт	-10.0851
▁пісні	-10.0854
логі	-10.0857
ілл	-10.0858
lo	-10.0859
▁портрет	-10.0865
▁приз	-10.0875
▁виступ	-10.0879
річн	-10.0885
▁цк	-10.0887
▁ше	-10.0887
▁хр	-10.0888
▁відбулася	-10.089
нія	-10.0895
▁(15	-10.0895
стар	-10.0896
▁зору	-10.0897
▁помірно	-10.0898
▁%).	-10.0899
▁400	-10.0902
міс	-10.0906
it	-10.091
▁внутрішніх	-10.0913
▁підтримку	-10.0917
▁україною	-10.0921
▁разі	-10.0927
валася	-10.0927
▁мережа	-10.0931
▁військово	-10.0935
мід	-10.0939
▁травні	-10.0942
▁думки	-10.0944
иль	-10.0947
▁1962	-10.0947
сил	-10.095
рії	-10.0951
▁індійськ	-10.0956
▁континентальн	-10.0967
▁сюжет	-10.0971
▁позиції	-10.0971
▁жінки	-10.0971
▁ногайськ	-10.0971
▁зустріч	-10.0972
▁станіслав	-10.0972
un	-10.0973
▁остаточно	-10.0974
▁властивості	-10.0975
▁цивільн	-10.0978
кур	-10.0979
▁досвід	-10.0983
ni	-10.0987
▁печер	-10.0987
мага	-10.0992
0-	-10.0994
▁1934	-10.1002
стві	-10.1016
▁любов	-10.1017
▁n	-10.102
хан	-10.1023
▁болгарія	-10.1029
▁команд	-10.1037
▁племен	-10.1037
́й	-10.1039
▁бен	-10.1039
чор	-10.1041
▁африканськ	-10.1042
▁загального	-10.1042
ho	-10.1044
▁черн	-10.1045
▁необхідно	-10.1052
рит	-10.1053
▁хвилі	-10.1054
▁ролі	-10.1056
▁1995	-10.1058
▁вершин	-10.1064
▁шляху	-10.1067
▁епохи	-10.1068
▁зір	-10.107
▁хоч	-10.1077
▁аббасидськ	-10.1081
▁льодовик	-10.1081
▁чимало	-10.1083
▁намага	-10.1084
крес	-10.1085
▁наявність	-10.1087
▁усього	-10.1087
▁метал	-10.1089
▁постанов	-10.1093
—20	-10.1096
▁бібліотека	-10.1104
▁рср	-10.1109
▁ніч	-10.1114
ватися	-10.1117
▁нез	-10.1119
▁познач	-10.1123
▁національно	-10.1123
▁валют	-10.1128
▁періодичн	-10.1129
_1	-10.1136
▁компанія	-10.1137
▁грошов	-10.1137
▁1989	-10.1139
тичні	-10.1146
▁зазнал	-10.1153
тка	-10.1159
▁ході	-10.1159
воло	-10.1163
був	-10.1164
▁південних	-10.1165
▁механізм	-10.1165
▁високосні	-10.1165
ров	-10.1168
si	-10.1173
▁сфера	-10.1174
▁матеріалів	-10.1175
ери	-10.1178
▁історичних	-10.1182
лл	-10.1186
▁матеріал	-10.119
▁розвивається	-10.1193
▁статут	-10.1195
▁андр	-10.1196
дії	-10.1197
▁інженер	-10.1203
ць	-10.1205
do	-10.1213
ози	-10.1216
▁сидить	-10.1221
▁листопаді	-10.1222
ез	-10.1225
азов	-10.1245
▁скульптур	-10.1249
▁кожного	-10.1249
▁власні	-10.1251
ванні	-10.1252
увалося	-10.1252
▁1994	-10.1255
▁наступного	-10.1256
▁королівством	-10.126
at	-10.1261
▁національна	-10.1267
▁островах	-10.1267
▁квітні	-10.1267
▁увійшли	-10.1269
▁маршрут	-10.1277
▁релігія	-10.1277
▁територій	-10.1277
▁найменш	-10.1277
▁основою	-10.1277
▁праць	-10.1277
▁1946	-10.128
▁1914	-10.1281
▁пен	-10.1281
ництва	-10.1286
▁тіло	-10.1294
▁новим	-10.1298
▁селах	-10.1303
▁загальний	-10.1305
▁версія	-10.1307
▁музеї	-10.1307
▁ідей	-10.1309
▁заснован	-10.1313
юк	-10.1313
▁одиниця	-10.1315
▁характерн	-10.1326
▁елементи	-10.1328
▁стріл	-10.1329
▁структури	-10.1333
▁місяць	-10.1333
▁спостереження	-10.1333
▁заснував	-10.1333
▁розміщен	-10.1342
▁бл	-10.1343
▁норм	-10.1343
▁ібері	-10.1346
▁ніколи	-10.1353
уч	-10.1354
рат	-10.136
▁залежно	-10.1363
▁апеннінськ	-10.137
шов	-10.1371
▁військові	-10.1372
▁луганськ	-10.138
▁внутрішні	-10.1387
анні	-10.1389
▁увійшов	-10.139
▁заснування	-10.139
▁родовища	-10.1402
▁теоретичн	-10.1402
▁транс	-10.1403
цям	-10.1407
▁експорту	-10.1408
da	-10.1409
▁почесн	-10.1411
▁видан	-10.1412
▁комісії	-10.1419
▁італія	-10.1419
▁господарств	-10.142
▁географічних	-10.1421
▁гру	-10.1423
▁1998	-10.1423
▁надзвичайно	-10.1426
▁партій	-10.1428
пас	-10.1445
андр	-10.1446
▁боротьбу	-10.1448
▁винятком	-10.1448
▁роботі	-10.1448
▁традиційно	-10.1448
▁конкурс	-10.1449
▁студент	-10.1451
▁середньо	-10.1456
▁кілометрів	-10.1458
вій	-10.1459
увало	-10.1459
▁жертв	-10.146
язн	-10.1461
стю	-10.1467
давати	-10.1468
▁легк	-10.1469
▁основним	-10.1476
▁партнер	-10.1476
▁найбільший	-10.1477
цьке	-10.1481
▁лип	-10.1484
▁відомих	-10.1488
сар	-10.1492
иць	-10.1493
кових	-10.1493
▁монастир	-10.1497
▁література	-10.1497
хова	-10.1502
▁інків	-10.1503
▁архів	-10.1507
▁школу	-10.1509
▁степов	-10.1512
▁ран	-10.1512
▁піс	-10.1516
▁обмін	-10.152
▁країнами	-10.1521
▁обох	-10.1524
▁включаючи	-10.1533
▁лісів	-10.1536
▁сфері	-10.154
віст	-10.154
▁створений	-10.1542
▁підземн	-10.1548
лась	-10.1548
▁басейн	-10.1551
▁першій	-10.1553
▁віри	-10.1555
гальної	-10.1558
лекс	-10.1559
▁горах	-10.1561
▁вестготськ	-10.1563
▁греція	-10.1566
▁визначається	-10.1566
▁віком	-10.1566
▁індія	-10.1568
▁папи	-10.1571
▁частка	-10.1574
▁піза	-10.1575
▁представлені	-10.1575
▁місцях	-10.1575
рія	-10.1576
▁папа	-10.1577
▁латин	-10.1585
▁витрати	-10.1586
діл	-10.1589
глиб	-10.1592
▁договору	-10.1592
▁жовтні	-10.1592
▁делійськ	-10.1594
▁кінець	-10.1596
am	-10.1601
▁екологічн	-10.1608
▁межами	-10.1611
▁закони	-10.1611
▁степ	-10.1613
▁старш	-10.1617
▁базі	-10.162
▁президії	-10.1621
▁слабк	-10.1621
ального	-10.1621
▁берегів	-10.1627
юють	-10.1627
тепер	-10.1627
еві	-10.1631
▁майстер	-10.1637
ютер	-10.164
кут	-10.1644
маль	-10.1649
станов	-10.1649
▁зосереджен	-10.165
істи	-10.1653
▁запаси	-10.166
▁наказ	-10.1661
▁чому	-10.1675
▁музики	-10.168
хоп	-10.168
▁кін	-10.1682
▁містом	-10.1684
▁1924	-10.1684
річний	-10.1686
▁лінія	-10.1687
▁полягає	-10.1688
▁бел	-10.1692
▁морські	-10.1692
▁de	-10.1701
▁породи	-10.1703
ca	-10.1704
▁природних	-10.1706
▁донецьк	-10.1708
▁гриценко	-10.1709
▁битві	-10.1715
▁кп	-10.1715
▁червні	-10.1719
грес	-10.172
▁хвороб	-10.1725
▁міжнародний	-10.173
піл	-10.1733
▁гептархії	-10.1739
▁серпні	-10.1739
дон	-10.1746
▁виник	-10.1751
ств	-10.1751
▁державна	-10.1752
▁циклон	-10.1754
▁костянтин	-10.1755
▁головного	-10.1757
▁класи	-10.1757
вин	-10.176
яр	-10.1763
▁марк	-10.1764
▁окупації	-10.1768
▁пеньківськ	-10.1768
▁шухевич	-10.1768
▁туристичн	-10.1768
▁2022	-10.1774
▁василя	-10.1775
▁павла	-10.1777
енер	-10.1778
▁звичайно	-10.178
▁експеримент	-10.1786
▁закрит	-10.1787
орд	-10.1796
▁поетичн	-10.1798
▁ґрунтов	-10.1799
▁газети	-10.1799
▁філософськ	-10.18
▁знань	-10.1801
▁українському	-10.1802
▁стійк	-10.1803
▁націй	-10.1806
▁процеси	-10.1808
os	-10.1813
чик	-10.1813
▁ен	-10.1818
тора	-10.1824
▁1929	-10.1827
теля	-10.1828
▁кредит	-10.1831
▁1965	-10.1832
▁члени	-10.184
▁стилі	-10.1843
▁аналізу	-10.1844
▁кост	-10.1844
▁утворюють	-10.1845
язків	-10.1845
янських	-10.1853
рік	-10.1853
▁самостійно	-10.1858
▁автономн	-10.1858
▁взяв	-10.1858
▁радянський	-10.1859
▁захоплен	-10.186
▁релігійних	-10.186
no	-10.1862
sa	-10.1868
▁інформаційн	-10.1875
▁брата	-10.1882
▁позитивн	-10.1887
▁місцевості	-10.1888
▁округи	-10.1896
пам	-10.1902
▁квіт	-10.1903
▁ват	-10.1905
▁хан	-10.1906
▁відзнача	-10.1915
▁запропонував	-10.1918
▁нідерландів	-10.1918
служ	-10.1919
▁міл	-10.1925
▁залізн	-10.1925
▁ваг	-10.1926
бол	-10.193
▁перемог	-10.1935
алася	-10.1935
▁будівництва	-10.1948
▁військовий	-10.1948
▁схем	-10.1948
▁наука	-10.1949
▁франкськ	-10.1954
▁служби	-10.1962
▁виклад	-10.1969
▁активн	-10.197
▁історичні	-10.1971
▁академік	-10.1978
▁відстані	-10.1979
ізація	-10.1979
▁радянських	-10.1979
▁американськ	-10.1981
▁g	-10.1982
▁морських	-10.1985
▁навчальних	-10.1992
▁вулкан	-10.1993
▁висота	-10.1996
▁істот	-10.2
▁християн	-10.2002
▁=	-10.2003
▁солон	-10.2007
▁правов	-10.2008
▁діаметр	-10.2009
▁герцогства	-10.201
▁брали	-10.2011
▁вироби	-10.2011
▁типи	-10.2013
▁ймовірно	-10.2019
▁добро	-10.202
▁розширення	-10.202
▁глав	-10.2021
▁глибина	-10.2021
▁розгляд	-10.2021
▁різноманітні	-10.2021
▁історично	-10.2022
кле	-10.2023
▁піщан	-10.2028
▁вздовж	-10.2039
▁перебування	-10.2039
▁своєрідн	-10.204
▁приток	-10.2042
▁інший	-10.2042
▁міської	-10.2042
▁1922	-10.2043
ковий	-10.2045
▁видавництв	-10.2048
▁перетворення	-10.2053
▁індійському	-10.2055
▁клі	-10.2055
▁зимов	-10.2057
▁києво	-10.207
▁європейських	-10.207
▁роберт	-10.207
▁вважати	-10.2072
▁активну	-10.2072
дослідн	-10.2073
▁регіональн	-10.2078
▁їхньо	-10.2079
▁слів	-10.2084
нському	-10.2088
▁вступ	-10.2097
▁алгоритм	-10.21
▁низку	-10.21
рн	-10.2101
▁вулиця	-10.2102
▁структура	-10.2102
являються	-10.2106
▁сервер	-10.2106
▁обліку	-10.2114
▁чим	-10.2118
▁август	-10.2119
th	-10.2122
▁обласного	-10.2122
цін	-10.2123
▁почалася	-10.2123
▁північних	-10.2127
▁конституція	-10.213
▁сувор	-10.2133
▁щорічно	-10.2135
▁(7	-10.2136
▁відділення	-10.2138
▁четверт	-10.2147
▁фр	-10.2149
▁ідея	-10.2149
▁послідовн	-10.2153
▁дату	-10.2154
▁барселона	-10.2161
▁вікінгів	-10.2161
▁самоврядування	-10.2161
галь	-10.2163
▁обслуговування	-10.2163
єднані	-10.2174
▁1-	-10.2177
▁підпорядковані	-10.2182
ківський	-10.2185
▁інституті	-10.2187
▁виробнич	-10.2189
▁москви	-10.2192
▁причому	-10.2192
▁лан	-10.2193
▁герой	-10.2194
▁приплив	-10.2194
▁українці	-10.2197
as	-10.2198
▁34	-10.2199
▁дружини	-10.2218
▁миру	-10.222
▁дорівнює	-10.2223
▁восени	-10.2223
▁найближч	-10.2223
▁переживає	-10.2226
▁заклад	-10.2228
значення	-10.2232
▁емірат	-10.2233
верш	-10.2233
морськ	-10.2234
били	-10.2238
▁військової	-10.224
бог	-10.2241
▁архітектор	-10.2254
▁загинув	-10.2254
▁оповідання	-10.2255
▁щит	-10.2256
▁високе	-10.2258
инського	-10.2258
▁зон	-10.2258
▁істин	-10.2258
▁вимог	-10.2262
▁богиня	-10.2263
▁роком	-10.2264
ецького	-10.2266
▁заклади	-10.2267
▁діти	-10.2273
▁стану	-10.2275
▁свободи	-10.2276
▁голов	-10.2277
▁позначення	-10.228
станом	-10.2284
▁комерційн	-10.2285
▁федеральн	-10.2285
▁значний	-10.2287
▁чернігівськ	-10.2288
▁тараса	-10.2289
▁астурія	-10.2289
▁бібліотеки	-10.2289
▁спис	-10.2293
▁філософії	-10.2294
ичної	-10.2295
▁виборів	-10.2298
клас	-10.2305
ицький	-10.2309
▁порід	-10.2312
характеризується	-10.2313
▁селища	-10.2316
▁жорсток	-10.2316
▁автошлях	-10.2317
▁визвольн	-10.2317
▁статей	-10.2318
▁пізніш	-10.2318
▁гора	-10.2318
▁робить	-10.232
▁виступав	-10.232
гл	-10.2323
▁математики	-10.2324
пат	-10.2327
янського	-10.2329
уть	-10.233
▁перевищує	-10.2332
льський	-10.2332
▁чер	-10.2336
▁37	-10.2336
▁указом	-10.2337
▁переписом	-10.2338
▁класу	-10.234
▁віці	-10.2346
▁закарпаття	-10.2348
▁суспільство	-10.235
-1	-10.235
▁вираз	-10.2353
джу	-10.2357
▁клітин	-10.2362
▁но	-10.2363
▁рус	-10.2369
ім	-10.2371
йорк	-10.2374
▁створити	-10.2379
▁колгосп	-10.2379
▁1997	-10.2384
▁історико	-10.2385
▁туризм	-10.2386
нен	-10.2387
▁зона	-10.2393
ано	-10.2393
монт	-10.2397
вою	-10.2397
▁селище	-10.2399
▁страхов	-10.24
лює	-10.2403
▁атмосфери	-10.2404
▁антон	-10.2408
▁серйозн	-10.2411
▁хозари	-10.2411
▁сторони	-10.2411
▁наварра	-10.2411
▁згадується	-10.2413
▁литовському	-10.2413
▁сербія	-10.2414
▁заповідник	-10.2416
▁сама	-10.2417
▁секретар	-10.2419
▁кордону	-10.2422
▁урядов	-10.2423
▁наукова	-10.2425
▁рівняння	-10.243
▁ікон	-10.2433
▁1990-	-10.2433
▁сал	-10.2435
▁полярн	-10.2435
▁неаполітанськ	-10.2442
▁туристів	-10.2443
▁захопив	-10.2444
▁вміст	-10.2448
▁джерелом	-10.2449
▁типов	-10.2451
▁мел	-10.2452
язаний	-10.2452
▁червоної	-10.2453
▁корисні	-10.2453
ище	-10.2461
нським	-10.2461
▁країною	-10.2467
▁районна	-10.2469
▁природний	-10.2472
іх	-10.2473
▁функціонує	-10.2474
▁церкві	-10.2474
▁угорщину	-10.2474
▁прагну	-10.2475
▁економічного	-10.2477
▁виникла	-10.2484
▁виконан	-10.2486
▁юр	-10.2487
▁переказ	-10.2489
франкське	-10.2493
лян	-10.2493
»".	-10.2493
бас	-10.2496
ері	-10.2499
▁властив	-10.25
дь	-10.2501
▁десяти	-10.2504
▁регіонів	-10.2505
▁випадках	-10.2506
▁файл	-10.2506
▁повідомлення	-10.2507
▁прийняття	-10.2508
—17	-10.2509
▁1948	-10.2509
▁засновано	-10.251
▁ірані	-10.2512
▁здійснення	-10.2512
▁китайськ	-10.2516
▁шан	-10.252
▁мит	-10.252
▁транспорту	-10.252
▁лік	-10.2525
веде	-10.2528
▁козаків	-10.2535
мут	-10.2535
литовськ	-10.2536
▁чоловіч	-10.2538
▁кожна	-10.2538
▁брод	-10.2541
бул	-10.2544
▁країну	-10.2548
▁осі	-10.2548
▁богині	-10.2548
▁бра	-10.255
ква	-10.2551
▁турецьк	-10.2551
ца	-10.2551
итель	-10.2552
▁родин	-10.2555
▁труб	-10.2561
могу	-10.2562
▁такими	-10.2563
інформ	-10.2568
▁подорож	-10.2569
▁князів	-10.2569
▁сторін	-10.257
▁крив	-10.257
▁чотирьох	-10.257
▁трохи	-10.2571
▁релігійні	-10.2572
▁пле	-10.2573
▁спад	-10.2573
▁операцій	-10.2575
ічного	-10.2576
▁xiii	-10.258
▁заснована	-10.2592
єс	-10.2594
▁мене	-10.2598
▁регіоні	-10.2607
▁лютому	-10.261
▁набагато	-10.2615
май	-10.2617
▁38	-10.2617
▁київський	-10.2622
ницький	-10.2622
тні	-10.2624
▁перероб	-10.2625
ури	-10.2625
▁встановлення	-10.2628
▁граб	-10.2631
▁зростає	-10.2634
тт	-10.2637
кет	-10.2642
▁юрія	-10.2642
▁пав	-10.2643
▁наступні	-10.2648
волі	-10.2649
▁штатів	-10.265
тє	-10.2653
тиці	-10.2654
▁засновник	-10.2656
▁режиму	-10.2656
́в	-10.2661
ac	-10.2663
▁богом	-10.2664
▁чума	-10.2666
▁боротьбі	-10.2667
▁закавказзя	-10.2667
▁глин	-10.2667
▁трудов	-10.2667
вр	-10.2669
▁легенд	-10.2677
▁самі	-10.2689
▁світового	-10.269
▁сонячної	-10.2692
▁названо	-10.2694
▁сином	-10.2695
▁ско	-10.2696
держ	-10.2698
▁державі	-10.2699
▁цзінь	-10.2699
▁філіппіни	-10.2699
▁рукопис	-10.2699
▁статтю	-10.2699
щу	-10.2704
пен	-10.2706
▁сполучення	-10.271
▁галицько	-10.271
тік	-10.2712
брав	-10.2713
які	-10.2714
▁затверджен	-10.2717
▁публічн	-10.2718
▁дещо	-10.2721
▁редактор	-10.2722
▁агент	-10.2722
▁сільськ	-10.2727
▁копалини	-10.273
▁берег	-10.2731
бен	-10.2732
▁найчастіше	-10.2732
▁повинен	-10.2732
▁уявлення	-10.2732
▁солдат	-10.2732
▁1926	-10.2737
▁поезії	-10.2739
▁бік	-10.274
▁християнство	-10.274
дал	-10.2741
▁підприємство	-10.2742
▁висок	-10.2751
▁фу	-10.2756
▁нижч	-10.2758
▁причиною	-10.2763
▁бюджет	-10.2763
▁округ	-10.2763
▁головн	-10.2763
▁відкриттів	-10.2764
▁єдиний	-10.2765
▁органічн	-10.2766
бран	-10.277
▁лікування	-10.2772
▁спроби	-10.2772
▁складен	-10.2773
▁арт	-10.2781
тек	-10.2781
▁церков	-10.2783
тре	-10.2785
▁регіон	-10.2785
бот	-10.2788
▁свята	-10.279
тою	-10.2793
км	-10.2796
нік	-10.2796
▁відсутність	-10.2798
▁прибув	-10.2802
▁аналогічн	-10.2804
▁численних	-10.2806
▁виховання	-10.2807
▁1960	-10.2807
▁студентів	-10.2808
▁річці	-10.2809
чені	-10.2812
бін	-10.2814
мал	-10.2817
▁напис	-10.2821
▁підвищення	-10.2823
▁всіє	-10.2826
▁словник	-10.2827
ютерн	-10.2828
▁федерації	-10.283
▁передбачає	-10.283
▁внесок	-10.283
▁одяг	-10.283
▁європейської	-10.2831
ата	-10.2836
▁всесвітньо	-10.2837
▁долині	-10.2839
▁коз	-10.284
di	-10.2841
▁дія	-10.2843
▁тиску	-10.2845
▁навчальн	-10.2847
янський	-10.2848
альд	-10.2857
▁військами	-10.286
▁техніки	-10.2863
▁будинків	-10.2863
▁вийшов	-10.2864
▁михайлович	-10.2867
▁нас	-10.2867
com	-10.2868
▁іноземних	-10.2868
ювати	-10.2868
▁місцем	-10.287
цького	-10.2876
▁город	-10.2878
▁сонце	-10.288
▁атом	-10.2882
грам	-10.2883
▁горі	-10.2886
▁найбільшим	-10.2889
▁досягає	-10.289
▁визначає	-10.2893
▁клімату	-10.2893
▁42	-10.2896
квартир	-10.2896
▁волинь	-10.2896
▁титан	-10.29
територіально	-10.29
▁адже	-10.2904
порт	-10.2905
▁культурно	-10.2907
▁велико	-10.2916
▁зображен	-10.2918
▁журналіст	-10.2919
▁художньо	-10.2921
▁вірші	-10.2921
пп	-10.2923
▁операції	-10.2931
кро	-10.2933
▁1905	-10.2934
▁товариств	-10.2938
дала	-10.294
▁спроб	-10.2941
прям	-10.2942
▁дис	-10.2942
▁джерело	-10.2944
▁морів	-10.2945
пів	-10.2945
київ	-10.2949
▁діа	-10.295
рк	-10.2951
▁множин	-10.2953
▁німеччина	-10.2954
▁математик	-10.2955
▁фонду	-10.2955
анти	-10.2957
▁рідко	-10.2957
цин	-10.296
▁фредерік	-10.2963
▁існували	-10.2963
▁розвинут	-10.2965
▁силу	-10.2966
гре	-10.2967
▁значною	-10.2969
▁густ	-10.2979
який	-10.2979
▁чол	-10.2986
▁імпорт	-10.2988
пле	-10.2989
джер	-10.2993
▁населенням	-10.2995
▁селищ	-10.2996
▁вторгнення	-10.2996
▁вартість	-10.2996
▁рішенням	-10.3001
▁монет	-10.3001
▁театрі	-10.3004
▁ост	-10.3004
▁актив	-10.3006
пав	-10.3007
▁архітектурн	-10.3009
▁явищ	-10.3011
а́	-10.3015
▁правил	-10.3016
гай	-10.3023
тичних	-10.3023
нат	-10.3029
▁заказники	-10.3029
▁еміграції	-10.303
▁монтессорі	-10.303
▁первинн	-10.303
руб	-10.303
свідом	-10.3033
▁заявив	-10.3035
▁історики	-10.3041
▁підрозділ	-10.3042
▁k	-10.3044
▁програмн	-10.3047
▁супереч	-10.3049
▁інтер	-10.3052
ший	-10.3054
▁знайом	-10.3059
▁угоди	-10.3061
▁десятиліття	-10.3064
▁франц	-10.3064
▁різко	-10.3066
ости	-10.3066
▁жителі	-10.3072
▁надалі	-10.3076
член	-10.3077
влас	-10.3083
▁допомага	-10.3089
▁ліквід	-10.3089
▁долини	-10.3089
▁(9	-10.3092
▁минул	-10.3093
▁німецько	-10.3094
▁темп	-10.3095
▁мис	-10.3095
▁основна	-10.3096
▁князем	-10.3097
▁шість	-10.31
▁аполлон	-10.3101
▁збереглися	-10.3102
▁мод	-10.3104
льт	-10.311
▁полк	-10.3114
▁атмосфер	-10.3114
▁виконав	-10.3117
▁економ	-10.3118
франківськ	-10.3119
сид	-10.312
▁давні	-10.3122
▁лікарні	-10.3125
являється	-10.3126
▁список	-10.3126
альна	-10.3128
ol	-10.3128
▁залізниці	-10.3132
івна	-10.3133
▁змінюється	-10.3133
▁стри	-10.3139
▁васалами	-10.314
▁підпорядкував	-10.3142
воль	-10.3144
▁основн	-10.3144
▁(8	-10.3145
ицею	-10.3148
овому	-10.3152
поряд	-10.3156
▁чемпіонат	-10.3159
▁підпис	-10.3161
▁народила	-10.3161
▁повноваження	-10.3165
▁відрізняється	-10.3166
▁явища	-10.3167
▁1942	-10.3169
▁хар	-10.3169
ством	-10.3172
▁використовували	-10.3172
▁празьк	-10.3173
овій	-10.3173
лювання	-10.3175
▁законом	-10.3177
▁колоніальн	-10.3179
▁парижі	-10.3187
▁строк	-10.3193
ює	-10.3195
▁телескоп	-10.3199
▁пред	-10.3201
▁рос	-10.3209
▁західного	-10.321
▁марі	-10.3214
▁результат	-10.322
et	-10.322
▁берегов	-10.322
▁системою	-10.3226
▁благо	-10.3231
▁електричн	-10.3238
▁дружиною	-10.3242
▁біологічн	-10.3245
bo	-10.3246
бро	-10.3246
рай	-10.3246
▁моральн	-10.3252
»;	-10.3252
▁карпат	-10.3252
▁вчені	-10.3253
▁чоловіка	-10.3255
▁світло	-10.3261
▁39	-10.3264
▁природного	-10.3267
▁прийняв	-10.3268
▁земної	-10.3268
▁колишнього	-10.327
▁номер	-10.3272
ард	-10.3276
▁мая	-10.3277
▁кирил	-10.3281
▁1950	-10.3283
▁перу	-10.3286
▁політик	-10.3288
▁епоху	-10.3289
▁матеріали	-10.3297
▁().	-10.3298
▁урядом	-10.3301
▁одружився	-10.3302
▁тяжк	-10.3302
▁музика	-10.3303
▁грамот	-10.3303
▁версією	-10.3303
душ	-10.3304
▁новгород	-10.3311
тій	-10.3313
▁олексій	-10.3316
▁бан	-10.3317
▁праця	-10.3317
▁шкільн	-10.3318
▁святослав	-10.3324
цькому	-10.3324
▁меморіальн	-10.3329
▁водойм	-10.333
нищ	-10.333
ліб	-10.3334
▁богемію	-10.3337
▁посткласичн	-10.3337
▁середньовічн	-10.3337
▁музею	-10.3337
▁малі	-10.3349
▁лав	-10.335
▁першому	-10.3357
▁степовій	-10.3357
▁західних	-10.3358
▁львівської	-10.3358
▁дослідники	-10.336
офі	-10.3365
▁могутн	-10.3366
▁останніх	-10.3366
міні	-10.3369
▁азовським	-10.3372
▁аби	-10.3373
▁кров	-10.3376
янська	-10.3377
зон	-10.3379
▁російського	-10.338
▁центральна	-10.3381
▁середньої	-10.3389
me	-10.339
▁водою	-10.3391
▁вест	-10.3391
▁комуністичн	-10.3392
▁академічн	-10.3395
істів	-10.3403
▁характеру	-10.3403
▁законів	-10.3404
▁котрі	-10.3407
▁економічної	-10.3407
▁політичного	-10.3408
▁вільно	-10.3408
▁єдиним	-10.3408
ліг	-10.3409
▁гарант	-10.341
поля	-10.341
▁ер	-10.341
▁старшин	-10.341
зар	-10.3412
▁формою	-10.3412
▁індивідуальн	-10.3413
▁збройних	-10.3416
лена	-10.342
▁льо	-10.3424
ктор	-10.3426
▁діячів	-10.3435
▁пору	-10.3438
▁здійснює	-10.3438
▁методів	-10.344
▁учасників	-10.3441
▁областей	-10.3441
▁безліч	-10.3442
прес	-10.3442
ba	-10.3443
вач	-10.3446
міністр	-10.3448
▁пол	-10.3451
зупин	-10.3455
▁юстиніана	-10.3456
льні	-10.3459
▁раб	-10.3463
івки	-10.3468
цької	-10.3468
інд	-10.3471
pa	-10.3471
▁кро	-10.3475
▁взагалі	-10.3477
укр	-10.3477
силь	-10.3486
▁легко	-10.3498
▁розпочав	-10.3499
▁володар	-10.3502
▁александр	-10.3507
▁складаються	-10.3509
▁хмельницького	-10.3512
кн	-10.3513
▁льоду	-10.3514
оро	-10.352
▁нове	-10.3521
▁фірм	-10.3522
▁склали	-10.3524
▁прояв	-10.3525
"»	-10.353
▁педагогічн	-10.3533
язання	-10.3536
▁календар	-10.3539
рид	-10.354
▁московського	-10.354
▁проходять	-10.3542
▁школах	-10.3542
▁драматичн	-10.3542
▁військового	-10.3543
▁мистецтві	-10.3546
ve	-10.3547
▁хорватією	-10.3547
▁43	-10.3547
▁xii	-10.3547
▁східно	-10.3548
▁риму	-10.3548
▁творах	-10.3548
▁філ	-10.3549
еле	-10.3552
▁цілком	-10.3552
▁o	-10.3553
евич	-10.3554
▁прото	-10.3554
▁народні	-10.3556
▁48	-10.356
▁одній	-10.356
▁явище	-10.3569
▁речовини	-10.3574
▁наступним	-10.3575
▁посади	-10.3583
▁дільниць	-10.3583
▁вшанування	-10.3583
ференц	-10.3584
▁волощина	-10.3584
▁поверхнев	-10.3584
янської	-10.3587
▁1935	-10.3589
▁жили	-10.3591
люють	-10.3592
▁звільнення	-10.3594
▁програма	-10.3594
▁морський	-10.3599
▁1970	-10.3599
▁виявлено	-10.3599
▁орієнт	-10.3605
▁3-	-10.3607
▁нижньо	-10.3618
▁потенціал	-10.3618
▁багатств	-10.3618
▁натомість	-10.3618
▁шельф	-10.3619
▁авіа	-10.3619
гур	-10.3623
▁доктор	-10.3623
▁2023	-10.3626
▁списку	-10.3627
▁олімпійськ	-10.3632
▁являє	-10.3633
соці	-10.3636
чар	-10.3638
▁золото	-10.364
▁600	-10.3641
▁основною	-10.3641
▁владі	-10.3641
тет	-10.3644
▁наявн	-10.3652
▁присутні	-10.3653
▁іншою	-10.3654
▁контакт	-10.3654
гол	-10.3655
▁шкір	-10.3656
▁кошти	-10.3656
смер	-10.3659
▁——	-10.3659
▁обладнання	-10.366
▁отримати	-10.3661
▁ефект	-10.3662
шар	-10.3667
▁re	-10.3668
▁певні	-10.3672
▁вина	-10.3675
▁ас	-10.3675
▁красно	-10.3676
▁вищ	-10.3678
близько	-10.3682
▁упа	-10.3682
▁трі	-10.3683
▁книга	-10.3685
фу	-10.3685
▁фактор	-10.3689
друж	-10.3689
▁дніпропетровськ	-10.369
▁фізичних	-10.369
▁віку	-10.369
▁стабільн	-10.369
▁фізики	-10.3691
ічної	-10.3691
реб	-10.3691
▁соціал	-10.3693
▁леонід	-10.3695
▁андрія	-10.3698
ько	-10.3703
ріг	-10.3705
дик	-10.3708
▁in	-10.3709
сів	-10.371
уванням	-10.3713
="12	-10.3717
▁дисциплін	-10.372
▁показ	-10.3724
▁насамперед	-10.3726
▁соціальних	-10.3726
▁відстань	-10.3726
▁статистичн	-10.3726
араб	-10.3726
▁армія	-10.3727
▁ци	-10.3729
▁одиниць	-10.3729
▁1936	-10.373
▁сот	-10.3732
ic	-10.3735
▁владислав	-10.3736
▁фронту	-10.3738
▁порівнянні	-10.3739
▁задач	-10.374
▁німецької	-10.3741
▁запит	-10.3742
▁фізико	-10.3743
▁сухо	-10.375
▁буг	-10.3754
правда	-10.3757
▁сформован	-10.3762
▁жодн	-10.3763
▁гірнич	-10.3764
▁заступник	-10.3765
▁континент	-10.3774
кал	-10.3779
ндр	-10.3782
▁гітлер	-10.3783
раді	-10.3788
клі	-10.3789
▁населені	-10.3791
ура	-10.3792
▁рельєфу	-10.3799
▁типів	-10.3802
ходили	-10.3802
▁едо	-10.3808
язаних	-10.3808
шок	-10.3811
▁сільські	-10.3813
▁усе	-10.3814
▁симон	-10.3817
▁буряк	-10.3818
▁продуктів	-10.382
▁машини	-10.3828
▁збірн	-10.383
▁завда	-10.3833
▁газет	-10.3834
▁неодноразово	-10.3834
▁російський	-10.3835
▁різновид	-10.3835
▁іоанн	-10.3836
лії	-10.3838
▁гео	-10.3841
▁герман	-10.3844
▁75	-10.385
▁мол	-10.3852
▁рівно	-10.3852
мед	-10.3854
▁погоди	-10.3855
освіт	-10.3862
▁передав	-10.3865
▁стефан	-10.3868
▁лежать	-10.3871
▁невдовзі	-10.3871
▁персонаж	-10.3871
▁харкові	-10.3872
▁численними	-10.3873
pe	-10.3874
юється	-10.3875
▁бол	-10.3876
▁1928	-10.3876
▁статев	-10.3877
американськ	-10.3884
▁григорій	-10.3884
чних	-10.3885
▁інша	-10.3892
▁населен	-10.3895
▁військо	-10.3899
▁парламентськ	-10.39
▁педагог	-10.3901
астурія	-10.3903
▁загальною	-10.3903
▁обрано	-10.3903
▁сигізмунд	-10.3908
▁урочист	-10.3908
▁кримінальн	-10.3908
ицю	-10.3909
▁житлов	-10.3911
▁1931	-10.3912
▁кримські	-10.3913
ійські	-10.3914
см	-10.3918
▁місяці	-10.3918
▁розрізняють	-10.392
▁баб	-10.392
▁швидке	-10.3921
вад	-10.3923
молочн	-10.3928
▁відповідь	-10.3929
▁ігри	-10.3934
св	-10.3935
▁шт	-10.3935
▁водами	-10.394
▁високого	-10.3941
▁міжнародні	-10.3942
...»	-10.3943
явився	-10.3944
▁віджаянагара	-10.3944
▁едуард	-10.3944
▁мамлюки	-10.3944
▁найпоширеніш	-10.3944
вис	-10.3945
▁поїзд	-10.3947
▁залежності	-10.3948
▁польської	-10.3957
рош	-10.3958
лас	-10.3964
рожа	-10.3968
▁банку	-10.3972
▁результати	-10.3979
дол	-10.398
▁маг	-10.3984
▁виникає	-10.3984
ори	-10.3985
▁1947	-10.3986
▁розуміння	-10.3992
▁виникли	-10.3992
▁бойов	-10.3994
▁тривалість	-10.3995
▁зміст	-10.3998
▁хвороби	-10.4001
▁дерева	-10.4002
▁відмін	-10.4004
тру	-10.4004
▁заходів	-10.4006
никами	-10.4008
олов	-10.4011
▁знят	-10.4013
▁появ	-10.4016
▁султана	-10.4018
▁галузь	-10.4018
▁становище	-10.4018
▁моголів	-10.4018
▁оригінальн	-10.4019
▁1958	-10.4023
▁лікарня	-10.4031
▁1913	-10.4034
▁скоро	-10.4037
▁кордоном	-10.404
▁організм	-10.4043
▁l	-10.4048
▁непо	-10.4049
▁літо	-10.4049
▁захоплення	-10.4052
▁працювали	-10.4052
▁останнього	-10.4055
▁спілки	-10.4056
▁казимир	-10.4056
▁оборони	-10.4056
▁курорт	-10.4056
▁адрес	-10.4057
pt	-10.4059
▁пагорб	-10.4061
ing	-10.4064
плач	-10.4066
▁контр	-10.4069
▁семен	-10.4069
нське	-10.407
▁римський	-10.4071
кладення	-10.4075
▁зображ	-10.408
▁починає	-10.4089
▁однойменн	-10.4093
▁діяльністю	-10.4093
▁білорусі	-10.4093
▁пише	-10.4093
▁футбольн	-10.4093
▁містять	-10.4094
кре	-10.4095
▁характерні	-10.41
сії	-10.4103
▁вітер	-10.4103
бож	-10.4103
▁франк	-10.4106
▁вільгельм	-10.4106
▁вищих	-10.4107
▁розпаду	-10.4112
▁ньютон	-10.4112
▁сотні	-10.4115
▁складає	-10.4118
ph	-10.412
▁вірус	-10.4121
шан	-10.4123
▁міністр	-10.4123
▁здійснив	-10.4124
ику	-10.4126
▁(10	-10.413
▁заказник	-10.4131
▁санкт	-10.4132
▁65	-10.4139
▁боро	-10.4139
▁виділ	-10.4145
▁султан	-10.4156
▁друге	-10.416
▁незалежно	-10.4164
▁венеціанськ	-10.4168
▁фатіміди	-10.4168
▁іншої	-10.4168
▁волі	-10.4169
▁працю	-10.4169
▁беруть	-10.4169
▁зброї	-10.4169
▁збройн	-10.4171
▁1966	-10.4172
▁погляди	-10.4178
▁порушення	-10.418
▁економічно	-10.4185
▁120	-10.4186
тип	-10.4189
ально	-10.4191
▁успішн	-10.4191
▁входили	-10.4191
▁француз	-10.4191
комп	-10.4191
▁бази	-10.4194
▁побутов	-10.4195
вались	-10.4197
▁родина	-10.4197
зв	-10.42
▁євразійськ	-10.4205
▁зовсім	-10.4206
▁ризик	-10.4206
▁1959	-10.4208
▁дол	-10.421
▁мід	-10.4218
▁успішно	-10.422
▁агро	-10.4222
алося	-10.4224
гас	-10.4227
коли	-10.4228
▁документів	-10.4234
уса	-10.4235
▁ґрунту	-10.4241
▁функцій	-10.4243
▁становлення	-10.4243
▁навесні	-10.4244
▁крас	-10.4244
▁обл	-10.4246
менш	-10.425
▁англія	-10.4252
▁мистецьк	-10.4254
▁доступ	-10.4257
янка	-10.4261
бург	-10.4263
▁хх	-10.4271
ленд	-10.4271
остями	-10.428
▁люд	-10.428
▁створен	-10.4281
▁грузії	-10.4281
▁перейшов	-10.4281
▁користь	-10.4282
▁протилежн	-10.4282
▁1956	-10.4287
▁1927	-10.4287
▁використовує	-10.4288
цька	-10.429
▁синів	-10.4293
▁голод	-10.4294
▁забезпечен	-10.4294
▁лю	-10.4294
нку	-10.4296
▁e	-10.4297
дро	-10.4307
рій	-10.4316
єднує	-10.4316
граф	-10.432
▁республікою	-10.432
▁версії	-10.4321
▁копалин	-10.4321
user	-10.4322
▁артист	-10.4323
▁надає	-10.4334
між	-10.4338
▁трон	-10.434
▁богдан	-10.4345
▁юпітера	-10.4346
▁конгрес	-10.4348
▁іслам	-10.4353
▁герцог	-10.4353
▁митрополит	-10.4357
▁ділянки	-10.4358
▁достатньо	-10.4358
▁сполук	-10.4359
▁переважн	-10.4359
▁лиш	-10.4361
▁печ	-10.4362
▁німф	-10.4362
▁білоруськ	-10.4362
▁передачі	-10.4363
▁провів	-10.4364
▁виступає	-10.4365
око	-10.4365
▁бре	-10.4366
тол	-10.4369
ича	-10.4369
▁тісно	-10.4374
▁степів	-10.4376
язан	-10.4378
▁1980-	-10.4378
▁тіл	-10.4379
▁трої	-10.4387
▁прийнято	-10.439
▁свідчать	-10.4396
▁гуптів	-10.4396
▁обставин	-10.4397
▁зробити	-10.4397
▁багать	-10.4397
▁живуть	-10.4398
–18	-10.4403
▁двічі	-10.4404
віл	-10.4404
▁полтавської	-10.4405
▁плав	-10.4405
»:	-10.4413
▁інше	-10.4414
▁командир	-10.4416
торг	-10.4416
брати	-10.4417
тн	-10.4426
▁1900	-10.4427
▁учасник	-10.4428
▁ель	-10.4429
▁заміни	-10.4431
▁давньо	-10.4432
▁граніт	-10.4432
єкта	-10.4437
сол	-10.4439
фізик	-10.444
станції	-10.4443
▁установи	-10.4446
▁негативн	-10.4448
▁шляхів	-10.4454
водить	-10.4455
ювали	-10.4458
▁фактичн	-10.4462
▁55	-10.4464
вез	-10.4466
▁ряду	-10.4466
ійців	-10.4468
вол	-10.4471
ійського	-10.4472
язане	-10.4473
▁двигун	-10.4474
▁єгипту	-10.4474
▁відомим	-10.4477
заповідн	-10.4477
вес	-10.4478
▁1975	-10.448
▁1954	-10.448
▁поділяються	-10.4481
дунайськ	-10.4483
▁формальн	-10.449
▁самим	-10.4493
▁спільно	-10.4507
▁відмінн	-10.4513
▁вивчає	-10.4513
▁визначн	-10.4513
▁ярослава	-10.4513
▁знайти	-10.4513
▁відразу	-10.4513
▁основи	-10.4515
▁мешкало	-10.4515
▁стосунки	-10.4517
▁гірські	-10.4517
▁викладач	-10.4518
гія	-10.4518
▁ужгород	-10.4519
▁найвища	-10.452
▁рас	-10.4523
▁гіл	-10.4523
▁1916	-10.4524
▁капітал	-10.4526
▁страв	-10.4533
▁вулканічн	-10.4533
▁вимір	-10.4534
▁1910	-10.4535
▁1,5	-10.4537
▁мір	-10.4539
▁рослини	-10.4544
вало	-10.4551
▁технології	-10.4552
▁уздовж	-10.4552
йо	-10.4554
▁утворюється	-10.4555
▁поруч	-10.4555
▁дати	-10.4555
▁повинна	-10.4556
▁протокол	-10.4558
▁(14	-10.4558
ара	-10.4562
▁причини	-10.4564
сса	-10.4568
▁червоного	-10.4568
оном	-10.4568
-2	-10.4572
▁сумнів	-10.4573
▁маль	-10.4577
ієн	-10.4579
тел	-10.4579
зен	-10.4589
▁східних	-10.459
чному	-10.459
▁площу	-10.459
▁економічних	-10.459
▁вин	-10.4591
▁нігер	-10.4591
▁медицини	-10.4591
▁саакашвілі	-10.4591
▁свідчить	-10.4591
▁арендт	-10.4591
▁плоск	-10.4591
▁призводить	-10.4591
em	-10.4593
▁намагався	-10.4593
▁зник	-10.4593
нна	-10.4594
▁тексту	-10.4595
▁літні	-10.4598
▁2021	-10.4599
▁ворон	-10.4601
▁алк	-10.4601
▁практичн	-10.4601
▁предмет	-10.4603
свят	-10.4604
▁t	-10.4606
▁певних	-10.4608
▁семи	-10.4609
яка	-10.4617
▁така	-10.4622
▁потрібно	-10.4623
▁харківської	-10.4625
публік	-10.463
▁відділу	-10.463
▁юнеско	-10.463
▁захища	-10.463
▁російських	-10.463
▁глобальн	-10.463
▁національним	-10.463
▁виноград	-10.4631
рек	-10.4632
▁виникають	-10.4632
▁яскрав	-10.4633
▁робітнич	-10.4634
▁вірш	-10.4636
▁священна	-10.4637
опо	-10.4638
▁максимальн	-10.4641
▁євреїв	-10.4642
▁господарстві	-10.4647
єві	-10.4648
▁розчин	-10.4649
лював	-10.465
тами	-10.465
▁лондон	-10.4658
▁зібран	-10.466
100	-10.466
ографія	-10.4663
▁сен	-10.4669
ади	-10.4669
▁візантію	-10.467
▁покоління	-10.467
▁богемії	-10.467
▁баланс	-10.467
fi	-10.467
але	-10.4673
▁моло	-10.4675
▁виражен	-10.4677
▁одиниці	-10.4679
▁царства	-10.4679
▁власну	-10.468
▁мен	-10.4681
▁xi	-10.4683
жер	-10.4687
▁карла	-10.4694
▁куди	-10.4695
▁власн	-10.4703
▁останнім	-10.4704
▁1930-	-10.4706
▁корпус	-10.4707
▁зверта	-10.4708
▁кислот	-10.4709
▁проживання	-10.471
▁третій	-10.471
▁аралом	-10.4711
▁відмовився	-10.4711
▁правильн	-10.4714
▁сповід	-10.4718
уру	-10.4718
▁господар	-10.4719
изації	-10.472
бій	-10.4721
▁георг	-10.4722
▁плем	-10.4724
▁польсько	-10.4724
▁стра	-10.473
слів	-10.4733
▁друж	-10.474
▁геракла	-10.4742
▁лева	-10.4746
▁процедур	-10.4749
▁розвитком	-10.4749
▁життєв	-10.4749
▁співробітник	-10.4749
▁вирішив	-10.4749
▁моделі	-10.475
льо	-10.4757
▁виходить	-10.4758
▁малу	-10.4761
▁проголошення	-10.4762
▁меж	-10.4763
▁російсько	-10.4764
▁громадський	-10.4765
ятка	-10.4766
чов	-10.4769
▁зазначен	-10.4774
▁сучасна	-10.478
▁аполлона	-10.4785
▁всередині	-10.4789
▁алгебр	-10.4789
▁соціальна	-10.4789
▁обидва	-10.4789
▁алжир	-10.479
мудр	-10.4795
▁малих	-10.4797
громад	-10.4798
▁платон	-10.48
цер	-10.4801
▁басейні	-10.4803
кового	-10.4803
▁прямо	-10.4805
▁фор	-10.4813
▁важко	-10.4817
▁літер	-10.482
▁штаб	-10.4821
лювати	-10.4827
спів	-10.4827
▁кардинал	-10.4829
▁берега	-10.4829
▁представництв	-10.4829
▁теорію	-10.4829
▁писемн	-10.483
бирається	-10.4832
▁здатн	-10.4832
▁чин	-10.4834
▁реалізації	-10.4834
▁поп	-10.4835
▁1961	-10.4836
даються	-10.4837
ie	-10.4839
▁утворюються	-10.4847
▁металів	-10.4848
▁московське	-10.4852
▁такої	-10.486
▁бізнес	-10.4861
день	-10.4861
▁висот	-10.4865
▁протест	-10.4868
▁навпаки	-10.487
▁мінімум	-10.487
▁хвилин	-10.487
▁коледж	-10.487
▁резерв	-10.487
чев	-10.4877
▁зниження	-10.4878
▁вирощування	-10.4882
анта	-10.4882
чем	-10.4883
берт	-10.4888
▁чисто	-10.489
▁20-	-10.4893
єктивн	-10.4893
▁1980	-10.4898
▁47	-10.4899
цьку	-10.4901
▁корінн	-10.4902
▁керування	-10.4907
▁працівників	-10.4907
and	-10.4908
▁спектр	-10.491
▁взяли	-10.491
▁свин	-10.491
▁ворож	-10.4913
▁ацтеків	-10.4913
лежала	-10.4914
▁звіт	-10.4916
▁громадських	-10.4918
▁тисячоліття	-10.4921
▁калі	-10.4922
▁солі	-10.4926
▁r	-10.4927
▁чисел	-10.4939
▁подібні	-10.4939
▁наукового	-10.494
▁описан	-10.4943
▁східного	-10.4944
▁вважає	-10.4948
ясо	-10.4949
▁відсутні	-10.4949
▁1949	-10.495
▁відбуваються	-10.4951
▁імперією	-10.4951
▁інформація	-10.4951
мос	-10.4952
▁сукупність	-10.4953
▁угод	-10.4953
▁1963	-10.4956
▁бат	-10.4962
▁підставі	-10.4963
ходити	-10.4977
сподарські	-10.498
▁принципи	-10.4981
▁рах	-10.4982
▁астроном	-10.4982
ad	-10.4983
уха	-10.4985
▁твір	-10.4986
▁віл	-10.499
▁патріарх	-10.4992
▁відношення	-10.4992
▁княж	-10.4992
▁гончар	-10.4992
▁срібн	-10.4993
нула	-10.4996
▁київському	-10.5001
ицького	-10.5003
▁міських	-10.5004
мати	-10.5008
рам	-10.5011
увань	-10.5013
▁49	-10.5014
▁ара	-10.5015
рак	-10.5016
▁середніх	-10.5016
ss	-10.5018
▁звільнен	-10.5021
▁риси	-10.5021
▁плит	-10.5022
ns	-10.5023
▁мус	-10.5023
▁обмеження	-10.5026
▁економічні	-10.503
▁флот	-10.5031
▁геноцид	-10.5033
▁тігіпко	-10.5033
▁оголосив	-10.5033
▁знаменит	-10.5034
́т	-10.5036
ари	-10.5036
▁перемогу	-10.504
▁росія	-10.5042
міністра	-10.5043
▁введення	-10.5043
завод	-10.5044
акт	-10.5048
▁білих	-10.5048
▁змагання	-10.505
▁якості	-10.5051
рез	-10.5052
лений	-10.5052
бага	-10.5055
▁доріг	-10.5059
тай	-10.5068
▁1960-	-10.5069
▁удар	-10.5069
▁референдум	-10.5074
▁худоби	-10.5074
▁заслужен	-10.5074
▁1979	-10.5077
▁множини	-10.5084
▁житомир	-10.5087
нді	-10.5089
хоч	-10.5093
▁гай	-10.5095
▁хвиль	-10.5095
▁закордонних	-10.5101
▁кас	-10.5101
▁%;	-10.5102
▁вип	-10.5105
▁службов	-10.5109
▁рівнини	-10.511
▁кіл	-10.5113
▁душу	-10.5115
▁люксембург	-10.5115
▁протестантськ	-10.5115
▁столицею	-10.5115
▁фауна	-10.5116
▁будуть	-10.5116
▁of	-10.5116
сідає	-10.5118
▁цією	-10.512
▁середні	-10.5121
▁силою	-10.5121
▁дрібн	-10.5122
чний	-10.5124
▁проживає	-10.5125
▁могил	-10.5125
ична	-10.5126
▁скульптор	-10.5135
▁героїв	-10.5138
▁суспільстві	-10.5138
▁величин	-10.514
▁приватних	-10.5141
▁уран	-10.5144
▁апостол	-10.5146
▁новгородськ	-10.5147
▁селянськ	-10.5148
▁давньогрецьк	-10.5149
валась	-10.515
фінанс	-10.5152
▁споруди	-10.5155
▁лангобардськ	-10.5157
▁муроматі	-10.5157
▁аспект	-10.5157
▁йосип	-10.5157
▁кожному	-10.5157
▁португальськ	-10.5157
▁інформацію	-10.5157
▁спира	-10.5157
▁западин	-10.5157
льник	-10.5158
▁постав	-10.5158
▁пішов	-10.5158
▁могла	-10.5158
▁імена	-10.5158
▁львівського	-10.516
▁сталін	-10.516
▁полог	-10.5161
стов	-10.5166
▁доступн	-10.5169
▁рослинність	-10.517
▁юнак	-10.5175
▁міжнародної	-10.5176
="16	-10.5177
="13	-10.5179
▁юн	-10.518
▁ля	-10.5182
▁муз	-10.5184
▁харківськ	-10.5185
▁журналу	-10.5186
▁атмосферн	-10.5191
▁монастиря	-10.5196
▁сума	-10.5196
▁ступінь	-10.5199
▁обертання	-10.5199
▁втрат	-10.5203
iv	-10.5203
▁1957	-10.5204
▁атланти	-10.5205
▁потрібн	-10.5206
▁внутрішнього	-10.5206
бон	-10.5212
рет	-10.5213
—16	-10.5218
альної	-10.5227
▁заселен	-10.5228
▁боги	-10.5228
ica	-10.5231
▁регулярн	-10.5234
▁живопис	-10.5235
▁46	-10.5239
▁переїхав	-10.524
▁сягає	-10.524
▁українське	-10.524
▁зберігання	-10.5242
▁налічується	-10.5243
op	-10.5243
ичний	-10.5244
▁працівник	-10.5245
▁(12	-10.5245
▁лиман	-10.5246
▁1972	-10.5247
so	-10.5247
▁успіх	-10.5247
▁марії	-10.5253
чити	-10.5255
дані	-10.5274
іших	-10.5282
ску	-10.5282
▁областях	-10.5282
▁стосовно	-10.5282
ha	-10.5283
▁модель	-10.5286
▁збудован	-10.5287
ски	-10.5288
▁1911	-10.5289
нах	-10.5292
="15	-10.5299
сель	-10.53
▁афін	-10.53
▁сусід	-10.5301
▁гіпотез	-10.5303
▁службу	-10.5306
▁польського	-10.5307
▁правив	-10.5309
▁зберіг	-10.5314
▁аналог	-10.5317
▁більшовицьк	-10.5318
▁фольклор	-10.5319
▁використан	-10.5321
▁реп	-10.5323
▁різноманітних	-10.5324
▁ірану	-10.5324
▁опублікував	-10.5324
▁людьми	-10.5324
єтнам	-10.5324
▁розробки	-10.5324
▁будівлі	-10.5324
▁становили	-10.5324
▁всім	-10.5325
▁чітко	-10.5327
явилася	-10.5331
▁ухвален	-10.5331
▁убив	-10.5333
▁сигнал	-10.5333
▁власних	-10.5334
▁олекс	-10.5335
▁виготовлення	-10.5336
▁народна	-10.5339
▁руб	-10.5341
ював	-10.5344
оф	-10.5345
▁розділено	-10.5348
▁літак	-10.5354
рея	-10.536
▁рухом	-10.5362
шим	-10.5364
▁доказ	-10.5366
▁продукти	-10.5367
▁торгівля	-10.5367
▁галичині	-10.5367
▁матір	-10.5368
мені	-10.537
▁належн	-10.5374
▁ключов	-10.5376
="9	-10.5377
українська	-10.5377
▁роками	-10.5377
носять	-10.5379
тія	-10.538
▁стік	-10.5383
ґа	-10.5385
▁їхнього	-10.5385
▁бюджету	-10.5388
▁риф	-10.5388
▁1890	-10.5389
дніпро	-10.5393
▁підземних	-10.5395
▁республіканськ	-10.5396
▁сор	-10.5399
ради	-10.5401
▁каганату	-10.5401
▁вир	-10.5405
▁виконує	-10.5406
▁4-	-10.5407
▁приєднан	-10.5409
▁молекул	-10.5409
▁створили	-10.5409
▁тропічних	-10.541
▁справі	-10.5412
▁сент	-10.5412
▁ліберальн	-10.5412
▁поверхня	-10.5413
▁віддав	-10.5413
▁41	-10.5415
▁підвищен	-10.5419
тіс	-10.5419
▁вели	-10.542
▁розташовано	-10.5425
▁крем	-10.5427
▁основний	-10.5427
ологію	-10.5432
▁мані	-10.5433
▁зроблен	-10.5434
▁тарас	-10.5435
—15	-10.5438
▁округу	-10.5441
▁головних	-10.5443
▁утворює	-10.5449
▁дію	-10.5449
▁французької	-10.5452
▁книзі	-10.5452
="14	-10.5452
▁щороку	-10.5453
▁князівстві	-10.5454
▁випадає	-10.5457
▁радянські	-10.5457
▁начальник	-10.5457
▁центрів	-10.5459
▁товари	-10.5467
▁висоті	-10.5468
▁підстав	-10.5468
нівка	-10.5476
західній	-10.5477
▁наполеон	-10.5479
▁кавказ	-10.549
іона	-10.5491
▁керував	-10.5493
▁паннонії	-10.5495
▁поверхню	-10.5496
▁колег	-10.5497
ійський	-10.5497
▁минулого	-10.5505
ниць	-10.5506
▁зміна	-10.5507
мак	-10.5509
▁розпочався	-10.551
▁ранні	-10.5522
▁назвав	-10.5527
▁дворі	-10.5535
▁воду	-10.5536
▁фото	-10.5536
▁бароко	-10.5537
▁котрий	-10.5538
▁відпочинку	-10.5538
ul	-10.5539
бах	-10.5541
▁1906	-10.5544
▁втрати	-10.5545
східній	-10.5546
валося	-10.5549
▁консул	-10.5552
▁заходи	-10.5554
▁послуги	-10.5558
▁цифр	-10.5563
ворот	-10.5566
▁1970-	-10.557
▁куліш	-10.5574
атлантичн	-10.5574
▁простяга	-10.5577
▁драматург	-10.5581
▁лауреат	-10.5581
▁ступеня	-10.5581
▁охорона	-10.5581
▁протяжність	-10.5581
▁казахстан	-10.5581
бат	-10.5582
▁зунр	-10.5582
▁течія	-10.5582
▁дмитра	-10.5583
▁44	-10.5583
▁почався	-10.5584
▁всьому	-10.5585
▁харківського	-10.5586
▁1964	-10.5586
▁лісо	-10.5589
▁віддален	-10.5589
▁тру	-10.559
▁демон	-10.559
▁увійшл	-10.5595
▁політ	-10.5596
▁голів	-10.5605
▁тиск	-10.5605
▁горизонт	-10.5607
▁збройні	-10.5609
шта	-10.5609
▁осел	-10.561
тін	-10.5616
▁османської	-10.5619
▁залишив	-10.562
▁громада	-10.5621
▁комісар	-10.5625
▁рідкісн	-10.5625
▁специфічн	-10.5625
▁німецький	-10.5625
▁авторитет	-10.5625
▁входив	-10.5625
▁кінцев	-10.5626
▁мінеральних	-10.5626
▁століттях	-10.5631
▁яс	-10.5632
кул	-10.5632
ga	-10.5634
▁свобод	-10.5635
▁виступив	-10.5637
▁повно	-10.5639
▁встановлю	-10.5642
▁назв	-10.5643
▁членами	-10.5644
▁валов	-10.5644
▁палат	-10.5644
▁плати	-10.5648
▁висотою	-10.5648
нього	-10.565
▁знищен	-10.5651
вшись	-10.5654
▁250	-10.5654
лягають	-10.5655
▁місцями	-10.5658
▁висоти	-10.5661
▁риби	-10.5662
кове	-10.5664
▁принаймні	-10.5669
▁існував	-10.5669
▁магнітн	-10.5669
▁податков	-10.5669
моск	-10.5669
▁хвор	-10.567
▁турнір	-10.5671
верс	-10.5674
▁сицилійськ	-10.5677
▁квт	-10.5678
▁мирн	-10.5679
ованого	-10.568
▁1908	-10.5681
▁близькому	-10.5682
▁промислового	-10.5685
▁троянськ	-10.5687
▁губ	-10.5691
яних	-10.5692
▁крут	-10.5692
▁йде	-10.5693
ізацію	-10.5695
лек	-10.57
▁дороги	-10.57
цит	-10.5702
ліп	-10.5702
люється	-10.5704
▁вологи	-10.5708
ріан	-10.5709
листопад	-10.5709
нґ	-10.571
▁літературно	-10.571
▁антициклон	-10.5712
▁прогноз	-10.5712
▁зовнішня	-10.5712
кот	-10.5713
▁похован	-10.5713
▁підпорядкування	-10.5714
▁патент	-10.5715
▁1967	-10.5718
▁ось	-10.5721
mi	-10.5723
▁використанням	-10.5723
вед	-10.5723
▁різк	-10.5725
▁мур	-10.5728
▁лін	-10.5731
▁гуни	-10.5738
▁деякими	-10.5739
бирали	-10.5739
▁прикладом	-10.574
▁вул	-10.5742
▁альп	-10.5744
▁посів	-10.5747
▁кори	-10.5748
іка	-10.5753
▁володінь	-10.5756
▁відрізняються	-10.5756
▁настільки	-10.5757
▁нагір	-10.5759
▁григорія	-10.5762
▁залишки	-10.5763
ійська	-10.5764
▁гроз	-10.5767
▁тихого	-10.5772
▁парку	-10.5773
реч	-10.5774
▁долин	-10.5774
▁високі	-10.5774
илась	-10.5775
▁гес	-10.5775
ci	-10.5787
▁роздроблена	-10.5787
аварського	-10.5792
4,5	-10.5801
▁церкву	-10.5801
▁продовжилося	-10.5801
▁проводом	-10.5801
▁священник	-10.5807
▁готов	-10.5809
▁снігов	-10.5809
▁людиною	-10.5813
тона	-10.5815
▁стані	-10.5818
▁етнограф	-10.582
україна	-10.5823
філь	-10.5826
▁змінив	-10.5826
географічн	-10.5827
▁галичина	-10.5831
▁канон	-10.5835
▁розташован	-10.5844
▁пізньо	-10.5845
▁класифікація	-10.5845
▁усрр	-10.5845
▁випадків	-10.5845
▁відні	-10.5846
▁пожеж	-10.5846
▁вимірювання	-10.5846
▁політичну	-10.5846
▁генріха	-10.5846
▁радянська	-10.5847
гів	-10.5847
ілля	-10.5848
▁низовин	-10.5851
▁чуж	-10.5855
="17	-10.5855
окси	-10.5861
▁випромінювання	-10.5862
▁страхування	-10.5862
▁царем	-10.5863
▁дослідник	-10.5867
▁рослинн	-10.5869
щину	-10.5869
▁азію	-10.5869
хоро	-10.587
▁давніх	-10.5877
▁заснований	-10.5878
▁середньорічн	-10.5883
▁тонк	-10.5886
ресурс	-10.5889
▁офіцер	-10.589
▁гек	-10.5894
▁отримує	-10.5895
▁повісті	-10.5896
▁оточен	-10.5898
▁сфери	-10.5899
▁неба	-10.59
лик	-10.5901
ейн	-10.5903
іна	-10.5903
нських	-10.5903
▁греки	-10.5904
▁далеко	-10.5904
▁газета	-10.5908
▁великими	-10.591
)|	-10.5912
▁феодальн	-10.5913
▁студентськ	-10.5914
тей	-10.5916
▁міська	-10.592
тернопіль	-10.5923
▁окремо	-10.5927
лун	-10.5927
▁собору	-10.593
▁дивізії	-10.5935
▁екваторіальн	-10.5935
▁фердинанд	-10.5935
▁карибах	-10.5935
тс	-10.5935
▁виключно	-10.5935
▁спр	-10.5936
▁спадщини	-10.5936
чита	-10.5937
▁спеціалізован	-10.5945
▁порядок	-10.5948
▁статусу	-10.595
▁виход	-10.5951
▁братів	-10.5951
▁чернівецьк	-10.5954
▁певний	-10.5956
єднува	-10.5958
▁ma	-10.5962
зокрема	-10.5963
мана	-10.5966
іші	-10.5966
нцями	-10.5974
▁туризму	-10.5975
▁ідеолог	-10.5976
колишня	-10.5977
▁ранньо	-10.5977
край	-10.5978
▁відношенні	-10.598
▁прикордонн	-10.598
язано	-10.5981
лес	-10.5982
▁максимум	-10.5982
▁год	-10.5982
▁найкращ	-10.5983
▁балка	-10.5985
лак	-10.5987
▁зборів	-10.5991
▁америка	-10.5992
▁словен	-10.5993
▁мал	-10.5994
▁угоду	-10.5994
▁марс	-10.5994
▁ніяк	-10.5995
ходить	-10.5995
нські	-10.5998
▁наступних	-10.6
▁зовнішньо	-10.6002
авто	-10.6003
▁високий	-10.6003
джі	-10.6009
ir	-10.6019
▁нагляд	-10.602
▁афганістан	-10.6025
▁запропонован	-10.6025
▁словацьк	-10.6025
▁організацію	-10.6026
▁змішан	-10.6027
▁параметр	-10.6027
▁кле	-10.6028
▁гіпер	-10.6035
▁шляхи	-10.6036
▁ініціатив	-10.6041
000	-10.6041
▁1648	-10.6042
▁футболу	-10.6048
коза	-10.605
таль	-10.605
▁ставлення	-10.6051
їзду	-10.6053
▁перетворен	-10.6056
▁веде	-10.6061
▁пил	-10.6068
▁крові	-10.6069
крат	-10.607
▁існувала	-10.607
▁довелося	-10.607
▁ізяслав	-10.6071
▁імпорту	-10.6071
▁будинки	-10.6071
▁стаття	-10.6072
▁небесн	-10.6076
▁1986	-10.6077
єра	-10.6077
▁1912	-10.6079
▁5-	-10.6079
значних	-10.608
▁родич	-10.6081
річна	-10.6081
▁700	-10.6084
▁панування	-10.6085
▁дипломатичні	-10.6085
▁максим	-10.6086
▁григор	-10.6087
▁стиль	-10.6087
львів	-10.6088
▁зареєстровано	-10.6088
▁виходу	-10.6089
▁документи	-10.6089
▁відносяться	-10.6091
класти	-10.6095
▁кв	-10.6095
▁перемоги	-10.6096
▁кен	-10.6099
друк	-10.61
▁намір	-10.61
оса	-10.6113
▁руки	-10.6114
▁значенні	-10.6116
▁компаній	-10.6116
▁реклам	-10.6117
дес	-10.6118
▁харчування	-10.6118
▁рогат	-10.6119
▁дна	-10.6119
лла	-10.6119
▁шести	-10.612
▁збори	-10.6121
▁іменем	-10.6123
ковський	-10.6124
▁заряд	-10.6127
▁58	-10.6129
гель	-10.6132
▁соціального	-10.6133
▁старий	-10.6136
▁52	-10.6137
▁очі	-10.6138
▁струм	-10.614
▁німецькі	-10.6142
нули	-10.6143
▁історичний	-10.6145
▁офіційна	-10.6146
▁далек	-10.6149
популярн	-10.6149
▁шука	-10.6152
▁справедлив	-10.6157
▁приєднання	-10.6159
дам	-10.616
▁найпопулярніш	-10.6162
▁губернія	-10.6162
▁випадков	-10.6162
єднав	-10.6162
▁взаємодії	-10.6162
▁руських	-10.6164
▁вільям	-10.6164
петр	-10.6164
▁московії	-10.6166
пала	-10.6166
▁заради	-10.6169
▁промислові	-10.6171
▁діяли	-10.6175
▁палати	-10.6178
ново	-10.6178
▁олімпійських	-10.6178
сот	-10.618
художн	-10.6186
▁ознак	-10.6187
тті	-10.6187
▁мусульманськ	-10.6188
▁окупована	-10.6189
▁принц	-10.6192
лай	-10.6193
янськ	-10.6194
ex	-10.6203
лею	-10.6207
▁галузей	-10.6208
▁кристіан	-10.6208
▁рейтинг	-10.6208
▁одеської	-10.6208
▁бага	-10.6208
▁колекці	-10.6209
тура	-10.6211
▁гідр	-10.6213
▁спец	-10.6214
▁1907	-10.6215
берг	-10.6215
▁треба	-10.6217
▁швидкості	-10.622
▁бояр	-10.6221
▁піднесення	-10.6224
▁пря	-10.6225
бал	-10.6226
▁схилах	-10.6228
▁w	-10.6228
сам	-10.6229
▁потреби	-10.623
дей	-10.623
▁стоку	-10.6231
▁радикальн	-10.6233
нор	-10.6234
▁прип	-10.6237
аторів	-10.6241
груп	-10.6249
▁відновлен	-10.6252
▁притаманн	-10.6254
▁рішень	-10.6254
▁мінімальн	-10.6254
▁заповіт	-10.6254
▁технологій	-10.6254
▁волині	-10.6255
▁передбачен	-10.6255
▁субтропічн	-10.6255
▁федір	-10.6255
▁канади	-10.6255
▁робітників	-10.6257
▁людства	-10.6257
▁озері	-10.6258
▁викладав	-10.6259
▁федор	-10.6261
▁чемпіон	-10.6263
▁часопис	-10.6263
мова	-10.6267
чною	-10.6267
▁видань	-10.6268
▁оль	-10.6272
▁богдана	-10.6275
▁британської	-10.6275
▁вивчен	-10.6277
▁справу	-10.6277
▁австралійськ	-10.6278
▁людського	-10.6279
▁авторів	-10.6281
▁пари	-10.6283
президент	-10.6292
▁шахт	-10.6292
▁включен	-10.6293
▁представлений	-10.6295
▁конференції	-10.6301
▁потрійн	-10.6301
▁прийшов	-10.6301
▁нерідко	-10.6301
▁юліан	-10.6301
▁гранада	-10.6301
▁сюди	-10.6301
▁європейський	-10.6302
▁інколи	-10.6305
▁зменшення	-10.6308
▁1969	-10.6309
яви	-10.631
▁державному	-10.6312
ліст	-10.6313
▁ліквідовано	-10.6314
▁продовження	-10.6314
▁51	-10.6315
▁лавр	-10.6316
▁протоки	-10.6317
▁воєнн	-10.6318
▁разу	-10.6319
політично	-10.6319
▁середнього	-10.632
дрі	-10.6321
▁тракт	-10.6323
▁публіцист	-10.6327
▁маса	-10.6329
▁мереж	-10.6341
▁азербайджан	-10.6348
▁категорії	-10.6348
▁прізвище	-10.6348
▁кодекс	-10.6349
▁вирушив	-10.635
▁померла	-10.6351
▁1901	-10.6356
▁десят	-10.6358
▁поштов	-10.6371
зор	-10.6374
▁набув	-10.6374
ета	-10.6374
▁вантаж	-10.6374
арагон	-10.6375
▁губернатор	-10.6375
мовний	-10.6375
люс	-10.6376
діяльн	-10.6378
▁дозволя	-10.6379
тних	-10.6381
85"	-10.6384
▁мінеральн	-10.639
▁душ	-10.6393
▁лоз	-10.6394
▁телебачення	-10.6394
▁світогляд	-10.6395
▁наукової	-10.6396
▁надрукован	-10.6396
▁підсумк	-10.6396
:"	-10.6396
▁май	-10.6401
▁перекладач	-10.6402
дачі	-10.6402
▁1915	-10.6403
▁відтоді	-10.6409
▁нації	-10.6409
▁береги	-10.6412
▁ірак	-10.6417
go	-10.6418
сона	-10.6419
вському	-10.642
▁стають	-10.642
▁індо	-10.6422
лова	-10.6425
▁нот	-10.6426
▁небезпечн	-10.6428
ндер	-10.6428
▁червоно	-10.643
▁надзвичайн	-10.643
код	-10.6432
▁ісламськ	-10.6433
▁іран	-10.644
▁верхньо	-10.6441
▁прилад	-10.6441
▁французька	-10.6442
▁поселень	-10.6442
▁євангелі	-10.6442
▁нео	-10.6443
▁інтелектуальн	-10.6443
▁тогочасн	-10.6443
▁здобуття	-10.6443
▁покарання	-10.6445
▁християнства	-10.6445
▁продовжував	-10.6449
націонал	-10.6449
▁перепис	-10.645
▁стверджує	-10.6451
▁труп	-10.6454
▁54	-10.6454
хай	-10.6456
▁називав	-10.6456
рова	-10.6461
▁перелік	-10.6463
зелен	-10.6464
незалежн	-10.6465
▁зазнав	-10.6467
ково	-10.6469
▁верб	-10.6471
▁банд	-10.6471
кіль	-10.6472
перш	-10.6473
ed	-10.6481
▁меч	-10.6483
мас	-10.6483
вірус	-10.6485
▁берегах	-10.6487
▁низк	-10.6489
▁вертикальн	-10.6489
▁вітчизнян	-10.6489
▁підготовки	-10.6489
▁індекс	-10.6489
▁писати	-10.6489
▁палеолог	-10.6489
▁ліквідований	-10.649
риф	-10.649
▁заклик	-10.6492
▁реформація	-10.6493
▁вчений	-10.6494
▁українсько	-10.6495
▁тропічні	-10.6497
▁розташову	-10.6499
▁туман	-10.65
▁гран	-10.6501
▁експериментальн	-10.6509
▁залізничний	-10.6509
юючи	-10.6514
▁підводн	-10.6517
▁моменту	-10.6519
▁берлін	-10.6522
▁інструмент	-10.6524
риг	-10.6528
дель	-10.6531
▁матч	-10.6536
▁потрапив	-10.6537
▁появи	-10.6537
▁видобуток	-10.6538
▁кабінет	-10.6543
▁розп	-10.6543
▁курган	-10.6543
чок	-10.6543
▁маз	-10.6544
▁олімп	-10.6548
▁800	-10.6549
▁монархії	-10.6549
▁фільму	-10.6551
▁1848	-10.6553
▁точно	-10.6562
▁тернопільськ	-10.6565
▁низка	-10.6567
цар	-10.657
▁рази	-10.6571
ii	-10.6572
▁внутрішньо	-10.6574
кен	-10.6575
▁інтерпрет	-10.6577
▁відомого	-10.6577
▁результатом	-10.6582
▁африку	-10.6585
▁лікувальн	-10.6585
▁улоговин	-10.6585
▁маленьк	-10.6585
▁виконувати	-10.6585
▁виробів	-10.6585
▁балканах	-10.6585
▁природу	-10.6585
▁полковник	-10.6586
▁варвар	-10.6588
▁найкращих	-10.6588
▁вирішення	-10.659
▁взаємо	-10.6591
▁довжиною	-10.6591
письмен	-10.6595
▁журналі	-10.6599
▁запорізьк	-10.66
▁скор	-10.66
▁глибин	-10.6601
▁кохан	-10.6603
▁уперше	-10.6604
▁морського	-10.6605
цьких	-10.6607
▁посла	-10.6608
▁світова	-10.6608
▁фед	-10.6612
▁класів	-10.6613
▁вибір	-10.6616
▁всеволод	-10.6626
▁the	-10.6629
▁криза	-10.6632
роджуватися	-10.6633
▁електроенергії	-10.6633
▁соціальні	-10.6633
▁загальним	-10.6633
▁коротко	-10.6635
▁приміщення	-10.6637
руської	-10.6638
ницю	-10.6638
▁1988	-10.664
▁мовах	-10.6646
▁фрак	-10.665
▁прагнення	-10.665
оване	-10.6654
▁північні	-10.6654
▁проводиться	-10.6658
▁ознаки	-10.6663
тичними	-10.6665
▁задля	-10.6666
гла	-10.6669
несення	-10.6675
бел	-10.6676
86"	-10.6679
▁здобут	-10.668
вані	-10.6681
▁найстаріш	-10.6681
▁пруссії	-10.6681
▁середовище	-10.6681
▁ситуації	-10.6681
▁традиція	-10.6681
▁завоювання	-10.6681
▁збірки	-10.6681
▁вказує	-10.6681
▁небо	-10.6683
▁ідеал	-10.6685
▁1968	-10.6688
▁знайдено	-10.669
▁відступ	-10.6691
цях	-10.6695
▁віденськ	-10.6696
▁забезпечують	-10.6703
▁костянтина	-10.6703
ичних	-10.6706
▁глини	-10.6707
▁селяни	-10.6709
ерта	-10.671
▁підпільн	-10.671
▁посаді	-10.6711
кір	-10.6713
▁виробництві	-10.6716
▁гостр	-10.6724
▁держ	-10.6725
▁воєвод	-10.6727
▁концерт	-10.6729
▁насправді	-10.6729
▁французький	-10.6729
▁звідси	-10.673
▁чудов	-10.673
▁данило	-10.6732
▁банківськ	-10.6732
▁дають	-10.6739
▁надають	-10.6742
▁ядерн	-10.6745
▁норвезьк	-10.6746
ред	-10.6749
▁утворилос	-10.6751
▁шир	-10.6751
▁рам	-10.6753
ерів	-10.6753
загальноосвітніх	-10.6755
▁(11	-10.6758
і́	-10.676
▁герої	-10.6771
▁кр	-10.6776
▁живе	-10.6776
▁гнізд	-10.6778
▁атлантичного	-10.6779
▁символом	-10.6779
▁грецької	-10.6779
▁свободу	-10.6781
▁гаряч	-10.6781
струк	-10.6788
міністром	-10.6791
▁ква	-10.6793
▁переходу	-10.6794
▁перевороту	-10.6796
▁групою	-10.6797
▁радою	-10.6804
▁форт	-10.6806
▁працювала	-10.6806
2).	-10.6815
ївка	-10.6822
▁фар	-10.6822
нську	-10.6823
▁камен	-10.6823
▁редакції	-10.6827
▁болеслав	-10.6827
▁хребта	-10.6827
▁стосується	-10.6827
▁священик	-10.6828
▁лицар	-10.6828
пос	-10.6828
▁крок	-10.6829
алізації	-10.6829
▁лам	-10.6834
онів	-10.6837
▁національному	-10.6837
▁чинник	-10.6843
▁збірник	-10.6846
▁котр	-10.6848
▁вияв	-10.6853
греб	-10.6853
84"	-10.6855
▁органом	-10.686
стон	-10.6865
▁організатор	-10.6866
▁повідомл	-10.6871
опис	-10.6874
▁міфи	-10.6876
▁клієнт	-10.6876
▁зусилля	-10.6877
▁споживання	-10.6877
▁економіці	-10.6877
▁цейлоні	-10.6877
▁чергов	-10.6877
▁балтійськ	-10.6878
пір	-10.6878
▁тема	-10.6878
після	-10.6878
▁колись	-10.6882
▁займався	-10.6884
▁давньоруськ	-10.6897
▁домі	-10.6898
енс	-10.6899
▁шахов	-10.6899
дін	-10.6901
▁коштів	-10.6904
▁завершен	-10.6905
української	-10.6906
▁фрукт	-10.691
▁повітов	-10.6912
▁місячн	-10.6912
бай	-10.6918
▁неви	-10.6921
план	-10.6921
▁судан	-10.6923
▁навколишні	-10.6924
▁ланцюг	-10.6926
▁пейзаж	-10.6926
▁сельджуки	-10.6926
▁королева	-10.6926
▁поклади	-10.6926
▁зернових	-10.6926
▁хозарськ	-10.6926
▁організмів	-10.6928
▁силами	-10.6929
▁збірка	-10.6931
05"	-10.6936
▁анд	-10.6946
▁тиф	-10.6948
▁важливою	-10.6951
▁команди	-10.6954
▁припис	-10.6956
рівня	-10.6959
▁певної	-10.6959
▁головна	-10.6961
▁постановою	-10.6966
▁представниками	-10.6966
▁тривала	-10.6968
▁автора	-10.6969
▁структурі	-10.6969
▁хат	-10.697
02"	-10.6971
▁контролем	-10.6976
▁околиці	-10.6976
▁існувало	-10.6976
▁кожної	-10.6976
▁розпочат	-10.6976
▁друкован	-10.6977
▁ідею	-10.6978
▁регулювання	-10.6978
▁спортивних	-10.6978
територіальна	-10.698
фін	-10.6981
рун	-10.6985
▁руські	-10.6989
▁високим	-10.6989
▁витрат	-10.699
87"	-10.699
друге	-10.7
маш	-10.7001
▁драм	-10.7001
24"	-10.7002
філ	-10.7005
91"	-10.7007
▁велосипед	-10.701
92"	-10.7012
▁культуру	-10.7017
▁щільн	-10.7021
▁вищої	-10.7023
15"	-10.7026
▁зеландії	-10.7026
▁найнижч	-10.7026
▁нобелівськ	-10.7026
▁хорватії	-10.7026
▁катерина	-10.7026
▁визначити	-10.7026
▁зробили	-10.7026
▁ринок	-10.7026
▁жуан	-10.7029
▁пісень	-10.7029
ішим	-10.703
▁думка	-10.7031
станція	-10.7032
▁лес	-10.7035
тера	-10.7035
лінг	-10.7035
коло	-10.704
id	-10.7044
▁родюч	-10.7045
мей	-10.7048
лиця	-10.7049
їн	-10.7049
▁сон	-10.7053
▁термо	-10.7053
▁перес	-10.7054
04"	-10.7059
▁ракет	-10.7063
▁ґрунтів	-10.7066
▁комах	-10.7067
35"	-10.7068
▁указ	-10.707
▁безпосередн	-10.7072
▁53	-10.7074
▁сучасний	-10.7076
▁запозичен	-10.7076
визвольн	-10.7076
▁прісн	-10.7081
▁1952	-10.7082
▁рев	-10.7082
▁проблема	-10.7086
рал	-10.7088
ятники	-10.7089
▁групу	-10.709
▁командуванням	-10.7093
▁56	-10.7094
▁екз	-10.7095
▁паризьк	-10.7095
▁лід	-10.7095
▁надав	-10.7096
▁торф	-10.7097
▁сфер	-10.7097
▁громадянської	-10.7104
ніших	-10.7105
▁лівобережн	-10.7105
єктом	-10.7105
▁міститься	-10.711
▁дани	-10.7111
▁луї	-10.7112
сіверськ	-10.7112
▁варто	-10.7113
▁громадсько	-10.7113
90"	-10.7113
▁визначають	-10.7114
гну	-10.7115
▁чинн	-10.7118
▁синтез	-10.7121
▁петербурзьк	-10.7122
bi	-10.7126
тотожн	-10.7126
пратіхара	-10.7127
їжджа	-10.7127
▁маринід	-10.7127
▁буддизм	-10.7127
▁польща	-10.7127
ріб	-10.7128
▁починають	-10.7129
▁1920-	-10.7131
▁чай	-10.7134
▁здатність	-10.7134
▁утримува	-10.7135
банк	-10.7137
▁літературознав	-10.7141
▁поховання	-10.7142
анг	-10.7143
▁українським	-10.7153
▁сав	-10.7154
82"	-10.7154
▁азоту	-10.7155
▁передан	-10.7162
▁міністерства	-10.7162
▁віктора	-10.7165
бувати	-10.7165
▁болгар	-10.7166
12"	-10.7169
mo	-10.7172
▁троя	-10.7172
влад	-10.7174
▁малю	-10.7177
▁образотворч	-10.7177
▁бюро	-10.7177
▁взаємн	-10.7177
▁москва	-10.7177
▁загальних	-10.7177
▁знайшли	-10.7177
03"	-10.718
▁каль	-10.7181
▁відкритий	-10.7183
▁1951	-10.7184
▁1904	-10.7185
▁багаті	-10.7189
▁зведен	-10.7189
▁другому	-10.7191
▁відкриті	-10.7191
▁бою	-10.7192
▁взят	-10.7194
96"	-10.7195
▁окупован	-10.7199
▁гон	-10.72
▁плану	-10.72
▁подібно	-10.7203
▁глибини	-10.7204
тиск	-10.7204
▁васильович	-10.7206
▁людину	-10.7209
80"	-10.7209
▁ініціативи	-10.721
26"	-10.721
▁бай	-10.7213
▁керівн	-10.7219
▁болгарськ	-10.722
зин	-10.7221
▁східна	-10.7227
▁практиці	-10.7228
▁сприяє	-10.7228
▁трансильванію	-10.7228
▁кольоров	-10.7228
▁переважає	-10.7228
▁третього	-10.7228
▁дзеркал	-10.7228
тобто	-10.723
▁бажан	-10.7232
▁проводив	-10.7232
▁читач	-10.7233
▁литовського	-10.7234
▁родовищ	-10.7235
▁припинення	-10.7236
94"	-10.7237
▁товариш	-10.7241
▁сирії	-10.7243
▁старого	-10.7244
ницею	-10.7245
▁урана	-10.7247
▁пісня	-10.7247
45"	-10.725
▁голодомору	-10.725
робіт	-10.7255
фар	-10.7256
▁важливі	-10.7262
▁механічн	-10.7263
▁заповідн	-10.7266
▁старший	-10.7266
▁міськ	-10.7269
▁власної	-10.7271
▁ацте	-10.7277
▁польщею	-10.728
▁середовищі	-10.728
▁загинули	-10.728
▁довгий	-10.728
▁одразу	-10.728
▁будучи	-10.728
▁польських	-10.728
▁спадщину	-10.728
▁паперів	-10.728
▁бажання	-10.7281
▁включають	-10.7281
міфологія	-10.7282
▁донецької	-10.7286
28"	-10.7286
▁скарб	-10.7288
▁протікає	-10.7289
політ	-10.7291
шер	-10.7294
▁хв	-10.7294
▁фер	-10.7295
повідь	-10.7295
99"	-10.73
▁знищення	-10.7302
20"	-10.7307
клали	-10.7307
▁громадського	-10.7308
▁внутрішній	-10.731
зоря	-10.7311
▁кристалічн	-10.7314
▁видим	-10.7316
селя	-10.732
▁володимирії	-10.7321
▁дослідників	-10.7324
▁колі	-10.7329
▁діаспор	-10.7331
▁загинуло	-10.7331
▁хребет	-10.7331
▁закріплен	-10.7331
▁належав	-10.7331
▁англійська	-10.7332
▁необхідність	-10.7332
▁зберігається	-10.7333
▁тваринництво	-10.7334
дит	-10.7334
▁колишньої	-10.7336
еро	-10.7336
▁контракт	-10.7336
чак	-10.7337
льд	-10.7338
золот	-10.7338
▁1973	-10.7339
фан	-10.7341
▁дер	-10.7341
▁скорочення	-10.7344
72"	-10.7348
еллі	-10.7349
▁літературної	-10.7352
бирати	-10.7353
net	-10.7353
закон	-10.7355
кової	-10.7357
▁віз	-10.7358
42"	-10.7361
78"	-10.7369
алізм	-10.737
▁ерік	-10.7375
▁коран	-10.7376
▁першими	-10.7376
43"	-10.7376
▁передано	-10.7379
▁дворян	-10.7379
▁гус	-10.738
10"	-10.7381
▁посушлив	-10.7383
▁стадіон	-10.7383
▁зміну	-10.7384
▁викликан	-10.7384
крізь	-10.7384
▁відвідав	-10.7384
▁жінка	-10.7384
▁опади	-10.7385
бирають	-10.7385
▁походу	-10.7385
лоп	-10.7386
▁вітрів	-10.7386
83"	-10.7386
xviii	-10.7387
▁верхів	-10.7387
▁натуральн	-10.7387
▁живих	-10.7387
▁наказом	-10.7389
▁1953	-10.7389
73"	-10.739
▁просторі	-10.739
▁1978	-10.7391
▁пальм	-10.7393
▁кіпр	-10.7394
ut	-10.7397
▁історичного	-10.7398
▁верхній	-10.7399
ng	-10.7401
книж	-10.7402
▁відокремлен	-10.7403
23"	-10.7403
▁воді	-10.7403
▁закарпатськ	-10.7407
сін	-10.7408
▁займаються	-10.7409
▁викликал	-10.7409
▁нічого	-10.7409
25"	-10.741
▁результатами	-10.7411
16"	-10.7413
▁водню	-10.7413
ent	-10.7414
▁атак	-10.7415
▁російські	-10.7419
▁художників	-10.7419
▁світла	-10.7419
▁тож	-10.7419
▁західний	-10.742
▁площин	-10.742
▁архітектур	-10.7421
44"	-10.7421
79"	-10.7422
▁проголошено	-10.7426
▁жертву	-10.7432
▁сировини	-10.7435
▁вплинул	-10.7435
▁обчислювальн	-10.7435
▁хімії	-10.7435
▁уваги	-10.7435
▁римляни	-10.7436
▁загін	-10.7436
▁виробник	-10.7436
акти	-10.7438
грів	-10.7441
▁автомобільн	-10.7442
▁харків	-10.7444
яких	-10.7447
▁визнає	-10.7452
▁метро	-10.7452
несли	-10.7457
▁еврі	-10.7463
ювала	-10.7464
▁цілий	-10.7468
африканськ	-10.7469
▁фундаментальн	-10.747
77"	-10.7473
▁царськ	-10.7474
гул	-10.7477
карпатської	-10.7478
▁флори	-10.7478
07"	-10.7478
▁воєн	-10.7481
льний	-10.7486
▁академія	-10.7487
▁караханіди	-10.7487
▁французького	-10.7487
▁функціонують	-10.7487
▁тієї	-10.7487
▁азовського	-10.7488
▁волочиськ	-10.7488
ченка	-10.7488
▁універсальн	-10.7488
▁дочкою	-10.7488
▁стражда	-10.7488
ецька	-10.749
▁христа	-10.749
▁камінь	-10.7492
22"	-10.7493
піс	-10.7493
▁штати	-10.7495
язнення	-10.7496
▁хрестові	-10.7498
▁харчова	-10.7502
▁благодійн	-10.7505
▁зміг	-10.7505
▁неможливо	-10.7506
▁кристал	-10.7508
▁дозволяють	-10.7509
▁постанови	-10.7515
▁енергетичн	-10.7515
ічну	-10.7515
сей	-10.7519
▁подія	-10.752
горі	-10.7521
▁опису	-10.7521
яний	-10.7522
06"	-10.7524
27"	-10.7525
▁вибух	-10.7525
жин	-10.7527
▁ганг	-10.7528
▁склала	-10.7528
io	-10.753
30"	-10.7531
▁судно	-10.7532
65"	-10.7532
pr	-10.7533
▁птах	-10.7535
▁лад	-10.7535
▁андре	-10.7537
вул	-10.7539
▁прихильник	-10.7539
▁зумовлен	-10.754
ячеслав	-10.754
▁хлоп	-10.7541
▁властивостей	-10.7541
▁бронзов	-10.7541
▁спостерігаються	-10.7542
▁гелі	-10.7546
брала	-10.7546
лівка	-10.7546
демократ	-10.7546
▁європейські	-10.7549
▁синами	-10.7551
▁відображення	-10.7552
▁німецького	-10.7554
▁капіталу	-10.7556
95"	-10.7557
39"	-10.7558
▁соціальної	-10.7572
14"	-10.7577
▁критичн	-10.7578
ючі	-10.7578
▁повість	-10.758
▁звані	-10.758
▁протока	-10.7583
▁управлінням	-10.7583
▁президентськ	-10.7585
▁проходил	-10.7586
13"	-10.7586
▁цвинтарі	-10.7587
▁(13	-10.7587
54"	-10.7588
▁розвід	-10.7592
▁(2001):	-10.7593
▁газневіди	-10.7593
▁жорстк	-10.7593
▁містечка	-10.7593
▁податків	-10.7593
▁хлопчик	-10.7594
▁проголосив	-10.7594
▁57	-10.7594
▁виконують	-10.7595
▁парки	-10.7595
▁вчених	-10.7598
систем	-10.7601
▁душі	-10.7603
▁засновників	-10.7604
59"	-10.7608
▁забезпечу	-10.7608
▁залишився	-10.7608
а́н	-10.7608
▁обран	-10.7612
▁зерно	-10.7612
ge	-10.7613
▁стрілецьк	-10.7616
17"	-10.7617
▁божественн	-10.7618
мель	-10.7618
▁бір	-10.7618
▁мети	-10.7623
70"	-10.7625
▁сила	-10.7626
стри	-10.7633
▁вести	-10.7634
сум	-10.7634
▁модерн	-10.7636
40"	-10.7636
▁тютюн	-10.7639
▁6-	-10.764
34"	-10.764
▁храму	-10.7641
нця	-10.7642
▁відмови	-10.7644
▁утвердилися	-10.7646
▁трикутник	-10.7646
▁персію	-10.7646
▁армію	-10.7646
▁одесі	-10.7646
інтегр	-10.7646
▁трапляються	-10.7646
▁римлян	-10.7647
▁ведуть	-10.7647
▁вісім	-10.7647
▁нарешті	-10.7648
▁суму	-10.7649
▁слави	-10.7649
▁вченого	-10.7651
▁1971	-10.7654
55"	-10.7657
▁бутан	-10.7657
▁антоні	-10.7658
▁справах	-10.7661
▁виду	-10.7666
йшли	-10.7668
▁кло	-10.7671
ріш	-10.7672
▁високих	-10.7672
▁приймає	-10.7673
фір	-10.7674
▁різно	-10.7674
▁проводяться	-10.7675
народ	-10.7676
69"	-10.7676
▁зручн	-10.7677
="11	-10.7678
▁попередні	-10.7679
▁організ	-10.7679
41"	-10.768
29"	-10.7683
38"	-10.7686
▁вважаються	-10.7687
▁долина	-10.7689
скільки	-10.769
▁кір	-10.769
ичні	-10.769
31"	-10.7693
▁налічує	-10.7696
▁перевищу	-10.7698
▁компілятор	-10.77
▁концепції	-10.77
▁сприяння	-10.77
▁обробки	-10.77
▁отаман	-10.77
▁чисельності	-10.7702
▁мислив	-10.7704
▁встановив	-10.7704
81"	-10.7705
▁аїд	-10.7705
▁посилання	-10.7705
▁правопис	-10.7706
▁1984	-10.7707
—10	-10.771
71"	-10.7711
▁рак	-10.7713
im	-10.7714
09"	-10.7714
▁дало	-10.7714
ap	-10.7715
18"	-10.7717
▁минулому	-10.7723
▁сільському	-10.7724
▁окремим	-10.7724
36"	-10.7725
́д	-10.7726
49"	-10.7728
падають	-10.7729
▁невеликих	-10.7731
▁прийом	-10.7735
▁технологічн	-10.7738
98"	-10.7739
89"	-10.7741
▁магістра	-10.7749
▁створює	-10.775
▁підприємницьк	-10.7753
▁закінчила	-10.7753
▁півкулі	-10.7753
▁угідь	-10.7753
▁змагань	-10.7753
▁зустрічається	-10.7753
▁миколайович	-10.7753
▁течій	-10.7754
якого	-10.776
▁кип	-10.7762
▁голову	-10.7763
▁григорович	-10.7767
▁опір	-10.7768
лід	-10.7772
сіон	-10.7773
▁1897	-10.7779
▁1909	-10.7779
▁важливе	-10.7779
93"	-10.778
60"	-10.7783
▁1889	-10.7783
▁перебували	-10.7787
76"	-10.7791
▁позбавлен	-10.7792
▁написання	-10.7796
▁континентальний	-10.7797
▁ван	-10.7799
▁наведен	-10.78
48"	-10.7803
▁адміністрації	-10.7804
▁франкським	-10.7805
▁державну	-10.7806
▁глава	-10.7807
▁адвокат	-10.7807
▁конституцією	-10.7807
▁нервов	-10.7808
▁вірусів	-10.7809
▁відкрили	-10.7811
▁скликання	-10.7812
33"	-10.7813
рух	-10.7818
▁характеристика	-10.7819
льних	-10.782
▁голоду	-10.7821
▁67	-10.7824
08"	-10.7828
івську	-10.7828
va	-10.7831
21"	-10.7832
▁керівництво	-10.7833
01"	-10.7833
трав	-10.7834
▁отримува	-10.7834
▁батьком	-10.7838
88"	-10.7841
37"	-10.7843
74"	-10.7846
▁кращ	-10.7847
▁громадянин	-10.7848
▁тісн	-10.7849
▁1950-	-10.785
▁шум	-10.7855
▁справа	-10.7861
▁карантанія	-10.7862
▁переговори	-10.7862
▁розвиваються	-10.7862
▁смертність	-10.7862
▁способом	-10.7862
▁диктатур	-10.7862
▁містечко	-10.7862
▁відбувалися	-10.7862
▁природа	-10.7863
58"	-10.7864
▁наразі	-10.7866
▁певного	-10.7868
▁ядро	-10.7868
▁леніна	-10.7871
▁поган	-10.7872
▁млин	-10.7873
▁кот	-10.7875
▁німецькою	-10.7883
▁порти	-10.7884
▁споруджено	-10.7887
тримати	-10.7889
нії	-10.789
▁премія	-10.789
50"	-10.7892
▁діюч	-10.7892
жир	-10.7893
сал	-10.7898
▁збережен	-10.7899
кування	-10.79
▁материк	-10.7902
▁відносн	-10.7904
▁західні	-10.7914
петербург	-10.7914
▁православної	-10.7915
▁письмов	-10.7915
▁вей	-10.7915
люються	-10.7916
▁дорогоцінн	-10.7916
▁керівництва	-10.7916
▁скасування	-10.7916
▁губернськ	-10.7917
▁розпочалося	-10.792
▁захворювання	-10.792
зька	-10.792
́л	-10.7922
юн	-10.7922
▁партійн	-10.7922
▁1902	-10.7924
їх	-10.7925
ютера	-10.7928
32"	-10.7928
[	-10.7928
▁потужність	-10.793
▁важливих	-10.7932
▁ліван	-10.7932
▁єдиного	-10.7935
▁потрапля	-10.7935
▁премію	-10.7935
▁амі	-10.7935
▁невелика	-10.7937
неві	-10.7937
▁перетин	-10.7938
▁подільськ	-10.7938
▁1861	-10.7939
множ	-10.7942
="10	-10.7942
яса	-10.7948
кру	-10.7952
▁подав	-10.7953
▁атмосфері	-10.7955
рп	-10.7955
▁контролює	-10.7955
▁палео	-10.796
▁анна	-10.7961
▁град	-10.7963
▁міжнародна	-10.7966
ічними	-10.7966
▁сек	-10.7967
sh	-10.7967
57"	-10.7969
▁пс	-10.797
▁сінгапур	-10.7971
краєзнавч	-10.7971
▁розумінні	-10.7971
▁наслідки	-10.7972
▁спілкування	-10.7972
▁зросла	-10.7973
кса	-10.7973
▁очол	-10.7974
▁галлії	-10.7975
вісник	-10.7976
▁забруднення	-10.7978
▁сем	-10.798
64"	-10.7982
▁горд	-10.7984
сун	-10.7985
фільм	-10.7987
▁частинах	-10.7988
▁програму	-10.7988
люючи	-10.7989
кара	-10.799
75"	-10.7991
▁закладах	-10.7992
▁правом	-10.7993
11"	-10.7994
▁арк	-10.7996
▁дочки	-10.7998
▁партизанськ	-10.7999
67"	-10.8
▁наслідок	-10.8
▁функціональн	-10.8001
▁64	-10.801
▁кру	-10.8013
▁снігу	-10.8014
▁теми	-10.8017
зареєстрован	-10.8017
▁монастирі	-10.8017
▁тексти	-10.8017
▁супер	-10.8019
▁нафтов	-10.802
водиться	-10.8021
56"	-10.8021
▁власним	-10.8024
▁князівству	-10.8024
▁заборонен	-10.8025
▁призначає	-10.8027
▁представлен	-10.8027
▁зрештою	-10.8027
▁аланів	-10.8027
▁декарт	-10.8028
▁тест	-10.8031
▁дала	-10.8031
▁льодовиков	-10.8033
тний	-10.8033
00"	-10.8034
1,3	-10.8034
▁автобус	-10.8034
▁флора	-10.8034
▁періоди	-10.8039
мія	-10.8039
the	-10.804
51"	-10.804
▁будівельних	-10.8046
63"	-10.8046
▁центри	-10.8048
▁фестиваль	-10.8048
▁коливання	-10.8049
уючись	-10.805
▁широт	-10.8055
▁дали	-10.8058
▁майно	-10.8058
▁розширен	-10.806
маючи	-10.8065
▁правлінням	-10.8068
▁зону	-10.8069
▁їхній	-10.8072
▁херсонськ	-10.8076
ue	-10.8077
▁експерт	-10.808
▁ахілл	-10.8082
▁молюсків	-10.8082
▁річчю	-10.8082
▁оцінки	-10.8082
▁розробив	-10.8082
▁чиновник	-10.8083
▁тепла	-10.8084
▁нібито	-10.8084
▁звідки	-10.8084
▁твердження	-10.8085
▁діоніса	-10.8087
▁маляр	-10.8087
▁росією	-10.8088
▁медичних	-10.809
▁відмінності	-10.8092
▁солоність	-10.8092
▁співробітництва	-10.8093
▁база	-10.8093
▁стат	-10.8094
▁тривалий	-10.8096
йшла	-10.8097
▁описує	-10.8101
▁сніг	-10.8107
▁територіально	-10.8107
▁"(	-10.8107
▁поділу	-10.8108
▁бій	-10.8112
▁богослов	-10.8115
▁самої	-10.8119
▁рот	-10.812
▁володимиро	-10.8122
▁практики	-10.8124
▁віршів	-10.8124
дві	-10.8126
жень	-10.8128
відповідальність	-10.8131
▁черв	-10.8131
́с	-10.8134
▁тиском	-10.8134
▁згадує	-10.8135
▁підприємствами	-10.8136
▁продукція	-10.8138
▁співпраці	-10.8138
▁php	-10.8138
▁двадцят	-10.8138
▁чагарник	-10.8138
соціалістичної	-10.8138
▁згадан	-10.8141
▁перевезення	-10.8142
▁трансформ	-10.8142
▁цими	-10.8143
▁цілі	-10.8145
▁празі	-10.8145
▁твору	-10.8146
кала	-10.8146
▁корона	-10.8146
хер	-10.8147
▁1977	-10.8147
52"	-10.8155
▁петербурзі	-10.8155
▁виж	-10.8157
образ	-10.8157
▁фін	-10.8158
▁перевагу	-10.816
47"	-10.816
▁посполита	-10.8161
дами	-10.8161
▁говори	-10.8165
▁приморськ	-10.8166
фіз	-10.8166
біль	-10.8167
десят	-10.817
▁даний	-10.8174
бей	-10.8176
▁зворотн	-10.8177
▁меншин	-10.8178
▁закінчен	-10.8179
чав	-10.8179
люд	-10.8183
стає	-10.8183
97"	-10.8183
▁перейшла	-10.8184
стей	-10.8184
▁наземн	-10.8189
▁ускладн	-10.8193
фи	-10.8193
▁аргонавт	-10.8194
▁використовуючи	-10.8194
▁повноважень	-10.8194
▁володіє	-10.8194
▁стратегічн	-10.8195
▁частіше	-10.8195
53"	-10.82
▁замок	-10.82
кіст	-10.82
▁теплов	-10.82
▁незаконн	-10.8201
="7	-10.8201
орт	-10.8205
жені	-10.8213
▁громадські	-10.8213
▁річку	-10.8214
▁1863	-10.8215
▁німців	-10.8216
ївський	-10.8217
pl	-10.8218
▁парижа	-10.8221
▁вимоги	-10.8222
люк	-10.8223
▁поставлен	-10.8225
▁економічний	-10.8225
▁1500	-10.8228
▁рівнина	-10.8229
▁викид	-10.8229
▁ймовірн	-10.823
▁чо	-10.8232
▁культурних	-10.8233
▁штаті	-10.8236
▁гігант	-10.8244
▁68	-10.8247
▁головно	-10.8248
дуб	-10.825
▁короткий	-10.8251
▁небезпек	-10.8251
▁сучасному	-10.8251
▁припущення	-10.8251
▁рибальство	-10.8251
▁фортеці	-10.8251
▁гермес	-10.8251
▁залишав	-10.8251
▁вулицю	-10.8251
▁власного	-10.8254
▁ввійшл	-10.8255
січ	-10.8257
▁1955	-10.8259
марк	-10.826
▁науковий	-10.8262
▁виявили	-10.8263
кладання	-10.8266
66"	-10.8268
▁польською	-10.827
▁урочищ	-10.8271
per	-10.8276
▁30-	-10.8282
нові	-10.8284
_2	-10.8289
▁запас	-10.8289
літературн	-10.8291
▁повітряні	-10.8293
▁друг	-10.8293
▁атомн	-10.8295
▁лісові	-10.8297
▁перебувала	-10.8305
▁англійською	-10.8308
▁ольгерд	-10.8308
▁оркестр	-10.8308
▁дівчат	-10.8308
▁служив	-10.8308
▁господарювання	-10.8308
єси	-10.8313
▁сестра	-10.8313
▁болгарії	-10.8314
▁заробітн	-10.8314
▁вийшли	-10.8316
▁1987	-10.8316
▁втратив	-10.8318
▁1976	-10.832
▁перспектив	-10.832
▁вовч	-10.8321
▁впливає	-10.8323
кос	-10.8324
▁точні	-10.8324
онос	-10.8327
▁проведено	-10.8328
▁180	-10.8331
ников	-10.8333
▁супутників	-10.8333
зова	-10.8337
▁величиною	-10.8338
▁фільмів	-10.8338
▁графік	-10.8344
▁лібер	-10.8347
урський	-10.8348
▁результатів	-10.8349
▁колом	-10.8351
▁суспільних	-10.8358
▁гур	-10.8358
▁земле	-10.8359
▁конго	-10.8362
▁херсонес	-10.8363
криті	-10.8363
«	-10.8363
▁гривень	-10.8365
▁належали	-10.8365
▁підручник	-10.8366
▁проживають	-10.8366
▁місцевої	-10.8366
▁питом	-10.8366
▁швейцарії	-10.8367
ангел	-10.8367
▁майбутньому	-10.8367
▁антів	-10.8367
▁ліквідації	-10.8367
▁свідомості	-10.8369
▁посилення	-10.8369
▁республіку	-10.8369
пек	-10.8372
річного	-10.8373
алізму	-10.8389
▁відігра	-10.839
▁станцій	-10.839
▁азот	-10.8391
▁первісно	-10.8392
▁атмосферних	-10.8392
▁розстріл	-10.8394
народилися	-10.8394
▁східні	-10.8396
▁1870	-10.8397
▁плані	-10.8397
68"	-10.8398
рін	-10.84
груд	-10.8401
техн	-10.8403
▁діл	-10.8403
мол	-10.8407
▁вино	-10.8409
▁іменник	-10.841
дністров	-10.8411
стя	-10.8415
▁колоній	-10.8415
ab	-10.8417
ріт	-10.8417
▁мережу	-10.8418
▁династій	-10.8422
▁кладовищі	-10.8422
▁неподалік	-10.8422
▁засідання	-10.8422
▁функція	-10.8422
єднати	-10.8422
▁обидві	-10.8422
▁пакистан	-10.8422
▁індустріальн	-10.8422
▁російським	-10.8422
▁іспанські	-10.8422
▁англійський	-10.8423
▁читання	-10.8423
▁еліпс	-10.8423
▁ширина	-10.8423
▁інвестицій	-10.8424
▁корпусу	-10.8425
▁сімей	-10.8428
вит	-10.8429
▁верх	-10.8434
▁логік	-10.8437
▁світових	-10.8439
▁соф	-10.8446
▁суміш	-10.8447
▁проєкту	-10.8454
▁реалізован	-10.8456
▁економічна	-10.8459
▁дерево	-10.847
▁2,5	-10.8471
ковського	-10.8471
▁переслідува	-10.8472
гран	-10.8473
▁означ	-10.8474
▁римо	-10.8475
творення	-10.8476
▁російську	-10.848
▁хімічних	-10.848
▁отримують	-10.848
▁здібн	-10.848
▁підкорили	-10.848
▁королівстві	-10.848
▁єдиною	-10.848
▁митрополита	-10.8481
▁технічних	-10.8482
61"	-10.8484
▁ремонт	-10.8485
▁дозволил	-10.8488
▁опіку	-10.8488
▁відновив	-10.849
▁теренах	-10.849
▁джо	-10.849
▁підписан	-10.8496
▁шп	-10.8503
▁комбінат	-10.8505
▁літератур	-10.8506
ступила	-10.851
▁суті	-10.851
▁новел	-10.8511
46"	-10.8511
▁батьків	-10.8511
▁досліджен	-10.8513
▁нагороди	-10.8514
ka	-10.8518
▁валютн	-10.852
водяться	-10.8522
оїд	-10.8526
▁комплексу	-10.8527
▁62	-10.8528
19"	-10.8528
▁рухів	-10.853
par	-10.8533
хмельницьк	-10.8536
▁забезпечити	-10.8538
▁тектонічн	-10.8538
▁трьома	-10.8538
▁фізичні	-10.8538
▁смертю	-10.8538
▁відходів	-10.8539
▁святих	-10.8539
▁одружен	-10.8539
▁дощов	-10.8539
▁альберт	-10.854
▁посполитою	-10.8542
гри	-10.8543
гуцул	-10.8545
льського	-10.8546
нева	-10.8547
риб	-10.8548
▁втік	-10.8549
62"	-10.855
▁десятки	-10.8553
▁повітряних	-10.8555
▁морської	-10.8556
▁літературу	-10.8569
▁інтересів	-10.857
▁погляд	-10.8574
гіт	-10.858
▁автори	-10.858
▁посейдон	-10.8582
▁переклади	-10.8582
сім	-10.8583
фен	-10.8587
▁козак	-10.8588
▁мес	-10.8592
▁співпрацю	-10.8596
▁алківіад	-10.8597
▁законодавства	-10.8597
▁коливається	-10.8597
▁хазарськ	-10.8597
▁входила	-10.8597
▁змусил	-10.8597
▁невдал	-10.8597
▁виключен	-10.8598
▁руди	-10.8601
▁згадка	-10.8601
ссі	-10.8602
▁званий	-10.8605
даючи	-10.8605
▁втім	-10.8606
▁харчов	-10.8607
▁рідною	-10.8608
територіальний	-10.8612
▁особистості	-10.8615
оста	-10.8616
▁кадр	-10.862
губернатор	-10.8621
▁тимчасово	-10.8623
▁велич	-10.8628
▁серії	-10.8628
пак	-10.863
▁радянсько	-10.8633
ству	-10.8635
ичного	-10.8638
▁платформ	-10.864
хор	-10.864
▁1899	-10.8643
оре	-10.8646
▁привел	-10.8648
бун	-10.8649
▁районного	-10.8652
орф	-10.8652
цькі	-10.8653
▁цезар	-10.8654
пет	-10.8655
▁тюрінг	-10.8655
▁омивається	-10.8656
дання	-10.8657
▁заборони	-10.8657
▁молодий	-10.8658
▁перетворила	-10.8658
▁вживання	-10.8662
цтво	-10.8663
▁десять	-10.8665
▁ядра	-10.8665
ua	-10.8669
▁розподілу	-10.867
▁художній	-10.867
лук	-10.8671
муть	-10.8675
▁гуманітарн	-10.8676
тікають	-10.8679
▁центральний	-10.868
▁команда	-10.8681
▁стол	-10.8681
▁1840	-10.8686
▁румунськ	-10.8687
ившись	-10.8691
▁видами	-10.87
▁архітектура	-10.8703
▁борг	-10.8704
зію	-10.8708
▁якісн	-10.871
▁розміри	-10.8711
1,4	-10.8713
▁прикметник	-10.8715
▁біблії	-10.8715
▁мюнхен	-10.8715
▁республіці	-10.8715
▁асоціації	-10.8715
▁містечку	-10.8715
▁національну	-10.8715
▁спостережень	-10.8715
▁іспанської	-10.8715
▁угорщині	-10.8715
▁машинобудування	-10.8715
▁пустелі	-10.8715
▁популярність	-10.8716
▁каспійського	-10.8718
▁ринков	-10.8718
▁пет	-10.8719
▁вбивства	-10.8719
▁університетів	-10.8721
▁живлення	-10.8723
▁краси	-10.8723
▁михайлів	-10.8723
▁жур	-10.8723
▁хотів	-10.8724
▁1903	-10.8724
українські	-10.8726
▁приділя	-10.8727
▁мороз	-10.8729
сподарської	-10.8731
жев	-10.8731
▁відбит	-10.8731
▁пройшли	-10.8732
▁юпітер	-10.8732
▁незалежною	-10.8736
▁другою	-10.8738
▁русла	-10.8739
▁марка	-10.8742
▁футбол	-10.8743
ованої	-10.8744
▁греків	-10.8746
ae	-10.8747
▁арктичн	-10.8751
подоб	-10.8751
уванню	-10.8751
поміж	-10.8754
▁американський	-10.8754
▁міфу	-10.8757
▁ям	-10.8758
▁східний	-10.8758
▁розгром	-10.8758
зація	-10.8762
▁листя	-10.8763
▁половина	-10.8774
▁японія	-10.8774
▁атрибут	-10.8774
▁секретаріат	-10.8774
▁більшовиків	-10.8774
▁виконував	-10.8774
▁сергія	-10.8776
▁зерна	-10.8776
▁майбутнього	-10.8778
▁розквіт	-10.8779
▁весел	-10.878
▁археології	-10.878
▁розпад	-10.8783
▁серб	-10.8783
▁переходить	-10.8783
="18	-10.8783
▁каміння	-10.8784
▁представля	-10.8788
▁цілей	-10.8791
сільськогосподар	-10.8791
▁вовк	-10.8792
альне	-10.8794
янець	-10.8794
▁відоме	-10.8795
▁східному	-10.8796
▁хуан	-10.8797
▁розповідає	-10.8798
революційн	-10.8802
илось	-10.8803
▁сіль	-10.8806
3.	-10.8806
▁вінниці	-10.8806
▁бориса	-10.8808
▁поділля	-10.8812
́к	-10.8814
кель	-10.8815
▁вузько	-10.8816
▁археолог	-10.882
▁мені	-10.8824
▁встановлені	-10.8829
мусив	-10.8829
▁низ	-10.883
твори	-10.8833
▁оповід	-10.8834
▁париж	-10.8834
кореспондент	-10.8834
▁аргумент	-10.8834
▁виїхав	-10.8834
▁прийняла	-10.8834
▁училище	-10.8834
▁псевдонім	-10.8834
▁демократії	-10.8834
▁захопила	-10.8834
▁підтримував	-10.8834
▁інтереси	-10.8834
▁заслуг	-10.8834
▁хмельницький	-10.8835
▁річард	-10.8835
▁етимологія	-10.8836
▁турки	-10.8836
▁визволення	-10.8837
▁випаровування	-10.8837
▁намагалися	-10.8838
▁швидкістю	-10.8838
▁формат	-10.8839
слова	-10.8841
яку	-10.8842
▁кризи	-10.8845
▁етапі	-10.8852
наслідок	-10.8852
▁слух	-10.8855
увалось	-10.8855
▁звір	-10.8855
▁генерала	-10.886
▁сліп	-10.886
▁вірн	-10.8861
вард	-10.8864
▁круп	-10.8864
int	-10.8867
▁ділянка	-10.8872
▁селе	-10.8879
▁етнічних	-10.8879
▁задум	-10.8885
тичний	-10.8886
▁опери	-10.8886
▁базов	-10.8887
▁85	-10.8889
▁спілку	-10.8894
▁константинополь	-10.8894
▁мехіко	-10.8894
▁фрагмент	-10.8894
▁альфонс	-10.8894
▁єдності	-10.8894
▁гроші	-10.8894
▁сказав	-10.8894
▁лют	-10.8895
▁харкова	-10.8896
▁сусідні	-10.8897
▁залізниця	-10.8897
▁гетьманщини	-10.8898
be	-10.8898
▁європа	-10.8902
▁послідовник	-10.8902
▁оцінками	-10.8903
▁посл	-10.8907
▁вимагає	-10.8908
▁галич	-10.8908
▁крайов	-10.8911
▁графство	-10.8912
▁вбивство	-10.8912
▁баран	-10.8915
▁озон	-10.8917
▁1895	-10.8923
едон	-10.8924
▁нептуна	-10.8926
біс	-10.8927
▁новій	-10.8933
дво	-10.8936
ніші	-10.8937
▁розкол	-10.8937
▁розміром	-10.8938
▁видно	-10.8939
▁берест	-10.8939
▁могила	-10.8939
sp	-10.894
om	-10.8944
▁професора	-10.8945
▁тихоокеанськ	-10.8946
▁найбільшими	-10.8947
▁біла	-10.8951
▁збудовано	-10.8952
▁іншій	-10.8953
▁мусульман	-10.8953
▁островами	-10.8953
▁феодал	-10.8954
▁відсутності	-10.8955
▁ініціатор	-10.8955
▁130	-10.8955
▁бригад	-10.8955
▁залишити	-10.8955
▁рюрик	-10.8955
▁улюблен	-10.8955
-3	-10.8955
▁врешті	-10.8958
▁постійні	-10.8959
вель	-10.8961
▁сторож	-10.8961
ea	-10.8962
сір	-10.8964
▁називаються	-10.8964
лит	-10.8966
теле	-10.8967
1,6	-10.8967
штейн	-10.8968
▁державним	-10.8969
ava	-10.897
tu	-10.897
▁митн	-10.8974
▁95	-10.8974
▁1983	-10.8975
▁рівненськ	-10.8976
▁оборонн	-10.8978
▁умовами	-10.8982
▁полюс	-10.8986
▁мешканці	-10.899
щин	-10.8992
▁поточн	-10.8992
▁психологічн	-10.8996
▁виділен	-10.8996
▁польські	-10.9001
▁західним	-10.9001
▁спроба	-10.9002
▁ленін	-10.9002
▁височин	-10.9002
▁афінськ	-10.9003
▁призвели	-10.9003
▁63	-10.9005
br	-10.9006
▁кооператив	-10.9006
▁рф	-10.9007
▁автором	-10.9008
▁кабінету	-10.9008
▁перенесен	-10.9009
нн	-10.9009
▁руш	-10.901
▁чітк	-10.9012
▁органами	-10.9013
▁перешкод	-10.9013
▁елі	-10.9013
тос	-10.9016
▁албанії	-10.9016
▁експедиції	-10.9016
▁моравія	-10.9016
▁хорватів	-10.9016
▁препарат	-10.9016
▁зрозуміл	-10.9016
▁веснян	-10.9016
▁прилегл	-10.9017
▁сестри	-10.9017
▁януковича	-10.9017
▁пояснюється	-10.9017
▁стародавні	-10.9018
▁медіа	-10.9019
▁операція	-10.9019
▁австрія	-10.902
▁політиці	-10.902
▁назвали	-10.9024
▁цілісн	-10.9026
слово	-10.9027
▁січов	-10.9028
▁наших	-10.9037
▁відповідальн	-10.9039
▁культурі	-10.904
▁антонович	-10.9043
▁формується	-10.9045
яного	-10.9047
▁пут	-10.9047
▁європейським	-10.9049
▁1880	-10.905
▁характеристик	-10.9052
▁шах	-10.9053
▁кулі	-10.9055
дзвін	-10.9057
▁взяти	-10.9057
▁пік	-10.9069
госп	-10.9073
▁сільської	-10.9077
▁загибелі	-10.9077
▁землетрус	-10.9077
▁англійської	-10.9077
▁друкар	-10.9077
▁італію	-10.9077
▁подвійн	-10.9077
▁майданчик	-10.9078
▁регент	-10.9078
івське	-10.9078
▁чисельністю	-10.9078
▁рухи	-10.9079
▁картини	-10.908
▁художника	-10.908
▁спеціальні	-10.9083
ньйон	-10.9083
▁враження	-10.9086
▁засуджен	-10.9094
▁виявлені	-10.9094
▁мільйона	-10.9096
ver	-10.9097
▁трактат	-10.9098
вей	-10.9099
▁ватикан	-10.9101
вільного	-10.9103
▁онук	-10.9104
▁націоналізм	-10.9108
▁зима	-10.9112
▁зустрічі	-10.9113
▁багаторічн	-10.9115
нц	-10.9117
зруйнован	-10.9117
▁чорноземи	-10.9119
▁дипломат	-10.9121
▁римським	-10.9121
▁письменники	-10.9122
ig	-10.9123
▁краще	-10.9124
▁древн	-10.9124
▁тканин	-10.9126
▁кохання	-10.9127
▁битви	-10.9133
язь	-10.9134
▁карпатськ	-10.9136
▁відповідних	-10.9137
▁снд	-10.9137
▁джеймс	-10.9139
▁діапазон	-10.9139
▁саудівськ	-10.9139
▁комісія	-10.9139
▁канаді	-10.9139
▁висловлюва	-10.9141
▁грецького	-10.9141
▁наявності	-10.9147
ходячи	-10.9147
▁організував	-10.9149
▁розпочалася	-10.9149
▁генер	-10.915
▁низовині	-10.9151
▁повернутися	-10.9151
рада	-10.9151
▁водні	-10.9151
▁оттон	-10.9156
▁виконавчої	-10.9156
▁говорить	-10.9158
▁плям	-10.9162
wa	-10.9162
▁західному	-10.9163
▁%);	-10.9166
▁покров	-10.9168
▁відсотк	-10.9169
▁1896	-10.9169
▁структуру	-10.917
▁відносять	-10.9171
▁шу	-10.9176
люди	-10.9178
▁кад	-10.9181
▁вокзал	-10.9181
лист	-10.9183
лювали	-10.9186
▁десятин	-10.9188
▁побут	-10.9188
являють	-10.9189
▁продовжує	-10.9198
▁безперервн	-10.9201
▁відповідають	-10.9201
▁кольору	-10.9201
▁німецьким	-10.9201
▁церквою	-10.9201
▁адольф	-10.9201
▁аматорськ	-10.9201
▁передусім	-10.9201
▁оповідань	-10.9202
▁стилю	-10.9202
▁застосовується	-10.9202
▁місії	-10.9204
▁ступенів	-10.9211
▁дотримува	-10.9213
▁листа	-10.9214
▁відноситься	-10.9216
▁ведення	-10.9217
▁прийшли	-10.9217
джап	-10.9218
▁автоматичн	-10.9219
▁сильні	-10.922
масштаб	-10.922
▁тюркський	-10.9221
▁ріо	-10.9223
▁підписав	-10.9223
▁завершення	-10.9229
▁народжен	-10.923
▁спільного	-10.9231
бою	-10.9232
чині	-10.9233
▁голодомор	-10.9236
▁органу	-10.9236
▁справами	-10.9238
▁водних	-10.9239
ріх	-10.9239
▁ухвал	-10.924
▁націонал	-10.9241
▁надано	-10.9243
▁спільнот	-10.9245
▁знав	-10.9247
▁обіг	-10.9249
щик	-10.9249
▁брон	-10.9251
▁плутон	-10.9257
16)	-10.9259
▁поєднання	-10.926
▁букв	-10.9262
▁завідувач	-10.9263
▁французькі	-10.9263
▁тувалу	-10.9264
ксі	-10.9264
▁простір	-10.9264
▁метеорологічн	-10.9264
▁сара	-10.9264
▁діалог	-10.9266
▁пояснення	-10.9266
▁надмірн	-10.9266
▁музику	-10.9266
▁офіційною	-10.9269
▁завершив	-10.9269
▁утворюва	-10.9271
▁підтримує	-10.9273
▁наказав	-10.9273
▁колір	-10.9275
▁виникло	-10.9276
▁іншу	-10.9277
▁росіян	-10.9277
▁розглядати	-10.9278
▁текстів	-10.928
▁повинн	-10.9282
▁тяг	-10.9283
▁розповсюдження	-10.9283
▁здійснен	-10.9284
0,3	-10.9284
▁систематичн	-10.9284
1,7	-10.9288
инг	-10.9292
▁тес	-10.9301
1,8	-10.9303
партійн	-10.9303
▁такому	-10.9303
генез	-10.9305
фф	-10.9309
▁розміщення	-10.9309
▁хвиля	-10.932
їзді	-10.932
онізм	-10.9321
▁локальн	-10.9322
tion	-10.9325
▁глибині	-10.9325
▁договором	-10.9326
▁кисню	-10.9326
▁статистики	-10.9326
▁областю	-10.9326
▁столицю	-10.9327
▁скрип	-10.9327
▁робити	-10.9328
▁детальн	-10.9332
▁вогонь	-10.9336
▁католицької	-10.9337
▁заслання	-10.9337
енн	-10.9339
▁донбас	-10.934
▁матеріалу	-10.9341
первісн	-10.9343
▁святої	-10.9344
скор	-10.9344
▁культу	-10.9345
зький	-10.9348
▁престолу	-10.9348
▁книгу	-10.9351
▁1898	-10.9356
▁структурн	-10.9359
hi	-10.9374
▁чернігів	-10.9377
пласт	-10.9377
▁поставив	-10.9377
▁покрит	-10.9382
▁суспільно	-10.9384
▁діоніс	-10.9385
▁динамічн	-10.939
▁заарештований	-10.939
▁новостворен	-10.939
▁цивілізації	-10.939
▁примусов	-10.939
▁приріст	-10.939
▁оперативн	-10.939
▁розробка	-10.939
▁зменшується	-10.9391
▁значень	-10.9391
▁посух	-10.9391
хлібороб	-10.9391
▁волинської	-10.9391
▁економіку	-10.9391
▁біт	-10.9392
▁луцьк	-10.9392
сією	-10.9395
lis	-10.9398
алії	-10.9399
▁ширш	-10.9399
▁ладу	-10.94
кцію	-10.9404
▁дз	-10.9406
▁етнографічн	-10.9407
▁покриттям	-10.941
▁кордоні	-10.9411
▁регіонах	-10.9412
український	-10.9412
▁сусідніх	-10.9415
▁родовище	-10.942
▁цифров	-10.9423
сек	-10.9424
пустити	-10.9425
▁бувають	-10.9425
▁гас	-10.9427
▁полювання	-10.9429
продукт	-10.9429
овується	-10.9429
▁океаном	-10.9429
▁72	-10.9434
▁південні	-10.9435
▁суспільного	-10.9438
▁афіни	-10.9439
рас	-10.9439
▁графічн	-10.944
▁здатні	-10.9448
леон	-10.9448
▁фікс	-10.9452
▁правобережжя	-10.9453
▁трагедії	-10.9453
▁побачити	-10.9453
▁формозі	-10.9453
▁здійснювати	-10.9454
▁вулиць	-10.9454
▁радянським	-10.9455
▁проводити	-10.9455
▁крейд	-10.9455
губ	-10.9457
▁мельник	-10.9457
▁фраз	-10.9457
слу	-10.9458
▁юридичних	-10.9458
▁продовжив	-10.946
▁плутона	-10.946
▁клітора	-10.9461
рев	-10.9462
▁сімейн	-10.9464
королівство	-10.9465
▁лісами	-10.9466
▁власний	-10.9469
▁посейдона	-10.947
▁частинок	-10.9476
▁майна	-10.9479
▁переваг	-10.9484
▁користувач	-10.9488
холод	-10.9492
▁галичі	-10.9493
загальнодержавн	-10.9494
▁латинської	-10.9494
▁етно	-10.9496
▁підписання	-10.9501
ографії	-10.9502
▁ваза	-10.9502
he	-10.9503
▁водосховища	-10.9511
▁кей	-10.9514
2,5	-10.9515
▁абстрактн	-10.9517
▁спеціаліст	-10.9517
▁стверджував	-10.9517
▁туреччини	-10.9517
▁централізован	-10.9517
▁мазепи	-10.9517
▁споріднен	-10.9517
▁розпочали	-10.9517
прекрасн	-10.9517
▁партію	-10.9518
▁залишалас	-10.9518
▁фінансування	-10.9518
береж	-10.9518
▁теорем	-10.9518
▁вторинн	-10.9518
▁згадував	-10.9519
▁мислення	-10.952
▁козацького	-10.9521
▁нестор	-10.9522
▁вірмен	-10.9522
au	-10.9523
▁нан	-10.9524
▁полян	-10.9525
▁складні	-10.9526
▁відіграє	-10.9527
▁руси	-10.9527
▁талант	-10.953
форт	-10.9531
▁спеціально	-10.9531
фт	-10.9535
чко	-10.9535
▁циклонів	-10.9537
▁угри	-10.9537
▁марса	-10.9537
юються	-10.9541
▁археологічн	-10.9542
▁джерелами	-10.9542
▁терміну	-10.9543
▁долю	-10.9547
▁лондоні	-10.9547
▁гідрологічн	-10.9548
▁прозор	-10.9549
▁суші	-10.955
▁59	-10.955
0,2	-10.9557
▁гера	-10.9558
▁66	-10.9558
▁урочище	-10.9559
▁xxi	-10.956
▁газо	-10.956
▁польський	-10.956
▁іваном	-10.9571
біологія	-10.9572
оборон	-10.9572
▁чорно	-10.9577
▁необхідні	-10.9581
▁камакура	-10.9582
▁кафедри	-10.9582
▁нижній	-10.9582
▁обираються	-10.9582
▁переміг	-10.9582
▁кільком	-10.9582
▁існувати	-10.9582
▁омелян	-10.9582
▁грецьких	-10.9583
▁познайомився	-10.9587
▁основа	-10.9588
▁нор	-10.9592
▁1974	-10.9593
▁ідеологічн	-10.9595
▁відчув	-10.9597
▁популярним	-10.9597
▁дістав	-10.9598
▁сини	-10.9598
▁подан	-10.9602
▁документальн	-10.9605
▁жити	-10.9606
gra	-10.961
▁радіус	-10.9611
▁нахил	-10.9611
нівський	-10.9626
▁чилі	-10.9635
▁клубів	-10.9636
▁шост	-10.9638
▁залишк	-10.9638
▁москов	-10.9639
▁побудови	-10.964
▁серце	-10.9644
бирає	-10.9644
▁янукович	-10.9645
▁міфологія	-10.9646
под	-10.9646
католик	-10.9646
▁кінематограф	-10.9647
▁зайняв	-10.9647
▁позицій	-10.9647
▁олександрович	-10.965
▁сотень	-10.9651
▁гомер	-10.9651
▁діб	-10.9652
▁навколишньо	-10.9654
▁викликає	-10.9655
▁буває	-10.9656
▁оператор	-10.966
▁порту	-10.9661
▁регіони	-10.9665
▁ліній	-10.9666
пев	-10.9668
▁столітн	-10.9668
▁бойових	-10.9669
довж	-10.967
▁прохання	-10.9673
▁протесту	-10.9674
тропічн	-10.9677
▁промислова	-10.9677
дай	-10.9677
троп	-10.968
▁гідн	-10.9684
хто	-10.9686
▁відбив	-10.9687
▁відсотків	-10.9687
▁u	-10.9691
▁долі	-10.9695
▁норми	-10.9701
▁терор	-10.9703
▁користу	-10.9706
▁департамент	-10.9712
▁звернувся	-10.9712
▁костомаров	-10.9712
▁співвідношення	-10.9712
▁знайшов	-10.9712
▁вирішальн	-10.9712
▁корабель	-10.9712
▁зустрів	-10.9713
▁віруси	-10.9714
освітні	-10.9716
▁констант	-10.9716
▁паралельно	-10.9717
▁чернігівської	-10.9719
▁поляків	-10.9724
▁придатн	-10.9725
▁ліги	-10.9726
▁бізнесу	-10.9727
▁землею	-10.9728
▁повернути	-10.9729
▁заводу	-10.973
неви	-10.9731
▁восьми	-10.9731
▁терен	-10.9731
щиною	-10.9734
▁міжнародним	-10.9734
▁перекладі	-10.9737
щенко	-10.9739
́м	-10.974
▁1893	-10.9742
▁другим	-10.9746
▁зорі	-10.9751
язково	-10.9751
▁запроваджен	-10.9755
йко	-10.9756
▁суттєв	-10.976
▁переворот	-10.9764
▁утворенням	-10.9766
▁шлюбу	-10.9771
піш	-10.9771
ологічні	-10.9773
"».	-10.9775
їзм	-10.9776
▁боці	-10.9777
▁залишаються	-10.9778
▁рудольф	-10.9778
▁співдружності	-10.9778
▁дніпру	-10.9778
▁існуюч	-10.9778
▁македонськ	-10.9778
▁пройшов	-10.9778
▁утворилася	-10.9778
▁подвиг	-10.9778
▁єдиної	-10.9779
▁слабо	-10.978
▁пилип	-10.978
пісковик	-10.978
▁мешкає	-10.9783
▁пун	-10.9784
язниці	-10.9786
▁колегії	-10.9787
повільн	-10.9787
▁реформа	-10.9789
▁томас	-10.979
▁міфологічн	-10.979
▁корону	-10.979
▁судна	-10.9791
▁усіма	-10.9792
▁характеристики	-10.9792
▁ог	-10.9793
▁герцогство	-10.9795
if	-10.9798
▁зовнішньої	-10.9798
▁заснували	-10.98
▁січі	-10.9802
▁69	-10.9804
▁соціалісти	-10.9805
▁панас	-10.9806
▁одержав	-10.9808
▁історичної	-10.9809
▁західну	-10.981
▁муж	-10.9815
▁відтак	-10.9818
▁тлумач	-10.9818
▁виділення	-10.982
▁русин	-10.9821
звичай	-10.9823
ell	-10.9824
особливо	-10.9825
буття	-10.9828
курс	-10.983
▁проголошен	-10.9835
▁стосунк	-10.9836
▁остаточн	-10.9837
носити	-10.9839
▁материка	-10.984
ційний	-10.9843
▁прибули	-10.9843
▁випущен	-10.9844
▁околицях	-10.9844
▁пріоритет	-10.9844
▁руйнування	-10.9844
▁чернігові	-10.9844
▁закарпатті	-10.9844
▁збільшується	-10.9844
▁доктрин	-10.9844
▁шару	-10.9846
▁загони	-10.9847
▁берліні	-10.9847
▁верхні	-10.9847
▁вівтар	-10.9848
▁гнат	-10.9848
▁особисто	-10.9849
▁календарем	-10.9851
▁смуг	-10.9851
▁щільність	-10.9852
▁приєднали	-10.9853
▁текстильн	-10.9854
▁1981	-10.9854
▁пластов	-10.9854
▁почалися	-10.9854
пел	-10.9854
▁новин	-10.9855
▁1982	-10.9856
▁поліції	-10.9859
▁материков	-10.9867
▁середземного	-10.9868
▁зовнішніх	-10.9868
▁перебудов	-10.987
▁давньогрецькій	-10.987
▁коду	-10.9873
▁160	-10.9873
▁принципів	-10.9873
▁доросл	-10.9877
▁міністра	-10.9885
▁верств	-10.9886
пізн	-10.9887
сор	-10.9887
▁графа	-10.9889
▁культурного	-10.989
промислов	-10.9891
▁доходи	-10.9897
лаб	-10.9901
▁родов	-10.9907
▁нашого	-10.9907
▁акціонерн	-10.9911
▁архієпископ	-10.9911
▁вирощують	-10.9911
▁відокремилися	-10.9911
▁суверенітет	-10.9911
псевдо	-10.9911
▁вивчав	-10.9911
▁правобережн	-10.9911
▁дедалі	-10.9912
▁приводу	-10.9912
▁проживало	-10.9912
▁людям	-10.9912
▁сторона	-10.9914
▁божества	-10.9915
▁версій	-10.9915
▁противник	-10.9918
ьє	-10.992
▁обміну	-10.992
▁миколаївськ	-10.992
▁лікарів	-10.9921
▁антаркти	-10.9921
▁дрібних	-10.9923
▁височини	-10.9926
▁коефіцієнт	-10.9927
▁завданням	-10.9933
▁візантійської	-10.9936
▁розріз	-10.9937
▁незалежної	-10.9937
▁відіграв	-10.9938
▁вищий	-10.9938
▁остання	-10.9938
пур	-10.994
▁лідерів	-10.994
фікації	-10.9942
▁нептун	-10.9942
▁перекладу	-10.9945
▁ніл	-10.9946
▁побудовано	-10.9949
▁розповіда	-10.9951
тепл	-10.9952
воєнн	-10.9952
▁джерелах	-10.9955
▁низовини	-10.9956
варіант	-10.9961
північ	-10.9966
▁почало	-10.9971
▁музичні	-10.9971
▁каш	-10.9972
▁ясон	-10.9974
▁генетичн	-10.9975
▁грошей	-10.9978
▁поведінки	-10.9978
▁астероїд	-10.9978
▁напружен	-10.9978
▁оракул	-10.9978
▁особливістю	-10.9978
▁незмінн	-10.9979
▁можливостей	-10.9979
▁інтелекту	-10.9981
▁експертиз	-10.9981
▁арагон	-10.9983
▁товарн	-10.9984
▁заводи	-10.9985
▁культурні	-10.9986
▁живопису	-10.9987
міста	-10.9992
▁степана	-10.9992
▁протоку	-10.9993
▁штабу	-10.9994
▁провідник	-10.9994
5,5	-10.9995
▁громадяни	-10.9996
▁продажу	-10.9998
▁комун	-11.0003
шель	-11.0004
степ	-11.0005
▁0,5	-11.0005
▁божеств	-11.0007
=12	-11.0007
▁пережив	-11.001
▁гриб	-11.0013
скіф	-11.0014
▁курсу	-11.0014
ip	-11.0015
язують	-11.0017
▁брала	-11.0019
▁надійн	-11.0022
▁обрали	-11.0024
логічних	-11.0026
нською	-11.0029
▁виділяються	-11.0031
▁900	-11.0032
▁віра	-11.0034
1,5	-11.0035
фра	-11.0037
amp	-11.0041
▁широкий	-11.0042
▁приватні	-11.0043
▁інвестиційн	-11.0044
▁надходження	-11.0046
▁обличчя	-11.0046
▁тоталітарн	-11.0046
▁швидше	-11.0046
▁приналежн	-11.0046
пот	-11.0047
▁дружину	-11.0047
▁дністра	-11.0049
▁щоденн	-11.0052
▁московський	-11.0053
▁продовжували	-11.0054
альним	-11.0055
▁повторн	-11.0056
якої	-11.006
руська	-11.0062
бере	-11.0063
▁тиран	-11.0065
▁описав	-11.0066
▁фів	-11.0069
▁літа	-11.007
▁центральних	-11.0072
▁нормальн	-11.0072
ішими	-11.0077
▁досягла	-11.0077
▁свідом	-11.0078
▁певну	-11.0082
▁звинувачення	-11.0083
▁керівників	-11.0084
▁державними	-11.0085
корот	-11.0086
▁естетичн	-11.0087
▁німці	-11.0089
▁очевидно	-11.0089
▁прихильників	-11.0095
▁битва	-11.0096
англ	-11.0098
▁куба	-11.0103
дз	-11.0106
єктами	-11.0111
квіт	-11.0111
▁so	-11.0111
▁водного	-11.0112
▁хімічна	-11.0114
▁джордж	-11.0114
▁заняття	-11.0114
▁проходив	-11.0114
▁загальну	-11.0114
▁густота	-11.0114
▁будови	-11.0114
▁коралов	-11.0115
▁канадськ	-11.0115
▁ліжок	-11.0115
▁військовим	-11.0116
▁адам	-11.0116
▁займала	-11.0117
▁семінарії	-11.0117
▁множина	-11.0118
▁висока	-11.0119
▁сайт	-11.0119
▁базується	-11.012
▁замку	-11.0121
uni	-11.0124
▁1985	-11.0125
▁власність	-11.0126
зір	-11.0127
▁дитячих	-11.0132
▁присвячені	-11.0134
мант	-11.0137
розум	-11.0137
▁селянських	-11.0138
▁1884	-11.0141
лять	-11.0143
янське	-11.0144
ріо	-11.0147
▁вироблен	-11.0148
▁лучн	-11.015
sch	-11.0151
che	-11.0155
▁кораблі	-11.0156
инці	-11.0157
мона	-11.0157
▁валюти	-11.0159
▁веб	-11.016
▁запорізької	-11.016
—12	-11.0162
▁забудов	-11.0166
альну	-11.0168
тверджує	-11.0171
▁називати	-11.0171
▁художні	-11.0172
▁побудована	-11.0173
▁сефевід	-11.0176
▁характерна	-11.0177
▁предметів	-11.018
2,6	-11.0181
▁дільниці	-11.0182
▁зацікавлен	-11.0182
▁феодосія	-11.0182
▁розчленован	-11.0182
▁енерго	-11.0183
▁софії	-11.0183
▁характеризу	-11.0183
▁попередник	-11.0184
▁повстанськ	-11.0185
▁модифік	-11.0187
▁завдань	-11.0188
7,5	-11.0189
▁огляду	-11.019
▁протистояння	-11.019
▁сміт	-11.0191
▁водах	-11.0192
▁вважала	-11.0193
▁підйом	-11.0196
0,1	-11.0198
▁мешкав	-11.02
▁логіки	-11.0203
▁молекулярн	-11.0204
▁клітини	-11.0208
▁стародавніх	-11.021
▁перегляд	-11.0214
▁американського	-11.0217
▁протекторат	-11.0218
бала	-11.0218
тичного	-11.0219
▁міністерство	-11.0224
дити	-11.0227
▁бой	-11.0228
▁факти	-11.023
▁відновлено	-11.023
▁продаж	-11.0231
▁гетьманом	-11.0233
▁газов	-11.0233
▁лісах	-11.0233
▁філолог	-11.0236
▁використа	-11.0239
▁саван	-11.024
▁льодов	-11.0242
▁прі	-11.0243
▁години	-11.0243
▁нащадки	-11.0244
було	-11.0245
▁зовнішні	-11.0247
▁дією	-11.0248
▁кг	-11.025
▁нерівномірн	-11.0251
▁узагальнен	-11.0251
▁пасовищ	-11.0251
▁наслідком	-11.0251
▁звичаї	-11.0251
▁єпископа	-11.0252
▁космос	-11.0252
▁закладен	-11.0253
▁воїнів	-11.0253
▁60-	-11.0254
▁побачив	-11.0254
▁введено	-11.0256
▁пізнання	-11.0256
0,4	-11.0257
кинули	-11.0259
▁очікуван	-11.0259
▁характеризують	-11.026
▁зміцнення	-11.0262
▁заплав	-11.0262
▁вищі	-11.0263
обов	-11.0265
we	-11.0266
▁міжнародн	-11.0266
▁віков	-11.0267
▁грушевського	-11.0268
▁краї	-11.0272
▁напрямок	-11.0277
▁загальному	-11.0278
▁колонія	-11.028
▁обрання	-11.0281
▁жан	-11.0283
▁олійн	-11.0283
iii	-11.0283
для	-11.0286
▁створенні	-11.0286
▁діяти	-11.0286
вет	-11.0287
▁навчально	-11.0288
▁антонія	-11.029
шись	-11.029
▁1860	-11.0291
▁габсбургів	-11.0291
іший	-11.0292
▁лікаря	-11.0293
▁потік	-11.0295
▁1894	-11.03
супереч	-11.0308
▁здобула	-11.0311
▁літературні	-11.0312
угор	-11.0315
pi	-11.0319
▁музична	-11.032
▁автономії	-11.0321
▁маратха	-11.0321
▁французькою	-11.0321
▁декоративн	-11.0321
▁лекції	-11.0321
▁відбувалося	-11.0321
кентавр	-11.0321
▁галактик	-11.0321
▁денікін	-11.0321
▁мобільн	-11.0321
▁кореї	-11.0321
▁дослідницьк	-11.0321
▁сухий	-11.0322
▁користування	-11.0322
▁міську	-11.0322
▁цирк	-11.0323
▁охоло	-11.0324
▁pp	-11.0326
▁форум	-11.0327
▁ольга	-11.0327
▁додому	-11.0327
1"	-11.0332
▁виявляється	-11.0337
блиск	-11.0338
▁активності	-11.034
▁la	-11.0341
▁долар	-11.0348
▁вінницької	-11.0351
▁білорусь	-11.0352
▁брак	-11.0352
▁притоки	-11.0353
▁музично	-11.0357
▁мох	-11.0357
▁традиційні	-11.0358
друг	-11.0364
гло	-11.0365
дю	-11.0366
▁поглядів	-11.0366
▁нагороджений	-11.0368
▁газеті	-11.0368
▁кошт	-11.0368
▁маркс	-11.037
▁гріх	-11.0373
крил	-11.0375
▁йосиф	-11.0376
▁mo	-11.0376
католицької	-11.0379
▁ґе	-11.0381
єць	-11.0383
▁спекотн	-11.039
▁геометрії	-11.0391
▁нацистськ	-11.0391
▁станцію	-11.0391
▁щастя	-11.0391
▁відмовля	-11.0391
▁відставку	-11.0391
▁спершу	-11.0391
▁дитини	-11.0391
▁переїхал	-11.0391
▁граматик	-11.0391
▁опору	-11.0391
▁схили	-11.0391
▁участю	-11.0391
гей	-11.0392
▁сузір	-11.0392
▁шторм	-11.0393
▁вбити	-11.0393
▁хиж	-11.0394
▁тварини	-11.0394
▁невідомо	-11.0395
▁ректор	-11.0396
▁астрономічн	-11.0397
1,1	-11.04
клітинн	-11.0406
▁центрально	-11.041
▁галицького	-11.0411
▁осадов	-11.0413
▁птахи	-11.042
▁досягли	-11.0421
▁сід	-11.0421
▁грі	-11.0424
▁лібералізм	-11.0428
ленко	-11.043
▁методу	-11.0434
▁прийнятий	-11.0436
▁несе	-11.0437
▁ядерної	-11.0438
▁монгольськ	-11.0444
▁мезо	-11.0445
▁представляють	-11.0447
ківці	-11.045
мала	-11.0453
▁наступник	-11.0454
▁оберт	-11.0454
▁паралельн	-11.0455
▁зуб	-11.0457
▁міські	-11.046
▁конституцію	-11.0461
▁юдаїзм	-11.0461
▁баварія	-11.0461
▁драгоманов	-11.0461
▁німецька	-11.0461
▁імовірно	-11.0461
▁роблять	-11.0461
▁таблиці	-11.0461
▁особу	-11.0461
▁частку	-11.0462
▁посольство	-11.0462
▁незалежних	-11.0462
▁доходів	-11.0463
▁проводу	-11.0463
▁вартості	-11.0463
▁поясі	-11.0464
▁зауваж	-11.0466
▁казанськ	-11.0466
▁природнич	-11.0466
▁мартін	-11.0467
фабрик	-11.0467
▁містами	-11.0474
▁здобул	-11.0474
правов	-11.0474
▁таврійський	-11.0475
сибірськ	-11.0476
мовою	-11.0477
▁представляє	-11.0478
▁зовнішній	-11.0478
▁головної	-11.049
▁виступи	-11.0491
▁утворена	-11.0491
▁записан	-11.0494
▁національною	-11.0495
▁монументальн	-11.0496
▁рнк	-11.0497
▁перейшли	-11.0497
разов	-11.0501
lu	-11.0506
лягає	-11.0507
бували	-11.0507
круг	-11.0508
▁потяг	-11.0518
одно	-11.0519
▁вищу	-11.0519
▁свідченням	-11.0521
▁братом	-11.0523
історія	-11.0523
технолог	-11.0523
▁крайньо	-11.0527
▁називає	-11.0528
▁консервативн	-11.0532
▁бангладеш	-11.0532
▁ботанічні	-11.0532
▁галузях	-11.0532
▁еволюції	-11.0532
▁інтелігенції	-11.0532
▁лізинг	-11.0532
▁святилищ	-11.0532
▁збірку	-11.0532
▁хімік	-11.0532
▁організацією	-11.0533
▁румунії	-11.0535
▁атол	-11.0536
▁петрович	-11.0536
▁рабів	-11.0538
▁січень	-11.0539
▁фінансових	-11.0542
▁принесл	-11.0542
▁ііі	-11.0543
▁фізичної	-11.0543
▁густав	-11.0549
all	-11.0552
умб	-11.0553
▁буття	-11.0553
▁ярославич	-11.0557
▁альпійськ	-11.0559
▁державною	-11.0563
▁зібрання	-11.0564
▁відео	-11.0564
▁відзнак	-11.0565
▁залізничні	-11.0566
▁стане	-11.0566
▁змісту	-11.0568
іана	-11.0569
▁документах	-11.0569
▁організму	-11.0571
▁високою	-11.0577
▁диплом	-11.0577
▁кордони	-11.0577
▁макар	-11.0578
▁1830	-11.0581
▁сатир	-11.0582
▁сьом	-11.0583
▁затока	-11.0589
▁страх	-11.059
▁поділяють	-11.0591
▁виборчі	-11.0592
поділ	-11.0593
▁катастроф	-11.0598
▁мексиканськ	-11.0601
▁популярні	-11.0602
▁концепція	-11.0603
▁нідерландськ	-11.0603
▁розпорядження	-11.0603
▁федеративн	-11.0603
▁функцію	-11.0603
▁бразильськ	-11.0603
▁кімнат	-11.0603
▁функціонування	-11.0603
▁рекорд	-11.0603
▁іллінойс	-11.0603
▁вчитель	-11.0604
▁миколаїв	-11.0605
▁єдина	-11.0606
▁різниця	-11.0608
▁будову	-11.0608
▁акції	-11.061
▁проміжн	-11.061
▁пропонує	-11.0611
▁простору	-11.0614
▁широкого	-11.0617
▁заміж	-11.0619
▁усіє	-11.062
сман	-11.0622
▁дю	-11.0622
ec	-11.0624
▁хрестоносців	-11.0626
▁молока	-11.0628
▁річках	-11.063
▁колумб	-11.0634
▁українськими	-11.0637
пускається	-11.0639
постач	-11.0642
▁поясу	-11.0643
su	-11.0643
▁нагороджен	-11.0647
▁православ	-11.0648
▁озброєн	-11.0648
▁оптичн	-11.0652
о́н	-11.0653
▁інду	-11.0656
▁новому	-11.0656
▁дозвіл	-11.0659
▁проводять	-11.0663
▁пропаганди	-11.0664
▁сатурна	-11.0665
дмитр	-11.0666
▁покращ	-11.0674
▁дієприкметник	-11.0675
▁екосистем	-11.0675
▁засіданні	-11.0675
▁виготовля	-11.0675
▁завойован	-11.0675
▁металургійн	-11.0675
▁людвіг	-11.0675
небудь	-11.0675
▁позиція	-11.0675
сприяв	-11.0675
▁перебуваюч	-11.0675
▁улуси	-11.0676
▁кінотеатр	-11.0676
▁втілення	-11.0676
▁комнін	-11.0676
▁споживач	-11.0676
▁можливе	-11.0677
▁подорожі	-11.0678
▁міфічн	-11.0685
▁названий	-11.0685
▁чинності	-11.0685
▁гетьманськ	-11.0686
▁могутність	-11.0687
▁повторю	-11.0689
▁дума	-11.069
▁кирило	-11.0691
жок	-11.0692
▁суттєво	-11.0695
▁кордонів	-11.0695
▁директорії	-11.0695
сфери	-11.0696
▁росіяни	-11.0696
▁зберігся	-11.0697
учасник	-11.0697
▁федорович	-11.0699
▁художніх	-11.0701
▁розглядають	-11.0702
▁сполуч	-11.0703
▁виклик	-11.0705
▁підхід	-11.0706
▁лок	-11.0706
росли	-11.0709
▁монте	-11.0711
▁режисера	-11.0712
▁спільноти	-11.0712
сподарського	-11.0714
технічної	-11.0714
▁вільгельма	-11.0715
▁литви	-11.0717
спір	-11.0718
76)	-11.0721
▁набір	-11.0722
▁капел	-11.0722
▁лютер	-11.0723
▁твердим	-11.0726
▁глибоко	-11.0732
▁сенсі	-11.0734
▁васал	-11.0736
wi	-11.0736
йорку	-11.0737
▁дана	-11.0741
▁викликало	-11.0746
▁піднят	-11.0746
▁оголошен	-11.0747
▁безкоштовн	-11.0748
▁тринідад	-11.0748
▁спирт	-11.0748
▁аксіом	-11.0748
▁класифікації	-11.0748
▁помічник	-11.0749
▁шкоди	-11.0749
виконком	-11.0749
▁деревлян	-11.075
американського	-11.0751
яне	-11.0751
▁костел	-11.0754
▁післявоєнн	-11.0758
▁пуст	-11.0761
▁селищну	-11.0763
▁гирл	-11.0764
▁виділити	-11.0767
▁темно	-11.0767
▁козаки	-11.0768
▁корони	-11.077
▁підпорядкован	-11.0772
▁одні	-11.0777
інтер	-11.078
▁вища	-11.078
▁коней	-11.0783
▁народилася	-11.0787
▁1883	-11.0787
▁лесі	-11.0787
▁просвіт	-11.0788
ion	-11.0791
▁впадає	-11.0795
▁вирок	-11.0795
▁обсягу	-11.0796
▁алі	-11.0796
▁професором	-11.0802
▁укріплен	-11.0807
▁залишили	-11.0808
▁смуга	-11.0809
▁піску	-11.081
ru	-11.081
крут	-11.081
▁залоз	-11.0811
▁їхнім	-11.0816
▁автомобільний	-11.0816
центрального	-11.0817
▁сприял	-11.0818
▁конфлікту	-11.082
▁алфавіт	-11.0821
▁біблійн	-11.0821
▁ділянок	-11.0821
▁мабуть	-11.0821
▁училища	-11.0821
▁швеція	-11.0821
▁висновку	-11.0821
▁половину	-11.0821
▁стрімк	-11.0821
▁схвален	-11.0821
▁трагічн	-11.0821
єднала	-11.0821
▁геометричн	-11.0821
▁знижується	-11.0822
▁50-	-11.0822
▁стадії	-11.0822
▁доктора	-11.0822
▁ніхто	-11.0823
▁кракові	-11.0825
▁загальноосвітн	-11.0825
▁ансамбль	-11.0825
▁болота	-11.0826
▁мінеральні	-11.0826
▁добровільн	-11.0829
▁зберігаються	-11.0831
▁регулярно	-11.0832
▁значної	-11.0838
▁ночі	-11.084
▁малий	-11.0842
запис	-11.0842
▁турків	-11.0842
▁закордонн	-11.0846
▁відгук	-11.0846
▁загальнодержавн	-11.0848
▁горизонтальн	-11.085
▁давид	-11.0854
▁австралія	-11.086
▁скоропадського	-11.0861
fr	-11.0861
▁колективн	-11.0864
▁словом	-11.0865
▁сталося	-11.0871
▁націоналістичн	-11.0874
▁факультету	-11.0875
ty	-11.0878
▁значного	-11.088
▁дочку	-11.0881
▁всесвітн	-11.0882
▁аргентини	-11.0883
▁візит	-11.0883
age	-11.0884
кіт	-11.0887
філологічн	-11.0888
▁мстислав	-11.0888
▁споруджен	-11.0889
гет	-11.0889
▁обумовлен	-11.0894
▁способу	-11.0894
▁довженка	-11.0894
▁грузія	-11.0894
▁леонтович	-11.0894
▁загальне	-11.0894
▁особі	-11.0894
▁франциск	-11.0894
▁редактором	-11.0895
▁українки	-11.0895
▁книжков	-11.0895
печерськ	-11.0896
▁помсти	-11.0896
▁ліквідацію	-11.0897
▁молодих	-11.0897
▁вихован	-11.0898
ером	-11.0898
▁прохолодн	-11.0898
▁температурою	-11.0898
▁значне	-11.0902
0,6	-11.0904
▁багата	-11.0904
▁херсон	-11.0905
▁хвильов	-11.0907
▁дата	-11.0912
▁знайдені	-11.0913
▁аркад	-11.0914
▁облік	-11.0914
▁орденом	-11.0915
▁грушевський	-11.0915
▁двір	-11.0917
▁винятково	-11.0918
▁літературна	-11.092
чку	-11.093
епі	-11.0933
6,5	-11.0934
▁малої	-11.0934
▁застосов	-11.0936
▁унії	-11.0938
▁голо	-11.0944
▁вечір	-11.0946
41)	-11.0946
▁берн	-11.0949
▁повний	-11.0954
▁філо	-11.0958
▁перейменован	-11.0959
▁кай	-11.0961
▁pro	-11.0963
▁супровод	-11.0965
також	-11.0968
жовтень	-11.0968
▁альбрехт	-11.0968
▁неправильн	-11.0968
▁несподіван	-11.0968
▁позицію	-11.0968
▁роботою	-11.0968
▁випадок	-11.0968
▁марокко	-11.0968
▁батьки	-11.0968
▁публікації	-11.0968
▁орбіти	-11.0968
▁поглина	-11.0968
▁звичайний	-11.0968
▁значущ	-11.0968
▁елементарн	-11.0969
▁почуття	-11.0969
ківського	-11.0971
▁цінностей	-11.0971
▁дощів	-11.0971
▁фашистськ	-11.0974
▁листі	-11.0974
▁свідчення	-11.098
▁білого	-11.0981
рук	-11.0982
▁флоту	-11.0982
▁римські	-11.0983
▁кожній	-11.0985
▁вічно	-11.0985
▁монархія	-11.099
▁океанічн	-11.0992
0%	-11.0994
▁найм	-11.0995
▁горб	-11.1001
▁виявив	-11.1002
ківка	-11.1003
▁загроз	-11.1008
▁усім	-11.101
▁лютеран	-11.101
▁вільної	-11.1012
▁племінн	-11.1013
майор	-11.1014
▁дипломатичн	-11.1018
піт	-11.1018
▁міський	-11.1019
▁щоденник	-11.1022
▁долинах	-11.1022
▁розміру	-11.1022
▁архіпелаг	-11.1028
▁спалах	-11.103
▁розпочала	-11.103
▁чап	-11.1035
▁музеїв	-11.1037
льська	-11.1038
▁генрі	-11.1042
▁рекомендаці	-11.1043
▁фінляндія	-11.1043
▁граматичн	-11.1043
▁присвятив	-11.1043
▁студії	-11.1043
▁іншому	-11.1043
▁бучач	-11.1043
▁теодор	-11.1043
▁климент	-11.1044
▁устрою	-11.1045
▁котра	-11.1045
▁видобутку	-11.1046
tra	-11.1046
▁назад	-11.1046
▁очолюван	-11.1048
▁стефаник	-11.1049
▁геологія	-11.1053
▁впровадження	-11.1055
▁телефон	-11.1056
▁повного	-11.1056
▁70-	-11.1056
▁скіфськ	-11.1057
▁раннього	-11.1058
▁сомалі	-11.1059
▁показав	-11.1062
юваль	-11.1065
рахуванням	-11.1067
▁заселення	-11.1069
▁3000	-11.1069
▁максимальна	-11.107
гумус	-11.107
▁криз	-11.107
▁кораблів	-11.1071
▁парламенті	-11.1074
▁міфів	-11.1074
▁лінійн	-11.1076
▁пасажирськ	-11.1077
▁1886	-11.1077
▁шахи	-11.1078
▁1891	-11.1078
▁спеціальних	-11.1078
▁вагон	-11.108
▁лікарськ	-11.1082
▁проханням	-11.1088
▁угода	-11.109
▁символічн	-11.109
ціонал	-11.109
плід	-11.1091
цвіт	-11.1093
кувати	-11.1101
електро	-11.1102
▁могили	-11.1103
▁джу	-11.1104
▁предметом	-11.1105
▁заснов	-11.1108
▁1876	-11.1108
▁висловив	-11.1109
▁літери	-11.1114
▁міх	-11.1115
▁волю	-11.1117
▁нафто	-11.1117
авангард	-11.1118
▁згоди	-11.1118
шевченківськ	-11.1118
▁катерини	-11.1118
▁легіон	-11.1118
▁чехії	-11.1118
▁ураган	-11.1118
▁нинішньо	-11.1119
▁вказан	-11.1119
▁мешкають	-11.112
▁фермерських	-11.1121
▁сталінськ	-11.1122
▁набула	-11.1123
▁дністер	-11.1123
▁виступають	-11.1125
▁осип	-11.1126
▁набуває	-11.1127
▁нагоди	-11.1128
▁жодного	-11.113
▁веж	-11.1131
94)	-11.1137
▁бунт	-11.114
▁переробки	-11.1146
▁аристократ	-11.1148
▁прийняти	-11.1149
▁майя	-11.1151
▁суми	-11.1154
являти	-11.1159
▁знайде	-11.1161
▁афінах	-11.1162
▁капітан	-11.1163
▁другу	-11.1163
▁поступов	-11.1163
8,5	-11.1164
▁вінницьк	-11.1165
▁польов	-11.1166
угорської	-11.1166
▁заможн	-11.1169
могилянськ	-11.1174
▁курси	-11.1179
▁ставши	-11.1181
▁антоній	-11.1181
бок	-11.1185
▁написані	-11.1188
▁формуванн	-11.1192
▁бахмані	-11.1194
▁координат	-11.1194
▁прийняли	-11.1194
▁сарацини	-11.1194
▁поміщик	-11.1194
▁постачання	-11.1194
▁смілив	-11.1194
▁гоголя	-11.1194
▁тропічний	-11.1195
▁залізниць	-11.1195
▁голуб	-11.1197
▁склало	-11.1199
▁вилучен	-11.12
▁лінію	-11.1201
▁освоєння	-11.1202
▁циклу	-11.1203
▁поеми	-11.1204
▁акти	-11.1205
1920	-11.1207
членів	-11.1207
▁зафіксован	-11.1211
▁підписали	-11.1215
▁гілки	-11.1217
▁ділов	-11.1223
500	-11.1227
▁попередніх	-11.1228
▁будова	-11.1228
▁скоропадськ	-11.1228
▁довжини	-11.1229
▁1888	-11.123
▁головне	-11.1231
▁мил	-11.1239
форд	-11.1239
▁оплат	-11.1246
ницька	-11.1249
▁переведен	-11.1251
▁шахів	-11.1253
▁королів	-11.1253
▁дитячі	-11.1255
▁офіційних	-11.1256
▁вилов	-11.1258
▁сорт	-11.126
спіл	-11.1263
▁провести	-11.1264
жар	-11.1269
▁розмірами	-11.1269
▁окружн	-11.127
▁створювати	-11.127
▁потенційн	-11.127
▁піфагор	-11.127
▁інакше	-11.127
▁гепідів	-11.127
▁гесіод	-11.127
▁армією	-11.127
▁уникнути	-11.127
▁книжки	-11.127
сучасне	-11.1271
▁сприяли	-11.1271
▁вночі	-11.1271
▁нормативн	-11.1272
▁користувалис	-11.1272
▁особливостей	-11.1273
▁...	-11.1273
сумісн	-11.1275
▁проводили	-11.1276
▁реформації	-11.1277
▁втручання	-11.1279
▁річкою	-11.1281
▁роздільн	-11.1282
–17	-11.1282
▁мовлення	-11.1284
▁передгір	-11.1284
2,3	-11.1284
▁земськ	-11.1284
▁екран	-11.1285
▁прямі	-11.1288
▁данила	-11.1293
▁азійськ	-11.1293
тичну	-11.1293
▁князі	-11.1294
▁символів	-11.1298
▁виходять	-11.1298
▁даль	-11.1299
▁творі	-11.1302
▁марксизм	-11.1304
▁черев	-11.1305
▁таку	-11.1305
▁міді	-11.1305
▁дитячої	-11.1312
тримується	-11.1312
енос	-11.1313
ницького	-11.1313
▁вважався	-11.1313
▁виявлен	-11.1324
▁працях	-11.1325
▁кожні	-11.133
▁створюють	-11.1334
▁доведен	-11.1336
луг	-11.1336
▁парламентом	-11.1337
▁англо	-11.1338
▁сербськ	-11.1338
57)	-11.1339
▁обер	-11.1344
компонент	-11.1346
▁microsoft	-11.1347
▁адміністрація	-11.1347
акушерськ	-11.1347
▁сексуальн	-11.1347
▁водоспад	-11.1347
▁педру	-11.1347
▁вимушен	-11.1347
▁прибуток	-11.1347
▁зайняли	-11.1347
▁багатий	-11.1347
▁1932—1933	-11.1347
кобзар	-11.1347
▁зразок	-11.1347
▁здійснювали	-11.1348
▁фантас	-11.1348
▁охоплен	-11.1348
▁сільрад	-11.1353
▁мірі	-11.1354
▁встиг	-11.1355
▁соборі	-11.1356
▁остап	-11.1356
▁сковород	-11.1357
▁сумської	-11.1358
▁зібрав	-11.136
▁фермер	-11.136
пост	-11.1361
карпат	-11.1362
▁петрів	-11.1362
▁селищні	-11.1364
▁пророк	-11.1364
▁монети	-11.1365
▁визначаються	-11.1366
▁спорудження	-11.137
▁представлення	-11.1371
▁широти	-11.1374
▁обласної	-11.1375
tor	-11.1377
▁найкращі	-11.1378
▁тлі	-11.1379
▁місцеве	-11.1379
▁прихильники	-11.138
▁смак	-11.1381
▁більшою	-11.1381
▁істотно	-11.1386
▁фра	-11.1392
▁аеро	-11.1395
xi	-11.1396
▁розповсюджен	-11.14
▁межа	-11.1402
▁побуту	-11.1407
▁відповідні	-11.1407
кович	-11.1413
▁полковника	-11.1415
подібним	-11.1418
▁рівнів	-11.1418
багато	-11.1422
▁британією	-11.1425
▁дитинство	-11.1425
▁енциклопедії	-11.1425
▁кампанії	-11.1425
▁корабля	-11.1425
▁письма	-11.1425
▁сегмент	-11.1425
▁равенна	-11.1425
▁історична	-11.1425
▁загибель	-11.1425
▁літургі	-11.1425
▁номінальн	-11.1425
▁сіверян	-11.1425
▁встановити	-11.1425
▁одеса	-11.1425
▁синонім	-11.1425
▁їжі	-11.1425
▁іграх	-11.1427
▁приймати	-11.1427
нській	-11.1428
▁звідти	-11.1428
▁ведеться	-11.1431
▁названа	-11.1432
▁політолог	-11.1432
▁занепаду	-11.1434
▁продовжувала	-11.1436
2,4	-11.1439
сур	-11.1439
▁склалася	-11.1443
▁транспортних	-11.1447
▁швейцарськ	-11.1449
▁більшістю	-11.1454
▁традиційних	-11.1454
зького	-11.1456
союз	-11.1462
▁короп	-11.1471
▁черкаськ	-11.1473
▁мусон	-11.1476
▁бак	-11.1479
▁переселен	-11.148
▁радник	-11.1484
▁стус	-11.1486
▁східну	-11.1486
▁голосування	-11.1486
▁депутати	-11.1488
▁метрополітену	-11.1489
камер	-11.1491
ованими	-11.1493
само	-11.1494
▁богородиці	-11.1503
▁напередодні	-11.1503
▁німеччиною	-11.1503
▁спричиня	-11.1503
▁фестивалі	-11.1503
▁хорватія	-11.1503
▁тобаго	-11.1503
▁вказують	-11.1503
▁вивезен	-11.1503
▁яйця	-11.1504
▁пляж	-11.1504
▁маршаллов	-11.1504
▁квартал	-11.1504
▁постійним	-11.1504
▁бронзи	-11.1505
▁працюючи	-11.1506
▁місцевість	-11.1506
▁нафта	-11.1506
ґрунт	-11.1507
▁крижан	-11.1507
▁факторів	-11.1508
файл	-11.1509
▁географії	-11.1509
▁збереглася	-11.1509
▁хворих	-11.1511
▁фізіолог	-11.1511
бурзі	-11.1511
▁задоволення	-11.1514
ry	-11.1515
▁літературних	-11.1516
▁зовнішнього	-11.1518
▁переконання	-11.1519
▁провел	-11.1521
▁масло	-11.1521
▁окремий	-11.1526
▁мандрівник	-11.1527
▁сільським	-11.1528
▁державне	-11.153
▁суперечки	-11.153
▁дорога	-11.1534
▁стародавній	-11.1535
▁нейро	-11.1535
▁вага	-11.1537
звільн	-11.1538
▁1878	-11.1541
▁системах	-11.1542
▁дошкільних	-11.1543
▁активним	-11.1545
▁віру	-11.1549
▁регіональних	-11.155
▁користувачів	-11.155
▁нехай	-11.1552
▁планування	-11.1552
виховн	-11.1553
▁літописці	-11.1556
▁напрямки	-11.1559
▁дрібні	-11.1564
▁350	-11.1567
▁господ	-11.1573
▁апарату	-11.1574
▁найман	-11.1574
▁рейн	-11.1575
вугле	-11.1575
ts	-11.1579
▁катеринославськ	-11.1581
▁акваторія	-11.1581
▁володіють	-11.1581
▁опозиційн	-11.1581
▁тиждень	-11.1581
▁фінляндії	-11.1581
▁мазепа	-11.1581
▁магазин	-11.1581
▁втримують	-11.1582
▁ліричн	-11.1582
▁хмельницької	-11.1582
▁критики	-11.1582
▁мвф	-11.1582
▁ростуть	-11.1583
▁тлумачення	-11.1583
▁засновником	-11.1583
▁молодого	-11.1584
сіль	-11.1586
▁комунальн	-11.1586
▁вагом	-11.1588
▁європейська	-11.1588
шлях	-11.1588
▁третя	-11.159
▁мул	-11.1594
єдину	-11.1594
▁переваги	-11.1595
▁пісок	-11.1598
6"	-11.16
▁боях	-11.1601
фей	-11.1608
▁me	-11.161
▁обігу	-11.1618
▁1887	-11.1618
порядков	-11.1619
▁інститутів	-11.162
▁1892	-11.162
▁суп	-11.1622
▁могилі	-11.1623
2,8	-11.1626
▁панівн	-11.1627
▁чека	-11.1628
▁досягти	-11.1629
▁перенесення	-11.1629
татар	-11.1633
▁каналу	-11.1634
▁гонор	-11.1635
▁школ	-11.1635
▁досконал	-11.1636
—200	-11.1637
2,7	-11.1637
▁міфах	-11.1639
падає	-11.164
▁масиви	-11.1642
▁тече	-11.1642
▁антарктичн	-11.1644
▁діяв	-11.1646
▁селищі	-11.1648
бек	-11.165
▁фабрика	-11.1653
▁комеді	-11.1656
▁учасники	-11.1657
▁територіях	-11.1657
▁активного	-11.166
▁диригент	-11.1661
▁опозиції	-11.1661
▁особливу	-11.1661
▁ситуацію	-11.1661
▁соняшник	-11.1661
▁інвестиції	-11.1661
▁суверенн	-11.1661
▁порівняльн	-11.1661
▁більшовики	-11.1661
▁автомат	-11.1666
рахування	-11.1666
▁альтернативн	-11.1666
▁десятків	-11.1667
вільгельм	-11.1669
▁донька	-11.167
▁занепад	-11.1673
ber	-11.1673
▁округів	-11.1674
ителів	-11.1677
▁розряд	-11.1683
▁вела	-11.1685
ютерів	-11.1685
3,3	-11.1686
▁уклав	-11.1686
▁побудований	-11.1686
орієнтован	-11.169
▁католицька	-11.169
▁насичен	-11.1692
▁афіна	-11.1694
▁широке	-11.1696
роман	-11.1698
3,6	-11.17
янці	-11.17
волинського	-11.1704
▁140	-11.1706
▁дір	-11.1707
2,2	-11.1711
аційні	-11.1711
▁долинами	-11.1714
мільйон	-11.1715
▁зниж	-11.1718
▁лікарських	-11.1721
▁глух	-11.1722
▁промисловий	-11.1724
▁наділ	-11.1725
▁страти	-11.1726
▁оточення	-11.1726
один	-11.1729
ступити	-11.173
▁застосовують	-11.1731
▁надто	-11.1734
хрещен	-11.1741
▁засобами	-11.1741
▁недостатньо	-11.1741
▁чжурчженів	-11.1741
▁княгин	-11.1741
▁вживається	-11.1741
▁епізод	-11.1741
▁допомогти	-11.1741
▁популярності	-11.1741
▁мозку	-11.1741
▁протестантизм	-11.1741
▁психічн	-11.1741
▁сприйняття	-11.1742
▁встановили	-11.1742
▁хал	-11.1743
▁місцевий	-11.1743
▁розглядається	-11.1744
шем	-11.1744
▁лаос	-11.1744
▁психолог	-11.1746
▁польським	-11.1746
▁хімічної	-11.1746
▁розбудов	-11.1747
▁юань	-11.1747
▁францією	-11.1747
ский	-11.1748
▁хоров	-11.175
▁марки	-11.1751
▁успіху	-11.1752
▁спалахнул	-11.1755
▁впливають	-11.1756
▁ідеальн	-11.1758
7"	-11.1761
▁переселення	-11.1762
▁платформи	-11.1763
▁бла	-11.1763
▁дно	-11.1764
вантаж	-11.1764
▁прожив	-11.1765
спільн	-11.1766
паперов	-11.1766
ation	-11.1768
▁районної	-11.1769
кладається	-11.1771
▁парламентських	-11.1779
▁божество	-11.1779
▁зроблено	-11.178
▁гіпотеза	-11.1782
▁гостро	-11.1789
▁хрестоносці	-11.1795
▁елементами	-11.1798
▁вершини	-11.1798
0,5	-11.1799
ix	-11.18
▁віднесен	-11.1805
глядач	-11.1805
res	-11.1806
▁герц	-11.1808
▁видом	-11.1809
▁амфі	-11.181
▁заслан	-11.1812
▁лоб	-11.1813
пул	-11.1813
▁вступу	-11.1816
єдналися	-11.1821
▁амплітуд	-11.1821
▁подружжя	-11.1821
▁угкц	-11.1821
▁федерація	-11.1821
▁козацтва	-11.1821
▁утворюючи	-11.1821
▁вчителя	-11.1822
▁засадах	-11.1822
▁старовинн	-11.1822
▁включно	-11.1822
санітарн	-11.1822
сухопутн	-11.1822
▁читати	-11.1823
▁зробила	-11.1823
▁нараховується	-11.1824
▁перетворили	-11.1824
▁пакет	-11.1826
▁європу	-11.1828
▁відзначається	-11.183
▁секретарем	-11.1831
▁римських	-11.1837
кцією	-11.184
fa	-11.1841
▁внутрішньої	-11.1845
▁ніби	-11.1848
▁керівником	-11.1848
▁романович	-11.1849
▁благ	-11.1849
ксен	-11.1859
▁огляд	-11.186
▁навчальний	-11.1861
▁довжину	-11.1867
коль	-11.1867
▁інструменти	-11.1868
▁морським	-11.1868
▁процесор	-11.1868
▁альянсу	-11.187
фун	-11.187
▁розрив	-11.1872
▁науці	-11.1875
корін	-11.1875
▁перекладен	-11.1883
▁видано	-11.1886
▁мирон	-11.1888
▁вірменськ	-11.1892
▁терміном	-11.1895
▁визначил	-11.1896
▁направлен	-11.1897
▁годинник	-11.1898
▁комуністичної	-11.1898
ot	-11.1899
▁розмовля	-11.19
▁акваторії	-11.1903
▁вирішили	-11.1903
▁кількісн	-11.1903
▁тиверців	-11.1903
▁гвінеї	-11.1903
▁арабських	-11.1903
▁сучасним	-11.1903
машинобудівн	-11.1903
▁королеви	-11.1903
▁канаду	-11.1903
▁згадки	-11.1903
▁прикрас	-11.1904
фур	-11.1907
рот	-11.1908
▁залежність	-11.1908
▁майнов	-11.1912
▁громадянства	-11.1913
▁наукову	-11.1914
▁тодішні	-11.1914
▁кронос	-11.1914
▁широтах	-11.192
▁кіровоградської	-11.1921
поверхов	-11.1921
▁активність	-11.1923
▁показники	-11.1926
▁вислови	-11.1928
▁пін	-11.193
▁розпис	-11.193
оже	-11.1935
▁юнацьк	-11.1941
▁листів	-11.1943
▁аллен	-11.1947
▁ранніх	-11.1949
мунд	-11.1958
▁ері	-11.1963
▁назвати	-11.1964
▁церковних	-11.1967
▁лондонськ	-11.1971
▁каб	-11.1971
▁психо	-11.1978
▁фільми	-11.198
▁1700	-11.1983
▁ритуал	-11.1984
cl	-11.1984
▁михайлом	-11.1984
▁нерівн	-11.1984
▁дозволив	-11.1985
▁максиміліан	-11.1985
▁раціональн	-11.1985
▁чигирин	-11.1985
▁делегації	-11.1985
▁окупаційн	-11.1985
▁покликан	-11.1985
▁бурхлив	-11.1985
▁випадки	-11.1985
▁чергою	-11.1985
канцлер	-11.1985
▁поезій	-11.1985
▁будівля	-11.1985
▁реактор	-11.1985
▁технологія	-11.1985
▁зберегти	-11.1985
▁пустеля	-11.1985
▁зумів	-11.1986
відповідальністю	-11.1986
▁сформували	-11.1986
▁музичного	-11.1987
▁актуальн	-11.1987
▁собак	-11.1987
▁набули	-11.1988
▁політехнічн	-11.199
▁предків	-11.1993
▁товст	-11.1993
▁ссавців	-11.1994
▁похорон	-11.1995
▁днк	-11.1995
ембрі	-11.1997
драматичн	-11.1998
▁переслідування	-11.2
китайськ	-11.2
▁художнього	-11.2007
▁битв	-11.2007
ine	-11.2007
▁рослинності	-11.2008
програм	-11.2008
▁лотар	-11.2009
▁колісн	-11.2012
▁видатний	-11.2012
▁доступу	-11.2014
гнав	-11.2017
▁еліт	-11.2018
▁вільних	-11.2019
▁культурний	-11.2027
магається	-11.2028
▁неповн	-11.2031
▁ромул	-11.2034
▁двоє	-11.2034
▁американських	-11.2036
оподібні	-11.2037
1,9	-11.2043
▁змінити	-11.2044
▁зображували	-11.2048
3,4	-11.2051
▁знає	-11.2053
▁активних	-11.2054
▁займав	-11.2055
▁походженням	-11.2056
▁сковорода	-11.2057
▁валентин	-11.2058
▁васил	-11.2058
▁тему	-11.2059
8"	-11.206
▁автомобільних	-11.2061
приват	-11.2062
▁батальйон	-11.2067
▁дядьк	-11.2067
▁квадратн	-11.2067
▁композиції	-11.2067
▁леопольд	-11.2067
▁нквс	-11.2067
▁прогресивн	-11.2067
▁південну	-11.2067
▁підготовку	-11.2067
▁примірників	-11.2067
▁продукцію	-11.2067
▁охороня	-11.2067
▁висипн	-11.2067
▁утримання	-11.2067
▁створила	-11.2068
▁діаграм	-11.2069
оздоровч	-11.2069
▁роздробленості	-11.2069
▁зброю	-11.2069
▁абдул	-11.2069
▁сенс	-11.207
▁музикант	-11.207
▁афро	-11.2073
▁малого	-11.2075
▁калин	-11.2078
▁кріп	-11.2079
▁заколот	-11.208
хвойн	-11.2083
▁вживають	-11.2087
▁повоєнн	-11.2093
▁велосипеди	-11.2094
визвол	-11.2094
▁вигра	-11.2102
▁старшого	-11.2105
понад	-11.2107
альному	-11.211
континентальн	-11.2111
▁протон	-11.2113
ского	-11.2113
▁вироблено	-11.2114
▁махно	-11.2115
▁єрусалимськ	-11.2116
bu	-11.2118
▁нащадк	-11.2121
▁смол	-11.2126
▁1850	-11.213
4,3	-11.2132
▁здійсн	-11.2132
▁активний	-11.2133
▁африканських	-11.2133
▁офіційний	-11.2139
▁дозволило	-11.2139
▁вигод	-11.2141
земля	-11.2141
▁папою	-11.2144
хірург	-11.215
енциклопедія	-11.2151
▁змогли	-11.2151
▁дітьми	-11.2151
▁входило	-11.2151
▁супротивник	-11.2151
▁фельдшерсько	-11.2151
▁уличів	-11.2151
▁буковини	-11.2151
▁виконували	-11.2152
▁перетворюється	-11.2152
▁сформувала	-11.2152
▁науковим	-11.2152
▁користуються	-11.2153
▁зусиль	-11.2153
▁іноземці	-11.2154
mon	-11.2154
▁грецький	-11.2157
кання	-11.2158
▁іспит	-11.2158
дума	-11.216
▁потребує	-11.2164
▁наталі	-11.2164
▁пишн	-11.2166
олександр	-11.2167
▁1,2	-11.2174
▁діяла	-11.2176
▁африка	-11.2178
▁українця	-11.2179
2,1	-11.2181
▁ракетн	-11.2184
▁складали	-11.2185
▁бук	-11.2187
▁часті	-11.2188
▁мирний	-11.2192
▁банки	-11.2192
▁комунізму	-11.2197
селяли	-11.2198
▁племені	-11.22
▁інформаційних	-11.2203
▁приклади	-11.221
▁наявні	-11.2212
▁побудов	-11.2218
gi	-11.2219
епт	-11.2221
ятні	-11.2221
▁дельф	-11.2222
▁казан	-11.2222
▁пройшл	-11.2223
▁сенату	-11.2231
▁3,5	-11.2232
▁посольств	-11.2234
▁норман	-11.2234
▁альморавіди	-11.2235
▁афродіти	-11.2235
▁запоріжжя	-11.2235
▁талановит	-11.2235
▁зазначити	-11.2235
▁устаткування	-11.2235
▁фізична	-11.2235
▁дебют	-11.2235
▁проходження	-11.2235
▁хе	-11.2235
▁припинила	-11.2235
▁речей	-11.2235
▁історією	-11.2235
▁взяла	-11.2235
діагност	-11.2235
▁нерухом	-11.2235
▁скандинавськ	-11.2235
▁засіб	-11.2235
▁нульов	-11.2236
▁мільйони	-11.2236
▁повну	-11.2236
▁могло	-11.2237
▁слугує	-11.2237
▁мусульмани	-11.2238
▁бужан	-11.2239
▁переміщення	-11.2239
83)	-11.2242
▁звичайні	-11.2244
▁потрапил	-11.2244
▁смуги	-11.2245
▁числення	-11.2246
▁працювал	-11.2246
▁нігерії	-11.2247
▁грецькій	-11.2248
air	-11.2248
▁атомів	-11.2249
▁чорний	-11.2249
▁напрямків	-11.2252
знавець	-11.2257
▁перетинає	-11.2262
▁повільно	-11.2263
▁залучення	-11.2267
правлення	-11.2267
зводять	-11.2269
східної	-11.227
цтва	-11.227
▁видобува	-11.2278
▁html	-11.2279
▁шахом	-11.2281
▁географічне	-11.2282
▁клуби	-11.2284
▁невдач	-11.2286
▁подібних	-11.2287
▁буржуазн	-11.2288
▁1795	-11.2288
▁чорноморськ	-11.2288
▁городище	-11.2289
▁міру	-11.2291
▁євреї	-11.2293
▁діяло	-11.2295
ованим	-11.2309
вела	-11.231
подібний	-11.2311
▁операційн	-11.2311
▁банків	-11.2312
студ	-11.2312
tus	-11.2312
▁сільради	-11.2317
ности	-11.2318
▁айдахо	-11.2319
▁бельгії	-11.2319
▁волинян	-11.2319
▁жовтнев	-11.2319
▁кобилянськ	-11.2319
▁реакції	-11.2319
▁резолюці	-11.2319
▁шашкевич	-11.2319
▁гімназію	-11.232
▁стрільців	-11.232
▁плоскогір	-11.232
▁хімічні	-11.232
▁аварії	-11.232
▁дракон	-11.232
нуть	-11.2321
▁стародавньо	-11.2322
▁сесії	-11.2322
▁мандр	-11.2323
▁домашні	-11.2323
▁виділяється	-11.2324
▁страйк	-11.2324
▁шанували	-11.233
▁займалися	-11.2332
▁берд	-11.2332
перше	-11.2336
▁попит	-11.2337
▁приміськ	-11.2339
▁перерва	-11.2343
▁духовної	-11.2344
▁конгресу	-11.2349
▁переміщ	-11.2349
кіп	-11.2351
телем	-11.2351
▁1881	-11.2355
ізацією	-11.2359
▁франків	-11.2359
▁зорян	-11.2362
xvii	-11.2362
7,8	-11.2363
▁переяславськ	-11.2366
▁користувача	-11.2375
▁негативно	-11.2377
національне	-11.2378
▁оцінка	-11.2381
fe	-11.2381
▁луки	-11.2384
▁храми	-11.2385
▁заборонено	-11.2387
ment	-11.239
▁гей	-11.2391
▁змії	-11.2393
▁телефонн	-11.2393
газ	-11.2393
▁предмети	-11.2397
отримало	-11.2397
▁(1923—2020)	-11.2405
▁виробляють	-11.2405
▁дефіцит	-11.2405
▁нескінченн	-11.2405
▁венеційськ	-11.2405
▁розпочина	-11.2405
▁нагадує	-11.2405
▁стороні	-11.2405
▁колективів	-11.2405
▁одеси	-11.2405
▁байкал	-11.2405
▁батьківщину	-11.2407
▁оселився	-11.2407
▁необхідності	-11.2409
▁питн	-11.2417
▁луг	-11.2418
tur	-11.2419
▁характером	-11.2419
▁слон	-11.2419
▁архіпелагу	-11.2422
▁епос	-11.2422
▁поетів	-11.2423
▁липов	-11.2425
▁прийшла	-11.2426
▁секретаря	-11.2426
▁формуються	-11.2427
▁рівнянь	-11.2429
▁війною	-11.2429
матеріал	-11.2438
тригер	-11.2439
вернути	-11.2441
янським	-11.2443
▁вологий	-11.2444
▁цінність	-11.2446
▁партизан	-11.2447
▁данськ	-11.2448
▁корча	-11.2454
mar	-11.2454
▁технікум	-11.2461
▁боїв	-11.2462
▁законодавство	-11.2462
инська	-11.2463
▁тернопільської	-11.2464
▁істориків	-11.2466
▁1859	-11.2468
▁леся	-11.248
▁попередньо	-11.2482
▁анни	-11.2484
▁персонал	-11.2485
▁борт	-11.2485
▁яскраво	-11.2485
▁закономірн	-11.2487
world	-11.2491
▁асамблеї	-11.2491
▁довкілля	-11.2491
▁дозволен	-11.2491
▁дулібів	-11.2491
▁зіткнення	-11.2491
▁придушення	-11.2491
▁респу́бліка	-11.2491
▁сприяють	-11.2491
▁поверхнею	-11.2491
▁репресій	-11.2491
▁гефест	-11.2491
▁позначається	-11.2491
конструктор	-11.2491
▁кушанськ	-11.2492
▁патріотичн	-11.2492
▁обсє	-11.2492
▁1481)	-11.2492
▁підозр	-11.2493
▁іва́н	-11.2493
▁галицький	-11.2493
▁сильний	-11.2493
▁незалежна	-11.2495
▁погодився	-11.2495
▁скелі	-11.2495
ступає	-11.2496
▁схильн	-11.2497
▁обмеженою	-11.2498
▁збору	-11.2503
▁повертається	-11.2503
ханців	-11.2504
▁місцевим	-11.2504
▁магнат	-11.2507
турист	-11.2508
▁пасажирів	-11.2513
▁шукати	-11.2514
▁звернення	-11.2515
▁осад	-11.2515
▁утримує	-11.2518
сир	-11.2518
батьківщин	-11.2518
▁волості	-11.2522
ччина	-11.2524
▁господарської	-11.2526
▁сприятлив	-11.2535
▁сорок	-11.2535
▁майбутні	-11.2536
9"	-11.2537
▁втратили	-11.2541
карб	-11.2543
▁жертви	-11.2543
▁поляки	-11.2545
▁інфраструктури	-11.2545
▁кавалер	-11.2546
▁захисник	-11.2546
чання	-11.2548
район	-11.2549
▁християни	-11.2549
▁фізично	-11.2555
▁магн	-11.2563
▁правителя	-11.2565
▁хуст	-11.2568
▁for	-11.2569
▁членство	-11.2572
▁конфедера	-11.2577
▁оригінал	-11.2577
▁аравійський	-11.2578
▁заболочен	-11.2578
▁знаходився	-11.2578
▁особливе	-11.2578
▁особливий	-11.2578
▁флорентійськ	-11.2578
▁шкідлив	-11.2578
▁миколою	-11.2578
▁довженко	-11.2578
▁церковнослов	-11.2578
▁індіанськ	-11.2578
▁йдуть	-11.2578
▁секунд	-11.2578
▁литві	-11.2578
▁східним	-11.2578
▁договорі	-11.2578
▁делегат	-11.2579
▁клінічн	-11.2579
їхати	-11.2579
▁вессекс	-11.2581
▁територіальних	-11.2581
▁ольги	-11.2581
▁економік	-11.2581
ецької	-11.2582
▁цегельн	-11.2582
▁фольклорист	-11.2582
▁андерс	-11.2583
▁створюється	-11.2584
кривав	-11.2585
▁попереднього	-11.2587
▁фосфор	-11.2589
▁складовою	-11.259
="31	-11.2591
▁залежн	-11.2596
▁загрозу	-11.2596
rus	-11.2596
▁еллін	-11.2596
ag	-11.2597
▁житомирськ	-11.2597
▁триполі	-11.2598
▁гелію	-11.26
▁учня	-11.26
технічного	-11.2605
літера	-11.2605
▁полков	-11.2607
▁викликав	-11.2608
▁наступний	-11.2608
▁давно	-11.2611
▁баварськ	-11.2613
малорос	-11.2613
▁цінності	-11.2614
свіч	-11.2617
▁1882	-11.2618
▁суддів	-11.2621
▁судин	-11.2628
▁звана	-11.2629
ківська	-11.263
▁показує	-11.2632
▁біограф	-11.2636
="37	-11.2644
▁територіальні	-11.2644
велика	-11.2644
▁культурної	-11.2644
поро	-11.2646
▁отримавши	-11.2648
▁інструментів	-11.2649
▁прихильн	-11.2653
▁лас	-11.2654
▁відстою	-11.2663
▁ігоря	-11.2663
▁пустельн	-11.2664
єдино	-11.2666
▁варшаві	-11.2666
▁збирання	-11.2666
▁одіссей	-11.2666
▁призначив	-11.2666
▁інтерфейс	-11.2666
лейтенант	-11.2666
▁молдови	-11.2666
▁повідомив	-11.2666
▁давнину	-11.2666
▁зволоження	-11.2666
▁диктатор	-11.2666
▁загрожу	-11.2666
▁варшавськ	-11.2666
▁кожний	-11.2666
▁кдб	-11.2666
▁холм	-11.2666
▁економічну	-11.2666
▁підтвердження	-11.2666
▁маршал	-11.2667
▁механіки	-11.2667
▁писар	-11.2667
▁фотограф	-11.2667
▁палива	-11.2667
▁спадщина	-11.2668
▁корейськ	-11.2669
▁передумов	-11.2669
▁іспанці	-11.267
▁математичних	-11.2675
▁інфраструктура	-11.2675
▁американської	-11.2675
циклоп	-11.2676
▁званого	-11.2676
́ль	-11.2677
▁дійсності	-11.2682
▁еск	-11.2683
5,7	-11.2683
▁викладання	-11.2683
▁україно	-11.2683
▁авіаційн	-11.2686
▁вояків	-11.269
▁терас	-11.2691
▁аргентин	-11.2691
▁кратер	-11.2692
▁дах	-11.2692
▁металев	-11.2694
комун	-11.2696
▁перебіг	-11.2698
▁1885	-11.2707
▁пунктах	-11.2708
паралел	-11.2709
▁поштовх	-11.2712
▁капіталізму	-11.2716
▁харчової	-11.2716
▁данія	-11.2719
="88	-11.2719
▁католицькі	-11.2722
моги	-11.2728
0,9	-11.2729
▁виготовлен	-11.2729
▁марко	-11.2732
▁служба	-11.2734
▁ісуса	-11.2737
▁стандартн	-11.2737
▁останнє	-11.2738
янин	-11.2741
▁місцевими	-11.2743
▁концентр	-11.2743
ft	-11.2745
▁меті	-11.2745
▁займали	-11.2746
морфологічн	-11.2748
ївська	-11.2748
▁геолог	-11.2752
▁подальшому	-11.2752
▁претендент	-11.2754
▁безробіття	-11.2754
▁координаці	-11.2754
▁привілеї	-11.2754
▁пропозицію	-11.2754
▁тангутів	-11.2754
▁телевізійн	-11.2754
▁місіонер	-11.2754
▁укрупнен	-11.2754
▁підтримав	-11.2754
▁прибутку	-11.2754
▁кпрс	-11.2754
▁невеличк	-11.2754
▁патріархату	-11.2754
▁правляч	-11.2755
▁міщан	-11.2755
▁павлович	-11.2756
▁ефіопії	-11.2757
▁тваринництва	-11.2758
ведений	-11.2759
3,8	-11.2759
▁австр	-11.2759
▁допомогл	-11.2761
▁негайно	-11.2762
▁хорош	-11.2765
▁всеволодович	-11.2766
ішою	-11.277
▁потужності	-11.2772
ліття	-11.2773
▁міжнародному	-11.2773
▁рукав	-11.2774
▁королі	-11.2775
▁вікторія	-11.2776
▁атлант	-11.2776
▁майбутній	-11.2777
▁кук	-11.2782
місто	-11.2783
місячн	-11.2783
▁фарб	-11.2784
▁містяться	-11.2785
▁вклад	-11.2785
▁побудовані	-11.2786
▁бокс	-11.2789
▁голосуванням	-11.2789
▁частки	-11.2789
биває	-11.2793
▁королівської	-11.2795
▁досліди	-11.2799
▁погляду	-11.2802
▁видавнич	-11.2802
="81	-11.2803
="36	-11.2803
▁вигідн	-11.2805
▁ясен	-11.2807
▁мету	-11.2808
▁1774	-11.281
▁індоєвропейськ	-11.2814
▁шляхти	-11.2815
▁використовував	-11.2815
▁дружин	-11.282
ейр	-11.2821
▁лос	-11.2825
▁засуджений	-11.2825
▁коріння	-11.2829
▁відбудов	-11.2839
▁гост	-11.2839
ійцями	-11.284
▁говорять	-11.2844
▁дозволу	-11.2844
▁друзів	-11.2844
▁екватора	-11.2844
▁підприємці	-11.2844
▁найпростіш	-11.2844
▁богинею	-11.2844
▁зазначає	-11.2844
▁зважаючи	-11.2844
цтві	-11.2844
▁албанськ	-11.2844
▁породами	-11.2845
▁відкрита	-11.2846
▁бачив	-11.2847
▁білоцерківськ	-11.2847
—2020	-11.2848
▁вдома	-11.2852
▁кругл	-11.2855
▁байков	-11.2855
▁літературний	-11.2855
▁померлих	-11.2857
давалися	-11.2859
пинився	-11.2862
▁значним	-11.2863
робляти	-11.2864
▁націоналістів	-11.2865
▁мирного	-11.2866
3,5	-11.2868
vo	-11.2869
▁дочок	-11.287
▁загрозою	-11.287
▁вільний	-11.2872
="80	-11.2873
▁110	-11.2874
▁чесн	-11.2875
явлен	-11.2875
="89	-11.2879
▁робили	-11.2879
▁ділянках	-11.288
▁виявився	-11.2881
▁кир	-11.2883
▁показан	-11.2884
▁1868	-11.2884
▁мрія	-11.2884
▁соціолог	-11.2885
▁мурад	-11.2885
▁житомирської	-11.2886
▁розумов	-11.2888
▁позначають	-11.289
добр	-11.2892
цькій	-11.2899
дзе	-11.2905
священ	-11.2908
▁гирла	-11.2914
▁організаторів	-11.2914
▁блакитн	-11.2915
▁дунай	-11.2917
▁співак	-11.2918
▁барон	-11.2918
▁величини	-11.2918
▁лар	-11.2922
знавство	-11.2932
▁альмохади	-11.2934
▁будівництві	-11.2934
▁мальовнич	-11.2934
▁реакція	-11.2934
▁свердловин	-11.2934
▁труднощі	-11.2934
▁щонайменше	-11.2934
▁постраждал	-11.2934
▁стосуються	-11.2934
▁провінція	-11.2934
▁освічен	-11.2934
▁джибуті	-11.2934
▁новоросійськ	-11.2934
▁вододіл	-11.2935
▁англійського	-11.2935
▁нелегальн	-11.2935
▁вологість	-11.2935
▁читав	-11.2936
▁австрійської	-11.2937
▁прикладн	-11.2938
▁потоцьк	-11.2939
▁принципом	-11.2941
давши	-11.2941
▁поселенці	-11.2942
▁мешкали	-11.2942
▁точок	-11.2942
▁виступали	-11.2943
fo	-11.2943
▁приголосн	-11.2944
▁микит	-11.2946
▁майдан	-11.2947
="85	-11.295
▁мартин	-11.2951
ana	-11.2953
▁драми	-11.2954
іліад	-11.2954
="86	-11.2955
▁прямим	-11.2956
▁контексті	-11.2958
▁польська	-11.2959
▁0,8	-11.2962
▁вантажів	-11.2963
найбільш	-11.2966
="87	-11.2966
9,5	-11.2967
▁1864	-11.297
▁оскар	-11.2972
▁єрусалим	-11.2972
▁спален	-11.2977
хрест	-11.2983
▁відділен	-11.2984
▁водосховищ	-11.2985
▁каналів	-11.2985
—14	-11.2988
суздальськ	-11.2988
▁звуков	-11.2992
гіль	-11.2996
▁міністерств	-11.2996
гурт	-11.2999
="82	-11.3004
="83	-11.301
▁докладн	-11.301
▁жила	-11.3011
магістр	-11.3013
▁450	-11.3016
нянський	-11.3016
▁жодної	-11.3016
▁новою	-11.3017
́вський	-11.3019
="39	-11.3023
ke	-11.3023
революціонер	-11.3025
▁антіохійськ	-11.3025
▁вишневецьк	-11.3025
▁візантією	-11.3025
▁католицизм	-11.3025
▁навчається	-11.3025
▁норвегія	-11.3025
▁продовольч	-11.3025
▁єпархії	-11.3025
▁висновок	-11.3025
▁codi	-11.3025
▁походив	-11.3025
▁вогню	-11.3025
▁грузинськ	-11.3025
▁данський	-11.3025
▁поліпшення	-11.3025
адовго	-11.3026
▁персональн	-11.3026
▁фінансів	-11.3026
▁ярлик	-11.3026
▁тодішньо	-11.3027
▁обстріл	-11.303
▁перешкоджа	-11.303
▁стародавньому	-11.3031
▁потужністю	-11.3032
єднується	-11.3033
▁гідрологічні	-11.3033
▁відображає	-11.3035
▁залишилася	-11.3037
▁мура	-11.3037
▁виявлення	-11.3038
▁тканини	-11.3044
▁озим	-11.3045
пролетар	-11.3046
▁досягають	-11.3046
розмов	-11.3047
▁передати	-11.3052
▁будівельні	-11.3055
▁відвідал	-11.3055
▁шрі	-11.3055
="69	-11.3058
▁водень	-11.3059
▁масштабн	-11.3062
▁тричі	-11.3063
▁ознакою	-11.3069
▁майстерні	-11.307
▁площ	-11.3071
▁особами	-11.3071
▁штатах	-11.3081
брат	-11.3083
4,2	-11.3084
просвіти	-11.3096
▁командування	-11.3098
▁умовно	-11.31
▁балтійського	-11.3102
▁григоріанським	-11.3103
▁заступником	-11.3108
▁сак	-11.3108
▁газів	-11.3109
▁колод	-11.311
▁сейм	-11.311
4,6	-11.3111
1944	-11.3113
льність	-11.3113
▁агамемнон	-11.3116
▁вацлав	-11.3116
▁особливим	-11.3116
▁пропозиції	-11.3116
▁радіоактивн	-11.3116
▁лівобережжя	-11.3116
▁інформацією	-11.3116
▁політичне	-11.3116
▁приваблю	-11.3116
▁уйгурськ	-11.3116
▁французьких	-11.3116
▁постійних	-11.3116
пошкоджен	-11.3117
▁брюс	-11.3117
▁нтш	-11.3118
▁клітор	-11.3118
▁обговорення	-11.3119
▁розглядає	-11.312
▁правитель	-11.3121
=94	-11.3124
=91	-11.3124
ect	-11.3126
▁араби	-11.3126
▁перейменовано	-11.3128
▁1200	-11.3129
▁східнослов	-11.313
▁хоче	-11.3134
der	-11.3136
▁тривав	-11.3137
▁знахідки	-11.314
▁островом	-11.3141
▁серця	-11.3144
▁океанів	-11.3144
▁фундамент	-11.3146
▁позначен	-11.3146
▁спадков	-11.3147
▁законодавством	-11.3147
▁лап	-11.3148
▁закликав	-11.3149
лаврент	-11.3149
▁московської	-11.3155
▁наполяга	-11.3156
▁конфліктів	-11.316
▁адамс	-11.316
▁рекреаційн	-11.3161
▁сприятливі	-11.3162
▁викуп	-11.3163
▁макро	-11.3164
▁клен	-11.3167
▁прагне	-11.3175
▁дубов	-11.3176
▁крила	-11.3183
господар	-11.3185
відповідальності	-11.3186
будівн	-11.3188
▁здійснено	-11.3188
mp	-11.3189
офіл	-11.319
▁аргос	-11.3193
два	-11.3194
▁корені	-11.32
▁змістом	-11.32
▁етнос	-11.3202
▁літаків	-11.3205
▁носить	-11.3205
▁благочестив	-11.3209
▁омеядськ	-11.3209
▁дисертацію	-11.3209
▁коаліції	-11.3209
▁лабораторії	-11.3209
▁меровінгів	-11.3209
▁муніципалітет	-11.3209
▁спадкоємця	-11.3209
▁теоретик	-11.3209
▁дизайн	-11.3209
▁землеробство	-11.3209
▁представницьк	-11.3209
▁едвард	-11.3209
▁моделювання	-11.3209
▁податку	-11.3209
▁скасовано	-11.3209
▁зразком	-11.3209
▁підтримувати	-11.3209
▁щир	-11.3209
▁маєтку	-11.3209
▁вітовт	-11.3209
▁відновити	-11.321
▁ющенко	-11.3211
▁майбутнє	-11.3212
▁прут	-11.3213
▁пустель	-11.3213
▁сумарн	-11.3215
▁садово	-11.3217
▁аргентині	-11.3219
=88	-11.3219
▁фахівців	-11.3222
▁перейменування	-11.3222
знавства	-11.3223
▁повернулися	-11.3225
4,7	-11.323
▁слуг	-11.323
ina	-11.3231
▁//	-11.3232
▁сейму	-11.3232
▁науковців	-11.3233
▁таборів	-11.3235
використовувався	-11.3239
▁залізо	-11.324
▁максимович	-11.324
▁морська	-11.3241
зол	-11.3242
▁туди	-11.3243
est	-11.3245
▁літом	-11.3246
▁тероризм	-11.3246
парков	-11.3247
▁географ	-11.3248
▁черкаської	-11.3248
східні	-11.325
▁протекторатом	-11.3253
="48	-11.3256
▁гірський	-11.3257
="47	-11.3261
▁імператорськ	-11.3268
="49	-11.3269
книг	-11.3273
▁дорослих	-11.3277
▁зафіксовано	-11.3281
▁давньогрецької	-11.3283
="43	-11.3283
▁рідини	-11.3283
▁походять	-11.3285
▁групами	-11.3289
="55	-11.3289
3,7	-11.3291
левицький	-11.3296
підтверджен	-11.3302
▁кропив	-11.3302
▁найдовш	-11.3302
▁нейтральн	-11.3302
▁остготів	-11.3302
▁переговорів	-11.3302
▁ррфср	-11.3302
▁спостерігати	-11.3302
▁тенденції	-11.3302
▁училищі	-11.3302
▁європейцями	-11.3302
▁розгалужен	-11.3302
▁співтовариств	-11.3302
▁французьку	-11.3302
▁вийшло	-11.3302
▁проголосили	-11.3302
▁підтримали	-11.3302
▁насадження	-11.3302
▁нестійк	-11.3303
▁острозьк	-11.3303
▁алчевськ	-11.3303
▁більшовиками	-11.3303
▁стамбул	-11.3303
▁очищення	-11.3303
▁легендарн	-11.3303
▁друком	-11.3304
▁егі	-11.3304
▁природі	-11.3304
ko	-11.3304
сприяло	-11.3304
▁потоків	-11.3304
▁дієслова	-11.3304
▁мономах	-11.3304
▁стадія	-11.3306
▁змінювати	-11.3309
▁специфіка	-11.3309
=81	-11.331
="34	-11.3311
▁шосе	-11.3311
▁сефевіди	-11.3311
="84	-11.3311
=89	-11.3313
▁ідеології	-11.3314
▁танцю	-11.3315
▁акцій	-11.3316
▁перетинають	-11.3316
="67	-11.3318
▁ритм	-11.332
6,7	-11.3326
▁горами	-11.3328
▁сезонні	-11.333
низу	-11.333
▁переносн	-11.3333
оподібних	-11.3334
подільської	-11.3337
▁вебер	-11.3339
математичн	-11.3339
▁допит	-11.3341
▁георгій	-11.3341
▁расов	-11.3341
▁проводить	-11.3342
="46	-11.3343
▁втратила	-11.3349
▁1871	-11.3349
місце	-11.3353
▁вело	-11.336
▁дипломатичних	-11.3364
▁хрестов	-11.3364
gen	-11.3366
▁розбив	-11.3367
▁музичної	-11.3368
—11	-11.3371
▁теплі	-11.3371
▁1865	-11.3373
▁володарю	-11.3374
▁обробля	-11.338
▁взаємоз	-11.338
="51	-11.3382
▁вигнан	-11.3383
транс	-11.3384
▁кел	-11.3391
франківської	-11.3394
▁магдебурзьк	-11.3397
▁дитинства	-11.3397
▁корупції	-11.3397
▁торгівлю	-11.3397
▁тридцяти	-11.3397
▁естонії	-11.3397
▁шептицьк	-11.3397
▁втрачає	-11.3397
▁корпоративн	-11.3397
▁дотримання	-11.3397
▁третини	-11.3397
▁унітарн	-11.3397
▁кухня	-11.3397
▁єдине	-11.3398
льними	-11.3398
▁дійшли	-11.3399
рідна	-11.3399
▁банкнот	-11.3399
▁музиці	-11.3399
▁захворювань	-11.3399
▁молоко	-11.3401
▁сенат	-11.3402
українського	-11.3403
▁володимирович	-11.3404
▁незвичайн	-11.3404
▁міське	-11.3404
▁володів	-11.3404
▁козацької	-11.3406
▁заповнен	-11.3406
=90	-11.3406
▁сферах	-11.3406
=105	-11.3406
=85	-11.3406
=87	-11.3407
▁плавання	-11.3407
=72	-11.3408
▁олексія	-11.3409
▁астрономії	-11.341
▁процвіта	-11.341
ula	-11.3412
▁підпілля	-11.3413
="66	-11.3416
овик	-11.3417
▁бухт	-11.3418
▁застосовувати	-11.3418
="64	-11.342
▁чарівн	-11.3422
="44	-11.3431
▁холодні	-11.3433
▁здійснили	-11.3436
угорщини	-11.3437
▁звинувачен	-11.344
▁переяслав	-11.3441
▁дешев	-11.3442
▁визначив	-11.3446
▁гуд	-11.3452
▁170	-11.3452
ючого	-11.3452
▁переказами	-11.3453
▁подання	-11.3454
▁відтворення	-11.3456
▁декад	-11.3457
="52	-11.3458
▁культурою	-11.346
▁легендою	-11.3461
▁князівств	-11.3462
▁есе	-11.3468
name	-11.3468
="63	-11.3471
▁вирішено	-11.3475
▁дошкільн	-11.348
▁язич	-11.3483
охоронн	-11.3484
▁чисельн	-11.3486
подібна	-11.3489
тес	-11.3489
▁поради	-11.3489
близнюк	-11.349
▁візантія	-11.3492
▁деревообробн	-11.3492
▁експедиція	-11.3492
▁експлуатацію	-11.3492
▁повсякденн	-11.3492
▁помилков	-11.3492
▁тенденція	-11.3492
▁асоціація	-11.3492
▁михаїл	-11.3492
▁злиття	-11.3492
▁відклади	-11.3492
бібліограф	-11.3492
▁звичайна	-11.3492
▁терористичн	-11.3493
чутлив	-11.3493
▁сосна	-11.3493
▁гаври	-11.3493
▁змінюються	-11.3494
▁тонга	-11.3495
▁петербурга	-11.3496
▁молодіжн	-11.3496
▁відправлен	-11.3496
▁воєводства	-11.3496
▁викликати	-11.3497
▁програміст	-11.35
▁вчителів	-11.35
=95	-11.35
=13	-11.35
▁східне	-11.3501
▁підкорення	-11.3502
=86	-11.3502
▁храмів	-11.3502
▁окис	-11.3503
=80	-11.3504
▁характерним	-11.3505
▁оновлен	-11.3505
▁тягне	-11.3508
▁окраїн	-11.351
▁овочів	-11.3516
▁здійснити	-11.3517
остях	-11.3518
▁череп	-11.3518
▁1547	-11.352
крап	-11.3529
стратег	-11.3529
ant	-11.3537
▁([[	-11.3539
яття	-11.3541
▁ухвалив	-11.3543
▁жук	-11.3544
▁англійці	-11.3549
▁мільярд	-11.355
▁службі	-11.355
надто	-11.3551
літнього	-11.3554
2,9	-11.3558
бактер	-11.3558
контр	-11.3559
▁літератор	-11.3562
точне	-11.3563
▁будувати	-11.3573
▁протистоя	-11.3575
▁іранськ	-11.3575
▁успіхів	-11.358
частин	-11.3585
▁кишк	-11.3586
▁водопостачання	-11.3588
▁досліджував	-11.3588
▁конструкції	-11.3588
▁стверджують	-11.3588
▁угіддя	-11.3588
▁єлизавета	-11.3588
▁баскетбол	-11.3588
▁мехмед	-11.3588
▁наближа	-11.3588
▁вважалося	-11.3588
▁соціальний	-11.3588
▁весілля	-11.3588
▁книжок	-11.3588
▁реалістичн	-11.3588
▁суцільн	-11.3588
▁хрещення	-11.3588
▁понять	-11.3589
▁ідентичн	-11.3589
патріот	-11.359
▁святкування	-11.359
▁потоки	-11.359
▁грецька	-11.3591
христ	-11.3591
▁страшн	-11.3592
▁фольклорн	-11.3596
▁корея	-11.3596
=82	-11.3597
▁рідше	-11.3599
▁спрощен	-11.3599
▁верхня	-11.3602
▁правителями	-11.3602
▁можливим	-11.3604
▁комедії	-11.3605
▁античності	-11.3608
▁технічні	-11.361
▁розвідан	-11.3611
3,2	-11.3615
▁шиї	-11.3615
езії	-11.362
▁підписано	-11.3622
єретик	-11.3623
man	-11.3626
="41	-11.3627
▁сур	-11.3628
les	-11.3628
▁піски	-11.363
▁електри	-11.3633
▁1839	-11.3634
="42	-11.3639
="53	-11.3646
▁лінгвіст	-11.365
ская	-11.3658
▁перетворив	-11.3659
явилося	-11.3663
▁залишила	-11.3673
являли	-11.3675
="32	-11.3675
▁зберегли	-11.3678
▁консерватор	-11.368
▁завойовник	-11.3685
▁міннесот	-11.3685
▁народжуваність	-11.3685
▁спричинен	-11.3685
▁гектарів	-11.3685
▁нестабільн	-11.3685
▁окупація	-11.3685
▁пшениця	-11.3685
▁пшениці	-11.3685
▁гравітаційн	-11.3685
▁пояснити	-11.3685
▁агресії	-11.3685
▁визнала	-11.3685
▁визнати	-11.3685
▁поема	-11.3685
▁штурм	-11.3686
▁витягнут	-11.3686
твір	-11.3687
▁прискорен	-11.3687
▁господарством	-11.3687
▁лисенка	-11.3688
▁нарком	-11.3689
=83	-11.3691
4,9	-11.3692
=69	-11.3692
▁йдеться	-11.3693
▁найп	-11.3693
=93	-11.3694
▁метео	-11.3694
▁культурним	-11.3696
дір	-11.3699
▁винахід	-11.37
▁скорочен	-11.3706
▁говорити	-11.3706
▁добрив	-11.3707
▁ділить	-11.3707
▁продовжують	-11.3709
ворон	-11.3715
="105	-11.3717
▁наклад	-11.3723
тваринний	-11.3725
переважно	-11.373
▁антрополог	-11.3733
донецьк	-11.3735
▁розлом	-11.3746
▁включено	-11.3748
▁запасів	-11.3752
▁валер	-11.3763
▁хвиляст	-11.3766
▁потрапили	-11.3772
язує	-11.3773
ґан	-11.3783
200	-11.3783
▁автономію	-11.3783
▁експлуатації	-11.3783
▁зеландія	-11.3783
▁кінорежисер	-11.3783
▁поліклінік	-11.3783
▁релігією	-11.3783
▁найсильніш	-11.3783
▁репресії	-11.3783
▁чорнобильськ	-11.3783
▁узгоджен	-11.3783
▁поезія	-11.3783
▁акцент	-11.3783
▁невизначен	-11.3783
▁постійний	-11.3783
▁рішуч	-11.3783
▁вивчають	-11.3783
▁голландськ	-11.3784
▁єдність	-11.3784
землевласник	-11.3784
▁підтримують	-11.3785
▁співпрацював	-11.3785
▁означало	-11.3785
=16	-11.3786
▁дошку	-11.3787
▁магнус	-11.3789
=50	-11.379
▁межував	-11.379
▁повітрі	-11.3791
▁воюють	-11.3792
▁поділена	-11.3792
=67	-11.3794
▁просторов	-11.3795
▁орлик	-11.3797
розробник	-11.3798
▁байт	-11.38
▁запрошення	-11.3801
возили	-11.3802
6,8	-11.3802
єнко	-11.3803
▁індіанців	-11.3803
▁складчаст	-11.3804
ok	-11.3804
▁лідером	-11.3806
▁каменю	-11.3811
▁присвоєно	-11.3816
▁оголошення	-11.3817
▁синод	-11.3819
▁андрійович	-11.3823
тоді	-11.3826
▁послання	-11.3828
▁виразн	-11.3833
5,6	-11.3836
нтон	-11.3836
8%	-11.3839
о́р	-11.384
▁змаганнях	-11.3842
▁мешка	-11.3848
праслов	-11.3848
західного	-11.3853
▁посол	-11.3857
▁боб	-11.3871
▁паров	-11.3872
▁методами	-11.3879
40)	-11.3881
▁суто	-11.3882
▁академію	-11.3882
▁гвельфів	-11.3882
▁демографічн	-11.3882
▁завдовжки	-11.3882
▁зоогеографічн	-11.3882
▁кіностудії	-11.3882
▁медицина	-11.3882
▁обчислення	-11.3882
▁регламент	-11.3882
▁фернанд	-11.3882
▁євангельськ	-11.3882
▁відзначити	-11.3882
▁міграції	-11.3882
▁чверті	-11.3882
▁камбоджі	-11.3882
▁правителем	-11.3882
▁аналітичн	-11.3882
▁сибіру	-11.3882
▁наслідків	-11.3882
▁олімпіад	-11.3883
▁додавання	-11.3883
▁лігою	-11.3884
▁вандали	-11.3884
▁мудрий	-11.3884
раховують	-11.3884
запорож	-11.3885
▁одержання	-11.3886
амазон	-11.3886
=45	-11.3887
▁емір	-11.3887
=40	-11.3888
=84	-11.3889
▁хуторі	-11.3889
▁заражен	-11.3889
=92	-11.3891
подільського	-11.3892
▁садиб	-11.3893
=104	-11.3893
▁допоміжн	-11.3899
▁жерці	-11.3903
кладати	-11.3904
col	-11.3908
ris	-11.3909
добувають	-11.3913
ологією	-11.3919
рахман	-11.392
▁брун	-11.3924
▁відкритим	-11.3925
енергетичн	-11.3925
▁скеляст	-11.3926
▁домови	-11.3926
▁нащадків	-11.3928
▁1877	-11.3932
▁бронх	-11.3933
▁1875	-11.3934
давалося	-11.3942
життя	-11.3944
▁викликають	-11.3944
▁колії	-11.3946
▁збільшен	-11.3949
▁ранг	-11.395
планет	-11.395
▁1796	-11.3951
▁кластер	-11.3954
▁складання	-11.3958
роф	-11.396
▁конфесій	-11.396
▁крон	-11.3962
▁чинників	-11.3965
▁фінськ	-11.3967
▁учасником	-11.3968
українських	-11.3969
обмін	-11.3971
▁уродженц	-11.3974
▁конрад	-11.3976
праворуч	-11.3977
▁прибічник	-11.3982
▁артеміди	-11.3982
▁арістотель	-11.3982
▁асамблея	-11.3982
▁вашингтон	-11.3982
▁землеробства	-11.3982
▁кукурудза	-11.3982
▁реконструкції	-11.3982
▁сифіліс	-11.3982
▁імператриц	-11.3982
▁спроможн	-11.3982
▁литвою	-11.3982
▁достовірн	-11.3982
▁коментар	-11.3982
▁маргари	-11.3983
серпень	-11.3983
▁опинилис	-11.3983
▁мудрого	-11.3984
▁райцентр	-11.3984
▁відомостей	-11.3984
▁ісаак	-11.3984
▁несуть	-11.3984
▁потоку	-11.3984
=48	-11.3985
=47	-11.3985
=49	-11.3985
=55	-11.3985
=43	-11.3986
▁основне	-11.3988
=66	-11.3989
▁психології	-11.3989
▁біології	-11.399
▁митців	-11.3991
2000	-11.3991
цикл	-11.3991
=64	-11.3994
=63	-11.3995
▁ближче	-11.3995
▁літературну	-11.3997
up	-11.3998
▁олена	-11.3999
▁союзників	-11.4
▁чорт	-11.4004
▁державності	-11.4008
подібно	-11.4014
агро	-11.4017
▁війн	-11.4019
▁башт	-11.4019
▁городищ	-11.4021
▁рідин	-11.4023
▁богословськ	-11.4025
▁канонічн	-11.4031
▁управи	-11.4036
▁сильним	-11.4036
єднували	-11.4037
▁відповідним	-11.4043
▁магістрат	-11.4057
▁науковці	-11.4057
▁археологічних	-11.4059
▁вбито	-11.4062
▁орбіта	-11.4065
▁теперішн	-11.4067
кіл	-11.4073
4,1	-11.4079
▁внутрішня	-11.4083
▁гібелінів	-11.4083
▁запобігання	-11.4083
▁німецьку	-11.4083
▁опідзолені	-11.4083
▁останньої	-11.4083
▁плазунів	-11.4083
▁ibm	-11.4083
▁чорношкір	-11.4083
▁споживч	-11.4083
▁капіталістичн	-11.4083
▁дніпрі	-11.4083
▁ботанік	-11.4083
▁повноцінн	-11.4083
▁звичайних	-11.4084
▁агропромислов	-11.4084
▁срр	-11.4084
▁компонентів	-11.4084
▁оцінюва	-11.4085
▁епітет	-11.4086
▁письмо	-11.4086
=46	-11.4086
=51	-11.4086
▁сукупності	-11.4087
=54	-11.4087
▁простих	-11.4088
=15	-11.4088
▁бачити	-11.4089
▁замінен	-11.4091
▁нестач	-11.4091
▁забарвлення	-11.4093
▁радіації	-11.4094
▁відкрила	-11.4095
▁відвідуван	-11.4099
▁0,7	-11.4101
хронік	-11.4102
▁ізраїль	-11.4102
▁найважливішим	-11.4103
▁справді	-11.4104
▁росту	-11.4105
5,8	-11.4108
▁хвилю	-11.4109
▁зображень	-11.411
▁росте	-11.4111
▁дуг	-11.4112
▁приймають	-11.4116
▁зруйновано	-11.4119
▁буков	-11.412
▁зимою	-11.4122
▁перист	-11.4122
▁ознаками	-11.4125
▁ферм	-11.4129
▁солом	-11.4131
▁житла	-11.4131
▁вважалися	-11.4132
▁мілин	-11.4132
▁попович	-11.4134
являє	-11.414
▁появою	-11.4144
▁послан	-11.4144
▁сосни	-11.4145
полярн	-11.4147
▁оголошено	-11.415
▁гілка	-11.4151
пілля	-11.4153
▁страховик	-11.4153
pg	-11.4154
▁поході	-11.4161
▁михайл	-11.4163
▁індивід	-11.4165
4,8	-11.4166
xx	-11.417
▁кваліфік	-11.417
кліматичн	-11.417
електрон	-11.4177
▁вологі	-11.4178
емігрант	-11.4185
▁депозит	-11.4185
▁голконда	-11.4185
▁муссоліні	-11.4185
▁нейтрон	-11.4185
▁октавіан	-11.4185
▁подекуди	-11.4185
▁працездатн	-11.4185
▁способи	-11.4185
▁управлінні	-11.4185
▁єгиптян	-11.4185
▁випробування	-11.4185
▁зазначив	-11.4185
▁зарубіжн	-11.4185
▁засобом	-11.4185
▁збереглося	-11.4185
ренесанс	-11.4185
▁палеоліту	-11.4185
▁португальці	-11.4185
▁призначають	-11.4185
▁підтримкою	-11.4185
▁іспанського	-11.4185
▁кувейт	-11.4185
▁аравії	-11.4185
▁розгорта	-11.4185
▁оптиміз	-11.4185
▁усунення	-11.4186
▁ізотоп	-11.4186
▁ріллі	-11.4186
▁недолік	-11.4186
▁опинилас	-11.4186
▁зразки	-11.4186
▁мітинг	-11.4187
▁евріпід	-11.4187
індійськ	-11.4188
▁підняття	-11.4188
=44	-11.4188
=52	-11.4188
=37	-11.4188
▁кільця	-11.4189
▁шотландії	-11.4189
▁проживали	-11.4189
▁порівняння	-11.4189
▁реагу	-11.419
турецьк	-11.419
сягати	-11.4192
▁усьому	-11.4193
піонер	-11.4194
▁поширив	-11.4195
▁тесей	-11.4196
=103	-11.4197
0,0	-11.4198
▁убитий	-11.4198
▁застосовуються	-11.4203
▁простяг	-11.4207
▁геліос	-11.4213
6,4	-11.4214
текст	-11.4214
▁філософія	-11.4215
▁незалежним	-11.4218
▁аудитор	-11.4221
росія	-11.4225
суздальське	-11.4227
="104	-11.4228
▁виставка	-11.4235
▁учасниками	-11.4236
▁вільні	-11.4237
справжн	-11.424
5,4	-11.424
карпатськ	-11.425
▁їзди	-11.4252
dr	-11.4254
▁стовп	-11.4254
▁наукма	-11.4254
du	-11.4258
▁порушен	-11.4259
гнали	-11.4263
▁захисн	-11.4266
▁річками	-11.4267
▁кілометр	-11.4275
▁повернув	-11.4276
трат	-11.4283
ard	-11.4286
▁апеляційн	-11.4288
▁враховуючи	-11.4288
▁європейців	-11.4288
▁оголосила	-11.4288
▁руйнівн	-11.4288
▁енергія	-11.4288
▁неофіційн	-11.4288
▁князю	-11.4289
▁висунув	-11.4289
▁вітрами	-11.4289
▁повернувшись	-11.4289
▁дихання	-11.4289
▁стояв	-11.4289
▁чикаго	-11.4289
▁литовсько	-11.4289
▁фауни	-11.4289
▁абетка	-11.4289
▁поголів	-11.4289
▁розпізна	-11.429
▁пропонують	-11.429
▁французьким	-11.429
▁добробут	-11.4291
=53	-11.4291
=41	-11.4291
▁угорського	-11.4291
=42	-11.4291
▁творами	-11.4291
▁супроводжує	-11.4293
▁свиней	-11.4293
ской	-11.4294
▁липень	-11.4296
=65	-11.4296
▁лікарень	-11.4297
=96	-11.4298
▁виявилося	-11.4298
▁кантон	-11.4302
▁поклав	-11.4302
▁установч	-11.4304
▁речення	-11.4304
▁укріплення	-11.4308
▁можливі	-11.4309
▁виграв	-11.431
▁саміт	-11.4315
тивних	-11.4315
5,2	-11.4319
▁ліберал	-11.432
9,6	-11.4323
▁рідного	-11.4324
▁118	-11.4328
ki	-11.433
захис	-11.4336
▁1866	-11.4336
9—19	-11.4336
▁папір	-11.4341
єднуються	-11.4341
▁бомб	-11.4343
▁пересічн	-11.4344
парламент	-11.4345
▁обійма	-11.4352
сфера	-11.4353
творч	-11.4358
▁міжнародній	-11.4361
повість	-11.4363
▁успіхом	-11.437
str	-11.4371
tro	-11.4378
▁табору	-11.4382
▁мешканця	-11.4382
▁фінал	-11.4389
▁посмертно	-11.439
▁відповідал	-11.4391
▁будапешт	-11.4393
▁віросповідання	-11.4393
▁мадагаскар	-11.4393
▁помилки	-11.4393
▁сицилії	-11.4393
▁словаччини	-11.4393
▁ізраїлю	-11.4393
▁аскольд	-11.4393
▁взаємин	-11.4393
▁мексики	-11.4393
▁прісноводн	-11.4393
▁кисень	-11.4393
▁телеканал	-11.4393
▁майстрів	-11.4393
▁замовлення	-11.4393
▁волосся	-11.4393
▁литва	-11.4393
▁податки	-11.4393
▁пішли	-11.4393
▁побував	-11.4393
▁приносили	-11.4394
▁переїзд	-11.4394
▁обіця	-11.4395
=36	-11.4396
▁московією	-11.4397
лозі	-11.4398
▁заліза	-11.4399
▁щойно	-11.4399
▁хаям	-11.4401
=14	-11.4401
▁викопн	-11.4401
▁асоцію	-11.4401
▁каспій	-11.4402
=71	-11.4403
▁залишати	-11.4403
▁налічувалося	-11.4404
кавказьк	-11.4405
▁посадов	-11.4406
ly	-11.4407
▁ритор	-11.4408
▁потребують	-11.4408
▁василій	-11.4413
антроп	-11.4416
▁декан	-11.4425
▁строг	-11.443
джин	-11.4432
▁мільярдів	-11.4434
▁1846	-11.4439
▁наближен	-11.4439
▁міжнародне	-11.4448
перетворився	-11.445
айма	-11.4454
▁володаря	-11.4455
▁західне	-11.4463
art	-11.4464
▁кальвін	-11.4466
land	-11.4466
▁королю	-11.4467
▁релігій	-11.4469
▁овочі	-11.4472
правил	-11.4485
колос	-11.4487
▁скликан	-11.4488
▁широкому	-11.449
▁керує	-11.4496
▁ознайом	-11.4498
▁амбулаторій	-11.4498
▁влаштував	-11.4498
▁залежать	-11.4498
▁обслуговують	-11.4498
спостерігач	-11.4498
▁гімназія	-11.4498
▁найменування	-11.4498
▁уповноважен	-11.4498
▁завершилося	-11.4498
▁сучасну	-11.4498
▁дорошенко	-11.4498
▁орнамент	-11.4498
▁сестрою	-11.4498
▁подарував	-11.4498
▁стюарт	-11.4498
▁дунаю	-11.4498
▁кожне	-11.4498
▁утворився	-11.4498
▁безумовн	-11.4498
▁рухається	-11.4498
▁національностей	-11.4499
▁здавна	-11.45
▁довгі	-11.45
обудування	-11.4502
▁бірмі	-11.4504
доцент	-11.4506
▁недалеко	-11.4506
=114	-11.4506
▁висотах	-11.4507
▁спробував	-11.4507
▁званої	-11.4508
▁виглядає	-11.4508
▁концентрації	-11.451
=108	-11.4511
▁проводилися	-11.4515
▁вольф	-11.4517
айрес	-11.4521
2%	-11.4523
▁пристроїв	-11.4524
▁мандат	-11.4526
ступив	-11.4526
▁приходить	-11.4531
▁концентрація	-11.4534
▁екстр	-11.4543
живає	-11.4544
▁зірки	-11.4544
▁глибиною	-11.4545
▁затвердження	-11.4547
стям	-11.4552
▁миколаївської	-11.4556
очок	-11.4562
▁суперник	-11.4569
юнацьк	-11.457
▁бухгалтерськ	-11.4576
▁давав	-11.458
▁центральним	-11.4581
тинг	-11.4581
▁афінян	-11.4584
штат	-11.4585
▁чехо	-11.4586
комбін	-11.459
▁гармат	-11.4591
▁зберігають	-11.4596
терорист	-11.4598
▁артеміда	-11.4604
▁запровадив	-11.4604
▁карбованців	-11.4604
▁киргизстан	-11.4604
▁македонії	-11.4604
▁найвизначніш	-11.4604
▁необхідних	-11.4604
▁одіссея	-11.4604
▁палестині	-11.4604
▁політехнік	-11.4604
▁поширюється	-11.4604
▁чернівцях	-11.4604
▁епідемічн	-11.4604
▁претенду	-11.4604
▁положень	-11.4604
▁ресторан	-11.4604
▁затвердив	-11.4604
▁сутність	-11.4604
▁возняк	-11.4604
▁хорасан	-11.4604
▁йордан	-11.4604
▁служити	-11.4604
▁ділянці	-11.4605
▁благородн	-11.4605
▁енергетика	-11.4606
▁ретельн	-11.4606
▁вельми	-11.4607
комбінат	-11.4607
▁роздрібн	-11.4609
▁залишилося	-11.461
▁христов	-11.461
▁жарк	-11.4612
▁датован	-11.4615
▁трактування	-11.4619
▁блог	-11.462
="122	-11.4627
▁норманами	-11.4628
▁календаря	-11.4629
4,4	-11.4631
▁позбавлення	-11.4635
▁показують	-11.4635
="103	-11.4636
▁звільнив	-11.4639
▁запровадження	-11.4641
▁покровськ	-11.4647
домінік	-11.4652
▁олександрівськ	-11.4652
▁1862	-11.4656
́нський	-11.4659
▁листування	-11.4665
▁бродівськ	-11.4668
▁тимор	-11.467
▁змінен	-11.4671
▁передові	-11.4682
▁пристрої	-11.4686
икористовувалися	-11.4691
▁чумацьк	-11.4692
5,1	-11.4692
резидент	-11.4696
▁думи	-11.4698
▁соко	-11.4698
бразил	-11.47
▁чад	-11.47
min	-11.4701
400	-11.4703
▁ансамбл	-11.4705
▁семінар	-11.4706
▁нараховує	-11.4708
▁економіст	-11.4711
▁стокгольм	-11.4712
▁вуцвк	-11.4712
▁гвінея	-11.4712
▁концепцію	-11.4712
▁крохмаль	-11.4712
▁мікросхем	-11.4712
▁оболонки	-11.4712
▁розмноження	-11.4712
▁спричинило	-11.4712
▁уособлення	-11.4712
▁ягеллончик	-11.4712
▁ячмінь	-11.4712
▁мексиці	-11.4712
▁створювали	-11.4712
▁різдва	-11.4712
▁блискуч	-11.4712
▁противагу	-11.4712
▁особою	-11.4712
▁вимагав	-11.4712
▁йоганн	-11.4712
▁постійне	-11.4712
▁визначальн	-11.4712
▁відійшла	-11.4712
▁мережею	-11.4713
=39	-11.4715
▁кільце	-11.4716
▁гіпс	-11.4716
▁волостей	-11.4718
▁стільки	-11.472
карп	-11.4721
▁протокою	-11.4721
▁лето	-11.4722
▁зріл	-11.4722
▁медаль	-11.4725
=102	-11.4725
=70	-11.4726
▁двору	-11.473
сподарському	-11.4734
▁істотн	-11.4747
поселен	-11.4749
▁августин	-11.475
́цький	-11.4752
▁добов	-11.4753
▁харківському	-11.4754
▁троє	-11.4754
▁краківськ	-11.4761
▁стриж	-11.4762
▁поверх	-11.4763
▁хань	-11.4765
▁буквально	-11.4772
▁захистив	-11.4772
▁спокійн	-11.4774
розвинен	-11.4779
▁сенатор	-11.478
▁винятков	-11.4785
водили	-11.4786
▁1869	-11.4787
▁жаль	-11.4793
▁малаві	-11.4796
фіт	-11.4799
▁амур	-11.4808
мадяр	-11.4808
рава	-11.4809
▁червоні	-11.4813
▁стимул	-11.4818
▁універсал	-11.4819
католицьких	-11.482
▁електромагнітн	-11.482
▁енергію	-11.482
▁зосереджу	-11.482
▁комунікації	-11.482
▁ломбардськ	-11.482
▁югославії	-11.482
католицького	-11.482
▁конбаун	-11.482
▁сформулюва	-11.482
▁яблук	-11.482
▁особливостями	-11.482
▁топонім	-11.4821
▁налагоджен	-11.4821
▁версію	-11.4821
▁безпечн	-11.4821
▁яйце	-11.4821
▁данилович	-11.4821
▁увесь	-11.4822
▁теплий	-11.4822
▁вузол	-11.4822
▁новоутворен	-11.4823
▁виробляється	-11.4823
▁розглядав	-11.4825
▁закономірності	-11.4826
▁встановлюється	-11.4828
▁припускають	-11.4831
▁гунів	-11.4831
▁судді	-11.4832
=68	-11.4833
=101	-11.4834
▁філії	-11.484
▁метрополітен	-11.484
▁частков	-11.4841
пік	-11.4843
▁мінлив	-11.4847
▁основоположник	-11.4848
▁серцев	-11.4851
подільський	-11.4855
▁ялин	-11.4858
вились	-11.4858
▁фіджі	-11.486
▁джек	-11.4862
▁обрав	-11.4863
▁тримає	-11.4864
▁видається	-11.4864
▁платн	-11.4865
▁припинив	-11.4866
▁сірк	-11.4867
інтернат	-11.4873
▁1812	-11.4887
▁столичн	-11.4888
▁слобідськ	-11.489
▁крайні	-11.489
▁бенін	-11.49
▁воскрес	-11.4904
тарас	-11.4909
▁співробітництв	-11.4909
західної	-11.491
▁піти	-11.4913
▁писан	-11.4925
▁курфюрст	-11.493
тоталітаризм	-11.493
▁windows	-11.493
▁генуезьк	-11.493
▁стаціонарн	-11.493
▁узбекистан	-11.493
▁ірландії	-11.493
▁приваблив	-11.493
▁хребти	-11.493
▁опитування	-11.493
▁протестантів	-11.493
▁іспанська	-11.493
▁меценат	-11.493
▁заарештувал	-11.493
▁вирушил	-11.493
▁останню	-11.493
▁демографія	-11.493
▁вважаючи	-11.493
▁раптов	-11.4931
▁тесея	-11.4931
▁рівномірн	-11.4931
▁натхненн	-11.4931
▁зарплат	-11.4931
▁таїланд	-11.4931
▁галичину	-11.4932
▁католики	-11.4932
▁христин	-11.4932
▁міланське	-11.4933
=31	-11.4934
=34	-11.4934
▁найкращим	-11.4935
▁майстра	-11.4935
▁проживав	-11.4935
▁гіпп	-11.4935
▁суперечлив	-11.4939
=115	-11.4939
▁чорнозем	-11.4939
des	-11.4941
=73	-11.4942
стояли	-11.4946
▁автомобілів	-11.4948
="121	-11.4954
var	-11.4959
="114	-11.4967
бесід	-11.4972
="108	-11.4975
селили	-11.4975
▁рівне	-11.4978
щук	-11.4981
ui	-11.4982
▁перемир	-11.4983
▁ясно	-11.4983
=122	-11.4986
▁1873	-11.4988
лемент	-11.4989
▁водосховище	-11.4989
остання	-11.499
паразит	-11.4991
▁використав	-11.4991
▁гнів	-11.4992
6,9	-11.4998
католицька	-11.5001
приблизно	-11.5001
1932	-11.5007
▁мости	-11.5009
▁1715	-11.5015
кост	-11.5018
▁росс	-11.5023
язати	-11.5023
▁кріс	-11.5024
▁таборі	-11.5028
бад	-11.5031
євро	-11.5031
ity	-11.5035
▁культов	-11.5039
▁невисок	-11.5041
▁започаткован	-11.5041
▁кременчуцьк	-11.5041
▁бібліотечн	-11.5041
▁конвенції	-11.5041
▁молюски	-11.5041
▁способів	-11.5041
▁єфремов	-11.5041
▁ісландії	-11.5041
▁скотарство	-11.5041
▁трибунал	-11.5041
▁андронік	-11.5042
▁захопити	-11.5042
▁течією	-11.5042
▁короткі	-11.5042
▁зустріти	-11.5042
лювіальн	-11.5042
▁передачу	-11.5042
▁просвітництва	-11.5042
▁канада	-11.5042
▁утворивши	-11.5043
▁конфедерації	-11.5043
▁зборах	-11.5044
▁трас	-11.5044
▁мануїл	-11.5044
▁австрією	-11.5045
▁звичайним	-11.5045
▁рейх	-11.5046
▁анатомії	-11.5046
▁намісник	-11.5047
▁посполитій	-11.5047
▁книжка	-11.5049
▁руського	-11.505
▁лірик	-11.5051
▁сербії	-11.5052
▁фізичного	-11.5053
▁осені	-11.5054
▁робив	-11.5055
=62	-11.5056
3,9	-11.5057
▁вгору	-11.5058
иття	-11.5061
▁покинув	-11.5066
▁лож	-11.5068
язань	-11.5073
port	-11.5073
[...]
