<unk>	0
<s>	0
</s>	0
,	-3.31742
.	-3.54331
▁và	-4.19346
▁của	-4.32175
▁các	-4.39202
▁là	-4.42875
▁có	-4.66424
▁một	-4.73549
▁được	-4.73616
▁trong	-4.73822
▁năm	-5.04509
▁	-5.08512
▁với	-5.16208
▁người	-5.18205
▁(	-5.21041
"	-5.22185
▁"	-5.25856
▁đã	-5.39026
▁thành	-5.39724
▁cho	-5.39863
▁những	-5.43369
▁từ	-5.44775
▁ở	-5.49879
▁không	-5.50274
▁này	-5.58479
▁vào	-5.5868
▁thể	-5.6017
▁số	-5.62566
▁nam	-5.6429
▁đến	-5.69314
▁như	-5.69901
▁quốc	-5.69922
▁sự	-5.71299
▁khi	-5.72634
▁học	-5.75664
▁ra	-5.75841
▁chính	-5.78179
▁về	-5.80643
ng	-5.80875
▁công	-5.81896
)	-5.87199
▁đó	-5.8771
▁để	-5.8818
▁tại	-5.88746
▁##	-5.9134
▁dân	-5.93717
▁trên	-5.96886
▁việt	-5.96899
="	-5.97306
▁đầu	-5.9769
▁nhà	-6.01637
▁cũ	-6.02659
:	-6.0296
▁trung	-6.03372
▁nhiều	-6.03452
▁theo	-6.04579
▁sau	-6.06377
▁nhất	-6.06576
▁thế	-6.07165
▁nước	-6.11039
▁quân	-6.12352
▁thời	-6.13168
▁khác	-6.13247
▁hiện	-6.13696
▁quan	-6.13803
▁đại	-6.15145
▁động	-6.15316
▁định	-6.15713
▁độ	-6.16917
▁pháp	-6.17999
▁ngày	-6.18341
▁tháng	-6.18854
▁bị	-6.1959
-	-6.19813
▁gia	-6.20725
▁do	-6.21504
▁lượng	-6.21884
▁ông	-6.22322
▁sử	-6.236
▁giáo	-6.23977
▁lý	-6.24305
▁đồng	-6.25124
▁phát	-6.26336
▁hội	-6.26514
▁lại	-6.27103
▁chỉ	-6.29273
▁cách	-6.30741
▁hơn	-6.31403
▁việc	-6.3219
▁liên	-6.33325
▁hình	-6.33522
▁nhân	-6.34059
▁bộ	-6.34292
▁dụng	-6.34362
▁tính	-6.35011
▁làm	-6.35158
▁lớn	-6.35719
▁vật	-6.36036
▁hành	-6.36061
▁hệ	-6.37616
▁tế	-6.37733
▁chủ	-6.3799
▁bằng	-6.38053
▁hai	-6.38114
▁bản	-6.4006
▁kỳ	-6.40766
▁hóa	-6.41571
▁thống	-6.41581
▁sinh	-6.41765
▁nguyên	-6.42932
▁văn	-6.43459
▁còn	-6.43771
▁hợp	-6.46082
▁lập	-6.46295
▁cơ	-6.46876
c	-6.50405
▁tự	-6.50656
doc	-6.50719
>	-6.51038
▁phần	-6.51891
▁thực	-6.52006
▁cao	-6.52369
▁chiến	-6.53626
▁phân	-6.54341
▁giới	-6.54525
▁trình	-6.55544
▁địa	-6.56883
▁nó	-6.57211
▁đối	-6.58766
▁mặt	-6.5901
▁tử	-6.59364
▁thường	-6.60146
;	-6.60468
▁gọi	-6.60818
▁đất	-6.62625
),	-6.62674
▁trường	-6.63304
▁con	-6.64066
▁mà	-6.6466
▁họ	-6.66212
▁cộng	-6.6708
▁nhưng	-6.67243
▁vị	-6.67306
▁cả	-6.67551
▁loại	-6.67558
▁tiếng	-6.68456
▁chất	-6.68639
▁thuộc	-6.69083
).	-6.69458
▁tỉnh	-6.69579
▁cùng	-6.70301
▁sản	-6.70764
▁điều	-6.7085
▁kinh	-6.70867
▁phương	-6.71086
/	-6.7127
▁quyền	-6.7192
▁xuất	-6.7258
▁đông	-6.73268
▁phải	-6.73545
▁chúng	-6.73597
▁tạo	-6.73645
▁trị	-6.74009
▁thông	-6.74232
▁kết	-6.74236
▁hoặc	-6.74242
▁minh	-6.74535
▁thứ	-6.74774
▁rằng	-6.75006
▁tây	-6.75023
▁lực	-6.76805
▁hay	-6.7752
▁bình	-6.77681
▁tổng	-6.77819
▁bắc	-6.77999
▁qua	-6.78358
▁nghĩa	-6.78505
▁châu	-6.79193
▁cuộc	-6.79916
▁khoảng	-6.80593
▁nhận	-6.80599
▁thì	-6.80995
▁khu	-6.81545
▁tiên	-6.81894
▁chức	-6.82367
▁giải	-6.82566
▁gồm	-6.83446
▁vì	-6.84232
▁hoa	-6.84681
▁điểm	-6.84853
▁vùng	-6.85191
▁trước	-6.8524
▁tương	-6.85704
▁hòa	-6.86263
▁đạo	-6.86348
▁năng	-6.86476
▁điện	-6.86835
▁tiếp	-6.87367
▁nhiên	-6.87415
▁truyền	-6.87648
▁thái	-6.88035
▁xã	-6.88233
▁trở	-6.88304
▁tác	-6.88867
▁nhau	-6.90124
▁tên	-6.90711
▁toàn	-6.90736
▁phố	-6.9098
▁anh	-6.91453
▁thức	-6.91788
▁đường	-6.92119
▁gian	-6.92603
▁triển	-6.92726
▁ngữ	-6.93231
▁mỹ	-6.94202
▁bởi	-6.94453
▁tranh	-6.97884
▁đổi	-6.98675
▁giữa	-6.99441
▁đặc	-6.99565
▁lên	-6.99753
▁sẽ	-6.99773
▁tích	-7.00591
▁ba	-7.00732
▁phủ	-7.00874
▁hàng	-7.00879
rất	-7.01156
▁1	-7.01457
▁cấp	-7.01534
▁viên	-7.01544
▁mới	-7.02896
▁-	-7.03092
▁đây	-7.03243
▁vực	-7.03854
▁phía	-7.04449
▁biến	-7.0522
▁bao	-7.05803
▁nên	-7.06198
▁chuyển	-7.06264
▁tăng	-7.06362
▁lịch	-7.06368
▁tổ	-7.06387
▁sao	-7.07015
vi	-7.07251
▁2	-7.07935
▁đề	-7.07995
▁biệt	-7.08495
▁trọng	-7.08783
▁đi	-7.10499
▁ngoài	-7.11368
▁khí	-7.11441
▁thuật	-7.11451
▁ứng	-7.11698
▁thị	-7.11822
▁thiên	-7.11947
▁đức	-7.12408
▁chế	-7.13049
?	-7.13425
▁tập	-7.13671
▁bắt	-7.1392
▁sống	-7.14085
▁cứu	-7.14392
▁thuyết	-7.15337
▁kỷ	-7.15596
▁tới	-7.16291
▁nay	-7.16393
▁cổ	-7.16409
▁tâm	-7.16515
▁ban	-7.16901
▁vụ	-7.16967
wiki	-7.17808
org	-7.18176
▁dịch	-7.18618
▁dùng	-7.18901
▁hiệu	-7.18973
wikipedia	-7.1909
▁tinh	-7.19634
▁id	-7.19743
▁tư	-7.19784
urid	-7.1993
▁url	-7.20029
://	-7.20029
https	-7.2012
▁<	-7.20248
▁bảo	-7.20334
▁categories	-7.20347
▁title	-7.20348
▁</	-7.20469
▁ý	-7.2052
▁tuy	-7.2059
▁hà	-7.2112
▁cầu	-7.21933
▁nghiệp	-7.22115
▁3	-7.228
▁máy	-7.23009
▁miền	-7.23359
▁lần	-7.23752
▁thay	-7.24686
",	-7.25008
▁tiến	-7.2547
▁vẫn	-7.2575
n	-7.26231
▁liệu	-7.2669
▁dẫn	-7.2703
▁sông	-7.27166
▁sáng	-7.28259
▁thấy	-7.28673
▁thiết	-7.2895
▁gần	-7.28978
▁sách	-7.29324
▁tin	-7.29352
▁di	-7.29747
s	-7.30371
▁hoàng	-7.30373
▁giá	-7.30665
▁ảnh	-7.31484
▁dương	-7.31995
▁yếu	-7.32301
▁nghiên	-7.32305
▁nguyễn	-7.32468
▁đều	-7.32578
▁vi	-7.32901
▁tiêu	-7.33027
m	-7.33188
▁phong	-7.34334
▁đánh	-7.34776
▁đội	-7.3499
▁hạt	-7.35146
▁quá	-7.35179
▁("	-7.35231
".	-7.3554
▁mô	-7.36801
▁ngôn	-7.37012
▁tộc	-7.37268
▁dưới	-7.37273
▁nói	-7.37325
▁nội	-7.37383
▁đảo	-7.38358
▁bên	-7.38984
▁dạng	-7.39799
▁đơn	-7.40205
▁vũ	-7.40289
▁sư	-7.40473
▁4	-7.40621
▁viết	-7.40946
▁hoạt	-7.41596
▁cuối	-7.41622
▁nguồn	-7.4174
▁diện	-7.41815
▁báo	-7.41972
▁vương	-7.42305
▁xác	-7.42711
▁ta	-7.43142
▁nơi	-7.43158
▁âm	-7.43545
▁sở	-7.44045
▁quả	-7.44251
▁đình	-7.44474
▁quy	-7.44548
▁giao	-7.44627
▁dài	-7.44911
▁thần	-7.45242
▁thu	-7.45313
▁huyện	-7.46279
▁lưu	-7.46474
▁rộng	-7.46734
▁lãnh	-7.46767
▁khoa	-7.46806
▁nhật	-7.46888
▁nhóm	-7.47157
▁thủ	-7.47366
▁so	-7.48008
▁đảng	-7.48776
▁tượng	-7.49009
▁màu	-7.49192
▁bất	-7.4938
▁nhỏ	-7.49496
▁nhiệt	-7.50261
▁an	-7.50436
▁chiếm	-7.51012
▁tài	-7.52309
▁nào	-7.52428
▁5	-7.52581
▁phẩm	-7.52647
▁kim	-7.52968
▁mình	-7.53469
▁kế	-7.5367
▁phản	-7.53825
▁cư	-7.54109
▁viện	-7.54331
")	-7.54501
▁nằm	-7.54557
▁chí	-7.54664
▁sĩ	-7.54712
▁sát	-7.54841
▁âu	-7.54876
▁biểu	-7.55166
▁phổ	-7.55358
▁biết	-7.5539
▁loài	-7.55423
▁phục	-7.56008
▁lan	-7.56058
▁tham	-7.56085
▁triệu	-7.56431
▁biển	-7.56695
▁thư	-7.57018
▁danh	-7.5714
▁đô	-7.57792
▁hướng	-7.57912
▁trí	-7.57933
▁tướng	-7.57943
▁quyết	-7.58109
▁hồ	-7.5821
▁cần	-7.58479
y	-7.58594
▁mạnh	-7.58641
▁kiến	-7.58846
▁độc	-7.58996
▁nền	-7.59249
▁mã	-7.59339
▁nghệ	-7.5962
▁chữ	-7.59684
▁đời	-7.59824
▁hoàn	-7.59986
▁tiền	-7.6027
▁hải	-7.60707
▁dù	-7.60915
▁mỗi	-7.61112
▁hạn	-7.61249
▁bào	-7.61948
▁đang	-7.62064
▁đạt	-7.62116
▁đa	-7.6221
▁bố	-7.62469
▁trận	-7.62659
▁tục	-7.62732
▁bang	-7.62905
▁dựng	-7.63245
▁vậy	-7.63423
▁đặt	-7.63461
▁mang	-7.63495
▁hưởng	-7.63844
▁trưởng	-7.64235
▁mục	-7.64411
▁trang	-7.64434
▁mạng	-7.64782
▁trái	-7.65659
▁thanh	-7.65783
▁tình	-7.66203
▁vua	-7.66243
▁phép	-7.66268
▁trời	-7.66698
▁phật	-7.66756
▁nhập	-7.66809
▁luật	-7.66995
▁tố	-7.67228
▁10	-7.67459
▁ký	-7.6813
▁nổi	-7.6872
▁sơn	-7.69003
▁dụ	-7.69034
▁đoàn	-7.6938
▁chung	-7.69617
▁tỷ	-7.70016
▁phụ	-7.70088
▁tìm	-7.70387
▁thổ	-7.70424
▁lệ	-7.70587
▁bỏ	-7.70606
▁tất	-7.71376
▁c	-7.71781
▁6	-7.71927
▁chia	-7.72063
▁cực	-7.72143
▁giả	-7.72239
▁đoạn	-7.72318
▁xây	-7.72474
▁khối	-7.72826
▁đế	-7.73147
▁ấn	-7.73148
▁bệnh	-7.73322
▁du	-7.734
▁thương	-7.73668
▁tôn	-7.73705
▁lễ	-7.73873
▁nghị	-7.73894
▁kể	-7.73983
▁hậu	-7.741
▁kiện	-7.74206
▁duy	-7.74223
▁thủy	-7.74246
▁diễn	-7.74758
▁đưa	-7.75111
a	-7.75709
▁thích	-7.75748
▁toán	-7.75944
▁hữu	-7.76503
▁triều	-7.77584
▁cung	-7.77597
...	-7.77716
▁bán	-7.77751
▁cá	-7.77867
t	-7.78032
▁hạ	-7.78384
▁khai	-7.78598
▁thêm	-7.78796
▁7	-7.78798
▁la	-7.79108
▁ước	-7.79499
▁mở	-7.80245
▁nếu	-7.80266
▁đồ	-7.80543
▁chống	-7.80861
▁hết	-7.80899
▁trúc	-7.80989
▁giữ	-7.81275
▁biên	-7.81742
▁sang	-7.81774
▁vấn	-7.81782
▁chứng	-7.82056
▁tồn	-7.82456
▁nhiệm	-7.82456
gây	-7.82822
▁cấu	-7.82841
▁ít	-7.83109
▁9	-7.83116
▁xô	-7.83227
▁12	-7.8332
▁cái	-7.83658
▁hầu	-7.84171
e	-7.84179
▁phòng	-7.84386
▁long	-7.8439
▁mùa	-7.84519
▁riêng	-7.84597
▁chuẩn	-7.84685
▁dự	-7.85063
▁ngoại	-7.85443
▁gốc	-7.8564
▁núi	-7.85733
▁vô	-7.86003
▁bài	-7.86078
▁mặc	-7.86539
▁chi	-7.87081
▁giảm	-7.87172
▁từng	-7.87326
▁ánh	-7.87982
▁lúc	-7.87998
▁tiểu	-7.88045
▁8	-7.88118
▁đóng	-7.88512
▁hán	-7.89677
▁nghiệm	-7.89696
▁khả	-7.9002
▁vệ	-7.90249
▁lợi	-7.90574
▁tả	-7.90776
▁tốc	-7.90943
▁chương	-7.91039
i	-7.91041
▁mức	-7.91351
▁ăn	-7.91475
▁luận	-7.91864
▁hiệp	-7.9192
▁phá	-7.92108
▁trợ	-7.92234
▁án	-7.92434
▁thân	-7.92756
▁niên	-7.92847
▁giống	-7.93375
▁nga	-7.93535
▁tín	-7.93956
▁áp	-7.94048
▁đá	-7.94457
▁vận	-7.94458
▁xem	-7.95037
▁tông	-7.95055
▁sóng	-7.95902
▁phạm	-7.96245
▁mọi	-7.9629
▁sắc	-7.96391
▁nữ	-7.96392
▁trực	-7.96433
▁tấn	-7.96486
▁cử	-7.96612
▁trần	-7.97182
▁tưởng	-7.97211
▁chưa	-7.97325
▁nông	-7.97367
▁ví	-7.97372
▁kỹ	-7.97615
▁dòng	-7.97766
▁tuyên	-7.97767
▁hộ	-7.98698
o	-7.99234
▁quảng	-7.99254
▁y	-7.99399
▁điển	-7.99747
▁lục	-7.99815
▁binh	-7.99904
▁nhạc	-8.00107
▁cây	-8.00116
▁thập	-8.00412
▁ngành	-8.00663
▁quang	-8.00978
▁mất	-8.01224
▁phóng	-8.01433
▁dựa	-8.01478
▁–	-8.0157
▁thánh	-8.01895
▁giai	-8.02013
▁phi	-8.02118
▁trụ	-8.02527
▁thuận	-8.03232
▁chúa	-8.0369
▁trạng	-8.04863
▁giờ	-8.05404
▁tuổi	-8.05607
▁quản	-8.06088
▁tuyến	-8.06208
▁thấp	-8.06845
▁ngôi	-8.07034
▁kiểm	-8.07329
▁ca	-8.07744
▁trò	-8.07936
▁lớp	-8.08371
▁giúp	-8.08471
▁coi	-8.08545
▁chân	-8.09373
▁xạ	-8.09469
▁khỏi	-8.09632
▁sa	-8.0996
▁lấy	-8.09975
▁mật	-8.10433
2	-8.11048
▁k	-8.11077
▁niệm	-8.11313
▁ninh	-8.11495
▁hồi	-8.11611
▁thượng	-8.11732
▁nha	-8.11817
▁km	-8.12157
▁tàu	-8.12348
▁11	-8.12895
▁a	-8.13691
▁nhằm	-8.13838
▁ghi	-8.13906
▁cố	-8.14349
▁cảnh	-8.14573
▁cải	-8.14638
▁lĩnh	-8.15178
▁cụ	-8.1534
▁kích	-8.15588
hẳng	-8.15604
▁lê	-8.15675
▁bay	-8.15827
ến	-8.15993
▁m	-8.16713
▁kính	-8.17023
▁bầu	-8.17134
▁chứa	-8.17206
▁đứng	-8.17323
h	-8.17972
▁đo	-8.18224
▁lâm	-8.18464
▁quần	-8.18504
'	-8.18621
▁dung	-8.18625
▁phái	-8.18629
▁sức	-8.2008
▁lạc	-8.20482
▁t	-8.20694
▁bà	-8.20858
▁thi	-8.20958
▁phú	-8.2105
▁chấp	-8.21227
▁bàn	-8.21295
▁cạnh	-8.2142
▁ma	-8.21442
▁câu	-8.21496
▁môi	-8.21505
▁á	-8.21541
▁vai	-8.21563
▁vài	-8.22016
▁ủy	-8.22051
▁xuống	-8.22104
▁đà	-8.22191
▁hấp	-8.22361
▁dục	-8.2287
▁chết	-8.23375
▁quyển	-8.23439
▁lệnh	-8.23964
▁quanh	-8.24145
▁hỗ	-8.2434
▁yêu	-8.2447
▁mại	-8.24986
▁ngay	-8.25186
▁ty	-8.2547
▁huy	-8.25555
▁nhanh	-8.25577
▁quận	-8.25658
▁chịu	-8.2576
▁chiều	-8.26292
▁song	-8.26297
▁chu	-8.26656
▁đáng	-8.27358
▁xe	-8.27417
▁lời	-8.27618
▁áo	-8.27879
▁lao	-8.27937
▁rõ	-8.28007
▁tức	-8.28735
▁xếp	-8.29021
▁môn	-8.29097
▁giang	-8.29493
▁đủ	-8.29619
▁hàm	-8.29966
▁dần	-8.303
▁thơ	-8.30519
▁yên	-8.31411
▁ngô	-8.31583
▁tiết	-8.31616
▁bức	-8.32585
▁thờ	-8.32684
▁trì	-8.33344
▁thắng	-8.33426
▁càng	-8.33527
▁thất	-8.33571
▁tân	-8.33596
▁đấu	-8.33711
▁chọn	-8.33776
▁tối	-8.33799
▁vàng	-8.3424
▁hồng	-8.34303
▁xa	-8.34372
▁khách	-8.34973
▁hoá	-8.34996
▁đào	-8.35173
▁quỹ	-8.35643
k	-8.35682
g	-8.35706
▁đen	-8.35964
▁thừa	-8.37089
▁quay	-8.37186
▁tay	-8.37905
▁dữ	-8.37966
▁vòng	-8.38433
b	-8.3844
▁kháng	-8.385
p	-8.3893
▁nữa	-8.38995
▁rồi	-8.39383
▁trưng	-8.39385
▁khẩu	-8.39607
▁suy	-8.39687
▁xả	-8.40095
▁lâu	-8.40286
▁tầng	-8.40523
▁tái	-8.4068
▁thúc	-8.4126
▁20	-8.41343
▁cửa	-8.41498
&	-8.41531
d	-8.41649
▁cứ	-8.41789
▁đỏ	-8.42281
▁khởi	-8.42419
▁b	-8.42538
▁hoạch	-8.42648
▁nhìn	-8.42751
▁cảm	-8.42799
▁muốn	-8.42809
"),	-8.432
▁tốt	-8.43209
▁suất	-8.43424
▁đôi	-8.43447
▁bại	-8.43503
▁sai	-8.44433
▁in	-8.44723
▁linh	-8.45087
▁xuyên	-8.45391
▁cận	-8.4555
▁nối	-8.45574
–	-8.45584
▁tam	-8.45835
▁cáo	-8.46019
▁đe	-8.46049
▁mối	-8.46117
▁giác	-8.46504
▁mẫu	-8.46603
▁phiên	-8.46617
▁xử	-8.46912
v	-8.4693
▁phù	-8.47034
▁dấu	-8.47403
▁lai	-8.48109
▁soát	-8.48133
▁trào	-8.48146
▁hiểu	-8.48461
▁chuyên	-8.48545
▁đương	-8.48621
▁kéo	-8.48627
▁sâu	-8.49199
▁15	-8.497
▁xung	-8.49769
▁hy	-8.5012
▁de	-8.50548
▁thiếu	-8.50706
▁chạy	-8.51373
▁đài	-8.51515
▁vĩnh	-8.51561
▁bổ	-8.5159
▁lộ	-8.51608
▁giám	-8.51852
▁tịch	-8.52215
▁làng	-8.52338
▁em	-8.52391
▁bước	-8.52476
▁tách	-8.52628
▁bốn	-8.53065
▁tra	-8.53211
▁h	-8.53527
").	-8.53567
▁chiếu	-8.53594
▁đổ	-8.53764
r	-8.53786
▁tu	-8.53786
▁bề	-8.54083
▁v	-8.54228
▁ngân	-8.54982
▁khó	-8.55121
▁dễ	-8.56128
▁cai	-8.56151
▁x	-8.56228
▁nhờ	-8.56471
▁lương	-8.57195
▁góp	-8.57363
▁khắc	-8.57724
▁lạp	-8.57735
▁doanh	-8.57926
▁da	-8.57994
▁g	-8.58327
▁giáp	-8.58352
▁vốn	-8.58368
▁trăng	-8.58444
▁cập	-8.58534
▁ủng	-8.58734
▁bậc	-8.58813
▁trẻ	-8.58989
▁trao	-8.59206
▁quý	-8.59309
▁chăm	-8.59452
▁xét	-8.59914
▁hạng	-8.6001
▁bồ	-8.60066
▁luôn	-8.6007
▁trừ	-8.60116
▁hiến	-8.60657
▁chú	-8.60673
▁thụy	-8.60883
▁kiểu	-8.60929
▁nhiễm	-8.61011
▁rừng	-8.61197
▁sắt	-8.61299
▁dna	-8.61515
▁mạch	-8.62156
▁sơ	-8.62453
▁cường	-8.62704
▁dầu	-8.62804
▁giành	-8.63078
▁nghi	-8.63545
▁tạp	-8.64141
▁gì	-8.64152
u	-8.64415
▁đàn	-8.64479
▁gặp	-8.64991
▁ngược	-8.64999
▁phúc	-8.66403
▁đốc	-8.66555
l	-8.66681
▁kê	-8.66824
▁khái	-8.67383
▁khuẩn	-8.67437
▁khá	-8.6745
▁phối	-8.67459
▁thiền	-8.6746
▁bạc	-8.67529
▁cha	-8.67554
▁đích	-8.67936
▁ngắn	-8.68036
▁băng	-8.6824
▁lược	-8.68243
▁thụ	-8.6834
▁trấn	-8.68438
▁thí	-8.69128
▁chủng	-8.69762
▁giấy	-8.70062
▁gen	-8.70092
▁hưng	-8.7012
▁mẹ	-8.70475
▁xâm	-8.70661
▁buộc	-8.70966
▁tắc	-8.7128
▁d	-8.71367
▁trả	-8.71555
▁hương	-8.71702
f	-8.72222
▁tòa	-8.72449
▁paris	-8.7248
▁quán	-8.72541
▁formula	-8.72855
▁nặng	-8.72943
1	-8.72972
▁miêu	-8.73053
▁sài	-8.7306
▁chảy	-8.73151
▁lá	-8.73216
▁ương	-8.73267
▁vượt	-8.73467
▁sứ	-8.7352
▁bờ	-8.73816
lt	-8.74139
▁gòn	-8.7429
▁i	-8.74714
▁hỏi	-8.74947
▁tuần	-8.75064
▁xuân	-8.75072
▁bóng	-8.7521
3	-8.75302
▁lửa	-8.75379
la	-8.75622
▁30	-8.7564
▁trắng	-8.75813
▁phận	-8.76017
▁14	-8.76174
▁electron	-8.76381
▁căn	-8.76429
▁siêu	-8.7647
▁suốt	-8.76667
▁tỉ	-8.76834
▁sân	-8.76895
▁đột	-8.76908
▁ly	-8.77403
▁ai	-8.77645
▁tiện	-8.77649
▁bí	-8.78216
▁16	-8.78843
▁13	-8.79126
▁giản	-8.79155
▁lào	-8.79196
▁phim	-8.79384
▁khảo	-8.79399
▁hại	-8.79521
▁chỉnh	-8.79862
▁ung	-8.79876
▁mưa	-8.79878
=	-8.80077
▁thiện	-8.8033
▁lòng	-8.80382
▁diệt	-8.80444
▁lỗ	-8.80523
▁canada	-8.81006
▁hổ	-8.814
▁ổn	-8.81476
▁đọc	-8.81933
▁tán	-8.82017
▁khắp	-8.82023
▁tội	-8.82148
▁phức	-8.82482
▁trương	-8.82601
▁rút	-8.82606
▁tan	-8.82669
▁bánh	-8.83051
▁mềm	-8.83062
▁bảng	-8.83461
▁xứ	-8.83831
gt	-8.83954
▁hỏa	-8.84248
▁17	-8.84574
▁thác	-8.84901
▁giết	-8.85055
▁dành	-8.8506
▁trách	-8.85169
▁ô	-8.85568
▁đúng	-8.85655
▁xanh	-8.8569
x	-8.85703
▁cuốn	-8.85982
▁đoán	-8.86119
▁dâm	-8.86238
▁đầy	-8.86359
▁vừa	-8.86479
ma	-8.8648
▁nạn	-8.86915
▁tống	-8.87124
▁ấy	-8.87495
▁hát	-8.87702
▁đẩy	-8.87923
▁đảm	-8.87928
▁s	-8.87986
▁thiệu	-8.88046
▁họa	-8.88326
▁tôi	-8.88552
▁liền	-8.88778
▁hiểm	-8.88901
▁mua	-8.89059
▁hàn	-8.89372
▁thước	-8.89517
▁khánh	-8.89663
▁nửa	-8.90394
▁cát	-8.90654
▁trai	-8.90685
▁tia	-8.91207
▁thoại	-8.91261
▁chùa	-8.91656
▁trải	-8.91684
▁võ	-8.91856
▁thảo	-8.92161
▁chóng	-8.92341
▁cắt	-8.9253
▁nóng	-8.9264
▁trú	-8.93111
▁trữ	-8.93293
▁phí	-8.93298
▁triết	-8.93312
▁nguy	-8.93316
▁gió	-8.93513
▁nổ	-8.93642
▁vĩ	-8.93808
▁lẫn	-8.94844
▁co	-8.95017
▁san	-8.95162
▁bác	-8.95203
▁trồng	-8.95367
▁usd	-8.95389
▁gắn	-8.95483
▁chiếc	-8.95646
▁cô	-8.95695
▁virus	-8.95811
▁web	-8.96167
▁dãy	-8.96195
▁loạt	-8.96553
▁ngăn	-8.96685
▁đăng	-8.96696
7"	-8.97225
▁phó	-8.97475
▁ii	-8.97512
▁gái	-8.97515
▁thạch	-8.97628
▁thao	-8.97628
▁góc	-8.97896
▁protein	-8.98308
▁phán	-8.98346
▁xúc	-8.98433
▁thuốc	-8.9844
▁khám	-8.98791
▁ngũ	-8.98998
▁acid	-8.99253
▁tuyệt	-8.99389
▁tri	-8.99546
▁pa	-8.99765
3"	-8.9981
]]	-8.99971
▁pha	-9.00253
▁oxy	-9.00369
▁diệm	-9.0061
ch	-9.0066
sa	-9.00816
2"	-9.01217
▁tụ	-9.0122
▁liệt	-9.0186
5"	-9.0193
▁sớm	-9.02986
▁bắn	-9.03409
1"	-9.03507
▁địch	-9.03552
▁mây	-9.03577
▁sửa	-9.03839
8"	-9.03964
▁18	-9.0399
▁[[	-9.04208
▁nuôi	-9.04408
4"	-9.04656
▁cầm	-9.04695
9"	-9.04831
▁vọng	-9.04839
▁thật	-9.04855
▁19	-9.05072
▁bãi	-9.05292
▁gỗ	-9.05417
▁gửi	-9.05566
▁p	-9.05687
▁100	-9.05939
▁nho	-9.06169
▁đỉnh	-9.06302
▁cam	-9.06371
▁trục	-9.0642
▁chuỗi	-9.06737
0"	-9.06933
▁ưu	-9.07047
▁nắm	-9.0717
▁nghề	-9.07176
▁chỗ	-9.07183
▁tắt	-9.0732
6"	-9.07328
▁hơi	-9.07623
▁dây	-9.08065
▁cảng	-9.08123
▁thoát	-9.08207
▁hùng	-9.0822
▁chơi	-9.08807
▁pháo	-9.09075
▁mắt	-9.09107
▁viễn	-9.09113
▁hủy	-9.09263
us	-9.09289
▁dạy	-9.09422
▁tần	-9.09698
▁chép	-9.09859
▁khăn	-9.09986
▁cấm	-9.1001
▁hút	-9.10011
▁nẵng	-9.10162
▁đai	-9.10172
▁đẳng	-9.10314
▁cục	-9.10397
▁kiếm	-9.10466
▁vịnh	-9.10567
▁vạn	-9.10618
▁nhánh	-9.10627
▁phê	-9.10636
▁rãi	-9.10799
▁=	-9.10854
hậm	-9.10868
▁to	-9.10887
▁ngọc	-9.10955
▁dọc	-9.11077
▁cánh	-9.11443
▁loạn	-9.11692
▁lạnh	-9.11703
▁xương	-9.11854
▁dao	-9.12004
▁ràng	-9.12012
▁ích	-9.12156
▁tải	-9.12279
▁mỏ	-9.12439
▁trăm	-9.12629
▁vân	-9.128
▁thuế	-9.13408
▁thẳng	-9.13948
▁xu	-9.14213
▁bày	-9.1432
▁rời	-9.14348
▁săn	-9.14508
▁thôn	-9.14517
▁liêu	-9.14666
▁e	-9.14742
▁tcn	-9.14827
▁nobel	-9.14841
tiếng	-9.15165
▁hoà	-9.15536
▁cân	-9.15805
▁thọ	-9.16316
▁thú	-9.16404
▁kẻ	-9.16473
▁tùy	-9.16495
al	-9.16518
▁đám	-9.1666
▁tầm	-9.1676
▁nỗ	-9.16879
▁lẽ	-9.1688
▁mộc	-9.17034
▁tạng	-9.17036
▁sung	-9.1708
▁biện	-9.1724
5	-9.17248
▁n	-9.17722
▁thăm	-9.1773
▁tuyển	-9.17901
▁1945	-9.17944
▁tô	-9.18007
▁nghiêm	-9.18223
▁mông	-9.18346
▁thẩm	-9.18388
▁dinh	-9.18945
▁nhu	-9.19272
▁lo	-9.19392
4	-9.19448
▁đền	-9.1981
▁hôn	-9.20171
▁thiểu	-9.20387
▁đêm	-9.20427
▁new	-9.20546
▁campuchia	-9.20581
▁thăng	-9.21072
▁chim	-9.21841
▁trà	-9.2199
▁chuyện	-9.2245
▁truy	-9.2261
▁bá	-9.22733
▁na	-9.22819
▁25	-9.22973
▁phẳng	-9.22976
▁khổng	-9.23201
er	-9.23252
▁ẩm	-9.23461
▁°	-9.23501
▁úc	-9.23853
▁tứ	-9.2389
▁tù	-9.24157
▁lính	-9.24511
▁hằng	-9.24537
▁lượt	-9.24682
▁israel	-9.2471
▁thịt	-9.25228
▁bạn	-9.25378
▁r	-9.25456
▁ha	-9.25579
▁cờ	-9.25588
▁mạc	-9.25758
▁mười	-9.25933
▁ngang	-9.25981
an	-9.26004
▁ion	-9.26075
▁tránh	-9.26456
một	-9.26555
en	-9.26743
▁xưa	-9.26816
▁trùng	-9.26881
▁vợ	-9.26965
▁máu	-9.26997
▁tháp	-9.27006
▁phường	-9.27211
▁đòi	-9.27359
▁kia	-9.27559
ta	-9.27562
▁chợ	-9.27956
▁đệ	-9.28031
▁sáp	-9.28078
▁truyện	-9.28129
▁họp	-9.28205
hay	-9.28205
▁mưu	-9.28276
▁of	-9.28287
▁lỏng	-9.28805
▁giảng	-9.28816
▁quát	-9.28911
▁sáu	-9.28997
▁mét	-9.29057
▁sẵn	-9.29355
▁can	-9.29491
z	-9.29625
▁huế	-9.29756
▁24	-9.29821
▁bật	-9.30094
người	-9.30972
▁chồng	-9.3103
▁tảng	-9.31321
▁tàn	-9.31341
▁cặp	-9.314
▁bảy	-9.3142
▁mồi	-9.31602
di	-9.31967
▁miễn	-9.31971
▁đẹp	-9.31974
▁f	-9.31985
▁vong	-9.32205
▁thuyền	-9.32358
▁vinh	-9.32499
▁buôn	-9.3251
▁sắp	-9.32533
▁vuông	-9.32914
▁khủng	-9.32921
▁xưng	-9.33105
▁soạn	-9.33296
▁màng	-9.33505
▁latinh	-9.3352
▁einstein	-9.33538
▁xin	-9.33633
▁đới	-9.33679
▁tọa	-9.33686
le	-9.33782
▁trích	-9.33951
▁tào	-9.34272
▁súng	-9.34478
▁chạm	-9.34647
▁cửu	-9.34933
▁ngàn	-9.34936
▁tệ	-9.35013
▁22	-9.35343
br	-9.3543
▁hiển	-9.3562
▁mai	-9.35709
▁khô	-9.35804
▁rã	-9.35968
▁dưỡng	-9.36012
▁nghe	-9.36032
▁1975	-9.36265
▁rơi	-9.36415
đại	-9.36579
▁nhớ	-9.36771
▁chinh	-9.36836
▁thịnh	-9.36875
▁va	-9.36924
▁mẽ	-9.37001
▁đáp	-9.37094
tr	-9.37158
▁dày	-9.37201
▁'	-9.37236
▁dị	-9.37346
▁bão	-9.37403
▁chuyến	-9.37403
▁tỏ	-9.37517
▁rna	-9.37699
▁l	-9.3771
in	-9.37719
▁kẽm	-9.37826
▁nghìn	-9.38205
▁rượu	-9.38417
▁chứ	-9.3847
▁chấm	-9.38601
▁bạch	-9.38686
▁thang	-9.38762
▁nâng	-9.38803
▁phiếu	-9.39006
▁đốt	-9.39022
▁tàng	-9.39547
▁khoản	-9.39565
▁2019	-9.39594
▁nô	-9.4002
▁tờ	-9.4004
▁tết	-9.40096
các	-9.40214
on	-9.40362
▁thám	-9.40434
▁tường	-9.40436
▁2010	-9.40458
▁cà	-9.40512
▁tận	-9.4064
▁internet	-9.40668
▁lang	-9.40782
▁thù	-9.40931
▁giàu	-9.41063
▁mường	-9.41094
▁the	-9.41207
na	-9.41228
▁cứng	-9.4145
▁bù	-9.41551
▁khổ	-9.41595
▁50	-9.41616
▁mực	-9.41677
▁thỏa	-9.4168
không	-9.41682
ra	-9.41726
▁lối	-9.41895
▁ống	-9.41916
▁hè	-9.42024
▁gấp	-9.42109
▁hydro	-9.4213
▁lam	-9.42237
▁thưởng	-9.42511
▁nguyện	-9.42527
▁john	-9.42536
▁phan	-9.42554
▁kiều	-9.42723
▁lành	-9.42825
▁nghĩ	-9.42889
▁tròn	-9.43123
▁sụp	-9.43354
▁khoáng	-9.43422
▁j	-9.43583
▁cựu	-9.43595
▁dư	-9.43764
▁lạt	-9.44024
▁21	-9.44039
▁tĩnh	-9.44217
(	-9.44374
▁muối	-9.44435
▁lưới	-9.44633
▁cương	-9.44853
li	-9.44855
▁sóc	-9.44872
▁khúc	-9.45937
▁w	-9.46019
▁chặn	-9.46121
8	-9.4613
▁kitô	-9.4616
▁gắng	-9.46183
▁uống	-9.46586
▁chắc	-9.46589
▁mê	-9.46752
▁luyện	-9.46799
nh	-9.46847
▁ven	-9.4694
▁nghèo	-9.4702
6	-9.47202
▁u	-9.47222
▁sánh	-9.47247
▁lệch	-9.47531
▁vỏ	-9.47679
▁kiên	-9.47691
▁hiếm	-9.47693
▁vành	-9.47879
▁&	-9.47924
▁tước	-9.48347
▁đua	-9.48353
▁thử	-9.48568
như	-9.48593
▁tai	-9.48697
▁phước	-9.48812
▁cúng	-9.48934
de	-9.4922
▁bò	-9.49265
▁kém	-9.49463
▁27	-9.49467
▁lựa	-9.49471
▁thuần	-9.497
▁chiêm	-9.4993
▁dàng	-9.49939
▁khóa	-9.50047
se	-9.50367
▁dứt	-9.50367
▁ngưỡng	-9.50594
0	-9.50701
▁lúa	-9.50839
zh	-9.51083
▁linux	-9.51125
▁hòn	-9.51271
▁quark	-9.51541
▁men	-9.51606
▁al	-9.51741
▁uy	-9.51792
▁chậm	-9.51807
▁lỗi	-9.51814
▁hoang	-9.52174
▁iraq	-9.52447
▁rắn	-9.52451
▁23	-9.52647
▁chặt	-9.52663
▁phe	-9.5291
▁tuân	-9.53131
▁vườn	-9.53167
năm	-9.53215
▁kì	-9.53529
▁phạt	-9.53834
▁mộ	-9.54063
▁newton	-9.54309
▁tám	-9.54615
▁2006	-9.5474
▁khiển	-9.54776
▁2009	-9.54785
▁ái	-9.54953
▁dậy	-9.55252
▁rập	-9.55252
▁hẹp	-9.55253
▁kênh	-9.55286
re	-9.5532
▁huệ	-9.55738
▁photon	-9.55758
9	-9.56023
7	-9.56026
▁mãn	-9.56184
▁nghỉ	-9.5621
▁tấm	-9.5621
▁buổi	-9.5621
j	-9.56405
ne	-9.56435
da	-9.56572
▁quê	-9.5666
▁cột	-9.56725
▁xỉ	-9.56864
▁đậu	-9.56953
▁ga	-9.57087
▁ả	-9.57204
▁đàm	-9.57216
▁gdp	-9.57219
▁cãi	-9.57421
do	-9.57474
);	-9.57574
▁tem	-9.57626
ấp	-9.57844
▁2000	-9.57865
▁trại	-9.57909
▁bến	-9.5828
▁si	-9.58493
▁xích	-9.58682
▁cụm	-9.58693
▁ngộ	-9.58851
▁ẩn	-9.58893
▁đồi	-9.59111
▁nhắc	-9.59143
▁nhẹ	-9.59316
▁carbon	-9.59423
▁vững	-9.59638
w	-9.59679
▁điền	-9.59893
▁tuyết	-9.59907
▁lăng	-9.60154
▁sợi	-9.60175
▁1990	-9.60239
▁windows	-9.60411
▁đồn	-9.61294
▁đuổi	-9.61396
te	-9.6165
nay	-9.61904
▁ranh	-9.62021
▁26	-9.62293
▁khỏe	-9.62415
▁mệnh	-9.62422
▁nhị	-9.62604
ca	-9.62624
▁+	-9.62807
▁chữa	-9.63
▁trịnh	-9.63096
▁dã	-9.63124
▁cháy	-9.63188
▁vạch	-9.63196
▁tạm	-9.63518
việt	-9.63604
▁kêu	-9.63752
ví	-9.63908
▁thầy	-9.63992
▁2012	-9.64233
▁lẻ	-9.64452
trong	-9.6456
▁28	-9.64865
▁đỡ	-9.6501
▁hang	-9.65029
▁40	-9.65031
▁tá	-9.65067
▁lạm	-9.65072
el	-9.65084
▁ngầm	-9.65273
▁mexico	-9.65287
▁vây	-9.65287
có	-9.65748
▁huyền	-9.65834
19	-9.65974
ba	-9.66041
▁luân	-9.66067
▁tiềm	-9.66067
is	-9.66205
▁duyên	-9.66367
▁ruộng	-9.66599
▁đĩa	-9.66615
con	-9.66694
▁che	-9.6677
▁lưỡng	-9.66884
▁gene	-9.67049
▁ngại	-9.67135
▁vẽ	-9.67136
▁2004	-9.67262
10	-9.67366
▁lọc	-9.67417
)"	-9.6759
▁đạn	-9.67675
▁kỉ	-9.67677
▁trạm	-9.67687
xem	-9.67959
▁chối	-9.68215
▁euro	-9.68263
2,	-9.68313
▁2007	-9.6833
man	-9.68387
es	-9.68403
▁chánh	-9.68491
▁texas	-9.68759
▁29	-9.68894
▁trống	-9.69048
▁canh	-9.69129
▁cỏ	-9.69268
ro	-9.69306
▁bỉ	-9.69318
▁khmer	-9.69415
▁tổn	-9.69432
▁0	-9.69454
▁berlin	-9.69685
▁bách	-9.69988
▁o	-9.70173
▁than	-9.70242
ri	-9.70319
the	-9.70338
▁bè	-9.70379
▁cơn	-9.70531
▁đ	-9.70636
▁francisco	-9.70688
▁khuyến	-9.707
▁california	-9.70711
▁gấu	-9.70722
▁lân	-9.70966
co	-9.71089
▁60	-9.71441
▁nêu	-9.71807
to	-9.72049
▁sỹ	-9.72087
▁bom	-9.72137
ga	-9.72256
▁nét	-9.72374
—	-9.72883
▁bạo	-9.7294
]	-9.73163
từ	-9.73214
▁lồ	-9.73456
▁vỡ	-9.73509
▁cỡ	-9.73511
▁(18	-9.7353
▁afghanistan	-9.73541
▁hoảng	-9.73571
▁(19	-9.73695
-19	-9.73741
▁java	-9.73844
▁lõi	-9.74082
▁mèo	-9.74122
▁mắc	-9.7437
▁trầm	-9.74372
▁món	-9.74375
▁thiệp	-9.74376
▁proton	-9.74422
ja	-9.74497
▁kịch	-9.74953
▁lí	-9.75517
me	-9.75518
▁thiệt	-9.75531
um	-9.75536
▁hào	-9.75673
▁dò	-9.75818
▁nhuận	-9.75832
▁real	-9.76183
▁duyệt	-9.76411
ic	-9.76681
▁phỏng	-9.76706
▁ngừng	-9.77027
▁trộn	-9.77312
▁gạo	-9.77312
▁kali	-9.77643
▁nạp	-9.77896
▁xứng	-9.78066
▁đinh	-9.78326
▁wikipedia	-9.78369
tức	-9.78501
▁lông	-9.78532
▁ja	-9.78538
▁2013	-9.78592
▁bayern	-9.78809
▁ngờ	-9.79098
▁1970	-9.79211
▁bát	-9.79246
▁dọa	-9.794
▁chổi	-9.79401
▁giây	-9.79434
no	-9.7951
▁grdp	-9.79545
▁lũng	-9.79545
▁mong	-9.79632
▁hảo	-9.79706
30	-9.80104
▁lỵ	-9.80319
▁cản	-9.80335
▁ngựa	-9.80346
▁lô	-9.8037
▁gián	-9.80531
▁xá	-9.80704
▁bột	-9.81034
lo	-9.81506
▁vết	-9.81571
é	-9.81658
▁nhấn	-9.81859
▁kiệt	-9.8186
▁sợ	-9.82134
▁vẻ	-9.82172
▁1946	-9.82367
▁đón	-9.82647
va	-9.82659
▁200	-9.82685
▁lộc	-9.82726
▁(1	-9.82758
▁bấy	-9.82801
▁đốm	-9.82803
▁non	-9.82817
▁cong	-9.82892
▁phút	-9.83344
▁1954	-9.83748
▁kho	-9.83864
▁ấp	-9.83912
▁thải	-9.84091
hoặc	-9.84397
▁niềm	-9.84398
▁khuôn	-9.84692
▁su	-9.84911
▁st	-9.85013
▁lui	-9.85016
▁thuẫn	-9.85018
▁đực	-9.85019
▁tre	-9.85141
▁cốt	-9.8526
▁2020	-9.85332
▁1980	-9.85335
▁2015	-9.85372
▁đan	-9.85426
▁bền	-9.85443
▁khích	-9.85531
▁[	-9.8555
▁ảo	-9.86072
▁bối	-9.86331
▁2016	-9.86379
ed	-9.86545
▁cướp	-9.86638
▁loan	-9.86758
▁côn	-9.86816
▁may	-9.86934
▁sẻ	-9.87622
▁dược	-9.87628
▁lithi	-9.87654
▁màn	-9.87716
nam	-9.87923
▁mũi	-9.87978
▁google	-9.87986
▁1950	-9.88012
▁ám	-9.88296
▁đỗ	-9.88305
ngày	-9.88326
▁hô	-9.8834
▁31	-9.88401
▁kèm	-9.88623
▁cháu	-9.88623
▁lão	-9.8867
▁khôi	-9.88676
▁2014	-9.88716
▁zhukov	-9.88947
▁nôm	-9.89135
▁lường	-9.89282
▁ưa	-9.89288
▁kông	-9.8965
▁chắn	-9.90291
▁madrid	-9.90291
▁hi	-9.90452
▁điệu	-9.90634
=3	-9.9067
▁thai	-9.90695
ar	-9.90706
▁gói	-9.90996
▁răng	-9.91009
▁dải	-9.91312
▁cậu	-9.91672
trung	-9.91725
▁ác	-9.91763
▁bé	-9.91791
▁nai	-9.91973
▁huấn	-9.91998
▁thảm	-9.92064
▁đợt	-9.92343
▁lây	-9.92351
▁lặp	-9.92689
▁rối	-9.92689
▁diêm	-9.92699
▁bái	-9.92764
▁gà	-9.92778
▁/	-9.92929
▁huỳnh	-9.93048
▁man	-9.93151
▁phu	-9.93254
▁2003	-9.93389
▁dịp	-9.93424
▁sấu	-9.93734
▁thoái	-9.93734
▁tháo	-9.93734
▁tịnh	-9.93761
▁stalin	-9.94085
▁già	-9.94516
▁khứ	-9.95148
▁mãi	-9.952
▁base	-9.95481
▁quen	-9.95519
▁mâu	-9.9552
▁nồng	-9.95522
▁bi	-9.95739
▁đúc	-9.95859
đ	-9.95964
▁xx	-9.9607
▁dõi	-9.96216
▁and	-9.96348
▁cm	-9.96437
▁cán	-9.96452
▁mau	-9.96459
cp	-9.96485
▁le	-9.96497
▁mậu	-9.96576
▁phẫu	-9.96576
▁mời	-9.96602
▁nhì	-9.96867
▁bội	-9.97229
▁iii	-9.97587
▁tặng	-9.97663
▁2018	-9.97674
20	-9.9774
ây	-9.97944
▁tát	-9.98172
▁nở	-9.98403
▁1999	-9.98405
▁chín	-9.98432
▁mi	-9.98623
2.	-9.98741
▁chụp	-9.9877
và	-9.98998
▁kg	-9.99055
▁ho	-9.99387
amp	-9.9963
▁mm	-9.99675
ya	-9.99697
▁ôn	-9.99819
su	-9.99855
▁york	-9.99873
▁vải	-9.99878
▁trứng	-9.99965
▁khung	-10.0005
▁suối	-10.0025
▁séc	-10.0025
▁“	-10.0033
khoảng	-10.0038
▁xóa	-10.0062
▁sàng	-10.0064
▁ép	-10.0067
▁trạch	-10.01
▁đói	-10.0102
▁mảng	-10.0105
▁bia	-10.0112
▁william	-10.0118
sau	-10.0132
▁đoạt	-10.0138
▁hạnh	-10.0138
những	-10.0151
ha	-10.0157
▁sót	-10.0175
▁chẽ	-10.0175
▁đôn	-10.0178
▁bồi	-10.0191
▁500	-10.0202
▁ngọn	-10.0203
▁calvin	-10.0213
▁neutron	-10.0213
▁dường	-10.0213
or	-10.0215
▁li	-10.0221
▁vui	-10.0259
▁thung	-10.0263
▁ân	-10.0263
▁bụi	-10.029
▁huyết	-10.0292
ti	-10.031
▁dâng	-10.0315
▁giêsu	-10.0331
▁mảnh	-10.0331
os	-10.0336
▁đau	-10.0348
th	-10.0352
▁george	-10.0364
▁hẳn	-10.0367
▁lật	-10.0367
▁ngài	-10.0368
▁giam	-10.0398
▁thấu	-10.0406
▁1956	-10.0406
▁hồn	-10.0408
▁thua	-10.0424
ia	-10.0426
so	-10.0434
▁cự	-10.0455
▁ro	-10.0455
▁rạch	-10.0456
▁nghịch	-10.0457
▁hoài	-10.0496
▁mòn	-10.0511
▁lầm	-10.0523
▁ấm	-10.0523
▁nhiễu	-10.0523
▁kiềm	-10.0562
▁po	-10.057
tương	-10.062
40	-10.0632
▁bo	-10.0641
▁nhượng	-10.0641
▁chấn	-10.0641
▁chục	-10.0642
▁litva	-10.0643
▁thục	-10.0664
15	-10.0674
▁1955	-10.0681
▁james	-10.0681
▁căng	-10.0691
ji	-10.0691
▁vang	-10.0708
ni	-10.0718
▁chư	-10.073
▁dời	-10.0761
▁80	-10.0789
▁voi	-10.0796
▁trốn	-10.0799
▁điệp	-10.0803
▁đèn	-10.0814
▁300	-10.0824
▁chở	-10.0842
▁nhôm	-10.0846
▁2001	-10.0852
50	-10.0862
▁đắc	-10.0883
▁phụng	-10.0884
ton	-10.0921
▁dặm	-10.0924
▁đẻ	-10.0924
▁mát	-10.0925
▁xong	-10.0929
▁heli	-10.0971
còn	-10.1027
▁đáo	-10.1035
14	-10.1037
▁quét	-10.1047
▁ngã	-10.1048
▁laser	-10.1093
▁lư	-10.1098
▁củng	-10.1106
▁2011,	-10.1106
▁hiv	-10.1126
▁xấu	-10.1172
▁tuệ	-10.1177
▁1991	-10.118
ka	-10.1204
▁lạ	-10.123
11	-10.1235
▁florida	-10.1256
▁1940	-10.1296
▁nhĩ	-10.1299
▁am	-10.1321
ine	-10.1332
▁no	-10.1334
▁hứng	-10.1341
▁tật	-10.1341
▁hề	-10.1342
▁xi	-10.1365
theo	-10.1373
▁quẻ	-10.1384
▁chiêu	-10.1384
po	-10.1395
▁ka	-10.1396
▁robert	-10.1402
▁ngự	-10.1408
định	-10.1408
▁genève	-10.1427
▁ghép	-10.1427
▁mái	-10.1428
▁hawking	-10.1429
▁hãng	-10.1429
công	-10.143
▁tản	-10.1447
▁sương	-10.1471
▁lợn	-10.1472
▁natri	-10.1473
chữ	-10.1495
▁mươi	-10.1513
▁charles	-10.1516
|	-10.1549
▁nghiêng	-10.1553
▁sáo	-10.1558
ly	-10.1561
▁spin	-10.1563
27	-10.1574
▁ni	-10.1594
hỉnh	-10.1612
ā	-10.1628
▁hố	-10.1635
▁giáng	-10.1644
▁đuôi	-10.1646
si	-10.1647
”	-10.1672
▁trật	-10.1688
km	-10.1693
as	-10.1697
go	-10.1698
▁nhi	-10.17
▁moskva	-10.1733
▁đậm	-10.1733
▁ngồi	-10.1733
▁xoắn	-10.1734
▁1976	-10.1754
00	-10.1776
▁philippines	-10.1778
▁pakistan	-10.1779
▁phổi	-10.1783
▁thả	-10.1797
liên	-10.1802
▁hài	-10.1804
▁""	-10.1813
▁ổ	-10.1815
▁dạ	-10.1816
▁kín	-10.1821
▁estonia	-10.1823
+	-10.1828
▁ngụy	-10.1829
at	-10.1835
ki	-10.1851
68	-10.186
▁hãn	-10.1861
▁2017	-10.1891
▁kép	-10.1912
▁toà	-10.1913
▁xix	-10.1913
▁túy	-10.1915
▁cống	-10.1919
▁z	-10.1927
▁hitler	-10.1957
▁vượng	-10.1957
▁cuba	-10.1957
đà	-10.1966
được	-10.1986
▁dệt	-10.2002
▁nâu	-10.2003
▁hiếu	-10.2005
▁khía	-10.2005
▁1960,	-10.201
gi	-10.204
▁giãn	-10.205
▁bush	-10.2056
pa	-10.2058
▁xen	-10.2096
▁2002	-10.2101
45	-10.2103
son	-10.2116
▁paul	-10.2119
thời	-10.2124
st	-10.2131
▁cồn	-10.214
▁sạch	-10.214
chi	-10.215
▁ném	-10.2187
▁hôm	-10.2195
37	-10.2206
▁jean	-10.2236
▁nano	-10.2249
id	-10.2252
▁rau	-10.227
▁tim	-10.2275
▁não	-10.228
▁sữa	-10.2282
▁túc	-10.2291
▁2005,	-10.2321
▁ngẫu	-10.2326
▁1998	-10.2328
▁mo	-10.234
mo	-10.2355
tháng	-10.2359
▁cậy	-10.2374
▁gọn	-10.2374
33	-10.2387
ở	-10.2388
!	-10.2415
▁tha	-10.2419
▁luther	-10.242
▁diệu	-10.2421
22	-10.2422
▁khiết	-10.2427
ge	-10.2432
▁chút	-10.2442
▁iv	-10.245
▁cú	-10.2458
▁dĩ	-10.2471
▁louis	-10.2475
▁lũy	-10.2475
ru	-10.2492
13	-10.2496
q	-10.2504
▁dừng	-10.2517
▁cất	-10.2518
▁lôi	-10.2522
85	-10.2528
35	-10.2562
▁nấm	-10.2564
▁sổ	-10.2565
▁(17	-10.2595
70	-10.2596
▁ruột	-10.2613
▁hoại	-10.2614
ul	-10.2616
▁axit	-10.2617
bo	-10.262
▁thô	-10.2624
tu	-10.2643
▁chăn	-10.2659
▁chùm	-10.2662
▁cối	-10.2693
gen	-10.27
▁ngập	-10.271
▁feynman	-10.2714
▁đê	-10.2716
▁oxide	-10.2717
▁ru	-10.272
▁lùn	-10.2758
▁1965	-10.2761
▁đựng	-10.2808
▁gương	-10.2809
▁1944	-10.2809
▁điêu	-10.281
▁kon	-10.2818
";	-10.2819
tỉnh	-10.2846
▁nhầm	-10.2858
▁nếp	-10.2858
▁ngọt	-10.2859
▁1968	-10.286
▁bọc	-10.2863
▁pi	-10.2878
land	-10.2893
▁mừng	-10.2908
▁đàng	-10.2909
▁mấy	-10.2909
▁đầm	-10.2909
▁đáy	-10.2911
24	-10.2918
°	-10.2926
▁2008,	-10.294
▁ghế	-10.2958
▁đạp	-10.2958
▁70	-10.2995
▁đứt	-10.3008
▁triệt	-10.3008
▁1964	-10.3009
▁khê	-10.3009
▁miệng	-10.301
▁ti	-10.301
▁mồ	-10.3053
▁nhơn	-10.3059
▁kỵ	-10.3061
▁1960	-10.3064
▁hư	-10.3078
bao	-10.3105
▁mờ	-10.3106
hà	-10.3108
▁gợi	-10.3109
▁lữ	-10.3112
60	-10.3119
86	-10.3134
12	-10.3135
66	-10.3143
dice	-10.3147
sự	-10.315
pi	-10.3155
▁mặn	-10.316
▁thâm	-10.316
▁marx	-10.3161
▁khuynh	-10.3161
▁gnu	-10.3165
▁world	-10.3173
▁gò	-10.3174
34	-10.3181
▁ngưng	-10.3184
▁hộp	-10.3187
▁sàn	-10.3206
▁ireland	-10.3211
▁thận	-10.3211
▁be	-10.3212
28	-10.3213
98	-10.3218
▁thách	-10.3224
et	-10.3254
▁van	-10.326
▁vẹn	-10.3263
▁thôi	-10.3267
80	-10.3269
▁nề	-10.3308
▁cạn	-10.3312
▁nợ	-10.3315
▁soái	-10.3316
▁tang	-10.3336
23	-10.3362
▁trãi	-10.3367
▁vectơ	-10.3369
▁méxico	-10.337
21	-10.3371
be	-10.3375
ing	-10.3393
▁lò	-10.3394
26	-10.3409
▁1995	-10.341
thành	-10.3412
▁mỏng	-10.3416
▁thợ	-10.3422
▁gioan	-10.3424
▁tày	-10.3429
▁kde	-10.3446
▁chiết	-10.3473
▁béo	-10.3477
▁1941	-10.3498
▁sưu	-10.3505
▁thổi	-10.3524
▁indonesia	-10.3525
▁chốt	-10.3525
▁trâu	-10.3525
▁400	-10.3562
▁trông	-10.3578
▁kĩ	-10.3579
▁1963	-10.3579
▁chèo	-10.358
▁rồng	-10.3583
mông	-10.3586
chủ	-10.3593
▁tùng	-10.3617
▁au	-10.3621
▁tốn	-10.3626
▁cưới	-10.3632
▁von	-10.3637
▁enzyme	-10.3643
ke	-10.3652
iêm	-10.3685
▁bưu	-10.3686
▁1994	-10.3687
▁mù	-10.3695
99	-10.3715
▁rôma	-10.3733
▁19,	-10.3736
▁bach	-10.3737
▁nấu	-10.3739
▁rẽ	-10.3739
▁euler	-10.3739
▁20,	-10.3767
▁tựu	-10.3769
▁4,	-10.3779
▁dàn	-10.379
▁container	-10.3794
▁nhảy	-10.3794
▁xướng	-10.3794
▁dũng	-10.3795
▁1996	-10.3795
▁nasa	-10.3798
âu	-10.3804
46	-10.3804
▁giê	-10.3823
38	-10.3832
nhà	-10.3835
▁đập	-10.3848
▁thomas	-10.385
▁1961	-10.385
▁friedrich	-10.3851
▁chó	-10.3852
78	-10.3857
▁lãng	-10.3865
32	-10.3868
▁0,	-10.3883
▁chưng	-10.389
64	-10.3897
tam	-10.3902
▁münchen	-10.3904
▁sôi	-10.3905
▁1939	-10.3905
▁tiễn	-10.3905
ve	-10.3908
▁treo	-10.3909
ard	-10.3921
au	-10.3925
ut	-10.3934
29	-10.3948
▁ontario	-10.3958
▁măng	-10.3959
▁đâu	-10.3959
▁duệ	-10.396
▁chừng	-10.396
em	-10.3963
▁sùng	-10.3963
▁mao	-10.3988
▁frankfurt	-10.3992
men	-10.4003
▁đợi	-10.4014
▁mượn	-10.4017
▁tráng	-10.4018
75	-10.402
▁cài	-10.4025
▁ốc	-10.4033
▁tà	-10.4044
▁chôn	-10.4047
▁lạng	-10.406
thường	-10.4064
▁khử	-10.4075
▁35	-10.4077
cho	-10.4102
▁khải	-10.4116
▁lắp	-10.4126
▁trắc	-10.4126
▁1986	-10.4128
18	-10.4129
▁tràn	-10.4144
ter	-10.4145
95	-10.4162
76	-10.4181
▁giỏi	-10.4183
▁hưu	-10.4185
▁trinh	-10.4186
▁martin	-10.4189
▁1947	-10.4203
▁1989	-10.4231
▁leo	-10.4234
▁tụng	-10.4249
71	-10.4252
ss	-10.4253
bi	-10.4273
▁lưng	-10.4281
-1	-10.4287
un	-10.4296
▁viêm	-10.4299
▁chòm	-10.4304
mi	-10.4321
_1	-10.4328
ko	-10.4331
▁nương	-10.4354
▁ngãi	-10.4359
▁eo	-10.436
▁chì	-10.4373
▁tơ	-10.4374
▁lái	-10.4374
=1	-10.439
▁45	-10.4402
▁ribosome	-10.4412
▁nàng	-10.4421
54	-10.4463
▁rệt	-10.447
▁phaolô	-10.447
▁khuyên	-10.4472
tây	-10.4473
▁32	-10.4476
▁cổng	-10.4514
▁ngủ	-10.4525
16	-10.4527
▁saint	-10.453
▁thuê	-10.4534
▁nato	-10.4536
▁he	-10.4549
▁bu	-10.4549
49	-10.4559
69	-10.4583
▁cõi	-10.4587
▁bớt	-10.4588
▁bút	-10.459
▁hạch	-10.4606
ông	-10.4617
▁(2	-10.4622
55	-10.4639
ry	-10.4639
ce	-10.4642
▁xoay	-10.4648
▁móng	-10.4654
▁gan	-10.4654
der	-10.4665
▁vú	-10.4669
67	-10.4691
41	-10.4697
▁fluor	-10.4698
viết	-10.4706
▁alaska	-10.4706
▁mọc	-10.4706
▁rải	-10.4706
▁thép	-10.4706
▁kennedy	-10.4707
ur	-10.4716
▁nỗi	-10.472
▁1973	-10.4728
84	-10.473
36	-10.4738
ô	-10.4763
thiên	-10.4766
▁tum	-10.4808
▁dẹp	-10.4826
▁mạo	-10.4829
48	-10.4832
▁nùng	-10.4832
▁trừng	-10.4842
▁thoa	-10.4851
thuộc	-10.4886
▁hứa	-10.4887
▁nốt	-10.4887
▁gãy	-10.4889
▁xiêm	-10.4894
▁1.000	-10.4896
▁1920	-10.4899
▁king	-10.4929
▁láng	-10.494
▁khe	-10.4945
ắk	-10.4947
tên	-10.4948
▁washington	-10.4949
▁mùi	-10.4952
65	-10.4956
▁xít	-10.4964
ion	-10.4979
ãy	-10.4985
▁me	-10.4987
▁rác	-10.5008
ad	-10.501
▁2021	-10.5013
▁150	-10.5046
):	-10.5054
▁2005	-10.5056
▁ph	-10.5071
▁clinton	-10.5071
▁khẩn	-10.5071
▁ngợi	-10.5071
▁nhạy	-10.5071
▁dốc	-10.5071
▁ki	-10.5082
▁xám	-10.5084
17	-10.5121
▁albert	-10.5129
▁khấu	-10.5133
▁richard	-10.5133
▁dáng	-10.5134
▁súc	-10.5135
▁cẩm	-10.5138
cha	-10.515
▁planck	-10.5195
▁sét	-10.5196
ts	-10.52
ho	-10.5202
▁re	-10.5219
▁lũ	-10.5223
▁edward	-10.5251
▁chênh	-10.5258
▁bọn	-10.5259
▁chờ	-10.5259
▁mỡ	-10.5264
▁1992	-10.5281
25	-10.5282
▁ngư	-10.5313
▁hầm	-10.5322
▁slovakia	-10.5322
▁chéo	-10.5322
▁nảy	-10.5322
▁tuấn	-10.5323
▁iran	-10.5328
▁hối	-10.5329
▁—	-10.5333
ak	-10.5335
56	-10.5353
nd	-10.5383
▁luyến	-10.5386
▁lấn	-10.5386
▁kịp	-10.5386
▁1962	-10.5387
44	-10.5389
▁video	-10.5393
1,	-10.5399
▁bàng	-10.5399
it	-10.54
▁mơ	-10.5417
ếch	-10.5436
▁1949	-10.5436
39	-10.5444
▁nhạt	-10.545
▁múa	-10.5452
▁se	-10.5456
93	-10.5458
du	-10.5467
▁2008	-10.548
▁ngụ	-10.5494
96	-10.5498
▁tú	-10.5503
den	-10.551
▁boson	-10.5514
▁nhan	-10.5518
▁10.000	-10.5518
▁phế	-10.5523
ê	-10.5525
59	-10.5529
▁1972	-10.5545
▁1000	-10.5566
63	-10.5572
▁ch	-10.5576
▁mầm	-10.5579
▁dính	-10.5579
72	-10.5599
;/	-10.5628
▁1979	-10.5632
▁maria	-10.5642
hán	-10.5644
▁úy	-10.5644
nguyên	-10.5648
sinh	-10.5656
87	-10.5659
á	-10.5664
43	-10.5671
▁sạn	-10.5679
▁1959	-10.5681
▁(16	-10.5692
▁vũng	-10.5699
▁giận	-10.571
▁gũi	-10.571
▁latvia	-10.571
▁dâu	-10.5712
▁cacbon	-10.5718
▁đoan	-10.572
▁tựa	-10.5768
▁gốm	-10.5776
▁lắng	-10.5776
▁nộp	-10.5777
với	-10.5781
les	-10.5786
▁lenin	-10.5792
ph	-10.5797
07	-10.5803
kh	-10.5804
94	-10.5813
chem	-10.5838
▁hiền	-10.5843
▁1978	-10.5845
▁xăng	-10.5847
bắc	-10.5848
chính	-10.5848
tôi	-10.5852
▁50%	-10.5853
đa	-10.5856
▁2011	-10.5862
he	-10.5906
▁cắm	-10.591
▁đứa	-10.5914
▁hungary	-10.5914
đặc	-10.5915
3,	-10.5923
ie	-10.5933
pe	-10.5942
ff	-10.5945
▁el	-10.5961
▁david	-10.5978
▁malaysia	-10.5978
▁đằng	-10.5978
▁tím	-10.5978
▁1969	-10.5979
▁unesco	-10.598
hi	-10.5984
▁90	-10.5999
▁bành	-10.6017
▁cẩn	-10.6046
▁ngòi	-10.6046
▁pythagoras	-10.6046
địa	-10.6052
▁tỏa	-10.606
79	-10.609
▁đấy	-10.6119
đức	-10.6121
văn	-10.6134
88	-10.615
▁gi	-10.6155
▁cốc	-10.6156
▁pe	-10.6161
▁1958	-10.6169
chỉ	-10.6178
▁muộn	-10.6183
▁quặng	-10.6183
▁khương	-10.6184
▁1933	-10.6185
▁khơi	-10.6185
▁2022	-10.6189
▁thoảng	-10.6195
wa	-10.6205
ian	-10.6205
tan	-10.6208
ỵ	-10.6226
ir	-10.6231
ol	-10.6241
▁mạn	-10.6253
▁1943	-10.6254
▁tv	-10.6257
▁nguyệt	-10.6258
chiến	-10.6266
90	-10.6304
▁tảo	-10.6304
ber	-10.6304
▁chị	-10.6322
▁đắp	-10.6322
▁ức	-10.6322
▁tiệp	-10.6322
▁miếu	-10.6323
▁phấn	-10.6323
▁vở	-10.6325
▁(3	-10.633
▁1957	-10.633
thế	-10.6331
▁karl	-10.6341
▁vay	-10.6356
▁tung	-10.6357
▁harry	-10.6363
fi	-10.6388
▁khoan	-10.6393
▁móc	-10.6394
▁joseph	-10.6395
mỹ	-10.6402
đồng	-10.641
92	-10.6413
▁10%	-10.6428
08	-10.6432
▁gìn	-10.6445
▁hung	-10.6445
▁yersin	-10.6451
ism	-10.6457
▁tị	-10.6462
▁rễ	-10.6464
▁dioxide	-10.6465
▁vancouver	-10.6465
▁đạc	-10.6465
_	-10.6466
01	-10.6467
81	-10.6476
hoa	-10.649
▁cáp	-10.6505
▁lu	-10.6507
▁"(	-10.651
mu	-10.6515
▁euclid	-10.6535
▁giềng	-10.6535
▁tóm	-10.6535
▁tẩy	-10.6535
▁tóc	-10.6536
▁đèo	-10.6536
▁lấp	-10.6538
▁ngạn	-10.6541
▁80%	-10.6547
▁sườn	-10.655
▁mãnh	-10.6564
57	-10.6577
...)	-10.6581
sh	-10.6586
▁1948	-10.6603
▁châm	-10.6607
▁frank	-10.6613
▁bông	-10.662
anh	-10.6658
ct	-10.6658
▁33	-10.666
ot	-10.6681
▁100.000	-10.6682
▁34	-10.6698
▁củ	-10.6716
▁thơm	-10.6749
▁nhuộm	-10.6753
53	-10.6753
▁nắng	-10.6753
▁1953	-10.6754
▁nhũng	-10.6764
▁bùi	-10.6765
▁đấ	-10.6779
cơ	-10.6793
▁nén	-10.6806
▁nhãn	-10.6819
nq	-10.6822
▁microsoft	-10.6826
▁nhiêu	-10.6826
▁castro	-10.6827
▁liêm	-10.6827
▁váy	-10.6828
▁giọng	-10.683
▁nucleotide	-10.6834
▁latin	-10.6835
quốc	-10.6838
ers	-10.6864
▁chuột	-10.6901
▁lepton	-10.6906
97	-10.6912
▁54	-10.6921
âm	-10.6927
09	-10.6937
sen	-10.6947
là	-10.6971
▁làn	-10.6975
▁xưởng	-10.6975
▁đặng	-10.6976
▁phạn	-10.6979
▁chào	-10.6982
▁1967	-10.6982
73	-10.6992
▁chua	-10.6995
ana	-10.6996
nđ	-10.703
▁vu	-10.7043
89	-10.7044
▁chẩn	-10.705
▁giường	-10.705
▁amino	-10.7052
▁khuất	-10.7057
▁nung	-10.7062
lu	-10.7067
▁36	-10.7071
▁miến	-10.7071
ker	-10.71
ver	-10.7106
▁vôi	-10.7114
tic	-10.712
▁nitơ	-10.7126
▁luồng	-10.7128
▁miên	-10.713
▁ngục	-10.7149
▁tôm	-10.7172
’	-10.7202
▁hụt	-10.7202
▁kilômét	-10.7202
▁neutrino	-10.7202
▁ft	-10.7206
▁ko	-10.7214
thái	-10.7217
màu	-10.7218
1%	-10.7233
▁37	-10.7238
42	-10.725
▁eu	-10.7254
▁gai	-10.7263
huyện	-10.7274
▁fa	-10.7279
▁quật	-10.7279
▁thạnh	-10.7279
▁maxwell	-10.7279
▁nhựa	-10.7279
▁khuyết	-10.728
▁cưỡng	-10.7282
▁tạ	-10.7292
ii	-10.7293
xã	-10.7295
▁ne	-10.7306
74	-10.7316
05	-10.7342
▁trôi	-10.7357
▁rửa	-10.7358
bu	-10.736
ation	-10.736
▁keo	-10.7361
nếu	-10.7373
47	-10.7375
▁bó	-10.7378
77	-10.7399
▁uỷ	-10.7435
▁giỗ	-10.7435
▁niết	-10.7435
▁ngừa	-10.7436
▁1942	-10.7436
che	-10.7438
▁1900	-10.7457
▁bit	-10.748
▁120	-10.7485
▁phun	-10.7498
▁hỏng	-10.7513
▁tươi	-10.7513
▁trướng	-10.7513
▁(10	-10.7514
▁gõ	-10.7514
▁1938	-10.7515
▁turing	-10.7519
dân	-10.7533
▁mozart	-10.7542
▁ar	-10.7552
gọi	-10.7569
3.	-10.7585
▁xvi	-10.7588
▁babylon	-10.7593
▁chuộng	-10.7593
▁dội	-10.7593
▁scotland	-10.7593
▁henry	-10.7593
▁liễu	-10.7593
-12	-10.7593
▁rice	-10.7594
▁diên	-10.7594
▁49	-10.7604
▁mạ	-10.7614
▁út	-10.7615
▁1,5	-10.7615
▁hoan	-10.7625
▁600	-10.763
-4	-10.7632
mm	-10.7636
▁gỡ	-10.7673
▁phồn	-10.7674
▁rào	-10.7674
▁nút	-10.7674
▁buồn	-10.7674
▁gạch	-10.7675
▁1951	-10.7675
▁pierre	-10.7678
▁khâm	-10.7681
ơ	-10.7694
oh	-10.7698
▁iso	-10.773
ster	-10.773
▁duẩn	-10.7753
▁lùi	-10.7754
kinh	-10.7776
ban	-10.7781
ger	-10.7816
▁pin	-10.7816
ner	-10.7828
82	-10.7829
▁ngạc	-10.7833
▁hãm	-10.7835
▁rạp	-10.7835
▁bếp	-10.7836
▁logic	-10.7839
▁chìm	-10.7844
83	-10.7846
▁rẻ	-10.785
-18	-10.787
▁1993	-10.787
số	-10.7883
▁tràng	-10.7901
shi	-10.7907
▁giặc	-10.7917
▁1936	-10.7919
▁ngạch	-10.792
▁nhậm	-10.7922
▁tho	-10.7926
ö	-10.7928
▁hao	-10.7933
58	-10.7967
▁lộn	-10.7983
▁baltic	-10.7995
▁potter	-10.8
▁1977	-10.8001
▁geneva	-10.8001
▁newfoundland	-10.8002
▁curie	-10.8004
▁calci	-10.8004
▁90%	-10.8006
quân	-10.8021
▁2.000	-10.8022
▁quên	-10.8024
hệ	-10.8026
▁39	-10.8039
lin	-10.8061
":	-10.8073
▁quãng	-10.8083
▁phượng	-10.8083
▁trượt	-10.8083
▁dồi	-10.8083
▁lắk	-10.8084
▁ukraina	-10.8084
▁lipid	-10.8095
pháp	-10.8105
▁france	-10.8109
res	-10.811
fa	-10.8118
tin	-10.8124
za	-10.8128
61	-10.8131
▁chúc	-10.8135
▁20%	-10.8136
khi	-10.8146
▁kẽ	-10.8161
▁giấu	-10.8167
▁mốc	-10.8168
▁kèn	-10.8169
▁lưỡi	-10.8169
▁1982	-10.8171
▁cúp	-10.8172
▁plasma	-10.8173
▁im	-10.8183
51	-10.8227
▁kề	-10.8244
▁75	-10.8248
▁lụt	-10.8251
tô	-10.8252
▁(4	-10.8253
▁dioxin	-10.8253
▁1966	-10.8253
▁lãm	-10.8257
▁ethanol	-10.8258
▁chay	-10.8272
▁bar	-10.8275
tính	-10.8276
▁coli	-10.8308
)...	-10.8315
▁mũ	-10.8334
▁cơm	-10.8338
▁trọn	-10.8338
▁ottawa	-10.8339
▁chàm	-10.8343
mer	-10.8373
2)	-10.838
vô	-10.8404
▁mì	-10.8417
▁uyên	-10.8423
▁vắng	-10.8423
▁hoạn	-10.8427
▁xóm	-10.8428
▁go	-10.8429
▁táo	-10.8437
▁sen	-10.8441
il	-10.8451
▁48	-10.8484
am	-10.8497
03	-10.8501
▁singapore	-10.8512
▁túi	-10.8515
ov	-10.8527
▁carl	-10.853
▁63	-10.853
đường	-10.8536
cu	-10.8548
nông	-10.8558
ấn	-10.8559
52	-10.8563
vo	-10.8575
ai	-10.8581
▁pu	-10.8589
▁chôm	-10.8598
▁thấm	-10.8598
▁alpha	-10.8599
▁sun	-10.8608
▁html	-10.861
▁khan	-10.8612
ku	-10.8614
▁nhã	-10.8633
▁lầy	-10.8686
▁tề	-10.8687
▁1985	-10.8689
▁lồng	-10.8691
91	-10.8696
▁1988	-10.8712
▁55	-10.8712
nước	-10.8715
▁german	-10.8723
ten	-10.8731
31	-10.8742
ref	-10.8752
▁rai	-10.8763
▁xôi	-10.8764
▁hoành	-10.8765
▁gán	-10.8774
ü	-10.8775
▁cuộn	-10.8776
▁rìa	-10.8776
▁xvii	-10.8776
ina	-10.8778
▁gánh	-10.8779
▁chàng	-10.8797
trước	-10.8804
▁800	-10.8818
▁thẻ	-10.8859
▁yukon	-10.8866
▁lặng	-10.8867
▁1917	-10.8869
bộ	-10.8885
lan	-10.8886
▁ơn	-10.8892
thể	-10.8895
▁bốc	-10.8898
▁ag	-10.8902
op	-10.8905
▁3.000	-10.8907
▁đổng	-10.891
06	-10.8926
▁18,	-10.8939
▁mol	-10.8955
▁rỗng	-10.8957
▁nhường	-10.8957
▁cpu	-10.896
▁xviii	-10.8961
▁thiêng	-10.8969
−	-10.8974
▁os	-10.8975
hội	-10.8982
lịch	-10.8995
dy	-10.8999
-13	-10.9009
▁cù	-10.9027
▁nhắm	-10.9048
▁thở	-10.9049
▁kiệm	-10.9049
▁johann	-10.9057
í	-10.9061
_2	-10.9065
▁bóc	-10.9066
▁mộng	-10.9074
hoàng	-10.9077
ler	-10.9078
▁ngực	-10.9081
▁táng	-10.9082
▁đán	-10.9087
02	-10.9096
eu	-10.9128
com	-10.9132
▁chloride	-10.9141
▁1984	-10.9143
▁los	-10.9168
▁bồng	-10.9169
tự	-10.9169
gồm	-10.9172
ran	-10.918
mann	-10.9183
▁der	-10.9207
▁đãi	-10.9223
▁1971	-10.9224
▁angola	-10.9234
▁huống	-10.9234
▁huân	-10.9234
▁rgb	-10.9234
▁đắt	-10.9235
▁bơi	-10.9236
▁hiđrô	-10.9237
▁1930	-10.9238
▁1981	-10.9239
▁league	-10.9239
▁graz	-10.9239
▁70%	-10.9241
san	-10.925
▁cu	-10.9258
gu	-10.9261
▁tour	-10.9271
ment	-10.9279
▁41	-10.928
"...	-10.9286
▁nm	-10.9306
▁sha	-10.9325
▁viếng	-10.9329
▁wilhelm	-10.933
ze	-10.9338
▁tp	-10.934
▁ngột	-10.9345
danh	-10.936
phật	-10.9362
khu	-10.9365
▁250	-10.9365
▁phiến	-10.9382
▁her	-10.9385
▁trù	-10.9387
io	-10.9413
▁sốt	-10.9414
/1	-10.9423
▁giọt	-10.9424
▁brasil	-10.9424
▁hydrocarbon	-10.9424
▁unix	-10.9424
▁yahoo	-10.9431
▁1997	-10.944
ei	-10.9447
▁cày	-10.9448
▁jo	-10.9456
▁ngón	-10.9462
▁ngu	-10.9464
▁fe	-10.9469
ởi	-10.9503
tt	-10.9507
▁chè	-10.951
▁65	-10.9517
▁sán	-10.9519
▁hoán	-10.9519
▁angkor	-10.952
▁illinois	-10.952
▁phơi	-10.952
▁hẹn	-10.9521
▁1935	-10.9522
▁1918	-10.9522
▁1905	-10.9524
▁lanh	-10.9527
om	-10.9539
▁*	-10.9551
vùng	-10.9555
▁ri	-10.9562
"".	-10.9565
▁giêng	-10.9574
▁khán	-10.9588
▁for	-10.9603
▁silic	-10.9612
5.000	-10.9616
▁phì	-10.9617
▁hubble	-10.9617
▁đòn	-10.9618
▁quỳnh	-10.9622
▁xê	-10.9626
▁viii	-10.9637
▁khói	-10.9658
ist	-10.9664
▁lã	-10.9671
ud	-10.9676
▁mar	-10.9683
hai	-10.969
▁()	-10.9702
-2	-10.9709
▁napoléon	-10.9715
▁trội	-10.9715
▁trác	-10.9716
▁vách	-10.9717
▁columbia	-10.972
▁dào	-10.972
▁khoán	-10.972
▁dvd	-10.972
▁te	-10.9721
ius	-10.9722
▁phả	-10.9729
▁nham	-10.9732
▁40%	-10.9735
tra	-10.9737
▁43	-10.9738
▁bích	-10.9745
rus	-10.9748
▁nh	-10.9756
4,	-10.9769
▁hạm	-10.9776
hạ	-10.9788
▁(15	-10.9802
ung	-10.9814
▁lụa	-10.9814
▁rịa	-10.9814
▁vựng	-10.9814
▁kuwait	-10.9817
▁nát	-10.9828
▁20.000	-10.983
ser	-10.983
▁càn	-10.9844
nguyễn	-10.9853
chúng	-10.986
my	-10.9866
▁khố	-10.9867
▁11,	-10.9874
▁(14	-10.988
▁8,	-10.9904
▁38	-10.9911
▁uốn	-10.9912
▁graham	-10.9914
▁michael	-10.9914
▁nặc	-10.9914
▁zealand	-10.9914
▁hoằng	-10.9914
▁rể	-10.9914
▁khiêm	-10.9915
bà	-10.9935
đông	-10.9969
9,	-10.9971
ang	-10.9981
▁(5	-10.9995
▁grand	-11.0006
gia	-11.0007
▁q	-11.0007
▁upc	-11.0015
▁palestine	-11.0017
▁xoáy	-11.0017
▁hái	-11.0017
▁1932	-11.0017
▁myanmar	-11.0019
▁1919	-11.002
▁1929	-11.002
yl	-11.0034
net	-11.0044
▁khoá	-11.0048
▁bám	-11.0054
về	-11.0056
kim	-11.0068
áo	-11.0086
ae	-11.0086
▁tr	-11.0098
que	-11.0099
▁methan	-11.0113
▁xuôi	-11.0118
ig	-11.0121
▁nhược	-11.0121
▁thềm	-11.0122
▁peter	-11.0122
rai	-11.0126
▁ao	-11.0158
quy	-11.0161
▁47	-11.0164
62	-11.0167
-20	-11.0167
tổng	-11.0175
▁bồn	-11.0194
oc	-11.0196
▁car	-11.0202
▁hall	-11.0218
▁lừa	-11.022
▁nghiệt	-11.022
▁québec	-11.022
▁sụt	-11.022
▁thắt	-11.0221
▁php	-11.0224
▁polymerase	-11.023
▁mu	-11.0234
▁0.	-11.0244
▁des	-11.0247
phần	-11.0263
▁đeo	-11.0265
cũ	-11.0265
trừ	-11.0266
nghĩa	-11.0267
▁sri	-11.0269
sch	-11.0271
xi	-11.0282
bàn	-11.029
sao	-11.029
ps	-11.0292
▁(8	-11.0295
▁ku	-11.0317
3)	-11.0317
▁ngõ	-11.032
▁sầm	-11.0325
▁tuỳ	-11.0325
▁tể	-11.0325
▁wales	-11.0326
▁firefox	-11.0326
▁1934	-11.0327
▁quỷ	-11.0328
▁nhịp	-11.0334
xin	-11.034
▁ju	-11.0344
▁sol	-11.0349
tập	-11.0368
nhân	-11.0368
ty	-11.0386
▁đếm	-11.0399
▁cụt	-11.0399
▁my	-11.0414
▁hủ	-11.0423
▁dập	-11.043
▁julius	-11.043
▁1931	-11.0431
▁sút	-11.0431
▁lánh	-11.0438
gan	-11.0442
▁60%	-11.0444
!"	-11.0453
▁đệm	-11.0468
ley	-11.0471
thực	-11.0474
cao	-11.0479
▁20.	-11.0491
ac	-11.0501
▁wa	-11.0511
▁19.	-11.0512
▁sọ	-11.0522
▁sin	-11.053
wi	-11.0532
▁bì	-11.0533
▁đắn	-11.0534
▁hoãn	-11.0536
▁khớp	-11.0536
▁thóc	-11.0536
▁wesley	-11.0536
▁buýt	-11.0536
▁sừng	-11.0537
▁kiếp	-11.0537
▁ráp	-11.0537
▁42	-11.0553
▁khang	-11.056
ó	-11.0561
▁khoai	-11.0563
▁30%	-11.057
xu	-11.0592
sp	-11.06
▁105	-11.0606
ụ	-11.0611
_3	-11.062
▁bụng	-11.0644
▁giếng	-11.0644
▁nhẫn	-11.0644
▁cẩu	-11.0646
▁galileo	-11.0646
▁xơ	-11.0646
ý	-11.0654
▁mac	-11.0656
tri	-11.0682
hu	-11.0685
ngoại	-11.069
▁(12	-11.0706
ju	-11.0707
rat	-11.0713
▁lơ	-11.0749
-8	-11.0749
▁ngặt	-11.0752
▁tấu	-11.0752
▁vatican	-11.0752
▁bengal	-11.0752
▁bể	-11.0753
▁nướng	-11.0753
▁đâm	-11.0753
▁cấy	-11.0756
▁radio	-11.0756
▁khanh	-11.0757
▁nan	-11.0773
▁phác	-11.0775
ron	-11.0781
dra	-11.0785
đề	-11.0791
▁lát	-11.0797
harry	-11.0801
-3	-11.0811
ip	-11.0828
▁1975.	-11.0834
pu	-11.0851
0%	-11.0854
▁abraham	-11.0862
▁tiệc	-11.0862
▁nhiếp	-11.0862
▁general	-11.0897
ide	-11.09
▁par	-11.0905
▁gam	-11.0909
bản	-11.091
châu	-11.0914
giải	-11.0914
▁xí	-11.0928
▁mú	-11.0947
▁51	-11.0949
▁44	-11.0952
ú	-11.0955
▁1930,	-11.096
▁$	-11.097
smilodon	-11.0973
▁lậu	-11.0973
▁1987	-11.0976
▁champions	-11.0977
▁1%	-11.0978
▁otto	-11.098
ive	-11.0986
▁đống	-11.0986
▁56	-11.0989
sha	-11.1019
đã	-11.1024
▁lb	-11.1026
ngôn	-11.1036
▁5.000	-11.1043
▁mg	-11.1051
kin	-11.1052
sk	-11.1082
▁rạc	-11.1085
▁dám	-11.1086
▁đính	-11.1086
▁fidel	-11.1086
▁tưới	-11.1087
▁kệ	-11.1087
▁hebrew	-11.1089
▁1952	-11.1089
▁quế	-11.1091
▁yết	-11.1095
mon	-11.1097
rs	-11.1103
▁tạc	-11.1108
pp	-11.1115
ou	-11.1116
▁khống	-11.1121
zi	-11.1141
phi	-11.1144
▁rạn	-11.1163
▁bê	-11.1184
ci	-11.1198
་	-11.1198
▁lắm	-11.1199
▁đục	-11.1199
▁nhọn	-11.1201
▁henri	-11.1208
▁đun	-11.1211
▁sch	-11.1217
▁1974,	-11.1222
▁opera	-11.1228
▁pro	-11.1246
mặc	-11.1252
phân	-11.1252
phương	-11.1253
giáo	-11.1255
▁64	-11.1261
▁kh	-11.1271
▁as	-11.1286
cl	-11.1288
quan	-11.1298
nt	-11.1298
▁hindu	-11.1308
họ	-11.1309
%),	-11.1312
▁bữa	-11.1314
▁trệ	-11.1314
▁rỗi	-11.1315
▁chuyền	-11.1315
▁mít	-11.1318
qđ	-11.1325
▁hesse	-11.1329
▁lít	-11.1343
%	-11.1356
ag	-11.1359
è	-11.136
▁quái	-11.136
điều	-11.1369
ä	-11.137
chiếm	-11.137
ex	-11.1379
rie	-11.1389
▁1997,	-11.1408
▁1.0	-11.1424
▁mắn	-11.1428
▁angeles	-11.1431
▁khéo	-11.1431
▁roosevelt	-11.1431
▁cmyk	-11.1431
▁chuối	-11.1431
▁dắt	-11.1432
▁miếng	-11.1434
▁múi	-11.1434
▁beta	-11.1441
▁bính	-11.1445
ns	-11.1451
..."	-11.1461
–18	-11.1463
▁roma	-11.1464
hy	-11.1474
▁qu	-11.1477
của	-11.1486
đối	-11.1486
ek	-11.1495
ab	-11.1527
ell	-11.153
▁enzym	-11.1535
▁hận	-11.1548
▁trộm	-11.1548
▁urani	-11.1548
▁xói	-11.1549
▁har	-11.1552
▁1926	-11.1553
cô	-11.156
▁ab	-11.1568
ub	-11.1581
▁thưa	-11.1594
đạo	-11.1606
▁1,2	-11.1606
rin	-11.1607
▁(6	-11.1621
04	-11.1621
hình	-11.163
▁per	-11.1632
_5	-11.1644
▁46	-11.1646
hắc	-11.1656
▁rẫy	-11.1667
▁chớp	-11.1668
▁ozon	-11.1668
▁alexander	-11.167
▁magnesi	-11.167
▁tiêm	-11.1673
▁bill	-11.1677
▁fluoride	-11.1678
▁ham	-11.1683
▁25%	-11.1686
▁khen	-11.1687
▁vợt	-11.1696
we	-11.17
а	-11.1705
▁er	-11.1707
up	-11.1708
▁pcr	-11.1726
bình	-11.1726
trường	-11.1726
▁ong	-11.1737
▁is	-11.1741
zo	-11.1743
ốt	-11.175
động	-11.1751
▁2,5	-11.1753
tor	-11.1761
jo	-11.1764
▁(0,	-11.1771
gộp	-11.1788
▁robot	-11.1788
▁ngâm	-11.1788
▁khâu	-11.1788
▁chạp	-11.1788
▁cành	-11.1796
▁1/3	-11.1799
▁5%	-11.1808
▁bùn	-11.1823
▁vii	-11.1831
▁cd	-11.1837
▁cia	-11.1843
cùng	-11.1848
pt	-11.1853
▁1945.	-11.1876
ì	-11.1879
est	-11.1883
▁đày	-11.1887
ẫm	-11.1887
ất	-11.189
ea	-11.1895
ent	-11.19
▁katyn	-11.191
▁kạn	-11.191
▁thói	-11.191
▁nòng	-11.191
▁johnson	-11.1912
▁1910	-11.1921
▁lanka	-11.1925
▁vịt	-11.1925
▁chile	-11.1935
▁xv	-11.1935
lý	-11.1973
thanh	-11.1973
già	-11.1973
lô	-11.1981
chu	-11.1986
ham	-11.1997
hành	-11.2015
▁say	-11.2017
wide	-11.2021
▁ean	-11.2025
▁lặn	-11.2031
▁fi	-11.2031
▁qđndvn	-11.2033
▁hiếp	-11.2034
▁apollo	-11.2037
▁labrador	-11.2037
ica	-11.2037
▁ướt	-11.2042
▁basic	-11.2043
▁1922	-11.2043
▁mrna	-11.2052
▁rơ	-11.2063
▁we	-11.2082
3/	-11.2088
nes	-11.2091
▁thùng	-11.2091
vật	-11.2096
▁sp	-11.2099
thông	-11.2101
▁tex	-11.2105
sông	-11.211
ich	-11.2115
▁cor	-11.213
▁lự	-11.2137
▁pan	-11.2145
ão	-11.2145
thi	-11.2156
▁slovak	-11.2158
▁isaac	-11.2158
▁alfred	-11.2158
▁ắc	-11.2158
▁dẻo	-11.216
▁1925	-11.2162
▁xà	-11.2166
▁trùm	-11.2167
▁cup	-11.2169
▁slav	-11.2172
▁óc	-11.2174
ī	-11.2195
lia	-11.2211
▁wat	-11.2218
để	-11.2223
tiền	-11.2223
▁phím	-11.2223
je	-11.2228
▁1983	-11.2246
mar	-11.2262
′	-11.2284
▁kelvin	-11.2285
▁kernel	-11.2285
▁mập	-11.2285
▁sắm	-11.2285
▁franklin	-11.2285
▁amonia	-11.2286
▁gamma	-11.2286
▁nhục	-11.2287
ds	-11.2291
▁big	-11.2311
▁manh	-11.2333
▁(9	-11.2348
ville	-11.235
vì	-11.2353
pl	-11.2365
▁đu	-11.2367
ū	-11.2375
long	-11.238
▁−	-11.2398
bert	-11.2401
lê	-11.2407
▁bra	-11.2411
▁cắn	-11.2413
▁tắm	-11.2413
▁chém	-11.2415
▁1928	-11.2417
▁thệ	-11.2417
án	-11.2426
▁52	-11.2432
▁en	-11.2446
▁max	-11.2457
1.000	-11.246
▁khát	-11.2469
grdp	-11.2481
quận	-11.2481
điện	-11.2481
bài	-11.2486
▁nón	-11.2516
"."	-11.254
▁quỳ	-11.2542
▁bướu	-11.2543
▁higgs	-11.2543
▁scarlett	-11.2543
▁wikimedia	-11.2543
▁1.1	-11.2544
▁phôi	-11.2545
▁bơm	-11.2546
per	-11.2547
▁1914	-11.2547
▁francis	-11.2548
▁1911	-11.2555
%)	-11.2568
▁17,	-11.2578
-10	-11.2586
tes	-11.2592
ấy	-11.2595
rna	-11.2604
▁94	-11.2616
▁hu	-11.2617
hạt	-11.2628
▁hex	-11.263
od	-11.2648
▁ve	-11.2661
ity	-11.2669
▁vươn	-11.2672
▁gậy	-11.2674
▁uẩn	-11.2674
▁virginia	-11.2674
▁ibm	-11.2674
▁trân	-11.2675
▁stalingrad	-11.2675
▁rực	-11.2675
▁cớ	-11.2677
▁lựu	-11.2679
▁1921	-11.2682
khoa	-11.2682
ny	-11.2691
▁báp	-11.2693
qua	-11.2698
8%	-11.2703
_4	-11.2708
len	-11.2718
ven	-11.2735
▁quách	-11.2737
▁dai	-11.2743
trên	-11.2746
kan	-11.2746
...).	-11.2753
▁chà	-11.2771
▁160	-11.2777
her	-11.2781
ls	-11.2782
cy	-11.2788
▁bẫy	-11.2808
▁nixon	-11.2808
▁tenxơ	-11.2808
▁rỡ	-11.2808
▁rước	-11.2808
▁nghiền	-11.2808
▁siberia	-11.2809
▁1867	-11.2811
▁orbital	-11.2812
▁panduranga	-11.2812
▁british	-11.2813
▁1924	-11.2815
▁1890	-11.2816
▁700	-11.2816
.000	-11.2819
▁micro	-11.282
▁yoga	-11.2823
▁poly	-11.2838
▁park	-11.2842
▁53	-11.2855
sta	-11.2868
▁gu	-11.2868
đất	-11.2881
phát	-11.2883
hiện	-11.2886
▁chlor	-11.2895
ill	-11.2897
▁bộc	-11.2898
▁61	-11.2914
▁hoả	-11.2919
han	-11.2924
▁lầu	-11.2943
▁vắc	-11.2943
▁thiêu	-11.2944
▁85	-11.2944
▁khoát	-11.2949
▁ngon	-11.2949
▁rèn	-11.295
▁adn	-11.295
▁1913	-11.2952
ros	-11.2966
art	-11.2973
▁cua	-11.2982
▁star	-11.2987
hợp	-11.2989
4)	-11.299
ít	-11.2999
大	-11.3017
nhóm	-11.3018
▁rung	-11.3034
age	-11.3041
▁bor	-11.3041
▁ex	-11.3042
ey	-11.3043
▁tro	-11.3073
▁giật	-11.308
▁lorentz	-11.308
▁mêtric	-11.308
▁versailles	-11.308
▁gregory	-11.3081
▁trọt	-11.3081
▁nành	-11.3082
▁nguội	-11.3083
▁rụng	-11.3084
ani	-11.3096
▁cúm	-11.3099
ren	-11.3101
ant	-11.3104
2.000	-11.3122
▁ix	-11.3132
▁sir	-11.3144
mô	-11.3147
ris	-11.3153
thần	-11.3157
lễ	-11.3158
sky	-11.3159
át	-11.316
▁57	-11.3167
▁95	-11.3184
cm	-11.3192
3.000	-11.3192
ms	-11.3196
gg	-11.3199
▁40.000	-11.3202
▁cắp	-11.3219
▁descartes	-11.3219
▁sầu	-11.3219
▁trễ	-11.3219
▁bern	-11.3221
▁200.000	-11.3221
▁quấy	-11.3224
▁nhúng	-11.3225
▁(7	-11.3243
▁2009.	-11.3257
▁soi	-11.3262
tha	-11.3273
à	-11.3273
▁|	-11.3284
▁ad	-11.329
▁2008.	-11.3291
doraemon	-11.3297
5,	-11.3297
đơn	-11.3298
tân	-11.33
▁at	-11.3304
làm	-11.331
ene	-11.3322
▁pho	-11.3341
▁1937	-11.3351
▁khơ	-11.3356
▁cỗ	-11.3358
國	-11.336
▁tagore	-11.336
▁muỗi	-11.336
▁piston	-11.336
▁thới	-11.336
▁trưa	-11.336
▁mẻ	-11.3361
▁muôn	-11.3361
▁sẫm	-11.3361
▁ghét	-11.3362
▁cholesterol	-11.3363
▁tý	-11.3363
▁1860	-11.3363
▁hadron	-11.3364
▁wto	-11.3372
▁nova	-11.3376
ả	-11.3387
▁sam	-11.339
ium	-11.3396
new	-11.3396
ary	-11.3398
by	-11.3399
▁130	-11.34
8,	-11.342
/2	-11.3433
har	-11.3436
kov	-11.3437
tiểu	-11.344
mặt	-11.344
điểm	-11.344
▁(20	-11.3456
rit	-11.3484
▁th	-11.3486
ken	-11.3489
ong	-11.3489
pro	-11.3496
▁hydroxide	-11.3502
▁lewis	-11.3502
▁syria	-11.3503
▁que	-11.3503
▁thối	-11.3503
▁tiếc	-11.3506
▁1927	-11.3507
▁vo	-11.351
▁2023	-11.3513
▁50.000	-11.3516
▁clo	-11.352
độ	-11.3532
▁2006.	-11.3543
▁khôn	-11.3552
▁2011.	-11.3553
▁(13	-11.3561
ã	-11.357
đầu	-11.3585
cộng	-11.3585
don	-11.3588
ens	-11.3592
▁67	-11.362
▁del	-11.3621
lé	-11.3624
can	-11.3629
dd	-11.363
ob	-11.3632
1.	-11.3633
▁titan	-11.3639
▁tê	-11.364
ria	-11.3641
▁louisiana	-11.3647
▁oxford	-11.3647
▁tokyo	-11.3647
▁vội	-11.3647
▁gác	-11.3647
▁bulgaria	-11.3647
▁khế	-11.3647
▁bohr	-11.3648
▁dồn	-11.3648
▁tỳ	-11.3648
▁chuộc	-11.3649
▁celt	-11.365
▁atp	-11.3652
▁buồng	-11.3652
▁london	-11.3652
▁xiii	-11.3653
▁xiv	-11.3655
▁system	-11.3656
bit	-11.3666
▁kanji	-11.3667
▁kra	-11.3671
▁ôi	-11.3672
▁phao	-11.3674
.200	-11.3676
▁μ	-11.368
▁gay	-11.3683
tsu	-11.3685
▁bú	-11.3711
chuyển	-11.3732
-16	-11.3741
▁ben	-11.3745
zu	-11.3761
mit	-11.3762
▁hoạ	-11.3779
▁son	-11.3783
▁wi	-11.3789
▁chử	-11.3791
▁bọ	-11.3793
▁allele	-11.3794
▁hawaii	-11.3794
▁kuiper	-11.3794
▁trũng	-11.3794
▁khoẻ	-11.3795
▁phiền	-11.3796
▁mĩ	-11.3796
▁1916	-11.3798
▁dê	-11.3798
▁1923	-11.3801
▁nhô	-11.3802
▁đọng	-11.3802
fer	-11.3812
▁30.000	-11.3815
ō	-11.3823
▁1.2	-11.3823
ọ	-11.3824
4.	-11.3847
cal	-11.3851
trần	-11.3882
phản	-11.3882
tại	-11.3883
0,	-11.3884
▁qui	-11.3893
▁nhai	-11.3893
▁2004.	-11.3918
tre	-11.3922
-17	-11.3935
▁belarus	-11.3944
▁bận	-11.3944
。	-11.3944
▁apple	-11.3944
▁lọt	-11.3946
▁jerusalem	-11.3946
▁bọt	-11.3948
▁thoi	-11.3951
▁arthur	-11.3952
▁thính	-11.3955
▁58	-11.3957
cả	-11.3973
▁rang	-11.3977
én	-11.3978
▁4.000	-11.3987
▁amin	-11.3992
im	-11.4
ev	-11.4006
gh	-11.4011
▁jan	-11.4026
uri	-11.4032
9%	-11.4032
đạt	-11.4034
▁140	-11.4045
▁ơ	-11.4049
môn	-11.405
ste	-11.4056
cách	-11.406
pr	-11.4062
▁pre	-11.4068
▁xẻ	-11.4093
▁kị	-11.4094
▁aristotle	-11.4095
▁trỏ	-11.4095
▁huỷ	-11.4095
▁ớt	-11.4095
▁rủi	-11.4096
▁thêu	-11.4097
▁→	-11.4098
▁vovinam	-11.41
▁baryon	-11.4101
▁annan	-11.4103
ys	-11.4113
▁1.500	-11.4118
pha	-11.4125
▁quấ	-11.4137
▁dán	-11.4141
hr	-11.4141
▁75%	-11.415
▁trúng	-11.415
▁sanh	-11.4154
mor	-11.4166
tư	-11.4187
máy	-11.4187
thượng	-11.4187
phía	-11.4187
bảo	-11.4188
▁mark	-11.4193
7,	-11.4196
▁66	-11.4205
berg	-11.4209
▁xé	-11.4217
bar	-11.4221
nga	-11.4221
▁2010.	-11.4239
▁82	-11.4246
▁quyến	-11.4248
▁montréal	-11.4249
▁tuế	-11.4251
▁ngắt	-11.4251
▁thề	-11.4254
▁1832	-11.4256
5%	-11.426
▁khiêu	-11.4262
▁đừng	-11.4262
▁100%	-11.4284
af	-11.4288
.800	-11.4307
"&	-11.4314
▁loa	-11.4315
min	-11.4317
α	-11.4334
sư	-11.4334
khmer	-11.4344
and	-11.4346
sai	-11.4349
quảng	-11.4354
giả	-11.4355
phong	-11.436
▁72	-11.4371
▁bún	-11.4382
one	-11.4397
fe	-11.4399
▁et	-11.4401
▁dừa	-11.4405
▁entropy	-11.4405
▁đụng	-11.4406
▁tồi	-11.4406
▁ottoman	-11.4406
▁kha	-11.4406
▁đạm	-11.4407
ạ	-11.4407
kadai	-11.4414
▁heo	-11.4416
▁alberta	-11.4416
▁hans	-11.4425
▁ce	-11.444
tinh	-11.4445
▁bru	-11.4469
.300	-11.4493
nhật	-11.4502
ano	-11.4504
▁ip	-11.4504
▁1990.	-11.4505
▁mer	-11.4516
▁ge	-11.4524
▁xay	-11.4533
и	-11.4538
▁cọ	-11.4551
ểm	-11.4554
▁col	-11.4555
▁cambridge	-11.4564
▁chẵn	-11.4564
▁brazil	-11.4564
▁sulfide	-11.4564
▁vời	-11.4566
▁gắt	-11.4566
▁diệp	-11.4568
▁•	-11.4569
▁1901	-11.457
▁1912	-11.4578
tia	-11.458
tai	-11.4588
6,	-11.4611
ếm	-11.4611
ari	-11.4653
toàn	-11.4667
▁on	-11.4669
ld	-11.4674
▁pauli	-11.4688
▁59	-11.4689
▁ván	-11.4708
▁game	-11.471
▁marie	-11.4712
▁1.4	-11.4712
▁giã	-11.4719
nhưng	-11.4722
ap	-11.4724
▁habsburg	-11.4725
▁hãi	-11.4725
▁rậm	-11.4725
▁ấu	-11.4725
▁gieo	-11.4726
▁thê	-11.4727
▁bạt	-11.4728
▁1789	-11.4729
mp	-11.473
▁ngưu	-11.473
▁ampe	-11.4733
▁1895	-11.4734
▁95%	-11.4742
▁lùng	-11.4743
2+	-11.4762
ttg	-11.4775
6)	-11.4789
▁0)	-11.4793
▁then	-11.48
▁top	-11.4801
▁mun	-11.4803
▁99	-11.4808
▁900	-11.4808
▁cl	-11.4815
ah	-11.4822
kế	-11.4825
gần	-11.4826
lục	-11.4827
cuộc	-11.4827
chúa	-11.4829
tăng	-11.483
)|	-11.4832
cái	-11.4837
▁2007.	-11.4845
▁cồ	-11.4853
ắt	-11.4869
▁thự	-11.4874
▁gel	-11.4884
,000	-11.4886
▁toạ	-11.4887
▁argentina	-11.4889
▁gầm	-11.4889
▁mắm	-11.4889
▁ốm	-11.4889
▁đốn	-11.4891
▁rãnh	-11.4896
▁hở	-11.4896
▁giấc	-11.4898
▁1974	-11.4899
tv	-11.4904
ski	-11.4907
dai	-11.4908
1)	-11.4911
sin	-11.4917
▁hệt	-11.4924
ling	-11.4926
ew	-11.4927
▁khoang	-11.4928
hồ	-11.4944
▁hò	-11.4967
ura	-11.497
ua	-11.4985
miền	-11.4994
lúc	-11.4995
thu	-11.4996
năng	-11.4998
tiến	-11.5004
▁nin	-11.5005
tuy	-11.502
ate	-11.5048
▁trơn	-11.5048
▁za	-11.5054
▁mekong	-11.5056
▁moravia	-11.5056
▁nhắn	-11.5056
▁nucleic	-11.5056
▁nậm	-11.5056
▁pasteur	-11.5056
▁scotia	-11.5056
▁liều	-11.5056
.400	-11.5057
▁gả	-11.5058
▁ngươi	-11.5062
▁1906	-11.5062
▁golgi	-11.5064
▁iucn	-11.5065
yan	-11.5066
del	-11.507
▁báu	-11.5073
▁chặng	-11.5074
hải	-11.5076
с	-11.5076
▁thuở	-11.5077
bra	-11.5084
▁17.	-11.5095
lai	-11.5099
ase	-11.51
▁ke	-11.5104
[	-11.5108
▁pc	-11.513
oi	-11.5137
▁chip	-11.5144
▁mars	-11.5153
mozart	-11.5163
mật	-11.5163
ori	-11.5167
▁đả	-11.5168
▁62	-11.5188
▁ngai	-11.5188
▁thoả	-11.5194
▁trứ	-11.5195
ille	-11.5196
▁lau	-11.52
▁ac	-11.5204
nia	-11.5211
▁ê	-11.5211
王	-11.5225
▁kẹp	-11.5225
▁rùa	-11.5225
­	-11.5225
▁ohio	-11.5225
▁kabul	-11.5226
▁ngái	-11.5226
ite	-11.5229
▁2/3	-11.5229
▁1850	-11.523
▁2.0	-11.5231
▁1848	-11.5231
▁lãi	-11.5232
0.000	-11.5232
▁dbms	-11.5232
▁1915	-11.5234
▁peru	-11.5235
ư	-11.5235
▁#	-11.5236
▁dịu	-11.5241
▁jacques	-11.5241
▁15.000	-11.5244
▁lồi	-11.5248
▁trans	-11.5251
▁or	-11.5302
mét	-11.5304
cn	-11.5321
ăn	-11.5323
rr	-11.5323
▁bổng	-11.5327
tạng	-11.5336
nguồn	-11.5336
vua	-11.5339
nic	-11.5345
▁vá	-11.5346
▁2005.	-11.5349
des	-11.5349
▁1800	-11.5352
▁1960.	-11.5355
▁bổn	-11.5367
sam	-11.5378
...),	-11.5386
6.000	-11.5394
▁chiên	-11.5397
▁dọn	-11.5398
▁kepler	-11.5398
▁lứa	-11.5398
▁unicode	-11.5398
▁truất	-11.5398
▁fermion	-11.5398
▁tẻ	-11.54
▁oai	-11.5401
▁transistor	-11.5403
▁1909	-11.5403
▁kilôgam	-11.5404
▁1908	-11.5405
▁quà	-11.5408
▁2030	-11.5413
▁xii	-11.5414
▁times	-11.5421
▁aids	-11.5443
▁côi	-11.545
mes	-11.546
yer	-11.5464
▁1500	-11.5466
200	-11.5487
ice	-11.5488
non	-11.5501
ù	-11.5506
lưu	-11.5512
bằng	-11.5513
▁bell	-11.5514
-7	-11.5517
tất	-11.5517
▁180	-11.5526
▁phùng	-11.5529
tum	-11.5531
dr	-11.5564
ino	-11.557
▁đặn	-11.5571
▁106	-11.5573
▁bửu	-11.5573
▁tuồng	-11.5573
▁khiếu	-11.5574
▁ya	-11.5574
▁2018.	-11.5575
▁muon	-11.5575
▁phiêu	-11.5575
▁tía	-11.5576
▁debian	-11.5577
▁tuyền	-11.5577
▁neon	-11.558
▁2.500	-11.5582
▁2015.	-11.5584
arch	-11.5584
▁chán	-11.5585
▁phà	-11.559
▁110	-11.559
2).	-11.5591
ure	-11.5592
ller	-11.5602
thứ	-11.5603
ét	-11.5605
đi	-11.561
▁champa	-11.5616
-15	-11.5624
▁nộ	-11.5635
ala	-11.5641
▁3,5	-11.5641
▁mác	-11.5649
▁khảm	-11.5652
▁lột	-11.5662
▁18.	-11.5664
lli	-11.567
ast	-11.5675
tal	-11.5677
gon	-11.568
500	-11.5694
chất	-11.5694
báo	-11.5696
▁franc	-11.5699
▁who	-11.5701
_6	-11.5703
▁1,8	-11.5708
sc	-11.5716
▁chén	-11.5721
tho	-11.5727
▁!	-11.5733
▁tua	-11.5737
▁georg	-11.5739
sl	-11.5751
▁brown	-11.5752
▁luxembourg	-11.5752
▁taliban	-11.5752
▁trotskyist	-11.5752
▁khiếp	-11.5752
▁franz	-11.5752
▁rỉ	-11.5753
▁tủa	-11.5754
▁vlaanderen	-11.5755
▁stephen	-11.5757
▁doãn	-11.5757
▁intel	-11.5758
▁smith	-11.5759
▁1903	-11.576
▁chuông	-11.576
▁mạt	-11.5762
▁rock	-11.5763
▁min	-11.5772
▁international	-11.5777
fl	-11.5781
▁gar	-11.5793
pan	-11.5801
ord	-11.5814
▁000	-11.5814
mà	-11.5818
▁shi	-11.5823
▁6.000	-11.5823
bon	-11.5832
▁túng	-11.5838
tổ	-11.5843
eo	-11.5846
ốc	-11.5849
▁360	-11.5861
▁manga	-11.5865
▁4%	-11.5866
thủ	-11.5867
ễ	-11.5869
tòa	-11.5872
▁68	-11.5883
ré	-11.5889
vào	-11.5891
hồng	-11.5899
lon	-11.5904
▁jacob	-11.5928
▁kí	-11.5928
山	-11.5934
τ	-11.5934
▁thạo	-11.5934
▁liềm	-11.5934
▁gott	-11.5934
▁elip	-11.5934
▁south	-11.5936
▁diễu	-11.5936
▁hamilton	-11.5937
ibn	-11.5937
▁vòm	-11.5938
▁bôi	-11.5938
▁khoái	-11.5941
▁1907	-11.5942
rô	-11.5943
▁1902	-11.5949
▁kiêng	-11.5953
.900	-11.5957
ś	-11.5957
fried	-11.5966
ào	-11.5969
▁benz	-11.5973
qui	-11.5973
ple	-11.5974
▁ver	-11.5974
mat	-11.5974
fo	-11.5976
kun	-11.5986
thay	-11.5991
▁ze	-11.5992
▁bon	-11.6006
"):	-11.6007
õ	-11.6007
ish	-11.6008
▁đành	-11.6011
lee	-11.6013
–17	-11.6031
▁jr	-11.6033
tứ	-11.6042
▁api	-11.6042
ier	-11.605
nội	-11.6057
giống	-11.6057
vũ	-11.6057
chân	-11.6058
ben	-11.6059
▁nagar	-11.6064
▁lee	-11.6066
cá	-11.6088
▁mài	-11.6088
▁0,5	-11.6089
our	-11.6095
line	-11.6098
100	-11.611
▁lị	-11.6118
ν	-11.6119
▁eisenhower	-11.6119
▁hắn	-11.6119
▁leibniz	-11.6119
▁lượm	-11.6119
▁sỏi	-11.6119
▁vọt	-11.6119
▁carolina	-11.6119
▁thiếp	-11.6119
▁khép	-11.6119
▁tẩu	-11.6121
▁niêm	-11.6123
▁chài	-11.6124
▁island	-11.6125
▁1904	-11.6125
▁victoria	-11.6125
▁1888	-11.6126
▁stream	-11.6132
ace	-11.6133
▁×	-11.6141
▁alexandre	-11.6145
ara	-11.615
▁úp	-11.6159
2),	-11.6159
000	-11.6167
din	-11.6179
đá	-11.6192
▁2%	-11.6193
-5	-11.6196
dna	-11.6196
▁ách	-11.6197
kha	-11.6209
tz	-11.6215
▁8%	-11.6218
?"	-11.622
▁87	-11.623
...".	-11.6237
sử	-11.6243
linux	-11.6245
tình	-11.6246
▁nui	-11.6248
thủy	-11.6251
hô	-11.628
ito	-11.6294
ôn	-11.6295
▁chả	-11.6296
▁br	-11.63
▁oán	-11.6306
南	-11.6307
š	-11.6308
▁bấm	-11.6308
▁bầy	-11.6308
▁uefa	-11.6308
▁munich	-11.6308
▁nhốt	-11.6308
▁mendel	-11.6308
▁mịn	-11.6309
▁cừu	-11.6309
▁kiêu	-11.6309
▁500.000	-11.6309
▁vãn	-11.6309
_8	-11.6309
▁ohm	-11.631
▁chọc	-11.6311
▁lở	-11.6311
▁vảy	-11.6311
▁gluon	-11.6314
▁oecd	-11.6318
▁3.0	-11.6318
▁1980.	-11.632
▁alan	-11.6322
▁vấp	-11.6323
▁sta	-11.6327
▁sọc	-11.6335
▁86	-11.6336
▁2001.	-11.6345
end	-11.6352
▁cúc	-11.6372
yo	-11.6373
0,000	-11.6375
wan	-11.6377
т	-11.6383
ez	-11.6387
▁doraemon	-11.6392
lit	-11.64
▁bệ	-11.6403
gar	-11.6407
.500	-11.6417
uk	-11.6421
hóa	-11.6429
tte	-11.6433
ă	-11.6438
tiêu	-11.644
tối	-11.644
▁cos	-11.644
▁2000.	-11.6441
bất	-11.6441
▁west	-11.6447
virus	-11.6457
▁91	-11.6461
lam	-11.6463
▁inch	-11.648
▁nhũ	-11.6483
ướng	-11.6484
tron	-11.6486
▁léo	-11.6493
▁nu	-11.6494
▁thạc	-11.6497
字	-11.65
文	-11.65
▁jefferson	-11.65
▁nứt	-11.65
▁pennsylvania	-11.65
▁quebec	-11.65
▁rowling	-11.65
▁sấm	-11.65
▁anime	-11.65
▁phiệt	-11.65
yomi	-11.65
▁dìu	-11.6501
▁taylor	-11.6502
++	-11.6503
▁thuột	-11.6504
▁bóp	-11.6506
е	-11.6506
giá	-11.6507
▁mâm	-11.6507
▁group	-11.6515
.700	-11.6523
▁buông	-11.6525
▁giày	-11.6528
die	-11.6528
▁khốc	-11.6529
▁wien	-11.653
▁proto	-11.6542
mus	-11.6545
qu	-11.655
tít	-11.655
▁bur	-11.655
▁pen	-11.6561
4%	-11.6566
▁nang	-11.6574
▁name	-11.6574
*	-11.6578
▁pali	-11.658
▁nà	-11.6582
▁pô	-11.6592
▁ur	-11.6607
▁war	-11.6608
base	-11.6611
▁yến	-11.6613
ence	-11.6623
▁gui	-11.6624
khối	-11.6634
vương	-11.6635
▁tau	-11.6649
▁96	-11.6671
ký	-11.6678
▁inter	-11.6683
▁rộ	-11.6683
▁ms	-11.6693
▁vế	-11.6694
cật	-11.6696
▁android	-11.6696
▁bangladesh	-11.6696
▁bundesliga	-11.6696
▁lisboa	-11.6696
▁ngoặt	-11.6696
▁nứa	-11.6696
▁vladimir	-11.6696
▁khỉ	-11.6696
▁raglai	-11.6696
▁ête	-11.6697
▁darwin	-11.6697
▁sào	-11.6697
▁quạt	-11.6698
▁ngơi	-11.6698
ada	-11.6698
▁mân	-11.6699
▁thoải	-11.67
▁amsterdam	-11.67
▁khao	-11.67
▁1898	-11.6701
▁gaulle	-11.6703
▁trơ	-11.6708
▁tòng	-11.6711
▁ròng	-11.6719
▁tệp	-11.6721
▁christian	-11.6722
nan	-11.6727
▁baptist	-11.6728
▁hiên	-11.6728
fu	-11.6735
cs	-11.6743
▁1.3	-11.6748
▁1,1	-11.675
ric	-11.6764
5°	-11.6767
▁len	-11.6784
▁nt	-11.6791
rê	-11.6792
bel	-11.6794
▁bế	-11.68
▁3000	-11.6811
▁1,3	-11.6828
đô	-11.6828
general	-11.6835
nối	-11.6838
nghị	-11.6839
giao	-11.6841
▁jos	-11.6849
aka	-11.685
–2	-11.6851
▁ren	-11.6864
▁hill	-11.6864
ring	-11.6867
▁sô	-11.6867
▁77	-11.688
▁220	-11.6882
lá	-11.6891
▁lề	-11.6895
▁fractal	-11.6896
▁massachusetts	-11.6896
▁schrödinger	-11.6896
▁thiếc	-11.6896
▁ppm	-11.6896
▁tót	-11.6896
▁manchester	-11.6896
▁putin	-11.6896
▁thốt	-11.6897
▁nàn	-11.6899
▁nại	-11.6899
ita	-11.6903
▁georgia	-11.6904
▁13%	-11.6919
▁15%	-11.6919
minh	-11.693
cht	-11.6931
era	-11.6937
ble	-11.6942
8.000	-11.6945
”"	-11.6945
▁jim	-11.6946
way	-11.6952
stra	-11.6959
▁101	-11.6969
▁69	-11.6971
kon	-11.6974
burg	-11.6975
й	-11.6981
tag	-11.6981
▁pol	-11.7007
▁mùng	-11.7018
thị	-11.7034
▁fu	-11.7037
lãnh	-11.7038
đời	-11.7038
▁lay	-11.7048
▁port	-11.7066
lla	-11.7068
rum	-11.7085
rt	-11.7086
▁toa	-11.7096
ē	-11.71
▁heinrich	-11.71
▁navarre	-11.71
▁elizabeth	-11.71
▁romania	-11.71
▁hới	-11.71
▁bmw	-11.7101
▁mía	-11.7103
▁sâm	-11.7104
▁hâm	-11.7106
▁dirac	-11.7106
▁1,6	-11.7113
▁bón	-11.7116
▁positron	-11.7118
▁1802	-11.712
▁xinh	-11.7126
tter	-11.7128
ssi	-11.7134
▁georges	-11.7137
▁rô	-11.7141
▁dưa	-11.7142
cd	-11.7142
▁chui	-11.7148
▁com	-11.7149
▁pla	-11.7153
kg	-11.7174
đăk	-11.7177
▁ste	-11.7185
▁ada	-11.7193
hiệp	-11.7196
▁un	-11.7213
ánh	-11.7231
▁val	-11.7242
đảo	-11.7246
4),	-11.7247
▁cr	-11.7249
▁red	-11.7252
▁sur	-11.7256
tâm	-11.7258
▁3%	-11.7263
▁lympho	-11.7264
ray	-11.7268
▁vé	-11.7268
▁radi	-11.7272
win	-11.7274
ỉ	-11.7281
▁inc	-11.7289
ef	-11.73
▁caribe	-11.7308
▁chicago	-11.7308
▁colombia	-11.7308
▁gulf	-11.7308
▁hươu	-11.7308
▁loãng	-11.7308
▁rắc	-11.7308
▁wolfgang	-11.7308
▁wilson	-11.7308
▁north	-11.7309
▁nới	-11.7309
▁indravarman	-11.7309
▁170	-11.7309
▁gạt	-11.7309
▁đoái	-11.731
▁300.000	-11.7311
▁chướng	-11.7311
▁chiêng	-11.7313
ế	-11.7314
▁1880	-11.7314
▁phosphat	-11.7316
row	-11.7317
▁sửu	-11.7317
▁1876	-11.7317
▁great	-11.7319
ting	-11.7321
shin	-11.7321
▁tì	-11.7321
▁ngủi	-11.7322
▁125	-11.7322
3%	-11.7325
▁sumer	-11.7326
▁cọc	-11.7328
▁gom	-11.7329
▁edwards	-11.7331
dh	-11.7334
tta	-11.7339
▁60.000	-11.734
▁ải	-11.734
▁national	-11.7344
▁mari	-11.7347
▁ư	-11.7349
▁chứt	-11.7352
lei	-11.7356
▁98	-11.7361
ik	-11.7365
▁pop	-11.7365
dia	-11.7382
▁73	-11.7388
7)	-11.7397
▁main	-11.7411
nu	-11.7423
▁16,	-11.7437
▁6%	-11.7441
dl	-11.7447
▁ak	-11.7449
hòn	-11.7449
voyager	-11.7458
truyện	-11.7459
nơi	-11.7459
nhiều	-11.7459
vân	-11.7462
xanh	-11.7464
▁ngà	-11.7464
chương	-11.7467
▁rapa	-11.7473
ĩ	-11.7504
▁cò	-11.7506
hđbt	-11.7521
▁barcelona	-11.7521
▁baroque	-11.7521
▁bohemia	-11.7521
▁bẩm	-11.7521
▁lawrence	-11.7521
▁muhammad	-11.7521
▁olympic	-11.7521
▁schwarzschild	-11.7521
▁sulfuric	-11.7521
▁trèo	-11.7521
▁vitamin	-11.7521
▁vần	-11.7521
▁daniel	-11.7521
▁ernest	-11.7521
▁hsv	-11.7521
▁andrew	-11.7521
▁nepal	-11.7522
▁cưỡi	-11.7522
▁meson	-11.7522
▁1891	-11.7526
▁1871	-11.7526
▁1899	-11.7528
▁cau	-11.7528
50.000	-11.7529
▁shah	-11.753
▁1862	-11.7531
kar	-11.7541
▁1.6	-11.7542
▁mễ	-11.7544
▁ic	-11.7556
stadt	-11.756
▁pri	-11.756
▁2012.	-11.7566
form	-11.7566
▁350	-11.757
▁gram	-11.757
▁kìm	-11.7582
6%	-11.7593
▁mili	-11.7596
fc	-11.7599
ệ	-11.7601
dos	-11.7603
▁2003.	-11.7605
port	-11.7608
▁mc	-11.7608
к	-11.7628
ân	-11.7642
▁%	-11.7649
=57	-11.7661
”.	-11.7661
▁1970.	-11.7662
ique	-11.7663
ok	-11.7665
ata	-11.7669
bus	-11.7671
σ	-11.7674
λ	-11.7675
thống	-11.7677
tuyên	-11.7677
giờ	-11.7677
▁fer	-11.7679
pur	-11.7683
▁pra	-11.7701
oz	-11.7716
▁ross	-11.7729
quang	-11.7731
▁ghé	-11.7732
▁81	-11.7734
▁lận	-11.7738
▁lhq	-11.7738
▁lắc	-11.7738
▁phèn	-11.7738
▁rhett	-11.7738
▁thặng	-11.7738
▁warszawa	-11.7738
▁serbia	-11.7739
▁chước	-11.7739
▁server	-11.7739
▁nồi	-11.7739
field	-11.7739
▁tiệm	-11.774
▁uất	-11.774
▁toản	-11.7741
▁ferdinand	-11.7742
▁1887	-11.7743
▁1870	-11.7744
▁vạc	-11.7745
▁byzantine	-11.7745
▁1884	-11.7746
▁bìa	-11.7747
▁jane	-11.7749
tis	-11.7752
▁nanh	-11.7758
ney	-11.7758
idae	-11.7759
vn	-11.7768
▁lẻo	-11.7768
ves	-11.777
▁(11	-11.7779
hung	-11.7787
iii	-11.7789
eg	-11.779
▁ưng	-11.7798
oxy	-11.7826
lor	-11.7834
▁lội	-11.7835
.600	-11.7838
▁xảo	-11.784
▁1.5	-11.7841
par	-11.7849
▁ray	-11.7849
pas	-11.7863
▁1976.	-11.7865
ky	-11.7876
tur	-11.7878
lat	-11.7879
ett	-11.7887
mã	-11.7889
kho	-11.789
hậu	-11.7894
▁hạc	-11.7896
trị	-11.7899
khí	-11.7899
sách	-11.7902
ska	-11.7902
nô	-11.7914
vis	-11.7915
▁cla	-11.7916
bin	-11.7922
▁hạo	-11.7925
▁phô	-11.7943
út	-11.7948
4.000	-11.7956
cr	-11.7957
▁lăn	-11.7959
▁assyria	-11.7961
▁harvard	-11.7961
▁iberia	-11.7961
▁scandinavia	-11.7961
▁thomson	-11.7961
▁île	-11.7961
▁đéc	-11.7961
▁nhưỡng	-11.7961
▁gang	-11.7961
dharma	-11.7961
▁frederick	-11.7961
▁sói	-11.7961
▁thâu	-11.7961
▁andré	-11.7961
▁troia	-11.7962
▁cười	-11.7962
▁nghiện	-11.7962
town	-11.7963
▁chảo	-11.7965
▁1897	-11.7965
ward	-11.7967
▁jordan	-11.7967
▁viền	-11.7969
▁françois	-11.797
▁chèn	-11.7977
▁point	-11.7981
gel	-11.7983
▁australia	-11.7985
sco	-11.7985
▁hốt	-11.7986
tem	-11.7997
rk	-11.8003
▁δ	-11.8007
▁mat	-11.8014
let	-11.8021
ờ	-11.8026
pre	-11.804
ato	-11.8052
▁đôla	-11.8069
▁lạch	-11.8071
▁1,4	-11.8073
oli	-11.8075
▁7%	-11.8077
bb	-11.8079
vàng	-11.8084
▁liêng	-11.8088
▁mò	-11.8104
â	-11.8104
▁1.8	-11.8108
μ	-11.8125
dịch	-11.8127
nhất	-11.8129
▁will	-11.8129
sơn	-11.8135
ow	-11.8136
_10	-11.8139
tôn	-11.8149
▁bô	-11.8155
▁air	-11.8158
▁char	-11.8165
tion	-11.8187
▁vr	-11.8187
▁dẹt	-11.8188
▁gấm	-11.8188
▁nhặt	-11.8188
▁nunavut	-11.8188
▁bỗng	-11.8188
▁pleiku	-11.8188
▁torvalds	-11.8188
▁lợp	-11.8189
▁đẽo	-11.8189
▁johannes	-11.819
▁sahara	-11.819
lar	-11.819
▁axít	-11.819
▁căm	-11.8191
▁1886	-11.8194
▁1791	-11.8195
▁giáy	-11.8196
▁hmông	-11.8197
▁tỵ	-11.8197
chen	-11.82
▁sộ	-11.8205
tiên	-11.8207
nghệ	-11.821
chí	-11.8214
wer	-11.8214
▁us	-11.8215
▁1889	-11.8216
о	-11.8218
▁rôman	-11.8219
▁phông	-11.822
▁plato	-11.8224
▁khuê	-11.8227
▁cation	-11.823
▁mỏi	-11.8243
rn	-11.8243
"2	-11.8257
%.	-11.8258
rd	-11.8266
▁super	-11.8268
▁cưa	-11.8271
ằng	-11.8281
ries	-11.8285
▁lung	-11.8288
3),	-11.8294
hơn	-11.8328
▁mào	-11.8335
▁118	-11.835
rạch	-11.8356
▁khóc	-11.8357
einstein	-11.8358
phiên	-11.8359
đánh	-11.836
kẻ	-11.836
dar	-11.8361
cia	-11.8362
ava	-11.8364
▁rong	-11.8377
▁ser	-11.8383
▁1950.	-11.8384
▁by	-11.8388
▁bri	-11.8396
ula	-11.8401
vel	-11.8412
▁155	-11.8417
▁1.7	-11.8419
▁boltzmann	-11.8421
▁buồm	-11.8421
▁bắp	-11.8421
▁dậu	-11.8421
▁himalaya	-11.8421
▁lõm	-11.8421
▁mệt	-11.8421
▁saddam	-11.8421
▁christoph	-11.8421
▁gorbachev	-11.8421
▁gauss	-11.8421
▁kiev	-11.8421
▁hormone	-11.8421
▁dối	-11.8422
▁thoáng	-11.8422
▁rico	-11.8422
▁krông	-11.8422
▁slam	-11.8422
▁lót	-11.8422
▁phệ	-11.8424
▁oanh	-11.8425
und	-11.8426
russia	-11.8427
▁city	-11.8429
▁đam	-11.8435
▁1.200	-11.8436
▁codon	-11.8438
▁vác	-11.8438
▁lyon	-11.8439
ere	-11.8442
▁united	-11.8444
▁ngo	-11.8445
▁methyl	-11.8449
▁mary	-11.845
▁ạt	-11.845
▁cro	-11.8482
té	-11.8485
ost	-11.849
▁2,7	-11.8502
nus	-11.8506
▁ton	-11.8507
▁den	-11.8509
▁2"	-11.8512
xa	-11.8516
ẻo	-11.8519
▁zu	-11.8526
▁nhâ	-11.8535
▁dực	-11.8537
▁mến	-11.8537
▁xo	-11.8538
las	-11.8549
ean	-11.8551
▁chan	-11.8562
107	-11.8568
ò	-11.8573
ave	-11.8581
▁2013.	-11.8591
ε	-11.8594
truyền	-11.8597
dòng	-11.8598
bắt	-11.86
▁cộ	-11.8609
▁fo	-11.8617
hàm	-11.8621
yu	-11.8624
▁71	-11.8627
ẹ	-11.8644
▁sar	-11.8647
úc	-11.8649
▁lượn	-11.8656
▁cừ	-11.8658
▁alcohol	-11.8659
▁ayutthaya	-11.8659
▁bưởi	-11.8659
▁houston	-11.8659
▁leopold	-11.8659
▁đắm	-11.8659
▁hecta	-11.8659
▁hẻm	-11.8659
▁chưởng	-11.8659
▁khấn	-11.8659
▁hooke	-11.8659
▁truman	-11.8659
▁gối	-11.866
▁camera	-11.866
▁400.000	-11.866
▁bbc	-11.866
▁ngói	-11.8661
▁1877	-11.8662
▁viking	-11.8665
▁gl	-11.8665
▁1820	-11.8668
▁1792	-11.8672
đồ	-11.8674
▁giồng	-11.8675
rei	-11.8676
▁cern	-11.8676
-6	-11.868
ret	-11.8682
ucc	-11.8697
▁83	-11.8711
stan	-11.8713
▁thùy	-11.8719
oma	-11.8724
mol	-11.873
mos	-11.8733
▁đản	-11.8737
▁tộ	-11.8744
hàng	-11.8745
▁rhode	-11.8746
▁109	-11.8749
▁ali	-11.8752
cher	-11.8758
hin	-11.8761
▁code	-11.8762
▁gr	-11.877
pin	-11.8792
▁115	-11.8802
mont	-11.8816
ft	-11.8816
ische	-11.8822
▁mam	-11.8831
bor	-11.8832
▁fri	-11.8837
đỏ	-11.884
▁chai	-11.8841
tỷ	-11.8841
rius	-11.8842
kể	-11.8842
bha	-11.8847
▁lin	-11.8848
▁xoa	-11.8848
tw	-11.887
▁sihanouk	-11.8884
van	-11.889
spe	-11.8898
▁congo	-11.8898
▁danube	-11.8903
▁dặn	-11.8903
▁gauge	-11.8903
▁kawabata	-11.8903
▁lincoln	-11.8903
▁orleans	-11.8903
▁samuel	-11.8903
▁uyển	-11.8903
▁adolf	-11.8903
▁trỗi	-11.8903
▁alexandria	-11.8903
▁luộc	-11.8903
▁rằm	-11.8903
▁2016.	-11.8903
▁đẩu	-11.8903
▁nhở	-11.8903
▁venera	-11.8904
▁thớt	-11.8904
▁nhuệ	-11.8904
▁seine	-11.8904
▁cằn	-11.8905
uerto	-11.8905
▁ngả	-11.8906
▁cước	-11.8906
▁faraday	-11.8906
▁pyr	-11.8909
▁1815	-11.891
▁1783	-11.891
▁network	-11.8911
▁1830	-11.8913
▁taira	-11.8915
▁vietnam	-11.8917
▁khốn	-11.8918
▁mìn	-11.892
rio	-11.8921
dis	-11.8921
▁12%	-11.8922
▁ồ	-11.8925
▁pét	-11.8926
▁lặc	-11.8927
/4	-11.8931
▁85%	-11.8935
buddha	-11.8936
▁"...	-11.8945
▁ồn	-11.8946
▁1600	-11.8962
ning	-11.9002
▁sy	-11.9007
▁hanh	-11.9012
eck	-11.9026
▁2017.	-11.9027
▁nóc	-11.9032
▁time	-11.9036
▁yu	-11.9045
▁2,4	-11.9052
”".	-11.9058
elle	-11.9081
đế	-11.9084
are	-11.9086
=46	-11.9086
-14	-11.9088
θ	-11.9089
world	-11.909
đảng	-11.909
aids	-11.909
thiết	-11.9091
vĩnh	-11.9091
thánh	-11.9091
tế	-11.9091
dưới	-11.9091
elli	-11.9098
phù	-11.9105
ini	-11.911
kō	-11.9112
▁mont	-11.9123
▁đát	-11.9124
ị	-11.9127
▁organ	-11.9135
▁88	-11.9141
iss	-11.9142
▁79	-11.9142
▁chơ	-11.9143
ẩu	-11.9144
fre	-11.9149
▁sắn	-11.915
▁chốn	-11.915
300	-11.9151
▁răn	-11.9152
▁luca	-11.9152
tvqh	-11.9153
κ	-11.9153
▁cobalt	-11.9153
▁cyanide	-11.9153
▁hussein	-11.9153
▁linnaeus	-11.9153
▁lửng	-11.9153
▁mozilla	-11.9153
▁đũa	-11.9153
▁ludwig	-11.9153
▁covid	-11.9153
▁qubit	-11.9153
▁phosphor	-11.9153
▁tằm	-11.9154
▁miệt	-11.9154
▁tăm	-11.9154
▁rêu	-11.9154
▁khắt	-11.9154
▁tantal	-11.9156
▁ngoan	-11.9156
▁mississippi	-11.9157
nôm	-11.9157
▁1869	-11.9159
▁gabriel	-11.9161
▁1893	-11.9162
▁1863	-11.9162
▁utc	-11.9164
▁cyclin	-11.9165
▁chăng	-11.9165
▁sưởi	-11.9169
▁02	-11.9175
▁unikey	-11.9176
▁2020.	-11.9176
▁mả	-11.9179
ix	-11.9185
▁450	-11.9196
▁bp	-11.9196
ề	-11.9199
▁2019.	-11.92
▁nhớt	-11.9207
▁cồng	-11.9212
/63	-11.9216
▁juan	-11.9225
ath	-11.9228
/18	-11.9233
tham	-11.9233
5)	-11.9242
196	-11.9259
ola	-11.9266
trang	-11.9277
▁74	-11.9279
▁bơ	-11.9288
▁108	-11.9292
ơn	-11.93
▁xxi	-11.9303
rid	-11.9309
bas	-11.9311
▁01	-11.9311
phú	-11.9328
▁1400	-11.9329
ade	-11.9335
vạn	-11.9347
cần	-11.9347
luật	-11.9347
lại	-11.9348
biến	-11.936
mel	-11.9375
–15	-11.9377
ati	-11.9379
▁rò	-11.938
lis	-11.9404
▁1999.	-11.9404
▁benjamin	-11.9409
▁giovanni	-11.9409
▁guinea	-11.9409
▁khuỷu	-11.9409
▁wojtyła	-11.9409
▁cạp	-11.9409
▁taekwondo	-11.9409
▁boston	-11.9409
▁rổ	-11.941
▁dỡ	-11.941
▁bangkok	-11.941
▁dỗ	-11.941
▁hrê	-11.9412
▁hermann	-11.9414
▁đắng	-11.9415
▁thán	-11.9415
▁rộn	-11.9416
▁maser	-11.9416
bul	-11.9418
▁1840	-11.9419
▁tâu	-11.9422
▁phớ	-11.9423
▁128	-11.9425
▁fc	-11.9425
▁111	-11.9428
▁dạt	-11.9434
▁green	-11.9436
▁domain	-11.944
▁1930.	-11.944
▁xông	-11.9447
.""	-11.9449
ctor	-11.945
▁cent	-11.9451
▁yang	-11.9466
9.000	-11.9471
▁ford	-11.9472
log	-11.9479
rom	-11.9482
▁bin	-11.9487
nit	-11.9492
jō	-11.9501
▁ss	-11.9504
of	-11.9513
▁78	-11.9514
▁art	-11.9524
р	-11.955
ika	-11.956
homo	-11.9565
▁16.	-11.9566
▁0,1	-11.9566
▁monte	-11.9575
]].	-11.9583
dù	-11.9583
▁21.	-11.9591
hữu	-11.9596
天	-11.9609
phạm	-11.961
sắc	-11.961
formula	-11.961
hòa	-11.961
▁ap	-11.9612
đây	-11.9613
bát	-11.9618
▁4,5	-11.9619
cổ	-11.9621
miến	-11.9624
▁wall	-11.9627
▁76	-11.9631
▁2.6	-11.9633
yō	-11.9635
ớ	-11.9635
▁sá	-11.9636
▁phò	-11.9642
▁vía	-11.9643
▁kè	-11.9662
▁nem	-11.9662
rik	-11.9663
▁roger	-11.9666
▁diesel	-11.9672
▁explorer	-11.9672
▁foundation	-11.9672
▁rutherford	-11.9672
▁sập	-11.9672
▁toronto	-11.9672
▁beaufort	-11.9672
▁finney	-11.9672
▁khước	-11.9672
▁lướt	-11.9672
▁thpt	-11.9672
▁email	-11.9673
zy	-11.9674
▁oop	-11.9674
▁nhấp	-11.9674
▁cháo	-11.9674
▁2,6	-11.9674
▁wimbledon	-11.9675
▁file	-11.9675
▁vijaya	-11.9676
▁bolshevik	-11.9676
▁desktop	-11.9676
▁hít	-11.9677
▁hinh	-11.9678
▁adams	-11.9678
▁carlos	-11.9679
▁1894	-11.9679
▁rây	-11.9679
▁1885	-11.968
câu	-11.9684
▁1803	-11.9686
▁rhein	-11.9688
▁véc	-11.9691
▁polynesia	-11.9695
▁18%	-11.9696
▁cdk	-11.9697
3).	-11.9697
▁black	-11.9702
tp	-11.9708
bia	-11.971
▁zi	-11.9711
▁1896	-11.9714
cây	-11.9721
▁byte	-11.9723
nin	-11.9729
▁vụn	-11.9729
nk	-11.9737
tro	-11.9744
aya	-11.9748
nik	-11.975
/7	-11.975
ộ	-11.9751
cor	-11.9756
.000.000	-11.9757
chia	-11.9757
gue	-11.9761
cos	-11.9769
all	-11.9779
▁thìn	-11.9783
▁cham	-11.9791
lum	-11.9796
ein	-11.9808
dō	-11.9812
tō	-11.9817
$	-11.9827
king	-11.9828
học	-11.9833
ue	-11.9845
▁ia	-11.9849
▁hống	-11.986
▁mel	-11.9861
cre	-11.9864
ôi	-11.9868
kỹ	-11.988
quyền	-11.988
phủ	-11.9881
loại	-11.9881
kỳ	-11.9881
▁ana	-11.9884
▁basel	-11.9884
▁mổ	-11.9884
▁end	-11.9885
▁kro	-11.9886
há	-11.9888
ngũ	-11.9894
đo	-11.9906
đến	-11.991
ết	-11.9913
hol	-11.9919
lex	-11.993
hydro	-11.9932
▁vả	-11.9937
▁mag	-11.9939
▁philip	-11.994
▁miện	-11.994
bs	-11.9941
▁giầy	-11.9942
▁halogen	-11.9942
▁hilbert	-11.9942
▁iceland	-11.9942
▁katrina	-11.9942
▁kẹo	-11.9942
▁phospholipid	-11.9942
▁phẫn	-11.9942
▁polaris	-11.9942
▁românia	-11.9942
▁corporation	-11.9942
▁xoài	-11.9942
▁xua	-11.9942
▁vector	-11.9943
▁cữu	-11.9943
▁nitrat	-11.9943
▁xót	-11.9943
▁trát	-11.9945
▁rét	-11.9946
▁vạt	-11.9947
▁ken	-11.9947
▁antoine	-11.9948
▁bazan	-11.9949
▁1846	-11.9952
▁1892	-11.9952
▁320	-11.9952
▁http	-11.9956
▁computer	-11.9959
▁young	-11.9965
▁chanh	-11.9968
▁space	-11.997
▁1940.	-11.9971
▁doạ	-11.9978
▁xát	-11.9984
▁sikh	-11.9987
iso	-11.9988
▁7.000	-11.999
ẻ	-11.9991
▁bong	-11.9996
▁250.000	-12
▁9%	-12
▁tom	-12.0002
nv	-12.001
shō	-12.0018
uni	-12.0026
áng	-12.0027
ous	-12.0029
▁107	-12.0032
в	-12.004
sto	-12.0044
ăng	-12.0046
▁102	-12.0049
set	-12.0049
▁võng	-12.0054
ovich	-12.0057
bat	-12.0058
▁shan	-12.0064
▁luc	-12.0067
col	-12.0069
los	-12.0076
▁tru	-12.0081
oid	-12.0085
able	-12.0089
▁bờm	-12.0116
see	-12.0123
▁hổng	-12.0128
phụ	-12.0143
xít	-12.0158
thiền	-12.0158
gái	-12.0159
phường	-12.0159
400	-12.016
chưa	-12.016
▁ara	-12.0172
▁bot	-12.0177
hō	-12.0178
gram	-12.0182
▁acetyl	-12.0186
▁sil	-12.0191
quá	-12.0197
yi	-12.0205
▁phàn	-12.022
▁bừa	-12.022
▁chỏm	-12.022
▁giục	-12.022
▁hollywood	-12.022
▁muội	-12.022
▁nắp	-12.022
▁trầu	-12.022
▁zürich	-12.022
▁opec	-12.022
▁norman	-12.0221
▁fifa	-12.0221
▁orion	-12.0221
saxon	-12.0221
▁tetra	-12.0221
▁nách	-12.0221
▁moai	-12.0221
▁gien	-12.0222
▁thuỷ	-12.0222
▁phở	-12.0222
▁nhộn	-12.0222
▁hăng	-12.0222
▁thắp	-12.0222
▁chê	-12.0222
pen	-12.0223
▁phiện	-12.0225
▁1861	-12.0227
▁thắc	-12.0227
▁1788	-12.0228
▁all	-12.0228
▁1868	-12.0229
cca	-12.0229
▁phai	-12.023
▁xâu	-12.023
▁brandenburg	-12.0232
▁phàm	-12.0232
▁choàng	-12.0235
mir	-12.0235
spar	-12.0236
uc	-12.0238
▁cúi	-12.0242
rod	-12.0242
▁1700	-12.0246
ensis	-12.0249
bur	-12.0254
▁trna	-12.0254
▁fort	-12.0256
▁175	-12.0257
▁free	-12.0259
lie	-12.0261
dore	-12.0263
rā	-12.0271
▁thủng	-12.0274
out	-12.0277
▁lev	-12.0277
▁khay	-12.0277
▁3'	-12.028
nas	-12.0286
ée	-12.0287
ies	-12.0289
▁λ	-12.0301
▁tánh	-12.0303
int	-12.0331
hoạt	-12.0336
▁2,1	-12.0343
▁quai	-12.0356
ology	-12.0359
н	-12.0366
lman	-12.0368
▁cay	-12.037
ột	-12.0378
ủ	-12.039
dan	-12.0393
▁mass	-12.0404
ố	-12.0406
thư	-12.0416
8°	-12.0416
over	-12.0422
▁cad	-12.0431
hầu	-12.0436
▁1974.	-12.044
γ	-12.0442
xứ	-12.0444
lời	-12.0444
bệnh	-12.0444
panthera	-12.0444
vòng	-12.0445
▁ngọ	-12.0448
mỗi	-12.0449
▁2014.	-12.0451
tát	-12.0452
▁phỉ	-12.0454
rb	-12.0455
dự	-12.0468
▁5'	-12.0477
ỗ	-12.0481
▁84	-12.0482
▁lọ	-12.0488
▁ngắ	-12.0495
pont	-12.0496
▁thỏ	-12.0498
▁graphit	-12.0506
▁mikhail	-12.0506
▁ngoặc	-12.0506
▁obama	-12.0506
▁silesia	-12.0506
▁xtiêng	-12.0506
▁vỹ	-12.0506
▁trượng	-12.0506
▁balkan	-12.0506
▁ayumi	-12.0506
▁vuốt	-12.0506
▁praha	-12.0506
▁lừng	-12.0507
sui	-12.0507
▁vòi	-12.0509
▁ráo	-12.0511
▁thiểm	-12.0511
▁xoá	-12.0511
▁koch	-12.0512
▁paulus	-12.0513
▁1790	-12.0513
800	-12.0513
▁project	-12.0514
▁quất	-12.0514
▁1795	-12.0516
▁ml	-12.0517
▁1858	-12.0519
▁25.000	-12.0521
▁củi	-12.0521
▁sap	-12.0522
▁1997.	-12.0524
▁21,	-12.0526
clo	-12.0528
▁penn	-12.0529
_7	-12.053
▁petersburg	-12.0531
▁dại	-12.0531
▁polymer	-12.0531
▁huynh	-12.0541
mara	-12.0547
▁silicat	-12.0551
▁nara	-12.0556
▁há	-12.0556
▁neo	-12.0561
oka	-12.0568
aux	-12.057
.100	-12.0571
gro	-12.0574
▁35%	-12.0588
▁phách	-12.0591
▁rông	-12.0594
"]	-12.0596
▁thúy	-12.0599
ram	-12.0609
▁mon	-12.0612
eur	-12.0613
=100	-12.0614
ford	-12.0618
tơ	-12.0618
kam	-12.0629
▁kant	-12.0629
kra	-12.0631
pho	-12.0638
oll	-12.0643
phan	-12.0646
hl	-12.0646
220	-12.065
▁116	-12.065
▁ivan	-12.0654
▁cape	-12.0655
▁255	-12.0656
bồ	-12.0661
▁kem	-12.0662
▁tró	-12.0672
▁1993.	-12.0676
▁mus	-12.0688
▁lộng	-12.0689
▁dr	-12.0692
▁má	-12.0698
zer	-12.0701
gs	-12.0702
lus	-12.0702
▁sum	-12.0706
dom	-12.0707
varman	-12.0707
ile	-12.0708
ao	-12.0709
▁đè	-12.071
ach	-12.0716
ming	-12.0716
▁điên	-12.0725
kara	-12.0727
▁arch	-12.0727
hỏa	-12.0735
chế	-12.0735
comp	-12.0736
mùa	-12.0738
đứng	-12.0738
nghiên	-12.0738
france	-12.0739
thuyết	-12.0739
úp	-12.0744
day	-12.0747
dha	-12.0753
▁wal	-12.0761
coa	-12.0764
coli	-12.077
wei	-12.0772
▁sunda	-12.0774
▁es	-12.0783
▁gustav	-12.0796
▁đao	-12.0798
▁teluri	-12.0799
м	-12.08
▁algérie	-12.08
▁alpes	-12.08
▁bẩn	-12.08
▁chật	-12.08
▁douglas	-12.08
▁ernst	-12.08
▁espresso	-12.08
▁foucault	-12.08
▁hợi	-12.08
▁jazz	-12.08
▁jonathan	-12.08
▁lavoisier	-12.08
▁mõm	-12.08
▁ngoạn	-12.08
▁reagan	-12.08
▁riemann	-12.08
▁rưỡi	-12.08
▁weimar	-12.08
▁méo	-12.08
▁mụn	-12.08
▁galilei	-12.08
▁thiều	-12.08
▁nghênh	-12.08
▁walter	-12.08
▁club	-12.08
▁đuối	-12.08
▁website	-12.0801
▁donau	-12.0801
▁luang	-12.0801
▁chiền	-12.0801
▁đố	-12.0801
▁khất	-12.0801
▁lén	-12.0802
▁phêrô	-12.0802
▁gpl	-12.0802
▁chồi	-12.0804
gal	-12.0804
▁mỉ	-12.0804
▁blues	-12.0804
▁quyên	-12.0805
▁náo	-12.0805
▁adam	-12.0805
▁hydrogen	-12.0805
▁1873	-12.0806
▁1776	-12.0808
▁clb	-12.0808
▁bose	-12.0808
▁vóc	-12.0809
hờ	-12.0811
▁chày	-12.0812
▁1471	-12.0812
▁england	-12.0814
▁watson	-12.0815
▁2,2	-12.082
▁css	-12.0824
▁99%	-12.0826
▁27%	-12.0828
eb	-12.0831
=72	-12.0838
109	-12.0839
▁mal	-12.0844
▁nến	-12.0855
▁yo	-12.087
▁rio	-12.0891
▁127	-12.09
óng	-12.0914
700	-12.0916
▁1946.	-12.0917
▁gio	-12.0924
▁zo	-12.0929
rian	-12.0937
▁121	-12.0938
0,2%	-12.0943
▁1/2	-12.0943
=25	-12.0946
ima	-12.0953
▁day	-12.0961
ther	-12.0964
▁form	-12.0965
ind	-12.0966
197	-12.0966
ay	-12.0968
▁1,7	-12.0971
▁kheo	-12.0982
bro	-12.1
var	-12.1011
ước	-12.1015
▁104	-12.1015
ộc	-12.1023
đê	-12.1036
δ	-12.104
lợi	-12.1041
thập	-12.1041
xuân	-12.1041
electron	-12.1043
▁mir	-12.105
kết	-12.1051
▁nhung	-12.1053
▁(24	-12.1064
anda	-12.1066
back	-12.1073
▁land	-12.1074
600	-12.109
▁kan	-12.1095
▁ron	-12.1097
▁bần	-12.1103
▁dật	-12.1103
▁ethiopia	-12.1103
▁hudson	-12.1103
▁khrushchev	-12.1103
▁rugby	-12.1103
▁sếu	-12.1103
▁taqt	-12.1103
▁frisia	-12.1103
▁bavaria	-12.1103
▁kiệu	-12.1103
▁thốn	-12.1103
▁điềm	-12.1103
▁ghềnh	-12.1103
▁trán	-12.1103
▁rìu	-12.1104
▁1991.	-12.1104
▁shiva	-12.1104
time	-12.1104
▁mỳ	-12.1105
▁barca	-12.1105
▁ronaldo	-12.1106
▁charon	-12.1109
real	-12.1109
das	-12.1109
nov	-12.111
▁1864	-12.1111
▁dan	-12.1112
▁1835	-12.1113
▁kình	-12.1113
▁têm	-12.1117
▁thau	-12.1117
▁fdi	-12.1118
▁union	-12.1119
▁điếm	-12.1119
▁bạ	-12.112
▁mission	-12.1122
▁kar	-12.1123
hoàn	-12.1125
moni	-12.1127
▁anion	-12.1131
▁scott	-12.1131
▁open	-12.1132
▁rus	-12.1137
plan	-12.1137
▁máng	-12.1139
▁don	-12.114
▁át	-12.1142
syn	-12.1144
lease	-12.1148
ệp	-12.1153
▁sho	-12.1177
0,7%	-12.1181
▁mil	-12.1187
▁viêng	-12.1189
5%)	-12.1196
680	-12.1198
star	-12.1201
▁gióng	-12.1217
▁2002.	-12.1227
▁α	-12.1227
bá	-12.1232
▁oss	-12.1248
▁bẻ	-12.1249
▁650	-12.1252
16"	-12.1258
hor	-12.1261
df	-12.1263
mg	-12.1267
▁les	-12.1267
late	-12.1271
▁williams	-12.1271
▁eugen	-12.1287
rơ	-12.129
nó	-12.1295
7.000	-12.1302
yn	-12.1303
top	-12.1304
ins	-12.1304
▁4000	-12.1321
ike	-12.133
▁192	-12.1333
nhã	-12.1348
grad	-12.1351
une	-12.1353
fluor	-12.1353
tạm	-12.1353
đọc	-12.1353
núi	-12.1353
phổ	-12.1355
mail	-12.1357
marie	-12.1358
bên	-12.1358
sài	-12.1359
▁mur	-12.1365
▁vò	-12.1378
lov	-12.1383
ative	-12.1389
dùng	-12.139
song	-12.1397
dus	-12.1406
▁xú	-12.1412
0,3%	-12.1413
"—	-12.1414
▁berkeley	-12.1416
▁bratislava	-12.1416
▁chập	-12.1416
▁kazakhstan	-12.1416
▁leipzig	-12.1416
▁nkvd	-12.1416
▁nòi	-12.1416
▁punjab	-12.1416
▁sumatra	-12.1416
▁tặc	-12.1416
▁werner	-12.1416
▁pascal	-12.1416
▁ướp	-12.1416
▁michigan	-12.1416
▁trumpet	-12.1416
▁neumann	-12.1416
▁series	-12.1416
▁cacbonat	-12.1417
▁julian	-12.1418
▁rốt	-12.1418
▁silicon	-12.1418
▁tuất	-12.1421
▁huygens	-12.1423
▁1865	-12.1423
▁cellulose	-12.1427
donald	-12.1427
▁nickel	-12.1433
▁190	-12.1434
▁tanakh	-12.1437
▁kursk	-12.1443
▁240	-12.1443
4,5%	-12.1453
▁sê	-12.1459
▁π	-12.1467
gas	-12.1472
giai	-12.1475
body	-12.1476
▁92	-12.1479
▁wo	-12.1481
▁mw	-12.1482
ffe	-12.1482
cio	-12.1483
zen	-12.1483
▁mit	-12.1484
▁ger	-12.1499
▁sv	-12.1503
▁97	-12.1509
▁750	-12.1509
▁voyager	-12.151
itz	-12.1516
▁amd	-12.1517
bal	-12.1523
▁khoác	-12.1525
▁nạ	-12.1527
▁mono	-12.1538
▁sh	-12.1549
6,5%	-12.1549
_11	-12.1559
ml	-12.1564
cus	-12.1569
▁rao	-12.1573
12)	-12.1579
"(	-12.1591
▁tor	-12.1592
▁ôm	-12.1595
▁ea	-12.1596
ose	-12.162
1,9%	-12.1623
shu	-12.1632
gl	-12.1635
đun	-12.164
▁89	-12.1641
▁tel	-12.1645
ash	-12.1646
▁chen	-12.1663
0)	-12.1663
off	-12.1674
đoàn	-12.1676
bích	-12.1677
thân	-12.1677
biển	-12.1677
lực	-12.1677
vị	-12.1678
bị	-12.1679
bách	-12.168
phải	-12.168
mường	-12.1681
đôi	-12.1683
quán	-12.1684
mẹ	-12.1685
10.000	-12.1688
ole	-12.1698
▁93	-12.1701
aa	-12.1703
py	-12.1707
ama	-12.1709
▁card	-12.1715
▁nhữ	-12.1715
▁album	-12.1717
▁iss	-12.172
dor	-12.1722
▁rudol	-12.1726
▁august	-12.1727
ẫu	-12.1728
right	-12.1736
▁1,9	-12.1737
ι	-12.1738
▁sachsen	-12.1738
▁borglum	-12.1738
▁dürer	-12.1738
▁fatalis	-12.1738
▁gặt	-12.1738
▁heisenberg	-12.1738
▁herschel	-12.1738
▁immunoglobulin	-12.1738
▁kavkaz	-12.1738
▁norodom	-12.1738
▁oracle	-12.1738
▁ptolemy	-12.1738
▁trombone	-12.1738
▁westminster	-12.1738
▁đùa	-12.1738
▁hydroxyl	-12.1738
▁icrc	-12.1738
▁asean	-12.1738
▁winamp	-12.1739
▁hóc	-12.1739
▁moore	-12.1739
▁nhoáng	-12.174
▁liban	-12.174
▁loét	-12.174
▁ny	-12.1742
▁kèo	-12.1742
▁râu	-12.1744
shū	-12.1749
▁1831	-12.1752
▁1883	-12.1753
▁1763	-12.1754
▁prince	-12.1757
▁líu	-12.1758
▁117	-12.1761
stre	-12.1765
▁sulfat	-12.1768
ance	-12.1768
▁ủ	-12.1771
▁blue	-12.1773
4+	-12.1779
▁bank	-12.1784
iti	-12.1785
▁vằn	-12.1795
("	-12.1796
▁thali	-12.1803
▁tè	-12.181
tín	-12.1812
iva	-12.1819
▁giu	-12.1833
enne	-12.1836
bc	-12.1841
▁(100	-12.1844
▁page	-12.1845
▁1/10	-12.1849
▁hốc	-12.1856
▁dè	-12.1859
usa	-12.1876
sing	-12.1876
5,6%	-12.1882
▁hé	-12.1882
660	-12.1884
▁1959.	-12.1892
rich	-12.1894
2,8%	-12.1896
reg	-12.1902
▁(25	-12.1903
▁365	-12.1905
");	-12.1906
ền	-12.1911
bach	-12.1918
▁1941.	-12.1921
/10	-12.1925
5),	-12.1934
-11	-12.1936
hiệu	-12.1952
hara	-12.1961
hàn	-12.1967
▁moi	-12.1968
nar	-12.1978
ngô	-12.1984
="21	-12.1991
arry	-12.1993
ổi	-12.2002
tác	-12.2007
tex	-12.2007
▁nor	-12.201
tàu	-12.201
giữa	-12.201
▁103	-12.2012
nằm	-12.2013
siêu	-12.2015
bánh	-12.2017
▁05	-12.2021
0.0	-12.2022
pra	-12.2023
▁vã	-12.2034
▁luy	-12.2036
▁114	-12.2041
▁sò	-12.2043
▁1)	-12.2043
độc	-12.2045
ald	-12.2059
▁bal	-12.206
77"	-12.2068
▁đờ	-12.2069
▁galli	-12.2069
hip	-12.207
▁polyme	-12.2071
▁vờ	-12.2071
ρ	-12.2071
▁cuồng	-12.2071
▁elíp	-12.2071
▁express	-12.2071
▁gập	-12.2071
▁mendeleev	-12.2071
▁nobita	-12.2071
▁thầm	-12.2071
▁ampère	-12.2071
▁maurice	-12.2071
▁atlas	-12.2072
▁record	-12.2072
▁michelson	-12.2072
▁trĩ	-12.2072
▁gươm	-12.2072
▁irc	-12.2072
▁xốp	-12.2072
▁feet	-12.2073
▁metro	-12.2073
▁antonio	-12.2074
▁lord	-12.2075
fra	-12.2076
▁uông	-12.2076
▁cội	-12.2077
▁phình	-12.2078
▁kcn	-12.2078
▁jose	-12.208
kat	-12.2081
▁bênh	-12.2088
▁oan	-12.2088
▁mút	-12.2089
▁dollar	-12.2092
▁mủ	-12.2095
uss	-12.2097
2,5%	-12.2101
sche	-12.2103
▁granit	-12.2104
▁sim	-12.2105
▁70.000	-12.2119
▁wood	-12.212
aire	-12.2121
asa	-12.2129
▁1/4	-12.2137
air	-12.2144
▁−1	-12.2153
tech	-12.2158
well	-12.2166
stro	-12.2167
▁8.000	-12.2187
▁neu	-12.2188
▁víu	-12.2195
kawa	-12.2198
?".	-12.2198
▁liga	-12.22
▁io	-12.2207
---	-12.2207
▁tỉa	-12.2208
uma	-12.2226
▁gre	-12.2234
nz	-12.2234
1/	-12.2235
ans	-12.2243
▁america	-12.2245
tay	-12.2248
▁simon	-12.2249
ding	-12.225
▁cat	-12.2253
she	-12.2259
_9	-12.2265
▁han	-12.2266
▁mode	-12.2267
▁arm	-12.2273
ire	-12.2283
▁vôn	-12.2283
sm	-12.2292
ỗi	-12.2306
may	-12.2319
mei	-12.2322
▁chao	-12.2327
vā	-12.2331
▁roman	-12.2336
aba	-12.2339
sb	-12.2344
manuel	-12.2353
gam	-12.2353
book	-12.2353
việc	-12.2354
ninh	-12.2365
bán	-12.2366
sia	-12.2366
▁bio	-12.2367
ngữ	-12.2376
▁(192	-12.2376
kiến	-12.2377
▁ngừ	-12.2382
đài	-12.2383
ack	-12.2384
▁0,2	-12.239
▁win	-12.2391
▁bro	-12.2392
beck	-12.2394
▁ns	-12.2401
▁mini	-12.2401
9,5%	-12.2405
▁brunei	-12.2416
▁coulomb	-12.2416
▁gỏi	-12.2416
▁hómēros	-12.2416
▁napoleon	-12.2416
▁philadelphia	-12.2416
▁rayleigh	-12.2416
▁standard	-12.2416
▁sydney	-12.2416
▁amazon	-12.2416
▁gáy	-12.2416
▁society	-12.2416
▁akkad	-12.2416
▁minamoto	-12.2416
▁fourier	-12.2416
▁compact	-12.2416
▁niels	-12.2416
▁ruồi	-12.2416
▁richter	-12.2416
▁leningrad	-12.2417
▁cricket	-12.2417
▁phosphoryl	-12.2417
▁jack	-12.2417
▁maroc	-12.2417
▁bernard	-12.2417
▁karol	-12.2417
▁zeus	-12.2419
▁gaul	-12.2419
▁dì	-12.2419
▁04	-12.2421
▁nản	-12.2421
▁blog	-12.2422
▁kauthara	-12.2422
▁sea	-12.2422
▁1879	-12.2422
▁tuý	-12.2423
▁ascii	-12.2424
▁festival	-12.2424
▁chuồng	-12.2424
▁1787	-12.2425
▁1838	-12.2425
▁toại	-12.2425
▁1866	-12.2426
▁bỉnh	-12.2426
▁1808	-12.2428
▁nộn	-12.243
▁55%	-12.243
for	-12.2431
▁toan	-12.2437
▁hùm	-12.2437
ular	-12.2442
▁1948.	-12.2442
▁(30	-12.2443
european	-12.2443
▁bh	-12.2443
▁dạo	-12.2443
▁jura	-12.2445
▁hôi	-12.2458
▁lách	-12.2459
▁bert	-12.2462
▁bou	-12.2464
▁lynd	-12.2465
kal	-12.2466
104	-12.2467
▁sco	-12.2469
980	-12.247
▁vâng	-12.247
trẫm	-12.2473
▁1989.	-12.2476
▁anna	-12.2488
▁2.1	-12.2492
▁panthera	-12.2493
làng	-12.2497
áp	-12.2499
▁gold	-12.2501
▁pie	-12.2502
▁hor	-12.2507
▁noi	-12.2507
2016	-12.2508
=24	-12.2514
low	-12.2514
anti	-12.2516
ines	-12.2536
▁11%	-12.2538
+)	-12.2543
huế	-12.2543
lao	-12.2551
gle	-12.2551
gha	-12.2558
▁oa	-12.2559
▁fl	-12.256
ella	-12.2562
yama	-12.2573
cấp	-12.2574
190	-12.2582
dc	-12.2602
sar	-12.2607
rea	-12.261
trà	-12.2618
ssen	-12.2621
feld	-12.2627
▁gianh	-12.2627
▁eur	-12.263
▁pul	-12.2642
▁anti	-12.2648
▁post	-12.265
sub	-12.2651
cent	-12.266
rack	-12.2666
▁2.3	-12.2673
bos	-12.2682
2-	-12.2688
▁ut	-12.269
toà	-12.2706
▁santa	-12.2707
cửa	-12.2711
mọi	-12.2711
quần	-12.2711
nhạc	-12.2711
nhiệt	-12.2712
lớp	-12.2712
gdp	-12.2712
num	-12.2713
thơ	-12.2713
▁oxi	-12.272
▁(60	-12.273
▁rê	-12.273
hồi	-12.2732
▁270	-12.2738
▁4.0	-12.274
▁pot	-12.2742
mbo	-12.2743
đó	-12.2753
▁gas	-12.2754
cụ	-12.2756
iều	-12.2764
▁ngơ	-12.2771
=55	-12.2772
script	-12.2773
▁[...]	-12.2773
▁broglie	-12.2773
▁dẳng	-12.2773
▁kashmir	-12.2773
▁manhattan	-12.2773
▁melanie	-12.2773
▁minkowski	-12.2773
▁moscow	-12.2773
▁offset	-12.2773
▁pênh	-12.2773
▁rhine	-12.2773
▁solomon	-12.2773
▁sãi	-12.2773
▁telomere	-12.2773
▁tokugawa	-12.2773
▁ỏi	-12.2773
▁luỹ	-12.2773
▁lôgic	-12.2773
▁marshall	-12.2773
▁riềng	-12.2773
▁electrum	-12.2773
▁garnier	-12.2773
▁freud	-12.2773
▁churchill	-12.2774
▁biền	-12.2774
▁jones	-12.2774
▁lăm	-12.2774
▁răm	-12.2774
▁palais	-12.2774
▁niken	-12.2774
▁náu	-12.2774
▁xhtml	-12.2775
▁golf	-12.2775
▁sunni	-12.2775
▁prix	-12.2776
▁huyên	-12.2776
80.000	-12.2776
▁goto	-12.2776
▁pà	-12.2777
▁crick	-12.2777
armée	-12.2777
mart	-12.2779
▁thuyên	-12.2779
▁giòn	-12.278
▁1859	-12.278
▁1875	-12.2781
▁iupac	-12.2781
▁carlo	-12.2783
rau	-12.2784
▁white	-12.2785
▁1757	-12.2786
▁êm	-12.2788
▁ram	-12.2788
▁nucleon	-12.2788
▁language	-12.2788
▁ash	-12.279
▁christ	-12.279
▁ounce	-12.2791
▁1836	-12.2793
▁software	-12.2793
▁vồng	-12.2794
hon	-12.2795
▁cler	-12.2797
▁ural	-12.2797
▁550	-12.2798
▁chói	-12.2798
▁1812	-12.2799
assa	-12.28
▁phất	-12.2803
▁1200	-12.2805
360	-12.2805
▁down	-12.2805
▁house	-12.281
▁gali	-12.2812
oud	-12.2818
▁mùn	-12.2821
▁kền	-12.2824
rib	-12.2827
ente	-12.2833
▁om	-12.2833
last	-12.2841
3,4%	-12.2846
▁und	-12.2861
asi	-12.2862
ơng	-12.2871
▁unita	-12.2872
lock	-12.2876
▁45%	-12.2878
▁rama	-12.2878
▁she	-12.288
▁1.9	-12.2883
▁fan	-12.2887
water	-12.2891
▁state	-12.2896
▁nôn	-12.2901
▁grande	-12.2906
now	-12.2908
8,5	-12.2913
rak	-12.2914
▁(2)	-12.2926
ổ	-12.2929
▁you	-12.293
▁if	-12.293
ối	-12.2932
▁one	-12.294
gành	-12.2951
▁ruth	-12.2968
ert	-12.2969
fort	-12.2973
▁turk	-12.2973
ương	-12.298
osis	-12.2981
350	-12.2983
▁132	-12.2986
▁thà	-12.2988
zan	-12.2999
90)	-12.3004
cà	-12.3015
▁1992.	-12.3016
xá	-12.3017
▁american	-12.3022
_12	-12.3028
▁174	-12.3034
tat	-12.304
▁vạ	-12.3043
▁tw	-12.3044
3-	-12.3049
ial	-12.3053
▁qur	-12.3057
very	-12.3062
▁ngó	-12.3068
ṇ	-12.307
/1946	-12.3075
carbon	-12.3076
ừng	-12.3079
micro	-12.3081
xếp	-12.3082
giới	-12.3082
trọng	-12.3082
kháng	-12.3082
xuất	-12.3082
lượng	-12.3082
triều	-12.3083
trí	-12.3084
lenin	-12.3085
eus	-12.3085
mẫu	-12.3089
yên	-12.3098
▁balt	-12.3101
▁engine	-12.3102
pyo	-12.3106
ale	-12.3111
tain	-12.3124
rate	-12.3133
740	-12.3138
hắp	-12.3138
▁victor	-12.314
▁137	-12.3141
text	-12.3141
č	-12.3144
▁arizona	-12.3144
▁arpanet	-12.3144
▁arrhenius	-12.3144
▁cytosine	-12.3144
▁góa	-12.3144
▁hippocrates	-12.3144
▁kalahari	-12.3144
▁kraków	-12.3144
▁motif	-12.3144
▁plasmid	-12.3144
▁stanley	-12.3144
▁thymine	-12.3144
▁tigris	-12.3144
▁tẩm	-12.3144
▁university	-12.3144
▁điểu	-12.3144
▁chọi	-12.3144
▁nicolas	-12.3144
▁chomsky	-12.3144
▁gmt	-12.3144
▁điếu	-12.3144
▁ashley	-12.3144
▁jackson	-12.3144
▁đĩnh	-12.3144
▁chrome	-12.3144
aceae	-12.3144
▁greenland	-12.3144
▁adenine	-12.3144
hydroxy	-12.3144
▁howard	-12.3145
▁beria	-12.3146
▁linus	-12.3146
▁lều	-12.3147
▁hân	-12.3147
▁cọp	-12.3149
▁states	-12.3151
▁1855	-12.3151
▁eczema	-12.3152
▁olive	-12.3153
▁1775	-12.3154
▁1844	-12.3154
major	-12.3154
250	-12.3155
▁origami	-12.3157
mark	-12.3157
▁marcel	-12.3158
▁mariner	-12.316
national	-12.3163
▁1822	-12.3163
▁blitzkrieg	-12.3164
▁boris	-12.3165
▁150.000	-12.3165
▁1740	-12.3169
▁2050	-12.317
▁hertz	-12.3172
▁altai	-12.3176
▁bsd	-12.3183
▁fin	-12.3184
▁cassini	-12.3186
▁hoi	-12.3186
▁dép	-12.3188
9,2%	-12.3191
stone	-12.3206
▁3,8	-12.3208
1,5	-12.3218
▁bùa	-12.3223
▁1979.	-12.3225
650	-12.323
▁lôn	-12.3232
▁138	-12.3241
▁radian	-12.3242
phe	-12.3251
ựa	-12.3255
ghi	-12.3262
▁14%	-12.3268
▁chích	-12.3293
774	-12.3295
7%	-12.3296
▁sub	-12.3297
418	-12.3301
)",	-12.3306
2,5	-12.331
▁165	-12.3312
2/	-12.3314
mal	-12.3315
▁ath	-12.3317
▁141	-12.3318
jan	-12.3319
5-	-12.332
320	-12.3323
▁$1	-12.3326
né	-12.333
▁vol	-12.3331
▁0,3	-12.3331
ory	-12.3332
aj	-12.3333
▁139	-12.3339
ο	-12.3343
▁(198	-12.3354
▁nã	-12.3357
▁131	-12.3362
▁ten	-12.3369
bury	-12.3372
ài	-12.3376
main	-12.3386
▁03	-12.3387
nis	-12.3389
ull	-12.3395
▁1973.	-12.3396
▁kerr	-12.3396
▁208	-12.3404
àn	-12.3404
1991	-12.3409
this	-12.343
uv	-12.3432
haus	-12.3433
sat	-12.3437
cam	-12.3443
nie	-12.3443
mê	-12.3447
▁rí	-12.3449
▁bering	-12.3454
gau	-12.3458
bạc	-12.3463
π	-12.3465
wood	-12.3465
baptist	-12.3466
international	-12.3466
campuchia	-12.3466
israel	-12.3466
thuật	-12.3466
tạo	-12.3466
kiên	-12.3467
trái	-12.3467
▁leon	-12.3467
▁1920.	-12.3468
neo	-12.3468
toán	-12.3468
dương	-12.3469
ái	-12.3471
lấy	-12.3471
tài	-12.3473
sóng	-12.3475
▁mali	-12.3476
cuối	-12.3477
mạng	-12.3478
tết	-12.3479
▁trau	-12.3479
▁tara	-12.3483
tấn	-12.3485
lào	-12.3488
▁159	-12.3493
xe	-12.3493
phim	-12.3497
meta	-12.3511
ường	-12.3521
▁giò	-12.3522
▁tata	-12.3523
mac	-12.3524
▁ronald	-12.3525
ras	-12.3528
chxhcn	-12.3528
▁aztec	-12.3528
▁bruxelles	-12.3528
▁canterbury	-12.3528
▁cathode	-12.3528
▁croatia	-12.3528
▁cuội	-12.3528
▁dortmund	-12.3528
▁gilbert	-12.3528
▁hựu	-12.3528
▁kanishka	-12.3528
▁kẹt	-12.3528
▁mẫn	-12.3528
▁mận	-12.3528
▁ngậm	-12.3528
▁ngỏ	-12.3528
▁nhẵn	-12.3528
▁nuclit	-12.3528
▁penrose	-12.3528
▁pölten	-12.3528
▁voldemort	-12.3528
▁wallonie	-12.3528
▁pulsar	-12.3528
▁opengl	-12.3528
▁thừng	-12.3529
▁milimét	-12.3529
▁giễu	-12.3529
▁sonata	-12.3529
▁fortran	-12.3529
▁nuốt	-12.3529
▁lười	-12.3529
▁đớn	-12.3529
▁archimedes	-12.3529
▁carter	-12.353
▁khoét	-12.353
▁hũ	-12.353
heli	-12.353
▁hỉ	-12.3531
▁sỉ	-12.3531
bundes	-12.3532
▁ligo	-12.3532
gène	-12.3534
▁hgh	-12.3534
anna	-12.3534
▁diego	-12.3535
letic	-12.3535
▁97%	-12.3535
▁1872	-12.3536
▁yếm	-12.3537
▁glucose	-12.3537
▁1849	-12.3537
▁logo	-12.3538
460	-12.3538
="106	-12.3539
▁uni	-12.3539
hằng	-12.354
▁rené	-12.3541
▁nice	-12.3542
ăm	-12.3542
▁golden	-12.3542
▁1793	-12.3542
▁dở	-12.3542
peterburg	-12.3542
▁1777	-12.3543
▁xào	-12.3543
▁1774	-12.3545
▁life	-12.3551
▁1.400	-12.3551
oku	-12.3552
▁ỷ	-12.3552
▁42%	-12.3553
▁kaki	-12.3558
▁hat	-12.3559
/12	-12.3561
▁2025	-12.3564
41)	-12.3565
▁sòng	-12.3565
▁vãng	-12.3569
ưu	-12.357
tā	-12.3575
▁selen	-12.3576
▁radar	-12.3582
▁berg	-12.3583
▁316	-12.3585
utf	-12.3586
ès	-12.3588
▁stone	-12.3597
▁bol	-12.3605
▁21%	-12.361
ona	-12.361
▁abc	-12.3614
▁lim	-12.3614
▁set	-12.362
▁天	-12.3622
indo	-12.3622
aq	-12.3623
park	-12.3626
▁china	-12.3627
ên	-12.3627
3,3%	-12.363
▁né	-12.3633
▁perl	-12.3634
lb	-12.3638
▁22%	-12.3643
êu	-12.3646
▁kilo	-12.365
ống	-12.365
vai	-12.3658
epi	-12.3664
red	-12.3664
2,2%	-12.3666
ère	-12.3668
pô	-12.367
▁(0	-12.3679
▁(3)	-12.3681
urs	-12.3682
box	-12.3685
▁med	-12.3688
0,4%	-12.3691
stein	-12.3694
▁(200	-12.3695
_17	-12.3696
ats	-12.3701
1°	-12.3706
▁(1)	-12.3706
536	-12.3708
ator	-12.3709
▁大	-12.3711
old	-12.3719
7,8	-12.3728
3.6	-12.3729
▁jun	-12.3732
ette	-12.374
▁1972.	-12.3744
▁theodor	-12.3748
code	-12.3752
▁162	-12.3761
peri	-12.3768
▁watt	-12.377
▁hun	-12.3772
▁kor	-12.378
▁161	-12.3786
poli	-12.3787
▁act	-12.3789
▁run	-12.3789
▁149	-12.3791
amin	-12.3797
▁312	-12.3798
pat	-12.3801
ản	-12.3806
war	-12.3809
▁kara	-12.3811
77%	-12.3824
▁202	-12.3826
▁1900.	-12.3828
trans	-12.3829
hydr	-12.383
▁2005)	-12.3831
jp	-12.3831
sā	-12.3837
ực	-12.3838
▁cang	-12.3841
▁166	-12.3854
▁nol	-12.3855
pper	-12.3856
général	-12.3865
ợ	-12.3866
nhỏ	-12.3866
quỹ	-12.3866
ngọc	-12.3866
kỷ	-12.3867
giấy	-12.3867
hướng	-12.3868
chiều	-12.3868
quê	-12.3872
thấp	-12.3874
java	-12.3875
nói	-12.3875
bởi	-12.3876
hát	-12.3877
giám	-12.388
vor	-12.3889
stru	-12.3894
phó	-12.39
sson	-12.3902
▁maya	-12.3906
dre	-12.3908
▁see	-12.3915
arya	-12.3916
▁mày	-12.3916
wor	-12.3919
▁philipp	-12.3921
▁gồ	-12.3923
mở	-12.3924
▁nikola	-12.3924
ợt	-12.3926
ướn	-12.3926
▁lờ	-12.3926
▁albania	-12.3928
▁chệch	-12.3928
▁citric	-12.3928
▁dơi	-12.3928
▁greenwich	-12.3928
▁hermione	-12.3928
▁knuth	-12.3928
▁nhầy	-12.3928
▁phanxicô	-12.3928
▁plessey	-12.3928
▁rushmore	-12.3928
▁saffir	-12.3928
▁stockholm	-12.3928
▁sặc	-12.3928
▁brønsted	-12.3928
▁emacs	-12.3928
▁wilkins	-12.3928
▁baird	-12.3928
▁aleksandr	-12.3929
▁gothic	-12.3929
▁vietnamnet	-12.3929
▁islam	-12.3929
▁giằng	-12.3929
▁oscar	-12.3929
bir	-12.3929
▁ghê	-12.393
▁hugo	-12.393
▁biếm	-12.393
▁lowell	-12.393
sil	-12.393
▁populat	-12.393
▁nguyền	-12.393
▁ngần	-12.3931
▁boot	-12.3931
▁nhát	-12.3932
%;	-12.3932
▁jrai	-12.3932
▁nikolai	-12.3932
tả	-12.3932
▁oxit	-12.3934
▁chằng	-12.3934
▁panama	-12.3935
▁lốc	-12.3937
▁1878	-12.3937
▁salzburg	-12.3938
yon	-12.3938
▁janko	-12.3939
bahn	-12.394
▁1837	-12.394
▁claude	-12.394
▁3/4	-12.3941
▁il	-12.3941
▁1807	-12.3941
▁dallas	-12.3943
bacteria	-12.3943
▁troy	-12.3944
▁palm	-12.3946
ction	-12.3946
▁andes	-12.3951
▁royal	-12.3953
6.2	-12.3959
▁35.000	-12.396
ock	-12.3961
▁trọ	-12.3965
▁media	-12.3965
▁italia	-12.3969
ui	-12.3969
▁roi	-12.397
2000	-12.3974
▁vec	-12.3977
▁lạy	-12.3979
▁325	-12.3982
▁key	-12.3985
▁hp	-12.3987
▁rà	-12.3987
/3	-12.4
tb	-12.4001
▁book	-12.4004
inger	-12.4005
▁vv	-12.401
–12	-12.4014
(1	-12.4018
7°	-12.4023
6%)	-12.4025
4,5	-12.4025
▁radon	-12.4025
▁dí	-12.4027
▁abel	-12.403
▁sanger	-12.4034
2,9	-12.4035
▁khuông	-12.4037
▁1958.	-12.404
who	-12.4041
bh	-12.4046
▁145	-12.4046
▁esa	-12.4046
287	-12.4047
đang	-12.4057
chel	-12.4057
▁225	-12.4059
▁mangan	-12.4062
▁sc	-12.4069
▁lon	-12.4071
"("	-12.4072
ight	-12.4081
▁tụy	-12.4082
▁báng	-12.4084
▁quầng	-12.4091
▁480	-12.4099
ved	-12.41
chủng	-12.4103
▁ep	-12.4103
fan	-12.4106
iec	-12.4125
▁2.8	-12.4127
reichs	-12.4143
▁mêtan	-12.4155
dwin	-12.4159
nath	-12.416
ín	-12.416
▁news	-12.4168
ía	-12.417
than	-12.4174
▁nord	-12.4177
▁hari	-12.4179
▁0,8	-12.4181
rick	-12.4182
1,5%	-12.4194
4,3	-12.4197
▁cra	-12.4221
▁280	-12.4223
4,8	-12.4227
1,8%	-12.4232
úng	-12.4233
▁data	-12.4234
▁rom	-12.4234
kai	-12.4234
▁kol	-12.4239
2,6	-12.4242
lí	-12.4243
▁“"	-12.4251
▁shell	-12.4254
▁151	-12.426
wo	-12.4276
1,0	-12.4281
cấu	-12.4283
nhận	-12.4283
vốn	-12.4284
▁2.7	-12.4284
▁0,4	-12.4284
ủy	-12.4285
tier	-12.4286
paul	-12.4287
tái	-12.4288
sẽ	-12.429
cải	-12.4293
bio	-12.4294
▁alt	-12.4295
4.500	-12.4299
▁tò	-12.4312
▁sk	-12.4322
ẽ	-12.4324
super	-12.4326
▁nọ	-12.4333
▁sú	-12.4335
▁trá	-12.4337
cit	-12.4337
▁whit	-12.4342
▁britannica	-12.4345
▁brunswick	-12.4345
▁compton	-12.4345
▁cédil	-12.4345
▁judah	-12.4345
▁lisbon	-12.4345
▁madeira	-12.4345
▁mátthêu	-12.4345
▁pérez	-12.4345
▁servetus	-12.4345
▁stanford	-12.4345
▁síp	-12.4345
▁tuberculosis	-12.4345
▁venezuela	-12.4345
▁verrier	-12.4345
▁xộn	-12.4345
▁yeltsin	-12.4345
bacillus	-12.4345
▁beryli	-12.4345
▁namibia	-12.4345
▁nhuyễn	-12.4345
▁sankt	-12.4345
▁pedro	-12.4345
▁thẫm	-12.4345
▁beach	-12.4346
▁anderson	-12.4346
▁halley	-12.4346
▁xiết	-12.4346
▁maryland	-12.4346
▁sudan	-12.4346
▁suez	-12.4346
▁malta	-12.4347
▁gatt	-12.4348
▁giro	-12.435
▁rome	-12.435
▁124	-12.4351
▁chầu	-12.4352
malay	-12.4353
▁gondwana	-12.4355
▁1843	-12.4356
▁tamil	-12.4356
▁1839	-12.4357
▁1814	-12.4358
▁1770	-12.4358
▁nhọc	-12.4358
▁vét	-12.4359
▁bôn	-12.4361
ij	-12.4364
▁1620	-12.4365
▁vớt	-12.4366
▁mão	-12.4366
▁14.000	-12.4368
▁edo	-12.4371
▁pluto	-12.4373
▁(22	-12.4373
▁mycobacterium	-12.4374
▁office	-12.4376
▁thẻn	-12.4379
▁sony	-12.4379
▁17%	-12.438
bé	-12.438
tti	-12.4381
▁chớ	-12.4389
▁hz	-12.4392
qi	-12.4393
pal	-12.4394
▁3.500	-12.4395
type	-12.4396
hat	-12.4401
▁east	-12.4402
▁deutsche	-12.4403
▁1971.	-12.4409
sebastian	-12.4414
▁113	-12.4418
nha	-12.442
▁tủ	-12.4424
apura	-12.4425
▁xp	-12.4428
ồn	-12.4431
ện	-12.4438
▁oc	-12.4439
▁3,7	-12.4441
▁shin	-12.4449
▁308	-12.445
▁112	-12.4453
▁1076	-12.4454
▁2.5	-12.4465
5,6	-12.4469
▁rem	-12.4475
naga	-12.4477
71%	-12.4477
▁edg	-12.4478
enberg	-12.4479
phone	-12.448
lc	-12.4482
▁1983.	-12.4486
sso	-12.4496
▁hell	-12.4497
uchi	-12.4501
lau	-12.4504
▁it	-12.4511
dorf	-12.4518
vd	-12.4524
▁245	-12.4526
tl	-12.453
vre	-12.4532
▁para	-12.4581
▁anton	-12.4587
▁hand	-12.4588
3,5	-12.4589
aria	-12.461
onia	-12.4632
▁167	-12.4632
2010	-12.4639
▁rhodes	-12.4648
▁203	-12.4653
fr	-12.4657
▁tar	-12.4658
lỗ	-12.4659
▁hong	-12.466
▁3,3	-12.4664
39)	-12.4667
▁bã	-12.4672
▁khóm	-12.4675
5,5%	-12.4677
sey	-12.4679
ond	-12.4679
ales	-12.4681
▁khoe	-12.4682
▁mach	-12.4685
part	-12.4691
▁koh	-12.4691
span	-12.4692
ides	-12.4697
▁+1	-12.4703
hương	-12.471
shire	-12.4714
▁met	-12.4714
mars	-12.4715
simpson	-12.4716
kheo	-12.4717
nhìn	-12.4718
tạp	-12.4718
triết	-12.4718
biên	-12.4718
▁hột	-12.4718
thiếu	-12.472
▁malay	-12.4721
mới	-12.4721
▁dà	-12.4721
śa	-12.4723
american	-12.4724
nữ	-12.4724
para	-12.4725
proton	-12.4725
cực	-12.4734
ự	-12.4736
giảm	-12.4737
▁136	-12.4739
oxide	-12.4739
▁bus	-12.474
mất	-12.4742
pol	-12.4748
▁wild	-12.4753
heim	-12.4753
duy	-12.4754
▁emil	-12.4755
▁1967.	-12.4755
73%	-12.4755
ỡ	-12.4758
lipid	-12.4761
58)	-12.4765
▁ếch	-12.4773
▁sớ	-12.4776
ễu	-12.4776
▁samari	-12.4776
▁god	-12.4779
▁church	-12.478
ß	-12.478
constantinopolis	-12.478
lieutenant	-12.478
▁alabama	-12.478
▁bolivia	-12.478
▁calmette	-12.478
▁chòi	-12.478
▁dakota	-12.478
▁doppler	-12.478
▁dứa	-12.478
▁fernando	-12.478
▁fujiwara	-12.478
▁holocaust	-12.478
▁kissinger	-12.478
▁lagrange	-12.478
▁lẫy	-12.478
▁magellan	-12.478
▁matthew	-12.478
▁matúška	-12.478
▁mấu	-12.478
▁mứt	-12.478
▁nevada	-12.478
▁nürnberg	-12.478
▁santiago	-12.478
▁stallman	-12.478
▁voọc	-12.478
▁vùi	-12.478
▁western	-12.478
▁rowland	-12.478
▁youtube	-12.478
▁nú	-12.478
▁davy	-12.478
▁keynes	-12.478
▁research	-12.478
▁guốc	-12.478
▁triglyceride	-12.478
▁princeton	-12.478
▁biếu	-12.4781
▁rũ	-12.4781
▁slavơ	-12.4781
▁hỷ	-12.4781
▁piano	-12.4781
▁trâm	-12.4781
▁nhổ	-12.4781
▁ngạo	-12.4781
▁800.000	-12.4782
ket	-12.4782
▁giông	-12.4782
▁péo	-12.4782
hof	-12.4783
▁rrna	-12.4783
▁măm	-12.4783
▁lìa	-12.4783
▁fred	-12.4783
▁ayu	-12.4783
▁cappuccino	-12.4784
▁lanthan	-12.4786
▁1851	-12.4786
▁igg	-12.4787
▁ester	-12.4788
▁mắng	-12.4789
▁1816	-12.4789
580	-12.479
▁sel	-12.4791
▁ahu	-12.4792
▁búa	-12.4793
▁1834	-12.4794
▁michel	-12.4795
▁rflp	-12.4795
▁1798	-12.4796
▁léon	-12.4796
▁1833	-12.4797
▁chóp	-12.4799
▁science	-12.48
8,6	-12.4802
▁1750	-12.4802
▁venus	-12.4803
▁18.000	-12.4804
▁europa	-12.4804
679	-12.4806
▁1610	-12.4807
▁sql	-12.4808
▁wot	-12.4815
195	-12.4817
▁kyōto	-12.4821
▁unit	-12.4823
itu	-12.4824
rông	-12.4824
▁porto	-12.4824
▁hayek	-12.4825
mini	-12.4828
myō	-12.4831
ịch	-12.4836
968	-12.4837
ngay	-12.4838
▁28%	-12.4843
453	-12.4844
▁cốm	-12.4845
7,3%	-12.485
sion	-12.485
▁ring	-12.4866
▁are	-12.4873
5,7%	-12.4875
▁mè	-12.4887
▁cap	-12.4889
▁θ	-12.4892
ego	-12.4894
kali	-12.4895
▁swa	-12.49
▁fox	-12.4902
ida	-12.4904
▁chóc	-12.4905
khai	-12.4913
quin	-12.4913
▁fluoro	-12.4922
▁belo	-12.4931
▁hèn	-12.4933
llon	-12.4935
ira	-12.4935
gala	-12.4944
cung	-12.4945
uf	-12.4952
gradient	-12.4953
iêu	-12.4956
▁16%	-12.4961
▁anne	-12.4961
/6	-12.4964
▁levi	-12.4967
ại	-12.4969
awa	-12.4975
gell	-12.4977
3%)	-12.4978
ness	-12.4979
▁line	-12.4982
▁hen	-12.4982
-1954	-12.4987
−1	-12.499
οσ	-12.4994
head	-12.4995
▁net	-12.5008
▁lip	-12.5014
tio	-12.5017
esse	-12.5018
ios	-12.5022
,25%	-12.5028
ington	-12.5031
,45%	-12.5033
tom	-12.5033
▁(21	-12.5042
nier	-12.5042
▁260	-12.5048
bí	-12.5049
▁oh	-12.505
▁marc	-12.5053
638	-12.5054
▁kam	-12.5057
bes	-12.5058
erich	-12.5063
gil	-12.5071
▁jer	-12.5072
bol	-12.5077
▁xy	-12.5082
▁marco	-12.5084
rama	-12.5086
▁bén	-12.5112
0,1%	-12.5114
▁5000	-12.5115
▁2,8	-12.5117
76)	-12.5118
8,6%	-12.5119
193	-12.5126
ön	-12.5128
free	-12.5128
▁die	-12.5134
quả	-12.5135
▁06	-12.5137
mr	-12.514
1000	-12.5145
rwin	-12.5145
▁154	-12.5155
▁chạ	-12.5156
gene	-12.5156
ể	-12.5157
dale	-12.5158
lp	-12.5161
150	-12.5161
_20	-12.5163
▁prop	-12.5163
ал	-12.5167
www	-12.517
html	-12.517
chòm	-12.5172
mèo	-12.5172
xích	-12.5172
kính	-12.5172
lạc	-12.5172
vận	-12.5172
cầu	-12.5172
triệu	-12.5172
internet	-12.5172
louis	-12.5172
nguy	-12.5173
kanji	-12.5173
5,4	-12.5175
bạch	-12.5176
tìm	-12.5176
thương	-12.5177
967	-12.5177
bốn	-12.5177
yêu	-12.5178
chùa	-12.5179
▁hd	-12.5179
dựa	-12.5182
dạng	-12.5184
luk	-12.5185
lyn	-12.5189
xây	-12.5191
2,7%	-12.5193
hắt	-12.5197
sơ	-12.5205
peer	-12.5218
19%	-12.5225
▁pere	-12.5225
▁nê	-12.5227
rầm	-12.5232
evangelical	-12.5234
▁armenia	-12.5234
▁bastille	-12.5234
▁college	-12.5234
▁côngtenơ	-12.5234
▁dầm	-12.5234
▁friedmann	-12.5234
▁halide	-12.5234
▁horizons	-12.5234
▁joule	-12.5234
▁juventus	-12.5234
▁laplace	-12.5234
▁license	-12.5234
▁lodge	-12.5234
▁nitric	-12.5234
▁retrovirus	-12.5234
▁schengen	-12.5234
▁sậy	-12.5234
▁vẹt	-12.5234
piaget	-12.5234
▁ubnd	-12.5234
▁street	-12.5234
▁caesar	-12.5234
▁jersey	-12.5234
▁nghé	-12.5234
▁vpn	-12.5234
▁analog	-12.5234
principia	-12.5235
▁phobos	-12.5235
bụt	-12.5235
▁jayavarman	-12.5235
▁leonard	-12.5235
morley	-12.5235
▁histone	-12.5235
▁garden	-12.5235
▁born	-12.5235
▁brâu	-12.5235
▁sồi	-12.5235
▁700.000	-12.5236
species	-12.5236
▁monde	-12.5236
▁lcd	-12.5236
▁with	-12.5237
▁diều	-12.5237
▁nhám	-12.5237
▁linga	-12.5237
▁sờ	-12.5237
▁đoài	-12.5238
▁thầu	-12.5239
▁eris	-12.5241
▁tủy	-12.5243
▁pak	-12.5244
▁1854	-12.5244
▁chậu	-12.5244
▁10−1	-12.5248
▁1821	-12.5249
▁providence	-12.5251
▁iau	-12.5252
appa	-12.5254
▁33%	-12.5254
▁sutta	-12.5255
ration	-12.5255
▁steven	-12.5257
▁electric	-12.526
▁2,3	-12.5262
▁kent	-12.5264
617	-12.5265
2,4	-12.5265
▁1937.	-12.5274
▁wan	-12.5277
▁1069	-12.5282
▁mail	-12.5285
▁126	-12.529
roma	-12.5291
.226	-12.5292
▁xoang	-12.5293
search	-12.5293
▁mayr	-12.5294
▁sier	-12.5299
▁khoảnh	-12.5301
ç	-12.5308
2,6%	-12.5308
▁khăng	-12.5309
▁macro	-12.5314
bang	-12.5317
bourg	-12.5321
▁tỏi	-12.5322
▁(26	-12.5329
athet	-12.5332
▁cis	-12.5333
ender	-12.5336
kor	-12.5337
▁sl	-12.5342
▁rey	-12.5343
▁26%	-12.5345
jaya	-12.5345
▁arn	-12.5351
▁7,5	-12.5353
7,4%	-12.5359
tern	-12.5363
▁nhịn	-12.5365
▁not	-12.5376
ritz	-12.5382
▁"[	-12.5383
berger	-12.5395
-26	-12.5395
tions	-12.5396
alle	-12.5405
apati	-12.5407
hel	-12.5412
deutsche	-12.542
981	-12.5423
4,6%	-12.5424
uil	-12.5435
▁lằn	-12.5436
color	-12.5438
3,9	-12.5445
illa	-12.5445
▁158	-12.5447
▁haiti	-12.5448
▁kana	-12.5449
9,8%	-12.5452
ante	-12.5454
▁quýt	-12.5454
520	-12.5464
569	-12.5465
istan	-12.5469
side	-12.5473
8),	-12.5475
ер	-12.5479
▁09	-12.5489
rạng	-12.5491
▁yama	-12.5498
▁hcl	-12.55
570	-12.5507
other	-12.5523
67%	-12.5526
▁ober	-12.5535
ùn	-12.5545
907	-12.5547
iers	-12.5555
5–1	-12.5555
982	-12.5561
▁380	-12.5566
▁["	-12.5571
"/"	-12.5571
▁andre	-12.5573
saka	-12.559
▁pao	-12.5608
▁sảng	-12.561
lav	-12.5613
▁zen	-12.5614
▁pat	-12.5619
azo	-12.562
ữ	-12.5629
▁gao	-12.5638
rap	-12.564
khác	-12.5646
cacbon	-12.5648
gấu	-12.5648
cửu	-12.5648
protein	-12.5648
bãi	-12.5648
dầu	-12.5648
tuần	-12.5648
chuẩn	-12.5648
đoạn	-12.5648
ngoài	-12.5649
chú	-12.5649
▁0,6	-12.5649
đúng	-12.5649
tiết	-12.5649
chiếc	-12.565
chăm	-12.565
trò	-12.565
lương	-12.5651
lão	-12.5655
▁blu	-12.5659
viên	-12.5659
web	-12.5659
sáng	-12.5661
▁3.1	-12.5672
mrna	-12.5673
▁clement	-12.5675
phục	-12.5675
▁(27	-12.5677
atta	-12.5679
111	-12.5681
▁dang	-12.5683
linh	-12.5685
sol	-12.5692
▁op	-12.5693
▁ev	-12.5693
-1975	-12.5696
▁(28	-12.5703
6,6	-12.5705
▁program	-12.5705
▁quạ	-12.5707
▁giỏ	-12.5707
▁bung	-12.5707
▁thoán	-12.5709
coccus	-12.571
▁molotov	-12.5711
ashikaga	-12.5711
▁airlines	-12.5711
▁açores	-12.5711
▁bhutan	-12.5711
▁chandrasekhar	-12.5711
▁dwight	-12.5711
▁ecuador	-12.5711
▁edmund	-12.5711
▁eiffel	-12.5711
▁farnsworth	-12.5711
▁gfdl	-12.5711
▁humboldt	-12.5711
▁liverpool	-12.5711
▁malacca	-12.5711
▁maximilian	-12.5711
▁microsystems	-12.5711
▁müller	-12.5711
▁nagasaki	-12.5711
▁nigeria	-12.5711
▁public	-12.5711
▁röntgen	-12.5711
▁tennessee	-12.5711
▁thompson	-12.5711
▁tourane	-12.5711
▁uzbekistan	-12.5711
▁đậy	-12.5711
▁diễm	-12.5711
▁cạo	-12.5711
vietnamese	-12.5711
▁freebsd	-12.5711
▁sainteny	-12.5711
▁fischer	-12.5711
▁slovenia	-12.5711
▁êđê	-12.5711
▁scud	-12.5711
▁dalton	-12.5711
▁warren	-12.5711
▁anglo	-12.5711
▁andreas	-12.5711
▁milan	-12.5711
▁karst	-12.5711
▁aryan	-12.5711
▁năn	-12.5711
▁pound	-12.5711
▁nations	-12.5712
▁slovene	-12.5712
▁disc	-12.5712
▁sủng	-12.5712
▁kurt	-12.5712
▁probe	-12.5712
▁music	-12.5712
▁pdp	-12.5712
▁90°	-12.5713
▁600.000	-12.5713
▁augustine	-12.5713
▁pleistocene	-12.5714
▁mống	-12.5714
▁aviv	-12.5715
▁gaza	-12.5717
▁glycerol	-12.5719
▁hđnd	-12.5722
▁jabber	-12.5722
▁1881	-12.5722
▁carbonat	-12.5724
▁vienna	-12.5725
▁1857	-12.5726
▁43%	-12.5726
▁dmitri	-12.5727
▁1698	-12.5728
▁central	-12.5728
▁37%	-12.5729
▁rca	-12.573
▁20°	-12.5733
▁1804	-12.5733
▁blanc	-12.5733
▁1842	-12.5734
ichi	-12.5741
▁camp	-12.5748
▁chót	-12.5749
▁pioneer	-12.5753
▁high	-12.5754
▁actini	-12.5755
▁2-3	-12.5757
▁rub	-12.5758
▁1-2	-12.5758
berlin	-12.5759
▁420	-12.5768
urd	-12.5771
▁ω	-12.5771
▁bèo	-12.5772
▁ansi	-12.5774
▁bart	-12.5778
▁2-1	-12.5786
-60	-12.5791
▁box	-12.5797
sburg	-12.5799
ché	-12.5804
êng	-12.5807
ova	-12.5808
6,8%	-12.5812
4,7%	-12.5812
5,4%	-12.5813
óc	-12.5814
-25	-12.5831
tán	-12.5831
ité	-12.5843
lal	-12.5846
hổ	-12.5851
hưng	-12.5852
▁grove	-12.5856
▁scha	-12.5859
-40	-12.587
thổ	-12.5873
▁nico	-12.5874
post	-12.589
7,6	-12.5896
▁thằn	-12.59
wald	-12.5903
▁ghe	-12.591
▁queen	-12.5911
▁theory	-12.5913
ṇa	-12.5914
beth	-12.5918
5,2%	-12.5922
4,2%	-12.5922
ảo	-12.5924
eira	-12.5927
▁(75	-12.5934
▁rá	-12.5943
sino	-12.5968
aza	-12.5971
▁kong	-12.5972
/100	-12.5973
408	-12.5978
▁hart	-12.598
▁jule	-12.599
lông	-12.5991
zak	-12.5995
hcm	-12.6005
▁alex	-12.6011
hiềm	-12.6013
ạt	-12.6014
chan	-12.6019
▁176	-12.6033
268	-12.6036
▁alen	-12.6042
6,3%	-12.6053
tông	-12.6056
inter	-12.6059
bund	-12.6067
▁trụi	-12.607
ưng	-12.6074
▁mí	-12.6074
▁ngao	-12.6075
777	-12.6076
▁(4)	-12.6083
ép	-12.6083
itch	-12.6084
696	-12.6085
litz	-12.6089
dam	-12.6092
=56	-12.6102
386	-12.6106
iae	-12.6112
455	-12.6113
abad	-12.6117
5,9	-12.6117
▁2,0	-12.612
hno	-12.6127
cai	-12.6133
gri	-12.6133
hỗ	-12.6133
"”	-12.6143
678	-12.6145
ω	-12.6147
▁giàng	-12.6148
bọn	-12.6148
tùy	-12.6148
biểu	-12.6148
lập	-12.6148
niên	-12.6149
nhằm	-12.6149
diệt	-12.615
thích	-12.6151
▁fun	-12.6155
miêu	-12.6156
▁int	-12.6157
tách	-12.6157
20%	-12.6158
nền	-12.6159
bảng	-12.616
binh	-12.6162
▁viet	-12.6162
▁ló	-12.6163
▁[[1	-12.617
proto	-12.6175
▁chum	-12.6193
▁lù	-12.6197
▁gru	-12.6204
▁0,01	-12.6208
▁vắn	-12.6208
▁trăn	-12.6209
▁cook	-12.6209
▁dẻ	-12.621
▁365,242	-12.6211
▁austin	-12.6211
▁batista	-12.6211
▁bernabéu	-12.6211
▁castries	-12.6211
▁diamond	-12.6211
▁gandhi	-12.6211
▁gaulois	-12.6211
▁giấm	-12.6211
▁holocen	-12.6211
▁huyệt	-12.6211
▁húy	-12.6211
▁kandahar	-12.6211
▁klondike	-12.6211
▁madagascar	-12.6211
▁nhấm	-12.6211
▁nicaea	-12.6211
▁number	-12.6211
▁nầy	-12.6211
▁potsdam	-12.6211
▁rotterdam	-12.6211
▁saskatchewan	-12.6211
▁seminole	-12.6211
▁venezia	-12.6211
▁athena	-12.6211
dominique	-12.6211
▁cyclo	-12.6211
▁siemens	-12.6211
▁doumer	-12.6211
▁cornell	-12.6211
▁peroxide	-12.6211
▁đuống	-12.6211
▁vichy	-12.6211
ization	-12.6211
▁nhện	-12.6211
▁niệu	-12.6211
▁quệ	-12.6211
▁hamburg	-12.6211
▁bonaparte	-12.6211
▁kiết	-12.6211
▁volga	-12.6211
▁kenya	-12.6211
▁platin	-12.6212
▁sỡ	-12.6212
▁(2010)	-12.6213
▁heian	-12.6213
▁lúp	-12.6213
▁xml	-12.6214
▁hước	-12.6214
▁nếm	-12.6214
▁alps	-12.6214
=101	-12.6215
▁mương	-12.6215
ís	-12.6216
▁igm	-12.6216
▁mega	-12.6216
▁gaule	-12.6216
▁timor	-12.6217
▁saigon	-12.6217
▁nêm	-12.6218
▁thỏi	-12.6218
▁herpes	-12.6218
▁benedict	-12.6219
▁1853	-12.6219
▁1847	-12.622
▁imf	-12.6221
▁qr	-12.6221
958	-12.6223
▁ơi	-12.6223
▁chửi	-12.6224
đàm	-12.6224
▁scn	-12.6224
gerald	-12.6224
usd	-12.6225
▁1856	-12.6226
▁1707	-12.6227
zn	-12.6227
▁philippe	-12.6228
▁98%	-12.6228
▁ozone	-12.6228
▁pú	-12.6228
▁cookie	-12.623
▁frei	-12.623
▁far	-12.623
ware	-12.6233
▁spa	-12.6234
▁chơn	-12.6236
amine	-12.6238
▁from	-12.6238
▁rơm	-12.6238
▁1540	-12.624
269	-12.624
▁4,2	-12.6242
▁1.800	-12.6242
▁lake	-12.6244
▁iga	-12.6244
▁3,2	-12.6247
▁first	-12.6248
▁sả	-12.6249
▁sảnh	-12.6251
▁bwv	-12.6252
▁home	-12.6254
2°	-12.6257
▁user	-12.6257
▁ppp	-12.6258
▁1758	-12.6258
▁ether	-12.6265
ược	-12.6277
▁simpson	-12.6278
hui	-12.628
lev	-12.6282
92%	-12.6282
cố	-12.6283
▁230	-12.6284
▁119	-12.6284
▁stein	-12.6296
.220	-12.6298
▁costa	-12.6298
▁tivi	-12.63
òng	-12.6303
▁manuel	-12.6304
lip	-12.631
▁giàn	-12.6311
▁chro	-12.6313
▁hus	-12.6313
seki	-12.6316
▁ky	-12.6326
▁benzen	-12.633
,36%	-12.6335
▁1/5	-12.6336
3,9%	-12.6336
▁bốt	-12.6339
4,6	-12.6341
ách	-12.6342
7,9%	-12.6358
=33	-12.636
2,9%	-12.6361
una	-12.6362
ics	-12.6371
▁rob	-12.6373
▁nhé	-12.6385
▁lend	-12.6387
0,5%	-12.6393
7,2%	-12.6397
sley	-12.6398
824	-12.6399
997	-12.6402
▁1300	-12.6408
kde	-12.6419
▁mos	-12.642
▁(31	-12.6426
▁abi	-12.6429
▁bl	-12.6431
hua	-12.6436
ồ	-12.6456
3°	-12.646
_13	-12.6466
8,8	-12.6467
2003	-12.6467
▁xao	-12.6467
▁4-5	-12.6468
kaku	-12.647
soft	-12.6471
998	-12.648
koku	-12.6482
60.000	-12.6484
▁273	-12.6485
×	-12.6485
9,3%	-12.6494
gò	-12.6494
9,5	-12.6496
40.000	-12.6497
=94	-12.6498
-52	-12.6498
8,1%	-12.6512
horn	-12.6522
95)	-12.6525
tit	-12.6531
nix	-12.6536
▁bass	-12.6538
orum	-12.6541
▁1882,	-12.6543
▁abu	-12.6546
▁glyc	-12.656
mill	-12.6566
west	-12.6567
ủng	-12.6574
ử	-12.6581
hit	-12.6583
▁kw	-12.6585
▁grant	-12.6587
pot	-12.6587
▁258	-12.6588
phon	-12.659
▁256	-12.659
nb	-12.6593
▁209	-12.6595
stand	-12.661
▁ché	-12.6617
scar	-12.6633
has	-12.6637
1,8	-12.6642
cell	-12.6642
big	-12.6642
dro	-12.6644
0,9%	-12.6645
▁pá	-12.6645
▁134	-12.6649
423	-12.6655
▁caesi	-12.6657
1).	-12.6658
▁led	-12.666
huyền	-12.6663
cock	-12.6664
video	-12.6675
afghanistan	-12.6675
vườn	-12.6675
kiểu	-12.6675
chứng	-12.6675
nhập	-12.6675
trình	-12.6675
phép	-12.6675
đệ	-12.6676
thí	-12.6676
thụy	-12.6679
võ	-12.6681
dễ	-12.6681
sóc	-12.6682
chiếu	-12.6684
viện	-12.6686
89%	-12.669
▁eva	-12.669
methyl	-12.6699
▁love	-12.6704
▁wil	-12.6706
▁sō	-12.6706
▁vồ	-12.6708
cờ	-12.6711
▁glyco	-12.6714
▁silica	-12.6716
uck	-12.6721
▁nad	-12.6724
ằn	-12.6725
iếp	-12.6729
▁đơ	-12.6734
ristian	-12.6736
▁370	-12.6736
▁nghẽn	-12.6737
collège	-12.6737
pseudo	-12.6737
requiem	-12.6737
▁alfonso	-12.6737
▁allianz	-12.6737
▁atlético	-12.6737
▁azerbaijan	-12.6737
▁bernoulli	-12.6737
▁copernicus	-12.6737
▁dijkstra	-12.6737
▁hogwarts	-12.6737
▁kosovo	-12.6737
▁kyoto	-12.6737
▁kyrgyzstan	-12.6737
▁logarit	-12.6737
▁miami	-12.6737
▁nhòm	-12.6737
▁nicholas	-12.6737
▁polypeptide	-12.6737
▁smolensk	-12.6737
▁steroid	-12.6737
▁truật	-12.6737
▁ukraine	-12.6737
▁virapura	-12.6737
▁acetic	-12.6737
▁cườm	-12.6737
▁tcvn	-12.6737
▁krym	-12.6737
▁taxon	-12.6737
▁gruzia	-12.6737
▁lhasa	-12.6737
▁tesla	-12.6737
▁antwerpen	-12.6737
▁murray	-12.6737
▁179	-12.6737
▁ubuntu	-12.6737
▁forbes	-12.6737
matrix	-12.6737
▁guanine	-12.6737
pinyin	-12.6737
▁hillary	-12.6737
▁rình	-12.6737
▁cebit	-12.6737
lowry	-12.6737
bodhi	-12.6738
▁print	-12.6738
▁đước	-12.6738
▁52%	-12.6738
▁mafia	-12.6739
▁triền	-12.6739
▁morgan	-12.6739
premier	-12.6739
▁ampere	-12.6739
▁chiểu	-12.6739
-2020	-12.6739
▁mép	-12.674
▁argon	-12.6742
pala	-12.6742
▁hemoglobin	-12.6742
▁crow	-12.6743
▁ủi	-12.6743
▁macos	-12.6745
▁cược	-12.6745
▁trám	-12.6745
▁service	-12.6746
▁olympia	-12.6746
▁brea	-12.6747
▁96%	-12.6748
▁1825	-12.6749
–40	-12.675
đàn	-12.675
rti	-12.675
▁giun	-12.6751
iệm	-12.6751
▁1697	-12.6752
▁austria	-12.6752
▁1874	-12.6754
▁1780	-12.6754
▁ssh	-12.6754
▁1845	-12.6755
▁quasar	-12.6755
▁1786	-12.6755
sun	-12.6756
▁journal	-12.6756
▁nọc	-12.6756
▁1806	-12.6757
▁roll	-12.6759
▁(1945	-12.676
▁1.600	-12.6761
▁systems	-12.6763
+1	-12.6765
▁yoshi	-12.6767
lation	-12.6768
penny	-12.6769
▁24%	-12.6769
▁kamakura	-12.677
rithi	-12.6772
▁center	-12.6772
▁16.000	-12.6772
▁micromet	-12.6778
▁ethnologue	-12.678
gate	-12.6782
phăng	-12.6784
▁cop	-12.6786
iếc	-12.6788
▁10°	-12.6788
eep	-12.6788
obe	-12.6788
▁1075	-12.6789
ngã	-12.6789
▁235	-12.6792
8,2%	-12.6798
quot	-12.6802
sản	-12.6802
▁maine	-12.6803
▁1773	-12.6808
put	-12.681
rah	-12.682
lg	-12.683
trou	-12.6832
iv	-12.6832
▁1,5%	-12.6834
▁denis	-12.6835
▁bob	-12.6837
▁games	-12.6837
bank	-12.6841
▁vega	-12.6845
ultan	-12.6846
▁157	-12.6847
8,8%	-12.6848
enni	-12.6848
▁hydrat	-12.685
▁γ	-12.6857
▁tao	-12.6859
eti	-12.6866
stance	-12.6867
▁module	-12.687
▁sher	-12.6871
▁giga	-12.6873
7,2	-12.6875
▁3.7	-12.6878
▁baha	-12.6881
▁gol	-12.6881
ces	-12.6883
link	-12.6883
dec	-12.6884
sống	-12.6888
906	-12.6894
888	-12.6906
alis	-12.6907
▁cooper	-12.6917
▁bacon	-12.6927
112	-12.6928
▁gw	-12.6928
endorf	-12.6928
urdu	-12.6929
wen	-12.6938
▁indi	-12.694
142	-12.6948
▁tràm	-12.6951
tet	-12.6962
1,2	-12.6963
▁list	-12.6969
▁123	-12.6972
omic	-12.698
pad	-12.6988
ston	-12.6998
0,5	-12.7016
ude	-12.702
3,2	-12.702
70.000	-12.7027
▁vd	-12.7029
▁kau	-12.7032
▁bai	-12.7038
8,4%	-12.704
oon	-12.7051
pet	-12.7064
8,3%	-12.7066
latin	-12.7074
80%	-12.708
ove	-12.7095
tà	-12.7114
3,8%	-12.712
655	-12.7121
▁(180	-12.7123
▁sei	-12.7124
āna	-12.7127
1,3%	-12.7129
fel	-12.7132
tani	-12.7139
0),	-12.7141
▁khiên	-12.7143
7,6%	-12.7152
hind	-12.7154
480	-12.7159
riya	-12.7167
647	-12.7167
4,4%	-12.7169
nho	-12.7175
▁eric	-12.7179
404	-12.7182
▁75.000	-12.7183
cư	-12.719
490	-12.7191
▁carr	-12.7192
hwa	-12.7193
bay	-12.72
▁klein	-12.7203
▁cheo	-12.7204
rpa	-12.7204
sio	-12.7214
eller	-12.7215
run	-12.7215
262	-12.7216
▁hydra	-12.7221
api	-12.7221
▁4.8	-12.7227
azi	-12.7227
etta	-12.7228
wal	-12.7228
cassini	-12.7229
black	-12.723
lạng	-12.723
thầy	-12.723
john	-12.723
thật	-12.723
google	-12.723
trắng	-12.723
sức	-12.723
vẫn	-12.723
yếu	-12.723
lần	-12.723
tích	-12.723
tục	-12.723
phòng	-12.7231
duyên	-12.7231
led	-12.7232
trịnh	-12.7232
tượng	-12.7233
xit	-12.7235
tiếp	-12.7235
trụ	-12.7235
trạng	-12.7235
▁auto	-12.7239
latinh	-12.7239
▁đọ	-12.7241
đêm	-12.7243
yoga	-12.7249
oóc	-12.7252
▁2500	-12.7254
961	-12.7256
class	-12.7258
▁147	-12.726
▁nar	-12.7263
aea	-12.7266
cân	-12.7271
▁geo	-12.7273
▁serge	-12.7274
▁nhọ	-12.7276
ỳ	-12.7279
910	-12.7279
▁nucleo	-12.728
iệt	-12.7282
▁đò	-12.7283
73)	-12.7284
▁hê	-12.7286
photon	-12.7288
▁suý	-12.7291
österreich	-12.7292
▁lì	-12.7292
▁fermi	-12.7292
maréchal	-12.7292
–1945	-12.7292
▁acadia	-12.7292
▁bernabeu	-12.7292
▁bướm	-12.7292
▁connecticut	-12.7292
▁cầy	-12.7292
▁fontainebleau	-12.7292
▁für	-12.7292
▁giécmanh	-12.7292
▁hideyoshi	-12.7292
▁khèn	-12.7292
▁kremli	-12.7292
▁lovelace	-12.7292
▁lụi	-12.7292
▁lụy	-12.7292
▁madison	-12.7292
▁manitoba	-12.7292
▁montmartre	-12.7292
▁onigiri	-12.7292
▁peroxisome	-12.7292
▁phraya	-12.7292
▁poincaré	-12.7292
▁raymond	-12.7292
▁steiermark	-12.7292
▁strauss	-12.7292
▁sẹo	-12.7292
▁tajikistan	-12.7292
▁tasmania	-12.7292
▁thẳm	-12.7292
▁toyotomi	-12.7292
▁utrecht	-12.7292
▁ôzôn	-12.7292
▁dunant	-12.7292
▁morris	-12.7292
▁oligo	-12.7292
▁louvre	-12.7292
felipe	-12.7292
▁(2011)	-12.7292
kirche	-12.7293
▁gracey	-12.7293
▁montreal	-12.7293
▁mobile	-12.7293
▁galicia	-12.7293
▁cronus	-12.7293
▁asbury	-12.7293
▁allah	-12.7293
▁borneo	-12.7293
▁cabot	-12.7293
marshal	-12.7293
▁cantata	-12.7293
▁russell	-12.7293
▁plaza	-12.7293
′′	-12.7293
▁sinai	-12.7294
▁180°	-12.7294
▁osaka	-12.7294
831	-12.7294
▁rợ	-12.7294
▁hindi	-12.7294
▁markov	-12.7294
▁pleistocen	-12.7294
▁bẹp	-12.7294
▁domov	-12.7294
▁deep	-12.7294
▁uế	-12.7295
▁engels	-12.7295
▁gùi	-12.7295
▁carbohydrate	-12.7296
▁vỗ	-12.7296
=103	-12.7297
▁gore	-12.7297
▁allen	-12.7298
▁nãi	-12.7298
▁súp	-12.7298
▁xù	-12.7299
▁intron	-12.7299
▁auguste	-12.73
▁services	-12.73
▁kath	-12.73
▁mariana	-12.73
ngôi	-12.7301
/11/19	-12.7302
▁iod	-12.7303
eagle	-12.7305
▁manti	-12.7305
▁1818	-12.7305
▁1771	-12.7307
▁shia	-12.7307
▁hydroni	-12.7309
▁1794	-12.7309
▁openoffice	-12.7309
1.1	-12.7309
▁uv	-12.731
▁1781	-12.731
▁1428	-12.731
▁triton	-12.731
▁78%	-12.7311
▁global	-12.7313
▁ươm	-12.7313
▁1693	-12.7313
▁44%	-12.7313
▁phồng	-12.7313
▁guy	-12.7315
▁cùi	-12.7316
▁53%	-12.7318
▁chải	-12.732
▁1534	-12.732
▁rách	-12.7322
▁bói	-12.7322
▁0,7	-12.7327
▁chịt	-12.7327
▁reo	-12.7328
▁taxi	-12.7328
_23	-12.7328
▁pơ	-12.7332
▁51%	-12.7337
▁cri	-12.7337
mai	-12.7339
kita	-12.7343
martin	-12.7352
▁3,5%	-12.7361
institut	-12.7361
▁1799	-12.7364
▁ghen	-12.7371
ppe	-12.7377
▁164	-12.7382
▁général	-12.7383
halo	-12.7383
90.000	-12.7384
▁1665	-12.739
36)	-12.7393
▁mán	-12.7394
5,3	-12.7396
cation	-12.7399
5,8%	-12.7399
▁rose	-12.7412
▁grac	-12.7412
ball	-12.7417
▁221	-12.7418
gawa	-12.7422
cfc	-12.7426
▁3.5	-12.7432
▁cour	-12.7434
auer	-12.7442
phá	-12.7442
3+	-12.7443
442	-12.7448
bến	-12.7458
▁bàu	-12.7459
4,3%	-12.7463
ière	-12.7464
eni	-12.7468
ilis	-12.7475
nad	-12.7476
▁1010	-12.7478
shan	-12.7482
▁franco	-12.7489
▁cara	-12.7489
8,4	-12.7494
zia	-12.7501
▁asia	-12.7512
ка	-12.7512
fest	-12.7513
▁mill	-12.7517
6,1%	-12.7523
▁1882	-12.7527
8,9%	-12.7531
▁169	-12.7536
=0	-12.7536
905	-12.7539
eter	-12.7542
10)	-12.7557
iya	-12.7572
kee	-12.7591
▁pet	-12.7597
ớn	-12.7603
ưởng	-12.7605
matic	-12.7605
ort	-12.7614
hoá	-12.7621
wel	-12.7624
9,7%	-12.7625
▁156	-12.7626
165	-12.7631
1,7%	-12.7633
vu	-12.7639
2–	-12.764
▁antoni	-12.764
▁lit	-12.7644
uối	-12.7645
908	-12.7648
▁kham	-12.7654
grand	-12.7655
omar	-12.766
god	-12.7661
uan	-12.7661
then	-12.7666
2015	-12.7669
▁has	-12.7679
▁alto	-12.768
vá	-12.7681
enci	-12.7681
6,7%	-12.7688
gos	-12.7691
hello	-12.7696
íc	-12.7699
wu	-12.7701
7,5	-12.7703
▁4.4	-12.7705
▁sq	-12.7709
atus	-12.7715
▁modul	-12.7716
guru	-12.7734
phu	-12.7736
4°	-12.7745
▁đái	-12.7754
ars	-12.7754
▁133	-12.7761
▁fab	-12.7767
▁153	-12.7779
3,1%	-12.7779
▁3.2	-12.7792
dư	-12.7798
stad	-12.7804
ishi	-12.781
▁alexandr	-12.7814
phố	-12.7815
ũ	-12.7817
phosphate	-12.7818
enzyme	-12.7818
nùng	-12.7818
bảy	-12.7819
tuyệt	-12.7819
cứu	-12.7819
diễn	-12.7819
luận	-12.7819
giê	-12.7819
space	-12.7819
ende	-12.7819
tuệ	-12.7819
lớn	-12.782
nhị	-12.782
chợ	-12.782
khâm	-12.782
chống	-12.7821
system	-12.7822
bsd	-12.7822
media	-12.7823
thất	-12.7823
vệ	-12.7825
giây	-12.7825
▁luna	-12.7826
vụ	-12.7831
thịt	-12.7831
lâm	-12.7833
xác	-12.7844
▁pé	-12.7849
cột	-12.7851
isla	-12.7854
anus	-12.7854
phúc	-12.7855
bacter	-12.7861
720	-12.7869
hộ	-12.7871
not	-12.7872
29)	-12.7872
▁nả	-12.7873
▁window	-12.7874
▁rủ	-12.7875
-50	-12.7876
▁thắn	-12.7878
▁ghề	-12.788
▁kurd	-12.788
physics	-12.7881
résident	-12.7881
▁algarve	-12.7881
▁anthony	-12.7881
▁antón	-12.7881
▁association	-12.7881
▁baghdad	-12.7881
▁beethoven	-12.7881
▁bilbao	-12.7881
▁brezhnev	-12.7881
▁bẩy	-12.7881
▁colombo	-12.7881
▁columbus	-12.7881
▁dynamo	-12.7881
▁edmonton	-12.7881
▁facebook	-12.7881
▁gordon	-12.7881
▁harvey	-12.7881
▁history	-12.7881
▁hokkaido	-12.7881
▁indrapura	-12.7881
▁kansas	-12.7881
▁lipoprotein	-12.7881
▁microarray	-12.7881
▁missouri	-12.7881
▁mozambique	-12.7881
▁mussolini	-12.7881
▁mầu	-12.7881
▁nicolaus	-12.7881
▁obitan	-12.7881
▁pangaea	-12.7881
▁prôtêin	-12.7881
▁school	-12.7881
▁southern	-12.7881
▁thẹn	-12.7881
▁trạo	-12.7881
▁tấc	-12.7881
▁vilnius	-12.7881
▁westmoreland	-12.7881
▁windsor	-12.7881
sūtra	-12.7881
▁drake	-12.7881
▁cecil	-12.7881
▁yêm	-12.7881
▁émil	-12.7881
▁wolfram	-12.7881
▁bbg	-12.7881
▁parabol	-12.7881
▁company	-12.7881
▁saturn	-12.7881
▁prabang	-12.7881
direct	-12.7881
mangostin	-12.7881
lycée	-12.7881
theater	-12.7881
▁valley	-12.7881
▁powell	-12.7881
▁ceres	-12.7882
▁market	-12.7882
▁nể	-12.7882
▁collin	-12.7882
▁inuit	-12.7882
▁nhồi	-12.7883
▁augustus	-12.7883
▁ngạt	-12.7883
▁arena	-12.7883
portugal	-12.7883
▁ldl	-12.7883
▁josef	-12.7884
▁magma	-12.7884
▁galen	-12.7885
▁delta	-12.7885
▁nấy	-12.7886
dhamma	-12.7886
pá	-12.7887
▁vắt	-12.7888
▁capsid	-12.7888
▁ipv	-12.7889
▁quyện	-12.7889
▁1852	-12.7889
▁phớt	-12.7891
▁mike	-12.7892
▁lutheran	-12.7893
▁coke	-12.7896
nobel	-12.7897
▁afghan	-12.7898
▁vincen	-12.7899
▁46%	-12.79
▁1784	-12.79
▁30°	-12.79
▁ivanov	-12.7902
▁1.100	-12.7903
ngân	-12.7904
="103	-12.7905
panzer	-12.7905
▁17.000	-12.7906
sở	-12.7907
▁nấp	-12.7908
▁ceo	-12.791
▁minor	-12.7911
▁multi	-12.7912
▁messiah	-12.7918
▁cochinchine	-12.7922
▁creati	-12.7923
▁digital	-12.7926
riêng	-12.7927
mây	-12.793
947	-12.7932
stock	-12.7938
sit	-12.794
▁école	-12.7941
7,7%	-12.7945
dwell	-12.7949
▁rich	-12.7949
lph	-12.7949
▁moon	-12.795
1/2	-12.7952
▁thảy	-12.7952
audio	-12.7956
125	-12.7957
▁+3	-12.7961
▁gran	-12.7963
lux	-12.7964
▁ná	-12.7967
▁tele	-12.7968
458	-12.7969
▁dạn	-12.7977
răng	-12.7978
▁human	-12.7979
▁old	-12.7992
▁144	-12.7997
▁metal	-12.8002
▁80.000	-12.8003
л	-12.8009
lít	-12.8015
3,7%	-12.8031
▁ole	-12.8034
good	-12.8035
2,3	-12.8036
5,9%	-12.8039
▁indus	-12.8039
▁ngây	-12.8044
▁31%	-12.8046
72%	-12.8053
▁sem	-12.8054
-47	-12.806
▁vó	-12.8069
rock	-12.807
380	-12.8073
hạng	-12.8078
4,8%	-12.8088
,38%	-12.8091
▁lamb	-12.8093
_14	-12.8096
267	-12.8097
típ	-12.8106
fsf	-12.8107
▁254	-12.8113
▁lucas	-12.8116
7,5%	-12.8118
874	-12.8122
xô	-12.8122
xen	-12.8128
kul	-12.8129
▁dj	-12.8131
evin	-12.8131
hiến	-12.8133
4,9%	-12.8137
get	-12.8139
▁%)	-12.814
kofi	-12.8144
971	-12.8145
sur	-12.8147
756	-12.8153
▁model	-12.8157
sum	-12.8157
▁path	-12.8167
nghe	-12.8174
ally	-12.8174
yā	-12.8178
▁232	-12.8185
▁live	-12.8187
yces	-12.819
etyl	-12.8196
▁gmo	-12.8206
▁bonn	-12.8211
▁nikit	-12.822
▁(1949	-12.8223
rough	-12.8227
,02%	-12.8234
enburg	-12.8236
ưới	-12.8237
isch	-12.8244
▁ball	-12.8249
sov	-12.8251
996	-12.8252
rl	-12.8253
olog	-12.8258
lithi	-12.8267
1.500	-12.8269
×10	-12.827
ảnh	-12.8272
ated	-12.8273
gava	-12.8273
thal	-12.8278
nacl	-12.8283
6,9	-12.8286
tantra	-12.8292
oper	-12.8304
▁indo	-12.8305
986	-12.8307
poly	-12.831
▁đak	-12.832
5,5	-12.835
angle	-12.8352
▁ele	-12.836
gio	-12.8361
noam	-12.8362
mitsu	-12.8364
llus	-12.8368
èm	-12.8373
ốp	-12.8385
▁schu	-12.8391
human	-12.8405
▁more	-12.8405
▁kô	-12.8407
773	-12.8417
gà	-12.8425
rá	-12.8434
inck	-12.8435
far	-12.8438
tần	-12.8441
école	-12.8442
house	-12.8442
italia	-12.8443
lặc	-12.8443
united	-12.8443
phước	-12.8444
tuổi	-12.8444
loài	-12.8445
trưởng	-12.8445
trực	-12.8445
lược	-12.8446
▁210	-12.8446
khách	-12.8448
bóng	-12.8449
denis	-12.845
bò	-12.845
tống	-12.8451
quản	-12.8451
mưu	-12.8455
mối	-12.8455
chết	-12.8456
tranh	-12.8457
ether	-12.8457
▁uý	-12.8458
▁ig	-12.8464
(3)	-12.8464
▁mev	-12.8465
acker	-12.8465
rue	-12.8466
▁law	-12.8478
▁teu	-12.848
▁313	-12.8488
small	-12.8491
978	-12.8493
▁304	-12.8494
wave	-12.8495
cast	-12.85
dz	-12.8501
▁hẹ	-12.8502
▁nghè	-12.8503
▁nặn	-12.8503
osome	-12.8504
▁deuteri	-12.8505
▁hyperbol	-12.8505
saccharo	-12.8506
business	-12.8506
catholic	-12.8506
wehrmacht	-12.8506
▁barbara	-12.8506
▁becquerel	-12.8506
▁benenson	-12.8506
▁bertrand	-12.8506
▁bourgogne	-12.8506
▁breton	-12.8506
▁castilla	-12.8506
▁cornwall	-12.8506
▁enigma	-12.8506
▁euphrates	-12.8506
▁felix	-12.8506
▁gibbs	-12.8506
▁hydride	-12.8506
▁hydrofluoric	-12.8506
▁jakob	-12.8506
▁leonhard	-12.8506
▁leprae	-12.8506
▁león	-12.8506
▁liechtenstein	-12.8506
▁lậy	-12.8506
▁nazareth	-12.8506
▁niño	-12.8506
▁pavlov	-12.8506
▁pradesh	-12.8506
▁rodríguez	-12.8506
▁sagart	-12.8506
▁satyavarman	-12.8506
▁shogakukan	-12.8506
▁sẩn	-12.8506
▁thắm	-12.8506
▁trinity	-12.8506
▁uracil	-12.8506
▁vistula	-12.8506
▁vặn	-12.8506
▁vặt	-12.8506
▁yển	-12.8506
▁zidane	-12.8506
▁ăngkor	-12.8506
▁đbscl	-12.8506
▁aleut	-12.8506
▁kuhn	-12.8506
▁sụn	-12.8506
▁toulouse	-12.8506
advance	-12.8506
universal	-12.8506
▁devon	-12.8506
▁voltaire	-12.8506
▁1/4/2019	-12.8506
▁opéra	-12.8506
▁xuyến	-12.8506
esa	-12.8506
▁patrick	-12.8506
▁diode	-12.8506
▁ldp	-12.8506
▁(1999)	-12.8506
▁visual	-12.8506
▁gnp	-12.8506
▁gregorius	-12.8506
▁juliêng	-12.8506
▁zurich	-12.8506
▁concerto	-12.8506
▁carnot	-12.8506
▁margaret	-12.8506
▁ivanovich	-12.8506
▁santos	-12.8506
▁xoong	-12.8506
mahā	-12.8506
genesis	-12.8506
▁byron	-12.8506
▁primer	-12.8506
▁banteng	-12.8506
▁oort	-12.8506
▁moses	-12.8507
▁abbas	-12.8507
▁caspi	-12.8507
▁willem	-12.8507
▁amoni	-12.8507
▁hegel	-12.8507
▁rảnh	-12.8507
▁javascript	-12.8507
ullah	-12.8507
▁amade	-12.8507
▁bosco	-12.8507
▁kontum	-12.8507
▁900.000	-12.8507
▁giuse	-12.8507
▁thiêm	-12.8507
▁braun	-12.8507
▁torah	-12.8507
wick	-12.8507
▁café	-12.8507
▁zero	-12.8508
▁telex	-12.8508
▁helen	-12.8508
▁fdl	-12.8509
▁fluorit	-12.8509
▁oát	-12.8509
▁xăm	-12.8509
▁methanol	-12.851
▁champs	-12.851
▁press	-12.851
▁vót	-12.851
▁lút	-12.851
▁chiềng	-12.8511
▁mácma	-12.8511
▁húc	-12.8511
▁pitt	-12.8512
▁cloma	-12.8513
▁geneve	-12.8513
▁chắt	-12.8513
▁htv	-12.8514
▁albrecht	-12.8516
▁ayun	-12.8516
▁dĩnh	-12.8516
▁ql	-12.8517
▁yuv	-12.8517
▁oánh	-12.8517
platz	-12.8518
▁erp	-12.8519
jiang	-12.852
▁diêu	-12.852
▁32%	-12.8521
▁front	-12.8521
ła	-12.8524
▁ribozyme	-12.8524
203	-12.8525
▁lún	-12.8525
▁1648	-12.8525
▁1805	-12.8525
▁1827	-12.8526
▁jacobin	-12.8527
▁hills	-12.8528
▁(2001	-12.8528
▁köppen	-12.8529
▁lemaître	-12.8529
▁kilogram	-12.8529
▁master	-12.8529
▁isp	-12.8529
▁1427	-12.8529
▁davis	-12.853
▁gừng	-12.853
_33	-12.8533
lend	-12.8533
▁crt	-12.8534
▁1810	-12.8535
94%	-12.8536
khó	-12.8536
▁1407	-12.8537
▁factor	-12.8538
▁este	-12.854
▁cấn	-12.854
▁spyware	-12.8541
dao	-12.8541
▁26.000	-12.8541
▁worth	-12.8542
loop	-12.8542
ssy	-12.8543
▁little	-12.8545
▁film	-12.8546
▁tonkin	-12.8546
▁23%	-12.8546
élysées	-12.8546
▁1.300	-12.8546
▁(150	-12.8548
▁jay	-12.8548
▁cmb	-12.8548
eliane	-12.8548
common	-12.8551
▁germain	-12.8554
▁tcp	-12.8557
ets	-12.8561
▁holland	-12.8562
▁938	-12.8562
▁757	-12.8563
ouch	-12.8567
924	-12.8571
uth	-12.8571
▁villa	-12.8572
slav	-12.8572
▁gec	-12.8576
▁cell	-12.8584
642	-12.8585
▁nip	-12.8587
▁1,2%	-12.859
▁0,5%	-12.8591
▁ngoa	-12.8593
two	-12.8597
▁gate	-12.8601
▁hum	-12.8608
▁246	-12.8611
▁sr	-12.8613
▁abb	-12.8615
▁0,9	-12.8616
gô	-12.8618
āt	-12.862
▁0,1%	-12.8624
-54	-12.8624
owski	-12.8625
▁gun	-12.863
centre	-12.8633
110	-12.8636
665	-12.8637
▁rt	-12.864
▁148	-12.8646
hiễm	-12.8647
light	-12.8651
▁thè	-12.8654
what	-12.8658
▁jet	-12.866
5,3%	-12.8666
▁polo	-12.8666
▁rườ	-12.8672
itzer	-12.8673
brahman	-12.8682
him	-12.8684
▁"*	-12.8685
▁nhẹn	-12.8695
▁σ	-12.8696
▁font	-12.8704
949	-12.8704
▁gö	-12.8704
323	-12.8705
nature	-12.8708
3,2%	-12.871
9,6%	-12.8713
pura	-12.8714
▁marr	-12.8717
mong	-12.8717
pole	-12.8718
khả	-12.8723
▁3,1	-12.8724
món	-12.8731
▁pala	-12.8739
▁182	-12.8749
▁neil	-12.8759
lius	-12.8761
rer	-12.8761
fet	-12.8773
▁135	-12.8785
yev	-12.8788
iềm	-12.8788
▁vung	-12.8789
ison	-12.8789
270	-12.8796
gui	-12.8802
1957	-12.8818
▁atm	-12.8819
phê	-12.8827
▁9,5	-12.8833
▁tonl	-12.8834
▁aria	-12.8837
benz	-12.8838
enko	-12.8844
589	-12.8872
anne	-12.8873
law	-12.8877
▁nhú	-12.8879
▁cưu	-12.8885
hùng	-12.8888
chư	-12.8899
sted	-12.8905
ói	-12.8906
ista	-12.891
▁5.0	-12.891
▁chil	-12.8936
225	-12.8939
857	-12.8965
584	-12.8975
vision	-12.8976
▁yogi	-12.8979
▁bali	-12.8994
lieb	-12.9
mono	-12.9003
lite	-12.9005
-198	-12.9006
▁mèn	-12.9011
▁rán	-12.9012
lò	-12.9022
▁rạ	-12.903
▁859	-12.9032
6,8	-12.9033
metric	-12.9034
lois	-12.9042
▁kay	-12.9045
thé	-12.9046
▁pí	-12.905
1,7	-12.9059
đu	-12.9059
arno	-12.9078
điêng	-12.908
▁marg	-12.9082
578	-12.9088
kow	-12.909
▁him	-12.9096
▁français	-12.9109
pluto	-12.9109
kyōto	-12.9109
unikey	-12.911
jacques	-12.911
scott	-12.911
nucleotide	-12.911
polymerase	-12.911
cựu	-12.911
đỉnh	-12.911
lạp	-12.911
mưa	-12.911
trận	-12.911
đưa	-12.911
đặt	-12.911
mục	-12.911
quark	-12.9111
canada	-12.9111
prim	-12.9113
giáp	-12.9119
▁christia	-12.912
3,7	-12.9122
221	-12.9124
ừ	-12.9127
đen	-12.9129
rium	-12.9129
▁sulf	-12.913
umi	-12.9132
sân	-12.9132
mễ	-12.9135
mộc	-12.9137
bác	-12.9142
hĩa	-12.9143
môi	-12.9146
mok	-12.9148
▁3,6	-12.9153
▁ily	-12.9159
ằm	-12.916
trna	-12.9161
▁lợ	-12.9161
cánh	-12.9163
▁schön	-12.9166
▁sìn	-12.9169
▁đẽ	-12.917
▁vượn	-12.917
đóng	-12.917
▁toả	-12.9171
▁daimler	-12.9172
▁harris	-12.9172
мар	-12.9172
arrondissement	-12.9172
bezirk	-12.9172
mathematica	-12.9172
mitochondria	-12.9172
mudrā	-12.9172
ñez	-12.9172
▁adidas	-12.9172
▁alphabet	-12.9172
▁arkansas	-12.9172
▁baltimore	-12.9172
▁bordeaux	-12.9172
▁colorado	-12.9172
▁côngxoocxiom	-12.9172
▁darlac	-12.9172
▁dursley	-12.9172
▁economist	-12.9172
▁factbook	-12.9172
▁fujiko	-12.9172
▁gallup	-12.9172
▁goebbels	-12.9172
▁gầy	-12.9172
▁hagrid	-12.9172
▁jesus	-12.9172
▁judea	-12.9172
▁kentucky	-12.9172
▁konstantin	-12.9172
▁lenoir	-12.9172
▁maastricht	-12.9172
▁mandelbrot	-12.9172
▁miguel	-12.9172
▁muggle	-12.9172
▁nanômét	-12.9172
▁ngứa	-12.9172
▁nhím	-12.9172
▁pestis	-12.9172
▁phẩy	-12.9172
▁rousseau	-12.9172
▁rumani	-12.9172
▁salvador	-12.9172
▁vikrantavarman	-12.9172
▁wittenberg	-12.9172
▁zwingli	-12.9172
▁étienne	-12.9172
▁boyle	-12.9172
jupiter	-12.9172
promoter	-12.9172
▁bazơ	-12.9172
▁disney	-12.9172
▁cholerae	-12.9172
▁ghz	-12.9172
▁nupedia	-12.9172
gravit	-12.9172
▁draco	-12.9172
▁wells	-12.9172
▁thiển	-12.9172
▁véctơ	-12.9173
▁stefan	-12.9173
▁trojan	-12.9173
▁nelson	-12.9173
▁orbiter	-12.9173
▁fermat	-12.9173
▁robinson	-12.9173
ietf	-12.9173
genetic	-12.9173
▁florent	-12.9173
prokaryote	-12.9173
▁cuốc	-12.9173
▁mecca	-12.9173
▁acyl	-12.9173
▁lambda	-12.9173
▁consortium	-12.9173
action	-12.9173
▁ngất	-12.9173
▁ngẫm	-12.9173
▁quỵ	-12.9174
▁giơ	-12.9175
▁marcus	-12.9175
▁đạ	-12.9175
▁input	-12.9175
▁smart	-12.9175
▁pacific	-12.9175
▁nháy	-12.9176
▁altair	-12.9176
▁tép	-12.9176
▁thales	-12.9176
▁violin	-12.9177
▁kiển	-12.9177
▁sín	-12.9177
▁galle	-12.9177
▁sải	-12.9177
▁hách	-12.9178
-1959	-12.9178
▁haag	-12.9178
▁charlottetown	-12.9179
▁xavan	-12.9179
▁cello	-12.9179
20.000	-12.918
function	-12.918
▁nạo	-12.918
▁bethe	-12.9181
▁râm	-12.9182
ská	-12.9182
▁yale	-12.9183
▁oppenheimer	-12.9184
▁thồ	-12.9184
▁army	-12.9184
▁57%	-12.9185
▁arem	-12.9186
▁1817	-12.9186
▁woods	-12.9186
▁47%	-12.9187
▁phiếm	-12.9188
▁anders	-12.9188
▁messenger	-12.9188
▁blum	-12.919
▁philips	-12.919
▁1778	-12.9191
▁oled	-12.9191
▁1841	-12.9191
▁1828	-12.9192
▁fresnel	-12.9192
▁sequence	-12.9192
▁rocky	-12.9192
▁6,5	-12.9193
sign	-12.9193
▁1765	-12.9194
▁webb	-12.9195
oakland	-12.9195
▁1760	-12.9196
▁silver	-12.9197
corona	-12.9198
▁nst	-12.9198
▁120.000	-12.9199
▁1521	-12.92
▁hòm	-12.92
▁(1802	-12.92
▁chămpa	-12.9201
cát	-12.9203
cross	-12.9203
▁soán	-12.9204
-1990	-12.9205
▁1527	-12.9205
command	-12.9207
▁1801	-12.9208
▁spö	-12.9211
7.500	-12.9212
▁1762	-12.9213
▁1680	-12.9214
more	-12.9216
▁mpa	-12.9217
▁just	-12.9218
▁unter	-12.9218
▁kpa	-12.9219
▁0,6%	-12.9222
▁843	-12.9224
_32	-12.9225
▁13.000	-12.9227
▁cộc	-12.9228
▁ethylen	-12.923
▁laurent	-12.9231
angel	-12.9234
foot	-12.9234
▁15°	-12.9234
hê	-12.9234
▁française	-12.9236
stable	-12.9237
▁justin	-12.9239
▁light	-12.9242
▁kj	-12.9242
kos	-12.9243
iển	-12.9244
▁390	-12.9245
▁calo	-12.9253
kyō	-12.9256
▁cỏi	-12.9268
ệu	-12.9269
0,6	-12.9274
▁dãi	-12.9274
endra	-12.9277
_16	-12.9278
chim	-12.9279
chroma	-12.928
hoài	-12.9281
▁nhăn	-12.9283
,87%	-12.9289
▁ró	-12.9294
social	-12.9298
▁pico	-12.9299
▁279	-12.9303
7%)	-12.9305
▁1-1	-12.9309
▁sva	-12.9314
▁ios	-12.9316
▁249	-12.9319
▁balkh	-12.932
▁lẽo	-12.9322
,34%	-12.9328
mw	-12.9342
bê	-12.9344
на	-12.9348
▁251	-12.9348
tày	-12.9351
ро	-12.9353
▁ε	-12.9359
point	-12.9361
site	-12.9367
wb	-12.9367
▁[[20	-12.9372
▁viva	-12.9372
▁brin	-12.9375
▁dz	-12.938
▁xỉn	-12.9381
▁+2	-12.9387
▁kv	-12.9391
314	-12.9395
▁(179	-12.9397
▁nom	-12.9406
▁dượ	-12.9422
▁1.000.000	-12.9427
▁36%	-12.9429
=112	-12.9444
zin	-12.9445
leo	-12.9449
2,8	-12.945
▁jung	-12.9451
stil	-12.9457
▁was	-12.946
tical	-12.946
▁hunt	-12.9463
ри	-12.9468
apa	-12.9468
3,6	-12.9469
single	-12.9478
▁maxim	-12.9478
és	-12.9482
▁205	-12.9484
jin	-12.9488
hier	-12.9488
hức	-12.9494
paris	-12.9494
▁ré	-12.9501
▁coa	-12.9503
▁lou	-12.9506
▁0,25	-12.9514
iran	-12.9521
,17%	-12.9528
▁3,4	-12.9529
vsky	-12.9538
5,1%	-12.9538
thú	-12.9558
313	-12.9563
nato	-12.9566
ander	-12.9572
9,9%	-12.9574
ough	-12.9577
amba	-12.9578
913	-12.9579
▁tí	-12.9584
▁chá	-12.9586
colo	-12.9596
lands	-12.9601
nois	-12.9604
active	-12.9607
haw	-12.9614
.260	-12.9619
▁kai	-12.9621
_19	-12.9623
chester	-12.9626
40%	-12.9626
▁trư	-12.9627
asian	-12.9628
lib	-12.9631
tour	-12.964
ational	-12.9642
haut	-12.9658
natural	-12.9662
▁reich	-12.9672
plane	-12.9705
59%	-12.9711
628	-12.9712
annam	-12.972
gnu	-12.9729
_18	-12.973
esper	-12.973
its	-12.974
▁-1	-12.9742
eux	-12.9746
atin	-12.9749
▁lả	-12.9755
357	-12.9766
altai	-12.9768
▁(0,2	-12.9768
▁206	-12.977
–13	-12.978
_15	-12.9782
▁cun	-12.9792
neue	-12.9795
acid	-12.9796
255	-12.9805
thụ	-12.9807
237	-12.9817
▁crete	-12.9818
pioneer	-12.9823
fluoride	-12.9823
holland	-12.9824
kursk	-12.9824
petersburg	-12.9824
rồng	-12.9824
australia	-12.9824
polynesia	-12.9824
positron	-12.9824
lepton	-12.9824
california	-12.9824
lạm	-12.9824
rắn	-12.9824
windows	-12.9824
rượu	-12.9824
tội	-12.9825
lĩnh	-12.9825
dục	-12.9825
khái	-12.9825
đừng	-12.9825
biết	-12.9825
luôn	-12.9825
gioan	-12.9826
đổi	-12.9826
khử	-12.9826
vịnh	-12.9826
gió	-12.9827
mạch	-12.9828
kéo	-12.9828
chị	-12.9828
vợ	-12.9828
dài	-12.9829
alpha	-12.983
▁amur	-12.983
tử	-12.9831
xét	-12.9831
▁kush	-12.9835
khóa	-12.9839
nổi	-12.984
tốc	-12.9842
vấn	-12.9843
xiêm	-12.9845
▁brom	-12.9845
cảnh	-12.9847
thiện	-12.9848
pati	-12.9849
nuc	-12.9849
▁steve	-12.9852
sắt	-12.9855
▁maha	-12.9856
cảm	-12.9858
▁sù	-12.9863
trop	-12.9863
ngược	-12.9869
▁nư	-12.9879
phospho	-12.988
▁carbohydrat	-12.9883
kata	-12.9883
▁đĩ	-12.9884
▁đụn	-12.9884
▁luồn	-12.9885
▁chồn	-12.9885
▁bớ	-12.9885
nederland	-12.9886
▁humphr	-12.9887
encyclop	-12.9887
nikàya	-12.9887
▁amundsen	-12.9887
naissance	-12.9887
▁dầy	-12.9887
▁kalayaan	-12.9887
▁spree	-12.9887
brigadier	-12.9887
erophospholipids	-12.9887
historia	-12.9887
indochine	-12.9887
neptune	-12.9887
qaeda	-12.9887
sagittarius	-12.9887
▁amiăng	-12.9887
▁belize	-12.9887
▁bismuth	-12.9887
▁bloomsbury	-12.9887
▁caltech	-12.9887
▁caribbean	-12.9887
▁cromwell	-12.9887
▁delaware	-12.9887
▁eddington	-12.9887
▁eduard	-12.9887
▁entropi	-12.9887
▁falcon	-12.9887
▁fulro	-12.9887
▁gaelic	-12.9887
▁ganymede	-12.9887
▁goethe	-12.9887
▁guatemala	-12.9887
▁habana	-12.9887
▁hiroshima	-12.9887
▁hêbrơ	-12.9887
▁ieyasu	-12.9887
▁iroquois	-12.9887
▁kerala	-12.9887
▁köln	-12.9887
▁lgbt	-12.9887
▁livonia	-12.9887
▁mannheim	-12.9887
▁merckx	-12.9887
▁mossbauer	-12.9887
▁mêhicô	-12.9887
▁nanomet	-12.9887
▁nghẹt	-12.9887
▁ngỗng	-12.9887
▁nần	-12.9887
▁papua	-12.9887
▁paraguay	-12.9887
▁picasso	-12.9887
▁python	-12.9887
▁rideau	-12.9887
▁rốm	-12.9887
▁saussure	-12.9887
▁shimamura	-12.9887
▁supérieur	-12.9887
▁tanzania	-12.9887
▁vasily	-12.9887
▁virginis	-12.9887
▁vẩy	-12.9887
▁vữa	-12.9887
▁xòe	-12.9887
▁zworykin	-12.9887
▁đùi	-12.9887
phoenix	-12.9887
sanskrit	-12.9887
▁libya	-12.9887
▁operon	-12.9887
▁ricci	-12.9887
▁rục	-12.9887
rizon	-12.9887
ānta	-12.9887
▁development	-12.9887
▁samoa	-12.9887
▁winston	-12.9887
▁aristoteles	-12.9887
▁göring	-12.9887
▁mysql	-12.9887
▁soyuz	-12.9887
▁whitefield	-12.9887
heinz	-12.9887
▁gemini	-12.9887
▁(1954)	-12.9887
▁truân	-12.9887
▁(2007)	-12.9887
▁trổ	-12.9887
hybrid	-12.9887
▁cayley	-12.9887
▁hằn	-12.9887
▁baht	-12.9887
▁poloni	-12.9887
▁(2008)	-12.9887
▁tbp	-12.9887
ptfe	-12.9888
▁pyruvate	-12.9888
▁guam	-12.9888
▁nhức	-12.9888
felis	-12.9888
▁cnn	-12.9888
▁mọng	-12.9888
▁institute	-12.9888
lingua	-12.9888
▁ghana	-12.9888
▁show	-12.9888
virtu	-12.9889
▁(2004)	-12.9889
personal	-12.9889
▁/*	-12.9889
▁figo	-12.9889
▁semit	-12.9889
▁stern	-12.989
▁vỉa	-12.989
▁rọi	-12.989
▁chnd	-12.989
▁hịch	-12.989
▁magiê	-12.989
▁suite	-12.989
▁miller	-12.989
▁khorat	-12.989
▁nỉ	-12.9891
▁vừng	-12.9891
▁bực	-12.9891
▁bừng	-12.9891
▁manche	-12.9891
▁cữ	-12.9892
▁sport	-12.9892
▁sướng	-12.9892
▁gờ	-12.9893
▁fire	-12.9893
bnv	-12.9893
▁susan	-12.9893
▁tòi	-12.9893
nucleoside	-12.9893
▁cité	-12.9894
laise	-12.9894
▁division	-12.9894
-1961	-12.9896
▁simpsons	-12.9897
kaiser	-12.9897
▁(1950	-12.9897
▁labs	-12.9899
▁xì	-12.9899
▁samos	-12.9899
▁novo	-12.9899
libre	-12.9899
glycine	-12.99
lick	-12.99
▁76%	-12.9902
_25	-12.9902
▁internationale	-12.9903
cliff	-12.9906
▁blo	-12.9906
▁1729	-12.9906
▁plutoni	-12.9907
▁62%	-12.9908
charlie	-12.9908
▁gev	-12.9909
▁56%	-12.9909
▁lotte	-12.991
▁1704	-12.991
▁belle	-12.9911
▁65%	-12.9911
▁180.000	-12.9911
▁kyushu	-12.9913
▁1306	-12.9914
▁1755	-12.9915
▁lion	-12.9915
▁1653	-12.9916
▁1670	-12.9918
have	-12.9918
▁hq	-12.9918
▁1640	-12.9919
▁copa	-12.992
▁1.700	-12.9924
cuốn	-12.9926
▁vista	-12.9927
▁1824	-12.9927
▁1720	-12.9929
▁planet	-12.9929
key	-12.993
▁1611	-12.9931
mino	-12.9931
▁vostok	-12.9932
▁museum	-12.9932
▁tạt	-12.9932
▁terra	-12.9933
▁1672	-12.9933
▁hãnh	-12.9935
6,4	-12.9935
▁186	-12.9935
ен	-12.9939
▁luis	-12.994
▁gaia	-12.9943
▁1520	-12.9944
▁menu	-12.9946
undi	-12.9947
▁41%	-12.9949
▁wiener	-12.9951
▁49%	-12.9952
▁erik	-12.9954
▁(255	-12.9958
▁nature	-12.996
tari	-12.9961
▁nep	-12.9962
outh	-12.9967
▁fm	-12.9971
cyto	-12.9971
▁5,5	-12.9973
chuyện	-12.9974
ōkyō	-12.9974
▁roberts	-12.9981
▁1,7%	-12.9981
alam	-12.9986
▁thản	-12.9987
▁www	-12.999
zel	-12.999
amide	-12.999
6,2%	-12.9991
862	-12.9992
thai	-12.9993
▁brian	-12.9998
ingen	-13.0001
store	-13.0007
zler	-13.0008
,01%	-13.0011
sense	-13.0017
6,4%	-13.0021
thù	-13.0028
974	-13.0036
order	-13.0036
530	-13.0038
▁sạ	-13.0038
▁cuống	-13.0039
/12/19	-13.0042
▁bayer	-13.0048
995	-13.005
8,7%	-13.0052
agra	-13.0053
giang	-13.0056
▁183	-13.0059
▁9.000	-13.0076
258	-13.0077
▁philo	-13.008
self	-13.0084
huỵ	-13.0094
007	-13.0102
2,4%	-13.0103
▁212	-13.0106
chó	-13.0109
iron	-13.0111
▁arct	-13.0112
209	-13.0112
991	-13.0113
▁court	-13.0121
▁nơ	-13.0127
▁hom	-13.0131
▁204	-13.0132
▁beo	-13.0137
2.5	-13.0153
917	-13.016
eria	-13.0165
cạ	-13.017
▁1044	-13.0175
240	-13.0178
kei	-13.0178
ature	-13.0198
erry	-13.0216
phase	-13.0216
carl	-13.0224
mind	-13.0256
976	-13.026
itis	-13.0261
30.000	-13.0278
,29%	-13.0279
▁0,02	-13.0282
.750	-13.0287
951	-13.029
rồi	-13.0297
mua	-13.0299
3,8	-13.03
▁khali	-13.0301
,26%	-13.0302
▁nua	-13.0306
▁4,4	-13.0312
ikov	-13.0323
8,5%	-13.0329
88%	-13.0336
ké	-13.0336
752	-13.0337
thằng	-13.0341
istic	-13.0345
=11	-13.035
ops	-13.0352
677	-13.0352
stat	-13.0353
gale	-13.0355
661	-13.0373
▁xiên	-13.0377
dole	-13.038
185	-13.0385
/1945	-13.0396
▁−2	-13.0416
ography	-13.0424
chus	-13.0434
oux	-13.0437
cope	-13.0437
▁brahma	-13.0441
▁4,7	-13.0448
607	-13.0452
kran	-13.0458
koh	-13.0462
bề	-13.0487
146	-13.0488
ppp	-13.0502
solar	-13.0505
-2019	-13.0512
▁mall	-13.0513
ви	-13.0513
urg	-13.0513
3,5%	-13.0514
▁pack	-13.0515
462	-13.0516
ça	-13.053
▁bear	-13.0533
▁metan	-13.0533
]".	-13.0537
▁electro	-13.0544
▁arist	-13.0549
514	-13.055
lais	-13.0562
nell	-13.0571
▁fro	-13.0573
exa	-13.0573
▁mons	-13.0579
uit	-13.0587
ethanol	-13.0591
wiener	-13.0591
ethnologue	-13.0592
bwv	-13.0592
polymer	-13.0593
green	-13.0593
down	-13.0593
yahoo	-13.0593
nguyệt	-13.0594
cẩm	-13.0594
plasma	-13.0594
đậu	-13.0594
bạn	-13.0594
dấu	-13.0594
ngụy	-13.0594
ngọn	-13.0594
muốn	-13.0594
chuyên	-13.0594
khánh	-13.0595
tháp	-13.0595
nhiệm	-13.0595
high	-13.0595
phất	-13.0596
group	-13.0596
▁sno	-13.0598
tới	-13.0598
mười	-13.0599
bước	-13.06
pháo	-13.0601
gold	-13.0603
mại	-13.0609
cụm	-13.0609
tướng	-13.0612
đội	-13.0615
▁hip	-13.0618
1,2%	-13.0618
chỗ	-13.0622
fall	-13.0623
▁bả	-13.0623
large	-13.0623
tốt	-13.0623
asia	-13.0629
bố	-13.0631
▁nori	-13.0632
ł	-13.0633
▁nhụ	-13.0637
▁carboxyl	-13.0645
▁transfer	-13.0645
đền	-13.0648
▁ekaterin	-13.0648
▁dahl	-13.0651
▁count	-13.0651
-1945)	-13.0652
orient	-13.0654
▁berin	-13.0656
protestant	-13.0656
argenlieu	-13.0656
austronesia	-13.0656
energy	-13.0656
hiragana	-13.0656
membrane	-13.0656
physical	-13.0656
province	-13.0656
ribbentrop	-13.0656
scientifi	-13.0656
ulysses	-13.0656
▁afonso	-13.0656
▁asuka	-13.0656
▁atlanta	-13.0656
▁avogadro	-13.0656
▁berzelius	-13.0656
▁bismarck	-13.0656
▁bosnia	-13.0656
▁bronisław	-13.0656
▁diophant	-13.0656
▁duật	-13.0656
▁engineering	-13.0656
▁enzim	-13.0656
▁erasmus	-13.0656
▁exchange	-13.0656
▁giặt	-13.0656
▁gutzon	-13.0656
▁guồng	-13.0656
▁hannover	-13.0656
▁jakarta	-13.0656
▁karzai	-13.0656
▁khrushchyov	-13.0656
▁khwarezm	-13.0656
▁kofun	-13.0656
▁köchel	-13.0656
▁leclerc	-13.0656
▁mackenzie	-13.0656
▁majapahit	-13.0656
▁marseille	-13.0656
▁matthias	-13.0656
▁moldova	-13.0656
▁monaco	-13.0656
▁montgomery	-13.0656
▁moutet	-13.0656
▁nhứt	-13.0656
▁northern	-13.0656
▁okinawa	-13.0656
▁olympus	-13.0656
▁parafin	-13.0656
▁podcast	-13.0656
▁review	-13.0656
▁rodinia	-13.0656
▁rwanda	-13.0656
▁rømer	-13.0656
▁rớt	-13.0656
▁securit	-13.0656
▁skylab	-13.0656
▁skłodowska	-13.0656
▁solvay	-13.0656
▁sunfat	-13.0656
▁sunfuric	-13.0656
▁suriname	-13.0656
▁sần	-13.0656
▁tuileries	-13.0656
▁uruguay	-13.0656
▁wheeler	-13.0656
▁xanthon	-13.0656
religio	-13.0656
▁algeria	-13.0656
▁bishop	-13.0656
▁communications	-13.0656
▁crôm	-13.0656
▁cyril	-13.0656
▁dewey	-13.0656
▁somalia	-13.0656
▁studio	-13.0656
▁guitar	-13.0656
▁phillips	-13.0656
▁rubidi	-13.0656
▁television	-13.0656
▁manila	-13.0656
▁mhz	-13.0656
▁basque	-13.0656
▁commons	-13.0656
method	-13.0656
▁organization	-13.0656
▁seebeck	-13.0656
felidae	-13.0656
crypt	-13.0656
▁freedom	-13.0656
▁pashtun	-13.0656
federal	-13.0656
▁gợ	-13.0656
gmund	-13.0656
▁edition	-13.0656
▁wallace	-13.0656
940	-13.0656
▁airbus	-13.0656
earth	-13.0656
▁craig	-13.0656
▁elisa	-13.0656
▁tartar	-13.0656
▁kradai	-13.0656
▁sindh	-13.0657
▁giẻ	-13.0657
▁giăng	-13.0657
▁huyễn	-13.0657
▁hyperbolic	-13.0657
culus	-13.0657
▁gerard	-13.0657
▁scand	-13.0657
▁warner	-13.0657
▁perrin	-13.0657
▁corps	-13.0657
▁farel	-13.0657
▁leonid	-13.0657
▁atlantic	-13.0657
▁chốc	-13.0657
sarcoma	-13.0657
▁worm	-13.0657
▁biology	-13.0657
▁lỡ	-13.0657
▁team	-13.0658
ersdorf	-13.0658
▁meyer	-13.0658
▁dick	-13.0658
▁nguỵ	-13.0658
▁river	-13.0658
▁marxist	-13.0659
ornith	-13.0659
▁regio	-13.0659
▁xiếc	-13.0659
cochin	-13.0659
▁robin	-13.0659
▁plus	-13.0659
▁mendes	-13.0659
▁orange	-13.0659
▁snow	-13.066
/2005/	-13.066
▁rosa	-13.0661
▁bẹ	-13.0661
▁plei	-13.0662
▁gã	-13.0662
▁lẫm	-13.0662
▁calcium	-13.0662
▁rủa	-13.0662
▁road	-13.0662
▁four	-13.0662
▁nhuế	-13.0662
▁(2003)	-13.0663
▁meton	-13.0663
▁cyp	-13.0663
nikāya	-13.0664
▁lund	-13.0664
▁ailen	-13.0665
▁dền	-13.0666
▁camero	-13.0667
▁usb	-13.0667
▁rica	-13.0668
,32%	-13.0668
▁plin	-13.0668
siddh	-13.0669
▁tét	-13.0669
▁hund	-13.067
▁kềnh	-13.067
▁mediawiki	-13.0671
856	-13.0672
▁93%	-13.0672
▁bactria	-13.0674
▁channel	-13.0674
▁information	-13.0674
▁sputnik	-13.0674
▁laura	-13.0674
▁74%	-13.0675
▁1772	-13.0675
state	-13.0675
volks	-13.0676
▁creo	-13.0676
▁1690	-13.0677
▁gâm	-13.0677
▁64%	-13.0677
▁machine	-13.0677
▁product	-13.0678
▁105°	-13.0678
▁cgpm	-13.0679
▁augusta	-13.068
▁most	-13.068
▁oda	-13.068
▁5.500	-13.068
▁xẻo	-13.0681
▁1676	-13.0681
▁1759	-13.0682
_21	-13.0682
▁baire	-13.0684
▁control	-13.0684
euro	-13.0684
▁1761	-13.0686
illo	-13.0687
▁laurentia	-13.0688
▁english	-13.069
▁mongoloid	-13.069
▁genome	-13.069
argent	-13.069
▁216	-13.0692
scher	-13.0692
▁1819	-13.0693
▁lfs	-13.0693
nil	-13.0696
▁2.400	-13.0699
▁wolf	-13.0699
▁palau	-13.07
▁sành	-13.0701
▁sterol	-13.0705
▁double	-13.0705
▁mason	-13.0705
rous	-13.0706
shaw	-13.0707
graphic	-13.0708
▁188	-13.0708
walker	-13.0709
▁1660	-13.0711
▁tớ	-13.0711
▁arts	-13.0714
oeing	-13.0715
kā	-13.0715
▁icc	-13.0718
▁rosali	-13.0719
50%	-13.072
▁540	-13.072
▁weber	-13.0721
garten	-13.0722
austro	-13.0724
▁oxygen	-13.0726
▁quýnh	-13.0727
ồi	-13.0727
▁207	-13.0729
pci	-13.0729
0,4	-13.0734
agent	-13.0738
data	-13.0741
hanja	-13.0744
▁7,5%	-13.0744
▁cút	-13.0746
spin	-13.0747
nihon	-13.0748
qh	-13.075
▁191	-13.0751
shock	-13.0754
▁phosphate	-13.0757
▁deal	-13.0761
▁520	-13.0763
▁1054	-13.0763
973	-13.0776
▁386	-13.0776
/4/19	-13.0778
▁257	-13.0778
kou	-13.078
▁sergey	-13.078
▁take	-13.0785
ded	-13.0785
paleo	-13.0792
▁roy	-13.0794
▁184	-13.0795
▁198	-13.0797
▁178	-13.0803
▁bun	-13.0807
ан	-13.0809
roz	-13.0811
vê	-13.0821
evich	-13.083
trả	-13.0835
▁bond	-13.085
▁imp	-13.0856
agon	-13.0862
util	-13.0862
chat	-13.0872
abc	-13.0873
rút	-13.0873
▁luông	-13.0874
745	-13.0874
▁niu	-13.0876
▁malaya	-13.0885
▁mích	-13.0886
borat	-13.0894
ới	-13.0895
eber	-13.09
▁229	-13.0904
387	-13.0908
▁195	-13.0913
▁dal	-13.0914
lamo	-13.0944
▁force	-13.0947
,39%	-13.0951
/6/19	-13.0953
uzz	-13.0955
▁sip	-13.0955
▁mul	-13.0956
,76%	-13.096
▁29%	-13.0974
▁3-4	-13.0979
▁bron	-13.0984
maha	-13.1007
▁4.2	-13.101
1,4	-13.1016
eukaryote	-13.1023
ometer	-13.1025
fia	-13.1031
avier	-13.1039
829	-13.1044
atom	-13.1047
994	-13.1052
bok	-13.1054
473	-13.1073
deva	-13.1074
erro	-13.1083
sati	-13.1088
то	-13.11
halle	-13.1103
mili	-13.1109
▁pil	-13.1115
▁inca	-13.1121
nut	-13.1126
cee	-13.1139
3.500	-13.1145
extr	-13.115
arne	-13.115
hana	-13.116
▁thori	-13.116
gói	-13.116
▁aram	-13.1161
▁guan	-13.1163
.131	-13.1184
▁boul	-13.1201
▁eth	-13.1219
sava	-13.1247
▁1988)	-13.1263
▁zin	-13.1281
▁140.000	-13.1282
▁rou	-13.1298
ợc	-13.1301
▁2001)	-13.1305
meter	-13.1315
ethyl	-13.1325
118	-13.1325
lipo	-13.1326
962	-13.1327
470	-13.133
ни	-13.134
meth	-13.1343
parti	-13.1346
gers	-13.1347
▁motor	-13.1364
926	-13.1392
luna	-13.1393
claudi	-13.1394
đan	-13.1409
digital	-13.1425
first	-13.1426
germain	-13.1426
office	-13.1426
#	-13.1426
hertz	-13.1427
feynman	-13.1427
ngón	-13.1427
trứng	-13.1427
lúa	-13.1427
nửa	-13.1427
stream	-13.1427
bậc	-13.1427
lửa	-13.1427
nặng	-13.1427
trùng	-13.1427
tám	-13.1427
vượt	-13.1427
quyển	-13.1427
lệnh	-13.1427
dẫn	-13.1427
nguyện	-13.1427
▁1–2	-13.1427
chạy	-13.1427
ngục	-13.1427
thuốc	-13.1428
quyết	-13.1428
quý	-13.1428
thề	-13.1428
basic	-13.1429
simon	-13.1429
kiểm	-13.1429
tầng	-13.143
kitô	-13.1431
▁europe	-13.1432
khảo	-13.1432
ớp	-13.1434
axit	-13.1434
thuyền	-13.1434
cdk	-13.1437
muối	-13.1438
979	-13.144
thưa	-13.144
phút	-13.1443
trở	-13.1443
german	-13.1446
tì	-13.145
đột	-13.1455
lâu	-13.1455
▁chừ	-13.1459
dãy	-13.146
gir	-13.1467
0-100	-13.1474
liêng	-13.1475
tựa	-13.1478
ướt	-13.1479
lên	-13.1479
▁ethyl	-13.148
▁herman	-13.148
ра	-13.1483
▁clark	-13.1485
▁nắn	-13.1487
dravarman	-13.1488
▁nghê	-13.1489
führer	-13.1489
î	-13.1489
▁campbell	-13.1489
▁cerevis	-13.1489
▁heidelberg	-13.1489
▁lafayette	-13.1489
▁vishnu	-13.1489
▁κα	-13.1489
/2006	-13.1489
charlottenburg	-13.1489
council	-13.1489
lorraine	-13.1489
position	-13.1489
schmidt	-13.1489
straße	-13.1489
āgama	-13.1489
▁ackermann	-13.1489
▁alamos	-13.1489
▁arminius	-13.1489
▁babbage	-13.1489
▁bacteriophage	-13.1489
▁barbarossa	-13.1489
▁benelux	-13.1489
▁bhagavati	-13.1489
▁birmingham	-13.1489
▁blýska	-13.1489
▁botswana	-13.1489
▁carbide	-13.1489
▁catalan	-13.1489
▁celsius	-13.1489
▁dehydrogenase	-13.1489
▁dumbledore	-13.1489
▁edison	-13.1489
▁fahrenheit	-13.1489
▁gibraltar	-13.1489
▁gẩy	-13.1489
▁gắm	-13.1489
▁gớm	-13.1489
▁hercules	-13.1489
▁herodotus	-13.1489
▁kadphises	-13.1489
▁macedonia	-13.1489
▁mainframe	-13.1489
▁mccarthy	-13.1489
▁mesopotamia	-13.1489
▁milankovitch	-13.1489
▁minnesota	-13.1489
▁ngẩn	-13.1489
▁niagara	-13.1489
▁nicaragua	-13.1489
▁nẹp	-13.1489
▁parthia	-13.1489
▁platform	-13.1489
▁priestley	-13.1489
▁processing	-13.1489
▁pytago	-13.1489
▁queensland	-13.1489
▁return	-13.1489
▁robocon	-13.1489
▁samurai	-13.1489
▁sapiens	-13.1489
▁savannakhet	-13.1489
▁scholastic	-13.1489
▁seoul	-13.1489
▁socrates	-13.1489
▁strasbourg	-13.1489
▁subakhi	-13.1489
▁sunfit	-13.1489
▁symphony	-13.1489
▁tehran	-13.1489
▁thaksin	-13.1489
▁thorne	-13.1489
▁vatutin	-13.1489
▁wikibooks	-13.1489
family	-13.1489
ø	-13.1489
▁acetat	-13.1489
▁graviton	-13.1489
▁lemur	-13.1489
▁mormon	-13.1489
▁mtdna	-13.1489
▁chalco	-13.1489
▁cohen	-13.1489
▁workgroup	-13.1489
▁cambri	-13.1489
▁melbourne	-13.1489
▁vasili	-13.1489
▁ardenne	-13.1489
▁geoffr	-13.1489
▁mosfet	-13.1489
▁commission	-13.1489
▁yemen	-13.1489
▁oval	-13.1489
wavelet	-13.1489
▁(2019)	-13.1489
bacterium	-13.1489
ability	-13.1489
▁maurya	-13.1489
▁vincennes	-13.1489
▁warsaw	-13.1489
problem	-13.1489
▁(1996)	-13.1489
carleton	-13.1489
▁daimyō	-13.1489
▁pearson	-13.1489
▁oswald	-13.149
▁nhại	-13.149
▁guyana	-13.149
▁uruk	-13.149
▁hoyle	-13.149
▁sartre	-13.149
▁(2005)	-13.149
▁tomá	-13.149
▁peptide	-13.149
▁yorkshire	-13.149
▁week	-13.149
▁rouge	-13.149
▁manstein	-13.149
.309	-13.149
▁xentơ	-13.149
▁êtan	-13.1491
▁quí	-13.1491
▁medica	-13.1491
▁trifluoride	-13.1491
▁thebes	-13.1491
▁power	-13.1491
▁3,6%	-13.1491
▁rọ	-13.1491
▁horse	-13.1491
▁brook	-13.1492
über	-13.1492
skaya	-13.1492
’’	-13.1492
▁work	-13.1492
ursus	-13.1492
▁japan	-13.1492
365,25	-13.1492
▁hague	-13.1492
▁prion	-13.1493
▁earl	-13.1493
▁sirius	-13.1493
retton	-13.1493
tienne	-13.1493
▁lisp	-13.1493
leopard	-13.1493
▁hurd	-13.1493
▁anpơ	-13.1493
▁143-	-13.1494
▁hăm	-13.1494
▁kwh	-13.1494
▁bợ	-13.1494
mmler	-13.1494
redit	-13.1494
▁nõ	-13.1494
▁sarah	-13.1495
▁lazar	-13.1495
vaccin	-13.1495
▁gù	-13.1495
▁herat	-13.1495
▁francia	-13.1496
▁triêng	-13.1496
▁pạ	-13.1496
▁conrad	-13.1496
▁singh	-13.1497
▁jens	-13.1497
▁gobi	-13.1497
▁gân	-13.1497
▁(110	-13.1497
▁abyssinia	-13.1498
▁edit	-13.1499
▁sấy	-13.1499
▁rastislav	-13.1499
1,9	-13.1499
▁glai	-13.15
▁flor	-13.15
▁glei	-13.1501
▁bawu	-13.1503
▁sassanid	-13.1503
▁xíu	-13.1503
▁sạc	-13.1504
,04%	-13.1506
▁chát	-13.1506
▁flu	-13.1508
▁banks	-13.1509
,08%	-13.1509
▁1739	-13.1509
sì	-13.151
▁1813	-13.1512
▁boer	-13.1512
▁vái	-13.1513
▁1397	-13.1515
▁shōgun	-13.1515
▁1811	-13.1515
▁79%	-13.1516
▁1735	-13.1516
▁circuit	-13.1516
▁5,2	-13.1517
▁1722	-13.1517
▁lóc	-13.1517
▁54%	-13.1518
▁290	-13.1519
▁wie	-13.152
▁10−2	-13.152
▁övp	-13.152
▁1809	-13.1521
▁1529	-13.1522
▁claus	-13.1522
▁1785	-13.1523
schule	-13.1523
▁brabant	-13.1526
▁palo	-13.1527
▁1756	-13.1529
▁3–4	-13.1529
▁cascadi	-13.1532
▁(2009)	-13.1532
▁1701	-13.1534
▁conein	-13.1534
▁1679	-13.1535
▁48%	-13.1535
▁1533	-13.1535
▁1/6	-13.1535
nóng	-13.1535
▁baltica	-13.1537
▁style	-13.1537
▁uranus	-13.1537
▁2.800	-13.154
kiền	-13.1541
bei	-13.1542
▁thố	-13.1542
horst	-13.1543
▁2,1%	-13.1544
▁photo	-13.1544
▁lóng	-13.1545
▁tơi	-13.1547
▁thuấn	-13.1549
▁sainte	-13.155
▁canon	-13.1551
kiri	-13.1551
▁1226	-13.1558
path	-13.1559
neau	-13.1562
▁38%	-13.1563
uis	-13.1563
▁8,5%	-13.1564
eith	-13.1564
ignon	-13.1565
▁2,4%	-13.1567
uýt	-13.1569
silic	-13.1569
▁1829	-13.1573
▁gut	-13.1573
.950	-13.1575
▁táp	-13.1575
606	-13.1581
graph	-13.1582
▁ganh	-13.1585
linear	-13.1586
▁tấp	-13.1592
abhi	-13.1593
▁189	-13.1598
▁orbi	-13.1603
holo	-13.1603
▁mồm	-13.1607
rī	-13.1609
2,3%	-13.1609
sworth	-13.1616
miao	-13.163
enor	-13.1635
▁acetylen	-13.1638
▁argo	-13.1648
0-300	-13.166
berry	-13.1664
▁265	-13.1668
ency	-13.1713
host	-13.1718
▁kahn	-13.1719
▁swi	-13.1724
yết	-13.1725
opus	-13.1727
,33%	-13.173
▁1:1	-13.1731
▁bull	-13.1736
▁63%	-13.1746
▁802	-13.1748
open	-13.1751
463	-13.1754
▁call	-13.1756
yavarman	-13.1766
chloro	-13.1772
kami	-13.1779
▁porte	-13.1784
325	-13.1797
▁dé	-13.1803
troph	-13.1804
▁site	-13.1807
cern	-13.1823
-180	-13.1826
sberg	-13.1828
▁tiế	-13.1834
rtha	-13.1838
▁beer	-13.1839
,05%	-13.1849
hường	-13.1853
rconi	-13.1855
5–6	-13.1855
iyah	-13.1872
▁2008)	-13.1876
,15%	-13.1879
▁262	-13.1892
▁plo	-13.1898
table	-13.1899
alte	-13.1926
sys	-13.1936
logy	-13.1968
2%.	-13.1969
kw	-13.1972
igor	-13.1975
.2%	-13.1976
philosophi	-13.1979
hold	-13.1981
60%	-13.1981
aero	-13.1984
▁rein	-13.1985
.321	-13.1989
▁jd	-13.1996
fish	-13.2005
otto	-13.2007
.850	-13.202
opter	-13.2042
lone	-13.2046
phage	-13.2048
2,7	-13.2057
▁brand	-13.2064
rene	-13.2072
eaux	-13.2085
4,2	-13.2086
upper	-13.2101
3,1	-13.2107
2.8	-13.2118
0,6%	-13.2128
switch	-13.2165
▁prea	-13.2166
.133	-13.2201
rè	-13.2213
▁beau	-13.2214
ổn	-13.2222
▁hí	-13.2224
haku	-13.2226
▁sebasti	-13.2231
▁platon	-13.2256
góc	-13.2262
/1956	-13.2284
hole	-13.2286
thì	-13.2296
▁johan	-13.2306
▁magnet	-13.2315
▁osam	-13.2317
hơi	-13.233
cochinchine	-13.2334
mycobacterium	-13.2335
gắn	-13.2335
tanakh	-13.2335
giồng	-13.2335
méxico	-13.2336
tịnh	-13.2336
lưỡng	-13.2336
kênh	-13.2336
kẽm	-13.2336
bầu	-13.2336
bức	-13.2336
thuận	-13.2336
thừa	-13.2336
đấu	-13.2336
nhũ	-13.2337
khẩu	-13.2337
liệu	-13.2337
giết	-13.2338
iraq	-13.2338
thăng	-13.2338
trưng	-13.2338
domain	-13.2338
codon	-13.234
hộp	-13.234
đinh	-13.234
mộ	-13.2341
saint	-13.2341
chào	-13.2343
thôn	-13.2343
hashi	-13.2343
calci	-13.2343
kaki	-13.2345
▁5.5	-13.2346
tồn	-13.2346
bỉ	-13.2347
gốc	-13.2348
mạc	-13.2348
súng	-13.2352
mãi	-13.2352
tuyến	-13.2353
▁joan	-13.2354
nên	-13.2354
tờ	-13.2354
chiêm	-13.2359
hcl	-13.2359
bơ	-13.2363
▁dmitr	-13.2367
▁gừ	-13.237
▁petro	-13.2372
họa	-13.2373
adb	-13.2378
▁1234567	-13.2384
eihei	-13.2386
gmo	-13.239
▁mura	-13.2392
▁gregor	-13.2393
▁orang	-13.2395
▁gạc	-13.2395
ет	-13.2396
▁augustin	-13.2397
▁ellip	-13.2397
▁dề	-13.2398
sław	-13.2398
sukhāvatī	-13.2398
▁klaip	-13.2398
district	-13.2398
nibbāna	-13.2398
▁athabasca	-13.2398
▁joachim	-13.2398
▁phoenicia	-13.2398
▁source	-13.2398
belgica	-13.2398
cordyceps	-13.2398
enterprise	-13.2398
escherichia	-13.2398
gatineau	-13.2398
harpsichord	-13.2398
helmholtz	-13.2398
iconoscope	-13.2398
luftwaffe	-13.2398
onuclease	-13.2398
peptidoglycan	-13.2398
shimura	-13.2398
société	-13.2398
theravada	-13.2398
virgin	-13.2398
westfalen	-13.2398
▁amaravati	-13.2398
▁armstrong	-13.2398
▁bahamas	-13.2398
▁battambang	-13.2398
▁bigeard	-13.2398
▁budapest	-13.2398
▁charlemagne	-13.2398
▁chelsea	-13.2398
▁codasyl	-13.2398
▁coriolis	-13.2398
▁cẳng	-13.2398
▁cặn	-13.2398
▁dartmouth	-13.2398
▁edmond	-13.2398
▁fermilab	-13.2398
▁fyodor	-13.2398
▁galvani	-13.2398
▁girondin	-13.2398
▁griffith	-13.2398
▁hendrik	-13.2398
▁hobbes	-13.2398
▁huxley	-13.2398
▁hécta	-13.2398
▁inhaxiô	-13.2398
▁karlsruhe	-13.2398
▁komako	-13.2398
▁krypton	-13.2398
▁leeuwenhoek	-13.2398
▁lusitania	-13.2398
▁madura	-13.2398
▁masorete	-13.2398
▁matsuura	-13.2398
▁mclean	-13.2398
▁moresnet	-13.2398
▁mughal	-13.2398
▁mửa	-13.2398
▁nhạo	-13.2398
▁nấc	-13.2398
▁nịnh	-13.2398
▁oklahoma	-13.2398
▁omega	-13.2398
▁oregon	-13.2398
▁ozanam	-13.2398
▁pannotia	-13.2398
▁panthéon	-13.2398
▁pascua	-13.2398
▁postgresql	-13.2398
▁pylori	-13.2398
▁qatar	-13.2398
▁rootkit	-13.2398
▁rupert	-13.2398
▁schwinger	-13.2398
▁scratch	-13.2398
▁stewart	-13.2398
▁sukhothai	-13.2398
▁sundarbans	-13.2398
▁sủa	-13.2398
▁telomerase	-13.2398
▁timothy	-13.2398
▁trudeau	-13.2398
▁vasilevsky	-13.2398
▁wankel	-13.2398
▁watergate	-13.2398
▁weinberg	-13.2398
▁yayoi	-13.2398
▁štúr	-13.2398
/2003/	-13.2398
▁ammonia	-13.2398
▁avicenna	-13.2398
▁collagen	-13.2398
▁dream	-13.2398
▁dulles	-13.2398
▁eisai	-13.2398
▁wayland	-13.2398
▁whig	-13.2398
dynamic	-13.2398
plantation	-13.2398
▁solaris	-13.2398
▁andaman	-13.2398
▁turkmenistan	-13.2398
▁trump	-13.2398
▁tởm	-13.2398
▁vinci	-13.2398
▁virion	-13.2398
ized	-13.2398
▁dragon	-13.2398
▁wegener	-13.2398
aluminium	-13.2398
▁(2020)	-13.2398
▁locke	-13.2398
=865	-13.2398
nippon	-13.2398
▁monoxide	-13.2398
▁mpla	-13.2398
▁rights	-13.2398
▁lorenz	-13.2398
▁midland	-13.2398
▁nucleobase	-13.2398
▁crawf	-13.2398
▁superoxide	-13.2398
▁khalk	-13.2398
▁psr	-13.2399
▁(1998)	-13.2399
▁controller	-13.2399
▁douro	-13.2399
▁continuum	-13.2399
offici	-13.2399
▁iodide	-13.2399
▁(1971)	-13.2399
▁(2006)	-13.2399
hetero	-13.2399
commune	-13.2399
▁hughes	-13.2399
▁antimon	-13.2399
brunn	-13.2399
▁trêu	-13.2399
▁isotype	-13.2399
▁online	-13.2399
▁luống	-13.2399
▁ngửi	-13.2399
▁monomer	-13.2399
▁thcs	-13.2399
▁alkyl	-13.2399
▁flute	-13.2399
▁máccô	-13.2399
884	-13.2399
▁sector	-13.2399
▁mogas	-13.2399
rokossovsky	-13.2399
▁12,7	-13.2399
▁flick	-13.24
▁doping	-13.24
▁cisco	-13.24
▁heath	-13.24
ezza	-13.24
australoid	-13.24
▁(2014)	-13.24
▁hoover	-13.24
▁0,001	-13.24
="865	-13.24
▁haute	-13.24
▁delhi	-13.24
▁hermit	-13.24
▁skil	-13.2401
▁nỡ	-13.2401
▁siết	-13.2401
ulgenc	-13.2401
▁(2000)	-13.2401
▁(1995)	-13.2401
▁hahn	-13.2401
▁khùa	-13.2401
▁bird	-13.2401
▁stack	-13.2401
▁tennis	-13.2401
▁diếp	-13.2401
hausen	-13.2401
▁hmong	-13.2401
▁rúp	-13.2402
][	-13.2402
▁axel	-13.2402
▁patti	-13.2402
▁sình	-13.2402
▁serra	-13.2402
▁onca	-13.2403
▁goth	-13.2403
▁minix	-13.2404
▁moor	-13.2404
/1999/	-13.2404
▁dôi	-13.2404
▁undp	-13.2405
▁nhụy	-13.2405
▁ipad	-13.2405
ficus	-13.2406
är	-13.2406
▁bới	-13.2406
▁sulu	-13.2406
▁ballet	-13.2406
▁forum	-13.2406
▁oil	-13.2407
seil	-13.2407
▁cacbonic	-13.2407
▁gỉ	-13.2407
▁sắng	-13.2408
pedia	-13.2408
▁duyện	-13.2408
▁recon	-13.2408
▁(1918	-13.2409
▁homer	-13.2409
▁helios	-13.2409
▁sít	-13.2409
ли	-13.241
▁bombe	-13.241
sclc	-13.241
tone	-13.241
▁0°	-13.2411
tcher	-13.2411
▁samaria	-13.2411
▁pyrimidine	-13.2412
▁trent	-13.2412
▁hyper	-13.2413
đào	-13.2413
▁sciences	-13.2413
▁nouvelle	-13.2414
_24	-13.2414
▁fbi	-13.2414
8+	-13.2415
▁cbs	-13.2415
▁cdp	-13.2417
karl	-13.2418
▁gpa	-13.2419
▁rocket	-13.242
▁rabindra	-13.242
▁technology	-13.242
▁hấn	-13.2421
▁franci	-13.2421
▁1687	-13.2421
▁6.500	-13.2422
▁hét	-13.2422
▁mốt	-13.2422
▁sound	-13.2422
▁vơ	-13.2422
▁1797	-13.2423
▁yuri	-13.2424
▁1796	-13.2424
▁viola	-13.2424
▁melo	-13.2425
,96%	-13.2425
▁1377	-13.2425
ōnin	-13.2425
▁1769	-13.2427
▁1547	-13.2429
lorofluorocarbon	-13.2429
▁2.100	-13.243
▁3.600	-13.2432
,86%	-13.2435
▁moj	-13.2436
▁methane	-13.2437
▁cỗi	-13.2437
▁1823	-13.2437
▁1517	-13.2438
chū	-13.2438
▁petit	-13.2438
panther	-13.2438
▁ngõa	-13.2439
▁thon	-13.2439
▁58%	-13.244
▁uml	-13.2441
▁1555	-13.2441
▁3–5	-13.2442
▁24.000	-13.2443
▁42.000	-13.2443
▁65.000	-13.2445
▁850	-13.2446
pyro	-13.2447
▁cloud	-13.2447
▁chội	-13.2448
eurocommunism	-13.2449
▁triti	-13.2449
▁3.200	-13.245
ững	-13.2454
_36	-13.2457
▁tool	-13.2458
werke	-13.246
turing	-13.2465
646	-13.2466
▁1077	-13.2467
▁cairo	-13.2467
_22	-13.2468
▁787	-13.2468
▁21.000	-13.247
▁kushan	-13.247
côn	-13.2472
8,7	-13.2476
1995	-13.2478
▁1206	-13.2479
bhā	-13.2482
éna	-13.2483
▁ode	-13.2483
home	-13.2486
left	-13.2486
▁1227	-13.2489
▁12,5	-13.2498
hiếu	-13.2501
.420	-13.2504
uci	-13.2505
▁tiger	-13.2506
maria	-13.2513
▁1100	-13.2519
,22%	-13.2522
$1	-13.2522
plat	-13.2526
▁braga	-13.2527
▁470	-13.2529
photo	-13.2534
▁compa	-13.2542
ún	-13.2543
ennis	-13.2544
▁julie	-13.2555
.310	-13.256
short	-13.2563
▁lố	-13.2564
25.000	-13.2564
yersinia	-13.2566
475	-13.2566
full	-13.258
ор	-13.2589
▁87%	-13.2597
grande	-13.2598
6,9%	-13.2602
gest	-13.2614
▁place	-13.2628
6,6%	-13.263
nova	-13.2633
▁shel	-13.2643
246	-13.2646
animal	-13.2647
.162	-13.2662
7,1%	-13.2672
▁siê	-13.2679
.770	-13.2694
2014	-13.27
37.000	-13.2701
veda	-13.2715
4,7	-13.2723
yuki	-13.2731
bù	-13.2738
▁job	-13.2761
ин	-13.2763
enbach	-13.2779
guin	-13.2779
–25	-13.2793
.550	-13.2796
9,7	-13.2797
ommer	-13.2798
▁hua	-13.2823
▁kenne	-13.2833
gaku	-13.2835
clair	-13.2852
▁29,5	-13.2862
hare	-13.2868
ould	-13.2875
7,8%	-13.2877
▁ipa	-13.2883
▁mó	-13.2901
edev	-13.2907
thô	-13.292
einer	-13.2922
cept	-13.2923
witz	-13.2924
▁eukaryot	-13.2935
▁lucie	-13.2943
sunday	-13.2948
.166	-13.2974
.920	-13.2977
wto	-13.2978
▁đă	-13.2981
sses	-13.2983
orf	-13.2987
▁sci	-13.2991
657	-13.3031
,57%	-13.3047
▁0,05	-13.3048
voi	-13.3052
aṇa	-13.3056
963	-13.3058
579	-13.3071
mạ	-13.3079
oshua	-13.3083
▁8.1	-13.3095
0–200	-13.3096
karma	-13.3104
phile	-13.3106
etter	-13.3128
berliner	-13.3135
tata	-13.3138
(10)	-13.3149
▁amu	-13.3159
0-250	-13.316
barr	-13.3164
nō	-13.3164
thê	-13.3168
▁fran	-13.3179
▁(169	-13.3181
pter	-13.3211
ello	-13.3214
▁álvar	-13.3221
pod	-13.3223
phô	-13.3238
▁rud	-13.3252
reich	-13.3255
buddh	-13.3258
2012)	-13.3262
145	-13.3268
▁nel	-13.3282
terra	-13.3282
olin	-13.3291
ỷ	-13.3311
883	-13.3313
ural	-13.3314
đạ	-13.3326
http	-13.3329
hiểu	-13.3329
hùm	-13.3332
double	-13.3334
museum	-13.3334
vostok	-13.3334
film	-13.3334
little	-13.3334
messiah	-13.3334
kamakura	-13.3335
science	-13.3335
dollar	-13.3335
prince	-13.3335
computer	-13.3335
oxygen	-13.3335
vietnam	-13.3335
rhein	-13.3336
rhode	-13.3336
pierre	-13.3336
đứa	-13.3336
lũy	-13.3336
sữa	-13.3336
sql	-13.3336
nồng	-13.3336
tĩnh	-13.3336
tắc	-13.3336
mức	-13.3336
viễn	-13.3336
hungary	-13.3337
mission	-13.3337
sterol	-13.3337
center	-13.3338
tonkin	-13.3338
nhớ	-13.3339
franc	-13.334
đốt	-13.334
xăng	-13.3342
phối	-13.3345
băng	-13.3345
vĩ	-13.3346
hùa	-13.3347
dĩ	-13.3347
mảnh	-13.3348
niềm	-13.3348
natri	-13.3352
ười	-13.3354
thục	-13.3359
eden	-13.3363
khổng	-13.3365
▁nile	-13.3372
▁6.0	-13.3374
đám	-13.3374
fluorocarbon	-13.3376
mora	-13.3377
▁5/19	-13.3378
peter	-13.3378
cường	-13.3378
▁actin	-13.338
▁oak	-13.3382
▁constantin	-13.3394
▁linien	-13.3397
dinh	-13.3398
assembl	-13.3398
prajñā	-13.3398
▁joyce	-13.3398
▁taniyama	-13.3398
alembert	-13.3398
algorithm	-13.3398
archaeopteryx	-13.3398
commodore	-13.3398
ewicz	-13.3398
hypothesis	-13.3398
ophiocordyceps	-13.3398
perestroika	-13.3398
république	-13.3398
▁aerospace	-13.3398
▁amanullah	-13.3398
▁ancelotti	-13.3398
▁apache	-13.3398
▁appalachia	-13.3398
▁aryabhata	-13.3398
▁beckenbauer	-13.3398
▁boucle	-13.3398
▁bristol	-13.3398
▁cavendish	-13.3398
▁community	-13.3398
▁computing	-13.3398
▁decoux	-13.3398
▁diderot	-13.3398
▁durrani	-13.3398
▁défense	-13.3398
▁edinburgh	-13.3398
▁edvac	-13.3398
▁ferrari	-13.3398
▁fizeau	-13.3398
▁fraser	-13.3398
▁frédéric	-13.3398
▁fuchs	-13.3398
▁giusê	-13.3398
▁gmbh	-13.3398
▁gosling	-13.3398
▁grimm	-13.3398
▁guinness	-13.3398
▁gujarat	-13.3398
▁gấc	-13.3398
▁hampshire	-13.3398
▁heracles	-13.3398
▁herakles	-13.3398
▁heynckes	-13.3398
▁hoeneß	-13.3398
▁honduras	-13.3398
▁husserl	-13.3398
▁hébrard	-13.3398
▁hấu	-13.3398
▁iosif	-13.3398
▁józef	-13.3398
▁jōmon	-13.3398
▁karelia	-13.3398
▁kitasato	-13.3398
▁ladakh	-13.3398
▁lamarck	-13.3398
▁levoča	-13.3398
▁liberia	-13.3398
▁management	-13.3398
▁melanesia	-13.3398
▁mirabeau	-13.3398
▁mần	-13.3398
▁necker	-13.3398
▁nhòe	-13.3398
▁nikaya	-13.3398
▁novell	-13.3398
▁nuremberg	-13.3398
▁odysse	-13.3398
▁peshawar	-13.3398
▁phrabang	-13.3398
▁plantagenet	-13.3398
▁pāli	-13.3398
▁riksdag	-13.3398
▁rockefeller	-13.3398
▁schleiden	-13.3398
▁schleswig	-13.3398
▁snape	-13.3398
▁spintronics	-13.3398
▁stuart	-13.3398
▁sudbury	-13.3398
▁talmud	-13.3398
▁toshiba	-13.3398
▁urbain	-13.3398
▁vanuatu	-13.3398
▁wiktionary	-13.3398
▁wisconsin	-13.3398
▁xắc	-13.3398
▁zimbabwe	-13.3398
chemistry	-13.3398
dienst	-13.3398
könig	-13.3398
▁coimbra	-13.3398
▁dnazyme	-13.3398
▁fulleren	-13.3398
▁gọt	-13.3398
▁kinase	-13.3398
▁leiden	-13.3398
▁mycenae	-13.3398
▁phnom	-13.3398
▁richmond	-13.3398
▁sacramento	-13.3398
▁tợn	-13.3398
▁waals	-13.3398
▁xèo	-13.3398
=1076	-13.3398
=1078	-13.3398
interface	-13.3398
mādhyamika	-13.3398
▁babenberg	-13.3398
▁bridge	-13.3398
▁duncan	-13.3398
▁lansdale	-13.3398
▁regina	-13.3398
▁sigma	-13.3398
▁sục	-13.3398
▁turbo	-13.3398
=1094	-13.3398
=1095	-13.3398
=1099	-13.3398
▁assembly	-13.3398
▁dictionary	-13.3398
▁viqr	-13.3398
faifo	-13.3398
▁eddy	-13.3398
▁thuớc	-13.3398
▁riverside	-13.3398
=1097	-13.3398
=263	-13.3398
=436	-13.3398
=439	-13.3398
=440	-13.3398
=459	-13.3398
=619	-13.3398
=712	-13.3398
=714	-13.3398
=864	-13.3398
=869	-13.3398
=870	-13.3398
=872	-13.3398
▁kaliningrad	-13.3398
▁raúl	-13.3398
="1105	-13.3398
="1108	-13.3398
stratus	-13.3398
▁vincom	-13.3398
="1129	-13.3398
=403	-13.3398
="1104	-13.3398
▁dfb	-13.3398
="1109	-13.3398
="1118	-13.3398
="1115	-13.3398
="1116	-13.3398
routine	-13.3398
="1102	-13.3398
▁archaea	-13.3398
africa	-13.3398
colonel	-13.3398
="1112	-13.3398
ло	-13.3398
=437	-13.3398
▁gödel	-13.3398
="1078	-13.3398
="1094	-13.3398
="1110	-13.3398
▁ppb	-13.3398
="1076	-13.3398
="1119	-13.3398
=707	-13.3398
societ	-13.3398
▁nitra	-13.3398
="1095	-13.3398
=541	-13.3398
▁ngoái	-13.3398
=891	-13.3399
="1099	-13.3399
▁vhs	-13.3399
▁(1961)	-13.3399
▁adobe	-13.3399
muỗng	-13.3399
▁bungari	-13.3399
=1102	-13.3399
▁mcdonald	-13.3399
="1101	-13.3399
▁telecom	-13.3399
=1105	-13.3399
=1108	-13.3399
▁(1938)	-13.3399
▁swede	-13.3399
▁pythagore	-13.3399
▁surveyor	-13.3399
▁nhạn	-13.3399
▁caroline	-13.3399
▁(1960)	-13.3399
=1101	-13.3399
aluminum	-13.3399
▁schuko	-13.3399
="870	-13.3399
="1097	-13.3399
="439	-13.3399
▁janata	-13.3399
▁sinensis	-13.3399
=1116	-13.3399
="619	-13.3399
="436	-13.3399
="440	-13.3399
▁noether	-13.3399
▁bonnie	-13.3399
▁riết	-13.3399
="869	-13.3399
="393	-13.3399
="714	-13.3399
="459	-13.3399
="872	-13.3399
="864	-13.3399
="358	-13.3399
▁chdc	-13.3399
=1115	-13.3399
="712	-13.3399
=1118	-13.3399
▁danang	-13.3399
="263	-13.3399
kmaq	-13.3399
▁jehovah	-13.3399
▁ahm	-13.3399
=1104	-13.3399
▁cadmi	-13.3399
="403	-13.3399
=1112	-13.34
▁glenn	-13.34
▁report	-13.34
▁alexis	-13.34
nederlanden	-13.34
=1109	-13.34
tibet	-13.34
▁rì	-13.34
▁kip	-13.34
▁michelin	-13.34
phyto	-13.34
="437	-13.3401
▁ngốc	-13.3401
▁canyon	-13.3401
=1119	-13.3401
▁volta	-13.3401
▁andromedae	-13.3401
="707	-13.3401
attā	-13.3401
▁(2015)	-13.3401
=1110	-13.3401
▁giêxu	-13.3401
▁roux	-13.3402
="541	-13.3402
="891	-13.3402
▁electronics	-13.3402
▁(2002)	-13.3402
▁mazar	-13.3402
▁nhái	-13.3402
▁constantine	-13.3402
▁gabon	-13.3403
elmo	-13.3403
863	-13.3403
▁nisan	-13.3403
▁dăm	-13.3403
▁munda	-13.3403
▁lower	-13.3403
thermo	-13.3403
▁clarke	-13.3403
nault	-13.3403
ennett	-13.3403
▁anilin	-13.3403
▁vưu	-13.3404
krug	-13.3404
▁linz	-13.3404
▁sheets	-13.3404
xtơ	-13.3404
▁spacex	-13.3404
▁vỉ	-13.3404
▁đoòng	-13.3404
▁sutra	-13.3405
▁spot	-13.3405
▁tudor	-13.3405
▁karen	-13.3405
▁xước	-13.3405
▁đọi	-13.3405
▁kbang	-13.3406
▁exon	-13.3406
okushi	-13.3406
▁milano	-13.3406
▁madre	-13.3406
=393	-13.3407
▁motors	-13.3407
▁khz	-13.3407
▁burke	-13.3409
▁vaud	-13.3409
▁alfa	-13.3409
▁bowl	-13.3409
▁rái	-13.3409
multiple	-13.3409
▁nụ	-13.3409
▁wade	-13.341
▁(1884	-13.341
▁suông	-13.341
▁vãi	-13.341
xter	-13.3411
▁(4%)	-13.3411
▁60°	-13.3412
-1970	-13.3412
regulat	-13.3412
▁lakes	-13.3413
▁gustave	-13.3413
▁(1900	-13.3413
▁bison	-13.3413
celle	-13.3415
▁ngải	-13.3415
▁nạt	-13.3415
▁chern	-13.3415
▁gates	-13.3416
database	-13.3417
hiếm	-13.3417
▁ôtô	-13.3417
veta	-13.3417
=1129	-13.3418
=358	-13.3418
▁mbar	-13.3419
▁1689	-13.3421
stahl	-13.3421
,09%	-13.3421
▁1688	-13.3423
▁xéo	-13.3423
▁gps	-13.3423
▁84%	-13.3423
▁1826	-13.3427
▁rogers	-13.3427
▁sám	-13.3427
_29	-13.3428
▁1726	-13.3428
▁dông	-13.3429
univer	-13.3429
▁bpp	-13.343
▁sé	-13.3431
▁vnd	-13.3433
▁1699	-13.3433
▁lisa	-13.3434
▁1651	-13.3435
▁hủi	-13.3437
▁1662	-13.3438
=320	-13.3439
statt	-13.3439
▁1558	-13.3441
,52%	-13.3442
▁ige	-13.3443
▁1607	-13.3444
,13%	-13.3444
▁karpat	-13.3444
▁1643	-13.3445
▁34%	-13.3446
▁bở	-13.3446
transport	-13.3447
kraft	-13.345
μα	-13.3451
value	-13.3452
,95%	-13.3453
▁82%	-13.3453
magnetic	-13.3453
▁1604	-13.3453
▁3500	-13.3454
▁tatar	-13.3456
heimer	-13.3456
align	-13.3463
.000.000.000.000	-13.3464
▁xó	-13.3465
▁1536	-13.3467
sōji	-13.3469
summer	-13.347
hydrat	-13.3471
jean	-13.3471
cellula	-13.3472
ailur	-13.3476
asaki	-13.3482
udov	-13.3482
ablo	-13.3486
▁83%	-13.3488
▁1442	-13.3488
crown	-13.3493
▁1402	-13.3503
▁hemi	-13.3511
yamato	-13.3513
organism	-13.3514
borne	-13.3516
tsar	-13.3517
846	-13.3523
normal	-13.3523
nano	-13.3527
.311	-13.353
,49%	-13.3535
enstein	-13.3535
graf	-13.3536
,68%	-13.3539
▁(0,00	-13.3541
▁leuc	-13.3551
polar	-13.3554
isle	-13.3558
▁ryz	-13.3564
▁kleine	-13.3566
ène	-13.3567
▁riga	-13.3569
you	-13.3577
czech	-13.3588
spd	-13.3591
mash	-13.3593
dier	-13.3603
lơi	-13.361
▁kev	-13.3613
gaap	-13.3622
▁ranch	-13.3652
china	-13.3655
gari	-13.3661
.563	-13.3665
lied	-13.3667
scap	-13.3674
▁india	-13.3692
.848	-13.3706
▁vớ	-13.3714
private	-13.3718
amar	-13.3722
▁mott	-13.3729
,51%	-13.3733
0,9	-13.3736
▁uli	-13.3747
batsha	-13.375
.232	-13.376
.223	-13.3773
canal	-13.3774
enoid	-13.3775
99%	-13.3784
▁tera	-13.379
brandt	-13.3795
kok	-13.3802
,75%	-13.3804
,69%	-13.3809
▁mint	-13.3831
▁1995)	-13.384
hore	-13.3869
frankfurter	-13.3872
,35%	-13.3882
urse	-13.3884
lăng	-13.3885
rờ	-13.3885
robertson	-13.3896
kyl	-13.3905
0,7	-13.3907
▁mead	-13.3907
ον	-13.3913
kana	-13.3916
hất	-13.3916
,74%	-13.3922
llow	-13.3933
bug	-13.3936
rõ	-13.3939
▁carol	-13.3964
ốn	-13.397
nbc	-13.3971
.560	-13.3982
,54%	-13.3983
▁pear	-13.4002
,78%	-13.4033
cien	-13.4036
aeus	-13.4048
event	-13.4061
.290	-13.4065
ōn	-13.4069
kron	-13.4073
logia	-13.4082
ượng	-13.4083
hẻ	-13.41
ophyta	-13.4102
germania	-13.4108
xī	-13.4113
▁kampo	-13.4121
root	-13.4124
isvara	-13.413
mồ	-13.4134
▁step	-13.4139
gumen	-13.4149
pari	-13.4154
yī	-13.4159
upa	-13.4168
▁mị	-13.418
graphe	-13.4199
▁ngán	-13.4217
higa	-13.4224
phosphat	-13.4231
▁corne	-13.4232
tell	-13.4235
,28%	-13.424
▁10,5	-13.4243
▁0,03	-13.4248
▁nhằn	-13.426
evolution	-13.4261
▁mario	-13.4263
▁nhá	-13.4265
fé	-13.4277
2009)	-13.4278
worth	-13.4284
híp	-13.4306
aires	-13.4313
▁(156	-13.4331
▁sergeyev	-13.434
.130	-13.4363
▁5,0	-13.4396
ỡi	-13.4418
logic	-13.4418
khổ	-13.4422
stade	-13.4425
dạ	-13.4434
electro	-13.4436
▁lauren	-13.4442
laurent	-13.4445
spyware	-13.4445
wolf	-13.4446
uranus	-13.4446
electric	-13.4446
blitzkrieg	-13.4446
software	-13.4446
nickel	-13.4446
multi	-13.4446
style	-13.4447
eros	-13.4447
oecd	-13.4447
giấc	-13.4447
iucn	-13.4447
arthur	-13.4447
royal	-13.4447
charles	-13.4447
cậu	-13.4447
nhôm	-13.4447
trạm	-13.4447
mexico	-13.4447
đĩa	-13.4447
thuần	-13.4447
lạnh	-13.4447
dành	-13.4447
thạch	-13.4447
spö	-13.4448
chuỗi	-13.4448
frank	-13.4448
giêsu	-13.4448
tuyết	-13.4448
thảo	-13.4448
thợ	-13.4448
cạnh	-13.4449
bính	-13.4449
đăng	-13.4449
christian	-13.445
.280	-13.445
mãnh	-13.4451
lạt	-13.4451
lữ	-13.4452
nhánh	-13.4452
byte	-13.4452
kền	-13.4455
life	-13.4457
xạ	-13.4459
trấn	-13.4459
pcr	-13.446
plain	-13.4461
logie	-13.4467
đều	-13.4467
▁modern	-13.447
laser	-13.4472
pơ	-13.4474
sửa	-13.4475
zawa	-13.4476
▁dũ	-13.4483
/2018	-13.4486
pisa	-13.4486
▁cacbo	-13.4502
▁milli	-13.4505
glyceride	-13.4508
/2011	-13.4509
▁gorbach	-13.4509
/2017	-13.4509
▁eliza	-13.4509
afrika	-13.4509
challenger	-13.4509
instruction	-13.4509
▁bậy	-13.4509
▁calgary	-13.4509
▁idiotype	-13.4509
▁mutation	-13.4509
▁phosphatidyl	-13.4509
admiral	-13.4509
aleksei	-13.4509
amitābha	-13.4509
archaeota	-13.4509
drosophila	-13.4509
ketuvim	-13.4509
mathematics	-13.4509
opticks	-13.4509
württemberg	-13.4509
▁agarose	-13.4509
▁alentejo	-13.4509
▁alfvén	-13.4509
▁alhazen	-13.4509
▁ametit	-13.4509
▁anakena	-13.4509
▁anatolia	-13.4509
▁antikythera	-13.4509
▁apollonius	-13.4509
▁balzac	-13.4509
▁bardeen	-13.4509
▁bermuda	-13.4509
▁böhm	-13.4509
▁calcutta	-13.4509
▁canadian	-13.4509
▁capsomer	-13.4509
▁chemical	-13.4509
▁chesapeake	-13.4509
▁clarinet	-13.4509
▁concorde	-13.4509
▁crenarchaeota	-13.4509
▁cyanogen	-13.4509
▁deimos	-13.4509
▁digoxin	-13.4509
▁driver	-13.4509
▁dupuis	-13.4509
▁dặc	-13.4509
▁dặt	-13.4509
▁enceladus	-13.4509
▁equinox	-13.4509
▁euronext	-13.4509
▁framework	-13.4509
▁fraunhofer	-13.4509
▁fujio	-13.4509
▁garcía	-13.4509
▁glashow	-13.4509
▁guadalupe	-13.4509
▁hindenburg	-13.4509
▁hoẵng	-13.4509
▁huguenot	-13.4509
▁hutton	-13.4509
▁hybridization	-13.4509
▁intelligence	-13.4509
▁ishtar	-13.4509
▁janeiro	-13.4509
▁kiyomori	-13.4509
▁knesset	-13.4509
▁lausanne	-13.4509
▁lectures	-13.4509
▁liège	-13.4509
▁lumière	-13.4509
▁mahayana	-13.4509
▁megawatt	-13.4509
▁memorial	-13.4509
▁merkel	-13.4509
▁messier	-13.4509
▁mogul	-13.4509
▁moissan	-13.4509
▁montparnasse	-13.4509
▁muhamad	-13.4509
▁ngửa	-13.4509
▁nokia	-13.4509
▁novgorod	-13.4509
▁oradea	-13.4509
▁ostashkov	-13.4509
▁plymouth	-13.4509
▁quyệt	-13.4509
▁quặc	-13.4509
▁rụi	-13.4509
▁scheele	-13.4509
▁schwann	-13.4509
▁sevilla	-13.4509
▁shackleton	-13.4509
▁shriram	-13.4509
▁strategos	-13.4509
▁sudetenland	-13.4509
▁suebi	-13.4509
▁takauji	-13.4509
▁testosterone	-13.4509
▁theresia	-13.4509
▁tombaugh	-13.4509
▁tunisia	-13.4509
▁virchow	-13.4509
▁visigoth	-13.4509
▁wundt	-13.4509
▁wycliff	-13.4509
▁xenlulo	-13.4509
▁zahir	-13.4509
1,2,3,4	-13.4509
dactyl	-13.4509
honoré	-13.4509
nuclear	-13.4509
peptit	-13.4509
splicing	-13.4509
ẵ	-13.4509
▁albany	-13.4509
▁document	-13.4509
▁elaine	-13.4509
▁kruger	-13.4509
▁mercedes	-13.4509
▁nvidia	-13.4509
▁picard	-13.4509
▁ponce	-13.4509
▁taksin	-13.4509
▁xuồng	-13.4509
hmoob	-13.4509
▁cinema	-13.4509
▁cruz	-13.4509
▁eniac	-13.4509
▁epitop	-13.4509
▁hđh	-13.4509
▁isdn	-13.4509
▁lattre	-13.4509
▁meuse	-13.4509
=1026	-13.4509
=1075	-13.4509
▁trompet	-13.4509
/2021	-13.4509
=1096	-13.4509
große	-13.4509
minuet	-13.4509
▁sedang	-13.4509
=290	-13.4509
=413	-13.4509
=414	-13.4509
=422	-13.4509
=424	-13.4509
=448	-13.4509
=592	-13.4509
=715	-13.4509
=830	-13.4509
=868	-13.4509
=879	-13.4509
=902	-13.4509
=438	-13.4509
=443	-13.4509
=639	-13.4509
=713	-13.4509
nirvā	-13.4509
▁raraku	-13.4509
="1130	-13.4509
=273	-13.4509
▁bipm	-13.4509
▁relay	-13.4509
=1077	-13.4509
dependent	-13.4509
="1026	-13.451
▁apec	-13.451
▁virut	-13.451
=893	-13.451
=895	-13.451
▁millikan	-13.451
="1113	-13.451
="1114	-13.451
dvaita	-13.451
plastic	-13.451
▁cristo	-13.451
=853	-13.451
prenol	-13.451
▁sparta	-13.451
="1100	-13.451
=421	-13.451
▁bytecode	-13.451
▁karnow	-13.451
holstein	-13.451
coffee	-13.451
▁ramadan	-13.451
▁shikoku	-13.451
="1075	-13.451
=441	-13.451
län	-13.451
moulin	-13.451
▁polynucleotide	-13.451
yellow	-13.451
▁(1962)	-13.451
▁gandhara	-13.451
="1096	-13.451
▁muồi	-13.451
▁bromide	-13.451
▁lhc	-13.451
▁limburg	-13.451
=407	-13.451
methodist	-13.451
sphere	-13.451
gareth	-13.451
▁safari	-13.451
="1107	-13.451
episcopal	-13.451
▁(1951)	-13.451
happy	-13.451
eijer	-13.451
phenyl	-13.451
▁fugue	-13.451
▁semyon	-13.451
▁normandie	-13.451
▁bassac	-13.451
▁molière	-13.451
▁mahm	-13.451
="316	-13.451
="1111	-13.451
jaguar	-13.451
=1113	-13.451
▁pardus	-13.451
▁bcg	-13.451
▁1953-1954	-13.451
="879	-13.451
▁tiberi	-13.451
sandro	-13.451
="639	-13.451
="424	-13.451
▁ismail	-13.451
="438	-13.451
▁(1919)	-13.451
="448	-13.451
/100.000	-13.451
="550	-13.451
="443	-13.451
="715	-13.451
="1077	-13.451
="390	-13.451
="902	-13.451
▁minsky	-13.451
="868	-13.451
="256	-13.451
="385	-13.451
="422	-13.451
▁thét	-13.451
="413	-13.451
="340	-13.451
omycetes	-13.451
="592	-13.451
="319	-13.451
▁citrat	-13.451
▁qcd	-13.451
="290	-13.451
=1114	-13.451
="123	-13.451
▁montana	-13.4511
="382	-13.4511
▁yoko	-13.4511
="273	-13.4511
="322	-13.4511
▁nhử	-13.4511
aquila	-13.4511
▁1-0	-13.4511
▁calamin	-13.4511
=1130	-13.4511
▁què	-13.4511
▁francois	-13.4511
="895	-13.4511
▁carey	-13.4511
="893	-13.4511
▁story	-13.4511
▁unun	-13.4511
=1107	-13.4511
=1111	-13.4512
▁ghẻ	-13.4512
▁laboratory	-13.4512
sarva	-13.4512
▁steam	-13.4512
wmap	-13.4512
▁kalinin	-13.4512
="853	-13.4512
▁logistics	-13.4512
="421	-13.4512
▁noah	-13.4512
▁gcc	-13.4513
▁teluride	-13.4513
▁nitro	-13.4513
=262	-13.4513
▁night	-13.4513
jahn	-13.4513
▁1954-195	-13.4513
="441	-13.4513
▁seato	-13.4513
="391	-13.4513
▁catherine	-13.4513
▁$100	-13.4513
▁sạp	-13.4513
▁khoăn	-13.4513
▁fels	-13.4513
▁console	-13.4514
="321	-13.4514
▁10−4	-13.4514
▁lẹ	-13.4514
="407	-13.4514
▁mịt	-13.4514
▁permi	-13.4514
▁iphone	-13.4514
effer	-13.4514
▁lahore	-13.4514
▁rống	-13.4514
▁perry	-13.4514
▁sever	-13.4515
▁pamir	-13.4515
▁etruscan	-13.4515
plastid	-13.4515
▁thênh	-13.4515
▁dlp	-13.4516
lebens	-13.4516
▁bẽ	-13.4516
statisti	-13.4516
5–20	-13.4517
▁marina	-13.4517
=1100	-13.4517
▁mailing	-13.4517
▁county	-13.4517
▁germanic	-13.4517
▁nathan	-13.4518
▁ján	-13.4518
▁porter	-13.4518
=123	-13.4519
▁đọa	-13.4519
▁đăm	-13.4519
,82%	-13.4519
=316	-13.452
▁tủi	-13.452
8.500	-13.4521
▁vcd	-13.4521
▁avar	-13.4522
▁coong	-13.4522
=321	-13.4522
▁hume	-13.4522
▁jeu	-13.4522
▁10−3	-13.4523
=382	-13.4523
programming	-13.4523
▁băn	-13.4523
▁heck	-13.4523
▁else	-13.4523
ievna	-13.4523
onrad	-13.4524
=372	-13.4524
mental	-13.4524
▁jason	-13.4525
!—	-13.4525
▁ruby	-13.4525
▁mahat	-13.4525
▁krei	-13.4526
=391	-13.4526
▁macma	-13.4526
▁copy	-13.4526
▁haber	-13.4527
▁búk	-13.4529
▁deville	-13.4529
▁marcos	-13.453
▁tungus	-13.453
▁adp	-13.453
-119	-13.453
=385	-13.453
civil	-13.453
chner	-13.4532
▁beat	-13.4532
▁1683	-13.4532
▁elsa	-13.4532
▁nadu	-13.4533
▁bode	-13.4533
bble	-13.4535
▁nist	-13.4535
▁5-6	-13.4538
▁0,12	-13.4538
▁paladi	-13.4538
scale	-13.4538
ghè	-13.4538
_26	-13.4539
▁franca	-13.454
▁havel	-13.454
_28	-13.4541
=322	-13.4542
=340	-13.4542
▁1732	-13.4542
=390	-13.4543
=569	-13.4544
▁1632	-13.4544
▁1390	-13.4545
▁1656	-13.4545
▁1748	-13.4545
=550	-13.4546
_31	-13.4546
▁1766	-13.4548
cholera	-13.4549
▁petrov	-13.4549
▁1675	-13.455
▁xenon	-13.455
▁1497	-13.455
▁1782	-13.4551
▁1708	-13.4553
▁1,6%	-13.4554
▁86%	-13.4556
▁lèn	-13.4561
=256	-13.4562
▁1490	-13.4563
▁bernhard	-13.4564
▁1705	-13.4564
phenol	-13.4566
chandra	-13.4569
▁1401	-13.4571
▁1741	-13.4571
izum	-13.4572
▁đư	-13.4575
▁1583	-13.4576
=319	-13.4577
▁1655	-13.4578
▁1505	-13.4578
,27%	-13.4581
▁albumin	-13.4584
kingdom	-13.4594
▁1642	-13.4598
▁(1924	-13.4623
▁juli	-13.4629
▁(128	-13.4629
grave	-13.4631
liche	-13.4639
wish	-13.464
rudolph	-13.465
genic	-13.4653
liber	-13.4657
canali	-13.4661
▁centauri	-13.4671
▁ferri	-13.4672
▁lucia	-13.4673
,84%	-13.4685
alumina	-13.4696
.095	-13.4698
▁bros	-13.47
▁champ	-13.472
corn	-13.4722
hích	-13.4725
.312	-13.473
▁beringia	-13.4743
▁dó	-13.4743
2.700	-13.4747
▁1/8	-13.4758
appen	-13.4758
imp	-13.4763
lunar	-13.4769
jū	-13.4773
quick	-13.478
volk	-13.4793
amou	-13.4797
ferro	-13.4801
gula	-13.4805
.128	-13.4811
jerry	-13.4816
wall	-13.4841
indian	-13.4852
turalis	-13.4877
rạn	-13.488
9,4	-13.4899
kampot	-13.4924
.249	-13.4925
.820	-13.4937
0–50	-13.494
,43%	-13.4956
▁farm	-13.4964
motu	-13.497
▁roth	-13.4973
hamid	-13.499
gpu	-13.5004
.632	-13.5069
9,4%	-13.508
ол	-13.5084
flat	-13.5103
tereo	-13.5105
▁lú	-13.5122
rä	-13.5129
alpa	-13.5137
mycin	-13.5144
▁[[195	-13.5147
896)	-13.5149
idal	-13.5175
▁(1980	-13.5191
▁7.0	-13.5197
.141	-13.5202
elieu	-13.5204
.712	-13.5215
travel	-13.5235
.214	-13.5255
tanol	-13.5276
▁(4,4	-13.5295
panna	-13.5319
hoff	-13.5333
▁element	-13.5345
local	-13.5375
utter	-13.5375
xà	-13.5379
tofu	-13.5411
8.250	-13.5439
▁benit	-13.5442
arcto	-13.545
0–4	-13.5472
therm	-13.5477
öll	-13.5478
roman	-13.5486
▁ortho	-13.5514
.510	-13.5514
iridi	-13.5519
vtv	-13.5521
onstant	-13.5547
olf	-13.5548
▁$20	-13.5554
▁tuôn	-13.5571
stitution	-13.5599
allis	-13.5606
alumin	-13.5609
61%	-13.5619
ophilus	-13.5623
bổ	-13.5627
▁ngạ	-13.5628
canis	-13.5634
/1950)	-13.5639
▁centaur	-13.5658
adim	-13.5664
▁facto	-13.5694
giữ	-13.5694
cascadi	-13.5695
▁château	-13.5696
gạo	-13.5696
watson	-13.5696
frankfurt	-13.5697
great	-13.5697
england	-13.5697
acetyl	-13.5697
golgi	-13.5697
blue	-13.5697
christ	-13.5697
columbia	-13.5697
quỳnh	-13.5697
league	-13.5697
cyclin	-13.5697
xóm	-13.5697
giọng	-13.5697
mượn	-13.5697
vectơ	-13.5697
thảm	-13.5697
khuyến	-13.5697
đẹp	-13.5697
tầm	-13.5697
chứa	-13.5697
hawking	-13.5697
kích	-13.5697
nạn	-13.5697
mạnh	-13.5698
khúc	-13.5699
ounce	-13.5699
graz	-13.5699
trăm	-13.57
buồn	-13.5701
xương	-13.5703
biệt	-13.5703
lối	-13.5704
dvd	-13.5704
phái	-13.5707
vết	-13.5708
union	-13.5709
lù	-13.571
encke	-13.5714
nhanh	-13.5715
▁flag	-13.5718
/2019	-13.5739
ification	-13.574
hần	-13.5749
▁sheet	-13.5754
,12%	-13.5754
▁mọn	-13.5757
princip	-13.5758
ström	-13.5758
process	-13.5759
▁survey	-13.5759
chieucao	-13.5759
▁(1961–	-13.5759
▁mount	-13.5759
299.792.458	-13.5759
académie	-13.5759
complete	-13.5759
odýsseia	-13.5759
▁airways	-13.5759
▁alignment	-13.5759
▁bourbon	-13.5759
▁eisenach	-13.5759
▁figaro	-13.5759
▁khuyển	-13.5759
▁nakhon	-13.5759
▁stafford	-13.5759
0-90%	-13.5759
calédonie	-13.5759
caucasoid	-13.5759
centimet	-13.5759
continental	-13.5759
crocodyl	-13.5759
deoxyribose	-13.5759
deutero	-13.5759
dokuchaev	-13.5759
dération	-13.5759
encyclopedia	-13.5759
kreuz	-13.5759
mercury	-13.5759
paraffin	-13.5759
pañca	-13.5759
ryukyu	-13.5759
sammā	-13.5759
sphingolipids	-13.5759
spratly	-13.5759
stuttgart	-13.5759
techneti	-13.5759
verzeichnis	-13.5759
waterloo	-13.5759
érard	-13.5759
ком	-13.5759
▁99,99%	-13.5759
▁addition	-13.5759
▁alcatraz	-13.5759
▁alliance	-13.5759
▁alsace	-13.5759
▁aphrodite	-13.5759
▁augsburg	-13.5759
▁aveiro	-13.5759
▁avignon	-13.5759
▁barbary	-13.5759
▁bessarabia	-13.5759
▁bezos	-13.5759
▁bodensee	-13.5759
▁bradford	-13.5759
▁bradley	-13.5759
▁carthage	-13.5759
▁chãi	-13.5759
▁chùy	-13.5759
▁clásico	-13.5759
▁cogny	-13.5759
▁constantinople	-13.5759
▁cranmer	-13.5759
▁cunningham	-13.5759
▁current	-13.5759
▁dampuan	-13.5759
▁democrit	-13.5759
▁devices	-13.5759
▁diểu	-13.5759
▁druze	-13.5759
▁dận	-13.5759
▁eastern	-13.5759
▁economic	-13.5759
▁flamsteed	-13.5759
▁flrw	-13.5759
▁gluconat	-13.5759
▁glycosyl	-13.5759
▁gryffindor	-13.5759
▁généraux	-13.5759
▁hadith	-13.5759
▁haeckel	-13.5759
▁hastings	-13.5759
▁heavy	-13.5759
▁heidegger	-13.5759
▁hopkins	-13.5759
▁hydrochloric	-13.5759
▁innsbruck	-13.5759
▁isoniazid	-13.5759
▁jamaica	-13.5759
▁jeffrey	-13.5759
▁kazimierz	-13.5759
▁kharkov	-13.5759
▁kilby	-13.5759
▁koniev	-13.5759
▁korolyov	-13.5759
▁kuroshio	-13.5759
▁leverkusen	-13.5759
▁liễn	-13.5759
▁lloyd	-13.5759
▁lomonosov	-13.5759
▁lutetia	-13.5759
▁lức	-13.5759
▁madeleine	-13.5759
▁marathon	-13.5759
▁mckinley	-13.5759
▁micronesia	-13.5759
▁miquelon	-13.5759
▁morientes	-13.5759
▁mössbauer	-13.5759
▁müggel	-13.5759
▁nazca	-13.5759
▁neanderthal	-13.5759
▁negev	-13.5759
▁neptuni	-13.5759
▁nập	-13.5759
▁nồm	-13.5759
▁orlando	-13.5759
▁orléans	-13.5759
▁passion	-13.5759
▁pattaya	-13.5759
▁peirce	-13.5759
▁peltier	-13.5759
▁pemfc	-13.5759
▁phlogiston	-13.5759
▁porsche	-13.5759
▁posix	-13.5759
▁progress	-13.5759
▁resort	-13.5759
▁rhône	-13.5759
▁ribose	-13.5759
▁rữa	-13.5759
▁salween	-13.5759
▁sayadaw	-13.5759
▁schlossberg	-13.5759
▁seleukos	-13.5759
▁seymour	-13.5759
▁spinoza	-13.5759
▁stokes	-13.5759
▁stylesheet	-13.5759
▁synchrotron	-13.5759
▁sển	-13.5759
▁tagalog	-13.5759
▁tassigny	-13.5759
▁tattqt	-13.5759
▁tensor	-13.5759
▁thõng	-13.5759
▁tihanyi	-13.5759
▁tokonoma	-13.5759
▁tolstoy	-13.5759
▁umayyad	-13.5759
▁update	-13.5759
▁uppsala	-13.5759
▁volkswagen	-13.5759
▁voronezh	-13.5759
▁vulgate	-13.5759
▁wittgenstein	-13.5759
▁woese	-13.5759
▁wöhler	-13.5759
▁yasunari	-13.5759
▁époque	-13.5759
arithmetic	-13.5759
connétable	-13.5759
medicine	-13.5759
municipal	-13.5759
organisation	-13.5759
papyrus	-13.5759
samadhi	-13.5759
sthavira	-13.5759
▁buddhist	-13.5759
▁capitol	-13.5759
▁composit	-13.5759
▁emitron	-13.5759
▁frame	-13.5759
▁rhea	-13.5759
▁ridge	-13.5759
▁signal	-13.5759
▁xupap	-13.5759
bokashi	-13.5759
chlamyd	-13.5759
▁ajax	-13.5759
▁copyleft	-13.5759
▁nuclid	-13.5759
▁theresa	-13.5759
▁ôliu	-13.5759
=1098	-13.5759
explor	-13.5759
▁aaron	-13.5759
▁sanders	-13.5759
=1046	-13.5759
▁guardiola	-13.5759
=479	-13.5759
=605	-13.5759
=620	-13.5759
=626	-13.5759
=629	-13.5759
=716	-13.5759
=957	-13.5759
▁isoprenoid	-13.5759
=425	-13.5759
=449	-13.5759
=836	-13.5759
=880	-13.5759
=900	-13.5759
avalokiteśvara	-13.5759
▁sikorsk	-13.5759
=265	-13.5759
=596	-13.5759
▁creta	-13.5759
▁diệc	-13.5759
=222	-13.5759
=504	-13.5759
▁cntt	-13.5759
▁smartphone	-13.5759
="1103	-13.5759
="1106	-13.5759
▁glycoprotein	-13.5759
▁micrômét	-13.5759
▁đakrông	-13.5759
=402	-13.5759
=451	-13.5759
degree	-13.576
▁thunder	-13.576
▁dominica	-13.576
▁epstein	-13.576
▁monoxit	-13.576
=778	-13.576
=882	-13.576
bureau	-13.576
▁florence	-13.576
=954	-13.576
▁arnold	-13.576
particle	-13.576
=627	-13.576
gurion	-13.576
iliad	-13.576
ρι	-13.576
▁goldstein	-13.576
secret	-13.576
animation	-13.576
▁palawan	-13.576
▁potash	-13.576
="1046	-13.576
memory	-13.576
▁flash	-13.576
▁hờn	-13.576
=637	-13.576
=877	-13.576
vajra	-13.576
▁humphrey	-13.576
=871	-13.576
genomics	-13.576
▁faroe	-13.576
▁library	-13.576
▁miranda	-13.576
="1098	-13.576
▁binding	-13.576
="1125	-13.576
▁ultra	-13.576
reichstag	-13.576
biological	-13.576
▁10-59	-13.576
=781	-13.576
λι	-13.576
=261	-13.576
=697	-13.576
message	-13.576
=1106	-13.576
=1103	-13.576
asiatic	-13.576
śiva	-13.576
▁usgs	-13.576
chromatin	-13.576
▁caroling	-13.576
▁magnus	-13.576
="629	-13.576
▁evans	-13.576
▁leighton	-13.576
▁chằm	-13.576
▁reaction	-13.576
▁hassan	-13.576
="626	-13.576
="620	-13.576
▁tuabin	-13.576
="425	-13.576
="479	-13.576
▁chamberla	-13.576
="318	-13.576
▁ndt	-13.576
="836	-13.576
="880	-13.576
="900	-13.576
▁kingston	-13.576
▁macdonald	-13.576
▁asoka	-13.576
direction	-13.576
="449	-13.576
="716	-13.576
="605	-13.576
▁jonas	-13.576
="596	-13.576
="957	-13.576
▁mosul	-13.576
▁ngớ	-13.576
▁phonon	-13.576
▁đuốc	-13.576
▁leeds	-13.576
qgp	-13.576
▁delano	-13.576
="347	-13.576
▁scots	-13.576
▁luanda	-13.5761
▁turkmen	-13.5761
▁brent	-13.5761
▁eurostat	-13.5761
="336	-13.5761
="362	-13.5761
="335	-13.5761
▁marburg	-13.5761
spiel	-13.5761
="504	-13.5761
▁deuterium	-13.5761
="374	-13.5761
integrat	-13.5761
▁denver	-13.5761
▁assam	-13.5761
▁vesta	-13.5761
▁joaqu	-13.5761
▁haydn	-13.5761
▁linden	-13.5761
="451	-13.5761
▁1954-1975	-13.5761
▁landau	-13.5761
▁memel	-13.5761
dwig	-13.5761
▁fuku	-13.5761
pokal	-13.5761
.316	-13.5761
="402	-13.5761
nafta	-13.5761
="222	-13.5761
▁nantes	-13.5761
▁enron	-13.5761
="778	-13.5761
▁princess	-13.5761
xmpp	-13.5761
▁valve	-13.5761
▁henrique	-13.5761
="627	-13.5762
indochina	-13.5762
="892	-13.5762
▁bloch	-13.5762
▁popper	-13.5762
="882	-13.5762
▁gượng	-13.5762
erhard	-13.5762
▁lép	-13.5762
="954	-13.5762
udding	-13.5762
▁quăng	-13.5762
▁snell	-13.5762
="827	-13.5762
▁tuỷ	-13.5762
▁jamestown	-13.5762
mulus	-13.5762
▁georgetown	-13.5762
▁1954–19	-13.5762
▁hocke	-13.5762
▁movie	-13.5763
▁brussels	-13.5763
▁ligase	-13.5763
="637	-13.5763
="877	-13.5763
rāja	-13.5763
=874	-13.5763
▁owen	-13.5763
▁alpen	-13.5763
relative	-13.5763
▁zeit	-13.5763
▁dớn	-13.5763
.123	-13.5763
/9/1945	-13.5764
sexual	-13.5764
ambre	-13.5764
psych	-13.5764
congregational	-13.5764
▁pasht	-13.5764
▁genova	-13.5764
▁igd	-13.5765
="781	-13.5765
▁lốp	-13.5765
="381	-13.5765
▁vasco	-13.5765
ttq	-13.5765
="261	-13.5765
▁golan	-13.5765
ophilic	-13.5765
=650	-13.5765
▁catốt	-13.5766
▁venice	-13.5766
▁rfc	-13.5766
hypertext	-13.5766
virales	-13.5766
▁găm	-13.5766
▁elbe	-13.5766
▁(1904	-13.5766
▁terre	-13.5766
▁dổi	-13.5766
="307	-13.5767
▁alice	-13.5767
▁jarai	-13.5767
▁băm	-13.5767
,83%	-13.5768
tsuki	-13.5768
gendarme	-13.5768
▁jaina	-13.5768
megan	-13.5768
▁andros	-13.5769
▁pharao	-13.5769
▁stater	-13.5769
▁gplv	-13.5769
▁(1945-195	-13.5769
upani	-13.577
=381	-13.577
▁lydia	-13.577
laurasia	-13.577
=307	-13.577
▁(1942	-13.577
▁(1883	-13.577
cooh	-13.577
▁board	-13.577
▁(1897	-13.5771
▁samani	-13.5771
cfb	-13.5771
=362	-13.5772
template	-13.5772
▁isar	-13.5772
version	-13.5772
▁enter	-13.5773
▁nadh	-13.5774
captain	-13.5774
▁blot	-13.5775
_37	-13.5776
,07%	-13.5776
▁erie	-13.5776
▁đượ	-13.5776
=318	-13.5777
▁siem	-13.5777
▁9.0	-13.5777
,64%	-13.5777
transferase	-13.5778
▁0,8%	-13.5778
=129	-13.5779
=347	-13.5782
▁eds	-13.5782
packet	-13.5783
3.700	-13.5784
=374	-13.5784
▁đùn	-13.5785
binary	-13.5787
alternat	-13.5794
grass	-13.5795
hunters	-13.5797
walther	-13.5797
_34	-13.5799
liese	-13.5805
yuán	-13.5806
=300	-13.5809
,47%	-13.5811
quarter	-13.5818
=336	-13.5819
bow	-13.582
=335	-13.5825
.210	-13.5825
▁slac	-13.5836
=1125	-13.5836
▁zha	-13.5844
▁spec	-13.5846
shí	-13.5847
rooke	-13.5855
furan	-13.586
909	-13.5867
▁ragla	-13.5872
▁1,8-1,	-13.5878
renner	-13.5883
4–5	-13.5892
mantra	-13.59
▁herophil	-13.5903
ewski	-13.5904
aziz	-13.5908
guó	-13.5908
.760	-13.591
ṇi	-13.5912
trust	-13.5918
▁1/1000	-13.5921
margue	-13.5924
durio	-13.5925
▁equip	-13.5929
aurus	-13.593
▁motorol	-13.5949
tenberg	-13.5954
-1947	-13.5988
deoxy	-13.599
28.000	-13.6004
▁cordi	-13.6007
eizan	-13.6037
dalai	-13.6054
.890	-13.6063
/1/195	-13.6064
papa	-13.6065
,93%	-13.6073
hử	-13.6074
analysis	-13.6081
▁0,75	-13.6094
.151	-13.6097
.630	-13.6103
bruce	-13.613
1.050	-13.6159
.330	-13.6169
.229	-13.6182
1337	-13.6183
elements	-13.6192
▁hippo	-13.6208
svara	-13.6217
▁garci	-13.6232
lili	-13.6236
479)	-13.6239
ammu	-13.6243
▁(206	-13.6246
lumen	-13.626
lfs	-13.6264
.045	-13.6289
avant	-13.6303
.627	-13.6326
scala	-13.636
ла	-13.6374
route	-13.6392
allet	-13.6411
miko	-13.6413
.512	-13.643
.412	-13.6434
ozon	-13.6439
orov	-13.6442
.315	-13.6446
otten	-13.6455
▁(1.0	-13.6459
azur	-13.6465
νοσ	-13.6481
.224	-13.6494
smic	-13.6508
▁michi	-13.6511
ettha	-13.6512
1947)	-13.6525
ва	-13.6537
ngaku	-13.6539
ий	-13.6565
huyết	-13.6606
bile	-13.6644
▁[[196	-13.6684
forces	-13.6694
húng	-13.6719
▁privat	-13.6739
tique	-13.674
hoà	-13.6759
jaku	-13.6767
но	-13.6791
▁torre	-13.6792
industrie	-13.6807
,56%	-13.6818
kraj	-13.6839
не	-13.684
,53%	-13.6846
6000	-13.6861
8-9	-13.6885
trọc	-13.6903
dhara	-13.6926
iếu	-13.694
asper	-13.6958
,16%	-13.7031
philosopher	-13.7032
.390	-13.7033
4–6	-13.7056
rộng	-13.7057
prad	-13.708
gener	-13.7099
america	-13.7099
hỏi	-13.712
brabant	-13.7123
english	-13.7123
genome	-13.7123
mongoloid	-13.7123
blanc	-13.7125
mariner	-13.7125
language	-13.7125
brandenburg	-13.7125
françois	-13.7125
europa	-13.7125
smith	-13.7125
british	-13.7126
dbms	-13.7126
henri	-13.7126
lợn	-13.7126
pakistan	-13.7126
mũi	-13.7126
tuyển	-13.7126
sáu	-13.7126
khám	-13.7126
thắng	-13.7126
trời	-13.7126
nghề	-13.7126
sùng	-13.7126
yoshi	-13.7126
friedrich	-13.7126
khủng	-13.7127
phồn	-13.7127
title	-13.7129
trợ	-13.7129
trương	-13.713
khởi	-13.713
litva	-13.713
trích	-13.7131
thấy	-13.7131
sutta	-13.7134
curie	-13.7147
.025	-13.7149
▁khoả	-13.7156
1889)	-13.7166
staat	-13.7167
onovich	-13.7173
kāya	-13.7173
▁chụ	-13.7175
/2013	-13.7177
▁etrusca	-13.7181
▁thớ	-13.7181
atherine	-13.7184
▁andromeda	-13.7184
▁read	-13.7184
hớt	-13.7184
▁hormon	-13.7185
▁frederic	-13.7186
▁đị	-13.7186
▁myanma	-13.7186
lithography	-13.7187
▁rốn	-13.7187
▁trotsky	-13.7188
▁micrô	-13.7188
▁charlotte	-13.7188
▁ок	-13.7188
dientich	-13.7188
/2008/	-13.7188
śūnya	-13.7188
▁hazara	-13.7188
▁hershey	-13.7188
madagasca	-13.7188
енерал	-13.7188
▁adolphe	-13.7188
▁hoffmann	-13.7188
▁hypebol	-13.7188
apostolic	-13.7188
extinct	-13.7188
financial	-13.7188
fundamental	-13.7188
globulin	-13.7188
graubünden	-13.7188
metropolitan	-13.7188
mitterrand	-13.7188
okurigana	-13.7188
organometallic	-13.7188
parallel	-13.7188
potassium	-13.7188
pôlymêraza	-13.7188
reductase	-13.7188
reference	-13.7188
satellite	-13.7188
spiegel	-13.7188
terminal	-13.7188
vyūha	-13.7188
▁2008–2009	-13.7188
▁abdullah	-13.7188
▁achaemenid	-13.7188
▁albuquerque	-13.7188
▁allotype	-13.7188
▁annabella	-13.7188
▁arafat	-13.7188
▁asturias	-13.7188
▁attila	-13.7188
▁bahrain	-13.7188
▁barbados	-13.7188
▁beckham	-13.7188
▁bhadravarman	-13.7188
▁bhumibol	-13.7188
▁bhutto	-13.7188
▁bollywood	-13.7188
▁bologna	-13.7188
▁broadway	-13.7188
▁byzantium	-13.7188
▁champasak	-13.7188
▁cherenkov	-13.7188
▁chylomicron	-13.7188
▁châtelet	-13.7188
▁chùi	-13.7188
▁coelho	-13.7188
▁concacaf	-13.7188
▁copenhagen	-13.7188
▁couture	-13.7188
▁cygnus	-13.7188
▁cytochrome	-13.7188
▁césar	-13.7188
▁dawson	-13.7188
▁detroit	-13.7188
▁deutschland	-13.7188
▁dniepr	-13.7188
▁dravidia	-13.7188
▁drexler	-13.7188
▁eccles	-13.7188
▁embarcadero	-13.7188
▁fitzgerald	-13.7188
▁gagarin	-13.7188
▁gangaraja	-13.7188
▁giậu	-13.7188
▁glonass	-13.7188
▁grappelli	-13.7188
▁hadley	-13.7188
▁halifax	-13.7188
▁harmand	-13.7188
▁heaven	-13.7188
▁hexafluoride	-13.7188
▁hidalgo	-13.7188
▁ikkyu	-13.7188
▁insulin	-13.7188
▁invalides	-13.7188
▁jenny	-13.7188
▁karolinska	-13.7188
▁katakana	-13.7188
▁khorasan	-13.7188
▁kirchhoff	-13.7188
▁kozelsk	-13.7188
▁lebesgue	-13.7188
▁legendre	-13.7188
▁lithuania	-13.7188
▁lotharingia	-13.7188
▁lublin	-13.7188
▁maldives	-13.7188
▁mauritius	-13.7188
▁mcnamara	-13.7188
▁meitner	-13.7188
▁melanogaster	-13.7188
▁midway	-13.7188
▁monroe	-13.7188
▁montaigne	-13.7188
▁mourinho	-13.7188
▁nachtmusik	-13.7188
▁nagelsmann	-13.7188
▁nehru	-13.7188
▁newcastle	-13.7188
▁ngườm	-13.7188
▁nhựt	-13.7188
▁nitride	-13.7188
▁nobunaga	-13.7188
▁nomenclature	-13.7188
▁nouveau	-13.7188
▁nuclease	-13.7188
▁ockham	-13.7188
▁orpheus	-13.7188
▁oxaloacetate	-13.7188
▁oyashio	-13.7188
▁palladi	-13.7188
▁pasadena	-13.7188
▁pasquier	-13.7188
▁patenôtre	-13.7188
▁perseus	-13.7188
▁physik	-13.7188
▁pitcairn	-13.7188
▁pitchblende	-13.7188
▁pomerania	-13.7188
▁pompidou	-13.7188
▁provence	-13.7188
▁quirrell	-13.7188
▁quẩn	-13.7188
▁republic	-13.7188
▁ribôxôm	-13.7188
▁robespierre	-13.7188
▁roggeveen	-13.7188
▁saarland	-13.7188
▁sambhu	-13.7188
▁sapieha	-13.7188
▁scania	-13.7188
▁schlieffen	-13.7188
▁schumacher	-13.7188
▁schwartz	-13.7188
▁seattle	-13.7188
▁sgml	-13.7188
▁shizuka	-13.7188
▁slipher	-13.7188
▁sorbonne	-13.7188
▁studienku	-13.7188
▁stéfano	-13.7188
▁switching	-13.7188
▁technologies	-13.7188
▁telekom	-13.7188
▁telescope	-13.7188
▁tertullian	-13.7188
▁terzaghi	-13.7188
▁theodosius	-13.7188
▁thỉu	-13.7188
▁timbuktu	-13.7188
▁tomonaga	-13.7188
▁tuvalu	-13.7188
▁uganda	-13.7188
▁wheaton	-13.7188
▁whitehorse	-13.7188
▁wilkes	-13.7188
▁yakovlev	-13.7188
▁zambia	-13.7188
▁zeeland	-13.7188
▁zweig	-13.7188
▁ươi	-13.7188
basileus	-13.7188
deoxyribonucleic	-13.7188
guérin	-13.7188
lipoids	-13.7188
publish	-13.7188
pueblo	-13.7188
sulfolob	-13.7188
▁[1]	-13.7188
▁bessel	-13.7188
▁brahmagupta	-13.7188
▁effect	-13.7188
▁environment	-13.7188
▁fisher	-13.7188
▁gupta	-13.7188
▁gómez	-13.7188
▁gót	-13.7188
▁haussmann	-13.7188
▁helvetii	-13.7188
▁hipparch	-13.7188
▁honshu	-13.7188
▁kaposi	-13.7188
▁laptop	-13.7188
▁lilly	-13.7188
▁mohenjo	-13.7188
▁moody	-13.7188
▁mühl	-13.7188
▁mọt	-13.7188
▁railway	-13.7188
▁scripting	-13.7188
▁skytrain	-13.7188
▁theophrast	-13.7188
▁twitter	-13.7188
canonical	-13.7188
clellan	-13.7188
cyclopaedia	-13.7188
instrument	-13.7188
mercial	-13.7188
nsfnet	-13.7188
▁asahi	-13.7188
▁blake	-13.7188
▁bremen	-13.7188
▁chakri	-13.7188
▁dionysi	-13.7188
▁durham	-13.7188
▁hotak	-13.7188
▁hót	-13.7188
▁irving	-13.7188
▁kampuch	-13.7188
▁maynard	-13.7188
▁oboe	-13.7188
▁pannonia	-13.7188
▁proust	-13.7188
▁seaborg	-13.7188
▁sutton	-13.7188
▁trôm	-13.7188
▁tsavo	-13.7188
▁viroid	-13.7188
▁wyoming	-13.7188
=1041	-13.7188
▁applications	-13.7188
▁buena	-13.7188
▁morton	-13.7188
▁origin	-13.7188
▁bahnar	-13.7188
▁balochistan	-13.7188
▁isbn	-13.7188
▁mecklenburg	-13.7188
▁paragraph	-13.7188
=1074	-13.7188
=489	-13.7188
=534	-13.7188
=614	-13.7188
=624	-13.7188
=768	-13.7188
=904	-13.7188
computation	-13.7188
hammett	-13.7188
istoire	-13.7188
▁bucer	-13.7188
▁dwt	-13.7188
▁galton	-13.7188
▁italy	-13.7188
▁paume	-13.7188
▁yalta	-13.7188
=416	-13.7188
=420	-13.7188
=444	-13.7188
=542	-13.7188
=630	-13.7188
=644	-13.7188
=766	-13.7188
=886	-13.7188
chapelle	-13.7188
wurst	-13.7188
argonaut	-13.7188
=410	-13.7188
=419	-13.7188
=478	-13.7188
=485	-13.7188
=546	-13.7188
=669	-13.7188
=898	-13.7188
=923	-13.7188
=936	-13.7188
brigade	-13.7188
twenty	-13.7188
[...]
