<unk>	0
<s>	0
</s>	0
,	-3.32838
.	-3.54675
▁và	-4.2122
▁của	-4.34136
▁các	-4.41152
▁là	-4.44704
▁có	-4.68385
▁một	-4.75511
▁được	-4.75577
▁trong	-4.75783
▁	-4.98707
"	-5.0557
▁năm	-5.0647
▁với	-5.18169
▁người	-5.20167
▁(	-5.22265
▁"	-5.27663
▁đã	-5.40957
▁thành	-5.41685
▁cho	-5.41777
▁những	-5.45331
▁từ	-5.46706
▁ở	-5.51842
▁không	-5.52236
▁này	-5.6044
▁vào	-5.60718
▁thể	-5.6213
▁số	-5.64462
▁nam	-5.6601
ng	-5.70787
▁đến	-5.71281
▁như	-5.71859
▁quốc	-5.71883
▁sự	-5.7326
▁khi	-5.74489
▁ra	-5.7571
▁học	-5.77641
▁chính	-5.80141
▁về	-5.82604
="	-5.83609
▁công	-5.8386
)	-5.85702
▁đó	-5.89563
▁để	-5.90141
▁tại	-5.90707
▁##	-5.933
▁dân	-5.9566
▁trên	-5.98847
▁việt	-5.98862
▁đầu	-5.99651
▁nhà	-6.03598
:	-6.03907
▁cũ	-6.0462
▁trung	-6.05335
▁nhiều	-6.05413
▁theo	-6.06092
▁sau	-6.08329
▁nhất	-6.08537
▁thế	-6.09127
▁nước	-6.13
▁quân	-6.14313
▁thời	-6.15133
▁khác	-6.15199
▁hiện	-6.15658
▁quan	-6.15757
▁đại	-6.17108
▁động	-6.17308
▁định	-6.17675
▁độ	-6.18746
-	-6.198
▁pháp	-6.19963
▁ngày	-6.20303
▁tháng	-6.20816
▁bị	-6.21551
▁do	-6.2237
▁gia	-6.22382
▁lượng	-6.23845
▁ông	-6.24291
▁sử	-6.25129
▁giáo	-6.25945
▁lý	-6.26266
▁đồng	-6.27093
▁phát	-6.28304
▁hội	-6.28482
c	-6.28706
▁lại	-6.29064
▁chỉ	-6.31227
▁cách	-6.32792
▁hơn	-6.33364
▁việc	-6.34151
▁liên	-6.34865
▁hình	-6.35483
▁nhân	-6.3602
▁bộ	-6.36153
▁dụng	-6.36331
▁tính	-6.36975
▁làm	-6.37362
▁lớn	-6.37679
▁vật	-6.37997
▁hành	-6.38026
▁hệ	-6.39542
▁tế	-6.39658
▁hai	-6.39856
▁chủ	-6.39923
▁bằng	-6.40014
▁bản	-6.42004
▁kỳ	-6.42727
▁hóa	-6.43533
▁thống	-6.43542
▁sinh	-6.43727
▁nguyên	-6.44894
▁văn	-6.45422
▁còn	-6.45734
▁hợp	-6.48043
▁lập	-6.48256
▁cơ	-6.48758
doc	-6.52565
▁tự	-6.52581
>	-6.52999
▁phần	-6.53852
▁thực	-6.53968
▁cao	-6.54337
▁chiến	-6.55588
▁phân	-6.56302
▁giới	-6.56486
▁trình	-6.57506
▁nó	-6.58574
▁địa	-6.58844
),	-6.59391
▁đối	-6.60727
▁mặt	-6.60972
▁tử	-6.61324
▁thường	-6.62109
▁gọi	-6.62779
;	-6.6365
▁đất	-6.64587
▁con	-6.64741
/	-6.6477
▁trường	-6.65266
▁mà	-6.65604
▁họ	-6.68105
).	-6.68709
▁cộng	-6.69042
▁vị	-6.69226
▁nhưng	-6.69287
▁cả	-6.69365
▁loại	-6.69519
▁tiếng	-6.70433
▁chất	-6.706
▁thuộc	-6.71046
▁tỉnh	-6.71542
▁sản	-6.72169
▁cùng	-6.72264
▁điều	-6.72812
▁kinh	-6.72829
▁phương	-6.73048
▁quyền	-6.73882
n	-6.74538
▁xuất	-6.74541
▁đông	-6.75244
▁phải	-6.75507
▁chúng	-6.75563
▁tạo	-6.75606
▁trị	-6.75965
▁thông	-6.76196
▁hoặc	-6.76205
▁kết	-6.76214
▁minh	-6.76497
▁thứ	-6.76694
▁rằng	-6.76967
▁tây	-6.76985
▁lực	-6.78767
▁hay	-6.79047
▁qua	-6.79294
▁bình	-6.79642
▁tổng	-6.79806
▁bắc	-6.79961
▁nghĩa	-6.80468
▁châu	-6.81154
▁cuộc	-6.81878
▁thì	-6.82377
▁khoảng	-6.82558
▁nhận	-6.8256
▁khu	-6.83089
▁tiên	-6.83855
▁chức	-6.8433
▁giải	-6.8454
▁gồm	-6.85407
▁vì	-6.86194
▁hoa	-6.86506
▁điểm	-6.86814
▁1	-6.86897
▁vùng	-6.87152
▁trước	-6.87201
▁tương	-6.87667
▁hòa	-6.88224
▁đạo	-6.8831
▁năng	-6.88437
▁điện	-6.88797
▁tiếp	-6.89326
▁nhiên	-6.89375
m	-6.89523
▁truyền	-6.89609
▁thái	-6.89997
▁xã	-6.90196
▁trở	-6.90263
▁tác	-6.9082
▁nhau	-6.92091
▁tên	-6.92674
▁toàn	-6.92699
▁phố	-6.92911
▁anh	-6.93346
▁thức	-6.93792
▁đường	-6.94081
▁gian	-6.94362
▁triển	-6.94687
s	-6.95158
▁ngữ	-6.95189
▁2	-6.95226
▁mỹ	-6.96165
▁bởi	-6.96414
▁ba	-6.96975
▁tranh	-6.99845
▁đổi	-7.0064
vi	-7.01052
▁giữa	-7.01411
▁đặc	-7.01528
▁lên	-7.01731
▁sẽ	-7.01732
▁tích	-7.02552
▁phủ	-7.02835
▁hàng	-7.02869
▁viên	-7.02888
rất	-7.0316
▁cấp	-7.03493
▁mới	-7.04857
▁-	-7.04991
▁đây	-7.05204
▁vực	-7.05815
▁phía	-7.06413
▁biến	-7.07182
▁bao	-7.07731
▁nên	-7.08158
▁chuyển	-7.08226
▁tổ	-7.08271
▁tăng	-7.08324
▁lịch	-7.0833
▁sao	-7.08986
▁đề	-7.09895
▁biệt	-7.10455
▁trọng	-7.10745
▁đi	-7.12467
▁3	-7.12685
▁ngoài	-7.13328
▁khí	-7.13371
▁thuật	-7.13412
?	-7.13637
▁ứng	-7.13659
▁thị	-7.13743
▁thiên	-7.13892
▁đức	-7.14371
▁chế	-7.14976
y	-7.15077
▁tập	-7.15633
t	-7.15769
▁bắt	-7.15881
▁sống	-7.16186
▁cứu	-7.16355
▁thuyết	-7.17298
▁kỷ	-7.17557
▁vụ	-7.18098
▁tới	-7.1825
▁ban	-7.18333
▁cổ	-7.1834
▁nay	-7.18364
▁tâm	-7.18477
wiki	-7.19368
org	-7.19614
▁dịch	-7.2058
▁dùng	-7.20883
▁hiệu	-7.20934
wikipedia	-7.20988
▁id	-7.21212
▁tinh	-7.2161
▁tư	-7.21775
urid	-7.21802
▁url	-7.21989
://	-7.21989
https	-7.22079
▁<	-7.22201
▁bảo	-7.22295
▁categories	-7.22308
▁title	-7.22308
▁</	-7.22438
▁ý	-7.22487
▁tuy	-7.22558
▁hà	-7.22917
▁cầu	-7.23894
▁nghiệp	-7.24076
▁máy	-7.24971
▁miền	-7.25321
▁lần	-7.2571
▁thay	-7.2665
▁di	-7.27237
▁tiến	-7.27413
i	-7.27596
▁vẫn	-7.27708
▁liệu	-7.28649
▁dẫn	-7.28989
▁sông	-7.2913
▁sáng	-7.30218
▁vi	-7.30364
▁thấy	-7.30632
▁thiết	-7.30912
▁gần	-7.3094
▁sách	-7.31285
▁tin	-7.31328
",	-7.31339
▁giá	-7.31339
▁hoàng	-7.32355
▁ảnh	-7.33452
▁dương	-7.33956
▁nghiên	-7.34248
▁yếu	-7.34262
▁nguyễn	-7.3443
▁đều	-7.34561
▁tiêu	-7.34989
▁phong	-7.36299
▁4	-7.36405
▁đánh	-7.36742
▁quá	-7.37009
▁đội	-7.37051
▁hạt	-7.37132
▁("	-7.38024
▁mô	-7.38674
▁ngôn	-7.38979
a	-7.39059
▁tộc	-7.39229
▁dưới	-7.39234
▁nội	-7.39345
▁nói	-7.39356
▁bên	-7.40137
▁ta	-7.40266
▁đảo	-7.4032
".	-7.40506
▁dạng	-7.41763
▁đơn	-7.42166
▁vũ	-7.4222
▁sư	-7.42418
▁viết	-7.42912
▁hoạt	-7.43558
▁cuối	-7.43579
▁nguồn	-7.43702
▁diện	-7.43777
▁báo	-7.43937
▁vương	-7.44267
▁xác	-7.4468
▁5	-7.44721
▁nơi	-7.45119
▁âm	-7.45521
▁quy	-7.45759
▁an	-7.45815
▁sở	-7.46004
▁thu	-7.46024
▁quả	-7.46137
▁đình	-7.46433
▁so	-7.46574
▁giao	-7.46655
▁dài	-7.4687
▁khoa	-7.46899
▁thần	-7.47204
▁thủ	-7.48238
▁huyện	-7.48246
▁lưu	-7.48437
▁rộng	-7.48694
▁lãnh	-7.48729
▁nhật	-7.4885
▁nhóm	-7.49119
▁đảng	-7.50739
▁tượng	-7.50967
▁màu	-7.51199
▁bất	-7.51343
▁nhỏ	-7.51452
=	-7.51754
▁nhiệt	-7.52222
▁chiếm	-7.52975
▁c	-7.53357
▁tài	-7.54273
▁nào	-7.54389
o	-7.54449
▁phẩm	-7.54608
")	-7.54811
▁kim	-7.54861
▁mình	-7.5543
▁cư	-7.55571
▁kế	-7.55595
▁chí	-7.55722
▁lan	-7.55725
▁phản	-7.55771
▁viện	-7.5629
▁nằm	-7.56519
▁sĩ	-7.56673
e	-7.56793
▁sát	-7.56803
▁âu	-7.56844
▁biểu	-7.57127
▁phổ	-7.57288
▁biết	-7.57349
▁loài	-7.57381
▁phục	-7.57996
▁tham	-7.5805
▁triệu	-7.58392
▁biển	-7.58656
▁danh	-7.59107
▁thư	-7.59143
▁10	-7.5919
▁đô	-7.59638
▁hướng	-7.59874
▁trí	-7.59884
▁tướng	-7.59901
▁hồ	-7.60067
▁quyết	-7.60069
▁mã	-7.60438
▁cần	-7.60441
▁mạnh	-7.60601
▁đa	-7.60609
▁kiến	-7.60808
▁độc	-7.61102
▁nền	-7.6121
▁nghệ	-7.61581
▁chữ	-7.61631
▁đời	-7.61786
▁hoàn	-7.61925
▁tiền	-7.62232
▁hải	-7.62671
▁dù	-7.62847
▁mỗi	-7.63074
▁hạn	-7.63219
▁bố	-7.63645
▁bào	-7.6392
▁đang	-7.64065
▁đạt	-7.64078
▁trận	-7.64616
▁mang	-7.64631
▁tục	-7.64704
▁bang	-7.6498
▁dựng	-7.65236
▁vậy	-7.65384
▁đặt	-7.65419
▁hưởng	-7.65805
▁trưởng	-7.66192
▁mục	-7.66372
▁trang	-7.66413
▁mạng	-7.66746
▁trái	-7.67621
▁thanh	-7.67748
▁tình	-7.68165
▁vua	-7.68207
▁phép	-7.68229
▁trời	-7.68657
▁6	-7.68679
▁phật	-7.68719
▁nhập	-7.6877
▁luật	-7.68957
▁tố	-7.69008
▁ký	-7.70092
▁nổi	-7.70687
▁7	-7.7087
▁dụ	-7.70928
▁sơn	-7.70983
▁đoàn	-7.71342
▁chung	-7.71599
▁tỷ	-7.71978
▁phụ	-7.71988
▁tìm	-7.72349
▁thổ	-7.7235
▁lệ	-7.72528
▁bỏ	-7.72567
▁du	-7.72633
▁tất	-7.73339
▁chia	-7.74047
▁giả	-7.74062
▁cực	-7.74103
▁đoạn	-7.7428
▁la	-7.74383
▁xây	-7.7443
▁khối	-7.74789
▁đế	-7.75027
▁ấn	-7.75135
▁bệnh	-7.75283
g	-7.75565
▁thương	-7.75623
▁tôn	-7.7566
▁duy	-7.75778
▁lễ	-7.75836
▁nghị	-7.75844
▁kể	-7.75945
▁9	-7.75962
▁hậu	-7.76068
▁kiện	-7.76167
▁thủy	-7.76245
▁diễn	-7.76719
▁đưa	-7.77072
▁12	-7.77137
▁thích	-7.77714
▁toán	-7.77905
...	-7.7814
▁hạ	-7.78313
▁hữu	-7.78465
▁bán	-7.79359
▁triều	-7.79545
▁cung	-7.79561
▁cá	-7.79632
▁khai	-7.80556
▁thêm	-7.80758
h	-7.80766
▁ước	-7.81477
▁mở	-7.822
▁nếu	-7.8223
▁đồ	-7.82396
▁sang	-7.82814
▁chống	-7.82818
▁hết	-7.82861
▁trúc	-7.82961
▁giữ	-7.83215
▁8	-7.83327
▁xô	-7.83521
▁biên	-7.83703
▁vấn	-7.8374
▁chứng	-7.84018
gây	-7.84313
▁nhiệm	-7.84414
▁tồn	-7.84415
▁cấu	-7.84802
▁ít	-7.85078
▁dự	-7.8515
b	-7.85345
▁cái	-7.85655
p	-7.85963
▁hầu	-7.86132
▁phòng	-7.86348
▁long	-7.86381
▁mùa	-7.86483
▁riêng	-7.86562
▁chi	-7.86615
▁chuẩn	-7.86646
▁vô	-7.86672
▁ngoại	-7.87406
▁gốc	-7.87599
▁núi	-7.87695
▁bài	-7.88064
l	-7.88252
2	-7.88392
▁mặc	-7.88502
▁giảm	-7.89168
▁từng	-7.8964
▁lúc	-7.8996
▁ánh	-7.89974
▁tiểu	-7.90008
▁đóng	-7.90706
d	-7.91538
▁hán	-7.91635
▁nghiệm	-7.91657
▁khả	-7.919
▁vệ	-7.92207
u	-7.92333
▁lợi	-7.92536
▁tả	-7.92603
▁tốc	-7.92948
▁chương	-7.93002
▁mức	-7.93309
▁đá	-7.93543
▁ăn	-7.93609
▁luận	-7.93825
▁phá	-7.93872
▁hiệp	-7.93882
▁trợ	-7.94193
▁án	-7.94368
▁nga	-7.94466
▁thân	-7.94718
▁niên	-7.94808
▁giống	-7.95337
▁tín	-7.95906
▁ca	-7.95988
▁áp	-7.96029
▁ví	-7.96071
▁vận	-7.96419
▁k	-7.9648
▁xem	-7.97015
k	-7.97021
▁tông	-7.97043
▁a	-7.97153
▁y	-7.97537
▁sóng	-7.97864
▁m	-7.98007
▁phạm	-7.98207
▁mọi	-7.98252
▁nữ	-7.98328
▁sắc	-7.98353
▁trực	-7.98389
▁tấn	-7.98441
▁cử	-7.98538
▁trần	-7.99144
▁tưởng	-7.99171
▁chưa	-7.99289
▁nông	-7.99344
▁hộ	-7.99474
▁kỹ	-7.99577
▁tuyên	-7.99732
▁dòng	-7.99733
▁ma	-8.01039
▁quảng	-8.01289
▁điển	-8.01706
▁lục	-8.01777
▁phi	-8.01865
▁binh	-8.01869
▁nhạc	-8.02068
▁cây	-8.02081
▁thập	-8.02374
▁ngành	-8.02627
▁sa	-8.02766
▁mất	-8.03179
▁quang	-8.03181
▁trụ	-8.034
▁phóng	-8.03406
▁dựa	-8.03456
▁–	-8.0367
▁thánh	-8.03858
▁giai	-8.04167
▁thuận	-8.05189
▁chúa	-8.05663
r	-8.05892
▁trạng	-8.06819
▁giờ	-8.07366
▁tuổi	-8.07563
▁11	-8.07692
▁quản	-8.08111
▁tuyến	-8.08166
▁thấp	-8.08808
▁ngôi	-8.09013
v	-8.09065
▁kiểm	-8.09285
▁trò	-8.09864
▁coi	-8.09987
▁lớp	-8.10333
▁giúp	-8.10432
▁t	-8.10622
▁chân	-8.11336
▁xạ	-8.1143
▁khỏi	-8.11592
▁lấy	-8.11936
▁mật	-8.12396
▁niệm	-8.13274
▁ninh	-8.13459
▁hồi	-8.13633
▁nha	-8.13647
▁thượng	-8.13695
▁km	-8.14188
▁tàu	-8.14311
ến	-8.14539
'	-8.14761
▁cố	-8.14841
▁17	-8.15422
▁nhằm	-8.15799
▁ghi	-8.15874
▁h	-8.16372
▁cảnh	-8.16564
▁cải	-8.16726
▁bay	-8.16796
▁lĩnh	-8.17139
▁cụ	-8.17203
▁b	-8.17435
▁kích	-8.17546
hẳng	-8.17557
▁lê	-8.17591
▁g	-8.18623
▁quần	-8.18982
▁kính	-8.18986
▁bầu	-8.19091
▁chứa	-8.19169
▁đứng	-8.19285
▁đo	-8.19586
▁lâm	-8.20419
▁phái	-8.20627
▁dung	-8.20651
▁bà	-8.21562
▁sức	-8.22056
▁á	-8.22411
▁lạc	-8.22439
▁thi	-8.22896
▁phú	-8.22952
▁vai	-8.23057
▁chấp	-8.23188
▁bàn	-8.23275
▁s	-8.23371
▁cạnh	-8.23379
▁câu	-8.23459
▁môi	-8.23534
▁đà	-8.23996
▁ủy	-8.24001
▁xuống	-8.24065
▁hấp	-8.24325
▁dục	-8.24894
▁quyển	-8.254
–	-8.25406
▁chết	-8.25438
▁vài	-8.2572
▁lệnh	-8.25937
▁quanh	-8.26243
▁hỗ	-8.26307
▁yêu	-8.26431
▁huy	-8.26664
▁ty	-8.26802
▁mại	-8.26943
▁16	-8.27143
▁ngay	-8.27175
▁chu	-8.27261
▁nhanh	-8.27545
▁quận	-8.27622
▁chịu	-8.27722
▁15	-8.28247
▁chiều	-8.28253
▁song	-8.28342
▁xe	-8.28611
▁18	-8.28898
▁đáng	-8.29377
ch	-8.29409
▁lời	-8.29581
▁áo	-8.29865
▁lao	-8.29922
▁rõ	-8.29965
▁v	-8.30251
▁tức	-8.30724
▁xếp	-8.30983
▁môn	-8.31052
▁đủ	-8.3158
▁giang	-8.31781
▁hàm	-8.32034
▁20	-8.32103
ma	-8.32129
▁dần	-8.3226
▁thơ	-8.32447
▁xa	-8.33296
▁yên	-8.33381
▁ngô	-8.33486
▁tiết	-8.33577
▁bức	-8.34541
▁thờ	-8.34614
3	-8.35104
▁trì	-8.35298
▁thắng	-8.35384
▁càng	-8.355
▁thất	-8.35525
▁tân	-8.35561
▁đấu	-8.35669
▁in	-8.35732
▁chọn	-8.35736
▁tối	-8.35824
▁hồng	-8.36338
▁hoá	-8.36906
▁khách	-8.37054
▁đào	-8.3715
f	-8.37333
▁quỹ	-8.37605
▁đen	-8.37947
▁vàng	-8.38116
la	-8.38983
▁thừa	-8.3905
▁quay	-8.39283
▁dữ	-8.39928
▁tay	-8.39935
▁vòng	-8.40396
▁kháng	-8.40487
▁d	-8.40718
▁nữa	-8.40984
▁trưng	-8.41338
▁rồi	-8.41345
▁suy	-8.41516
▁khẩu	-8.41563
▁de	-8.41625
x	-8.41943
▁xả	-8.4204
▁lâu	-8.42242
▁tầng	-8.42488
▁tái	-8.4264
▁thúc	-8.43238
▁cửa	-8.4349
&	-8.43575
▁cứ	-8.437
▁đỏ	-8.44222
▁khởi	-8.44377
▁hoạch	-8.44609
▁x	-8.44707
▁nhìn	-8.44722
▁muốn	-8.44772
▁sai	-8.44903
▁cảm	-8.44958
▁tốt	-8.45242
▁suất	-8.45385
▁bại	-8.45464
▁đôi	-8.45483
"),	-8.45923
▁tam	-8.46043
▁da	-8.4606
▁linh	-8.47043
▁xuyên	-8.47352
▁cận	-8.4751
▁nối	-8.47538
▁hy	-8.47573
▁cáo	-8.48018
▁mối	-8.48071
▁đe	-8.48325
▁mẫu	-8.48565
▁phiên	-8.48577
▁giác	-8.48588
▁xử	-8.48874
▁phù	-8.48965
▁dấu	-8.49358
▁soát	-8.50096
▁trào	-8.50116
▁lai	-8.50206
▁hiểu	-8.50433
▁chuyên	-8.505
▁đương	-8.50582
▁lộ	-8.50583
▁kéo	-8.50589
1	-8.50649
▁sâu	-8.51162
▁khó	-8.51359
▁tu	-8.51379
▁xung	-8.51752
▁tra	-8.51844
▁em	-8.52406
▁thiếu	-8.52667
▁chạy	-8.53327
▁bổ	-8.53471
▁đài	-8.53503
▁vĩnh	-8.53528
us	-8.53546
▁giám	-8.53923
▁tịch	-8.54178
▁i	-8.54395
▁bước	-8.54432
▁tách	-8.54648
▁bốn	-8.55135
▁chiếu	-8.55544
▁cha	-8.55643
▁đổ	-8.55663
▁bề	-8.55986
▁làng	-8.56108
").	-8.56295
▁ngân	-8.56934
▁cai	-8.5722
▁dễ	-8.5808
▁quý	-8.58166
▁n	-8.58253
▁nhờ	-8.58433
▁lương	-8.59145
▁góp	-8.59323
▁khắc	-8.59685
▁lạp	-8.597
▁14	-8.598
▁doanh	-8.5989
▁chăm	-8.60043
▁13	-8.60299
▁vốn	-8.60333
▁giáp	-8.60363
▁trăng	-8.60405
▁cập	-8.60495
▁ủng	-8.60676
▁bậc	-8.60767
▁luôn	-8.6088
▁trẻ	-8.6095
▁trao	-8.61189
sa	-8.6148
▁xét	-8.61871
▁bồ	-8.61923
▁trừ	-8.62051
▁hạng	-8.62098
▁chú	-8.62499
▁hiến	-8.62611
▁thụy	-8.62858
▁kiểu	-8.62891
▁nhiễm	-8.62972
al	-8.6304
▁rừng	-8.63159
▁sắt	-8.63251
▁dna	-8.63492
er	-8.64017
▁mạch	-8.64126
ra	-8.64275
▁sơ	-8.64361
▁cường	-8.6466
▁dầu	-8.64766
▁giành	-8.65041
▁nghi	-8.65468
▁gì	-8.66069
▁tạp	-8.66105
▁đàn	-8.66468
▁e	-8.66631
▁gặp	-8.66951
▁ngược	-8.66952
le	-8.67358
lt	-8.67384
▁phúc	-8.68412
▁kê	-8.68474
▁đốc	-8.68517
▁khá	-8.69174
▁khái	-8.69367
▁khuẩn	-8.69398
▁thiền	-8.69425
▁bạc	-8.69479
▁phối	-8.69595
▁gen	-8.69695
ta	-8.69743
▁đích	-8.69894
▁ngắn	-8.69994
▁lược	-8.70194
▁băng	-8.70198
▁thụ	-8.70259
▁trấn	-8.70394
▁thí	-8.71062
▁bờ	-8.72011
▁giấy	-8.72024
▁chủng	-8.72025
▁pa	-8.72083
▁hưng	-8.72089
▁lá	-8.72095
▁p	-8.7241
▁mẹ	-8.7244
▁xâm	-8.72623
▁buộc	-8.72927
▁tắc	-8.73235
▁trả	-8.73477
▁hương	-8.7368
▁co	-8.74021
▁paris	-8.74065
▁tòa	-8.74415
▁quán	-8.74712
▁formula	-8.74818
▁nặng	-8.74895
▁30	-8.74936
▁miêu	-8.75002
▁sài	-8.75025
▁chảy	-8.7511
4	-8.7522
▁ương	-8.75274
▁vượt	-8.75428
▁sứ	-8.75444
▁tỉ	-8.75619
▁gòn	-8.76249
▁electron	-8.76714
na	-8.76734
▁hỏi	-8.76904
▁tuần	-8.77026
▁xuân	-8.77036
▁bóng	-8.77174
▁ly	-8.7731
▁lửa	-8.7734
▁ai	-8.77392
19	-8.77723
▁trắng	-8.77762
▁phận	-8.77977
▁r	-8.78306
▁căn	-8.78375
▁siêu	-8.78434
th	-8.78507
▁suốt	-8.78628
▁sân	-8.78848
▁hổ	-8.79342
▁đột	-8.79345
▁tiện	-8.7961
nh	-8.80001
▁bí	-8.80172
li	-8.80869
▁giản	-8.81233
▁phim	-8.81383
▁khảo	-8.81398
▁hại	-8.8157
▁ô	-8.81811
▁mưa	-8.81839
▁chỉnh	-8.81914
▁ung	-8.81936
▁thiện	-8.82284
▁lòng	-8.8235
▁diệt	-8.82392
▁lỗ	-8.82437
▁lào	-8.82631
▁canada	-8.82957
w	-8.83267
▁tan	-8.83409
▁ổn	-8.83441
en	-8.83681
z	-8.83736
▁đọc	-8.83901
▁tán	-8.83957
▁khắp	-8.83984
▁tội	-8.84111
▁phức	-8.84442
▁trương	-8.84558
▁rút	-8.84559
5	-8.84798
▁mềm	-8.85019
▁bánh	-8.85058
▁bảng	-8.85618
gt	-8.85709
▁xứ	-8.85735
▁hỏa	-8.86211
▁cuốn	-8.86324
▁thác	-8.86849
▁giết	-8.87009
▁dành	-8.87017
▁trách	-8.87132
▁đúng	-8.87617
▁xanh	-8.87668
ro	-8.87776
▁đoán	-8.88082
▁dâm	-8.88202
▁đầy	-8.88316
▁vừa	-8.88436
▁nạn	-8.88898
0	-8.89139
▁tống	-8.89186
▁võ	-8.89281
▁ấy	-8.89399
in	-8.89423
▁(19	-8.89638
▁hát	-8.89677
▁đẩy	-8.89884
▁đảm	-8.89891
▁thiệu	-8.90007
▁họa	-8.90452
▁tôi	-8.9055
▁liền	-8.9074
▁hiểm	-8.90862
20	-8.9088
▁mua	-8.91027
on	-8.91213
di	-8.91243
▁gió	-8.9136
▁thước	-8.91478
▁hàn	-8.91529
▁khánh	-8.91625
▁san	-8.91842
▁tri	-8.91974
▁nửa	-8.92346
lo	-8.92536
▁cát	-8.92719
▁trai	-8.92815
ne	-8.92906
▁tia	-8.93216
▁thoại	-8.93222
▁chùa	-8.93602
▁trải	-8.93682
▁f	-8.93808
]]	-8.93856
▁thảo	-8.94123
▁ha	-8.9416
▁chóng	-8.9435
▁cắt	-8.94487
▁web	-8.94581
▁nóng	-8.94942
▁trú	-8.94994
▁phí	-8.95092
tr	-8.95143
▁trữ	-8.95254
▁triết	-8.95276
▁nguy	-8.9529
▁nổ	-8.95573
▁l	-8.95666
▁vĩ	-8.95756
se	-8.96006
an	-8.96107
▁[[	-8.96156
re	-8.9652
▁lẫn	-8.96805
▁cô	-8.97064
▁bác	-8.97171
▁trồng	-8.97328
▁usd	-8.97343
▁gắn	-8.97416
▁chiếc	-8.97608
▁virus	-8.97786
▁dãy	-8.98163
8	-8.98445
▁loạt	-8.98513
▁pha	-8.98592
▁ngăn	-8.98646
▁đăng	-8.98647
▁phó	-8.99408
▁gái	-8.99482
▁ii	-8.99538
▁thạch	-8.99582
▁thao	-8.99595
▁tụ	-8.9974
▁góc	-8.99848
▁protein	-9.00278
▁xúc	-9.00396
▁thuốc	-9.00397
▁phán	-9.00463
▁khám	-9.00795
▁ngũ	-9.00962
de	-9.01133
▁acid	-9.01204
▁tuyệt	-9.01351
▁to	-9.01434
▁oxy	-9.01909
▁diệm	-9.02572
▁lo	-9.02782
10	-9.02808
da	-9.03296
▁cam	-9.03623
▁liệt	-9.03821
te	-9.04093
▁sớm	-9.04945
is	-9.05184
▁bắn	-9.0537
▁địch	-9.05512
▁mây	-9.05529
▁sửa	-9.06105
▁nuôi	-9.06369
▁cầm	-9.06656
▁vọng	-9.068
▁thật	-9.06817
▁19	-9.0722
▁na	-9.07242
▁bãi	-9.07253
▁gỗ	-9.07381
▁gửi	-9.07522
▁al	-9.0795
▁nho	-9.08139
▁đỉnh	-9.08264
▁trục	-9.08489
▁chuỗi	-9.08691
▁khăn	-9.0873
▁ưu	-9.0904
ga	-9.09075
▁nghề	-9.0913
▁nắm	-9.0913
▁chỗ	-9.09134
▁100	-9.09203
▁tắt	-9.09278
▁hơi	-9.09573
▁dây	-9.1003
▁thoát	-9.10168
▁hùng	-9.10184
▁vân	-9.10369
▁cảng	-9.10442
▁chơi	-9.1077
▁mắt	-9.11065
▁viễn	-9.11065
▁pháo	-9.11086
to	-9.11226
▁hủy	-9.11228
▁dạy	-9.11394
▁tần	-9.11625
▁chép	-9.1182
▁cấm	-9.11971
▁hút	-9.11974
▁nẵng	-9.12122
▁đẳng	-9.12274
▁đai	-9.12281
▁kiếm	-9.12427
▁cục	-9.12452
▁vạn	-9.1247
▁nhánh	-9.1258
▁phê	-9.12593
▁vịnh	-9.12598
▁rãi	-9.12784
hậm	-9.1281
▁ngọc	-9.1292
el	-9.12969
▁dọc	-9.13038
▁xu	-9.13351
▁cánh	-9.13427
▁loạn	-9.13653
▁lạnh	-9.13659
me	-9.13725
40	-9.13803
▁xương	-9.1381
▁dao	-9.13947
▁ràng	-9.13978
▁ích	-9.14116
▁mỏ	-9.14337
▁tải	-9.14345
7	-9.14526
▁trăm	-9.14583
▁nhu	-9.1459
▁thuế	-9.15375
▁=	-9.15484
▁thẳng	-9.15918
6	-9.15949
▁rời	-9.16309
▁bày	-9.16351
▁thôn	-9.16464
▁lẽ	-9.16469
▁săn	-9.16473
▁liêu	-9.16628
▁new	-9.16737
▁nobel	-9.16786
▁tcn	-9.16786
▁o	-9.1693
tiếng	-9.17064
▁hoà	-9.17375
▁cân	-9.17755
▁thú	-9.18288
▁thọ	-9.18302
▁kẻ	-9.18441
▁tùy	-9.18483
▁tầm	-9.18713
▁đám	-9.18741
▁nỗ	-9.1881
▁sung	-9.18836
▁mộc	-9.19007
▁tạng	-9.19017
▁biện	-9.19202
j	-9.19466
ca	-9.19598
▁thăm	-9.19692
▁1945	-9.19751
(	-9.19805
▁tuyển	-9.19855
▁tô	-9.1988
▁nghiêm	-9.20184
9	-9.20346
▁thẩm	-9.20348
▁mông	-9.2057
▁trà	-9.20687
▁dinh	-9.20949
▁25	-9.20952
ti	-9.21091
▁u	-9.21425
▁bá	-9.2176
▁hôn	-9.2193
▁đền	-9.22146
▁thiểu	-9.22348
▁đêm	-9.22381
▁campuchia	-9.22545
▁thăng	-9.23023
br	-9.2316
▁ga	-9.23274
đ	-9.23324
▁can	-9.23538
es	-9.23922
▁chim	-9.23983
▁w	-9.24205
▁chuyện	-9.24399
50	-9.24522
▁truy	-9.2457
▁phẳng	-9.24951
▁khổng	-9.25178
ri	-9.25291
▁ẩm	-9.25421
▁tứ	-9.25757
▁°	-9.25758
▁úc	-9.25863
▁tù	-9.26071
▁lính	-9.26476
▁hằng	-9.26511
▁lượt	-9.26643
▁israel	-9.26674
ba	-9.26886
▁j	-9.26941
é	-9.26976
▁bạn	-9.27287
▁thịt	-9.27473
▁cờ	-9.27539
▁mạc	-9.27703
hay	-9.27779
▁mười	-9.27881
▁ngang	-9.28073
▁ion	-9.28182
▁tránh	-9.28418
một	-9.28458
▁va	-9.28761
▁xưa	-9.28773
▁trùng	-9.28835
▁vợ	-9.28882
▁tháp	-9.28953
▁máu	-9.28955
▁21	-9.2897
▁24	-9.29033
▁2010	-9.29164
▁phường	-9.29176
▁đòi	-9.29312
▁kia	-9.29549
▁chợ	-9.29895
▁đệ	-9.29937
no	-9.29991
▁sáp	-9.30042
▁truyện	-9.30096
▁of	-9.30153
▁mưu	-9.30221
▁họp	-9.30382
▁lỏng	-9.30765
or	-9.30866
▁sáu	-9.30952
▁giảng	-9.3096
▁mét	-9.31044
▁quát	-9.31121
pa	-9.31124
▁sẵn	-9.31316
▁huế	-9.31726
va	-9.31756
▁si	-9.3204
▁bật	-9.32055
▁ro	-9.32301
▁mai	-9.32491
người	-9.32878
▁chồng	-9.32992
▁tàn	-9.33337
▁cặp	-9.3336
▁bảy	-9.33382
▁tảng	-9.33418
▁mồi	-9.33575
▁2019	-9.33779
▁miễn	-9.33925
▁đẹp	-9.33925
▁the	-9.34084
30	-9.34134
▁vong	-9.34186
▁thuyền	-9.34306
do	-9.3439
▁vinh	-9.34422
▁buôn	-9.34452
▁sắp	-9.34494
60	-9.34772
co	-9.34831
▁khủng	-9.34874
▁vuông	-9.34875
▁22	-9.34883
▁xưng	-9.35065
▁tỏ	-9.35194
▁soạn	-9.35256
▁latinh	-9.35465
45	-9.35497
▁einstein	-9.35504
man	-9.35539
▁tọa	-9.3564
▁đới	-9.3564
▁xin	-9.35739
▁trích	-9.35975
▁màng	-9.3598
90	-9.36041
▁tào	-9.36241
▁súng	-9.36434
▁chạm	-9.36605
▁nô	-9.36738
▁ngàn	-9.36816
▁tệ	-9.36964
▁cửu	-9.3697
▁lang	-9.37191
▁khoản	-9.37216
ar	-9.37243
▁đ	-9.37332
-19	-9.37535
▁hiển	-9.37582
▁khô	-9.37659
▁rã	-9.37894
▁dưỡng	-9.37972
▁nghe	-9.37973
▁1975	-9.38238
▁rơi	-9.38384
▁bù	-9.38472
đại	-9.38475
▁nhớ	-9.38686
▁chinh	-9.38831
▁thịnh	-9.38905
▁mẽ	-9.38966
▁đáp	-9.39126
▁dày	-9.39163
▁hydro	-9.39186
▁dị	-9.39264
▁chuyến	-9.39359
▁bão	-9.39364
▁hè	-9.39372
▁'	-9.39533
▁rna	-9.39748
▁kẽm	-9.39782
▁ho	-9.39889
▁nghìn	-9.40159
ic	-9.40303
70	-9.40304
▁chứ	-9.40307
▁rượu	-9.40379
▁chấm	-9.40562
▁lam	-9.40575
▁bạch	-9.40677
▁nâng	-9.40764
▁thang	-9.40768
▁ven	-9.40925
▁phiếu	-9.40967
▁đốt	-9.40974
26	-9.41348
▁tàng	-9.4154
ia	-9.4177
▁su	-9.4186
▁tờ	-9.41994
các	-9.42104
▁cà	-9.42317
▁thám	-9.42395
▁tường	-9.42398
▁50	-9.42484
▁tận	-9.42601
▁internet	-9.42632
▁mo	-9.42709
▁tết	-9.4277
▁thù	-9.42837
98	-9.42859
▁giàu	-9.43038
▁mường	-9.4306
▁john	-9.4324
▁cứng	-9.43496
▁khổ	-9.43516
25	-9.43528
không	-9.43581
▁thỏa	-9.43638
▁mực	-9.43642
▁lối	-9.43846
▁ống	-9.43991
▁gấp	-9.44081
▁thưởng	-9.44473
▁nguyện	-9.44474
con	-9.44584
▁kiều	-9.44684
ya	-9.44695
▁phan	-9.44778
▁nghĩ	-9.44831
▁bo	-9.44945
12	-9.44959
▁dư	-9.45041
▁tròn	-9.45215
▁sụp	-9.45315
▁khoáng	-9.45393
▁cựu	-9.45568
76	-9.45683
27	-9.45812
▁lành	-9.45873
▁lạt	-9.45995
ja	-9.46046
▁tĩnh	-9.46165
▁muối	-9.46383
ấp	-9.46494
▁lưới	-9.46593
▁2000	-9.46774
▁cương	-9.46818
▁sóc	-9.46835
▁men	-9.4708
um	-9.47305
▁1990	-9.47501
▁23	-9.47815
▁khúc	-9.47888
ha	-9.47926
▁(18	-9.48058
▁chặn	-9.48062
▁kitô	-9.48106
▁gắng	-9.48175
▁27	-9.48181
▁chắc	-9.48551
▁uống	-9.48553
43	-9.48611
▁mê	-9.48668
▁luyện	-9.4876
zh	-9.48782
st	-9.48798
▁nghèo	-9.48981
▁sánh	-9.49215
▁lệch	-9.49564
▁kiên	-9.49637
▁vỏ	-9.4964
▁hiếm	-9.49642
86	-9.49651
ton	-9.49679
mi	-9.49897
▁&	-9.50065
▁tước	-9.50312
▁đua	-9.50319
14	-9.50497
▁thử	-9.50529
như	-9.50634
87	-9.50705
▁phước	-9.50752
▁+	-9.50771
▁cúng	-9.5092
▁tai	-9.51056
▁che	-9.51137
11	-9.51194
▁bò	-9.51213
▁vành	-9.51285
at	-9.51377
▁kém	-9.51424
▁lựa	-9.51436
);	-9.5148
the	-9.51615
▁me	-9.51635
▁thuần	-9.51649
▁chiêm	-9.51877
▁dàng	-9.51909
22	-9.52029
▁khóa	-9.52049
▁dứt	-9.52328
▁ngưỡng	-9.52555
mo	-9.52608
89	-9.52667
ter	-9.52786
▁lúa	-9.52801
▁hòn	-9.5304
°	-9.53043
▁linux	-9.53097
54	-9.53303
▁quark	-9.53488
71	-9.5353
ed	-9.53673
▁2007	-9.53733
▁chậm	-9.53782
▁uy	-9.53808
▁lỗi	-9.53839
ā	-9.53946
▁phe	-9.54169
▁iraq	-9.54392
▁rắn	-9.54392
ss	-9.54452
41	-9.54578
▁hoang	-9.54598
▁chặt	-9.54624
▁2012	-9.54659
ge	-9.54827
ê	-9.54864
á	-9.54881
28	-9.54904
▁tuân	-9.55095
▁vườn	-9.55134
năm	-9.55148
=3	-9.55262
▁xỉ	-9.55329
ka	-9.5537
▁kì	-9.55454
▁phạt	-9.55795
▁2009	-9.55831
▁mộ	-9.5591
85	-9.55953
]	-9.56013
si	-9.56187
▁newton	-9.56275
▁carbon	-9.56307
21	-9.5652
▁tám	-9.56594
▁2006	-9.56713
▁khiển	-9.56737
▁ái	-9.57155
▁dậy	-9.57212
▁hẹp	-9.57212
▁rập	-9.57212
▁kênh	-9.57249
▁nhẹ	-9.57452
ol	-9.57637
▁huệ	-9.57691
▁photon	-9.57692
95	-9.5785
▁tem	-9.57979
ni	-9.58043
▁nghỉ	-9.58171
▁tấm	-9.58171
▁buổi	-9.58171
gi	-9.58236
42	-9.58275
▁mãn	-9.58461
▁quê	-9.58579
▁cột	-9.5867
▁đậu	-9.58895
65	-9.59042
▁nhị	-9.591
▁gdp	-9.59184
▁đàm	-9.59285
24	-9.5929
▁euro	-9.59323
▁ả	-9.59371
▁cãi	-9.59381
97	-9.59453
ine	-9.59454
88	-9.59509
▁ja	-9.59513
83	-9.59521
▁26	-9.59752
▁trại	-9.5987
▁bến	-9.60251
▁re	-9.60278
32	-9.60354
ki	-9.60422
▁xích	-9.60649
it	-9.60713
▁ngộ	-9.60776
▁cụm	-9.60783
▁ẩn	-9.60854
▁le	-9.60858
et	-9.61009
▁nhắc	-9.61105
▁đồi	-9.61258
▁ka	-9.61273
▁li	-9.61302
▁dã	-9.61303
▁vững	-9.61598
▁điền	-9.6187
▁tuyết	-9.61876
78	-9.61889
▁lăng	-9.62107
▁sợi	-9.62152
▁windows	-9.62375
29	-9.62503
▁no	-9.62513
47	-9.62702
23	-9.62703
75	-9.62806
ph	-9.62877
80	-9.62939
il	-9.63116
62	-9.63148
▁đuổi	-9.63357
84	-9.6338
▁đồn	-9.63521
—	-9.6369
▁mi	-9.63697
nay	-9.63739
69	-9.63791
▁tá	-9.63979
▁gene	-9.64292
▁ranh	-9.64347
▁khỏe	-9.64376
▁mệnh	-9.64376
13	-9.64451
▁0,	-9.64471
▁28	-9.64477
44	-9.64553
48	-9.64565
59	-9.64794
▁chữa	-9.65104
ce	-9.65106
▁cháy	-9.65147
▁vạch	-9.65154
▁trịnh	-9.6516
po	-9.65349
ví	-9.65412
ve	-9.65496
▁tạm	-9.65499
việt	-9.65504
as	-9.65507
go	-9.65559
▁kêu	-9.6576
ut	-9.65764
▁thầy	-9.65956
ad	-9.66271
▁lẻ	-9.66395
49	-9.66401
▁se	-9.66409
55	-9.66459
trong	-9.66561
63	-9.66657
▁bè	-9.66726
▁hi	-9.66921
ke	-9.66942
▁đỡ	-9.66972
▁kho	-9.67051
▁lạm	-9.67064
▁cỏ	-9.67233
▁mexico	-9.67233
▁ngầm	-9.67233
▁hang	-9.67234
99	-9.67247
▁vây	-9.67255
▁po	-9.67315
os	-9.67554
▁29	-9.67725
có	-9.67773
▁huyền	-9.67825
56	-9.67976
▁luân	-9.68028
▁tiềm	-9.68031
▁1970	-9.68042
▁duyên	-9.68344
▁40	-9.68365
▁ruộng	-9.6856
▁đĩa	-9.6856
í	-9.68564
▁2013	-9.68585
)"	-9.68614
xem	-9.68764
▁lưỡng	-9.68846
▁ngại	-9.69095
▁vẽ	-9.69101
33	-9.69108
▁2004	-9.69197
▁lọc	-9.69381
▁2015	-9.69458
05	-9.6955
▁trạm	-9.69633
▁đạn	-9.69633
▁kỉ	-9.69643
ô	-9.70066
▁chối	-9.70176
▁st	-9.7019
93	-9.70244
37	-9.70361
▁chánh	-9.70454
▁60	-9.70572
▁ni	-9.70623
68	-9.70627
38	-9.70646
▁texas	-9.7072
au	-9.70936
gen	-9.71012
▁trống	-9.71022
▁bom	-9.71137
▁be	-9.7116
▁canh	-9.71168
▁bỉ	-9.71259
▁berlin	-9.71324
▁java	-9.71324
▁khmer	-9.71388
ko	-9.71428
▁1980	-9.71563
▁bách	-9.72001
35	-9.72002
▁tổn	-9.72019
▁lô	-9.72198
su	-9.72302
be	-9.72353
▁than	-9.72374
nd	-9.72622
▁nêu	-9.72647
▁khuyến	-9.72648
▁francisco	-9.72649
▁california	-9.72673
▁gấu	-9.72687
▁2020	-9.72702
15	-9.72797
▁lân	-9.7293
hi	-9.73072
00	-9.73213
2,	-9.73264
39	-9.73346
▁cơn	-9.73678
53	-9.73753
ạ	-9.7392
▁sỹ	-9.74048
so	-9.7416
▁nét	-9.74337
▁1946	-9.74342
▁2016	-9.7442
pe	-9.74571
61	-9.74672
34	-9.74753
52	-9.74758
▁bạo	-9.74903
id	-9.74965
57	-9.75042
=1	-9.7506
66	-9.75188
▁may	-9.7528
từ	-9.75283
ul	-9.75305
ơ	-9.7533
▁lồ	-9.75359
▁vỡ	-9.75475
▁cỡ	-9.75483
▁kali	-9.75491
▁afghanistan	-9.75505
bi	-9.75529
▁hoảng	-9.75538
06	-9.75885
▁he	-9.76035
▁lõi	-9.76042
▁mèo	-9.76091
land	-9.76159
▁món	-9.76318
▁mắc	-9.7633
▁trầm	-9.76332
▁thiệp	-9.76338
▁proton	-9.76351
18	-9.76393
46	-9.76459
ru	-9.76629
ly	-9.76638
▁1950	-9.76639
▁bi	-9.7664
ry	-9.76704
02	-9.76746
▁kịch	-9.76918
▁[	-9.77095
nam	-9.77133
▁lí	-9.77443
▁thiệt	-9.77492
▁0	-9.77571
▁dò	-9.77753
73	-9.77764
▁nhuận	-9.77784
▁31	-9.77801
▁hào	-9.7788
▁real	-9.78166
▁duyệt	-9.78371
58	-9.78508
▁(1	-9.78654
▁phỏng	-9.78666
ây	-9.78878
▁ngừng	-9.78991
74	-9.78993
64	-9.79097
▁gạo	-9.79259
▁trộn	-9.79259
▁man	-9.79425
▁2014	-9.79589
lu	-9.79709
▁mong	-9.79763
|	-9.79778
▁nạp	-9.79862
▁2003	-9.79956
96	-9.80028
ó	-9.80061
▁xứng	-9.80108
▁đinh	-9.80373
tức	-9.80374
▁lông	-9.80524
▁bayern	-9.80756
▁2018	-9.80782
ci	-9.80988
▁ngờ	-9.81059
▁tre	-9.81102
▁wikipedia	-9.81158
▁bát	-9.81288
▁dọa	-9.81361
▁chổi	-9.81363
▁giây	-9.81366
▁grdp	-9.81521
▁lũng	-9.81522
son	-9.81587
▁hảo	-9.81665
▁xá	-9.81815
67	-9.82102
▁lỵ	-9.82283
▁ngựa	-9.8232
07	-9.82383
▁hô	-9.82638
▁lui	-9.83024
▁gián	-9.83058
16	-9.83085
51	-9.83092
▁1954	-9.83209
▁già	-9.83282
▁cản	-9.83332
%	-9.83413
▁vết	-9.83533
▁cong	-9.83643
94	-9.8366
ho	-9.83717
ji	-9.83762
▁ch	-9.83781
▁nhấn	-9.83822
▁kiệt	-9.83824
▁khuôn	-9.83847
▁sợ	-9.84077
▁vẻ	-9.84137
▁bột	-9.84149
31	-9.84156
chi	-9.84344
ard	-9.84555
17	-9.84608
01	-9.84648
kh	-9.84694
▁bấy	-9.84756
▁đốm	-9.84767
▁lộc	-9.84844
04	-9.84933
un	-9.84978
▁non	-9.85084
▁200	-9.85339
▁phút	-9.85465
▁1999	-9.85717
36	-9.85764
▁ấp	-9.8608
▁thải	-9.86082
hoặc	-9.86295
▁niềm	-9.86341
▁bé	-9.86746
▁and	-9.86892
08	-9.86933
▁thuẫn	-9.86979
▁đực	-9.86981
▁đón	-9.87003
▁2001	-9.87082
ver	-9.8713
▁am	-9.87224
amp	-9.873
▁cốt	-9.87436
▁bền	-9.87608
▁khích	-9.87683
▁đan	-9.88014
▁ảo	-9.88017
92	-9.88127
ur	-9.8838
▁loan	-9.88479
▁bối	-9.88593
▁cướp	-9.88597
+	-9.88632
▁côn	-9.88868
03	-9.89258
q	-9.89567
▁lithi	-9.89584
▁dược	-9.89586
▁sẻ	-9.89588
pi	-9.89746
▁mũi	-9.89937
▁google	-9.8995
2.	-9.901
79	-9.90117
ngày	-9.90223
▁đỗ	-9.90257
▁ám	-9.90452
▁cháu	-9.90574
▁kèm	-9.90587
▁lão	-9.90596
▁khôi	-9.9069
▁zhukov	-9.90907
▁màn	-9.90943
_	-9.90988
▁nôm	-9.91173
▁lường	-9.91244
▁th	-9.91252
▁ưa	-9.91257
đà	-9.91462
▁kông	-9.91604
”	-9.91922
▁ar	-9.92178
▁chắn	-9.92252
▁madrid	-9.92252
1%	-9.9231
▁pi	-9.92424
▁điệu	-9.92591
▁thai	-9.92661
ber	-9.92808
▁gói	-9.92931
▁răng	-9.92944
▁/	-9.92999
sh	-9.93028
▁hố	-9.9325
▁dải	-9.93272
09	-9.93431
▁gi	-9.93441
▁“	-9.93615
▁cậu	-9.93615
trung	-9.93625
▁cm	-9.93819
tu	-9.93942
▁ác	-9.93949
▁huấn	-9.9396
▁thảm	-9.94047
tt	-9.94104
▁nai	-9.94157
82	-9.94175
ie	-9.94276
▁gà	-9.94292
▁đợt	-9.94304
▁lây	-9.94318
▁lặp	-9.94649
▁rối	-9.94653
72	-9.94667
▁diêm	-9.94667
▁mau	-9.94743
▁bái	-9.948
bo	-9.94979
▁huỳnh	-9.94996
cp	-9.95243
▁phu	-9.95243
ở	-9.95391
▁dịp	-9.95412
ation	-9.95458
▁sấu	-9.95695
▁thoái	-9.95695
▁tháo	-9.95696
▁tịnh	-9.95727
ct	-9.96042
▁stalin	-9.96046
der	-9.96135
6%	-9.96754
▁bu	-9.96791
▁ti	-9.96999
▁khứ	-9.97106
▁quen	-9.97183
▁nồng	-9.97461
▁york	-9.97462
▁mãi	-9.97473
les	-9.97483
▁mâu	-9.97486
▁base	-9.97585
9%	-9.97721
wa	-9.97778
▁xx	-9.97818
▁đúc	-9.97821
ana	-9.98087
▁dõi	-9.98177
▁1976	-9.98197
am	-9.98485
▁mậu	-9.98537
▁phẫu	-9.98537
▁chó	-9.98572
▁mời	-9.98585
du	-9.98655
▁nhì	-9.98784
▁cán	-9.98828
op	-9.99117
▁au	-9.99349
▁ép	-9.99433
tan	-9.99444
sau	-9.99586
▁tặng	-9.99624
▁1940	-9.99651
▁iii	-9.99661
em	-9.99775
▁tát	-10.002
_1	-10.0028
ku	-10.0033
▁bội	-10.0036
▁nở	-10.0037
-1	-10.0038
77	-10.0041
▁chụp	-10.0072
▁1991	-10.0083
▁chín	-10.0092
và	-10.0094
▁kg	-10.011
▁mm	-10.0153
▁(2	-10.0169
ing	-10.0184
▁vải	-10.0184
▁trứng	-10.0191
ir	-10.0201
▁ôn	-10.021
▁500	-10.0218
ö	-10.0221
▁séc	-10.0221
▁suối	-10.0221
khoảng	-10.0227
▁george	-10.0251
▁xóa	-10.0258
▁sàng	-10.0261
▁khung	-10.0279
▁trạch	-10.0296
▁(17	-10.0297
▁mảng	-10.0301
ù	-10.0308
▁william	-10.0312
▁bia	-10.0327
▁đoạt	-10.0333
những	-10.0341
▁nh	-10.0343
▁hạnh	-10.0355
▁sót	-10.0371
▁chẽ	-10.0372
▁ngọn	-10.0392
▁bồi	-10.0399
▁1960	-10.0401
▁lạ	-10.0403
▁calvin	-10.0409
▁neutron	-10.0409
▁dường	-10.041
▁2017	-10.0412
▁đôn	-10.0426
▁vui	-10.0456
mer	-10.0458
8%	-10.0476
▁ân	-10.0481
0.000	-10.0483
▁bụi	-10.0486
▁huyết	-10.0487
▁đói	-10.0492
▁thung	-10.0506
men	-10.0513
▁giêsu	-10.0525
▁mảnh	-10.0525
▁go	-10.0563
▁hẳn	-10.0563
▁lật	-10.0563
▁james	-10.0563
▁ngài	-10.0564
▁đau	-10.0567
4%	-10.0572
▁ru	-10.0583
za	-10.0601
▁thấu	-10.0602
▁1956	-10.0603
ts	-10.0607
tic	-10.0622
▁dâng	-10.0625
▁pe	-10.0627
▁4,	-10.063
▁thua	-10.0646
▁cự	-10.065
▁rạch	-10.0653
▁hồn	-10.0657
▁mòn	-10.0661
▁nghịch	-10.0665
▁2005	-10.0686
▁heli	-10.0691
▁hoài	-10.0696
▁mar	-10.0701
▁thả	-10.0701
▁z	-10.0702
▁300	-10.0707
▁lầm	-10.0719
▁ấm	-10.0719
▁nhiễu	-10.0719
ster	-10.0732
den	-10.0753
▁giam	-10.0758
▁kiềm	-10.0759
ian	-10.0763
81	-10.0797
tương	-10.0812
▁xen	-10.0827
▁chục	-10.0837
▁litva	-10.0837
▁nhượng	-10.0838
▁chấn	-10.0838
▁1955	-10.0839
▁kon	-10.0865
▁thục	-10.0872
▁căng	-10.0896
▁2002	-10.09
▁chư	-10.0916
▁vang	-10.092
▁80	-10.0923
▁xi	-10.0931
▁dời	-10.0957
▁voi	-10.0991
▁trốn	-10.0994
▁điệp	-10.0999
▁đèn	-10.1001
▁robert	-10.1016
▁chở	-10.1039
▁nhôm	-10.1041
91	-10.1076
▁đắc	-10.1079
▁phụng	-10.1114
▁dặm	-10.112
▁đẻ	-10.112
▁mát	-10.1123
▁xong	-10.1129
sta	-10.1153
còn	-10.1216
▁ngã	-10.1237
▁quét	-10.1243
▁đáo	-10.1249
è	-10.125
▁dạ	-10.1269
▁laser	-10.1288
▁lư	-10.129
▁2011,	-10.1301
▁củng	-10.1304
▁hiv	-10.1338
lin	-10.1342
▁xấu	-10.1368
▁tuệ	-10.1369
ot	-10.137
▁ph	-10.1411
▁spin	-10.142
res	-10.1441
▁hãn	-10.1448
▁florida	-10.1452
ư	-10.1467
liên	-10.1471
▁nhĩ	-10.1495
theo	-10.1496
km	-10.1505
▁lu	-10.1511
▁hứng	-10.1537
▁tật	-10.1537
▁hề	-10.1539
ran	-10.1539
ev	-10.1555
3%	-10.1556
▁quẻ	-10.158
▁chiêu	-10.158
định	-10.1598
▁ngự	-10.1598
▁fa	-10.1611
▁genève	-10.1623
▁hawking	-10.1623
▁ghép	-10.1624
▁mái	-10.1626
▁hãng	-10.1627
công	-10.1631
gu	-10.1633
ak	-10.1633
▁lợn	-10.1666
▁natri	-10.1667
▁sương	-10.1667
▁tản	-10.1686
chữ	-10.1686
pp	-10.1695
▁mươi	-10.1709
▁charles	-10.1709
ron	-10.1732
▁sáo	-10.1755
▁tim	-10.176
▁nghiêng	-10.1781
hỉnh	-10.1815
▁đuôi	-10.184
▁luther	-10.1841
fi	-10.1847
tra	-10.1863
▁tha	-10.187
iêm	-10.1883
▁trật	-10.1884
▁ki	-10.1889
▁giáng	-10.1904
ou	-10.1912
▁nhi	-10.1916
hà	-10.1919
▁moskva	-10.1929
▁ngồi	-10.1929
▁xoắn	-10.1929
▁đậm	-10.1929
▁dĩ	-10.193
▁pakistan	-10.1973
▁philippines	-10.1973
▁ne	-10.2003
ers	-10.2004
▁kín	-10.2017
▁estonia	-10.2018
▁phổi	-10.2022
▁ngụy	-10.2023
ớ	-10.2031
ả	-10.2032
ff	-10.2043
▁ổ	-10.2051
▁hài	-10.2062
▁bush	-10.2068
▁toà	-10.2105
▁kép	-10.2109
▁xix	-10.2111
▁túy	-10.2113
▁cống	-10.2145
▁hitler	-10.2153
▁cuba	-10.2154
▁vượng	-10.2154
▁cú	-10.216
ông	-10.2167
mu	-10.2167
ze	-10.2171
được	-10.2176
▁dệt	-10.2198
▁hiếu	-10.2198
▁nâu	-10.22
▁1941	-10.2201
!	-10.2202
▁ko	-10.2229
▁khía	-10.2243
▁giãn	-10.2247
und	-10.2257
ig	-10.2258
tin	-10.229
▁1960,	-10.2303
thời	-10.2314
▁paul	-10.2315
▁sạch	-10.2336
▁cồn	-10.2337
▁ném	-10.2382
cha	-10.2384
▁hôm	-10.2398
▁ri	-10.2406
▁jean	-10.2429
▁nano	-10.2448
▁sữa	-10.2476
▁não	-10.2478
▁mù	-10.248
▁túc	-10.249
hu	-10.2516
▁ngẫu	-10.2522
▁1998	-10.2525
tháng	-10.2549
chủ	-10.255
shi	-10.2563
▁cậy	-10.257
▁gọn	-10.2571
▁diệu	-10.2617
▁rau	-10.2626
▁khiết	-10.2641
▁chút	-10.2657
▁mồ	-10.2665
▁2005,	-10.2666
▁lũy	-10.2671
▁louis	-10.2672
▁iv	-10.2682
ment	-10.2688
ner	-10.269
▁(20	-10.269
lan	-10.2692
bu	-10.2693
▁leo	-10.2708
▁dừng	-10.2713
▁marx	-10.2715
▁cất	-10.2717
▁lôi	-10.2725
mon	-10.273
cu	-10.2741
che	-10.2753
▁sàn	-10.2757
▁nấm	-10.2761
▁sổ	-10.2761
▁fluor	-10.2774
he	-10.2774
▁thô	-10.2808
▁axit	-10.2809
▁ruột	-10.2809
▁hoại	-10.2811
▁chăn	-10.2853
▁chùm	-10.2857
rin	-10.2868
ấn	-10.288
▁ngập	-10.2906
▁1989	-10.2909
▁feynman	-10.291
▁cối	-10.2917
▁oxide	-10.2921
▁đê	-10.2923
▁lùn	-10.2951
fa	-10.2952
▁1965	-10.2958
cl	-10.2975
dra	-10.2984
▁van	-10.3001
▁đựng	-10.3004
▁điêu	-10.3005
▁gương	-10.3006
▁1944	-10.3007
cho	-10.3026
tỉnh	-10.3035
ist	-10.3052
âm	-10.3052
▁nhầm	-10.3054
▁nếp	-10.3054
▁ngọt	-10.3055
▁1968	-10.3058
▁bọc	-10.306
▁mấy	-10.3104
▁đầm	-10.3104
▁mừng	-10.3105
▁1995	-10.3106
▁đáy	-10.3137
▁đàng	-10.314
▁đạp	-10.3154
▁ghế	-10.3154
▁2008,	-10.316
▁gu	-10.3191
▁đứt	-10.3204
▁triệt	-10.3204
▁khê	-10.3205
▁miệng	-10.3205
▁1964	-10.3206
▁""	-10.3218
ụ	-10.3218
gh	-10.3223
▁nhơn	-10.3255
▁kỵ	-10.3258
▁world	-10.3269
▁hư	-10.3271
ger	-10.328
tam	-10.329
san	-10.3294
▁mờ	-10.3301
dice	-10.3302
bao	-10.3303
▁gợi	-10.3305
▁lữ	-10.3306
▁1973	-10.3307
▁32	-10.3323
ae	-10.3332
sự	-10.3341
âu	-10.3343
";	-10.335
▁mặn	-10.3356
▁khuynh	-10.3356
▁thâm	-10.3357
1"	-10.3357
▁gnu	-10.3358
▁1920	-10.3361
▁gò	-10.3366
▁19,	-10.3367
▁el	-10.3379
▁ab	-10.3382
▁ngưng	-10.3384
▁70	-10.3386
▁hộp	-10.3396
▁ireland	-10.3408
▁thận	-10.3408
▁thách	-10.3425
ker	-10.3438
▁vẹn	-10.3459
▁thôi	-10.3467
▁giê	-10.3492
sp	-10.3496
▁nề	-10.35
▁cạn	-10.3507
▁nợ	-10.3513
▁soái	-10.3514
ps	-10.3538
ler	-10.3543
ü	-10.3563
▁trãi	-10.3563
▁vectơ	-10.3563
ion	-10.3566
▁méxico	-10.3567
▁lò	-10.3583
▁kde	-10.3592
thành	-10.3603
▁gioan	-10.3616
▁thợ	-10.3616
▁mỏng	-10.3623
▁tày	-10.3628
▁tang	-10.3637
▁400	-10.3644
net	-10.3658
▁chiết	-10.3671
▁béo	-10.3677
ah	-10.3682
là	-10.3714
▁indonesia	-10.3721
▁trâu	-10.3721
▁chốt	-10.3721
om	-10.3729
vo	-10.3737
▁sưu	-10.3737
▁thổi	-10.3764
▁trông	-10.3775
▁kĩ	-10.3776
▁1961	-10.3776
▁1963	-10.3776
▁chèo	-10.3777
▁rồng	-10.3779
mông	-10.3784
lla	-10.379
▁tùng	-10.3822
▁cưới	-10.3828
▁von	-10.384
▁enzyme	-10.3841
ism	-10.3863
ỵ	-10.3873
▁bưu	-10.3882
▁1992	-10.3883
▁1994	-10.3883
▁tốn	-10.3888
%.	-10.39
đa	-10.391
▁tơ	-10.3924
▁rôma	-10.3924
▁nấu	-10.3935
▁euler	-10.3936
▁rẽ	-10.3936
▁frankfurt	-10.394
▁bach	-10.3957
yl	-10.3961
▁dàn	-10.3983
▁dũng	-10.399
▁nhảy	-10.399
▁container	-10.399
▁xướng	-10.3991
▁1996	-10.3992
▁nasa	-10.3997
▁20,	-10.4014
que	-10.4016
▁per	-10.4022
nhà	-10.4023
ns	-10.4027
−	-10.4028
▁friedrich	-10.4044
▁thomas	-10.4044
▁đập	-10.4044
▁1959	-10.4047
▁saint	-10.4049
▁tựu	-10.4054
▁lãng	-10.4063
▁chưng	-10.4091
▁münchen	-10.4099
▁tiễn	-10.4099
▁1939	-10.4102
▁sôi	-10.4103
ell	-10.4103
▁treo	-10.4109
len	-10.4143
▁ontario	-10.4155
▁sùng	-10.4155
▁chừng	-10.4155
▁đâu	-10.4155
sch	-10.4157
▁măng	-10.4157
▁duệ	-10.4158
eu	-10.4173
ten	-10.4202
▁tà	-10.4207
▁đợi	-10.421
▁1972	-10.4212
▁1979	-10.4212
▁mượn	-10.4213
▁tráng	-10.4219
ser	-10.4227
▁cài	-10.4231
▁mao	-10.4233
):	-10.4236
thường	-10.4254
▁chôn	-10.4257
ếch	-10.4258
-20	-10.426
ent	-10.4261
▁lạng	-10.4266
▁ốc	-10.4266
▁khử	-10.4266
▁rác	-10.4278
phi	-10.4321
▁lắp	-10.4322
▁trắc	-10.4322
▁1986	-10.4325
▁eo	-10.4346
▁khải	-10.4351
▁tràn	-10.4364
▁giỏi	-10.4379
▁martin	-10.4379
▁1947	-10.4381
▁hưu	-10.4384
▁trinh	-10.4386
▁(3	-10.4409
ther	-10.4447
▁king	-10.4449
_2	-10.4454
▁bar	-10.4461
▁tụng	-10.4463
ãy	-10.4465
▁lưng	-10.4481
▁gan	-10.4485
▁viêm	-10.4496
od	-10.4498
▁chòm	-10.4501
mar	-10.4502
▁mu	-10.4517
▁35	-10.4524
▁(16	-10.4529
ina	-10.4529
▁chì	-10.453
ọ	-10.4542
▁nương	-10.4551
▁ngãi	-10.456
ợ	-10.4565
▁lái	-10.4589
=11	-10.4599
zo	-10.4602
▁ribosome	-10.4608
▁1958	-10.461
▁nàng	-10.4619
ov	-10.462
7%	-10.4646
▁rệt	-10.4666
▁phaolô	-10.4666
▁45	-10.4667
▁khuyên	-10.4669
tây	-10.4671
%)	-10.469
107	-10.4694
▁ngủ	-10.4718
▁car	-10.4722
▁maria	-10.4725
▁2008	-10.4726
3)	-10.4729
▁nato	-10.473
▁thuê	-10.4739
5.000	-10.4746
ea	-10.4751
ì	-10.4757
▁her	-10.4765
sk	-10.4769
▁cõi	-10.4783
▁bớt	-10.4784
rat	-10.4787
▁te	-10.4787
▁bút	-10.4789
▁2021	-10.4789
▁cổng	-10.4792
nt	-10.4802
mm	-10.4807
xi	-10.4808
▁bra	-10.482
▁hạch	-10.482
sen	-10.4845
▁xoay	-10.4845
▁qu	-10.4846
▁móng	-10.4852
ai	-10.4866
▁vú	-10.4872
ica	-10.4873
oh	-10.4901
▁alaska	-10.4902
▁kennedy	-10.4902
▁rải	-10.4902
▁mọc	-10.4902
viết	-10.4902
▁thép	-10.4902
▁1948	-10.4905
all	-10.4914
ac	-10.4927
▁nỗi	-10.4928
án	-10.4941
thiên	-10.4954
cy	-10.4976
▁sp	-10.4979
-2	-10.5002
▁dẹp	-10.5022
▁mạo	-10.5026
▁nùng	-10.5029
▁tum	-10.505
▁thoa	-10.5051
▁trừng	-10.5059
▁1.000	-10.506
thuộc	-10.5075
▁hứa	-10.5083
▁nốt	-10.5084
▁xiêm	-10.5086
▁gãy	-10.5086
▁ngư	-10.5102
▁hu	-10.5125
ắk	-10.5142
tên	-10.5143
▁washington	-10.5144
▁mùi	-10.5153
▁láng	-10.516
io	-10.5164
▁xít	-10.5165
▁khe	-10.5174
▁jo	-10.5199
▁cacbon	-10.5214
com	-10.5224
109	-10.5227
ren	-10.5239
ất	-10.5241
ết	-10.5258
▁clinton	-10.5267
▁khẩn	-10.5267
▁ngợi	-10.5267
▁nhạy	-10.5267
▁dốc	-10.5269
▁xám	-10.5287
▁150	-10.529
ō	-10.5293
hạ	-10.5293
▁wa	-10.5298
▁q	-10.5305
1,	-10.5306
▁or	-10.5316
▁albert	-10.5324
▁chị	-10.5326
▁cẩm	-10.5329
▁khấu	-10.5329
▁richard	-10.5329
▁dáng	-10.5331
▁súc	-10.5334
tô	-10.5338
▁pro	-10.5373
▁planck	-10.5391
▁sét	-10.5393
wi	-10.5412
▁lũ	-10.5414
nes	-10.5429
▁edward	-10.5445
▁bọn	-10.5453
а	-10.5454
▁chênh	-10.5455
▁chờ	-10.5456
▁mỡ	-10.5456
ồ	-10.5468
4"	-10.5473
2"	-10.5497
3"	-10.5514
и	-10.5517
▁hầm	-10.5518
▁nảy	-10.5518
▁chéo	-10.5518
▁slovakia	-10.5518
▁90	-10.5519
▁tuấn	-10.552
▁1949	-10.552
▁iran	-10.5521
▁hối	-10.5532
.500	-10.5539
▁im	-10.5546
7"	-10.556
▁—	-10.5561
pro	-10.5576
▁luyến	-10.5582
▁kịp	-10.5583
▁lấn	-10.5583
▁1993	-10.5584
▁1962	-10.5584
▁1967	-10.5585
▁video	-10.5589
▁mơ	-10.5616
5"	-10.5623
ệ	-10.5626
▁nhạt	-10.5646
▁múa	-10.5649
▁bàng	-10.5651
▁cu	-10.567
im	-10.5675
▁ngụ	-10.5684
▁tú	-10.5694
ium	-10.5701
’	-10.571
▁boson	-10.5712
▁1969	-10.5713
▁pu	-10.5729
ang	-10.5731
5%	-10.5738
▁10.000	-10.5739
▁phế	-10.5739
ú	-10.5751
▁nhan	-10.5762
▁tr	-10.5766
▁kề	-10.5773
▁mầm	-10.5775
▁dính	-10.5775
▁1000	-10.5788
▁fi	-10.5793
111	-10.5805
rus	-10.5818
sco	-10.5835
nguyên	-10.5838
▁úy	-10.584
▁1900	-10.5843
hán	-10.585
sinh	-10.5853
;/	-10.5858
▁(4	-10.5871
anh	-10.5874
000	-10.588
sky	-10.5881
mann	-10.5883
▁sạn	-10.5887
à	-10.59
▁ju	-10.59
ey	-10.5903
▁giận	-10.5906
▁gũi	-10.5906
▁latvia	-10.5906
▁dâu	-10.5909
▁đoan	-10.592
▁iso	-10.5925
sha	-10.5955
▁vũng	-10.5968
với	-10.597
▁gốm	-10.5972
▁lắng	-10.5972
ag	-10.5973
▁nộp	-10.5974
▁tung	-10.5976
▁lenin	-10.5987
▁2011	-10.5996
lli	-10.6002
▁vu	-10.6015
tri	-10.6019
bắc	-10.6038
chính	-10.6038
▁hiền	-10.6039
▁xăng	-10.6041
▁1978	-10.6042
2)	-10.6042
tôi	-10.605
▁50%	-10.605
ls	-10.605
▁tựa	-10.6069
fe	-10.6074
chem	-10.6088
ius	-10.6102
đặc	-10.6105
▁cắm	-10.6106
▁đứa	-10.6106
▁hungary	-10.6106
ek	-10.6125
▁malaysia	-10.6174
▁unesco	-10.6174
▁tím	-10.6174
▁david	-10.6174
▁đằng	-10.6174
ăng	-10.6177
-4	-10.6195
ăm	-10.6222
▁1930	-10.6226
▁bành	-10.6235
▁cẩn	-10.6242
▁ngòi	-10.6242
▁pythagoras	-10.6242
địa	-10.6242
▁1933	-10.6245
▁bó	-10.6249
▁ve	-10.6255
▁tỏa	-10.6264
-18	-10.6279
ờ	-10.6285
ủ	-10.6286
8"	-10.6308
đức	-10.6311
▁1953	-10.6313
ban	-10.6314
▁đấy	-10.6317
ốc	-10.6321
▁ge	-10.633
kin	-10.633
văn	-10.6343
ud	-10.6349
chỉ	-10.6362
▁sch	-10.6375
▁kh	-10.6379
▁muộn	-10.6379
▁quặng	-10.6379
▁khương	-10.638
▁khơi	-10.6382
▁2022	-10.6387
▁thoảng	-10.6393
▁cốc	-10.6402
my	-10.6404
huyện	-10.6445
▁tạ	-10.6448
ä	-10.6449
▁mạn	-10.645
▁1943	-10.6452
ễ	-10.6454
▁nguyệt	-10.6455
chiến	-10.6457
▁ku	-10.6459
▁tho	-10.6484
▁cor	-10.6497
ab	-10.6513
▁tv	-10.6513
▁33	-10.6514
ī	-10.6518
▁miếu	-10.6518
▁đắp	-10.6518
▁ức	-10.6518
▁tiệp	-10.6519
▁phấn	-10.6519
thế	-10.6522
▁vở	-10.6523
▁tảo	-10.6529
▁1957	-10.6532
▁karl	-10.6556
▁harry	-10.6563
▁vay	-10.6567
▁1997	-10.6585
▁móc	-10.6589
▁joseph	-10.6589
mỹ	-10.6591
đồng	-10.6601
don	-10.6605
ã	-10.6606
▁yersin	-10.664
▁10%	-10.6656
▁tị	-10.6658
о	-10.666
▁vancouver	-10.666
▁đạc	-10.666
▁rễ	-10.6661
▁dioxide	-10.6662
ei	-10.6664
pt	-10.6664
can	-10.6666
▁gìn	-10.6675
▁hung	-10.6681
▁is	-10.6689
tha	-10.6695
▁phồn	-10.6697
nic	-10.671
▁khoan	-10.6721
ley	-10.6724
▁cáp	-10.673
▁euclid	-10.6731
▁giềng	-10.6731
▁tẩy	-10.6731
▁ngạn	-10.6731
▁tóc	-10.6731
▁tóm	-10.6731
▁đèo	-10.6732
▁lấp	-10.6736
hoa	-10.674
▁"(	-10.6742
ny	-10.6743
▁80%	-10.6749
▁sườn	-10.6757
▁gai	-10.677
▁(10	-10.677
▁mãnh	-10.6776
berg	-10.6779
...)	-10.6787
▁frank	-10.6803
▁châm	-10.6804
per	-10.6811
thi	-10.6817
▁bông	-10.6822
▁fe	-10.6831
nq	-10.6872
▁100.000	-10.6884
ide	-10.6885
số	-10.6905
▁củ	-10.6908
est	-10.6915
hai	-10.6944
9"	-10.6949
▁nhuộm	-10.6949
▁nắng	-10.6949
▁36	-10.6949
▁nén	-10.6952
zi	-10.6957
▁nhũng	-10.6961
▁đấ	-10.6969
▁bùi	-10.6974
▁34	-10.6982
▁thơm	-10.6984
cơ	-10.699
rit	-10.7006
▁nhãn	-10.7012
▁giọng	-10.7022
▁microsoft	-10.7022
▁nhiêu	-10.7022
▁castro	-10.7023
▁liêm	-10.7024
▁latin	-10.7025
▁eu	-10.7026
▁váy	-10.7026
quốc	-10.7028
▁nucleotide	-10.7036
▁mac	-10.7048
▁ag	-10.7054
▁thẻ	-10.7097
▁chuột	-10.7097
▁lepton	-10.7103
▁pla	-10.7111
▁bit	-10.7144
gan	-10.7145
ite	-10.7147
pu	-10.715
nđ	-10.7163
▁os	-10.7165
burg	-10.7169
▁calci	-10.7171
▁phạn	-10.7171
▁xưởng	-10.7171
▁đặng	-10.7173
▁chào	-10.7174
age	-10.7203
▁chua	-10.721
át	-10.7213
▁37	-10.7214
▁fu	-10.7217
ữ	-10.7236
ty	-10.7238
▁chẩn	-10.7246
▁giường	-10.7246
▁baltic	-10.7246
▁amino	-10.7249
▁khuất	-10.7259
▁miến	-10.727
▁nung	-10.7272
_3	-10.7276
up	-10.7277
▁ad	-10.7296
200	-10.7321
▁luồng	-10.7322
▁nitơ	-10.7322
▁miên	-10.7323
▁en	-10.7329
▁ngục	-10.7344
▁vôi	-10.7367
▁tôm	-10.7391
▁hụt	-10.7398
▁kilômét	-10.7398
▁neutrino	-10.7398
▁1971	-10.7402
thái	-10.7408
màu	-10.7408
▁br	-10.743
3.	-10.7435
-12	-10.7437
ens	-10.744
dia	-10.7444
ham	-10.7465
ys	-10.7474
▁quật	-10.7475
▁cưỡng	-10.7475
▁khuyết	-10.7475
▁thạnh	-10.7475
▁maxwell	-10.7475
▁nhựa	-10.7475
ria	-10.7476
mp	-10.7477
▁sin	-10.7483
xã	-10.7487
mit	-10.7496
▁for	-10.7508
110	-10.7509
0%	-10.7521
▁ft	-10.7524
ý	-10.7527
▁as	-10.7528
▁tro	-10.7537
ốt	-10.7538
▁rửa	-10.7553
▁trôi	-10.7553
▁german	-10.7553
▁1942	-10.7556
nếu	-10.7562
▁keo	-10.7564
▁silic	-10.7569
▁54	-10.7573
ari	-10.7583
oc	-10.7608
ii	-10.7616
khi	-10.7617
100	-10.7619
▁pin	-10.7626
ap	-10.7629
▁giỗ	-10.7631
▁uỷ	-10.7631
▁niết	-10.7631
▁ngừa	-10.7632
%),	-10.765
pen	-10.7659
ven	-10.7686
▁phun	-10.7687
▁cù	-10.7688
ds	-10.7706
▁hỏng	-10.7709
▁tươi	-10.7709
▁trướng	-10.771
▁turing	-10.7711
▁gõ	-10.7712
▁1938	-10.7713
dân	-10.7724
▁mozart	-10.7741
▁1,5	-10.7747
gọi	-10.776
▁babylon	-10.7789
▁dội	-10.7789
▁henry	-10.7789
▁scotland	-10.7789
▁chuộng	-10.7789
▁liễu	-10.7789
▁mạ	-10.7791
▁rice	-10.7791
▁1951	-10.7792
▁600	-10.7795
▁diên	-10.7796
▁xvi	-10.78
cal	-10.7802
▁út	-10.7833
%;	-10.784
ân	-10.7851
▁buồn	-10.7865
▁gạch	-10.7869
▁pierre	-10.7869
▁khâm	-10.7869
▁gỡ	-10.7871
▁rào	-10.7871
▁nút	-10.7871
▁1988	-10.7873
je	-10.7891
khu	-10.7923
▁wi	-10.7931
▁sha	-10.7931
ên	-10.7947
ăn	-10.7947
han	-10.7947
α	-10.7949
▁duẩn	-10.7949
▁lùi	-10.7949
с	-10.7949
lô	-10.7953
độ	-10.7953
kinh	-10.7973
▁com	-10.7979
▁par	-10.7979
chu	-10.7984
3,	-10.7985
ant	-10.7997
▁(15	-10.8017
▁gr	-10.8026
▁ngạc	-10.8027
▁hãm	-10.8031
▁rạp	-10.8031
▁logic	-10.8031
▁bếp	-10.8032
▁chìm	-10.8045
gon	-10.8047
▁rẻ	-10.8048
▁hoan	-10.8057
ung	-10.8057
lis	-10.8058
we	-10.8062
▁49	-10.8062
tro	-10.8068
▁shi	-10.807
dy	-10.8077
ary	-10.8078
des	-10.8084
ex	-10.8091
▁ze	-10.8095
tion	-10.8096
▁giặc	-10.8113
▁1936	-10.8116
▁ngạch	-10.8117
▁tràng	-10.812
▁nhậm	-10.8123
▁hao	-10.8147
ris	-10.8154
-3	-10.8163
0"	-10.8168
lia	-10.8171
6"	-10.8186
▁lộn	-10.8191
min	-10.8195
▁newfoundland	-10.8195
▁potter	-10.8196
▁curie	-10.8197
▁geneva	-10.8198
▁1977	-10.8198
)...	-10.8203
hội	-10.821
quân	-10.821
▁har	-10.8214
▁90%	-10.8214
▁−	-10.8216
▁quên	-10.8236
our	-10.824
▁2.000	-10.825
▁ce	-10.8252
ét	-10.8253
▁120	-10.8264
▁39	-10.8276
▁dồi	-10.8279
▁quãng	-10.8279
▁trượt	-10.8279
▁ukraina	-10.8279
▁phượng	-10.8279
har	-10.8279
▁lắk	-10.828
ill	-10.8282
vô	-10.8285
pháp	-10.8296
▁lipid	-10.8302
kov	-10.8305
ski	-10.8314
▁france	-10.8314
ong	-10.8315
sc	-10.832
▁8,	-10.8325
ling	-10.835
hệ	-10.8351
▁kẽ	-10.8355
▁methan	-10.8361
▁giấu	-10.8363
▁lưỡi	-10.8363
▁chúc	-10.8365
▁1982	-10.8366
▁kèn	-10.8366
▁20%	-10.8367
▁mốc	-10.8367
▁cúp	-10.8372
▁plasma	-10.8373
▁ngu	-10.8374
af	-10.8378
lai	-10.8381
▁kha	-10.839
▁ke	-10.8392
▁sun	-10.84
ez	-10.8404
▁mol	-10.8406
ref	-10.8414
▁dioxin	-10.8447
▁lụt	-10.8447
▁1966	-10.8451
ino	-10.8453
▁lãm	-10.8456
▁ethanol	-10.8458
-13	-10.8463
tính	-10.8466
ò	-10.8468
rt	-10.8479
▁(5	-10.8494
tz	-10.8497
eo	-10.8501
gia	-10.8502
ử	-10.8509
▁chay	-10.8514
▁75	-10.8522
▁mũ	-10.8528
▁trọn	-10.8531
▁ottawa	-10.8533
▁august	-10.8533
▁alpha	-10.8534
▁pre	-10.8535
las	-10.854
▁chàm	-10.8541
▁my	-10.8564
▁coli	-10.8566
ction	-10.8583
tự	-10.8584
ville	-10.8606
ếm	-10.8611
▁mì	-10.8611
ế	-10.8616
3/	-10.8616
▁ste	-10.8617
▁xóm	-10.8619
▁vắng	-10.862
▁uyên	-10.862
▁hoạn	-10.8626
▁48	-10.8628
ré	-10.8634
▁táo	-10.864
lit	-10.8642
ôn	-10.8649
ani	-10.8677
ua	-10.8679
▁63	-10.8686
rna	-10.8692
yo	-10.8705
▁singapore	-10.8706
dd	-10.8707
▁túi	-10.8715
đường	-10.8726
▁carl	-10.873
▁del	-10.8738
bin	-10.8741
by	-10.8747
nông	-10.8748
tal	-10.876
tes	-10.8782
▁sen	-10.8785
▁thấm	-10.8794
▁chôm	-10.8794
▁(14	-10.8802
▁html	-10.8807
▁cơm	-10.8812
8.000	-10.8824
▁khan	-10.8824
rr	-10.8835
▁nhã	-10.8844
▁er	-10.8862
pl	-10.8874
▁lầy	-10.8882
▁tề	-10.8885
▁1985	-10.8887
ure	-10.8894
▁lồng	-10.8897
đề	-10.8902
▁der	-10.8902
nước	-10.8913
lus	-10.8913
▁cuộn	-10.8972
▁rìa	-10.8972
▁gán	-10.8972
▁xvii	-10.8973
▁gánh	-10.8978
gar	-10.8985
trước	-10.8994
▁chàng	-10.8996
▁800	-10.8999
▁hoành	-10.8999
ền	-10.9007
qui	-10.9008
▁(0,	-10.9008
fer	-10.9025
rs	-10.9027
▁xôi	-10.9029
tsu	-10.9031
one	-10.904
ởi	-10.9055
▁yukon	-10.9062
▁lặng	-10.9065
▁1917	-10.9065
▁11,	-10.9065
thể	-10.9085
bản	-10.9097
bra	-10.9097
▁ơn	-10.91
bộ	-10.9105
bert	-10.9115
▁3.000	-10.9117
họ	-10.9132
▁đổng	-10.9139
õ	-10.9145
tre	-10.9147
ū	-10.9149
lon	-10.9152
▁rỗng	-10.9153
▁nhường	-10.9153
▁cpu	-10.9159
▁xviii	-10.916
qua	-10.9166
▁sta	-10.9177
quy	-10.9183
xin	-10.9184
lịch	-10.9195
▁bốc	-10.9195
ase	-10.9198
ft	-10.9203
lé	-10.9226
ken	-10.9237
tor	-10.924
▁johann	-10.9243
▁mắn	-10.9244
▁nhắm	-10.9244
▁kiệm	-10.9245
▁thở	-10.9246
▁thiêng	-10.9247
non	-10.9248
▁mag	-10.9256
hoàng	-10.9264
▁41	-10.9267
▁bóc	-10.927
ara	-10.9276
▁mộng	-10.9283
▁ngực	-10.9285
ier	-10.9291
rai	-10.9296
▁we	-10.93
cô	-10.9303
▁250	-10.9306
▁táng	-10.9307
thu	-10.931
ip	-10.9315
ẹ	-10.9323
":	-10.9323
stein	-10.9324
ju	-10.9325
▁chloride	-10.9337
▁1984	-10.9341
▁ex	-10.9345
▁55	-10.9355
gồm	-10.9362
pha	-10.9376
▁đán	-10.9378
▁min	-10.9387
▁port	-10.9398
▁bồng	-10.9398
cả	-10.9409
-8	-10.9414
т	-10.943
▁hiđrô	-10.943
▁league	-10.943
▁đắt	-10.943
▁angola	-10.943
▁graz	-10.943
▁ngõ	-10.9431
▁rgb	-10.9431
▁huống	-10.9431
▁huân	-10.9431
▁bơi	-10.9433
▁1981	-10.9433
▁70%	-10.9444
"...	-10.9446
rie	-10.9446
▁los	-10.9452
line	-10.9455
▁bro	-10.9469
xu	-10.9474
▁fl	-10.9476
▁tour	-10.9481
▁rai	-10.9499
ĩ	-10.9509
▁wilhelm	-10.9525
▁viếng	-10.9525
ros	-10.9525
sion	-10.9528
kan	-10.9544
phật	-10.9552
▁ngột	-10.9555
ống	-10.9556
"".	-10.9558
danh	-10.9559
▁$	-10.9562
▁làn	-10.9571
▁trù	-10.9577
▁phiến	-10.958
ỉ	-10.9594
▁(12	-10.9601
ori	-10.9603
▁hủ	-10.9616
▁giọt	-10.962
▁unix	-10.962
▁brasil	-10.962
▁hydrocarbon	-10.962
▁ngón	-10.9624
▁yahoo	-10.9628
ity	-10.9646
▁nm	-10.9647
▁cày	-10.9656
▁des	-10.9666
her	-10.9671
▁nan	-10.9675
kim	-10.9675
▁43	-10.968
▁at	-10.969
ms	-10.9695
▁65	-10.9698
▁chè	-10.97
wan	-10.9703
▁19.	-10.9708
▁angkor	-10.9716
▁hẹn	-10.9716
▁illinois	-10.9716
▁phơi	-10.9716
▁ozon	-10.9717
▁sán	-10.9718
▁1918	-10.972
▁1935	-10.972
▁1905	-10.972
vùng	-10.9745
ura	-10.9752
ene	-10.9752
ish	-10.9754
▁*	-10.977
rio	-10.9773
▁giêng	-10.9778
▁hoán	-10.9779
▁lanh	-10.9785
▁xí	-10.9811
▁phì	-10.9812
н	-10.9813
▁hubble	-10.9813
▁đòn	-10.9813
▁quỳnh	-10.9814
and	-10.9814
ái	-10.9815
▁1983	-10.9818
▁khán	-10.9828
7.000	-10.9833
spe	-10.9837
▁viii	-10.9838
▁xê	-10.984
zu	-10.9842
▁fer	-10.9846
▁mc	-10.9847
–18	-10.985
▁lã	-10.9856
ssi	-10.9868
ric	-10.9875
▁clo	-10.9879
cao	-10.9879
▁khói	-10.9894
▁sri	-10.9895
ole	-10.9898
▁columbia	-10.9911
▁napoléon	-10.9911
▁trội	-10.9911
▁dvd	-10.9911
▁vách	-10.9915
▁trác	-10.9915
▁dào	-10.9918
▁khoán	-10.9919
77"	-10.9927
▁40%	-10.9936
▁0.	-10.9951
▁bích	-10.9954
ão	-10.9962
▁47	-10.9968
tta	-10.9971
mat	-10.9972
▁phả	-10.9972
rn	-10.9976
hy	-10.9978
ị	-10.9981
▁tp	-10.9992
▁nham	-10.9992
lê	-10.9995
▁bú	-11.0005
ś	-11.001
▁kuwait	-11.001
▁lụa	-11.001
▁rịa	-11.001
▁vựng	-11.001
▁nát	-11.0013
fl	-11.0028
▁20.000	-11.0034
▁rơ	-11.004
nguyễn	-11.0042
chúng	-11.0043
ld	-11.0049
▁khố	-11.0051
▁trans	-11.0052
▁hall	-11.0055
104	-11.0057
▁càn	-11.0061
▁hạm	-11.0064
uri	-11.0064
ste	-11.0067
4)	-11.0088
▁uốn	-11.0106
р	-11.011
▁graham	-11.011
▁michael	-11.011
▁nặc	-11.011
▁zealand	-11.011
nu	-11.0111
▁hoằng	-11.0111
▁khiêm	-11.0111
.400	-11.0111
▁rể	-11.0111
▁42	-11.0126
▁micro	-11.0129
tv	-11.0143
ato	-11.0154
ộ	-11.0155
bà	-11.0158
đông	-11.0162
stra	-11.0171
sin	-11.0172
ề	-11.0174
ub	-11.0178
▁ac	-11.0184
jo	-11.019
▁()	-11.0193
▁sam	-11.0193
▁poly	-11.0195
▁grand	-11.0198
▁đãi	-11.0201
▁18,	-11.0201
▁khoá	-11.0206
▁myanmar	-11.0211
▁palestine	-11.0211
大	-11.0211
▁upc	-11.0211
▁xoáy	-11.0214
▁1932	-11.0216
▁1929	-11.0216
▁hái	-11.0218
▁1919	-11.0222
mor	-11.0238
gal	-11.0239
▁(9	-11.0242
1.	-11.0244
về	-11.0248
áo	-11.0268
▁bám	-11.0273
ive	-11.0287
▁pri	-11.029
van	-11.0292
▁cr	-11.0292
▁peter	-11.0306
▁nhược	-11.0314
▁xuôi	-11.0314
ố	-11.0318
▁thềm	-11.032
sar	-11.0325
pr	-11.0336
ano	-11.0339
▁sốt	-11.0346
tổng	-11.0367
▁1974	-11.0369
▁(6	-11.0374
▁sol	-11.0389
ob	-11.0396
nia	-11.0403
ade	-11.0413
▁lừa	-11.0416
▁nghiệt	-11.0416
▁québec	-11.0416
▁sụt	-11.0416
▁thắt	-11.0418
kha	-11.0421
▁php	-11.0426
▁polymerase	-11.0427
▁ao	-11.044
▁bồn	-11.0443
▁38	-11.045
phần	-11.0452
nghĩa	-11.0457
uni	-11.0462
cũ	-11.0465
trừ	-11.0467
▁ip	-11.0478
bàn	-11.0483
▁đeo	-11.0486
lar	-11.0487
1.000	-11.0492
▁pan	-11.0502
sao	-11.0513
fu	-11.0515
2.000	-11.052
▁firefox	-11.0521
▁sầm	-11.0521
▁henri	-11.0521
▁quỷ	-11.0521
▁tuỳ	-11.0521
▁wales	-11.0522
▁tể	-11.0523
▁1934	-11.0525
dar	-11.0526
▁ham	-11.0536
▁nhịp	-11.0537
▁lơ	-11.0542
▁kra	-11.0543
▁bor	-11.0544
oid	-11.0557
tập	-11.0557
nhân	-11.0559
way	-11.0566
ace	-11.0571
dl	-11.0573
ok	-11.0582
ỡ	-11.0607
!"	-11.0609
▁cent	-11.0614
▁20.	-11.0624
ít	-11.0624
bar	-11.0625
▁dập	-11.0626
▁julius	-11.0626
▁1931	-11.063
▁sút	-11.0631
.800	-11.0639
▁60%	-11.0641
▁lánh	-11.0643
▁(8	-11.0646
nis	-11.0647
▁cụt	-11.066
[	-11.0663
thực	-11.0665
▁radio	-11.0667
fc	-11.0683
▁đệm	-11.0685
6.000	-11.0693
▁đếm	-11.0693
▁un	-11.0698
▁sọ	-11.0718
▁đắn	-11.0728
▁bì	-11.073
▁buýt	-11.0732
▁hoãn	-11.0732
▁khớp	-11.0732
▁thóc	-11.0732
▁wesley	-11.0732
▁kiếp	-11.0734
▁sừng	-11.0735
▁ráp	-11.0735
cm	-11.0746
▁gam	-11.075
▁pho	-11.0756
ology	-11.0778
▁khang	-11.078
▁51	-11.0793
ata	-11.08
▁30%	-11.0801
qu	-11.0808
▁za	-11.0812
tho	-11.0814
nga	-11.0815
▁cd	-11.0824
▁1.0	-11.0829
▁cẩu	-11.084
▁galileo	-11.084
▁giếng	-11.084
▁nhẫn	-11.084
▁bụng	-11.084
▁1937	-11.0844
▁xơ	-11.0848
cher	-11.0851
ước	-11.0852
ỗ	-11.0853
ôi	-11.086
gue	-11.0862
▁khoai	-11.0877
ngoại	-11.088
ương	-11.0888
▁bon	-11.0904
▁105	-11.0912
▁180	-11.0919
sto	-11.0926
▁nu	-11.0944
▁cấy	-11.0948
▁ngặt	-11.0948
▁tấu	-11.0948
▁vatican	-11.0948
▁bengal	-11.0949
▁nướng	-11.095
▁đâm	-11.095
yan	-11.0951
▁bể	-11.0951
▁khanh	-11.0956
▁mer	-11.0959
500	-11.0983
harry	-11.0992
cd	-11.0995
ánh	-11.1002
bon	-11.1004
port	-11.1005
▁mon	-11.1013
ein	-11.1021
▁1975.	-11.1025
▁lát	-11.1034
▁phác	-11.1055
▁abraham	-11.1058
▁tiệc	-11.1058
▁apollo	-11.1058
▁nhiếp	-11.1059
▁opera	-11.1062
giá	-11.109
▁general	-11.1096
ock	-11.1097
châu	-11.1106
giải	-11.1108
▁dai	-11.1114
16"	-11.1129
▁1.2	-11.1131
gg	-11.1149
–2	-11.1151
dh	-11.1161
▁otto	-11.1169
smilodon	-11.1169
▁champions	-11.1169
▁lậu	-11.1169
▁max	-11.1173
▁1987	-11.1175
▁đống	-11.1186
▁5.000	-11.1188
đã	-11.1215
mus	-11.1229
wer	-11.123
3.000	-11.1237
ngôn	-11.1246
▁lb	-11.1252
▁bê	-11.1253
dr	-11.1255
▁mú	-11.1266
▁rạc	-11.1278
е	-11.1281
▁hebrew	-11.1282
▁đính	-11.1282
▁dám	-11.1282
▁fidel	-11.1282
▁tưới	-11.1282
▁1952	-11.1286
▁kệ	-11.1288
▁yết	-11.1288
▁quế	-11.1303
▁tạc	-11.1312
▁1930,	-11.1315
▁franc	-11.1317
ctor	-11.1321
▁mg	-11.1322
▁khống	-11.1322
tur	-11.1339
sam	-11.1343
▁1.1	-11.1344
▁rạn	-11.1355
▁1,2	-11.1355
ẻ	-11.1363
▁roma	-11.1372
▁say	-11.1377
hiện	-11.1386
་	-11.1395
▁lắm	-11.1395
▁nhọn	-11.1395
▁đục	-11.1395
ν	-11.1395
▁hindu	-11.1396
▁chử	-11.1396
rô	-11.14
▁system	-11.1408
▁đun	-11.1409
ice	-11.1421
tuy	-11.1427
ita	-11.143
wor	-11.143
mặc	-11.1442
phân	-11.1443
phương	-11.1445
form	-11.1447
giáo	-11.1448
ện	-11.1452
-5	-11.1454
bus	-11.146
ence	-11.1463
giả	-11.1464
nik	-11.1472
▁sar	-11.1482
yer	-11.1488
tia	-11.1492
par	-11.1496
▁hex	-11.1502
”"	-11.1508
▁bữa	-11.151
▁trệ	-11.1511
▁rỗi	-11.1511
▁chuyền	-11.1512
▁mít	-11.1514
quan	-11.1514
ada	-11.1519
▁hesse	-11.1542
▁lít	-11.1543
qđ	-11.1544
▁1%	-11.1545
к	-11.155
điều	-11.1559
chiếm	-11.1559
▁ben	-11.1563
fo	-11.1567
▁1974,	-11.1568
▁đu	-11.1589
▁col	-11.1607
▁angeles	-11.1627
▁cmyk	-11.1627
▁dắt	-11.1627
▁khéo	-11.1627
▁roosevelt	-11.1627
▁chuối	-11.1629
▁miếng	-11.1633
▁múi	-11.1634
ổi	-11.1642
▁bính	-11.1643
ừng	-11.1646
▁beta	-11.1649
pre	-11.1649
mos	-11.1651
tter	-11.1656
▁slav	-11.1661
▁64	-11.1667
▁bur	-11.1669
của	-11.1676
đối	-11.1677
ực	-11.1677
▁44	-11.1684
▁quái	-11.1694
▁qui	-11.17
dai	-11.1706
chen	-11.1706
▁enzym	-11.1729
▁56	-11.1739
в	-11.1744
▁hận	-11.1744
▁trộm	-11.1744
▁xói	-11.1744
▁urani	-11.1745
▁(7	-11.1745
rei	-11.1745
▁1926	-11.1752
ord	-11.1753
▁1997,	-11.1757
▁bern	-11.1765
▁bùn	-11.1767
▁bru	-11.177
▁|	-11.1779
ller	-11.178
▁ơ	-11.178
đạo	-11.1795
tte	-11.1801
..."	-11.1822
hắc	-11.1849
▁thưa	-11.1849
▁rẫy	-11.1863
▁magnesi	-11.1863
▁alexander	-11.1863
▁chớp	-11.1864
▁tiêm	-11.1872
▁1910	-11.1874
elle	-11.1875
▁bill	-11.1882
del	-11.1888
▁khen	-11.1892
▁2,5	-11.1898
▁fluoride	-11.19
long	-11.1901
▁25%	-11.1902
▁mác	-11.1904
town	-11.1906
hình	-11.1908
bình	-11.1915
trường	-11.1916
▁vợt	-11.1917
▁mal	-11.1919
art	-11.1931
▁pcr	-11.1934
▁on	-11.1937
▁46	-11.1937
dor	-11.1949
▁val	-11.1959
động	-11.1965
ẽ	-11.1968
wide	-11.1972
pan	-11.1983
út	-11.1983
▁robot	-11.1984
▁chạp	-11.1984
gộp	-11.1984
▁ngâm	-11.1984
▁khâu	-11.1984
bas	-11.1987
▁1/3	-11.1992
▁cành	-11.1998
phe	-11.2028
/1	-11.2033
cùng	-11.2038
bit	-11.2038
tron	-11.2042
ich	-11.2049
ồn	-11.2054
én	-11.2058
uk	-11.2067
▁1945.	-11.2068
aka	-11.2075
▁52	-11.2085
▁cia	-11.2098
uv	-11.2099
▁ong	-11.21
log	-11.2102
ple	-11.2103
′	-11.2106
σ	-11.2106
▁katyn	-11.2106
▁thói	-11.2106
▁kạn	-11.2106
▁nòng	-11.2107
▁johnson	-11.2109
▁rock	-11.2111
yu	-11.2133
▁lanka	-11.2133
▁tex	-11.2134
▁đày	-11.2135
yama	-11.2136
▁chile	-11.2144
▁xv	-11.2148
▁5%	-11.2157
*	-11.2161
zen	-11.2163
già	-11.2166
lý	-11.2167
thanh	-11.217
tinh	-11.217
▁vii	-11.2186
/2	-11.2188
tơ	-11.2192
▁gar	-11.2193
4.000	-11.2197
tai	-11.2199
▁big	-11.2199
tum	-11.2202
cia	-11.2203
.700	-11.2205
hành	-11.2209
▁us	-11.221
▁lặn	-11.2225
▁labrador	-11.2229
▁qđndvn	-11.2229
▁son	-11.2229
▁basic	-11.223
▁hiếp	-11.2231
▁mrna	-11.2234
▁ướt	-11.2239
▁1922	-11.2242
▁ampe	-11.2243
rea	-11.2245
mô	-11.2246
rê	-11.2277
▁ean	-11.228
vật	-11.2286
hr	-11.2286
thông	-11.229
▁thùng	-11.2306
ash	-11.2307
sông	-11.2313
▁(13	-11.2318
▁lự	-11.2326
▁slovak	-11.2353
▁isaac	-11.2354
▁ắc	-11.2354
▁alfred	-11.2354
▁óc	-11.2355
▁dẻo	-11.2356
hl	-11.2356
▁1925	-11.2362
▁trùm	-11.2368
▁cup	-11.2375
row	-11.2387
/4	-11.2411
để	-11.2413
tiền	-11.2414
▁xà	-11.2426
úc	-11.2428
▁park	-11.2441
▁wat	-11.2452
▁vịt	-11.2452
▁phím	-11.2454
int	-11.2457
voyager	-11.2481
▁kelvin	-11.2481
▁kernel	-11.2481
▁mập	-11.2481
▁sắm	-11.2481
▁amonia	-11.2481
▁franklin	-11.2482
▁gamma	-11.2484
▁nhục	-11.2486
▁vo	-11.2492
ướng	-11.2504
▁ton	-11.2528
die	-11.2541
▁lin	-11.2543
vì	-11.2547
▁ya	-11.2549
▁cỗ	-11.2554
lam	-11.2554
1)	-11.2557
ể	-11.2569
▁manh	-11.2571
ath	-11.2583
py	-11.2584
▁cắn	-11.2609
▁tắm	-11.2609
▁chém	-11.2609
▁léo	-11.2613
▁thệ	-11.2615
▁1928	-11.2616
nin	-11.2629
tw	-11.263
gro	-11.2633
▁game	-11.2647
cht	-11.2656
.200	-11.2657
grdp	-11.267
quận	-11.267
điện	-11.2671
cs	-11.2679
bài	-11.2683
bs	-11.2696
▁jan	-11.2705
kar	-11.2706
▁khát	-11.2713
ben	-11.2716
▁quỳ	-11.2738
▁bướu	-11.2739
▁higgs	-11.2739
▁scarlett	-11.2739
▁wikimedia	-11.2739
▁francis	-11.2741
▁phôi	-11.2743
▁bơm	-11.2744
▁1914	-11.2746
▁1911	-11.2746
gel	-11.2751
▁benz	-11.2767
arch	-11.2767
uc	-11.2777
rd	-11.2778
ược	-11.2779
ose	-11.2798
oli	-11.2806
ves	-11.2811
▁xẻ	-11.2812
hạt	-11.2815
anda	-11.2821
.300	-11.2827
ate	-11.2832
tech	-11.286
-17	-11.2866
▁vươn	-11.2866
ett	-11.2868
▁gậy	-11.287
▁uẩn	-11.287
▁virginia	-11.287
▁ibm	-11.2871
▁stalingrad	-11.2871
▁trân	-11.2871
field	-11.2872
▁rực	-11.2872
▁lựu	-11.2874
ue	-11.2876
▁1921	-11.2881
khoa	-11.2886
▁cớ	-11.2887
ring	-11.2894
▁báp	-11.2903
aya	-11.2923
-16	-11.2928
ew	-11.2935
hô	-11.2937
trên	-11.2938
...).	-11.2945
ull	-11.2947
▁chà	-11.2958
lei	-11.2961
sai	-11.2967
ào	-11.2972
ài	-11.2976
cos	-11.2977
ind	-11.2995
▁quách	-11.2996
ểm	-11.3002
▁british	-11.3004
▁bẫy	-11.3004
▁nixon	-11.3004
▁orbital	-11.3004
▁siberia	-11.3004
▁tenxơ	-11.3004
▁yoga	-11.3005
▁rước	-11.3006
▁rỡ	-11.3006
▁nghiền	-11.3006
▁panduranga	-11.3009
▁1913	-11.301
▁1924	-11.3011
▁1867	-11.3015
.000.000	-11.3019
▁xé	-11.302
▁chlor	-11.302
▁1890	-11.3021
▁ur	-11.3032
new	-11.3034
stan	-11.3038
bal	-11.3045
▁700	-11.3047
-10	-11.3056
heim	-11.3068
đất	-11.3073
phát	-11.3077
▁hò	-11.3077
▁53	-11.308
rk	-11.308
lat	-11.3082
112	-11.3091
▁82	-11.3096
▁57	-11.3104
▁hoả	-11.312
▁ver	-11.3124
▁lầu	-11.3139
▁vắc	-11.3139
▁thiêu	-11.3139
▁rèn	-11.3141
▁khoát	-11.3151
mel	-11.3153
▁ngon	-11.3156
▁adn	-11.3161
▁sir	-11.3172
hợp	-11.3186
itz	-11.3188
nhóm	-11.3208
▁nón	-11.3219
▁cua	-11.3229
fre	-11.3232
bha	-11.3247
▁rung	-11.326
ram	-11.3263
set	-11.3269
▁mun	-11.3269
oi	-11.3273
▁giật	-11.3276
▁lorentz	-11.3276
▁mêtric	-11.3276
▁nguội	-11.3276
▁versailles	-11.3276
▁rụng	-11.3276
▁gregory	-11.3278
▁trọt	-11.3279
▁nành	-11.328
ille	-11.3305
▁cúm	-11.3307
ola	-11.3314
▁1.4	-11.3325
▁star	-11.3326
▁μ	-11.3329
▁ap	-11.3335
nk	-11.3342
thần	-11.3346
lễ	-11.3354
ky	-11.3355
▁62	-11.3355
let	-11.3355
▁ix	-11.3368
cent	-11.337
"."	-11.3386
.600	-11.3407
▁cắp	-11.3415
▁descartes	-11.3415
▁sầu	-11.3415
▁nhúng	-11.3415
▁trễ	-11.3415
▁quấy	-11.3422
▁200.000	-11.3423
din	-11.343
▁cro	-11.3439
▁que	-11.3444
▁ư	-11.3456
▁40.000	-11.3458
▁85	-11.3461
▁72	-11.3461
▁2009.	-11.3464
▁94	-11.3467
doraemon	-11.3487
đơn	-11.3488
▁yo	-11.3489
▁67	-11.35
tân	-11.3501
л	-11.3507
làm	-11.3514
cca	-11.3518
than	-11.3524
▁tru	-11.353
ble	-11.3532
ire	-11.3544
▁thê	-11.3545
vis	-11.3546
▁2008.	-11.3549
▁khơ	-11.355
š	-11.3556
▁cholesterol	-11.3556
▁hadron	-11.3556
▁sẫm	-11.3556
▁tagore	-11.3556
▁thới	-11.3556
▁trưa	-11.3556
國	-11.3556
▁muỗi	-11.3556
▁jacob	-11.3556
▁piston	-11.3556
varman	-11.3556
▁mẻ	-11.356
▁ghét	-11.3561
▁tý	-11.3561
▁wto	-11.3565
▁1860	-11.3574
▁nova	-11.3578
▁vá	-11.3585
▁muôn	-11.3589
▁ngo	-11.3592
▁top	-11.3593
nus	-11.3593
rid	-11.3595
▁bộc	-11.3596
tiểu	-11.363
mặt	-11.363
điểm	-11.363
hồ	-11.3632
mét	-11.364
▁ê	-11.3667
▁soi	-11.3672
vel	-11.3675
▁61	-11.3679
▁hydroxide	-11.3699
▁lewis	-11.3699
▁syria	-11.3699
▁thối	-11.3699
▁tiếc	-11.37
▁titan	-11.3701
▁1927	-11.3707
▁2023	-11.3713
tag	-11.372
▁international	-11.3724
tis	-11.3724
▁2006.	-11.3733
cus	-11.3734
ffe	-11.3739
▁she	-11.3746
▁2011.	-11.3751
mes	-11.3751
▁95	-11.3761
▁50.000	-11.3762
đầu	-11.3775
cộng	-11.3775
▁khôn	-11.3781
▁mark	-11.3787
–17	-11.3789
ack	-11.3795
ow	-11.3806
▁pol	-11.381
kra	-11.3815
ép	-11.3826
ance	-11.3826
▁ser	-11.3827
▁tê	-11.3841
bia	-11.3841
▁bulgaria	-11.3843
▁louisiana	-11.3843
▁oxford	-11.3843
▁tokyo	-11.3843
▁vội	-11.3843
▁london	-11.3843
▁gác	-11.3843
▁champa	-11.3844
▁khế	-11.3844
▁bohr	-11.3845
▁tỳ	-11.3845
▁3,5	-11.3845
▁chuộc	-11.3845
▁dồn	-11.3846
▁phao	-11.3848
▁celt	-11.3849
▁atp	-11.385
▁buồng	-11.3851
▁xiii	-11.3851
▁xiv	-11.3855
▁sur	-11.3856
▁kanji	-11.3865
▁war	-11.3869
▁wo	-11.3879
▁ôi	-11.388
_5	-11.3899
rik	-11.39
▁130	-11.39
▁will	-11.3901
chuyển	-11.3922
▁den	-11.3925
ă	-11.3931
▁air	-11.3948
ổ	-11.3954
hải	-11.3962
▁gay	-11.3965
▁hoạ	-11.3966
old	-11.3967
▁allele	-11.3991
▁hawaii	-11.3991
▁kuiper	-11.3991
▁trũng	-11.3991
▁khoẻ	-11.3991
▁bọ	-11.3994
▁mĩ	-11.3996
▁1916	-11.3996
▁phiền	-11.3996
ối	-11.3999
▁1923	-11.4001
enne	-11.4004
▁dê	-11.4005
▁đọng	-11.4009
▁30.000	-11.4019
ska	-11.4022
▁nhô	-11.4022
dre	-11.4023
pra	-11.4024
olog	-11.4026
đi	-11.4027
▁bri	-11.4032
▁cla	-11.4061
trần	-11.4071
tại	-11.4071
hậu	-11.4072
phản	-11.4072
iêu	-11.4087
▁2004.	-11.4111
▁chan	-11.4128
ique	-11.4139
。	-11.414
▁arthur	-11.414
▁belarus	-11.414
▁bận	-11.414
▁jerusalem	-11.414
▁apple	-11.414
▁lọt	-11.4144
pho	-11.4147
▁bọt	-11.4148
▁thoi	-11.4155
▁thính	-11.4162
well	-11.4174
▁nhai	-11.4175
bel	-11.4182
5°	-11.4183
phú	-11.4188
▁1,8	-11.4192
eg	-11.4196
hóa	-11.4217
"&	-11.4219
đạt	-11.4223
▁4.000	-11.4224
thị	-11.4225
ati	-11.423
▁lau	-11.4255
cách	-11.4256
ting	-11.4264
môn	-11.4265
▁amin	-11.427
▁giu	-11.4275
bach	-11.4276
▁pen	-11.4278
▁hill	-11.4278
▁kị	-11.429
ε	-11.4291
θ	-11.4291
▁aristotle	-11.4291
▁trỏ	-11.4291
▁vovinam	-11.4291
▁ớt	-11.4291
▁huỷ	-11.4291
▁baryon	-11.4292
▁→	-11.4294
▁rủi	-11.4294
▁thêu	-11.4295
▁annan	-11.4297
▁160	-11.4305
▁75%	-11.432
▁1.500	-11.4321
▁hans	-11.4321
ito	-11.4323
▁66	-11.4325
▁140	-11.4331
lie	-11.434
awa	-11.4344
▁et	-11.4349
epi	-11.4352
mã	-11.4359
▁dán	-11.4359
bảo	-11.4377
phía	-11.4377
máy	-11.4377
thượng	-11.4378
end	-11.4384
▁trúng	-11.4384
▁sanh	-11.4396
nan	-11.4398
tư	-11.4404
shō	-11.4435
▁thề	-11.4436
oz	-11.4444
▁montréal	-11.4445
▁ngắt	-11.4445
▁rhode	-11.4445
▁khiêu	-11.4445
▁đừng	-11.4446
script	-11.4446
▁quyến	-11.4448
▁tuế	-11.4449
era	-11.4452
▁1832	-11.4461
▁gl	-11.4461
ave	-11.4463
▁oán	-11.4493
ory	-11.4504
eck	-11.4511
put	-11.4513
pur	-11.4514
▁hor	-11.4516
▁xo	-11.452
▁2.0	-11.4521
ũ	-11.4528
▁tua	-11.453
khmer	-11.4535
▁kar	-11.4536
_4	-11.454
▁100%	-11.4546
▁gel	-11.4551
▁bou	-11.4552
quảng	-11.4553
▁1.3	-11.4556
phong	-11.4572
sư	-11.458
ight	-11.4583
▁bún	-11.4586
▁dừa	-11.4601
▁entropy	-11.4601
▁tồi	-11.4601
▁đạm	-11.4601
天	-11.4601
panthera	-11.4601
▁đụng	-11.4602
▁ottoman	-11.4603
▁north	-11.4603
▁sho	-11.4603
▁alberta	-11.4617
▁inter	-11.4618
kadai	-11.4621
▁heo	-11.4636
hel	-11.4653
rum	-11.4667
▁106	-11.4672
yon	-11.4681
▁99	-11.4686
nhật	-11.4692
trị	-11.4694
idae	-11.4698
▁vã	-11.4704
▁quấ	-11.4714
ost	-11.4719
hor	-11.4719
ef	-11.472
kho	-11.4736
▁loa	-11.4736
▁ren	-11.4738
▁xoa	-11.4741
▁cọ	-11.4753
▁vé	-11.4753
▁cambridge	-11.476
▁gắt	-11.476
▁brazil	-11.476
▁chẵn	-11.476
▁sulfide	-11.476
▁brown	-11.476
▁vời	-11.4763
▁diệp	-11.4764
▁•	-11.4765
▁1901	-11.4766
▁1789	-11.478
▁1912	-11.478
▁ana	-11.4796
đá	-11.4801
▁xay	-11.4804
see	-11.4825
▁tele	-11.4826
-7	-11.4829
▁chả	-11.4833
lor	-11.4837
toàn	-11.4859
0,000	-11.4864
sử	-11.4871
kun	-11.4884
lá	-11.4888
▁pauli	-11.4889
base	-11.4898
tem	-11.491
▁cos	-11.491
▁giã	-11.4911
▁marie	-11.4913
τ	-11.4921
▁habsburg	-11.4921
▁hãi	-11.4921
▁rậm	-11.4921
▁ấu	-11.4921
▁gieo	-11.4922
ere	-11.4923
sl	-11.4924
▁bạt	-11.4925
▁organ	-11.4927
▁ngưu	-11.4931
▁lùng	-11.4936
▁95%	-11.4936
nhưng	-11.4937
▁1895	-11.4938
▁900	-11.4941
▁lee	-11.4945
rông	-11.4947
fried	-11.4956
▁0)	-11.4958
né	-11.4965
▁59	-11.4971
học	-11.4982
2+	-11.4997
stone	-11.4998
▁ván	-11.4999
▁bell	-11.5009
gần	-11.5015
kế	-11.5016
chúa	-11.5017
lục	-11.5017
cuộc	-11.5017
dos	-11.5023
▁sy	-11.5025
hat	-11.5026
▁then	-11.5031
var	-11.5034
tăng	-11.5036
▁tor	-11.5049
type	-11.5052
cái	-11.5053
▁cồ	-11.5054
fra	-11.5059
▁thự	-11.5067
nie	-11.5074
)|	-11.5079
й	-11.5085
▁argentina	-11.5085
▁giấc	-11.5085
▁gầm	-11.5085
▁mắm	-11.5085
▁ốm	-11.5085
▁toạ	-11.5086
▁đốn	-11.5088
▁rãnh	-11.5098
▁hở	-11.5099
▁#	-11.51
cr	-11.5115
ttg	-11.514
▁bô	-11.5149
▁58	-11.5163
miền	-11.5185
lúc	-11.5189
wei	-11.5191
book	-11.5204
tiến	-11.5209
năng	-11.5212
▁ten	-11.5225
▁trơn	-11.524
▁pc	-11.5241
▁manga	-11.5249
▁nt	-11.5251
ean	-11.5252
ι	-11.5252
▁golgi	-11.5252
▁iucn	-11.5252
▁moravia	-11.5252
▁ngươi	-11.5252
▁nhắn	-11.5252
▁nucleic	-11.5252
▁nậm	-11.5252
▁pasteur	-11.5252
▁mekong	-11.5252
▁scotia	-11.5252
▁ohm	-11.5252
▁liều	-11.5253
▁1906	-11.5259
▁gả	-11.5263
▁thuở	-11.528
▁chặng	-11.5285
-6	-11.5286
▁báu	-11.5289
urd	-11.5295
vn	-11.5325
▁đả	-11.5335
lum	-11.5338
▁rô	-11.5343
mir	-11.5344
mozart	-11.5353
mật	-11.5353
are	-11.5357
▁mars	-11.5376
▁thoả	-11.5385
▁nin	-11.5386
sia	-11.5387
▁trứ	-11.5388
王	-11.5421
­	-11.5421
▁dbms	-11.5421
▁kẹp	-11.5421
▁rùa	-11.5421
▁smith	-11.5421
▁ohio	-11.5421
字	-11.5422
文	-11.5422
▁2/3	-11.5422
▁kabul	-11.5422
▁ngái	-11.5423
yomi	-11.5423
▁1915	-11.5429
▁lãi	-11.5433
▁peru	-11.5436
▁1848	-11.5438
▁jacques	-11.5439
▁chip	-11.5441
▁1850	-11.5446
ding	-11.5447
over	-11.5448
▁times	-11.545
▁15.000	-11.5452
▁dịu	-11.5453
rian	-11.5461
▁lồi	-11.5462
oll	-11.547
kon	-11.5481
mart	-11.5493
win	-11.5494
▁ngai	-11.55
bor	-11.5501
▁yu	-11.5517
nguồn	-11.5526
tạng	-11.5526
vua	-11.5532
▁arch	-11.5544
▁1500	-11.5554
able	-11.5557
ava	-11.5584
▁bổng	-11.5589
▁1800	-11.559
γ	-11.5594
▁fermion	-11.5594
▁kepler	-11.5594
▁kilôgam	-11.5594
▁lứa	-11.5594
▁transistor	-11.5594
▁unicode	-11.5594
▁dọn	-11.5594
▁truất	-11.5594
...),	-11.5595
▁oai	-11.5597
▁chiên	-11.5598
▁tẻ	-11.5599
▁1909	-11.56
▁1908	-11.56
jō	-11.5608
▁quà	-11.5612
anna	-11.5615
▁by	-11.5617
▁2030	-11.5617
▁xii	-11.5622
▁nor	-11.5637
▁aids	-11.5645
hồng	-11.5651
▁bổn	-11.5657
ix	-11.5674
▁côi	-11.5694
â	-11.5696
dom	-11.5697
▁cl	-11.5699
λ	-11.57
phụ	-11.5703
bằng	-11.5704
lưu	-11.5704
▁ic	-11.5719
tất	-11.5723
▁hệt	-11.5724
virus	-11.5726
tit	-11.5734
▁fo	-11.5735
ala	-11.5737
▁pra	-11.5751
lee	-11.5752
.100	-11.5756
▁đặn	-11.5765
▁christ	-11.5769
▁bửu	-11.5769
▁debian	-11.5769
▁tía	-11.5769
▁khiếu	-11.5769
▁tuồng	-11.5769
simpson	-11.5769
▁phiêu	-11.577
▁elip	-11.577
▁intel	-11.577
▁muon	-11.5774
nov	-11.5774
▁chén	-11.5777
omic	-11.5779
ische	-11.578
▁mari	-11.5781
▁chán	-11.5782
▁neon	-11.5783
▁tuyền	-11.5784
▁phà	-11.5789
▁phùng	-11.5793
▁nạ	-11.5798
▁kam	-11.5801
▁2.500	-11.5812
ethyl	-11.5812
pin	-11.5813
hung	-11.5823
hol	-11.5832
cá	-11.5836
top	-11.5845
kg	-11.5849
▁who	-11.585
▁nộ	-11.5853
cell	-11.5855
ray	-11.5858
μ	-11.5879
▁6.000	-11.5885
war	-11.5885
chất	-11.5887
đê	-11.5887
báo	-11.5891
▁360	-11.5901
-15	-11.5903
úp	-11.592
mini	-11.592
bb	-11.5923
▁lột	-11.594
▁georg	-11.5944
óng	-11.5946
▁franz	-11.5948
▁luxembourg	-11.5948
▁stephen	-11.5948
▁taliban	-11.5948
▁trotskyist	-11.5948
▁vlaanderen	-11.5948
▁khiếp	-11.5948
▁phớ	-11.595
▁rỉ	-11.5951
▁tủa	-11.5954
▁1903	-11.5954
▁doãn	-11.5955
▁chuông	-11.5958
▁!	-11.5963
▁mạt	-11.5966
▁mur	-11.5967
king	-11.598
▁khảm	-11.5987
lau	-11.5993
▁char	-11.6
▁luca	-11.6003
▁vãn	-11.6018
▁super	-11.6023
ảnh	-11.603
ies	-11.603
mont	-11.6034
tổ	-11.6037
▁túng	-11.6044
9.000	-11.605
ika	-11.6055
thủ	-11.6057
linux	-11.6061
tòa	-11.6061
ries	-11.6064
pas	-11.6067
thay	-11.6079
asia	-11.6083
now	-11.6088
2,6	-11.6088
vào	-11.6092
▁96	-11.6097
oka	-11.61
oxy	-11.6102
dna	-11.6113
▁kí	-11.6116
▁000	-11.6122
山	-11.613
ρ	-11.613
▁hamilton	-11.613
č	-11.613
▁thạo	-11.613
▁south	-11.613
▁liềm	-11.6131
▁tủ	-11.6132
▁gott	-11.6133
▁diễu	-11.6134
▁nagar	-11.6135
▁0,5	-11.6135
mà	-11.6135
▁vòm	-11.6136
▁1907	-11.6137
▁1902	-11.6137
▁bôi	-11.6142
ibn	-11.6143
▁khoái	-11.6143
300	-11.6154
▁dan	-11.6159
▁kiêng	-11.6165
.900	-11.6177
▁cau	-11.6192
sil	-11.6199
▁68	-11.62
▁sò	-11.6208
uối	-11.6208
gle	-11.6208
elli	-11.6222
▁pô	-11.6228
▁jane	-11.6228
col	-11.6235
nội	-11.6247
giống	-11.6248
vũ	-11.625
chân	-11.6252
▁1,3	-11.6253
▁đành	-11.6253
▁len	-11.626
▁anti	-11.6263
▁radi	-11.6267
▁api	-11.6278
▁philip	-11.6279
ini	-11.6289
▁sô	-11.6293
onia	-11.6314
hara	-11.6315
ω	-11.6315
▁eisenhower	-11.6315
▁hắn	-11.6315
▁leibniz	-11.6315
▁lượm	-11.6315
▁sỏi	-11.6315
▁tẩu	-11.6315
▁stream	-11.6315
▁vọt	-11.6315
▁lị	-11.6315
▁carolina	-11.6315
▁khép	-11.6315
▁thiếp	-11.6315
▁island	-11.6317
▁alexandre	-11.6317
▁gang	-11.632
▁victoria	-11.6322
▁1904	-11.6323
▁niêm	-11.6323
▁chài	-11.6325
▁×	-11.6327
ast	-11.6328
▁jr	-11.6328
▁ms	-11.6329
ột	-11.6333
▁1888	-11.6334
nar	-11.6338
▁cộ	-11.6341
stadt	-11.6341
hydr	-11.6349
stre	-11.6353
▁tau	-11.6374
▁gram	-11.6375
cre	-11.6381
▁pali	-11.6384
▁úp	-11.6386
▁plato	-11.639
▁ali	-11.6403
▁chơ	-11.6405
12)	-11.6415
bol	-11.6415
...".	-11.6416
▁ách	-11.6418
▁(11	-11.6423
▁zi	-11.6428
▁86	-11.6429
tình	-11.6435
thủy	-11.6443
▁3.0	-11.6471
▁mono	-11.6474
▁1,6	-11.6476
▁4%	-11.6478
▁nui	-11.6481
shin	-11.649
南	-11.6504
ē	-11.6504
▁bấm	-11.6504
▁bầy	-11.6504
▁gluon	-11.6504
▁oecd	-11.6504
▁mịn	-11.6504
▁uefa	-11.6504
▁munich	-11.6504
▁nhốt	-11.6505
▁mendel	-11.6505
▁cừu	-11.6506
▁500.000	-11.6507
▁kiêu	-11.6508
▁1.7	-11.6509
▁vảy	-11.6509
▁chọc	-11.651
▁lở	-11.6511
▁vấp	-11.6526
▁véc	-11.6526
ston	-11.6532
ưu	-11.6534
▁alan	-11.6536
▁sọc	-11.6537
kal	-11.6538
ret	-11.6542
ssen	-11.6548
▁2%	-11.6559
▁ara	-11.6586
▁cúc	-11.6591
moni	-11.6592
▁wien	-11.6595
▁doraemon	-11.6597
mail	-11.66
rich	-11.661
ộc	-11.6626
▁win	-11.6631
rib	-11.6635
▁luc	-11.6636
tiêu	-11.6638
tối	-11.6638
▁bin	-11.6639
▁ger	-11.6639
bất	-11.664
▁mont	-11.6641
▁1,1	-11.6649
ios	-11.6651
▁inc	-11.6652
▁nhũ	-11.6663
▁220	-11.6679
▁west	-11.6682
▁proto	-11.6688
late	-11.6688
▁thạc	-11.6692
▁8%	-11.6692
-14	-11.6693
▁jefferson	-11.6696
▁nứt	-11.6696
▁pennsylvania	-11.6696
▁quebec	-11.6696
▁rowling	-11.6696
▁sấm	-11.6696
▁group	-11.6696
▁anime	-11.6696
▁phiệt	-11.6696
▁dìu	-11.6698
▁taylor	-11.6699
++	-11.6699
▁thuột	-11.6702
bat	-11.6703
▁bóp	-11.6707
▁1.5	-11.6708
▁mâm	-11.671
▁inch	-11.6713
yō	-11.6716
aux	-11.6728
▁khốc	-11.6733
▁bệ	-11.6736
▁buông	-11.6742
▁mài	-11.6743
phan	-11.6743
▁giày	-11.6745
▁tom	-11.675
tít	-11.6755
▁gom	-11.6758
for	-11.6761
2).	-11.6771
homo	-11.6797
ator	-11.6808
▁yến	-11.6817
dale	-11.6817
khối	-11.6824
vương	-11.6829
▁pyr	-11.6832
ima	-11.6866
zan	-11.6869
▁mode	-11.6869
ký	-11.6876
photo	-11.688
▁wall	-11.6881
▁io	-11.6883
hổ	-11.6884
▁vế	-11.689
▁main	-11.6891
cật	-11.6892
м	-11.6892
▁amsterdam	-11.6892
▁android	-11.6892
▁bangladesh	-11.6892
▁bundesliga	-11.6892
▁lisboa	-11.6892
▁ngoặt	-11.6892
▁nứa	-11.6892
▁sắn	-11.6892
▁vladimir	-11.6892
▁raglai	-11.6892
▁khỉ	-11.6892
▁christian	-11.6893
▁darwin	-11.6893
▁ngả	-11.6893
▁gaulle	-11.6894
▁ête	-11.6894
▁quạt	-11.6895
▁hiên	-11.6895
▁ngơi	-11.6896
▁sào	-11.6896
▁rộ	-11.6897
=112	-11.6898
220	-11.6899
▁thoải	-11.69
▁mân	-11.6901
chia	-11.6901
pol	-11.6902
▁ada	-11.6902
rius	-11.6904
▁khao	-11.6904
▁trơ	-11.691
▁pop	-11.6912
▁1898	-11.6916
▁nang	-11.6917
▁ròng	-11.6919
▁tòng	-11.6919
plan	-11.692
▁nà	-11.6923
▁baptist	-11.6927
▁mil	-11.6928
nv	-11.6932
▁tệp	-11.6934
650	-11.6944
she	-11.6945
lov	-11.6961
kam	-11.6971
aq	-11.6973
▁1.8	-11.6975
zy	-11.6978
▁há	-11.6982
ney	-11.6987
dự	-11.7002
▁ken	-11.7012
áp	-11.7013
general	-11.7023
nghị	-11.703
giao	-11.7036
tác	-11.704
▁3000	-11.704
nối	-11.704
▁1.6	-11.7054
đô	-11.7057
ỷ	-11.7064
lex	-11.7085
xa	-11.709
▁69	-11.7092
ο	-11.7092
▁fractal	-11.7092
▁manchester	-11.7092
▁massachusetts	-11.7092
▁schrödinger	-11.7092
▁lề	-11.7092
▁thiếc	-11.7092
dharma	-11.7092
▁ppm	-11.7092
▁putin	-11.7093
▁tót	-11.7093
▁thốt	-11.7093
nit	-11.7094
donald	-11.7095
▁nàn	-11.7097
▁nại	-11.71
▁bế	-11.71
▁georgia	-11.7101
▁chui	-11.7102
iva	-11.7102
bsd	-11.7107
▁art	-11.7111
▁red	-11.7119
▁chiền	-11.712
▁gaul	-11.7134
▁wal	-11.7143
minh	-11.7157
▁jim	-11.7158
▁gui	-11.7158
▁110	-11.7169
mbo	-11.7178
▁15%	-11.7179
▁ló	-11.7196
▁phosphat	-11.7202
▁13%	-11.7209
ford	-11.7215
vā	-11.7219
lãnh	-11.7228
đời	-11.7228
trans	-11.7231
▁mùng	-11.7237
▁lev	-11.7239
▁xinh	-11.7245
hơn	-11.7249
▁01	-11.7251
los	-11.7253
ản	-11.7257
▁sil	-11.727
▁elizabeth	-11.7296
▁heinrich	-11.7296
▁lympho	-11.7296
▁navarre	-11.7296
▁hới	-11.7296
deutsche	-11.7296
▁mía	-11.7296
▁free	-11.7296
▁bmw	-11.7296
đăk	-11.7296
▁dirac	-11.7296
▁91	-11.7297
▁romania	-11.7297
manuel	-11.7298
▁white	-11.7299
▁sâm	-11.7307
▁hâm	-11.7308
▁positron	-11.7315
6)	-11.7319
▁bón	-11.7327
hō	-11.7328
hiệp	-11.7337
=56	-11.7338
▁1802	-11.7342
of	-11.7349
▁georges	-11.7351
malay	-11.7351
▁jos	-11.7352
▁toa	-11.7356
▁dưa	-11.7357
▁sea	-11.7359
▁101	-11.7359
▁mili	-11.7361
▁sco	-11.738
side	-11.7383
250	-11.7385
enberg	-11.7387
ée	-11.7409
▁lay	-11.7409
comp	-11.742
$	-11.7436
đảo	-11.7436
tâm	-11.7469
ward	-11.747
ường	-11.747
▁rapa	-11.7488
▁0,1	-11.7492
bul	-11.7495
ơn	-11.7498
iếp	-11.7503
▁tì	-11.7504
▁chicago	-11.7504
▁colombia	-11.7504
▁hươu	-11.7504
▁indravarman	-11.7504
▁rắc	-11.7504
▁wilson	-11.7504
▁wolfgang	-11.7504
▁caribe	-11.7504
▁gulf	-11.7504
▁loãng	-11.7504
▁nới	-11.7504
▁gạt	-11.7504
▁acetyl	-11.7505
▁great	-11.7505
▁chướng	-11.7508
▁roger	-11.7509
▁sumer	-11.7509
iển	-11.751
▁chiêng	-11.751
▁đoái	-11.751
ượng	-11.7512
▁300.000	-11.7513
gha	-11.7513
▁1880	-11.7525
▁60.000	-11.7528
▁ngủi	-11.7529
▁1876	-11.7529
▁cọc	-11.7529
▁edwards	-11.7537
▁national	-11.7543
▁ải	-11.7564
▁77	-11.7567
mal	-11.7568
lock	-11.7582
▁chứt	-11.7586
kō	-11.7613
ration	-11.7624
gam	-11.7624
hòn	-11.764
hip	-11.7642
▁shah	-11.7643
ous	-11.7648
truyện	-11.7649
nơi	-11.7649
nhiều	-11.765
thư	-11.7655
vân	-11.7657
xanh	-11.7658
ova	-11.7658
▁350	-11.767
chương	-11.7671
dha	-11.7679
bá	-11.769
▁hé	-11.7693
_6	-11.7696
▁cò	-11.7711
▁barcelona	-11.7717
▁bohemia	-11.7717
▁bẩm	-11.7717
▁lawrence	-11.7717
▁muhammad	-11.7717
▁olympic	-11.7717
▁schwarzschild	-11.7717
▁sulfuric	-11.7717
▁trèo	-11.7717
▁vần	-11.7717
hđbt	-11.7717
▁baroque	-11.7717
▁cưỡi	-11.7717
▁ernest	-11.7717
▁vitamin	-11.7717
▁daniel	-11.7717
▁hsv	-11.7717
▁nepal	-11.7718
▁space	-11.7718
sql	-11.7718
▁andrew	-11.7718
9,5	-11.7722
▁meson	-11.7722
▁sá	-11.7725
▁mễ	-11.7728
▁1891	-11.773
▁fro	-11.7732
▁ngà	-11.7734
▁1899	-11.7738
▁1862	-11.7738
▁1871	-11.774
▁byte	-11.7751
chí	-11.7752
=57	-11.7758
80.000	-11.776
urs	-11.776
7,5	-11.7764
▁hun	-11.777
off	-11.7772
bur	-11.7801
rạng	-11.781
▁má	-11.7811
▁kìm	-11.7811
▁81	-11.7815
há	-11.7833
syn	-11.7845
ula	-11.7849
▁170	-11.7849
▁schu	-11.7863
tuyên	-11.7867
giờ	-11.7868
thống	-11.787
▁zu	-11.7874
zer	-11.7892
▁jose	-11.791
▁ghé	-11.7923
iệt	-11.7925
▁ross	-11.7928
tế	-11.7931
▁byzantine	-11.7935
▁ferdinand	-11.7935
▁lhq	-11.7935
▁lận	-11.7935
▁lắc	-11.7935
▁nồi	-11.7935
▁phèn	-11.7935
▁rhett	-11.7935
▁thặng	-11.7935
▁warszawa	-11.7935
▁serbia	-11.7935
kursk	-11.7935
▁server	-11.7935
▁chước	-11.7936
▁toản	-11.7936
▁tiệm	-11.7937
naga	-11.7937
▁uất	-11.7938
▁vạc	-11.7942
ket	-11.7943
▁bìa	-11.7947
▁%	-11.795
feld	-11.7953
quang	-11.7954
▁1884	-11.7956
ette	-11.7957
▁1887	-11.7959
▁1870	-11.7962
iii	-11.7971
▁fri	-11.7972
▁nanh	-11.7974
shu	-11.7977
▁lẻo	-11.7981
▁ưng	-11.7989
spar	-11.7998
ensis	-11.8
eur	-11.8005
ics	-11.8016
ỗi	-11.8023
▁125	-11.8025
▁3%	-11.8031
phone	-11.8044
assa	-11.8045
úng	-11.8045
tō	-11.805
ằng	-11.8062
sách	-11.8088
pot	-11.8089
▁xảo	-11.8091
khí	-11.8093
oxide	-11.8095
vị	-11.8095
hồi	-11.8096
dan	-11.8097
ert	-11.8106
▁glyc	-11.8114
▁rong	-11.8118
▁lội	-11.8119
ẻo	-11.8122
▁monte	-11.8122
▁phô	-11.8123
stro	-11.8124
ucc	-11.8127
chan	-11.814
▁1,4	-11.8156
▁lăn	-11.8156
▁assyria	-11.8157
▁frederick	-11.8157
▁harvard	-11.8157
▁iberia	-11.8157
▁jordan	-11.8157
▁scandinavia	-11.8157
▁thomson	-11.8157
▁île	-11.8157
▁sói	-11.8157
▁đéc	-11.8157
cassini	-11.8157
▁nhưỡng	-11.8157
▁point	-11.8158
▁norman	-11.8158
▁andré	-11.8158
▁thâu	-11.8159
▁troia	-11.8159
▁cười	-11.816
▁nghiện	-11.8161
low	-11.8163
iềm	-11.8163
▁chảo	-11.8164
▁françois	-11.8167
rā	-11.817
▁6%	-11.8177
▁australia	-11.8178
▁viền	-11.8179
▁1897	-11.818
far	-11.8184
▁chèn	-11.8184
pala	-11.8188
dō	-11.82
▁wood	-11.8202
▁δ	-11.8208
▁hốt	-11.8217
▁hạo	-11.8232
tôn	-11.8263
▁nã	-11.8269
▁2,7	-11.8278
quin	-11.8279
vàng	-11.8293
xá	-11.8308
▁đôla	-11.8314
fluoride	-11.8315
dịch	-11.8319
ike	-11.832
nhất	-11.8321
▁lạch	-11.8323
tiên	-11.8325
sơn	-11.8326
/18	-11.8328
ừ	-11.8333
ular	-11.8341
▁cad	-11.8342
tain	-11.8348
american	-11.8357
box	-11.8363
▁oc	-11.837
▁para	-11.837
ovich	-11.8381
▁dẹt	-11.8384
▁gấm	-11.8384
▁lợp	-11.8384
▁nhặt	-11.8384
▁nunavut	-11.8384
▁pleiku	-11.8384
▁sihanouk	-11.8384
▁torvalds	-11.8384
▁đẽo	-11.8384
▁bỗng	-11.8384
▁gustav	-11.8384
▁serge	-11.8385
▁johannes	-11.8387
▁axít	-11.8387
▁sahara	-11.8388
▁turk	-11.8389
pati	-11.8391
▁hmông	-11.8397
▁tỵ	-11.8397
▁ak	-11.84
▁1791	-11.84
▁căm	-11.8403
post	-11.8403
nghệ	-11.8407
▁1889	-11.8409
▁1886	-11.841
_8	-11.841
▁phông	-11.8421
▁sộ	-11.8424
▁cation	-11.8431
▁rôman	-11.8435
kai	-11.8438
house	-11.8446
amin	-11.8448
2000	-11.845
▁trá	-11.8459
▁mỏi	-11.8486
poli	-11.8489
▁khuê	-11.849
▁vol	-11.8492
right	-11.8515
rạch	-11.8546
einstein	-11.8549
phiên	-11.8549
đánh	-11.8553
kẻ	-11.8555
thụ	-11.8555
▁lung	-11.8572
hùa	-11.8587
tier	-11.859
air	-11.8591
▁1/10	-11.8593
▁cưa	-11.8607
général	-11.8617
κ	-11.8617
▁boltzmann	-11.8617
▁buồm	-11.8617
▁bắp	-11.8617
▁dậu	-11.8617
▁gorbachev	-11.8617
▁himalaya	-11.8617
▁hormone	-11.8617
▁lõm	-11.8617
▁saddam	-11.8617
ł	-11.8617
▁mệt	-11.8617
▁cobalt	-11.8617
▁gauss	-11.8617
▁christoph	-11.8617
ization	-11.8617
▁ạt	-11.8617
▁tetra	-11.8618
▁thoáng	-11.8619
▁kiev	-11.8619
té	-11.8619
▁2.6	-11.862
▁dối	-11.862
▁methyl	-11.8621
▁rico	-11.8621
▁krông	-11.8622
▁slam	-11.8622
▁codon	-11.8622
▁teluri	-11.8623
▁phệ	-11.8623
▁oanh	-11.8623
▁nọ	-11.8624
▁lót	-11.8626
russia	-11.8628
▁city	-11.863
▁mò	-11.8632
down	-11.8637
▁united	-11.8642
▁7%	-11.8644
▁vác	-11.8644
back	-11.8646
hin	-11.865
▁lyon	-11.865
shire	-11.8651
400	-11.8662
▁philipp	-11.8662
gram	-11.8664
slav	-11.8666
▁1.200	-11.8673
▁kro	-11.8684
đó	-11.8687
=25	-11.8688
▁mary	-11.8701
▁neu	-11.8731
ald	-11.8734
reg	-11.8756
▁mến	-11.8763
àn	-11.8773
▁vr	-11.8778
fluor	-11.8786
bắt	-11.8786
truyền	-11.8786
world	-11.8786
50.000	-11.8787
dòng	-11.879
▁bank	-11.8793
hương	-11.8801
pal	-11.8827
poly	-11.8828
hàm	-11.8834
▁lượn	-11.885
▁alcohol	-11.8855
▁ayutthaya	-11.8855
▁bưởi	-11.8855
▁houston	-11.8855
▁leopold	-11.8855
▁đắm	-11.8855
▁giồng	-11.8855
▁hẻm	-11.8855
▁hecta	-11.8855
▁chưởng	-11.8855
▁bbc	-11.8855
▁khấn	-11.8856
▁hooke	-11.8856
▁cern	-11.8856
▁truman	-11.8856
▁camera	-11.8857
▁cừ	-11.8857
▁400.000	-11.8858
▁ngói	-11.8859
▁gối	-11.886
▁altai	-11.886
_10	-11.8862
▁gpl	-11.8863
▁viking	-11.8864
shū	-11.8865
▁1877	-11.8871
▁tộ	-11.8876
▁1792	-11.8876
=33	-11.8877
▁pét	-11.889
tā	-11.8896
pper	-11.89
▁1820	-11.8903
tham	-11.8907
sche	-11.891
sson	-11.892
đồ	-11.8926
gri	-11.8932
▁ath	-11.8936
–15	-11.8945
▁thùy	-11.8947
pet	-11.8953
hàng	-11.8953
cio	-11.8954
▁1.9	-11.8968
▁2,1	-11.897
bio	-11.8971
chế	-11.8977
indo	-11.898
ṇ	-11.9025
kể	-11.9037
tỷ	-11.904
▁đản	-11.906
▁code	-11.9063
itu	-11.9063
▁bp	-11.9064
1,5%	-11.9068
▁109	-11.907
▁chai	-11.9075
hắt	-11.9092
▁vietnam	-11.9098
▁adolf	-11.9099
▁danube	-11.9099
▁dặn	-11.9099
▁faraday	-11.9099
▁kawabata	-11.9099
▁lincoln	-11.9099
▁lặc	-11.9099
▁network	-11.9099
▁orleans	-11.9099
▁samuel	-11.9099
▁thớt	-11.9099
▁uyển	-11.9099
▁đẩu	-11.9099
▁gauge	-11.9099
office	-11.9099
▁trỗi	-11.9099
▁alexandria	-11.9099
▁luộc	-11.9099
italia	-11.9099
▁rằm	-11.9099
▁venera	-11.91
▁nhở	-11.9102
▁nhuệ	-11.9103
▁cằn	-11.9104
▁seine	-11.9105
uerto	-11.9105
▁cước	-11.9111
ợt	-11.9115
▁taira	-11.9119
myō	-11.912
▁1815	-11.9121
cụ	-11.9122
▁85%	-11.9122
▁khốn	-11.9124
▁1783	-11.9128
▁mìn	-11.9128
mol	-11.9131
▁1830	-11.9131
ière	-11.9134
▁1600	-11.9136
▁hanh	-11.9141
=46	-11.9146
ella	-11.9153
aire	-11.9156
▁12%	-11.9159
nôm	-11.9168
une	-11.9172
buddha	-11.9179
▁congo	-11.9189
time	-11.9197
▁2,4	-11.9231
nó	-11.9244
▁ồn	-11.9248
đế	-11.9271
vĩnh	-11.928
đảng	-11.928
aids	-11.9281
thiết	-11.9281
dưới	-11.9282
thánh	-11.9284
itch	-11.9286
giê	-11.9289
sing	-11.9297
phù	-11.9308
ằn	-11.9335
yên	-11.9339
▁chốn	-11.9344
▁cyanide	-11.9349
▁gabriel	-11.9349
▁hussein	-11.9349
▁linnaeus	-11.9349
▁ludwig	-11.9349
▁mississippi	-11.9349
▁mozilla	-11.9349
▁đũa	-11.9349
tvqh	-11.9349
▁cyclin	-11.9349
▁lửng	-11.9349
▁rêu	-11.9349
▁covid	-11.9349
▁album	-11.9349
▁qubit	-11.9349
▁răn	-11.9349
▁phosphor	-11.9349
▁utc	-11.935
▁tằm	-11.935
▁ngoan	-11.9351
▁ồ	-11.9351
▁khắt	-11.9352
▁cook	-11.9353
▁miệt	-11.9353
▁tantal	-11.9355
-1954	-11.9358
▁tăm	-11.936
▁mè	-11.9365
▁sưởi	-11.9366
▁arm	-11.937
▁1893	-11.9372
▁1863	-11.9373
▁chăng	-11.9373
▁1869	-11.9373
▁neo	-11.9374
▁unikey	-11.9374
▁glyco	-11.9382
▁mả	-11.9403
bro	-11.9408
lease	-11.9411
ité	-11.942
▁nara	-11.9421
▁1/2	-11.9421
▁cồng	-11.9424
ṇa	-11.9424
▁xxi	-11.9431
3,7	-11.9437
▁sim	-11.9438
ved	-11.9439
bahn	-11.9439
chel	-11.9446
8,5	-11.9449
▁nhớt	-11.9449
▁1400	-11.9456
▁juan	-11.9464
sub	-11.947
▁bơ	-11.9474
▁rá	-11.9474
/63	-11.9479
▁end	-11.9489
aria	-11.9493
▁roman	-11.9504
▁time	-11.951
vạn	-11.9537
luật	-11.9537
cần	-11.9537
lại	-11.9537
lipid	-11.9546
haus	-11.9546
grad	-11.9557
biến	-11.9563
▁rò	-11.9576
600	-11.9601
▁prince	-11.9604
▁benjamin	-11.9605
▁giovanni	-11.9605
▁pleistocen	-11.9605
▁taekwondo	-11.9605
▁wojtyła	-11.9605
▁guinea	-11.9605
▁khuỷu	-11.9605
▁bangkok	-11.9605
▁cạp	-11.9605
pluto	-11.9605
▁boston	-11.9606
▁hermann	-11.9606
▁rổ	-11.9608
▁dỗ	-11.961
▁dỡ	-11.9611
▁thán	-11.9611
▁hrê	-11.9611
▁đắng	-11.9615
▁rộn	-11.9616
▁tâu	-11.9621
▁maser	-11.9622
▁ayu	-11.9622
▁domain	-11.9625
▁green	-11.9637
▁1840	-11.9647
▁dạt	-11.9654
main	-11.9655
▁mir	-11.966
▁4,5	-11.968
▁khay	-11.9681
▁118	-11.9692
▁yang	-11.9694
trang	-11.9695
▁sạ	-11.9704
para	-11.9705
▁ford	-11.9708
2015	-11.9709
ệp	-11.9717
gate	-11.9741
▁450	-11.9742
/7	-11.9754
▁mini	-11.9776
▁ghe	-11.9782
hữu	-11.9786
1991	-11.9788
dù	-11.9792
sắc	-11.98
phạm	-11.98
formula	-11.98
hòa	-11.98
đây	-11.9809
kara	-11.9809
graph	-11.9816
▁tel	-11.9819
bát	-11.9823
cổ	-11.9833
miến	-11.9835
▁phò	-11.9836
▁115	-11.9836
▁tò	-11.9838
quả	-11.9841
▁kè	-11.9864
▁beaufort	-11.9868
▁bolshevik	-11.9868
▁desktop	-11.9868
▁explorer	-11.9868
▁foundation	-11.9868
▁rhein	-11.9868
▁rutherford	-11.9868
▁sập	-11.9868
▁toronto	-11.9868
▁wimbledon	-11.9868
▁diesel	-11.9868
kyōto	-11.9868
▁finney	-11.9868
▁lướt	-11.9869
▁khước	-11.9869
▁cháo	-11.987
dore	-11.987
▁luang	-11.987
▁thpt	-11.987
▁modul	-11.9871
▁email	-11.9871
▁media	-11.9872
ines	-11.9873
▁nhấp	-11.9874
▁vijaya	-11.9874
▁file	-11.9875
▁hít	-11.9876
istan	-11.9876
▁oop	-11.9876
▁cdk	-11.9877
▁adams	-11.9877
▁carlos	-11.9878
eep	-11.9878
▁rây	-11.9882
▁liga	-11.9882
alumin	-11.9883
▁hinh	-11.9884
▁sả	-11.9889
▁1894	-11.989
▁1896	-11.989
enburg	-11.9893
▁polynesia	-11.9893
▁1885	-11.9897
câu	-11.9898
▁black	-11.9901
▁nhâ	-11.9901
▁1803	-11.9904
bacteria	-11.9904
▁tata	-11.9928
iso	-11.9933
stru	-11.9933
▁1,7	-11.9958
cây	-11.9969
▁18%	-11.9983
azi	-12.0002
▁fin	-12.0006
800	-12.0014
▁shin	-12.0031
ịch	-12.0063
▁fort	-12.0068
tín	-12.0068
150	-12.0069
loại	-12.007
kỹ	-12.007
quyền	-12.0071
phủ	-12.0073
khác	-12.0073
kỳ	-12.0073
▁đọ	-12.009
▁basel	-12.0096
▁oss	-12.0097
coa	-12.0107
▁lim	-12.0113
ngũ	-12.0128
đến	-12.013
▁gold	-12.0132
òng	-12.0133
▁http	-12.0135
▁miện	-12.0136
▁corporation	-12.0138
▁cữu	-12.0138
▁giầy	-12.0138
▁halogen	-12.0138
▁hilbert	-12.0138
▁katrina	-12.0138
▁phospholipid	-12.0138
▁phẫn	-12.0138
▁polaris	-12.0138
▁românia	-12.0138
▁sachsen	-12.0138
▁service	-12.0138
▁antoine	-12.0138
▁iceland	-12.0138
▁kẹo	-12.0138
▁nitrat	-12.0138
▁xót	-12.0138
▁xoài	-12.0139
▁vector	-12.0139
▁vả	-12.0139
▁michel	-12.0139
▁kilo	-12.0142
▁rét	-12.0144
▁vạt	-12.0144
water	-12.0147
▁trát	-12.0149
▁gien	-12.015
▁bazan	-12.0152
đo	-12.0155
▁computer	-12.0157
▁1882	-12.0158
▁1892	-12.016
sui	-12.0161
▁1846	-12.0162
2,5	-12.0163
▁xua	-12.0165
▁young	-12.0166
▁mổ	-12.0171
▁page	-12.0174
▁kant	-12.0185
=55	-12.0197
▁chanh	-12.0197
▁sikh	-12.0197
ựa	-12.0197
▁rus	-12.0203
▁nem	-12.0213
▁xát	-12.0217
▁lip	-12.0222
▁1700	-12.0225
▁form	-12.0243
▁λ	-12.0247
▁jun	-12.0258
▁shan	-12.0273
hydro	-12.0281
koku	-12.0291
▁320	-12.0292
▁cape	-12.0298
inger	-12.03
▁0,2	-12.0319
wen	-12.0324
▁doạ	-12.0335
▁med	-12.0339
chưa	-12.0348
thiền	-12.0348
phường	-12.0349
xít	-12.035
hoạt	-12.035
gái	-12.0358
▁penn	-12.0361
▁2.3	-12.0367
▁108	-12.037
quá	-12.0408
▁phàn	-12.0415
blitzkrieg	-12.0416
▁brandenburg	-12.0416
▁bừa	-12.0416
▁chỏm	-12.0416
▁hollywood	-12.0416
▁muội	-12.0416
▁nắp	-12.0416
▁trầu	-12.0416
▁zürich	-12.0416
▁giục	-12.0416
▁nách	-12.0416
▁opec	-12.0416
www	-12.0416
saxon	-12.0418
▁fifa	-12.0418
▁orion	-12.0418
▁nhộn	-12.0418
▁thắp	-12.0419
▁phở	-12.0419
▁moai	-12.042
▁karol	-12.0421
▁chê	-12.0421
▁thắc	-12.0424
▁thuỷ	-12.0424
▁250.000	-12.0426
▁xâu	-12.0428
▁hăng	-12.0428
▁phiện	-12.0429
▁trna	-12.0434
▁choàng	-12.0434
▁phàm	-12.0434
▁1861	-12.0441
▁1868	-12.0442
▁america	-12.0449
▁1788	-12.045
more	-12.0452
kawa	-12.0456
ché	-12.0458
▁cúi	-12.0459
multi	-12.0498
part	-12.0509
▁phai	-12.0515
▁tánh	-12.0544
▁franco	-12.0552
▁kor	-12.0552
480	-12.0554
hof	-12.0608
hầu	-12.0625
680	-12.063
lend	-12.0631
▁phỉ	-12.0633
bệnh	-12.0634
lời	-12.0634
esse	-12.0635
vòng	-12.0637
mỗi	-12.0647
0,6	-12.0648
2016	-12.0654
tát	-12.0663
▁ngọ	-12.0665
star	-12.0665
▁lọ	-12.0682
anti	-12.0683
▁eur	-12.0686
▁mass	-12.0692
ides	-12.0696
▁hell	-12.0696
coli	-12.0698
mycobacterium	-12.0702
▁mikhail	-12.0702
▁ngoặc	-12.0702
▁obama	-12.0702
▁silesia	-12.0702
▁xtiêng	-12.0702
▁graphit	-12.0702
▁balkan	-12.0702
pioneer	-12.0702
▁vỹ	-12.0702
▁project	-12.0702
▁trượng	-12.0702
▁ayumi	-12.0703
▁vuốt	-12.0703
▁praha	-12.0703
▁bering	-12.0704
▁tró	-12.0704
▁lừng	-12.0705
▁thiểm	-12.0708
▁vòi	-12.0708
▁xoá	-12.071
ative	-12.071
▁ráo	-12.0713
▁paulus	-12.0714
▁quất	-12.0718
▁koch	-12.072
▁1858	-12.0726
▁petersburg	-12.0729
▁củi	-12.0729
▁silicat	-12.073
▁1795	-12.0737
beck	-12.0738
▁1790	-12.0745
▁25.000	-12.0749
▁dại	-12.075
ware	-12.0753
▁gio	-12.0755
0)	-12.0757
▁π	-12.0758
▁huynh	-12.0771
hằng	-12.0771
=100	-12.0775
▁35%	-12.0784
▁ml	-12.0786
ichi	-12.0795
0,5%	-12.08
pont	-12.0809
▁255	-12.0813
▁polymer	-12.0824
bir	-12.0826
▁ivan	-12.0835
▁thúy	-12.0844
light	-12.0845
▁card	-12.0848
code	-12.0863
▁phách	-12.0869
▁điên	-12.0881
0,2%	-12.0884
▁indi	-12.089
bồ	-12.091
ball	-12.0918
hỏa	-12.0925
france	-12.0927
đứng	-12.0928
thuyết	-12.0928
nghiên	-12.0928
mùa	-12.0928
phá	-12.0929
nguy	-12.0929
▁act	-12.0932
▁bot	-12.0932
ự	-12.0936
▁kara	-12.094
trí	-12.0942
▁đè	-12.0976
hờ	-12.0977
ưởng	-12.0987
▁đố	-12.0992
▁algérie	-12.0996
▁bẩn	-12.0996
▁chật	-12.0996
▁douglas	-12.0996
▁ernst	-12.0996
▁espresso	-12.0996
▁foucault	-12.0996
▁jazz	-12.0996
▁jonathan	-12.0996
▁lavoisier	-12.0996
▁nghênh	-12.0996
▁ngoạn	-12.0996
▁rưỡi	-12.0996
▁science	-12.0996
▁weimar	-12.0996
▁hợi	-12.0996
▁mõm	-12.0996
▁reagan	-12.0996
▁riemann	-12.0996
▁website	-12.0996
▁alpes	-12.0996
▁méo	-12.0996
▁mụn	-12.0996
▁vóc	-12.0996
▁england	-12.0996
▁galilei	-12.0996
▁thiều	-12.0996
▁donau	-12.0997
▁club	-12.0997
▁walter	-12.0997
▁khất	-12.0997
▁watson	-12.0997
▁đuối	-12.0998
▁phêrô	-12.0999
▁lén	-12.1
▁náo	-12.1002
▁clb	-12.1003
▁chồi	-12.1003
▁adam	-12.1004
▁hydrogen	-12.1005
▁mỉ	-12.1007
▁chày	-12.1014
dorf	-12.1014
▁quyên	-12.1018
▁1471	-12.102
▁bose	-12.1021
▁1873	-12.1021
▁sunda	-12.1023
3.6	-12.1023
rod	-12.1033
▁blues	-12.1035
▁99%	-12.1035
▁1776	-12.1037
shan	-12.1039
=72	-12.1045
▁emil	-12.1049
▁css	-12.1066
▁kheo	-12.1072
wald	-12.1074
▁27%	-12.1077
apura	-12.108
▁kem	-12.1094
▁nến	-12.1098
illa	-12.11
▁samari	-12.1105
0,1%	-12.1114
lí	-12.1133
kee	-12.1134
jaya	-12.1141
0.0	-12.1183
▁ele	-12.1192
▁gre	-12.1192
oud	-12.1203
6.2	-12.1216
real	-12.1226
1,5	-12.1227
δ	-12.123
thập	-12.1231
lợi	-12.1231
xuân	-12.1231
electron	-12.1242
cast	-12.1247
▁blu	-12.1248
hoàn	-12.1255
kết	-12.1263
▁nucleo	-12.1267
▁thốn	-12.1295
ß	-12.1299
▁bần	-12.1299
▁dật	-12.1299
▁ethiopia	-12.1299
▁hudson	-12.1299
▁khrushchev	-12.1299
▁kiệu	-12.1299
▁mission	-12.1299
▁rugby	-12.1299
▁rìu	-12.1299
▁sếu	-12.1299
▁taqt	-12.1299
école	-12.1299
▁frisia	-12.1299
▁bavaria	-12.1299
reichs	-12.13
▁scott	-12.13
▁ghềnh	-12.13
▁union	-12.13
▁điềm	-12.13
bwv	-12.1301
▁eugen	-12.1302
▁mỳ	-12.1303
▁shiva	-12.1303
▁ronaldo	-12.1303
▁open	-12.1304
▁barca	-12.1305
▁trán	-12.1308
-1975	-12.131
meta	-12.1311
▁charon	-12.1315
▁kình	-12.1319
▁têm	-12.1321
▁tè	-12.1322
▁1864	-12.1325
▁1835	-12.1327
▁điếm	-12.1328
▁thau	-12.1331
▁fdi	-12.1333
▁anion	-12.1334
▁máng	-12.1347
enni	-12.1356
sso	-12.1358
▁east	-12.1359
▁2.1	-12.1359
▁2,2	-12.1392
▁bạ	-12.1396
illo	-12.1411
▁guy	-12.1413
0,7%	-12.1415
1.1	-12.142
huế	-12.1437
▁bẻ	-12.144
nath	-12.1461
▁jer	-12.1466
▁williams	-12.1476
istic	-12.1483
etyl	-12.1489
luna	-12.1533
▁sú	-12.1539
đọc	-12.1543
tạm	-12.1543
núi	-12.1543
▁4000	-12.1543
nhã	-12.1545
phổ	-12.1551
marie	-12.1555
bên	-12.1558
sài	-12.1565
▁state	-12.1568
▁vò	-12.1571
giai	-12.1574
ente	-12.1579
dùng	-12.1583
0,7	-12.1584
bí	-12.1588
ỳ	-12.1596
▁nikola	-12.1605
▁192	-12.1606
980	-12.1609
▁chro	-12.1611
ethnologue	-12.1612
▁berkeley	-12.1612
▁bratislava	-12.1612
▁carbohydrat	-12.1612
▁cellulose	-12.1612
▁chập	-12.1612
▁kazakhstan	-12.1612
▁leipzig	-12.1612
▁michigan	-12.1612
▁nickel	-12.1612
▁nkvd	-12.1612
▁punjab	-12.1612
▁sumatra	-12.1612
▁trumpet	-12.1612
▁tặc	-12.1612
▁ướp	-12.1612
▁julian	-12.1612
▁nòi	-12.1612
▁pascal	-12.1612
▁werner	-12.1612
▁huygens	-12.1612
οσ	-12.1612
first	-12.1612
▁neumann	-12.1612
▁series	-12.1613
▁dmitr	-12.1613
▁cacbonat	-12.1615
▁fan	-12.1616
iệm	-12.1617
▁silicon	-12.1618
▁rốt	-12.1618
▁galli	-12.1622
▁tuất	-12.1622
evich	-12.1624
heli	-12.163
mark	-12.1631
▁tanakh	-12.1635
iếc	-12.1635
▁dí	-12.1637
▁gali	-12.1642
▁1865	-12.1644
▁xú	-12.1652
rơ	-12.1673
arya	-12.1682
2,9	-12.1684
700	-12.1686
▁rà	-12.1691
7,8	-12.1695
8°	-12.1708
▁mw	-12.171
đun	-12.1711
ал	-12.1722
osis	-12.1725
body	-12.1728
6,5%	-12.1736
▁khoác	-12.177
▁amd	-12.1773
▁marco	-12.1783
3,5	-12.1791
_7	-12.1837
▁rudol	-12.1846
774	-12.1847
huyền	-12.1857
▁750	-12.1861
đoàn	-12.1866
hiệu	-12.1867
bích	-12.1868
bách	-12.187
span	-12.187
berlin	-12.1871
biển	-12.1872
thân	-12.1872
1,0	-12.1873
phải	-12.1874
lực	-12.1876
bị	-12.1879
đôi	-12.188
quán	-12.188
mường	-12.1882
▁vằn	-12.1886
▁iss	-12.1887
aceae	-12.1893
▁pie	-12.1897
mẹ	-12.1902
▁nhữ	-12.1914
▁blue	-12.1918
3,6	-12.1922
electric	-12.1934
▁borglum	-12.1934
▁dürer	-12.1934
▁fatalis	-12.1934
▁gặt	-12.1934
▁heisenberg	-12.1934
▁herschel	-12.1934
▁immunoglobulin	-12.1934
▁kavkaz	-12.1934
▁norodom	-12.1934
▁oracle	-12.1934
▁ptolemy	-12.1934
▁trombone	-12.1934
▁westminster	-12.1934
▁đùa	-12.1934
▁hydroxyl	-12.1934
▁icrc	-12.1934
▁moore	-12.1934
▁nhoáng	-12.1934
▁hóc	-12.1934
▁asean	-12.1935
▁winamp	-12.1935
5,5	-12.1936
psych	-12.1936
▁liban	-12.1937
▁loét	-12.1939
nature	-12.1939
▁kèo	-12.1941
▁râu	-12.1944
▁alex	-12.1945
ales	-12.1952
▁dè	-12.1952
▁sulfat	-12.1955
▁1831	-12.1961
▁1883	-12.1968
4,5%	-12.197
▁1763	-12.1971
▁líu	-12.1975
peri	-12.1982
▁4.0	-12.1989
▁thali	-12.2012
human	-12.2025
4+	-12.2035
▁polyme	-12.2044
very	-12.2054
▁sê	-12.2106
▁milan	-12.211
▁2.8	-12.2113
0,3%	-12.2119
letic	-12.2127
tex	-12.214
fest	-12.2176
▁metro	-12.218
giữa	-12.2199
tàu	-12.2199
nằm	-12.2208
hát	-12.221
bánh	-12.2218
siêu	-12.2221
bacter	-12.2226
▁luy	-12.2232
lius	-12.2249
/1946	-12.2257
▁đờ	-12.2265
▁ampère	-12.2267
▁cuồng	-12.2267
▁elíp	-12.2267
▁express	-12.2267
▁gươm	-12.2267
▁gập	-12.2267
▁maurice	-12.2267
▁mendeleev	-12.2267
▁nobita	-12.2267
▁record	-12.2267
▁thầm	-12.2267
▁français	-12.2268
▁granit	-12.2268
▁michelson	-12.2268
▁atlas	-12.2268
▁rủ	-12.2268
▁trĩ	-12.2268
▁irc	-12.2269
▁kcn	-12.2269
holland	-12.2269
▁xốp	-12.2269
▁feet	-12.2271
▁antonio	-12.2271
▁motor	-12.2271
▁vờ	-12.2273
▁lord	-12.2275
▁uông	-12.2275
ễu	-12.2277
▁phình	-12.2278
▁cội	-12.228
▁fred	-12.2283
▁mủ	-12.2285
āna	-12.229
▁oan	-12.2292
nier	-12.23
1,9%	-12.23
▁mút	-12.2301
5,6%	-12.2305
tical	-12.2333
2,8%	-12.2336
▁lake	-12.2336
▁you	-12.2359
▁simon	-12.2377
rate	-12.2384
hind	-12.2386
---	-12.2392
7,5%	-12.2409
▁1,9	-12.2409
hỗ	-12.2413
660	-12.2459
9,5%	-12.2467
amine	-12.2471
gui	-12.2523
wood	-12.2543
protein	-12.2544
việc	-12.2544
hiểu	-12.2546
1,7%	-12.256
▁ngừ	-12.2573
ninh	-12.2578
bán	-12.2582
kiến	-12.2586
phon	-12.2592
2,5%	-12.2595
trẫm	-12.2612
▁amazon	-12.2612
▁ascii	-12.2612
▁brunei	-12.2612
▁compact	-12.2612
▁coulomb	-12.2612
▁festival	-12.2612
▁fourier	-12.2612
▁gỏi	-12.2612
▁hyperbol	-12.2612
▁hómēros	-12.2612
▁kauthara	-12.2612
▁minamoto	-12.2612
▁napoleon	-12.2612
▁philadelphia	-12.2612
▁rayleigh	-12.2612
▁ruồi	-12.2612
▁standard	-12.2612
▁sydney	-12.2612
kamakura	-12.2612
▁richter	-12.2612
▁gáy	-12.2612
▁society	-12.2612
▁akkad	-12.2612
▁chuồng	-12.2612
european	-12.2612
digital	-12.2613
▁niels	-12.2613
▁leningrad	-12.2613
▁cricket	-12.2613
▁phosphoryl	-12.2613
▁bernard	-12.2614
▁jack	-12.2614
▁maroc	-12.2615
▁nản	-12.2616
▁zeus	-12.2621
▁blog	-12.2621
▁tuý	-12.2622
▁dì	-12.2622
rick	-12.2623
▁toại	-12.2627
▁vincen	-12.2627
▁bỉnh	-12.2632
▁nộn	-12.2636
riêng	-12.2637
▁1879	-12.2639
▁oxi	-12.2641
▁1866	-12.2643
▁1808	-12.2644
▁1838	-12.2644
▁toan	-12.2645
▁55%	-12.2652
▁jura	-12.2656
▁1787	-12.2658
▁dạo	-12.2658
uck	-12.2665
▁2.5	-12.2666
bury	-12.2667
▁1/4	-12.2676
▁3,8	-12.2683
gau	-12.2693
ritz	-12.2693
▁lynd	-12.27
4,5	-12.2706
mill	-12.2752
1/2	-12.2772
×10	-12.2792
phosphate	-12.28
4,3	-12.2832
sign	-12.2837
fort	-12.2861
soft	-12.2885
_11	-12.2892
toà	-12.2895
π	-12.29
quần	-12.2901
lớp	-12.2901
mọi	-12.2901
cửa	-12.2901
nhạc	-12.2901
gdp	-12.2903
nhiệt	-12.2904
grand	-12.2904
▁trọ	-12.2918
thơ	-12.292
▁eva	-12.2932
trà	-12.2935
▁$1	-12.2945
khả	-12.2949
iều	-12.2956
007	-12.2961
▁vạ	-12.2964
▁ngơ	-12.2966
ristian	-12.2969
providence	-12.2969
▁[...]	-12.2969
▁broglie	-12.2969
▁constantin	-12.2969
▁dẳng	-12.2969
▁electrum	-12.2969
▁iupac	-12.2969
▁kashmir	-12.2969
▁manhattan	-12.2969
▁melanie	-12.2969
▁minkowski	-12.2969
▁moscow	-12.2969
▁offset	-12.2969
▁ounce	-12.2969
▁pênh	-12.2969
▁riềng	-12.2969
▁software	-12.2969
▁telomere	-12.2969
▁tokugawa	-12.2969
cochinchine	-12.2969
▁luỹ	-12.2969
▁náu	-12.2969
▁rhine	-12.2969
▁solomon	-12.2969
▁freud	-12.2969
▁lôgic	-12.2969
▁marshall	-12.2969
▁sãi	-12.2969
▁palais	-12.2969
▁golf	-12.297
▁engine	-12.297
▁garnier	-12.297
▁churchill	-12.297
rough	-12.297
▁jones	-12.2971
▁xhtml	-12.2971
▁biền	-12.2972
▁phất	-12.2972
▁niken	-12.2972
▁sunni	-12.2973
▁crick	-12.2975
▁ural	-12.2975
▁lăm	-12.2977
armée	-12.2977
▁prix	-12.2977
▁răm	-12.2978
▁thuyên	-12.2978
▁pà	-12.2979
▁goto	-12.298
▁giòn	-12.298
▁klein	-12.2981
▁huyên	-12.2982
▁nucleon	-12.2984
▁kerr	-12.2986
germain	-12.2987
▁carlo	-12.2991
▁êm	-12.2997
▁1836	-12.2998
▁1859	-12.3005
▁1875	-12.3006
▁1757	-12.3006
▁cler	-12.3019
orum	-12.3036
▁45%	-12.3036
ère	-12.304
graphic	-12.3041
▁unita	-12.3059
▁1812	-12.3069
▁2.7	-12.3084
▁grande	-12.3088
micro	-12.31
▁carol	-12.3103
▁hum	-12.3132
▁0,8	-12.3167
rack	-12.3189
0,5	-12.3238
3,1	-12.3253
1000	-12.3265
carbon	-12.327
national	-12.3271
nucleotide	-12.3271
mẫu	-12.3271
xếp	-12.3271
giới	-12.3271
trọng	-12.3271
kháng	-12.3272
xuất	-12.3273
triều	-12.3273
lượng	-12.3278
lenin	-12.3285
▁thà	-12.3301
3,4%	-12.3313
77%	-12.3315
▁ngó	-12.3332
hắp	-12.3333
▁adenine	-12.334
▁arizona	-12.334
▁arpanet	-12.334
▁arrhenius	-12.334
▁cytosine	-12.334
▁eczema	-12.334
▁hippocrates	-12.334
▁kraków	-12.334
▁motif	-12.334
▁origami	-12.334
▁plasmid	-12.334
▁tẩm	-12.334
▁university	-12.334
▁đĩnh	-12.334
▁kalahari	-12.334
▁stanley	-12.334
▁thymine	-12.334
▁tigris	-12.334
▁điếu	-12.334
messiah	-12.334
▁ashley	-12.334
▁điểu	-12.334
▁chọi	-12.334
▁góa	-12.334
▁nicolas	-12.334
▁chomsky	-12.334
▁gmt	-12.334
▁jackson	-12.334
▁marcel	-12.334
▁greenland	-12.3341
▁mariner	-12.3341
▁chrome	-12.3341
▁hertz	-12.3341
▁howard	-12.3341
▁beria	-12.3343
_9	-12.3345
▁dép	-12.3346
5,2%	-12.3347
▁lều	-12.3347
▁linus	-12.3348
▁victor	-12.3349
▁cọp	-12.3349
major	-12.3352
▁states	-12.3352
▁hân	-12.3354
gerald	-12.3356
▁boris	-12.3364
hydroxy	-12.3366
▁olive	-12.3366
▁ruth	-12.337
▁1855	-12.3376
▁1844	-12.3377
9,2%	-12.338
▁150.000	-12.3381
▁1822	-12.3382
▁1775	-12.3383
▁belle	-12.3413
▁scha	-12.3417
▁radian	-12.3447
arry	-12.3451
ender	-12.3451
1,2%	-12.346
▁qur	-12.3485
968	-12.3492
6,6	-12.3497
ander	-12.3501
▁rub	-12.3506
▁nord	-12.3546
direct	-12.3565
wel	-12.36
wiener	-12.3605
▁3.1	-12.3619
small	-12.3621
▁3.5	-12.3639
ington	-12.3642
bạc	-12.3652
baptist	-12.3655
international	-12.3656
campuchia	-12.3656
israel	-12.3656
lấy	-12.3656
thuật	-12.3656
tạo	-12.3656
mạng	-12.3657
kiên	-12.3659
trái	-12.3661
toán	-12.3663
dương	-12.3669
sóng	-12.3678
tài	-12.3678
874	-12.3679
electro	-12.3709
utf	-12.3713
▁giò	-12.3715
4,8	-12.3718
▁ronald	-12.3719
▁watt	-12.3721
encyclop	-12.3724
chxhcn	-12.3724
▁archimedes	-12.3724
▁aztec	-12.3724
▁bruxelles	-12.3724
▁canterbury	-12.3724
▁cathode	-12.3724
▁croatia	-12.3724
▁cuội	-12.3724
▁dortmund	-12.3724
▁gilbert	-12.3724
▁glucose	-12.3724
▁hựu	-12.3724
▁kanishka	-12.3724
▁mẫn	-12.3724
▁mận	-12.3724
▁ngậm	-12.3724
▁nhẵn	-12.3724
▁nuclit	-12.3724
▁opengl	-12.3724
▁penrose	-12.3724
▁pulsar	-12.3724
▁pölten	-12.3724
▁voldemort	-12.3724
▁wallonie	-12.3724
▁kẹt	-12.3724
▁đớn	-12.3724
gène	-12.3724
museum	-12.3725
▁diego	-12.3725
little	-12.3725
▁milimét	-12.3725
method	-12.3725
▁giễu	-12.3725
▁fortran	-12.3725
▁sonata	-12.3725
ер	-12.3725
▁nuốt	-12.3725
▁lười	-12.3726
bundes	-12.3726
▁thừng	-12.3726
▁sìn	-12.3727
▁khoét	-12.3728
▁shell	-12.3728
="106	-12.3728
▁life	-12.3729
▁carter	-12.3729
orient	-12.373
▁selen	-12.3731
▁hũ	-12.3732
▁mêtan	-12.3733
▁hỉ	-12.3734
▁ligo	-12.3735
▁kaki	-12.3735
▁sỉ	-12.3736
▁42%	-12.3736
▁rí	-12.3737
▁yếm	-12.3741
▁rené	-12.3743
▁logo	-12.3744
▁golden	-12.3744
▁hgh	-12.3747
▁xào	-12.3748
▁dở	-12.375
▁97%	-12.3752
▁1872	-12.3754
▁1777	-12.3756
peterburg	-12.3758
▁nice	-12.376
▁1849	-12.3762
super	-12.3772
gành	-12.3816
10.000	-12.3826
▁prop	-12.3827
2,2%	-12.3827
film	-12.384
text	-12.3851
0,9	-12.3866
5,6	-12.3887
536	-12.3896
borat	-12.3915
pyo	-12.3935
bank	-12.3953
angel	-12.3953
chroma	-12.3957
park	-12.3962
3,3%	-12.3967
▁perl	-12.3968
4,7	-12.3969
▁thằn	-12.3983
▁22%	-12.4001
ghi	-12.4028
8,5%	-12.4038
giấy	-12.4056
quỹ	-12.4056
sted	-12.4056
ngọc	-12.4056
chiều	-12.4059
kỷ	-12.4063
hướng	-12.4064
nói	-12.4067
athet	-12.407
bởi	-12.4074
java	-12.4076
7,6	-12.4077
quê	-12.4085
thấp	-12.4085
web	-12.4094
5–1	-12.4104
phố	-12.4108
bund	-12.4113
ướn	-12.412
▁albania	-12.4124
▁brønsted	-12.4124
▁citric	-12.4124
▁claude	-12.4124
▁gothic	-12.4124
▁greenwich	-12.4124
▁hermione	-12.4124
▁knuth	-12.4124
▁nhầy	-12.4124
▁phanxicô	-12.4124
▁plessey	-12.4124
▁rushmore	-12.4124
▁salzburg	-12.4124
▁stockholm	-12.4124
▁sặc	-12.4124
journal	-12.4124
▁aleksandr	-12.4124
▁chệch	-12.4124
▁wilkins	-12.4124
▁dơi	-12.4124
▁emacs	-12.4124
▁saffir	-12.4124
spyware	-12.4124
▁panama	-12.4124
▁baird	-12.4125
▁ghê	-12.4125
▁populat	-12.4125
▁vietnamnet	-12.4125
▁islam	-12.4125
▁giằng	-12.4125
▁oscar	-12.4125
▁lờ	-12.4125
▁janko	-12.4126
▁biếm	-12.4127
▁lowell	-12.4128
▁hugo	-12.4129
▁ngần	-12.4129
▁nhát	-12.4129
▁jrai	-12.4129
▁nguyền	-12.413
▁lốc	-12.4132
▁gồ	-12.4133
▁nikolai	-12.4133
▁chằng	-12.4133
▁oxit	-12.4134
▁boot	-12.4135
▁bớ	-12.4143
rium	-12.4152
▁1807	-12.4162
6,9	-12.4171
▁palm	-12.4177
phó	-12.4186
▁hand	-12.4202
binh	-12.423
967	-12.4238
lick	-12.4281
3,9	-12.429
bourg	-12.4291
oper	-12.4299
who	-12.43
▁abel	-12.4302
dwin	-12.4321
sley	-12.4357
litz	-12.4367
▁sher	-12.4376
ốp	-12.4386
▁eric	-12.439
5,9	-12.4398
5,5%	-12.4426
appa	-12.4457
cacbon	-12.4473
cấu	-12.4473
vốn	-12.4473
nhận	-12.4473
paul	-12.4493
0,4%	-12.4495
ated	-12.4514
2,4%	-12.4523
▁nhụ	-12.4526
0,6%	-12.4529
▁whit	-12.4537
5,4	-12.454
bacillus	-12.4541
▁britannica	-12.4541
▁brunswick	-12.4541
▁cédil	-12.4541
▁judah	-12.4541
▁madeira	-12.4541
▁mátthêu	-12.4541
▁nhuyễn	-12.4541
▁pérez	-12.4541
▁servetus	-12.4541
▁stanford	-12.4541
▁thẫm	-12.4541
▁tuberculosis	-12.4541
▁venezuela	-12.4541
▁verrier	-12.4541
▁yeltsin	-12.4541
▁anderson	-12.4541
▁compton	-12.4541
▁deuteri	-12.4541
▁lisbon	-12.4541
▁pedro	-12.4541
▁xộn	-12.4541
nederland	-12.4541
vostok	-12.4541
▁síp	-12.4541
▁beach	-12.4541
▁beryli	-12.4541
▁namibia	-12.4541
▁sankt	-12.4541
▁vớt	-12.4541
bodhi	-12.4542
laurent	-12.4542
▁maryland	-12.4542
▁halley	-12.4542
▁chớ	-12.4543
▁sudan	-12.4543
▁xiết	-12.4544
▁wild	-12.4544
hausen	-12.4544
▁suez	-12.4545
▁malta	-12.4548
▁chầu	-12.4549
679	-12.4549
▁gatt	-12.4554
▁giro	-12.4561
▁andre	-12.4617
sebastian	-12.4635
llon	-12.4647
7°	-12.4679
2,4	-12.4699
▁nico	-12.4706
stance	-12.4711
▁edg	-12.482
erich	-12.4827
class	-12.4829
buddh	-12.4834
7,2	-12.4846
_17	-12.4852
hưng	-12.4895
▁dà	-12.4907
thiếu	-12.4907
nhìn	-12.4908
tạp	-12.4908
mới	-12.4908
triết	-12.4909
kheo	-12.4909
biên	-12.4911
ười	-12.4933
▁unit	-12.4946
ằm	-12.4956
osome	-12.4971
eira	-12.4975
▁church	-12.4976
constantinopolis	-12.4976
gradient	-12.4976
lieutenant	-12.4976
▁alabama	-12.4976
▁biếu	-12.4976
▁bolivia	-12.4976
▁calmette	-12.4976
▁cappuccino	-12.4976
▁chòi	-12.4976
▁dứa	-12.4976
▁fernando	-12.4976
▁fujiwara	-12.4976
▁holocaust	-12.4976
▁keynes	-12.4976
▁kissinger	-12.4976
▁lagrange	-12.4976
▁lẫy	-12.4976
▁matthew	-12.4976
▁matúška	-12.4976
▁mấu	-12.4976
▁mứt	-12.4976
▁nevada	-12.4976
▁ngạo	-12.4976
▁nürnberg	-12.4976
▁santiago	-12.4976
▁stallman	-12.4976
▁voọc	-12.4976
ø	-12.4976
▁clement	-12.4976
▁doppler	-12.4976
▁lìa	-12.4976
▁magellan	-12.4976
▁western	-12.4976
▁youtube	-12.4976
▁dakota	-12.4976
▁péo	-12.4976
▁rowland	-12.4976
▁vùi	-12.4976
▁davy	-12.4976
kirche	-12.4976
▁triglyceride	-12.4976
▁research	-12.4977
hybrid	-12.4977
▁princeton	-12.4977
▁guốc	-12.4978
▁piano	-12.4978
▁slavơ	-12.4978
▁trâm	-12.4978
double	-12.4979
▁rũ	-12.498
▁market	-12.498
▁800.000	-12.4981
▁giông	-12.4981
▁nhổ	-12.4982
▁hỷ	-12.4982
▁rrna	-12.4984
▁igg	-12.4984
cliff	-12.4988
berger	-12.4995
ification	-12.5011
,45%	-12.5029
8,6	-12.5047
1957	-12.5065
ça	-12.5095
▁fox	-12.5115
▁3.7	-12.5129
7,3%	-12.5181
8,8	-12.5206
gell	-12.5236
5,7%	-12.5249
ç	-12.5307
/1945	-12.535
html	-12.536
chòm	-12.5362
louis	-12.5362
xích	-12.5362
internet	-12.5362
mèo	-12.5362
kính	-12.5362
cầu	-12.5362
triệu	-12.5362
vận	-12.5362
bốn	-12.5362
yêu	-12.5362
tìm	-12.5362
lạc	-12.5362
dạng	-12.5362
kanji	-12.5364
bạch	-12.5367
scar	-12.5382
rầm	-12.5427
8,6%	-12.5428
▁charlotte	-12.543
evangelical	-12.543
köppen	-12.543
lemaître	-12.543
species	-12.543
▁bastille	-12.543
▁college	-12.543
▁cyclo	-12.543
▁dầm	-12.543
▁friedmann	-12.543
▁horizons	-12.543
▁jayavarman	-12.543
▁jersey	-12.543
▁juventus	-12.543
▁laplace	-12.543
▁license	-12.543
▁phobos	-12.543
▁retrovirus	-12.543
▁schengen	-12.543
▁armenia	-12.543
▁joule	-12.543
▁lodge	-12.543
▁nhám	-12.543
▁street	-12.543
▁sậy	-12.543
▁sồi	-12.543
▁vẹt	-12.543
▁côngtenơ	-12.543
▁halide	-12.543
▁nitric	-12.543
piaget	-12.543
▁caesar	-12.543
▁ubnd	-12.543
▁humphr	-12.543
▁leonard	-12.5431
▁nghé	-12.5431
natural	-12.5431
▁schön	-12.5431
▁vpn	-12.5431
▁analog	-12.5431
principia	-12.5431
▁count	-12.5431
▁steven	-12.5432
morley	-12.5432
bụt	-12.5432
▁harris	-12.5432
▁garden	-12.5432
▁histone	-12.5432
▁brâu	-12.5433
▁clark	-12.5433
▁diều	-12.5433
▁700.000	-12.5434
▁sutta	-12.5434
▁print	-12.5435
▁caesi	-12.5435
▁suý	-12.5435
▁thầu	-12.5436
▁monde	-12.5436
▁lcd	-12.5436
.226	-12.5437
▁linga	-12.5438
gala	-12.5439
▁đoài	-12.544
▁with	-12.5442
kilogram	-12.5443
8,4	-12.5444
▁eris	-12.5447
lfs	-12.5449
▁10−1	-12.545
2,7%	-12.5486
1,8%	-12.5511
,25%	-12.5545
▁macro	-12.5573
search	-12.5602
▁font	-12.5602
▁lằn	-12.5618
2,6%	-12.564
4,6	-12.5695
head	-12.5705
▁nú	-12.5723
rwin	-12.5731
2009)	-12.5738
color	-12.5806
gấu	-12.5838
dầu	-12.5838
bãi	-12.5838
tuần	-12.5838
chuẩn	-12.5838
cửu	-12.5838
đoạn	-12.5838
ngoài	-12.5838
đúng	-12.584
chiếc	-12.5842
trò	-12.5846
tiết	-12.5846
7,4%	-12.5869
4,6%	-12.59
▁quạ	-12.5904
▁thoán	-12.5904
coccus	-12.5906
ashikaga	-12.5907
ribozyme	-12.5907
▁airlines	-12.5907
▁açores	-12.5907
▁bhutan	-12.5907
▁chandrasekhar	-12.5907
▁dwight	-12.5907
▁ecuador	-12.5907
▁edmund	-12.5907
▁eiffel	-12.5907
▁farnsworth	-12.5907
▁fischer	-12.5907
▁gfdl	-12.5907
▁humboldt	-12.5907
▁jabber	-12.5907
▁liverpool	-12.5907
▁malacca	-12.5907
▁maximilian	-12.5907
▁microsystems	-12.5907
▁molotov	-12.5907
▁müller	-12.5907
▁nagasaki	-12.5907
▁nigeria	-12.5907
▁public	-12.5907
▁röntgen	-12.5907
▁slovene	-12.5907
▁slovenia	-12.5907
▁tennessee	-12.5907
▁thompson	-12.5907
▁uzbekistan	-12.5907
▁đậy	-12.5907
▁hđnd	-12.5907
▁sainteny	-12.5907
▁tourane	-12.5907
▁nations	-12.5907
▁cạo	-12.5907
▁dalton	-12.5907
▁diễm	-12.5907
▁vienna	-12.5907
▁scud	-12.5907
▁sủng	-12.5907
vietnamese	-12.5907
▁actini	-12.5907
▁freebsd	-12.5907
▁program	-12.5907
▁music	-12.5907
▁êđê	-12.5907
genesis	-12.5907
▁anglo	-12.5907
▁andreas	-12.5907
▁warren	-12.5908
uranus	-12.5908
4,2%	-12.5909
▁karst	-12.5909
▁aryan	-12.5909
wick	-12.5909
style	-12.5911
▁kurt	-12.5911
▁probe	-12.5911
▁90°	-12.5912
▁pdp	-12.5913
▁pound	-12.5913
▁aviv	-12.5914
▁600.000	-12.5914
owski	-12.5926
lieb	-12.5955
svara	-12.5956
oóc	-12.5961
zak	-12.5972
stock	-12.612
9,8%	-12.6136
40.000	-12.6163
▁queen	-12.6176
6,8%	-12.6185
ка	-12.6233
endorf	-12.6259
▁grove	-12.628
6,3%	-12.6288
▁4.8	-12.6312
4,7%	-12.6317
bọn	-12.6338
biểu	-12.6338
thích	-12.6338
lập	-12.6338
tùy	-12.6338
nhằm	-12.634
niên	-12.6343
ethanol	-12.6355
5,4%	-12.6385
92%	-12.6402
▁vắn	-12.6402
▁trăn	-12.6404
assembl	-12.6407
english	-12.6407
fresnel	-12.6407
sequence	-12.6407
österreich	-12.6407
▁365,242	-12.6407
▁benedict	-12.6407
▁bernabéu	-12.6407
▁bonaparte	-12.6407
▁castries	-12.6407
▁cornell	-12.6407
▁diamond	-12.6407
▁gandhi	-12.6407
▁gaulois	-12.6407
▁giấm	-12.6407
▁holocen	-12.6407
▁kandahar	-12.6407
▁klondike	-12.6407
▁madagascar	-12.6407
▁nhấm	-12.6407
▁nicaea	-12.6407
▁niệu	-12.6407
▁number	-12.6407
▁nầy	-12.6407
▁potsdam	-12.6407
▁rotterdam	-12.6407
▁saskatchewan	-12.6407
▁seminole	-12.6407
▁siemens	-12.6407
▁venezia	-12.6407
kyushu	-12.6407
mongoloid	-12.6407
▁austin	-12.6407
▁athena	-12.6407
▁batista	-12.6407
▁huyệt	-12.6407
▁húy	-12.6407
rizon	-12.6407
dominique	-12.6407
cascadi	-12.6407
▁herpes	-12.6407
▁doumer	-12.6407
▁xml	-12.6407
ography	-12.6407
▁(2010)	-12.6407
▁vichy	-12.6407
▁peroxide	-12.6407
▁đuống	-12.6407
mahā	-12.6408
▁igm	-12.6408
▁hamburg	-12.6408
ро	-12.6408
ин	-12.6408
▁nhện	-12.6409
▁cooper	-12.6409
▁kenya	-12.6409
▁quệ	-12.6409
▁scn	-12.6409
▁volga	-12.6409
▁platin	-12.6409
▁kiết	-12.641
genome	-12.641
▁lúp	-12.641
/12/19	-12.6412
7,2%	-12.6422
yces	-12.644
good	-12.6459
oxygen	-12.6503
▁petro	-12.6561
▁1/5	-12.6606
▁lún	-12.6608
×	-12.6629
,36%	-12.6661
▁pú	-12.6667
▁collin	-12.6698
9,3%	-12.6717
7,9%	-12.6738
3,9%	-12.6843
afghanistan	-12.6864
vườn	-12.6864
kiểu	-12.6865
nhập	-12.6865
trình	-12.6865
video	-12.6865
sóc	-12.6865
phép	-12.6867
pseudo	-12.6933
saccharo	-12.6933
collège	-12.6933
requiem	-12.6933
▁alfonso	-12.6933
▁allianz	-12.6933
▁antwerpen	-12.6933
▁atlético	-12.6933
▁azerbaijan	-12.6933
▁bernoulli	-12.6933
▁copernicus	-12.6933
▁dijkstra	-12.6933
▁forbes	-12.6933
▁gruzia	-12.6933
▁guanine	-12.6933
▁hemoglobin	-12.6933
▁hogwarts	-12.6933
▁kosovo	-12.6933
▁kyoto	-12.6933
▁kyrgyzstan	-12.6933
▁logarit	-12.6933
▁nghẽn	-12.6933
▁nhòm	-12.6933
▁nicholas	-12.6933
▁olympia	-12.6933
▁polypeptide	-12.6933
▁rình	-12.6933
▁smolensk	-12.6933
▁truật	-12.6933
▁ubuntu	-12.6933
▁ukraine	-12.6933
▁virapura	-12.6933
▁lhasa	-12.6933
▁acetic	-12.6933
▁steroid	-12.6933
▁tcvn	-12.6933
▁miami	-12.6933
▁cườm	-12.6933
▁mafia	-12.6933
▁taxon	-12.6933
▁krym	-12.6933
switch	-12.6933
▁tesla	-12.6933
▁micromet	-12.6933
brabant	-12.6933
▁murray	-12.6933
▁saturn	-12.6933
pinyin	-12.6934
matrix	-12.6934
▁hillary	-12.6934
▁cebit	-12.6934
lowry	-12.6935
premier	-12.6936
▁argon	-12.6936
▁morgan	-12.6937
▁52%	-12.6937
▁đước	-12.6937
▁ghaz	-12.6938
8,2%	-12.6938
control	-12.694
▁yoshi	-12.6944
▁antoni	-12.6952
▁work	-12.6965
71%	-12.7009
8,1%	-12.7013
/4/19	-12.7016
80%	-12.707
quot	-12.7109
cross	-12.7121
8,3%	-12.7176
8,8%	-12.7305
penny	-12.7416
black	-12.7419
plasma	-12.742
google	-12.742
thầy	-12.742
thật	-12.742
john	-12.742
yếu	-12.742
tích	-12.742
lạng	-12.742
tục	-12.742
duyên	-12.7421
phòng	-12.7422
ẵ	-12.7488
▁daimler	-12.7488
maréchal	-12.7489
▁acadia	-12.7489
▁bernabeu	-12.7489
▁borneo	-12.7489
▁bướm	-12.7489
▁connecticut	-12.7489
▁engels	-12.7489
▁fontainebleau	-12.7489
▁für	-12.7489
▁giécmanh	-12.7489
▁hideyoshi	-12.7489
▁khèn	-12.7489
▁kremli	-12.7489
▁louvre	-12.7489
▁lovelace	-12.7489
▁manitoba	-12.7489
▁montmartre	-12.7489
▁onigiri	-12.7489
▁peroxisome	-12.7489
▁phraya	-12.7489
▁poincaré	-12.7489
▁raymond	-12.7489
▁steiermark	-12.7489
▁tajikistan	-12.7489
▁tasmania	-12.7489
▁thẳm	-12.7489
▁toyotomi	-12.7489
▁utrecht	-12.7489
▁ôzôn	-12.7489
▁bẹp	-12.7489
▁lụi	-12.7489
▁lụy	-12.7489
▁russell	-12.7489
▁strauss	-12.7489
▁sẹo	-12.7489
övp	-12.7489
–1945	-12.7489
▁cantata	-12.7489
▁madison	-12.7489
▁morris	-12.7489
▁oligo	-12.7489
cgpm	-12.7489
▁gùi	-12.7489
▁mobile	-12.7489
▁dunant	-12.7489
felipe	-12.7489
▁allah	-12.7489
▁openoffice	-12.7489
▁montreal	-12.7489
▁(2011)	-12.7489
▁gracey	-12.7489
▁galicia	-12.7489
▁asbury	-12.7489
▁domov	-12.7489
▁cronus	-12.7489
′′	-12.7489
▁cabot	-12.7489
earth	-12.7489
ен	-12.7489
▁osaka	-12.749
marshal	-12.749
ersdorf	-12.7491
▁sinai	-12.7491
▁hindi	-12.7491
align	-12.7492
/11/19	-12.7499
eagle	-12.7501
siddh	-12.7502
▁nikit	-12.7502
paleo	-12.7511
7,6%	-12.7567
austro	-12.7589
institut	-12.7637
6,4	-12.7652
73%	-12.7662
6,7%	-12.7706
rithi	-12.771
4,4%	-12.7715
krug	-12.7761
67%	-12.7788
5,8%	-12.7851
▁grac	-12.7869
6,1%	-12.7878
hùng	-12.7974
system	-12.8008
enzyme	-12.8008
tuyệt	-12.8008
bảy	-12.8008
luận	-12.8008
diễn	-12.8008
nùng	-12.8009
9,7%	-12.8027
fluorocarbon	-12.8054
▁window	-12.8067
ưới	-12.8068
▁gregor	-12.8069
▁alexandr	-12.8071
▁thắn	-12.8073
▁ghề	-12.8075
physics	-12.8077
résident	-12.8077
▁algarve	-12.8077
▁anthony	-12.8077
▁association	-12.8077
▁baghdad	-12.8077
▁beethoven	-12.8077
▁bilbao	-12.8077
▁brezhnev	-12.8077
▁colombo	-12.8077
▁columbus	-12.8077
▁company	-12.8077
▁dynamo	-12.8077
▁edmonton	-12.8077
▁facebook	-12.8077
▁gordon	-12.8077
▁harvey	-12.8077
▁history	-12.8077
▁hokkaido	-12.8077
▁indrapura	-12.8077
▁lipoprotein	-12.8077
▁microarray	-12.8077
▁missouri	-12.8077
▁mozambique	-12.8077
▁mussolini	-12.8077
▁ngạt	-12.8077
▁nicolaus	-12.8077
▁obitan	-12.8077
▁pangaea	-12.8077
▁prôtêin	-12.8077
▁thẹn	-12.8077
▁trạo	-12.8077
▁vilnius	-12.8077
▁westmoreland	-12.8077
▁windsor	-12.8077
▁wolfram	-12.8077
circuit	-12.8077
plication	-12.8077
▁andromeda	-12.8077
▁kansas	-12.8077
▁prabang	-12.8077
▁southern	-12.8077
sūtra	-12.8077
▁antón	-12.8077
▁inuit	-12.8077
▁school	-12.8077
▁émil	-12.8077
▁drake	-12.8077
▁cecil	-12.8077
▁yêm	-12.8077
dhamma	-12.8077
▁bbg	-12.8077
mangostin	-12.8077
▁parabol	-12.8077
lycée	-12.8077
▁capsid	-12.8077
▁jule	-12.8077
▁valley	-12.8078
theater	-12.8078
▁arena	-12.8079
típ	-12.808
▁ahm	-12.808
,02%	-12.8089
="103	-12.8095
▁centaur	-12.8103
▁ivanov	-12.8108
0,9%	-12.8113
panzer	-12.8114
1,3%	-12.8125
▁creati	-12.8131
inck	-12.8186
audio	-12.8201
8,4%	-12.8281
7,7%	-12.8283
8,9%	-12.8322
4,3%	-12.8378
4.500	-12.8413
united	-12.8633
oxid	-12.8643
▁sulf	-12.8662
▁nghè	-12.8696
könig	-12.8702
business	-12.8702
catholic	-12.8702
universal	-12.8702
wehrmacht	-12.8702
élysées	-12.8702
▁1/4/2019	-12.8702
▁barbara	-12.8702
▁becquerel	-12.8702
▁benenson	-12.8702
▁bertrand	-12.8702
▁bourgogne	-12.8702
▁castilla	-12.8702
▁concerto	-12.8702
▁cornwall	-12.8702
▁enigma	-12.8702
▁euphrates	-12.8702
▁felix	-12.8702
▁gibbs	-12.8702
▁hydrofluoric	-12.8702
▁juliêng	-12.8702
▁leonhard	-12.8702
▁leprae	-12.8702
▁liechtenstein	-12.8702
▁margaret	-12.8702
▁nazareth	-12.8702
▁niño	-12.8702
▁patrick	-12.8702
▁pavlov	-12.8702
▁pradesh	-12.8702
▁rodríguez	-12.8702
▁satyavarman	-12.8702
▁shogakukan	-12.8702
▁thắm	-12.8702
▁uracil	-12.8702
▁vistula	-12.8702
▁voltaire	-12.8702
▁zidane	-12.8702
▁ăngkor	-12.8702
▁đbscl	-12.8702
evolution	-12.8702
▁breton	-12.8702
▁hydride	-12.8702
▁jakob	-12.8702
▁opéra	-12.8702
▁source	-12.8702
▁toulouse	-12.8702
▁trinity	-12.8702
▁carnot	-12.8702
▁etrusca	-12.8702
▁león	-12.8702
▁yển	-12.8702
▁café	-12.8702
▁oort	-12.8702
▁sagart	-12.8702
▁visual	-12.8702
▁aleut	-12.8702
▁sụn	-12.8702
▁kuhn	-12.8702
▁devon	-12.8702
advance	-12.8702
▁xuyến	-12.8702
▁moses	-12.8702
eliane	-12.8702
▁gregorius	-12.8702
▁ldp	-12.8702
▁zurich	-12.8702
▁ivanovich	-12.8702
▁(1999)	-12.8702
▁gnp	-12.8702
crypt	-12.8702
▁santos	-12.8703
metric	-12.8703
▁caspi	-12.8704
phenol	-12.8705
atherine	-12.8705
3,2%	-12.8706
▁1954-195	-12.8713
fsf	-12.8734
biologi	-12.8737
6,8	-12.875
platz	-12.8763
schule	-12.8793
brahman	-12.8995
món	-12.9027
điêng	-12.9047
▁rườ	-12.9127
hiễm	-12.9157
chloro	-12.9261
unikey	-12.9299
jacques	-12.9299
polymerase	-12.93
cựu	-12.93
đỉnh	-12.93
đưa	-12.93
lạp	-12.93
mưa	-12.93
mục	-12.93
tày	-12.9303
hĩa	-12.934
▁vượn	-12.9364
phospho	-12.9365
arrondissement	-12.9368
mathematica	-12.9368
mitochondria	-12.9368
schmidt	-12.9368
▁adidas	-12.9368
▁alphabet	-12.9368
▁arkansas	-12.9368
▁baltimore	-12.9368
▁bordeaux	-12.9368
▁colorado	-12.9368
▁consortium	-12.9368
▁côngxoocxiom	-12.9368
▁darlac	-12.9368
▁dursley	-12.9368
▁economist	-12.9368
▁ekaterin	-12.9368
▁factbook	-12.9368
▁fujiko	-12.9368
▁gallup	-12.9368
▁goebbels	-12.9368
▁hagrid	-12.9368
▁kentucky	-12.9368
▁konstantin	-12.9368
▁lenoir	-12.9368
▁maastricht	-12.9368
▁mandelbrot	-12.9368
▁miguel	-12.9368
▁muggle	-12.9368
▁nanômét	-12.9368
▁nupedia	-12.9368
▁orbiter	-12.9368
▁pestis	-12.9368
▁robinson	-12.9368
▁rousseau	-12.9368
▁salvador	-12.9368
▁vikrantavarman	-12.9368
▁wittenberg	-12.9368
▁zwingli	-12.9368
bezirk	-12.9368
mudrā	-12.9368
prokaryote	-12.9368
мар	-12.9368
▁jesus	-12.9368
▁judea	-12.9368
▁ngứa	-12.9368
▁nhím	-12.9368
▁étienne	-12.9368
▁cholerae	-12.9368
▁florent	-12.9368
▁lambda	-12.9368
▁nelson	-12.9368
▁nháy	-12.9368
▁rumani	-12.9368
▁bazơ	-12.9368
▁disney	-12.9368
jupiter	-12.9368
promoter	-12.9368
▁boyle	-12.9368
▁justin	-12.9368
oakland	-12.9369
▁violin	-12.9369
▁draco	-12.9369
function	-12.9369
▁ghz	-12.9369
▁cello	-12.9369
ornith	-12.9369
▁wells	-12.9369
gravit	-12.9369
-1945)	-12.9369
▁oled	-12.937
ietf	-12.937
▁ethylen	-12.9371
corona	-12.9374
▁pacific	-12.9375
▁balkh	-12.9377
active	-12.9392
command	-12.9462
social	-12.9598
89%	-12.9871
ophyta	-12.9893
▁crete	-12.9967
,87%	-12.9982
petersburg	-13.0013
polynesia	-13.0013
australia	-13.0014
positron	-13.0014
lepton	-13.0014
california	-13.0014
windows	-13.0014
rượu	-13.0014
lĩnh	-13.0014
tội	-13.0014
lạm	-13.0014
mạch	-13.0014
kéo	-13.0014
dục	-13.0014
rồi	-13.002
rồng	-13.0026
▁đụn	-13.0078
princip	-13.0082
indochine	-13.0083
nibbāna	-13.0083
sagittarius	-13.0083
ström	-13.0083
▁development	-13.0083
▁vasily	-13.0083
brigadier	-13.0083
erophospholipids	-13.0083
naissance	-13.0083
neptune	-13.0083
nikàya	-13.0083
▁amundsen	-13.0083
▁aristoteles	-13.0083
▁belize	-13.0083
▁bismuth	-13.0083
▁bloomsbury	-13.0083
▁caribbean	-13.0083
▁cromwell	-13.0083
▁delaware	-13.0083
▁eddington	-13.0083
▁eduard	-13.0083
▁entropi	-13.0083
▁gaelic	-13.0083
▁ganymede	-13.0083
▁guatemala	-13.0083
▁göring	-13.0083
▁hiroshima	-13.0083
▁hêbrơ	-13.0083
▁ieyasu	-13.0083
▁iroquois	-13.0083
▁jehova	-13.0083
▁kalayaan	-13.0083
▁köln	-13.0083
▁lgbt	-13.0083
▁livonia	-13.0083
▁merckx	-13.0083
▁mossbauer	-13.0083
▁mêhicô	-13.0083
▁nghẹt	-13.0083
▁paraguay	-13.0083
▁picasso	-13.0083
▁pyruvate	-13.0083
▁python	-13.0083
▁rideau	-13.0083
▁shimamura	-13.0083
▁supérieur	-13.0083
▁tanzania	-13.0083
▁zworykin	-13.0083
historia	-13.0083
phoenix	-13.0083
qaeda	-13.0083
▁amiăng	-13.0083
▁carboxyl	-13.0083
▁falcon	-13.0083
▁fulro	-13.0083
▁goethe	-13.0083
▁libya	-13.0083
▁mannheim	-13.0083
▁ngỗng	-13.0083
▁poloni	-13.0083
▁rốm	-13.0083
▁saussure	-13.0083
▁virginis	-13.0083
▁vỉa	-13.0083
▁xòe	-13.0083
▁đùi	-13.0083
▁caltech	-13.0083
▁habana	-13.0083
▁kerala	-13.0083
▁nanomet	-13.0083
▁operon	-13.0083
▁papua	-13.0083
▁spree	-13.0083
▁vữa	-13.0083
sanskrit	-13.0083
▁rục	-13.0083
▁ricci	-13.0083
ōkyō	-13.0083
sexual	-13.0083
▁samoa	-13.0083
personal	-13.0083
process	-13.0083
▁plutoni	-13.0083
▁(2008)	-13.0083
▁(2007)	-13.0083
▁(2004)	-13.0083
ānta	-13.0083
▁soyuz	-13.0083
▁klaip	-13.0083
heinz	-13.0083
6,2%	-13.0083
▁(1954)	-13.0084
▁tbp	-13.0084
▁institute	-13.0085
libre	-13.0086
#	-13.0783
î	-13.1685
•	-14.0982
→	-14.6816
ằ	-15.1829
ṣ	-16.1846
ñ	-16.1847
“	-16.1848
ẳ	-16.1849
<	-16.185
ẩ	-16.1851
ẫ	-16.1852
ỏ	-16.1853
ặ	-16.1854
ắ	-16.1855
ứ	-16.1856
ầ	-16.1857
ậ	-16.1858
ấ	-16.1859
ỹ	-16.1859
