<unk>	0
<s>	0
</s>	0
.	-3.06474
="	-3.17559
"	-3.37138
doc	-3.57682
>	-3.57756
▁han	-3.74318
▁ha	-3.82317
s	-3.87607
d	-4.0425
▁nga	-4.04544
▁an	-4.1741
▁	-4.20906
/	-4.24287
▁<	-4.25624
wiki	-4.26157
ies	-4.26221
war	-4.26312
org	-4.266
▁id	-4.26953
curi	-4.26963
?	-4.27043
http	-4.27055
wikipedia	-4.27055
://	-4.27057
▁title	-4.2707
▁url	-4.2707
▁categor	-4.2707
▁</	-4.2854
-	-4.28593
▁in	-4.30941
,	-4.64019
▁ngan	-4.90672
▁ka	-4.93234
▁amo	-4.95192
▁usa	-4.97503
▁"	-5.12138
▁uska	-5.37565
▁nasod	-5.39747
▁rehiyon	-5.57294
▁na	-5.65029
▁hini	-5.67494
lalakip	-5.69927
▁nahi	-5.71488
▁familia	-5.72311
▁gin	-5.72698
▁genus	-5.74545
▁species	-5.76003
▁ni	-5.78434
▁departamento	-5.82805
▁subspecies	-5.83053
▁waray	-5.84987
▁fransya	-5.8623
kalista	-5.86535
hulagway	-5.86639
▁hadton	-5.87058
▁komyun	-5.87235
a	-5.87493
",	-5.9519
i	-5.99261
▁(	-6.18556
▁munisipalidad	-6.30038
▁distrito	-6.38081
;	-6.38289
)	-6.45606
&	-6.57807
▁mga	-6.60937
▁de	-6.63674
de	-6.64048
la	-6.64299
en	-6.69799
o	-6.72247
an	-6.72808
▁lalawigan	-6.75007
▁bungto	-6.75853
us	-6.77643
▁annelida	-6.77734
▁syahan	-6.78236
e	-6.7886
lt	-6.81173
ta	-6.86351
c	-6.86838
gt	-6.87604
▁condado	-6.90025
▁alemanya	-6.9492
▁hin	-6.96624
:	-7.03788
t	-7.04444
▁gastropoda	-7.06406
le	-7.08624
et	-7.11067
l	-7.1284
▁estado	-7.15243
▁la	-7.16016
y	-7.25853
▁o	-7.2664
gmina	-7.27309
▁italya	-7.30355
r	-7.33442
n	-7.35348
▁espanya	-7.38479
▁saint	-7.3863
ensis	-7.39034
z	-7.39298
▁comune	-7.39488
▁syudad	-7.40881
'	-7.42319
▁uc	-7.46471
▁&	-7.46705
▁tuig	-7.50873
▁sumal	-7.55864
sur	-7.5641
▁anthozoa	-7.57669
▁of	-7.6218
in	-7.63084
▁ini	-7.63428
g	-7.66387
▁a	-7.67676
k	-7.68621
no	-7.68849
ti	-7.70758
na	-7.7106
▁brasil	-7.71321
saint	-7.72772
)"	-7.72905
ra	-7.7302
▁san	-7.73498
ma	-7.7382
▁unidos	-7.74906
to	-7.75637
m	-7.75711
▁cat	-7.76265
ia	-7.76757
▁estados	-7.78807
ri	-7.82225
ca	-7.83222
um	-7.83892
é	-7.83929
alogue	-7.84492
▁life	-7.84513
;/	-7.84707
al	-7.86017
li	-7.86529
er	-7.86994
▁haute	-7.87513
▁kapital	-7.87562
te	-7.88282
re	-7.88755
b	-7.88942
▁do	-7.8984
on	-7.9003
▁provincia	-7.90498
▁kalendaryo	-7.91737
is	-7.92919
distrito	-7.93852
pyrénées	-7.94173
p	-7.96141
▁pag	-7.96159
á	-7.96962
ne	-7.97195
u	-7.97555
▁sa	-7.98645
condado	-7.99271
▁hi	-7.99937
ka	-8.01247
ch	-8.02084
▁kladograma	-8.02537
sa	-8.02572
ha	-8.03034
ar	-8.04003
14	-8.04071
▁hydrozoa	-8.04102
ni	-8.04315
ce	-8.04489
alpes	-8.04589
au	-8.04941
idae	-8.05052
h	-8.05375
el	-8.06415
co	-8.06446
00	-8.06555
or	-8.08218
se	-8.08576
x	-8.09092
ville	-8.09483
▁nag	-8.10148
ae	-8.11287
di	-8.12204
v	-8.13466
si	-8.13773
tu	-8.14211
▁austria	-8.1433
les	-8.15474
60	-8.15506
loire	-8.15515
▁ma	-8.15664
ro	-8.15786
#	-8.16033
lo	-8.1685
45	-8.17011
48	-8.17087
38	-8.17219
cu	-8.17504
▁le	-8.17727
ba	-8.17967
87	-8.17968
59	-8.18109
▁#	-8.19046
▁pa	-8.19556
76	-8.2
▁polonya	-8.20158
▁di	-8.21963
go	-8.25381
43"	-8.25595
mo	-8.25654
26"	-8.25705
▁baranggay	-8.25862
08"	-8.25864
12"	-8.25967
93"	-8.25982
63"	-8.26017
vi	-8.26026
39"	-8.26059
10"	-8.26111
35"	-8.26206
20"	-8.26211
24"	-8.26385
97"	-8.2639
90"	-8.26555
78"	-8.26556
15"	-8.26556
03"	-8.26566
86"	-8.26606
49"	-8.26628
11"	-8.26671
88"	-8.26684
17"	-8.26685
42"	-8.26729
36"	-8.26738
96"	-8.26748
69"	-8.26768
me	-8.26784
75"	-8.26855
55"	-8.26874
67"	-8.26922
37"	-8.26924
18"	-8.26954
23"	-8.26957
92"	-8.26961
94"	-8.26972
29"	-8.27034
ga	-8.27049
68"	-8.27072
es	-8.27125
53"	-8.27144
99"	-8.2718
77"	-8.27221
81"	-8.27246
56"	-8.27295
61"	-8.2735
07"	-8.27452
84"	-8.27456
58"	-8.27457
79"	-8.27458
41"	-8.27472
33"	-8.27487
04"	-8.27563
74"	-8.27564
95"	-8.27581
83"	-8.27673
47"	-8.27688
46"	-8.27704
31"	-8.27712
21"	-8.27739
06"	-8.27751
28"	-8.27765
91"	-8.27773
09"	-8.27778
27"	-8.27811
25"	-8.27848
72"	-8.27848
13"	-8.27866
51"	-8.27905
34"	-8.27943
82"	-8.27961
73"	-8.28025
pa	-8.28083
64"	-8.28091
19"	-8.28094
▁mayda	-8.28096
62"	-8.28102
22"	-8.28122
40"	-8.28158
98"	-8.28166
89"	-8.28263
66"	-8.28294
05"	-8.2832
02"	-8.28341
85"	-8.2851
30"	-8.28593
65"	-8.28613
54"	-8.28619
52"	-8.28683
44"	-8.28702
70"	-8.28739
57"	-8.28817
71"	-8.29021
80"	-8.29036
16"	-8.29105
▁castilla	-8.29132
ns	-8.29225
01"	-8.2931
▁y	-8.29574
32"	-8.29586
normandie	-8.29993
50"	-8.30066
▁rhône	-8.30501
bi	-8.32963
0"	-8.33504
at	-8.33696
▁del	-8.34176
6"	-8.34248
8"	-8.34413
9"	-8.34422
7"	-8.34572
▁munisipyo	-8.35139
4"	-8.35542
5"	-8.35825
▁swiza	-8.3625
▁slovakia	-8.36448
2"	-8.36473
3"	-8.36566
▁midi	-8.36898
1"	-8.37074
br	-8.37156
ya	-8.38851
▁kan	-8.39147
ou	-8.40105
con	-8.40425
▁probinsya	-8.40766
▁baryo	-8.41957
ci	-8.42259
▁bivalvia	-8.42679
f	-8.45372
ella	-8.45745
do	-8.45805
mont	-8.46617
ge	-8.46976
va	-8.47691
▁canton	-8.47944
ing	-8.4806
▁nord	-8.48278
mi	-8.48864
▁al	-8.50092
po	-8.50262
calais	-8.51417
▁león	-8.51421
palatinate	-8.51795
be	-8.51954
du	-8.52255
j	-8.52303
▁rhineland	-8.52764
man	-8.53636
▁re	-8.53932
ve	-8.5411
▁g	-8.5475
berg	-8.55695
▁19	-8.55988
ul	-8.56039
ry	-8.56593
pe	-8.56734
ko	-8.57509
▁komo	-8.57758
▁para	-8.57871
▁bavaria	-8.5815
th	-8.58185
tum	-8.58805
▁b	-8.60093
os	-8.60585
▁tikang	-8.61902
▁p	-8.61975
▁pilipinas	-8.62081
ö	-8.6221
▁lorraine	-8.62294
ol	-8.62618
ana	-8.62731
▁e	-8.64002
▁pagdumara	-8.6415
▁aquitaine	-8.64193
yo	-8.64372
▁picardie	-8.64498
chi	-8.64521
▁tawo	-8.65379
▁cristo	-8.65863
lalawigan	-8.66109
pi	-8.66146
ugsa	-8.66265
que	-8.66294
ton	-8.66801
▁ngadto	-8.66828
ur	-8.66864
w	-8.67301
ay	-8.68371
▁am	-8.6946
ica	-8.69667
lis	-8.69956
bo	-8.70255
ina	-8.70805
han	-8.70957
▁c	-8.71051
▁ika	-8.72319
▁ca	-8.72384
bu	-8.73025
ter	-8.73033
mer	-8.73408
▁k	-8.74498
▁pan	-8.74713
▁sentro	-8.74898
pas	-8.7516
▁ba	-8.7533
ja	-8.75338
▁bourgogne	-8.75724
so	-8.76287
▁mollusca	-8.7646
▁iya	-8.76826
gi	-8.76875
ria	-8.76982
che	-8.78209
▁po	-8.78255
▁li	-8.78557
ph	-8.78659
klasipika	-8.79155
▁champagne	-8.7928
▁new	-8.79293
il	-8.79403
▁i	-8.79548
▁vi	-8.79668
za	-8.79893
▁ar	-8.79948
ho	-8.80033
ardenne	-8.80297
hi	-8.80357
▁bo	-8.81293
▁ginbahin	-8.81333
ten	-8.8149
▁iucn	-8.81562
▁me	-8.81657
são	-8.82227
gu	-8.8304
gen	-8.83416
▁ra	-8.83867
san	-8.8396
io	-8.84051
st	-8.84117
▁kag	-8.84319
ada	-8.85263
▁basse	-8.8532
▁populasyon	-8.85365
wa	-8.85506
▁mar	-8.85609
▁mo	-8.8609
lu	-8.86267
▁bu	-8.86514
cha	-8.86837
▁franche	-8.87268
mar	-8.87402
lès	-8.87694
▁si	-8.87789
val	-8.87922
ck	-8.88874
comté	-8.89094
▁iton	-8.89197
lin	-8.89436
▁santa	-8.89738
land	-8.89879
▁hiya	-8.90671
ver	-8.90792
▁republika	-8.91009
tim	-8.91306
tra	-8.91538
ki	-8.91544
ü	-8.91569
ze	-8.91614
vo	-8.92188
osa	-8.92406
▁pe	-8.92862
he	-8.9291
▁co	-8.93323
eu	-8.9341
des	-8.9344
▁mi	-8.9381
un	-8.94436
▁t	-8.94582
ula	-8.95303
▁da	-8.95609
▁may	-8.95643
sch	-8.95893
nes	-8.96564
▁ro	-8.96567
heim	-8.96858
í	-8.96893
ll	-8.97243
maritime	-8.97351
▁dall	-8.97371
ber	-8.97436
▁bi	-8.97912
▁se	-8.98259
▁seine	-8.98314
▁north	-8.9835
▁2000	-8.98703
▁rusya	-8.98832
ly	-8.9927
2	-8.9937
▁mont	-8.99673
▁sul	-9.00012
▁census	-9.00132
ru	-9.00311
garonne	-9.00514
ano	-9.00624
car	-9.01126
▁panimalay	-9.02021
the	-9.02173
text	-9.02364
ron	-9.02527
wi	-9.02715
roussillon	-9.02916
▁lombardiya	-9.0343
▁languedoc	-9.03559
tor	-9.03623
▁klase	-9.04797
ke	-9.04914
bach	-9.05017
▁phylum	-9.05056
ii	-9.05076
oides	-9.05126
▁rio	-9.05598
▁animalia	-9.05912
▁per	-9.0597
▁kahoronan	-9.061
▁pays	-9.06117
cy	-9.06232
▁con	-9.06459
▁mag	-9.06766
ita	-9.06815
▁st	-9.07133
model	-9.07209
1	-9.07276
op	-9.07326
marne	-9.07761
▁l	-9.07782
▁lu	-9.07844
▁su	-9.0809
▁car	-9.08199
ea	-9.08514
poitou	-9.08524
▁pas	-9.08557
format	-9.08707
▁mabibilngan	-9.09
tt	-9.09373
▁el	-9.09382
charentes	-9.09613
▁nahamutang	-9.09633
nga	-9.09818
der	-9.09882
▁man	-9.09946
▁pi	-9.10196
estamp	-9.10446
tri	-9.10654
tributor	-9.10789
▁ko	-9.1119
sk	-9.11327
per	-9.11817
▁eure	-9.1206
▁be	-9.12074
court	-9.12154
▁diri	-9.12666
ran	-9.1276
▁f	-9.12797
ername	-9.12882
iana	-9.12902
tan	-9.12931
tal	-9.1301
fer	-9.13493
cul	-9.13579
▁ru	-9.13588
▁schleswig	-9.14034
comment	-9.14179
bar	-9.14242
ré	-9.14805
▁ur	-9.14878
ang	-9.15663
france	-9.15693
ine	-9.16304
▁baden	-9.16333
ó	-9.16749
ty	-9.16792
ot	-9.16897
▁ta	-9.17221
▁côte	-9.17317
it	-9.17528
pu	-9.17727
ino	-9.18112
▁auvergne	-9.18162
▁val	-9.18285
▁sch	-9.18314
ey	-9.19064
nereis	-9.19178
zo	-9.20039
▁go	-9.20161
men	-9.20229
ir	-9.2029
tre	-9.20651
württemberg	-9.21167
▁île	-9.21245
▁classis	-9.21711
▁katundan	-9.21715
q	-9.22006
▁dida	-9.22058
ut	-9.2207
▁minas	-9.22111
▁ja	-9.22198
▁salatan	-9.22358
zi	-9.22523
▁cor	-9.22565
hausen	-9.22688
▁charente	-9.22696
oni	-9.23042
▁bretagne	-9.23106
▁bar	-9.23418
ei	-9.2343
par	-9.2375
▁im	-9.24001
holstein	-9.2406
▁colombia	-9.24296
▁v	-9.24543
▁par	-9.24601
era	-9.24662
ida	-9.24739
▁te	-9.25678
▁piemonte	-9.2606
tz	-9.26813
▁so	-9.27312
jo	-9.27334
ny	-9.27911
▁grande	-9.27934
ger	-9.2804
▁ho	-9.28371
ig	-9.28381
don	-9.2844
burg	-9.28448
ng	-9.2876
▁no	-9.28775
▁w	-9.29312
▁tri	-9.2981
▁mon	-9.29868
▁pu	-9.30305
),	-9.30356
▁oblast	-9.30356
▁ti	-9.30537
▁regnum	-9.30694
qu	-9.30698
ris	-9.30811
▁saxony	-9.31034
rhin	-9.31396
▁lo	-9.31822
kreis	-9.31971
▁du	-9.32184
6	-9.32273
▁thuringia	-9.32489
dia	-9.3259
▁m	-9.3289
cher	-9.32966
ara	-9.33024
res	-9.33169
▁17	-9.33253
lata	-9.33566
▁bc	-9.34437
▁he	-9.34825
we	-9.35655
hu	-9.35713
▁district	-9.35911
▁gerais	-9.361
ren	-9.36461
fi	-9.37668
▁ngaran	-9.37909
ec	-9.38274
▁bre	-9.3879
ère	-9.38982
▁z	-9.39033
côte	-9.39636
▁amihanan	-9.39767
▁au	-9.39779
▁puy	-9.39962
mb	-9.40261
▁or	-9.40315
▁der	-9.40355
▁hapon	-9.40549
▁somme	-9.40586
▁pro	-9.40883
ff	-9.40884
mon	-9.40979
cho	-9.40985
3	-9.41276
am	-9.41312
ł	-9.41727
▁ne	-9.41886
son	-9.41931
ux	-9.42269
ie	-9.4232
▁aisne	-9.42341
▁dekada	-9.42362
▁adlaw	-9.42498
para	-9.4255
tes	-9.42665
▁ver	-9.42755
▁niedersachsen	-9.43222
sta	-9.43454
nay	-9.43629
▁gi	-9.4387
▁bas	-9.44012
▁cha	-9.44215
qui	-9.45045
ier	-9.45123
su	-9.45241
ú	-9.45455
ian	-9.45907
ven	-9.45979
bre	-9.46028
ag	-9.46071
▁fi	-9.46088
▁–	-9.4672
▁mecklenburg	-9.46839
nu	-9.4698
▁syllidae	-9.47538
martin	-9.47579
illa	-9.47596
azur	-9.47658
formis	-9.48146
▁chi	-9.48175
▁polynoidae	-9.48344
cin	-9.48708
▁lot	-9.49036
ak	-9.49143
cor	-9.494
lan	-9.49441
▁hit	-9.49751
ë	-9.49767
▁texas	-9.49769
feld	-9.49769
▁mac	-9.4985
nica	-9.4988
ena	-9.49968
▁norte	-9.50606
ola	-9.50609
non	-9.51312
▁provence	-9.51806
▁mancha	-9.51862
nia	-9.52104
tte	-9.52218
olo	-9.52249
fa	-9.52542
▁south	-9.52658
one	-9.52727
em	-9.52777
lla	-9.52823
ón	-9.5285
syllis	-9.53026
lon	-9.53384
▁monte	-9.53406
gon	-9.53417
zy	-9.53505
gra	-9.53554
5	-9.53593
▁serpulidae	-9.54062
▁carolina	-9.54066
ach	-9.54168
vorpommern	-9.54254
▁oise	-9.54274
ros	-9.54281
pin	-9.54891
▁alsace	-9.5503
bra	-9.55177
mu	-9.55227
▁15	-9.55398
ek	-9.55418
▁sub	-9.55687
pp	-9.55689
▁to	-9.55922
len	-9.55995
▁calvados	-9.56226
tro	-9.56354
▁cal	-9.56428
▁jura	-9.56753
sous	-9.56793
ów	-9.56876
for	-9.56902
▁ga	-9.5693
prefectura	-9.56994
▁les	-9.57255
ov	-9.57261
lar	-9.57363
bon	-9.57476
ice	-9.57567
ku	-9.57695
▁fa	-9.57844
▁ri	-9.57849
▁tubificidae	-9.58102
uubos	-9.58234
aux	-9.58344
▁kabisay	-9.58437
▁tu	-9.58494
oma	-9.5851
lus	-9.58736
ner	-9.59344
▁moselle	-9.59348
eunice	-9.59446
opsis	-9.5961
▁3	-9.5975
stein	-9.59948
4	-9.60028
▁18	-9.60068
im	-9.60237
ye	-9.60331
tr	-9.60332
oc	-9.60463
tin	-9.60548
▁h	-9.60571
8	-9.60711
ix	-9.60855
▁ve	-9.60974
ura	-9.61567
č	-9.61689
▁bern	-9.61795
dorf	-9.61853
syon	-9.61929
gna	-9.62109
▁hu	-9.62838
sh	-9.62942
▁tarn	-9.63015
▁ordo	-9.63188
vel	-9.63188
▁tsina	-9.63482
ley	-9.63508
▁20	-9.63987
▁katawhan	-9.64071
ez	-9.64151
rac	-9.64333
▁villa	-9.64477
bel	-9.64532
▁u	-9.64669
gy	-9.64726
▁it	-9.64991
ling	-9.65136
▁er	-9.65574
7	-9.65739
gar	-9.6589
▁can	-9.66394
▁kon	-9.66599
9	-9.66637
bois	-9.67022
saône	-9.6705
ières	-9.67051
▁gu	-9.67248
ben	-9.6745
▁papa	-9.67633
▁4	-9.67661
moselle	-9.67671
gan	-9.67778
▁marne	-9.67822
pierre	-9.67865
hon	-9.67874
gin	-9.67881
š	-9.6801
▁dagat	-9.68036
▁paulo	-9.68076
ric	-9.68208
▁16	-9.68209
▁gihapon	-9.68302
ju	-9.68307
bé	-9.68654
▁saône	-9.68692
▁napulo	-9.68958
og	-9.6899
bri	-9.70023
▁prešov	-9.70293
▁andalucía	-9.70544
ug	-9.70647
▁manche	-9.70712
▁aragón	-9.70797
▁ch	-9.70906
mes	-9.71202
▁hautes	-9.71268
sky	-9.7137
mp	-9.71411
▁sal	-9.7182
▁nereis	-9.71931
hr	-9.72191
▁cer	-9.72317
rin	-9.7237
ich	-9.72451
lia	-9.72568
ell	-9.72603
ero	-9.72752
je	-9.73138
ves	-9.73182
▁bad	-9.73224
▁nereididae	-9.7323
▁gironde	-9.73361
▁gud	-9.73405
ab	-9.73568
▁mu	-9.73691
endorf	-9.73892
rat	-9.73904
pan	-9.73921
▁r	-9.74065
▁j	-9.74165
min	-9.74216
dendronephthya	-9.74894
rio	-9.74976
▁isla	-9.7505
▁ser	-9.75057
her	-9.75064
▁ober	-9.75113
ès	-9.75236
sheim	-9.75424
turbonilla	-9.7543
▁doubs	-9.75459
▁10	-9.75873
elli	-9.76222
▁john	-9.76341
▁limousin	-9.7639
án	-9.76456
0&	-9.76509
pen	-9.76556
▁kanan	-9.7688
pro	-9.76888
▁hampshire	-9.76927
ai	-9.76979
igny	-9.77143
vin	-9.77148
▁meurthe	-9.77331
▁mor	-9.7739
ant	-9.77693
parenti	-9.77697
▁liwat	-9.77741
ika	-9.78132
▁ex	-9.78327
gue	-9.78354
15	-9.78838
sdorf	-9.78841
▁sin	-9.78954
bou	-9.79218
▁dakota	-9.79293
om	-9.79294
▁ben	-9.79322
è	-9.7939
▁belhika	-9.79654
ern	-9.79655
16	-9.79714
ham	-9.79719
0	-9.79894
▁ku	-9.79894
▁12	-9.79952
revision	-9.80069
▁11	-9.80094
▁santo	-9.8025
tel	-9.80275
ovce	-9.80293
eux	-9.80463
ers	-9.80605
▁kun	-9.8102
▁her	-9.81343
▁2	-9.81454
illo	-9.81524
▁county	-9.81749
▁dordogne	-9.81749
▁pagka	-9.81775
cia	-9.81882
ow	-9.81922
hin	-9.82013
▁isère	-9.8218
▁wa	-9.82607
20	-9.82911
▁jean	-9.82936
▁gracilis	-9.83027
ini	-9.83077
cal	-9.83086
▁5	-9.83124
▁eu	-9.83188
ille	-9.83375
né	-9.83418
mor	-9.83532
illy	-9.83532
▁bal	-9.83603
shi	-9.83657
▁gra	-9.83735
▁indre	-9.83772
enta	-9.83915
▁yonne	-9.84198
▁sur	-9.84301
cola	-9.84512
cer	-9.84661
ap	-9.84686
ale	-9.84895
ong	-9.85091
▁ge	-9.85231
ub	-9.85805
▁fu	-9.85819
ín	-9.85958
▁diin	-9.86034
▁sinirangan	-9.86094
▁6	-9.8645
▁14	-9.86513
los	-9.86583
ex	-9.86629
ire	-9.86668
▁ber	-9.8684
▁kab	-9.86926
atlantiques	-9.86926
▁lugar	-9.86984
del	-9.87135
▁panahon	-9.87234
sto	-9.87312
branch	-9.87348
ill	-9.87398
tar	-9.87476
rum	-9.87652
mel	-9.87659
ji	-9.87739
nan	-9.87851
▁pseudo	-9.8786
kahoronan	-9.88334
cum	-9.88474
zh	-9.88725
▁kasawangan	-9.88764
▁nu	-9.88907
fo	-9.88907
gua	-9.89075
▁virginia	-9.8911
ban	-9.89111
▁sainte	-9.89205
lingen	-9.89229
cro	-9.89252
any	-9.8939
est	-9.89426
▁neu	-9.89638
▁orne	-9.89776
odostomia	-9.89875
▁gers	-9.89892
▁the	-9.8994
▁bei	-9.90067
▁illinois	-9.90136
▁vosges	-9.90136
kar	-9.90201
var	-9.90202
▁7	-9.90322
▁loire	-9.90494
ico	-9.90534
pl	-9.90553
kan	-9.90571
▁butnga	-9.907
ä	-9.91016
uri	-9.91036
har	-9.91355
▁13	-9.91477
tia	-9.91566
lé	-9.91579
mé	-9.91637
▁tra	-9.91935
▁ira	-9.91967
▁tungod	-9.92059
abarak	-9.92272
gor	-9.92544
pansayod	-9.92622
▁verrill	-9.93106
▁peru	-9.93209
▁bartsch	-9.93264
▁va	-9.93446
yn	-9.93615
▁ardennes	-9.93667
dôme	-9.93732
aw	-9.93816
▁8	-9.93882
▁iba	-9.94097
▁maine	-9.94176
ok	-9.9418
az	-9.94235
hy	-9.94235
▁pra	-9.94262
▁ocean	-9.94298
▁ju	-9.94307
▁9	-9.94311
▁california	-9.9437
jean	-9.94508
ler	-9.94577
zu	-9.94622
by	-9.94623
stro	-9.94744
pt	-9.94949
ão	-9.9495
▁eunice	-9.94955
▁en	-9.95011
▁kalibutan	-9.95054
▁ug	-9.952
▁duha	-9.95233
▁ab	-9.95574
nac	-9.95654
▁bou	-9.95718
▁pin	-9.95959
bal	-9.96184
num	-9.96243
igbaw	-9.96309
▁gard	-9.96435
▁salamanca	-9.96472
pal	-9.96589
loir	-9.9662
▁micro	-9.96698
up	-9.96716
▁košice	-9.968
▁veneto	-9.96803
▁uru	-9.96933
▁terebellidae	-9.96964
▁ci	-9.96997
▁comunidad	-9.97128
▁sabellidae	-9.97128
upat	-9.97176
fu	-9.97204
▁bystrica	-9.97293
▁sertulariidae	-9.97293
lina	-9.97316
▁longi	-9.97372
ois	-9.97392
▁rhein	-9.97448
▁for	-9.97486
mal	-9.97497
ž	-9.97697
pon	-9.98056
uc	-9.98198
▁spionidae	-9.98287
ev	-9.98301
kov	-9.98366
▁pyramidellidae	-9.98454
▁henry	-9.98461
▁paraná	-9.988
thal	-9.98936
▁tur	-9.9911
▁aube	-9.99166
aba	-9.99221
llo	-9.99288
▁tin	-9.99529
rus	-9.99544
▁bahia	-9.99586
gre	-9.99662
▁sc	-9.9968
eta	-9.99741
ium	-9.99924
▁ki	-9.99954
▁van	-10.0001
13	-10.0025
hen	-10.0035
rie	-10.006
octopus	-10.007
▁styria	-10.0099
▁tor	-10.0102
ato	-10.0113
▁hesse	-10.0119
char	-10.0132
▁ain	-10.0151
ira	-10.0154
santa	-10.0197
▁tr	-10.0223
cirr	-10.0227
▁bansk	-10.0233
▁city	-10.0236
gui	-10.0253
▁conidae	-10.0263
py	-10.0266
cur	-10.0269
▁georgia	-10.0285
lio	-10.0288
▁hartmann	-10.0288
▁kroasya	-10.0289
▁ce	-10.0312
typosyllis	-10.0315
tta	-10.032
rou	-10.032
▁campania	-10.0324
▁aude	-10.0331
lat	-10.0338
uk	-10.0348
serpula	-10.0351
rama	-10.0358
karuhaan	-10.0359
ani	-10.0361
ign	-10.0367
drilus	-10.0372
thi	-10.0372
aria	-10.039
▁portugal	-10.0394
▁west	-10.0405
ps	-10.0408
nau	-10.0411
▁mer	-10.0414
▁za	-10.0419
lay	-10.0431
din	-10.0436
enbach	-10.0441
▁mal	-10.0442
bor	-10.0475
thy	-10.0496
▁ph	-10.0519
harmothoe	-10.053
ud	-10.0532
dor	-10.0537
ente	-10.055
bas	-10.0567
ñ	-10.0568
eg	-10.06
tha	-10.0619
▁james	-10.0627
cz	-10.0648
▁haut	-10.0651
▁minnesota	-10.0662
▁puerto	-10.0665
ña	-10.0686
ah	-10.0692
▁chapelle	-10.0697
ari	-10.0698
villa	-10.0698
▁var	-10.07
pur	-10.07
ius	-10.0724
wil	-10.0724
fe	-10.0725
▁lima	-10.0753
▁kay	-10.0765
cata	-10.0781
▁lin	-10.0788
▁komunidad	-10.0789
▁meuse	-10.0794
▁los	-10.0797
lumbrineris	-10.0806
ise	-10.0808
▁grube	-10.0821
▁masunod	-10.0827
wo	-10.0841
ung	-10.0844
▁ulohan	-10.0845
▁bel	-10.0848
sainte	-10.085
▁romano	-10.0869
commonsdelinker	-10.0881
▁plexauridae	-10.0881
gues	-10.0887
probinsya	-10.09
schröder	-10.09
▁germany	-10.09
▁pilsbry	-10.0908
▁hartman	-10.0919
onne	-10.0922
▁bahin	-10.094
mm	-10.0952
symplectoscyphus	-10.0974
▁calabria	-10.0993
▁poly	-10.0999
bin	-10.1003
▁administratibo	-10.1034
▁leyte	-10.105
▁bor	-10.1051
▁je	-10.1052
cou	-10.1053
▁es	-10.1061
▁gar	-10.1063
▁washington	-10.1068
▁nova	-10.1086
tur	-10.1087
van	-10.1103
▁ad	-10.1109
hetero	-10.1121
▁samar	-10.1144
yan	-10.1152
ring	-10.1154
ret	-10.1154
av	-10.1159
ker	-10.116
chen	-10.1162
lig	-10.1162
gr	-10.1178
aram	-10.1204
neu	-10.1212
eda	-10.1215
▁bra	-10.122
ken	-10.1222
▁sp	-10.1233
zon	-10.1234
▁autonoma	-10.1278
▁kabahin	-10.1288
▁cher	-10.1288
see	-10.1292
xi	-10.1298
chy	-10.1316
nt	-10.1317
▁upod	-10.1337
▁nephtheidae	-10.1355
▁hy	-10.136
▁corse	-10.136
cé	-10.1362
weiler	-10.1363
▁nederlandes	-10.1374
ip	-10.1402
iano	-10.1414
▁sugad	-10.1448
stadt	-10.1453
▁str	-10.1482
kon	-10.1484
alto	-10.1488
▁1	-10.1494
tina	-10.1508
▁mexico	-10.1511
ista	-10.1512
▁wi	-10.1514
syudad	-10.1541
enne	-10.157
rey	-10.1572
bert	-10.1576
sy	-10.1596
▁naka	-10.1611
▁phyllodocidae	-10.1611
com	-10.1636
ona	-10.165
ô	-10.167
▁spi	-10.1674
cella	-10.1678
my	-10.1689
▁turbonilla	-10.1695
▁ville	-10.17
mas	-10.1721
▁camaenidae	-10.1731
▁brandenburg	-10.1731
acropora	-10.1743
bia	-10.1748
▁piauí	-10.1751
villers	-10.1765
▁multi	-10.177
ali	-10.178
▁1919.	-10.1791
10	-10.1799
sbach	-10.1815
col	-10.1818
ore	-10.1825
lou	-10.1852
iata	-10.1882
▁gua	-10.1884
▁dendronephthya	-10.1899
ama	-10.1912
▁is	-10.1913
▁burgos	-10.1914
elle	-10.1915
ain	-10.1915
zzo	-10.1921
▁ven	-10.1922
▁che	-10.1933
actis	-10.1957
ed	-10.1972
▁fl	-10.1976
ado	-10.1988
▁japonica	-10.1996
▁ban	-10.2004
▁bag	-10.2007
mat	-10.202
▁1909.	-10.2037
iz	-10.2058
pont	-10.2067
▁cy	-10.2086
▁sar	-10.2092
▁sicilia	-10.2121
jar	-10.2134
myzostoma	-10.214
ment	-10.2143
▁mas	-10.2157
▁sol	-10.2173
bot	-10.218
▁addison	-10.2184
▁pamunuan	-10.2184
▁ersé	-10.2184
▁indiana	-10.2188
oidea	-10.2203
▁emery	-10.2205
nic	-10.2212
wer	-10.225
▁pre	-10.2252
yer	-10.2253
ora	-10.2272
▁fe	-10.2274
helix	-10.2286
spirorbis	-10.229
fr	-10.2295
▁sarthe	-10.2295
westphalia	-10.2311
▁cruz	-10.2313
▁pont	-10.232
cos	-10.2324
vé	-10.2331
bul	-10.2337
▁col	-10.2342
▁indya	-10.2346
ras	-10.2353
▁ariège	-10.2375
if	-10.2386
uz	-10.2392
▁rhine	-10.2396
▁hérault	-10.2397
▁william	-10.24
▁ter	-10.2403
cr	-10.2407
nat	-10.2407
poli	-10.2422
sar	-10.2436
▁sankt	-10.2442
▁mel	-10.2443
ram	-10.2444
50	-10.2454
vis	-10.2459
▁1889	-10.2462
anhalt	-10.2467
▁yana	-10.247
uro	-10.2473
▁ardèche	-10.2483
pri	-10.2507
yon	-10.2521
▁ille	-10.2522
pag	-10.2533
gat	-10.2546
hol	-10.2552
▁harani	-10.2565
▁noruega	-10.257
▁pacifica	-10.2571
â	-10.2573
ue	-10.258
▁char	-10.2584
oy	-10.2586
ía	-10.2595
sabella	-10.2608
ili	-10.2612
▁alpes	-10.2612
onia	-10.2631
gne	-10.264
vilaine	-10.2659
armor	-10.2664
polynoe	-10.2665
▁cr	-10.2667
nberg	-10.2678
phyllodoce	-10.2688
12	-10.2697
▁un	-10.2701
ting	-10.2703
▁ob	-10.2722
sepia	-10.2738
▁cataluña	-10.2747
▁yinaknan	-10.2747
town	-10.2757
▁sen	-10.2759
ep	-10.2762
▁juan	-10.2785
ion	-10.2788
▁br	-10.2818
▁landes	-10.2828
▁catarina	-10.2837
▁allier	-10.2854
▁alcyoniidae	-10.2859
▁tro	-10.2866
iya	-10.2881
uli	-10.2881
▁kentucky	-10.2882
▁barrio	-10.2884
germain	-10.2886
zac	-10.2902
mus	-10.2928
oise	-10.2931
▁martin	-10.2943
ersdorf	-10.2945
papa	-10.2946
▁capensis	-10.2956
hel	-10.2964
▁drôme	-10.2973
kh	-10.2976
por	-10.2977
neo	-10.2981
wald	-10.2986
eira	-10.2994
▁emilia	-10.2996
▁albanya	-10.2996
▁polychaeta	-10.3018
▁linnaeus	-10.3018
▁missouri	-10.3018
▁fo	-10.3019
▁ii	-10.3031
rot	-10.304
▁michigan	-10.3041
iko	-10.3042
ski	-10.305
▁my	-10.3051
▁deux	-10.3055
▁louis	-10.3063
▁dapit	-10.3066
monte	-10.3066
gio	-10.3067
▁x	-10.3069
▁bl	-10.3078
▁vo	-10.3082
▁loiret	-10.3086
▁elegans	-10.3087
bad	-10.3088
▁uni	-10.3088
▁usá	-10.3089
▁cap	-10.3097
ema	-10.3119
▁vienne	-10.3122
net	-10.3123
pel	-10.3131
opho	-10.316
18	-10.3172
▁valenciana	-10.3184
▁cla	-10.3184
cera	-10.3187
ost	-10.3197
▁silesya	-10.3203
bl	-10.3211
pes	-10.3217
▁odostomia	-10.322
17	-10.3226
sèvres	-10.3228
glo	-10.3234
▁goiás	-10.3274
▁min	-10.3274
▁bug	-10.3289
▁1885	-10.3298
▁valle	-10.3303
▁pal	-10.3304
gli	-10.3305
▁cam	-10.3311
via	-10.3341
▁pedro	-10.3343
jinjian	-10.3345
uil	-10.337
art	-10.3383
▁eunicidae	-10.3392
lepidonotus	-10.3411
▁paul	-10.342
▁tom	-10.3426
▁nièvre	-10.3427
ima	-10.3429
▁kr	-10.3441
▁pla	-10.3443
itz	-10.3446
▁nitra	-10.3449
▁tulo	-10.3452
▁alba	-10.3452
onuphis	-10.3464
▁ikaduha	-10.3464
▁jo	-10.3479
roy	-10.3484
ópolis	-10.3488
40	-10.3504
sinularia	-10.3507
▁ke	-10.3509
▁land	-10.351
▁tubtob	-10.3512
▁cantal	-10.3514
corn	-10.3514
savoie	-10.3532
cau	-10.3532
▁josé	-10.3536
ette	-10.3556
▁helix	-10.356
▁tre	-10.359
ches	-10.3618
nella	-10.3625
▁syllis	-10.3632
▁nahabilin	-10.3633
mil	-10.3646
eng	-10.3646
ax	-10.365
munisipyo	-10.3655
▁ara	-10.3689
tter	-10.369
zel	-10.3691
wan	-10.3695
olohiya	-10.3703
ray	-10.3707
▁neo	-10.3715
enburg	-10.3717
rop	-10.3719
pseudo	-10.3722
ischnochitonidae	-10.3737
▁com	-10.3741
ple	-10.3758
ral	-10.3772
▁ros	-10.3773
long	-10.3775
▁est	-10.3779
▁cast	-10.3794
ân	-10.3802
▁pri	-10.3806
▁york	-10.3829
eto	-10.3837
▁top	-10.3839
asyon	-10.385
hn	-10.3852
sertularella	-10.3855
▁damo	-10.386
haute	-10.3861
odon	-10.3866
ava	-10.3871
▁masovya	-10.3879
rina	-10.3881
▁savoie	-10.3883
▁southern	-10.3906
dur	-10.3912
▁aveyron	-10.3912
cas	-10.3916
ath	-10.3924
▁florida	-10.3925
port	-10.3931
una	-10.3948
▁groß	-10.395
▁maranhão	-10.3951
▁mississippi	-10.3954
▁upat	-10.3956
egg	-10.3956
▁alb	-10.3962
vy	-10.3967
▁1905.	-10.398
▁minuta	-10.398
▁1990.	-10.3983
▁maria	-10.3983
▁torre	-10.3995
30	-10.4012
gn	-10.4019
pina	-10.4027
31	-10.4028
win	-10.4033
▁say	-10.4041
▁loir	-10.4045
nova	-10.4047
▁tenuis	-10.4051
▁stephen	-10.4055
▁colorado	-10.4056
▁kansas	-10.4056
▁lazio	-10.4085
▁ger	-10.4088
mata	-10.4099
▁municipality	-10.4101
▁bri	-10.4131
▁extremadura	-10.4132
▁paraíba	-10.4132
isohypsibius	-10.4137
▁1866	-10.4158
cey	-10.4159
ole	-10.4165
gno	-10.4171
dio	-10.4186
ello	-10.4195
uy	-10.4196
▁camp	-10.4202
▁salog	-10.4213
ober	-10.4226
ante	-10.4229
lica	-10.4234
▁1908.	-10.4235
ala	-10.4255
gal	-10.4255
22	-10.4256
okres	-10.4263
nar	-10.4272
ismo	-10.4275
▁switzerland	-10.4287
▁žilina	-10.4287
nik	-10.4291
romagna	-10.4317
▁cre	-10.4319
▁mé	-10.4331
▁gregoriano	-10.4339
▁mangulo	-10.434
01	-10.4341
ná	-10.4352
▁1984	-10.4366
our	-10.438
kirchen	-10.4387
▁vlaams	-10.4391
▁iowa	-10.4392
fontaine	-10.44
mya	-10.4415
▁1910.	-10.4418
hofen	-10.4428
▁bon	-10.4429
pil	-10.4434
▁hira	-10.4437
▁antarctica	-10.4444
▁nadudultan	-10.4444
▁gatostuig	-10.4444
▁hol	-10.4477
kulang	-10.4479
▁singbahan	-10.4479
yi	-10.448
pter	-10.4483
▁galicia	-10.4498
rich	-10.4498
▁harmothoe	-10.4506
▁pang	-10.4506
▁sardinya	-10.4524
jan	-10.4525
pis	-10.4534
dom	-10.4541
ao	-10.4549
dina	-10.4558
▁gulf	-10.4578
▁unionidae	-10.4579
uda	-10.4581
▁1927	-10.4605
▁21	-10.4606
lac	-10.4618
mina	-10.4624
▁campo	-10.4635
▁bisan	-10.4646
23	-10.4651
▁turin	-10.4653
phi	-10.4659
bourg	-10.4663
pol	-10.4669
▁johan	-10.4672
tom	-10.4676
▁long	-10.4681
▁charopidae	-10.4685
▁wisconsin	-10.4685
▁vaud	-10.4694
aro	-10.4702
pra	-10.4719
▁bulan	-10.4723
▁maka	-10.4734
▁sant	-10.4739
▁dako	-10.4749
ischnochiton	-10.4754
▁enero	-10.4757
▁hel	-10.4759
▁australis	-10.4766
▁zaragoza	-10.4766
ulo	-10.4772
uan	-10.4779
wal	-10.4781
mara	-10.479
▁mcintosh	-10.4794
zell	-10.4794
▁las	-10.4794
plumularia	-10.4809
▁pero	-10.4814
nce	-10.4817
▁fr	-10.4819
▁onuphidae	-10.4821
▁kilalado	-10.4822
▁we	-10.4828
▁gran	-10.4836
▁teuthida	-10.4849
▁vendée	-10.4849
tula	-10.485
pre	-10.4856
uusa	-10.4859
nitz	-10.4859
chal	-10.4867
▁ple	-10.4871
▁ikalima	-10.4877
hal	-10.4889
leu	-10.4905
▁lea	-10.4906
hor	-10.4907
vers	-10.4911
▁italy	-10.4912
rain	-10.4939
én	-10.4941
anne	-10.4942
▁gal	-10.4955
abot	-10.4959
▁zealand	-10.4959
▁datos	-10.496
ky	-10.4986
▁corrèze	-10.4987
▁nutting	-10.4987
natawag	-10.4987
tig	-10.4995
eli	-10.501
▁serpula	-10.5028
▁george	-10.5028
sson	-10.5031
▁bulgarya	-10.5043
▁cnidaria	-10.5043
zar	-10.5049
illon	-10.5054
fur	-10.507
katloan	-10.5071
illac	-10.5096
ovo	-10.5098
▁cairns	-10.5099
▁lumbrineris	-10.5102
anda	-10.5107
▁katapos	-10.5108
chau	-10.511
polydora	-10.5117
▁lim	-10.5118
28	-10.5119
hydroides	-10.5121
▁simplex	-10.5128
▁1864.	-10.5128
plo	-10.5144
beau	-10.5153
33	-10.5154
▁katoliko	-10.5156
▁1879.	-10.5156
tl	-10.5163
ast	-10.5165
born	-10.5169
uf	-10.517
▁sistema	-10.5171
ble	-10.5179
bol	-10.5195
lmar	-10.5201
▁valencia	-10.5208
▁sy	-10.5224
minor	-10.5227
gera	-10.5236
fra	-10.5238
▁lan	-10.5238
▁ihap	-10.5241
▁adige	-10.5241
tier	-10.5241
costa	-10.5253
himo	-10.5258
▁semi	-10.5265
▁californica	-10.527
▁sh	-10.5286
▁men	-10.5287
kal	-10.529
▁sea	-10.5303
▁cho	-10.5309
▁yvelines	-10.5312
▁pol	-10.5325
21	-10.5356
▁gidako	-10.5357
▁inter	-10.5369
rem	-10.5372
ides	-10.5374
uru	-10.5379
▁den	-10.5385
▁nebraska	-10.5385
▁ohio	-10.5385
lim	-10.539
▁rioja	-10.5392
gh	-10.5394
36	-10.5397
11	-10.5399
▁opisyal	-10.5412
19	-10.5414
▁powell	-10.5415
▁mol	-10.5417
mun	-10.5435
eau	-10.5436
▁economic	-10.5451
▁poy	-10.5453
▁peter	-10.5453
▁champ	-10.5454
▁prefektura	-10.5467
▁hydrobiidae	-10.5473
▁trentino	-10.5473
▁voivodato	-10.5476
laurent	-10.5502
tsu	-10.5531
▁1991.	-10.5531
▁1906.	-10.5532
▁pinaagi	-10.5532
agi	-10.5533
fel	-10.5545
ssac	-10.5553
corse	-10.5553
zer	-10.5563
esse	-10.5574
ist	-10.5577
▁qu	-10.5577
südtirol	-10.5591
bay	-10.5593
ami	-10.5611
▁see	-10.5614
▁creuse	-10.562
▁mayenne	-10.5624
tiko	-10.5626
ila	-10.5633
arn	-10.5642
vol	-10.5646
34	-10.5651
▁rico	-10.5662
bos	-10.5663
sol	-10.5679
▁agsob	-10.568
▁mayo	-10.5693
lang	-10.5694
ska	-10.5697
▁pagdu	-10.5703
vic	-10.5704
champ	-10.5705
▁castel	-10.5709
▁cou	-10.5712
hagen	-10.5713
▁ves	-10.5721
bulan	-10.5723
▁chile	-10.5725
▁kaagi	-10.5727
▁pinaka	-10.5733
mit	-10.5734
▁plan	-10.5737
mur	-10.5737
ati	-10.5765
▁spirorbis	-10.5769
▁carlgren	-10.577
rid	-10.5771
▁port	-10.5782
▁gr	-10.5783
▁por	-10.5785
grand	-10.5787
elles	-10.5807
tellina	-10.5815
▁nagin	-10.5824
▁ste	-10.5825
▁buccinidae	-10.5831
▁augustus	-10.5831
halecium	-10.5834
▁cour	-10.5848
▁natawo	-10.5851
▁caryophylliidae	-10.5861
▁1979.	-10.5861
▁durudak	-10.5861
▁tennessee	-10.5861
▁1911	-10.5863
▁pagpa	-10.5869
▁serra	-10.5872
kin	-10.5873
vre	-10.588
▁mato	-10.5881
▁guadalajara	-10.5891
▁tan	-10.5898
olles	-10.5904
iro	-10.5905
▁lublin	-10.5922
42	-10.5924
camp	-10.5927
09	-10.5937
▁mur	-10.5942
vier	-10.5947
▁mari	-10.595
ob	-10.5951
actinia	-10.596
spio	-10.5972
70	-10.598
▁bolivia	-10.5984
▁robusta	-10.5984
▁teritoryal	-10.5984
–	-10.5989
dagat	-10.5991
▁ap	-10.5993
gau	-10.6004
▁zone	-10.6014
▁maldanidae	-10.6014
▁ávila	-10.6014
▁nagtikang	-10.6016
▁island	-10.6024
moon	-10.6032
michel	-10.6036
bis	-10.6039
aga	-10.6043
tura	-10.6046
▁albert	-10.605
powi	-10.6051
maurice	-10.606
▁thomas	-10.6069
kur	-10.6069
glia	-10.6072
lokal	-10.6086
lom	-10.6089
mia	-10.6091
ault	-10.6097
▁arkansas	-10.6108
▁grosso	-10.6108
nas	-10.6122
▁ir	-10.613
gri	-10.6137
dis	-10.6148
lit	-10.6153
▁n	-10.6155
mag	-10.6164
▁sabella	-10.6164
tto	-10.6168
ophi	-10.6168
▁finistère	-10.617
may	-10.6179
▁villar	-10.6183
ová	-10.6197
▁morbihan	-10.6202
fen	-10.6222
▁1878.	-10.6233
lier	-10.6235
▁pr	-10.6243
▁kahaluag	-10.6254
▁trenčín	-10.6265
▁pomeranya	-10.6266
hydra	-10.6271
marie	-10.6272
ago	-10.6273
provence	-10.6275
zza	-10.6277
lakip	-10.6284
▁octopus	-10.6287
▁plat	-10.6289
▁abruzzo	-10.6297
▁blake	-10.6297
natawo	-10.6307
▁gewest	-10.6329
▁oktubre	-10.6336
▁abril	-10.634
▁by	-10.6349
▁nieder	-10.636
▁oscar	-10.6361
ché	-10.6365
asco	-10.6373
rom	-10.6374
▁kinatsila	-10.638
▁marso	-10.6388
ignac	-10.639
▁pam	-10.6391
▁henrik	-10.6395
tsch	-10.6399
bus	-10.64
ik	-10.6412
▁aves	-10.6414
cant	-10.6422
mudlok	-10.6425
▁voivodeship	-10.6425
▁1758.	-10.6425
igné	-10.6434
gas	-10.6442
07	-10.6455
▁exclusiv	-10.6457
▁lumbrineridae	-10.6457
▁muricidae	-10.6457
53	-10.6464
eck	-10.6487
▁ak	-10.6488
▁vietnam	-10.6489
▁1981.	-10.6489
uma	-10.6491
▁vasco	-10.6492
▁disyembre	-10.6493
▁ten	-10.6498
château	-10.65
all	-10.6504
▁amerikano	-10.6511
▁fra	-10.6523
ito	-10.6528
idad	-10.6532
▁sou	-10.6535
nz	-10.6542
▁moore	-10.6556
pos	-10.6556
lam	-10.6559
usa	-10.6564
▁trento	-10.6565
hydractinia	-10.6569
▁typosyllis	-10.6571
▁phyllodoce	-10.6577
▁wo	-10.6578
39	-10.6584
elo	-10.6594
nie	-10.6596
leptogorgia	-10.6602
field	-10.6622
▁1913	-10.6623
bat	-10.6625
▁lou	-10.6626
iac	-10.663
let	-10.663
▁kalawdan	-10.6631
user	-10.6642
▁carpenter	-10.665
▁fragilis	-10.6653
▁cuneo	-10.6653
▁trnava	-10.6653
fl	-10.666
mann	-10.667
▁hja	-10.6671
32	-10.6676
▁gre	-10.6679
04	-10.668
▁kilometro	-10.6686
▁tocantins	-10.6686
▁agi	-10.6694
nou	-10.6711
hé	-10.6716
▁ampharetidae	-10.6719
fal	-10.6719
▁2003.	-10.6723
ib	-10.6749
▁1907.	-10.6752
▁ikatulo	-10.6753
uela	-10.6757
▁asya	-10.6763
▁cáceres	-10.6765
mba	-10.6779
▁tyrol	-10.6785
▁navarra	-10.6785
▁1965.	-10.6785
▁1978.	-10.6791
▁hulyo	-10.6794
ã	-10.6796
vaux	-10.68
▁tar	-10.6803
julien	-10.6807
georges	-10.6809
▁day	-10.6814
ua	-10.6816
rub	-10.6817
▁kükenthal	-10.6819
▁polygyridae	-10.6819
▁1881	-10.6819
seine	-10.682
chiton	-10.6833
vienne	-10.6842
52	-10.6846
▁intermedia	-10.6852
tion	-10.6854
andré	-10.6858
▁wil	-10.686
▁beau	-10.687
▁ed	-10.687
phal	-10.687
▁indian	-10.6876
▁nan	-10.688
eville	-10.6882
▁pul	-10.6882
▁lamarck	-10.6886
▁toledo	-10.6886
▁real	-10.6898
▁lam	-10.6906
▁parva	-10.6911
amp	-10.6916
80	-10.6919
▁kundi	-10.6928
▁dom	-10.6933
glycera	-10.694
▁cir	-10.6943
kha	-10.6945
▁oregon	-10.6947
bru	-10.6949
oteuthis	-10.6951
▁atlantica	-10.6954
▁toscana	-10.6954
▁1972.	-10.6954
▁vol	-10.6966
▁acropora	-10.6966
▁rosa	-10.697
lima	-10.6984
chu	-10.6988
▁zamora	-10.6988
▁adams	-10.6996
▁nobyembre	-10.6997
not	-10.7002
estado	-10.7011
▁puro	-10.7011
paul	-10.7021
▁ehlers	-10.7023
▁1937	-10.7024
ate	-10.7032
cana	-10.7039
▁ag	-10.7041
▁rou	-10.705
▁far	-10.7054
44	-10.7074
▁hor	-10.7074
rit	-10.7079
▁turridae	-10.709
▁łód	-10.709
▁hiyá	-10.709
▁mau	-10.7095
ori	-10.7099
tru	-10.71
ais	-10.7108
▁marche	-10.7116
▁joseph	-10.7117
35	-10.7122
▁octopoda	-10.7125
▁hunyo	-10.7126
denis	-10.7133
hatag	-10.7135
▁tardigrada	-10.7136
rh	-10.7138
guer	-10.7143
90	-10.715
▁pito	-10.7155
fla	-10.7157
▁pulong	-10.7161
lot	-10.7167
aya	-10.7172
quin	-10.7185
iba	-10.7186
▁cas	-10.7188
29	-10.719
orientales	-10.7194
▁winaray	-10.7194
▁1884	-10.7195
lumbricillus	-10.722
▁polynoe	-10.722
▁francis	-10.7226
▁austrya	-10.7229
ef	-10.7236
▁star	-10.7239
▁mat	-10.7246
37	-10.7248
leptochiton	-10.7255
▁cuenca	-10.7264
▁enchytraeidae	-10.7264
▁pennsylvania	-10.7264
▁thomson	-10.7264
▁1900.	-10.7265
pul	-10.7267
▁ngada	-10.7274
lich	-10.7276
pé	-10.7279
▁cri	-10.7286
exogone	-10.7291
▁unibersidad	-10.7298
▁1988	-10.73
eaux	-10.7303
yu	-10.7304
03	-10.7308
neanthes	-10.7326
dro	-10.7327
▁cras	-10.7327
év	-10.7329
▁karat	-10.734
sec	-10.7352
iti	-10.7355
tour	-10.7355
elimia	-10.7363
gl	-10.7364
myzostomum	-10.737
▁1986.	-10.737
▁2,	-10.7376
roux	-10.7387
vent	-10.7392
ceratonereis	-10.7398
▁sierra	-10.7405
scheid	-10.7407
insky	-10.7411
ming	-10.7416
▁pau	-10.7421
bb	-10.7421
villiers	-10.7471
▁1971.	-10.7474
▁1997.	-10.7476
▁1987.	-10.7478
conus	-10.7481
uff	-10.7484
▁unom	-10.7494
pot	-10.7496
ney	-10.7508
97	-10.7512
▁sowerby	-10.7512
▁valladolid	-10.7512
mir	-10.752
ilo	-10.7543
iningles	-10.7543
eiro	-10.7546
atlantique	-10.7557
illé	-10.7557
pora	-10.7573
56	-10.7579
mato	-10.758
▁roma	-10.7582
▁oklahoma	-10.7584
▁myzostoma	-10.7587
▁kapuropod	-10.7601
▁sepia	-10.7609
tera	-10.7615
▁aargau	-10.7616
katundan	-10.7617
marphysa	-10.7618
▁hiton	-10.7625
ere	-10.7629
fol	-10.7631
isis	-10.7639
69	-10.7641
▁shi	-10.7641
▁kinberg	-10.7651
▁mahi	-10.7652
antipathes	-10.7654
▁sugbo	-10.7656
▁scyphozoa	-10.7657
▁tokyo	-10.7657
ort	-10.766
▁valde	-10.7662
pres	-10.7662
rre	-10.7673
▁sim	-10.7674
dos	-10.7676
alia	-10.768
▁nahimo	-10.7681
06	-10.7689
hua	-10.7689
level	-10.769
▁apulia	-10.7693
▁bergamo	-10.7693
asse	-10.7696
41	-10.7721
54	-10.7724
pit	-10.7729
▁quadri	-10.773
▁rissoidae	-10.7731
▁stein	-10.7736
▁sinularia	-10.7737
▁gobyerno	-10.775
pino	-10.7753
43	-10.7757
luc	-10.7759
▁don	-10.7763
prüm	-10.7767
▁una	-10.7776
▁pebrero	-10.7776
cri	-10.7777
▁pope	-10.7782
amphi	-10.7784
▁main	-10.7792
fort	-10.7795
▁watson	-10.7804
▁1998.	-10.7804
▁bin	-10.7804
ancourt	-10.7806
▁agosto	-10.781
57	-10.781
pope	-10.7838
▁pernambuco	-10.7841
vincent	-10.7842
kuha	-10.7848
til	-10.7849
▁jan	-10.785
▁robert	-10.7852
lain	-10.7857
life	-10.7861
27	-10.7863
hai	-10.7869
▁grand	-10.7872
uti	-10.7873
▁aglaopheniidae	-10.7878
▁borealis	-10.7878
cour	-10.7881
▁sil	-10.7889
lower	-10.789
▁indica	-10.7898
▁montana	-10.7898
prionospio	-10.7902
ihap	-10.7905
02	-10.7909
nin	-10.7913
▁elongata	-10.7915
▁teruel	-10.7915
▁wallonie	-10.7915
mangelia	-10.7916
▁ig	-10.7923
▁tuna	-10.7927
mond	-10.7945
▁ilarom	-10.7945
colus	-10.7951
▁1985.	-10.7953
▁ernst	-10.7953
▁on	-10.7968
vern	-10.7969
orum	-10.7985
▁1993.	-10.7992
perinereis	-10.7992
▁país	-10.7993
▁av	-10.7994
roche	-10.7995
▁costa	-10.7996
yama	-10.8002
46	-10.8003
nna	-10.8017
zier	-10.8022
▁alabama	-10.8028
▁stylasteridae	-10.803
oenopota	-10.803
▁4,	-10.8032
tay	-10.804
brunn	-10.8057
▁quin	-10.8062
▁sertularella	-10.8065
▁louisiana	-10.8068
25	-10.8075
dentalium	-10.8094
ochaeta	-10.8099
▁miguel	-10.8104
▁1960.	-10.8105
adi	-10.8119
pista	-10.8122
▁pira	-10.8132
phellia	-10.8142
▁fauchald	-10.8146
▁grandis	-10.8147
▁fre	-10.8149
▁bitburg	-10.818
▁teritoryo	-10.818
▁trochidae	-10.818
▁1846.	-10.818
▁1938.	-10.8182
eulalia	-10.8185
noy	-10.8196
05	-10.82
▁comp	-10.8203
mad	-10.8205
55	-10.821
gay	-10.8221
▁dubia	-10.8221
47	-10.8223
cerithiopsis	-10.8224
terebella	-10.8224
nais	-10.8228
vit	-10.8235
▁gui	-10.8239
▁kri	-10.8239
51	-10.8245
▁wal	-10.8252
▁iredale	-10.8257
▁lleida	-10.8257
▁alta	-10.8261
78	-10.8283
▁30	-10.8285
▁bro	-10.8294
▁septyembre	-10.8295
▁gorgoniidae	-10.8296
▁madrid	-10.8296
uta	-10.8298
autolytus	-10.8303
willer	-10.8304
▁1,	-10.8308
ngan	-10.8308
▁essonne	-10.8318
roc	-10.8321
▁studer	-10.8336
gul	-10.8337
▁von	-10.8349
pseud	-10.835
iza	-10.8362
▁wald	-10.8363
▁niya	-10.8363
▁internet	-10.8375
prefektura	-10.8382
atan	-10.8402
89	-10.8408
67	-10.8409
▁op	-10.8412
▁1861	-10.8414
alle	-10.8419
▁mou	-10.8444
▁1904	-10.8455
sertularia	-10.8462
ew	-10.8466
ignano	-10.8473
▁alt	-10.8475
▁isohypsibius	-10.8484
▁palma	-10.8485
sul	-10.8495
▁mai	-10.8497
▁km	-10.8501
▁poli	-10.8502
▁pará	-10.851
58	-10.8519
petit	-10.8525
▁lang	-10.8526
ert	-10.8526
▁sel	-10.853
▁friuli	-10.8532
bungto	-10.8544
sphaerosyllis	-10.8561
pré	-10.8565
▁sulod	-10.8571
publiko	-10.8572
▁antioquia	-10.8572
▁lozère	-10.8572
hilaire	-10.8572
▁fraser	-10.8572
▁francisco	-10.8595
thelepus	-10.8596
49	-10.8602
kr	-10.8609
hard	-10.8609
▁acroporidae	-10.8612
▁cirratulidae	-10.8612
▁guruguti	-10.8612
olivella	-10.8612
▁kh	-10.863
▁thi	-10.863
castel	-10.8647
▁occidental	-10.8648
act	-10.8665
▁smith	-10.8666
▁code	-10.8666
bio	-10.8667
ède	-10.8668
▁mesnil	-10.8677
line	-10.8677
▁nor	-10.8687
ize	-10.869
▁alaska	-10.8693
▁sidlangan	-10.8699
west	-10.8711
▁xi	-10.8711
lip	-10.8724
▁3,	-10.8727
▁soria	-10.8731
edo	-10.8735
▁charles	-10.8739
bag	-10.8745
plan	-10.8746
▁tam	-10.8747
▁um	-10.875
▁mus	-10.8751
wen	-10.8764
aubin	-10.8773
▁country	-10.8773
▁primnoidae	-10.8773
▁santander	-10.8773
▁granada	-10.8776
bdella	-10.8784
aglaophenia	-10.8788
mou	-10.8789
age	-10.879
ite	-10.8808
▁ceará	-10.8814
▁europa	-10.8814
▁hesionidae	-10.8814
▁liguria	-10.8814
▁pagdudumara	-10.8814
▁1865	-10.8815
enz	-10.8817
▁siyudad	-10.8826
65	-10.883
79	-10.8833
dame	-10.884
▁imperyo	-10.8855
▁1977.	-10.8855
bata	-10.8857
iva	-10.888
▁at	-10.8883
94	-10.8891
mbach	-10.8895
▁huesca	-10.8896
▁imajima	-10.8896
▁vervoort	-10.8896
aquila	-10.8897
cast	-10.8902
63	-10.8903
▁minor	-10.8922
▁giovanni	-10.8938
▁hypsibiidae	-10.8938
▁segovia	-10.8938
▁1974.	-10.8938
▁1903.	-10.8938
▁brevis	-10.894
▁domain	-10.8941
▁ischnochiton	-10.8945
▁espanyol	-10.8949
mari	-10.895
eudendrium	-10.8955
zé	-10.8968
crypto	-10.8973
=131	-10.8978
redirect	-10.8979
▁brescia	-10.8979
08	-10.8985
▁crassa	-10.8985
▁saale	-10.899
▁esp	-10.899
▁hydroides	-10.899
ée	-10.8996
▁plumularia	-10.8997
▁novo	-10.9
▁bru	-10.9006
▁bour	-10.9006
▁bay	-10.901
bang	-10.9016
▁mega	-10.902
▁1902.	-10.9021
96	-10.9029
vu	-10.9059
stetten	-10.9061
▁gould	-10.9062
ampharete	-10.9063
croix	-10.9065
anthus	-10.9073
ków	-10.9081
bie	-10.9104
▁manunurat	-10.9105
▁gyera	-10.9105
▁font	-10.911
▁tour	-10.9111
▁giulia	-10.9113
▁butang	-10.9113
ish	-10.9119
nov	-10.9122
oso	-10.9123
calliostoma	-10.9125
▁now	-10.9127
▁all	-10.9131
neville	-10.9132
▁bir	-10.9133
dara	-10.9137
étienne	-10.9147
▁pakli	-10.9147
▁1962.	-10.9147
▁1973.	-10.9147
▁parokya	-10.9148
villar	-10.9149
▁idaho	-10.9151
▁berry	-10.9153
nor	-10.9153
ese	-10.9153
▁iní	-10.916
▁mira	-10.9162
▁gera	-10.9162
ignan	-10.9162
61	-10.9164
coryne	-10.9188
▁maculata	-10.9189
▁1897.	-10.9189
▁1968.	-10.9189
75	-10.9189
▁1834	-10.919
▁korea	-10.9194
aricidea	-10.9211
▁kultura	-10.9223
inho	-10.9226
▁gru	-10.9232
▁marshall	-10.9232
▁1992.	-10.9232
▁vin	-10.9239
▁ram	-10.9263
▁2002.	-10.9275
▁1982.	-10.9275
tana	-10.9277
▁porto	-10.9287
herm	-10.9293
cken	-10.9297
stylaster	-10.9297
86	-10.9308
nti	-10.9309
duc	-10.9317
▁laevis	-10.9317
flor	-10.9318
rivière	-10.9324
raion	-10.9327
▁dar	-10.9328
24	-10.933
▁augener	-10.9338
nephtys	-10.9341
92	-10.9341
kita	-10.9343
vir	-10.935
ndorf	-10.935
73	-10.9351
▁bat	-10.9355
▁columbellidae	-10.9361
▁1989.	-10.9361
68	-10.9365
try	-10.9375
sabi	-10.9377
▁tixier	-10.9404
▁1944.	-10.9404
▁fribourg	-10.9404
▁1959.	-10.9405
ange	-10.9409
montipora	-10.9429
▁bis	-10.943
▁em	-10.9438
mai	-10.9439
dun	-10.9442
▁luc	-10.9442
▁cauca	-10.9449
▁ker	-10.9454
▁alan	-10.946
▁api	-10.9466
buccinum	-10.9473
▁kin	-10.9489
▁gustaf	-10.9491
tag	-10.9502
▁ginpa	-10.9506
vieux	-10.9508
velle	-10.952
venezia	-10.9535
▁1901.	-10.9535
▁1912.	-10.9535
cingula	-10.9535
quer	-10.9548
▁villers	-10.9551
▁iii	-10.9554
kovce	-10.9561
ča	-10.9561
▁negros	-10.9562
ento	-10.957
epi	-10.9571
tok	-10.9572
hil	-10.9575
▁oriental	-10.9575
nucula	-10.9575
▁1868	-10.958
99	-10.9584
loup	-10.9599
nta	-10.96
rhône	-10.9608
▁arc	-10.961
▁gray	-10.9612
▁westerwaldkreis	-10.9623
▁pallida	-10.9623
tilla	-10.9628
tem	-10.9628
▁polydora	-10.9635
witz	-10.9635
ouville	-10.9636
▁río	-10.9657
fre	-10.966
▁campos	-10.9665
▁alessandria	-10.9668
▁dentaliidae	-10.9668
▁sibogae	-10.9668
▁1999.	-10.9669
éville	-10.9672
74	-10.9673
lach	-10.9675
mau	-10.9677
▁mil	-10.969
ndre	-10.9692
catu	-10.9695
▁magna	-10.9695
four	-10.9695
vigny	-10.9704
▁5,	-10.9708
▁aada	-10.971
▁veron	-10.971
▁hutchings	-10.9712
▁kap	-10.9719
93	-10.9725
aucourt	-10.9736
ensya	-10.9738
clytia	-10.9743
departamento	-10.9743
far	-10.9745
palythoa	-10.9757
iga	-10.9758
85	-10.9759
uze	-10.9762
26	-10.9765
▁metro	-10.9773
clymene	-10.9776
=161	-10.978
rm	-10.9802
▁cham	-10.9804
▁bush	-10.9826
▁fili	-10.9827
grania	-10.9828
haut	-10.9834
acanthochitona	-10.9834
▁6,	-10.9835
lieu	-10.9838
muricea	-10.9841
▁espírit	-10.9847
▁1961.	-10.9847
▁tha	-10.9854
enda	-10.9859
▁gen	-10.987
▁lor	-10.9871
isla	-10.9879
alvania	-10.988
▁sun	-10.9882
cara	-10.9884
cap	-10.9884
zzano	-10.9885
oti	-10.9886
▁halecium	-10.9888
▁formosa	-10.9893
▁1967.	-10.9893
▁conrad	-10.9894
roi	-10.992
rra	-10.9921
sud	-10.9925
puy	-10.993
rado	-10.9933
▁massachusetts	-10.9938
▁partido	-10.9938
▁lepidonotus	-10.9949
tigny	-10.9949
▁sor	-10.9959
nio	-10.9965
72	-10.997
▁kasaysayan	-10.9974
sabellaria	-10.9977
▁albi	-10.9982
▁palencia	-10.9984
▁1842	-10.9985
▁qui	-10.9987
▁cebu	-10.9989
isi	-11.0007
hypsibius	-11.002
branchiomma	-11.0021
trochus	-11.0023
▁1970.	-11.0031
sumpay	-11.0033
▁lip	-11.0035
▁kra	-11.0039
▁solem	-11.0052
kol	-11.006
diopatra	-11.0062
nh	-11.0067
▁nueva	-11.007
rov	-11.0072
▁kuyav	-11.0077
▁1983.	-11.0077
ivault	-11.0077
lagisca	-11.0078
▁striata	-11.0078
▁casa	-11.0079
pat	-11.008
iso	-11.0083
▁manila	-11.0085
82	-11.0092
rang	-11.0105
▁wood	-11.0105
issa	-11.0109
sun	-11.0112
helminthoglypta	-11.0114
ophryotrocha	-11.0114
▁1917.	-11.0123
discus	-11.0124
balhin	-11.0124
ská	-11.0127
▁pavia	-11.0129
sis	-11.0133
▁green	-11.0136
nice	-11.0138
77	-11.0139
▁balaod	-11.0139
▁dra	-11.0151
▁pat	-11.0153
mol	-11.0161
xenia	-11.0162
tam	-11.0165
▁octopodidae	-11.017
chlamys	-11.017
▁ginhimo	-11.0177
tik	-11.0177
bour	-11.0181
▁bol	-11.0182
tat	-11.0183
83	-11.0197
ovsk	-11.021
▁tubig	-11.0216
▁podkarpacie	-11.0217
▁franses	-11.0217
valle	-11.022
cam	-11.0225
yang	-11.0227
▁kadam	-11.0238
▁walo	-11.024
▁tigaman	-11.0241
nec	-11.0247
▁badajoz	-11.0264
▁capitellidae	-11.0264
▁dorvilleidae	-11.0264
acmaea	-11.0264
▁iv	-11.0266
owo	-11.0266
▁como	-11.0283
rze	-11.0301
▁taga	-11.0302
▁sca	-11.0302
sinirangan	-11.0305
▁chilensis	-11.0312
▁gresya	-11.0312
▁1877	-11.0312
▁1870	-11.0313
bec	-11.0313
rab	-11.0317
▁arctica	-11.033
▁gawas	-11.0331
▁sé	-11.0339
▁leon	-11.034
▁armand	-11.034
▁gri	-11.0348
zano	-11.0349
▁ginsasapit	-11.0359
▁29	-11.036
arg	-11.0363
▁nasodnon	-11.0364
fron	-11.0372
api	-11.0389
pyrgulopsis	-11.0402
scolelepis	-11.0402
sonorella	-11.0402
caryophyllia	-11.0402
▁sha	-11.0403
95	-11.0403
ation	-11.0404
▁burgenland	-11.0406
▁1883	-11.0408
vil	-11.0413
▁chau	-11.0424
yal	-11.0426
esi	-11.0436
66	-11.0436
well	-11.0438
uca	-11.0441
sankt	-11.0451
▁boyacá	-11.0455
▁baybayon	-11.0455
▁1966.	-11.0455
tuba	-11.0457
▁maría	-11.0458
nière	-11.0458
▁onuphis	-11.0463
eben	-11.0475
ník	-11.0478
ft	-11.0499
ís	-11.0502
edwardsia	-11.0502
▁federal	-11.0503
▁1882	-11.0504
▁joão	-11.0504
lov	-11.0508
▁hen	-11.0511
▁presidente	-11.0514
lahn	-11.0519
▁th	-11.053
tov	-11.0533
▁vega	-11.0544
98	-11.0544
aryo	-11.0548
marionina	-11.0549
amphicteis	-11.0552
cuspidaria	-11.0552
▁utah	-11.0552
pisione	-11.0557
▁spain	-11.0557
▁rayon	-11.0557
▁marcus	-11.056
▁red	-11.0581
kom	-11.0583
roth	-11.0595
▁1898.	-11.0595
bir	-11.0596
▁mala	-11.0598
alcyonium	-11.0598
pomeranya	-11.0599
64	-11.06
mangulo	-11.06
▁treadwell	-11.0601
▁turkeya	-11.0601
▁zürich	-11.0601
ene	-11.0601
▁bayer	-11.0603
▁bohol	-11.0604
mühl	-11.0608
novo	-11.0611
brie	-11.0615
franc	-11.0617
spira	-11.0618
▁glycera	-11.062
rez	-11.0627
nel	-11.0634
kirch	-11.0637
▁mata	-11.0641
▁milan	-11.0643
▁mehiko	-11.065
▁tarragona	-11.065
calli	-11.0651
kinbergonuphis	-11.0661
wang	-11.0669
▁il	-11.0678
▁rho	-11.068
▁pana	-11.0688
▁roche	-11.069
▁graubünden	-11.0699
▁1924.	-11.0699
▁1918.	-11.0699
▁ji	-11.0702
bains	-11.0708
surat	-11.0713
81	-11.0713
horn	-11.0739
bittium	-11.0748
▁ornata	-11.0748
▁1939.	-11.0749
abietinaria	-11.0755
▁gintukod	-11.076
mira	-11.0772
mark	-11.0774
xe	-11.0775
▁que	-11.0778
hat	-11.0785
▁chan	-11.0793
▁quatrefages	-11.0798
elliptio	-11.0798
macellicephala	-11.0798
▁reeve	-11.0798
aphrodita	-11.0799
ctenocella	-11.0799
duha	-11.0802
▁fusca	-11.0804
▁cass	-11.0806
▁rené	-11.0806
oe	-11.0807
antalis	-11.081
kra	-11.0815
gü	-11.0825
pili	-11.0826
▁sars	-11.083
gard	-11.0838
88	-11.0838
mie	-11.0838
lag	-11.0844
uno	-11.0848
▁similis	-11.0848
nya	-11.0849
▁siyam	-11.0849
▁1890	-11.0849
▁didto	-11.085
▁lei	-11.0859
▁sam	-11.086
mera	-11.0862
arra	-11.0864
ning	-11.0865
▁lao	-11.0868
anachis	-11.0886
62	-11.0897
ashmunella	-11.0898
halosydna	-11.0898
somatogyrus	-11.0898
▁barugo	-11.0899
vertigo	-11.0899
▁ticino	-11.0899
incourt	-11.0903
▁yu	-11.0905
▁burg	-11.0905
▁vila	-11.0907
ego	-11.0922
chone	-11.0925
▁leptogorgia	-11.0926
▁hydractinia	-11.0926
mü	-11.0928
kul	-11.0934
jou	-11.0944
champs	-11.0944
eva	-11.0947
lemnalia	-11.0949
▁1880.	-11.0949
▁gravier	-11.0952
kilala	-11.0952
rehiyon	-11.0952
nuculana	-11.0954
▁fer	-11.0955
bell	-11.0956
sant	-11.0957
mut	-11.0958
▁rosea	-11.0959
▁autonomo	-11.0962
▁sunod	-11.0963
▁epi	-11.0964
▁dr	-11.0975
ching	-11.0978
▁tabok	-11.0978
oro	-11.0979
▁castro	-11.0982
▁ferr	-11.0989
aff	-11.0989
bougainvillia	-11.1
▁vaucluse	-11.1
▁labaw	-11.1
châtel	-11.1001
rose	-11.1001
▁grupo	-11.1002
cladocarpus	-11.1003
terre	-11.1012
alb	-11.103
▁cala	-11.1034
bern	-11.1041
illes	-11.1051
pleurotomella	-11.1051
sphaerodoropsis	-11.1051
oriopsis	-11.1052
balanophyllia	-11.1055
▁pina	-11.1057
▁wu	-11.1059
▁floridana	-11.106
▁1995.	-11.1063
tran	-11.1064
pf	-11.1078
ár	-11.1082
▁bil	-11.1096
▁1928.	-11.1102
▁1886	-11.1103
▁1964	-11.1104
▁1915	-11.1109
▁córdoba	-11.1111
bonne	-11.1113
▁tal	-11.1121
▁helminthoglypt	-11.1125
▁cos	-11.1134
▁krai	-11.1146
ncia	-11.1149
dingen	-11.1152
umgebung	-11.1154
▁kalibotan	-11.1154
▁cuba	-11.1155
▁militar	-11.1156
èze	-11.1159
acanthogorgia	-11.116
siboglinum	-11.116
etti	-11.1162
puro	-11.1174
▁ciudad	-11.118
▁politika	-11.1197
maison	-11.12
▁bernard	-11.12
rico	-11.1202
▁orbiniidae	-11.1205
▁plumulariidae	-11.1205
▁vizcaya	-11.1205
▁len	-11.1209
ovsky	-11.1211
crassispira	-11.1212
cirratulus	-11.1212
gadila	-11.1213
nei	-11.1225
▁are	-11.1231
lez	-11.1234
low	-11.1243
▁(19	-11.1244
▁horn	-11.1246
▁pé	-11.1246
macoma	-11.1247
▁zamboanga	-11.1257
▁pusilla	-11.1258
▁ngatanan	-11.126
▁allman	-11.126
▁verseveldt	-11.1261
▁siglo	-11.1261
uer	-11.1265
notoplax	-11.1266
maritimes	-11.1267
▁frank	-11.1268
rissoina	-11.1273
owice	-11.1276
arro	-11.1282
▁art	-11.1287
plexaura	-11.1294
hadi	-11.1301
ukoy	-11.1312
olavius	-11.1318
▁ost	-11.1334
ninoe	-11.1335
▁johann	-11.1339
▁pod	-11.1346
=140	-11.1351
tikang	-11.136
importante	-11.1362
▁gigantea	-11.1362
▁reticulata	-11.1362
▁variabilis	-11.1362
chaetozone	-11.1362
halopteris	-11.1362
▁salzburg	-11.1363
="140	-11.1368
osse	-11.1368
chrysogorgia	-11.1372
lobophytum	-11.1372
groß	-11.1372
▁lumbricillus	-11.1377
▁guin	-11.1383
christ	-11.1387
asi	-11.1398
▁henderson	-11.1405
▁bukid	-11.1406
▁clark	-11.1408
micro	-11.1411
callistochiton	-11.1415
of	-11.142
caecum	-11.1426
▁anak	-11.143
aci	-11.1435
emp	-11.1442
ohan	-11.1454
hau	-11.1458
isch	-11.1463
stichopathes	-11.1469
▁opheliidae	-11.1469
▁rigida	-11.1469
▁1933.	-11.1469
▁pipira	-11.147
čany	-11.1472
pru	-11.1474
jon	-11.1474
scoloplos	-11.1479
cadulus	-11.148
▁tak	-11.1483
71	-11.149
rode	-11.15
potamilla	-11.1507
bug	-11.151
wat	-11.1513
▁milne	-11.1513
tunga	-11.1513
▁bouche	-11.1514
hof	-11.1515
blanc	-11.1517
iglio	-11.1517
▁tellina	-11.1518
baptiste	-11.1522
dendrophylliidae	-11.1522
▁actiniidae	-11.1522
▁nagtukod	-11.1523
vie	-11.1532
polycirrus	-11.1534
buhat	-11.1538
clav	-11.1544
▁nangangar	-11.1545
ight	-11.1555
▁fuente	-11.1558
▁jun	-11.1566
▁eulalia	-11.1569
montagne	-11.1572
drilonereis	-11.1576
streblosoma	-11.1576
▁affinis	-11.1576
▁cundinamarca	-11.1576
▁mirabilis	-11.1576
▁viridis	-11.1576
▁martín	-11.1576
▁gadilidae	-11.1577
▁1914.	-11.1578
▁rubra	-11.1581
lensia	-11.1584
guin	-11.1588
▁gol	-11.159
▁ay	-11.1601
▁hohen	-11.1604
nom	-11.1608
oster	-11.1615
▁berg	-11.1618
ambo	-11.1623
cala	-11.1629
▁1916.	-11.163
tico	-11.1632
léger	-11.1633
brania	-11.1639
cladiella	-11.1644
amphinome	-11.1657
▁terebella	-11.1677
lago	-11.1677
tun	-11.168
▁kahuman	-11.1684
eatoniella	-11.1684
lepidochitona	-11.1684
solariella	-11.1684
▁spinosa	-11.1684
orbigny	-11.1685
ousse	-11.1686
ulu	-11.1687
▁leptochiton	-11.1695
▁1876	-11.1697
phil	-11.1699
eunoe	-11.1699
agny	-11.1703
▁kol	-11.1721
cel	-11.1728
▁pis	-11.1733
▁conus	-11.1734
▁rendsburg	-11.1739
platynereis	-11.1739
▁philippi	-11.1742
▁pil	-11.1744
▁dos	-11.1747
▁gil	-11.1752
tomopteris	-11.1754
limnodriloides	-11.1754
rosa	-11.1756
enza	-11.1761
lens	-11.1761
utob	-11.1765
▁cara	-11.1766
▁pres	-11.1769
mento	-11.1781
mini	-11.1785
▁amphinomidae	-11.1794
▁australiensis	-11.1794
▁salerno	-11.1794
beck	-11.1797
rent	-11.1797
▁armata	-11.1797
mala	-11.1805
bella	-11.1805
aglaophamus	-11.181
▁pie	-11.1815
▁provide	-11.182
=157	-11.1823
▁chiton	-11.1825
ignon	-11.1827
gran	-11.1835
▁buhat	-11.1838
▁unter	-11.184
uran	-11.184
gari	-11.1842
rg	-11.1846
swil	-11.1847
bothriembryon	-11.1849
▁ekonomiya	-11.1849
▁siboglinidae	-11.1849
▁1899.	-11.1849
morpha	-11.1849
cré	-11.1851
▁labi	-11.1852
heide	-11.1854
▁horst	-11.1858
▁iran	-11.1868
aire	-11.1869
▁ron	-11.1883
file	-11.1886
▁dam	-11.1892
kat	-11.1894
▁amerika	-11.1896
▁samtang	-11.1905
▁1893	-11.1905
▁luzon	-11.1909
lida	-11.191
sem	-11.1915
▁elimia	-11.1916
este	-11.1918
fin	-11.1921
magelona	-11.1923
eix	-11.1925
mot	-11.1926
="158	-11.1942
▁bang	-11.1949
ogorgia	-11.1952
=	-11.196
ane	-11.196
eckernförde	-11.196
enchytraeus	-11.196
physella	-11.196
▁1850.	-11.1961
▁1931.	-11.1961
euplexaura	-11.1977
yano	-11.1986
▁ali	-11.1995
▁alto	-11.201
leo	-11.2012
▁elemento	-11.2017
▁1994.	-11.2017
▁americana	-11.202
ann	-11.2023
▁dan	-11.203
▁š	-11.2039
tau	-11.2039
arch	-11.2052
▁castell	-11.2054
quar	-11.2068
dorvillea	-11.207
▁pleuroceridae	-11.2073
▁1940.	-11.2073
▁bac	-11.2077
▁exogone	-11.2087
▁lee	-11.209
▁og	-11.209
mitrella	-11.2093
mesnil	-11.2095
▁bom	-11.2102
pira	-11.2105
oxy	-11.2108
shima	-11.2118
▁flabelligeridae	-11.213
sinumelon	-11.213
▁sigalionidae	-11.213
▁1857.	-11.213
▁orientalis	-11.2135
hem	-11.2139
lans	-11.2145
malmgreniella	-11.215
thuiaria	-11.2152
▁reino	-11.2153
▁anne	-11.2153
wood	-11.2153
hanon	-11.2155
maz	-11.2164
▁nagpa	-11.2167
rigny	-11.2173
▁sertularia	-11.2174
▁ł	-11.2175
▁(18	-11.2181
▁prionospio	-11.2186
▁1936.	-11.2187
▁1860.	-11.2188
▁iningles	-11.2195
▁gingagamit	-11.2198
yakan	-11.22
és	-11.2202
▁1980.	-11.2203
▁meta	-11.2209
▁jose	-11.2209
2003	-11.2211
šov	-11.2214
celles	-11.2214
▁unido	-11.2215
urt	-11.2218
lora	-11.2231
off	-11.2239
▁rimavsk	-11.2245
chloeia	-11.2245
spirobranchus	-11.2245
▁1996.	-11.2245
▁haeckel	-11.2246
▁clapar	-11.2248
▁sk	-11.225
▁paghimo	-11.2253
84	-11.2253
lepto	-11.2257
elia	-11.2263
labot	-11.2265
mati	-11.2266
torre	-11.2268
▁villeneuve	-11.227
▁balay	-11.2275
▁sto	-11.2276
arti	-11.2276
tres	-11.2277
▁cari	-11.2291
emi	-11.2292
drillia	-11.2297
▁verrilli	-11.2298
▁campanulariidae	-11.2302
▁1963.	-11.2303
▁monta	-11.2306
aclis	-11.2307
protodrilus	-11.2314
▁8,	-11.2315
▁zi	-11.2318
angan	-11.2319
▁bell	-11.2321
▁das	-11.2324
▁son	-11.2333
run	-11.2348
damo	-11.2355
zio	-11.2357
hito	-11.2357
thyasira	-11.2361
▁nahimutang	-11.2361
▁1855	-11.2362
▁valais	-11.2363
▁politikal	-11.237
▁jou	-11.2383
▁sum	-11.2383
eich	-11.2384
sthenelais	-11.2385
tubificoides	-11.2387
euphrosine	-11.2387
notomastus	-11.2387
▁aglaophenia	-11.2398
uges	-11.2403
cyr	-11.2412
rieux	-11.2412
=163	-11.2414
▁oenopota	-11.2415
gram	-11.2417
sphaerospira	-11.2419
▁reggio	-11.2419
▁richard	-11.2419
▁1887.	-11.242
ador	-11.2422
kai	-11.2423
loy	-11.2425
auguste	-11.243
ngaran	-11.2439
▁anders	-11.2445
▁mara	-11.2447
▁mun	-11.2456
porma	-11.2457
▁edwards	-11.2459
lug	-11.246
ary	-11.2473
▁wolf	-11.2476
▁mangelia	-11.2477
tokrzyskie	-11.2478
▁abyssicola	-11.2478
▁czeka	-11.2478
▁wright	-11.248
▁bréau	-11.248
▁simpson	-11.2481
▁suter	-11.2503
uille	-11.2503
▁mora	-11.2509
pionosyllis	-11.2513
yana	-11.2517
kla	-11.2522
▁autolytus	-11.2527
bathydrilus	-11.2537
stagnicola	-11.2537
placogorgia	-11.2537
▁oculata	-11.2537
▁davao	-11.2537
▁1921.	-11.2537
▁janeiro	-11.2537
▁musika	-11.2538
▁neustadt	-11.2539
eth	-11.2539
gué	-11.2539
▁hayop	-11.2539
▁pettibone	-11.254
▁antipathes	-11.2541
melanella	-11.2545
muricella	-11.2546
neuf	-11.2553
▁cent	-11.2553
rein	-11.2555
littorina	-11.2566
▁pala	-11.2569
▁neuville	-11.257
gru	-11.2571
urog	-11.2571
▁gallen	-11.2577
▁cerithiopsis	-11.2588
bosc	-11.2592
alba	-11.2594
aran	-11.2596
▁jackson	-11.2597
▁cosenza	-11.2597
▁castellón	-11.2597
▁union	-11.2604
eunicella	-11.2622
▁(20	-11.2626
lino	-11.2632
▁pré	-11.2633
roda	-11.2646
▁bois	-11.2649
allo	-11.265
▁duro	-11.2653
hunsrück	-11.2656
trypanosyllis	-11.2656
▁eskwelahan	-11.2656
▁ministro	-11.2656
▁namuno	-11.2657
▁1930.	-11.2657
▁bai	-11.2657
sya	-11.2661
uni	-11.2663
▁carlos	-11.2665
notre	-11.2668
▁lé	-11.2674
▁gro	-11.268
▁fun	-11.2683
▁luparan	-11.27
tul	-11.2701
nieder	-11.2703
▁actinia	-11.2707
crypthelia	-11.2717
lampsilis	-11.2717
aktedrilus	-11.2717
▁rallidae	-11.2717
▁sobota	-11.2717
▁katunaan	-11.2717
▁scott	-11.2717
astarte	-11.2717
▁minima	-11.2718
▁hadi	-11.2722
reg	-11.2722
▁ada	-11.2724
▁lake	-11.2732
euchone	-11.2736
▁2000.	-11.2737
euclymene	-11.2738
kop	-11.2744
sam	-11.2749
rier	-11.275
▁santiago	-11.2754
ém	-11.2756
physa	-11.2759
thu	-11.276
ké	-11.2772
jpg	-11.2777
amphisbetia	-11.2777
▁isididae	-11.2777
▁1856.	-11.2777
▁daniel	-11.2777
près	-11.2778
▁quezon	-11.2778
uvre	-11.2778
ménil	-11.2778
▁chitonidae	-11.2781
dern	-11.2784
lent	-11.2793
narella	-11.2795
▁trans	-11.2797
echin	-11.2799
uban	-11.2805
ardo	-11.2807
hay	-11.2808
concha	-11.281
écourt	-11.2814
▁opole	-11.2816
nans	-11.2817
▁spa	-11.2826
=160	-11.283
anthopleura	-11.2838
▁fissurellidae	-11.2838
villogorgia	-11.2838
diodora	-11.2838
▁1920.	-11.2839
▁mill	-11.2841
▁2004.	-11.2848
mare	-11.2849
buhi	-11.285
▁nira	-11.2852
▁chu	-11.2852
▁victoria	-11.2855
uard	-11.2862
chromonephthea	-11.2873
nephthea	-11.2873
siphonogorgia	-11.2873
eteone	-11.2874
dako	-11.2878
igo	-11.2887
skie	-11.2893
ith	-11.2895
old	-11.2898
okolie	-11.29
puncturella	-11.29
▁heorhya	-11.29
▁molupyo	-11.29
▁schmarda	-11.29
▁aprika	-11.29
▁rey	-11.29
▁1975.	-11.29
rena	-11.2902
▁park	-11.2903
▁teres	-11.2919
cat	-11.2922
tungod	-11.2926
zay	-11.2937
landes	-11.2956
nicolas	-11.2958
august	-11.2959
▁punctata	-11.2961
▁zonitidae	-11.2961
syllides	-11.2961
▁gmelin	-11.2961
▁kinabuhi	-11.2961
▁1956.	-11.2961
▁territo	-11.2962
corbula	-11.2962
campo	-11.2962
clair	-11.2968
▁occidentalis	-11.2968
dali	-11.2978
hui	-11.2979
▁pho	-11.2979
▁thu	-11.2993
brada	-11.2996
ningen	-11.3001
pio	-11.3007
=135	-11.3013
bian	-11.3014
▁wall	-11.3018
▁ramosa	-11.3019
teinostoma	-11.3023
▁1896.	-11.3023
masurya	-11.3023
▁varese	-11.3024
91	-11.3025
gorgonia	-11.3027
▁africana	-11.3027
eder	-11.3039
▁pista	-11.3045
lori	-11.3046
▁rhode	-11.3049
èvre	-11.3052
vigne	-11.306
isa	-11.3062
pherusa	-11.3062
nemertesia	-11.3062
▁sarsi	-11.3066
bara	-11.3069
trich	-11.3073
▁sab	-11.3075
▁rei	-11.3078
baud	-11.3078
▁solothurn	-11.3086
▁200.	-11.3087
▁marphysa	-11.3094
▁naha	-11.31
▁flor	-11.3113
▁monro	-11.3113
actin	-11.3133
▁proto	-11.3134
▁anay	-11.3136
ison	-11.3138
baba	-11.314
lá	-11.3143
kum	-11.3148
pomatoceros	-11.3149
runcatoflabellum	-11.3149
trochocyathus	-11.3149
▁wilhelm	-11.3149
▁brunnea	-11.3149
▁domingo	-11.3149
▁politiko	-11.3149
▁1948.	-11.3151
opalia	-11.3153
▁gau	-11.3158
▁lat	-11.3174
▁stylaster	-11.3175
▁roque	-11.3177
away	-11.318
main	-11.3181
▁bala	-11.3185
▁eudendrium	-11.3186
porites	-11.319
▁fontaine	-11.319
=149	-11.3193
meso	-11.3196
▁bot	-11.3199
ophelia	-11.32
serre	-11.3203
iwa	-11.3204
▁linea	-11.3211
melinna	-11.3213
=158	-11.3213
▁1888	-11.3213
▁nové	-11.3215
▁juli	-11.322
▁hypsibius	-11.3226
isle	-11.3227
▁university	-11.3241
amphitrite	-11.3245
▁barra	-11.3246
▁7,	-11.3251
lepidozona	-11.3254
odontosyllis	-11.3254
thur	-11.3254
▁mass	-11.3256
▁coll	-11.3265
▁ala	-11.3265
hun	-11.3273
▁dun	-11.3275
rhagada	-11.3276
telmatactis	-11.3276
vermiliopsis	-11.3276
▁carinthia	-11.3276
▁republic	-11.3276
way	-11.3277
▁1863	-11.3277
▁1976.	-11.3278
▁dana	-11.331
akh	-11.3314
▁belle	-11.3329
onda	-11.3334
awan	-11.3335
rue	-11.3335
cambarincola	-11.334
cuthona	-11.334
▁pulchra	-11.334
▁ilocos	-11.334
vitrinella	-11.334
amphianthus	-11.334
asychis	-11.3341
▁podlaskie	-11.3343
gun	-11.3348
▁tag	-11.3349
vermilia	-11.3349
="133	-11.3351
hart	-11.3352
urban	-11.3358
santo	-11.338
lepidasthenia	-11.3384
zygophylax	-11.3384
nassarius	-11.3384
gliano	-11.3395
▁doln	-11.34
bergen	-11.3402
log	-11.3403
▁1873	-11.3405
▁stu	-11.3417
marc	-11.3418
▁neanthes	-11.3419
asso	-11.3426
▁victor	-11.3441
▁hiní	-11.3442
epitonium	-11.345
▁dalli	-11.3451
▁aust	-11.3454
▁ng	-11.3456
eca	-11.3456
▁purô	-11.3462
▁kilala	-11.3463
▁gan	-11.3464
chaetopleura	-11.3469
melithaea	-11.3469
pteroeides	-11.3469
▁lauenburg	-11.3469
▁nephtyidae	-11.3469
▁picta	-11.3469
echinogorgia	-11.3469
▁1952.	-11.347
▁udine	-11.347
▁maryland	-11.347
▁flabellum	-11.347
▁alc	-11.3478
burn	-11.348
▁peña	-11.3486
▁gamit	-11.349
ennes	-11.3494
▁aricidea	-11.3502
eusyllis	-11.3503
▁calliostoma	-11.3504
ovec	-11.3514
▁hem	-11.3517
protula	-11.3518
roz	-11.3518
iller	-11.3523
▁sir	-11.3524
▁dentalium	-11.3528
▁1955.	-11.3535
▁1969.	-11.3535
▁molise	-11.3536
▁1841	-11.3536
zat	-11.3544
but	-11.3551
sunod	-11.3557
cie	-11.3582
cut	-11.3586
▁glan	-11.3591
▁edward	-11.3595
î	-11.36
caulleriella	-11.36
pileolaria	-11.36
▁iloilo	-11.36
▁kimikal	-11.3601
▁belfort	-11.3601
rap	-11.3605
bulig	-11.3618
lego	-11.3621
pido	-11.3621
alten	-11.3628
bun	-11.3628
nn	-11.3633
ance	-11.3636
áng	-11.3638
eller	-11.3645
rive	-11.3651
(	-11.3651
=159	-11.3652
gda	-11.3655
doto	-11.3655
mano	-11.366
rupt	-11.3664
hyalinoecia	-11.3667
▁bolívar	-11.3667
▁ferdinand	-11.3667
▁myzostomidae	-11.3667
▁laguna	-11.3667
▁1871	-11.3668
▁1791	-11.3668
▁arthur	-11.3668
▁brook	-11.3669
teuthis	-11.367
natica	-11.367
ilhac	-11.3674
balik	-11.3675
▁klein	-11.3681
▁rocca	-11.3683
▁dell	-11.3698
spongodes	-11.3718
goniada	-11.3718
illas	-11.3719
pata	-11.3719
▁saga	-11.372
meuse	-11.3722
abi	-11.3723
datu	-11.3731
mga	-11.3732
▁papillosa	-11.3733
synthecium	-11.3733
▁syensya	-11.3734
nava	-11.3735
vera	-11.3735
▁tawag	-11.3735
▁lawas	-11.3737
neckar	-11.3737
tipa	-11.3743
ské	-11.3746
ete	-11.3747
aure	-11.3748
rières	-11.3756
▁arte	-11.3757
kir	-11.3759
lev	-11.3762
abo	-11.3779
nothria	-11.3785
▁bata	-11.3787
diphasia	-11.38
pacifigorgia	-11.38
rhododrilus	-11.38
thouarella	-11.38
▁alagoas	-11.38
▁bardejov	-11.38
▁cantabria	-11.38
▁heyograpiya	-11.38
▁nordfriesland	-11.38
▁tellinidae	-11.38
polygyra	-11.3801
▁ehipto	-11.3801
▁1922.	-11.3801
eumida	-11.3801
▁chamberl	-11.3802
▁villanueva	-11.3806
▁pachy	-11.3808
butang	-11.3809
▁fauvel	-11.3812
maria	-11.3818
▁brach	-11.3821
sept	-11.3826
▁montipora	-11.3829
llum	-11.3835
▁leo	-11.3841
▁fri	-11.3842
="126	-11.385
rma	-11.3852
campanularia	-11.3854
sarcophyton	-11.3854
▁marco	-11.3855
▁tala	-11.3865
mart	-11.3865
iha	-11.3868
boccardia	-11.3868
canthochitonidae	-11.3868
gyptis	-11.3868
poecilochaetus	-11.3868
▁berkeley	-11.3868
▁vitrinellidae	-11.3868
▁savigny	-11.3873
▁sara	-11.3876
ute	-11.3884
nte	-11.3885
▁pagkaon	-11.3886
▁clytia	-11.389
just	-11.3892
loph	-11.3892
anges	-11.3894
hip	-11.3895
▁sphaerosyllis	-11.3918
bah	-11.3925
▁mindanao	-11.3936
triphora	-11.3936
▁faviidae	-11.3936
travisia	-11.3936
▁helicarionidae	-11.3936
▁verde	-11.3936
lange	-11.3936
fungia	-11.3944
▁thor	-11.3944
ogne	-11.3951
felden	-11.3955
▁hé	-11.3964
form	-11.3965
uto	-11.3966
▁nephtys	-11.3967
ging	-11.3969
opi	-11.3976
luz	-11.3977
▁vil	-11.3981
angelo	-11.3987
litz	-11.3991
▁caecum	-11.3991
gara	-11.3993
▁antônio	-11.4005
▁veneridae	-11.4005
▁rugosa	-11.4005
▁namatay	-11.4005
pecten	-11.4005
aube	-11.4006
▁sugbong	-11.4006
▁jaén	-11.4007
▁1951	-11.4008
▁paggamit	-11.4008
ró	-11.4008
solaster	-11.4012
▁tuberculata	-11.4039
yun	-11.4041
▁tel	-11.4042
mona	-11.4044
iger	-11.4049
▁kada	-11.4057
▁muri	-11.4062
phrixgnathus	-11.4063
▁die	-11.4066
▁colle	-11.4067
▁perinereis	-11.407
▁kreuznach	-11.4074
▁lubusz	-11.4074
▁paraonidae	-11.4074
▁altenkirchen	-11.4074
▁alfred	-11.4074
▁1833	-11.4075
thesea	-11.4078
▁alvania	-11.4092
▁gy	-11.4095
▁literatura	-11.4101
oba	-11.4105
tub	-11.4106
cell	-11.4108
▁kor	-11.4113
lumb	-11.4115
arion	-11.4116
▁gros	-11.4116
doris	-11.4118
gamit	-11.4124
serra	-11.4135
ugh	-11.4137
▁jeffreys	-11.4142
▁webster	-11.4143
sigalion	-11.4143
boreotrophon	-11.4143
flensburg	-11.4143
spiophanes	-11.4143
▁kwadrado	-11.4143
dendrophyllia	-11.4143
tatawag	-11.4143
▁herzog	-11.4143
▁ginagamit	-11.4143
▁1923.	-11.4143
▁pinili	-11.4145
pedi	-11.4145
callogorgia	-11.4146
▁milya	-11.4148
rate	-11.4173
tentaculata	-11.4177
queville	-11.4188
▁tab	-11.419
clar	-11.4191
tenui	-11.421
echinomuricea	-11.4213
sauveur	-11.4213
stenotrema	-11.4213
▁lucerne	-11.4213
oria	-11.4216
▁tagsa	-11.4217
psamm	-11.4228
lista	-11.4233
▁acanthochitona	-11.4233
▁bale	-11.4239
kastel	-11.4242
▁hill	-11.4242
▁wei	-11.4246
eledone	-11.4253
▁ugsa	-11.4258
bei	-11.4264
▁law	-11.4271
=123	-11.4274
voivodato	-11.4276
errina	-11.4278
▁ehe	-11.4282
▁dirudilain	-11.4283
▁carinata	-11.4283
▁1869.	-11.4283
▁tsino	-11.4284
nicolea	-11.4284
▁1844	-11.4285
isy	-11.4293
▁jones	-11.4295
▁ceratonereis	-11.4297
▁gab	-11.4298
▁congo	-11.4309
bisch	-11.4311
=151	-11.4315
▁grania	-11.4319
▁antonio	-11.432
upay	-11.4324
bray	-11.4327
gil	-11.433
imb	-11.4332
▁cirratulus	-11.4345
▁plou	-11.4346
ectopleura	-11.4354
neptunea	-11.4354
psammolyce	-11.4354
▁abyssorum	-11.4354
▁haleciidae	-11.4354
▁pangasinan	-11.4354
▁surigao	-11.4354
▁xeniidae	-11.4354
rig	-11.4358
dieu	-11.4368
corallium	-11.4373
casa	-11.4374
▁vall	-11.4375
ailles	-11.4376
armandia	-11.4384
miya	-11.4388
▁ito	-11.4389
eurythoe	-11.4398
▁cana	-11.44
front	-11.4403
bello	-11.4406
vac	-11.4408
▁spe	-11.4409
dero	-11.4414
▁asti	-11.442
vert	-11.4423
loligo	-11.4425
staurotheca	-11.4426
▁acanthodrilidae	-11.4426
▁pellucida	-11.4426
▁stechow	-11.4426
gsirbe	-11.4426
▁fran	-11.4426
▁arena	-11.4432
christophe	-11.4439
▁xenia	-11.4439
▁28	-11.445
="127	-11.4455
▁province	-11.4457
king	-11.4458
▁mela	-11.4459
bit	-11.4467
▁27	-11.447
▁colus	-11.4477
fay	-11.448
▁caba	-11.4487
singen	-11.4492
yoldiella	-11.4498
▁caullery	-11.4498
▁dinastiya	-11.4498
▁friedrich	-11.4498
▁pinulongan	-11.4498
maoridrilus	-11.4498
▁alegre	-11.4498
▁dagko	-11.4498
▁dinhi	-11.4498
▁1958.	-11.4498
▁pamilya	-11.4498
leanira	-11.4498
▁1862	-11.4499
▁1872	-11.4499
▁danaw	-11.45
phyllo	-11.4502
▁caryophyllia	-11.4505
▁pierre	-11.4507
▁isabela	-11.451
▁africa	-11.4514
▁25	-11.4517
▁vista	-11.4518
▁23	-11.4523
157	-11.4523
▁ky	-11.4536
ouen	-11.4551
▁helminthoglypta	-11.4552
aricia	-11.4569
vlaanderen	-11.457
▁avellino	-11.457
▁kerguelensis	-11.457
▁turbinidae	-11.457
corymorpha	-11.457
▁modesta	-11.457
église	-11.457
▁walker	-11.4571
▁9,	-11.4584
▁arctic	-11.4589
▁donau	-11.4593
ried	-11.4598
magne	-11.4602
loc	-11.4605
▁hancock	-11.461
bak	-11.4616
=133	-11.4625
▁rock	-11.4635
▁som	-11.4639
▁oro	-11.4642
zanclea	-11.4643
▁binisaya	-11.4643
▁sabellariidae	-11.4643
▁wyoming	-11.4643
▁1932.	-11.4643
▁olanda	-11.4643
▁1843	-11.4644
passer	-11.4645
▁hun	-11.4646
alog	-11.4648
▁ponte	-11.4653
rolle	-11.4658
human	-11.4658
bruck	-11.4658
▁bara	-11.4667
▁serrata	-11.4668
▁bourg	-11.4679
range	-11.4697
▁22	-11.4697
▁terme	-11.4714
flabellum	-11.4715
vexillum	-11.4717
▁okrug	-11.4717
megalomma	-11.4717
▁basilicata	-11.4717
▁ginngaranan	-11.4717
▁hutton	-11.4717
▁steinburg	-11.4719
▁12,	-11.4722
lais	-11.4723
nerilla	-11.4724
▁siong	-11.4724
orbinia	-11.4725
▁hartmanae	-11.4729
▁katungod	-11.4729
▁bella	-11.4732
tulo	-11.4735
▁1848	-11.4735
buch	-11.4736
zoanthus	-11.474
▁buccinum	-11.4747
tang	-11.4757
če	-11.4761
nsac	-11.4765
▁1945	-11.4769
trum	-11.4769
rium	-11.4772
▁paz	-11.4789
cirriformia	-11.4791
▁antipathidae	-11.4791
▁vicenza	-11.4791
▁cerithiopsidae	-11.4791
▁taylor	-11.4791
▁1895	-11.4792
▁migrati	-11.4794
▁1925	-11.4794
aumont	-11.4797
▁marionina	-11.4799
▁pyrgulopsis	-11.4799
▁scolelepis	-11.4799
▁sonorella	-11.4799
▁nagdudu	-11.4807
hoy	-11.4822
▁basel	-11.4823
ific	-11.4826
mitra	-11.483
anon	-11.4834
▁hon	-11.4842
▁virgin	-11.4844
charopa	-11.4851
favia	-11.4857
▁dithmarschen	-11.4865
▁irregularis	-11.4865
▁kalugaringon	-11.4865
chemnitzia	-11.4865
gonaxia	-11.4865
oswaldella	-11.4865
▁links	-11.4866
lytocarpia	-11.4866
inanidrilus	-11.4866
▁fernando	-11.4866
▁gatos	-11.4866
ganesa	-11.4867
medusa	-11.487
▁sevilla	-11.4871
gros	-11.4872
▁lanao	-11.4876
poly	-11.4876
rag	-11.4877
=150	-11.4878
arabella	-11.4879
mines	-11.4882
▁26	-11.4883
▁tang	-11.4884
asawa	-11.4895
oka	-11.4896
ligny	-11.4898
▁kondado	-11.4914
grande	-11.4915
tapo	-11.4918
maldane	-11.4927
ui	-11.4928
iron	-11.493
fing	-11.4938
cerithium	-11.4941
châtillon	-11.4941
deltocyathus	-11.4941
hydrodendron	-11.4941
epizoanthus	-11.4942
2357	-11.4945
udo	-11.497
▁will	-11.4976
lette	-11.4979
▁bet	-11.4981
▁brit	-11.4988
▁gardineri	-11.499
ady	-11.4991
▁rie	-11.5006
▁roth	-11.5007
▁herm	-11.5009
capitella	-11.5016
sulpice	-11.5016
▁amazonas	-11.5016
▁skeneidae	-11.5016
▁1894.	-11.5016
▁1957.	-11.5016
▁napoles	-11.5017
▁1852	-11.5018
gymnangium	-11.5019
ammotrypane	-11.5019
gorsk	-11.5028
▁urhe	-11.5031
parasabella	-11.5043
rob	-11.5055
bac	-11.5061
agnac	-11.5064
pey	-11.507
arc	-11.5081
ungan	-11.5087
cerianthus	-11.5089
▁aphrodita	-11.5092
="120	-11.5092
▁thompson	-11.5093
amplirhagada	-11.5093
pisidium	-11.5093
rhamphobrachium	-11.5093
schizotricha	-11.5093
semotrachia	-11.5093
▁timugan	-11.5093
▁pablo	-11.5093
namalycastis	-11.5093
yoldia	-11.5093
▁nová	-11.5094
salacia	-11.5094
▁quoy	-11.5094
ugny	-11.5094
philine	-11.5095
▁montagu	-11.5095
water	-11.5096
acabaria	-11.5097
heterodrilus	-11.5098
romain	-11.5101
horst	-11.5108
▁diopatra	-11.5108
got	-11.511
bey	-11.5122
▁more	-11.5127
elsdorf	-11.5133
jal	-11.5133
ussy	-11.5133
=1	-11.514
north	-11.5149
▁johnson	-11.515
▁cle	-11.515
▁plana	-11.5151
boro	-11.5153
▁mie	-11.5154
▁amihan	-11.5155
nowy	-11.5156
▁crassispira	-11.5159
mayo	-11.5165
▁seg	-11.5168
▁ctenocella	-11.5168
bougainvilliidae	-11.517
▁coruña	-11.517
acteocina	-11.517
plumarella	-11.517
▁vicente	-11.517
musculus	-11.517
▁bolzano	-11.517
haw	-11.517
▁1835	-11.5171
▁alcyonium	-11.5173
oreohelix	-11.5175
triodopsis	-11.5175
chapelle	-11.5177
tuna	-11.5185
ša	-11.5188
▁liptovsk	-11.5195
hang	-11.5204
▁bö	-11.5204
▁abra	-11.5205
arene	-11.521
▁lugo	-11.5211
illat	-11.5217
agne	-11.5226
gang	-11.5226
rouge	-11.5226
eure	-11.5232
▁ré	-11.5234
▁basi	-11.5238
distichopora	-11.5247
gastrocopta	-11.5247
glyphyalinia	-11.5247
myrianida	-11.5247
▁moscow	-11.5247
▁mytilidae	-11.5247
proceraea	-11.5247
▁1822.	-11.5247
▁thailand	-11.5248
▁bouillon	-11.5248
new	-11.5251
fissidentalium	-11.5254
lucilina	-11.5256
▁brun	-11.526
▁hoch	-11.5279
▁simon	-11.5283
▁bart	-11.5288
▁10,	-11.5289
dong	-11.5291
anza	-11.5291
huna	-11.5293
colombe	-11.5294
uilly	-11.5296
kowice	-11.5305
▁daan	-11.5312
▁gas	-11.5317
▁ev	-11.5319
▁cladocarpus	-11.5319
mystides	-11.5322
placostegus	-11.5325
▁aphroditidae	-11.5325
▁epitoniidae	-11.5325
▁eulimidae	-11.5325
▁caserta	-11.5325
▁glabra	-11.5325
▁inermis	-11.5325
tharyx	-11.5325
▁levice	-11.5325
▁1851.	-11.5325
▁annulata	-11.5325
▁taiwan	-11.5326
▁brasiliensis	-11.5326
▁leptochitonidae	-11.533
amo	-11.5331
▁namumutang	-11.5331
arte	-11.5332
pleurobema	-11.5333
▁lineata	-11.5338
longue	-11.534
▁lab	-11.5341
jer	-11.5343
tain	-11.5345
auville	-11.5348
▁brabant	-11.5351
ilya	-11.5352
▁fau	-11.536
=145	-11.5368
zów	-11.5381
wind	-11.5382
▁mc	-11.5382
orb	-11.5383
▁tho	-11.5387
belle	-11.539
▁balanophyllia	-11.5397
bamba	-11.5399
pholoe	-11.5402
▁tara	-11.5402
nant	-11.5404
tubifex	-11.5404
crepidula	-11.5404
▁gustav	-11.5404
▁potenza	-11.5404
terebra	-11.5404
=126	-11.5405
▁daw	-11.5409
▁loligo	-11.5412
callochiton	-11.5413
paravitrea	-11.5413
margarites	-11.5413
ayad	-11.5414
purô	-11.5415
▁tig	-11.5418
▁act	-11.5427
auge	-11.5432
pay	-11.5433
siring	-11.5438
city	-11.5439
▁nagamit	-11.5444
af	-11.5444
▁château	-11.5445
▁chen	-11.5445
▁24	-11.5447
sever	-11.5448
bonnet	-11.5461
▁lobophytum	-11.5469
▁32	-11.5478
▁milyon	-11.5481
pectin	-11.5483
wittlich	-11.5483
▁cotabato	-11.5483
▁hydractiniidae	-11.5483
▁sinurat	-11.5483
▁weinstraße	-11.5483
polyschides	-11.5483
leptoxis	-11.5483
▁atomika	-11.5484
▁murray	-11.5484
▁flava	-11.5485
pang	-11.5485
eunicea	-11.5491
▁kro	-11.5492
laonice	-11.5492
▁rubi	-11.5494
▁nobel	-11.5495
magny	-11.5496
moutier	-11.5497
cysti	-11.5502
▁sap	-11.5514
ipa	-11.5528
nam	-11.553
lucina	-11.553
tubo	-11.5541
arca	-11.5546
▁lokal	-11.5549
ball	-11.5549
▁gadila	-11.5553
▁acanthogorgia	-11.5554
▁siboglinum	-11.5554
▁king	-11.5555
fau	-11.5557
oscolex	-11.5563
flabelligera	-11.5563
ophiodromus	-11.5563
▁almería	-11.5563
▁asturias	-11.5563
▁birkenfeld	-11.5563
▁hormathiidae	-11.5563
▁nariño	-11.5563
▁peninsula	-11.5563
▁imperia	-11.5563
▁nevada	-11.5563
▁lecce	-11.5563
dendr	-11.5565
▁cox	-11.5565
▁kirch	-11.5574
água	-11.5582
ping	-11.5583
teo	-11.5594
chama	-11.5598
victor	-11.5602
▁carl	-11.5615
lib	-11.5617
▁media	-11.5622
metz	-11.5622
▁chamb	-11.5623
▁chrysogorgia	-11.5629
color	-11.5633
▁biel	-11.5634
▁16,	-11.5643
eupomatus	-11.5644
wahlkreis	-11.5644
▁variegata	-11.5644
coralliodrilus	-11.5644
goniopora	-11.5644
smithsonidrilus	-11.5644
▁raymond	-11.5644
▁habagatan	-11.5644
holospira	-11.5644
amnicola	-11.5644
▁hedley	-11.5644
;2013-03-1	-11.5644
kag	-11.5648
▁benham	-11.5648
▁vor	-11.5651
ayi	-11.5651
ricourt	-11.5652
pectinaria	-11.5657
fossaria	-11.5664
▁ép	-11.5665
asti	-11.5666
="139	-11.5671
▁bré	-11.5676
rho	-11.5677
lett	-11.5679
▁williams	-11.5679
▁attenuata	-11.5684
pert	-11.5685
▁ehlersi	-11.5687
bingen	-11.5689
hm	-11.5693
tibo	-11.5695
rel	-11.5696
bill	-11.5699
▁polycirrus	-11.5707
▁olavius	-11.5712
▁sepiida	-11.5714
mali	-11.5724
antinoe	-11.5725
acanthogorgiidae	-11.5725
▁alherya	-11.5725
▁indonesya	-11.5725
▁punctidae	-11.5725
▁vulkaneifel	-11.5725
aegires	-11.5725
notopygos	-11.5725
▁pamaagi	-11.5725
▁messina	-11.5725
▁1954.	-11.5725
thracia	-11.5725
▁padua	-11.5726
▁unyon	-11.5727
house	-11.5728
▁2005.	-11.5729
arco	-11.5729
▁1935	-11.573
▁sakop	-11.5732
paramuricea	-11.5736
cres	-11.5738
mena	-11.5742
▁1859	-11.5746
▁bato	-11.575
▁gur	-11.5756
▁belli	-11.5758
more	-11.5767
baya	-11.5768
verde	-11.5768
▁billard	-11.5777
git	-11.5783
chaux	-11.5785
=130	-11.5789
mada	-11.579
▁eisen	-11.5802
▁sikat	-11.5805
ribe	-11.5806
glycinde	-11.5807
idanthyrsus	-11.5807
▁lafoeidae	-11.5807
▁michalovce	-11.5807
phelliactis	-11.5807
▁humilis	-11.5807
▁saitama	-11.5807
▁mexicana	-11.5807
▁1849.	-11.5807
bulag	-11.5809
▁alf	-11.5809
▁super	-11.5818
▁costata	-11.583
esp	-11.5839
▁call	-11.5841
stephan	-11.5843
nsky	-11.5847
erbach	-11.5847
mura	-11.585
rick	-11.5851
essen	-11.5854
▁limnodriloides	-11.5866
bursa	-11.5885
▁beni	-11.5887
▁camarines	-11.589
▁halopterididae	-11.589
▁pectinata	-11.589
sabellides	-11.589
tubularia	-11.589
▁1934.	-11.589
▁cremona	-11.589
▁russell	-11.589
▁malaysia	-11.5891
thor	-11.5891
▁celle	-11.5891
obranchus	-11.5899
▁gam	-11.5902
▁1949	-11.5905
terebellides	-11.5907
pr	-11.5908
lande	-11.5913
="128	-11.5922
▁kamatay	-11.5928
arda	-11.5928
▁nagpapa	-11.5932
roque	-11.5937
bog	-11.594
▁fauveli	-11.5941
▁thal	-11.5944
="122	-11.5947
nate	-11.5953
bispira	-11.5972
▁fallax	-11.5973
▁griyego	-11.5973
▁jersey	-11.5973
▁violacea	-11.5973
diplodonta	-11.5973
ophelina	-11.5973
schistomeringos	-11.5973
▁pectinidae	-11.5973
▁1867.	-11.5973
▁1941.	-11.5973
brück	-11.5974
▁inflata	-11.5974
trabaho	-11.5976
tegula	-11.5977
rémy	-11.5978
▁11,	-11.5979
▁arm	-11.5979
▁pietro	-11.5982
riz	-11.5985
cymatium	-11.5992
laure	-11.5995
150	-11.5999
rc	-11.6001
laeospira	-11.6009
kor	-11.6021
linga	-11.6024
▁buch	-11.6025
pali	-11.6026
▁tomopteris	-11.6033
▁cladiella	-11.6036
▁nahamutangan	-11.6037
comte	-11.6045
▁sing	-11.6049
▁cava	-11.6053
fried	-11.6054
weiß	-11.6057
▁ellisellidae	-11.6057
▁málaga	-11.6057
▁profunda	-11.6057
▁pulchella	-11.6057
▁treviso	-11.6057
▁ginkikilala	-11.6057
biyolohiya	-11.6057
▁baird	-11.6058
lup	-11.6065
sleben	-11.6071
abralia	-11.6077
▁marc	-11.6081
▁kla	-11.6085
niki	-11.6085
chione	-11.609
podarke	-11.6092
▁national	-11.6094
iran	-11.6099
▁puebla	-11.6103
linda	-11.6103
▁johnston	-11.6115
ubo	-11.6118
▁graz	-11.6123
trem	-11.6127
▁islas	-11.6128
tillo	-11.6134
asin	-11.6136
ulles	-11.6139
vaud	-11.6141
▁sulu	-11.6142
muñ	-11.6142
keratoisis	-11.6142
▁cagayan	-11.6142
▁hokkaid	-11.6142
▁pagtawag	-11.6142
▁vorarlberg	-11.6142
▁rizal	-11.6142
▁1943.	-11.6142
bozen	-11.6142
=127	-11.6143
negosyo	-11.6143
▁cornuta	-11.6148
▁penna	-11.6149
▁14,	-11.6157
▁flores	-11.6159
lik	-11.616
lumbriconereis	-11.6163
▁river	-11.6182
ubov	-11.6183
▁frei	-11.6199
vière	-11.62
▁luis	-11.621
zem	-11.6219
▁post	-11.6221
erne	-11.6222
neuve	-11.6226
▁gintawag	-11.6227
▁lasaeidae	-11.6227
polinices	-11.6228
="1000	-11.6228
▁1892	-11.6229
▁1853	-11.6229
▁brod	-11.6229
▁1926	-11.6231
="121	-11.6242
▁baker	-11.6245
vila	-11.6248
diphascon	-11.625
▁marion	-11.6252
=125	-11.6256
▁eteone	-11.6264
▁(15	-11.6265
▁pionosyllis	-11.6272
isco	-11.6275
orne	-11.6297
row	-11.6305
ondo	-11.6308
▁aleman	-11.6312
▁lincoln	-11.6314
koblenz	-11.6314
▁assimilis	-11.6314
▁eberhard	-11.6314
▁granulata	-11.6314
▁ourense	-11.6314
▁venezuela	-11.6314
benthoctopus	-11.6314
▁panamensis	-11.6314
eirene	-11.6314
▁1953.	-11.6314
▁panguna	-11.6315
▁bert	-11.6317
eupolymnia	-11.6318
▁hadto	-11.6318
oye	-11.6319
aven	-11.6319
mora	-11.6324
kru	-11.6338
sarsia	-11.634
▁brand	-11.6341
top	-11.6343
marcel	-11.6358
▁ivanov	-11.6358
▁nana	-11.636
▁mang	-11.6361
▁mitrella	-11.6368
pula	-11.6368
▁oras	-11.6373
sige	-11.6373
reux	-11.6374
menella	-11.6377
rog	-11.6379
langen	-11.6392
="900	-11.6395
▁kagamhanan	-11.6401
="1150	-11.6401
="1020	-11.6401
="1160	-11.6401
="1100	-11.6401
▁kusel	-11.6401
leodice	-11.6401
pristina	-11.6402
▁lewis	-11.6402
▁maupay	-11.6404
gent	-11.6405
▁ubos	-11.6407
▁paagi	-11.6409
mopalia	-11.6412
orth	-11.6413
tara	-11.6418
rome	-11.6419
inn	-11.6426
-19	-11.6427
joseph	-11.6427
brze	-11.6432
chat	-11.6433
▁sakob	-11.6437
mois	-11.644
▁trier	-11.6447
cion	-11.6453
▁salle	-11.6454
▁east	-11.6458
▁aglaophamus	-11.6462
="136	-11.6462
▁hum	-11.6463
▁islands	-11.6464
="920	-11.6466
▁cadulus	-11.647
▁wiel	-11.6475
açu	-11.6481
▁dist	-11.6483
vanne	-11.6483
bong	-11.6484
▁cros	-11.6486
▁rebolusyon	-11.6488
helicodiscus	-11.6488
paracyathus	-11.6488
pseudaneitea	-11.6488
▁grasshoff	-11.6488
▁kalangitan	-11.6488
▁melithaeidae	-11.6488
▁salvador	-11.6488
▁constant	-11.6488
▁israel	-11.6488
▁cylindrica	-11.6488
▁linatin	-11.6488
="1130	-11.6488
▁1947.	-11.6489
="1180	-11.6489
▁knox	-11.6489
="1009	-11.6489
="1470	-11.649
▁aurantiaca	-11.649
="1480	-11.649
="1430	-11.649
▁limburg	-11.6491
gut	-11.6491
="1460	-11.6493
▁2006	-11.6495
mesodon	-11.6496
▁coronata	-11.6497
pandora	-11.6499
phallodrilus	-11.6516
paracis	-11.6519
randa	-11.6523
▁torres	-11.6526
tryonia	-11.6529
▁boro	-11.6533
▁general	-11.6535
▁euphrosine	-11.6537
="750	-11.6548
▁rü	-11.6548
="820	-11.6552
="137	-11.6553
="730	-11.6555
gha	-11.6561
gaster	-11.6563
="443	-11.6572
▁nangingin	-11.6576
aequorea	-11.6577
hemipodus	-11.6577
laetmonice	-11.6577
▁glyceridae	-11.6577
nicomache	-11.6577
▁babaye	-11.6577
▁kudenov	-11.6577
saarburg	-11.6577
="1120	-11.6577
="1173	-11.6577
="1188	-11.6577
▁fischer	-11.6577
="1154	-11.6577
="1162	-11.6577
▁1929.	-11.6577
="1153	-11.6577
="1155	-11.6577
="1158	-11.6577
="1163	-11.6577
="1167	-11.6577
="1164	-11.6577
="1074	-11.6577
="1157	-11.6577
="1024	-11.6577
="1044	-11.6577
="1061	-11.6577
="1062	-11.6577
="1035	-11.6577
="1037	-11.6577
="1041	-11.6577
="1043	-11.6577
="1046	-11.6577
="1049	-11.6577
="1021	-11.6577
="1028	-11.6577
="1029	-11.6577
="1036	-11.6577
="1039	-11.6577
="1011	-11.6577
="1022	-11.6577
="1031	-11.6577
="1023	-11.6577
="1146	-11.6577
="1012	-11.6577
="1013	-11.6577
="1159	-11.6577
="1004	-11.6577
="1005	-11.6577
="1006	-11.6577
="1002	-11.6577
▁aichi	-11.6577
="1059	-11.6577
="1148	-11.6577
="1038	-11.6577
="1045	-11.6577
="1060	-11.6577
="1014	-11.6577
▁clench	-11.6577
▁argentina	-11.6578
▁strong	-11.658
▁mayen	-11.6582
paradiopatra	-11.6589
courcelles	-11.6593
▁pula	-11.6597
▁ginhadi	-11.6606
ucci	-11.6607
▁aster	-11.6611
nomi	-11.6614
▁stimpsoni	-11.6615
reuil	-11.6616
hebella	-11.6618
mitolohiya	-11.6619
flo	-11.662
butnga	-11.6623
▁tubificoides	-11.6626
montreuil	-11.6626
="911	-11.6627
▁karl	-11.6628
="930	-11.6629
▁aspera	-11.6629
="990	-11.663
="848	-11.663
▁thuiaria	-11.6631
="824	-11.6635
▁magelona	-11.6637
="854	-11.6637
="934	-11.6637
="924	-11.6637
="986	-11.6637
lyo	-11.6639
="970	-11.6639
="648	-11.6639
="935	-11.6643
="937	-11.6644
="850	-11.6644
="933	-11.6644
="989	-11.6644
="925	-11.6644
="982	-11.6644
="927	-11.6644
="926	-11.6644
="923	-11.6644
="755	-11.6645
="757	-11.6645
="921	-11.6645
allier	-11.6646
="138	-11.6646
="254	-11.6646
ueil	-11.6647
oderma	-11.6648
="940	-11.6649
="946	-11.665
="653	-11.665
="932	-11.6651
="922	-11.6652
orla	-11.6652
="752	-11.6652
▁benedict	-11.6654
="973	-11.6657
="652	-11.6658
="364	-11.6665
chang	-11.6665
olive	-11.6665
="979	-11.6666
landschaft	-11.6666
▁humenné	-11.6666
▁insignis	-11.6666
▁aurora	-11.6666
burkina	-11.6666
="1107	-11.6666
="1132	-11.6666
="1118	-11.6666
="1131	-11.6666
="1109	-11.6666
="1112	-11.6666
▁sibil	-11.6666
="1171	-11.6666
="1182	-11.6666
="1115	-11.6666
="1152	-11.6666
="1156	-11.6666
="1675	-11.6666
="1682	-11.6666
="1165	-11.6666
="1064	-11.6666
="1073	-11.6666
="1026	-11.6666
="1032	-11.6666
="1065	-11.6666
="1025	-11.6666
="1027	-11.6666
="1030	-11.6666
="1033	-11.6666
="1070	-11.6666
="1050	-11.6666
="1147	-11.6666
="1149	-11.6666
="1176	-11.6666
="1138	-11.6666
▁chieti	-11.6667
▁batakan	-11.6667
="1477	-11.6667
="1463	-11.6668
="1467	-11.6668
="1424	-11.6668
="1437	-11.6668
="1432	-11.6668
="1481	-11.6668
="1483	-11.6668
="1435	-11.6668
="1427	-11.6668
="1434	-11.6668
="1439	-11.6668
="1436	-11.6668
="1458	-11.6668
="1457	-11.6668
="1433	-11.6668
="1429	-11.6668
="1456	-11.6668
▁franklin	-11.6669
="1459	-11.6671
▁lorenzo	-11.6671
="902	-11.6671
▁cristata	-11.6672
maur	-11.6674
paranaitis	-11.6677
▁sepiidae	-11.6678
▁allen	-11.668
▁jules	-11.6684
="1098	-11.6686
="1099	-11.6688
="1415	-11.6688
▁philip	-11.6692
acci	-11.67
="980	-11.6707
="710	-11.6712
="960	-11.6714
="300	-11.6717
="840	-11.672
="886	-11.6721
="981	-11.6722
▁cel	-11.6723
="725	-11.6725
="320	-11.6726
="721	-11.6726
="849	-11.6726
="530	-11.6727
="928	-11.6727
="758	-11.6727
="993	-11.6728
▁marcel	-11.6728
="663	-11.673
="944	-11.6732
="830	-11.6732
="654	-11.6732
="823	-11.6732
="821	-11.6733
pita	-11.6734
="855	-11.6734
="857	-11.6734
="856	-11.6734
="936	-11.6734
="931	-11.6735
="860	-11.6735
="999	-11.6736
="751	-11.6736
lux	-11.6737
="975	-11.6738
="976	-11.6739
="947	-11.674
="822	-11.674
="943	-11.674
="729	-11.674
▁mak	-11.674
="945	-11.674
="749	-11.674
="941	-11.674
="420	-11.6741
▁notoplax	-11.6742
="588	-11.6742
="586	-11.6742
="587	-11.6743
="356	-11.6743
="906	-11.6743
="901	-11.6744
="524	-11.6744
▁balear	-11.6744
▁aga	-11.6747
="576	-11.6748
="942	-11.6748
="971	-11.6748
="523	-11.6753
▁laubier	-11.6753
="348	-11.6755
▁dara	-11.6756
▁flabellidae	-11.6756
▁sergipe	-11.6756
▁ukranya	-11.6756
=1020	-11.6756
=1021	-11.6756
=1022	-11.6756
=1023	-11.6756
=1024	-11.6756
=1028	-11.6756
=1029	-11.6756
=1031	-11.6756
=1035	-11.6756
=1036	-11.6756
=1037	-11.6756
=1038	-11.6756
=1041	-11.6756
=1043	-11.6756
=1044	-11.6756
=1045	-11.6756
=1046	-11.6756
=1059	-11.6756
=1061	-11.6756
=1062	-11.6756
=1074	-11.6756
=648	-11.6756
=653	-11.6756
=755	-11.6756
=757	-11.6756
=824	-11.6756
=848	-11.6756
=854	-11.6756
=911	-11.6756
=920	-11.6756
=921	-11.6756
=923	-11.6756
=924	-11.6756
=925	-11.6756
=926	-11.6756
=927	-11.6756
=933	-11.6756
=934	-11.6756
=935	-11.6756
=937	-11.6756
=946	-11.6756
=986	-11.6756
=989	-11.6756
=1011	-11.6756
=1012	-11.6756
=1013	-11.6756
=1014	-11.6756
=1039	-11.6756
=1049	-11.6756
=1173	-11.6756
=1188	-11.6756
=443	-11.6756
=652	-11.6756
=752	-11.6756
=900	-11.6756
=902	-11.6756
=922	-11.6756
=932	-11.6756
=973	-11.6756
=979	-11.6756
=982	-11.6756
=1153	-11.6756
=1154	-11.6756
=1155	-11.6756
=1158	-11.6756
=1160	-11.6756
=1163	-11.6756
=1167	-11.6756
=1159	-11.6756
=1162	-11.6756
▁canarias	-11.6756
=1164	-11.6756
=1150	-11.6756
="1103	-11.6756
="1108	-11.6756
="1189	-11.6756
="1134	-11.6756
="1137	-11.6756
="1117	-11.6756
="972	-11.6756
="1113	-11.6756
="1116	-11.6756
=1157	-11.6756
="1172	-11.6756
="1161	-11.6756
▁major	-11.6756
=1004	-11.6756
="1066	-11.6756
="1058	-11.6756
="1082	-11.6756
="1040	-11.6756
=1000	-11.6756
=1005	-11.6756
=1006	-11.6756
=1146	-11.6756
=1148	-11.6756
=1002	-11.6757
=1009	-11.6757
="1140	-11.6757
="1114	-11.6757
="1048	-11.6757
="1676	-11.6757
▁cochem	-11.6757
="1474	-11.6758
="1473	-11.6758
="1462	-11.6758
="1466	-11.6758
="1472	-11.6758
="1475	-11.6758
="1461	-11.6758
="1468	-11.6758
="1426	-11.6758
="1469	-11.6758
="1482	-11.6758
▁1828	-11.6758
▁kramp	-11.6759
="333	-11.6759
▁ingles	-11.676
="1476	-11.6761
▁nikola	-11.6761
▁dol	-11.6765
="329	-11.6765
▁base	-11.6766
="336	-11.677
léon	-11.6771
▁faso	-11.6771
164	-11.6775
epiactis	-11.6776
▁pio	-11.6776
="1413	-11.6776
▁vermilia	-11.6785
▁sudan	-11.6786
16)	-11.6787
▁relihiyon	-11.6787
ussac	-11.6787
▁edwardsi	-11.6789
="770	-11.6794
▁boa	-11.6794
="620	-11.6798
cino	-11.6802
tí	-11.6804
▁amay	-11.6806
▁sthenelais	-11.6806
="744	-11.6809
="719	-11.6809
="881	-11.6813
="957	-11.6813
="646	-11.6813
="360	-11.6814
▁baga	-11.6814
▁sanga	-11.6815
="473	-11.6817
="853	-11.6818
▁foli	-11.6818
="851	-11.6818
="256	-11.6818
="622	-11.6818
="754	-11.6819
="257	-11.6819
="826	-11.6824
="355	-11.6824
="354	-11.6825
admete	-11.6826
="868	-11.6826
="327	-11.6827
="969	-11.6828
="573	-11.6829
="899	-11.6831
nesi	-11.6833
="529	-11.6835
▁dy	-11.6836
="330	-11.6838
▁cort	-11.6839
ilia	-11.6845
sicyonis	-11.6847
▁chrysogorgiidae	-11.6847
▁krtíš	-11.6847
▁trebišov	-11.6847
=1026	-11.6847
=1027	-11.6847
▁vercelli	-11.6847
=1025	-11.6847
=1033	-11.6847
=1064	-11.6847
=1065	-11.6847
=1073	-11.6847
=1115	-11.6847
=1118	-11.6847
=1430	-11.6847
=1432	-11.6847
=1433	-11.6847
=1434	-11.6847
=1435	-11.6847
=1436	-11.6847
=1437	-11.6847
=1439	-11.6847
=1460	-11.6847
=1463	-11.6847
=1467	-11.6847
=1470	-11.6847
=1477	-11.6847
=1675	-11.6847
=1682	-11.6847
=524	-11.6847
=654	-11.6847
=663	-11.6847
=721	-11.6847
=725	-11.6847
=729	-11.6847
=730	-11.6847
=749	-11.6847
=750	-11.6847
=751	-11.6847
=758	-11.6847
=820	-11.6847
=821	-11.6847
=823	-11.6847
=849	-11.6847
=855	-11.6847
=856	-11.6847
=857	-11.6847
=886	-11.6847
=901	-11.6847
=906	-11.6847
=928	-11.6847
=931	-11.6847
=936	-11.6847
=941	-11.6847
=942	-11.6847
=943	-11.6847
=944	-11.6847
=945	-11.6847
=947	-11.6847
=975	-11.6847
=976	-11.6847
=981	-11.6847
=993	-11.6847
=999	-11.6847
=1032	-11.6847
=1112	-11.6847
=1171	-11.6847
=1176	-11.6847
=1180	-11.6847
=1182	-11.6847
=254	-11.6847
=364	-11.6847
=523	-11.6847
=576	-11.6847
=586	-11.6847
=587	-11.6847
=588	-11.6847
=822	-11.6847
=971	-11.6847
=972	-11.6847
=1100	-11.6847
=1107	-11.6847
=1131	-11.6847
=1138	-11.6847
=1132	-11.6847
=1152	-11.6847
=1156	-11.6847
pambansa	-11.6847
=1130	-11.6847
=1165	-11.6847
="1183	-11.6847
="1101	-11.6847
="1119	-11.6847
sepiola	-11.6847
="1125	-11.6847
▁magka	-11.6847
="1151	-11.6847
="1136	-11.6847
=1147	-11.6847
=1480	-11.6847
=1481	-11.6847
=1483	-11.6847
="1054	-11.6847
="1055	-11.6847
="1034	-11.6847
="1019	-11.6847
=1149	-11.6847
="1017	-11.6847
=877	-11.6847
="1008	-11.6847
="1007	-11.6848
="1016	-11.6848
="1015	-11.6848
="1003	-11.6848
="1001	-11.6848
="1145	-11.6848
▁tele	-11.6848
▁1891	-11.6848
="1471	-11.6848
="1464	-11.6849
="1479	-11.6849
="1441	-11.6849
="1444	-11.6849
="1455	-11.6849
="1428	-11.6849
="1431	-11.6849
▁mayor	-11.6854
zheim	-11.6855
erre	-11.6864
melon	-11.6867
="1095	-11.6867
▁class	-11.6868
▁novara	-11.6868
▁(3	-11.6878
="720	-11.6879
="680	-11.688
microphthalmus	-11.6881
▁22,	-11.6881
ering	-11.6881
halcampa	-11.6882
="650	-11.6882
fuente	-11.6885
="540	-11.6885
▁nephthea	-11.6886
cano	-11.6887
="265	-11.6887
="390	-11.689
="988	-11.689
="985	-11.689
="888	-11.689
="880	-11.689
="987	-11.689
="984	-11.689
="847	-11.6891
="664	-11.6892
="255	-11.6893
="723	-11.6894
="756	-11.6895
="983	-11.6897
="961	-11.6897
="520	-11.6897
="844	-11.6897
="615	-11.6898
="649	-11.6898
="959	-11.6898
="310	-11.6899
mour	-11.69
="728	-11.6901
="938	-11.6902
="997	-11.6903
="996	-11.6903
="340	-11.6904
batu	-11.6905
="919	-11.6906
="449	-11.6907
="896	-11.6907
="475	-11.6909
="939	-11.6909
▁tren	-11.691
icourt	-11.691
="883	-11.6911
marso	-11.6912
="977	-11.6912
="541	-11.6913
="835	-11.6915
="867	-11.6918
▁alata	-11.6919
="991	-11.692
="534	-11.692
="306	-11.6926
="869	-11.6926
="349	-11.6927
simpl	-11.6928
="500	-11.6929
▁america	-11.693
pura	-11.6931
▁félix	-11.6932
=2285	-11.6939
aiptasia	-11.6939
epioblasma	-11.6939
myriochele	-11.6939
plaxiphora	-11.6939
stenoplax	-11.6939
ventridens	-11.6939
▁oenonidae	-11.6939
=1058	-11.6939
=1060	-11.6939
=1066	-11.6939
=1082	-11.6939
=1114	-11.6939
=1461	-11.6939
=1462	-11.6939
=1466	-11.6939
=1468	-11.6939
=1469	-11.6939
=1472	-11.6939
=1473	-11.6939
=1474	-11.6939
=1475	-11.6939
=1476	-11.6939
=1676	-11.6939
=646	-11.6939
=719	-11.6939
=744	-11.6939
=754	-11.6939
=851	-11.6939
=853	-11.6939
=881	-11.6939
=930	-11.6939
=990	-11.6939
=1048	-11.6939
=1113	-11.6939
=1116	-11.6939
=1117	-11.6939
=356	-11.6939
=529	-11.6939
=573	-11.6939
=622	-11.6939
=826	-11.6939
=850	-11.6939
=868	-11.6939
=899	-11.6939
=940	-11.6939
=957	-11.6939
=969	-11.6939
=970	-11.6939
=1103	-11.6939
=1108	-11.6939
=1120	-11.6939
=1134	-11.6939
=1172	-11.6939
=1189	-11.6939
=329	-11.6939
=333	-11.6939
=336	-11.6939
=348	-11.6939
=1137	-11.6939
=1161	-11.6939
▁gaimard	-11.6939
="2285	-11.6939
acteon	-11.6939
=1109	-11.6939
="1181	-11.6939
="1174	-11.6939
="1105	-11.6939
="1110	-11.6939
="1139	-11.6939
="1232	-11.6939
="1562	-11.6939
="1553	-11.6939
="1081	-11.6939
=1482	-11.6939
="1069	-11.6939
="1144	-11.6939
=387	-11.6939
=872	-11.6939
trophonopsis	-11.6939
▁1874	-11.694
="1465	-11.694
="1478	-11.694
="1443	-11.694
▁pakadto	-11.694
="1442	-11.694
="1454	-11.694
="1440	-11.694
▁1832	-11.6941
="1438	-11.6944
="1445	-11.6944
climocella	-11.6944
wight	-11.6945
tow	-11.6951
="1096	-11.6953
eutima	-11.6956
="1412	-11.6959
▁sabellaria	-11.6964
="260	-11.6964
▁uschakovi	-11.6965
="610	-11.6965
▁gobernador	-11.6966
="740	-11.6971
="267	-11.6971
="700	-11.6973
saki	-11.6973
="670	-11.6975
="510	-11.6976
="570	-11.6977
="690	-11.6977
kent	-11.698
="731	-11.6981
="968	-11.6981
="683	-11.6981
▁vas	-11.6983
="655	-11.6983
="958	-11.6983
="499	-11.6983
="780	-11.6984
="661	-11.6985
="777	-11.6985
vieille	-11.6985
="722	-11.6986
="995	-11.6988
="998	-11.6988
="334	-11.6988
▁maas	-11.6989
="682	-11.6989
="445	-11.6989
="442	-11.6989
="621	-11.6989
="897	-11.6991
="656	-11.6991
="317	-11.6992
="391	-11.6993
="515	-11.6993
="743	-11.6994
="709	-11.6994
="424	-11.6995
▁sultan	-11.6995
="753	-11.6995
="841	-11.6997
="431	-11.6997
="339	-11.7
▁wy	-11.7
="834	-11.7001
▁verona	-11.7001
="519	-11.7002
="397	-11.7002
="512	-11.7003
sion	-11.7003
="705	-11.7005
="307	-11.7005
="701	-11.7005
="312	-11.7005
="311	-11.7006
="409	-11.7007
="408	-11.7008
▁lumbriconereis	-11.7008
▁buc	-11.7008
="828	-11.7008
="833	-11.7008
="827	-11.7009
="838	-11.7009
="831	-11.7009
="525	-11.701
="905	-11.701
="839	-11.7016
="832	-11.7016
="319	-11.7019
="859	-11.7019
="522	-11.702
holzland	-11.7031
dodecaceria	-11.7031
lygdamis	-11.7031
lysidice	-11.7031
macrorhynchia	-11.7031
▁albacete	-11.7031
▁frosinone	-11.7031
▁jefferson	-11.7031
▁simbahan	-11.7031
=1030	-11.7031
=1034	-11.7031
=1050	-11.7031
=1054	-11.7031
=1055	-11.7031
=1464	-11.7031
=1471	-11.7031
=1479	-11.7031
=615	-11.7031
=664	-11.7031
=710	-11.7031
=723	-11.7031
=756	-11.7031
=844	-11.7031
=847	-11.7031
=888	-11.7031
=960	-11.7031
=961	-11.7031
=980	-11.7031
=984	-11.7031
=985	-11.7031
=987	-11.7031
=988	-11.7031
▁rotunda	-11.7031
=1017	-11.7031
=1019	-11.7031
=1070	-11.7031
=1431	-11.7031
=256	-11.7031
=257	-11.7031
=327	-11.7031
=354	-11.7031
=355	-11.7031
=473	-11.7031
=530	-11.7031
=534	-11.7031
=541	-11.7031
=649	-11.7031
=728	-11.7031
=830	-11.7031
=835	-11.7031
=840	-11.7031
=860	-11.7031
=867	-11.7031
=883	-11.7031
=896	-11.7031
=919	-11.7031
=938	-11.7031
=939	-11.7031
=959	-11.7031
=977	-11.7031
=983	-11.7031
=991	-11.7031
=996	-11.7031
=997	-11.7031
▁californiensis	-11.7031
=1015	-11.7031
=1016	-11.7031
=1101	-11.7031
=1119	-11.7031
=1136	-11.7031
=869	-11.7031
=1151	-11.7031
=1183	-11.7031
▁manfred	-11.7031
=1125	-11.7032
="1106	-11.7032
="1111	-11.7032
vyšn	-11.7032
="1135	-11.7032
=1008	-11.7032
=1145	-11.7032
=1007	-11.7032
="1133	-11.7032
="1681	-11.7032
="1566	-11.7032
loimia	-11.7032
="1067	-11.7032
=762	-11.7032
=1001	-11.7032
=1003	-11.7032
=874	-11.7032
="1603	-11.7032
=879	-11.7032
=870	-11.7032
=878	-11.7032
="2059	-11.7032
spiraserpula	-11.7032
rik	-11.7035
▁world	-11.7042
▁hemphilli	-11.7044
▁ophryotrocha	-11.7049
="1097	-11.705
="660	-11.7055
="266	-11.7057
▁kanta	-11.7058
="718	-11.706
="460	-11.706
wel	-11.7061
="666	-11.7062
▁nang	-11.7063
="776	-11.7063
▁pot	-11.7065
enero	-11.7065
="715	-11.7067
="425	-11.7067
="895	-11.7067
="631	-11.7067
="657	-11.7067
="496	-11.7068
="497	-11.7068
tong	-11.7068
olle	-11.7068
="474	-11.7069
="665	-11.7069
="418	-11.707
="563	-11.707
="543	-11.7071
="974	-11.7071
="772	-11.7071
="415	-11.7071
="544	-11.7071
="435	-11.7071
="434	-11.7071
▁kataposan	-11.7071
="414	-11.7072
="545	-11.7072
="358	-11.7073
="447	-11.7073
="446	-11.7073
="759	-11.7073
="533	-11.7074
="633	-11.7075
="617	-11.7075
▁islam	-11.7075
="651	-11.7076
="498	-11.7076
="659	-11.7076
="582	-11.7077
="477	-11.7077
="677	-11.7077
="476	-11.7078
="517	-11.7078
="779	-11.7078
="341	-11.7079
="412	-11.7079
="419	-11.708
="692	-11.708
="286	-11.708
="542	-11.708
="433	-11.708
parachiton	-11.7081
="994	-11.7082
="967	-11.7082
="528	-11.7083
="842	-11.7083
="526	-11.7084
▁gemma	-11.7084
="303	-11.7086
="301	-11.7086
="313	-11.7086
="916	-11.7086
="511	-11.7088
="428	-11.7088
="429	-11.7088
="852	-11.7088
="577	-11.7089
="421	-11.7089
="992	-11.709
="843	-11.709
solen	-11.709
chelle	-11.7094
="864	-11.7098
="305	-11.7099
mino	-11.7101
="404	-11.7102
="863	-11.7105
="861	-11.7106
="395	-11.7107
▁hua	-11.7108
gney	-11.7109
▁(17	-11.7111
=1424	-11.7111
▁châtel	-11.7118
elementarya	-11.7121
=2381	-11.7125
▁antarcticus	-11.7125
▁guipúzcoa	-11.7125
▁hubricht	-11.7125
▁pilargidae	-11.7125
=265	-11.7125
=683	-11.7125
=731	-11.7125
=770	-11.7125
=968	-11.7125
calyptrophora	-11.7125
dynamena	-11.7125
laevidentalium	-11.7125
=1040	-11.7125
=1081	-11.7125
=1438	-11.7125
=1465	-11.7125
=1478	-11.7125
=1553	-11.7125
=255	-11.7125
=320	-11.7125
=449	-11.7125
=475	-11.7125
=515	-11.7125
=525	-11.7125
=620	-11.7125
=621	-11.7125
=655	-11.7125
=656	-11.7125
=661	-11.7125
=682	-11.7125
=722	-11.7125
=743	-11.7125
=753	-11.7125
=777	-11.7125
=827	-11.7125
=828	-11.7125
=834	-11.7125
=841	-11.7125
=897	-11.7125
=958	-11.7125
=995	-11.7125
=998	-11.7125
=1069	-11.7125
=1174	-11.7125
=1181	-11.7125
=1562	-11.7125
=306	-11.7125
=512	-11.7125
=519	-11.7125
=522	-11.7125
=701	-11.7125
=705	-11.7125
=831	-11.7125
=832	-11.7125
=833	-11.7125
=838	-11.7125
=839	-11.7125
=859	-11.7125
=905	-11.7125
=349	-11.7125
=420	-11.7125
=1105	-11.7125
=1139	-11.7125
auricula	-11.7125
="1126	-11.7125
="2381	-11.7125
="1175	-11.7125
=763	-11.7125
=766	-11.7125
="2066	-11.7125
=1144	-11.7125
="1068	-11.7125
="1141	-11.7125
=384	-11.7125
=1140	-11.7125
="2187	-11.7125
=871	-11.7125
=875	-11.7125
▁1816	-11.7129
="480	-11.7132
="440	-11.7136
louis	-11.7141
=1427	-11.7142
="1094	-11.7142
janua	-11.7143
="350	-11.7146
▁page	-11.7147
▁pedra	-11.7148
ully	-11.7153
▁chiba	-11.7154
="252	-11.7154
="461	-11.7155
="437	-11.7155
="560	-11.7155
="623	-11.7155
="694	-11.7155
="912	-11.7156
="669	-11.7156
="662	-11.7156
="353	-11.7157
="771	-11.7157
="448	-11.7157
="295	-11.7157
="748	-11.7158
="658	-11.7161
▁27,	-11.7162
="585	-11.7162
="674	-11.7163
="884	-11.7163
="555	-11.7163
="578	-11.7164
="436	-11.7164
▁michael	-11.7164
="546	-11.7165
tima	-11.7165
="527	-11.7167
="635	-11.7168
▁edwardsia	-11.7169
="714	-11.7169
="537	-11.7169
="532	-11.7169
="398	-11.7169
="531	-11.7169
="626	-11.717
="394	-11.717
devant	-11.717
="702	-11.7171
="518	-11.7172
="558	-11.7172
="671	-11.7172
="516	-11.7172
="556	-11.7172
="513	-11.7173
="362	-11.7173
="569	-11.7174
="361	-11.7174
="562	-11.7174
=1429	-11.7174
="561	-11.7175
▁18,	-11.7175
="877	-11.7177
="521	-11.7178
="359	-11.7178
="870	-11.7179
="387	-11.7179
="539	-11.7179
▁gun	-11.718
="538	-11.718
="308	-11.718
seille	-11.7183
▁kina	-11.7185
="506	-11.7188
="335	-11.7188
="503	-11.7188
="504	-11.7188
="450	-11.7188
▁perkins	-11.7189
hydr	-11.719
▁eunoe	-11.7194
▁att	-11.7197
="825	-11.7197
="908	-11.7198
vray	-11.7198
▁scoloplos	-11.72
="866	-11.72
▁maha	-11.7201
="505	-11.7202
="509	-11.7203
="502	-11.7203
itsa	-11.7204
=1426	-11.7205
tuig	-11.7206
="862	-11.7208
="600	-11.7209
ossola	-11.7214
cena	-11.7217
tille	-11.7218
=2059	-11.7219
=2187	-11.7219
=2289	-11.7219
cypraea	-11.7219
ocenebra	-11.7219
synelmis	-11.7219
westraltrachia	-11.7219
▁bashkortostan	-11.7219
▁heinrich	-11.7219
=1067	-11.7219
=1111	-11.7219
=267	-11.7219
=442	-11.7219
=445	-11.7219
=499	-11.7219
=517	-11.7219
=520	-11.7219
=528	-11.7219
=533	-11.7219
=540	-11.7219
=542	-11.7219
=543	-11.7219
=544	-11.7219
=545	-11.7219
=563	-11.7219
=582	-11.7219
=617	-11.7219
=631	-11.7219
=633	-11.7219
=650	-11.7219
=651	-11.7219
=657	-11.7219
=659	-11.7219
=665	-11.7219
=666	-11.7219
=677	-11.7219
=680	-11.7219
=692	-11.7219
=715	-11.7219
=718	-11.7219
=720	-11.7219
=759	-11.7219
=772	-11.7219
=776	-11.7219
=779	-11.7219
=842	-11.7219
=880	-11.7219
=895	-11.7219
=967	-11.7219
=974	-11.7219
=994	-11.7219
pegantha	-11.7219
▁gregorio	-11.7219
▁sydney	-11.7219
=1566	-11.7219
=1681	-11.7219
=300	-11.7219
=307	-11.7219
=311	-11.7219
=312	-11.7219
=317	-11.7219
=334	-11.7219
=339	-11.7219
=360	-11.7219
=391	-11.7219
=397	-11.7219
=408	-11.7219
=424	-11.7219
=431	-11.7219
=511	-11.7219
=526	-11.7219
=577	-11.7219
=709	-11.7219
=843	-11.7219
=852	-11.7219
=861	-11.7219
=863	-11.7219
=864	-11.7219
=916	-11.7219
=992	-11.7219
▁esteban	-11.7219
=1106	-11.7219
=319	-11.7219
=330	-11.7219
="2188	-11.7219
="2289	-11.7219
=1133	-11.7219
▁spiralis	-11.7219
=500	-11.7219
=1135	-11.7219
="1121	-11.7219
pomerania	-11.7219
=768	-11.7219
=761	-11.7219
=767	-11.7219
=487	-11.7219
=605	-11.7219
="1340	-11.7219
="1689	-11.7219
=386	-11.722
=482	-11.722
="1053	-11.722
=120	-11.722
="270	-11.7221
▁1875	-11.7221
="280	-11.7221
▁dispar	-11.7221
▁caeca	-11.7222
="403	-11.7225
▁leloup	-11.7226
▁heu	-11.7227
=1098	-11.7228
="890	-11.7229
="763	-11.7231
="444	-11.7231
="766	-11.7232
▁tuber	-11.7232
="119	-11.7232
="487	-11.7234
="624	-11.7235
▁ramos	-11.7236
="269	-11.7237
="261	-11.7237
▁20,	-11.7238
="264	-11.7238
="687	-11.7238
nghem	-11.724
="299	-11.7241
now	-11.7243
="426	-11.7243
="423	-11.7244
="778	-11.7244
="738	-11.7246
="762	-11.7246
="685	-11.7246
="962	-11.7246
="681	-11.7246
="636	-11.7246
="634	-11.7247
markt	-11.7247
="891	-11.7247
="472	-11.7248
="679	-11.7248
▁nassarius	-11.7248
="557	-11.7249
="554	-11.7249
="579	-11.725
="514	-11.725
="438	-11.725
="548	-11.725
="384	-11.725
="571	-11.725
="372	-11.7251
▁amphitrite	-11.7252
kara	-11.7253
▁porites	-11.7253
="399	-11.7253
="739	-11.7254
="618	-11.7255
="632	-11.7255
▁nemertesia	-11.7256
="363	-11.7256
="790	-11.7256
="673	-11.7257
="583	-11.7257
="678	-11.7257
="283	-11.7257
="625	-11.7257
amage	-11.7258
="337	-11.7258
=1415	-11.7259
="693	-11.7259
="574	-11.7259
="410	-11.726
▁chromonephthea	-11.726
▁siphonogorgia	-11.726
="378	-11.7262
="316	-11.7262
="314	-11.7263
="966	-11.7263
="768	-11.7269
="253	-11.7269
="501	-11.7269
=1099	-11.7269
="417	-11.7269
="485	-11.727
="455	-11.7271
="326	-11.7274
="396	-11.7276
="393	-11.7276
="304	-11.7276
="406	-11.7277
▁wie	-11.7277
="405	-11.7278
villy	-11.728
="760	-11.7283
="507	-11.7283
="386	-11.7287
="482	-11.7287
="865	-11.7295
=1428	-11.7301
▁mayer	-11.7302
rossia	-11.7303
="457	-11.7308
="385	-11.7308
="486	-11.7308
="484	-11.731
="978	-11.731
=1413	-11.7311
grange	-11.7312
=2066	-11.7314
=2188	-11.7314
=2376	-11.7314
=2390	-11.7314
=2393	-11.7314
fungiacyathus	-11.7314
sthenolepis	-11.7314
▁aberrans	-11.7314
▁oristano	-11.7314
=266	-11.7314
=425	-11.7314
=446	-11.7314
=496	-11.7314
=497	-11.7314
=546	-11.7314
=570	-11.7314
=585	-11.7314
=610	-11.7314
=623	-11.7314
=635	-11.7314
=658	-11.7314
=662	-11.7314
=669	-11.7314
=694	-11.7314
=740	-11.7314
=748	-11.7314
=771	-11.7314
=884	-11.7314
=912	-11.7314
pulsellum	-11.7314
=1110	-11.7314
=1175	-11.7314
=286	-11.7314
=301	-11.7314
=303	-11.7314
=310	-11.7314
=313	-11.7314
=340	-11.7314
=341	-11.7314
=358	-11.7314
=390	-11.7314
=412	-11.7314
=414	-11.7314
=415	-11.7314
=418	-11.7314
=419	-11.7314
=421	-11.7314
=428	-11.7314
=429	-11.7314
=433	-11.7314
=434	-11.7314
=435	-11.7314
=447	-11.7314
=474	-11.7314
=476	-11.7314
=477	-11.7314
=498	-11.7314
=510	-11.7314
=513	-11.7314
=516	-11.7314
=518	-11.7314
=521	-11.7314
=527	-11.7314
=531	-11.7314
=532	-11.7314
=537	-11.7314
=538	-11.7314
=539	-11.7314
=555	-11.7314
=556	-11.7314
=558	-11.7314
=561	-11.7314
=562	-11.7314
=569	-11.7314
=578	-11.7314
=626	-11.7314
=670	-11.7314
=671	-11.7314
=674	-11.7314
=690	-11.7314
=702	-11.7314
=714	-11.7314
=780	-11.7314
cylichna	-11.7314
quentin	-11.7314
=1068	-11.7314
=305	-11.7314
=395	-11.7314
=404	-11.7314
=409	-11.7314
=502	-11.7314
=503	-11.7314
=504	-11.7314
=505	-11.7314
=506	-11.7314
=825	-11.7314
=862	-11.7314
=866	-11.7314
=908	-11.7314
="2393	-11.7314
=1126	-11.7314
▁batangas	-11.7314
="2390	-11.7315
maggiore	-11.7315
▁caldas	-11.7315
="1122	-11.7315
=764	-11.7315
=769	-11.7315
anthomastus	-11.7315
=455	-11.7315
=485	-11.7315
=383	-11.7315
=593	-11.7315
=599	-11.7315
=480	-11.7315
=488	-11.7315
="1677	-11.7315
="2098	-11.7315
="2090	-11.7315
="1018	-11.7315
="2376	-11.7315
=1141	-11.7315
=873	-11.7315
=876	-11.7315
="470	-11.7315
="490	-11.7315
▁westheide	-11.7315
="580	-11.7315
="550	-11.7315
="630	-11.7316
hemi	-11.7316
▁xii	-11.7318
="380	-11.7319
="874	-11.7319
▁della	-11.7319
campagne	-11.732
▁sulcata	-11.7321
▁15,	-11.7322
▁osaka	-11.7322
="767	-11.7322
="488	-11.7324
="383	-11.7324
="263	-11.7324
="761	-11.7327
="605	-11.7329
=1458	-11.7329
=1457	-11.7329
="872	-11.733
="716	-11.733
="711	-11.733
=1456	-11.733
▁belo	-11.7331
="668	-11.7331
="726	-11.7332
="929	-11.7332
=1444	-11.7332
="684	-11.7333
="688	-11.7333
="616	-11.7334
="478	-11.7334
="564	-11.7335
="547	-11.7335
▁édo	-11.7336
="379	-11.7336
="328	-11.7337
="536	-11.7337
="708	-11.7338
="704	-11.7338
usson	-11.7339
="365	-11.7339
="346	-11.7339
="590	-11.734
="737	-11.7341
="965	-11.7341
="302	-11.7343
="675	-11.7343
="559	-11.7345
="565	-11.7345
="567	-11.7345
="882	-11.7346
="298	-11.7348
="297	-11.7348
="802	-11.7348
▁topo	-11.735
="368	-11.7352
="430	-11.7355
="416	-11.7356
▁23,	-11.7356
="290	-11.7358
="769	-11.7359
pseudopolydora	-11.736
▁palo	-11.7361
="458	-11.7361
="764	-11.7361
="452	-11.7362
ranov	-11.7363
ndar	-11.7365
▁mani	-11.7365
="879	-11.7366
="796	-11.737
="392	-11.7372
="878	-11.7372
▁fort	-11.7374
=1441	-11.7375
="609	-11.7379
milly	-11.738
=1459	-11.7381
=1443	-11.7383
rath	-11.7389
="836	-11.7389
=1096	-11.739
▁nagka	-11.7398
="453	-11.74
▁unit	-11.74
="765	-11.74
xon	-11.7401
uden	-11.7404
trophon	-11.7408
uster	-11.741
=2392	-11.7411
ograpiya	-11.7411
▁dominicana	-11.7411
▁goniadidae	-11.7411
▁kamolupyohan	-11.7411
=1053	-11.7411
=2294	-11.7411
=2295	-11.7411
=2383	-11.7411
=260	-11.7411
=624	-11.7411
=634	-11.7411
=636	-11.7411
=660	-11.7411
=681	-11.7411
=685	-11.7411
=687	-11.7411
=738	-11.7411
=778	-11.7411
=962	-11.7411
euphysora	-11.7411
homalopoma	-11.7411
turritella	-11.7411
=252	-11.7411
=295	-11.7411
=353	-11.7411
=361	-11.7411
=362	-11.7411
=394	-11.7411
=398	-11.7411
=436	-11.7411
=437	-11.7411
=448	-11.7411
=461	-11.7411
=514	-11.7411
=548	-11.7411
=554	-11.7411
=557	-11.7411
=571	-11.7411
=574	-11.7411
=579	-11.7411
=583	-11.7411
=618	-11.7411
=625	-11.7411
=632	-11.7411
=673	-11.7411
=678	-11.7411
=679	-11.7411
=693	-11.7411
=700	-11.7411
=739	-11.7411
=891	-11.7411
=966	-11.7411
=1689	-11.7411
=308	-11.7411
=335	-11.7411
=359	-11.7411
=501	-11.7411
=507	-11.7411
=509	-11.7411
=865	-11.7411
=1121	-11.7411
=403	-11.7411
=978	-11.7411
="2295	-11.7411
="2392	-11.7411
="2294	-11.7411
▁pacificus	-11.7411
▁sinisiring	-11.7411
="2120	-11.7411
=385	-11.7411
=457	-11.7411
=765	-11.7411
="1127	-11.7411
=484	-11.7411
=486	-11.7411
="1104	-11.7411
=452	-11.7411
=458	-11.7411
="2383	-11.7411
=601	-11.7411
=483	-11.7411
="2057	-11.7411
="2080	-11.7411
="1690	-11.7411
="2029	-11.7411
▁1950.	-11.7411
="2160	-11.7411
▁muslim	-11.7411
="640	-11.7411
="463	-11.7412
="465	-11.7412
="427	-11.7412
="464	-11.7412
="775	-11.7412
="964	-11.7412
="279	-11.7412
▁gidamo	-11.7412
="272	-11.7412
="277	-11.7412
="278	-11.7412
="275	-11.7412
="274	-11.7412
="288	-11.7412
▁bicolor	-11.7412
="271	-11.7412
="1425	-11.7412
="691	-11.7412
="259	-11.7413
="276	-11.7413
="287	-11.7413
▁lumad	-11.7415
atubang	-11.7416
▁medio	-11.7418
="712	-11.7419
="810	-11.7419
="599	-11.742
="773	-11.742
▁pallas	-11.742
="686	-11.7421
="268	-11.7421
="613	-11.7421
="593	-11.7421
="439	-11.7421
="698	-11.7422
="373	-11.7422
="454	-11.7422
="273	-11.7422
="695	-11.7422
="606	-11.7422
="483	-11.7423
=1095	-11.7423
="706	-11.7423
="422	-11.7423
=1442	-11.7424
="381	-11.7425
=1445	-11.7426
motte	-11.7426
="889	-11.7427
="611	-11.743
="589	-11.743
="672	-11.743
="614	-11.7431
▁natural	-11.7431
="699	-11.7432
="568	-11.7432
="357	-11.7433
="807	-11.7433
="389	-11.7436
▁alexander	-11.7438
="595	-11.7439
▁epitonium	-11.7439
="594	-11.7439
="603	-11.7439
▁eugen	-11.744
hadra	-11.7441
="432	-11.7442
▁odontosyllis	-11.7443
="845	-11.7446
capnella	-11.7447
glan	-11.7448
▁paris	-11.7455
="797	-11.7458
proto	-11.7461
reuth	-11.7466
="601	-11.7466
cim	-11.7466
=1455	-11.7471
="875	-11.7472
="489	-11.7474
="382	-11.7474
nag	-11.7475
="871	-11.7478
="451	-11.7478
▁sini	-11.7481
="345	-11.7487
lion	-11.7489
mega	-11.749
=1412	-11.7504
▁java	-11.7506
=2207	-11.7508
=2386	-11.7508
=1018	-11.7508
=2098	-11.7508
=2272	-11.7508
=2286	-11.7508
=261	-11.7508
=264	-11.7508
=269	-11.7508
=299	-11.7508
=423	-11.7508
=426	-11.7508
=444	-11.7508
=536	-11.7508
=547	-11.7508
=564	-11.7508
=616	-11.7508
=668	-11.7508
=684	-11.7508
=688	-11.7508
=704	-11.7508
=708	-11.7508
=711	-11.7508
=716	-11.7508
=726	-11.7508
=737	-11.7508
=929	-11.7508
=965	-11.7508
antiplanes	-11.7508
mittelland	-11.7508
muriceides	-11.7508
▁arizona	-11.7508
▁hilbig	-11.7508
▁ibaraki	-11.7508
▁mindoro	-11.7508
▁obscura	-11.7508
▁sphaerodoridae	-11.7508
=253	-11.7508
=283	-11.7508
=314	-11.7508
=316	-11.7508
=337	-11.7508
=363	-11.7508
=372	-11.7508
=378	-11.7508
=399	-11.7508
=417	-11.7508
=438	-11.7508
=460	-11.7508
=472	-11.7508
=559	-11.7508
=560	-11.7508
=565	-11.7508
=567	-11.7508
=675	-11.7508
=802	-11.7508
=882	-11.7508
=1677	-11.7508
=304	-11.7508
=326	-11.7508
=393	-11.7508
=396	-11.7508
=405	-11.7508
=406	-11.7508
=796	-11.7508
=836	-11.7508
="2272	-11.7508
=1122	-11.7508
▁cirrata	-11.7508
="2286	-11.7508
▁serbisyo	-11.7508
="2155	-11.7508
="2161	-11.7508
="2207	-11.7508
=594	-11.7508
=595	-11.7508
=603	-11.7508
=453	-11.7508
=600	-11.7508
="2386	-11.7508
="1341	-11.7508
="2064	-11.7508
="2095	-11.7508
="1683	-11.7508
="2058	-11.7508
="2078	-11.7508
="469	-11.7508
="462	-11.7508
="492	-11.7508
="468	-11.7508
="466	-11.7508
="467	-11.7508
="493	-11.7508
="369	-11.7508
="495	-11.7508
="377	-11.7508
="494	-11.7508
="367	-11.7508
="342	-11.7508
="375	-11.7508
="374	-11.7509
="343	-11.7509
cytora	-11.7509
="491	-11.7509
="1559	-11.7509
="732	-11.7509
="717	-11.7509
="892	-11.7509
="736	-11.7509
="774	-11.7509
="893	-11.7509
="713	-11.7509
="733	-11.7509
="282	-11.7509
▁incerta	-11.7509
="734	-11.7509
="894	-11.7509
="707	-11.7509
="629	-11.7509
="689	-11.7509
="566	-11.7509
="644	-11.7509
="332	-11.7509
="581	-11.7509
="258	-11.7509
="376	-11.7509
="645	-11.7509
▁1847	-11.7509
fix	-11.751
palibot	-11.751
▁lun	-11.7511
="459	-11.7512
cier	-11.7512
▁italyano	-11.7513
="607	-11.7514
="596	-11.7514
="604	-11.7515
="481	-11.7516
="817	-11.7517
="747	-11.7517
="815	-11.7517
="724	-11.7517
="608	-11.7518
hesione	-11.7519
="676	-11.7519
="808	-11.7519
▁cape	-11.7526
unter	-11.7526
roch	-11.7527
="471	-11.7528
="592	-11.7534
=1440	-11.7536
="602	-11.7536
="1309	-11.754
uzan	-11.7542
="296	-11.7542
▁puwesto	-11.7542
▁harris	-11.7543
▁germ	-11.7551
="322	-11.7554
succinea	-11.7554
▁nakaka	-11.7565
limatula	-11.7565
onoba	-11.7565
kap	-11.7568
="745	-11.7569
="597	-11.7572
="887	-11.7573
="591	-11.7577
=1454	-11.7577
=1097	-11.7577
="315	-11.7581
novi	-11.7581
▁2007.	-11.7584
="837	-11.7585
=2029	-11.7606
=2057	-11.7606
=2155	-11.7606
=2161	-11.7606
=2311	-11.7606
=2375	-11.7606
=2382	-11.7606
=263	-11.7606
=440	-11.7606
=606	-11.7606
=613	-11.7606
=686	-11.7606
=691	-11.7606
=695	-11.7606
=698	-11.7606
=706	-11.7606
=712	-11.7606
=773	-11.7606
=775	-11.7606
=890	-11.7606
=964	-11.7606
barasahan	-11.7606
hololepidella	-11.7606
lycoris	-11.7606
▁abyssalis	-11.7606
▁belgium	-11.7606
▁connecticut	-11.7606
▁ehrenberg	-11.7606
▁naticidae	-11.7606
▁pelagica	-11.7606
▁segeberg	-11.7606
▁tridentata	-11.7606
▁verrucosa	-11.7606
=297	-11.7606
=298	-11.7606
=302	-11.7606
=328	-11.7606
=346	-11.7606
=350	-11.7606
=365	-11.7606
=379	-11.7606
=478	-11.7606
=568	-11.7606
=589	-11.7606
=611	-11.7606
=614	-11.7606
=672	-11.7606
=699	-11.7606
=790	-11.7606
=807	-11.7606
=845	-11.7606
=889	-11.7606
corynactis	-11.7606
▁depressa	-11.7606
=368	-11.7606
=392	-11.7606
=416	-11.7606
=797	-11.7606
=1127	-11.7606
=1340	-11.7606
="2192	-11.7606
="2375	-11.7606
=1104	-11.7606
=760	-11.7606
="2124	-11.7606
=450	-11.7606
=609	-11.7606
="2167	-11.7606
="2156	-11.7606
="2311	-11.7606
=590	-11.7606
=592	-11.7606
=389	-11.7606
=602	-11.7606
="2382	-11.7606
="1561	-11.7606
="1568	-11.7606
="1686	-11.7606
="1692	-11.7606
="2096	-11.7606
▁natalensis	-11.7606
="2159	-11.7606
="727	-11.7606
="1076	-11.7606
="742	-11.7606
="746	-11.7606
="963	-11.7606
="572	-11.7606
="639	-11.7606
="619	-11.7606
="627	-11.7606
="735	-11.7606
="628	-11.7606
="642	-11.7606
="637	-11.7606
="643	-11.7606
="696	-11.7607
▁liège	-11.7607
="402	-11.7607
="366	-11.7607
="612	-11.7607
="741	-11.7607
="641	-11.7607
="818	-11.7607
="813	-11.7607
="816	-11.7607
="805	-11.7607
="697	-11.7607
="401	-11.7607
="638	-11.7607
▁fimbriata	-11.7612
châteauneuf	-11.7613
="812	-11.7615
▁clavata	-11.7616
="909	-11.762
lacuna	-11.7622
="575	-11.7628
ouche	-11.7628
="331	-11.7631
▁zygophylax	-11.7636
=1094	-11.7637
▁johnsoni	-11.7638
125	-11.7638
▁lepidozona	-11.7639
yllochaetopterus	-11.7639
=1232	-11.7642
▁komp	-11.7644
▁valley	-11.7646
▁delle	-11.7648
▁bise	-11.7649
="411	-11.765
="321	-11.7654
▁littorina	-11.7656
="251	-11.766
="413	-11.766
jun	-11.7663
mian	-11.7666
limopsis	-11.7668
▁diaphana	-11.7669
thel	-11.7671
="873	-11.7673
="876	-11.7673
rohr	-11.7679
▁bran	-11.7681
="903	-11.7686
="858	-11.7687
ecourt	-11.7698
=2058	-11.7705
=2064	-11.7705
=2078	-11.7705
=2090	-11.7705
=2095	-11.7705
=2120	-11.7705
=2124	-11.7705
=2156	-11.7705
=2159	-11.7705
=2160	-11.7705
=2167	-11.7705
=2192	-11.7705
=2269	-11.7705
=2377	-11.7705
=2379	-11.7705
=2394	-11.7705
=2395	-11.7705
=259	-11.7705
=268	-11.7705
=270	-11.7705
=271	-11.7705
=272	-11.7705
=273	-11.7705
=274	-11.7705
=275	-11.7705
=276	-11.7705
=277	-11.7705
=278	-11.7705
=279	-11.7705
=280	-11.7705
=287	-11.7705
=288	-11.7705
=373	-11.7705
=381	-11.7705
=422	-11.7705
=427	-11.7705
=439	-11.7705
=454	-11.7705
=463	-11.7705
=464	-11.7705
=465	-11.7705
=550	-11.7705
=566	-11.7705
=580	-11.7705
=581	-11.7705
=596	-11.7705
=604	-11.7705
=607	-11.7705
=608	-11.7705
=629	-11.7705
=630	-11.7705
=644	-11.7705
=645	-11.7705
=676	-11.7705
=689	-11.7705
=707	-11.7705
=713	-11.7705
=717	-11.7705
=724	-11.7705
=732	-11.7705
=733	-11.7705
=734	-11.7705
=736	-11.7705
=747	-11.7705
=774	-11.7705
=808	-11.7705
=815	-11.7705
=817	-11.7705
=892	-11.7705
=893	-11.7705
=894	-11.7705
münster	-11.7705
▁misamis	-11.7705
▁pfeiffer	-11.7705
=357	-11.7705
=410	-11.7705
=432	-11.7705
▁palermo	-11.7705
▁thurgau	-11.7705
=1341	-11.7705
=1683	-11.7705
=745	-11.7705
=887	-11.7705
=1559	-11.7705
=345	-11.7705
=837	-11.7705
millepora	-11.7705
="2182	-11.7705
="2377	-11.7705
="2395	-11.7705
=382	-11.7705
=451	-11.7705
=597	-11.7705
=489	-11.7705
=591	-11.7705
="2269	-11.7705
="2379	-11.7705
="2394	-11.7705
▁mantova	-11.7705
pleurocera	-11.7705
="1558	-11.7705
="2097	-11.7705
▁brazil	-11.7705
="1083	-11.7705
="2012	-11.7705
peloscolex	-11.7705
="806	-11.7705
="804	-11.7706
="1560	-11.7706
="809	-11.7706
="846	-11.7706
=139	-11.7706
naineris	-11.7706
="551	-11.7706
="795	-11.7706
▁tolima	-11.7707
="703	-11.7718
▁sarcophyton	-11.7725
▁campanularia	-11.7726
▁haime	-11.7728
▁brown	-11.7729
viana	-11.7729
="1414	-11.7732
▁lepidasthenia	-11.7736
breuil	-11.7739
="293	-11.7741
="291	-11.7741
pietra	-11.7744
▁conica	-11.7744
hey	-11.7744
valde	-11.7745
▁hyalina	-11.7754
▁barre	-11.7758
="456	-11.7758
▁vest	-11.776
▁21,	-11.7772
seudopterogorgia	-11.7776
font	-11.7782
=1603	-11.7784
plano	-11.7798
▁pati	-11.7801
=2080	-11.7805
=2096	-11.7805
=2182	-11.7805
=2290	-11.7805
=2291	-11.7805
=2326	-11.7805
=258	-11.7805
=282	-11.7805
=332	-11.7805
=342	-11.7805
=343	-11.7805
=367	-11.7805
=369	-11.7805
=374	-11.7805
=375	-11.7805
=376	-11.7805
=377	-11.7805
=380	-11.7805
=459	-11.7805
=462	-11.7805
=466	-11.7805
=467	-11.7805
=468	-11.7805
=469	-11.7805
=470	-11.7805
=471	-11.7805
=481	-11.7805
=490	-11.7805
=491	-11.7805
=492	-11.7805
=493	-11.7805
=494	-11.7805
=495	-11.7805
=572	-11.7805
=575	-11.7805
=612	-11.7805
=619	-11.7805
=627	-11.7805
=628	-11.7805
=637	-11.7805
=638	-11.7805
=639	-11.7805
=640	-11.7805
=641	-11.7805
=642	-11.7805
=643	-11.7805
=696	-11.7805
=697	-11.7805
=727	-11.7805
=735	-11.7805
=741	-11.7805
=742	-11.7805
=746	-11.7805
=805	-11.7805
=810	-11.7805
=812	-11.7805
=813	-11.7805
=816	-11.7805
=818	-11.7805
=963	-11.7805
saccocirrus	-11.7805
westmecklenburg	-11.7805
▁mikuláš	-11.7805
▁pakistan	-11.7805
=296	-11.7805
=430	-11.7805
▁alkalde	-11.7805
=1568	-11.7805
=1686	-11.7805
=290	-11.7805
=315	-11.7805
=322	-11.7805
=903	-11.7805
=1076	-11.7805
=1561	-11.7805
=1690	-11.7805
=1692	-11.7805
=858	-11.7805
="2291	-11.7805
=331	-11.7805
=909	-11.7805
="2189	-11.7805
="2326	-11.7805
="2290	-11.7805
="2139	-11.7805
▁delaware	-11.7805
="1102	-11.7805
=456	-11.7805
▁ponder	-11.7805
="2084	-11.7805
="2065	-11.7805
="2063	-11.7805
="2067	-11.7805
▁totton	-11.7805
="1086	-11.7805
="1088	-11.7805
="2010	-11.7805
="370	-11.7806
siphon	-11.7806
▁archi	-11.7806
anemonia	-11.7806
="281	-11.7806
="289	-11.7806
▁igin	-11.7808
="907	-11.781
▁rož	-11.7813
="791	-11.7815
gali	-11.7816
▁clava	-11.7816
▁miller	-11.7816
kawa	-11.7823
="798	-11.7825
="789	-11.7826
tolohiya	-11.783
▁1845	-11.783
▁warren	-11.7832
ká	-11.7833
obranchiata	-11.7833
italy	-11.7842
lund	-11.7845
comb	-11.7851
="647	-11.7858
arr	-11.7867
▁phallodrilus	-11.7874
hum	-11.7886
=128	-11.7887
▁spio	-11.7893
atlant	-11.7904
▁cavite	-11.7904
=2097	-11.7906
=2217	-11.7906
=366	-11.7906
=401	-11.7906
=402	-11.7906
=551	-11.7906
=795	-11.7906
=804	-11.7906
=806	-11.7906
=846	-11.7906
▁eichsfeld	-11.7906
▁estrecho	-11.7906
▁industriya	-11.7906
▁mediterranea	-11.7906
▁pupillidae	-11.7906
=2139	-11.7906
=2189	-11.7906
=703	-11.7906
cyclopecten	-11.7906
eleutherobia	-11.7906
nausithoe	-11.7906
quadrula	-11.7906
=321	-11.7906
=411	-11.7906
=1083	-11.7906
=1558	-11.7906
=251	-11.7906
=413	-11.7906
=907	-11.7906
="2191	-11.7906
="2123	-11.7906
="2217	-11.7906
collisella	-11.7906
="1311	-11.7906
="2062	-11.7906
="1678	-11.7906
="2077	-11.7906
="1564	-11.7906
="1679	-11.7906
acanella	-11.7906
="1010	-11.7906
="799	-11.7906
="1687	-11.7907
zemitrella	-11.7908
karawat	-11.7908
mysella	-11.7911
▁lie	-11.7913
unit	-11.7914
awayan	-11.7914
▁helena	-11.7915
virgularia	-11.7915
paraonis	-11.792
anodonta	-11.7922
▁opera	-11.7923
▁terra	-11.7924
▁sept	-11.7924
wiesen	-11.7934
▁lana	-11.7939
varennes	-11.7939
▁esca	-11.794
▁pilsbryi	-11.7941
=1425	-11.7941
▁grubei	-11.7942
microspio	-11.7949
mbal	-11.7955
calliactis	-11.7956
ehl	-11.7957
▁biella	-11.7959
champagne	-11.7962
▁puno	-11.7967
="598	-11.7974
▁antoine	-11.7977
▁carlo	-11.7994
bury	-11.8005
▁ferriss	-11.8006
=2012	-11.8008
=2063	-11.8008
=2065	-11.8008
=2067	-11.8008
=2084	-11.8008
=2123	-11.8008
=2191	-11.8008
=2205	-11.8008
=2293	-11.8008
=2305	-11.8008
=2389	-11.8008
=809	-11.8008
büttel	-11.8008
▁catanzaro	-11.8008
▁mazowiecki	-11.8008
▁metropolitano	-11.8008
=291	-11.8008
=789	-11.8008
=791	-11.8008
=798	-11.8008
heterogorgia	-11.8008
▁indonesia	-11.8008
=1086	-11.8008
=293	-11.8008
=647	-11.8008
▁roxas	-11.8008
=1088	-11.8008
="2198	-11.8008
="2293	-11.8008
="2199	-11.8008
=1102	-11.8008
="2305	-11.8008
="2129	-11.8008
="2162	-11.8008
="2205	-11.8008
▁pandeidae	-11.8008
▁1818.	-11.8008
="1888	-11.8008
▁dinhe	-11.8008
pisinna	-11.8008
="2389	-11.8008
="1688	-11.8008
="1691	-11.8008
="2061	-11.8008
="2068	-11.8008
="1071	-11.8008
="2030	-11.8008
cyanea	-11.8008
="2100	-11.8008
="2200	-11.8009
▁millard	-11.8009
hitaas	-11.8009
▁jesus	-11.8009
=122	-11.8009
▁regularis	-11.8009
▁1946	-11.8013
▁ferrière	-11.8016
laksi	-11.8018
▁papel	-11.8024
▁timor	-11.8025
="352	-11.8033
▁beaumont	-11.8035
▁poland	-11.8037
hag	-11.804
="292	-11.8046
hormathia	-11.8051
="667	-11.8054
nižn	-11.8057
illet	-11.8058
entis	-11.8059
▁vera	-11.8065
villeneuve	-11.8069
▁mary	-11.8074
abra	-11.8078
robot	-11.8079
="309	-11.8088
▁apo	-11.8088
erba	-11.8091
ancy	-11.8095
pinna	-11.8101
issy	-11.8105
fosse	-11.8108
=2062	-11.8111
=2077	-11.8111
=2129	-11.8111
=2162	-11.8111
=2198	-11.8111
=2199	-11.8111
=2200	-11.8111
=2206	-11.8111
=2281	-11.8111
=281	-11.8111
=289	-11.8111
=799	-11.8111
▁bigelow	-11.8111
▁plön	-11.8111
▁región	-11.8111
=1564	-11.8111
=1687	-11.8111
=1560	-11.8111
=1678	-11.8111
=1679	-11.8111
="2281	-11.8111
=598	-11.8111
="2107	-11.8111
="2122	-11.8111
="2206	-11.8111
▁dentata	-11.8111
▁lecco	-11.8111
porzana	-11.8111
="1166	-11.8111
="1684	-11.8111
="2037	-11.8111
="2069	-11.8111
="2028	-11.8111
="1075	-11.8111
▁gabriel	-11.8111
="2060	-11.8112
="811	-11.8112
▁prince	-11.8112
="400	-11.8113
antennella	-11.8113
▁1840	-11.8114
▁rica	-11.8114
▁fro	-11.8119
erland	-11.8122
rignac	-11.8123
▁cup	-11.8125
▁villiers	-11.8129
▁primer	-11.8135
unom	-11.8136
hères	-11.8137
165	-11.814
▁protula	-11.8143
clio	-11.8146
▁kinahanglan	-11.8146
="351	-11.8149
history	-11.815
▁tul	-11.8151
▁pherusa	-11.8151
▁lista	-11.8155
▁hong	-11.8162
▁ata	-11.8163
▁prinsipe	-11.8164
=165	-11.817
adlaw	-11.8172
▁ellis	-11.8177
="325	-11.8189
nassa	-11.8193
▁roman	-11.8197
▁ago	-11.8197
14)	-11.8199
▁bull	-11.8207
ive	-11.8211
=1071	-11.8215
=2061	-11.8215
=2068	-11.8215
=2107	-11.8215
=2122	-11.8215
=2209	-11.8215
=2224	-11.8215
=2263	-11.8215
=2264	-11.8215
=2276	-11.8215
=2322	-11.8215
=2329	-11.8215
cupedora	-11.8215
linopherus	-11.8215
▁calbayog	-11.8215
▁demokratik	-11.8215
▁huelva	-11.8215
▁mcginty	-11.8215
▁poritidae	-11.8215
labastide	-11.8215
▁lucinidae	-11.8215
▁umbria	-11.8215
=1688	-11.8215
=1888	-11.8215
=667	-11.8215
=1691	-11.8215
▁school	-11.8215
="2195	-11.8215
="2264	-11.8215
▁indicus	-11.8215
="2263	-11.8215
="2224	-11.8215
="2322	-11.8215
="2329	-11.8215
="2158	-11.8215
="2209	-11.8215
garveia	-11.8215
="2115	-11.8215
="2157	-11.8215
="1821	-11.8215
▁saudi	-11.8215
calliostomatidae	-11.8215
="1685	-11.8215
="2081	-11.8215
="2079	-11.8215
▁nodosa	-11.8215
="1535	-11.8215
="1047	-11.8215
="2276	-11.8216
="1814	-11.8216
="262	-11.8217
▁kapitan	-11.8217
▁1858	-11.8217
▁streda	-11.8217
ttingen	-11.8218
▁banse	-11.8226
▁tentaculata	-11.8229
owenia	-11.8236
="347	-11.8241
gene	-11.8241
▁1838	-11.8241
="344	-11.8246
▁13,	-11.825
▁fauchaldi	-11.8252
acre	-11.8255
▁luna	-11.8258
leon	-11.8261
murex	-11.8262
▁mapa	-11.8262
nephthys	-11.8263
feu	-11.8263
stereo	-11.8266
="324	-11.8269
="898	-11.8271
▁notomastus	-11.8273
ours	-11.8277
▁mori	-11.8278
ture	-11.8279
="803	-11.8281
="388	-11.8286
sagartia	-11.8289
uroteuthis	-11.829
polyodontes	-11.8304
panthalis	-11.8305
▁adam	-11.8306
▁bakeri	-11.8306
▁argent	-11.8311
▁montigny	-11.8312
rón	-11.8315
=2010	-11.832
=2157	-11.832
=2158	-11.832
=2274	-11.832
=2396	-11.832
=370	-11.832
=811	-11.832
▁ludwigslust	-11.832
▁magdalena	-11.832
=2028	-11.832
=2037	-11.832
=2069	-11.832
=2115	-11.832
=2195	-11.832
=2204	-11.832
=2208	-11.832
=2271	-11.832
=2499	-11.832
=352	-11.832
jasmineira	-11.832
=292	-11.832
=1684	-11.832
=1010	-11.832
=1075	-11.832
="2271	-11.832
="2274	-11.832
="2396	-11.832
="2101	-11.832
="2168	-11.832
=1166	-11.832
="2121	-11.832
="2204	-11.832
="2208	-11.832
▁biał	-11.832
="2499	-11.832
="2116	-11.832
="1177	-11.832
="2146	-11.8321
="2147	-11.8321
="2149	-11.8321
="2085	-11.8321
="2041	-11.8321
="2086	-11.8321
="2043	-11.8321
="2032	-11.8321
="2011	-11.8321
=121	-11.8321
="2138	-11.8321
▁ostvorpommern	-11.8322
▁masbate	-11.8322
▁murcia	-11.8322
cossura	-11.8322
arz	-11.8323
agno	-11.8324
▁andaman	-11.8325
▁loc	-11.8329
▁masa	-11.8331
▁bun	-11.8331
="794	-11.8333
▁parte	-11.8333
▁gidadakoi	-11.8334
=1414	-11.8338
▁nothria	-11.8343
rsky	-11.835
="479	-11.8355
▁cama	-11.8356
eastern	-11.8359
="371	-11.836
ulan	-11.8362
bronn	-11.8367
="956	-11.8379
ceaux	-11.8384
point	-11.839
gawas	-11.8393
acryptolaria	-11.8398
▁sex	-11.8398
▁plo	-11.8408
▁ried	-11.8409
=1309	-11.8409
hataas	-11.841
▁gir	-11.8414
▁manda	-11.8415
holm	-11.842
hahatag	-11.8421
barba	-11.8424
tek	-11.8425
▁stearns	-11.8425
=2079	-11.8427
=2138	-11.8427
=2147	-11.8427
=2030	-11.8427
=2081	-11.8427
=2101	-11.8427
=2116	-11.8427
=2121	-11.8427
=2146	-11.8427
=2149	-11.8427
=2168	-11.8427
=2380	-11.8427
eucheilota	-11.8427
polycyathus	-11.8427
pontogenia	-11.8427
sigambra	-11.8427
▁campobasso	-11.8427
▁katubtuban	-11.8427
▁littorinidae	-11.8427
=1821	-11.8427
=351	-11.8427
▁literal	-11.8427
▁obtusa	-11.8427
▁parvula	-11.8427
=1685	-11.8427
=1814	-11.8427
=325	-11.8427
=803	-11.8427
=898	-11.8427
modiolus	-11.8427
=1047	-11.8427
=1535	-11.8427
=309	-11.8427
=347	-11.8427
="2154	-11.8427
portlandia	-11.8427
="2133	-11.8427
="2118	-11.8427
="2125	-11.8427
="2150	-11.8427
▁ovata	-11.8427
="1822	-11.8427
="2380	-11.8427
="2024	-11.8427
="2072	-11.8427
="2093	-11.8427
="2044	-11.8427
="2033	-11.8427
="2094	-11.8427
="2040	-11.8427
▁brianza	-11.8427
pavona	-11.8428
vanadis	-11.8428
▁palawan	-11.8428
lyonsia	-11.8428
antheopsis	-11.8429
episiphon	-11.8431
polypus	-11.8432
▁carpenteri	-11.8434
ostrea	-11.8437
table	-11.8443
▁phrixgnathus	-11.8444
blas	-11.8447
enkirchen	-11.8448
kun	-11.845
plaine	-11.8465
▁kalim	-11.8471
▁otto	-11.8471
▁tau	-11.8474
nidalia	-11.8474
▁malay	-11.8474
▁vaux	-11.8492
▁napili	-11.8505
▁massa	-11.8511
=141	-11.8513
▁khan	-11.8522
▁vig	-11.8531
=2011	-11.8534
=2100	-11.8534
=2118	-11.8534
=2154	-11.8534
=2215	-11.8534
=2321	-11.8534
=2331	-11.8534
=262	-11.8534
=2032	-11.8534
=2041	-11.8534
=2043	-11.8534
=2060	-11.8534
=2085	-11.8534
=2086	-11.8534
=2125	-11.8534
=2133	-11.8534
=2201	-11.8534
=2216	-11.8534
=2229	-11.8534
=2236	-11.8534
=794	-11.8534
cirrhipathes	-11.8534
planorbella	-11.8534
▁cerithiidae	-11.8534
=344	-11.8534
▁obispo	-11.8534
=324	-11.8534
=956	-11.8534
chaetoderma	-11.8534
verrucella	-11.8534
=1177	-11.8534
cavellia	-11.8534
▁harangdon	-11.8534
=388	-11.8534
="2104	-11.8534
="2196	-11.8534
="2236	-11.8534
="2105	-11.8534
="2321	-11.8534
="2137	-11.8534
="2229	-11.8534
="2331	-11.8534
="2201	-11.8534
="2216	-11.8534
="2215	-11.8534
▁krems	-11.8534
="1853	-11.8534
="2144	-11.8534
="2091	-11.8535
="1129	-11.8535
="2073	-11.8535
="2083	-11.8535
="2089	-11.8535
=136	-11.8535
="1051	-11.8535
="2031	-11.8535
="2145	-11.8535
▁neuchâtel	-11.8535
iphione	-11.8536
="441	-11.8536
cusio	-11.8536
▁russia	-11.8536
▁villosa	-11.8536
▁pagtukod	-11.8537
hardt	-11.854
▁langen	-11.8544
ädt	-11.8545
="801	-11.855
vale	-11.8553
▁bank	-11.8556
="584	-11.8559
▁goniada	-11.856
fons	-11.856
="284	-11.8568
phylo	-11.857
chamb	-11.8574
malacoceros	-11.8574
kut	-11.8574
spiro	-11.8575
castil	-11.8583
haluag	-11.8584
▁succinea	-11.8591
kina	-11.8601
prin	-11.8609
bica	-11.8613
▁esper	-11.8619
▁tol	-11.8621
law	-11.8624
▁bulla	-11.863
linsky	-11.8634
▁esco	-11.8642
=2024	-11.8643
=2033	-11.8643
=2044	-11.8643
=2072	-11.8643
=2093	-11.8643
=2094	-11.8643
=2104	-11.8643
=2105	-11.8643
=2137	-11.8643
=2145	-11.8643
=2196	-11.8643
=2242	-11.8643
=2265	-11.8643
=2284	-11.8643
=2298	-11.8643
=2384	-11.8643
=2391	-11.8643
cyclocardia	-11.8643
inhenyeriya	-11.8643
orthopyxis	-11.8643
▁echinata	-11.8643
▁fukuoka	-11.8643
▁gwyn	-11.8643
▁namumuno	-11.8643
▁purpurea	-11.8643
▁robustus	-11.8643
=2144	-11.8643
=479	-11.8643
▁moderno	-11.8643
=1822	-11.8643
=371	-11.8643
▁pinyin	-11.8643
="2284	-11.8643
="2298	-11.8643
="2391	-11.8643
▁stellata	-11.8643
="2181	-11.8643
ditrupa	-11.8643
="2242	-11.8643
="2265	-11.8643
macrochaeta	-11.8643
="2166	-11.8643
="2190	-11.8643
="2153	-11.8643
▁1829.	-11.8643
="2109	-11.8643
="2384	-11.8643
="2140	-11.8643
="2071	-11.8643
="1674	-11.8643
="1693	-11.8643
="2082	-11.8643
="2027	-11.8643
="2036	-11.8643
="2039	-11.8643
="1072	-11.8643
="2176	-11.8643
="2076	-11.8644
="2045	-11.8644
▁acuta	-11.8645
▁1766	-11.8645
gattyana	-11.8646
retusa	-11.8646
▁makina	-11.8648
marin	-11.8649
▁2008	-11.8649
luto	-11.865
pennatula	-11.8655
buena	-11.8662
▁lagoa	-11.8673
aix	-11.8679
▁kö	-11.8686
fleur	-11.8688
igliano	-11.8692
="407	-11.8701
prim	-11.8703
▁fé	-11.8703
put	-11.8707
garde	-11.8708
salatan	-11.8716
▁lago	-11.8717
chester	-11.8725
▁voss	-11.8728
▁cook	-11.873
;2012-12-	-11.8733
▁casal	-11.8741
kamp	-11.8745
▁ammotrypane	-11.8749
=2031	-11.8753
=2073	-11.8753
=2083	-11.8753
=2153	-11.8753
=2176	-11.8753
=2181	-11.8753
=2219	-11.8753
=2270	-11.8753
=2323	-11.8753
=1051	-11.8753
=2089	-11.8753
=2091	-11.8753
=2150	-11.8753
=2166	-11.8753
=2231	-11.8753
=2388	-11.8753
=400	-11.8753
=801	-11.8753
aphelochaeta	-11.8753
argonauta	-11.8753
bebryce	-11.8753
candelabrum	-11.8753
opisthosyllis	-11.8753
plexaurella	-11.8753
polygordius	-11.8753
praxillella	-11.8753
sphaerodoridium	-11.8753
▁cornelius	-11.8753
▁lymnaeidae	-11.8753
▁pilosopo	-11.8753
▁südliche	-11.8753
=1853	-11.8753
=584	-11.8753
cardiomya	-11.8753
▁australia	-11.8753
▁elbasan	-11.8753
daphnella	-11.8753
fusinus	-11.8753
="2186	-11.8753
=1129	-11.8753
▁leslie	-11.8753
="2270	-11.8753
="2178	-11.8753
="2219	-11.8753
="2231	-11.8753
="2163	-11.8753
="2152	-11.8753
="2323	-11.8753
rhytida	-11.8753
="1998	-11.8753
="2388	-11.8753
="1710	-11.8753
▁quadra	-11.8753
=137	-11.8753
="1342	-11.8753
="1815	-11.8753
="2051	-11.8753
="2075	-11.8753
="1569	-11.8753
="1187	-11.8753
="2016	-11.8753
="2148	-11.8754
didier	-11.8754
="2038	-11.8754
haplosyllis	-11.8754
▁oliva	-11.8756
▁graff	-11.876
voluta	-11.8761
trio	-11.8767
yam	-11.8768
rito	-11.8768
gier	-11.8769
weil	-11.877
cate	-11.8772
▁pey	-11.8773
▁góra	-11.8776
▁mitra	-11.8777
▁spongodes	-11.8779
▁angel	-11.8781
lalaki	-11.8783
="294	-11.8784
oeste	-11.8788
felde	-11.8788
▁26,	-11.8789
ignat	-11.8793
▁columbia	-11.8793
="1339	-11.8813
vell	-11.8814
="819	-11.8816
▁duma	-11.8818
porto	-11.8825
balaod	-11.8827
napulo	-11.8828
="917	-11.8829
="913	-11.883
▁beu	-11.883
uki	-11.8837
mery	-11.8841
▁alam	-11.8841
▁miss	-11.8843
▁fresne	-11.8847
=1311	-11.8851
hohen	-11.8859
uj	-11.8861
=2027	-11.8864
=2039	-11.8864
=2040	-11.8864
=2045	-11.8864
=2071	-11.8864
=2082	-11.8864
=2109	-11.8864
=2148	-11.8864
=2152	-11.8864
=2178	-11.8864
=2186	-11.8864
=2235	-11.8864
=2257	-11.8864
=2267	-11.8864
=2273	-11.8864
=2296	-11.8864
=2378	-11.8864
=2397	-11.8864
=441	-11.8864
=1072	-11.8864
=2036	-11.8864
=2076	-11.8864
=2163	-11.8864
=2210	-11.8864
=2212	-11.8864
=2226	-11.8864
=2324	-11.8864
=2325	-11.8864
arabellites	-11.8864
onychoteuthis	-11.8864
streptosyllis	-11.8864
▁bratislava	-11.8864
▁corynidae	-11.8864
▁douglas	-11.8864
▁ecuador	-11.8864
▁neglecta	-11.8864
▁paradoxa	-11.8864
▁prefecture	-11.8864
▁südwestpfalz	-11.8864
=284	-11.8864
anaitides	-11.8864
▁rehder	-11.8864
=1674	-11.8864
=1693	-11.8864
▁furcata	-11.8864
="2184	-11.8864
="2296	-11.8864
="2183	-11.8864
="2257	-11.8864
="2267	-11.8864
="2273	-11.8864
="2378	-11.8864
="2397	-11.8864
="2324	-11.8864
="2325	-11.8864
▁verbano	-11.8864
="2194	-11.8864
="2226	-11.8864
="2151	-11.8864
="2169	-11.8864
▁kabutngaan	-11.8864
▁parvus	-11.8864
="2210	-11.8864
leonnates	-11.8864
="2212	-11.8864
="2130	-11.8864
="1179	-11.8864
="2235	-11.8864
="2141	-11.8864
="1565	-11.8864
="1667	-11.8864
="1563	-11.8864
="1669	-11.8864
="1878	-11.8864
▁sosyal	-11.8864
="1077	-11.8864
="1607	-11.8865
="1887	-11.8865
="2087	-11.8865
fontenay	-11.8865
="814	-11.8866
="285	-11.8866
▁filiformis	-11.8866
▁longicirrata	-11.8867
=138	-11.8868
▁pagtikang	-11.8871
▁patok	-11.8872
inodrillia	-11.8875
inarabo	-11.8875
nord	-11.8875
saka	-11.8879
trun	-11.8881
gast	-11.8886
forges	-11.8889
teredo	-11.8892
upi	-11.8894
pterogorgia	-11.8897
=109	-11.8898
ronde	-11.8899
oran	-11.8905
nun	-11.8917
amand	-11.8917
▁gai	-11.8922
roman	-11.8923
remy	-11.8924
grave	-11.8926
▁alder	-11.8927
▁prat	-11.8931
brabant	-11.894
ism	-11.8952
▁march	-11.8955
▁fier	-11.8955
=164	-11.8955
▁branco	-11.8957
▁atra	-11.8957
▁pectinaria	-11.8958
▁2004	-11.8961
vignac	-11.8963
plou	-11.8966
rissoa	-11.8969
▁wang	-11.8974
▁pourtal	-11.8976
=2016	-11.8976
=2075	-11.8976
=2141	-11.8976
=2151	-11.8976
=2169	-11.8976
=2230	-11.8976
=2258	-11.8976
nangunguna	-11.8976
=2038	-11.8976
=2051	-11.8976
=2140	-11.8976
=2183	-11.8976
=2184	-11.8976
=2190	-11.8976
=2194	-11.8976
=2211	-11.8976
=2218	-11.8976
=2237	-11.8976
=2259	-11.8976
=2275	-11.8976
=2330	-11.8976
cespitularia	-11.8976
coryphella	-11.8976
ekonomika	-11.8976
pectinodrilus	-11.8976
vespericola	-11.8976
▁moseley	-11.8976
▁tuminongnong	-11.8976
▁zibrowius	-11.8976
=1815	-11.8976
=407	-11.8976
=819	-11.8976
=1342	-11.8976
=1569	-11.8976
=1998	-11.8976
=913	-11.8976
=917	-11.8976
=1187	-11.8976
="2193	-11.8976
="2171	-11.8976
="2185	-11.8976
="2258	-11.8976
="2275	-11.8976
▁agusan	-11.8976
="2237	-11.8976
="2102	-11.8976
="2230	-11.8976
="2131	-11.8976
="2211	-11.8976
="2218	-11.8976
="2330	-11.8976
▁europeo	-11.8976
="2135	-11.8976
="2165	-11.8976
="1778	-11.8977
="1668	-11.8977
="2092	-11.8977
="2042	-11.8977
="2050	-11.8977
="2017	-11.8977
="2259	-11.8977
="2013	-11.8977
="2014	-11.8977
,000	-11.8977
="549	-11.8977
="553	-11.8978
▁weimar	-11.8979
temple	-11.898
protomystides	-11.8981
▁mali	-11.8982
▁clay	-11.8998
▁hendersoni	-11.8999
▁constelasyon	-11.9001
▁pend	-11.9004
=1339	-11.9006
mooreonuphis	-11.9007
▁ophelia	-11.9016
▁move	-11.902
▁central	-11.9023
brand	-11.9035
▁hydro	-11.9037
="323	-11.9038
dipolydora	-11.9049
▁harrison	-11.9051
▁kadaan	-11.9055
bow	-11.9056
anadara	-11.9057
aspe	-11.9063
psis	-11.9073
fabricia	-11.9076
condé	-11.9076
herr	-11.9077
naga	-11.9083
▁gymnangium	-11.9086
jones	-11.9087
▁lytocarpia	-11.9089
=2185	-11.909
=2268	-11.909
=2087	-11.909
=2102	-11.909
=2131	-11.909
=2135	-11.909
=2165	-11.909
=2171	-11.909
=2193	-11.909
=2232	-11.909
=2246	-11.909
=2253	-11.909
=2256	-11.909
=2312	-11.909
=2385	-11.909
=814	-11.909
ephesiella	-11.909
impluwensya	-11.909
stylarioides	-11.909
▁dungog	-11.909
▁emperador	-11.909
▁kompositor	-11.909
▁nangungukoy	-11.909
▁parchim	-11.909
▁valdiviae	-11.909
=294	-11.909
▁castanea	-11.909
▁nobilis	-11.909
=1667	-11.909
=1669	-11.909
=1887	-11.909
▁antillarum	-11.909
=1563	-11.909
=1565	-11.909
=1077	-11.909
="2246	-11.909
="2256	-11.909
=1179	-11.909
="2253	-11.909
="2268	-11.909
="2232	-11.909
="2312	-11.909
="2385	-11.909
▁london	-11.909
▁1942.	-11.909
="2142	-11.909
="2049	-11.909
="2046	-11.909
="2034	-11.909
=1878	-11.909
="2015	-11.9091
="2048	-11.9091
▁naubos	-11.9091
pyramidella	-11.9091
▁kanawayan	-11.9093
▁schwarz	-11.9093
▁uchida	-11.9094
▁corona	-11.9096
▁mollis	-11.9097
▁walter	-11.9099
rance	-11.9099
▁tenella	-11.9103
▁lain	-11.9108
▁dong	-11.9115
lamp	-11.9129
="318	-11.913
▁nephthys	-11.9138
▁sinensis	-11.9142
clau	-11.915
="793	-11.9155
▁clara	-11.9165
verno	-11.9165
neuville	-11.9166
logne	-11.9177
mouth	-11.9181
▁hart	-11.9185
parapionosyllis	-11.9191
▁hof	-11.9194
▁principa	-11.9198
=2387	-11.9205
=553	-11.9205
constellation	-11.9205
=2014	-11.9205
=2017	-11.9205
=2042	-11.9205
=2092	-11.9205
=2130	-11.9205
=2142	-11.9205
=2220	-11.9205
=2238	-11.9205
=2328	-11.9205
=285	-11.9205
=549	-11.9205
clavularia	-11.9205
hermadion	-11.9205
nephthya	-11.9205
scalibregmatidae	-11.9205
volutopsius	-11.9205
▁afganistan	-11.9205
▁benevento	-11.9205
▁buruhaton	-11.9205
▁dunajsk	-11.9205
▁papillata	-11.9205
▁finlay	-11.9205
=1668	-11.9205
=1710	-11.9205
=1778	-11.9205
▁sondrio	-11.9205
="2177	-11.9205
="2172	-11.9205
▁plessis	-11.9205
="2103	-11.9205
="2106	-11.9205
="2174	-11.9205
="2180	-11.9205
="2328	-11.9205
tricolia	-11.9205
="2220	-11.9205
▁biliran	-11.9205
="1775	-11.9205
▁sakit	-11.9205
="2088	-11.9205
="2022	-11.9205
="1085	-11.9205
="2238	-11.9205
="2006	-11.9206
="2387	-11.9206
▁kusog	-11.9206
="1484	-11.9207
alexandr	-11.9209
▁aktor	-11.9209
rallus	-11.921
avant	-11.921
▁vale	-11.9211
▁turner	-11.9211
▁jon	-11.9213
▁patag	-11.9226
gnicourt	-11.9229
▁(13	-11.9234
▁viii	-11.9234
rigo	-11.9242
combe	-11.9249
dampierre	-11.9256
nex	-11.9258
=119	-11.9261
▁thé	-11.9264
asclerocheilus	-11.9265
pelle	-11.9267
▁markt	-11.9283
kado	-11.9288
▁sarsia	-11.9289
nobyembre	-11.9289
kalibutan	-11.929
▁grant	-11.929
spree	-11.9297
omma	-11.9298
▁sepiolida	-11.931
▁epizoanthus	-11.9319
=2034	-11.9321
=2048	-11.9321
=2172	-11.9321
=2013	-11.9321
=2015	-11.9321
=2046	-11.9321
=2049	-11.9321
=2103	-11.9321
=2106	-11.9321
=2174	-11.9321
=2177	-11.9321
=2221	-11.9321
=2251	-11.9321
=2310	-11.9321
=2469	-11.9321
crucibulum	-11.9321
cyclostremiscus	-11.9321
donnersbergkreis	-11.9321
gallirallus	-11.9321
staurocephalus	-11.9321
▁ahrweiler	-11.9321
▁annenkova	-11.9321
▁barangay	-11.9321
▁bermudensis	-11.9321
▁compressa	-11.9321
▁cuspidariidae	-11.9321
▁ecija	-11.9321
▁kababayin	-11.9321
▁pontevedra	-11.9321
▁svidník	-11.9321
▁exigua	-11.9321
=323	-11.9321
=793	-11.9321
="2469	-11.9321
leuckartiara	-11.9321
="2173	-11.9321
="2251	-11.9321
="2108	-11.9321
="2136	-11.9321
="2221	-11.9321
="2110	-11.9321
="2310	-11.9321
="2164	-11.9321
="2113	-11.9321
clermont	-11.9321
="1841	-11.9321
="1890	-11.9321
resulta	-11.9321
="1123	-11.9321
▁aosta	-11.9322
="1670	-11.9322
="2047	-11.9322
="2056	-11.9322
="2035	-11.9322
clymenura	-11.9322
="1567	-11.9322
="1042	-11.9322
="2114	-11.9322
="1606	-11.9322
="1876	-11.9322
▁paulista	-11.9324
▁agua	-11.9326
▁marenzeller	-11.9326
▁nuda	-11.9327
terra	-11.9328
▁1821	-11.9331
bate	-11.9339
kole	-11.9343
alaba	-11.9345
▁24,	-11.9351
▁luci	-11.9363
▁nigra	-11.9366
▁25,	-11.9366
awas	-11.9368
▁oost	-11.9371
="1656	-11.9373
ário	-11.9373
moulins	-11.9376
eulima	-11.9379
▁oeste	-11.9382
elsheim	-11.9401
celle	-11.9403
pebrero	-11.9408
clymenella	-11.9412
alban	-11.9418
▁ash	-11.9428
abril	-11.9429
▁acabaria	-11.9433
▁heterodrilus	-11.9433
baro	-11.9436
▁rullier	-11.9439
=2006	-11.9439
=2050	-11.9439
=2468	-11.9439
=2022	-11.9439
=2088	-11.9439
=2108	-11.9439
=2113	-11.9439
=2114	-11.9439
=2136	-11.9439
=2164	-11.9439
=2173	-11.9439
=2407	-11.9439
=2467	-11.9439
ancistrosyllis	-11.9439
austrochloritis	-11.9439
coralliophila	-11.9439
discosoma	-11.9439
genetyllis	-11.9439
glossodoris	-11.9439
▁cagliari	-11.9439
▁eudendriidae	-11.9439
▁japonicus	-11.9439
▁nangangahulogan	-11.9439
▁splendens	-11.9439
▁tacloban	-11.9439
▁uruguay	-11.9439
=318	-11.9439
spinther	-11.9439
▁sassari	-11.9439
=1085	-11.9439
samytha	-11.9439
▁nidaliidae	-11.9439
▁paraguay	-11.9439
=1775	-11.9439
="2407	-11.9439
="2467	-11.9439
="2468	-11.9439
="2128	-11.9439
pfalz	-11.9439
="2197	-11.9439
poggio	-11.9439
="1927	-11.9439
="1854	-11.9439
eury	-11.9439
="1809	-11.9439
▁kasanhi	-11.9439
="1170	-11.9439
="2074	-11.9439
▁pacifico	-11.9439
="2026	-11.9439
=1484	-11.9439
="1310	-11.9439
="2023	-11.9439
commons	-11.944
="2000	-11.944
varo	-11.9443
tipo	-11.9444
fabriciola	-11.9445
▁canada	-11.9454
rochefort	-11.9457
chem	-11.9457
schach	-11.9465
▁hickson	-11.9474
▁great	-11.9474
▁bayeri	-11.948
▁manuel	-11.9503
▁stimpson	-11.9507
alci	-11.9514
unay	-11.9525
▁baja	-11.9527
▁cymatium	-11.9532
▁terebellides	-11.9533
robert	-11.9541
▁margarites	-11.9544
hulyo	-11.9547
▁fissidentalium	-11.9548
▁oreohelix	-11.955
▁triodopsis	-11.955
=2035	-11.9558
=2047	-11.9558
=2202	-11.9558
=2457	-11.9558
=2056	-11.9558
=2128	-11.9558
=2180	-11.9558
=2197	-11.9558
=2228	-11.9558
=2234	-11.9558
=2239	-11.9558
=2250	-11.9558
=2260	-11.9558
=2266	-11.9558
=2299	-11.9558
=2313	-11.9558
=2327	-11.9558
=2440	-11.9558
=2461	-11.9558
fluminicola	-11.9558
graptacme	-11.9558
lepidopora	-11.9558
litophyton	-11.9558
monadenia	-11.9558
propebela	-11.9558
siphonodentalium	-11.9558
▁aserbaiyan	-11.9558
▁glacialis	-11.9558
▁governador	-11.9558
▁prievidza	-11.9558
▁singularis	-11.9558
▁álava	-11.9558
=1841	-11.9558
madracis	-11.9558
▁truncata	-11.9558
▁contorta	-11.9558
limnodrilus	-11.9558
="2127	-11.9558
=1042	-11.9558
=1567	-11.9558
="2126	-11.9558
="2461	-11.9558
▁ocellata	-11.9558
=1123	-11.9558
campeloma	-11.9558
="2440	-11.9558
="2266	-11.9558
="2299	-11.9558
="2239	-11.9558
="2327	-11.9558
="2234	-11.9558
="2202	-11.9558
="2117	-11.9558
="2228	-11.9558
▁setosa	-11.9558
="2250	-11.9558
="2313	-11.9558
kaluwas	-11.9558
="1985	-11.9558
="1963	-11.9558
helobdella	-11.9558
="2457	-11.9558
▁tasmani	-11.9558
;2013-01-	-11.9558
="2143	-11.9558
="2099	-11.9558
=1876	-11.9558
="1063	-11.9558
="1089	-11.9558
="1769	-11.9558
="2260	-11.9558
paralaoma	-11.9559
aster	-11.9559
▁david	-11.9559
▁varians	-11.956
catinella	-11.9561
brecht	-11.9562
▁rieti	-11.9566
vay	-11.9566
raw	-11.957
▁laxa	-11.957
bankia	-11.9578
▁vermont	-11.9585
vico	-11.96
▁komi	-11.9613
kot	-11.9614
assen	-11.9614
▁elect	-11.9617
▁ferreira	-11.9623
ivry	-11.9623
135	-11.9628
ysky	-11.9643
kendorf	-11.9645
oktubre	-11.965
moos	-11.9651
▁cerro	-11.9658
caba	-11.9659
castell	-11.9659
▁fabrici	-11.9659
▁pleurobema	-11.9666
adra	-11.9673
▁santana	-11.9676
=2023	-11.9678
=2026	-11.9678
=2074	-11.9678
=2110	-11.9678
=2117	-11.9678
=2126	-11.9678
=2127	-11.9678
=2143	-11.9678
=2227	-11.9678
=2249	-11.9678
=2473	-11.9678
▁actinostolidae	-11.9678
▁eirenidae	-11.9678
▁enerhiya	-11.9678
▁hartlaub	-11.9678
▁kabugkiran	-11.9678
▁lučenec	-11.9678
▁neunkirchen	-11.9678
▁panlangyaw	-11.9678
pleuroxia	-11.9678
▁bologna	-11.9678
▁muller	-11.9678
▁templo	-11.9678
cyphoma	-11.9678
=1854	-11.9678
=1927	-11.9678
="2473	-11.9678
="2249	-11.9678
="2179	-11.9678
="2227	-11.9678
="2132	-11.9678
="2119	-11.9678
="2170	-11.9678
▁candida	-11.9678
="1997	-11.9679
="1791	-11.9679
="1795	-11.9679
="1855	-11.9679
="1858	-11.9679
="1726	-11.9679
="1807	-11.9679
="1819	-11.9679
="1233	-11.9679
="2021	-11.9679
="2070	-11.9679
="2019	-11.9679
="2018	-11.9679
▁valentia	-11.9679
▁forbes	-11.9679
▁binney	-11.9679
▁titulo	-11.968
▁blainville	-11.968
▁redire	-11.968
▁kong	-11.9681
▁states	-11.9682
metavermilia	-11.9685
spagna	-11.9687
nicella	-11.9695
isso	-11.9699
mör	-11.9699
bunode	-11.9704
flag	-11.9707
▁reich	-11.9711
▁prop	-11.9712
="1411	-11.9713
▁herman	-11.9716
ngtod	-11.9716
grün	-11.9718
sieg	-11.9719
paradentalium	-11.972
lottia	-11.9721
ayaw	-11.9726
melle	-11.9728
▁28,	-11.9728
=2500	-11.9739
="792	-11.9752
="2500	-11.9757
llano	-11.9759
▁max	-11.9759
="910	-11.976
ción	-11.9764
tière	-11.9765
▁tai	-11.9766
goniobasis	-11.9773
constelasyon	-11.9773
cocculina	-11.9778
presidente	-11.978
▁callochiton	-11.9786
▁paravitrea	-11.9786
rocca	-11.9797
▁profundi	-11.98
=2099	-11.98
=2119	-11.98
=2132	-11.98
=2179	-11.98
=2240	-11.98
=2317	-11.98
=2466	-11.98
histioteuthis	-11.98
▁abakadahan	-11.98
▁corymorphidae	-11.98
▁pampanga	-11.98
▁váhom	-11.98
=1063	-11.98
=1089	-11.98
=1670	-11.98
=1890	-11.98
=1963	-11.98
=1985	-11.98
="2466	-11.98
=1809	-11.98
▁savona	-11.98
="2175	-11.98
="2134	-11.98
="2240	-11.98
="2317	-11.98
="1991	-11.98
lafoea	-11.98
="1993	-11.9801
="1966	-11.9801
="1863	-11.9801
="1912	-11.9801
spreewald	-11.9801
="1663	-11.9801
="1665	-11.9801
=1769	-11.9801
▁catania	-11.9801
="1800	-11.9801
▁genova	-11.9803
▁persona	-11.9803
▁1817	-11.9804
ánovce	-11.9805
balcis	-11.9811
▁huang	-11.9813
▁lora	-11.9819
▁gem	-11.9819
maure	-11.9821
=1607	-11.9826
fauveliopsis	-11.9828
mah	-11.9843
idge	-11.9847
polo	-11.9851
▁asper	-11.9858
▁aldea	-11.9861
ulon	-11.9862
▁heneral	-11.9863
andrea	-11.9864
▁abu	-11.9865
▁gabb	-11.9872
nave	-11.9877
▁microphthalmus	-11.9878
▁area	-11.99
klein	-11.9904
metro	-11.9906
ciel	-11.9915
▁cooper	-11.992
=2018	-11.9924
=2019	-11.9924
=2021	-11.9924
=2134	-11.9924
=2175	-11.9924
=2203	-11.9924
=2277	-11.9924
=2438	-11.9924
=2462	-11.9924
=2498	-11.9924
aplysia	-11.9924
fusconaia	-11.9924
pterocirrus	-11.9924
▁cerianthidae	-11.9924
▁croatia	-11.9924
▁duchassaing	-11.9924
▁hirsuta	-11.9924
▁komunista	-11.9924
▁konstitusyon	-11.9924
▁teyorya	-11.9924
▁rafael	-11.9924
▁viterbo	-11.9924
jacques	-11.9924
=1726	-11.9924
=1791	-11.9924
=1819	-11.9924
=1997	-11.9924
paragorgia	-11.9924
=1795	-11.9924
=1855	-11.9924
=1858	-11.9924
=792	-11.9924
="2498	-11.9924
=1807	-11.9924
="2462	-11.9924
="2277	-11.9924
▁sucre	-11.9924
="2203	-11.9924
=1170	-11.9924
▁upper	-11.9924
="1971	-11.9924
="1783	-11.9924
="1796	-11.9924
="1799	-11.9924
="1792	-11.9924
="1770	-11.9924
="1718	-11.9924
="1829	-11.9924
="1349	-11.9924
="2438	-11.9924
cunina	-11.9924
="1549	-11.9924
="1767	-11.9924
="1875	-11.9924
somme	-11.9924
="1845	-11.9924
▁campbell	-11.9925
spiochaetopterus	-11.9925
▁1854	-11.9926
▁diyos	-11.9927
▁yunit	-11.9927
▁sadton	-11.9928
▁torben	-11.9929
▁kanda	-11.993
▁columbiana	-11.993
▁solida	-11.9932
▁arenicola	-11.9934
▁dugang	-11.9936
="904	-11.9941
;2012-12-2	-11.9947
▁1831	-11.9948
ocephalus	-11.9957
="1709	-11.9957
pseudopotamilla	-11.9958
▁frinanses	-11.9961
▁kn	-11.9967
▁mey	-11.9987
▁nasunod	-11.9991
▁lubi	-12.0001
lainville	-12.0001
="338	-12.0008
▁uschakov	-12.0013
▁diphascon	-12.0016
31)	-12.0016
pau	-12.0022
▁brig	-12.0024
ghimo	-12.0024
amihanan	-12.0026
olme	-12.0032
sarthe	-12.0034
="250	-12.0035
beaumont	-12.0038
=2000	-12.0049
=2170	-12.0049
=2241	-12.0049
=2243	-12.0049
=2248	-12.0049
=2262	-12.0049
=2316	-12.0049
=2458	-12.0049
▁aculeata	-12.0049
▁canavese	-12.0049
▁complanata	-12.0049
▁corrugata	-12.0049
▁fasciata	-12.0049
▁groenlandica	-12.0049
▁oerstedi	-12.0049
▁puwersa	-12.0049
=2245	-12.0049
=2247	-12.0049
=2252	-12.0049
=2439	-12.0049
=2474	-12.0049
axiothella	-12.0049
haplotrema	-12.0049
▁concinna	-12.0049
▁minutus	-12.0049
=1665	-12.0049
=1863	-12.0049
=1912	-12.0049
=1966	-12.0049
=1993	-12.0049
=1663	-12.0049
=1991	-12.0049
="2474	-12.0049
=904	-12.0049
junceella	-12.0049
worms	-12.0049
="2241	-12.0049
="2243	-12.0049
="2247	-12.0049
="2439	-12.0049
="2252	-12.0049
="2262	-12.0049
▁1825.	-12.0049
▁knight	-12.0049
siliqua	-12.0049
▁healy	-12.0049
="2316	-12.0049
gonatus	-12.0049
="1727	-12.0049
="1779	-12.0049
="1835	-12.0049
="1844	-12.0049
="1857	-12.0049
="1883	-12.0049
="1886	-12.0049
="1862	-12.0049
="1801	-12.0049
="1910	-12.0049
="2458	-12.0049
="1810	-12.0049
▁norway	-12.0049
▁urbano	-12.0049
="1554	-12.0049
="1694	-12.0049
="2245	-12.0049
="2248	-12.0049
="1859	-12.0049
="1660	-12.005
prunum	-12.005
="552	-12.005
▁scabra	-12.0051
▁1839	-12.0051
▁lassen	-12.0052
▁2010	-12.0053
=2502	-12.0055
arce	-12.0062
xq	-12.0065
▁mainz	-12.0065
▁agassizii	-12.0068
elster	-12.0072
="2502	-12.0076
atlanta	-12.0084
▁ginhadian	-12.0086
▁reyna	-12.0091
="1304	-12.0091
▁pisa	-12.01
▁kabug	-12.0107
="1655	-12.0108
="1651	-12.0108
▁vitr	-12.011
ttenbach	-12.0117
polycera	-12.012
village	-12.0134
colomb	-12.0141
pito	-12.0148
sidlangan	-12.0154
puerto	-12.0154
▁beringi	-12.0163
▁acicula	-12.0165
="885	-12.0167
▁gravi	-12.0174
=2070	-12.0175
=2223	-12.0175
=2470	-12.0175
▁orihinal	-12.0175
▁turbinoliidae	-12.0175
▁zoanthidae	-12.0175
▁zámky	-12.0175
=2225	-12.0175
=2419	-12.0175
astrangia	-12.0175
cavernularia	-12.0175
cincinnatia	-12.0175
daedalochila	-12.0175
ilyphagus	-12.0175
leptoseris	-12.0175
mastigoteuthis	-12.0175
ocinebrina	-12.0175
onithochiton	-12.0175
peosidrilus	-12.0175
subergorgia	-12.0175
▁phillip	-12.0175
=1718	-12.0175
=1845	-12.0175
=910	-12.0175
=1792	-12.0175
=1971	-12.0175
=1549	-12.0175
=1783	-12.0175
=1796	-12.0175
=1799	-12.0175
=1829	-12.0175
=1349	-12.0175
elysia	-12.0175
="2470	-12.0175
mopsella	-12.0175
="2419	-12.0175
="2225	-12.0175
▁arroyo	-12.0175
▁weberi	-12.0175
="2111	-12.0175
euzonus	-12.0175
oxyloma	-12.0175
="2112	-12.0175
="2223	-12.0175
="1968	-12.0176
="1965	-12.0176
="1908	-12.0176
deklara	-12.0176
="1797	-12.0176
="1882	-12.0176
="1898	-12.0176
▁giorgio	-12.0176
="1897	-12.0176
lysilla	-12.0176
="1178	-12.0176
iskwelahan	-12.0176
="1557	-12.0176
="1680	-12.0176
="1630	-12.0176
=1767	-12.0176
="1959	-12.0176
="2020	-12.0176
=1875	-12.0176
tritonia	-12.0176
="1787	-12.0176
haminoea	-12.0176
▁wein	-12.0179
pachycerianthus	-12.0181
juga	-12.0185
=1656	-12.0198
hul	-12.02
padayon	-12.0201
acqua	-12.0218
="1305	-12.0224
="1308	-12.0224
▁lobo	-12.0229
pagawas	-12.023
tilly	-12.0234
czów	-12.0236
="1645	-12.0237
martial	-12.0242
avon	-12.0248
urhi	-12.0252
▁langerhans	-12.0258
colli	-12.026
buru	-12.0268
ehlersia	-12.0268
130	-12.0272
capilla	-12.0281
langerhansia	-12.0284
bork	-12.0286
agosto	-12.0286
="954	-12.0286
▁malmgren	-12.0289
=144	-12.0291
malo	-12.0291
=2112	-12.0304
=2214	-12.0304
=2244	-12.0304
=2314	-12.0304
=552	-12.0304
=2111	-12.0304
=2408	-12.0304
=2417	-12.0304
=2436	-12.0304
concepción	-12.0304
primnoella	-12.0304
scoletoma	-12.0304
▁chukotka	-12.0304
▁eugène	-12.0304
▁magnifica	-12.0304
▁pilipinhon	-12.0304
▁piscicolidae	-12.0304
=1835	-12.0304
=1844	-12.0304
pallifera	-12.0304
=1727	-12.0304
=1694	-12.0304
=1857	-12.0304
=1883	-12.0304
=1886	-12.0304
=338	-12.0304
▁rohrbach	-12.0304
=1554	-12.0304
=1779	-12.0304
=1859	-12.0304
=1862	-12.0304
=885	-12.0304
=1801	-12.0304
="2408	-12.0304
="2244	-12.0304
=1709	-12.0304
="2436	-12.0304
="2417	-12.0304
▁exilis	-12.0304
▁madison	-12.0304
▁tenerife	-12.0304
▁kolonya	-12.0304
="1904	-12.0304
="1906	-12.0304
="1992	-12.0304
="1837	-12.0304
="1806	-12.0304
▁hoyle	-12.0304
="1818	-12.0304
="2025	-12.0304
="1168	-12.0304
="1716	-12.0304
="1555	-12.0304
="1874	-12.0304
proseso	-12.0304
▁istruktura	-12.0304
="1738	-12.0304
bellonella	-12.0304
="2314	-12.0304
▁year	-12.0304
="2214	-12.0304
="2002	-12.0304
valvata	-12.0305
heteroxenia	-12.0305
="1614	-12.0305
mirim	-12.0308
▁rita	-12.0308
selva	-12.031
▁pettiboneae	-12.031
tung	-12.0315
▁morris	-12.0316
upa	-12.0318
▁nordvorpommern	-12.0329
beaulieu	-12.0329
▁shu	-12.0331
▁goniobasis	-12.0332
="1707	-12.0336
adri	-12.0338
wall	-12.0344
bridge	-12.0344
=1606	-12.0345
statt	-12.0353
▁morch	-12.0361
="1657	-12.0366
="1644	-12.0367
▁flavi	-12.037
neukirchen	-12.0374
lanice	-12.0377
elsen	-12.0379
state	-12.0379
▁marina	-12.0383
petite	-12.0388
syahan	-12.0398
▁lodi	-12.0413
titi	-12.042
balyo	-12.0422
=2416	-12.0433
=2476	-12.0433
=2213	-12.0433
=2288	-12.0433
=2306	-12.0433
=2445	-12.0433
=2475	-12.0433
arkitektura	-12.0433
hexapodibius	-12.0433
leocrates	-12.0433
▁cordillera	-12.0433
▁drilliidae	-12.0433
▁hungarya	-12.0433
▁maguindanao	-12.0433
▁romblon	-12.0433
▁rudolf	-12.0433
▁tailandya	-12.0433
▁valenciennes	-12.0433
=1968	-12.0433
=1965	-12.0433
=1770	-12.0433
=1797	-12.0433
=1897	-12.0433
=1898	-12.0433
=1959	-12.0433
=1557	-12.0433
=1787	-12.0433
=1800	-12.0433
=1882	-12.0433
=1908	-12.0433
=954	-12.0433
▁collaris	-12.0433
=1178	-12.0433
="2288	-12.0433
="2306	-12.0433
="2416	-12.0434
="2475	-12.0434
="2213	-12.0434
peachia	-12.0434
="1917	-12.0434
="1956	-12.0434
="1964	-12.0434
="1967	-12.0434
="1969	-12.0434
="1994	-12.0434
="1889	-12.0434
="1895	-12.0434
="1808	-12.0434
="1752	-12.0434
▁belluno	-12.0434
="2476	-12.0434
="1712	-12.0434
="2445	-12.0434
="1820	-12.0434
="1695	-12.0434
▁pillai	-12.0434
="1056	-12.0434
="1087	-12.0434
="1599	-12.0434
="2005	-12.0434
▁brazier	-12.0435
▁bisaya	-12.0435
▁alzey	-12.0435
love	-12.0437
▁caroli	-12.0441
▁stock	-12.0443
▁duero	-12.0443
▁davis	-12.0446
▁sobra	-12.0447
grado	-12.0448
▁mesto	-12.045
telle	-12.0453
▁monroi	-12.0461
="1704	-12.0463
="1706	-12.0467
▁wilsoni	-12.0473
bruch	-12.048
▁castelo	-12.0488
24)	-12.0491
▁vibo	-12.0492
fahr	-12.0492
▁wester	-12.0503
▁vaughan	-12.0506
pieve	-12.0506
=1411	-12.0516
0,000	-12.0516
cava	-12.0517
bom	-12.0529
protis	-12.0544
=2002	-12.0565
=2025	-12.0565
=2315	-12.0565
=2452	-12.0565
=2460	-12.0565
▁elizabeth	-12.0565
=2254	-12.0565
=2453	-12.0565
alasmidonta	-12.0565
compsodrillia	-12.0565
ilyodrilus	-12.0565
kurtziella	-12.0565
matematika	-12.0565
▁abranchiata	-12.0565
▁cancellata	-12.0565
▁compacta	-12.0565
▁dichotoma	-12.0565
▁labnasan	-12.0565
▁lactea	-12.0565
=1837	-12.0565
▁pilipino	-12.0565
=1904	-12.0565
=1910	-12.0565
=1660	-12.0565
=1716	-12.0565
=1738	-12.0565
=1810	-12.0565
=1818	-12.0565
=1992	-12.0565
▁saarland	-12.0565
=1555	-12.0565
=1906	-12.0565
=1707	-12.0565
=1806	-12.0565
="2254	-12.0565
=1168	-12.0565
▁larangan	-12.0565
▁venesya	-12.0565
▁thiele	-12.0565
▁americanus	-12.0565
▁pinnata	-12.0565
="2315	-12.0565
="1970	-12.0565
="1832	-12.0565
="1834	-12.0565
="1846	-12.0565
="1789	-12.0565
="1842	-12.0565
="1920	-12.0565
="2453	-12.0565
="2452	-12.0565
="2460	-12.0565
="1666	-12.0565
="1696	-12.0565
=1874	-12.0566
="1768	-12.0566
="1860	-12.0566
okenia	-12.0566
▁syentipiko	-12.0566
▁innkreis	-12.0566
▁gigas	-12.0569
▁garcia	-12.0569
▁cesar	-12.0573
▁pagsurat	-12.0574
winter	-12.0577
▁web	-12.0585
organisa	-12.0587
pusil	-12.0588
▁märkisch	-12.0592
chant	-12.0593
▁danae	-12.0596
fonte	-12.0597
czno	-12.0601
piano	-12.0605
blon	-12.0605
=1233	-12.0616
="788	-12.062
retz	-12.0625
=250	-12.0639
▁siday	-12.0643
▁padre	-12.0647
▁varia	-12.0653
hall	-12.0654
hermosa	-12.0655
▁(26	-12.0658
▁parma	-12.0658
oisy	-12.0659
▁palm	-12.067
▁borgo	-12.0672
▁dayi	-12.0676
world	-12.0683
disyembre	-12.0684
south	-12.0686
colla	-12.0689
=1917	-12.0698
=2020	-12.0698
=2261	-12.0698
=2297	-12.0698
=2459	-12.0698
=2005	-12.0698
=2406	-12.0698
=2415	-12.0698
=2463	-12.0698
cerithidea	-12.0698
phalacrostemma	-12.0698
scalisetosus	-12.0698
sphaerodorum	-12.0698
▁erzgebirgskreis	-12.0698
▁glasby	-12.0698
▁hystrix	-12.0698
▁jordan	-12.0698
▁rhytididae	-12.0698
▁stiasny	-12.0698
euniphysa	-12.0698
mediomastus	-12.0698
▁kasagaran	-12.0698
▁ornatus	-12.0698
=1056	-12.0698
=1680	-12.0698
=1752	-12.0698
=1956	-12.0698
=1964	-12.0698
=1967	-12.0698
=1969	-12.0698
=1994	-12.0698
▁olividae	-12.0698
=1087	-12.0698
=1695	-12.0698
=1712	-12.0698
=1889	-12.0698
=1895	-12.0698
▁arriba	-12.0698
=1704	-12.0698
=1808	-12.0698
="2297	-12.0698
="2406	-12.0698
="2463	-12.0698
=1706	-12.0698
cerodrillia	-12.0698
tetreres	-12.0698
="2261	-12.0698
▁white	-12.0698
▁demmin	-12.0698
="2415	-12.0698
="1953	-12.0699
="1954	-12.0699
="1972	-12.0699
="1986	-12.0699
psammogorgia	-12.0699
="1962	-12.0699
="1928	-12.0699
="1724	-12.0699
="1865	-12.0699
="1711	-12.0699
▁florensya	-12.0699
="1823	-12.0699
▁hamilton	-12.0699
="1639	-12.0699
alagad	-12.0699
siphonaria	-12.0699
haliotis	-12.0699
="2459	-12.0699
posisyon	-12.0699
▁artista	-12.0699
▁1837	-12.0701
▁2009	-12.0701
▁1830	-12.0702
▁huila	-12.0702
suporta	-12.0703
▁golpo	-12.0703
muli	-12.0707
anthelia	-12.0707
▁tulay	-12.0707
aurelia	-12.0709
▁sepiolidae	-12.0711
telesto	-12.0718
berville	-12.0718
meu	-12.0718
hong	-12.0722
salin	-12.0724
adour	-12.0731
bernard	-12.0732
▁peni	-12.0735
bing	-12.0735
▁palasyo	-12.0742
▁jin	-12.0743
bresse	-12.0752
▁smithi	-12.0757
tive	-12.0762
erina	-12.0763
nong	-12.0765
▁broch	-12.0771
▁martino	-12.0773
kapot	-12.0774
lsky	-12.0779
lopadorrhynchus	-12.0788
zelles	-12.0789
▁xu	-12.0795
pirit	-12.0799
▁capri	-12.0804
sumat	-12.0806
capelle	-12.0807
blay	-12.0807
▁nott	-12.0819
▁venusta	-12.083
=2448	-12.0833
=2451	-12.0833
=1846	-12.0833
=2233	-12.0833
=2423	-12.0833
=2465	-12.0833
actinostola	-12.0833
adelodrilus	-12.0833
alcithoe	-12.0833
cryptoplax	-12.0833
enoploteuthis	-12.0833
grimpoteuthis	-12.0833
lumbrinerides	-12.0833
mesomphix	-12.0833
nereimyra	-12.0833
pristiloma	-12.0833
sathodrilus	-12.0833
seguenzia	-12.0833
stephanocyathus	-12.0833
▁acuminata	-12.0833
▁antwerpen	-12.0833
▁bebravou	-12.0833
▁brevicirra	-12.0833
▁brevicornis	-12.0833
▁californicus	-12.0833
▁cambarincolidae	-12.0833
▁impormasyon	-12.0833
▁mortenseni	-12.0833
▁producta	-12.0833
▁prolifera	-12.0833
▁shizuoka	-12.0833
=1832	-12.0833
=1834	-12.0833
=1842	-12.0833
fissurella	-12.0833
=788	-12.0833
=1666	-12.0833
=1696	-12.0833
="2465	-12.0833
=1789	-12.0833
culicia	-12.0833
meiningen	-12.0833
▁lehota	-12.0834
="2233	-12.0834
="2423	-12.0834
▁libertad	-12.0834
▁pesaro	-12.0834
▁radiata	-12.0834
="1903	-12.0834
elfingen	-12.0834
▁sobrance	-12.0834
="1772	-12.0834
="1733	-12.0834
="1728	-12.0834
="1811	-12.0834
="2451	-12.0834
="2448	-12.0834
="1813	-12.0834
münch	-12.0834
▁lineola	-12.0834
="1715	-12.0834
="2052	-12.0834
="1877	-12.0834
="1960	-12.0834
=1768	-12.0834
="1084	-12.0834
▁limbata	-12.0834
▁hippo	-12.0835
hütte	-12.0835
▁miranda	-12.0836
="953	-12.0836
▁curta	-12.0836
wu	-12.0837
▁gihap	-12.0837
▁senador	-12.0839
▁guinea	-12.0839
ranggo	-12.0842
iyahan	-12.0843
czyn	-12.0844
▁sapit	-12.0849
grund	-12.085
▁silva	-12.0852
=1310	-12.0855
="948	-12.0858
assis	-12.0871
vielle	-12.0879
stino	-12.0884
adda	-12.0887
rinha	-12.0889
ugan	-12.0894
47)	-12.0894
▁ait	-12.0895
▁henri	-12.09
▁kasurat	-12.0901
▁monroe	-12.0901
="1643	-12.0904
="1652	-12.091
longo	-12.0919
="914	-12.0924
neck	-12.0928
▁ostro	-12.0929
aesopus	-12.0931
tyr	-12.0931
upod	-12.0934
▁browne	-12.0938
tello	-12.0942
ambu	-12.0942
▁gór	-12.0945
arenicola	-12.0945
priest	-12.0948
loma	-12.0949
villanueva	-12.096
ussey	-12.0961
dugang	-12.0968
▁31,	-12.097
=1820	-12.097
=2332	-12.097
=2398	-12.097
=2426	-12.097
=2456	-12.097
=2497	-12.097
=2409	-12.097
=2472	-12.097
cavolinia	-12.097
lacydonia	-12.097
pocillopora	-12.097
▁deshayes	-12.097
▁dumagsaan	-12.097
▁güstrow	-12.097
▁naglulugaring	-12.097
▁nuculanidae	-12.097
▁pansekundarya	-12.097
▁ofwegen	-12.097
=1724	-12.097
=1823	-12.097
=1928	-12.097
=1953	-12.097
=1954	-12.097
▁tropica	-12.097
=1711	-12.097
=1865	-12.097
=1972	-12.097
=1986	-12.097
=1962	-12.097
=953	-12.097
="2472	-12.097
="2426	-12.097
=948	-12.097
="2398	-12.0971
="2409	-12.0971
="2332	-12.0971
▁hessle	-12.0971
▁spišsk	-12.0971
="2497	-12.0971
peyre	-12.0971
="1984	-12.0971
="1961	-12.0971
="1975	-12.0971
="1980	-12.0971
="1902	-12.0971
="1979	-12.0971
="1911	-12.0971
="1774	-12.0971
="1861	-12.0971
="1891	-12.0971
="1916	-12.0971
="1802	-12.0971
="2456	-12.0971
="1673	-12.0971
="1766	-12.0971
="1080	-12.0971
▁pinuno	-12.0972
höch	-12.0972
cruz	-12.0973
▁iiiii	-12.0974
čín	-12.0977
▁wilf	-12.0984
kimika	-12.0991
heiligen	-12.0993
euphysa	-12.1007
="1703	-12.1008
laines	-12.1008
▁ruso	-12.1008
▁danay	-12.1009
▁teknolohiya	-12.1011
=1304	-12.1013
=1655	-12.102
=1651	-12.1027
belmont	-12.1034
uš	-12.1036
agnan	-12.1037
coronel	-12.1038
kirchenpaueria	-12.1043
▁kaupod	-12.1044
foug	-12.1049
lauter	-12.1051
=1645	-12.1054
nago	-12.1058
bahin	-12.1059
patay	-12.1061
bino	-12.1062
rook	-12.1063
arden	-12.1063
palo	-12.1071
corte	-12.1076
dugtong	-12.1084
▁cabo	-12.1085
tukod	-12.1091
=2471	-12.1109
chrysopetalum	-12.1109
euphrosyne	-12.1109
periploma	-12.1109
▁beijing	-12.1109
▁carolinensis	-12.1109
▁elongatus	-12.1109
▁falkland	-12.1109
▁kasahiran	-12.1109
▁laevigata	-12.1109
▁monferrato	-12.1109
▁montereyensis	-12.1109
▁neuwied	-12.1109
▁patagonica	-12.1109
▁tubulariidae	-12.1109
▁versluys	-12.1109
▁yoldiidae	-12.1109
=2052	-12.1109
=2222	-12.1109
=2320	-12.1109
▁bulacan	-12.1109
=1733	-12.1109
=1811	-12.1109
=1920	-12.1109
=914	-12.1109
=1084	-12.1109
=1715	-12.1109
=1728	-12.1109
=1772	-12.1109
=1813	-12.1109
=1860	-12.1109
▁pakig	-12.1109
="2471	-12.1109
=1903	-12.1109
=1970	-12.1109
▁sabinov	-12.1109
▁andrew	-12.1109
▁innsbruck	-12.1109
mathilda	-12.1109
="2222	-12.1109
="2320	-12.1109
circulus	-12.1109
="1905	-12.111
="1907	-12.111
="1909	-12.111
▁pourtalesi	-12.111
="1773	-12.111
="1847	-12.111
="1788	-12.111
="1794	-12.111
="1864	-12.111
="1885	-12.111
="1866	-12.111
="1790	-12.111
="1856	-12.111
="1880	-12.111
="1830	-12.111
="1719	-12.111
="1850	-12.111
▁falls	-12.111
="1812	-12.111
="1698	-12.111
="1699	-12.111
="1987	-12.111
="1765	-12.111
="1241	-12.111
="1057	-12.111
=1877	-12.111
▁hainaut	-12.111
="1848	-12.111
saulx	-12.111
="1598	-12.111
="1597	-12.111
taunus	-12.111
▁willey	-12.1111
▁gregory	-12.1113
▁tenera	-12.1114
▁taenia	-12.1114
hubad	-12.1115
▁pisikal	-12.1116
▁albida	-12.1116
▁greko	-12.1118
▁pintor	-12.112
▁amerikana	-12.1121
pied	-12.1121
▁norman	-12.1127
trivia	-12.113
leaena	-12.1145
▁georgiana	-12.1146
="1705	-12.1147
crenella	-12.115
▁international	-12.1153
▁ster	-12.1154
thala	-12.1177
▁miles	-12.1189
hero	-12.119
wangen	-12.119
▁grayi	-12.1192
949	-12.1199
▁banda	-12.1202
=1644	-12.121
▁thai	-12.1215
▁(25	-12.1218
szew	-12.1219
▁gima	-12.122
enstedt	-12.1227
adilla	-12.1228
▁asia	-12.1235
=2501	-12.1235
=1308	-12.1239
=1305	-12.124
militar	-12.1245
=1916	-12.125
=2283	-12.125
=2418	-12.125
=2424	-12.125
=2444	-12.125
acoetes	-12.125
amphinema	-12.125
glacidorbis	-12.125
notophyllum	-12.125
potamothrix	-12.125
staurocladia	-12.125
steggoa	-12.125
trichobranchidae	-12.125
truncatella	-12.125
▁hronom	-12.125
▁kirkegaard	-12.125
▁müller	-12.125
▁panukol	-12.125
leitoscoloplos	-12.125
=1911	-12.125
=1984	-12.125
=1774	-12.125
=1861	-12.125
=1961	-12.125
=1975	-12.125
▁lubelski	-12.125
=1673	-12.125
=1802	-12.125
=1891	-12.125
▁kagoshima	-12.125
=1902	-12.125
=1979	-12.125
="2424	-12.125
=1703	-12.125
="2444	-12.125
="2418	-12.125
="2283	-12.125
▁abajo	-12.125
modulus	-12.125
="1957	-12.125
="1990	-12.125
▁didâ	-12.125
="1771	-12.125
="1782	-12.1251
="1896	-12.1251
="1894	-12.1251
="1721	-12.1251
="1713	-12.1251
▁frederick	-12.1251
="1870	-12.1251
=1766	-12.1251
="1512	-12.1251
▁rawis	-12.1251
="2004	-12.1251
–19	-12.1251
▁golfo	-12.1251
vallée	-12.1253
="2501	-12.1256
entalina	-12.1258
="950	-12.1258
▁clemente	-12.1259
▁romania	-12.1259
▁bento	-12.1261
▁alex	-12.1266
▁biden	-12.1272
beringius	-12.1273
ffer	-12.1279
fleury	-12.128
▁equ	-12.1286
plain	-12.1288
="1708	-12.1289
="1700	-12.129
ambro	-12.1292
="1702	-12.1294
cervera	-12.1303
=1657	-12.1308
hainich	-12.131
vitrina	-12.1311
▁magin	-12.1312
▁barro	-12.1319
castillon	-12.1336
▁tryon	-12.1338
tauber	-12.134
▁gala	-12.1342
quart	-12.1344
bulla	-12.1346
daan	-12.1357
mayor	-12.137
patera	-12.1384
22)	-12.1386
avit	-12.1391
=2435	-12.1393
=2369	-12.1393
=2410	-12.1393
=2421	-12.1393
=2447	-12.1393
bunodosoma	-12.1393
castelnuovo	-12.1393
hesionides	-12.1393
itaquascon	-12.1393
notocirrus	-12.1393
xanthomelon	-12.1393
▁calatrava	-12.1393
▁gahom	-12.1393
▁gilchristi	-12.1393
▁kasirigngon	-12.1393
▁montgomery	-12.1393
▁norvegica	-12.1393
▁rondônia	-12.1393
▁spinifera	-12.1393
=1794	-12.1393
=1847	-12.1393
=1848	-12.1393
▁cardiidae	-12.1393
▁plicata	-12.1393
=1057	-12.1393
▁ligure	-12.1393
=1773	-12.1393
=1812	-12.1393
=1885	-12.1393
=1987	-12.1393
timarete	-12.1393
velutina	-12.1393
▁olindiasidae	-12.1393
=1241	-12.1393
=1698	-12.1393
=1719	-12.1393
=1788	-12.1393
=1856	-12.1393
=1864	-12.1393
=1866	-12.1393
=1960	-12.1393
▁diadema	-12.1393
=1699	-12.1393
=1905	-12.1393
=1907	-12.1393
="2447	-12.1393
=1705	-12.1393
="2435	-12.1393
▁aquino	-12.1393
="2421	-12.1393
="2369	-12.1393
▁polaris	-12.1393
="2410	-12.1393
lumbriclymene	-12.1393
eubranchus	-12.1393
mopsea	-12.1393
="1995	-12.1393
="1921	-12.1393
="1929	-12.1393
="1852	-12.1393
="1735	-12.1393
="1786	-12.1393
="1798	-12.1393
="1128	-12.1393
="1780	-12.1393
="1734	-12.1393
="1839	-12.1393
="1736	-12.1393
="1836	-12.1393
="1722	-12.1393
="1717	-12.1393
="1720	-12.1393
="1816	-12.1394
▁nitida	-12.1394
="1629	-12.1394
="1873	-12.1394
=1765	-12.1394
▁maxima	-12.1394
="2009	-12.1394
="2001	-12.1394
▁morges	-12.1394
▁urbino	-12.1394
▁greiz	-12.1395
▁giu	-12.1395
utro	-12.14
="955	-12.1402
paractis	-12.1406
▁haswell	-12.1408
issey	-12.1408
olusyon	-12.141
chey	-12.142
="1701	-12.1434
▁southward	-12.144
faye	-12.1449
▁chuni	-12.1458
▁bergh	-12.1462
=1614	-12.1464
▁adamsi	-12.1476
swiftia	-12.1478
mactra	-12.1496
▁bland	-12.1499
="781	-12.15
stone	-12.1509
sakop	-12.1511
doux	-12.1514
tourne	-12.153
parokya	-12.1535
=2004	-12.1538
=2414	-12.1538
=2422	-12.1538
=2464	-12.1538
=2488	-12.1538
abbaye	-12.1538
clément	-12.1538
conceição	-12.1538
symphorien	-12.1538
▁acoetidae	-12.1538
▁bautzen	-12.1538
▁grimaldi	-12.1538
▁kardinal	-12.1538
▁mittelsachsen	-12.1538
▁schmalkalden	-12.1538
▁sinugboanon	-12.1538
=2287	-12.1538
acanthastrea	-12.1538
alveopora	-12.1538
calycopsis	-12.1538
cerianthula	-12.1538
cristilabrum	-12.1538
discodoris	-12.1538
echinopora	-12.1538
erythropodium	-12.1538
flabellina	-12.1538
fontigens	-12.1538
hesionura	-12.1538
hyalopomatus	-12.1538
myxicola	-12.1538
octochaetus	-12.1538
onchidoris	-12.1538
phyllactis	-12.1538
sphenotrochus	-12.1538
vesicomya	-12.1538
▁winston	-12.1538
alciopa	-12.1538
▁chiaje	-12.1538
=1721	-12.1538
=1957	-12.1538
lirobittium	-12.1538
strelitz	-12.1538
=1080	-12.1538
=1713	-12.1538
=1771	-12.1538
=1894	-12.1538
=1980	-12.1538
▁alcock	-12.1538
=1782	-12.1538
=1896	-12.1538
=955	-12.1538
="2464	-12.1538
=1909	-12.1538
dischides	-12.1538
=1702	-12.1538
=1708	-12.1538
="2422	-12.1538
▁nakhon	-12.1538
▁naumov	-12.1538
="1958	-12.1538
="1989	-12.1538
;2014-03-0	-12.1538
="1881	-12.1538
="1893	-12.1538
="1825	-12.1538
="1899	-12.1538
="1753	-12.1538
="1843	-12.1538
="1828	-12.1538
="1869	-12.1538
cominella	-12.1538
="2414	-12.1538
="2488	-12.1539
anguispira	-12.1539
▁portuges	-12.1539
="1900	-12.1539
="2287	-12.1539
="1079	-12.1539
="2007	-12.1539
▁berlin	-12.1539
="1620	-12.1539
="2008	-12.1539
▁tarlac	-12.1539
▁valverde	-12.154
oculina	-12.1541
▁broye	-12.1541
▁edwardsiidae	-12.1543
gaillard	-12.1544
▁gamay	-12.1545
bussière	-12.1545
▁gifu	-12.1545
cadlina	-12.1546
▁nagsurat	-12.1547
lagan	-12.155
uzet	-12.1554
höf	-12.1562
▁ancona	-12.1562
▁bataan	-12.1566
="952	-12.1567
▁bonn	-12.1568
="829	-12.1576
▁carmen	-12.1581
▁zona	-12.1582
simnia	-12.1588
▁castello	-12.1597
▁étr	-12.1605
▁tinag	-12.1607
▁chanta	-12.1607
paralaeospira	-12.1616
▁cornu	-12.1629
=1630	-12.1639
malmgrenia	-12.1642
lugar	-12.1651
bécourt	-12.1655
▁makikit	-12.1659
pertu	-12.1677
kusog	-12.1681
=2001	-12.1685
=2282	-12.1685
=2307	-12.1685
=2403	-12.1685
=1852	-12.1685
=2441	-12.1685
=2484	-12.1685
amblyosyllis	-12.1685
chrysaora	-12.1685
dasybranchus	-12.1685
laodicea	-12.1685
sagartiogeton	-12.1685
▁anthothelidae	-12.1685
▁broderip	-12.1685
▁cinerea	-12.1685
▁expansa	-12.1685
▁foggia	-12.1685
▁hupiter	-12.1685
▁langyaw	-12.1685
▁ochracea	-12.1685
=1735	-12.1685
=1850	-12.1685
▁breisgau	-12.1685
=1836	-12.1685
=1880	-12.1685
=1921	-12.1685
=1629	-12.1685
=1717	-12.1685
=1734	-12.1685
=1736	-12.1685
=1786	-12.1685
=1816	-12.1685
=1830	-12.1685
=1839	-12.1685
=781	-12.1685
=1790	-12.1685
=1995	-12.1685
=1722	-12.1685
=1798	-12.1685
=1929	-12.1685
=950	-12.1685
=829	-12.1685
=952	-12.1685
▁mclean	-12.1685
=1701	-12.1685
="2441	-12.1685
="2282	-12.1685
="2403	-12.1685
=1128	-12.1685
▁emsland	-12.1685
="2307	-12.1685
▁chinensis	-12.1685
▁feldbach	-12.1685
="1974	-12.1685
▁wells	-12.1685
="1988	-12.1685
="1977	-12.1685
="1939	-12.1685
="1884	-12.1685
="1793	-12.1685
="1754	-12.1685
="1892	-12.1685
=2003	-12.1685
="1737	-12.1685
="1840	-12.1685
▁angulata	-12.1685
="1831	-12.1685
="1237	-12.1685
="1750	-12.1685
="2484	-12.1686
="1938	-12.1686
="1871	-12.1686
="1872	-12.1686
=1873	-12.1686
milnesium	-12.1686
nuevo	-12.1686
▁czarn	-12.1686
▁lepta	-12.1687
▁incisa	-12.1688
hunyo	-12.1689
▁hawaiiensis	-12.169
diri	-12.1696
=1599	-12.1696
▁angola	-12.1698
montfort	-12.1702
▁binh	-12.1702
▁pí	-12.1705
kappel	-12.1726
▁marenzelleri	-12.1729
lüb	-12.1743
gold	-12.1745
▁ribo	-12.1746
castro	-12.1751
▁jr	-12.1764
▁augeneri	-12.1766
tawi	-12.1766
donau	-12.1767
="1289	-12.1777
viel	-12.1778
▁marino	-12.1778
joux	-12.1779
vik	-12.178
lepton	-12.1784
schbach	-12.1799
▁moorei	-12.1799
=1643	-12.1799
ncio	-12.1802
▁ła	-12.1819
="915	-12.182
zey	-12.1822
=2425	-12.1834
=2007	-12.1834
=2008	-12.1834
=2009	-12.1834
=2300	-12.1834
=2402	-12.1834
=2405	-12.1834
=2412	-12.1834
=2428	-12.1834
=2446	-12.1834
=2450	-12.1834
=2478	-12.1834
=2482	-12.1834
=2490	-12.1834
=2496	-12.1834
arachnactis	-12.1834
dinophilus	-12.1834
durudilain	-12.1834
iphitime	-12.1834
manayunkia	-12.1834
phymanthus	-12.1834
thersites	-12.1834
▁alderslade	-12.1834
▁australya	-12.1834
▁heterochaeta	-12.1834
▁kermadecensis	-12.1834
▁kölliker	-12.1834
▁marginellidae	-12.1834
▁novgorod	-12.1834
▁pectinariidae	-12.1834
▁representante	-12.1834
▁revúca	-12.1834
▁sebastião	-12.1834
▁stormarn	-12.1834
▁succineidae	-12.1834
spiculata	-12.1834
▁lottiidae	-12.1834
=1825	-12.1834
▁polisiya	-12.1834
=1828	-12.1834
=1843	-12.1834
=1753	-12.1834
=1881	-12.1834
=1893	-12.1834
=1958	-12.1834
=1989	-12.1834
="2496	-12.1834
=1869	-12.1834
=1899	-12.1834
=1990	-12.1834
▁perugia	-12.1834
="2478	-12.1834
=1079	-12.1834
="2446	-12.1834
="2405	-12.1834
="2428	-12.1834
="2402	-12.1834
="2425	-12.1834
▁lugano	-12.1834
="2412	-12.1834
▁doberan	-12.1834
="2490	-12.1834
▁mussidae	-12.1835
="1955	-12.1835
="1978	-12.1835
="1982	-12.1835
="1996	-12.1835
="1999	-12.1835
▁ribera	-12.1835
="1803	-12.1835
="1740	-12.1835
="1867	-12.1835
="1868	-12.1835
="1817	-12.1835
="2450	-12.1835
="2482	-12.1835
demonax	-12.1835
▁uecker	-12.1835
="1662	-12.1835
="1976	-12.1835
="1945	-12.1835
="1627	-12.1835
="1621	-12.1835
="2300	-12.1835
=1870	-12.1835
="1879	-12.1835
="1714	-12.1835
▁hartberg	-12.1837
▁1819	-12.1838
▁kamatayon	-12.1841
pleuro	-12.1844
años	-12.1847
▁torri	-12.1859
▁nuttalli	-12.1863
obelia	-12.1868
pommer	-12.1873
▁isola	-12.1875
▁axi	-12.1882
▁baltic	-12.1887
aszów	-12.1896
="1350	-12.1901
gong	-12.1902
baden	-12.1904
basse	-12.1908
▁kampo	-12.1937
fulica	-12.1938
box	-12.1951
bersdorf	-12.1952
▁agassiz	-12.196
▁2005	-12.1981
=2255	-12.1986
=2368	-12.1986
▁alternata	-12.1986
▁bárbara	-12.1986
▁coccinea	-12.1986
▁cuxhaven	-12.1986
▁diphyidae	-12.1986
▁euphrosinidae	-12.1986
▁excavata	-12.1986
▁flexuosa	-12.1986
▁granulosa	-12.1986
▁görlitz	-12.1986
▁kežmarok	-12.1986
▁mitchell	-12.1986
▁otagoensis	-12.1986
▁planorbidae	-12.1986
▁rebelyon	-12.1986
▁siyensya	-12.1986
▁stropkov	-12.1986
=2303	-12.1986
=2318	-12.1986
=2400	-12.1986
=2443	-12.1986
=2449	-12.1986
=2483	-12.1986
acrocirrus	-12.1986
barleeia	-12.1986
euprymna	-12.1986
gyrocochlea	-12.1986
meridolum	-12.1986
metridium	-12.1986
petaloproctus	-12.1986
propeamussium	-12.1986
▁philippinensis	-12.1986
abraliopsis	-12.1986
médard	-12.1986
▁felipe	-12.1986
=1974	-12.1986
=1884	-12.1986
▁frontera	-12.1986
▁macerata	-12.1986
=1754	-12.1986
=1780	-12.1986
=1793	-12.1986
=1988	-12.1986
=1720	-12.1986
=1737	-12.1986
=1831	-12.1986
=1938	-12.1986
=1939	-12.1986
=915	-12.1986
=1892	-12.1986
=1977	-12.1986
vexin	-12.1986
=1700	-12.1986
="2443	-12.1986
="2449	-12.1986
mesochaetopterus	-12.1986
="2255	-12.1986
="2368	-12.1986
▁niigata	-12.1986
="2303	-12.1986
▁arabya	-12.1986
sandrov	-12.1986
▁loveni	-12.1986
="2318	-12.1986
randow	-12.1986
="1973	-12.1986
="1777	-12.1986
="1851	-12.1986
sulzbach	-12.1986
="1746	-12.1986
="1741	-12.1986
="1747	-12.1986
="1756	-12.1986
="1824	-12.1986
="1742	-12.1986
bocage	-12.1986
="2483	-12.1986
="2400	-12.1986
▁luba	-12.1986
="1628	-12.1986
="1550	-12.1987
="1745	-12.1987
=1871	-12.1987
="1238	-12.1987
=1872	-12.1987
▁ininglis	-12.1987
colombier	-12.1987
="1348	-12.1987
="1760	-12.1987
ecchio	-12.1988
▁1827	-12.1988
enborn	-12.1989
aubigny	-12.1989
▁recta	-12.1989
villafranca	-12.1989
ukyan	-12.199
unibersidad	-12.199
▁pauper	-12.1991
▁fuji	-12.1993
▁agilis	-12.1994
▁gotha	-12.1995
▁kontra	-12.2003
terode	-12.2003
tubig	-12.2004
="951	-12.2006
=1652	-12.2006
▁tajo	-12.2009
▁pilar	-12.2011
=1289	-12.2016
▁smithii	-12.2019
marcilly	-12.2026
=1639	-12.2047
gilbert	-12.2059
▁langerhansi	-12.2063
stock	-12.2064
réal	-12.2066
tenay	-12.2088
21)	-12.2105
schwei	-12.2115
mannsdorf	-12.2116
=2308	-12.214
=2399	-12.214
=2413	-12.214
=2420	-12.214
=2437	-12.214
=2486	-12.214
=2487	-12.214
▁alciopidae	-12.214
▁bawbaw	-12.214
▁brinkhurst	-12.214
▁calyptraeidae	-12.214
▁chrysopetalidae	-12.214
▁griniyego	-12.214
▁pennatulidae	-12.214
▁pygmaea	-12.214
▁sarakyan	-12.214
▁wartburgkreis	-12.214
=2292	-12.214
=2367	-12.214
=2455	-12.214
=2493	-12.214
sternaspis	-12.214
dasychone	-12.214
▁socialis	-12.214
=1620	-12.214
=1621	-12.214
=1714	-12.214
=1982	-12.214
▁mühlkreis	-12.214
=1627	-12.214
=1817	-12.214
=1868	-12.214
=1945	-12.214
=1955	-12.214
=1996	-12.214
sepioteuthis	-12.214
▁festiva	-12.214
=1803	-12.214
=1867	-12.214
=1978	-12.214
=1999	-12.214
=1662	-12.214
=1976	-12.214
=951	-12.214
▁olivacea	-12.214
="2437	-12.214
="2292	-12.214
="2308	-12.214
="2367	-12.214
="2399	-12.214
="2420	-12.214
▁(11)	-12.214
="2413	-12.214
="2493	-12.214
="1983	-12.214
="1944	-12.214
="1932	-12.214
="1933	-12.214
="1942	-12.214
="1930	-12.214
="1725	-12.214
="1784	-12.214
="1785	-12.214
="1849	-12.214
="1751	-12.214
="1915	-12.214
="1805	-12.214
="2486	-12.214
="1723	-12.214
="1239	-12.214
="2455	-12.214
="1246	-12.214
="1761	-12.214
="1759	-12.214
="1748	-12.214
="2487	-12.214
=1879	-12.2141
="1602	-12.2141
tindaria	-12.2141
▁1786	-12.2143
▁siyahan	-12.2143
septyembre	-12.2146
nasodnon	-12.2146
▁gamiton	-12.2149
▁prima	-12.215
dangat	-12.2153
▁punto	-12.2154
▁weiz	-12.2156
▁crista	-12.217
krasno	-12.2171
▁kaurug	-12.2172
▁forsk	-12.2173
▁risso	-12.2218
villette	-12.222
="1650	-12.2229
hiya	-12.224
▁königs	-12.2246
▁bron	-12.225
▁mauri	-12.2252
23)	-12.2256
alicia	-12.2259
eunereis	-12.2261
vieil	-12.2262
="1190	-12.2274
teuil	-12.2279
noble	-12.2282
▁pax	-12.2288
=2301	-12.2296
=2309	-12.2296
=2348	-12.2296
=2427	-12.2296
=2442	-12.2296
=2479	-12.2296
=2492	-12.2296
cyclostrema	-12.2296
▁caballero	-12.2296
▁digitata	-12.2296
▁diomedea	-12.2296
▁divaricata	-12.2296
▁infundibulum	-12.2296
▁inhenyerya	-12.2296
▁intermedius	-12.2296
▁magelonidae	-12.2296
▁müritz	-12.2296
▁papillifer	-12.2296
▁partikulo	-12.2296
▁pordenone	-12.2296
▁triangularis	-12.2296
=2280	-12.2296
=2304	-12.2296
=2480	-12.2296
actinodendron	-12.2296
amphictene	-12.2296
antiguraleus	-12.2296
astrogorgia	-12.2296
carazziella	-12.2296
crispatotrochus	-12.2296
cymatosyrinx	-12.2296
cymospira	-12.2296
lepidotheca	-12.2296
mesoginella	-12.2296
powellisetia	-12.2296
psammocora	-12.2296
scyphoproctus	-12.2296
staurodiscus	-12.2296
stylatula	-12.2296
tectidrilus	-12.2296
trichotropis	-12.2296
▁afonso	-12.2296
▁saturno	-12.2296
turbinaria	-12.2296
▁gutiay	-12.2296
▁vittata	-12.2296
=1851	-12.2296
representa	-12.2296
▁physidae	-12.2296
=1840	-12.2296
=1628	-12.2296
=1746	-12.2296
=1750	-12.2296
=1756	-12.2296
=1824	-12.2296
=1973	-12.2296
ainudrilus	-12.2296
=1741	-12.2296
=1742	-12.2296
=1745	-12.2296
=1747	-12.2296
=1777	-12.2296
=1900	-12.2296
="2427	-12.2296
=1348	-12.2296
dipurena	-12.2296
="2442	-12.2296
="2479	-12.2296
="2280	-12.2296
="2304	-12.2296
="2309	-12.2296
="2301	-12.2296
poromya	-12.2296
▁region	-12.2296
="2492	-12.2296
▁biscay	-12.2296
="1946	-12.2296
="1934	-12.2296
="1186	-12.2296
="1922	-12.2296
="1936	-12.2296
="1937	-12.2296
="1931	-12.2296
="1940	-12.2296
="1757	-12.2296
="1743	-12.2296
="1730	-12.2296
="1739	-12.2296
="1664	-12.2297
="2480	-12.2297
="1697	-12.2297
="1532	-12.2297
="1530	-12.2297
="2348	-12.2297
="1838	-12.2297
rhynchonereella	-12.2297
▁split	-12.2298
▁castelnau	-12.2298
pyrg	-12.2299
▁1803	-12.2299
sulod	-12.23
="1489	-12.23
tirok	-12.2303
bussy	-12.2304
namanereis	-12.2305
rhein	-12.2305
▁pagbalhin	-12.2308
▁aciculata	-12.2309
baraan	-12.231
▁natudlok	-12.2311
hydrobia	-12.2311
pseudofabriciola	-12.2315
evsky	-12.2317
amant	-12.2319
▁edad	-12.232
▁perry	-12.2343
▁lucia	-12.2345
monaster	-12.237
arsac	-12.2373
▁mariae	-12.2384
=1598	-12.239
=1597	-12.239
weiss	-12.2413
gattya	-12.245
helicarion	-12.2455
=1915	-12.2455
=2404	-12.2455
=2411	-12.2455
=2429	-12.2455
=2454	-12.2455
=2477	-12.2455
=2485	-12.2455
=2491	-12.2455
▁bangladesh	-12.2455
▁cylichnidae	-12.2455
▁cádiz	-12.2455
▁dagestan	-12.2455
▁kagurangan	-12.2455
▁korçë	-12.2455
▁lanceolata	-12.2455
▁michelotti	-12.2455
▁mopaliidae	-12.2455
▁odhner	-12.2455
▁okinawa	-12.2455
▁pasipiko	-12.2455
▁produkto	-12.2455
▁sorsogon	-12.2455
▁sömmerda	-12.2455
▁teplice	-12.2455
branchiosyllis	-12.2455
bylgides	-12.2455
chloritis	-12.2455
craspedacusta	-12.2455
glycymeris	-12.2455
salvatoria	-12.2455
▁vladimir	-12.2455
=1725	-12.2455
=1849	-12.2455
ludwig	-12.2455
▁fungiidae	-12.2455
=1723	-12.2455
▁kyoto	-12.2455
▁rotenburg	-12.2455
=1246	-12.2455
=1740	-12.2455
=1751	-12.2455
=1748	-12.2455
=1759	-12.2455
=1784	-12.2455
=1932	-12.2455
=1933	-12.2455
=1944	-12.2455
=1983	-12.2455
=1785	-12.2455
="2477	-12.2455
=1805	-12.2455
=1942	-12.2455
piromis	-12.2455
="2404	-12.2455
="2411	-12.2455
chiroteuthis	-12.2455
="2429	-12.2455
marginella	-12.2455
="2491	-12.2455
dukwag	-12.2455
="1981	-12.2455
="1951	-12.2455
="1926	-12.2455
="1935	-12.2455
="1943	-12.2455
="1901	-12.2455
="1744	-12.2455
="1749	-12.2455
="1804	-12.2455
="1833	-12.2455
="1826	-12.2455
="1729	-12.2455
="2454	-12.2455
="2485	-12.2455
lovenella	-12.2455
▁kinaiya	-12.2455
="1547	-12.2455
="2055	-12.2455
="2053	-12.2455
="1764	-12.2455
="1776	-12.2455
=1761	-12.2455
="1078	-12.2455
argonne	-12.2456
maldanella	-12.2456
▁pinar	-12.2456
▁1826	-12.2457
▁2001	-12.2459
iège	-12.2459
ñón	-12.2461
▁graham	-12.2461
lupad	-12.2465
bretagne	-12.2466
republika	-12.2466
provincia	-12.2466
félix	-12.2467
malletia	-12.2467
bice	-12.2476
sikat	-12.2482
donax	-12.2495
east	-12.2497
opold	-12.2499
▁test	-12.25
▁claus	-12.2501
▁1776	-12.2506
=1512	-12.252
="1300	-12.2523
▁latina	-12.2525
uyag	-12.2532
salem	-12.2546
chlo	-12.2557
141	-12.2558
="1642	-12.2563
höh	-12.2565
bayan	-12.2569
▁wilson	-12.2571
moulin	-12.258
pseudonereis	-12.2587
aigues	-12.2593
109	-12.2596
▁tomas	-12.2599
pray	-12.2615
=2349	-12.2616
=2481	-12.2616
=2489	-12.2616
=2494	-12.2616
=2302	-12.2616
=2401	-12.2616
anthothoe	-12.2616
barthélemy	-12.2616
cirrophorus	-12.2616
dalmatia	-12.2616
klyxum	-12.2616
pasundayag	-12.2616
▁anoculata	-12.2616
▁cambodia	-12.2616
▁constricta	-12.2616
▁globosa	-12.2616
▁inconspicua	-12.2616
▁katedral	-12.2616
▁mossambica	-12.2616
▁mutabilis	-12.2616
▁panhitabo	-12.2616
▁parasitica	-12.2616
▁sagartiidae	-12.2616
▁sanguinea	-12.2616
▁uncinata	-12.2616
placobdella	-12.2616
▁antipoda	-12.2616
▁danielssen	-12.2616
▁rostrata	-12.2616
=1922	-12.2616
▁fuscus	-12.2616
=1838	-12.2616
=1664	-12.2616
=1743	-12.2616
=1757	-12.2616
=1931	-12.2616
=1934	-12.2616
=1936	-12.2616
=1937	-12.2616
gervais	-12.2616
=1697	-12.2616
=1739	-12.2616
=1946	-12.2616
=1550	-12.2616
=1532	-12.2616
▁bulkan	-12.2616
="2401	-12.2616
="2494	-12.2616
=1186	-12.2616
="2349	-12.2616
="2302	-12.2616
=2357	-12.2616
="1950	-12.2616
="1925	-12.2616
="1291	-12.2616
="1758	-12.2616
="1923	-12.2616
="2481	-12.2616
="1295	-12.2616
="1296	-12.2616
="1292	-12.2616
="1913	-12.2616
▁modena	-12.2616
="1672	-12.2617
="2054	-12.2617
="1546	-12.2617
="2489	-12.2617
▁triloba	-12.2617
="1762	-12.2617
="1763	-12.2617
=1760	-12.2617
="1245	-12.2617
="1510	-12.2617
=1489	-12.2617
▁pagkayana	-12.2617
▁foliosa	-12.2618
▁jeffreysii	-12.2619
▁1767	-12.262
▁lobata	-12.262
▁sukol	-12.262
▁crispa	-12.2621
meaux	-12.2623
calvi	-12.2626
▁thuy	-12.2636
▁malle	-12.264
▁michaelseni	-12.264
▁levis	-12.2642
ogny	-12.2643
▁monza	-12.2646
villosa	-12.2649
▁hicksoni	-12.265
▁busk	-12.2656
wende	-12.2661
porte	-12.267
etika	-12.2672
ultan	-12.2678
evich	-12.2681
▁fresno	-12.2683
unong	-12.2688
▁hull	-12.269
chaumont	-12.2694
="1306	-12.2695
▁nagano	-12.27
vron	-12.27
frei	-12.2704
▁albin	-12.2712
alatina	-12.2713
="1251	-12.272
="1507	-12.2735
="786	-12.275
edit	-12.2757
▁franco	-12.2759
▁torna	-12.2761
▁suteri	-12.2771
gagamit	-12.2771
yoda	-12.2777
lanne	-12.2779
▁cooperi	-12.2779
=2319	-12.278
=2338	-12.278
=2346	-12.278
=2352	-12.278
=2434	-12.278
=2495	-12.278
▁language	-12.278
▁middendorff	-12.278
=2053	-12.278
=2055	-12.278
=2333	-12.278
=2335	-12.278
=2341	-12.278
=2342	-12.278
=2343	-12.278
=2344	-12.278
=2354	-12.278
=2355	-12.278
=2364	-12.278
=2366	-12.278
=2372	-12.278
=2430	-12.278
=2432	-12.278
=2433	-12.278
lumbrinereis	-12.278
platygyra	-12.278
scissurella	-12.278
stratiodrilus	-12.278
torresitrachia	-12.278
▁averincev	-12.278
▁bulgaria	-12.278
▁clavulariidae	-12.278
▁dofleini	-12.278
▁mallorca	-12.278
▁obliqua	-12.278
▁pinneberg	-12.278
▁shkodër	-12.278
▁sverdlovsk	-12.278
▁thyasiridae	-12.278
bathyarca	-12.278
cytaeis	-12.278
▁capitata	-12.278
▁fleming	-12.278
▁börde	-12.278
=1826	-12.278
=1833	-12.278
=1078	-12.278
=1744	-12.278
=1930	-12.278
=1935	-12.278
▁wallace	-12.278
=1547	-12.278
=1729	-12.278
=1776	-12.278
=1926	-12.278
=1951	-12.278
=1981	-12.278
=1749	-12.278
=1804	-12.278
=1901	-12.278
=1943	-12.278
="2434	-12.278
="2433	-12.278
="2372	-12.278
="2432	-12.278
="2364	-12.278
="2430	-12.278
="2343	-12.278
="2344	-12.278
="2346	-12.278
="2354	-12.278
="2355	-12.278
="2366	-12.278
="2335	-12.278
="2341	-12.278
="2342	-12.278
="2352	-12.278
="2333	-12.278
▁robson	-12.278
="2319	-12.278
="2495	-12.278
▁catalina	-12.278
="1924	-12.278
="1952	-12.278
="1781	-12.278
="1755	-12.278
▁sofia	-12.2781
▁geneva	-12.2781
="1914	-12.2781
="2338	-12.2781
=1764	-12.2781
▁nuoro	-12.2782
▁bukidnon	-12.2782
▁marques	-12.2786
heteronereis	-12.2789
rtley	-12.2789
▁malmgreni	-12.279
angles	-12.2799
▁benedicto	-12.2802
xymene	-12.2805
▁album	-12.2807
frey	-12.2821
▁wales	-12.2831
könig	-12.2833
gorgon	-12.2834
euspira	-12.2836
▁isabel	-12.2841
renilla	-12.2851
agtitikang	-12.2854
="785	-12.2857
chondr	-12.2859
▁tanan	-12.2867
=1190	-12.2868
thil	-12.2871
quest	-12.2882
▁dru	-12.2885
argent	-12.2886
▁lant	-12.2903
▁castillo	-12.2912
zzan	-12.2914
perche	-12.2922
▁michaelsen	-12.2923
buro	-12.2924
besse	-12.293
▁rossi	-12.2931
▁caribe	-12.2938
▁pisika	-12.2941
▁song	-12.2941
="918	-12.2946
bathypathes	-12.2946
=2054	-12.2946
=2278	-12.2946
=2279	-12.2946
=2334	-12.2946
=2336	-12.2946
=2337	-12.2946
=2339	-12.2946
=2340	-12.2946
=2345	-12.2946
=2347	-12.2946
=2350	-12.2946
=2351	-12.2946
=2353	-12.2946
=2356	-12.2946
=2358	-12.2946
=2359	-12.2946
=2360	-12.2946
=2361	-12.2946
=2363	-12.2946
=2365	-12.2946
=2370	-12.2946
=2371	-12.2946
=2373	-12.2946
=2374	-12.2946
=2431	-12.2946
fustiaria	-12.2946
halammohydra	-12.2946
heteromastus	-12.2946
▁atlanticus	-12.2946
▁cincta	-12.2946
▁commensalis	-12.2946
▁cristóbal	-12.2946
▁gracillima	-12.2946
▁grandiflora	-12.2946
▁japonicum	-12.2946
▁ovulidae	-12.2946
▁pallidus	-12.2946
▁posible	-12.2946
▁steenstrup	-12.2946
▁turgida	-12.2946
▁undata	-12.2946
▁bidentata	-12.2946
▁delicatula	-12.2946
▁lisboa	-12.2946
=1913	-12.2947
odenwald	-12.2947
=1923	-12.2947
=1925	-12.2947
=786	-12.2947
=1730	-12.2947
=1758	-12.2947
=1940	-12.2947
▁yukottuig	-12.2947
=1245	-12.2947
=1672	-12.2947
=1291	-12.2947
=1295	-12.2947
=1296	-12.2947
=1530	-12.2947
=1546	-12.2947
=1292	-12.2947
="2374	-12.2947
=785	-12.2947
▁chełm	-12.2947
="2371	-12.2947
bailleul	-12.2947
="2373	-12.2947
="2431	-12.2947
="2278	-12.2947
="2279	-12.2947
="2361	-12.2947
="2363	-12.2947
="2370	-12.2947
="2347	-12.2947
="2351	-12.2947
="2353	-12.2947
="2356	-12.2947
="2358	-12.2947
="2337	-12.2947
="2365	-12.2947
="2334	-12.2947
="2339	-12.2947
="2340	-12.2947
="2336	-12.2947
▁erecta	-12.2947
="2350	-12.2947
▁zebra	-12.2947
="1947	-12.2947
="1941	-12.2947
="1732	-12.2947
="1243	-12.2947
="1293	-12.2947
="1297	-12.2947
bulimus	-12.2947
="1731	-12.2947
="1294	-12.2947
="1671	-12.2947
="2345	-12.2947
="2359	-12.2947
="2360	-12.2947
="1242	-12.2947
=1762	-12.2947
=1763	-12.2947
pirde	-12.2948
menetus	-12.2948
="1548	-12.2948
▁pagbahinbahin	-12.2949
▁nagdaog	-12.2949
maxim	-12.2949
▁agassizi	-12.2949
▁capiz	-12.2949
▁aklan	-12.2952
proboscidactyla	-12.2952
philippine	-12.2952
▁sopra	-12.2953
▁2015	-12.2954
▁bersyon	-12.2954
agalma	-12.2957
montaigu	-12.2958
susurat	-12.296
aargau	-12.2966
▁armilla	-12.2966
hulog	-12.2972
fonds	-12.2972
▁densa	-12.2974
▁stade	-12.2976
pseudovermilia	-12.2985
glen	-12.2987
▁2007	-12.2987
▁barko	-12.2987
angkon	-12.2992
▁levinsen	-12.2997
cappel	-12.3001
mikro	-12.3004
offen	-12.3011
atys	-12.3015
ancilla	-12.3022
=1237	-12.3034
▁frances	-12.3038
="535	-12.3043
▁morro	-12.3044
▁toru	-12.305
oglio	-12.3053
gern	-12.3056
kadto	-12.3073
fax	-12.3092
papalibot	-12.3114
pacific	-12.3115
=1914	-12.3116
malinamposon	-12.3116
zdrój	-12.3116
▁aupouria	-12.3116
▁biberach	-12.3116
▁hebellidae	-12.3116
▁longicornis	-12.3116
▁maniniday	-12.3116
▁margarita	-12.3116
▁marginata	-12.3116
▁miyembro	-12.3116
▁schwyz	-12.3116
▁township	-12.3116
▁trinidad	-12.3116
▁wielkopolski	-12.3116
▁würzburg	-12.3116
=2362	-12.3116
astreopora	-12.3116
catostylus	-12.3116
goniastrea	-12.3116
haliclystus	-12.3116
inflectarius	-12.3116
lysippe	-12.3116
myriopathes	-12.3116
neoguraleus	-12.3116
nereiphylla	-12.3116
oligobrachia	-12.3116
opisthoteuthis	-12.3116
phenacohelix	-12.3116
tanacetipathes	-12.3116
tylopathes	-12.3116
▁giuseppe	-12.3116
▁leningrad	-12.3116
▁lesueur	-12.3116
▁senegal	-12.3116
▁squama	-12.3116
astyris	-12.3116
millerelix	-12.3116
trochochaeta	-12.3116
▁liezen	-12.3116
=1755	-12.3116
=1952	-12.3116
doliodrilus	-12.3116
=1781	-12.3116
=1924	-12.3116
=918	-12.3116
="2362	-12.3116
favites	-12.3116
▁pagpadukwag	-12.3116
gersemia	-12.3116
mohnia	-12.3116
bushiella	-12.3117
="1552	-12.3117
▁christian	-12.3117
▁vitrea	-12.3118
▁lampre	-12.3118
anthogorgia	-12.3118
▁lingkoranan	-12.3119
enipo	-12.312
cardium	-12.3121
▁martinique	-12.3122
thormora	-12.3122
▁stefano	-12.3122
agnano	-12.3122
▁quang	-12.3122
▁1820	-12.3124
▁malayensis	-12.3126
▁korte	-12.3133
schlag	-12.3138
maranhão	-12.3139
kikita	-12.3154
▁banay	-12.3162
marche	-12.3166
="1410	-12.3169
▁stephensoni	-12.3173
ormes	-12.3178
koellikerina	-12.3195
zone	-12.32
eño	-12.3203
authie	-12.3203
perrierina	-12.3219
gilles	-12.3229
▁ilm	-12.3231
hoffen	-12.3232
icke	-12.3248
▁lomo	-12.3261
▁fossa	-12.3265
▁dorn	-12.3276
astraea	-12.3278
rieden	-12.328
▁hawaii	-12.3283
condylactis	-12.3288
macrobiotus	-12.3288
▁arbuscula	-12.3288
▁arkitekto	-12.3288
▁campanulinidae	-12.3288
▁gelderland	-12.3288
▁glossiphoniidae	-12.3288
▁hershler	-12.3288
▁kaiserslautern	-12.3288
▁litoralis	-12.3288
▁longissima	-12.3288
▁oweniidae	-12.3288
▁pananglitan	-12.3288
▁tomopteridae	-12.3288
austrolaenilla	-12.3288
bhawania	-12.3288
chromodoris	-12.3288
dendronotus	-12.3288
lamellidoris	-12.3288
monopylephorus	-12.3288
pachycordyle	-12.3288
▁subtilis	-12.3288
▁organismo	-12.3288
▁diegensis	-12.3288
▁gallardo	-12.3288
▁isidro	-12.3288
▁rovigo	-12.3288
=1947	-12.3288
=535	-12.3288
▁arnold	-12.3288
▁margaret	-12.3288
=1950	-12.3288
▁salazar	-12.3288
=1294	-12.3288
=1731	-12.3288
=1732	-12.3288
=1941	-12.3288
heliacus	-12.3288
=1243	-12.3288
=1293	-12.3288
=1297	-12.3288
=1671	-12.3288
=1242	-12.3288
=1548	-12.3288
▁tirana	-12.3289
▁ovalis	-12.3289
▁alexandre	-12.3289
▁fisher	-12.3289
▁delicata	-12.3289
="1918	-12.3289
▁wayne	-12.3289
baligya	-12.3289
▁kadagatan	-12.3289
="1626	-12.3289
="1240	-12.3289
▁maiha	-12.329
daplin	-12.329
="783	-12.3293
▁lyra	-12.3293
▁1824	-12.3294
▁superba	-12.3294
▁thun	-12.3295
▁albania	-12.3295
▁aragon	-12.3296
▁ginsasa	-12.33
canton	-12.3303
rathkea	-12.3304
heng	-12.3307
▁integra	-12.3309
fir	-12.3311
nueva	-12.3316
▁feldkirch	-12.3317
▁oregonensis	-12.332
▁indyano	-12.3333
gemme	-12.3336
image	-12.3343
▁salz	-12.3345
▁newton	-12.3349
▁mariana	-12.3369
▁riba	-12.3374
jacob	-12.3379
viš	-12.3388
=1238	-12.3392
right	-12.3393
illières	-12.3406
mong	-12.3422
noir	-12.3426
florent	-12.3429
▁force	-12.3435
molino	-12.3438
thalenessa	-12.3447
pettiboneia	-12.3447
▁fimbria	-12.3453
▁clement	-12.3454
benoît	-12.3464
▁crosslandi	-12.3464
▁dibër	-12.3464
▁isernia	-12.3464
▁loliginidae	-12.3464
▁magkaranta	-12.3464
▁panuyuan	-12.3464
▁piacenza	-12.3464
▁tergipedidae	-12.3464
▁unstrut	-12.3464
▁vöcklabruck	-12.3464
désert	-12.3464
ndelag	-12.3464
onykia	-12.3464
primnoisis	-12.3464
salmacina	-12.3464
▁tradisyon	-12.3464
▁ferté	-12.3464
prignitz	-12.3464
strangesta	-12.3464
=783	-12.3464
=1552	-12.3464
▁irlanda	-12.3464
▁mcc	-12.3464
euphione	-12.3464
dorididae	-12.3464
verneuil	-12.3464
melampus	-12.3464
▁grippi	-12.3464
▁cadore	-12.3464
="1949	-12.3464
="1827	-12.3464
="1298	-12.3464
▁pło	-12.3465
▁andorra	-12.3465
tindog	-12.3465
pilargis	-12.3465
murr	-12.3466
▁ibn	-12.3467
kagawa	-12.3467
▁barbara	-12.3468
blanche	-12.3469
="1498	-12.3469
american	-12.3472
▁gry	-12.3472
▁fermo	-12.3473
bung	-12.3474
protodorvillea	-12.3475
mount	-12.3476
bonneviella	-12.3479
▁kim	-12.3482
lamrag	-12.3484
paraonides	-12.3485
▁patula	-12.3487
▁verna	-12.3492
depende	-12.3492
wihr	-12.3493
08:	-12.3495
meil	-12.3495
=1350	-12.3496
▁morgan	-12.3499
frank	-12.3499
almen	-12.3534
▁nove	-12.3535
pouy	-12.3542
igney	-12.3552
plur	-12.3554
laincourt	-12.3561
▁rees	-12.357
beek	-12.358
goux	-12.3581
illard	-12.359
questa	-12.3606
khov	-12.3615
="1571	-12.363
▁climo	-12.3632
=1918	-12.3642
aeolidiella	-12.3642
cenogenus	-12.3642
dysnomia	-12.3642
echinophyllia	-12.3642
fannyella	-12.3642
hypsicomus	-12.3642
lepidisis	-12.3642
leptopsammia	-12.3642
lyogyrus	-12.3642
potamethus	-12.3642
▁braunau	-12.3642
▁claparedii	-12.3642
▁curvata	-12.3642
▁decipiens	-12.3642
▁emmental	-12.3642
▁flabellata	-12.3642
▁galatheae	-12.3642
▁gihataasi	-12.3642
▁gjirokastër	-12.3642
▁guadeloupe	-12.3642
▁science	-12.3642
▁stendal	-12.3642
codakia	-12.3642
parviturbo	-12.3642
▁insularis	-12.3642
▁quirino	-12.3642
▁utinomi	-12.3642
paradoneis	-12.3642
▁kanagawa	-12.3642
▁rowland	-12.3642
cachoeira	-12.3642
lamellaria	-12.3642
▁karuyag	-12.3642
=1626	-12.3642
▁unterallgäu	-12.3642
mézières	-12.3643
▁lutea	-12.3643
="1919	-12.3643
="1346	-12.3643
="1948	-12.3643
▁urukyan	-12.3644
podarkeopsis	-12.3644
▁evans	-12.3644
▁pilato	-12.3644
▁leitha	-12.3644
semele	-12.3645
▁anomala	-12.3646
▁nasuta	-12.3647
▁tape	-12.365
▁lyon	-12.3654
▁wellsi	-12.3654
▁crosse	-12.3658
breu	-12.3662
▁veit	-12.3663
cereus	-12.3663
elektr	-12.3669
bukid	-12.3675
verdon	-12.3683
=1239	-12.3692
▁lesson	-12.3695
axis	-12.3706
schwarz	-12.3708
olohikal	-12.3709
mulay	-12.373
esio	-12.3731
pedro	-12.3737
▁solander	-12.3739
=1602	-12.3752
chaetopterus	-12.3759
▁arabo	-12.3768
="1250	-12.3769
="782	-12.3771
="784	-12.3772
=1642	-12.3775
rostoma	-12.378
scalibregma	-12.3792
▁damp	-12.3802
ector	-12.3814
=1650	-12.3817
dactylactis	-12.3824
carychium	-12.3824
lumbricus	-12.3824
umbellula	-12.3824
volvulella	-12.3824
▁agariciidae	-12.3824
▁chaetopteridae	-12.3824
▁chordata	-12.3824
▁entidad	-12.3824
▁ganghaan	-12.3824
▁langyab	-12.3824
▁mactridae	-12.3824
▁syntheciidae	-12.3824
=1827	-12.3824
neusiedl	-12.3824
▁katsila	-12.3824
▁okayama	-12.3824
=1298	-12.3824
▁bulawan	-12.3824
▁cameros	-12.3824
▁pescara	-12.3824
=1949	-12.3824
actinauge	-12.3825
▁rebolusyonaryo	-12.3825
▁istria	-12.3825
haploscoloplos	-12.3825
="1605	-12.3826
▁conca	-12.3827
▁1836	-12.3829
▁lucida	-12.3829
="1499	-12.3829
▁milyones	-12.3831
isip	-12.3831
ovactis	-12.3832
uswag	-12.3835
humboldtiana	-12.3845
▁high	-12.3846
terio	-12.3847
▁harz	-12.3848
ilarom	-12.3854
barbe	-12.3856
▁clarke	-12.3856
panahon	-12.386
linden	-12.386
▁carter	-12.3869
▁marioni	-12.3876
marti	-12.3882
montigny	-12.3891
tolosa	-12.3914
bantay	-12.3928
agaw	-12.393
▁ivan	-12.3952
schow	-12.3953
nnersdorf	-12.3956
owie	-12.3956
▁wels	-12.3978
▁gidadako	-12.3984
▁atom	-12.399
=142	-12.399
clymen	-12.3994
bordes	-12.4001
anomia	-12.4001
▁winn	-12.4003
massa	-12.4004
antarctoscyphus	-12.4009
aphanipathes	-12.4009
bunodactis	-12.4009
clathraria	-12.4009
clavodorum	-12.4009
cranchia	-12.4009
crockerella	-12.4009
dysponetus	-12.4009
egmundella	-12.4009
emarginula	-12.4009
eremarionta	-12.4009
fastosarion	-12.4009
fectola	-12.4009
fontelicella	-12.4009
helgicirrha	-12.4009
hôpital	-12.4009
iciligorgia	-12.4009
kettnerites	-12.4009
lissotesta	-12.4009
lithophaga	-12.4009
lobophyllia	-12.4009
melinnexis	-12.4009
monticellina	-12.4009
mpressidentalium	-12.4009
orbiniella	-12.4009
praticolella	-12.4009
procerastea	-12.4009
ramphoprion	-12.4009
rhizopsammia	-12.4009
rhopalonematidae	-12.4009
solenocaulon	-12.4009
splendrillia	-12.4009
stauronereis	-12.4009
thyroscyphus	-12.4009
▁agrigento	-12.4009
▁alaskensis	-12.4009
▁dürkheim	-12.4009
▁ehekutibo	-12.4009
▁flexilis	-12.4009
▁honduras	-12.4009
▁imbricata	-12.4009
▁kasundalohan	-12.4009
▁kudarat	-12.4009
▁kyffhäuserkreis	-12.4009
▁luxembourg	-12.4009
▁magellanica	-12.4009
▁nerillidae	-12.4009
▁orensanz	-12.4009
▁réunion	-12.4009
▁virgulariidae	-12.4009
▁yamaguchi	-12.4009
=1919	-12.4009
fjord	-12.4009
lithasia	-12.4009
stiliger	-12.4009
turritopsis	-12.4009
villefranche	-12.4009
▁canariensis	-12.4009
▁moravce	-12.4009
mexidrilus	-12.4009
schroeder	-12.4009
=1948	-12.4009
=782	-12.4009
=784	-12.4009
borsonella	-12.4009
=1240	-12.4009
minuspio	-12.4009
▁igkasi	-12.4009
▁arenosa	-12.4009
▁problema	-12.4009
=1346	-12.401
▁regalis	-12.401
lissarca	-12.401
lituaria	-12.401
laonome	-12.401
montacuta	-12.401
▁eliason	-12.401
conopora	-12.401
filellum	-12.401
▁tumida	-12.401
▁virens	-12.401
leodora	-12.401
="1324	-12.401
="1511	-12.401
▁teramo	-12.4011
olohista	-12.4011
▁superior	-12.4011
limacina	-12.4011
▁burgenlandkreis	-12.4013
▁potts	-12.4013
▁iris	-12.4013
ségur	-12.4014
▁longipes	-12.4014
cantero	-12.4014
▁angeles	-12.4017
▁seeland	-12.4018
▁pitad	-12.4021
forskalia	-12.4024
mello	-12.4027
▁andrés	-12.403
rève	-12.4038
perotrochus	-12.4041
kofen	-12.4043
kultura	-12.4049
javania	-12.4049
▁planeta	-12.4052
schmitt	-12.4056
loges	-12.4063
▁cooke	-12.4068
genest	-12.407
lohiya	-12.4073
buriti	-12.408
pareurythoe	-12.4081
baix	-12.4097
solanderia	-12.4097
=1251	-12.41
▁georgen	-12.4101
auriac	-12.4103
=1306	-12.4103
paramphinome	-12.4103
500	-12.4113
▁hugo	-12.4131
=1507	-12.4136
graben	-12.4154
kasaysayan	-12.4158
="1252	-12.4161
▁christoph	-12.4164
▁senado	-12.4195
tectura	-12.4196
▁kongreso	-12.4198
buccinulum	-12.4198
doriopsilla	-12.4198
françois	-12.4198
glyptorhagada	-12.4198
gymnobela	-12.4198
hochschwarzwald	-12.4198
iglesias	-12.4198
micranellum	-12.4198
samythella	-12.4198
▁compostela	-12.4198
▁diepholz	-12.4198
▁gindudumara	-12.4198
▁heilbronn	-12.4198
▁hildburghausen	-12.4198
▁kukës	-12.4198
▁leibnitz	-12.4198
▁macfarland	-12.4198
▁malacky	-12.4198
▁neapolitana	-12.4198
▁nuculidae	-12.4198
▁oreohelicidae	-12.4198
▁ortenaukreis	-12.4198
▁ostrów	-12.4198
▁panakayan	-12.4198
▁sebastian	-12.4198
▁triphoridae	-12.4198
▁yamagata	-12.4198
▁zlaté	-12.4198
▁caecidae	-12.4198
eugorgia	-12.4198
▁kahadto	-12.4198
lúč	-12.4198
▁relasyon	-12.4198
▁poblacion	-12.4198
▁alexandria	-12.4198
laterallus	-12.4198
trichobranchus	-12.4198
▁galanta	-12.4198
skenea	-12.4199
="1184	-12.4199
="1545	-12.42
▁antique	-12.4201
▁rügen	-12.4201
▁brunei	-12.4201
▁rosario	-12.4202
rekord	-12.4202
▁nyon	-12.4203
="1423	-12.4204
usseau	-12.4206
boissy	-12.4209
▁medina	-12.4211
▁horná	-12.4213
mareuil	-12.4216
▁opisyales	-12.4217
aisne	-12.4219
micronephthys	-12.4222
eupanthalis	-12.4225
vallonia	-12.4227
▁dalan	-12.4231
ecker	-12.4231
▁oceanidae	-12.4237
mpanya	-12.4237
municipality	-12.4241
sugad	-12.4243
lambert	-12.4243
husay	-12.4248
augeneriella	-12.4253
▁arabia	-12.426
robled	-12.4261
ruelo	-12.4276
▁cui	-12.4279
▁plaza	-12.4291
frauen	-12.4313
micronereis	-12.4324
=1300	-12.434
sosane	-12.434
▁cubi	-12.4349
vivier	-12.4351
turbo	-12.4372
▁acrocirridae	-12.439
▁alejandr	-12.439
▁chromodorididae	-12.439
▁crawford	-12.439
▁galapagensis	-12.439
▁geniculata	-12.439
▁kapurupod	-12.439
▁kuekenthali	-12.439
▁kumamoto	-12.439
▁literature	-12.439
▁neotaenioglossa	-12.439
▁neozelanica	-12.439
▁pfeffer	-12.439
▁pleijel	-12.439
▁roosevelt	-12.439
▁speciosa	-12.439
▁splendida	-12.439
▁tuberculatus	-12.439
▁typica	-12.439
▁vlorë	-12.439
▁zambales	-12.439
arachnanthus	-12.439
ceratocephale	-12.439
chaussée	-12.439
sphaerium	-12.439
▁muelleri	-12.439
▁pilosopiya	-12.439
▁sinuosa	-12.439
▁carroll	-12.439
▁citrina	-12.439
▁rosenheim	-12.439
▁naglabay	-12.439
columbella	-12.439
▁branchiata	-12.439
=1324	-12.439
▁esslingen	-12.4391
busycon	-12.4391
▁debilis	-12.4391
browa	-12.4391
crassostrea	-12.4391
ognathus	-12.4391
▁awit	-12.4391
▁meteor	-12.4391
aphroditella	-12.4391
="1185	-12.4391
▁schwarzwald	-12.4391
▁angusta	-12.4391
="1249	-12.4391
="1325	-12.4391
▁hebes	-12.4391
="1322	-12.4391
▁roseus	-12.4392
▁aurea	-12.4392
▁regina	-12.4393
▁navarre	-12.4393
▁pormal	-12.4394
čiern	-12.4394
▁2011	-12.4395
▁nivea	-12.4395
doln	-12.4396
▁isda	-12.4396
cionella	-12.4396
▁bernois	-12.4399
▁zonata	-12.4404
▁harpa	-12.4406
=1510	-12.4408
mysta	-12.4411
▁miura	-12.4413
▁svet	-12.4414
saliwan	-12.4419
villalba	-12.4433
▁engel	-12.4436
▁hove	-12.4438
palolo	-12.448
río	-12.4484
ngulo	-12.4509
vicq	-12.4528
tzheim	-12.4531
▁primo	-12.4543
place	-12.4565
pakita	-12.4568
pyramid	-12.4584
▁nagpapakit	-12.4585
▁pobla	-12.4585
anobothrus	-12.4586
armagnac	-12.4586
cassiopea	-12.4586
delectopecten	-12.4586
fridericia	-12.4586
laomedea	-12.4586
▁benayahu	-12.4586
▁carditidae	-12.4586
▁kasahistan	-12.4586
▁mediterraneo	-12.4586
▁namumutnga	-12.4586
▁onchidorididae	-12.4586
▁pelikula	-12.4586
▁rhön	-12.4586
▁schizopathidae	-12.4586
▁torinese	-12.4586
▁žiar	-12.4586
agrikultura	-12.4586
clathurella	-12.4586
hypereteone	-12.4586
nematonereis	-12.4586
▁bureba	-12.4587
▁nizhny	-12.4587
corbières	-12.4587
schönau	-12.4587
▁system	-12.4587
bruyère	-12.4587
▁dubius	-12.4587
=1545	-12.4587
rullierinereis	-12.4587
=1184	-12.4587
▁amoureux	-12.4587
nautilus	-12.4587
▁(10)	-12.4587
höffen	-12.4587
oderland	-12.4587
="1124	-12.4587
="1343	-12.4587
="1320	-12.4588
="1517	-12.4588
pardoux	-12.4588
solmaris	-12.4588
▁termino	-12.4589
▁benjam	-12.4589
▁makusog	-12.459
huanca	-12.4591
voisin	-12.4594
deutsch	-12.4595
trophonia	-12.4595
▁arcidae	-12.4601
zieux	-12.4601
=1410	-12.4602
ocean	-12.4605
▁duran	-12.4605
▁kirov	-12.4613
neoamphitrite	-12.4615
▁2012	-12.4615
dianthus	-12.4623
bagnol	-12.4627
irchenpaueriidae	-12.4628
thomas	-12.4637
▁nagkaad	-12.4649
bahia	-12.465
cheson	-12.4653
kovsky	-12.4663
euthelepus	-12.4667
aldea	-12.468
tugot	-12.4681
sclerocheilus	-12.4682
aranja	-12.4683
bessin	-12.4688
balay	-12.4697
="1508	-12.4703
issel	-12.4703
▁tabo	-12.4713
▁hardin	-12.4718
▁stephenson	-12.4724
ferrière	-12.4731
roger	-12.4739
aonides	-12.4764
▁murdoch	-12.4772
yevsky	-12.4778
▁ginkaka	-12.4785
public	-12.4786
deutschlandsberg	-12.4786
olsztyn	-12.4786
▁aequalis	-12.4786
▁annectens	-12.4786
▁arachnactidae	-12.4786
▁articulata	-12.4786
▁augsburg	-12.4786
▁barcelona	-12.4786
▁bengalensis	-12.4786
▁challengeri	-12.4786
▁clavigera	-12.4786
▁direktor	-12.4786
▁eatoniellidae	-12.4786
▁fasciolariidae	-12.4786
▁gibbosa	-12.4786
▁glandulosa	-12.4786
▁hertlein	-12.4786
▁isophelliidae	-12.4786
▁komersyo	-12.4786
▁kompyuter	-12.4786
▁matematiko	-12.4786
▁mexicanus	-12.4786
▁naghihimo	-12.4786
▁nagpabilin	-12.4786
▁scarabino	-12.4786
▁secunda	-12.4786
▁undulata	-12.4786
▁wittenberg	-12.4786
actinernus	-12.4786
diplocirrus	-12.4786
octobranchus	-12.4786
sabellastarte	-12.4786
▁atlantiko	-12.4786
▁communis	-12.4786
▁krupina	-12.4786
▁zvolen	-12.4786
winkel	-12.4786
▁clinton	-12.4786
▁maculosa	-12.4786
▁pölten	-12.4786
▁wesenberg	-12.4786
apomatus	-12.4786
primnoa	-12.4786
▁crenata	-12.4787
schongau	-12.4787
▁kodigo	-12.4787
▁pumila	-12.4787
=1249	-12.4787
=1325	-12.4787
=1322	-12.4787
=1185	-12.4787
▁saalfeld	-12.4787
▁lineatus	-12.4787
▁(12)	-12.4787
▁carnea	-12.4787
brugg	-12.4787
▁igsurat	-12.4787
="1143	-12.4788
polybranchia	-12.4788
▁mongol	-12.4789
▁record	-12.4789
▁fernan	-12.4789
kaurusa	-12.479
mexica	-12.4791
▁ortho	-12.4791
▁pagbahin	-12.4792
▁gouldii	-12.4793
▁branca	-12.4795
▁nagsunod	-12.4796
tanggal	-12.4799
▁diego	-12.4806
palmeira	-12.4814
▁zhu	-12.4815
marais	-12.4819
ascoli	-12.4841
▁hagrani	-12.4848
pitar	-12.4854
jouy	-12.4857
▁audouin	-12.4865
▁perrieri	-12.4868
beauce	-12.4878
="1093	-12.4886
rennes	-12.4886
boden	-12.4899
istorya	-12.4917
volva	-12.4943
▁1980	-12.4944
▁magnus	-12.4953
="1646	-12.4957
estrée	-12.4958
▁itom	-12.4958
170	-12.4964
lagis	-12.4972
marque	-12.4973
finella	-12.4975
anthomuricea	-12.499
▁leuckart	-12.499
abyssidrilus	-12.4991
acanthodoris	-12.4991
aeneator	-12.4991
aphaostracon	-12.4991
artacama	-12.4991
basedowena	-12.4991
chaureopa	-12.4991
cistenides	-12.4991
compressidens	-12.4991
coscinaraea	-12.4991
diplotrema	-12.4991
euphyllia	-12.4991
kophobelemnon	-12.4991
micrelenchus	-12.4991
mitrocomella	-12.4991
nitidiscala	-12.4991
obesotoma	-12.4991
octophialucium	-12.4991
palibutan	-12.4991
palliolum	-12.4991
paralvinella	-12.4991
pasamwak	-12.4991
phialella	-12.4991
placiphorella	-12.4991
pyrgopolon	-12.4991
quistrachia	-12.4991
sarothrura	-12.4991
scabrotrophon	-12.4991
schwartziella	-12.4991
stenohelia	-12.4991
sulculeolaria	-12.4991
toxolasma	-12.4991
verticordia	-12.4991
zeacolpus	-12.4991
▁arborea	-12.4991
▁ellobiidae	-12.4991
▁enoploteuthidae	-12.4991
▁epizoanthidae	-12.4991
▁gänserndorf	-12.4991
▁jardim	-12.4991
▁leipzig	-12.4991
▁levoča	-12.4991
▁lüneburg	-12.4991
▁rafinesque	-12.4991
▁yamanashi	-12.4991
▁inornata	-12.4991
munditia	-12.4991
saturnin	-12.4991
▁bregenz	-12.4991
parandalia	-12.4991
prophysaon	-12.4991
cirsonella	-12.4991
gallinula	-12.4991
lanicides	-12.4991
petricola	-12.4991
▁yanâ	-12.4991
=1343	-12.4991
▁pareho	-12.4991
▁pongau	-12.4991
czyce	-12.4991
▁schmidt	-12.4991
=1323	-12.4991
marstonia	-12.4991
=1124	-12.4991
▁arionidae	-12.4991
▁england	-12.4991
special	-12.4991
pahayag	-12.4991
grubeosyllis	-12.4991
amalda	-12.4991
tonicia	-12.4991
nitidella	-12.4991
▁gordon	-12.4991
porphyrio	-12.4991
▁qing	-12.4991
="1321	-12.4992
="1540	-12.4992
="1522	-12.4992
▁wilaya	-12.4992
="1513	-12.4992
▁guarda	-12.4992
▁materyales	-12.4993
▁bayani	-12.4994
palacio	-12.4994
▁cabeza	-12.4995
neoleprea	-12.4997
▁sharif	-12.4998
essert	-12.4999
▁aires	-12.5004
▁jorge	-12.5008
▁lucca	-12.501
▁newcomb	-12.5011
novafabricia	-12.5012
nerine	-12.5012
▁chun	-12.5014
▁beach	-12.5015
alentia	-12.5023
▁army	-12.5025
montastraea	-12.5034
avril	-12.5049
luparan	-12.5049
aponuphis	-12.5055
oinville	-12.506
infant	-12.5076
froid	-12.5077
candela	-12.5078
patella	-12.5098
fresne	-12.5098
ammon	-12.5111
▁nanganga	-12.5119
parazoanthus	-12.5137
muro	-12.5139
▁1995	-12.5158
▁slav	-12.516
chitinopoma	-12.5199
gâtinais	-12.5199
lauragais	-12.5199
oenonites	-12.5199
opercularella	-12.5199
ribeirão	-12.5199
rudolstadt	-12.5199
rzeszów	-12.5199
stomphia	-12.5199
▁decussata	-12.5199
▁fusiformis	-12.5199
▁mcmurrich	-12.5199
▁oldroydi	-12.5199
▁operculata	-12.5199
▁pisionidae	-12.5199
▁polyceridae	-12.5199
▁ranellidae	-12.5199
▁spongicola	-12.5199
▁turritellidae	-12.5199
▁vanhoeffeni	-12.5199
▁zagreb	-12.5199
egestula	-12.5199
marguerite	-12.5199
pueblo	-12.5199
▁glauca	-12.5199
▁library	-12.5199
▁puthaw	-12.5199
▁tochigi	-12.5199
piscicola	-12.5199
beauvoir	-12.5199
▁ampulla	-12.5199
cancellaria	-12.5199
nodilittorina	-12.5199
▁araguaia	-12.5199
hincksella	-12.5199
▁ostallgäu	-12.5199
▁ignacio	-12.5199
▁adolf	-12.5199
▁obesa	-12.5199
hermione	-12.5199
▁canadensis	-12.5199
="1329	-12.52
="1544	-12.52
="1543	-12.52
=1143	-12.5201
▁kirchdorf	-12.5201
▁mongolya	-12.5201
▁sterki	-12.5201
leptonereis	-12.5203
▁harburg	-12.5203
morvan	-12.5205
▁sasaki	-12.5207
katapos	-12.5208
▁moser	-12.5211
▁cedro	-12.5211
ukot	-12.5212
ophylla	-12.5219
▁stewart	-12.523
=1498	-12.5239
baybay	-12.5244
cryptolaria	-12.5255
baranggay	-12.5262
▁crem	-12.5263
gastropoda	-12.5263
(1)	-12.5265
perkinsiana	-12.5268
john	-12.527
blé	-12.5283
ggun	-12.5301
=1571	-12.5302
prosphaerosyllis	-12.5311
daog	-12.5331
hubert	-12.534
pouilly	-12.5344
ouillé	-12.5357
gpadayon	-12.537
▁1978	-12.5383
president	-12.54
▁lorenz	-12.5401
▁watt	-12.5401
▁ginbabanabana	-12.5412
antipathella	-12.5412
crucigera	-12.5412
eupodotis	-12.5412
rchitectonicidae	-12.5412
▁aclididae	-12.5412
▁cockerell	-12.5412
▁engineering	-12.5412
▁internasyonal	-12.5412
▁medisina	-12.5412
▁nassariidae	-12.5412
▁negosyante	-12.5412
▁notialis	-12.5412
▁pholadidae	-12.5412
▁pisidiidae	-12.5412
▁pocilloporidae	-12.5412
▁romsdal	-12.5412
▁vogtlandkreis	-12.5412
eupleura	-12.5412
hippolyte	-12.5412
grabfeld	-12.5412
nerinides	-12.5412
waldnaab	-12.5412
axionice	-12.5412
▁benguet	-12.5412
▁columna	-12.5412
cladonema	-12.5412
=1320	-12.5412
=1321	-12.5412
=1522	-12.5412
▁quark	-12.5412
▁snina	-12.5412
▁achille	-12.5412
▁middle	-12.5412
▁sharp	-12.5413
="1236	-12.5413
▁dahme	-12.5413
▁friele	-12.5413
▁altenburg	-12.5414
▁edwin	-12.5414
="1600	-12.5415
niewo	-12.5416
▁1775	-12.5416
▁karera	-12.5416
talwas	-12.5417
▁nagkaka	-12.5418
▁preston	-12.542
▁mateo	-12.542
▁philippines	-12.5421
▁croce	-12.5422
▁1815	-12.5422
boulogne	-12.5431
vallejo	-12.544
="1409	-12.5443
lunatia	-12.5445
istika	-12.545
george	-12.5451
sugb	-12.5451
higashi	-12.5451
antoine	-12.5479
paranais	-12.5489
jablo	-12.5493
charente	-12.5496
▁nakakuh	-12.5501
=1423	-12.5521
crex	-12.5571
reilles	-12.558
▁braga	-12.5586
="787	-12.5592
fresn	-12.5594
="1503	-12.5595
▁rathke	-12.5609
▁1990	-12.5612
pallasia	-12.5613
lombard	-12.5626
▁campanula	-12.5627
cylindri	-12.5629
chaetogaster	-12.5629
chicoreus	-12.5629
cyphastrea	-12.5629
diadumene	-12.5629
dictyocladium	-12.5629
elsothera	-12.5629
filogranula	-12.5629
galeolaria	-12.5629
lischkeia	-12.5629
madrepora	-12.5629
pterodrilus	-12.5629
pyrgocythara	-12.5629
▁acmaeidae	-12.5629
▁antarcticum	-12.5629
▁denticulata	-12.5629
▁esgueva	-12.5629
▁ingolfi	-12.5629
▁jäderholm	-12.5629
▁klunzinger	-12.5629
▁komárno	-12.5629
▁lawrence	-12.5629
▁musikero	-12.5629
▁pygmaeus	-12.5629
▁páramo	-12.5629
▁ritchie	-12.5629
▁robustum	-12.5629
▁salzwedel	-12.5629
▁septentrional	-12.5629
▁spectabilis	-12.5629
▁squamosa	-12.5629
▁thraciidae	-12.5629
▁translucens	-12.5629
▁tuberculosa	-12.5629
▁vancouverensis	-12.5629
▁ventricosa	-12.5629
spessart	-12.5629
▁ambigua	-12.5629
▁barbadensis	-12.5629
▁darwini	-12.5629
▁sidngon	-12.5629
fanellia	-12.5629
parvilucina	-12.5629
protothaca	-12.5629
rhophodon	-12.5629
▁atlantico	-12.5629
▁bathyalis	-12.5629
▁dohrni	-12.5629
▁santarém	-12.5629
lyonsiella	-12.5629
▁sobyet	-12.5629
▁weilheim	-12.5629
carpathi	-12.5629
▁mühldorf	-12.5629
▁nagasaki	-12.5629
kuryente	-12.5629
▁piceno	-12.5629
▁vaticano	-12.5629
kaarangay	-12.5629
=1544	-12.5629
desinyo	-12.5629
praxilla	-12.5629
=1543	-12.5629
=1329	-12.5629
▁ebro	-12.5629
▁bocki	-12.5629
corhiza	-12.5629
berthella	-12.5629
caruncul	-12.5629
▁abbott	-12.563
="1299	-12.563
="1318	-12.563
▁labiata	-12.563
▁passau	-12.5631
▁munich	-12.5631
cirroteuthis	-12.5632
▁grimm	-12.5632
arctonoe	-12.5635
▁gunma	-12.564
▁islandica	-12.5641
pectinia	-12.5641
fresnay	-12.5642
lubong	-12.5646
=1499	-12.5655
hermonia	-12.566
▁drau	-12.5662
vaast	-12.5667
▁säc	-12.5672
=1605	-12.5686
=1511	-12.5717
arabic	-12.5739
pirma	-12.5778
arcto	-12.5795
=1250	-12.58
anaitis	-12.5826
ardino	-12.5843
▁levenstein	-12.5851
department	-12.5851
grodzisk	-12.5851
heterocirrus	-12.5851
idiosepius	-12.5851
phymactis	-12.5851
plicifusus	-12.5851
▁airport	-12.5851
▁barasahon	-12.5851
▁cranchiidae	-12.5851
▁cumberland	-12.5851
▁decorata	-12.5851
▁diyosdiyos	-12.5851
▁etimolohiya	-12.5851
▁fewkes	-12.5851
▁fukushima	-12.5851
▁gifhorn	-12.5851
▁ispisyal	-12.5851
▁kaliningrad	-12.5851
▁osijek	-12.5851
▁potsdam	-12.5851
▁regensburg	-12.5851
▁veneroida	-12.5851
▁veretillidae	-12.5851
▁wolfenbüttel	-12.5851
▁pribado	-12.5851
▁reducta	-12.5851
bühl	-12.5851
haemopis	-12.5851
▁cerrato	-12.5851
=787	-12.5851
▁miyagi	-12.5851
=1540	-12.5851
▁bastide	-12.5851
▁schweiz	-12.5851
▁iwate	-12.5851
rhodope	-12.5852
blaise	-12.5852
▁apostol	-12.5852
▁bonifacio	-12.5852
▁karelia	-12.5852
="1244	-12.5852
▁altmark	-12.5852
bimeria	-12.5852
▁prominen	-12.5853
▁corallina	-12.5853
▁wiener	-12.5853
▁korona	-12.5854
chinese	-12.5854
rallina	-12.5855
="800	-12.5856
▁toyama	-12.5856
▁dommartin	-12.5857
▁tormes	-12.5862
étang	-12.5864
firmin	-12.5876
asnières	-12.5877
[...]
