<unk>	0
<s>	0
</s>	0
.	-3.12069
="	-3.12996
"	-3.42352
doc	-3.63404
>	-3.63539
▁han	-3.80114
s	-3.8143
▁ha	-3.8747
d	-4.01437
▁nga	-4.10275
▁	-4.16687
▁an	-4.2229
/	-4.30159
▁<	-4.31488
ies	-4.31822
war	-4.31928
wiki	-4.3194
org	-4.32061
curi	-4.32725
▁id	-4.32747
?	-4.32826
http	-4.32838
wikipedia	-4.32838
://	-4.3284
▁title	-4.32853
▁url	-4.32853
▁categor	-4.32853
-	-4.34159
▁</	-4.34238
▁in	-4.35655
,	-4.67546
▁ka	-4.96056
▁ngan	-4.96543
▁amo	-5.00922
▁usa	-5.03291
▁"	-5.18302
▁uska	-5.43348
▁nasod	-5.45242
a	-5.56452
▁rehiyon	-5.63077
▁na	-5.67978
▁hini	-5.73294
lalakip	-5.7571
▁nahi	-5.76466
▁gin	-5.76561
▁familia	-5.78094
▁genus	-5.80327
▁ni	-5.81328
▁species	-5.81786
i	-5.81856
▁departamento	-5.88589
▁subspecies	-5.88836
▁waray	-5.90771
▁fransya	-5.92013
kalista	-5.92328
hulagway	-5.92422
▁hadton	-5.92842
▁komyun	-5.93018
",	-6.00549
▁(	-6.19426
la	-6.35445
▁munisipalidad	-6.35819
o	-6.38226
ta	-6.38705
e	-6.40486
;	-6.43392
▁distrito	-6.43878
en	-6.45526
c	-6.47183
)	-6.47324
us	-6.47573
an	-6.50664
de	-6.53632
t	-6.61328
&	-6.63553
▁de	-6.64917
▁mga	-6.66709
le	-6.77631
▁lalawigan	-6.808
y	-6.81315
r	-6.81394
▁bungto	-6.81637
l	-6.82326
▁annelida	-6.83517
▁syahan	-6.84011
lt	-6.85033
n	-6.88692
gt	-6.91383
▁condado	-6.9583
▁hin	-7.0036
▁alemanya	-7.00703
▁la	-7.02152
ra	-7.04698
ti	-7.05234
et	-7.05513
z	-7.08584
:	-7.09074
▁gastropoda	-7.12193
▁o	-7.14495
na	-7.16042
idae	-7.1708
no	-7.17338
g	-7.17558
ma	-7.1915
m	-7.20012
▁estado	-7.2089
▁a	-7.21723
ia	-7.22465
ensis	-7.22848
to	-7.25859
k	-7.2996
19	-7.30126
ca	-7.31165
gmina	-7.3312
ri	-7.34224
▁italya	-7.34983
is	-7.35423
in	-7.37353
24	-7.39364
17	-7.39531
te	-7.404
li	-7.41711
re	-7.43947
ro	-7.44098
▁espanya	-7.44262
▁saint	-7.4441
▁comune	-7.45271
18	-7.46054
▁syudad	-7.46668
b	-7.48073
'	-7.48102
lo	-7.49071
al	-7.49625
23	-7.50985
er	-7.51638
▁uc	-7.5178
p	-7.52168
um	-7.52519
▁&	-7.52651
si	-7.52988
on	-7.5338
ka	-7.53883
ne	-7.54313
ar	-7.54621
sa	-7.55586
14	-7.56154
▁tuig	-7.56636
é	-7.56842
ch	-7.57814
di	-7.58349
ce	-7.58946
sur	-7.59988
ha	-7.60015
u	-7.60063
▁sumal	-7.61566
ella	-7.61814
▁anthozoa	-7.63452
ba	-7.64837
co	-7.65637
ni	-7.65932
45	-7.66055
▁of	-7.676
x	-7.68851
▁ma	-7.69041
tu	-7.69338
▁sa	-7.6987
▁ini	-7.70238
=1	-7.71494
go	-7.71501
mo	-7.72511
▁san	-7.72849
pa	-7.74486
el	-7.75412
me	-7.75503
▁cat	-7.76467
▁brasil	-7.76864
ga	-7.7762
saint	-7.78436
)"	-7.78474
38	-7.78508
vi	-7.78994
cu	-7.79664
bi	-7.79832
▁do	-7.79951
76	-7.80431
▁unidos	-7.80694
or	-7.80887
h	-7.81115
48	-7.8162
ci	-7.81672
á	-7.81816
do	-7.8244
se	-7.83242
16	-7.83267
au	-7.83342
87	-7.83403
▁estados	-7.84852
59	-7.84919
ya	-7.85318
th	-7.86333
60	-7.87698
ville	-7.87846
▁pa	-7.88706
▁pag	-7.89015
;/	-7.90183
alogue	-7.90275
▁life	-7.90397
▁hi	-7.90656
00	-7.91207
v	-7.92606
▁haute	-7.93099
▁kapital	-7.93345
▁di	-7.95179
▁le	-7.95956
▁provincia	-7.96282
ae	-7.96598
va	-7.97279
▁kalendaryo	-7.9752
15	-7.9868
les	-7.98738
bo	-7.99047
distrito	-7.99569
pyrénées	-7.99956
at	-8.00287
ve	-8.00953
es	-8.011
▁nag	-8.02077
▁re	-8.02255
ter	-8.03349
mi	-8.04238
condado	-8.04987
ge	-8.05733
be	-8.06672
20	-8.06758
pi	-8.07101
▁kladograma	-8.0832
f	-8.0842
22	-8.08716
▁ba	-8.08913
ul	-8.09725
▁hydrozoa	-8.09884
po	-8.09893
alpes	-8.10309
un	-8.11361
9	-8.12144
w	-8.1221
▁al	-8.1231
man	-8.14436
ing	-8.14481
▁ar	-8.1519
2	-8.15478
ph	-8.16596
hi	-8.16602
ns	-8.16851
wa	-8.17623
ol	-8.18671
br	-8.19029
ko	-8.1994
▁18	-8.20087
▁austria	-8.20114
chi	-8.2084
▁19	-8.20902
lis	-8.20971
loire	-8.21244
#	-8.21749
▁ca	-8.21951
bu	-8.22203
▁vi	-8.23515
▁g	-8.24337
▁#	-8.24898
ur	-8.25188
ay	-8.25481
yo	-8.25576
▁e	-8.2567
▁p	-8.25704
▁polonya	-8.25941
pe	-8.28255
gu	-8.28276
con	-8.28374
io	-8.2851
▁c	-8.28675
13	-8.29577
▁po	-8.29663
▁li	-8.29699
ria	-8.29992
▁me	-8.30033
land	-8.30095
ll	-8.30309
1	-8.30408
▁del	-8.30673
43"	-8.30724
3	-8.3075
26"	-8.3091
63"	-8.31051
35"	-8.3108
39"	-8.31141
mont	-8.31197
ry	-8.31249
93"	-8.31258
ou	-8.31306
08"	-8.31452
ton	-8.31577
gi	-8.31579
▁baranggay	-8.31624
69"	-8.31657
97"	-8.31764
86"	-8.31855
10"	-8.31858
que	-8.31859
36"	-8.31876
49"	-8.31915
96"	-8.31987
29"	-8.32007
90"	-8.3201
88"	-8.32022
42"	-8.32041
67"	-8.32057
03"	-8.32062
68"	-8.32075
75"	-8.3216
37"	-8.32177
55"	-8.32181
11"	-8.32257
92"	-8.32299
ea	-8.32332
33"	-8.3234
56"	-8.32377
81"	-8.32391
61"	-8.32393
77"	-8.32476
78"	-8.32482
94"	-8.3249
53"	-8.32525
12"	-8.3254
58"	-8.32582
99"	-8.32643
41"	-8.3268
07"	-8.32762
84"	-8.32775
31"	-8.3285
83"	-8.3288
28"	-8.32902
72"	-8.32936
64"	-8.32974
09"	-8.32993
51"	-8.33004
79"	-8.33007
eu	-8.33021
74"	-8.33026
82"	-8.33036
34"	-8.33115
06"	-8.33127
46"	-8.33138
91"	-8.33182
95"	-8.33192
04"	-8.33206
so	-8.33239
62"	-8.33257
73"	-8.33293
27"	-8.33317
47"	-8.33329
66"	-8.33341
02"	-8.33535
89"	-8.33584
25"	-8.33663
65"	-8.33689
21"	-8.33698
40"	-8.33733
30"	-8.33846
98"	-8.3387
▁mayda	-8.3388
85"	-8.33938
za	-8.33969
05"	-8.33975
70"	-8.33977
20"	-8.33989
54"	-8.33996
52"	-8.34033
lu	-8.34168
44"	-8.34174
57"	-8.3429
71"	-8.34291
15"	-8.34499
80"	-8.34499
13"	-8.3469
01"	-8.34743
▁castilla	-8.34917
berg	-8.34972
32"	-8.35054
▁k	-8.35165
▁kan	-8.35243
5	-8.35308
50"	-8.35749
normandie	-8.35776
22"	-8.35885
▁y	-8.35977
ki	-8.36145
▁rhône	-8.36288
ö	-8.36589
ho	-8.36833
j	-8.36894
os	-8.37107
osa	-8.37108
17"	-8.37694
18"	-8.37718
23"	-8.37834
24"	-8.37867
16"	-8.37877
▁b	-8.38105
▁mi	-8.38139
▁si	-8.38193
gen	-8.38386
▁bi	-8.38619
il	-8.39189
ica	-8.39734
0"	-8.39849
lin	-8.40213
19"	-8.40291
▁bu	-8.40635
▁munisipyo	-8.40931
8"	-8.4178
▁swiza	-8.42033
▁slovakia	-8.42231
▁midi	-8.42719
▁mar	-8.42967
mer	-8.43194
he	-8.43645
ina	-8.43907
han	-8.44301
cha	-8.4483
the	-8.44833
▁para	-8.45094
▁bo	-8.45671
du	-8.45869
▁co	-8.46332
▁probinsya	-8.46561
6	-8.46678
6"	-8.46799
ula	-8.47151
mar	-8.47179
7"	-8.4756
▁baryo	-8.47759
ver	-8.47822
tra	-8.47866
4"	-8.47923
ck	-8.4838
9"	-8.48381
▁ro	-8.48434
▁bivalvia	-8.48462
12	-8.48739
▁lu	-8.48808
ana	-8.4882
5"	-8.49298
▁nord	-8.49963
ran	-8.49998
op	-8.50897
▁da	-8.51156
í	-8.51868
ze	-8.52177
ng	-8.52277
ly	-8.5254
st	-8.52778
ber	-8.52983
▁canton	-8.53703
ja	-8.53734
tum	-8.54017
▁am	-8.54517
ru	-8.54587
3"	-8.56031
2"	-8.56191
1"	-8.56252
ten	-8.56259
▁ra	-8.56366
▁car	-8.56912
calais	-8.57197
▁león	-8.57212
palatinate	-8.57578
▁pan	-8.57629
che	-8.57741
▁rhineland	-8.58549
cy	-8.58727
▁mo	-8.61154
▁se	-8.61326
ida	-8.61702
nes	-8.61864
▁ta	-8.62213
ada	-8.62318
▁komo	-8.62928
tri	-8.63753
ii	-8.63777
san	-8.63919
▁bavaria	-8.63933
wi	-8.64322
sch	-8.64455
it	-8.64599
tt	-8.64612
▁pi	-8.65085
ugsa	-8.65974
▁pe	-8.6635
cul	-8.6729
ut	-8.67339
lata	-8.67452
ke	-8.67538
▁tikang	-8.6782
▁pilipinas	-8.67864
per	-8.68017
▁lorraine	-8.68077
▁con	-8.68431
▁bar	-8.68554
des	-8.69185
▁i	-8.69311
▁pagdumara	-8.69933
▁aquitaine	-8.69976
vo	-8.70021
▁picardie	-8.70281
ty	-8.70607
8	-8.70954
▁tawo	-8.71167
nu	-8.71585
▁cristo	-8.71648
lalawigan	-8.71826
oni	-8.72388
ang	-8.72473
▁ngadto	-8.72664
ron	-8.72774
▁gi	-8.7282
sta	-8.73093
▁so	-8.73973
car	-8.7524
ü	-8.75432
pas	-8.75521
val	-8.75661
tor	-8.75707
▁pu	-8.75838
▁lo	-8.76178
zo	-8.76766
ré	-8.7711
▁ika	-8.7716
hu	-8.77905
▁cor	-8.77951
fer	-8.78177
sk	-8.78613
men	-8.78661
dia	-8.78833
21	-8.79031
▁new	-8.79173
ano	-8.79273
zi	-8.79333
heim	-8.7953
▁per	-8.79552
tre	-8.79861
▁sch	-8.80358
▁st	-8.80478
bar	-8.80574
▁sentro	-8.80683
▁he	-8.81032
illa	-8.81432
▁sul	-8.81456
opsis	-8.81505
▁bourgogne	-8.81507
tan	-8.81752
▁tri	-8.82143
▁mollusca	-8.82243
pu	-8.82248
7	-8.82252
▁mont	-8.82711
ris	-8.82724
▁iya	-8.82841
nereis	-8.83078
▁mag	-8.83169
▁par	-8.8379
ig	-8.83807
mon	-8.83901
par	-8.83919
ot	-8.84148
▁f	-8.84333
10	-8.84612
ec	-8.84651
tal	-8.84863
klasipika	-8.84938
▁te	-8.85009
▁champagne	-8.85066
▁du	-8.85102
burg	-8.85573
▁ginbahin	-8.8568
son	-8.85853
▁su	-8.85953
der	-8.85965
ardenne	-8.86075
ir	-8.86412
▁20	-8.86417
▁pro	-8.86577
▁no	-8.86979
oma	-8.8704
ei	-8.87341
▁iucn	-8.87345
▁may	-8.87562
são	-8.88063
mb	-8.88425
▁be	-8.88873
ino	-8.88894
▁ko	-8.89027
▁santa	-8.89347
▁ri	-8.89348
▁t	-8.89437
ł	-8.89439
bach	-8.90127
oides	-8.90362
am	-8.9064
▁el	-8.90995
▁basse	-8.91066
▁populasyon	-8.91148
ren	-8.91175
▁kag	-8.91418
tim	-8.91542
▁ga	-8.91833
maritime	-8.92122
▁z	-8.92129
ó	-8.92456
▁ho	-8.92464
court	-8.92529
tes	-8.92733
▁franche	-8.93053
lès	-8.93531
bra	-8.94037
▁ja	-8.94075
▁dall	-8.94252
don	-8.94734
▁2000	-8.94808
comté	-8.94877
▁ru	-8.94907
▁iton	-8.95001
▁val	-8.95051
ine	-8.95157
nia	-8.95596
era	-8.95764
ita	-8.95771
▁hiya	-8.96458
para	-8.96682
ena	-8.96726
▁republika	-8.96794
ag	-8.96946
▁l	-8.97185
0	-8.97328
▁hu	-8.97387
iana	-8.97517
11	-8.97919
ny	-8.98064
▁ver	-8.98147
lla	-8.99234
lus	-8.99545
jo	-8.99797
ero	-8.99821
4	-8.99839
▁ur	-9.00334
▁man	-9.00478
we	-9.01068
▁go	-9.01118
qu	-9.0171
og	-9.01993
ey	-9.02444
ong	-9.02514
tz	-9.03125
fa	-9.03436
gan	-9.03703
feld	-9.03856
▁seine	-9.0412
▁north	-9.04228
▁ti	-9.04441
▁rusya	-9.04615
ger	-9.05063
cin	-9.05094
lan	-9.051
ven	-9.05133
▁census	-9.05914
=	-9.06184
lia	-9.06285
garonne	-9.06298
▁fa	-9.06308
gon	-9.06482
fi	-9.06531
▁17	-9.0689
▁w	-9.07194
▁ne	-9.0745
▁nahamutang	-9.0755
▁panimalay	-9.07804
lar	-9.07986
qui	-9.08103
lina	-9.08117
text	-9.0821
roussillon	-9.08699
▁mon	-9.08781
nga	-9.08815
ier	-9.08959
▁lombardiya	-9.09213
▁mac	-9.09321
▁languedoc	-9.09342
▁v	-9.10028
ros	-9.10037
em	-9.10069
š	-9.10437
gra	-9.1052
▁klase	-9.10577
▁im	-9.10603
▁phylum	-9.10839
▁rio	-9.11185
cor	-9.11436
▁animalia	-9.11695
▁fu	-9.1182
q	-9.11834
▁pays	-9.11904
▁kahoronan	-9.11912
▁pas	-9.11961
ku	-9.12227
gy	-9.1249
tte	-9.12668
model	-9.13108
marne	-9.13545
su	-9.13738
mp	-9.14153
ff	-9.14245
ye	-9.14292
poitou	-9.14308
▁bre	-9.1436
gar	-9.1443
format	-9.14464
▁mabibilngan	-9.14783
▁mor	-9.14833
tia	-9.14878
drilus	-9.14907
non	-9.15309
charentes	-9.1533
cho	-9.15867
kreis	-9.16019
res	-9.1609
branch	-9.16124
estamp	-9.1623
tributor	-9.16572
tro	-9.16609
ix	-9.1665
france	-9.17299
▁to	-9.17407
▁chi	-9.17459
▁eure	-9.17745
▁or	-9.1787
im	-9.18091
▁diri	-9.18508
zy	-9.18696
ername	-9.18698
cia	-9.18733
om	-9.1877
ux	-9.18789
sto	-9.18904
tr	-9.19041
27	-9.19142
▁bas	-9.19605
▁schleswig	-9.19817
ian	-9.19864
ell	-9.19954
comment	-9.19964
▁m	-9.20419
ak	-9.20662
syon	-9.20706
hausen	-9.21111
▁fi	-9.21193
oc	-9.21411
one	-9.2162
aria	-9.21651
ika	-9.2167
ières	-9.21682
ach	-9.21893
▁baden	-9.22068
▁au	-9.22265
aw	-9.22332
25	-9.22575
52	-9.22595
min	-9.22884
bre	-9.23012
mu	-9.23012
▁côte	-9.23153
ón	-9.23296
▁eu	-9.23438
▁auvergne	-9.23916
nay	-9.24024
ów	-9.24529
▁can	-9.24575
len	-9.24597
▁kon	-9.24739
ben	-9.24835
▁tu	-9.24842
č	-9.2545
rie	-9.26079
pin	-9.26118
tha	-9.26293
ille	-9.26367
▁gra	-9.26496
cher	-9.26594
lon	-9.26655
holstein	-9.26724
50	-9.26823
ère	-9.26832
78	-9.26887
württemberg	-9.2695
▁île	-9.27027
ë	-9.27104
ner	-9.27272
nica	-9.27334
▁classis	-9.27491
▁katundan	-9.27512
igny	-9.27657
▁gu	-9.27676
▁dida	-9.27883
▁minas	-9.2791
ov	-9.27981
sky	-9.28092
▁salatan	-9.28146
ara	-9.28376
▁charente	-9.28428
30	-9.28498
sh	-9.28702
▁bretagne	-9.28816
ez	-9.29042
ura	-9.29239
ant	-9.29247
ab	-9.29462
enta	-9.29504
elle	-9.29543
olo	-9.2965
▁colombia	-9.3008
53	-9.30417
rhin	-9.30607
▁ben	-9.30615
rio	-9.30828
pen	-9.3083
formis	-9.3144
54	-9.31487
gin	-9.31631
ow	-9.31678
ich	-9.31699
▁piemonte	-9.31843
32	-9.324
hr	-9.32643
hy	-9.32912
for	-9.33212
nan	-9.33325
ú	-9.33391
pl	-9.3351
▁grande	-9.33594
▁her	-9.33814
ling	-9.33899
47	-9.34028
pp	-9.34051
),	-9.34051
▁cha	-9.34256
ern	-9.3504
ola	-9.35118
neu	-9.35199
▁sub	-9.35322
▁mu	-9.35431
my	-9.35973
▁oblast	-9.36139
04	-9.36215
lio	-9.36273
▁regnum	-9.36477
elli	-9.36648
thy	-9.36708
ek	-9.36809
▁saxony	-9.36817
ley	-9.37321
▁cal	-9.37415
xi	-9.37417
ie	-9.37477
ug	-9.37918
tin	-9.37941
▁ber	-9.37962
▁thuringia	-9.38272
je	-9.3867
▁3	-9.38814
actis	-9.39
tar	-9.39199
av	-9.39211
stein	-9.39496
ona	-9.39884
▁h	-9.40269
ente	-9.40322
cer	-9.40368
gna	-9.40566
▁bc	-9.4063
yan	-9.40694
40	-9.40823
▁nu	-9.41288
▁villa	-9.41345
mor	-9.41406
ast	-9.41526
▁district	-9.41693
▁gerais	-9.4189
▁cer	-9.41919
los	-9.42021
ax	-9.42177
▁er	-9.42244
nt	-9.42722
vorpommern	-9.43041
stro	-9.43257
▁ge	-9.43501
ali	-9.43537
syllis	-9.43613
fu	-9.43636
rin	-9.43645
▁bern	-9.43825
▁u	-9.43943
vin	-9.44109
cirr	-9.44199
▁sal	-9.44337
▁der	-9.44498
tel	-9.44546
rac	-9.44673
▁cla	-9.44821
ric	-9.44828
bois	-9.44847
ban	-9.44857
ju	-9.44883
ium	-9.45064
vel	-9.45159
gua	-9.45261
▁puy	-9.45265
côte	-9.45352
án	-9.45371
▁amihanan	-9.45559
ub	-9.45564
▁ve	-9.45662
▁ngaran	-9.45664
ex	-9.4567
▁lot	-9.45942
ap	-9.46011
▁somme	-9.46118
rina	-9.46227
fo	-9.46367
▁hapon	-9.46497
▁longi	-9.46595
cola	-9.46641
▁str	-9.46665
pro	-9.46685
▁tor	-9.46773
▁ex	-9.46977
hon	-9.47029
31	-9.47359
▁for	-9.47546
28	-9.47576
▁wa	-9.48018
▁aisne	-9.4805
▁dekada	-9.48145
▁adlaw	-9.48286
55	-9.48428
▁ku	-9.48485
martin	-9.48545
44	-9.4865
▁niedersachsen	-9.49005
05	-9.49016
illo	-9.49053
sy	-9.49101
▁south	-9.49629
illy	-9.49895
29	-9.50024
▁ch	-9.502
bri	-9.50215
ice	-9.50333
▁pin	-9.50717
08	-9.50804
van	-9.50815
▁j	-9.50835
è	-9.50958
aux	-9.5122
cata	-9.51462
pan	-9.51471
▁sp	-9.51592
bon	-9.51665
bel	-9.51735
▁bel	-9.51749
her	-9.52027
39	-9.5247
49	-9.525
▁mecklenburg	-9.52622
▁–	-9.52637
▁sin	-9.52794
43	-9.532
bal	-9.53245
▁syllidae	-9.53321
azur	-9.53354
ñ	-9.53384
▁pagka	-9.53581
▁is	-9.53592
cal	-9.53728
pierre	-9.53871
ä	-9.54025
▁polynoidae	-9.54127
mal	-9.54236
ud	-9.54983
eunice	-9.55019
95	-9.55059
▁isla	-9.55093
ham	-9.55202
▁monte	-9.55429
pal	-9.5554
▁texas	-9.55552
eg	-9.55624
▁va	-9.55906
46	-9.55947
hetero	-9.56026
▁hit	-9.56067
tur	-9.56386
▁norte	-9.56413
▁pri	-9.56418
yn	-9.56426
▁col	-9.56466
42	-9.5654
col	-9.56562
mat	-9.56617
▁15	-9.56659
ok	-9.56732
pel	-9.5691
06	-9.56915
pri	-9.57235
▁fl	-9.57339
yon	-9.57356
sar	-9.57484
▁provence	-9.57611
est	-9.57625
▁r	-9.57626
▁mancha	-9.57663
▁tur	-9.57885
zh	-9.57913
sdorf	-9.57954
dorf	-9.58101
gne	-9.58147
rat	-9.58205
py	-9.58247
36	-9.58257
37	-9.58263
sheim	-9.58319
ai	-9.5846
thi	-9.58557
ip	-9.58665
up	-9.58683
ler	-9.59044
26	-9.59074
endorf	-9.59102
cro	-9.59278
ker	-9.59287
mes	-9.59407
▁pseudo	-9.59448
thal	-9.59589
▁ce	-9.59596
ves	-9.59759
iata	-9.59816
▁serpulidae	-9.59845
▁carolina	-9.59845
bor	-9.5994
▁oise	-9.60112
▁ju	-9.60127
by	-9.60169
ken	-9.60284
mm	-9.60551
nella	-9.60559
▁alsace	-9.60813
98	-9.60856
cr	-9.60934
pt	-9.60977
ers	-9.61193
94	-9.61477
ost	-9.61542
cz	-9.61699
mil	-9.61942
▁calvados	-9.62009
ion	-9.62172
ral	-9.62183
ale	-9.62263
shi	-9.62278
eux	-9.62279
97	-9.62414
uk	-9.62464
▁hy	-9.6257
▁jura	-9.62624
prefectura	-9.62777
var	-9.62899
▁bal	-9.62971
sous	-9.62977
80	-9.63
▁es	-9.63039
win	-9.63141
33	-9.63156
▁5	-9.63188
ín	-9.63255
bé	-9.63383
ath	-9.6339
lé	-9.63864
▁tubificidae	-9.63885
uubos	-9.63899
09	-9.64113
ras	-9.64179
tura	-9.64214
▁kabisay	-9.6422
rus	-9.64534
mel	-9.64889
▁16	-9.64992
ani	-9.65039
▁moselle	-9.65193
▁les	-9.65273
01	-9.65324
gre	-9.65625
nau	-9.6567
gor	-9.65692
▁ober	-9.6585
ple	-9.65914
▁10	-9.66012
uro	-9.66294
▁mal	-9.66342
ž	-9.66357
▁sar	-9.6636
ato	-9.66396
▁ban	-9.66536
▁ad	-9.66554
34	-9.66581
cur	-9.66632
41	-9.66667
▁6	-9.66679
pis	-9.67455
▁ab	-9.67502
pil	-9.67593
gal	-9.67649
ari	-9.67727
tula	-9.67768
▁tarn	-9.67785
del	-9.67997
lat	-9.68018
ev	-9.68066
▁ph	-9.68103
mus	-9.68454
▁micro	-9.68467
▁ki	-9.68599
ji	-9.68691
35	-9.68848
92	-9.6893
▁ordo	-9.69016
56	-9.69065
03	-9.69161
▁tsina	-9.69265
74	-9.69501
▁pra	-9.69577
▁katawhan	-9.69854
▁tr	-9.70183
ini	-9.70189
▁neu	-9.70277
ovce	-9.70315
▁tra	-9.70466
rum	-9.7049
▁poly	-9.70542
ides	-9.70716
iz	-9.70815
▁var	-9.70841
ès	-9.70914
lac	-9.71017
hen	-9.71329
▁sc	-9.71365
phi	-9.71399
ill	-9.71471
▁it	-9.71488
plo	-9.71604
▁mas	-9.71655
com	-9.7187
ado	-9.72101
har	-9.72231
ico	-9.72273
saône	-9.72765
wo	-9.72766
91	-9.72909
▁za	-9.73031
enbach	-9.73086
70	-9.7317
ps	-9.73286
moselle	-9.73387
02	-9.73437
nberg	-9.73466
aya	-9.73548
lingen	-9.73578
bert	-9.73647
pur	-9.73651
▁papa	-9.73807
tta	-9.73824
▁marne	-9.73869
dor	-9.73872
▁paulo	-9.73941
▁dagat	-9.73967
gue	-9.74068
▁gihapon	-9.74081
wil	-9.74163
opho	-9.74326
ora	-9.74489
▁saône	-9.74544
▁verrill	-9.747
▁napulo	-9.7475
99	-9.74836
▁multi	-9.74954
aga	-9.74984
▁ci	-9.75128
▁11	-9.75197
nat	-9.75306
lim	-9.7533
51	-9.7543
▁12	-9.75465
▁ter	-9.75486
eta	-9.75502
wan	-9.7568
▁2	-9.75694
pter	-9.75988
tina	-9.75995
mun	-9.76006
▁manche	-9.76008
▁prešov	-9.76076
glo	-9.76108
▁pal	-9.76197
ire	-9.76218
▁andalucía	-9.76327
bia	-9.76517
cum	-9.76519
ois	-9.76525
▁aragón	-9.7658
▁ser	-9.7662
▁cy	-9.76871
polydora	-9.77091
nic	-9.7712
▁cap	-9.77291
bot	-9.77518
tera	-9.77638
▁hautes	-9.77941
▁7	-9.7807
▁wi	-9.78191
oteuthis	-9.7825
mé	-9.78363
pseudo	-9.78461
chiton	-9.78551
▁8	-9.78703
▁4	-9.78846
bl	-9.78998
▁nereididae	-9.79013
▁gironde	-9.79143
▁nereis	-9.79156
07	-9.79229
nce	-9.79477
kal	-9.79667
▁bor	-9.79777
ring	-9.79826
hin	-9.79946
num	-9.80054
spio	-9.80277
cos	-9.80328
onia	-9.80536
dendronephthya	-9.80609
▁the	-9.80627
▁gud	-9.80683
▁14	-9.80747
▁ara	-9.80821
lou	-9.80879
kan	-9.80925
turbonilla	-9.81146
▁doubs	-9.81242
ung	-9.81296
▁tin	-9.81321
olohiya	-9.81561
ob	-9.81587
0&	-9.81632
▁bra	-9.81666
bou	-9.81815
▁john	-9.8197
▁limousin	-9.82173
ama	-9.82414
kh	-9.82586
▁hampshire	-9.8271
▁en	-9.83016
aba	-9.83088
▁meurthe	-9.83114
uri	-9.83114
bul	-9.83301
▁kanan	-9.83366
parenti	-9.83389
eira	-9.83439
ista	-9.83483
â	-9.83487
▁liwat	-9.8352
▁naka	-9.83624
lay	-9.83675
pre	-9.83738
kar	-9.83859
bas	-9.84226
lit	-9.84347
cant	-9.84665
rey	-9.8475
ulo	-9.84752
90	-9.84888
mas	-9.84904
▁cr	-9.85027
▁dakota	-9.85108
villa	-9.85112
▁we	-9.85285
▁che	-9.85296
▁belhika	-9.85436
gas	-9.85456
villers	-9.85562
revision	-9.85852
▁santo	-9.86101
▁sur	-9.86153
▁lim	-9.86239
né	-9.86337
iya	-9.86344
neo	-9.8638
▁13	-9.86424
62	-9.86572
chen	-9.86573
67	-9.86748
▁bad	-9.86754
kirchen	-9.8679
cella	-9.86901
ña	-9.8698
▁9	-9.87252
rh	-9.87414
▁kun	-9.87422
zu	-9.87485
kov	-9.87495
wald	-9.87504
▁county	-9.87531
▁dordogne	-9.87531
ble	-9.87532
ema	-9.87562
onuphis	-9.87689
▁vo	-9.87789
▁ville	-9.87891
▁isère	-9.87972
eda	-9.87992
din	-9.88183
93	-9.88219
66	-9.88329
86	-9.88352
85	-9.88548
lica	-9.88668
79	-9.88701
ram	-9.8875
▁gracilis	-9.8881
▁jean	-9.88816
mia	-9.88822
fe	-9.88948
▁spi	-9.89026
cera	-9.89034
65	-9.89083
enburg	-9.89459
▁mer	-9.89512
▁indre	-9.89657
▁nova	-9.89704
eva	-9.89819
▁fe	-9.89915
▁van	-9.89918
▁yonne	-9.89985
▁peru	-9.9008
ment	-9.90112
▁gers	-9.90311
ed	-9.90536
any	-9.90687
▁ocean	-9.9069
pes	-9.90876
pon	-9.91187
kon	-9.91429
▁hartman	-9.91512
96	-9.91635
az	-9.91667
▁sen	-9.91714
84	-9.9172
▁sinirangan	-9.91898
▁west	-9.9191
hel	-9.92014
▁diin	-9.92028
▁sy	-9.92152
chy	-9.92239
▁kab	-9.92382
bb	-9.92432
lam	-9.92572
zon	-9.92574
art	-9.92594
▁lugar	-9.92647
atlantiques	-9.92766
71	-9.92797
▁panahon	-9.92895
▁gal	-9.93119
ima	-9.93218
▁ste	-9.93225
ogorgia	-9.93382
uz	-9.93452
bin	-9.93539
ão	-9.93617
uda	-9.93698
kahoronan	-9.9405
rom	-9.94134
▁ven	-9.94204
serpula	-9.94351
▁kasawangan	-9.94547
▁pla	-9.94769
▁gard	-9.9483
▁virginia	-9.94889
corn	-9.94984
uc	-9.94987
57	-9.95079
73	-9.95124
▁fo	-9.95161
bad	-9.95227
▁orne	-9.95367
▁uru	-9.95468
▁grube	-9.95474
▁ap	-9.95503
odostomia	-9.9559
ito	-9.95617
▁sainte	-9.95663
gui	-9.9573
▁eunice	-9.95782
gat	-9.95877
▁illinois	-9.95919
▁pilsbry	-9.95919
▁vosges	-9.95919
64	-9.96001
gues	-9.96036
▁sol	-9.9606
58	-9.96089
stadt	-9.96096
dis	-9.96169
rot	-9.96219
▁ros	-9.96304
dro	-9.96314
▁bei	-9.96441
▁butnga	-9.96495
▁alb	-9.96528
iko	-9.96556
▁br	-9.96621
ala	-9.96628
▁loire	-9.96663
▁un	-9.96665
▁georgia	-9.96893
if	-9.96977
▁cast	-9.97021
lumb	-9.97108
una	-9.97182
ira	-9.975
rou	-9.9768
gh	-9.97832
▁wil	-9.9785
lepidonotus	-9.97934
bell	-9.97951
abarak	-9.98008
lig	-9.98034
ky	-9.98088
tig	-9.98095
▁gre	-9.98096
▁pre	-9.98134
▁tungod	-9.98194
▁mel	-9.9826
odon	-9.98385
▁ira	-9.98403
pansayod	-9.98405
nac	-9.98442
via	-9.98543
▁pont	-9.98595
char	-9.98807
▁bartsch	-9.99047
▁lima	-9.99074
ah	-9.99186
ore	-9.99339
yi	-9.99398
▁iba	-9.99403
▁ardennes	-9.9946
dôme	-9.99515
onne	-9.99549
▁bro	-9.99755
=141	-9.99791
alto	-9.99982
▁gar	-10.0003
88	-10.0003
ches	-10.0005
▁maine	-10.0009
▁je	-10.0009
▁california	-10.0015
jean	-10.0036
▁neo	-10.0036
▁my	-10.0044
▁den	-10.0053
upat	-10.0055
▁cam	-10.0055
▁uni	-10.0061
ius	-10.0062
▁kalibutan	-10.0085
til	-10.0087
hol	-10.0094
bis	-10.0102
▁duha	-10.0114
gr	-10.0114
uil	-10.012
rit	-10.013
ello	-10.0135
pag	-10.0146
72	-10.0146
▁ug	-10.0176
enne	-10.018
63	-10.0188
loir	-10.0206
igbaw	-10.0209
▁salamanca	-10.0225
▁košice	-10.0258
▁veneto	-10.0259
▁bou	-10.0262
roc	-10.0266
▁terebellidae	-10.0275
ue	-10.0282
llo	-10.0288
▁comunidad	-10.0291
▁sabellidae	-10.0291
mur	-10.0292
▁bystrica	-10.0308
▁sertulariidae	-10.0308
octopus	-10.0317
plumularia	-10.0324
vis	-10.0326
▁rhein	-10.0334
pra	-10.0339
▁gua	-10.0342
ischnochiton	-10.0349
fr	-10.035
75	-10.0356
bata	-10.037
▁lam	-10.037
ili	-10.0389
ise	-10.0389
idad	-10.04
▁spionidae	-10.0407
▁aube	-10.0422
▁pyramidellidae	-10.0424
▁henry	-10.0425
bat	-10.0448
bay	-10.045
nova	-10.0453
phal	-10.0453
leptochiton	-10.0458
▁paraná	-10.0459
▁cre	-10.0483
▁min	-10.0489
pina	-10.0491
ray	-10.0494
89	-10.0498
nar	-10.0516
▁campo	-10.0516
▁bahia	-10.0524
epi	-10.0542
amphi	-10.055
fort	-10.0554
life	-10.0557
▁x	-10.0565
▁plan	-10.0578
tom	-10.058
ik	-10.0594
▁william	-10.0609
cou	-10.0617
yer	-10.0625
rid	-10.0636
dentalium	-10.0643
vit	-10.0647
▁bag	-10.0661
▁camp	-10.0666
▁styria	-10.0677
santa	-10.0681
ski	-10.0695
▁hesse	-10.0696
rama	-10.0708
▁lin	-10.0714
kin	-10.0718
hal	-10.0731
por	-10.0738
▁wal	-10.0739
▁bis	-10.074
61	-10.076
gn	-10.0783
▁city	-10.0783
ago	-10.0784
▁ain	-10.0784
▁qu	-10.0792
▁puerto	-10.0793
tto	-10.0795
▁hel	-10.0812
▁ak	-10.0825
see	-10.0827
▁conidae	-10.0864
▁kroasya	-10.0867
▁luc	-10.0871
▁hartmann	-10.0873
itz	-10.088
iano	-10.0884
typosyllis	-10.0887
lain	-10.0891
▁campania	-10.0902
lip	-10.0902
▁martin	-10.091
▁aude	-10.0928
▁fre	-10.0931
fen	-10.0937
karuhaan	-10.0937
mata	-10.0955
dio	-10.0956
▁kra	-10.0956
▁tre	-10.0962
▁portugal	-10.0972
▁tro	-10.0975
ismo	-10.1004
dina	-10.1022
ret	-10.1028
▁ob	-10.1035
▁gran	-10.1038
▁ke	-10.1041
zzo	-10.1042
proto	-10.1051
bdella	-10.1079
harmothoe	-10.1102
gno	-10.1107
rop	-10.1119
polynoe	-10.112
fur	-10.1126
ign	-10.1142
▁jo	-10.1159
ante	-10.1205
▁james	-10.1207
port	-10.1208
helix	-10.1213
▁minnesota	-10.124
zar	-10.1252
▁chapelle	-10.1277
aram	-10.1288
▁ple	-10.1291
halecium	-10.1295
▁por	-10.1327
lom	-10.1328
▁bon	-10.1349
esse	-10.1351
amp	-10.1355
▁torre	-10.1359
may	-10.1363
tru	-10.1365
▁komunidad	-10.1368
ignac	-10.137
gamit	-10.1371
▁meuse	-10.1374
lumbrineris	-10.1378
ân	-10.139
▁ger	-10.1395
▁mur	-10.1405
jar	-10.1407
▁masunod	-10.1408
▁ulohan	-10.1423
82	-10.144
château	-10.1441
▁romano	-10.1447
commonsdelinker	-10.146
▁plexauridae	-10.146
gau	-10.1471
probinsya	-10.1471
sainte	-10.1477
schröder	-10.1478
▁germany	-10.1478
ate	-10.148
▁bri	-10.1486
▁ir	-10.149
ila	-10.1492
our	-10.1493
fontaine	-10.1497
▁bansk	-10.15
glycera	-10.1515
▁fr	-10.1523
▁bahin	-10.1539
pora	-10.154
tter	-10.155
ô	-10.1552
symplectoscyphus	-10.1553
rich	-10.1554
=130	-10.1557
ep	-10.156
ersdorf	-10.1569
▁calabria	-10.1571
cau	-10.1575
▁haut	-10.1597
▁administratibo	-10.1609
▁cher	-10.1613
long	-10.1617
▁alba	-10.1617
▁leyte	-10.1628
surat	-10.1637
ole	-10.1643
▁washington	-10.1646
▁cri	-10.1701
▁samar	-10.1731
▁char	-10.1737
champ	-10.1738
mou	-10.1745
▁sh	-10.1747
cas	-10.1758
wer	-10.176
papa	-10.1767
hé	-10.1779
▁mus	-10.1806
nas	-10.1806
▁land	-10.1808
=160	-10.1813
concha	-10.1817
anda	-10.1826
prionospio	-10.1837
▁autonoma	-10.1856
▁stephen	-10.1856
himo	-10.1863
▁kabahin	-10.1882
actinia	-10.1883
tellina	-10.1911
tier	-10.1928
illes	-10.1932
ib	-10.1933
▁nephtheidae	-10.1933
▁ost	-10.1936
▁inter	-10.1948
bol	-10.1949
lepto	-10.195
vol	-10.1951
68	-10.1951
▁nederlandes	-10.1953
▁upod	-10.1954
▁kay	-10.1957
▁corse	-10.1962
pont	-10.1964
▁valle	-10.1966
gera	-10.197
weiler	-10.1976
▁indya	-10.1983
tem	-10.1984
ist	-10.2003
▁edward	-10.201
▁sugad	-10.2011
hn	-10.2021
=165	-10.2025
▁lan	-10.2036
▁los	-10.2036
▁castel	-10.205
nik	-10.2061
asyon	-10.2063
roy	-10.2073
agi	-10.2082
▁mexico	-10.209
cé	-10.2095
lima	-10.211
syudad	-10.2112
mara	-10.2127
pol	-10.213
mya	-10.2138
costa	-10.2142
hydractinia	-10.2149
pat	-10.2161
poli	-10.2162
leptogorgia	-10.2169
ais	-10.2171
▁bl	-10.2184
▁phyllodocidae	-10.2189
ange	-10.2227
wal	-10.223
rze	-10.2232
77	-10.2242
ain	-10.2249
cast	-10.2259
anne	-10.2262
usa	-10.2265
▁turbonilla	-10.2283
▁serra	-10.2293
▁brandenburg	-10.2309
▁camaenidae	-10.2309
psamm	-10.231
acropora	-10.2315
net	-10.2315
▁piauí	-10.2329
egg	-10.2339
▁1	-10.235
▁pagpa	-10.237
▁1919.	-10.2372
bourg	-10.2376
▁pis	-10.2386
sabella	-10.2392
ette	-10.2412
uy	-10.2422
▁tar	-10.2423
pres	-10.2445
monte	-10.2448
lag	-10.2452
spira	-10.2462
▁tenuis	-10.2463
eng	-10.2465
▁kin	-10.2467
sson	-10.2471
69	-10.2472
▁dendronephthya	-10.2487
▁burgos	-10.2492
=123	-10.2494
beau	-10.2499
flor	-10.2502
▁paul	-10.2518
pé	-10.2527
▁ig	-10.2554
▁japonica	-10.2574
uli	-10.2577
vé	-10.2579
▁island	-10.2581
elles	-10.2589
▁pau	-10.2591
▁com	-10.2593
herm	-10.2607
▁1909.	-10.2616
▁kr	-10.2627
▁addison	-10.2636
mit	-10.2648
sunod	-10.2658
ami	-10.267
81	-10.2678
pot	-10.2693
▁sicilia	-10.2699
mba	-10.2702
myzostoma	-10.2711
lumbricillus	-10.272
▁nor	-10.276
▁pamunuan	-10.2762
▁ersé	-10.2762
uru	-10.2769
▁indiana	-10.2775
oidea	-10.2777
eli	-10.2781
pit	-10.2783
▁emery	-10.2783
actin	-10.2789
neanthes	-10.2804
armor	-10.2806
born	-10.2806
mangelia	-10.2807
mann	-10.2812
▁top	-10.2843
▁sarthe	-10.2851
crypto	-10.2854
spirorbis	-10.2862
▁maria	-10.2863
▁cruz	-10.2869
sepia	-10.2876
westphalia	-10.2889
nitz	-10.2891
rub	-10.2911
ía	-10.2922
sbach	-10.2933
▁sca	-10.294
▁ariège	-10.2954
oro	-10.2958
tag	-10.2968
▁rhine	-10.2973
▁hérault	-10.2975
act	-10.2998
▁yana	-10.2999
▁cir	-10.3002
dur	-10.3002
leu	-10.3018
▁katapos	-10.3018
elimia	-10.3019
zac	-10.3023
▁sankt	-10.3023
exogone	-10.304
▁1889	-10.3044
yama	-10.3044
elo	-10.3046
anhalt	-10.3048
▁gr	-10.3056
nz	-10.3057
▁men	-10.3059
▁ille	-10.306
fla	-10.3061
▁ardèche	-10.3062
ting	-10.3073
fre	-10.3076
chau	-10.3083
diopatra	-10.3083
uti	-10.3096
ava	-10.3099
lier	-10.3103
▁ag	-10.3108
mina	-10.3114
cey	-10.3115
▁ves	-10.3128
▁bin	-10.3129
eto	-10.3131
▁harani	-10.3134
▁noruega	-10.3149
▁pacifica	-10.3149
▁polychaeta	-10.3171
isis	-10.3203
nti	-10.3204
▁florida	-10.3207
vilaine	-10.3237
iningles	-10.3248
ober	-10.3249
iti	-10.3256
▁alpes	-10.3257
phyllodoce	-10.326
▁pala	-10.3285
▁bug	-10.3295
fal	-10.3295
leo	-10.3302
kirch	-10.3306
anthus	-10.3317
▁cataluña	-10.3326
▁yinaknan	-10.3326
town	-10.3329
ney	-10.3349
▁landes	-10.3355
camp	-10.337
eulalia	-10.3371
oise	-10.3372
siphon	-10.3373
▁tan	-10.3379
▁juan	-10.3386
iso	-10.3386
sphaerosyllis	-10.3393
▁vol	-10.3393
▁allier	-10.3397
vermilia	-10.3415
▁catarina	-10.3415
▁cou	-10.342
▁gri	-10.3432
lokal	-10.3433
antipathes	-10.3438
▁alcyoniidae	-10.3438
terebella	-10.3438
▁kentucky	-10.346
germain	-10.3462
▁em	-10.3463
▁barrio	-10.3465
uno	-10.3467
▁hol	-10.3477
▁mol	-10.3486
▁21	-10.3493
hem	-10.3506
▁pul	-10.3513
luc	-10.3516
▁bru	-10.3528
jan	-10.3539
▁capensis	-10.3542
hofen	-10.3547
▁drôme	-10.3551
▁are	-10.3554
mark	-10.3559
▁hor	-10.3571
micro	-10.3572
▁albanya	-10.3574
▁emilia	-10.3574
▁beau	-10.3578
enz	-10.3582
▁wei	-10.3583
dom	-10.3586
▁cari	-10.3591
oy	-10.3592
▁linnaeus	-10.3597
▁missouri	-10.3597
▁pr	-10.3598
▁louis	-10.3605
▁ed	-10.3616
let	-10.3617
oenopota	-10.362
▁michigan	-10.362
▁deux	-10.3646
▁dapit	-10.3646
▁mari	-10.3648
illon	-10.3661
marphysa	-10.3663
▁elegans	-10.3666
▁usá	-10.3669
▁loiret	-10.3672
pul	-10.3675
83	-10.3677
hun	-10.3679
uf	-10.3694
▁vienne	-10.3707
xenia	-10.3713
esi	-10.372
wood	-10.3746
▁valenciana	-10.3765
ori	-10.3765
▁port	-10.3776
▁ten	-10.3778
sertularia	-10.3782
▁quadri	-10.3782
▁silesya	-10.3782
▁gro	-10.3788
vy	-10.3801
cerithiopsis	-10.3805
kol	-10.3806
sèvres	-10.3807
ska	-10.3807
▁odostomia	-10.3808
zell	-10.3817
tsu	-10.3825
autolytus	-10.3829
well	-10.3834
kop	-10.3837
▁goiás	-10.3852
llum	-10.3872
uta	-10.3874
gio	-10.3874
▁1885	-10.388
guer	-10.3894
▁est	-10.3894
ceratonereis	-10.3899
▁pedro	-10.3903
ight	-10.3907
bonne	-10.3914
jinjian	-10.3923
trochus	-10.3923
iza	-10.3936
aro	-10.3938
▁roma	-10.3947
▁eunicidae	-10.397
tang	-10.3991
▁tulo	-10.3993
▁nièvre	-10.4005
▁ii	-10.401
▁maka	-10.4017
vic	-10.4024
▁tom	-10.4027
▁ikaduha	-10.4043
line	-10.4054
eck	-10.4054
uan	-10.4054
aglaophenia	-10.4066
ópolis	-10.4066
▁ehlers	-10.4075
sinularia	-10.4079
▁tubtob	-10.409
▁cantal	-10.4095
▁long	-10.4096
savoie	-10.4103
▁nitra	-10.4106
▁josé	-10.4114
▁semi	-10.4122
ite	-10.4123
▁say	-10.4124
fra	-10.4139
vie	-10.4147
zer	-10.4155
eaux	-10.4155
▁fer	-10.4156
nephtys	-10.4162
shima	-10.4167
▁helix	-10.4178
▁mé	-10.4183
▁peter	-10.4184
iac	-10.4189
not	-10.4193
nin	-10.4196
ischnochitonidae	-10.4198
gli	-10.4198
poly	-10.42
mato	-10.4209
tl	-10.421
▁nahabilin	-10.4211
perinereis	-10.4212
munisipyo	-10.4227
▁bran	-10.4229
▁george	-10.4253
▁vaud	-10.4273
▁syllis	-10.4285
ná	-10.4285
ophi	-10.4296
▁alt	-10.4305
▁damo	-10.4325
zel	-10.4325
bru	-10.4337
châtel	-10.4358
cap	-10.4363
hypsibius	-10.4383
▁kor	-10.4394
▁york	-10.4408
=131	-10.4409
haute	-10.4417
▁nan	-10.442
sertularella	-10.4427
pos	-10.4431
▁las	-10.4432
fel	-10.4435
buhat	-10.4443
▁masovya	-10.4458
▁savoie	-10.4468
vier	-10.4471
eudendrium	-10.4483
▁aveyron	-10.4483
▁southern	-10.4485
pré	-10.4489
nie	-10.4507
▁1990.	-10.4508
olles	-10.4524
▁maranhão	-10.453
▁groß	-10.4531
▁carpenter	-10.4533
▁mississippi	-10.4533
uma	-10.4536
obranchus	-10.4536
grand	-10.4541
▁upat	-10.4551
–	-10.4554
▁opisyal	-10.4558
▁1905.	-10.4558
▁minuta	-10.4558
▁pat	-10.4568
ovo	-10.4581
▁cour	-10.4585
=164	-10.4586
▁pang	-10.4589
▁mau	-10.4608
▁loir	-10.4631
▁colorado	-10.4634
▁kansas	-10.4635
tub	-10.4643
▁lea	-10.4654
nor	-10.4659
▁lazio	-10.4659
kur	-10.4665
▁pol	-10.4677
▁municipality	-10.468
stylaster	-10.4685
ert	-10.4688
conus	-10.4691
▁hira	-10.4695
cana	-10.4705
isohypsibius	-10.4709
calliostoma	-10.471
▁extremadura	-10.471
▁paraíba	-10.471
mitrella	-10.471
pista	-10.4727
vaux	-10.4729
isi	-10.4729
vers	-10.473
ef	-10.4731
▁1866	-10.4741
kita	-10.4746
aricidea	-10.4762
alvania	-10.4762
▁smith	-10.4762
▁moore	-10.4778
▁pero	-10.478
▁salog	-10.4791
clymene	-10.4812
▁xi	-10.4813
▁1908.	-10.4814
tikang	-10.4829
okres	-10.4843
▁see	-10.4847
hadi	-10.4852
▁costa	-10.486
▁switzerland	-10.4865
▁žilina	-10.4865
aure	-10.4873
gran	-10.4873
tul	-10.4883
hard	-10.4894
romagna	-10.4895
hatag	-10.4904
dara	-10.4907
dagat	-10.4917
▁gregoriano	-10.4917
▁mangulo	-10.4922
gl	-10.4932
▁mayo	-10.4937
=151	-10.4943
▁1984	-10.4948
▁vlaams	-10.497
▁iowa	-10.497
zza	-10.4971
ere	-10.4974
chal	-10.4979
ská	-10.4989
pili	-10.499
uela	-10.4993
▁adams	-10.4996
▁1910.	-10.4997
age	-10.4997
▁antarctica	-10.5022
▁gatostuig	-10.5022
▁nadudultan	-10.5022
montipora	-10.5023
insky	-10.5032
tion	-10.5044
▁singbahan	-10.5049
fol	-10.5068
jou	-10.507
kulang	-10.507
▁gol	-10.5071
phil	-10.5074
villiers	-10.5075
▁galicia	-10.5075
▁cham	-10.5082
rem	-10.5089
▁mou	-10.5089
▁harmothoe	-10.5094
▁sardinya	-10.5102
▁fra	-10.5109
thor	-10.5117
▁pam	-10.5136
▁johan	-10.5138
▁gulf	-10.5156
▁dar	-10.5157
▁unionidae	-10.5159
zów	-10.517
pionosyllis	-10.5182
▁don	-10.5185
▁sant	-10.519
▁1927	-10.5193
▁pinaka	-10.5215
▁cras	-10.5223
alle	-10.5229
lmar	-10.523
▁sil	-10.5232
clytia	-10.5236
ming	-10.5239
▁cho	-10.5241
nov	-10.5243
▁turin	-10.5247
▁bisan	-10.5251
colus	-10.5255
▁charopidae	-10.5263
▁wisconsin	-10.5263
eiro	-10.5264
tiko	-10.5264
▁enero	-10.5294
glia	-10.5303
▁bulan	-10.5317
kilala	-10.532
plan	-10.5334
▁australis	-10.5345
▁zaragoza	-10.5345
▁mcintosh	-10.5372
▁dako	-10.5373
buccinum	-10.5399
▁onuphidae	-10.5399
▁kilalado	-10.5399
vre	-10.5401
ngan	-10.5405
▁italy	-10.5417
aff	-10.5424
acanthochitona	-10.5427
▁teuthida	-10.5427
▁vendée	-10.5427
uusa	-10.5448
▁day	-10.545
hor	-10.5456
▁ikalima	-10.5457
▁agi	-10.5459
▁quin	-10.5461
vu	-10.547
▁fauchald	-10.551
osse	-10.5516
▁rosa	-10.5522
▁ferr	-10.5525
bang	-10.5526
▁rou	-10.5532
sthenelais	-10.5538
▁zealand	-10.5538
▁datos	-10.5539
tsch	-10.5545
tour	-10.5552
hydra	-10.5552
▁corrèze	-10.5565
▁nutting	-10.5565
natawag	-10.5565
yu	-10.5566
tay	-10.5608
▁bulgarya	-10.5621
▁cnidaria	-10.5621
ssac	-10.5627
guin	-10.5633
asco	-10.5635
ua	-10.5641
katloan	-10.565
▁arc	-10.5654
▁serpula	-10.5657
gri	-10.5664
▁plat	-10.5669
▁cairns	-10.5678
▁lumbrineris	-10.5691
▁chu	-10.5692
hydroides	-10.5693
illac	-10.5694
év	-10.5704
▁simplex	-10.5706
▁1864.	-10.5706
sept	-10.5718
atlant	-10.5719
▁sha	-10.5722
▁katoliko	-10.5734
▁sistema	-10.5734
▁oregon	-10.5734
▁1879.	-10.5734
▁mc	-10.5752
cara	-10.5756
allo	-10.576
ew	-10.5761
minor	-10.5763
ilo	-10.5779
mir	-10.5781
▁valencia	-10.5783
ochaeta	-10.5785
▁lei	-10.5787
lov	-10.5789
én	-10.5804
nna	-10.5817
▁adige	-10.582
▁powell	-10.5823
▁bay	-10.5826
▁wo	-10.5834
grania	-10.5836
tun	-10.5837
scoloplos	-10.5848
▁californica	-10.5848
▁ihap	-10.5858
▁main	-10.5866
kha	-10.5869
gay	-10.5869
hai	-10.5871
asse	-10.5876
caryophyllia	-10.5877
▁yvelines	-10.5877
yano	-10.5907
mira	-10.5928
gil	-10.5934
▁gidako	-10.5936
loup	-10.5937
vil	-10.5939
reuil	-10.5944
andré	-10.5945
▁spe	-10.5952
▁nebraska	-10.5964
▁ohio	-10.5964
▁dom	-10.5964
physa	-10.5968
▁rioja	-10.5973
franc	-10.5974
▁casa	-10.599
pyrgulopsis	-10.5993
scolelepis	-10.5993
sonorella	-10.5993
ová	-10.6001
ã	-10.6003
ihap	-10.6009
=159	-10.6013
▁economic	-10.6022
▁pagdu	-10.6025
field	-10.6027
▁prefektura	-10.605
▁hydrobiidae	-10.6051
▁trentino	-10.6051
▁1991.	-10.6051
▁champ	-10.6053
▁voivodato	-10.6057
▁poli	-10.606
zier	-10.6062
▁by	-10.607
fl	-10.607
lot	-10.6077
laurent	-10.608
▁lublin	-10.6081
rain	-10.6082
▁sea	-10.6091
wang	-10.6097
▁pinaagi	-10.611
▁1906.	-10.611
marionina	-10.6111
belle	-10.6123
▁poy	-10.6129
corse	-10.6143
pru	-10.6151
clav	-10.6155
nec	-10.616
▁nagin	-10.6164
südtirol	-10.6169
igné	-10.618
abot	-10.6185
nice	-10.6189
hof	-10.6197
▁creuse	-10.6199
▁mayenne	-10.6201
loph	-10.6218
noy	-10.622
lang	-10.6222
rre	-10.6235
▁linea	-10.6238
▁lang	-10.6239
alcyonium	-10.6258
▁agsob	-10.6258
caecum	-10.6259
helminthoglypta	-10.6264
ort	-10.627
arg	-10.6276
quin	-10.6278
rov	-10.6278
▁rho	-10.6282
cirratulus	-10.6288
▁epi	-10.6302
▁veron	-10.6302
ault	-10.6312
far	-10.6329
bulan	-10.633
▁rico	-10.633
ča	-10.6334
mag	-10.6334
▁kaagi	-10.6335
▁chile	-10.6339
aphrodita	-10.6348
▁carlgren	-10.6348
roche	-10.6351
▁spirorbis	-10.6357
rang	-10.636
hagen	-10.6362
125	-10.6371
ctenocella	-10.6379
eteone	-10.638
illé	-10.6381
petit	-10.6394
gun	-10.6395
▁buccinidae	-10.6409
▁augustus	-10.6409
eau	-10.6413
▁aves	-10.6418
▁natawo	-10.6436
ento	-10.6439
▁caryophylliidae	-10.6439
▁durudak	-10.6439
▁tennessee	-10.6439
▁1979.	-10.644
quar	-10.6442
ation	-10.6452
▁1911	-10.6454
▁fili	-10.6457
ków	-10.6466
▁guadalajara	-10.647
chone	-10.6471
way	-10.6472
▁mega	-10.6486
▁kh	-10.6486
vern	-10.6488
▁il	-10.6497
cadulus	-10.6531
celles	-10.654
tilla	-10.6545
emi	-10.655
sabellaria	-10.656
hart	-10.656
drillia	-10.6562
cladocarpus	-10.6562
thelepus	-10.6562
▁bolivia	-10.6562
▁robusta	-10.6562
▁teritoryal	-10.6562
▁dra	-10.6567
▁zone	-10.6569
michel	-10.6575
▁maldanidae	-10.6593
▁ávila	-10.6593
bun	-10.6596
▁nagtikang	-10.6597
lista	-10.6614
▁villar	-10.6615
▁mato	-10.6616
balanophyllia	-10.6624
ophryotrocha	-10.6624
crassispira	-10.6624
maurice	-10.6624
▁thomas	-10.6624
▁albert	-10.6635
powi	-10.6641
▁sabella	-10.6652
▁mill	-10.6655
castel	-10.6684
▁arkansas	-10.6686
▁grosso	-10.6686
color	-10.6697
mati	-10.6707
moon	-10.6714
away	-10.6728
acanthogorgia	-10.6748
siboglinum	-10.6748
▁finistère	-10.6748
ár	-10.6749
uer	-10.6772
littorina	-10.678
▁morbihan	-10.678
gadila	-10.6783
▁star	-10.6787
nais	-10.6797
cour	-10.6797
roth	-10.6798
▁far	-10.6802
▁1878.	-10.6812
▁sto	-10.682
▁ji	-10.6828
▁kahaluag	-10.6832
lobophytum	-10.6843
▁trenčín	-10.6843
provence	-10.6847
mühl	-10.6847
▁pomeranya	-10.6849
yal	-10.6853
▁esp	-10.6858
lakip	-10.686
wen	-10.6867
▁abruzzo	-10.6875
▁blake	-10.6875
natawo	-10.6879
▁abril	-10.6881
aci	-10.6886
▁octopus	-10.6888
ndorf	-10.6895
elia	-10.6897
▁kri	-10.6897
amphitrite	-10.6907
chrysogorgia	-10.6907
olavius	-10.6907
▁gewest	-10.6907
▁lou	-10.6908
edwardsia	-10.6916
▁oktubre	-10.6916
tok	-10.6918
horst	-10.6936
▁kinatsila	-10.6939
▁ł	-10.6939
▁oscar	-10.694
▁marso	-10.6954
tat	-10.6954
▁nieder	-10.6962
roux	-10.697
▁henrik	-10.6971
ning	-10.6977
▁frank	-10.6979
▁sou	-10.698
▁hen	-10.698
kuha	-10.6982
ador	-10.6983
▁chan	-10.6988
catu	-10.7002
mudlok	-10.7003
▁voivodeship	-10.7003
▁1758.	-10.7003
▁all	-10.7008
▁tam	-10.7018
▁exclusiv	-10.7035
▁lumbrineridae	-10.7035
▁muricidae	-10.7035
polycirrus	-10.7035
miya	-10.704
▁vietnam	-10.7067
▁1981.	-10.7068
▁vasco	-10.7069
=250	-10.707
▁sim	-10.707
▁disyembre	-10.7073
▁amerikano	-10.7074
arn	-10.7086
ché	-10.71
coryne	-10.7102
doris	-10.7108
kra	-10.7112
▁mai	-10.7114
▁monro	-10.7128
▁augener	-10.7132
▁trento	-10.7133
trophon	-10.7137
paul	-10.7157
▁typosyllis	-10.7161
▁phyllodoce	-10.7165
▁comp	-10.7166
mau	-10.7166
▁gui	-10.7167
rho	-10.7173
▁kalawdan	-10.7198
balaod	-10.7198
marie	-10.7213
pino	-10.7222
=163	-10.7223
▁1913	-10.723
limnodriloides	-10.7231
▁fragilis	-10.7231
▁trnava	-10.7231
▁cuneo	-10.7231
cladiella	-10.7231
▁hja	-10.7249
mari	-10.7259
notoplax	-10.7264
▁kilometro	-10.7264
▁tocantins	-10.7264
willer	-10.729
tomopteris	-10.7297
▁ampharetidae	-10.7297
▁1978.	-10.7297
saki	-10.7298
▁2003.	-10.7303
▁cáceres	-10.733
▁ikatulo	-10.733
chlamys	-10.733
▁1907.	-10.733
discus	-10.7331
eder	-10.734
tungod	-10.7342
lich	-10.7349
▁asya	-10.7349
gda	-10.7354
▁tyrol	-10.7364
▁navarra	-10.7364
▁1965.	-10.7364
uze	-10.7364
roi	-10.7367
▁iii	-10.7373
georges	-10.7373
▁hulyo	-10.7374
nou	-10.738
julien	-10.7381
▁kükenthal	-10.7397
▁polygyridae	-10.7397
▁1881	-10.7401
seine	-10.7404
lieu	-10.7405
vienne	-10.7418
▁intermedia	-10.7431
▁indian	-10.7444
▁toledo	-10.7464
▁lamarck	-10.7464
level	-10.7478
tana	-10.7486
aglaophamus	-10.7498
▁parva	-10.75
cri	-10.751
▁kundi	-10.7511
user	-10.7513
▁atlantica	-10.7532
▁toscana	-10.7532
▁1972.	-10.7532
hua	-10.7537
terra	-10.7541
▁stein	-10.7544
brunn	-10.755
mento	-10.7553
▁acropora	-10.7556
nel	-10.7557
▁zamora	-10.7566
▁nobyembre	-10.7577
▁real	-10.7583
estado	-10.7584
alia	-10.7599
▁fauvel	-10.76
▁1937	-10.7609
▁marche	-10.7613
damo	-10.7617
▁gray	-10.762
magelona	-10.7634
gü	-10.7638
west	-10.7656
="250	-10.7663
▁puro	-10.7663
▁turridae	-10.7669
▁łód	-10.7669
▁hiyá	-10.7669
▁hunyo	-10.7669
charopa	-10.7669
marc	-10.7676
▁joseph	-10.77
▁valde	-10.77
ndre	-10.7701
flabellum	-10.7703
▁octopoda	-10.7703
▁tardigrada	-10.7703
eunoe	-10.7705
lago	-10.7708
▁sepia	-10.7713
=161	-10.7714
▁bayer	-10.7715
denis	-10.773
▁pito	-10.7735
▁gould	-10.7738
▁pulong	-10.7743
▁roche	-10.7764
▁shi	-10.7769
orientales	-10.7772
▁winaray	-10.7772
thuiaria	-10.7773
▁1884	-10.7779
▁lor	-10.7782
▁gru	-10.7785
▁mahi	-10.78
▁pho	-10.7802
▁francis	-10.7803
▁austrya	-10.7807
bie	-10.7815
dendr	-10.7819
aubin	-10.7827
neuf	-10.7841
▁cuenca	-10.7842
▁enchytraeidae	-10.7842
▁pennsylvania	-10.7842
▁thomson	-10.7842
▁1900.	-10.7844
▁api	-10.7865
▁polynoe	-10.7869
euphrosine	-10.7877
▁unibersidad	-10.7878
▁1988	-10.7883
▁thu	-10.7889
blanc	-10.7896
▁ramos	-10.7897
uff	-10.7902
▁philippi	-10.7904
▁jan	-10.7908
tubificoides	-10.7913
stetten	-10.7913
▁karat	-10.7928
myzostomum	-10.7948
▁1986.	-10.7948
▁wald	-10.7951
tik	-10.7978
▁sierra	-10.7983
▁1971.	-10.7984
christ	-10.7986
scheid	-10.7987
▁aust	-10.8004
▁ngada	-10.8012
teuthis	-10.8016
purô	-10.802
▁unom	-10.8022
aryo	-10.8023
ambo	-10.8032
▁2,	-10.8035
▁1997.	-10.8055
arion	-10.8057
▁1987.	-10.8057
tau	-10.8059
mie	-10.8061
fron	-10.8089
▁sowerby	-10.809
▁valladolid	-10.809
balhin	-10.8095
oscolex	-10.8105
▁chau	-10.812
atlantique	-10.8122
▁henderson	-10.8126
mü	-10.8137
orum	-10.8147
sabi	-10.8147
ensya	-10.8148
upay	-10.8158
▁kapuropod	-10.8163
▁oklahoma	-10.8163
▁aargau	-10.8163
cion	-10.8165
ovsky	-10.8175
▁myzostoma	-10.8177
iva	-10.818
katundan	-10.8189
▁thi	-10.82
victor	-10.8213
bug	-10.8216
▁hiton	-10.8228
▁kinberg	-10.8228
▁sugbo	-10.8233
▁scyphozoa	-10.8235
▁tokyo	-10.8235
adi	-10.8263
▁bergamo	-10.8272
▁apulia	-10.8272
colomb	-10.829
chu	-10.8306
nephthea	-10.8308
▁bour	-10.8308
▁gobyerno	-10.8308
▁rissoidae	-10.8308
opalia	-10.8309
▁sinularia	-10.8325
lida	-10.8335
▁cros	-10.8338
duc	-10.8343
vent	-10.8344
prüm	-10.8345
▁agosto	-10.8345
▁pebrero	-10.8357
▁watson	-10.8382
▁1998.	-10.8382
▁pope	-10.8387
▁robert	-10.839
tek	-10.8412
calli	-10.8413
▁pernambuco	-10.8419
vincent	-10.8419
▁madrid	-10.8419
kovce	-10.8428
dame	-10.8437
▁dana	-10.8438
pope	-10.8441
valle	-10.8448
chromonephthea	-10.8456
▁aglaopheniidae	-10.8456
▁borealis	-10.8456
siphonogorgia	-10.8457
=150	-10.8457
meso	-10.846
pio	-10.8473
▁tuna	-10.8474
▁montana	-10.8475
▁indica	-10.8486
glan	-10.8491
potamilla	-10.8493
▁elongata	-10.8493
▁teruel	-10.8493
▁wallonie	-10.8493
▁ilarom	-10.8493
nothria	-10.8494
▁1993.	-10.8494
aire	-10.8516
▁fun	-10.8526
notomastus	-10.8531
▁ernst	-10.8531
▁1985.	-10.8531
lower	-10.8537
▁una	-10.8559
nemertesia	-10.8568
▁país	-10.8569
gul	-10.8599
lora	-10.8602
auge	-10.8604
▁iredale	-10.8606
▁studer	-10.8606
▁alabama	-10.8606
▁stylasteridae	-10.8606
▁albi	-10.8614
▁yu	-10.8618
▁sun	-10.8622
gari	-10.8623
ovsk	-10.8627
oti	-10.863
▁4,	-10.8632
porites	-10.8645
▁louisiana	-10.8646
▁sertularella	-10.8653
▁iv	-10.8662
▁tour	-10.8664
arti	-10.8675
▁burgenland	-10.8682
▁miguel	-10.8682
ampharete	-10.8682
▁1960.	-10.8685
nière	-10.8695
echin	-10.872
phellia	-10.8721
mol	-10.8721
▁sel	-10.8724
▁grandis	-10.8729
vir	-10.8732
rado	-10.8733
▁pira	-10.8739
lino	-10.8747
bella	-10.8754
odontosyllis	-10.8759
▁teritoryo	-10.8759
nassarius	-10.8759
▁trochidae	-10.8759
▁bitburg	-10.8759
▁1846.	-10.8759
▁1938.	-10.8761
▁novo	-10.8765
▁crassa	-10.8773
atan	-10.8774
▁grand	-10.8775
▁font	-10.8779
try	-10.8786
ish	-10.8786
baba	-10.8793
▁dubia	-10.8802
▁metro	-10.8811
lepidozona	-10.8836
tentaculata	-10.8836
▁lleida	-10.8836
=125	-10.8842
▁pina	-10.8862
pita	-10.8862
maldane	-10.8868
enda	-10.8868
lach	-10.8872
▁gorgoniidae	-10.8874
epitonium	-10.8874
▁essonne	-10.8874
▁septyembre	-10.8875
ft	-10.8875
ancourt	-10.8886
oxy	-10.8886
uges	-10.89
zygophylax	-10.8913
pherusa	-10.8913
▁nagka	-10.8922
lepidasthenia	-10.8952
▁internet	-10.8953
prefektura	-10.8954
▁guin	-10.898
▁von	-10.8995
▁1,	-10.8996
▁1861	-10.8998
▁cass	-10.9
owo	-10.9007
loligo	-10.901
jon	-10.9021
horn	-10.9029
pecten	-10.9031
▁1904	-10.9044
kul	-10.9046
phyllo	-10.9046
▁trans	-10.9059
pf	-10.9062
thur	-10.9069
▁isohypsibius	-10.9073
ignano	-10.9093
mini	-10.9096
▁amerika	-10.9103
▁pará	-10.9103
dorvillea	-10.911
▁friuli	-10.9111
▁alta	-10.9111
cingula	-10.9111
fin	-10.9112
▁sulod	-10.9114
bungto	-10.9114
range	-10.9123
▁palma	-10.9127
alba	-10.9139
=149	-10.9142
publiko	-10.915
▁antioquia	-10.915
hilaire	-10.915
▁lozère	-10.915
▁tho	-10.915
neville	-10.915
▁fraser	-10.9151
▁bukid	-10.9151
▁km	-10.9151
▁francisco	-10.9155
cken	-10.919
▁acroporidae	-10.919
▁cirratulidae	-10.919
▁guruguti	-10.919
olivella	-10.9191
bello	-10.9199
pseud	-10.9205
▁pettibone	-10.9221
ese	-10.9222
▁occidental	-10.9223
campanularia	-10.923
sarcophyton	-10.923
▁giulia	-10.923
incourt	-10.9258
▁mesnil	-10.9259
uca	-10.9264
▁alaska	-10.9271
éville	-10.9272
▁sidlangan	-10.928
ède	-10.9281
▁fri	-10.9306
protula	-10.9316
2003	-10.9316
▁charles	-10.9319
▁soria	-10.932
terre	-10.9322
ophelia	-10.9327
▁code	-10.9328
gliano	-10.9331
▁country	-10.9352
▁primnoidae	-10.9352
▁santander	-10.9352
agny	-10.9355
▁granada	-10.9356
▁bir	-10.937
▁hesionidae	-10.9392
▁pagdudumara	-10.9392
▁siyudad	-10.9392
▁ceará	-10.9392
▁liguria	-10.9392
▁europa	-10.9393
▁1865	-10.9401
▁imperyo	-10.9433
▁1977.	-10.9434
▁clark	-10.9436
bir	-10.9465
▁fran	-10.9467
zé	-10.9467
quer	-10.9471
▁kada	-10.9474
▁imajima	-10.9475
▁vervoort	-10.9475
▁huesca	-10.9475
goniada	-10.9475
aquila	-10.9478
▁espanyol	-10.9516
▁giovanni	-10.9516
▁hypsibiidae	-10.9516
▁segovia	-10.9516
▁1903.	-10.9516
▁1974.	-10.9516
▁domain	-10.9517
▁brevis	-10.9519
▁minor	-10.9524
▁kro	-10.9543
▁hem	-10.9553
redirect	-10.9557
spongodes	-10.9557
▁brescia	-10.9558
▁saale	-10.9577
▁hydroides	-10.9578
villar	-10.9579
mitra	-10.9597
issa	-10.9599
▁1902.	-10.96
buch	-10.9623
bruck	-10.9634
phrixgnathus	-10.9641
croix	-10.9646
pey	-10.9654
▁bush	-10.966
puro	-10.9668
▁unter	-10.9671
amphinome	-10.9683
▁manunurat	-10.9683
▁gyera	-10.9683
anachis	-10.9686
▁butang	-10.97
▁asper	-10.97
uille	-10.9708
owice	-10.9711
étienne	-10.9725
▁pakli	-10.9725
▁1973.	-10.9726
▁1962.	-10.9726
▁parokya	-10.9728
▁idaho	-10.9733
▁berry	-10.9738
tigny	-10.9742
ignan	-10.9756
▁nagpa	-10.9758
kir	-10.9759
▁horn	-10.9767
nephthys	-10.9768
▁kultura	-10.9768
▁maculata	-10.9768
acmaea	-10.9768
▁1968.	-10.9768
▁1897.	-10.9768
▁1834	-10.9778
▁korea	-10.9778
▁brun	-10.9791
▁marshall	-10.981
▁1992.	-10.9811
▁wolf	-10.9811
mbach	-10.9816
▁sepiida	-10.982
prin	-10.9832
▁porto	-10.9837
▁nagpapa	-10.9839
branchiomma	-10.9853
▁2002.	-10.9853
▁1982.	-10.9853
eledone	-10.9859
▁super	-10.9869
=140	-10.9891
▁laevis	-10.9896
▁daniel	-10.9896
rivière	-10.9896
cell	-10.9903
cie	-10.991
raion	-10.9932
▁solem	-10.9938
▁columbellidae	-10.9939
▁1989.	-10.9939
rico	-10.9953
▁johnson	-10.9962
▁tixier	-10.9982
klein	-10.9982
▁fribourg	-10.9983
▁1944.	-10.9983
▁1959.	-10.9985
dako	-11.0022
▁suter	-11.0023
pectin	-11.0029
▁cauca	-11.0029
gru	-11.0033
▁gera	-11.004
inho	-11.0065
▁gustaf	-11.0069
puy	-11.0099
=157	-11.0099
zoanthus	-11.011
venezia	-11.0113
▁negros	-11.0113
▁1901.	-11.0114
▁1912.	-11.0115
witz	-11.0131
markt	-11.0134
gara	-11.0146
▁oriental	-11.015
="133	-11.0151
nucula	-11.0151
▁1999.	-11.0158
cardium	-11.0158
▁1868	-11.0164
bosc	-11.0179
rhône	-11.0179
file	-11.018
▁now	-11.0186
▁alan	-11.0189
lumbriconereis	-11.0201
▁westerwaldkreis	-11.0201
▁río	-11.0201
▁pallida	-11.0202
vieux	-11.0205
jones	-11.0226
▁magna	-11.0234
ousse	-11.0236
=133	-11.0238
velle	-11.0245
▁alessandria	-11.0246
▁dentaliidae	-11.0246
▁sibogae	-11.0246
▁hutchings	-11.0291
▁sum	-11.0293
departamento	-11.0315
vigny	-11.0325
▁aada	-11.0333
ammotrypane	-11.0335
palythoa	-11.0335
four	-11.0339
▁green	-11.034
dingen	-11.035
ouville	-11.0356
ník	-11.0367
="140	-11.0368
▁bö	-11.037
▁26	-11.0376
tov	-11.0377
▁brit	-11.038
laeospira	-11.038
lytocarpia	-11.038
urban	-11.0392
trich	-11.0397
muricea	-11.0415
asso	-11.0416
▁espírit	-11.0426
▁1961.	-11.0426
haut	-11.0435
zzano	-11.0438
▁sor	-11.044
ete	-11.0443
arch	-11.0456
amphicteis	-11.0471
gymnangium	-11.0471
halosydna	-11.0471
▁formosa	-11.0471
▁1967.	-11.0472
▁conrad	-11.0475
spiro	-11.0476
▁dist	-11.0495
oso	-11.0504
tuba	-11.0509
▁sé	-11.0511
▁28	-11.0517
▁massachusetts	-11.0517
▁partido	-11.0517
▁marcus	-11.052
epizoanthus	-11.0524
aucourt	-11.0544
▁len	-11.0554
▁palencia	-11.0563
▁kasaysayan	-11.0568
▁cebu	-11.0576
▁1842	-11.0576
▁baker	-11.0579
=135	-11.0596
ungan	-11.0596
mystides	-11.0609
▁1970.	-11.0609
sumpay	-11.0609
brabant	-11.0611
▁nueva	-11.0612
šov	-11.0614
acabaria	-11.0655
▁kuyav	-11.0655
lagisca	-11.0655
ivault	-11.0655
▁1983.	-11.0655
▁striata	-11.0658
▁manila	-11.0659
heterodrilus	-11.066
bour	-11.0671
randa	-11.0675
▁taga	-11.0681
▁cala	-11.0694
▁1917.	-11.0706
off	-11.0708
▁pavia	-11.0714
argent	-11.0733
▁leon	-11.0738
oreohelix	-11.0748
▁octopodidae	-11.0748
triodopsis	-11.0748
▁tubig	-11.0749
este	-11.0754
▁ginhimo	-11.0778
▁helminthoglypt	-11.0786
ukoy	-11.0787
fissidentalium	-11.0795
▁podkarpacie	-11.0795
phallodrilus	-11.0795
▁tigaman	-11.0795
▁franses	-11.0796
pectinaria	-11.0796
▁wu	-11.0827
zano	-11.0833
▁badajoz	-11.0842
▁capitellidae	-11.0842
▁dorvilleidae	-11.0842
▁gawas	-11.0843
▁armand	-11.0851
angan	-11.087
aricia	-11.0874
sinirangan	-11.0877
pleurobema	-11.089
margarites	-11.089
▁chilensis	-11.089
▁gresya	-11.089
▁1877	-11.0897
▁kadam	-11.09
▁walo	-11.09
▁1870	-11.0901
hydr	-11.0904
astarte	-11.0904
yun	-11.0915
▁arctica	-11.0915
écourt	-11.0928
▁ginsasapit	-11.0937
▁como	-11.0946
▁clava	-11.0967
kom	-11.097
marcel	-11.0979
paravitrea	-11.0985
callochiton	-11.0985
▁1883	-11.0991
mut	-11.1002
hito	-11.1006
▁brach	-11.1013
sankt	-11.1023
rose	-11.1025
▁baybayon	-11.1033
▁boyacá	-11.1033
▁presidente	-11.1033
▁1966.	-11.1034
▁maría	-11.1038
▁isabel	-11.1045
chaetopterus	-11.1052
ninoe	-11.107
▁federal	-11.1082
▁1898.	-11.1082
▁joão	-11.1083
stephan	-11.1087
▁1882	-11.1089
157	-11.1106
novo	-11.1117
cuspidaria	-11.113
▁jeffreys	-11.113
▁agassiz	-11.113
▁utah	-11.113
▁spain	-11.1132
kusog	-11.1135
mali	-11.1141
▁rayon	-11.1144
▁vega	-11.1144
pisione	-11.1144
▁milan	-11.1163
pomeranya	-11.117
mangulo	-11.117
terebellides	-11.1179
▁treadwell	-11.1179
▁turkeya	-11.1179
▁zürich	-11.1179
gorgonia	-11.1183
▁bohol	-11.1186
lahn	-11.1187
comb	-11.1192
uard	-11.1214
▁tarragona	-11.1228
▁mehiko	-11.1228
cymatium	-11.1228
maria	-11.1234
kinbergonuphis	-11.1246
▁castell	-11.1259
anthopleura	-11.1277
▁graubünden	-11.1277
ignon	-11.128
▁1918.	-11.1282
▁1924.	-11.1282
bains	-11.1289
lent	-11.1308
abietinaria	-11.1327
▁gintukod	-11.1327
bittium	-11.1327
dorididae	-11.1327
▁ornata	-11.1327
▁1939.	-11.1327
▁allman	-11.1333
2357	-11.1334
cysti	-11.1336
elliptio	-11.1376
macellicephala	-11.1376
▁quatrefages	-11.1376
▁reeve	-11.1377
▁rené	-11.139
▁fusca	-11.1391
upod	-11.1395
duha	-11.1405
▁malay	-11.1416
▁similis	-11.1427
▁siyam	-11.1427
▁didto	-11.143
▁komp	-11.1431
gram	-11.1436
▁1890	-11.1437
ovec	-11.1454
ashmunella	-11.1477
somatogyrus	-11.1477
antalis	-11.1477
▁ticino	-11.1477
▁barugo	-11.1477
vertigo	-11.1478
▁foli	-11.1478
ningen	-11.1514
rehiyon	-11.1524
lemnalia	-11.1527
▁autonomo	-11.1527
alexandr	-11.1527
arenicola	-11.1527
▁nangangar	-11.1527
▁tabok	-11.1527
▁1880.	-11.1528
▁1995.	-11.1528
▁gravier	-11.1529
nuculana	-11.1536
▁dam	-11.1539
▁rosea	-11.1548
▁castro	-11.1556
bougainvillia	-11.1578
diphascon	-11.1578
▁stimpson	-11.1578
açu	-11.1578
▁vaucluse	-11.1578
▁labaw	-11.1578
▁grupo	-11.1583
▁cuba	-11.1621
pleurotomella	-11.1629
sphaerodoropsis	-11.1629
▁verseveldt	-11.1629
▁muri	-11.1632
150	-11.1634
oriopsis	-11.1635
torre	-11.1642
▁floridana	-11.1647
beck	-11.1649
bahin	-11.166
succinea	-11.168
▁córdoba	-11.168
▁1928.	-11.1681
▁1964	-11.1689
▁1886	-11.1691
brie	-11.1693
▁johann	-11.1721
oster	-11.173
eurythoe	-11.1732
umgebung	-11.1732
▁kalibotan	-11.1732
▁ciudad	-11.1732
pali	-11.1741
èze	-11.1742
maison	-11.1748
▁1915	-11.175
sarsia	-11.176
▁politika	-11.1773
▁orbiniidae	-11.1784
▁plumulariidae	-11.1784
▁vizcaya	-11.1784
aspe	-11.1802
rissoina	-11.1836
▁zamboanga	-11.1836
▁pusilla	-11.1836
▁ngatanan	-11.184
▁siglo	-11.1846
▁krai	-11.1849
plexaura	-11.1861
burn	-11.1875
microphthalmus	-11.1888
rhagada	-11.1888
▁harris	-11.1892
chaetozone	-11.1941
▁gigantea	-11.1941
▁reticulata	-11.1941
▁variabilis	-11.1941
halopteris	-11.1941
importante	-11.1941
▁salzburg	-11.1941
groß	-11.1944
yang	-11.195
ching	-11.1958
skie	-11.1958
schwarz	-11.197
rupt	-11.1984
callistochiton	-11.1994
university	-11.1994
▁uschakov	-11.1994
bah	-11.1997
iglio	-11.2006
tunga	-11.2009
▁will	-11.2013
macoma	-11.2023
▁tak	-11.2042
stichopathes	-11.2047
▁opheliidae	-11.2047
▁rigida	-11.2047
▁pipira	-11.2047
▁milne	-11.2047
▁1933.	-11.2047
montagne	-11.2048
čany	-11.2053
▁frei	-11.2058
▁kamatay	-11.206
arda	-11.206
▁sarsi	-11.2085
baptiste	-11.21
dendrophylliidae	-11.21
▁actiniidae	-11.21
▁nagtukod	-11.21
▁bouche	-11.2104
▁hohen	-11.2108
▁rubi	-11.2122
drilonereis	-11.2154
streblosoma	-11.2154
▁affinis	-11.2154
▁cundinamarca	-11.2154
▁gadilidae	-11.2154
▁mirabilis	-11.2154
▁wright	-11.2154
▁martín	-11.2154
▁viridis	-11.2154
▁1914.	-11.2159
lensia	-11.2163
▁rubra	-11.2168
▁1916.	-11.2212
léger	-11.2214
campo	-11.2261
eatoniella	-11.2262
lepidochitona	-11.2262
solariella	-11.2263
▁spinosa	-11.2263
capitella	-11.2263
orbigny	-11.2263
▁mang	-11.2264
ussy	-11.2291
agnac	-11.2302
▁rendsburg	-11.2317
world	-11.2317
platynereis	-11.2317
pyrg	-11.2323
buhi	-11.2333
onda	-11.2335
nieder	-11.2339
langen	-11.2343
▁1876	-11.2352
front	-11.2363
▁amphinomidae	-11.2372
▁australiensis	-11.2372
▁salerno	-11.2372
▁armata	-11.2382
gué	-11.2399
utob	-11.2407
▁jun	-11.2411
▁provide	-11.2419
notre	-11.2421
bothriembryon	-11.2427
▁ekonomiya	-11.2427
▁siboglinidae	-11.2427
▁simpson	-11.2427
▁milyon	-11.2428
▁1899.	-11.2428
morpha	-11.2428
▁iran	-11.2435
pedi	-11.2462
▁roque	-11.2468
pacific	-11.2483
tuberculata	-11.2483
▁samtang	-11.2483
▁luzon	-11.2492
▁1893	-11.2494
nerilla	-11.2499
roda	-11.2526
heide	-11.253
corallium	-11.2539
eckernförde	-11.2539
enchytraeus	-11.2539
physella	-11.2539
▁1931.	-11.254
▁1850.	-11.254
murex	-11.2544
="128	-11.255
hanon	-11.2561
▁wiel	-11.2563
euplexaura	-11.2568
bong	-11.2583
▁elemento	-11.2595
▁1994.	-11.2596
▁americana	-11.2601
brania	-11.2607
tran	-11.2619
▁pleuroceridae	-11.2651
▁1980.	-11.2652
▁1940.	-11.2652
▁pachy	-11.2663
singen	-11.2673
idge	-11.2682
eusyllis	-11.269
▁flabelligeridae	-11.2708
sinumelon	-11.2708
▁sigalionidae	-11.2708
uilly	-11.2709
malmgreniella	-11.2709
▁1857.	-11.2709
mesnil	-11.2712
▁orientalis	-11.2717
▁karl	-11.2736
urog	-11.2743
▁balay	-11.2746
errière	-11.2748
▁reino	-11.2748
ific	-11.2753
aube	-11.2758
podarke	-11.2765
▁gingagamit	-11.2765
▁1936.	-11.2766
,000	-11.2769
▁1860.	-11.2769
▁unido	-11.2789
yakan	-11.2791
▁jose	-11.2794
kru	-11.2799
reuth	-11.2813
beaumont	-11.2821
chloeia	-11.2823
▁rimavsk	-11.2823
spirobranchus	-11.2823
▁1996.	-11.2823
▁haeckel	-11.2825
▁brown	-11.2825
▁paghimo	-11.2834
▁clapar	-11.2835
oderma	-11.2862
labot	-11.2871
▁marion	-11.2873
▁benedict	-11.2881
▁campanulariidae	-11.2881
▁1963.	-11.2881
linda	-11.2883
protodrilus	-11.2884
rieux	-11.2885
aclis	-11.2896
félix	-11.2939
thyasira	-11.2939
▁nahimutang	-11.2939
▁valais	-11.2943
▁politikal	-11.2951
▁1855	-11.2955
vigne	-11.2958
ngaran	-11.2976
constelasyon	-11.2997
sphaerospira	-11.2997
▁reggio	-11.2997
pyramid	-11.2997
▁richard	-11.2998
lucina	-11.2998
▁1887.	-11.3001
▁neuville	-11.3007
auguste	-11.3012
tokrzyskie	-11.3056
▁abyssicola	-11.3056
▁bréau	-11.3056
▁czeka	-11.3056
▁pourtal	-11.3056
fungia	-11.3058
▁anders	-11.3063
uvre	-11.3068
oeste	-11.3097
stagnicola	-11.3115
▁rebolusyon	-11.3115
▁oculata	-11.3115
bathydrilus	-11.3115
placogorgia	-11.3115
▁davao	-11.3115
▁janeiro	-11.3116
▁1921.	-11.3117
melon	-11.3117
melanella	-11.3117
▁neustadt	-11.3118
▁musika	-11.3119
▁hayop	-11.3121
muricella	-11.3132
allgäu	-11.3175
▁cosenza	-11.3175
▁jackson	-11.3175
▁castellón	-11.3176
▁union	-11.3191
lange	-11.3197
trypanosyllis	-11.3235
▁eskwelahan	-11.3235
hunsrück	-11.3235
▁ministro	-11.3235
▁luparan	-11.3235
▁namuno	-11.3235
▁1930.	-11.3236
▁gallen	-11.3236
▁victoria	-11.3239
▁rü	-11.3246
eunicella	-11.3248
barba	-11.3263
porma	-11.3266
crypthelia	-11.3295
lampsilis	-11.3295
▁katunaan	-11.3295
▁rallidae	-11.3295
triphora	-11.3295
▁santiago	-11.3295
aktedrilus	-11.3295
▁sobota	-11.3295
▁scott	-11.3295
fing	-11.3296
▁minima	-11.3297
▁cent	-11.3299
="158	-11.3329
tenui	-11.3331
▁doln	-11.3335
cerianthus	-11.3352
euchone	-11.3352
amphisbetia	-11.3356
▁isididae	-11.3356
jpg	-11.3356
près	-11.3356
▁quezon	-11.3356
▁chitonidae	-11.3356
▁1856.	-11.3356
euclymene	-11.3358
ménil	-11.3359
siring	-11.3364
▁opole	-11.3391
=128	-11.3402
▁africa	-11.3409
▁esper	-11.3411
▁fissurellidae	-11.3417
villogorgia	-11.3417
diodora	-11.3417
narella	-11.3417
▁1920.	-11.342
▁gór	-11.3421
serre	-11.3446
font	-11.3476
okolie	-11.3478
puncturella	-11.3478
▁heorhya	-11.3478
▁molupyo	-11.3478
▁schmarda	-11.3478
▁aprika	-11.3478
▁1975.	-11.3478
brada	-11.3516
gali	-11.3517
▁teres	-11.3522
▁kinabuhi	-11.354
▁punctata	-11.354
▁zonitidae	-11.354
syllides	-11.354
▁gmelin	-11.354
▁territo	-11.354
brück	-11.354
▁1956.	-11.354
corbula	-11.3542
▁2007	-11.3546
elektr	-11.3547
▁occidentalis	-11.355
august	-11.3551
▁peña	-11.3558
nicolas	-11.3568
teinostoma	-11.3602
▁marenzeller	-11.3602
▁sepiolida	-11.3602
masurya	-11.3602
▁1896.	-11.3602
▁varese	-11.3603
ilhac	-11.3605
▁africana	-11.361
ndar	-11.3629
èvre	-11.3631
▁rhode	-11.365
="119	-11.3655
goniobasis	-11.3664
▁solothurn	-11.3664
▁200.	-11.3666
owenia	-11.3673
clair	-11.37
more	-11.3705
pomatoceros	-11.3727
runcatoflabellum	-11.3727
trochocyathus	-11.3727
▁fimbria	-11.3727
▁wilhelm	-11.3727
▁brunnea	-11.3727
▁domingo	-11.3727
▁politiko	-11.3728
▁1948.	-11.3732
melinna	-11.3791
▁nové	-11.3795
▁1888	-11.3801
=158	-11.3829
léon	-11.3843
olive	-11.3849
attenuata	-11.3854
telmatactis	-11.3854
vermiliopsis	-11.3854
▁carinthia	-11.3854
▁republic	-11.3855
▁brook	-11.3858
▁1976.	-11.3859
▁1863	-11.3865
bamba	-11.3866
bulag	-11.3871
dugang	-11.3883
north	-11.3913
cambarincola	-11.3918
▁podlaskie	-11.3918
cuthona	-11.3918
▁pulchra	-11.3918
asychis	-11.3918
▁ilocos	-11.3918
vitrinella	-11.3918
pholoe	-11.3919
amphianthus	-11.3919
▁oliva	-11.392
datu	-11.3934
magne	-11.3969
antinoe	-11.3969
gattya	-11.3985
villosa	-11.3989
▁1873	-11.3995
logne	-11.4
chaetopleura	-11.4048
melithaea	-11.4048
pteroeides	-11.4048
▁nephtyidae	-11.4048
▁lauenburg	-11.4048
▁hickson	-11.4048
▁maryland	-11.4048
▁udine	-11.4048
▁picta	-11.4048
echinogorgia	-11.4048
▁1952.	-11.4049
baud	-11.4088
▁juli	-11.4092
glycinde	-11.4113
▁webster	-11.4113
▁1969.	-11.4113
▁1955.	-11.4114
▁molise	-11.4115
▁1841	-11.413
(	-11.4155
▁philip	-11.4171
î	-11.4179
caulleriella	-11.4179
pileolaria	-11.4179
▁iloilo	-11.4179
▁kimikal	-11.4179
▁belfort	-11.4182
eury	-11.4191
▁bull	-11.4196
hyalinoecia	-11.4245
▁bolívar	-11.4245
▁ferdinand	-11.4245
▁myzostomidae	-11.4245
▁laguna	-11.4246
admete	-11.4247
▁arthur	-11.425
bulig	-11.425
▁1791	-11.4252
balik	-11.4253
▁1871	-11.4258
eulima	-11.4261
▁ép	-11.4267
meuse	-11.4294
natica	-11.4306
synthecium	-11.4312
weiß	-11.4312
▁papillosa	-11.4312
▁cooper	-11.4312
▁syensya	-11.4313
neckar	-11.4314
▁lawas	-11.4317
▁tawag	-11.4319
▁sibil	-11.4321
butang	-11.4369
▁gidadako	-11.4379
diphasia	-11.4379
pacifigorgia	-11.4379
thouarella	-11.4379
▁alagoas	-11.4379
▁bardejov	-11.4379
▁cantabria	-11.4379
▁heyograpiya	-11.4379
▁nordfriesland	-11.4379
▁tellinidae	-11.4379
rhododrilus	-11.4379
polygyra	-11.4379
eumida	-11.438
▁chamberl	-11.4381
▁1922.	-11.4382
fabriciola	-11.4388
bronn	-11.4406
▁ehipto	-11.4416
boccardia	-11.4446
canthochitonidae	-11.4446
gyptis	-11.4446
poecilochaetus	-11.4446
▁berkeley	-11.4446
▁vitrinellidae	-11.4446
acteon	-11.4446
panthalis	-11.4447
medusa	-11.445
▁savigny	-11.4453
rossia	-11.4472
ugh	-11.4474
kowice	-11.4506
▁mindanao	-11.4514
▁faviidae	-11.4514
▁helicarionidae	-11.4514
travisia	-11.4514
thracia	-11.4515
moulin	-11.4524
▁antônio	-11.4583
▁veneridae	-11.4583
▁rugosa	-11.4583
solaster	-11.4583
▁namatay	-11.4583
▁jaén	-11.4586
▁sugbong	-11.4587
▁paggamit	-11.4597
▁1951	-11.4599
onoba	-11.4612
ograpiya	-11.4652
▁kreuznach	-11.4652
▁lubusz	-11.4652
▁altenkirchen	-11.4652
▁paraonidae	-11.4652
▁alfred	-11.4652
▁hancock	-11.4654
thesea	-11.4663
▁1833	-11.467
▁cook	-11.4677
acci	-11.4696
antoine	-11.4711
sigalion	-11.4721
boreotrophon	-11.4721
dendrophyllia	-11.4721
flensburg	-11.4721
spiophanes	-11.4721
▁kwadrado	-11.4721
tatawag	-11.4721
▁herzog	-11.4721
callogorgia	-11.4721
▁ginagamit	-11.4722
▁milya	-11.4722
▁pinili	-11.4725
schwei	-11.4725
▁1923.	-11.4728
just	-11.4738
evsky	-11.4741
serra	-11.4759
ubov	-11.4789
sauveur	-11.4791
büttel	-11.4791
echinomuricea	-11.4791
stenotrema	-11.4791
▁acicula	-11.4791
▁lucerne	-11.4791
▁tagsa	-11.4792
=119	-11.4808
voivodato	-11.4848
kastel	-11.486
bingen	-11.4861
▁dirudilain	-11.4862
▁carinata	-11.4862
▁1869.	-11.4862
▁tsino	-11.4862
▁antonio	-11.4863
calliactis	-11.4863
nicolea	-11.4864
▁1844	-11.4883
hebella	-11.4928
ectopleura	-11.4933
neptunea	-11.4933
psammolyce	-11.4933
▁abyssorum	-11.4933
▁pangasinan	-11.4933
▁surigao	-11.4933
▁xeniidae	-11.4933
▁haleciidae	-11.4933
astraea	-11.4939
rolle	-11.4968
staurotheca	-11.5004
▁acanthodrilidae	-11.5004
▁pellucida	-11.5004
▁stechow	-11.5004
gsirbe	-11.5004
christophe	-11.5005
▁langerhans	-11.5043
armandia	-11.5067
▁michael	-11.5075
yoldiella	-11.5076
▁dinastiya	-11.5076
▁pinulongan	-11.5076
▁caullery	-11.5076
▁friedrich	-11.5076
▁pamilya	-11.5076
▁laubier	-11.5076
maoridrilus	-11.5076
▁quadra	-11.5076
▁alegre	-11.5076
▁dagko	-11.5076
▁dinhi	-11.5076
▁1958.	-11.5077
leanira	-11.5077
▁danaw	-11.5082
▁1872	-11.5088
▁1862	-11.5091
▁arctic	-11.5111
vlaanderen	-11.5148
▁avellino	-11.5148
▁kerguelensis	-11.5148
▁turbinidae	-11.5148
corymorpha	-11.5148
église	-11.5148
▁stearns	-11.5148
▁modesta	-11.5149
▁angel	-11.5152
▁walker	-11.5152
gorsk	-11.5154
="126	-11.5206
fabricia	-11.5218
sclerocheilus	-11.5221
zanclea	-11.5221
▁binisaya	-11.5221
▁wyoming	-11.5221
▁sabellariidae	-11.5221
▁olanda	-11.5222
▁1932.	-11.5223
▁1843	-11.5242
▁nagdudu	-11.5271
passer	-11.5277
alaba	-11.5282
▁basilicata	-11.5295
polyodontes	-11.5295
vexillum	-11.5295
▁okrug	-11.5295
megalomma	-11.5295
▁ginngaranan	-11.5295
▁hutton	-11.5296
▁steinburg	-11.5298
▁malmgren	-11.5309
orbinia	-11.5312
ussac	-11.5341
cirriformia	-11.5369
▁antipathidae	-11.5369
▁cerithiopsidae	-11.5369
▁vicenza	-11.5369
▁taylor	-11.5369
ttingen	-11.5371
▁migrati	-11.5374
▁1895	-11.5389
▁1925	-11.5397
▁virgin	-11.5425
▁penna	-11.5435
chemnitzia	-11.5444
▁dithmarschen	-11.5444
▁fernando	-11.5444
▁irregularis	-11.5444
▁kalugaringon	-11.5444
gonaxia	-11.5444
chaetoderma	-11.5444
oswaldella	-11.5444
▁links	-11.5444
▁lanao	-11.5445
inanidrilus	-11.5446
▁gatos	-11.5447
ganesa	-11.5448
ucci	-11.5449
▁sevilla	-11.5454
arabella	-11.5478
▁america	-11.5511
cerithium	-11.5519
châtillon	-11.5519
dactylactis	-11.5519
deltocyathus	-11.5519
hydrodendron	-11.5519
▁gardineri	-11.5519
▁hedley	-11.5519
favia	-11.5529
mesodon	-11.5534
longue	-11.5542
sulpice	-11.5595
▁amazonas	-11.5595
▁skeneidae	-11.5595
▁napoles	-11.5595
▁1957.	-11.5595
▁1894.	-11.5595
▁montagu	-11.5599
janua	-11.5601
▁1852	-11.5625
parasabella	-11.5658
amplirhagada	-11.5671
namalycastis	-11.5671
rhamphobrachium	-11.5671
schizotricha	-11.5671
semotrachia	-11.5671
▁thompson	-11.5671
▁timugan	-11.5671
pisidium	-11.5671
prinsipe	-11.5671
▁billard	-11.5671
▁pablo	-11.5671
▁nová	-11.5672
yoldia	-11.5672
▁quoy	-11.5673
salacia	-11.5675
ugny	-11.5677
philine	-11.5677
fleur	-11.5721
romain	-11.5727
▁amihan	-11.5731
chapelle	-11.5747
acteocina	-11.5748
bougainvilliidae	-11.5748
plumarella	-11.5748
▁bolzano	-11.5748
▁liptovsk	-11.5748
▁coruña	-11.5748
▁vicente	-11.5748
musculus	-11.5748
▁benham	-11.5757
▁1835	-11.5766
asawa	-11.5778
nsac	-11.5797
="127	-11.581
distichopora	-11.5825
gastrocopta	-11.5825
glyphyalinia	-11.5825
myrianida	-11.5825
▁moscow	-11.5825
▁mytilidae	-11.5825
▁thailand	-11.5825
proceraea	-11.5825
lucilina	-11.5826
▁bouillon	-11.5827
▁1822.	-11.5829
polypus	-11.5832
blas	-11.5882
president	-11.5903
placostegus	-11.5903
▁aphroditidae	-11.5903
▁epitoniidae	-11.5903
▁eulimidae	-11.5903
▁namumutang	-11.5903
tharyx	-11.5903
▁caserta	-11.5903
▁inermis	-11.5904
▁taiwan	-11.5904
▁glabra	-11.5904
▁levice	-11.5904
▁annulata	-11.5904
▁1851.	-11.5904
▁brasiliensis	-11.5904
▁johnston	-11.5905
arene	-11.5945
crepidula	-11.5982
tubifex	-11.5982
▁potenza	-11.5982
▁gustav	-11.5982
terebra	-11.5983
ehl	-11.6039
nowy	-11.6043
=126	-11.6052
wittlich	-11.6062
▁atomika	-11.6062
▁cotabato	-11.6062
▁hydractiniidae	-11.6062
▁weinstraße	-11.6062
polyschides	-11.6062
▁sinurat	-11.6062
leptoxis	-11.6062
▁white	-11.6062
padayon	-11.6063
▁murray	-11.6064
▁flava	-11.6065
laonice	-11.6066
maxim	-11.6107
obranchiata	-11.6125
könig	-11.6142
flabelligera	-11.6142
ophiodromus	-11.6142
▁almería	-11.6142
▁asturias	-11.6142
▁birkenfeld	-11.6142
▁hormathiidae	-11.6142
▁nariño	-11.6142
▁peninsula	-11.6142
▁nevada	-11.6142
▁imperia	-11.6142
▁lecce	-11.6142
coralliodrilus	-11.6222
eupomatus	-11.6222
goniopora	-11.6222
smithsonidrilus	-11.6222
wahlkreis	-11.6222
▁variegata	-11.6222
▁habagatan	-11.6222
▁raymond	-11.6222
fossaria	-11.6222
holospira	-11.6222
;2013-03-1	-11.6222
amnicola	-11.6222
▁eisen	-11.6231
acanthogorgiidae	-11.6304
notopygos	-11.6304
rhynchus	-11.6304
▁indonesya	-11.6304
▁punctidae	-11.6304
▁vulkaneifel	-11.6304
▁alherya	-11.6304
aegires	-11.6304
▁pamaagi	-11.6304
▁messina	-11.6304
▁padua	-11.6304
▁1954.	-11.6305
▁unyon	-11.6308
house	-11.631
fried	-11.6323
paramuricea	-11.6324
eutima	-11.6353
="120	-11.6359
simpl	-11.6369
idanthyrsus	-11.6385
▁lafoeidae	-11.6385
▁mexicana	-11.6385
▁michalovce	-11.6385
phelliactis	-11.6385
▁humilis	-11.6385
▁saitama	-11.6386
dukwag	-11.6386
▁1849.	-11.6387
▁michaelsen	-11.6387
hesione	-11.6391
▁camarines	-11.6468
▁halopterididae	-11.6468
▁pectinata	-11.6468
sabellides	-11.6468
tubularia	-11.6468
▁cremona	-11.6468
▁1934.	-11.6469
▁russell	-11.6469
▁malaysia	-11.647
;2012-12-	-11.6471
manuel	-11.6472
bursa	-11.6499
diplodonta	-11.6551
kinahanglan	-11.6551
schistomeringos	-11.6551
▁griyego	-11.6551
▁jersey	-11.6551
▁violacea	-11.6551
ophelina	-11.6551
▁fallax	-11.6551
▁pectinidae	-11.6552
▁1867.	-11.6552
▁pietro	-11.6553
▁inflata	-11.6553
trabaho	-11.6556
tegula	-11.6565
höf	-11.6623
faye	-11.6629
▁ellisellidae	-11.6635
▁málaga	-11.6635
▁profunda	-11.6635
▁pulchella	-11.6636
▁treviso	-11.6636
▁ginkikilala	-11.6636
biyolohiya	-11.6636
▁national	-11.6636
abralia	-11.6636
▁baird	-11.6638
sleben	-11.6641
keratoisis	-11.672
▁hemphilli	-11.672
▁hokkaid	-11.672
▁pagtawag	-11.672
▁vorarlberg	-11.672
▁cagayan	-11.672
▁cornuta	-11.672
▁rizal	-11.672
bozen	-11.6721
▁1943.	-11.6721
▁flores	-11.6721
negosyo	-11.6724
tryonia	-11.6724
american	-11.6805
▁gintawag	-11.6806
▁lasaeidae	-11.6806
polinices	-11.6806
="1000	-11.6809
▁elect	-11.6809
="139	-11.6842
▁aleman	-11.6889
eupolymnia	-11.6892
koblenz	-11.6892
nephthya	-11.6892
▁assimilis	-11.6892
▁eberhard	-11.6892
▁lincoln	-11.6892
▁ourense	-11.6892
▁venezuela	-11.6892
▁panamensis	-11.6892
▁granulata	-11.6892
benthoctopus	-11.6892
eirene	-11.6892
heneral	-11.6893
▁panguna	-11.6894
▁ivanov	-11.6894
▁kagamhanan	-11.6979
▁nangingin	-11.6979
leodice	-11.6979
▁sakob	-11.6979
▁kusel	-11.698
▁ubos	-11.698
▁ferriss	-11.6981
="1150	-11.6981
="1100	-11.6982
="1160	-11.6982
pristina	-11.6982
="1020	-11.6982
▁lewis	-11.6983
central	-11.6989
joseph	-11.6999
helicodiscus	-11.7067
paracyathus	-11.7067
pseudaneitea	-11.7067
▁aurantiaca	-11.7067
▁cylindrica	-11.7067
▁grasshoff	-11.7067
▁kalangitan	-11.7067
▁melithaeidae	-11.7067
▁salvador	-11.7067
▁constant	-11.7067
▁general	-11.7067
▁israel	-11.7067
▁linatin	-11.7067
seudopterogorgia	-11.7067
="1130	-11.7068
▁knox	-11.7068
="1180	-11.7069
="1009	-11.7069
="1470	-11.707
="1480	-11.7071
="1430	-11.7072
pandora	-11.7086
="900	-11.7093
paracis	-11.7138
aequorea	-11.7155
hemipodus	-11.7155
laetmonice	-11.7155
▁glyceridae	-11.7155
▁kudenov	-11.7155
nicomache	-11.7155
▁argentina	-11.7155
saarburg	-11.7155
▁babaye	-11.7155
▁fischer	-11.7155
▁1929.	-11.7156
▁clench	-11.7156
▁aichi	-11.7156
="1061	-11.7157
="1074	-11.7157
="1062	-11.7157
="1035	-11.7157
="1041	-11.7157
="1046	-11.7157
="1037	-11.7157
="1044	-11.7157
="1036	-11.7157
="1043	-11.7157
="1164	-11.7157
="1049	-11.7157
="1158	-11.7157
="1039	-11.7157
="1028	-11.7157
="1031	-11.7157
="1163	-11.7157
="1167	-11.7157
="1029	-11.7157
="1155	-11.7157
="1162	-11.7157
="1154	-11.7157
="1188	-11.7157
="1157	-11.7157
="1173	-11.7157
="1002	-11.7157
="1006	-11.7157
="1153	-11.7157
="1005	-11.7157
="1146	-11.7157
="1004	-11.7157
="1011	-11.7157
="1021	-11.7157
="1120	-11.7158
="1060	-11.7158
="1013	-11.7158
mitolohiya	-11.7158
="1012	-11.7158
="1059	-11.7158
="1159	-11.7158
="1038	-11.7158
="1148	-11.7159
="1022	-11.7159
="1045	-11.7159
="1014	-11.7159
="1023	-11.716
="1024	-11.7161
butnga	-11.7179
simnia	-11.7197
="920	-11.7199
="750	-11.7219
="820	-11.7223
landschaft	-11.7244
▁humenné	-11.7244
burkina	-11.7244
paranaitis	-11.7244
▁insignis	-11.7244
▁lorenzo	-11.7244
▁batakan	-11.7244
▁aurora	-11.7245
="1107	-11.7245
▁chieti	-11.7246
="1109	-11.7246
="1099	-11.7246
="1098	-11.7246
="1131	-11.7246
="1073	-11.7246
="1064	-11.7246
="1065	-11.7246
="1070	-11.7246
="1132	-11.7246
="1033	-11.7246
="1165	-11.7246
="1026	-11.7246
="1030	-11.7246
="1156	-11.7246
="1050	-11.7246
="1032	-11.7246
="1182	-11.7246
="1025	-11.7246
="1027	-11.7246
="1171	-11.7247
="1152	-11.7247
="1149	-11.7247
="1147	-11.7247
="1112	-11.7247
="1682	-11.7247
="1675	-11.7247
="1138	-11.7248
="1115	-11.7248
="1477	-11.7248
="1176	-11.7248
="1463	-11.7248
="1483	-11.7248
="1481	-11.7248
="1467	-11.7248
="730	-11.7249
="1434	-11.7249
="1435	-11.7249
="1118	-11.7249
="1457	-11.7249
="1433	-11.7249
="1458	-11.7249
="1437	-11.7249
="1436	-11.7249
="1439	-11.7249
="1456	-11.7249
="1429	-11.7249
="1432	-11.725
="1427	-11.725
bisch	-11.7258
="1424	-11.7263
puerto	-11.7269
▁balear	-11.7269
="824	-11.7301
="930	-11.7309
="443	-11.7327
="990	-11.7327
="757	-11.7328
="755	-11.7328
="854	-11.7329
="648	-11.7332
="934	-11.7334
discosoma	-11.7334
▁flabellidae	-11.7334
▁sergipe	-11.7334
▁ukranya	-11.7334
▁cochem	-11.7335
▁canarias	-11.7335
=824	-11.7335
=755	-11.7335
=757	-11.7335
=648	-11.7335
=854	-11.7335
=934	-11.7335
=848	-11.7335
=752	-11.7335
=653	-11.7335
=935	-11.7335
=937	-11.7335
=933	-11.7335
▁major	-11.7335
=900	-11.7335
=924	-11.7335
=652	-11.7335
=932	-11.7335
=920	-11.7335
=925	-11.7335
=926	-11.7335
=927	-11.7335
=902	-11.7335
=923	-11.7335
=911	-11.7335
=921	-11.7335
=973	-11.7335
=946	-11.7335
=986	-11.7335
=922	-11.7335
=979	-11.7335
=989	-11.7335
=982	-11.7335
=443	-11.7335
="1103	-11.7336
="1108	-11.7336
="1134	-11.7336
="1137	-11.7336
="970	-11.7336
="1082	-11.7336
="1066	-11.7336
="1058	-11.7336
="1189	-11.7336
="1161	-11.7336
="1040	-11.7336
="1172	-11.7337
="1140	-11.7337
="1113	-11.7337
=1074	-11.7337
=1024	-11.7337
=1028	-11.7337
=1020	-11.7337
=1014	-11.7337
=1023	-11.7337
=1035	-11.7337
=1037	-11.7337
=1021	-11.7338
=1036	-11.7338
=1038	-11.7338
=1031	-11.7338
=1029	-11.7338
=1013	-11.7338
="1048	-11.7338
="1116	-11.7338
=1022	-11.7338
=1039	-11.7338
=1011	-11.7338
="1468	-11.7338
=1061	-11.7338
="1469	-11.7338
="1475	-11.7338
=1012	-11.7338
="1461	-11.7338
="1473	-11.7338
="1472	-11.7338
="1114	-11.7338
="1466	-11.7338
=1062	-11.7338
=1044	-11.7338
="1474	-11.7338
="1462	-11.7338
="1482	-11.7338
=1059	-11.7339
=1046	-11.7339
=1043	-11.7339
=1045	-11.7339
=1041	-11.7339
="1117	-11.7339
=1049	-11.7339
="1426	-11.7339
▁nikola	-11.7341
="848	-11.7342
="1676	-11.7343
="1413	-11.7344
="850	-11.7347
="653	-11.735
=1154	-11.735
=1004	-11.7351
="752	-11.7351
=1158	-11.7351
=1155	-11.7351
=1153	-11.7352
=1164	-11.7352
="935	-11.7352
="937	-11.7352
=1000	-11.7353
=1005	-11.7353
=1006	-11.7353
=1159	-11.7353
=1167	-11.7354
="933	-11.7354
=1160	-11.7354
=1163	-11.7354
=1009	-11.7355
=1002	-11.7356
=1162	-11.7356
organisa	-11.7358
=1150	-11.736
=1148	-11.736
=1157	-11.7361
=1146	-11.7361
=1188	-11.7361
=1173	-11.7363
="924	-11.7365
="652	-11.7373
="960	-11.7376
="932	-11.7378
="925	-11.7378
="927	-11.7379
="926	-11.7379
="364	-11.738
="830	-11.7381
="300	-11.7383
="923	-11.7387
="921	-11.7388
="911	-11.7388
="902	-11.7389
="973	-11.739
="940	-11.7393
="710	-11.7394
="946	-11.7394
="986	-11.7397
="725	-11.74
="758	-11.7401
="886	-11.7402
="721	-11.7406
="980	-11.7407
="823	-11.7409
="821	-11.741
="922	-11.741
="979	-11.7413
="770	-11.742
="654	-11.7421
="989	-11.7422
sicyonis	-11.7425
▁chrysogorgiidae	-11.7425
▁krtíš	-11.7425
▁trebišov	-11.7425
▁vercelli	-11.7425
pambansa	-11.7426
="822	-11.7426
=725	-11.7426
=820	-11.7426
=823	-11.7426
=750	-11.7426
=758	-11.7426
=886	-11.7426
=821	-11.7426
=721	-11.7426
sepiola	-11.7426
=822	-11.7426
=654	-11.7426
=751	-11.7426
=576	-11.7426
=586	-11.7426
=587	-11.7426
=588	-11.7426
=729	-11.7426
=730	-11.7426
=906	-11.7426
=663	-11.7426
=855	-11.7426
=856	-11.7426
=857	-11.7426
=901	-11.7426
=936	-11.7426
=849	-11.7426
=993	-11.7426
=931	-11.7426
=928	-11.7426
=975	-11.7426
=976	-11.7426
=999	-11.7426
=944	-11.7426
=981	-11.7426
=364	-11.7426
=945	-11.7426
=947	-11.7426
=749	-11.7426
=943	-11.7426
=971	-11.7426
=941	-11.7426
=972	-11.7426
=942	-11.7426
="1101	-11.7426
=254	-11.7427
=524	-11.7427
="1095	-11.7427
=523	-11.7427
="751	-11.7427
="982	-11.7427
="1183	-11.7427
="1034	-11.7427
="1136	-11.7427
="1055	-11.7427
="1151	-11.7427
="1054	-11.7427
="1125	-11.7427
="1007	-11.7427
="1008	-11.7427
=1682	-11.7428
="1003	-11.7428
="1001	-11.7428
=1073	-11.7428
=1675	-11.7428
=1027	-11.7428
=1026	-11.7428
=1033	-11.7428
=1025	-11.7428
=1065	-11.7428
=1064	-11.7428
=1434	-11.7429
=1098	-11.7429
=1424	-11.7429
=1032	-11.7429
=1467	-11.7429
=1463	-11.7429
="1464	-11.7429
=1460	-11.7429
=1427	-11.7429
="1145	-11.7429
=1435	-11.7429
=1437	-11.7429
=1430	-11.7429
=1436	-11.7429
=1433	-11.7429
="1471	-11.7429
="1479	-11.7429
=1099	-11.7429
=1429	-11.743
=1439	-11.743
="1016	-11.743
="1441	-11.743
="1015	-11.743
=1432	-11.743
="1444	-11.743
=1477	-11.743
=1470	-11.743
="588	-11.743
="1428	-11.743
="1431	-11.743
="1455	-11.743
="1119	-11.743
=877	-11.7431
="1017	-11.7431
="1019	-11.7432
="586	-11.7432
=1118	-11.7432
=1115	-11.7432
="254	-11.7432
="906	-11.7432
=1107	-11.7433
=1112	-11.7433
=1100	-11.7433
="840	-11.7433
="576	-11.7433
="587	-11.7434
="663	-11.7436
="729	-11.7437
=1130	-11.7438
=1138	-11.7438
="857	-11.7439
=1131	-11.7439
="855	-11.7439
="901	-11.7439
="856	-11.744
=1132	-11.744
=1156	-11.7441
=1165	-11.7443
=1152	-11.7443
="993	-11.7443
="420	-11.7445
="860	-11.7445
="936	-11.7446
=1480	-11.7446
="928	-11.7446
=1483	-11.7446
=1481	-11.7447
="356	-11.7448
=1147	-11.7449
=1180	-11.7449
="320	-11.7451
=1149	-11.7452
=1182	-11.7453
="530	-11.7453
="931	-11.7453
="849	-11.7453
="975	-11.7454
="348	-11.7454
=1176	-11.7454
=1171	-11.7455
="976	-11.746
="944	-11.7463
="333	-11.7464
="999	-11.7466
="981	-11.7471
="620	-11.7474
="360	-11.7481
="947	-11.7485
="943	-11.7487
="336	-11.7487
="971	-11.7489
="945	-11.749
="749	-11.7492
="646	-11.7494
="941	-11.7495
="754	-11.7495
="826	-11.7497
="680	-11.7499
="881	-11.7501
="573	-11.7503
="972	-11.7511
="720	-11.7511
="853	-11.7512
="719	-11.7513
="744	-11.7514
="355	-11.7515
="942	-11.7516
="899	-11.7516
="851	-11.7517
=2285	-11.7517
aiptasia	-11.7517
climocella	-11.7517
elementarya	-11.7517
epioblasma	-11.7517
myriochele	-11.7517
plaxiphora	-11.7517
stenoplax	-11.7517
ventridens	-11.7517
▁gaimard	-11.7517
▁gobernador	-11.7517
▁oenonidae	-11.7517
▁pakadto	-11.7517
=646	-11.7518
=754	-11.7518
=826	-11.7518
=930	-11.7518
=881	-11.7518
=573	-11.7518
=719	-11.7518
=899	-11.7518
=853	-11.7518
=990	-11.7518
=851	-11.7518
=744	-11.7518
=969	-11.7518
=850	-11.7518
=970	-11.7518
=868	-11.7518
=622	-11.7518
=356	-11.7518
=348	-11.7518
=333	-11.7518
=957	-11.7518
=940	-11.7518
=336	-11.7518
="1096	-11.7518
="2285	-11.7518
=529	-11.7518
="1105	-11.7518
="1181	-11.7518
=329	-11.7519
="1081	-11.7519
="1139	-11.7519
="1110	-11.7519
="1069	-11.7519
="1174	-11.7519
="650	-11.7519
="1144	-11.7519
="354	-11.752
=1060	-11.752
=1676	-11.752
="1562	-11.752
=1066	-11.752
="1232	-11.752
=1058	-11.752
=1468	-11.752
=1466	-11.752
=1426	-11.7521
=1461	-11.7521
="1553	-11.7521
=1469	-11.7521
=1474	-11.7521
=1462	-11.7521
=1048	-11.7521
="1465	-11.7521
=1475	-11.7521
=1473	-11.7521
=1082	-11.7521
=1476	-11.7521
="1443	-11.7522
="1442	-11.7522
="1440	-11.7522
="1478	-11.7522
=1114	-11.7522
=1472	-11.7522
="1454	-11.7523
=1117	-11.7523
=387	-11.7523
=1116	-11.7523
=872	-11.7523
=1108	-11.7524
=1113	-11.7524
=1109	-11.7524
=1103	-11.7524
=1120	-11.7527
halcampa	-11.7527
="969	-11.7527
="1412	-11.7527
="330	-11.7528
=1134	-11.7529
=1137	-11.753
=1161	-11.7534
="122	-11.7535
="868	-11.7536
=1482	-11.7539
="524	-11.7542
="390	-11.7546
="622	-11.7547
="888	-11.7547
=1172	-11.7547
=1189	-11.7547
="615	-11.7547
="880	-11.7548
="756	-11.7548
="723	-11.7552
="310	-11.7556
="957	-11.7556
="340	-11.756
="664	-11.756
="540	-11.7561
="961	-11.7565
="728	-11.7565
="835	-11.7566
="649	-11.7567
="265	-11.7569
="896	-11.7571
="523	-11.7573
="473	-11.7573
="256	-11.7575
="327	-11.7575
="847	-11.7578
="257	-11.7579
="610	-11.7581
="329	-11.7583
="690	-11.7589
="938	-11.759
="988	-11.7594
="700	-11.7596
="985	-11.7596
="987	-11.7597
="984	-11.7598
="844	-11.7602
="996	-11.7602
="997	-11.7604
="570	-11.7604
="255	-11.7604
="939	-11.7608
="883	-11.7608
="449	-11.7608
="683	-11.7609
dodecaceria	-11.761
lygdamis	-11.761
lysidice	-11.761
macrorhynchia	-11.761
▁frosinone	-11.761
▁jefferson	-11.761
▁simbahan	-11.761
▁albacete	-11.761
▁rotunda	-11.761
holzland	-11.761
▁californiensis	-11.761
▁manfred	-11.761
vyšn	-11.761
=615	-11.761
=723	-11.761
=756	-11.761
=888	-11.761
=830	-11.761
=835	-11.761
=960	-11.761
=664	-11.761
=649	-11.761
=728	-11.761
=961	-11.761
="260	-11.761
=896	-11.761
=847	-11.761
=710	-11.761
=938	-11.761
=844	-11.761
=883	-11.761
=980	-11.761
=987	-11.761
=988	-11.761
=939	-11.761
=985	-11.761
=996	-11.761
=984	-11.761
=997	-11.761
=840	-11.761
=355	-11.761
=354	-11.761
=977	-11.761
=860	-11.761
=867	-11.761
=959	-11.761
=983	-11.761
=869	-11.7611
=991	-11.7611
▁gemma	-11.7611
=530	-11.7611
=919	-11.7611
=541	-11.7611
=327	-11.7611
=473	-11.7611
=256	-11.7611
=257	-11.7611
=534	-11.7611
="1106	-11.7611
="670	-11.7611
="1135	-11.7611
="1097	-11.7611
loimia	-11.7611
="1111	-11.7611
="1067	-11.7611
="520	-11.7611
=1034	-11.7612
="1133	-11.7612
=1030	-11.7612
spiraserpula	-11.7612
=1054	-11.7612
="1681	-11.7612
=1070	-11.7612
="1566	-11.7612
=1019	-11.7612
=1050	-11.7612
=1017	-11.7612
=1464	-11.7613
=1015	-11.7613
=1016	-11.7613
=1055	-11.7613
="349	-11.7613
=1444	-11.7613
=1428	-11.7613
=1095	-11.7613
="1603	-11.7613
=1441	-11.7613
=1431	-11.7614
=1479	-11.7614
=1471	-11.7614
=762	-11.7614
="977	-11.7614
=874	-11.7615
=879	-11.7615
=878	-11.7615
=870	-11.7615
=1119	-11.7616
=1101	-11.7616
="2059	-11.7617
=1136	-11.7618
="529	-11.7621
="510	-11.7622
="983	-11.7622
="777	-11.7622
="740	-11.7623
=1008	-11.7623
=1151	-11.7624
=1007	-11.7625
="959	-11.7625
=1145	-11.7628
="968	-11.7629
="682	-11.7629
=1003	-11.763
=1001	-11.763
="867	-11.7631
="655	-11.7633
="334	-11.7633
="731	-11.7634
="267	-11.7635
="306	-11.7637
=1183	-11.7638
="136	-11.7641
="897	-11.7643
="722	-11.7643
="834	-11.7647
="709	-11.765
="869	-11.7653
="317	-11.7656
="661	-11.7656
="656	-11.7656
="339	-11.766
="833	-11.7661
="838	-11.7662
="753	-11.7662
="991	-11.7662
="475	-11.7664
="499	-11.7665
="541	-11.7666
="831	-11.7666
="445	-11.7671
="424	-11.7672
="442	-11.7672
="515	-11.7672
="995	-11.7673
="705	-11.7674
="998	-11.7675
="391	-11.7675
="839	-11.7676
="534	-11.7676
="409	-11.7676
="701	-11.7678
="408	-11.7678
="832	-11.7679
="660	-11.7682
="828	-11.7683
="776	-11.7684
="827	-11.7684
="958	-11.7688
="621	-11.7689
="312	-11.7689
="905	-11.769
="311	-11.7691
="307	-11.7693
="919	-11.7693
="895	-11.7695
="780	-11.7696
="397	-11.7696
="460	-11.7699
="512	-11.77
="743	-11.7701
="666	-11.7701
="519	-11.7701
="631	-11.7702
="692	-11.7702
="772	-11.7702
calyptrophora	-11.7703
dynamena	-11.7703
laevidentalium	-11.7703
▁antarcticus	-11.7703
▁guipúzcoa	-11.7703
▁hubricht	-11.7703
▁pilargidae	-11.7703
=2381	-11.7703
=770	-11.7703
=683	-11.7703
=777	-11.7704
="266	-11.7704
=682	-11.7704
▁biał	-11.7704
=968	-11.7704
=655	-11.7704
=731	-11.7704
=722	-11.7704
=834	-11.7704
auricula	-11.7704
=897	-11.7704
=838	-11.7704
=833	-11.7704
=831	-11.7704
=656	-11.7704
=661	-11.7704
=753	-11.7704
=620	-11.7704
=839	-11.7704
=832	-11.7704
=265	-11.7704
=515	-11.7704
=827	-11.7704
=828	-11.7704
=995	-11.7704
=705	-11.7704
=998	-11.7704
=701	-11.7704
="431	-11.7704
=621	-11.7704
=905	-11.7704
=519	-11.7704
=958	-11.7704
=512	-11.7704
=743	-11.7704
=349	-11.7704
=841	-11.7704
=449	-11.7704
=255	-11.7704
=859	-11.7704
=420	-11.7704
=306	-11.7704
=320	-11.7704
tirok	-11.7704
=475	-11.7704
=525	-11.7704
=522	-11.7704
="1126	-11.7705
="718	-11.7705
="1068	-11.7705
="1175	-11.7705
="657	-11.7705
="1094	-11.7705
="1141	-11.7705
="2381	-11.7705
="2066	-11.7706
=1096	-11.7706
=1443	-11.7706
=1081	-11.7706
=1438	-11.7706
="425	-11.7706
=1442	-11.7706
=1445	-11.7706
=763	-11.7706
=1465	-11.7707
=766	-11.7707
=1562	-11.7707
=1553	-11.7707
=1069	-11.7707
=1040	-11.7707
=1478	-11.7707
="2187	-11.7708
=384	-11.7708
=875	-11.7709
=871	-11.7709
▁hippo	-11.7711
=1105	-11.7711
="633	-11.7715
="617	-11.7717
="779	-11.7717
ossola	-11.7717
="358	-11.7717
="759	-11.7718
=1139	-11.7718
="563	-11.7719
="582	-11.7722
="665	-11.7722
="319	-11.7722
="841	-11.7723
=1181	-11.7723
="974	-11.7725
="715	-11.7725
=1144	-11.7725
="659	-11.7728
="677	-11.7728
="415	-11.7729
="341	-11.7729
="418	-11.7729
="651	-11.773
="414	-11.773
=1174	-11.7731
=1140	-11.7731
="497	-11.7731
="496	-11.7732
="286	-11.7734
="447	-11.7734
="435	-11.7735
="446	-11.7736
="434	-11.7736
="440	-11.7737
="577	-11.7741
="859	-11.7745
="967	-11.7745
="313	-11.7747
="517	-11.7748
="543	-11.7749
="544	-11.775
="412	-11.7754
="303	-11.7754
="545	-11.7756
="474	-11.7757
="419	-11.7757
="533	-11.7757
="428	-11.7759
="498	-11.7759
="429	-11.7759
="350	-11.776
="301	-11.776
="694	-11.7762
▁perkins	-11.7764
="433	-11.7764
="421	-11.777
="994	-11.7771
="480	-11.7771
="511	-11.7773
="137	-11.7775
="852	-11.7776
="525	-11.7777
="404	-11.7778
="771	-11.7779
="476	-11.7784
="477	-11.7785
="542	-11.7788
="305	-11.7788
="560	-11.7788
="353	-11.7789
="450	-11.779
="578	-11.7793
="842	-11.7793
="585	-11.7794
="528	-11.7796
="669	-11.7796
="437	-11.7797
="658	-11.7797
=2059	-11.7798
=2187	-11.7798
=2289	-11.7798
ocenebra	-11.7798
synelmis	-11.7798
westraltrachia	-11.7798
▁bashkortostan	-11.7798
▁gregorio	-11.7798
▁heinrich	-11.7798
cypraea	-11.7798
▁esteban	-11.7798
▁sydney	-11.7798
ludwig	-11.7798
pegantha	-11.7798
=776	-11.7798
▁spiralis	-11.7798
=680	-11.7798
=895	-11.7798
=692	-11.7798
=720	-11.7798
=772	-11.7798
=631	-11.7798
=666	-11.7798
=718	-11.7798
=617	-11.7798
=657	-11.7798
=650	-11.7798
=779	-11.7798
=633	-11.7798
=759	-11.7798
=582	-11.7798
pomerania	-11.7798
=665	-11.7798
=715	-11.7798
=563	-11.7798
=659	-11.7798
=651	-11.7798
=677	-11.7798
=974	-11.7798
=880	-11.7798
=334	-11.7798
=267	-11.7798
=577	-11.7798
=967	-11.7798
=517	-11.7798
=709	-11.7798
=317	-11.7798
=339	-11.7798
=540	-11.7798
=543	-11.7798
=544	-11.7798
=499	-11.7798
=545	-11.7798
=852	-11.7798
=994	-11.7798
=360	-11.7798
=424	-11.7798
=511	-11.7798
=300	-11.7798
=445	-11.7798
=442	-11.7798
=533	-11.7798
=391	-11.7798
=500	-11.7798
=842	-11.7798
=408	-11.7798
▁caeca	-11.7798
=864	-11.7798
=312	-11.7798
=992	-11.7798
=843	-11.7798
=311	-11.7798
=397	-11.7798
=542	-11.7798
=431	-11.7798
=307	-11.7798
=863	-11.7798
=330	-11.7798
=861	-11.7798
=319	-11.7798
=528	-11.7798
=520	-11.7798
=526	-11.7798
=916	-11.7798
="662	-11.7799
="2289	-11.7799
="992	-11.7799
="2188	-11.7799
=1067	-11.7799
="1053	-11.7799
="1121	-11.7799
=1681	-11.78
="448	-11.78
="1340	-11.78
=768	-11.78
="1689	-11.78
=605	-11.7801
=1097	-11.7801
="295	-11.7801
=487	-11.7801
=767	-11.7801
=1566	-11.7801
=761	-11.7801
="461	-11.7801
=1111	-11.7802
=386	-11.7802
=482	-11.7802
▁dispar	-11.7802
="864	-11.7802
="526	-11.7802
=1106	-11.7803
="674	-11.7803
="280	-11.7803
="270	-11.7804
="635	-11.7808
="623	-11.7809
=1133	-11.7811
="884	-11.7812
="843	-11.7813
="748	-11.7813
="702	-11.7814
="252	-11.7821
="890	-11.7821
="863	-11.7823
="395	-11.7824
="522	-11.7825
="436	-11.7825
="398	-11.7827
="671	-11.7828
="362	-11.7828
="555	-11.7828
="861	-11.783
="361	-11.7831
="394	-11.7833
="444	-11.7837
="569	-11.7837
="518	-11.7838
="513	-11.7839
="516	-11.7839
="687	-11.784
="562	-11.7843
="546	-11.7844
="912	-11.7845
="359	-11.7845
="138	-11.7845
="714	-11.7847
="561	-11.7847
pusil	-11.7849
="558	-11.7851
="335	-11.7851
="537	-11.7852
="308	-11.7852
="626	-11.7852
="503	-11.7854
="778	-11.7854
="504	-11.7854
="506	-11.7855
="556	-11.7855
="532	-11.7856
="624	-11.7856
="685	-11.7856
="531	-11.7857
="527	-11.7858
="916	-11.7858
="681	-11.7859
="269	-11.7861
="426	-11.7862
="299	-11.7863
="636	-11.7865
="634	-11.7865
="264	-11.7866
="261	-11.7867
="579	-11.7868
="423	-11.7868
="870	-11.7868
="891	-11.7868
="877	-11.7868
="738	-11.787
="679	-11.7871
="571	-11.7872
="962	-11.7873
="693	-11.7873
="825	-11.7876
="908	-11.788
="487	-11.7881
="760	-11.7883
="539	-11.7884
="505	-11.7886
="121	-11.7886
="509	-11.7887
="618	-11.7888
="632	-11.7888
="363	-11.7888
="337	-11.7889
="583	-11.7889
="538	-11.789
="574	-11.7891
="739	-11.7891
="372	-11.7892
="502	-11.7892
="557	-11.7892
="790	-11.7892
=2066	-11.7893
=2188	-11.7893
=2376	-11.7893
=2390	-11.7893
=2393	-11.7893
anthomastus	-11.7893
aphrodite	-11.7893
aplysia	-11.7893
fungiacyathus	-11.7893
sthenolepis	-11.7893
▁aberrans	-11.7893
pulsellum	-11.7893
▁batangas	-11.7893
▁oristano	-11.7893
="399	-11.7893
cylichna	-11.7893
quentin	-11.7893
daphnella	-11.7893
maggiore	-11.7893
▁caldas	-11.7893
=694	-11.7893
haplotrema	-11.7893
=610	-11.7893
=690	-11.7893
=771	-11.7893
=578	-11.7893
=570	-11.7893
=585	-11.7893
campagne	-11.7893
=669	-11.7893
=658	-11.7893
=662	-11.7893
=670	-11.7893
=674	-11.7893
="438	-11.7893
=266	-11.7893
=623	-11.7893
=635	-11.7893
=884	-11.7893
=425	-11.7893
=510	-11.7893
=748	-11.7893
=358	-11.7893
=740	-11.7893
=702	-11.7893
=341	-11.7893
=418	-11.7893
=671	-11.7893
=414	-11.7893
=415	-11.7893
=286	-11.7893
=518	-11.7893
=555	-11.7893
=496	-11.7893
=497	-11.7893
=516	-11.7893
=390	-11.7893
=513	-11.7893
=569	-11.7893
=714	-11.7893
=434	-11.7893
=435	-11.7893
=446	-11.7893
=447	-11.7893
=912	-11.7893
=562	-11.7893
=340	-11.7893
=626	-11.7893
=561	-11.7893
=310	-11.7893
=412	-11.7893
=419	-11.7893
=313	-11.7893
=558	-11.7893
=825	-11.7893
=546	-11.7893
=556	-11.7893
=428	-11.7893
=429	-11.7893
=498	-11.7893
=303	-11.7893
=433	-11.7893
=503	-11.7893
=504	-11.7893
=908	-11.7893
=421	-11.7893
=474	-11.7893
=506	-11.7893
=537	-11.7893
=301	-11.7893
=531	-11.7893
=532	-11.7893
=409	-11.7893
=527	-11.7893
=404	-11.7893
=476	-11.7893
=477	-11.7893
=539	-11.7893
=305	-11.7894
=505	-11.7894
=866	-11.7894
=538	-11.7894
="673	-11.7894
=780	-11.7894
=502	-11.7894
=395	-11.7894
=521	-11.7894
▁westheide	-11.7894
=862	-11.7894
nasodnon	-11.7894
="283	-11.7894
devant	-11.7895
="678	-11.7895
=1440	-11.7895
="2393	-11.7895
="2390	-11.7895
="490	-11.7895
="2090	-11.7895
=485	-11.7895
=769	-11.7895
="554	-11.7895
=764	-11.7895
="1677	-11.7895
="2098	-11.7896
=1094	-11.7896
="470	-11.7896
="1122	-11.7896
=455	-11.7896
=599	-11.7896
=593	-11.7896
=1068	-11.7896
=480	-11.7896
=488	-11.7896
=383	-11.7896
="580	-11.7897
="630	-11.7897
=1110	-11.7897
="550	-11.7898
="1018	-11.7898
=876	-11.7899
=873	-11.7899
="521	-11.79
=1126	-11.7903
="380	-11.7905
="548	-11.7907
="472	-11.7907
=1175	-11.7907
="316	-11.7909
="768	-11.791
="966	-11.7916
="410	-11.7917
="378	-11.7919
="866	-11.792
="501	-11.7921
="384	-11.7921
=1141	-11.7923
="625	-11.7925
="263	-11.7928
="684	-11.7932
="406	-11.7933
="688	-11.7933
="484	-11.7936
="403	-11.7936
="405	-11.7937
="726	-11.794
="616	-11.7943
="668	-11.7944
="716	-11.7944
="457	-11.7945
="590	-11.7946
="711	-11.7947
="862	-11.7947
="417	-11.7948
="704	-11.7949
="708	-11.7949
="507	-11.7949
="564	-11.7951
="304	-11.7951
="929	-11.7952
="346	-11.7953
="365	-11.7955
="396	-11.7955
="379	-11.7956
="393	-11.7957
="737	-11.7962
="965	-11.7966
="547	-11.7966
="675	-11.7968
="478	-11.7968
="328	-11.7969
="767	-11.7969
="536	-11.797
="302	-11.7971
="565	-11.7977
="567	-11.7978
="326	-11.7985
="882	-11.7986
="802	-11.7986
="368	-11.7987
=2294	-11.7989
=2295	-11.7989
=2383	-11.7989
=2392	-11.7989
euphysora	-11.7989
homalopoma	-11.7989
▁alexander	-11.7989
▁dominicana	-11.7989
▁goniadidae	-11.7989
▁kamolupyohan	-11.7989
cranchia	-11.7989
▁sinisiring	-11.7989
turritella	-11.7989
=687	-11.7989
=624	-11.7989
=778	-11.7989
=685	-11.7989
=681	-11.7989
=634	-11.7989
=636	-11.7989
=579	-11.7989
=738	-11.7989
=891	-11.7989
=571	-11.7989
=660	-11.7989
=679	-11.7989
=693	-11.7989
=962	-11.7989
=618	-11.7989
=700	-11.7989
=514	-11.7989
=632	-11.7989
=353	-11.7989
=583	-11.7989
=574	-11.7989
=739	-11.7989
=673	-11.7989
=678	-11.7989
=260	-11.7989
=557	-11.7989
=437	-11.7989
=554	-11.7989
=448	-11.7989
=295	-11.7989
=461	-11.7989
=966	-11.7989
▁pacificus	-11.7989
=548	-11.7989
=625	-11.7989
=362	-11.7989
=398	-11.7989
=436	-11.7989
=252	-11.7989
=361	-11.7989
=394	-11.7989
=501	-11.7989
=359	-11.7989
=335	-11.7989
=308	-11.799
=507	-11.799
=865	-11.799
=509	-11.799
=403	-11.799
=978	-11.799
=1053	-11.799
="559	-11.799
="253	-11.799
="1104	-11.799
▁1950.	-11.7991
="2294	-11.7991
="2295	-11.7991
="1127	-11.7991
=486	-11.7991
=385	-11.7991
=484	-11.7991
=765	-11.7991
="2383	-11.7991
=1689	-11.7991
="2057	-11.7991
=457	-11.7991
="2080	-11.7992
=601	-11.7992
="640	-11.7992
="2392	-11.7992
=458	-11.7992
="2029	-11.7992
=452	-11.7992
="2120	-11.7992
="297	-11.7992
="1690	-11.7992
=483	-11.7992
="465	-11.7992
="463	-11.7993
="464	-11.7993
="427	-11.7993
="775	-11.7993
="298	-11.7993
="2160	-11.7993
="288	-11.7994
="1425	-11.7995
="277	-11.7995
="964	-11.7995
="275	-11.7995
="279	-11.7996
="691	-11.7996
="278	-11.7996
="274	-11.7996
="764	-11.7996
="272	-11.7998
=1121	-11.7998
="271	-11.8
atubang	-11.8
="458	-11.8001
="810	-11.8009
="874	-11.801
="773	-11.801
="698	-11.8011
="686	-11.8011
="695	-11.8011
="416	-11.8016
="613	-11.8016
="865	-11.8017
="454	-11.8018
="712	-11.8018
="706	-11.8019
="430	-11.8019
="373	-11.8021
="290	-11.8023
="439	-11.8024
="268	-11.8025
="422	-11.8028
="699	-11.8029
="889	-11.8034
="796	-11.8034
="273	-11.8035
="611	-11.8038
="589	-11.8039
="672	-11.8041
▁natural	-11.8042
="836	-11.8047
="568	-11.8048
="594	-11.8049
="357	-11.8049
="807	-11.805
="392	-11.8056
="978	-11.8059
=2098	-11.8086
=2207	-11.8086
=2272	-11.8086
=2286	-11.8086
=2386	-11.8086
antiplanes	-11.8086
mittelland	-11.8086
▁arizona	-11.8086
▁hilbig	-11.8086
▁obscura	-11.8086
▁sphaerodoridae	-11.8086
▁ibaraki	-11.8086
▁puwesto	-11.8086
muriceides	-11.8086
▁mindoro	-11.8086
▁serbisyo	-11.8086
▁cirrata	-11.8086
=684	-11.8086
=688	-11.8086
=444	-11.8086
=616	-11.8086
=716	-11.8086
=726	-11.8086
=668	-11.8086
=711	-11.8086
=704	-11.8086
=708	-11.8086
=564	-11.8086
=929	-11.8086
=269	-11.8086
=737	-11.8086
=299	-11.8086
=426	-11.8086
=965	-11.8086
=261	-11.8086
=264	-11.8086
=423	-11.8086
=675	-11.8086
=547	-11.8086
=560	-11.8086
=565	-11.8086
=567	-11.8086
=536	-11.8086
=882	-11.8086
=337	-11.8086
=363	-11.8086
=460	-11.8086
=802	-11.8086
=559	-11.8086
=372	-11.8086
=438	-11.8086
=399	-11.8086
=283	-11.8086
=316	-11.8086
=314	-11.8086
=472	-11.8086
=378	-11.8086
=836	-11.8086
=796	-11.8086
=406	-11.8087
=417	-11.8087
=405	-11.8087
=396	-11.8087
=393	-11.8087
=304	-11.8087
=326	-11.8087
=253	-11.8087
=1018	-11.8087
="2155	-11.8087
="2272	-11.8087
="2161	-11.8087
="2286	-11.8087
=603	-11.8087
=595	-11.8087
=594	-11.8087
="2207	-11.8088
=600	-11.8088
="1341	-11.8088
="1309	-11.8088
="2064	-11.8088
=453	-11.8088
="468	-11.8088
="2058	-11.8089
="467	-11.8089
="466	-11.8089
="1683	-11.8089
="469	-11.8089
="2386	-11.8089
=1677	-11.8089
="2095	-11.8089
="495	-11.8089
="774	-11.8089
="377	-11.8089
cytora	-11.8089
="493	-11.8089
="2078	-11.8089
="494	-11.8089
="367	-11.8089
="369	-11.8089
="736	-11.8089
="375	-11.8089
="689	-11.8089
="893	-11.8089
="707	-11.8089
="733	-11.8089
="734	-11.8089
="894	-11.809
="343	-11.809
="374	-11.809
="644	-11.809
="629	-11.809
="892	-11.8091
="462	-11.8091
="732	-11.8091
="492	-11.8091
="566	-11.8091
="713	-11.8091
="342	-11.8091
="581	-11.8092
="432	-11.8092
="282	-11.8092
="258	-11.8092
="491	-11.8092
="332	-11.8093
="717	-11.8094
=1122	-11.8098
="607	-11.8099
="604	-11.8102
="608	-11.8109
="815	-11.8109
="797	-11.811
="817	-11.8111
="845	-11.8113
="747	-11.8116
kalibo	-11.8117
="724	-11.8117
="808	-11.8118
capnella	-11.8119
assis	-11.8123
pietra	-11.8139
="471	-11.8167
=2057	-11.8184
=2155	-11.8184
=2161	-11.8184
=2375	-11.8184
=2029	-11.8184
=2311	-11.8184
=2382	-11.8184
=775	-11.8184
barasahan	-11.8184
hololepidella	-11.8184
▁abyssalis	-11.8184
▁connecticut	-11.8184
▁ehrenberg	-11.8184
▁naticidae	-11.8184
▁pelagica	-11.8184
▁tridentata	-11.8184
▁verrucosa	-11.8184
=691	-11.8184
=964	-11.8184
▁belgium	-11.8184
▁segeberg	-11.8184
corynactis	-11.8184
lycoris	-11.8184
=606	-11.8184
▁depressa	-11.8184
=686	-11.8184
=698	-11.8184
=773	-11.8184
=695	-11.8184
=613	-11.8184
=890	-11.8184
=712	-11.8184
=706	-11.8184
=263	-11.8184
=699	-11.8184
=440	-11.8184
=889	-11.8184
=614	-11.8184
=589	-11.8184
=611	-11.8184
=672	-11.8184
=350	-11.8184
=568	-11.8184
=346	-11.8184
=807	-11.8184
=365	-11.8184
=379	-11.8184
=302	-11.8184
=328	-11.8184
=478	-11.8184
=790	-11.8184
=368	-11.8184
=297	-11.8184
=298	-11.8184
=797	-11.8184
=845	-11.8184
=416	-11.8184
▁natalensis	-11.8185
=392	-11.8185
=609	-11.8185
=760	-11.8185
=450	-11.8185
="2156	-11.8185
="2167	-11.8185
=590	-11.8185
=592	-11.8185
=389	-11.8185
=602	-11.8186
="2375	-11.8186
="2192	-11.8186
="696	-11.8186
="735	-11.8187
="727	-11.8187
="1568	-11.8187
="2382	-11.8187
="2096	-11.8187
="637	-11.8187
="1561	-11.8187
="746	-11.8187
="639	-11.8187
="628	-11.8187
="643	-11.8187
="1686	-11.8187
="627	-11.8187
="366	-11.8187
="963	-11.8187
="697	-11.8188
="1076	-11.8188
=1340	-11.8188
="1692	-11.8188
="572	-11.8188
="805	-11.8188
="642	-11.8188
=1425	-11.8188
="2159	-11.8188
="742	-11.8189
="641	-11.8189
="813	-11.8189
="2311	-11.8189
="402	-11.8189
="2124	-11.819
="296	-11.819
="741	-11.819
="612	-11.819
="816	-11.819
="401	-11.8191
=1104	-11.8192
="818	-11.8192
="619	-11.8194
=1127	-11.8196
="812	-11.8209
rhein	-11.8228
="575	-11.8234
="837	-11.8245
="322	-11.8249
="315	-11.8268
="887	-11.8271
=2058	-11.8283
=2064	-11.8283
=2078	-11.8283
=2090	-11.8283
=2095	-11.8283
=2120	-11.8283
=2124	-11.8283
=2156	-11.8283
=2159	-11.8283
=2160	-11.8283
=2167	-11.8283
=2269	-11.8283
=2377	-11.8283
=2379	-11.8283
=2394	-11.8283
=2395	-11.8283
=259	-11.8283
=645	-11.8283
=736	-11.8283
frinanses	-11.8283
münster	-11.8283
pleurocera	-11.8283
▁pfeiffer	-11.8283
=2192	-11.8283
=270	-11.8283
=274	-11.8283
=275	-11.8283
=276	-11.8283
=277	-11.8283
=278	-11.8283
=279	-11.8283
=280	-11.8283
=287	-11.8283
=288	-11.8283
=427	-11.8283
=463	-11.8283
=464	-11.8283
=465	-11.8283
=550	-11.8283
=566	-11.8283
=580	-11.8283
=581	-11.8283
=629	-11.8283
=630	-11.8283
=644	-11.8283
=689	-11.8283
=707	-11.8283
=713	-11.8283
=717	-11.8283
=732	-11.8283
=733	-11.8283
=734	-11.8283
=774	-11.8283
=892	-11.8283
=893	-11.8283
=894	-11.8283
▁misamis	-11.8283
=271	-11.8283
=272	-11.8283
=596	-11.8283
=607	-11.8283
▁thurgau	-11.8283
=604	-11.8283
▁palermo	-11.8283
=608	-11.8283
=815	-11.8283
=817	-11.8283
=454	-11.8283
=676	-11.8283
millepora	-11.8283
=724	-11.8283
=747	-11.8283
=808	-11.8283
=373	-11.8283
=381	-11.8283
=268	-11.8283
=439	-11.8283
=422	-11.8283
▁mantova	-11.8283
=273	-11.8283
=357	-11.8283
=432	-11.8283
=410	-11.8284
=837	-11.8284
=887	-11.8284
=345	-11.8284
=382	-11.8284
=597	-11.8284
=745	-11.8284
=489	-11.8284
=591	-11.8284
▁brazil	-11.8284
=451	-11.8284
="2269	-11.8284
="2182	-11.8285
="1083	-11.8285
="2377	-11.8285
=1683	-11.8285
="2379	-11.8285
naineris	-11.8286
=1341	-11.8286
="1558	-11.8286
="2097	-11.8286
="2394	-11.8286
="806	-11.8286
="2395	-11.8286
="804	-11.8287
="809	-11.8287
=1559	-11.8288
="846	-11.8288
="795	-11.8288
="2012	-11.8289
="551	-11.8291
="703	-11.8314
="411	-11.8316
="413	-11.8344
="321	-11.8353
="909	-11.8357
="331	-11.8379
="903	-11.838
=2080	-11.8383
=2096	-11.8383
=2182	-11.8383
=2290	-11.8383
=2291	-11.8383
=2326	-11.8383
=343	-11.8383
=367	-11.8383
=369	-11.8383
=375	-11.8383
=376	-11.8383
=377	-11.8383
=466	-11.8383
=467	-11.8383
=468	-11.8383
=469	-11.8383
=470	-11.8383
=490	-11.8383
=495	-11.8383
=612	-11.8383
=619	-11.8383
=627	-11.8383
=628	-11.8383
=637	-11.8383
=638	-11.8383
=639	-11.8383
=640	-11.8383
=643	-11.8383
=696	-11.8383
=697	-11.8383
=727	-11.8383
=735	-11.8383
=746	-11.8383
=816	-11.8383
=818	-11.8383
=963	-11.8383
=258	-11.8383
=282	-11.8383
=332	-11.8383
=342	-11.8383
=374	-11.8383
=459	-11.8383
=462	-11.8383
=491	-11.8383
=492	-11.8383
=493	-11.8383
=494	-11.8383
=572	-11.8383
=641	-11.8383
=642	-11.8383
=741	-11.8383
=742	-11.8383
=805	-11.8383
=813	-11.8383
saccocirrus	-11.8383
westmecklenburg	-11.8383
▁mikuláš	-11.8383
▁pakistan	-11.8383
=380	-11.8383
▁alkalde	-11.8383
=810	-11.8383
=481	-11.8383
=812	-11.8383
=575	-11.8383
▁delaware	-11.8383
=471	-11.8383
▁ponder	-11.8383
=296	-11.8383
=430	-11.8384
=290	-11.8384
=322	-11.8384
=903	-11.8384
=315	-11.8384
=858	-11.8384
=909	-11.8384
=331	-11.8384
▁totton	-11.8384
="1102	-11.8384
="2139	-11.8384
="2189	-11.8385
="2290	-11.8385
="2291	-11.8385
="1088	-11.8385
="1086	-11.8385
=1686	-11.8385
=1690	-11.8385
="2084	-11.8386
=1692	-11.8386
="2063	-11.8386
="2065	-11.8386
="2067	-11.8386
anemonia	-11.8386
="2326	-11.8386
=1076	-11.8387
="370	-11.8387
=456	-11.8387
=1568	-11.8387
=1561	-11.8387
="2010	-11.8387
="289	-11.8389
="281	-11.8391
="293	-11.8392
="291	-11.8396
="251	-11.8397
="791	-11.8413
="858	-11.8413
="798	-11.8435
="789	-11.8466
=2097	-11.8484
=2139	-11.8484
=2189	-11.8484
=2217	-11.8484
=366	-11.8484
=804	-11.8484
=806	-11.8484
cyclopecten	-11.8484
eleutherobia	-11.8484
nausithoe	-11.8484
quadrula	-11.8484
virgularia	-11.8484
▁eichsfeld	-11.8484
▁estrecho	-11.8484
▁industriya	-11.8484
▁mediterranea	-11.8484
▁pupillidae	-11.8484
=401	-11.8484
=402	-11.8484
=551	-11.8484
=795	-11.8484
=846	-11.8484
karawat	-11.8484
=703	-11.8484
collisella	-11.8484
=411	-11.8485
=413	-11.8485
=321	-11.8485
=907	-11.8485
=251	-11.8485
acanella	-11.8486
="2191	-11.8486
="2077	-11.8486
="799	-11.8487
="1010	-11.8487
="2062	-11.8487
="1564	-11.8487
="1679	-11.8487
="1311	-11.8488
varennes	-11.8488
history	-11.8488
="1678	-11.8488
=1558	-11.8488
=1083	-11.8489
="2123	-11.849
="2217	-11.8495
mysella	-11.8504
▁opera	-11.8505
paraonis	-11.8515
anodonta	-11.8522
▁cavite	-11.8524
="647	-11.8531
champagne	-11.8533
="907	-11.8536
=2063	-11.8586
=2065	-11.8586
=2067	-11.8586
=2084	-11.8586
=2123	-11.8586
=2305	-11.8586
▁catanzaro	-11.8586
▁mazowiecki	-11.8586
▁metropolitano	-11.8586
▁regularis	-11.8586
=2012	-11.8586
=2191	-11.8586
=2205	-11.8586
=2293	-11.8586
=2389	-11.8586
=809	-11.8586
▁indonesia	-11.8586
▁roxas	-11.8586
heterogorgia	-11.8586
=791	-11.8586
=798	-11.8586
▁pandeidae	-11.8586
=789	-11.8586
▁dinhe	-11.8586
=291	-11.8587
=293	-11.8587
=647	-11.8587
▁millard	-11.8587
pisinna	-11.8587
="2129	-11.8587
cyanea	-11.8587
="2162	-11.8588
="2293	-11.8588
="1071	-11.8588
="2198	-11.8588
="2205	-11.8588
="2199	-11.8588
="2068	-11.8589
="2061	-11.8589
="2389	-11.8589
hitaas	-11.8589
▁mongol	-11.8589
="2305	-11.8589
="1688	-11.8589
="2030	-11.859
="2100	-11.859
="1691	-11.859
=1086	-11.859
="1888	-11.8591
=1088	-11.8591
▁1818.	-11.8596
=1102	-11.8596
laksi	-11.8597
="352	-11.8652
hormathia	-11.8678
▁fabrici	-11.868
=2062	-11.8689
=2077	-11.8689
=2200	-11.8689
=2206	-11.8689
=2281	-11.8689
▁bigelow	-11.8689
▁plön	-11.8689
=2129	-11.8689
=2162	-11.8689
=2198	-11.8689
=2199	-11.8689
=289	-11.8689
=799	-11.8689
▁región	-11.8689
=281	-11.8689
▁dentata	-11.8689
▁lecco	-11.869
porzana	-11.869
=598	-11.869
="2107	-11.869
▁gabriel	-11.869
="2281	-11.869
="1075	-11.8691
="2206	-11.8691
="1166	-11.8692
=1687	-11.8692
="2069	-11.8692
="2037	-11.8692
=1678	-11.8693
="1684	-11.8693
="2122	-11.8693
="2028	-11.8693
=1564	-11.8693
=1679	-11.8693
=1560	-11.8693
="811	-11.8695
antennella	-11.8696
nižn	-11.8698
="292	-11.87
="667	-11.872
adlaw	-11.8743
yllochaetopterus	-11.8752
="351	-11.8792
=2061	-11.8793
=2068	-11.8793
=2107	-11.8793
=2122	-11.8793
=2209	-11.8793
=2263	-11.8793
=2264	-11.8793
=2276	-11.8793
=2224	-11.8793
=2322	-11.8793
=2329	-11.8793
cupedora	-11.8793
linopherus	-11.8793
▁calbayog	-11.8793
▁demokratik	-11.8793
▁mcginty	-11.8793
labastide	-11.8793
▁umbria	-11.8793
▁poritidae	-11.8793
calliostomatidae	-11.8793
▁huelva	-11.8793
▁lucinidae	-11.8793
▁indicus	-11.8793
▁school	-11.8793
=1071	-11.8794
garveia	-11.8794
=667	-11.8794
="309	-11.8794
▁saudi	-11.8794
▁nodosa	-11.8794
="2158	-11.8795
="2264	-11.8795
="2263	-11.8795
="2157	-11.8795
="2209	-11.8796
="2195	-11.8796
="1047	-11.8796
=1688	-11.8796
="2081	-11.8796
=1691	-11.8796
="2079	-11.8796
=1888	-11.8796
="1685	-11.8797
▁kapitan	-11.8797
="1535	-11.8797
="2329	-11.8797
="2115	-11.8797
="262	-11.8802
="1821	-11.8802
="2224	-11.8805
hères	-11.8815
="344	-11.8867
stereo	-11.8886
=2028	-11.8899
=2010	-11.8899
=2037	-11.8899
=2069	-11.8899
=2115	-11.8899
=2157	-11.8899
=2158	-11.8899
=2204	-11.8899
=2208	-11.8899
=2271	-11.8899
=2274	-11.8899
=2396	-11.8899
=370	-11.8899
jasmineira	-11.8899
▁ludwigslust	-11.8899
=2195	-11.8899
=2499	-11.8899
=811	-11.8899
▁magdalena	-11.8899
eastern	-11.8899
=352	-11.8899
=292	-11.8899
münch	-11.8899
▁masbate	-11.8899
="2101	-11.89
cossura	-11.89
="2168	-11.89
="2271	-11.89
="2274	-11.89
="2146	-11.89
="2149	-11.8901
="2147	-11.8901
="2121	-11.8901
="1177	-11.8901
="2208	-11.8901
=1684	-11.8901
="2204	-11.8901
="2396	-11.8901
="2085	-11.8901
="2086	-11.8902
="2041	-11.8902
="2043	-11.8902
=1010	-11.8902
=1075	-11.8902
="2032	-11.8902
="2116	-11.8903
="2011	-11.8903
="2499	-11.8905
▁andaman	-11.8906
=1166	-11.8925
="898	-11.8928
="794	-11.8931
="325	-11.8949
="803	-11.8969
="324	-11.8982
="347	-11.8989
=2030	-11.9005
=2079	-11.9005
=2081	-11.9005
=2101	-11.9005
=2116	-11.9005
=2121	-11.9005
=2138	-11.9005
=2146	-11.9005
=2147	-11.9005
=2168	-11.9005
=2149	-11.9005
=2380	-11.9005
eucheilota	-11.9005
lyonsia	-11.9005
polycyathus	-11.9005
pontogenia	-11.9005
sigambra	-11.9005
thalenessa	-11.9005
▁campobasso	-11.9005
▁katubtuban	-11.9005
▁littorinidae	-11.9005
▁brianza	-11.9005
▁parvula	-11.9005
modiolus	-11.9005
▁obtusa	-11.9005
▁literal	-11.9005
portlandia	-11.9005
rissoa	-11.9005
=351	-11.9005
=898	-11.9005
=803	-11.9006
▁ovata	-11.9006
=309	-11.9006
="2154	-11.9006
=325	-11.9006
=347	-11.9006
="2133	-11.9006
="2125	-11.9007
vanadis	-11.9007
="2150	-11.9007
=1814	-11.9007
pavona	-11.9007
=1821	-11.9008
=1685	-11.9008
="2072	-11.9008
="2093	-11.9008
="2044	-11.9008
="2033	-11.9008
="2094	-11.9008
="2040	-11.9008
="2380	-11.9009
="2118	-11.9011
=1047	-11.9011
=1535	-11.9012
antheopsis	-11.9013
="371	-11.9014
="2024	-11.9018
anthelia	-11.9019
="1822	-11.9019
="479	-11.9027
malacoceros	-11.903
nidalia	-11.9055
ostrea	-11.9058
sagartia	-11.9099
=2043	-11.9113
=2086	-11.9113
=2133	-11.9113
=2154	-11.9113
=2236	-11.9113
=2011	-11.9113
=2032	-11.9113
=2041	-11.9113
=2060	-11.9113
=2085	-11.9113
=2100	-11.9113
=2118	-11.9113
=2125	-11.9113
=2201	-11.9113
=2215	-11.9113
=2216	-11.9113
=2229	-11.9113
=2321	-11.9113
=2331	-11.9113
=262	-11.9113
cirrhipathes	-11.9113
▁cerithiidae	-11.9113
planorbella	-11.9113
spiculata	-11.9113
periploma	-11.9113
stiliger	-11.9113
verrucella	-11.9113
=794	-11.9113
cavellia	-11.9113
▁harangdon	-11.9113
=344	-11.9113
▁krems	-11.9113
=324	-11.9113
=388	-11.9113
=956	-11.9113
="2105	-11.9114
="2104	-11.9114
="2137	-11.9114
="2144	-11.9114
="1051	-11.9115
="2201	-11.9115
="2196	-11.9115
▁russia	-11.9115
="2083	-11.9115
="1129	-11.9115
="2236	-11.9115
="2073	-11.9115
="2229	-11.9115
="2089	-11.9115
="2091	-11.9116
iphione	-11.9116
="2031	-11.9116
="1853	-11.9119
="441	-11.912
="2216	-11.9121
="956	-11.9121
hulog	-11.9124
=1177	-11.9153
="801	-11.9157
phylo	-11.9169
="584	-11.9172
haluag	-11.9188
="284	-11.92
point	-11.9206
=2024	-11.9221
=2044	-11.9221
=2072	-11.9221
=2104	-11.9221
=2137	-11.9221
=2145	-11.9221
=2265	-11.9221
=2284	-11.9221
=2298	-11.9221
=2391	-11.9221
=2033	-11.9221
=2093	-11.9221
=2094	-11.9221
=2105	-11.9221
=2144	-11.9221
=2196	-11.9221
=2242	-11.9221
=2384	-11.9221
cyclocardia	-11.9221
inhenyeriya	-11.9221
orthopyxis	-11.9221
▁echinata	-11.9221
▁fukuoka	-11.9221
▁namumuno	-11.9221
▁purpurea	-11.9221
▁robustus	-11.9221
▁gwyn	-11.9221
tudlok	-11.9221
▁moderno	-11.9221
▁pinyin	-11.9221
ditrupa	-11.9221
macrochaeta	-11.9221
▁stellata	-11.9221
=371	-11.9222
=479	-11.9222
="2109	-11.9222
="2284	-11.9223
▁1829.	-11.9223
="2265	-11.9223
="2166	-11.9223
="2181	-11.9223
="2153	-11.9223
="1072	-11.9223
="2298	-11.9223
="2140	-11.9223
="2190	-11.9224
=1822	-11.9224
="2082	-11.9224
="2071	-11.9224
="2384	-11.9224
="2242	-11.9224
="2391	-11.9225
="2036	-11.9225
="2039	-11.9225
="1674	-11.9225
▁acuta	-11.9225
="1693	-11.9225
="2027	-11.9226
pennatula	-11.9249
salatan	-11.929
=2031	-11.9331
=2073	-11.9331
=2083	-11.9331
=2089	-11.9331
=2091	-11.9331
=2150	-11.9331
=2153	-11.9331
=2166	-11.9331
=2181	-11.9331
=2219	-11.9331
=2270	-11.9331
=2176	-11.9331
=2231	-11.9331
=2388	-11.9331
=400	-11.9331
aphelochaeta	-11.9331
argonauta	-11.9331
bebryce	-11.9331
candelabrum	-11.9331
opisthosyllis	-11.9331
plexaurella	-11.9331
polygordius	-11.9331
praxillella	-11.9331
sphaerodoridium	-11.9331
▁cornelius	-11.9331
▁lymnaeidae	-11.9331
▁pilosopo	-11.9331
▁südliche	-11.9331
cardiomya	-11.9331
▁australia	-11.9331
▁elbasan	-11.9331
=2323	-11.9331
fusinus	-11.9331
▁leslie	-11.9331
=801	-11.9331
=584	-11.9331
rhytida	-11.9332
=1051	-11.9332
="2163	-11.9333
="2270	-11.9333
="2186	-11.9333
=1853	-11.9333
="2152	-11.9333
="2178	-11.9334
="1342	-11.9334
="2075	-11.9334
="2231	-11.9334
="2388	-11.9334
haplosyllis	-11.9334
="1569	-11.9334
="2051	-11.9334
="1998	-11.9339
="1710	-11.9341
=1129	-11.9348
="407	-11.9353
napulo	-11.9399
="294	-11.9424
=2027	-11.9442
=2036	-11.9442
=2039	-11.9442
=2040	-11.9442
=2045	-11.9442
=2071	-11.9442
=2076	-11.9442
=2082	-11.9442
=2109	-11.9442
=2148	-11.9442
=2152	-11.9442
=2163	-11.9442
=2210	-11.9442
=2212	-11.9442
=2226	-11.9442
=2257	-11.9442
=2267	-11.9442
=2273	-11.9442
=2296	-11.9442
=2378	-11.9442
arabellites	-11.9442
onychoteuthis	-11.9442
streptosyllis	-11.9442
▁bratislava	-11.9442
▁douglas	-11.9442
▁ecuador	-11.9442
▁longicirrata	-11.9442
▁neglecta	-11.9442
▁paradoxa	-11.9442
▁prefecture	-11.9442
▁südwestpfalz	-11.9442
=2178	-11.9442
=2186	-11.9442
=2235	-11.9442
=2325	-11.9442
=2397	-11.9442
▁corynidae	-11.9442
=441	-11.9442
▁rehder	-11.9442
anaitides	-11.9442
leonnates	-11.9442
=2324	-11.9442
▁verbano	-11.9442
▁furcata	-11.9442
▁kabutngaan	-11.9442
▁parvus	-11.9442
=284	-11.9443
=1072	-11.9443
▁sosyal	-11.9443
fontenay	-11.9443
="2296	-11.9443
="2273	-11.9444
="2267	-11.9444
="2257	-11.9444
="2169	-11.9444
="2151	-11.9444
="2130	-11.9444
="2183	-11.9444
="2184	-11.9444
="2141	-11.9444
="1077	-11.9444
="2194	-11.9445
="1179	-11.9445
="2226	-11.9445
=1693	-11.9445
=1674	-11.9446
="1563	-11.9446
="2235	-11.9446
="2397	-11.9446
="1565	-11.9446
="2210	-11.9446
="1669	-11.9446
="1667	-11.9446
="1607	-11.9447
="2212	-11.9448
="285	-11.9449
="1878	-11.945
inarabo	-11.9462
=2016	-11.9555
=2038	-11.9555
=2051	-11.9555
=2075	-11.9555
=2140	-11.9555
=2141	-11.9555
=2151	-11.9555
=2169	-11.9555
=2184	-11.9555
=2190	-11.9555
=2194	-11.9555
=2211	-11.9555
=2218	-11.9555
=2237	-11.9555
=2258	-11.9555
=2259	-11.9555
=2275	-11.9555
=2330	-11.9555
ekonomika	-11.9555
nangunguna	-11.9555
=2183	-11.9555
=2230	-11.9555
cespitularia	-11.9555
coryphella	-11.9555
pectinodrilus	-11.9555
vespericola	-11.9555
▁tuminongnong	-11.9555
▁zibrowius	-11.9555
▁moseley	-11.9555
▁agusan	-11.9555
▁europeo	-11.9555
=819	-11.9555
=407	-11.9555
="2102	-11.9556
=917	-11.9556
=913	-11.9556
="2135	-11.9556
="2275	-11.9556
="2131	-11.9556
="2165	-11.9556
="2258	-11.9556
="2185	-11.9557
="2171	-11.9557
=1815	-11.9557
="2193	-11.9557
="2237	-11.9558
="2230	-11.9558
="2211	-11.9558
="2042	-11.9558
="2092	-11.9558
="1668	-11.9558
="2050	-11.9559
=1342	-11.9559
=1998	-11.9559
=1569	-11.956
="1778	-11.9562
="2218	-11.9566
=1187	-11.9586
mooreonuphis	-11.9613
=2087	-11.9668
=2102	-11.9668
=2131	-11.9668
=2135	-11.9668
=2165	-11.9668
=2253	-11.9668
=2256	-11.9668
=2268	-11.9668
ephesiella	-11.9668
impluwensya	-11.9668
stylarioides	-11.9668
▁emperador	-11.9668
▁kompositor	-11.9668
▁nangungukoy	-11.9668
▁valdiviae	-11.9668
=2171	-11.9668
=2185	-11.9668
=2193	-11.9668
=2232	-11.9668
=2312	-11.9668
=2385	-11.9668
=814	-11.9668
▁dungog	-11.9668
=2246	-11.9668
▁castanea	-11.9668
▁nobilis	-11.9668
▁antillarum	-11.9668
▁parchim	-11.9668
▁naubos	-11.9668
=294	-11.9669
▁london	-11.9669
mohnia	-11.9669
="2268	-11.967
="2256	-11.967
="2142	-11.9671
="2253	-11.9671
="2246	-11.9671
="2034	-11.9672
=1887	-11.9672
="2046	-11.9672
="2049	-11.9672
=1667	-11.9672
="2232	-11.9672
=1669	-11.9673
=1077	-11.9673
=1565	-11.9673
=1563	-11.9673
▁uchida	-11.9677
=1878	-11.97
=1179	-11.9718
acqua	-11.975
=2014	-11.9783
=2017	-11.9783
=2042	-11.9783
=2092	-11.9783
=2130	-11.9783
=2142	-11.9783
=2220	-11.9783
=2238	-11.9783
=2328	-11.9783
=285	-11.9783
=549	-11.9783
=553	-11.9783
clavularia	-11.9783
constellation	-11.9783
fürsten	-11.9783
hermadion	-11.9783
scalibregmatidae	-11.9783
volutopsius	-11.9783
▁afganistan	-11.9783
▁benevento	-11.9783
▁buruhaton	-11.9783
▁dunajsk	-11.9783
▁margarita	-11.9783
▁papillata	-11.9783
▁sondrio	-11.9783
▁biliran	-11.9783
▁finlay	-11.9783
=2387	-11.9783
▁plessis	-11.9783
▁materya	-11.9784
tricolia	-11.9784
="2103	-11.9784
="2106	-11.9784
="2177	-11.9785
="2174	-11.9785
="2180	-11.9785
="1085	-11.9785
="2172	-11.9785
=1778	-11.9786
="2088	-11.9786
=1668	-11.9787
=1710	-11.9787
="2006	-11.9788
="1775	-11.9789
gnicourt	-11.9789
="2220	-11.9791
="2022	-11.9792
="793	-11.9832
dampierre	-11.9847
nobyembre	-11.9861
kalibutan	-11.9861
coronel	-11.989
=2103	-11.9899
=2013	-11.9899
=2015	-11.9899
=2034	-11.9899
=2046	-11.9899
=2048	-11.9899
=2049	-11.9899
=2106	-11.9899
=2221	-11.9899
=2251	-11.9899
=2310	-11.9899
=2469	-11.9899
▁annenkova	-11.9899
=2172	-11.9899
=2174	-11.9899
=2177	-11.9899
clymenura	-11.9899
crucibulum	-11.9899
cyclostremiscus	-11.9899
donnersbergkreis	-11.9899
euphrosyne	-11.9899
gallirallus	-11.9899
staurocephalus	-11.9899
▁ahrweiler	-11.9899
▁bermudensis	-11.9899
▁compressa	-11.9899
▁cuspidariidae	-11.9899
▁kababayin	-11.9899
▁pontevedra	-11.9899
▁svidník	-11.9899
▁vaughan	-11.9899
▁barangay	-11.9899
▁exigua	-11.9899
▁ecija	-11.9899
leuckartiara	-11.99
clermont	-11.99
resulta	-11.99
=793	-11.99
=323	-11.99
="2108	-11.9901
="2164	-11.9901
="2136	-11.9901
="2173	-11.9901
="2251	-11.9901
="2110	-11.9902
="2469	-11.9902
="1042	-11.9902
="2056	-11.9903
="2035	-11.9903
="2047	-11.9904
="2221	-11.9904
="1841	-11.9906
="1890	-11.9906
pebrero	-11.998
▁rullier	-12.0017
=2006	-12.0017
=2022	-12.0017
=2050	-12.0017
=2108	-12.0017
=2113	-12.0017
=2114	-12.0017
=2164	-12.0017
=2407	-12.0017
=2467	-12.0017
=2468	-12.0017
=2088	-12.0017
=2136	-12.0017
=2173	-12.0017
ancistrosyllis	-12.0017
austrochloritis	-12.0017
cocculina	-12.0017
coralliophila	-12.0017
genetyllis	-12.0017
glossodoris	-12.0017
▁eudendriidae	-12.0017
▁japonicus	-12.0017
▁nangangahulogan	-12.0017
▁splendens	-12.0017
▁tacloban	-12.0017
▁cagliari	-12.0017
▁nidaliidae	-12.0017
spinther	-12.0017
▁sassari	-12.0017
▁uruguay	-12.0017
▁paraguay	-12.0017
bruyère	-12.0017
samytha	-12.0017
pfalz	-12.0017
=318	-12.0017
poggio	-12.0018
="2128	-12.0018
commons	-12.0019
="2468	-12.002
="2197	-12.002
solmaris	-12.002
=1775	-12.002
="2467	-12.002
=1085	-12.002
="2074	-12.0021
="1170	-12.0021
="2026	-12.0021
bankia	-12.0021
="1809	-12.0024
="1854	-12.0025
=1484	-12.0049
hulyo	-12.0102
▁governador	-12.0136
=2035	-12.0136
=2047	-12.0136
=2056	-12.0136
=2128	-12.0136
=2202	-12.0136
=2250	-12.0136
=2260	-12.0136
=2266	-12.0136
=2299	-12.0136
=2440	-12.0136
=2461	-12.0136
=2180	-12.0136
=2197	-12.0136
=2228	-12.0136
=2234	-12.0136
=2239	-12.0136
=2313	-12.0136
=2327	-12.0136
=2457	-12.0136
bathypathes	-12.0136
fluminicola	-12.0136
graptacme	-12.0136
lepidopora	-12.0136
litophyton	-12.0136
propebela	-12.0136
siphonodentalium	-12.0136
▁aserbaiyan	-12.0136
▁glacialis	-12.0136
▁prievidza	-12.0136
▁singularis	-12.0136
▁truncata	-12.0136
▁álava	-12.0136
monadenia	-12.0136
madracis	-12.0136
▁contorta	-12.0136
▁ocellata	-12.0136
;2013-01-	-12.0136
campeloma	-12.0136
limnodrilus	-12.0136
▁setosa	-12.0136
kaluwas	-12.0137
▁tasmani	-12.0137
="2126	-12.0137
helobdella	-12.0137
="2127	-12.0137
="2266	-12.0138
="2299	-12.0138
="2143	-12.0139
paralaoma	-12.0139
="2202	-12.0139
="1063	-12.0139
="1089	-12.0139
=1841	-12.0139
="2461	-12.0139
="2234	-12.0139
="2228	-12.0139
="2239	-12.014
="2099	-12.014
="2457	-12.014
=1567	-12.0142
="1769	-12.0144
=1042	-12.0145
catinella	-12.0147
brecht	-12.015
=1123	-12.0154
=1876	-12.0171
ehlersia	-12.0211
oktubre	-12.0222
=2074	-12.0257
=2110	-12.0257
=2117	-12.0257
=2126	-12.0257
=2473	-12.0257
pleuroxia	-12.0257
▁actinostolidae	-12.0257
▁eirenidae	-12.0257
▁enerhiya	-12.0257
▁hartlaub	-12.0257
▁kabugkiran	-12.0257
▁lučenec	-12.0257
▁panlangyaw	-12.0257
=2023	-12.0257
=2026	-12.0257
=2127	-12.0257
=2143	-12.0257
=2227	-12.0257
=2249	-12.0257
▁bologna	-12.0257
▁neunkirchen	-12.0257
fjord	-12.0257
▁muller	-12.0257
▁valentia	-12.0257
cyphoma	-12.0257
▁templo	-12.0257
anthomuricea	-12.0257
metavermilia	-12.0257
="2132	-12.0259
="2170	-12.0259
="2179	-12.0259
="2070	-12.026
="2249	-12.026
=1854	-12.0261
=1927	-12.0262
="1807	-12.0263
="1858	-12.0263
="1855	-12.0264
="1791	-12.0264
="1795	-12.0265
mör	-12.0282
grün	-12.0301
langerhansia	-12.0311
=2099	-12.0379
=2119	-12.0379
=2132	-12.0379
=2466	-12.0379
=2179	-12.0379
=2240	-12.0379
▁abakadahan	-12.0379
▁corymorphidae	-12.0379
▁pampanga	-12.0379
▁profundi	-12.0379
▁váhom	-12.0379
histioteuthis	-12.0379
=2317	-12.0379
▁savona	-12.0379
fauveliopsis	-12.0379
lafoea	-12.0379
="2134	-12.038
="2175	-12.0381
="2466	-12.0382
=1963	-12.0383
=1890	-12.0383
=1063	-12.0383
=1670	-12.0383
=1985	-12.0385
="1863	-12.0385
=1089	-12.0385
=1809	-12.0385
europe	-12.039
=1769	-12.042
=2018	-12.0502
=2019	-12.0502
=2021	-12.0502
=2134	-12.0502
scalibregma	-12.0502
=2175	-12.0502
=2203	-12.0502
=2277	-12.0502
=2462	-12.0502
=2498	-12.0502
fusconaia	-12.0502
pterocirrus	-12.0502
▁cerianthidae	-12.0502
▁croatia	-12.0502
▁duchassaing	-12.0502
▁hirsuta	-12.0502
▁komunista	-12.0502
▁konstitusyon	-12.0502
▁teyorya	-12.0502
▁rafael	-12.0502
jacques	-12.0502
▁viterbo	-12.0502
=2438	-12.0502
paragorgia	-12.0502
▁sucre	-12.0502
=792	-12.0503
="2277	-12.0504
=1819	-12.0505
=1726	-12.0505
=1795	-12.0507
=1858	-12.0507
=1855	-12.0507
=1791	-12.0507
=1997	-12.0508
=1807	-12.0508
="1783	-12.0508
="1875	-12.0509
=1170	-12.0555
amihanan	-12.0597
▁knight	-12.0627
=2000	-12.0627
=2252	-12.0627
=2241	-12.0627
=2243	-12.0627
=2245	-12.0627
=2247	-12.0627
=2262	-12.0627
=2439	-12.0627
=2458	-12.0627
=2474	-12.0627
axiothella	-12.0627
▁aculeata	-12.0627
▁canavese	-12.0627
▁complanata	-12.0627
▁corrugata	-12.0627
▁fasciata	-12.0627
▁groenlandica	-12.0627
▁oerstedi	-12.0627
=2170	-12.0627
=2248	-12.0627
worms	-12.0627
▁puwersa	-12.0627
▁minutus	-12.0627
▁concinna	-12.0627
=2316	-12.0627
junceella	-12.0627
siliqua	-12.0628
gonatus	-12.0628
=904	-12.0628
="2262	-12.0629
=1993	-12.0631
=1665	-12.0632
=1966	-12.0632
=1663	-12.0632
=1863	-12.0632
="1883	-12.0633
=1991	-12.0633
="1857	-12.0634
=1912	-12.0634
sidlangan	-12.0725
ocephalus	-12.0727
=2070	-12.0754
=2470	-12.0754
astrangia	-12.0754
cavernularia	-12.0754
cincinnatia	-12.0754
daedalochila	-12.0754
ilyphagus	-12.0754
iskwelahan	-12.0754
leptoseris	-12.0754
ocinebrina	-12.0754
onithochiton	-12.0754
peosidrilus	-12.0754
▁orihinal	-12.0754
▁turbinoliidae	-12.0754
▁zoanthidae	-12.0754
▁zámky	-12.0754
mastigoteuthis	-12.0754
primnoa	-12.0754
=2223	-12.0754
=2225	-12.0754
oxyloma	-12.0754
subergorgia	-12.0754
▁phillip	-12.0754
=2419	-12.0754
haminoea	-12.0754
elysia	-12.0754
▁weberi	-12.0754
deklara	-12.0754
mopsella	-12.0754
euzonus	-12.0754
=910	-12.0755
tritonia	-12.0756
=1845	-12.0757
=1829	-12.0758
=1796	-12.0759
=1718	-12.0759
=1799	-12.0759
=1792	-12.0759
=1971	-12.076
=1349	-12.076
="1882	-12.076
pachycerianthus	-12.0761
=1783	-12.0763
=1549	-12.0763
=1875	-12.0793
=1767	-12.0794
=2111	-12.0882
=2112	-12.0882
=2214	-12.0882
=2244	-12.0882
=2408	-12.0882
=2436	-12.0882
primnoella	-12.0882
scoletoma	-12.0882
▁chukotka	-12.0882
▁eugène	-12.0882
▁magnifica	-12.0882
▁pilipinhon	-12.0882
▁piscicolidae	-12.0882
▁rohrbach	-12.0882
=552	-12.0882
=2314	-12.0882
=2417	-12.0882
pallifera	-12.0882
▁madison	-12.0882
▁kolonya	-12.0882
▁tenerife	-12.0882
=338	-12.0883
=1835	-12.0883
=885	-12.0883
proseso	-12.0884
=1844	-12.0885
="1168	-12.0885
=1694	-12.0885
=1727	-12.0885
=1779	-12.0886
=1886	-12.0886
=1883	-12.0886
=1857	-12.0887
=1859	-12.0888
=1862	-12.0888
=1554	-12.0888
=1709	-12.0889
=1801	-12.0889
=2213	-12.1012
=2288	-12.1012
=2306	-12.1012
=2475	-12.1012
hexapodibius	-12.1012
leocrates	-12.1012
▁cordillera	-12.1012
▁drilliidae	-12.1012
▁hungarya	-12.1012
▁maguindanao	-12.1012
▁romblon	-12.1012
▁rudolf	-12.1012
▁tailandya	-12.1012
▁valenciennes	-12.1012
▁collaris	-12.1012
=2416	-12.1012
=2445	-12.1012
=2476	-12.1012
▁belluno	-12.1012
peachia	-12.1012
=1968	-12.1013
=954	-12.1013
=1770	-12.1015
=1965	-12.1016
=1898	-12.1016
=1897	-12.1016
=1797	-12.1017
=1882	-12.1017
=1908	-12.1017
=1800	-12.1019
=1959	-12.1019
=1557	-12.1019
=1787	-12.1022
=1178	-12.107
=2002	-12.1143
=2025	-12.1143
=2254	-12.1143
aesopus	-12.1143
alasmidonta	-12.1143
compsodrillia	-12.1143
kurtziella	-12.1143
▁dichotoma	-12.1143
▁labnasan	-12.1143
=2452	-12.1143
=2453	-12.1143
▁abranchiata	-12.1143
▁compacta	-12.1143
▁lactea	-12.1143
▁cancellata	-12.1143
▁pilipino	-12.1143
ilyodrilus	-12.1143
=2460	-12.1143
=2315	-12.1143
▁venesya	-12.1143
▁larangan	-12.1143
▁thiele	-12.1144
=1837	-12.1145
=1904	-12.1147
=1810	-12.1147
=1818	-12.1147
=1738	-12.1148
=1660	-12.1149
=1716	-12.1149
=1906	-12.1149
=1707	-12.115
=1910	-12.115
=1806	-12.115
=1992	-12.115
=1555	-12.1151
=1168	-12.117
=1874	-12.1182
disyembre	-12.1255
=2005	-12.1277
=2020	-12.1277
=2261	-12.1277
=2297	-12.1277
=2406	-12.1277
=2463	-12.1277
cerithidea	-12.1277
mediomastus	-12.1277
phalacrostemma	-12.1277
scalisetosus	-12.1277
sphaerodorum	-12.1277
▁elisabeth	-12.1277
▁erzgebirgskreis	-12.1277
▁glasby	-12.1277
▁hystrix	-12.1277
▁olividae	-12.1277
▁rhytididae	-12.1277
▁stiasny	-12.1277
▁jordan	-12.1277
▁florensya	-12.1277
▁kasagaran	-12.1277
▁ornatus	-12.1277
euniphysa	-12.1277
=2415	-12.1277
=2459	-12.1277
tetreres	-12.1277
=1917	-12.1277
cerodrillia	-12.1277
haliotis	-12.1279
=1680	-12.1281
=1695	-12.1281
posisyon	-12.1281
=1967	-12.1281
=1964	-12.1281
=1895	-12.1282
=1889	-12.1282
=1752	-12.1282
=1994	-12.1283
=1969	-12.1283
=1704	-12.1283
=1712	-12.1283
=1706	-12.1283
=1087	-12.1284
=1808	-12.1284
=1956	-12.1284
=1056	-12.1285
suporta	-12.1285
philippine	-12.1326
lopadorrhynchus	-12.1393
=2233	-12.1412
=2465	-12.1412
▁brevicirra	-12.1412
=2451	-12.1412
actinostola	-12.1412
alcithoe	-12.1412
cryptoplax	-12.1412
enoploteuthis	-12.1412
grimpoteuthis	-12.1412
lumbrinerides	-12.1412
mesomphix	-12.1412
nereimyra	-12.1412
pristiloma	-12.1412
sathodrilus	-12.1412
seguenzia	-12.1412
stephanocyathus	-12.1412
▁acuminata	-12.1412
▁antwerpen	-12.1412
▁bebravou	-12.1412
▁brevicornis	-12.1412
▁californicus	-12.1412
▁cambarincolidae	-12.1412
▁impormasyon	-12.1412
▁mortenseni	-12.1412
▁shizuoka	-12.1412
▁sobrance	-12.1412
adelodrilus	-12.1412
▁producta	-12.1412
▁prolifera	-12.1412
fissurella	-12.1412
=2448	-12.1412
=2423	-12.1412
meiningen	-12.1412
▁libertad	-12.1412
elfingen	-12.1412
=1834	-12.1413
=788	-12.1413
=1832	-12.1413
=1846	-12.1413
hütte	-12.1414
=1696	-12.1416
=1842	-12.1416
=1666	-12.1417
=1789	-12.1424
=1768	-12.1458
candela	-12.1514
kasaysayan	-12.1532
=2332	-12.1549
=2398	-12.1549
=2409	-12.1549
=2426	-12.1549
=2472	-12.1549
cavolinia	-12.1549
kirchenpaueria	-12.1549
lacydonia	-12.1549
pocillopora	-12.1549
swiftia	-12.1549
▁deshayes	-12.1549
▁dumagsaan	-12.1549
▁güstrow	-12.1549
▁naglulugaring	-12.1549
▁nuculanidae	-12.1549
▁pansekundarya	-12.1549
=2456	-12.1549
▁ofwegen	-12.1549
=2497	-12.1549
beringius	-12.1549
=1820	-12.1549
▁tropica	-12.1549
=948	-12.1551
=953	-12.1551
=1724	-12.1553
=1823	-12.1553
=1711	-12.1555
=1865	-12.1555
=1962	-12.1555
=1928	-12.1556
=1954	-12.1556
=1972	-12.1556
=1986	-12.1557
=1953	-12.1557
heiligen	-12.1578
=2471	-12.1688
=2052	-12.1688
chrysopetalum	-12.1688
▁carolinensis	-12.1688
▁elongatus	-12.1688
▁kasahiran	-12.1688
▁laevigata	-12.1688
▁monferrato	-12.1688
▁neuwied	-12.1688
▁nuttalli	-12.1688
▁patagonica	-12.1688
▁tubulariidae	-12.1688
▁yoldiidae	-12.1688
=2222	-12.1688
=2320	-12.1688
mathilda	-12.1688
▁beijing	-12.1688
▁falkland	-12.1688
▁montereyensis	-12.1688
▁versluys	-12.1688
▁bulacan	-12.1688
▁sabinov	-12.1688
▁gregory	-12.1688
circulus	-12.1688
=914	-12.1689
=1811	-12.1691
=1813	-12.1692
=1733	-12.1692
=1772	-12.1693
=1728	-12.1693
=1903	-12.1693
=1715	-12.1694
=1860	-12.1694
=1920	-12.1694
=1970	-12.1695
=1084	-12.1695
=1877	-12.1735
enstedt	-12.1798
malmgrenia	-12.18
gastropoda	-12.1815
=2444	-12.1828
=2283	-12.1828
glacidorbis	-12.1828
notophyllum	-12.1828
potamothrix	-12.1828
staurocladia	-12.1828
trichobranchidae	-12.1828
truncatella	-12.1828
▁frederick	-12.1828
▁hronom	-12.1828
▁kirkegaard	-12.1828
▁levinsen	-12.1828
▁müller	-12.1828
steggoa	-12.1828
acoetes	-12.1828
▁panukol	-12.1828
amphinema	-12.1828
leitoscoloplos	-12.1828
▁lubelski	-12.1829
=2418	-12.1829
=2424	-12.1829
=1916	-12.1829
vallée	-12.1829
modulus	-12.1829
=1774	-12.1832
=1961	-12.1833
=1891	-12.1834
=1673	-12.1835
=1861	-12.1835
=1984	-12.1835
=1975	-12.1835
=1703	-12.1836
=1902	-12.1836
=1911	-12.1836
=1802	-12.1837
=1979	-12.1837
=1766	-12.1879
=2369	-12.1971
=2435	-12.1971
itaquascon	-12.1971
=2410	-12.1971
=2421	-12.1971
=2447	-12.1971
bunodosoma	-12.1971
hesionides	-12.1971
lumbriclymene	-12.1971
notocirrus	-12.1971
xanthomelon	-12.1971
▁calatrava	-12.1971
▁gilchristi	-12.1971
▁kasirigngon	-12.1971
▁montgomery	-12.1971
▁norvegica	-12.1971
▁olindiasidae	-12.1971
▁rondônia	-12.1971
▁spinifera	-12.1971
castelnuovo	-12.1971
timarete	-12.1971
velutina	-12.1971
▁diadema	-12.1971
mopsea	-12.1972
=1794	-12.1973
=1847	-12.1974
=1848	-12.1975
=1773	-12.1975
=1698	-12.1976
=1812	-12.1976
=1699	-12.1977
=1960	-12.1977
=1885	-12.1977
=1864	-12.1977
=1907	-12.1977
=1856	-12.1978
=1057	-12.1978
=1866	-12.1978
=1905	-12.1978
=1719	-12.1978
=1705	-12.1979
=1987	-12.198
=1788	-12.1983
=1765	-12.2023
=1241	-12.2045
parokya	-12.2107
symphorien	-12.2116
=2004	-12.2116
=2287	-12.2116
=2464	-12.2116
abbaye	-12.2116
acanthastrea	-12.2116
alveopora	-12.2116
calycopsis	-12.2116
cerianthula	-12.2116
clément	-12.2116
conceição	-12.2116
cristilabrum	-12.2116
echinopora	-12.2116
erythropodium	-12.2116
flabellina	-12.2116
hesionura	-12.2116
hyalopomatus	-12.2116
octochaetus	-12.2116
onchidoris	-12.2116
phyllactis	-12.2116
sphenotrochus	-12.2116
▁acoetidae	-12.2116
▁bautzen	-12.2116
▁mittelsachsen	-12.2116
▁schmalkalden	-12.2116
▁sinugboanon	-12.2116
discodoris	-12.2116
vesicomya	-12.2116
▁kardinal	-12.2116
=2488	-12.2116
alciopa	-12.2116
myxicola	-12.2116
▁winston	-12.2116
fontigens	-12.2116
=2414	-12.2116
=2422	-12.2116
lirobittium	-12.2116
;2014-03-0	-12.2116
▁makikit	-12.2116
dischides	-12.2116
anguispira	-12.2118
=955	-12.2119
=1771	-12.2121
=1894	-12.2122
=1721	-12.2122
=1896	-12.2122
=1713	-12.2123
=1708	-12.2124
=1909	-12.2124
=1980	-12.2125
=1702	-12.2125
=1957	-12.2125
=1080	-12.2126
=1782	-12.213
bussière	-12.2132
=2307	-12.2263
=2403	-12.2263
=2441	-12.2263
amblyosyllis	-12.2263
chrysaora	-12.2263
dasybranchus	-12.2263
laodicea	-12.2263
sagartiogeton	-12.2263
▁anthothelidae	-12.2263
▁breisgau	-12.2263
▁broderip	-12.2263
▁cinerea	-12.2263
▁expansa	-12.2263
▁foggia	-12.2263
▁ochracea	-12.2263
=2001	-12.2263
=2282	-12.2263
=2484	-12.2263
▁langyaw	-12.2264
=829	-12.2265
=1852	-12.2265
milnesium	-12.2265
=781	-12.2265
=1735	-12.2265
=950	-12.2266
=952	-12.2266
=1850	-12.2266
=1839	-12.2267
=1836	-12.2267
=1830	-12.2267
=1816	-12.2268
=1921	-12.2269
=1736	-12.2269
=1734	-12.2269
=1880	-12.2269
=1798	-12.227
=1790	-12.227
=1722	-12.227
=1717	-12.227
=1629	-12.2271
=1995	-12.2271
=1701	-12.2272
=1929	-12.2272
=1786	-12.2273
caruncul	-12.2287
=1128	-12.229
=1873	-12.2317
=2402	-12.2413
=2446	-12.2413
=2478	-12.2413
=2007	-12.2413
=2008	-12.2413
=2405	-12.2413
=2428	-12.2413
=2496	-12.2413
arachnactis	-12.2413
dinophilus	-12.2413
manayunkia	-12.2413
phymanthus	-12.2413
thersites	-12.2413
▁alderslade	-12.2413
▁australya	-12.2413
▁heterochaeta	-12.2413
▁kermadecensis	-12.2413
▁kölliker	-12.2413
▁marginellidae	-12.2413
▁novgorod	-12.2413
▁pectinariidae	-12.2413
▁representante	-12.2413
▁revúca	-12.2413
▁sebastião	-12.2413
▁stormarn	-12.2413
▁succineidae	-12.2413
▁uecker	-12.2413
=2009	-12.2413
=2450	-12.2413
=2482	-12.2413
iphitime	-12.2413
=2425	-12.2413
=2490	-12.2413
durudilain	-12.2413
=2412	-12.2413
=2300	-12.2413
=1825	-12.2416
=1828	-12.2416
=1753	-12.2419
=1893	-12.2419
=1881	-12.2419
=1843	-12.2419
=1899	-12.2419
=1869	-12.242
=1990	-12.2421
=1079	-12.2421
=1958	-12.2422
=1989	-12.2423
=1870	-12.2467
unibersidad	-12.2561
=2368	-12.2564
=2449	-12.2564
abraliopsis	-12.2564
acrocirrus	-12.2564
euprymna	-12.2564
gyrocochlea	-12.2564
meridolum	-12.2564
metridium	-12.2564
petaloproctus	-12.2564
propeamussium	-12.2564
▁alternata	-12.2564
▁bárbara	-12.2564
▁coccinea	-12.2564
▁cuxhaven	-12.2564
▁diphyidae	-12.2564
▁euphrosinidae	-12.2564
▁excavata	-12.2564
▁flexuosa	-12.2564
▁görlitz	-12.2564
▁kežmarok	-12.2564
▁otagoensis	-12.2564
▁planorbidae	-12.2564
▁rebelyon	-12.2564
▁stropkov	-12.2564
=2255	-12.2564
=2303	-12.2564
=2443	-12.2564
=2483	-12.2564
▁granulosa	-12.2564
▁siyensya	-12.2564
▁mitchell	-12.2564
barleeia	-12.2564
=2400	-12.2564
=2318	-12.2564
sulzbach	-12.2565
=915	-12.2566
=1974	-12.2567
=1831	-12.2569
=1754	-12.257
=1884	-12.257
=1720	-12.257
=1793	-12.257
villafranca	-12.257
=1737	-12.2571
=1892	-12.2571
=1939	-12.2572
=1700	-12.2573
=1977	-12.2573
=1988	-12.2574
=1780	-12.2575
septyembre	-12.2718
=2308	-12.2718
=2292	-12.2718
=2367	-12.2718
=2399	-12.2718
=2455	-12.2718
sternaspis	-12.2718
▁alciopidae	-12.2718
▁bawbaw	-12.2718
▁brinkhurst	-12.2718
▁calyptraeidae	-12.2718
▁chrysopetalidae	-12.2718
▁griniyego	-12.2718
▁pennatulidae	-12.2718
▁pygmaea	-12.2718
▁sarakyan	-12.2718
▁wartburgkreis	-12.2718
=2437	-12.2718
=2486	-12.2718
ç	-13.4177
ß	-13.4178
<	-13.4179
