<unk>	0
<s>	0
</s>	0
,	-3.01123
的	-3.65427
。	-3.69805
▁	-4.12963
、	-4.47901
年	-4.73531
在	-4.86309
.	-4.96106
和	-5.12928
(	-5.2406
="	-5.42378
是	-5.42551
中	-5.56251
月	-5.57354
▁##	-5.57647
)	-5.65183
人	-5.68674
了	-5.81349
日	-5.82511
有	-5.83438
大	-5.89517
為	-5.95781
《	-6.01205
以	-6.05313
doc	-6.09904
“	-6.10167
「	-6.10432
为	-6.10806
上	-6.12776
與	-6.1705
而	-6.18116
:	-6.19084
"	-6.19804
;	-6.20254
·	-6.2082
》	-6.21472
c	-6.21613
被	-6.2453
一	-6.27393
不	-6.2866
等	-6.28871
及	-6.30076
之	-6.3287
於	-6.33173
他	-6.3814
1	-6.4212
/	-6.48303
到	-6.53894
3	-6.55145
2	-6.55189
也	-6.57559
-	-6.57573
zh	-6.58544
与	-6.5926
其	-6.5985
由	-6.6032
地	-6.61304
」	-6.62289
後	-6.62308
但	-6.64498
4	-6.65914
”	-6.6645
所	-6.67306
5	-6.70595
?	-6.71035
山	-6.73094
下	-6.73444
于	-6.75428
或	-6.75744
新	-6.7603
org	-6.78432
wiki	-6.78588
▁id	-6.78938
://	-6.79075
>	-6.79229
https	-6.79278
wikipedia	-6.7938
▁<	-6.7939
▁url	-6.79481
▁title	-6.79502
▁categories	-6.79538
urid	-6.79554
▁</	-6.79694
">	-6.79752
7	-6.80439
6	-6.80904
),	-6.81131
出	-6.81371
三	-6.81389
名	-6.81855
多	-6.83174
時	-6.83757
會	-6.83845
斯	-6.84105
法	-6.8454
德	-6.85673
子	-6.85721
西	-6.85776
前	-6.862
后	-6.86234
高	-6.87596
8	-6.88105
性	-6.89006
9	-6.89551
至	-6.89597
10	-6.89977
家	-6.91137
文	-6.94238
用	-6.95747
特	-6.96906
水	-6.97817
南	-6.98573
对	-6.99075
對	-7.00657
都	-7.02608
天	-7.02736
者	-7.02949
外	-7.04785
王	-7.04938
市	-7.0514
小	-7.06862
並	-7.09359
海	-7.09532
國	-7.10896
12	-7.11005
將	-7.11323
部	-7.12068
可	-7.12496
道	-7.12531
成	-7.15634
时	-7.16113
=	-7.17576
城	-7.18088
州	-7.1842
分	-7.18496
克	-7.1899
自	-7.19348
向	-7.20307
使用	-7.21956
11	-7.22452
化	-7.23892
并	-7.24337
政府	-7.24875
18	-7.25022
可以	-7.25763
生	-7.27283
里	-7.2784
)。	-7.2786
s	-7.27913
就	-7.28538
以及	-7.28834
北	-7.29492
因	-7.29648
将	-7.2981
金	-7.29842
本	-7.31284
拉	-7.3195
如	-7.32773
国	-7.34592
会	-7.35148
長	-7.35624
安	-7.36724
中国	-7.37252
比	-7.37739
包括	-7.37803
軍	-7.40135
日本	-7.40703
入	-7.41128
四	-7.41344
香港	-7.41436
明	-7.42242
利	-7.4253
尔	-7.42647
行	-7.428
林	-7.42954
力	-7.44339
正	-7.44853
二	-7.44981
县	-7.45062
重	-7.45545
區	-7.45826
军	-7.46672
來	-7.46939
同	-7.48051
即	-7.48113
路	-7.48385
台	-7.48465
区	-7.48841
光	-7.48977
加	-7.49409
面	-7.49556
又	-7.49562
公	-7.49601
第	-7.50004
全	-7.50189
17	-7.50934
从	-7.50955
作	-7.51017
河	-7.51028
要	-7.52249
长	-7.52621
爾	-7.52772
更	-7.5303
其中	-7.53229
个	-7.53855
從	-7.54263
原	-7.54587
使	-7.54685
因此	-7.55244
20	-7.55299
已	-7.55335
能	-7.55353
則	-7.55832
米	-7.55875
手	-7.55947
阿	-7.57087
內	-7.5751
位	-7.57883
元	-7.57946
此	-7.58282
制	-7.58352
最	-7.58592
定	-7.58877
李	-7.59021
派	-7.59407
15	-7.59483
曾	-7.60255
平	-7.60537
石	-7.60775
内	-7.61004
站	-7.62066
亦	-7.62558
江	-7.62585
美	-7.62885
东	-7.63799
来	-7.6416
事	-7.64356
一个	-7.64902
度	-7.64916
民	-7.65802
古	-7.65808
主要	-7.66451
神	-7.67035
16	-7.67087
白	-7.67717
世界	-7.68501
心	-7.68641
東	-7.68742
馬	-7.68752
起	-7.68756
主	-7.6904
公司	-7.69342
中國	-7.69663
五	-7.69774
次	-7.70043
學	-7.70183
科	-7.70608
文化	-7.70747
成為	-7.70908
d	-7.71214
学	-7.72038
字	-7.72141
該	-7.72284
清	-7.72485
巴	-7.72496
受	-7.72617
a	-7.72723
)、	-7.72747
”。	-7.7279
研究	-7.73061
局	-7.73353
式	-7.74413
這	-7.74501
線	-7.74749
美國	-7.7503
尼	-7.75068
卡	-7.75096
語	-7.75167
無	-7.75866
方	-7.76478
相	-7.76615
格	-7.77254
首	-7.77574
大学	-7.7761
省	-7.77916
把	-7.78019
之一	-7.78029
其他	-7.784
各	-7.79437
口	-7.79576
星	-7.8086
它	-7.81135
號	-7.81162
」,	-7.81238
波	-7.81295
国家	-7.81421
n	-7.81592
任	-7.81743
回	-7.81972
政	-7.82552
流	-7.82845
一個	-7.8309
開始	-7.83314
立	-7.83564
共	-7.83803
b	-7.83918
兩	-7.83948
士	-7.84046
信	-7.84124
基	-7.84657
商	-7.84683
这	-7.84837
她	-7.84852
得	-7.85171
通	-7.86452
合	-7.86482
马	-7.86718
=1	-7.86773
約	-7.86874
语	-7.87264
布	-7.87364
formula	-7.87838
▁在	-7.87938
數	-7.88134
教	-7.8821
音	-7.88258
體	-7.88283
戰	-7.88359
機	-7.88671
花	-7.89712
史	-7.89916
大學	-7.90638
m	-7.90754
号	-7.9079
女	-7.91268
表示	-7.9168
過	-7.91712
美国	-7.91803
世	-7.92023
量	-7.92073
集	-7.92375
体	-7.92553
非	-7.92674
兵	-7.9319
工作	-7.93504
第一	-7.93723
」。	-7.93729
指	-7.94025
物	-7.94028
一些	-7.9444
建	-7.94448
反	-7.94611
型	-7.94711
13	-7.94904
當	-7.94936
代	-7.95076
30	-7.95763
英	-7.95889
”,	-7.9599
年代	-7.96161
开始	-7.96162
族	-7.96216
部分	-7.9633
老	-7.96349
才	-7.96535
中的	-7.96572
台灣	-7.97265
该	-7.97343
周	-7.97343
14	-7.97458
两	-7.97497
去	-7.97514
塔	-7.97874
g	-7.97977
政治	-7.97997
罗	-7.9826
球	-7.98334
認為	-7.98465
地区	-7.98609
說	-7.98725
成为	-7.98783
再	-7.99013
代表	-7.99109
港	-7.9995
官	-8.00088
今	-8.00181
亞	-8.00403
田	-8.00407
数	-8.00417
八	-8.00579
城市	-8.00847
例如	-8.00858
宗	-8.00883
書	-8.0094
個	-8.00974
t	-8.01164
萬	-8.01366
縣	-8.01511
常	-8.01596
稱	-8.01692
夫	-8.01917
著	-8.0234
成立	-8.02463
f	-8.02504
称	-8.02773
好	-8.02915
教育	-8.03174
万	-8.03219
线	-8.03221
器	-8.03259
達	-8.03368
p	-8.03621
期	-8.03764
打	-8.04096
只	-8.04198
車	-8.04209
门	-8.04218
羅	-8.04413
座	-8.04613
则	-8.04667
率	-8.04766
開	-8.05168
无	-8.05177
系	-8.0529
人口	-8.0551
中心	-8.0574
武	-8.05801
说	-8.05812
一般	-8.06163
六	-8.06175
伊	-8.06231
先	-8.06314
我	-8.06889
身	-8.06968
便	-8.07462
工	-8.0763
意	-8.08023
片	-8.08097
开	-8.08529
不同	-8.08641
还	-8.08749
地區	-8.0886
院	-8.09074
理	-8.09194
普	-8.09594
他的	-8.09773
因為	-8.10212
点	-8.10454
正式	-8.10746
那	-8.10988
門	-8.11221
第二	-8.11327
經	-8.11407
頭	-8.11939
進行	-8.12077
过	-8.12079
改	-8.12388
當時	-8.12635
版	-8.12805
火	-8.13004
机	-8.13067
張	-8.13277
沙	-8.13502
國家	-8.13833
木	-8.14152
中央	-8.14275
交	-8.14455
點	-8.14599
达	-8.14653
場	-8.14813
列	-8.15042
華	-8.15205
近	-8.153
x	-8.15313
但是	-8.15431
總	-8.15815
沒有	-8.15841
取	-8.15917
界	-8.16324
所有	-8.16606
进行	-8.16813
自己	-8.16925
死	-8.17563
令	-8.17619
之後	-8.17777
他們	-8.17874
亚	-8.17891
属	-8.18116
校	-8.18191
哈	-8.18429
未	-8.18455
處	-8.18507
隊	-8.19264
认为	-8.19267
由於	-8.19272
通过	-8.19363
也是	-8.19431
形	-8.19596
權	-8.19682
y	-8.19785
色	-8.20057
發展	-8.20177
约	-8.20226
处	-8.20309
书	-8.20713
可能	-8.20936
太	-8.21006
k	-8.21188
發	-8.21595
治	-8.21862
帝	-8.22011
英國	-8.22068
九	-8.22254
自由	-8.22352
事件	-8.22527
管理	-8.22782
19	-8.2294
均	-8.23061
h	-8.23408
修	-8.23744
臺灣	-8.23788
氏	-8.24068
战	-8.2407
解	-8.24109
25	-8.24553
提供	-8.24733
空	-8.25185
每	-8.25485
纳	-8.25496
還	-8.25613
半	-8.25856
電	-8.25922
经	-8.26032
島	-8.26076
华	-8.2646
-{	-8.26711
陳	-8.26836
总	-8.27015
低	-8.27477
没有	-8.27637
土	-8.27674
支持	-8.27764
朝	-8.27872
鄉	-8.2806
e	-8.28065
曲	-8.28245
工程	-8.28716
党	-8.28827
黨	-8.2887
》、《	-8.29055
》,	-8.29163
人民	-8.29561
落	-8.29676
作为	-8.29787
風	-8.29813
除	-8.29891
社會	-8.30303
建立	-8.30412
需要	-8.30524
师	-8.30525
居	-8.30698
受到	-8.30703
角	-8.30767
勒	-8.31133
深	-8.31237
病	-8.31301
电	-8.31394
村	-8.31633
当	-8.31867
像	-8.3203
七	-8.32208
系統	-8.32264
占	-8.32382
着	-8.32465
府	-8.32687
他们	-8.32771
通常	-8.32882
曼	-8.33195
所以	-8.33532
湖	-8.33589
汉	-8.33603
具有	-8.33826
佛	-8.34427
故	-8.3445
r	-8.34474
段	-8.34488
間	-8.34513
50	-8.3458
作品	-8.34661
发	-8.3494
伯	-8.35463
很	-8.35472
百	-8.3554
要求	-8.35593
源	-8.35611
轉	-8.3579
张	-8.35921
這些	-8.35958
直	-8.36006
且	-8.36009
品	-8.36107
十	-8.36304
瓦	-8.36346
接	-8.36415
唐	-8.36435
雷	-8.36465
就是	-8.36722
動	-8.36927
龍	-8.3707
副	-8.37252
:“	-8.37345
社	-8.37401
表	-8.37486
選	-8.37628
聖	-8.37645
l	-8.37669
管	-8.37689
讓	-8.37958
o	-8.38273
真	-8.38295
給	-8.38588
托	-8.38624
北京	-8.38703
奇	-8.38812
提	-8.38831
千	-8.38872
位于	-8.3893
这些	-8.39032
福	-8.39119
上的	-8.39124
師	-8.39557
24	-8.39648
这个	-8.39676
初	-8.39684
阳	-8.39782
國際	-8.40047
客	-8.40143
权	-8.40207
看	-8.40332
系统	-8.40407
黑	-8.40698
收	-8.40748
经济	-8.40844
漢	-8.40864
康	-8.41484
由于	-8.4159
发展	-8.41648
船	-8.41765
控制	-8.41875
维	-8.41887
队	-8.4197
恩	-8.42092
作為	-8.42093
密	-8.42129
头	-8.42196
情	-8.42199
动	-8.42211
堂	-8.42483
方面	-8.42546
若	-8.42623
仍	-8.42663
镇	-8.42815
21	-8.42887
只有	-8.43117
都是	-8.43452
傳	-8.43497
吉	-8.43657
公里	-8.43704
郡	-8.4379
第三	-8.44494
進	-8.44686
歌	-8.44716
封	-8.4487
保	-8.45065
然而	-8.45113
w	-8.45448
英国	-8.4559
業	-8.45687
核	-8.45736
&	-8.46041
同時	-8.46226
越	-8.46232
目前	-8.46363
形成	-8.46375
支	-8.46607
40	-8.46611
做	-8.46848
位於	-8.46897
電影	-8.46963
班	-8.46989
黃	-8.4704
国际	-8.47309
屬	-8.47325
存在	-8.47354
▁(	-8.47359
這個	-8.47544
章	-8.47581
母	-8.47785
组织	-8.47848
後來	-8.47898
皮	-8.47901
得到	-8.48049
进	-8.48225
时期	-8.48314
強	-8.48456
给	-8.48462
種	-8.48521
言	-8.48598
泰	-8.48657
景	-8.48751
較	-8.48813
川	-8.48951
23	-8.49023
成功	-8.4948
群	-8.49509
塞	-8.49756
感	-8.49813
甚至	-8.49893
志	-8.49902
蘭	-8.49926
氣	-8.50126
如果	-8.50276
28	-8.50344
時期	-8.50486
維	-8.50529
梅	-8.5081
少	-8.50845
之后	-8.50878
洛	-8.50929
场	-8.50978
失	-8.51077
青	-8.51126
野	-8.51349
守	-8.51359
自然	-8.51675
賽	-8.51687
留	-8.51833
提出	-8.5189
世纪	-8.51955
()	-8.51977
京	-8.52193
永	-8.52225
連	-8.52282
甲	-8.52351
种	-8.52481
食	-8.52859
節	-8.52889
v	-8.53019
報	-8.5322
22	-8.5324
同年	-8.53259
车	-8.53374
放	-8.53395
樂	-8.53524
生活	-8.53705
图	-8.54179
稱為	-8.54328
龙	-8.54422
運動	-8.54556
地方	-8.54705
级	-8.54814
类	-8.54933
博	-8.54965
街	-8.55081
室	-8.55081
森	-8.55097
风	-8.55138
姆	-8.55306
值	-8.55472
26	-8.55578
許多	-8.55668
精	-8.55695
社会	-8.55733
非常	-8.5576
革命	-8.56021
:「	-8.56382
完成	-8.56533
納	-8.56705
27	-8.56854
藏	-8.56932
上海	-8.56957
黄	-8.57124
素	-8.5723
應	-8.57447
獲得	-8.5748
經濟	-8.58033
目	-8.58102
層	-8.58189
組	-8.58445
民族	-8.58473
方式	-8.58648
見	-8.58667
。”	-8.58729
增加	-8.58824
学院	-8.58941
迪	-8.59091
發生	-8.59239
根	-8.59656
合作	-8.60029
圖	-8.60101
往	-8.60138
直接	-8.60169
獲	-8.60193
}-	-8.60475
i	-8.60683
任何	-8.60761
世紀	-8.60801
夏	-8.60911
想	-8.60991
铁路	-8.61124
传	-8.61415
全国	-8.61447
报	-8.61574
皇	-8.61621
期間	-8.61677
设	-8.61745
義	-8.62
變	-8.62155
同时	-8.62192
完全	-8.62204
接受	-8.62299
宋	-8.62422
音樂	-8.62453
論	-8.62515
影響	-8.62526
登	-8.62575
寺	-8.62649
春	-8.62866
也有	-8.62869
因为	-8.62946
票	-8.6295
置	-8.63225
宗教	-8.63363
組織	-8.63553
学校	-8.63601
最後	-8.63605
愛	-8.63611
另外	-8.63914
視	-8.64048
級	-8.64063
微	-8.64077
胡	-8.64313
加入	-8.64345
兰	-8.64505
奥	-8.64876
法国	-8.6491
端	-8.64975
走	-8.6517
血	-8.65223
底	-8.65486
印度	-8.65648
時間	-8.65659
转	-8.65662
不能	-8.65682
0	-8.65734
间	-8.65742
一直	-8.65748
索	-8.6581
已经	-8.65897
威	-8.65904
程	-8.66039
出現	-8.66173
卻	-8.66204
29	-8.66274
制度	-8.66322
主义	-8.66461
松	-8.67048
超	-8.67075
獎	-8.67081
强	-8.67162
發現	-8.67254
当时	-8.67536
业	-8.67543
自己的	-8.67716
命	-8.67777
建筑	-8.68026
司	-8.68257
——	-8.68291
组	-8.68299
戰爭	-8.68411
奧	-8.68453
員	-8.68551
100	-8.68572
案	-8.68678
活動	-8.68802
關	-8.6882
送	-8.68917
德国	-8.69048
方法	-8.69081
60	-8.69168
油	-8.69396
尾	-8.69411
此外	-8.69421
造	-8.69681
除了	-8.69715
层	-8.69927
熱	-8.70054
宣布	-8.70094
使得	-8.70237
赫	-8.70253
實	-8.7046
架	-8.70484
问题	-8.70502
聲	-8.70621
問題	-8.70675
溪	-8.70719
节	-8.70867
知	-8.70878
运动	-8.70881
條	-8.70996
行政	-8.71011
裡	-8.71065
u	-8.71182
萨	-8.71211
条	-8.71223
排	-8.71272
利用	-8.71299
已經	-8.71394
变	-8.71446
一次	-8.71447
牌	-8.71469
團	-8.72005
類	-8.72232
主席	-8.72321
之前	-8.72545
技术	-8.72548
朱	-8.72774
政策	-8.72811
服	-8.72858
许多	-8.72917
而且	-8.72926
極	-8.7295
仁	-8.72969
秦	-8.72997
航	-8.73097
升	-8.73161
法國	-8.73193
存	-8.73299
防	-8.73489
希	-8.73496
雅	-8.73606
季	-8.73643
照	-8.73675
草	-8.73761
帶	-8.73781
重新	-8.74163
造成	-8.74275
民主	-8.74492
遊戲	-8.74527
语言	-8.74692
玉	-8.74858
調	-8.7508
圣	-8.75181
岛	-8.75345
果	-8.75435
气	-8.75496
gt	-8.755
雖然	-8.75501
劉	-8.75571
al	-8.75661
大部分	-8.75758
工业	-8.75832
求	-8.75887
论	-8.76114
射	-8.76275
战争	-8.76531
假	-8.76833
重要	-8.76908
直到	-8.76916
陈	-8.76958
紅	-8.77089
寫	-8.77141
远	-8.77226
投	-8.77394
引	-8.77401
臣	-8.77426
80	-8.77467
板	-8.77503
团	-8.77533
推	-8.77625
皆	-8.77761
設計	-8.77849
停	-8.78129
莫	-8.78181
鎮	-8.78181
房	-8.78211
擔任	-8.78226
航空	-8.78243
余	-8.78254
皇帝	-8.78369
通過	-8.78558
遠	-8.78644
增	-8.78696
关	-8.78718
富	-8.78786
版本	-8.78845
切	-8.7886
形式	-8.78866
首次	-8.79208
諾	-8.79255
这一	-8.79294
決定	-8.79488
短	-8.79536
获得	-8.79571
聯	-8.79996
最高	-8.80046
70	-8.80243
降	-8.80263
摩	-8.80323
前往	-8.80435
交通	-8.80604
蒙	-8.80719
re	-8.80733
宁	-8.80807
苏	-8.80888
》(	-8.80904
服務	-8.80926
活动	-8.80961
不過	-8.80963
设计	-8.80982
嘉	-8.81016
何	-8.81031
取得	-8.81066
词	-8.81221
z	-8.81443
具	-8.81465
並且	-8.81524
改革	-8.8164
很多	-8.81751
大量	-8.81754
宮	-8.81815
」(	-8.81941
演	-8.81985
红	-8.82288
歐洲	-8.82411
调	-8.82421
配	-8.82635
印	-8.82938
卷	-8.82993
委员会	-8.83084
學生	-8.83271
關係	-8.83325
香	-8.8351
]]	-8.83613
极	-8.83654
根据	-8.83708
對於	-8.83788
依	-8.83821
鐵	-8.83906
考	-8.83932
雙	-8.83988
詞	-8.84335
學校	-8.84384
丁	-8.84709
法律	-8.84794
全球	-8.84829
中華民國	-8.84851
或者	-8.84886
le	-8.84922
复	-8.84956
時代	-8.84998
盛	-8.85068
31	-8.85202
住	-8.85262
擁有	-8.85431
酒	-8.85551
思	-8.85707
丹	-8.85712
致	-8.85846
勝	-8.8587
宣	-8.85878
邊	-8.86033
早	-8.86038
易	-8.86152
期间	-8.86159
樓	-8.8621
到了	-8.86462
热	-8.86487
边	-8.865
籍	-8.86521
功	-8.86585
影	-8.8661
乡	-8.86674
歲	-8.86725
时间	-8.86791
这种	-8.86809
委員會	-8.86838
后来	-8.86907
跟	-8.86941
設	-8.86999
选	-8.87288
员	-8.87352
酸	-8.87352
獨立	-8.87365
让	-8.87427
包	-8.87456
劇	-8.87505
出版	-8.87548
电影	-8.87632
單	-8.87644
梁	-8.87928
衛	-8.88085
lt	-8.88193
瑞	-8.88314
他在	-8.88379
蘇	-8.88729
影响	-8.88884
進入	-8.88953
祖	-8.88967
艾	-8.89097
实	-8.89109
鲁	-8.89151
义	-8.8918
兼	-8.89279
发生	-8.89428
營	-8.89439
埃	-8.89555
主義	-8.89637
植物	-8.8972
共同	-8.89833
望	-8.89936
雪	-8.90151
不同的	-8.9017
君	-8.90244
两个	-8.9033
90	-8.90387
见	-8.90449
親	-8.90507
元素	-8.90597
擊	-8.90631
陵	-8.90775
昌	-8.90952
计划	-8.90958
是由	-8.90985
夜	-8.91084
》。	-8.91142
西班牙	-8.91218
人的	-8.91538
歐	-8.91549
谷	-8.91688
系列	-8.91776
語言	-8.91792
音乐	-8.91796
生物	-8.91797
根據	-8.91868
诺	-8.91895
然	-8.91925
桥	-8.91984
雲	-8.92089
安全	-8.92101
兴	-8.92181
屆	-8.92236
发现	-8.92261
忠	-8.92346
2000	-8.92388
查	-8.92464
欧洲	-8.92497
快	-8.92566
决定	-8.92603
茶	-8.92651
|	-8.9267
專	-8.9276
in	-8.9295
舊	-8.93
单	-8.9302
例	-8.93098
款	-8.93199
記	-8.93393
禮	-8.93405
隆	-8.93417
质	-8.93462
現	-8.93612
早期	-8.93612
声	-8.93622
杜	-8.93659
離	-8.93686
学生	-8.93751
為了	-8.94001
带	-8.94039
德國	-8.94161
关系	-8.9422
称为	-8.94287
質	-8.94288
話	-8.94366
左	-8.94465
连	-8.94476
歷史	-8.94528
峰	-8.94604
指出	-8.94822
境	-8.94912
牛	-8.94925
云	-8.9493
興	-8.95109
薩	-8.95111
退	-8.95351
學院	-8.95407
件	-8.95439
历史	-8.95502
进入	-8.95744
j	-8.95785
哥	-8.95889
步	-8.95999
館	-8.96013
乐	-8.9612
整	-8.96201
居民	-8.96245
思想	-8.96247
刘	-8.96338
雨	-8.96446
旗	-8.96464
希望	-8.9649
征	-8.96531
運	-8.96582
女性	-8.96622
再次	-8.96721
广	-8.96834
吳	-8.96959
店	-8.97003
写	-8.97008
救	-8.97043
差	-8.97055
双	-8.97113
结构	-8.9714
_	-8.97161
帕	-8.97275
(),	-8.97306
南京	-8.97435
建设	-8.97499
会议	-8.97511
職	-8.97547
魯	-8.97561
參與	-8.97571
营	-8.97578
秀	-8.97601
最大的	-8.97854
联	-8.97872
描述	-8.98045
這種	-8.98139
務	-8.98178
剧	-8.98213
中华人民共和国	-8.98238
苏联	-8.98265
散	-8.98395
现	-8.98522
科学	-8.98645
作用	-8.9878
警	-8.98828
殺	-8.9897
足	-8.99012
陽	-8.99022
游	-8.9907
话	-8.99144
总统	-8.99236
速	-8.99332
应	-8.99348
述	-8.99391
告	-8.99589
寶	-8.99597
無法	-8.99629
仍然	-8.99631
干	-8.99674
復	-8.99718
中共	-8.99931
晚	-8.99947
'	-8.99999
分子	-9.00009
男	-9.00191
舉行	-9.00245
按	-9.00343
追	-9.00381
基本	-9.00693
飛	-9.00761
結	-9.00821
以上	-9.00837
拥有	-9.00895
家庭	-9.01039
兩個	-9.011
以下	-9.01215
等人	-9.01338
罪	-9.0136
[[	-9.01461
孫	-9.01592
導致	-9.01821
出现	-9.01822
費	-9.01904
善	-9.01941
良	-9.0199
最終	-9.02052
教授	-9.02169
▁s	-9.02371
施	-9.02377
网	-9.02437
宫	-9.02651
35	-9.02663
產	-9.02786
逃	-9.02796
理论	-9.02839
生产	-9.02936
算	-9.02958
延	-9.02979
總統	-9.03105
观	-9.03143
击	-9.03289
僅	-9.03306
的人	-9.03334
。」	-9.03411
功能	-9.03498
選舉	-9.03839
宝	-9.03849
斯特	-9.03939
的主要	-9.03941
奖	-9.04005
官方	-9.0403
赛	-9.04121
活	-9.04149
届	-9.04265
地位	-9.04399
邦	-9.04421
末	-9.04486
戴	-9.04616
机构	-9.04706
人士	-9.04801
包含	-9.04805
吴	-9.04857
推出	-9.04918
製作	-9.04971
卫	-9.05041
葉	-9.05151
”(	-9.05219
楼	-9.05274
蒂	-9.05588
年至	-9.05635
成員	-9.05661
會議	-9.05691
技術	-9.05766
温	-9.05833
委	-9.05868
毛	-9.05942
抗	-9.05965
se	-9.0624
俄	-9.0629
西方	-9.0629
眼	-9.06354
你	-9.06409
署	-9.06479
意大利	-9.06689
有些	-9.06736
还有	-9.06813
共有	-9.06823
隨	-9.06884
乘	-9.06969
每年	-9.07006
尚	-9.07152
之間	-9.0723
产	-9.07427
傳統	-9.07463
性的	-9.07555
計劃	-9.07586
廣	-9.07778
帝國	-9.07876
an	-9.07965
运	-9.08203
新的	-9.08225
庫	-9.08333
展	-9.08403
拜	-9.08585
游戏	-9.08625
能力	-9.08649
友	-9.08651
圈	-9.08719
右	-9.08742
有關	-9.08797
不是	-9.08839
公共	-9.08893
▁《	-9.08916
異	-9.08934
承	-9.09049
on	-9.09259
虎	-9.09267
禁	-9.093
象	-9.09322
勢	-9.09463
归	-9.09529
▁a	-9.09667
流行	-9.09742
骨	-9.09773
北部	-9.0978
分析	-9.09787
铁	-9.09801
刻	-9.09807
雄	-9.09814
」、「	-9.09852
楊	-9.10175
第一次	-9.10239
霍	-9.10259
堡	-9.10285
篇	-9.10347
佔	-9.10374
偏	-9.10374
平均	-9.10493
樹	-9.10543
建築	-9.10581
超過	-9.10585
th	-9.10586
殿	-9.10621
最终	-9.1069
臺	-9.11094
ma	-9.11376
容	-9.11472
蒙古	-9.11512
现代	-9.11553
军事	-9.11673
全部	-9.12014
供	-9.12048
园	-9.12066
对于	-9.12071
驻	-9.12251
導	-9.12309
二世	-9.12387
溫	-9.12517
現代	-9.12565
人類	-9.127
是在	-9.12867
编	-9.12895
含	-9.13156
故事	-9.13206
足球	-9.13206
38	-9.13309
一世	-9.13358
輪	-9.1336
莱	-9.13543
倫	-9.13567
馆	-9.13699
中文	-9.13711
私	-9.13779
車站	-9.13801
拿	-9.1382
魚	-9.13838
理論	-9.13973
破	-9.14117
惠	-9.1413
詩	-9.14155
畫	-9.14389
魏	-9.14396
科學	-9.14398
南部	-9.14399
十分	-9.14632
—	-9.14716
独立	-9.14775
之间	-9.14792
獨	-9.14813
屋	-9.14873
伦	-9.14886
倒	-9.14981
毒	-9.14996
岁	-9.1501
靈	-9.15037
效	-9.15053
持	-9.15063
地球	-9.15082
不少	-9.15083
助	-9.15098
却	-9.15106
屬於	-9.15129
st	-9.15175
限	-9.15182
節目	-9.15198
家族	-9.15289
45	-9.15356
结	-9.15368
序	-9.15532
面积	-9.15681
叶	-9.15688
幾	-9.16153
肉	-9.16165
編	-9.16175
味	-9.16272
裝	-9.16372
费	-9.16431
角色	-9.16538
當地	-9.1664
限制	-9.16654
为了	-9.16694
井	-9.16738
尊	-9.16793
人物	-9.16837
發行	-9.1684
竹	-9.16849
us	-9.16942
載	-9.16975
关于	-9.17102
洪	-9.17126
必須	-9.17145
反對	-9.17212
冠	-9.17357
旅	-9.17409
久	-9.17516
64	-9.17545
第四	-9.17546
领导	-9.17563
攻	-9.17566
略	-9.17625
虽然	-9.17677
ra	-9.17809
并且	-9.17848
庄	-9.17892
信息	-9.17935
▁formula	-9.18013
方向	-9.18181
菲	-9.18288
鐵路	-9.18412
文字	-9.18414
個人	-9.18438
专	-9.18475
智	-9.18477
來自	-9.18497
墓	-9.18516
取代	-9.18528
用于	-9.18535
負責	-9.18568
or	-9.18618
环	-9.18647
需	-9.1865
彈	-9.18657
只是	-9.18674
軍事	-9.18788
几	-9.18878
倍	-9.18888
料	-9.18925
始	-9.18972
歸	-9.18998
200	-9.19008
500	-9.19132
记	-9.19202
觀	-9.19279
示	-9.19287
灣	-9.1943
36	-9.19436
参加	-9.19437
律	-9.19568
冰	-9.19842
計	-9.19852
标准	-9.19898
杨	-9.20058
大型	-9.20215
2005	-9.20242
标	-9.20265
er	-9.20397
生產	-9.20526
父	-9.2068
%	-9.20718
透過	-9.20863
分布	-9.20923
麻	-9.21009
最佳	-9.21048
职	-9.21064
32	-9.21075
贝	-9.21083
發表	-9.21178
一种	-9.21225
電子	-9.21266
”、“	-9.21319
精神	-9.21327
藝術	-9.21352
洲	-9.21411
至今	-9.21445
電視	-9.2149
保持	-9.21513
渡	-9.21581
li	-9.21598
▁of	-9.21658
项	-9.21734
侯	-9.21757
担任	-9.21856
不久	-9.21882
領	-9.21907
聯盟	-9.22
我们	-9.22017
採用	-9.22056
網	-9.22102
產生	-9.22127
原子	-9.22206
繼續	-9.223
礼	-9.22538
讀	-9.22545
必	-9.22647
弱	-9.22676
科技	-9.22727
ri	-9.22766
和平	-9.22847
穿	-9.22851
is	-9.22874
份	-9.22965
越南	-9.23081
画	-9.23222
树	-9.23341
艺术	-9.23365
句	-9.23379
炮	-9.23401
著名	-9.23468
席	-9.23478
移	-9.23597
洞	-9.23605
遭到	-9.23715
零	-9.23734
內容	-9.23739
岩	-9.23829
演出	-9.23906
現在	-9.23922
附近	-9.24008
典	-9.24141
固	-9.24251
仙	-9.24276
其它	-9.24296
据	-9.24326
滿	-9.24333
都有	-9.24354
播	-9.2442
佛教	-9.24539
军队	-9.24587
艦	-9.24641
帝国	-9.24677
工業	-9.2472
_1	-9.24764
徐	-9.25
引起	-9.25009
一起	-9.25059
爱	-9.25101
反对	-9.25155
開發	-9.25172
欧	-9.25213
證	-9.25344
餘	-9.25396
作家	-9.25437
洋	-9.2544
at	-9.25515
股	-9.25568
隔	-9.25669
園	-9.25674
一種	-9.25753
杀	-9.25867
公路	-9.26068
結果	-9.26103
頂	-9.26135
反应	-9.26156
ne	-9.26194
護	-9.26213
另一	-9.26366
属于	-9.26455
駐	-9.26517
注	-9.26551
en	-9.26584
泉	-9.26685
数据	-9.26721
一位	-9.26829
許	-9.26885
背	-9.26953
王朝	-9.26964
婚	-9.26965
2003	-9.26998
库	-9.27029
死亡	-9.27035
时代	-9.27055
姓	-9.27099
舉	-9.27152
附	-9.27223
户	-9.27333
农	-9.27372
二十	-9.27399
遭	-9.27417
组成	-9.27465
旧	-9.27508
資料	-9.27557
孙	-9.27616
分別	-9.27619
相關	-9.27668
標準	-9.27704
文学	-9.27746
組成	-9.2775
39	-9.27797
朗	-9.27842
重要的	-9.27973
命名	-9.28046
保护	-9.28077
諸	-9.28182
是否	-9.28218
ing	-9.28241
橋	-9.28376
证	-9.28473
灵	-9.28487
诗	-9.28511
澳門	-9.28637
域	-9.28667
动物	-9.28762
奉	-9.28797
000	-9.28801
55	-9.28808
速度	-9.28829
戶	-9.28841
錄	-9.28886
農	-9.28893
仅	-9.29005
加拿大	-9.2901
▁the	-9.29043
土地	-9.29239
耶	-9.29317
資	-9.29355
英文	-9.29384
孝	-9.29401
顯示	-9.29425
基地	-9.29469
2004	-9.29495
議員	-9.29623
動物	-9.29695
文學	-9.29797
但在	-9.29835
冠軍	-9.2989
多次	-9.29954
輕	-9.3009
燕	-9.30097
標	-9.30183
48	-9.30196
境内	-9.30344
普遍	-9.3051
75	-9.30561
察	-9.30635
电子	-9.30663
ta	-9.30667
lo	-9.30702
暴	-9.30761
套	-9.30787
较	-9.30795
榮	-9.30814
去世	-9.3083
晋	-9.30864
离	-9.30892
菜	-9.30893
顶	-9.30909
万人	-9.30942
相同	-9.30979
參加	-9.31077
項	-9.31177
批	-9.31221
异	-9.31274
耳	-9.31323
市場	-9.31358
晉	-9.31384
統治	-9.3141
全國	-9.31471
隨著	-9.31473
34	-9.31583
1990	-9.31615
采用	-9.31639
價	-9.31689
模式	-9.31842
當中	-9.31848
最早	-9.31966
衣	-9.3199
随	-9.31997
製	-9.32057
传统	-9.3207
各地	-9.32081
郎	-9.3209
齐	-9.32103
de	-9.32131
據	-9.32135
加上	-9.32149
秋	-9.32149
37	-9.32242
程度	-9.32259
5%	-9.32304
获	-9.32382
萊	-9.32405
藥	-9.32429
郭	-9.32435
它的	-9.32511
還有	-9.32602
服务	-9.32733
材料	-9.32786
举行	-9.3282
别	-9.3284
孔	-9.32846
不可	-9.32893
什	-9.32932
人类	-9.32982
佩	-9.33009
达到	-9.3304
同意	-9.33044
产生	-9.331
建造	-9.33113
難	-9.33128
们	-9.33161
负责	-9.33192
免	-9.3327
經過	-9.33332
羅馬	-9.33375
导致	-9.33403
现在	-9.33411
el	-9.33421
是一个	-9.33447
as	-9.33472
视	-9.33599
貝	-9.33671
it	-9.33721
及其	-9.33729
2020	-9.3374
33	-9.33832
设立	-9.3387
2010	-9.33983
潮	-9.33994
te	-9.33996
新聞	-9.34211
区域	-9.34212
巴士	-9.3436
歌曲	-9.34437
單位	-9.34539
急	-9.34645
沉	-9.34652
結構	-9.34691
的一个	-9.34697
左右	-9.34742
別	-9.3481
临	-9.34925
能夠	-9.34946
圓	-9.34985
ro	-9.35054
最后	-9.35076
眾	-9.35113
顺	-9.35318
开发	-9.35408
导	-9.35414
於是	-9.35458
la	-9.35535
巴黎	-9.35622
待	-9.35668
唯一	-9.35694
载	-9.35713
国王	-9.35762
逐漸	-9.35872
主持	-9.36106
首都	-9.36129
是指	-9.36164
ch	-9.36229
楚	-9.36258
ad	-9.36326
奏	-9.36373
br	-9.36381
聽	-9.36457
區域	-9.36517
鄭	-9.36524
乃	-9.36572
历	-9.36598
機構	-9.36699
初期	-9.36702
人員	-9.36714
設有	-9.36724
琴	-9.36939
中学	-9.36954
小說	-9.36963
▁"	-9.37005
寧	-9.37013
出生	-9.37026
46	-9.37063
它们	-9.37077
超过	-9.3712
赵	-9.37146
随着	-9.37233
沃	-9.37349
程序	-9.3736
西部	-9.37405
65	-9.37411
最大	-9.37418
露	-9.37499
辛	-9.37502
76	-9.37508
糖	-9.37516
务	-9.37543
聯合	-9.37553
銀	-9.3767
最初	-9.37728
振	-9.3774
细胞	-9.37746
年起	-9.37777
厚	-9.37786
这是	-9.37814
蘇聯	-9.37826
傷	-9.37865
不再	-9.37871
犯	-9.37881
環	-9.37976
冷	-9.37995
49	-9.38025
商業	-9.38075
原本	-9.38092
刊	-9.38103
學者	-9.38109
方案	-9.3816
位置	-9.38201
亲	-9.38349
外交	-9.38383
环境	-9.38385
统治	-9.38415
化学	-9.38421
2006	-9.38437
荷	-9.38473
環境	-9.385
介	-9.386
行動	-9.38634
幕	-9.38717
聚	-9.38873
+	-9.3894
举	-9.38943
叫	-9.38953
的研究	-9.38991
空间	-9.39113
乌	-9.39151
ar	-9.39181
hans	-9.39234
或是	-9.3924
議	-9.39269
平方公里	-9.39282
文件	-9.39288
增长	-9.39447
相當	-9.39476
清朝	-9.39476
当地	-9.39494
遂	-9.39534
基督教	-9.39673
備	-9.39675
飞	-9.39744
樣	-9.39907
人员	-9.3991
朝鲜	-9.39946
回到	-9.40011
比賽	-9.40033
古代	-9.40055
十二	-9.40107
集團	-9.40137
請	-9.40194
三年	-9.40382
人们	-9.40485
齊	-9.40493
来自	-9.40546
止	-9.40624
吃	-9.40649
1980	-9.40713
58	-9.40732
養	-9.40754
q	-9.40819
一名	-9.40865
宜	-9.40881
顿	-9.40927
我們	-9.40934
压	-9.40941
各種	-9.40974
领	-9.41067
則是	-9.4107
斗	-9.41084
成员	-9.41111
創	-9.41127
因而	-9.41158
童	-9.41168
指挥	-9.41185
敗	-9.41279
")	-9.4137
东北	-9.41429
物理	-9.41482
跨	-9.41498
收入	-9.41519
平原	-9.4159
定义	-9.41611
ed	-9.41628
佐	-9.41721
高度	-9.41729
烏	-9.41761
▁b	-9.41812
舞	-9.41875
no	-9.41911
青年	-9.41918
軍隊	-9.41938
移民	-9.41944
凡	-9.4196
結束	-9.42038
经过	-9.42093
南方	-9.42094
网络	-9.42116
廳	-9.42128
豐	-9.42164
如此	-9.42167
刑	-9.42173
並不	-9.42204
爲	-9.42239
59	-9.42251
44	-9.42272
特別	-9.42343
2002	-9.42389
迁	-9.42444
弹	-9.42454
2008	-9.42523
池	-9.42595
改為	-9.42665
借	-9.42678
农业	-9.42683
继续	-9.42684
56	-9.42738
伏	-9.42746
赤	-9.42748
之外	-9.42774
西北	-9.42882
企业	-9.42887
提高	-9.42929
47	-9.42956
幼	-9.42965
電腦	-9.43077
准	-9.43083
戈	-9.43127
頓	-9.43219
药	-9.43228
庆	-9.43294
茨	-9.43327
粉	-9.43369
▁f	-9.43394
装	-9.43428
轮	-9.43536
罗马	-9.43546
各种	-9.43567
圍	-9.43647
球隊	-9.4365
特色	-9.43791
壓	-9.43912
方言	-9.43938
其後	-9.43958
參	-9.43966
桑	-9.43981
读	-9.43997
在此	-9.4406
完	-9.44084
柯	-9.44104
鱼	-9.44146
天主教	-9.44158
300	-9.44192
威廉	-9.44211
只能	-9.44251
另	-9.44323
沿	-9.44395
迷	-9.44477
敬	-9.44556
实现	-9.44579
弗	-9.44671
攻擊	-9.44741
2001	-9.44778
2013	-9.44797
88	-9.44869
反應	-9.44929
逐渐	-9.45089
撤	-9.45095
议	-9.4512
唱	-9.45316
联邦	-9.45335
俄罗斯	-9.45379
2007	-9.45393
许	-9.45471
hk	-9.4555
统一	-9.45556
内容	-9.45649
甘	-9.4565
遇	-9.45687
為主	-9.45693
等等	-9.45849
接近	-9.4585
計畫	-9.45853
赴	-9.45967
规定	-9.45988
86	-9.46134
1970	-9.46149
共和国	-9.46175
崇	-9.46188
折	-9.46279
[	-9.463
處理	-9.46313
字母	-9.46352
紀	-9.46371
著名的	-9.46389
公民	-9.46407
部队	-9.46415
]	-9.4651
西南	-9.46609
斷	-9.46651
態	-9.46734
磁	-9.46741
参与	-9.46758
大臣	-9.46829
保護	-9.46843
葬	-9.46858
42	-9.46912
這是	-9.46918
厂	-9.46948
壁	-9.47091
執行	-9.47098
有效	-9.47119
部份	-9.47122
麗	-9.47137
);	-9.4718
十六	-9.47266
狀	-9.47359
硬	-9.47419
柱	-9.47429
以前	-9.47538
护	-9.47564
補	-9.47654
_2	-9.4771
函数	-9.47752
名稱	-9.47808
病毒	-9.47817
曾經	-9.47825
本身	-9.47875
第五	-9.47932
一樣	-9.47957
的方式	-9.47964
应用	-9.47971
面積	-9.48054
天津	-9.48159
无法	-9.4818
舉辦	-9.48225
旁	-9.48278
tw	-9.48365
断	-9.48381
羊	-9.48409
媒體	-9.48593
控	-9.48598
麥	-9.48603
側	-9.48663
播出	-9.48697
78	-9.48724
项目	-9.48796
並在	-9.48846
道路	-9.48859
太陽	-9.48866
概念	-9.48887
製造	-9.49006
兒	-9.49007
徒	-9.49072
終	-9.49096
比如	-9.49312
背景	-9.49351
一座	-9.49383
的重要	-9.49479
额	-9.49587
录	-9.49609
被称为	-9.49658
99	-9.49672
亞洲	-9.49767
集中	-9.49786
激	-9.49797
元年	-9.49807
2016	-9.49827
ic	-9.49892
统	-9.49912
备	-9.50045
原因	-9.50101
銀行	-9.50106
以来	-9.50194
集团	-9.50209
信仰	-9.5025
瑪	-9.50292
卢	-9.50348
動畫	-9.50359
分为	-9.50367
《》	-9.50463
機場	-9.50489
一年	-9.50562
返回	-9.507
纪	-9.50704
紀念	-9.50714
os	-9.50718
牧	-9.50789
小说	-9.50827
魔	-9.50843
计	-9.50922
43	-9.50959
改變	-9.50966
2019	-9.51091
嚴重	-9.51118
喜	-9.51152
之下	-9.51188
羽	-9.51196
佳	-9.5123
独	-9.51326
随后	-9.51332
巡	-9.51377
2015	-9.51379
趙	-9.5138
;}-	-9.51408
法院	-9.51417
发行	-9.51438
韓	-9.51452
亮	-9.51477
韩国	-9.5154
新加坡	-9.51612
机场	-9.51625
而在	-9.51687
阻	-9.51733
紀錄	-9.51869
98	-9.51928
乙	-9.51942
迅速	-9.51969
範圍	-9.51976
出任	-9.52037
慶	-9.5205
部隊	-9.5207
專輯	-9.52095
苦	-9.52097
丘	-9.5211
表面	-9.52113
普通	-9.52187
缺	-9.52207
办	-9.5224
滑	-9.52254
遊	-9.52255
海軍	-9.52294
選擇	-9.52345
變化	-9.52348
刀	-9.52435
避免	-9.52472
模型	-9.52527
埃及	-9.52621
類似	-9.52636
宽	-9.52655
批准	-9.5273
记载	-9.52771
am	-9.5286
穆	-9.52881
批評	-9.52896
等地	-9.52956
1999	-9.53046
居住	-9.53054
▁生平	-9.53109
得以	-9.53117
54	-9.53124
曹	-9.5324
生命	-9.53271
满	-9.53281
氧化	-9.53314
藍	-9.53375
中國大陸	-9.53382
蔡	-9.53382
益	-9.53411
兄弟	-9.53444
減	-9.53493
突	-9.53511
命令	-9.53552
呈	-9.5357
the	-9.53597
亦有	-9.53652
分别	-9.53677
昭	-9.53723
彭	-9.53733
侧	-9.53742
筆	-9.53753
著作	-9.5376
創作	-9.53787
以來	-9.53804
她的	-9.53841
互	-9.53842
毛泽东	-9.53911
57	-9.53967
記載	-9.53981
祭	-9.54005
錢	-9.54024
▁p	-9.5403
國王	-9.54065
它們	-9.54066
资源	-9.5409
厅	-9.54137
拍	-9.54147
下的	-9.54214
優	-9.54236
調查	-9.54237
岸	-9.54339
興建	-9.54346
能够	-9.54352
恢复	-9.5441
探	-9.54417
不會	-9.54443
停止	-9.54447
宇	-9.54477
歷	-9.54504
設立	-9.54527
禁止	-9.54601
胜	-9.54649
們	-9.54775
陶	-9.54944
阿拉伯	-9.54961
炎	-9.55131
69	-9.55155
按照	-9.55156
联合	-9.55211
因素	-9.55213
俄羅斯	-9.55249
遷	-9.55251
ho	-9.55404
2009	-9.5542
必须	-9.55432
入侵	-9.55456
巨	-9.55491
矿	-9.55673
1960	-9.55685
勇	-9.55753
翼	-9.55753
学习	-9.55759
建成	-9.5579
改为	-9.55803
译	-9.55838
不过	-9.5584
公园	-9.5587
廠	-9.55918
▁歷史	-9.55945
換	-9.55946
银行	-9.5596
分為	-9.55967
順	-9.55982
数学	-9.5599
范	-9.55993
奈	-9.5603
53	-9.56113
豪	-9.56132
珠	-9.5616
直至	-9.56165
基因	-9.5621
空間	-9.56301
2012	-9.56301
浮	-9.56352
变化	-9.56365
墨	-9.56401
害	-9.56422
保留	-9.56433
1997	-9.56498
▁历史	-9.56552
银	-9.56559
而是	-9.56613
79	-9.56649
妻子	-9.56754
优	-9.56765
黎	-9.56772
鼓	-9.56792
比例	-9.56794
!	-9.56804
盟	-9.56805
1994	-9.56817
ia	-9.56838
co	-9.57003
北方	-9.5702
天皇	-9.57064
尽管	-9.57095
单位	-9.5716
休	-9.57178
招	-9.572
力量	-9.57214
产业	-9.57218
津	-9.5722
材	-9.57387
非洲	-9.57441
2017	-9.57452
主張	-9.57464
to	-9.57479
2011	-9.57519
貴	-9.57572
商业	-9.57591
金融	-9.5766
租	-9.5771
任命	-9.57759
盡	-9.57774
比較	-9.57814
沒	-9.57835
同盟	-9.57845
掉	-9.57867
申	-9.57874
萬人	-9.57895
me	-9.57906
ba	-9.57907
发表	-9.58062
息	-9.58172
武器	-9.582
槍	-9.58209
市场	-9.58218
下降	-9.58251
而言	-9.58343
是一個	-9.58346
持續	-9.58409
支援	-9.58425
亂	-9.58428
刺	-9.58442
水平	-9.58445
77	-9.58452
自治	-9.58475
杰	-9.58484
甚	-9.58581
模	-9.58654
1995	-9.58782
之间的	-9.58788
年底	-9.58913
陸	-9.59005
表演	-9.59015
震	-9.5904
积	-9.59073
1998	-9.59128
如下	-9.59132
化學	-9.5915
絕	-9.59215
某些	-9.59227
貿易	-9.59284
......	-9.59338
难	-9.5937
na	-9.59414
授	-9.59438
sa	-9.59445
选举	-9.59644
惡	-9.5975
廷	-9.59767
2018	-9.59944
祥	-9.59976
宿	-9.59985
丽	-9.60081
事務	-9.60082
辖	-9.60092
交流	-9.6012
发布	-9.60281
新闻	-9.60342
充	-9.6041
路線	-9.60411
公開	-9.60449
娜	-9.60487
議會	-9.60511
三个	-9.60546
价	-9.60555
相似	-9.60574
徽	-9.60579
的地方	-9.60643
之間的	-9.60674
規定	-9.60692
过程	-9.60761
资	-9.60801
牙	-9.60812
°	-9.60816
父親	-9.60823
敏	-9.60868
▁g	-9.6088
公元	-9.60985
全面	-9.61028
聯賽	-9.61062
堅	-9.61075
制作	-9.61133
比较	-9.61168
克斯	-9.61187
大小	-9.6123
1992	-9.61255
目的	-9.61307
-1	-9.61321
公元前	-9.6141
男性	-9.61431
湘	-9.61444
此后	-9.6152
警察	-9.61535
亨利	-9.61548
比赛	-9.61581
液	-9.61638
有关	-9.61714
譯	-9.61804
mi	-9.61808
統一	-9.61822
建議	-9.6192
陣	-9.61939
經常	-9.61976
逝世	-9.61984
被稱為	-9.62026
柏	-9.62048
si	-9.62101
岳	-9.62282
掌	-9.62349
钱	-9.62354
寬	-9.62496
避	-9.62525
68	-9.62555
韩	-9.62583
以色列	-9.62618
年度	-9.62643
交易	-9.62743
統	-9.62815
的作品	-9.62914
丰	-9.62952
菌	-9.62954
快速	-9.62995
监	-9.63
斯坦	-9.63012
未能	-9.63088
昂	-9.63138
状	-9.63185
宣佈	-9.63244
盐	-9.63261
养	-9.63359
兹	-9.6341
一切	-9.63477
街道	-9.63562
年間	-9.63564
1991	-9.63565
問	-9.63571
億	-9.63595
十年	-9.63609
殖民地	-9.63617
紫	-9.63637
纪念	-9.63658
结束	-9.63666
海外	-9.63727
表現	-9.63743
往往	-9.63743
制造	-9.63757
金屬	-9.63804
君主	-9.63804
的新	-9.63835
尤	-9.63941
距離	-9.63973
碑	-9.63996
講	-9.64073
召	-9.64076
可能是	-9.6418
付	-9.64306
蔣	-9.64314
三個	-9.64332
95	-9.64342
国内	-9.64376
日軍	-9.64472
中華人民共和國	-9.64478
1950	-9.64492
取消	-9.64597
地下	-9.64631
南北	-9.64723
敵	-9.64888
才能	-9.64944
多年	-9.64969
霸	-9.65012
特殊	-9.65146
烈	-9.6519
企業	-9.65294
浦	-9.65314
默	-9.65335
计算	-9.65385
学者	-9.65398
领域	-9.65423
役	-9.65593
既	-9.65648
广泛	-9.65655
尖	-9.65667
济	-9.65668
生涯	-9.6567
投票	-9.65697
離開	-9.65717
舍	-9.65755
85	-9.65926
絲	-9.65946
联盟	-9.65995
计算机	-9.65995
相对	-9.66052
裔	-9.66056
更加	-9.6607
一样	-9.66072
整个	-9.66076
工人	-9.66077
產品	-9.66148
结果	-9.66151
鹿	-9.66151
处理	-9.66154
主要是	-9.66158
为主	-9.66245
評	-9.66245
1993	-9.6625
莊	-9.66254
舰	-9.66484
臨	-9.66519
▁w	-9.66527
榜	-9.66558
東京	-9.6656
看到	-9.66678
海军	-9.66689
肯	-9.66706
餐	-9.66831
珍	-9.6686
列表	-9.66958
監	-9.66965
重大	-9.66974
勞	-9.66998
予	-9.67035
儀	-9.6704
辦	-9.6707
基础	-9.67096
大多	-9.67098
謝	-9.67125
赞	-9.67152
欲	-9.6718
人們	-9.67225
态	-9.67233
爆發	-9.67253
教會	-9.67267
议会	-9.67286
談	-9.67294
93	-9.67313
).	-9.67318
以後	-9.67324
即使	-9.67378
产品	-9.67415
如何	-9.67444
贸易	-9.67461
89	-9.67465
公園	-9.6748
不足	-9.67483
疾病	-9.67543
爭議	-9.67568
公尺	-9.67582
软件	-9.67591
有限公司	-9.67624
中共中央	-9.67641
学家	-9.67716
達到	-9.67719
题	-9.67724
1989	-9.67851
也可以	-9.67947
采	-9.68066
以后	-9.68071
暗	-9.68091
這一	-9.68144
相关	-9.6819
岭	-9.68212
作者	-9.68264
市民	-9.6827
袁	-9.68271
排名	-9.68287
負	-9.6829
盘	-9.68342
id	-9.68424
英語	-9.68516
孟	-9.68524
▁in	-9.68566
曆	-9.6859
圆	-9.68592
重建	-9.68618
茲	-9.68678
整個	-9.68849
九龍	-9.68878
轻	-9.68902
三世	-9.68967
症	-9.68972
撒	-9.69039
电视	-9.69156
咸	-9.69182
至少	-9.69197
〉	-9.69231
工具	-9.69232
賣	-9.69278
簡	-9.69295
捕	-9.69299
是一種	-9.69336
并不	-9.69341
选择	-9.69362
『	-9.69362
〈	-9.69362
2014	-9.6938
宇宙	-9.69465
聯邦	-9.69479
儘管	-9.69492
行為	-9.69492
勤	-9.6952
年间	-9.69554
憲	-9.69554
』	-9.69573
隨後	-9.69602
中學	-9.69633
小時	-9.69692
缺乏	-9.69701
▁=	-9.69704
海洋	-9.6974
核心	-9.69741
名為	-9.69743
海拔	-9.69782
样	-9.69839
▁m	-9.6985
96	-9.69857
將軍	-9.69878
地理	-9.69924
物質	-9.69928
表明	-9.6995
mo	-9.70022
一定	-9.70064
es	-9.70167
湾	-9.70189
400	-9.70224
呼	-9.70245
windows	-9.70286
听	-9.70291
用於	-9.70331
72	-9.70352
學習	-9.70419
希臘	-9.70478
剛	-9.70484
严重	-9.70497
il	-9.70507
投入	-9.70523
旅游	-9.70562
漫畫	-9.70609
關於	-9.70624
▁&	-9.70761
52	-9.70766
遺	-9.70767
穩定	-9.70836
維持	-9.7085
专业	-9.70872
中華	-9.70925
靠	-9.71012
ter	-9.71012
應用	-9.71165
玄	-9.71199
偶	-9.71216
術	-9.71239
膜	-9.71245
出口	-9.71249
傑	-9.71251
再度	-9.71308
權力	-9.71343
约翰	-9.71388
相對	-9.71463
-2	-9.715
報告	-9.71529
莉	-9.71571
ve	-9.71582
仔	-9.7169
相信	-9.71701
朝鮮	-9.71725
孩子	-9.71732
芳	-9.71762
坐	-9.71831
採	-9.71881
宪法	-9.71966
決	-9.72065
嚴	-9.72102
團體	-9.72108
父亲	-9.72121
广州	-9.72222
規	-9.72246
媒体	-9.72258
幾乎	-9.72276
藩	-9.72306
也就是	-9.72323
一度	-9.72328
的政治	-9.72329
分類	-9.72355
ol	-9.72384
第一个	-9.72389
个人	-9.72436
麦	-9.72458
陰	-9.72485
同樣	-9.72515
減少	-9.7254
劳	-9.72559
食物	-9.72569
並於	-9.72728
pe	-9.72827
泛	-9.72868
爆发	-9.72937
2022	-9.72948
劍	-9.72951
66	-9.72992
的影響	-9.73054
太空	-9.73135
文明	-9.73136
亿元	-9.73164
繼	-9.73232
儒	-9.73236
廟	-9.73248
大陸	-9.73258
之中	-9.73297
御	-9.73301
制定	-9.73329
飛機	-9.73339
庙	-9.73508
67	-9.73528
積	-9.73562
身份	-9.7357
相比	-9.73573
参	-9.73613
過程	-9.73622
訪	-9.73649
显示	-9.73699
的一部分	-9.7371
王國	-9.7371
作出	-9.73767
儿	-9.73814
共和國	-9.7385
森林	-9.73857
气候	-9.73906
粒子	-9.73926
風格	-9.73929
vi	-9.73967
主任	-9.73969
橫	-9.73988
隧道	-9.7408
和其他	-9.74109
尤其是	-9.74169
海岸	-9.74177
执行	-9.74232
試	-9.74243
修改	-9.74375
遗	-9.74382
围	-9.74408
開放	-9.74417
补	-9.74429
今天	-9.7444
領導	-9.74451
提升	-9.74633
创	-9.74634
un	-9.74634
顯	-9.74644
藤	-9.74662
健康	-9.74663
降低	-9.74675
合成	-9.74706
過去	-9.74743
二年	-9.74789
名称	-9.74806
抵	-9.74842
荷蘭	-9.7485
澤	-9.74877
负	-9.74881
杯	-9.74885
固定	-9.74924
集合	-9.74943
明朝	-9.74995
揚	-9.75019
部落	-9.75071
容易	-9.75107
ge	-9.75109
繼承	-9.75142
大約	-9.75145
念	-9.75159
裂	-9.7517
稅	-9.75296
爭	-9.75363
研究所	-9.75432
留下	-9.75473
皇家	-9.75474
彩	-9.75537
的影响	-9.75565
僧	-9.75578
擊敗	-9.75627
疑	-9.75668
侵	-9.75682
("	-9.75684
块	-9.75707
瑟	-9.75827
天下	-9.75837
弟	-9.75845
证明	-9.75858
不斷	-9.75883
健	-9.75896
長期	-9.75937
知道	-9.75953
冬	-9.75981
柏林	-9.76119
亭	-9.76168
一致	-9.76174
正在	-9.76189
柳	-9.76195
中部	-9.76237
扎	-9.76238
廣播	-9.76242
坡	-9.76276
訂	-9.76276
汇	-9.76289
创作	-9.76306
皇后	-9.76367
还是	-9.76387
安排	-9.76418
跳	-9.76445
夢	-9.76532
改善	-9.76535
球員	-9.76538
历史上	-9.76663
被迫	-9.76689
2021	-9.76791
预	-9.7683
首先	-9.76866
并在	-9.76896
原始	-9.76942
87	-9.76948
化合物	-9.76961
da	-9.76983
湖南	-9.76989
先后	-9.77006
1988	-9.77006
解釋	-9.7703
中国大陆	-9.77064
戲	-9.77131
碳	-9.77167
目標	-9.77167
建立了	-9.77188
小时	-9.77226
第二次	-9.77259
00	-9.77373
不断	-9.77378
勢力	-9.77419
废	-9.77543
細胞	-9.77553
74	-9.77583
有人	-9.77631
1996	-9.77681
–	-9.77697
提到	-9.77712
灰	-9.77757
秒	-9.77775
di	-9.77791
棋	-9.77811
四川	-9.7785
平台	-9.77911
划	-9.77923
大陆	-9.78011
任务	-9.78083
92	-9.78121
庭	-9.78127
桂	-9.7816
剂	-9.78239
坦	-9.78333
能量	-9.7835
更多	-9.78391
協會	-9.784
須	-9.78435
博士	-9.78471
原住民	-9.78481
台湾	-9.78692
設施	-9.78696
葡萄牙	-9.78703
数量	-9.78712
石油	-9.78823
母親	-9.78858
ie	-9.78867
民国	-9.78913
贵	-9.78935
请	-9.79059
協助	-9.79132
公主	-9.79162
距	-9.79194
玛	-9.79254
83	-9.79262
ck	-9.79287
冲	-9.79295
愿	-9.79314
賓	-9.7943
豆	-9.7951
古典	-9.79587
问	-9.79651
枪	-9.79666
et	-9.79671
man	-9.79691
占领	-9.79698
士兵	-9.79727
衡	-9.79729
瓜	-9.79807
染	-9.79821
盤	-9.79832
教堂	-9.79833
委员	-9.79928
bo	-9.79931
行动	-9.79955
約翰	-9.79968
政权	-9.80005
终	-9.80036
_3	-9.80094
亿	-9.80101
拔	-9.80191
出了	-9.80211
讲	-9.80277
階段	-9.80294
是中国	-9.80299
三十	-9.80327
84	-9.80382
蓋	-9.80385
分裂	-9.80393
是一种	-9.80449
那些	-9.80527
97	-9.80569
仲	-9.80573
也不	-9.80576
73	-9.80593
这样	-9.80649
凱	-9.80651
一帶	-9.80689
确定	-9.80714
盧	-9.80749
找到	-9.80752
國立	-9.80778
连接	-9.80818
定義	-9.80831
年前	-9.8089
而成	-9.80899
幅	-9.80903
細	-9.80921
一系列	-9.80946
番	-9.80952
82	-9.81119
司法	-9.81135
領域	-9.81205
横	-9.81222
售	-9.81262
名字	-9.81317
協	-9.81396
学科	-9.81429
喀	-9.81456
协议	-9.81483
51	-9.81506
怪	-9.81517
坑	-9.81518
感到	-9.81535
的方法	-9.81546
現象	-9.81684
努	-9.81749
十八	-9.8176
預	-9.81773
艘	-9.81787
伤	-9.81791
葛	-9.8182
策	-9.81866
第一個	-9.81888
裏	-9.81902
实行	-9.81905
简	-9.81925
ation	-9.81932
朋友	-9.81997
狀態	-9.82009
都市	-9.82087
影片	-9.82108
类似	-9.82136
一部	-9.82154
实验	-9.82182
薄	-9.82202
报告	-9.82275
ti	-9.82296
乾	-9.8231
内部	-9.82374
某	-9.82414
几乎	-9.82449
妃	-9.82497
条件	-9.82589
中国共产党	-9.82618
怀	-9.82618
po	-9.82652
1986	-9.82673
塘	-9.82675
盖	-9.82735
援	-9.82839
找	-9.82846
风格	-9.82863
提名	-9.82869
评	-9.82871
又稱	-9.82894
在香港	-9.82976
利益	-9.83011
弦	-9.8307
雙方	-9.83086
铜	-9.83122
荒	-9.83134
碼	-9.83139
誤	-9.8316
台北	-9.83173
混合	-9.83175
鏡	-9.83193
承認	-9.83196
条约	-9.83354
效果	-9.83361
绝	-9.83397
太平洋	-9.83442
使用的	-9.83446
范围	-9.83457
毫米	-9.83461
起来	-9.83461
逆	-9.83496
福建	-9.83539
注意	-9.83574
政權	-9.83578
鳥	-9.83691
配合	-9.83708
四年	-9.83728
項目	-9.83739
判	-9.83773
審	-9.8381
題	-9.83816
6"	-9.83818
操作	-9.83858
经常	-9.83867
战役	-9.83869
乳	-9.83951
众	-9.83971
芬	-9.83976
夫人	-9.83978
投降	-9.84065
感染	-9.84122
敌	-9.84132
依然	-9.84144
數量	-9.84178
日起	-9.84259
是以	-9.84284
所有的	-9.8429
一家	-9.84317
腳	-9.84379
塊	-9.84467
1985	-9.84472
近代	-9.84503
綠	-9.84523
do	-9.84532
解決	-9.84535
鸟	-9.84555
痛	-9.84557
女子	-9.84587
梯	-9.84596
國會	-9.84621
阴	-9.84653
理解	-9.84783
疏	-9.8481
势	-9.84829
化的	-9.84835
經營	-9.8502
金属	-9.85025
繁	-9.85094
韓國	-9.8513
合并	-9.85208
涉及	-9.85255
▁de	-9.85265
减少	-9.85267
最多	-9.85276
玩家	-9.85298
國內	-9.85302
▁h	-9.85336
革	-9.85346
▁k	-9.85352
笑	-9.85365
减	-9.85395
综合	-9.85433
下令	-9.85434
覆	-9.85449
都會	-9.85501
歌手	-9.85522
合併	-9.85552
立法	-9.85556
靜	-9.85608
ip	-9.85613
亡	-9.85648
扬	-9.85676
跑	-9.85678
拒絕	-9.85682
解决	-9.85705
1979	-9.85716
严	-9.85809
陀	-9.85832
1%	-9.85881
国会	-9.85896
啟	-9.85915
第六	-9.85917
行为	-9.85948
3%	-9.85975
用户	-9.85988
记录	-9.8599
180	-9.85991
寿	-9.86048
英雄	-9.86056
星期	-9.86122
育	-9.86184
试	-9.86211
吸	-9.86291
舒	-9.86326
廣泛	-9.86366
大多数	-9.86394
以外	-9.86444
也被	-9.86504
sp	-9.86541
amp	-9.86638
連接	-9.86681
莎	-9.8676
于是	-9.86851
凯	-9.87044
今日	-9.87079
兩人	-9.87119
委員	-9.87141
憲法	-9.87155
伴	-9.87158
高速公路	-9.87177
拳	-9.872
奪	-9.87258
並沒有	-9.87285
唱片	-9.87285
然後	-9.87324
出席	-9.87332
构	-9.8738
敦	-9.874
pa	-9.87421
体育	-9.87566
西藏	-9.87572
*	-9.87576
督	-9.87607
展開	-9.87621
▁e	-9.87622
审	-9.87658
符合	-9.87665
600	-9.87668
权力	-9.87719
條約	-9.87727
博物馆	-9.87738
行星	-9.87793
ce	-9.8783
ur	-9.87878
五年	-9.87937
正常	-9.87959
內部	-9.8796
～	-9.8799
▁1	-9.88027
有一	-9.88088
物质	-9.88119
笔	-9.8815
播放	-9.88186
ent	-9.88198
簡稱	-9.88242
徵	-9.8827
失去	-9.88331
规模	-9.88348
先生	-9.88387
藝	-9.88423
廣州	-9.88455
旋	-9.88489
資訊	-9.88503
妻	-9.88521
寒	-9.88523
1982	-9.88557
引擎	-9.88625
上述	-9.88688
有限	-9.88776
尽	-9.88785
偉	-9.88786
應該	-9.8879
額	-9.88808
ga	-9.88809
诸	-9.88819
41	-9.88834
进行了	-9.88856
郑	-9.88862
食品	-9.89055
1987	-9.89126
洗	-9.89128
每个	-9.8913
含有	-9.89149
成本	-9.89167
壽	-9.89211
特征	-9.89276
81	-9.89279
沈	-9.89298
劃	-9.89331
俗	-9.89333
飞机	-9.89348
波斯	-9.89399
宏	-9.89427
發動	-9.89446
曾在	-9.89452
途	-9.89478
條件	-9.89478
引入	-9.89493
情况	-9.8952
計算	-9.89526
继承	-9.89568
符	-9.89582
也在	-9.89593
價值	-9.8962
吸引	-9.8963
150	-9.89637
汽车	-9.89691
乱	-9.89717
狄	-9.89719
的名字	-9.89752
此時	-9.89798
改变	-9.898
陸軍	-9.89874
泽	-9.89879
逐	-9.89916
解释	-9.89917
有所	-9.89941
ul	-9.89989
社会主义	-9.89997
消	-9.89998
曰	-9.9001
▁由於	-9.9001
ss	-9.90075
大樓	-9.90144
透	-9.9016
保存	-9.90164
然后	-9.90169
河流	-9.9017
雖	-9.90253
没	-9.90307
任務	-9.90317
殖民	-9.90342
首相	-9.90366
状态	-9.90469
連續	-9.90481
學術	-9.90484
毁	-9.90526
大會	-9.90554
类型	-9.90713
1978	-9.90775
十九	-9.90865
當選	-9.90934
濟	-9.90989
氧	-9.9107
情況	-9.91074
候	-9.91108
晶	-9.91115
前身	-9.91153
措施	-9.91183
特性	-9.91269
的时候	-9.9132
实际	-9.91355
還是	-9.914
戰後	-9.91417
法案	-9.91438
国务院	-9.91529
鄰	-9.91576
谢	-9.91583
4%	-9.91583
民眾	-9.91602
束	-9.91635
列車	-9.9166
了一	-9.91716
1984	-9.91755
迎	-9.91794
分类	-9.91819
懷	-9.91832
雜誌	-9.91869
內的	-9.91972
稳定	-9.91991
廢	-9.92004
东部	-9.92084
特定	-9.92104
2%	-9.92153
自身	-9.922
願	-9.92257
运行	-9.92307
决	-9.92344
課	-9.92349
範	-9.92376
實驗	-9.92382
在其	-9.92388
换	-9.92401
荣	-9.92426
十字	-9.92449
執	-9.92457
陆	-9.92458
隱	-9.92498
泥	-9.92505
實際	-9.92519
大约	-9.92524
ca	-9.92525
恒	-9.92535
課程	-9.92544
调查	-9.92573
質量	-9.92616
中山	-9.92652
輔	-9.92656
特别	-9.927
长期	-9.92766
綫	-9.92847
太子	-9.92932
潘	-9.92963
英语	-9.93077
规划	-9.93135
國民黨	-9.93206
討論	-9.9321
静	-9.93332
他們的	-9.93341
1946	-9.93373
本地	-9.93405
治療	-9.93406
召开	-9.93409
上帝	-9.93487
演員	-9.93491
8%	-9.93536
批评	-9.93544
构成	-9.93562
解放	-9.93565
um	-9.93709
建設	-9.93908
恢復	-9.93935
稿	-9.93943
最早的	-9.93959
62	-9.94055
患	-9.94075
畢業	-9.94116
希腊	-9.9419
呂	-9.94244
澳洲	-9.94278
适	-9.94283
東北	-9.94311
日军	-9.94368
涅	-9.94476
中有	-9.94485
教宗	-9.94493
1983	-9.94508
史上	-9.9458
覺	-9.94582
朝廷	-9.94609
太阳	-9.94632
坊	-9.94642
週	-9.94652
國民	-9.94662
离开	-9.94671
燈	-9.94674
混	-9.94767
哲学	-9.9477
道德	-9.94778
94	-9.94809
7%	-9.9485
佔領	-9.94878
未來	-9.94896
殘	-9.94948
午	-9.95016
轄	-9.95019
累	-9.95035
测	-9.95049
廣東	-9.95055
高中	-9.95082
启	-9.95152
屯	-9.95162
幸	-9.95163
不得	-9.95185
质量	-9.95226
夏季	-9.95248
波兰	-9.95298
城区	-9.95299
绿	-9.95364
大多數	-9.95365
冠军	-9.95392
多个	-9.95408
指揮	-9.95468
腹	-9.95529
长沙	-9.9554
拍攝	-9.95575
軌道	-9.95612
浪	-9.95613
节目	-9.95704
返	-9.95747
靖	-9.95759
玩	-9.95764
重庆	-9.95792
民間	-9.95819
深圳	-9.95833
乾隆	-9.95862
per	-9.95864
證明	-9.9588
性质	-9.95903
起來	-9.95949
產業	-9.95965
1958	-9.95977
本土	-9.95984
幹	-9.95991
他们的	-9.96021
並非	-9.96024
日至	-9.96032
堆	-9.96144
帮助	-9.96149
秘密	-9.96168
白色	-9.9617
醫	-9.96175
郊	-9.96177
王国	-9.96177
拒绝	-9.96185
焦	-9.96219
意义	-9.9627
op	-9.96286
允许	-9.96305
來說	-9.96328
桃	-9.96343
亚洲	-9.96381
匈牙利	-9.96384
的发展	-9.96429
迹	-9.96448
目标	-9.96469
1940	-9.9648
滅	-9.96541
而不是	-9.96575
重点	-9.96648
多數	-9.96673
插	-9.96731
群島	-9.96734
成就	-9.96774
总理	-9.96787
公布	-9.96792
熊	-9.96803
互相	-9.96808
曾经	-9.9683
現時	-9.96851
距离	-9.96867
丝	-9.96872
勃	-9.96872
机关	-9.96889
im	-9.96909
查理	-9.96978
高速	-9.96989
6%	-9.97054
性質	-9.9717
▁根據	-9.97254
修建	-9.97297
协会	-9.97397
紙	-9.97404
數學	-9.97429
协	-9.97518
巴西	-9.97523
蛇	-9.97525
由此	-9.97564
辭	-9.97576
續	-9.9766
努力	-9.97706
开放	-9.97755
址	-9.97767
唯	-9.97833
宾	-9.97844
最低	-9.97864
阵	-9.97877
投资	-9.97901
辽	-9.97935
自行	-9.9795
作戰	-9.98015
大会	-9.98066
昆	-9.98132
契	-9.98143
天文	-9.98171
純	-9.98221
實施	-9.98229
軌	-9.98239
在日本	-9.98274
吸收	-9.98337
源自	-9.98337
ac	-9.98485
答	-9.98505
地区的	-9.9854
cn	-9.98578
同一	-9.98635
进攻	-9.98682
弘	-9.98694
平面	-9.98726
統計	-9.98742
部门	-9.98749
地形	-9.98797
tion	-9.98851
占总人口的	-9.98851
中原	-9.98867
財	-9.9887
路易	-9.98889
简称	-9.9889
礦	-9.98907
设备	-9.98928
伦敦	-9.98946
脑	-9.98979
su	-9.98984
運輸	-9.98997
将军	-9.99009
準	-9.99041
尉	-9.9908
1937	-9.99101
撤销	-9.99121
战斗	-9.99129
遣	-9.99135
au	-9.99149
文章	-9.99161
它是	-9.99184
柔	-9.99185
訓練	-9.99189
變成	-9.99213
淮	-9.99232
瑞典	-9.99249
湯	-9.99324
進攻	-9.99353
医院	-9.9936
hant	-9.99374
博物館	-9.99501
年初	-9.99512
阿尔	-9.99519
了解	-9.99537
显	-9.99603
檢	-9.99605
在位	-9.99607
學家	-9.9962
十五	-9.99631
一同	-9.99633
1981	-9.99651
埔	-9.99652
成績	-9.99709
现象	-9.99713
酶	-9.99749
浙江	-9.9978
私人	-9.99794
生成	-9.99804
資源	-9.99847
技	-9.99869
用來	-9.99874
大幅	-9.99881
9%	-9.99915
odice	-9.99929
聘	-9.99931
一段	-9.99951
汽車	-9.99992
仿	-9.99994
主教	-10.0001
顧	-10.0001
▁and	-10.0002
旗下	-10.0003
陷	-10.001
▁re	-10.0012
衝突	-10.0015
記錄	-10.0016
貫	-10.0018
1920	-10.0024
统计	-10.0025
先後	-10.0027
匹	-10.0029
改造	-10.0037
河南	-10.0037
來源	-10.0038
市区	-10.0039
夷	-10.004
卫星	-10.0041
品牌	-10.0046
从而	-10.0048
肥	-10.0049
翻	-10.005
=2	-10.0051
十三	-10.0052
阶段	-10.0055
識	-10.0059
63	-10.006
so	-10.0061
▁t	-10.0062
的概念	-10.0063
町	-10.0065
襲	-10.0066
設置	-10.0075
ir	-10.0078
人數	-10.0082
汗	-10.0093
乘客	-10.0094
退出	-10.0097
英格蘭	-10.0097
汪	-10.0099
十七	-10.0101
倫敦	-10.0105
而非	-10.0106
燒	-10.0108
輝	-10.0108
幫助	-10.0109
考古	-10.0114
進一步	-10.0115
有時	-10.0117
鹽	-10.0119
1948	-10.0122
的工作	-10.0125
太平	-10.0137
用途	-10.0139
细	-10.0142
賽事	-10.0144
方程	-10.0144
鬼	-10.0147
劑	-10.0147
匯	-10.0148
唐朝	-10.0148
▁d	-10.0156
手段	-10.0158
伊朗	-10.0158
傅	-10.0162
網路	-10.0162
他是	-10.0165
已有	-10.0169
哲學	-10.0174
準備	-10.0175
哲	-10.018
戰役	-10.018
复杂	-10.0183
结合	-10.0184
戒	-10.019
建议	-10.0191
醫院	-10.0195
体系	-10.0196
▁zh	-10.0198
举办	-10.02
1930	-10.0204
800	-10.0212
mp	-10.0213
公开	-10.0215
纽约	-10.0218
瑞士	-10.0219
主角	-10.022
做出	-10.0225
成了	-10.0225
表现	-10.0227
地面	-10.0229
ph	-10.0229
持续	-10.023
電視台	-10.0235
-{}-	-10.0236
主題	-10.0238
明顯	-10.0239
土耳其	-10.0243
研	-10.0248
狗	-10.025
當時的	-10.0251
婆	-10.0253
理想	-10.0254
忍	-10.0257
be	-10.0259
进一步	-10.0261
文物	-10.0261
惟	-10.0268
截至	-10.0269
成都	-10.0278
決賽	-10.0278
恆星	-10.0279
適	-10.0286
慈	-10.0289
▁ma	-10.0302
另一方面	-10.0303
般	-10.0311
拉斯	-10.0316
玻璃	-10.0316
農業	-10.0328
立即	-10.033
需求	-10.0332
樂團	-10.0335
領土	-10.0337
校区	-10.0338
軟體	-10.0352
量子	-10.0354
銅	-10.0357
指定	-10.036
_4	-10.0367
押	-10.0368
商品	-10.0371
氣候	-10.0374
争议	-10.0376
700	-10.0377
武汉	-10.0378
隐	-10.0379
屈	-10.0379
腔	-10.0383
来说	-10.0384
臺北	-10.0386
恶	-10.0386
替	-10.0388
扮演	-10.0391
承认	-10.0391
数字	-10.0403
澳	-10.0405
州市	-10.0406
分配	-10.0413
現今	-10.0417
此时	-10.0421
全市	-10.0431
地區的	-10.0435
裁	-10.0437
同样	-10.0446
蕭	-10.0454
植	-10.0456
蜀	-10.0465
纲	-10.0472
每個	-10.0475
盃	-10.0483
败	-10.0485
華人	-10.0496
)"	-10.0496
邻	-10.0499
分鐘	-10.0504
破壞	-10.0507
提供了	-10.0509
民國	-10.0511
上升	-10.0511
蛋	-10.0512
多個	-10.0512
溫度	-10.0518
知識	-10.0523
的一個	-10.0524
税	-10.0529
原理	-10.0538
捷	-10.0547
淡	-10.0552
1000	-10.0552
长江	-10.0552
杭州	-10.0556
六年	-10.0557
推動	-10.0557
的關係	-10.0558
枚	-10.0559
联合国	-10.0568
and	-10.0573
基於	-10.0582
形象	-10.0584
狂	-10.0589
鼻	-10.0596
密度	-10.0599
規劃	-10.0605
爆	-10.0608
go	-10.0609
▁n	-10.0611
展示	-10.0617
本人	-10.0618
培	-10.0618
’	-10.0623
烟	-10.0624
通用	-10.0625
相互	-10.0634
韋	-10.0635
lu	-10.0639
結合	-10.0642
线路	-10.0643
分支	-10.0647
丰富	-10.0648
的支持	-10.0649
機關	-10.0649
韦	-10.0654
ps	-10.0658
91	-10.066
第七	-10.066
階	-10.0662
各自	-10.0664
氢	-10.0677
起义	-10.068
过程中	-10.068
刚	-10.068
災	-10.0682
投資	-10.0687
ii	-10.0687
填	-10.0688
即位	-10.0688
卿	-10.0688
妮	-10.069
访问	-10.0695
联系	-10.0697
...	-10.0699
共产党	-10.07
似	-10.0702
纯	-10.0704
鬥	-10.0714
起源	-10.0719
1941	-10.0724
少數	-10.073
残	-10.0734
總督	-10.0743
蓝	-10.0744
兩種	-10.0747
广东	-10.0747
觀察	-10.0748
定理	-10.075
美元	-10.075
基于	-10.0758
com	-10.0769
的時候	-10.0774
不到	-10.0775
消息	-10.078
美洲	-10.0783
东南	-10.0783
但他	-10.0783
ot	-10.0783
帶來	-10.0784
▁v	-10.0784
1949	-10.0787
意義	-10.0794
毀	-10.0795
定律	-10.0796
倉	-10.0799
北京市	-10.0802
纸	-10.0802
发射	-10.0802
频道	-10.0803
教会	-10.0807
1975	-10.0807
▁st	-10.0808
艇	-10.0811
聯合國	-10.0811
公爵	-10.0811
奴	-10.0811
箱	-10.0816
兒童	-10.082
小型	-10.082
福州	-10.0823
很快	-10.0824
綱	-10.0827
东西	-10.083
航天	-10.083
扶	-10.0831
艺	-10.0833
砲	-10.0835
▁x	-10.0837
也會	-10.0841
尚未	-10.0846
強調	-10.0848
岡	-10.0848
1956	-10.0849
设置	-10.085
ut	-10.0851
▁2005	-10.0855
境內	-10.086
对象	-10.0864
熟	-10.0869
雜	-10.0873
辨	-10.0873
特徵	-10.0885
尼亞	-10.0886
數據	-10.0888
的原因	-10.089
推行	-10.0892
大致	-10.0899
俊	-10.0901
管辖	-10.0902
码	-10.0903
运营	-10.0905
教育部	-10.0912
术	-10.0912
合法	-10.0913
韻	-10.0917
得知	-10.0919
列车	-10.092
亦是	-10.0927
定居	-10.0929
派遣	-10.0931
券	-10.0936
最重要的	-10.0936
鳳	-10.0937
確定	-10.0945
父母	-10.0947
抗日	-10.0951
稍	-10.0952
港口	-10.0956
基礎	-10.0958
向量	-10.0958
四大	-10.0959
戰鬥	-10.0959
兄	-10.096
的第一	-10.096
西安	-10.0965
搭	-10.0967
1947	-10.0973
婚姻	-10.0974
差異	-10.0975
球場	-10.0978
另有	-10.0978
谈	-10.0979
體育	-10.0982
1952	-10.0984
灭	-10.0986
訊	-10.099
实施	-10.0994
後期	-10.0994
歷史上	-10.0996
年後	-10.1001
墨西哥	-10.1003
賢	-10.1004
61	-10.1006
總理	-10.1009
恐怖	-10.1019
燃	-10.1019
脫	-10.1019
运输	-10.102
轨道	-10.1023
1966	-10.1027
天然	-10.1027
針對	-10.1032
1939	-10.1032
世界上	-10.1043
son	-10.1047
的形式	-10.1047
董事	-10.1049
在中国	-10.1049
職業	-10.1055
职业	-10.1063
方便	-10.1064
卓	-10.107
營運	-10.1078
耀	-10.1083
争	-10.1084
縱	-10.1087
誠	-10.1091
ion	-10.1092
新疆	-10.1095
廣告	-10.1099
连续	-10.11
茂	-10.1103
征服	-10.1105
患者	-10.1107
准备	-10.1114
割	-10.1117
這樣	-10.1117
的故事	-10.1119
基督	-10.1121
悲	-10.1125
将其	-10.1126
报道	-10.1136
而不	-10.1139
▁根据	-10.1141
矛盾	-10.1142
賴	-10.1145
作战	-10.1147
嶺	-10.1154
主權	-10.1162
測	-10.117
不滿	-10.1172
叛	-10.1181
ly	-10.1182
污染	-10.1187
用来	-10.1187
在美國	-10.119
提出了	-10.1192
沿海	-10.1195
巨大	-10.1196
爆炸	-10.1196
印刷	-10.1199
創造	-10.1202
1945	-10.1202
春秋	-10.1208
旅行	-10.1211
出来	-10.1216
報導	-10.1218
发动	-10.122
山东	-10.1222
規模	-10.1223
事業	-10.1225
三大	-10.1226
演化	-10.1228
貌	-10.1229
胎	-10.1235
一份	-10.1242
▁l	-10.1244
两种	-10.1248
的位置	-10.1255
的發展	-10.1263
‘	-10.1264
获得了	-10.127
演奏	-10.1271
的地位	-10.1272
母亲	-10.1277
只要	-10.128
概	-10.1281
主张	-10.1282
火山	-10.129
ry	-10.13
破坏	-10.13
損	-10.1301
▁i	-10.1301
商人	-10.1305
签	-10.1307
空軍	-10.1307
顾	-10.1308
脱	-10.1308
实际上	-10.1312
一支	-10.1312
芝	-10.1312
冬季	-10.1314
牆	-10.1316
多种	-10.1323
仪	-10.1325
应该	-10.1332
部长	-10.1333
狀況	-10.1341
120	-10.1343
的小	-10.1343
伽	-10.1345
表達	-10.1346
(1	-10.1346
ig	-10.1348
觀點	-10.1348
族群	-10.1349
民主黨	-10.1349
形成了	-10.1355
演唱	-10.1358
宣传	-10.1361
貨	-10.1362
吕	-10.1366
试图	-10.1367
月初	-10.1368
失敗	-10.137
指示	-10.1378
官員	-10.1382
梦	-10.1386
二人	-10.139
旦	-10.1392
宪	-10.1395
处于	-10.1398
顆	-10.14
程式	-10.1403
習	-10.1409
民進黨	-10.1411
一条	-10.1411
突破	-10.1412
紐約	-10.1418
里斯	-10.1423
此後	-10.1427
几个	-10.143
用作	-10.1432
大使	-10.1443
暖	-10.1443
年輕	-10.1445
行政院	-10.1451
胜利	-10.1454
聞	-10.146
遍	-10.1461
視為	-10.1466
孤	-10.1473
又称	-10.1474
书记	-10.1474
康熙	-10.1474
類型	-10.1475
小學	-10.1479
女兒	-10.148
双方	-10.1481
了一个	-10.1483
tor	-10.1484
伐	-10.1485
引發	-10.1486
阿里	-10.1488
联赛	-10.1492
專業	-10.1496
粒	-10.1498
墙	-10.1499
翻譯	-10.1501
任期	-10.1502
萧	-10.1502
緣	-10.1508
飛行	-10.1509
1938	-10.151
1967	-10.151
杂	-10.151
攻击	-10.1516
潛	-10.1518
评价	-10.1519
学术	-10.152
穆斯林	-10.1522
男子	-10.1526
寄	-10.1526
一部分	-10.1531
成分	-10.1532
71	-10.1535
逻辑	-10.1539
抱	-10.1539
掌握	-10.1539
简单	-10.1541
授予	-10.1542
評論	-10.1547
必要	-10.1551
贯	-10.1556
困	-10.1557
戀	-10.156
领导人	-10.156
遗址	-10.1561
伍	-10.1564
锡	-10.1565
宣傳	-10.1566
缩	-10.1569
淡水	-10.1571
租界	-10.1577
附近的	-10.1579
吾	-10.1581
縮	-10.1581
琳	-10.1582
代理	-10.1587
解散	-10.1589
▁to	-10.1589
明显	-10.1591
图书馆	-10.1593
臨時	-10.1596
医学	-10.1602
德意志	-10.1602
戏	-10.161
der	-10.1612
主流	-10.1614
怒	-10.1615
不会	-10.1616
钟	-10.1619
十四	-10.1623
犬	-10.1627
执	-10.1628
原則	-10.1632
平衡	-10.1632
腦	-10.1637
广播	-10.1637
常常	-10.1637
經歷	-10.1644
並未	-10.1645
貓	-10.1647
國民政府	-10.165
權利	-10.1655
爵	-10.1655
潭	-10.166
偷	-10.1669
粗	-10.1677
冯	-10.1686
ni	-10.1687
象徵	-10.1691
到达	-10.1694
得到了	-10.1695
延伸	-10.1708
協議	-10.1716
部門	-10.1719
參考	-10.1736
旅客	-10.1738
接收	-10.1741
業務	-10.1744
杂志	-10.1746
廣場	-10.1753
ha	-10.1753
▁地理	-10.1758
最高的	-10.1759
實際上	-10.1763
批判	-10.1766
娛樂	-10.1767
政黨	-10.1769
厄	-10.1771
▁2	-10.1772
坚	-10.1774
錯	-10.1774
有时	-10.1774
氫	-10.1775
轴	-10.1776
讨论	-10.1781
飞行	-10.1784
劳动	-10.1785
主要的	-10.1785
沟	-10.1789
”)	-10.1791
遜	-10.1792
主力	-10.1793
设有	-10.1802
棄	-10.1807
伯特	-10.1813
ka	-10.1813
ber	-10.1815
以此	-10.182
董	-10.1822
次年	-10.1824
運作	-10.1824
可以在	-10.1825
众多	-10.1826
1954	-10.1826
鮮	-10.1827
襄	-10.1828
价值	-10.183
構	-10.1831
溶	-10.1832
身體	-10.1834
调整	-10.1835
暴力	-10.1838
江南	-10.1838
ja	-10.1844
突然	-10.1845
出身	-10.1847
兆	-10.1848
1955	-10.1849
廉	-10.185
早在	-10.1852
派出	-10.1857
的角色	-10.1858
釋	-10.1865
教学	-10.1867
犯罪	-10.187
乎	-10.187
衛星	-10.1876
時任	-10.189
谋	-10.1895
机械	-10.1896
吞	-10.1904
積極	-10.192
侍	-10.1921
翁	-10.1926
演唱會	-10.1928
訓	-10.1929
1973	-10.1936
闻	-10.1939
▁r	-10.1942
▁2012	-10.1944
放棄	-10.195
住宅	-10.1951
炸	-10.1954
伊拉克	-10.1957
保障	-10.1965
逼	-10.1967
旺	-10.1971
半島	-10.1971
财政	-10.1974
什么	-10.1974
1968	-10.1975
卵	-10.1982
結婚	-10.1983
net	-10.1986
狼	-10.1987
袭	-10.199
尼亚	-10.1991
汉语	-10.1992
籌	-10.1994
乔治	-10.2002
迫	-10.2006
驚	-10.2009
真正	-10.2018
東方	-10.2018
謀	-10.202
煙	-10.2022
国民	-10.2023
卡尔	-10.2025
競爭	-10.203
很少	-10.2032
之子	-10.2035
那么	-10.2036
構成	-10.2039
很大	-10.204
觀測	-10.2041
这里	-10.2042
坪	-10.2044
醫學	-10.2045
防止	-10.2051
申請	-10.2054
犹太人	-10.2054
1976	-10.2055
坎	-10.2057
fa	-10.206
大规模	-10.2061
仇	-10.2062
成为了	-10.2067
壓力	-10.2069
1959	-10.207
▁人口	-10.207
继	-10.2072
使用者	-10.2072
網站	-10.2078
融	-10.208
医	-10.2081
衰	-10.2082
(,),	-10.2089
彌	-10.2092
自動	-10.2096
▁香港	-10.2099
憑	-10.2101
官员	-10.2107
国立	-10.2116
拆	-10.2117
被視為	-10.2117
校长	-10.2119
▁2010	-10.213
sh	-10.2134
抵抗	-10.2135
獻	-10.2144
邀請	-10.215
鋒	-10.2154
卜	-10.2154
ke	-10.2154
枝	-10.2158
凌	-10.2158
考慮	-10.2159
浩	-10.2159
1972	-10.2159
则是	-10.2161
幫	-10.217
陷入	-10.2171
希特勒	-10.2171
邓	-10.2177
币	-10.2182
磨	-10.2185
賀	-10.2189
舞台	-10.2191
du	-10.2192
姬	-10.2193
卖	-10.2198
獸	-10.2202
試圖	-10.2203
勝利	-10.2205
邑	-10.2207
王位	-10.2208
副主席	-10.2217
串	-10.222
通信	-10.2226
依據	-10.2228
複雜	-10.2229
遼	-10.223
球队	-10.2232
當年	-10.2239
貴族	-10.224
鲜	-10.2246
蟲	-10.2247
耗	-10.2247
考虑	-10.2252
相当	-10.2252
▁2018	-10.2256
兒子	-10.2258
ell	-10.2262
醇	-10.2265
特点	-10.2267
各國	-10.2267
势力	-10.2268
輛	-10.2273
德里	-10.2274
▁2014	-10.2276
乔	-10.2276
1936	-10.2283
舟	-10.2284
1957	-10.2284
者的	-10.2289
書院	-10.229
爵士	-10.229
在北京	-10.2291
闽	-10.2292
錫	-10.2293
一詞	-10.2293
導演	-10.2294
最近	-10.2294
临时	-10.2294
漫	-10.2301
hi	-10.2303
苑	-10.2306
创造	-10.2308
馮	-10.2311
名为	-10.2317
逮捕	-10.2319
▁2006	-10.2321
達成	-10.2326
径	-10.2326
哈利	-10.2327
早期的	-10.2332
英格兰	-10.2332
利亞	-10.2337
献	-10.2338
出來	-10.234
相同的	-10.2342
而被	-10.2343
通道	-10.2345
鄧	-10.2356
▁2008	-10.2356
南非	-10.2359
号线	-10.2362
带来	-10.2365
ab	-10.2369
港鐵	-10.2372
圖書館	-10.2378
失败	-10.238
同位素	-10.2382
ci	-10.2382
熙	-10.2385
特别是	-10.2388
的生活	-10.2388
七年	-10.2393
▁2019	-10.2404
all	-10.2406
▁2020	-10.2408
地铁	-10.2408
漢字	-10.241
托勒密	-10.2413
农民	-10.2417
評價	-10.2419
群岛	-10.2421
所謂	-10.2421
民间	-10.2427
fi	-10.2431
劫	-10.2433
消失	-10.2435
ll	-10.2441
的作用	-10.2446
採取	-10.2446
相反	-10.2449
全世界	-10.245
一带	-10.245
一條	-10.2454
外國	-10.2455
阻止	-10.2457
廊	-10.2458
奔	-10.2459
的历史	-10.2463
地震	-10.2464
性能	-10.2466
創立	-10.2475
疾	-10.2476
五十	-10.2478
1953	-10.2479
已知	-10.2481
蜂	-10.2482
執政	-10.2483
1944	-10.2486
广场	-10.2495
有着	-10.2498
機會	-10.25
叔	-10.25
物種	-10.2501
领土	-10.2502
1942	-10.2506
意見	-10.2507
州的	-10.2509
1961	-10.2509
1974	-10.2511
資格	-10.2511
黑色	-10.2511
外国	-10.2516
曹操	-10.2517
冊	-10.2519
邪	-10.252
酒店	-10.2524
校長	-10.2527
北美	-10.253
危	-10.2533
信号	-10.2535
根本	-10.2538
传播	-10.2547
月台	-10.2548
规	-10.2552
贵族	-10.2553
bi	-10.2561
儿童	-10.2563
ap	-10.2566
傳說	-10.2567
移動	-10.2572
在一起	-10.2577
知名	-10.2585
平等	-10.2589
脚	-10.2589
冲突	-10.259
逐步	-10.2595
山脉	-10.2599
加以	-10.2605
床	-10.2606
的第	-10.2608
的城市	-10.2623
簽	-10.2623
過程中	-10.2627
幣	-10.2627
觉	-10.2631
稱呼	-10.2635
1971	-10.2635
函數	-10.264
司馬	-10.2642
并入	-10.2644
武装	-10.2647
_5	-10.2651
1965	-10.2653
例子	-10.2654
恆	-10.2658
1969	-10.2658
人工	-10.2663
规则	-10.2664
一百	-10.2666
所在地	-10.2666
更是	-10.2666
組合	-10.2674
唯一的	-10.2678
抽	-10.2685
突厥	-10.2687
亨	-10.269
將其	-10.2691
事务	-10.2704
▁for	-10.271
汤	-10.2713
發射	-10.2716
符號	-10.2716
融合	-10.2719
心理	-10.272
銷售	-10.2722
泡	-10.2724
具体	-10.2726
序列	-10.2729
慕	-10.2744
清代	-10.2745
兼任	-10.2746
併	-10.2746
叫做	-10.2747
被认为是	-10.2747
▁2013	-10.2754
符号	-10.2756
其餘	-10.276
年開始	-10.2763
幾個	-10.2763
提及	-10.2766
链	-10.2766
▁2004	-10.2768
有著	-10.2768
操	-10.2769
以上的	-10.2771
鋼	-10.2775
些	-10.278
估計	-10.278
銷	-10.2784
其實	-10.2785
實行	-10.2789
卑	-10.2791
奶	-10.2793
1935	-10.2801
高雄	-10.2801
有可能	-10.281
巢	-10.2814
衝	-10.2815
認	-10.2816
數字	-10.2817
己	-10.2818
采取	-10.2819
扩大	-10.282
cd	-10.282
簡單	-10.2822
1964	-10.2824
飾	-10.2825
160	-10.2828
獵	-10.2837
当时的	-10.2838
堪	-10.2842
▁此外	-10.2843
旅遊	-10.2848
將會	-10.285
赛季	-10.2851
訪問	-10.2852
法庭	-10.2853
規則	-10.2853
火箭	-10.2854
权利	-10.2854
▁mo	-10.2858
市區	-10.286
蛋白	-10.2861
能源	-10.2861
贡	-10.2863
錦	-10.2866
吹	-10.2875
密切	-10.2876
的問題	-10.2877
援助	-10.2877
cl	-10.2877
選區	-10.2884
稻	-10.2884
▁j	-10.2887
郵	-10.289
推翻	-10.2892
人在	-10.2893
1933	-10.2893
至於	-10.2895
截	-10.2898
就有	-10.2898
完整	-10.2899
自我	-10.29
试验	-10.29
為止	-10.2904
涉	-10.2907
面對	-10.2908
聖經	-10.2909
效率	-10.2913
客家	-10.2914
1951	-10.2918
證據	-10.2922
▁2017	-10.2925
稀	-10.2926
io	-10.2927
抚	-10.2928
女王	-10.2934
的人口	-10.2938
少年	-10.2939
并于	-10.2943
最多的	-10.2945
硫	-10.2945
好的	-10.2953
课	-10.2955
在美国	-10.2955
明治	-10.2961
1928	-10.2966
豫	-10.2966
允許	-10.297
克里	-10.2971
▁2016	-10.2975
在他	-10.2976
翻译	-10.2982
的部分	-10.2983
對手	-10.2997
艦隊	-10.2998
▁2015	-10.3003
較為	-10.3009
裕	-10.3013
強烈	-10.3014
最後一	-10.3016
涌	-10.3019
第十	-10.3021
觀眾	-10.3023
斑	-10.3024
知识	-10.3024
一半	-10.3029
跡	-10.3033
總部	-10.3034
▁由于	-10.3035
第一位	-10.3036
1"	-10.3048
1962	-10.3049
键	-10.3049
评论	-10.3051
傳播	-10.3052
緊	-10.3055
捐	-10.3057
谱	-10.3057
持有	-10.3058
奪得	-10.3059
并没有	-10.3066
烧	-10.3067
佈	-10.3068
十一	-10.3071
莫斯科	-10.3074
格式	-10.3075
方面的	-10.3076
成熟	-10.3078
策略	-10.3083
眾多	-10.3089
四个	-10.309
中华民国	-10.3092
陸續	-10.3094
特別是	-10.31
形容	-10.3107
麟	-10.3117
人才	-10.3119
啟用	-10.3121
蒸	-10.3121
煤	-10.3122
电视台	-10.3123
河北	-10.3128
贏得	-10.3132
耐	-10.3136
領袖	-10.3141
愈	-10.3151
義大利	-10.3151
大量的	-10.3154
1977	-10.3154
軸	-10.3155
波蘭	-10.3155
事物	-10.316
鐘	-10.3161
战略	-10.3167
克拉	-10.3169
▁2007	-10.317
访	-10.3171
揭	-10.3173
引发	-10.3177
哪	-10.318
的國家	-10.3182
1963	-10.3183
反映	-10.3184
pi	-10.3184
国防	-10.3191
观点	-10.3192
这样的	-10.3194
超級	-10.3194
雞	-10.3205
的所有	-10.3209
子女	-10.321
阿爾	-10.322
更多的	-10.3221
鸡	-10.3225
慢	-10.3229
東西	-10.323
表达	-10.3233
都在	-10.3235
其中包括	-10.3238
購	-10.324
獄	-10.3243
胸	-10.3244
可以用	-10.3245
改編	-10.3248
祿	-10.3249
毅	-10.3254
可能會	-10.3256
財政	-10.3257
来源	-10.3257
周年	-10.326
对外	-10.3262
經典	-10.3262
人数	-10.3263
ex	-10.3266
ru	-10.3268
缓	-10.3273
~	-10.3274
忘	-10.3274
漁	-10.3278
支付	-10.3279
令人	-10.3283
買	-10.3283
荷兰	-10.3283
貢獻	-10.3284
照片	-10.3286
保守	-10.3288
王室	-10.329
▁2011	-10.329
情形	-10.3291
加州	-10.3294
燃料	-10.33
he	-10.3301
ff	-10.3304
mb	-10.3312
威脅	-10.3314
册	-10.3318
妙	-10.3318
专辑	-10.3319
贡献	-10.3319
蓮	-10.332
頻道	-10.3321
的時間	-10.3322
每天	-10.3331
到達	-10.3331
大批	-10.3333
平民	-10.3333
窗	-10.3334
3"	-10.3342
首位	-10.3342
猎	-10.3344
接觸	-10.3346
兩岸	-10.3353
薪	-10.3353
过去	-10.3355
ts	-10.3356
斯基	-10.3357
丙	-10.3359
處於	-10.3362
娘	-10.3364
以南	-10.3366
宣言	-10.3369
的基本	-10.337
曾任	-10.3374
討	-10.3375
譜	-10.3378
更新	-10.3386
尤其	-10.339
百姓	-10.3392
設備	-10.3392
慧	-10.3398
北平	-10.3401
雅典	-10.3403
虚	-10.3404
辰	-10.3404
逢	-10.3404
理由	-10.3406
打算	-10.3406
祝	-10.3408
晚上	-10.3412
同志	-10.3412
陆军	-10.3412
原则	-10.3413
喬治	-10.3421
专门	-10.3429
年后	-10.343
測試	-10.3436
诉	-10.3437
漢語	-10.3441
恐	-10.3442
依照	-10.3443
嗣	-10.3449
高等	-10.3451
棉	-10.346
被認為是	-10.3461
保险	-10.3465
酷	-10.3469
彼得	-10.3477
ine	-10.3478
主题	-10.3481
信徒	-10.3484
鉴	-10.3484
创建	-10.3485
王子	-10.3485
兩者	-10.3486
中华	-10.3487
韵	-10.3489
區的	-10.3494
公眾	-10.3499
從事	-10.3499
中國國民黨	-10.35
mac	-10.3502
上映	-10.3503
死後	-10.3509
個月	-10.3519
岗	-10.352
一生	-10.3522
贝尔	-10.3526
大規模	-10.3527
潜	-10.353
色彩	-10.353
▁目前	-10.3535
丘陵	-10.3538
的一种	-10.3544
代码	-10.3545
▁2009	-10.3548
四世	-10.3549
碎	-10.3552
观察	-10.3554
成果	-10.3554
通車	-10.3556
军区	-10.3561
召開	-10.3567
激烈	-10.3572
美軍	-10.3573
四個	-10.3576
刺激	-10.3579
事情	-10.3583
部長	-10.3584
貢	-10.3586
薛	-10.3586
愛爾蘭	-10.3591
詹姆斯	-10.3596
高校	-10.3598
俄国	-10.3599
公司的	-10.3604
文献	-10.3605
使其	-10.361
匈奴	-10.3614
1943	-10.3615
1927	-10.3621
漸	-10.3622
设施	-10.3626
dna	-10.3627
拖	-10.3628
宅	-10.3628
印尼	-10.3628
基金	-10.3629
灯	-10.3632
组建	-10.3635
測量	-10.3636
象征	-10.3637
ill	-10.3643
撰	-10.3644
畢	-10.3646
资料	-10.3648
ard	-10.3649
會在	-10.3651
儀式	-10.3652
火星	-10.3654
猛	-10.3658
加工	-10.3658
力学	-10.3661
拼	-10.3662
賞	-10.3665
半岛	-10.3667
案件	-10.3669
指令	-10.3676
東部	-10.3678
落成	-10.368
较大	-10.3681
挪威	-10.3684
髮	-10.3684
甫	-10.3684
多数	-10.3686
小組	-10.3686
搬	-10.369
▁其他	-10.3691
恰	-10.3694
妹	-10.3698
马来西亚	-10.3699
嘴	-10.3699
▁自	-10.3702
剑	-10.3704
擴大	-10.3707
原名	-10.3707
給予	-10.3709
▁-	-10.3711
身上	-10.3712
职务	-10.3717
代替	-10.3718
宴	-10.372
桓	-10.3721
议员	-10.3722
最小	-10.3724
文獻	-10.3726
階級	-10.3733
高级	-10.3738
不要	-10.3746
空气	-10.3751
武帝	-10.3751
壮	-10.3762
食用	-10.3762
式的	-10.3763
é	-10.3767
续	-10.3775
多人	-10.378
反而	-10.3784
雕	-10.3786
欣	-10.3787
碟	-10.3792
识	-10.3793
温度	-10.3794
大眾	-10.3794
盆地	-10.3797
考試	-10.3799
家人	-10.3804
迪士尼	-10.3808
常住人口	-10.3809
兵力	-10.3809
緩	-10.3813
贾	-10.3814
利亚	-10.3815
小学	-10.3818
波音	-10.3818
經驗	-10.3821
▁2022	-10.3825
的主	-10.3827
山区	-10.3831
hu	-10.3836
▁2021	-10.3839
成立了	-10.384
事故	-10.3846
臺北市	-10.385
豹	-10.385
城镇	-10.3852
另一個	-10.3853
ver	-10.3856
山脈	-10.3857
耕	-10.386
之地	-10.386
警方	-10.3861
斯大林	-10.3861
隋	-10.387
示威	-10.3872
閣	-10.3874
损	-10.3884
函	-10.3884
日在	-10.3886
喬	-10.389
ms	-10.3891
道教	-10.3891
關注	-10.3894
这次	-10.3896
胶	-10.3897
成長	-10.3898
柴	-10.3901
一項	-10.3901
阿拉	-10.3903
儲	-10.3906
庇	-10.3908
习	-10.3911
wa	-10.3913
發明	-10.3914
分钟	-10.3914
覆盖	-10.3915
賽季	-10.3915
內閣	-10.3917
性別	-10.3921
阶	-10.3929
发明	-10.393
癌	-10.3934
物种	-10.3934
耶穌	-10.3935
聲明	-10.3935
1932	-10.3938
難以	-10.3944
福音	-10.3946
1931	-10.3946
出售	-10.3947
寮	-10.3951
one	-10.3951
月至	-10.3952
發出	-10.3954
衍生	-10.3956
哀	-10.3957
京都	-10.3957
诚	-10.3967
生态	-10.3971
本科	-10.3974
箭	-10.3975
退休	-10.3977
壘	-10.3977
通行	-10.3987
青岛	-10.3988
空中	-10.3989
海上	-10.3989
增加了	-10.3997
两人	-10.4001
賈	-10.4004
似乎	-10.4006
人民政府	-10.4007
排列	-10.401
綜合	-10.4011
貝爾	-10.4014
打破	-10.4015
吐	-10.4015
危機	-10.4021
加速	-10.4021
文革	-10.4023
tt	-10.4025
並將	-10.403
四十	-10.4033
第八	-10.4035
發起	-10.4037
em	-10.4037
公式	-10.4038
东方	-10.4038
家中	-10.4039
聚集	-10.404
變得	-10.4045
mar	-10.4048
崔	-10.4053
屏	-10.4062
对应	-10.4063
出现了	-10.4066
蜜	-10.4068
错误	-10.4068
ay	-10.4082
引用	-10.4087
頻	-10.4089
自此	-10.4093
算法	-10.4095
治疗	-10.4096
剩	-10.4098
的关系	-10.4098
误	-10.41
政府的	-10.4103
山西	-10.4109
纵	-10.4109
是因為	-10.4116
滨	-10.4117
飲	-10.4118
民主党	-10.412
巧	-10.4121
紧	-10.4122
實現	-10.4122
女儿	-10.4123
4"	-10.4124
周期	-10.4135
意外	-10.4135
社會主義	-10.4137
山地	-10.4138
對抗	-10.4143
锋	-10.4144
丈夫	-10.4146
就讀	-10.4146
肺	-10.4148
巨大的	-10.4149
gi	-10.4149
-&	-10.4152
ang	-10.4153
航空公司	-10.4155
掠	-10.4155
遭受	-10.4157
业务	-10.4157
分成	-10.4158
三角	-10.416
传说	-10.416
價格	-10.4162
喜歡	-10.4166
電台	-10.4169
一套	-10.4172
分佈	-10.4175
形成的	-10.4175
收藏	-10.4179
說法	-10.4179
映	-10.4189
已被	-10.4191
任意	-10.4194
满足	-10.4194
隻	-10.4196
_6	-10.4196
藉	-10.4196
tu	-10.4196
邀	-10.4197
斗争	-10.4201
濱	-10.4202
與其他	-10.4203
团体	-10.4204
九年	-10.4215
江西	-10.4218
大部份	-10.422
大廈	-10.4229
年被	-10.4233
罰	-10.4236
改名	-10.4244
的歷史	-10.4244
理念	-10.4245
抄	-10.4247
可見	-10.4248
的高	-10.425
終於	-10.4253
fe	-10.4253
放在	-10.4254
一場	-10.4254
咖啡	-10.4258
sm	-10.4259
网站	-10.4261
ate	-10.4262
演员	-10.4263
邁	-10.4263
ment	-10.427
頗	-10.4274
年开始	-10.4274
创办	-10.4277
渠	-10.428
签署	-10.4281
留在	-10.4282
事业	-10.4286
缘	-10.4289
支持者	-10.4291
1912	-10.4292
譽	-10.4295
后期	-10.4296
做法	-10.4298
歇	-10.4302
后者	-10.4304
正面	-10.4306
重視	-10.4309
搜	-10.4311
賜	-10.4313
货	-10.4313
氯	-10.4315
有許多	-10.4316
市中心	-10.4317
動力	-10.4318
遇到	-10.4319
镜	-10.4321
庸	-10.4324
崇拜	-10.4327
剪	-10.4329
抓	-10.4329
威胁	-10.433
尼斯	-10.4334
慎	-10.4335
训练	-10.4336
北宋	-10.434
con	-10.434
赏	-10.4341
教徒	-10.4345
-3	-10.4351
司令	-10.4353
超越	-10.4353
步兵	-10.4356
迴	-10.4356
以北	-10.4364
網絡	-10.4368
移动	-10.437
立場	-10.4373
主演	-10.4374
崎	-10.4378
红色	-10.4379
积极	-10.438
(13	-10.4383
恭	-10.4386
有一些	-10.4389
中子	-10.4394
這次	-10.4395
梵	-10.4396
周恩来	-10.4396
斥	-10.4398
2023	-10.4401
慕容	-10.4405
違	-10.4429
销	-10.4429
小组	-10.4432
紅色	-10.4434
輻射	-10.4435
常用	-10.4438
鼎	-10.4439
关注	-10.4442
軟	-10.4444
訴	-10.4445
中國共產黨	-10.4452
幻	-10.4452
bu	-10.4453
发达	-10.4454
當局	-10.4455
1934	-10.446
豐富	-10.4461
▁李	-10.4461
通常是	-10.4462
膠	-10.4462
「」	-10.4464
架構	-10.4465
编辑	-10.4468
月球	-10.4469
化石	-10.4469
永久	-10.4469
抵達	-10.4475
上有	-10.4476
一天	-10.4478
′	-10.4479
棒球	-10.448
时任	-10.4483
民众	-10.4486
電視劇	-10.4493
提出的	-10.4499
意见	-10.4499
說明	-10.45
機械	-10.45
标志	-10.4501
▁行政区划	-10.4502
清楚	-10.4504
粵語	-10.4504
唐代	-10.4506
姑	-10.4507
垂	-10.4511
α	-10.4513
南宋	-10.4516
有很多	-10.4516
少女	-10.4518
讚	-10.4518
大道	-10.4519
影響力	-10.452
放弃	-10.4526
一代	-10.4531
130	-10.4531
調整	-10.4532
▁3	-10.4533
高原	-10.4535
記者	-10.4536
明代	-10.454
天體	-10.4541
恨	-10.4541
至此	-10.4545
领袖	-10.4547
科學家	-10.4552
虛	-10.4552
广东省	-10.4554
▁本	-10.4557
替代	-10.4557
編輯	-10.4558
如今	-10.4559
態度	-10.456
int	-10.4561
普及	-10.4561
元朝	-10.4563
勸	-10.4564
共和	-10.457
物體	-10.4572
吨	-10.4574
房屋	-10.4581
灌	-10.4586
更高	-10.4587
上面	-10.4589
收購	-10.4589
地质	-10.4589
意識	-10.4595
脈	-10.4596
竞争	-10.4597
另一个	-10.4599
脂	-10.4603
是日本	-10.4604
完工	-10.4607
晚期	-10.4609
的最高	-10.4613
週期	-10.4614
欽	-10.4614
朴	-10.4614
體系	-10.4617
貨幣	-10.462
经营	-10.4623
一所	-10.4625
棒	-10.4627
什麼	-10.4631
年轻	-10.4634
苯	-10.4637
殼	-10.4643
中期	-10.4643
的情況下	-10.4643
未来	-10.4643
壇	-10.4645
各国	-10.4647
管制	-10.4649
壯	-10.4654
虫	-10.4659
成為了	-10.4663
夺	-10.4666
使用了	-10.4669
斜	-10.4671
慰	-10.4672
展开	-10.4673
阿富汗	-10.4677
禪	-10.4677
便是	-10.4678
pc	-10.4686
打擊	-10.4692
西亞	-10.4692
轨	-10.4697
疆	-10.4698
神話	-10.4704
壞	-10.4704
率領	-10.4706
責	-10.4713
日期	-10.4713
错	-10.4717
殷	-10.4717
祖父	-10.4719
从事	-10.4721
奧地利	-10.4723
謂	-10.4724
释	-10.4727
走向	-10.4732
原先	-10.4732
动画	-10.4733
離子	-10.4737
高級	-10.4743
不仅	-10.4743
灾	-10.4744
趁	-10.4747
辞	-10.4751
繁殖	-10.4752
地點	-10.4754
卫生	-10.4761
筹	-10.4762
娶	-10.4763
拆除	-10.4764
如同	-10.4768
對外	-10.4773
他也	-10.4776
祖先	-10.4777
這樣的	-10.4779
反抗	-10.4779
迈	-10.478
踏	-10.478
姚	-10.4781
击败	-10.4782
生存	-10.4783
年時	-10.4788
收集	-10.479
ng	-10.479
帽	-10.4792
參選	-10.4792
日後	-10.4793
结婚	-10.4795
更名为	-10.4799
增長	-10.4799
空氣	-10.4801
盈	-10.4804
都会	-10.4804
货币	-10.4804
社區	-10.481
呈現	-10.4811
tra	-10.4813
理事	-10.4814
東亞	-10.4818
mm	-10.4818
坛	-10.4819
的意思	-10.4822
ag	-10.4827
就可以	-10.483
英軍	-10.483
廢除	-10.4831
明确	-10.4832
弥	-10.4832
造成的	-10.4837
教师	-10.4839
幕府	-10.484
對應	-10.4841
秘	-10.4841
途中	-10.4845
▁另外	-10.4847
弃	-10.4848
分別為	-10.4849
編號	-10.4854
脉	-10.4855
▁2000	-10.4857
藉由	-10.4863
猶太人	-10.4864
的一些	-10.4866
经验	-10.4866
尿	-10.4867
禽	-10.4867
净	-10.4867
市政	-10.4867
」;	-10.4867
较为	-10.4871
扣	-10.4873
鼠	-10.4875
迦	-10.4879
追求	-10.488
国家级	-10.4886
执政	-10.489
分解	-10.4892
讨	-10.4895
貼	-10.4896
逸	-10.4896
設定	-10.4896
不得不	-10.4897
外交部	-10.4898
元音	-10.49
管轄	-10.4904
運用	-10.4906
体制	-10.4908
140	-10.4909
专家	-10.491
觸	-10.491
奥地利	-10.4914
動作	-10.4917
强调	-10.4917
针对	-10.4922
辖区	-10.4926
的国家	-10.4926
检	-10.4927
購買	-10.4932
首席	-10.4936
mer	-10.494
修正	-10.4943
都被	-10.4944
ue	-10.4945
的问题	-10.4946
攻打	-10.4958
1929	-10.4963
票房	-10.4964
命名為	-10.4966
但因	-10.4967
法官	-10.4968
檔	-10.497
际	-10.4971
八年	-10.4971
加强	-10.4973
錯誤	-10.4973
儿子	-10.4976
同時也	-10.4978
此次	-10.4979
親王	-10.4979
整體	-10.498
都可以	-10.4985
創辦	-10.4987
▁2003	-10.4987
人和	-10.4987
巫	-10.4988
享有	-10.4989
撤退	-10.4993
種類	-10.4996
藥物	-10.4996
後者	-10.4996
06	-10.4997
沿岸	-10.4998
排名第	-10.4998
买	-10.5001
地鐵	-10.5002
mon	-10.5003
傾向	-10.5006
之戰	-10.5009
扩展	-10.501
地域	-10.5014
仍有	-10.5016
出版社	-10.5017
1919	-10.5018
冒	-10.5019
矮	-10.5019
立法會	-10.502
乐队	-10.5028
腺	-10.5031
淨	-10.5031
苗	-10.5033
億美元	-10.5038
喷	-10.5043
突出	-10.5046
聲音	-10.505
卡拉	-10.5051
所谓	-10.5052
球季	-10.5052
通訊	-10.5058
非法	-10.5062
阁	-10.5065
校友	-10.5067
簽訂	-10.5067
遗产	-10.5069
地名	-10.507
挑	-10.5072
时期的	-10.5074
銘	-10.5079
ea	-10.5079
沈阳	-10.508
锦	-10.5091
名義	-10.5092
腐	-10.5095
海峽	-10.5095
培养	-10.5098
每一	-10.5102
氮	-10.5108
人文	-10.5108
電話	-10.5109
1918	-10.5117
月底	-10.5119
▁政治	-10.5121
對象	-10.5121
凤	-10.5126
par	-10.5131
纳粹	-10.5132
院長	-10.514
貞	-10.5145
世界盃	-10.5151
斯托	-10.5153
jo	-10.5156
阮	-10.5157
標誌	-10.5157
wi	-10.5158
特拉	-10.5169
通知	-10.5171
翔	-10.5174
就會	-10.5176
專門	-10.5177
丸	-10.518
辅	-10.518
上海市	-10.5183
纹	-10.5186
》("	-10.519
mu	-10.519
教學	-10.5191
tv	-10.5191
魔法	-10.5192
深入	-10.5192
新界	-10.5195
软	-10.5195
身分	-10.5196
麵	-10.5197
颗	-10.5198
浸	-10.5198
劣	-10.5198
多種	-10.52
颜色	-10.52
共產黨	-10.5204
下辖	-10.5206
團隊	-10.5215
掩	-10.5216
nt	-10.5217
指控	-10.5218
焚	-10.5222
妥	-10.5223
顏色	-10.523
法令	-10.5232
也因此	-10.5233
澳大利亚	-10.5234
的时间	-10.5239
ft	-10.5243
坦克	-10.5245
享	-10.525
基本上	-10.525
嫁	-10.525
肯定	-10.5252
加強	-10.5252
砂	-10.5253
we	-10.5257
航班	-10.526
智慧	-10.526
饮	-10.5261
祠	-10.5264
弟弟	-10.5267
毫	-10.5269
年到	-10.527
都不	-10.527
离子	-10.527
市政府	-10.5271
伯爵	-10.5271
编码	-10.5272
拍摄	-10.5276
帶領	-10.5278
像是	-10.5281
城堡	-10.5281
候選人	-10.5282
上市	-10.5283
簽署	-10.5284
机车	-10.5287
種族	-10.5289
阶级	-10.5291
在他的	-10.5292
常委	-10.5293
逊	-10.5294
幽	-10.5294
物理學	-10.5295
醫療	-10.5295
鍵	-10.5297
有一个	-10.5298
湖北	-10.5298
紐	-10.5303
車輛	-10.5308
药物	-10.5309
重量	-10.531
蘇格蘭	-10.5313
ian	-10.5313
撞	-10.5316
神經	-10.5322
种族	-10.5324
的一種	-10.5325
-4	-10.5326
干部	-10.5326
認識	-10.5326
產生的	-10.5327
舰队	-10.533
长度	-10.5331
冈	-10.5331
拓	-10.5332
pl	-10.5333
彼此	-10.5336
未有	-10.5337
衍	-10.5337
物体	-10.5338
晚年	-10.534
經濟學	-10.5343
時期的	-10.5347
十月	-10.5347
免疫	-10.5348
空军	-10.5349
又名	-10.535
趕	-10.5356
優勢	-10.536
签订	-10.5368
嘗試	-10.5369
南海	-10.5373
中国人民解放军	-10.5374
喻	-10.5374
坚持	-10.5376
獅	-10.5376
明確	-10.5376
大西洋	-10.5379
近年	-10.538
基督徒	-10.5381
记者	-10.5381
经典	-10.5382
此事	-10.5383
总面积	-10.5384
淺	-10.5386
贤	-10.5386
鄂	-10.5387
竟	-10.5387
認同	-10.539
奎	-10.5393
太宗	-10.5396
被捕	-10.5398
中最	-10.5401
南越	-10.5403
氣體	-10.5408
各个	-10.5408
ton	-10.541
大阪	-10.541
茅	-10.5411
外部	-10.5411
影像	-10.5411
山區	-10.5413
划归	-10.5414
條例	-10.5421
伸	-10.5422
姿	-10.5423
第九	-10.5424
划分	-10.5435
在中國	-10.5435
脊	-10.5435
若干	-10.5435
的反	-10.5438
下游	-10.5439
经历	-10.5442
一级	-10.5445
凝	-10.5447
的政策	-10.5447
一批	-10.5448
08	-10.545
end	-10.5451
埋	-10.5454
男女	-10.5454
当年	-10.5456
的能力	-10.5456
▁ca	-10.5457
ko	-10.5458
维持	-10.5458
印象	-10.546
配音	-10.546
1914	-10.5464
分离	-10.5467
舌	-10.5472
贺	-10.5473
榮譽	-10.5473
並以	-10.5479
卒	-10.5479
强烈	-10.5484
ds	-10.5488
文化大革命	-10.5491
私立	-10.5497
腿	-10.5503
出土	-10.5506
▁be	-10.5509
自动	-10.5509
市的	-10.551
選出	-10.5516
平方米	-10.5516
三次	-10.5517
07	-10.5519
第二次世界大戰	-10.5522
堤	-10.5522
球會	-10.5522
原來	-10.5522
濃	-10.553
作物	-10.5533
出的	-10.5536
派的	-10.5537
死刑	-10.5537
十大	-10.5539
死后	-10.5539
碧	-10.5541
馬來西亞	-10.5547
遲	-10.5547
颇	-10.5547
早年	-10.5547
不可能	-10.5549
堅持	-10.555
ok	-10.555
疊	-10.5553
拱	-10.5553
在上海	-10.5555
之上	-10.5557
沿用	-10.5558
掃	-10.5559
院校	-10.556
迫使	-10.5563
列入	-10.5569
騎	-10.557
现实	-10.5571
旨	-10.5573
神经	-10.5575
會員	-10.5575
地中海	-10.5578
會有	-10.5578
俠	-10.5578
風險	-10.5579
新竹	-10.558
彗星	-10.5584
优势	-10.5587
工廠	-10.5588
黃金	-10.5588
250	-10.559
琉球	-10.5591
年末	-10.5594
管理局	-10.5598
身体	-10.5598
促	-10.5605
损失	-10.5607
斯塔	-10.5608
對此	-10.561
趣	-10.5613
證實	-10.5613
筑	-10.5614
专区	-10.5615
拼音	-10.5616
世界各地	-10.5619
友好	-10.5623
1925	-10.5627
邱	-10.5629
麓	-10.5634
居住在	-10.5635
以外的	-10.564
收到	-10.5641
黄河	-10.5642
少数	-10.5644
兩國	-10.5645
五世	-10.5649
確	-10.565
购	-10.5651
赖	-10.5652
病逝	-10.5653
诏	-10.566
不僅	-10.5661
紹	-10.5665
训	-10.5671
遵	-10.5676
》()	-10.5679
姓氏	-10.568
说明	-10.5681
桌	-10.5684
怕	-10.5685
伪	-10.5691
職務	-10.5691
流域	-10.5693
肅	-10.5698
但由於	-10.57
苏州	-10.5703
昇	-10.571
促进	-10.5712
内的	-10.5712
尹	-10.5717
饰	-10.5718
发起	-10.572
认	-10.5723
戏剧	-10.5726
▁早年	-10.5726
上下	-10.5728
削	-10.5728
鍾	-10.5729
盜	-10.5729
)、《	-10.5729
亿美元	-10.573
戚	-10.573
的不同	-10.5732
戰略	-10.5736
布拉	-10.5737
当选	-10.5739
尺	-10.574
罷	-10.5742
呼吸	-10.5743
贊	-10.5747
广告	-10.5748
压力	-10.5748
撫	-10.5748
05	-10.5752
依靠	-10.5754
的情況	-10.5756
了他的	-10.5758
係	-10.5759
逾	-10.5761
用戶	-10.5761
談判	-10.5763
总督	-10.5766
越来越	-10.5767
寫作	-10.5768
可以指	-10.577
世界杯	-10.5771
不但	-10.5772
區內	-10.5773
的土地	-10.5776
情况下	-10.5778
→	-10.5779
包括了	-10.578
推动	-10.5782
▁la	-10.5782
理性	-10.5783
真正的	-10.5783
獎項	-10.5785
除此之外	-10.5786
霞	-10.5787
▁bo	-10.5788
▁中国	-10.5788
孔子	-10.5791
坝	-10.5799
170	-10.58
響	-10.5802
醒	-10.5803
噸	-10.5805
赢得	-10.5806
介紹	-10.5806
社区	-10.5807
车站	-10.5808
閩	-10.5809
胺	-10.5818
跌	-10.5818
▁1949	-10.5822
开展	-10.5822
农村	-10.5828
充分	-10.5832
戲劇	-10.5834
我的	-10.5837
完整的	-10.5838
無綫電視	-10.584
輸	-10.5844
宣告	-10.5844
及其他	-10.5845
困難	-10.5845
翠	-10.585
登上	-10.5853
×	-10.5857
的情况下	-10.5857
开通	-10.5857
長度	-10.5859
沙漠	-10.5859
地处	-10.5861
国民政府	-10.5862
ki	-10.5862
以便	-10.5865
的思想	-10.5871
較高	-10.5871
总部	-10.5874
出版的	-10.5875
瓶	-10.5875
舞蹈	-10.5876
周围	-10.588
儒家	-10.588
年齡	-10.5881
時候	-10.5882
之意	-10.5883
110	-10.5886
1.5	-10.5887
蓄	-10.5889
約為	-10.5889
中間	-10.5891
千米	-10.5893
ai	-10.5894
假設	-10.5897
内阁	-10.5898
螺	-10.59
俱乐部	-10.5901
柬埔寨	-10.5901
景区	-10.5902
人均	-10.591
大家	-10.5912
事實上	-10.5914
的存在	-10.5914
仪式	-10.5916
針	-10.5921
ity	-10.5921
肝	-10.5921
興趣	-10.5922
工厂	-10.5933
1922	-10.5934
挑戰	-10.5937
最为	-10.5939
尋	-10.594
衛生	-10.594
亞歷山大	-10.594
成绩	-10.5941
喪	-10.5945
公众	-10.5946
几何	-10.5946
紋	-10.5947
頒	-10.5951
泊	-10.5952
怡	-10.5953
仓	-10.5954
定期	-10.5954
价格	-10.5958
涵	-10.5958
爱尔兰	-10.596
學系	-10.596
不受	-10.5961
整理	-10.5961
的話	-10.5966
詔	-10.5967
摄	-10.5967
東南	-10.5968
机器	-10.5969
接著	-10.597
阳县	-10.5971
维尔	-10.5972
冀	-10.5973
地址	-10.5974
責任	-10.5975
第一部	-10.5978
龜	-10.5979
隨即	-10.5979
ers	-10.598
三国	-10.598
1924	-10.5985
▁交通	-10.5986
que	-10.5987
雀	-10.5992
論文	-10.5992
日益	-10.5993
一词	-10.5994
飾演	-10.5996
转移	-10.5998
淘汰	-10.5999
交换	-10.6
經由	-10.6002
擴張	-10.6006
院士	-10.6008
危机	-10.601
從而	-10.6012
钢	-10.6017
促進	-10.6027
免費	-10.6029
武裝	-10.6029
百萬	-10.603
的經濟	-10.6032
不满	-10.6035
娃	-10.6038
科学家	-10.6039
rna	-10.604
名單	-10.604
擁	-10.604
加入了	-10.6041
福利	-10.6044
生于	-10.6049
分離	-10.6049
忌	-10.605
就在	-10.6052
差异	-10.6056
了一些	-10.6063
沪	-10.6064
技巧	-10.6066
用以	-10.6066
則為	-10.6067
五代	-10.6068
余人	-10.6069
從此	-10.6069
芒	-10.6071
了一個	-10.6071
第三次	-10.6072
潤	-10.6077
铺	-10.6078
并将	-10.6082
學會	-10.6086
起初	-10.609
掛	-10.609
驗	-10.6095
测量	-10.6095
勳	-10.6095
整合	-10.6098
規範	-10.6098
▁con	-10.6099
变成	-10.6101
正確	-10.6103
袋	-10.6104
中间	-10.6105
碱	-10.611
主導	-10.6113
勞動	-10.6115
三人	-10.6115
1900	-10.6116
市長	-10.6123
霧	-10.6123
建制	-10.6123
五月	-10.6124
一项	-10.6129
生於	-10.6129
多元	-10.6131
经济学	-10.6132
濕	-10.6136
列出	-10.6137
日正式	-10.6137
通车	-10.6139
小行星	-10.6139
顧問	-10.6145
率领	-10.6145
少数民族	-10.6145
种植	-10.6145
改制	-10.6146
日報	-10.6146
也可	-10.6147
两次	-10.615
鄰近	-10.6155
校園	-10.6157
并未	-10.6159
含量	-10.6159
禹	-10.6163
下午	-10.6164
稱作	-10.6165
原因是	-10.6171
仰	-10.6172
组成的	-10.6173
vo	-10.6173
▁除了	-10.6174
观测	-10.6175
宋朝	-10.6186
ste	-10.6189
汝	-10.619
績	-10.619
创立	-10.6192
tri	-10.6193
成人	-10.6196
囊	-10.6196
正是	-10.6198
內地	-10.6199
两国	-10.6204
最為	-10.6205
▁co	-10.6207
左派	-10.6207
究	-10.6208
暨	-10.621
目的是	-10.6211
侵略	-10.6212
質疑	-10.6214
上游	-10.6217
09	-10.6221
太祖	-10.6224
产生的	-10.6224
退役	-10.6226
age	-10.6227
杆	-10.623
并非	-10.6233
发出	-10.6233
04	-10.6235
委任	-10.6236
無論	-10.6236
▁me	-10.6237
公交	-10.6238
分校	-10.624
秩序	-10.6243
供應	-10.6243
並無	-10.6252
觀光	-10.6254
一场	-10.6255
改建	-10.6255
赐	-10.6257
商場	-10.6259
海南	-10.626
的功能	-10.6262
的例子	-10.6262
云南	-10.6264
主要有	-10.6265
资金	-10.6268
抗議	-10.6268
擬	-10.6268
豬	-10.6269
機器	-10.627
祭祀	-10.627
下來	-10.627
想要	-10.6271
厘米	-10.6272
列為	-10.6273
收錄	-10.6273
頁	-10.6275
國語	-10.6279
鷹	-10.6283
▁o	-10.6285
储	-10.6287
怨	-10.629
因其	-10.629
教師	-10.6295
國際機場	-10.6296
流亡	-10.6305
斯科	-10.6305
1917	-10.6306
言論	-10.6316
阿根廷	-10.6316
频	-10.6317
谓	-10.632
甜	-10.6323
my	-10.6325
毛澤東	-10.6325
靠近	-10.6328
rt	-10.6329
艙	-10.633
勾	-10.633
女神	-10.6331
政党	-10.6331
导演	-10.6333
宁波	-10.6335
前者	-10.6336
全年	-10.6337
废除	-10.634
tr	-10.634
出現在	-10.6342
親自	-10.6343
又有	-10.6343
交界	-10.6343
回應	-10.6345
担	-10.6346
是香港	-10.6351
症狀	-10.6352
他还	-10.6352
江苏省	-10.6355
污	-10.6356
也曾	-10.6359
在台灣	-10.6359
服役	-10.6361
出现在	-10.6367
国家的	-10.6367
遭遇	-10.6368
pu	-10.6369
1921	-10.6376
▁pro	-10.6376
客運	-10.6376
发现了	-10.6378
来到	-10.6384
方程式	-10.6384
格里	-10.6384
莲	-10.6384
科研	-10.639
_7	-10.639
丹麦	-10.639
少量	-10.6393
齒	-10.6397
檔案	-10.6399
干涉	-10.6402
潔	-10.6404
谈判	-10.6406
从此	-10.6407
引力	-10.6408
真實	-10.6409
主場	-10.6411
員工	-10.6411
但也	-10.6415
賦	-10.6417
促使	-10.6421
机会	-10.6425
接触	-10.6425
律師	-10.6426
澄	-10.6432
長子	-10.6434
轉換	-10.6434
辆	-10.6443
歲的	-10.6443
1926	-10.6443
区别	-10.6444
爭取	-10.6444
玲	-10.6445
島嶼	-10.6449
奥运会	-10.6451
熔	-10.6451
註	-10.6451
惊	-10.6452
是一位	-10.6454
古巴	-10.6455
授權	-10.6458
指的是	-10.6462
習慣	-10.6466
開設	-10.647
加盟	-10.6478
末期	-10.6483
ak	-10.6489
一旦	-10.649
动力	-10.6491
汉族	-10.6493
手中	-10.65
邀请	-10.65
周边	-10.65
ya	-10.6501
遊行	-10.6502
证据	-10.6503
迫害	-10.6506
考察	-10.6508
0.0	-10.6508
源于	-10.6511
農民	-10.6511
可是	-10.6513
推廣	-10.6514
定位	-10.6518
國家的	-10.652
搞	-10.652
ong	-10.6524
请求	-10.6525
她在	-10.6525
人口普查	-10.6527
壳	-10.6527
裝置	-10.6528
株	-10.6534
常見	-10.6536
巴赫	-10.6537
邓小平	-10.6541
此地	-10.6541
新建	-10.6545
邨	-10.6547
菲律賓	-10.6548
提倡	-10.6549
可用	-10.6558
住在	-10.6559
生態	-10.656
改称	-10.6561
闊	-10.6562
赶	-10.6562
常见的	-10.6564
角度	-10.6567
赋	-10.6568
▁0	-10.6568
猫	-10.6568
▁阿	-10.6568
書籍	-10.6574
量的	-10.6575
category	-10.6575
保证	-10.6577
▁[[	-10.6579
適合	-10.658
探索	-10.6581
大公	-10.6585
完成了	-10.6586
针	-10.6586
电脑	-10.6587
浙	-10.659
武力	-10.6592
況	-10.6593
2.5	-10.6593
國軍	-10.6595
学会	-10.6595
滩	-10.6596
阔	-10.6596
星系	-10.6597
严格	-10.66
年代初	-10.6602
欠	-10.6603
中被	-10.6604
年由	-10.6605
利斯	-10.6605
边界	-10.6606
則有	-10.661
日报	-10.6612
釋放	-10.6613
支流	-10.6617
南斯拉夫	-10.6617
齡	-10.6618
很高	-10.6619
最高法院	-10.6623
订	-10.6627
信任	-10.6629
銷量	-10.663
對方	-10.6631
斯克	-10.6631
流量	-10.6636
▁前	-10.6638
一人	-10.6639
浙江省	-10.6639
dr	-10.6641
析	-10.6642
平方	-10.6643
斐	-10.6644
即是	-10.6649
▁le	-10.6651
沖	-10.6651
此一	-10.6651
的经济	-10.6664
現實	-10.6666
ele	-10.6669
塞尔	-10.6671
祈	-10.6672
运河	-10.6674
▁日本	-10.668
tic	-10.668
反射	-10.6686
书院	-10.6687
數位	-10.669
悟	-10.6693
每日	-10.6696
神话	-10.6697
万吨	-10.6702
对此	-10.6704
玛丽	-10.6709
52"	-10.6711
十二年	-10.6712
42"	-10.6713
邵	-10.6715
分別是	-10.6719
日本人	-10.672
二戰	-10.672
歡	-10.672
辉	-10.6721
鴻	-10.6722
产生了	-10.6723
警告	-10.6726
代数	-10.6727
销售	-10.6729
疫情	-10.6729
首府	-10.673
国民党	-10.673
集中在	-10.6731
钦	-10.6735
接任	-10.6737
誕	-10.6741
珀	-10.6742
有不少	-10.6742
聯繫	-10.6743
確認	-10.6747
跑道	-10.6748
状况	-10.6749
湖南省	-10.6754
十三年	-10.6756
iv	-10.6756
汶	-10.6757
溶液	-10.6757
的速度	-10.6759
戰士	-10.6763
贴	-10.6763
面向	-10.6767
时候	-10.677
廖	-10.677
che	-10.6771
最著名的	-10.6771
3000	-10.6772
高等教育	-10.6772
纪录	-10.6773
出生于	-10.6777
在這	-10.6777
广西	-10.678
1913	-10.6784
禅	-10.6785
困难	-10.6785
預計	-10.6786
1911	-10.6787
包含了	-10.679
凉	-10.6799
900	-10.6801
现有	-10.6801
port	-10.6802
教練	-10.6803
鑑	-10.6805
最后一	-10.6806
際	-10.6807
毕业	-10.6809
葵	-10.6813
機制	-10.6814
一篇	-10.6814
的核心	-10.6814
尊重	-10.6816
的法律	-10.6816
説	-10.682
以往	-10.6827
下了	-10.6828
基隆	-10.6828
這段	-10.6829
会上	-10.6834
中華民國政府	-10.6838
页	-10.684
慕尼黑	-10.6841
圭	-10.6841
猴	-10.6841
勘	-10.6841
基金會	-10.6844
在内的	-10.6845
日治時期	-10.6848
淵	-10.6849
泰國	-10.6849
通往	-10.6849
▁pa	-10.6849
效應	-10.6849
大夫	-10.685
百年	-10.6852
北洋	-10.6854
忽	-10.6854
芝加哥	-10.6855
诗人	-10.6855
蒲	-10.6855
主管	-10.6858
va	-10.6861
论文	-10.6861
熱帶	-10.6862
-0	-10.6863
整体	-10.6866
▁ch	-10.6867
兩次	-10.6869
搶	-10.6869
添加	-10.687
商店	-10.687
研究生	-10.6871
75"	-10.6873
图像	-10.6874
債	-10.6876
认识	-10.6877
練	-10.6878
创新	-10.688
江苏	-10.6882
写作	-10.6883
一千	-10.6885
car	-10.6886
ou	-10.6887
劇情	-10.6891
典型的	-10.6891
耶稣	-10.6897
▁雖然	-10.69
兽	-10.6905
光绪	-10.6906
合約	-10.6908
陪	-10.6909
損失	-10.691
出兵	-10.691
窄	-10.6912
的中心	-10.6914
其余	-10.6915
课程	-10.6915
边境	-10.6916
香港政府	-10.6917
庞	-10.6919
art	-10.692
隸屬	-10.6921
粮食	-10.6923
抵达	-10.6927
發電	-10.6929
遺產	-10.6929
輸入	-10.693
帶有	-10.6931
二次	-10.6931
oo	-10.6936
公斤	-10.6936
▁4	-10.6937
慘	-10.6941
大力	-10.6941
闭	-10.6943
测试	-10.6944
国军	-10.6945
耶和華	-10.6947
梨	-10.6948
ee	-10.6952
交換	-10.6953
保羅	-10.6956
傳媒	-10.6958
現場	-10.6959
▁al	-10.6959
長達	-10.6962
裝甲	-10.6962
师范	-10.6963
完善	-10.6966
但其	-10.6967
間的	-10.6968
购买	-10.6969
太后	-10.6971
合理	-10.6974
取得了	-10.6977
南下	-10.6981
”;	-10.6982
涂	-10.6983
腰	-10.6984
战后	-10.6985
人民币	-10.6987
得出	-10.6994
驅	-10.6996
sc	-10.6996
婦	-10.6997
65"	-10.7
输入	-10.7003
舱	-10.7005
盗	-10.7005
感情	-10.7006
存在的	-10.7006
單曲	-10.7011
駕駛	-10.7012
铅	-10.7013
議題	-10.7014
一方面	-10.7017
土壤	-10.702
指导	-10.7023
77"	-10.7023
雍正	-10.7024
39"	-10.7024
考试	-10.7031
92"	-10.7031
意为	-10.7032
球员	-10.7032
同性戀	-10.7034
翰	-10.7035
原来	-10.7038
路线	-10.7041
北伐	-10.7041
各個	-10.7044
种类	-10.7046
之名	-10.7047
勋	-10.7047
运算	-10.7048
乌克兰	-10.7048
越來越	-10.7048
扇	-10.7048
臂	-10.7049
行政長官	-10.7049
实验室	-10.7053
朵	-10.7056
族人	-10.7057
處理器	-10.706
虽	-10.7062
股份	-10.7063
手法	-10.7064
鸟类	-10.7066
气体	-10.7067
宣稱	-10.707
狱	-10.707
鼓勵	-10.707
人權	-10.7076
誌	-10.7076
發布	-10.7076
下来	-10.7077
作曲家	-10.7078
72"	-10.7083
物品	-10.7083
絕對	-10.7085
55"	-10.7096
35"	-10.7096
1923	-10.7105
六十	-10.7106
29"	-10.7106
拒	-10.711
01	-10.7116
报纸	-10.7117
红军	-10.7118
97"	-10.712
法定	-10.7123
行使	-10.7125
結束後	-10.7126
产量	-10.7126
参考	-10.7129
但仍	-10.713
烯	-10.7135
登陸	-10.7136
行政區	-10.7139
清廷	-10.7142
任內	-10.7145
▁com	-10.7146
移居	-10.7147
覽	-10.7149
容量	-10.715
領導人	-10.7152
光緒	-10.7152
。2005	-10.7157
稱之為	-10.7158
窟	-10.7158
关键	-10.7163
有一個	-10.7164
介绍	-10.7166
变得	-10.7166
均有	-10.7168
组合	-10.7168
32"	-10.7171
使他	-10.7172
笛	-10.7172
黑人	-10.7173
多名	-10.7173
ty	-10.7174
閃	-10.7179
崖	-10.7187
喜欢	-10.7187
大帝	-10.7189
30"	-10.7189
cu	-10.7192
剿	-10.7195
歲時	-10.7201
94"	-10.7201
解除	-10.7201
责任	-10.7204
▁ro	-10.7206
閉	-10.7208
億元	-10.7211
有机	-10.7213
说法	-10.7214
邮	-10.7216
德拉	-10.7218
全省	-10.7223
更為	-10.7224
弄	-10.7224
▁以下	-10.7225
建築物	-10.7229
确	-10.7232
98"	-10.7232
三位	-10.7233
观众	-10.7235
辟	-10.7236
fl	-10.7239
部署	-10.7239
华人	-10.7241
有利	-10.7244
安裝	-10.7246
ns	-10.7252
日耳曼	-10.7253
約有	-10.7258
意识	-10.7259
悼	-10.726
體制	-10.726
兩年	-10.7262
58"	-10.7264
):	-10.7265
蒙特	-10.7266
研究院	-10.7267
耶路撒冷	-10.7268
荣誉	-10.7268
悉	-10.7271
保安	-10.7273
飯	-10.7274
外界	-10.7277
也会	-10.7279
88"	-10.7279
聲稱	-10.728
ep	-10.7281
回歸	-10.7281
for	-10.7282
威爾	-10.7282
就像	-10.7284
電車	-10.7285
翌年	-10.7291
09"	-10.7293
殊	-10.7296
08"	-10.7296
25"	-10.73
血液	-10.7303
雇	-10.7305
38"	-10.7312
▁其中	-10.7313
迟	-10.7313
镇压	-10.7313
ant	-10.7315
為一	-10.7315
07"	-10.7317
”,“	-10.7322
括	-10.7325
79"	-10.7326
醉	-10.7327
结束后	-10.7329
规范	-10.7329
漢人	-10.733
不知	-10.733
车辆	-10.7331
性格	-10.7334
▁2002	-10.7334
sta	-10.7338
攝影	-10.734
群众	-10.7341
47"	-10.7342
70"	-10.7344
89"	-10.7345
67"	-10.7346
年成立	-10.7348
游泳	-10.7351
安徽	-10.7351
28"	-10.7352
嚴格	-10.7354
ju	-10.7354
声明	-10.7354
个镇	-10.7355
任教	-10.7358
▁se	-10.7359
放射性	-10.7362
詳	-10.7364
接管	-10.7364
维护	-10.7365
公佈	-10.7367
解放军	-10.7371
曉	-10.7372
藝人	-10.7372
02	-10.7377
婦女	-10.7377
主义者	-10.7377
轉變	-10.7381
平行	-10.7383
生理	-10.7384
繪	-10.7384
弟子	-10.7385
ger	-10.7385
脫離	-10.7386
福建省	-10.7387
44"	-10.7387
78"	-10.7392
接壤	-10.7395
自主	-10.7395
司令部	-10.7401
寇	-10.7402
回答	-10.7404
陳水扁	-10.7409
02"	-10.7409
詹	-10.7409
兴趣	-10.7411
撰寫	-10.7413
24"	-10.7414
宋代	-10.7415
共产主义	-10.7417
高峰	-10.7418
海域	-10.7419
關鍵	-10.7421
估计	-10.7425
挺	-10.7425
40"	-10.7426
69"	-10.7431
珊	-10.7433
僅有	-10.7442
49"	-10.7444
碼頭	-10.7447
har	-10.7448
運行	-10.7452
封建	-10.7452
平定	-10.7454
桃園	-10.7455
区的	-10.7459
gdp	-10.7462
下列	-10.7462
物理学	-10.7463
检查	-10.7464
情報	-10.7466
是中國	-10.7468
偽	-10.747
办公	-10.7475
首任	-10.7476
体现	-10.7476
齿	-10.7477
下半	-10.7479
22"	-10.748
劃分	-10.7484
nba	-10.7486
51"	-10.7487
送到	-10.7489
罕	-10.7489
俱樂部	-10.7492
声称	-10.7492
av	-10.7495
37"	-10.7495
改良	-10.7498
德川	-10.7498
公安	-10.7499
決議	-10.7502
允	-10.7505
司马	-10.7507
建國	-10.7507
袭击	-10.7509
受到了	-10.751
▁di	-10.751
电话	-10.7514
水利	-10.7515
臺南	-10.7516
召集	-10.7516
原料	-10.7517
金山	-10.7518
盛行	-10.7519
辯	-10.7521
绘	-10.7521
校园	-10.7522
喝	-10.7523
更为	-10.7524
气温	-10.7524
區分	-10.7525
ud	-10.7527
礁	-10.753
改名為	-10.7532
的著作	-10.7534
27"	-10.7534
ran	-10.7539
誉	-10.754
出生於	-10.7542
一定的	-10.7543
器官	-10.7544
内战	-10.7545
危險	-10.7545
拥	-10.7546
chem	-10.7547
▁!	-10.7548
粤	-10.7548
新教	-10.7552
衰變	-10.7553
文化的	-10.7559
om	-10.7559
34"	-10.7562
的要求	-10.7565
工艺	-10.7567
郁	-10.7568
达成	-10.7569
85"	-10.7574
决赛	-10.7575
释放	-10.7576
意思是	-10.7579
信長	-10.758
自殺	-10.7582
塗	-10.7583
变量	-10.7585
垂直	-10.7586
的元素	-10.7587
的情况	-10.7588
岁的	-10.7588
45"	-10.759
的兒子	-10.7595
附屬	-10.7602
82"	-10.7605
互联网	-10.7606
叠	-10.7606
03	-10.7609
20"	-10.7611
岩石	-10.7612
蛋白质	-10.7616
优秀	-10.7618
的身份	-10.7619
姜	-10.7621
哈尔滨	-10.7622
医疗	-10.7622
桂林	-10.763
文帝	-10.763
單一	-10.7632
東南亞	-10.7633
崩	-10.7636
里克	-10.764
linux	-10.7644
瑜	-10.7645
63"	-10.7647
14"	-10.7648
曼聯	-10.7652
即可	-10.7654
委会	-10.7654
四川省	-10.7655
島上	-10.7655
明星	-10.7657
資產	-10.7662
的說法	-10.7664
87"	-10.7668
字符	-10.7669
的儿子	-10.767
。2010	-10.767
足以	-10.7672
漏	-10.7674
穆罕默德	-10.7675
來到	-10.7679
俄國	-10.768
貧	-10.7683
惨	-10.7683
車隊	-10.7685
木星	-10.7689
by	-10.7689
宿舍	-10.7693
0.5	-10.7695
良好	-10.7696
文本	-10.7696
包圍	-10.7697
趨	-10.7697
芙	-10.7699
und	-10.7702
命名为	-10.7704
裡的	-10.7704
pro	-10.7706
藻	-10.7706
蹤	-10.7706
态度	-10.7706
▁从	-10.7708
gu	-10.771
han	-10.771
90"	-10.7711
个国家	-10.7711
68"	-10.7712
ive	-10.7714
倭	-10.7714
遮	-10.7714
黄金	-10.7721
庶	-10.7722
而來	-10.7722
land	-10.7724
if	-10.773
校舍	-10.7731
腾	-10.7737
难以	-10.7737
常見的	-10.7738
59"	-10.7739
庚	-10.7745
徑	-10.7746
布尔	-10.7746
潮州	-10.7747
誓	-10.7751
消费	-10.7755
名詞	-10.7756
05"	-10.7756
air	-10.7758
卡斯	-10.7759
尋找	-10.7759
拜占庭	-10.776
參賽	-10.7765
之處	-10.7766
黑暗	-10.7767
流傳	-10.7768
障礙	-10.7768
54"	-10.7769
马克	-10.777
扩张	-10.777
花園	-10.7775
带有	-10.7777
斬	-10.7777
委书记	-10.7778
13"	-10.7779
月份	-10.7782
因應	-10.7783
蒋	-10.7785
天后	-10.7785
樂器	-10.7788
獲得了	-10.7789
斯堡	-10.7789
了大量	-10.7792
18"	-10.7793
移交	-10.7794
資金	-10.7795
95"	-10.7797
$	-10.7799
昏	-10.7799
八月	-10.78
區議會	-10.7801
下面	-10.7804
33"	-10.7806
-5	-10.7806
肩	-10.7807
穩	-10.7817
也可能	-10.7817
最新	-10.7819
肖	-10.782
附属	-10.7822
建立的	-10.7823
發音	-10.7825
屠杀	-10.7832
-10	-10.7833
葡萄	-10.7836
轉移	-10.7837
高達	-10.7837
31"	-10.7839
社群	-10.7842
因此在	-10.7845
卡爾	-10.7845
牽	-10.7846
神學	-10.7846
湖泊	-10.7849
匠	-10.7854
違反	-10.7854
相应	-10.7854
99"	-10.7855
道光	-10.7856
46"	-10.7857
安装	-10.7858
肢	-10.7861
64"	-10.7863
主体	-10.7863
大獎	-10.7867
尼克	-10.7869
棕	-10.787
贞	-10.787
肇	-10.787
路段	-10.7871
ze	-10.7872
威尼斯	-10.7872
布鲁	-10.7873
医生	-10.7875
企	-10.7877
蘋果	-10.7877
牠們	-10.7878
铸	-10.7878
噶	-10.7878
62"	-10.788
0°	-10.788
職位	-10.7884
世纪初	-10.7884
一片	-10.7885
润	-10.7885
盾	-10.7885
41"	-10.7885
仕	-10.7886
奸	-10.7886
美术	-10.7888
15"	-10.789
提交	-10.7892
西亚	-10.7892
梭	-10.7893
大桥	-10.7894
西北部	-10.7894
以其	-10.7895
不如	-10.7897
91"	-10.7898
信號	-10.7899
出自	-10.7903
自杀	-10.7905
憂	-10.7909
施行	-10.791
73"	-10.7915
胞	-10.7917
畏	-10.7918
ice	-10.7919
先前	-10.792
粮	-10.7921
坏	-10.7924
王朝的	-10.7925
洛克	-10.7929
草案	-10.793
這項	-10.7931
砖	-10.7933
▁文化	-10.7934
val	-10.7935
毕	-10.7939
53"	-10.7939
託	-10.794
收費	-10.794
盲	-10.7941
饭	-10.7941
品質	-10.7942
iii	-10.7942
首批	-10.7942
這裡	-10.7945
河南省	-10.7953
57"	-10.7954
否	-10.7956
原有	-10.7956
他曾	-10.7957
圣经	-10.7958
擴展	-10.7959
療	-10.796
猶	-10.7961
可靠	-10.7961
48"	-10.7961
26"	-10.7964
漆	-10.7964
36"	-10.7969
萬元	-10.7971
est	-10.7977
襲擊	-10.7977
禄	-10.798
可以通过	-10.7989
此前	-10.799
大连	-10.799
寓	-10.799
以西	-10.7991
影响力	-10.7992
索尼	-10.7992
崛起	-10.7996
忙	-10.7996
重返	-10.7998
奧運	-10.8003
鬆	-10.8004
兵团	-10.8005
her	-10.8005
讯	-10.8005
羅斯	-10.8006
慈善	-10.8006
情況下	-10.8007
好友	-10.801
▁+	-10.8012
劝	-10.8013
皇室	-10.8014
歐盟	-10.8015
83"	-10.8016
發佈	-10.8017
伟	-10.802
防禦	-10.8021
辦公室	-10.8023
接替	-10.803
10"	-10.8031
hy	-10.8032
中央政府	-10.8033
緯	-10.8036
狹	-10.8036
淑	-10.8036
朔	-10.8037
74"	-10.8038
▁然而	-10.8038
华北	-10.8039
建有	-10.8041
研究中心	-10.8041
43"	-10.8042
飛彈	-10.8042
个百分点	-10.8044
弓	-10.8044
民政	-10.8047
76"	-10.8051
德軍	-10.8054
嶼	-10.8054
典型	-10.8055
高宗	-10.8055
汉字	-10.8059
發售	-10.806
特定的	-10.806
决议	-10.8062
21"	-10.8066
伊斯兰教	-10.8066
黏	-10.8068
猶太	-10.8068
一方	-10.8073
夫斯基	-10.8075
是世界上	-10.8075
六世	-10.8076
煮	-10.8076
鹤	-10.8076
金門	-10.808
漂	-10.8084
极大	-10.8085
流通	-10.8085
改编	-10.8086
称呼	-10.8087
巷	-10.8092
馬克	-10.8093
办公室	-10.8094
微軟	-10.8094
12"	-10.81
19"	-10.81
韶	-10.8101
省级	-10.8102
以為	-10.8102
bs	-10.8114
60"	-10.8114
旱	-10.8115
撥	-10.8116
與其	-10.8117
cy	-10.8119
验	-10.8121
繞	-10.8122
添	-10.8124
捷運	-10.8124
华盛顿	-10.8124
up	-10.8124
展覽	-10.8125
亲自	-10.8126
瑪麗	-10.8127
銜	-10.8129
乃至	-10.813
的基礎	-10.8132
01"	-10.8137
滅亡	-10.8142
七月	-10.8144
挂	-10.8148
参加了	-10.8152
攻占	-10.8152
雷斯	-10.8153
东京	-10.8154
雌	-10.8158
构造	-10.8159
71"	-10.8159
满洲	-10.8161
海峡	-10.8161
拉丁	-10.8162
奮	-10.8165
桐	-10.8165
吏	-10.8169
閱	-10.8169
魂	-10.8171
相關的	-10.8172
发电	-10.8176
积分	-10.8179
近似	-10.818
菊	-10.818
350	-10.8182
西域	-10.8186
請求	-10.8188
擔	-10.8189
山市	-10.819
起了	-10.8196
高雄市	-10.8196
棲	-10.8197
玻	-10.8197
扭	-10.8197
科幻	-10.8206
立法院	-10.8207
超级	-10.8214
昭和	-10.8217
特殊的	-10.8219
des	-10.8221
66"	-10.8222
仅仅	-10.8223
足夠	-10.8224
。1949	-10.8226
拿破仑	-10.8229
的電影	-10.823
席位	-10.8233
dy	-10.8234
矩	-10.8236
同步	-10.8239
太原	-10.8243
英里	-10.8244
院长	-10.8244
-8	-10.8245
▁2001	-10.8245
炼	-10.8246
pri	-10.825
范围内	-10.825
就会	-10.8256
瓦尔	-10.8258
頻率	-10.8259
剧院	-10.826
当局	-10.826
彻底	-10.8263
更改	-10.8268
。2006	-10.8269
须	-10.8269
那麼	-10.827
人生	-10.8273
其后	-10.8275
总人口	-10.8276
妖	-10.8279
61"	-10.8279
懷疑	-10.828
噴	-10.8284
鏈	-10.8286
−	-10.8287
睡	-10.8287
相继	-10.8287
晨	-10.829
tro	-10.8291
鲍	-10.8295
築	-10.8295
寨	-10.8296
1910	-10.83
叉	-10.83
日常	-10.8302
千人	-10.8303
爬	-10.8303
客运	-10.8305
仍在	-10.8311
()。	-10.8311
犹太	-10.8316
美術	-10.8318
時段	-10.8318
再加上	-10.8318
──	-10.8319
作品中	-10.8325
的代表	-10.833
米尔	-10.833
英超	-10.8333
每次	-10.8335
但是在	-10.8337
降水量	-10.8339
ster	-10.834
妇女	-10.834
是因为	-10.834
它们的	-10.8344
86"	-10.8345
的最大	-10.8347
最具	-10.8349
操作系统	-10.835
確保	-10.8352
立陶宛	-10.8352
欺	-10.8353
循環	-10.8353
sch	-10.8354
遵守	-10.8355
曾有	-10.8356
全新	-10.8359
煉	-10.836
战国	-10.8362
透露	-10.8363
郑州	-10.8368
成功的	-10.8368
大气	-10.837
占据	-10.8374
贫	-10.8376
痕	-10.8377
航線	-10.8378
。2009	-10.8379
。2007	-10.8379
nu	-10.838
否定	-10.8382
披	-10.8385
書寫	-10.8386
布里	-10.8387
台北市	-10.8388
地带	-10.839
政治家	-10.8391
懂	-10.8393
亥	-10.8393
赠	-10.8393
荡	-10.8394
享年	-10.8397
報紙	-10.8398
形狀	-10.8404
学堂	-10.8406
很大的	-10.8409
吻	-10.841
亚历山大	-10.841
琪	-10.841
荆	-10.8411
法语	-10.8412
独立的	-10.8412
▁{	-10.8412
史料	-10.8413
複	-10.8414
弗里	-10.8415
km	-10.8417
上了	-10.8418
#	-10.8418
抢	-10.8419
5,000	-10.8421
里亚	-10.8422
巴尔	-10.8422
就任	-10.8426
鳴	-10.8427
協定	-10.8427
打击	-10.843
二月	-10.843
彼	-10.8433
!」	-10.8435
新城	-10.8436
新生	-10.844
咒	-10.8443
不需要	-10.8444
雕塑	-10.8445
明清	-10.8448
ies	-10.8454
前後	-10.8457
學科	-10.8461
月起	-10.8467
治理	-10.8467
深刻	-10.8468
・	-10.8468
dvd	-10.8472
主权	-10.8474
脂肪	-10.8477
荊	-10.8477
曾被	-10.848
進行了	-10.8483
国际机场	-10.8484
洪水	-10.8485
第二次世界大战	-10.8485
西南部	-10.8487
16"	-10.8488
做了	-10.8489
三角形	-10.849
逝	-10.8493
裁判	-10.8496
现存	-10.8497
多少	-10.8498
措	-10.85
興起	-10.85
大大	-10.8501
崗	-10.8502
威尔	-10.8507
北魏	-10.8507
侵犯	-10.8508
一面	-10.851
帆	-10.851
丑	-10.851
▁/*	-10.8511
伊斯蘭	-10.8512
二十四	-10.8513
运用	-10.8514
的行為	-10.8516
邊界	-10.8517
赣	-10.8519
的結果	-10.8519
事实上	-10.8519
80"	-10.8526
布朗	-10.8526
高潮	-10.8527
任天堂	-10.8527
汕	-10.8528
。2008	-10.8534
粵	-10.8538
96"	-10.8541
的消息	-10.8543
行业	-10.8544
▁10	-10.8545
颁布	-10.8546
草原	-10.8546
iso	-10.8548
23"	-10.8549
花蓮	-10.855
回忆	-10.8553
主辦	-10.8553
的定義	-10.8553
一顆	-10.8556
中立	-10.8557
的能量	-10.8557
神秘	-10.8559
沙田	-10.8561
殺害	-10.8561
最有	-10.8562
较高	-10.8564
失去了	-10.8568
腸	-10.8569
敵人	-10.857
_8	-10.8573
▁16	-10.8574
當代	-10.8576
港澳	-10.8576
杭	-10.8577
相近	-10.8578
矩阵	-10.8578
械	-10.8578
马来	-10.858
首個	-10.8581
log	-10.8584
显著	-10.8585
握	-10.8585
助理	-10.8586
贈	-10.8586
周邊	-10.8586
。2004	-10.8586
其子	-10.8588
大戰	-10.8588
十一年	-10.8588
位元	-10.8591
递	-10.8592
11"	-10.8593
生活在	-10.8593
出發	-10.8596
的設計	-10.8597
工商	-10.8597
抑制	-10.86
les	-10.8601
李登輝	-10.8603
马尔	-10.8603
其他的	-10.8603
抑	-10.8605
儲存	-10.8606
节点	-10.8606
輯	-10.8609
攝	-10.8609
奴隶	-10.8611
授权	-10.8612
申请	-10.8613
骑	-10.8614
act	-10.8625
绕	-10.8625
後世	-10.8627
較低	-10.8628
杉	-10.8628
中環	-10.8633
违	-10.8633
公社	-10.8634
他被	-10.8634
敢	-10.8636
匪	-10.8637
全境	-10.8639
绍	-10.8643
给予	-10.8643
哺乳	-10.8645
正确	-10.8646
泰勒	-10.8646
差距	-10.8646
抽象	-10.8647
出現了	-10.8651
ess	-10.8653
同名	-10.8654
俱	-10.8654
綠色	-10.8656
吉尔	-10.8659
猜	-10.866
邏輯	-10.8662
汁	-10.8662
具體	-10.8662
辐射	-10.8662
坂	-10.8662
。2012	-10.8663
冕	-10.8664
予以	-10.8664
飲食	-10.8665
暫	-10.8669
栖	-10.867
醫生	-10.8672
无论	-10.8673
涼	-10.8679
泉州	-10.8682
等级	-10.8683
指導	-10.8684
168	-10.8685
罩	-10.8687
福克	-10.8692
各省	-10.8695
肌	-10.8695
依据	-10.8695
一直到	-10.8696
寡	-10.8696
pp	-10.8697
17"	-10.8698
真实	-10.87
丧	-10.87
不明	-10.8701
四月	-10.8704
效力	-10.8706
模仿	-10.8706
城墙	-10.8709
西汉	-10.8709
筒	-10.8713
餐廳	-10.8716
斯卡	-10.8717
原型	-10.8717
fo	-10.8721
领地	-10.8721
東區	-10.8722
格拉	-10.8723
市长	-10.8724
樂隊	-10.8724
吉他	-10.873
意志	-10.8731
!”	-10.8734
其次	-10.8734
和他的	-10.8735
传输	-10.8737
性行為	-10.8738
有一定	-10.8738
透明	-10.8738
吊	-10.8739
造型	-10.8739
滿足	-10.874
第二大	-10.8741
的目的	-10.8742
5000	-10.8744
线性	-10.8746
尝试	-10.8747
魁	-10.8747
組成的	-10.8748
绥	-10.8749
屠	-10.8753
但由于	-10.8755
暫時	-10.8761
製成	-10.8766
框架	-10.8768
频率	-10.8768
▁经济	-10.8773
▁ex	-10.8773
攀	-10.8773
捷克	-10.8774
真理	-10.8775
企圖	-10.8775
1905	-10.8778
▁截至	-10.878
都督	-10.8781
是個	-10.8785
语法	-10.8787
意味着	-10.879
腓特烈	-10.879
生育	-10.879
日下午	-10.879
肆	-10.8791
的话	-10.8793
訊息	-10.8795
關閉	-10.8797
审判	-10.88
馬來	-10.8804
出來的	-10.8805
戰場	-10.8805
发动机	-10.8808
循环	-10.8808
公投	-10.881
功率	-10.8812
被判	-10.8814
華盛頓	-10.8816
枢纽	-10.8817
gr	-10.8823
所屬	-10.8823
的文章	-10.8824
中世纪	-10.8825
願意	-10.8826
罚	-10.8833
宰	-10.8837
ace	-10.8837
诞生	-10.8838
财产	-10.8838
七十	-10.8841
告訴	-10.8841
零售	-10.8844
可能会	-10.8845
ica	-10.8845
声音	-10.885
债	-10.885
勁	-10.8851
不利	-10.8852
伊斯兰	-10.8852
擅	-10.8853
立刻	-10.8855
ls	-10.8856
顯著	-10.8857
臉	-10.8859
眉	-10.886
0.1	-10.886
實力	-10.886
書中	-10.8865
行走	-10.8866
渊	-10.8868
合唱	-10.887
幹線	-10.8871
起義	-10.8874
弧	-10.8876
防守	-10.888
str	-10.888
传统的	-10.888
ven	-10.8882
纽	-10.8882
附加	-10.8883
1,000	-10.8886
峡	-10.8888
張專輯	-10.8888
服务器	-10.8892
全體	-10.8894
拘	-10.8902
發現了	-10.8903
输	-10.8903
也能	-10.8903
国旗	-10.8904
西洋	-10.8908
称号	-10.891
▁*/	-10.8912
浪漫	-10.8913
認定	-10.8914
武士	-10.8915
觀念	-10.8915
資助	-10.8917
乌斯	-10.8917
旨在	-10.8918
县城	-10.8918
改进	-10.8924
队伍	-10.8926
安妮	-10.8926
吉斯	-10.8927
刑事	-10.8928
出版了	-10.8928
绝对	-10.8928
蔣經國	-10.8929
樂壇	-10.8932
淳	-10.8938
分散	-10.8939
生殖	-10.894
ae	-10.8944
漠	-10.8944
bl	-10.8946
虞	-10.8946
河流域	-10.8949
山县	-10.895
诸侯	-10.895
擺	-10.8954
胃	-10.8955
sy	-10.8956
前后	-10.8957
一本	-10.8958
思考	-10.8962
都要	-10.8968
暂	-10.8968
信奉	-10.8971
聯軍	-10.8972
▁1990	-10.8972
巴斯	-10.8974
推广	-10.8975
会议上	-10.8975
公立	-10.8976
装备	-10.8976
》《	-10.8976
軍官	-10.8977
分歧	-10.8977
发表了	-10.8978
口岸	-10.8979
漸漸	-10.898
形态	-10.8984
織田	-10.8984
倾向	-10.8987
研發	-10.8988
主義者	-10.899
垣	-10.8991
抗议	-10.8997
的形象	-10.8998
源於	-10.8999
杰克逊	-10.8999
铭	-10.8999
名单	-10.9002
河北省	-10.9004
1916	-10.9004
穀	-10.9008
东汉	-10.9011
控股	-10.9013
湿	-10.9015
常被	-10.9016
戰鬥機	-10.9017
晶体	-10.9018
渤海	-10.9019
山东省	-10.9022
书中	-10.9022
做為	-10.9024
石器	-10.9025
歡迎	-10.9027
將領	-10.9028
」()	-10.903
便利	-10.903
这部	-10.9037
青少年	-10.9038
水库	-10.9041
名人	-10.9042
抗日战争	-10.9042
較少	-10.9044
入境	-10.9044
推进	-10.9045
军官	-10.9046
平均气温	-10.9047
甸	-10.9051
或其他	-10.9052
维也纳	-10.9052
註冊	-10.9052
顾问	-10.9053
專家	-10.9055
响	-10.9058
刊登	-10.9061
洛阳	-10.9064
檢查	-10.9064
03"	-10.9065
受歡迎	-10.9066
金牌	-10.9068
济南	-10.9069
公平	-10.9069
苏格兰	-10.9069
pla	-10.907
大城市	-10.9071
流传	-10.9074
的结果	-10.9078
維護	-10.908
地点	-10.9081
大选	-10.9081
热带	-10.9082
步槍	-10.9083
伊斯蘭教	-10.9084
酮	-10.9087
写道	-10.909
周圍	-10.9092
之战	-10.9092
保罗	-10.9093
任職	-10.9094
年代末	-10.9094
财	-10.9094
ev	-10.9095
錄音	-10.9095
cm	-10.9096
公理	-10.9097
上方	-10.9097
這類	-10.91
殺死	-10.9103
职位	-10.9103
当中	-10.9104
重视	-10.9104
主要由	-10.9104
对称	-10.9107
總裁	-10.911
女人	-10.9111
166	-10.9113
佑	-10.9114
預測	-10.9115
監督	-10.9115
地势	-10.9121
初步	-10.9125
嘉義	-10.9125
半衰期	-10.9131
生产总值	-10.9132
分别为	-10.9134
省份	-10.9137
賽車	-10.9138
晴	-10.914
薇	-10.9141
位居	-10.9143
詩人	-10.9144
職棒	-10.9147
触	-10.9148
绵	-10.915
自治区	-10.915
公告	-10.9151
▁1980	-10.9152
ial	-10.9152
的想法	-10.9155
書記	-10.9156
ide	-10.9158
世代	-10.916
寻	-10.916
推出了	-10.9162
活性	-10.9163
的人物	-10.9164
擾	-10.9166
隶属	-10.9167
改名为	-10.9167
身亡	-10.9169
上任	-10.9171
引起了	-10.9173
進步	-10.9174
情感	-10.9177
碩士	-10.9178
▁1999	-10.9185
兩位	-10.9185
悬	-10.9185
不存在	-10.9186
实践	-10.9186
寅	-10.9186
天文台	-10.919
高山	-10.9191
一群	-10.9192
亩	-10.9192
ner	-10.9192
约为	-10.9197
發揮	-10.9197
總督府	-10.92
长安	-10.9208
柴油	-10.9209
例外	-10.921
gb	-10.9212
宜蘭	-10.9213
排除	-10.9213
模拟	-10.9213
消耗	-10.9213
決策	-10.9214
航海	-10.9219
洁	-10.9221
美军	-10.9224
进步	-10.9228
心理学	-10.9228
沃尔	-10.9229
驱逐	-10.923
事實	-10.923
101	-10.923
極大	-10.9236
▁1998	-10.9237
南昌	-10.9237
min	-10.9238
亦可	-10.9239
爐	-10.9239
战争中	-10.9239
诗歌	-10.9245
所得	-10.9245
麥克	-10.9246
人群	-10.9248
鸭	-10.9248
辜	-10.9248
新北市	-10.9252
氯化	-10.9253
領地	-10.9253
數目	-10.9257
實驗室	-10.9257
夾	-10.9257
维奇	-10.9258
最初的	-10.9258
效应	-10.9259
而来	-10.9261
三種	-10.9262
順利	-10.9263
绿色	-10.9265
九月	-10.9268
相互作用	-10.9269
辭職	-10.9273
因子	-10.9273
β	-10.9275
勉	-10.9276
更有	-10.9276
大衛	-10.9278
顏	-10.9281
在於	-10.9283
滴	-10.9284
黛	-10.9284
翅	-10.9285
▁2023	-10.9285
巴拉	-10.9287
委會	-10.9287
財產	-10.9288
娱乐	-10.9293
过渡	-10.9295
▁is	-10.9295
慶祝	-10.9296
引進	-10.93
施工	-10.93
散文	-10.9301
中央军委	-10.9301
均为	-10.9302
眼睛	-10.9302
煌	-10.9303
殖	-10.9311
芽	-10.9311
恋	-10.9312
清政府	-10.9312
開幕	-10.9315
埃尔	-10.9315
意思	-10.932
集体	-10.932
gen	-10.9322
為基礎	-10.9324
贵州	-10.9327
臺灣省	-10.9328
孕	-10.9329
不敢	-10.9331
生前	-10.9332
搜索	-10.9332
天地	-10.9333
發達	-10.9334
的名稱	-10.9338
姐	-10.9342
尺寸	-10.9348
俗稱	-10.9348
電力	-10.9348
。2011	-10.9348
▁ha	-10.9352
野生	-10.9358
首度	-10.9359
为止	-10.936
劇場	-10.9364
受傷	-10.9365
视为	-10.9365
阜	-10.9366
大選	-10.9366
挖	-10.9366
婉	-10.9366
二战	-10.9369
vis	-10.9369
1915	-10.9369
平安	-10.937
与其他	-10.937
病人	-10.9371
期望	-10.9371
構造	-10.9372
騎士	-10.9372
区分	-10.9374
通讯	-10.9374
轰炸	-10.9375
北京大学	-10.9383
▁so	-10.9384
募	-10.9384
溝通	-10.9384
詳細	-10.9385
陆续	-10.9387
左翼	-10.939
代表性	-10.939
机制	-10.9392
趋	-10.9393
栏	-10.9394
牢	-10.9394
常见	-10.9395
聚居	-10.9396
仅有	-10.9397
ron	-10.9398
遞	-10.94
巴勒斯坦	-10.9402
的力量	-10.9404
林彪	-10.9406
分别是	-10.9408
五大	-10.941
的需求	-10.9411
对抗	-10.9417
庵	-10.9421
數十	-10.9422
叛亂	-10.9425
年龄	-10.9426
安娜	-10.9428
九州	-10.9429
励	-10.943
帳	-10.943
埠	-10.943
万元	-10.9432
山東	-10.9432
虹	-10.9433
主動	-10.9438
該國	-10.9442
其中有	-10.9445
向西	-10.9446
鹰	-10.9449
誘	-10.9449
编程	-10.9451
练	-10.9452
ance	-10.9455
鸣	-10.9458
齋	-10.9458
矣	-10.9459
监督	-10.9459
預算	-10.9462
賭	-10.9467
岛屿	-10.9467
确认	-10.9469
给了	-10.9472
可见	-10.9473
氛	-10.9476
琼	-10.9478
險	-10.948
連任	-10.9484
弊	-10.9486
札	-10.9486
协助	-10.9488
內戰	-10.9491
六月	-10.9492
延安	-10.9494
歌剧	-10.9494
扁	-10.9494
蓬	-10.9495
遗传	-10.9496
某一	-10.9498
裝備	-10.9501
2.0	-10.9501
拉姆	-10.9503
烏克蘭	-10.9504
行政區劃	-10.9504
是為了	-10.9504
流感	-10.9508
配置	-10.951
造成了	-10.951
武昌	-10.951
苏丹	-10.9513
苹果	-10.9513
相當於	-10.9517
尚书	-10.9519
立法委員	-10.952
自稱	-10.9523
而得名	-10.9524
烷	-10.9529
1908	-10.9532
最好的	-10.9532
为此	-10.9533
化工	-10.9534
词汇	-10.9537
年平均	-10.9539
布魯	-10.9541
懿	-10.9542
競選	-10.9543
瓷	-10.9549
多項	-10.955
克莱	-10.955
1.0	-10.9554
斯拉夫	-10.9555
终于	-10.9556
陕西	-10.9557
猪	-10.956
各类	-10.956
庐	-10.956
吉爾	-10.9561
注重	-10.9563
拟	-10.9568
qua	-10.9568
转变	-10.957
合金	-10.9571
硫酸	-10.9571
紛紛	-10.9579
並與	-10.9582
大楼	-10.9582
隸	-10.9584
全长	-10.9586
抗战	-10.959
的行为	-10.9591
閱讀	-10.9591
漫画	-10.9593
輸出	-10.9593
群体	-10.9595
極為	-10.9596
喉	-10.9597
。2014	-10.9597
歼	-10.9597
鈾	-10.9598
防御	-10.9598
龐大	-10.9598
指數	-10.9602
白人	-10.9603
繪畫	-10.9607
依赖	-10.9608
女孩	-10.9613
特點	-10.9613
十四年	-10.9613
东风	-10.9613
復興	-10.9614
作曲	-10.9614
dis	-10.9615
两年	-10.9616
大同	-10.9618
鎮壓	-10.962
称之为	-10.962
讀者	-10.9621
研究者	-10.9621
++	-10.9621
清末	-10.9623
存储	-10.9623
妇	-10.9626
长达	-10.9626
孫中山	-10.9629
夕	-10.963
(14	-10.9633
粘	-10.9634
相关的	-10.9635
西夏	-10.9635
给出	-10.9641
活躍	-10.9641
参数	-10.9641
日語	-10.9646
大街	-10.9651
毗	-10.9653
膽	-10.9653
建国	-10.9662
主导	-10.9662
暑	-10.9663
改稱	-10.9665
相繼	-10.9667
烤	-10.9672
习惯	-10.9672
牛津	-10.9677
富有	-10.9682
岁时	-10.9685
納入	-10.9685
傳統的	-10.9686
地貌	-10.9688
他認為	-10.969
哭	-10.9691
介入	-10.9692
20%	-10.9693
仍是	-10.9696
win	-10.9697
校區	-10.9697
改用	-10.9698
哥伦比亚	-10.97
輩	-10.97
颱風	-10.97
身為	-10.9707
各大	-10.9712
洪武	-10.9712
連結	-10.9714
軍團	-10.9714
坐标	-10.9715
速率	-10.9716
銅鑼灣	-10.9719
麦克	-10.972
bar	-10.9721
格林	-10.9726
望遠鏡	-10.9728
航站楼	-10.9728
04"	-10.9729
之初	-10.9737
鸿	-10.9738
ight	-10.9738
完美	-10.975
形状	-10.9753
回国	-10.9753
面臨	-10.9754
知名的	-10.9755
有许多	-10.9758
徹底	-10.9758
关闭	-10.976
欢	-10.9766
10%	-10.9768
學位	-10.977
普鲁士	-10.9775
收回	-10.9778
不一定	-10.9785
僅次於	-10.9785
不知道	-10.9788
德语	-10.9792
丹麥	-10.9795
蕾	-10.9795
末年	-10.9796
生长	-10.9804
使者	-10.9805
多样	-10.9808
伯格	-10.9812
湖北省	-10.9814
併入	-10.9816
早已	-10.9821
水系	-10.9822
五個	-10.9822
拨	-10.9824
期刊	-10.9827
亲王	-10.9833
奋	-10.9833
妹妹	-10.9833
审查	-10.9837
寵	-10.9843
很好	-10.9843
苻	-10.9844
緊急	-10.9844
长春	-10.9846
颜	-10.985
消除	-10.9852
遙	-10.9852
最少	-10.9853
入口	-10.9855
”()	-10.9859
1.2	-10.986
酬	-10.9861
深度	-10.9863
誕生	-10.9863
政变	-10.9864
分割	-10.9866
五个	-10.9867
生效	-10.9868
修訂	-10.987
伊丽莎白	-10.9871
戎	-10.9872
充滿	-10.9875
登基	-10.9878
十五年	-10.9879
赤道	-10.988
悔	-10.9881
假设	-10.9882
java	-10.9883
原有的	-10.9883
其父	-10.9884
_9	-10.9892
1909	-10.9894
ins	-10.9895
起草	-10.9898
恒星	-10.9899
穴	-10.9899
爱德华	-10.99
接受了	-10.9903
ore	-10.9905
前期	-10.9905
昆明	-10.9907
扰	-10.9909
一直是	-10.991
譚	-10.991
联军	-10.9913
夸克	-10.9915
球迷	-10.9917
荃灣	-10.9919
縮寫	-10.9922
浓	-10.9924
各有	-10.9926
发生了	-10.9927
新增	-10.9928
晓	-10.9929
遊客	-10.993
在同一	-10.993
癌症	-10.993
大众	-10.993
大橋	-10.993
各界	-10.9932
龄	-10.9934
必然	-10.9934
1904	-10.9934
国道	-10.9936
氟	-10.9936
騰	-10.9938
是中华人民共和国	-10.9939
甘肃	-10.994
徐州	-10.9941
延續	-10.9942
演講	-10.9943
▁1997	-10.9943
夏天	-10.9947
印第安	-10.9948
北角	-10.9948
脱离	-10.9949
事实	-10.995
会员	-10.9951
局部	-10.9952
1907	-10.9954
cor	-10.9955
光譜	-10.9959
故此	-10.9961
万美元	-10.9963
區別	-10.9965
1895	-10.9966
兔	-10.9968
out	-10.9971
闻名	-10.9973
世纪末	-10.9974
相当于	-10.9975
年左右	-10.9976
疫	-10.9976
撞擊	-10.9979
航行	-10.998
悉尼	-10.9983
等待	-10.9985
議席	-10.9985
緬甸	-10.9987
杀死	-10.9989
擔心	-10.9989
雍	-10.9991
列宁	-10.9992
方形	-10.9994
覺得	-10.9996
塵	-10.9996
舜	-10.9996
堵	-10.9997
那样	-10.9998
转换	-11.0002
不論	-11.0002
也沒有	-11.0003
本來	-11.0004
時報	-11.0005
王后	-11.0006
俘	-11.0006
钠	-11.0006
姊妹	-11.0007
契丹	-11.0011
秀吉	-11.0013
維多利亞	-11.0016
钢琴	-11.0017
確立	-11.0018
两岸	-11.0021
了許多	-11.0023
的父親	-11.0024
资格	-11.0024
托马斯	-11.0026
運算	-11.0027
尋求	-11.0028
肃	-11.0035
概率	-11.0037
會長	-11.0038
_10	-11.0045
淀	-11.0045
雁	-11.0045
聚合	-11.0046
直播	-11.0046
对其	-11.0051
fc	-11.0055
偶像	-11.0057
▁//	-11.0058
更大的	-11.0065
瀑布	-11.0065
休息	-11.0068
並由	-11.0069
良好的	-11.007
臺中	-11.0072
带领	-11.0074
单独	-11.0074
鶴	-11.0075
定为	-11.0076
以致	-11.0076
该市	-11.0077
这时	-11.0077
曲线	-11.0079
化物	-11.008
下方	-11.0084
图形	-11.0085
電磁	-11.0087
1906	-11.0088
名叫	-11.0092
称作	-11.0094
週年	-11.0098
拿下	-11.0099
主人	-11.0099
基本法	-11.01
種植	-11.0101
擠	-11.0104
螺旋	-11.0106
巨人	-11.0107
至今仍	-11.0109
eu	-11.011
军团	-11.011
本部	-11.0115
常用的	-11.0116
流派	-11.0116
河口	-11.0118
数学家	-11.0119
並不是	-11.0119
览	-11.0123
竭	-11.0124
john	-11.0124
股份有限公司	-11.0124
适应	-11.0125
參謀	-11.0125
群體	-11.0126
發言	-11.0127
导弹	-11.0128
於同年	-11.0134
饶	-11.0134
較多	-11.0134
回憶	-11.0136
1898	-11.0136
安徽省	-11.0141
游客	-11.0141
率先	-11.0142
滕	-11.0143
椅	-11.0143
邸	-11.0144
盒	-11.0144
早上	-11.0145
提前	-11.0146
一職	-11.0147
香港島	-11.0147
犹	-11.0149
派系	-11.015
出发	-11.0151
敏感	-11.0151
衷	-11.0154
坤	-11.0154
原子核	-11.0156
重點	-11.0156
三百	-11.0164
pre	-11.0167
面对	-11.0168
回族	-11.0169
向南	-11.0171
聰	-11.0173
衰落	-11.0179
大賽	-11.0181
懸	-11.0183
誰	-11.0183
0.2	-11.0189
穷	-11.019
監察	-11.0191
值得	-11.0192
之父	-11.0198
芬兰	-11.0198
。1945	-11.02
共享	-11.0203
华东	-11.0205
已於	-11.0206
色情	-11.0208
的说法	-11.0211
攻入	-11.0212
鋪	-11.0212
蔣介石	-11.0214
血管	-11.0216
50%	-11.022
鞋	-11.0223
天使	-11.0225
乘坐	-11.0227
的機會	-11.0228
這場	-11.0231
等級	-11.0232
看作	-11.0233
实力	-11.0235
沛	-11.0243
适合	-11.0244
pr	-11.0246
他又	-11.0247
繼位	-11.025
747	-11.025
渝	-11.0253
丛	-11.0263
场所	-11.0263
暴露	-11.0267
提議	-11.027
地图	-11.0271
演變	-11.0271
出道	-11.0273
案例	-11.0273
這兩	-11.0274
整数	-11.0279
三种	-11.0281
泄	-11.0282
爽	-11.0282
裸	-11.0283
穿越	-11.0283
统治者	-11.0285
斯特拉	-11.0288
辩	-11.029
唇	-11.0292
踪	-11.0292
法兰西	-11.0293
矢	-11.0293
tal	-11.0294
傾	-11.0295
糧	-11.0299
丈	-11.03
資本主義	-11.03
副主任	-11.0301
鮑	-11.0302
迄今	-11.0303
浅	-11.0303
相连	-11.0303
一點	-11.0305
语系	-11.0306
格勒	-11.0307
产物	-11.0308
隊伍	-11.0308
老師	-11.0311
幾何	-11.0312
的观点	-11.0316
過世	-11.0318
費用	-11.032
祀	-11.0321
铝	-11.0322
修斯	-11.0325
滅絕	-11.0325
推理	-11.0326
渔	-11.0331
訊號	-11.0333
愚	-11.0333
鬥爭	-11.0338
基金会	-11.0339
倡	-11.0339
有很大	-11.034
棚	-11.0342
world	-11.0343
塑	-11.0343
辱	-11.0343
秦始皇	-11.0344
都能	-11.0344
延長	-11.0353
槽	-11.0353
窮	-11.0353
皖	-11.0353
2,000	-11.0354
微软	-11.0355
幻想	-11.0357
织	-11.0361
蔣中正	-11.0363
審判	-11.0364
game	-11.0365
秉	-11.0373
屠殺	-11.0375
手術	-11.0377
英尺	-11.0378
360	-11.0382
園區	-11.0382
不良	-11.0385
林肯	-11.0385
感覺	-11.0386
「-{	-11.039
个乡	-11.0391
賊	-11.0393
蹟	-11.0398
酒精	-11.0399
西湖	-11.04
公署	-11.0404
极端	-11.0409
隔年	-11.041
總司令	-11.0411
南洋	-11.0411
招生	-11.0413
瘤	-11.0413
装置	-11.0413
灘	-11.0413
提议	-11.0414
八十	-11.0415
电力	-11.0421
贸	-11.0422
日本政府	-11.0427
辞职	-11.0429
生物学	-11.0431
团队	-11.0431
工程师	-11.0432
杏	-11.0434
缅甸	-11.0434
供应	-11.0438
藍色	-11.044
國防	-11.0441
得主	-11.0441
在这里	-11.0442
蒸汽	-11.0444
產量	-11.0447
兴建	-11.0451
情报	-11.0452
del	-11.0453
巴基斯坦	-11.0454
評估	-11.0454
尼古拉	-11.0454
直属	-11.0455
工学院	-11.0459
十二月	-11.0462
葡	-11.0464
屢	-11.0464
元件	-11.0464
惜	-11.0466
工作室	-11.0467
試驗	-11.047
治安	-11.0473
傷害	-11.0474
臭	-11.0474
亚当斯	-11.0474
路德	-11.0479
等同	-11.0483
渐	-11.0483
第一批	-11.0485
細菌	-11.0486
菲利普	-11.0494
題材	-11.0497
連載	-11.0497
太郎	-11.0499
十一月	-11.0499
水果	-11.0505
应当	-11.0506
才是	-11.0508
变换	-11.0509
南北朝	-11.051
入选	-11.0511
光明	-11.0511
ny	-11.0513
欧盟	-11.0513
禧	-11.0515
地圖	-11.0515
发挥	-11.0516
足够	-11.0516
同时也	-11.0517
認可	-11.0517
這時	-11.0518
是唯一	-11.0518
福特	-11.0519
共和党	-11.0519
大卫	-11.052
吉林	-11.052
▁1945	-11.0525
炭	-11.0525
候选人	-11.0525
惑	-11.0525
竣工	-11.0525
締	-11.0525
解析	-11.0526
-14	-11.0532
天空	-11.0533
轉向	-11.0534
总体	-11.0534
秘書	-11.0534
僱	-11.0535
‧	-11.0535
狐	-11.0536
硅	-11.0536
謙	-11.0536
羌	-11.0536
更名為	-11.0537
宦官	-11.0539
凸	-11.0546
天子	-11.0549
3.5	-11.0554
模擬	-11.0557
web	-11.0557
編碼	-11.0559
登記	-11.056
艺术家	-11.0562
历史学家	-11.0563
年代中期	-11.0563
情緒	-11.0567
迁至	-11.0569
依賴	-11.057
被视为	-11.057
描寫	-11.0571
ite	-11.0571
▁if	-11.0572
面前	-11.0573
南朝	-11.0574
現有	-11.0574
溫泉	-11.0575
输出	-11.0578
審查	-11.0578
两者	-11.0579
一首	-11.058
ther	-11.058
lar	-11.058
名词	-11.0583
有意	-11.0584
的可能性	-11.0585
磷	-11.0586
先进	-11.0587
消滅	-11.0588
风险	-11.0588
在某些	-11.0589
安县	-11.0592
姊	-11.0597
繁荣	-11.0599
磁場	-11.0599
米蘭	-11.0603
律师	-11.0603
維爾	-11.0604
-15	-11.0605
現任	-11.0606
河谷	-11.0608
仗	-11.0608
分區	-11.0611
赛事	-11.0611
兩名	-11.0612
金陵	-11.0614
酵	-11.0615
設於	-11.0616
特区	-11.0616
呢	-11.0619
驅逐	-11.0619
1860	-11.0619
ock	-11.0621
辦法	-11.0621
逃亡	-11.0622
創建	-11.0623
内地	-11.0628
our	-11.0629
启动	-11.0631
直徑	-11.0638
危险	-11.0639
并不是	-11.064
往來	-11.064
峽	-11.0641
▁1996	-11.0643
具備	-11.0646
夏威夷	-11.0649
市人民政府	-11.0649
海水	-11.0651
救援	-11.0654
}-」	-11.0657
导致了	-11.0658
使徒	-11.0668
可分為	-11.0669
德尔	-11.0671
灭亡	-11.0672
也没有	-11.0673
媽	-11.0678
的看法	-11.0679
鸦	-11.068
寫成	-11.0681
電荷	-11.0683
事宜	-11.0683
一級	-11.0685
ku	-11.0686
袍	-11.0691
分泌	-11.0694
ibm	-11.0695
不幸	-11.0697
扩	-11.0697
政治人物	-11.0698
防空	-11.0701
線上	-11.0706
從未	-11.0713
當天	-11.0714
羽毛	-11.0717
遺傳	-11.0719
水域	-11.0721
帖	-11.0721
銳	-11.0722
理查	-11.0722
世紀初	-11.0723
精靈	-11.0724
進而	-11.0724
fr	-11.0725
tur	-11.0726
大師	-11.0736
免费	-11.0737
电路	-11.0737
跟隨	-11.0737
同學	-11.0738
北海道	-11.0742
短暫	-11.0742
肌肉	-11.0744
珍珠	-11.0745
敌人	-11.0747
生長	-11.0747
仍然是	-11.0748
重力	-11.075
西元	-11.0751
氨酸	-11.0754
识别	-11.0754
不用	-11.0756
景观	-11.0759
can	-11.076
流放	-11.076
摄影	-11.0762
蓉	-11.0764
軟件	-11.0766
布局	-11.0767
人死亡	-11.0767
短篇	-11.0767
深受	-11.077
-16	-11.0772
动作	-11.0774
捲	-11.0774
承担	-11.0775
法西斯	-11.0775
的基础上	-11.0778
地表	-11.0778
诞	-11.0778
罗伯特	-11.0782
搖滾	-11.0784
低於	-11.0791
▁下辖	-11.0792
lan	-11.0793
rom	-11.0795
在那里	-11.0797
1901	-11.0799
所需的	-11.0801
稱號	-11.0802
吧	-11.0804
演讲	-11.0806
專利	-11.0815
位列	-11.0815
je	-11.0817
细菌	-11.0818
注册	-11.0818
客機	-11.0823
向北	-11.0825
▁he	-11.0826
匿	-11.0827
城邦	-11.0832
ary	-11.0832
游行	-11.0835
戊	-11.0837
system	-11.0837
禍	-11.0837
歌劇	-11.0838
运动会	-11.0839
ium	-11.084
消費	-11.0842
密集	-11.0842
諸侯	-11.0843
增設	-11.0843
当代	-11.0844
克萊	-11.0845
鐵道	-11.0847
弗雷	-11.0847
酯	-11.0848
滇	-11.0848
資本	-11.0851
注入	-11.0852
演藝	-11.0854
董事長	-11.0854
罢	-11.0855
射線	-11.0857
慮	-11.0857
青海	-11.0857
地球上	-11.0858
该国	-11.0858
▁1950	-11.0858
蘿	-11.0858
0.3	-11.086
罗斯	-11.086
耶律	-11.0866
判斷	-11.0868
其实	-11.0869
溥	-11.0869
摘	-11.0869
公顷	-11.087
扩建	-11.0872
促成	-11.0875
聞名	-11.0876
汽	-11.0876
gl	-11.0877
繳	-11.088
古希腊	-11.088
清水	-11.0884
市内	-11.0889
百万	-11.089
氧化物	-11.089
覆蓋	-11.0892
地帶	-11.0895
重慶	-11.0895
只好	-11.0896
这场	-11.0899
利物浦	-11.0901
愛德華	-11.0901
sha	-11.0902
雅各	-11.0902
告诉	-11.0903
水準	-11.0907
台南	-11.0908
宰相	-11.0908
扬州	-11.0911
桿	-11.0911
電池	-11.0914
面临	-11.092
澳大利亞	-11.0922
濫	-11.0922
渭	-11.0923
近年來	-11.0925
遵循	-11.0933
股票	-11.0933
ear	-11.0934
精英	-11.0934
lin	-11.0938
迅	-11.094
代表作	-11.0943
二百	-11.0943
hen	-11.0943
开设	-11.0948
一共	-11.0951
装饰	-11.0955
型態	-11.0959
file	-11.0961
永遠	-11.0963
old	-11.0964
事後	-11.0965
所知	-11.0965
饼	-11.0965
澎湖	-11.0965
行省	-11.0966
男孩	-11.0967
指责	-11.0968
新型	-11.0971
看見	-11.0971
苏维埃	-11.0975
\	-11.0976
彥	-11.0976
尚書	-11.0981
船隻	-11.0981
不佳	-11.0985
降落	-11.0986
锐	-11.0987
溝	-11.0987
城县	-11.0989
放置	-11.0993
額外	-11.0994
悠久	-11.0996
土星	-11.0996
无线电	-11.0997
鼓励	-11.0998
當作	-11.0998
遺址	-11.0999
uni	-11.0999
画家	-11.1001
碘	-11.1007
仅次于	-11.1008
天文學家	-11.1009
1500	-11.101
走廊	-11.1012
流入	-11.1012
職員	-11.1012
达尔	-11.1013
爱国	-11.1015
蒋介石	-11.102
準確	-11.1028
]]、[[	-11.1029
殉	-11.103
削弱	-11.1031
1902	-11.1032
攻陷	-11.1033
电台	-11.1036
立委	-11.1037
乏	-11.104
黔	-11.104
合同	-11.1043
共和黨	-11.1043
智能	-11.1047
推進	-11.1048
蝕	-11.1051
彎	-11.1051
都城	-11.1054
叛乱	-11.1056
档案	-11.1058
丞相	-11.1058
出演	-11.1061
鑄	-11.1062
讓他	-11.1062
酋	-11.1062
纷纷	-11.1062
的角度	-11.1066
後續	-11.1067
line	-11.1072
柄	-11.1073
协调	-11.1077
桶	-11.1083
祐	-11.1083
自治州	-11.1086
鴨	-11.1094
稽	-11.1094
部位	-11.1096
盟軍	-11.1097
岛上	-11.1103
畢業後	-11.1104
肠	-11.1105
三分之一	-11.1105
峻	-11.1105
公頃	-11.1106
ect	-11.1106
他认为	-11.1106
場地	-11.1106
将会	-11.1109
嵌	-11.1109
后世	-11.1111
阿尔巴尼亚	-11.1116
1871	-11.1122
泳	-11.1124
滋	-11.1126
医学院	-11.1128
处理器	-11.113
shi	-11.1136
淫	-11.1137
啤酒	-11.1138
哥哥	-11.1138
彰	-11.1138
競	-11.1141
認知	-11.1141
循	-11.1146
排行榜	-11.1148
普魯士	-11.1148
纺织	-11.1148
探測	-11.115
個體	-11.1152
稳	-11.1152
東京都	-11.1153
宣称	-11.1154
内蒙古	-11.1155
主題曲	-11.1156
統治者	-11.1156
术语	-11.1157
盆	-11.1162
判決	-11.1163
二十五	-11.1168
刷	-11.1169
兴起	-11.117
蟹	-11.1171
藝術家	-11.1171
ana	-11.1173
的重要性	-11.1174
保險	-11.1183
駁	-11.1184
卸任	-11.1184
大氣	-11.119
有名的	-11.1191
一件	-11.1191
分化	-11.1194
州刺史	-11.1194
尚有	-11.1196
表述	-11.1199
寻找	-11.1199
荀	-11.1203
孫權	-11.1205
怀疑	-11.1206
倾	-11.1206
激素	-11.1209
之際	-11.1209
大堂	-11.121
馬拉	-11.1214
填海	-11.1215
来源于	-11.1215
改革开放	-11.1219
羅馬帝國	-11.1221
fer	-11.1222
呎	-11.1225
炒	-11.1225
鎊	-11.1225
就能	-11.1226
旋轉	-11.1229
右翼	-11.1229
tin	-11.123
确立	-11.1239
刊物	-11.124
美国总统	-11.124
sk	-11.1242
协定	-11.1242
大埔	-11.1243
接着	-11.1244
低于	-11.1249
痛苦	-11.125
秘书	-11.1251
教派	-11.1252
法軍	-11.126
享受	-11.1262
州府	-11.1265
烹	-11.1269
人权	-11.127
閩南	-11.1272
寺院	-11.1273
视频	-11.1274
二十八	-11.1277
从未	-11.1277
长官	-11.1278
地質	-11.1278
绩	-11.1278
立方	-11.1282
劇本	-11.1284
得名	-11.1284
开工	-11.1285
前面	-11.1286
况	-11.1288
育有	-11.129
form	-11.129
峙	-11.1292
網頁	-11.1293
ren	-11.1295
两侧	-11.1298
自立	-11.1298
受欢迎	-11.1299
承諾	-11.1302
炳	-11.1302
國務院	-11.1302
推荐	-11.1303
肺炎	-11.1304
截止	-11.1304
米爾	-11.1304
主持人	-11.1309
以及其他	-11.1312
最古老的	-11.1313
詠	-11.1313
映射	-11.1316
總會	-11.1316
冶	-11.1317
哈德	-11.1317
暗示	-11.1318
無限	-11.1319
很可能	-11.1319
得分	-11.1324
nor	-11.1327
整數	-11.133
最主要的	-11.1331
有大量	-11.1332
無線電	-11.1333
cr	-11.1335
騷	-11.1335
缺陷	-11.1338
品种	-11.1341
待遇	-11.1341
书籍	-11.1342
國防部	-11.1346
蔬菜	-11.1346
群眾	-11.1348
罪名	-11.1351
之所以	-11.1354
來看	-11.1356
混淆	-11.1357
挫	-11.1358
強度	-11.1358
夹	-11.1359
随机	-11.1361
記憶體	-11.1362
火力	-11.1364
本质	-11.1364
疫苗	-11.1365
拋	-11.1368
戰敗	-11.1368
list	-11.1368
res	-11.1372
得多	-11.1375
天津市	-11.1375
罪行	-11.1376
格尔	-11.1377
史稱	-11.1378
法典	-11.138
史称	-11.1381
社交	-11.1383
自贡	-11.1385
流动	-11.1388
保守派	-11.1389
次子	-11.139
贊助	-11.1393
體積	-11.1394
所使用的	-11.1394
畫面	-11.1396
性别	-11.1397
流動	-11.1398
電流	-11.1402
自称	-11.1402
醛	-11.1402
子彈	-11.1406
当选为	-11.1408
为基础	-11.1408
古希臘	-11.1411
龐	-11.1412
呼籲	-11.1413
弗吉尼亚	-11.1413
扫	-11.1413
地產	-11.1415
事变	-11.1416
有不同的	-11.1419
劇集	-11.142
中国科学院	-11.1422
執導	-11.1422
秘書長	-11.1423
帮	-11.1423
孟加拉	-11.1424
布什	-11.1426
1.3	-11.1427
那里	-11.1427
移植	-11.1429
red	-11.143
包围	-11.1431
始于	-11.1434
勵	-11.1435
騙	-11.1436
蛋白質	-11.1439
官僚	-11.1439
該校	-11.144
ung	-11.1441
现今	-11.1442
80%	-11.1447
前夕	-11.1452
視覺	-11.1455
妓	-11.1458
蘆	-11.1459
適應	-11.146
延续	-11.1461
骑士	-11.1464
参见	-11.1464
录音	-11.1466
塞爾	-11.1467
場所	-11.1468
二十一	-11.1469
侠	-11.1469
浴	-11.147
蔽	-11.147
交往	-11.147
绘画	-11.1472
混亂	-11.1472
资产	-11.1475
4000	-11.1477
氨	-11.1479
升級	-11.1485
立场	-11.1485
其中一個	-11.149
拉丁文	-11.1492
傲	-11.1492
狮	-11.1493
將軍澳	-11.1494
哲学家	-11.1495
第一代	-11.1497
天体	-11.1497
騎兵	-11.15
棟	-11.1504
长子	-11.1508
高層	-11.151
學派	-11.1514
被發現	-11.1514
否則	-11.1514
餅	-11.1515
don	-11.1516
正式成立	-11.1518
生下	-11.1519
现代化	-11.1519
ler	-11.1524
擦	-11.1525
闪	-11.1526
培養	-11.1526
熟悉	-11.1526
挽	-11.1527
月中旬	-11.1527
不變	-11.1529
往返	-11.1529
畫家	-11.1535
遥	-11.1538
}	-11.154
sl	-11.1541
美麗	-11.1541
近年来	-11.1547
不太	-11.1548
億港元	-11.1549
约瑟夫	-11.1549
籃	-11.155
qui	-11.155
把他	-11.1551
黄色	-11.1551
歌唱	-11.1555
演变	-11.1556
納粹	-11.1559
电视剧	-11.156
戰術	-11.1561
隶	-11.1561
公分	-11.1561
保證	-11.1562
政變	-11.1563
新区	-11.1564
碰	-11.1571
法蘭西	-11.1571
倚	-11.1572
臺中市	-11.1574
ical	-11.1576
战场	-11.1577
行政区划	-11.1582
克里斯	-11.1582
蕃	-11.1583
汀	-11.1583
勞工	-11.1583
衝擊	-11.1586
联合会	-11.1587
萬美元	-11.1588
優秀	-11.1589
转向	-11.1589
建于	-11.1589
三千	-11.1591
數值	-11.1591
全国人民代表大会	-11.1594
参议院	-11.1594
長官	-11.1595
1870	-11.1595
聯絡	-11.1596
始终	-11.1597
顺序	-11.1597
较小	-11.1599
右派	-11.16
日上午	-11.1603
分享	-11.1613
ris	-11.1615
貶	-11.1617
片段	-11.1618
直径	-11.1626
催化	-11.1628
谐	-11.1628
頌	-11.1629
煤炭	-11.1629
侄	-11.1629
度量	-11.1631
輔助	-11.1632
孙中山	-11.1632
溶解	-11.1633
数十	-11.1639
第一任	-11.164
琦	-11.1641
競賽	-11.1643
罗马帝国	-11.1645
险	-11.1646
一架	-11.1651
与此同时	-11.1651
长城	-11.1651
奴隸	-11.1652
ib	-11.1653
边缘	-11.1654
提案	-11.1655
日凌晨	-11.1658
炸彈	-11.1662
拓扑	-11.1663
回家	-11.1663
鴉片	-11.1664
後代	-11.1665
区内	-11.1666
ted	-11.1667
观念	-11.1668
硬件	-11.167
师范大学	-11.167
屍	-11.167
一書	-11.1671
将领	-11.1671
同治	-11.1672
傑出	-11.1677
河道	-11.1677
书写	-11.1678
戰艦	-11.1681
资本	-11.1681
彩色	-11.1682
糕	-11.1686
裝飾	-11.1688
珠海	-11.169
牛顿	-11.1693
義務	-11.1695
陕	-11.1696
法蘭克	-11.1697
軒	-11.1697
鹅	-11.1697
奕	-11.1698
詞彙	-11.1698
全体	-11.1699
搬到	-11.1702
集體	-11.1703
里亞	-11.1703
傳入	-11.1706
chi	-11.1706
比利時	-11.1709
隙	-11.1709
謹	-11.1709
竞选	-11.1709
漿	-11.172
下去	-11.1725
自治县	-11.1726
是一名	-11.1728
办法	-11.1729
摧毀	-11.1732
人類學	-11.1735
更換	-11.1735
这两	-11.1741
欧元	-11.1744
nn	-11.1745
大概	-11.1745
漢族	-11.1748
開辦	-11.1752
諡	-11.1755
始終	-11.1762
鎖	-11.1762
臺南市	-11.1764
花园	-11.1766
live	-11.1766
眾議院	-11.1766
喇	-11.1767
乞	-11.1767
纤维	-11.1767
硝酸	-11.1767
ser	-11.1769
簡介	-11.177
繼任	-11.1777
湛	-11.1778
摇	-11.1779
岐	-11.1779
办事处	-11.1779
歧視	-11.1779
心理學	-11.1779
發動機	-11.178
灣仔	-11.1782
股權	-11.1783
夫婦	-11.1784
華語	-11.1786
僑	-11.1787
劉備	-11.1789
σ	-11.179
民意	-11.1791
巴爾	-11.1793
县级	-11.1793
雕像	-11.1798
攻下	-11.1799
喜愛	-11.1799
喊	-11.1802
忒	-11.1802
互動	-11.1802
六個	-11.1804
抵制	-11.1807
長安	-11.1809
她們	-11.181
全县	-11.181
阅	-11.1811
字形	-11.1812
補充	-11.1817
民族主义	-11.1818
科目	-11.1823
闸	-11.1825
五百	-11.1825
洛夫	-11.1828
時常	-11.1832
報道	-11.1835
详细	-11.1836
踢	-11.1836
arr	-11.1841
1.4	-11.1841
萨尔	-11.1848
模糊	-11.1849
发音	-11.185
入選	-11.1851
室內	-11.1852
初始	-11.1858
多位	-11.1859
烏斯	-11.186
姓名	-11.1861
检察	-11.1861
运动员	-11.1864
國旗	-11.1868
证实	-11.1869
代表大会	-11.187
五千	-11.187
橡	-11.1871
胚	-11.1871
地方政府	-11.1872
七世	-11.1879
繁忙	-11.1884
天氣	-11.1885
个体	-11.1885
za	-11.1886
意味著	-11.1894
芦	-11.1895
某种	-11.1896
庆祝	-11.1904
全民	-11.1907
或稱	-11.191
教练	-11.191
發展出	-11.1911
中央委员会	-11.1912
交給	-11.1914
暫停	-11.1916
比重	-11.1917
團結	-11.1919
中共中央政治局	-11.192
保留了	-11.1923
研制	-11.1923
真空	-11.1925
询	-11.193
砍	-11.1931
描繪	-11.1931
玉米	-11.1931
確實	-11.1932
收购	-11.1934
缩写	-11.1936
單獨	-11.1936
場比賽	-11.1937
党员	-11.1938
这一时期	-11.194
随即	-11.194
鞍	-11.1942
拯救	-11.1943
玩具	-11.1943
馬爾	-11.1944
產生了	-11.1945
人造	-11.1945
技能	-11.1949
皆為	-11.1954
驾	-11.1954
嫡	-11.1954
压缩	-11.1956
gh	-11.1959
雄性	-11.1959
纬	-11.196
選手	-11.196
駛	-11.1961
無綫	-11.1963
支配	-11.1964
惯	-11.1965
比利时	-11.1966
霖	-11.1966
精确	-11.197
met	-11.1971
數個	-11.1974
语音	-11.1977
指向	-11.1978
菩薩	-11.1978
姐妹	-11.1979
高丽	-11.1983
武田	-11.1984
自從	-11.1984
3,000	-11.1985
邊境	-11.1985
副總統	-11.1985
1.6	-11.1987
进程	-11.1989
洛杉磯	-11.1989
二氧化碳	-11.1989
寄生	-11.1991
前任	-11.1992
校方	-11.1996
墾	-11.1998
搖	-11.2001
拾	-11.2002
联络	-11.2002
mor	-11.2003
智利	-11.2003
衰退	-11.2005
人口約	-11.2007
锁	-11.2011
綁	-11.2013
广播电台	-11.2013
东南亚	-11.2018
首领	-11.2019
之亂	-11.202
元代	-11.2023
忽略	-11.2027
里程	-11.2028
座位	-11.2029
各州	-11.2033
既有	-11.2034
危害	-11.2038
金剛	-11.2043
死于	-11.2046
君士坦丁堡	-11.2049
中央人民政府	-11.2055
道歉	-11.2055
另一種	-11.2056
盟友	-11.2057
未知	-11.2058
死者	-11.2059
民航	-11.2059
但卻	-11.2059
償	-11.2061
全美	-11.2062
intel	-11.2062
吐蕃	-11.2062
雕刻	-11.2063
比上年	-11.2065
喜剧	-11.2068
排序	-11.2068
380	-11.2072
冥	-11.2073
党内	-11.2074
沒有任何	-11.2074
觉得	-11.2074
來自於	-11.2076
創下	-11.2076
瓦爾	-11.2077
登場	-11.2081
公约	-11.2082
世紀末	-11.2083
赦	-11.2084
鈴	-11.2084
资本主义	-11.2088
裡面	-11.2089
階層	-11.209
告知	-11.2091
江戶	-11.2092
拿破崙	-11.2096
伙	-11.2096
垃	-11.2097
診斷	-11.2097
1896	-11.2097
活跃	-11.2098
冰川	-11.21
藏族	-11.2102
條款	-11.2102
碳酸	-11.2102
城鎮	-11.2107
伺服器	-11.2108
混乱	-11.211
ture	-11.2114
消防	-11.2115
挑战	-11.2115
帶著	-11.2116
大法官	-11.2118
景点	-11.2119
鯨	-11.2121
寂	-11.2121
國家隊	-11.2122
争论	-11.2127
考生	-11.2131
茄	-11.2132
腓力	-11.2133
降水	-11.2136
終止	-11.2142
子公司	-11.2143
跨越	-11.2145
共產主義	-11.2145
怎	-11.2145
撰写	-11.2146
trans	-11.2147
修正案	-11.2148
示范	-11.215
射擊	-11.2152
会长	-11.2152
泰国	-11.2153
感受	-11.2155
清华大学	-11.216
san	-11.2161
瓊	-11.2169
胆	-11.2169
脆	-11.2169
等方面	-11.2169
涉嫌	-11.2172
來往	-11.2172
言论	-11.2175
支出	-11.2175
傳染	-11.2177
弗拉	-11.2178
東海	-11.2178
飽	-11.2181
有所不同	-11.2181
谁	-11.2181
诸多	-11.2181
展現	-11.2181
信心	-11.2182
格雷	-11.2182
躍	-11.2184
指数	-11.2186
個國家	-11.2188
奥尔	-11.2189
偿	-11.2193
制成	-11.2195
章程	-11.2195
男人	-11.2198
現存	-11.2199
流形	-11.2199
水面	-11.22
航线	-11.2201
ens	-11.2202
對稱	-11.2204
巨星	-11.2204
迭	-11.2205
西周	-11.2205
龟	-11.2206
open	-11.2206
共識	-11.2206
情绪	-11.2207
增强	-11.2213
主體	-11.2215
凍	-11.2217
霜	-11.2217
唐山	-11.2218
殲	-11.2219
写了	-11.2222
這兩個	-11.2222
神社	-11.2225
啟動	-11.2226
90%	-11.2227
意圖	-11.2229
档	-11.2229
墅	-11.2231
入球	-11.2234
改由	-11.2236
獅子	-11.2238
倫理	-11.2238
一隻	-11.224
湘潭	-11.2243
图案	-11.2246
要塞	-11.2249
音节	-11.225
公共交通	-11.2252
app	-11.2253
墟	-11.2254
橫濱	-11.2255
容器	-11.2256
ix	-11.2256
御史	-11.2256
鳥類	-11.226
產物	-11.226
催	-11.2266
纠	-11.2266
ist	-11.2271
除非	-11.2272
估	-11.2274
描写	-11.2274
市镇	-11.2274
提取	-11.2279
级别	-11.2283
濃度	-11.2287
創新	-11.229
事變	-11.2291
磷酸	-11.2292
宣誓	-11.2292
ble	-11.2293
高祖	-11.2295
洛陽	-11.2299
離婚	-11.2299
编写	-11.23
摧毁	-11.2302
莽	-11.2303
廣東省	-11.2306
元帥	-11.2306
累積	-11.2307
畿	-11.2314
棺	-11.2315
培育	-11.2315
路易斯	-11.2316
數碼	-11.2322
插入	-11.2326
開啟	-11.2327
沿革	-11.2329
交付	-11.2329
歷史學家	-11.2331
卡特	-11.2333
科夫	-11.2338
─	-11.2339
辣	-11.2339
理查德	-11.2339
短期	-11.234
攻克	-11.2341
太多	-11.2344
注意到	-11.2344
父子	-11.2345
很快就	-11.2346
ei	-11.2347
北面	-11.2348
世俗	-11.2348
长征	-11.2348
瓦解	-11.2349
某个	-11.2349
諧	-11.2351
监狱	-11.2353
運動員	-11.2353
管道	-11.2353
強制	-11.2355
乐器	-11.2355
廠商	-11.2356
安置	-11.2358
褒	-11.2364
忧	-11.2364
畅	-11.2364
nes	-11.2364
對話	-11.2371
威爾斯	-11.2374
宗教信仰	-11.2374
矿产	-11.2375
鹏	-11.2376
橘	-11.2376
抬	-11.2376
鲸	-11.2376
廿	-11.2376
秦国	-11.2378
桥梁	-11.238
紀元	-11.2383
二级	-11.2384
香港大學	-11.2386
枢	-11.2388
排放	-11.2395
呈现	-11.2398
淋	-11.24
旭	-11.2401
地理位置	-11.2401
推薦	-11.2402
搭配	-11.2402
希爾	-11.2404
生物學	-11.2404
行列	-11.2405
夺取	-11.2412
1903	-11.2413
遷移	-11.2413
女真	-11.2414
簡化	-11.2416
界面	-11.2416
風暴	-11.2418
团结	-11.2418
质疑	-11.2424
同性恋	-11.2425
悖	-11.2425
microsoft	-11.2425
ā	-11.2426
斋	-11.2426
過度	-11.2429
被列入	-11.243
起兵	-11.2431
電路	-11.2434
景點	-11.2434
玫瑰	-11.2438
两位	-11.2438
传入	-11.244
亦曾	-11.244
作業系統	-11.244
阅读	-11.244
ker	-11.2442
春季	-11.2445
記憶	-11.2447
详	-11.245
楚国	-11.2452
安定	-11.2453
发言	-11.2454
奧運會	-11.2456
譯為	-11.2461
清晰	-11.2463
rp	-11.2463
比亚	-11.2468
nic	-11.247
政務	-11.2471
1.1	-11.2471
屯門	-11.2473
任职	-11.2473
1.8	-11.2475
结论	-11.2475
凶	-11.2476
預期	-11.2476
木材	-11.2476
愿意	-11.2476
太守	-11.2482
陣營	-11.2482
米兰	-11.2484
高达	-11.2484
担心	-11.2484
僚	-11.2485
郵政	-11.2485
0.9	-11.2486
詩歌	-11.2486
棍	-11.2488
鲁迅	-11.2489
尔顿	-11.2491
对方	-11.2491
江蘇	-11.2497
民主進步黨	-11.25
蝙蝠	-11.25
鹼	-11.25
股東	-11.2501
安息	-11.2502
修复	-11.2505
相對於	-11.2505
黨員	-11.2506
芬蘭	-11.2509
很容易	-11.2511
榆	-11.2512
捷克斯洛伐克	-11.2512
playstation	-11.2513
失利	-11.2517
部部长	-11.2517
现场	-11.2523
愛情	-11.2524
不变	-11.2525
梓	-11.2525
燃燒	-11.2526
勋章	-11.2529
凭	-11.2537
认定	-11.2539
潰	-11.2539
骑兵	-11.2543
份子	-11.2544
全數	-11.2546
中央政治局	-11.2549
剝	-11.255
不願	-11.255
平方千米	-11.2551
古埃及	-11.2551
三角洲	-11.2552
人口密度	-11.2555
許可	-11.2556
協調	-11.2557
順序	-11.2557
現代化	-11.256
伽利略	-11.2563
類別	-11.2563
慢慢	-11.2564
長崎	-11.2565
送往	-11.2569
复兴	-11.2571
乡村	-11.2572
朋	-11.2573
診	-11.2574
简化	-11.2575
增強	-11.2576
土卫	-11.2579
讲话	-11.2581
周刊	-11.2582
據說	-11.2584
氏族	-11.2586
雌性	-11.2586
羅德	-11.2587
故居	-11.2587
場合	-11.2588
辦理	-11.2589
频繁	-11.2589
这也是	-11.2591
官话	-11.2594
反攻	-11.26
卓越	-11.2601
充满	-11.2604
这两个	-11.2609
▁°	-11.261
他自己	-11.2611
第一屆	-11.2611
慾	-11.2612
倪	-11.2613
氦	-11.2613
强度	-11.2613
酿	-11.2613
厭	-11.2613
分店	-11.2613
0.6	-11.2619
頒發	-11.2621
官兵	-11.2625
疲	-11.2626
博士学位	-11.2626
訴訟	-11.2628
習俗	-11.2629
數百	-11.2632
皇太后	-11.2632
權威	-11.2634
代表团	-11.2635
后代	-11.2635
小孩	-11.2635
侨	-11.2635
膀	-11.2638
頸	-11.2638
淹	-11.2638
情節	-11.2639
一款	-11.2645
戰事	-11.2645
金朝	-11.2646
工会	-11.2647
格局	-11.2647
難民	-11.2648
撤出	-11.2649
缅	-11.2652
所組成	-11.2654
客戶	-11.2654
小姐	-11.2655
文艺	-11.2657
專用	-11.2661
奖项	-11.2663
中途	-11.2663
匡	-11.2665
采访	-11.2665
剌	-11.2665
結論	-11.2668
行駛	-11.2668
南美洲	-11.2669
原址	-11.2672
消化	-11.2672
登陆	-11.2676
清军	-11.2676
機率	-11.2676
郊区	-11.2677
朝鲜半岛	-11.2679
漳	-11.2682
加冕	-11.2686
汗国	-11.2687
认可	-11.2688
此舉	-11.2688
朱元璋	-11.2691
頭銜	-11.2694
東漢	-11.2694
六个	-11.2697
鵝	-11.2701
港府	-11.2702
费用	-11.2703
东北部	-11.2705
定義為	-11.2705
星座	-11.2707
下属	-11.2709
先知	-11.271
供奉	-11.2712
含义	-11.2713
奥林匹克	-11.2714
接待	-11.2716
領隊	-11.2718
間接	-11.272
要素	-11.2721
还包括	-11.2722
0.4	-11.2723
展出	-11.2725
跃	-11.2726
障碍	-11.2727
死去	-11.2727
膏	-11.2728
廣義	-11.273
適當	-11.2735
擴建	-11.2735
後裔	-11.2736
ani	-11.2737
澳门	-11.2738
福德	-11.2739
沖繩	-11.2739
馬其頓	-11.274
阿爾巴尼亞	-11.274
驾驶	-11.274
謠	-11.274
太古	-11.274
裴	-11.2741
大厦	-11.2745
布莱	-11.2747
time	-11.2748
籃球	-11.2751
方针	-11.2752
滾	-11.2753
集成	-11.2756
融入	-11.2757
微分	-11.276
use	-11.2761
直隶	-11.2762
傀	-11.2766
舊金山	-11.2769
勳章	-11.277
参谋长	-11.277
厦门	-11.2771
藉此	-11.2779
看法	-11.278
天文學	-11.2783
运作	-11.2783
鞭	-11.2791
孚	-11.2791
秋季	-11.2792
伟大	-11.2797
各方	-11.2798
你們	-11.2799
慣	-11.2801
棠	-11.2805
考量	-11.2809
命题	-11.2812
准确	-11.2817
閘	-11.2817
40%	-11.2817
摩擦	-11.2818
主动	-11.282
爭論	-11.282
關東	-11.2821
党委	-11.2825
cpu	-11.2828
dos	-11.2829
全线	-11.2829
娅	-11.283
崙	-11.283
老挝	-11.283
昔日	-11.2832
进口	-11.2832
规律	-11.2834
工黨	-11.2838
貿	-11.2841
一艘	-11.2842
侦	-11.2842
灌溉	-11.2842
錦標賽	-11.2843
star	-11.2844
愛國	-11.2844
強化	-11.2845
办学	-11.2847
財務	-11.2847
標示	-11.285
馬克思	-11.2851
外觀	-11.2852
理事会	-11.2853
駕	-11.2856
炉	-11.2856
實踐	-11.2857
企图	-11.2859
具备	-11.2864
薯	-11.2869
農曆	-11.2873
雷達	-11.2876
動員	-11.2878
天气	-11.2879
装甲	-11.2883
靈魂	-11.2884
簽約	-11.2884
辯論	-11.2885
捐款	-11.2885
印度教	-11.2886
元帅	-11.2887
工程師	-11.2888
積分	-11.2893
聊	-11.2894
中华人民共和国成立后	-11.2895
故意	-11.2895
行業	-11.2899
汉朝	-11.2901
定义为	-11.2904
叙	-11.2906
来自于	-11.2907
前列腺	-11.2907
google	-11.2908
嫩	-11.2908
致使	-11.2909
投手	-11.2913
摩尔	-11.2914
本質	-11.2915
織	-11.2915
造船	-11.2916
bit	-11.2916
房子	-11.292
芯	-11.292
本片	-11.2921
肚	-11.2921
组成部分	-11.2921
紧急	-11.2923
检测	-11.2923
北美洲	-11.2923
编制	-11.2926
获取	-11.2928
建築師	-11.2928
度假	-11.2935
短暂	-11.2937
轨道交通	-11.2938
aa	-11.2939
ple	-11.294
首个	-11.2942
攜帶	-11.2942
预算	-11.2942
可供	-11.2944
窩	-11.2946
ence	-11.2947
南端	-11.2948
負面	-11.2948
消灭	-11.2949
科学技术	-11.2949
动机	-11.2952
浓度	-11.2953
會產生	-11.2954
保卫	-11.2954
外籍	-11.2956
磅	-11.2959
沸	-11.2959
当前	-11.2962
30%	-11.2965
建安	-11.2965
黃色	-11.2967
金星	-11.2971
萨克森	-11.2972
罐	-11.2973
傳遞	-11.2976
惡化	-11.2978
烈士	-11.298
读者	-11.2983
同期	-11.2984
世宗	-11.2988
决策	-11.2988
推測	-11.2991
心臟	-11.2993
园林	-11.2999
孜	-11.2999
科尔	-11.3
典禮	-11.3001
四周	-11.3002
隊長	-11.3003
司徒	-11.3009
欄	-11.3011
趾	-11.3012
抛	-11.3012
ley	-11.3013
历代	-11.3016
马克思主义	-11.3017
專案	-11.3017
率軍	-11.3018
增至	-11.302
宁夏	-11.3021
第一次世界大戰	-11.3025
1890	-11.3027
體內	-11.3032
4.5	-11.3036
den	-11.3037
保加利亚	-11.3038
漲	-11.3038
頒獎典禮	-11.3038
照顧	-11.3048
晶片	-11.3051
鯊	-11.3052
重复	-11.3053
清華	-11.3054
西岸	-11.3055
諮詢	-11.3064
民俗	-11.3067
兩條	-11.3069
反共	-11.3069
cur	-11.307
實體	-11.3071
货物	-11.3076
湧	-11.3078
第七次全国人口普查	-11.3078
史密斯	-11.3078
珊瑚	-11.3078
仄	-11.3078
碰撞	-11.3078
颁发	-11.308
距今	-11.308
場景	-11.3082
塑造	-11.3083
還要	-11.3083
臟	-11.3083
同情	-11.3083
牵引	-11.3084
大教堂	-11.3088
了一系列	-11.309
托洛茨基	-11.309
停留	-11.3091
哈布斯堡	-11.3091
椎	-11.3091
精確	-11.3092
谭	-11.3092
经济发展	-11.3093
暴動	-11.3094
mv	-11.3096
饮食	-11.3099
解剖	-11.31
政务	-11.31
737	-11.3102
当天	-11.3103
奠定了	-11.3103
毫無	-11.3103
手機	-11.3105
第二个	-11.3108
旋律	-11.3108
汗國	-11.311
歌詞	-11.3111
加快	-11.3111
奪取	-11.3112
美國總統	-11.3112
升级	-11.3112
杰出	-11.3113
拉丁语	-11.3115
詢	-11.3117
最快	-11.312
客家人	-11.3121
考入	-11.3123
重庆市	-11.3124
隋朝	-11.3125
max	-11.3126
亚热带	-11.3127
希尔	-11.3129
单一	-11.313
衣服	-11.3131
蝦	-11.3131
鬱	-11.3131
水稻	-11.3132
趨勢	-11.3133
故障	-11.3133
撤銷	-11.3134
广州市	-11.3134
攻勢	-11.3136
资助	-11.3137
二氧化	-11.3138
青铜	-11.314
兼容	-11.3143
櫻	-11.3144
波士顿	-11.3144
髓	-11.3144
敕	-11.3145
预测	-11.3146
合肥	-11.3148
自由主義	-11.3155
爺	-11.3157
总司令	-11.3159
苏军	-11.3161
free	-11.3162
編寫	-11.3162
总量	-11.3164
機動	-11.3166
教區	-11.3167
后裔	-11.3169
孤立	-11.317
▁return	-11.3171
颈	-11.3172
太陽系	-11.3176
打敗	-11.318
實質	-11.318
祁	-11.3184
收視率	-11.3187
進軍	-11.3187
cre	-11.3188
獨裁	-11.3188
型號	-11.3189
东南部	-11.3191
隔离	-11.3194
ina	-11.3196
蛮	-11.3198
焉	-11.3198
ash	-11.32
通商	-11.3203
隶属于	-11.3203
古蹟	-11.3204
yo	-11.3206
範圍內	-11.3206
瘦	-11.321
萌	-11.3211
途径	-11.3212
壓縮	-11.3213
富裕	-11.3215
學說	-11.3216
形態	-11.3216
被称作	-11.3216
阿布	-11.3217
哈拉	-11.3217
央	-11.3219
tvb	-11.3219
交给	-11.322
珠江	-11.322
类似于	-11.3223
橙	-11.3224
咬	-11.3224
討伐	-11.3226
氣溫	-11.3227
吸引了	-11.3228
爭奪	-11.3231
網上	-11.3234
宫殿	-11.3236
摩爾	-11.3237
打造	-11.3237
修道院	-11.3238
iz	-11.3238
蓝色	-11.3243
毒性	-11.3243
斤	-11.3246
景觀	-11.3247
县级市	-11.3247
釣魚	-11.3251
摆	-11.3251
委託	-11.3253
确保	-11.3256
轟炸機	-11.3257
感觉	-11.3257
紧张	-11.3258
醫師	-11.326
法兰克	-11.3264
蚀	-11.3265
修復	-11.3265
鉛	-11.3265
king	-11.3265
学位	-11.3267
一块	-11.3269
辽宁省	-11.3269
描	-11.3272
指責	-11.3273
来看	-11.3276
月下旬	-11.3278
某種	-11.328
收視	-11.3283
運河	-11.3287
改組	-11.3287
改進	-11.329
趋势	-11.3292
轉型	-11.3293
港島	-11.3295
引进	-11.3297
取名	-11.3298
军衔	-11.3299
回应	-11.3299
一句	-11.33
重修	-11.3303
反映了	-11.3303
第一次世界大战	-11.3305
冲击	-11.3311
彰化	-11.3312
關聯	-11.3313
廣西	-11.3314
眠	-11.3318
凹	-11.3318
个街道办事处	-11.3319
链接	-11.3319
祖籍	-11.3322
low	-11.3322
剩余	-11.3323
星際	-11.3324
此類	-11.3325
迎接	-11.3325
语言学	-11.3326
當然	-11.3331
名古屋	-11.3332
牡丹	-11.3332
查尔斯	-11.3332
描绘	-11.3332
陶瓷	-11.3333
成份	-11.3335
英美	-11.3337
嘉靖	-11.3338
war	-11.3341
蘇丹	-11.3341
穿著	-11.3345
釜	-11.3345
html	-11.3346
μ	-11.3346
認證	-11.335
秦朝	-11.3351
恐龍	-11.3352
經費	-11.3353
战士	-11.3354
淮南	-11.3354
ten	-11.3357
锅	-11.3359
抹	-11.3359
否認	-11.336
歐美	-11.3361
辅助	-11.3362
还原	-11.3364
個別	-11.3365
充足	-11.3367
van	-11.3367
1897	-11.337
掌控	-11.3373
塞爾維亞	-11.3373
退位	-11.3374
宙斯	-11.3374
仍未	-11.3378
第二個	-11.3379
战列舰	-11.3386
勿	-11.3387
墜	-11.3387
領先	-11.3387
资产阶级	-11.3387
傳奇	-11.3387
總共	-11.3389
这项	-11.3392
科学院	-11.3393
佔據	-11.3395
0.7	-11.34
晉級	-11.34
哥倫比亞	-11.34
保加利亞	-11.34
富特文格勒	-11.34
诱	-11.3401
展览	-11.3402
70%	-11.3402
权威	-11.3405
制品	-11.3409
较低	-11.3411
圖案	-11.3413
罗马尼亚	-11.3416
尼克松	-11.3417
移除	-11.3419
接口	-11.3419
中国古代	-11.3424
奠基	-11.3425
可惜	-11.3426
肯尼迪	-11.3427
物理学家	-11.3436
无限	-11.3437
1867	-11.3441
這也是	-11.3441
紐西蘭	-11.3441
衙	-11.3442
局勢	-11.3442
購物	-11.3442
侗	-11.3443
驱动	-11.3444
傷亡	-11.3445
戰機	-11.3449
总书记	-11.3449
自旋	-11.3451
受伤	-11.3451
北岸	-11.3455
港島綫	-11.3455
滤	-11.3455
新興	-11.3456
row	-11.3463
专利	-11.3466
哲學家	-11.3468
范畴	-11.3469
▁you	-11.3472
gra	-11.3473
动态	-11.3473
交叉	-11.3474
fin	-11.3476
障	-11.3478
畜	-11.3482
发送	-11.3483
驳	-11.3483
凤凰	-11.3483
探討	-11.3484
补充	-11.3486
射线	-11.3487
认同	-11.3493
嘲	-11.3496
樸	-11.3497
司令员	-11.3497
信件	-11.3498
加密	-11.3501
創始	-11.3503
長沙	-11.3504
清华	-11.3505
假名	-11.3508
高句丽	-11.351
日常生活	-11.3513
秘书长	-11.3514
俗称	-11.3514
史記	-11.3517
启用	-11.352
水泥	-11.3521
马其顿	-11.3523
俞	-11.3523
封鎖	-11.3526
招收	-11.3526
把它	-11.3529
氣象	-11.353
ach	-11.3531
患有	-11.3532
苗族	-11.3537
钾	-11.3538
骚	-11.3538
这类	-11.3538
bsd	-11.3538
術語	-11.3546
共计	-11.355
辽宁	-11.3553
tch	-11.3555
接下來	-11.3557
逃往	-11.3557
杀害	-11.3558
很难	-11.356
支部	-11.3561
篮球	-11.3563
料理	-11.3567
桃園市	-11.3569
总数	-11.3569
么	-11.3571
金曲	-11.3572
名誉	-11.3574
2.1	-11.3574
被俘	-11.3574
語音	-11.3577
火炮	-11.3577
发掘	-11.3581
旋转	-11.3588
疗	-11.3589
茵	-11.3591
芭	-11.3593
喜劇	-11.3594
您	-11.3594
症状	-11.3597
较多	-11.3597
纳入	-11.3602
万平方米	-11.3602
極端	-11.3604
尺度	-11.3605
轟	-11.3607
洛杉矶	-11.3607
子弟	-11.3607
菲律宾	-11.3607
翌日	-11.3611
正義	-11.3613
糧食	-11.3614
夠	-11.3616
另一种	-11.3616
储量	-11.3619
据说	-11.3623
寻求	-11.3624
第二代	-11.3624
停靠	-11.3629
马克思	-11.3633
宵	-11.3635
摇滚	-11.3635
骸	-11.3635
陸地	-11.3636
福岡	-11.3641
立方米	-11.3641
一段时间	-11.3641
宮廷	-11.3643
1899	-11.3644
_12	-11.3648
行政区	-11.3649
记忆	-11.3649
迁徙	-11.3649
传递	-11.3652
伤亡	-11.3652
官話	-11.3659
第十一	-11.366
教義	-11.3663
貪	-11.3663
杖	-11.3664
湿地	-11.3665
缺少	-11.3666
国务院批准	-11.3666
2.8	-11.3666
回合	-11.3669
乐团	-11.3669
進口	-11.3669
物件	-11.3673
叢	-11.3677
參議院	-11.3677
淪	-11.3677
篡	-11.3677
筋	-11.3678
数百	-11.3678
條目	-11.3678
over	-11.3679
幸福	-11.3679
服裝	-11.3685
无产阶级	-11.3691
tree	-11.3691
清真寺	-11.3691
為首的	-11.3692
維基百科	-11.3695
夫妇	-11.3697
开发区	-11.3698
交互	-11.3699
0.8	-11.3702
總統選舉	-11.3703
发育	-11.371
的一部份	-11.3714
金大中	-11.3714
墓地	-11.3716
優先	-11.3716
数值	-11.3716
携带	-11.3716
总局	-11.3718
架构	-11.3719
虐	-11.3719
幢	-11.3719
淞	-11.372
舅	-11.372
劾	-11.372
涵蓋	-11.372
物資	-11.3721
邊緣	-11.3724
各項	-11.3732
紅磡	-11.3733
mil	-11.3733
敲	-11.3733
爪哇	-11.3733
温带	-11.3734
ari	-11.3736
day	-11.3741
服装	-11.3745
成员国	-11.3745
封面	-11.3746
重組	-11.3746
胤	-11.3749
鑽石	-11.3752
爾頓	-11.3755
心脏	-11.3757
建筑物	-11.3758
相邻	-11.3759
過渡	-11.3761
闢	-11.3761
寝	-11.3762
猜想	-11.3764
欢迎	-11.3767
品種	-11.3769
物资	-11.3771
争取	-11.3772
唱片公司	-11.3772
安東尼	-11.3776
嬰兒	-11.3776
卧	-11.3776
足球俱乐部	-11.3778
硕士	-11.3779
tes	-11.3779
type	-11.378
租借	-11.378
罗斯福	-11.3781
回归	-11.3787
江西省	-11.3787
辭去	-11.379
纏	-11.379
该校	-11.3794
天主教徒	-11.3795
该地区	-11.38
彻	-11.3803
货运	-11.3804
谴责	-11.3804
被誉为	-11.3804
inter	-11.3807
防衛	-11.3809
結盟	-11.3812
牠	-11.3818
各级	-11.3818
江泽民	-11.3818
曾多次	-11.3819
伙伴	-11.3819
死亡率	-11.3821
单元	-11.3822
大地震	-11.3825
一律	-11.3825
总结	-11.3827
穗	-11.3833
缸	-11.3834
work	-11.3835
7.5	-11.3836
背叛	-11.3836
汉武帝	-11.3837
1.7	-11.3838
甲板	-11.384
经历了	-11.3841
卫视	-11.3844
缀	-11.3847
á	-11.3847
文物保护单位	-11.3847
被任命为	-11.3847
增加值	-11.385
複製	-11.385
温州	-11.3851
羅斯福	-11.3852
5.5	-11.3853
遠東	-11.3854
微生物	-11.3868
学说	-11.3869
扮	-11.3873
沙皇	-11.3873
冬天	-11.3875
萍	-11.3876
步行	-11.3876
窦	-11.3876
教導	-11.3876
收录	-11.3876
害怕	-11.3878
争夺	-11.3879
遷至	-11.388
聚落	-11.3883
觀音	-11.3886
祭司	-11.3886
诸如	-11.3887
苍	-11.3889
嚇	-11.389
辈	-11.389
溃	-11.389
掌管	-11.389
丕	-11.3891
監獄	-11.3892
分開	-11.3893
繁榮	-11.3894
辦公	-11.3895
编号	-11.3902
枯	-11.3904
梧	-11.3904
閏	-11.3905
蠻	-11.3905
形势	-11.3905
拓展	-11.3906
維修	-11.3909
女主角	-11.3911
次數	-11.3914
泗	-11.3918
妾	-11.3919
涨	-11.3919
篮	-11.3921
山西省	-11.393
职能	-11.393
敘	-11.3932
不敵	-11.3934
克拉克	-11.3934
写成	-11.3934
耕地	-11.3936
相容	-11.3939
規格	-11.3941
總統府	-11.3944
楷	-11.3947
斯蒂	-11.3948
袁世凯	-11.3949
交通部	-11.3949
陆地	-11.395
氟化	-11.3951
条例	-11.3953
預言	-11.3954
布拉格	-11.3959
去世后	-11.396
〔	-11.3961
支柱	-11.3962
八達通	-11.3962
姐姐	-11.3963
上訴	-11.3964
可分为	-11.3964
体积	-11.3968
影展	-11.3969
學生會	-11.3971
收费	-11.3972
數學家	-11.3975
〕	-11.3975
脸	-11.3976
贬	-11.3977
谥	-11.3977
王安石	-11.3977
2.6	-11.3978
script	-11.3979
复合	-11.3979
铁道部	-11.3981
阶层	-11.3981
翻新	-11.3981
連同	-11.3982
論述	-11.399
航空母艦	-11.3991
敘述	-11.3992
朝鮮半島	-11.3993
上午	-11.3993
财富	-11.3993
监察	-11.3996
1,0	-11.3999
列寧	-11.3999
公寓	-11.4001
昔	-11.4003
纷	-11.4005
灰色	-11.4005
平坦	-11.4007
延长	-11.401
纵队	-11.4012
牵	-11.4017
3.0	-11.4018
eng	-11.4019
僵	-11.402
虐待	-11.402
降雨量	-11.4021
招募	-11.4021
灭绝	-11.4022
陰謀	-11.4022
理工	-11.4027
社團	-11.4029
正統	-11.4029
細節	-11.4029
2.4	-11.4031
bur	-11.4034
媒介	-11.4034
安葬	-11.4035
巾	-11.4035
賦予	-11.4035
會出現	-11.4036
聯賽冠軍	-11.404
两条	-11.4041
捉	-11.4044
东亚	-11.4044
义务	-11.4046
锦标赛	-11.405
助手	-11.4051
为首的	-11.4052
菲尔德	-11.4063
高加索	-11.4063
小提琴	-11.4063
必需	-11.4064
栽培	-11.4066
週刊	-11.4067
公安部	-11.407
hor	-11.4071
重複	-11.4074
主唱	-11.4074
卤	-11.4078
狮子	-11.4078
1800	-11.4078
喚	-11.408
宗旨	-11.408
葡萄酒	-11.4081
奉行	-11.4083
女歌手	-11.4084
tan	-11.4084
一段時間	-11.4086
1848	-11.4092
‰	-11.4093
代表人物	-11.4093
皮膚	-11.4093
識別	-11.4096
香港特別行政區	-11.4103
迁移	-11.4105
首領	-11.4106
籠	-11.4107
恪	-11.4107
禾	-11.4108
窝	-11.4108
疆域	-11.411
接下来	-11.4112
譯本	-11.4114
宫廷	-11.4115
邮政	-11.4115
选手	-11.4119
汞	-11.4121
浆	-11.4122
厝	-11.4122
墳	-11.4122
貸	-11.4122
钻	-11.4123
判断	-11.4126
僅僅	-11.4129
1880	-11.4131
宗室	-11.4132
ier	-11.4133
狭	-11.4135
傳輸	-11.4136
搭乘	-11.4139
升任	-11.4144
傑克	-11.4145
起源於	-11.4146
真相	-11.4146
廈門	-11.415
菱	-11.4151
蔡英文	-11.4157
最高峰	-11.4158
村民	-11.4158
單元	-11.4161
实数	-11.4162
集团军	-11.4163
攻佔	-11.4166
作業	-11.4166
依次	-11.4166
墩	-11.4166
馳	-11.4166
贪	-11.4167
民族主義	-11.4167
头衔	-11.4168
绝大多数	-11.4168
分布于	-11.4169
农场	-11.417
1850	-11.4171
60%	-11.4171
半徑	-11.4172
棉花	-11.4177
雨量	-11.418
跋	-11.4181
鵬	-11.4181
劉邦	-11.4185
撤回	-11.4186
判决	-11.419
毛利	-11.419
配備	-11.4192
а	-11.4196
毀滅	-11.4197
平壤	-11.4199
实体	-11.4199
觀塘	-11.4199
气象	-11.42
容納	-11.4202
口徑	-11.4203
dra	-11.4209
磚	-11.421
躲	-11.421
氰	-11.421
斌	-11.4211
史记	-11.4214
干預	-11.4216
强制	-11.4217
巴塞尔	-11.4219
直线	-11.4224
渣	-11.4225
罵	-11.4225
河畔	-11.4226
琅	-11.4226
纖維	-11.4226
寒冷	-11.4229
剧本	-11.423
武功	-11.4232
轉乘	-11.4232
讀書	-11.4235
now	-11.4236
記者會	-11.4239
挖掘	-11.424
较少	-11.424
缔	-11.424
濒	-11.424
滙豐	-11.424
宛	-11.4241
擴充	-11.4241
成吉思汗	-11.4243
钢铁	-11.4243
tl	-11.4248
永远	-11.4253
探测	-11.4255
歷代	-11.426
同时也是	-11.4261
历任	-11.4269
擋	-11.4269
櫃	-11.4269
篤	-11.427
西元前	-11.4271
頻繁	-11.4271
適用於	-11.4272
修订	-11.4276
預防	-11.4277
起源于	-11.428
传教士	-11.4285
│	-11.4285
購入	-11.4286
斩	-11.4286
巡迴	-11.4286
情节	-11.429
參觀	-11.4292
世界上最	-11.4294
库尔	-11.4294
明亮	-11.4295
极限	-11.4295
物業	-11.4299
驶	-11.4299
绑	-11.43
犧牲	-11.43
林业	-11.4302
抗戰	-11.4307
神戶	-11.4309
men	-11.4312
煎	-11.4314
第十二	-11.4314
大嶼山	-11.4315
廓	-11.4315
冒險	-11.4315
季节	-11.4317
医药	-11.4323
囚	-11.4327
2.2	-11.4328
开封	-11.4329
莞	-11.4329
僕	-11.433
閩南語	-11.4331
電視節目	-11.4332
夸	-11.4337
漳州	-11.4338
君主制	-11.4339
千瓦	-11.434
偕	-11.4345
榴	-11.4345
栗	-11.4345
樞	-11.4348
第一届	-11.4349
歸類	-11.4353
产值	-11.4356
觀看	-11.4359
格兰特	-11.4359
致力于	-11.4359
颂	-11.436
彬	-11.436
土著	-11.4361
武漢	-11.4362
宿主	-11.4365
相傳	-11.4366
继任	-11.4367
存活	-11.4368
盪	-11.4375
夫妻	-11.4375
牟	-11.4375
瑶	-11.4375
sky	-11.4379
表現出	-11.4381
ish	-11.4385
藤原	-11.4388
欖	-11.4389
power	-11.439
闡	-11.439
懷孕	-11.439
腐败	-11.4391
聪	-11.4391
解放軍	-11.4392
電動	-11.4393
5°	-11.4394
标志着	-11.4396
緊張	-11.4398
场景	-11.4399
园区	-11.4401
able	-11.4404
塞尔维亚	-11.4404
鍋	-11.4404
厢	-11.4405
睿	-11.4405
评估	-11.4405
營業	-11.4407
相望	-11.4413
伍德	-11.4418
第四次	-11.4418
禱	-11.442
譴責	-11.442
_13	-11.4425
被授予	-11.443
差别	-11.443
区间	-11.4432
徹	-11.4433
晶體	-11.4433
平均每	-11.4435
之际	-11.4435
棱	-11.4435
籌備	-11.4438
职责	-11.4441
ham	-11.4444
戰車	-11.4446
公益	-11.4447
太極	-11.4448
承诺	-11.4449
旗帜	-11.445
政委	-11.4451
论坛	-11.4454
據點	-11.4455
權益	-11.4456
夺得	-11.4462
刑法	-11.4463
與此同時	-11.4465
创始人	-11.4465
酰	-11.4465
互聯網	-11.4465
八路军	-11.4468
工藝	-11.4469
黑龙江省	-11.4471
讲述	-11.4472
立法局	-11.4472
之乱	-11.4474
穿过	-11.4474
南岸	-11.4475
壽命	-11.4478
乾隆帝	-11.4478
只需	-11.4479
纂	-11.448
超新星	-11.448
连任	-11.4482
播映	-11.4483
围绕	-11.4483
醬	-11.4495
砌	-11.4496
冤	-11.4496
莱茵	-11.4498
pal	-11.4505
的日子	-11.4506
範疇	-11.4511
开辟	-11.4515
史上最	-11.4516
标记	-11.4516
数据库	-11.4519
頒布	-11.452
國家公園	-11.4524
叙利亚	-11.4526
畜牧	-11.4527
ting	-11.453
很難	-11.4534
满族	-11.4534
祖母	-11.4538
冠狀病毒	-11.454
丟	-11.4542
电磁	-11.4544
另一位	-11.4544
斯頓	-11.4546
违反	-11.4549
条件下	-11.4551
培训	-11.4554
神父	-11.4554
蹄	-11.4556
维多利亚	-11.4557
unicode	-11.4557
责	-11.4557
潜艇	-11.4558
gnu	-11.4561
环绕	-11.4574
改裝	-11.4575
社团	-11.4576
擴	-11.4576
平息	-11.4577
码头	-11.4581
便宜	-11.4587
粟	-11.4588
幽默	-11.4589
罕見	-11.4591
裁定	-11.4591
淮河	-11.4593
way	-11.4595
失望	-11.4598
開創	-11.4599
岁的人口为	-11.4601
亚美尼亚	-11.4602
呼吁	-11.4603
屡	-11.4604
刘邦	-11.4605
习俗	-11.4606
布萊	-11.4607
陕西省	-11.461
衡阳	-11.4611
阿波罗	-11.4618
瓣	-11.4618
歐陽	-11.4619
读书	-11.4623
管治	-11.4625
激光	-11.4627
判定	-11.4632
辛亥革命	-11.4634
特洛伊	-11.4634
虚拟	-11.4634
燃烧	-11.4635
大氣層	-11.4636
遷往	-11.4637
仁宗	-11.4639
▁col	-11.4646
護照	-11.4648
巡洋舰	-11.4649
海王星	-11.4649
饱	-11.4649
季後賽	-11.4649
壹	-11.4649
先進	-11.4649
輿論	-11.465
負擔	-11.465
車廂	-11.4653
北纬	-11.4657
万人次	-11.4658
致命	-11.4664
吉隆坡	-11.4664
楠	-11.4665
敘利亞	-11.4665
遗迹	-11.4667
嘉義縣	-11.467
陰蒂	-11.4671
行政機關	-11.4671
集結	-11.4672
威尔士	-11.4672
方針	-11.4675
火车站	-11.4677
否決	-11.4678
电报	-11.468
part	-11.468
異常	-11.4682
青春	-11.4683
_14	-11.4683
英屬	-11.4688
瞬	-11.4695
承受	-11.4696
港督	-11.4696
彦	-11.4696
流浪	-11.4697
預備	-11.47
战胜	-11.4701
原創	-11.4702
亮度	-11.4703
你们	-11.4707
想像	-11.471
可以追溯到	-11.4711
天然气	-11.4712
西西里	-11.4712
轟炸	-11.4721
容許	-11.4722
广播电视	-11.473
key	-11.4732
施加	-11.474
認爲	-11.4741
競技	-11.4743
浑	-11.4744
始建于	-11.4744
樊	-11.4744
奧斯卡	-11.4745
商务	-11.4748
環球	-11.4754
受害者	-11.4757
壬	-11.4758
没有任何	-11.4758
爵位	-11.476
光谱	-11.476
{	-11.4763
吉林省	-11.4764
季節	-11.4766
当然	-11.4766
驱	-11.4767
仪器	-11.4771
差別	-11.4774
英寸	-11.4777
动词	-11.4778
表现出	-11.4781
南京大学	-11.4781
乡镇	-11.4782
主办	-11.4786
职工	-11.4787
延伸至	-11.4788
參見	-11.4788
api	-11.4788
开办	-11.4789
芜	-11.4789
抒	-11.479
檐	-11.479
1868	-11.479
圖像	-11.4792
反革命	-11.4794
驅動	-11.4794
喪失	-11.4794
毕业于	-11.4799
黑龙江	-11.48
社会科学	-11.4801
贛	-11.4804
紛	-11.4805
钙	-11.4805
宠	-11.4806
駿	-11.4806
元朗	-11.4808
變更	-11.4811
自行车	-11.4812
丞	-11.4813
履	-11.4814
營養	-11.4816
马萨诸塞	-11.482
綿	-11.4821
child	-11.4822
阻力	-11.4824
场合	-11.4827
1894	-11.4827
岁及以上的人口为	-11.4835
骨骼	-11.4836
尘	-11.4837
佬	-11.4837
始祖	-11.4837
ire	-11.4837
谦	-11.4838
登堡	-11.484
官吏	-11.4845
数目	-11.485
缴	-11.4853
剩餘	-11.4855
漢朝	-11.4855
流程	-11.4856
採訪	-11.4856
議長	-11.4859
复制	-11.486
层次	-11.4862
農村	-11.4863
车队	-11.4866
復活	-11.4867
馬英九	-11.4868
途徑	-11.4869
文藝	-11.4871
知识分子	-11.4872
len	-11.488
火车	-11.4888
图书	-11.4891
_15	-11.4895
寸	-11.4896
1865	-11.4898
強迫	-11.4899
廚	-11.49
仑	-11.49
封锁	-11.4903
unix	-11.4905
皇太子	-11.4906
俄语	-11.4915
檀	-11.4916
娥	-11.4916
赋予	-11.4917
电池	-11.4919
营养	-11.493
溴	-11.4931
体育场	-11.4932
蒙古族	-11.4935
傳承	-11.494
霍尔	-11.4942
核武器	-11.4946
釀	-11.4947
摔	-11.4947
曲目	-11.4948
牺牲	-11.4948
會談	-11.4951
掀起	-11.4953
揮	-11.4954
茎	-11.4963
羞	-11.4964
最终幻想	-11.4965
施政	-11.4966
被列为	-11.4968
金鐘	-11.4968
6000	-11.4973
相差	-11.4975
2.3	-11.4977
紐約市	-11.4978
吋	-11.4979
ü	-11.498
混凝土	-11.498
環繞	-11.4981
恶化	-11.4982
飛行員	-11.4986
字典	-11.4986
6.5	-11.4988
設計師	-11.4993
迁往	-11.4994
舖	-11.4995
峨	-11.4996
巩固	-11.4996
查爾斯	-11.4996
好評	-11.4998
表达式	-11.4998
北洋政府	-11.4998
紧密	-11.5002
季风气候	-11.5011
羲	-11.5012
丢	-11.5012
祸	-11.5012
圍繞	-11.5013
某個	-11.5015
曾一度	-11.5016
村落	-11.5017
變形	-11.5017
局势	-11.5019
機槍	-11.5021
万历	-11.5023
野战军	-11.5027
濾	-11.5027
下議院	-11.5027
紳	-11.5028
带着	-11.5028
弼	-11.5029
液体	-11.5031
3.1	-11.5033
right	-11.5033
data	-11.5037
外交政策	-11.5041
爪	-11.5043
傳教士	-11.5043
知名度	-11.5044
擒	-11.5045
暂时	-11.5046
守護	-11.5047
夜間	-11.5047
折射	-11.5055
潮流	-11.5056
1862	-11.5057
陵墓	-11.5059
辦事處	-11.5059
溢	-11.506
塾	-11.506
绳	-11.506
竞赛	-11.506
揭露	-11.5063
地级市	-11.5065
会导致	-11.5067
bbs	-11.5068
人民幣	-11.5068
ure	-11.5069
name	-11.507
战败	-11.5077
灵魂	-11.5078
變動	-11.5079
儀器	-11.508
马丁	-11.5082
社会党	-11.509
肿	-11.5091
椒	-11.5092
悅	-11.5108
拉丁美洲	-11.5109
眷	-11.5109
飲料	-11.5111
彰化縣	-11.5112
辽东	-11.5112
继位	-11.5114
研发	-11.5117
獲勝	-11.512
閒	-11.5124
矽	-11.5124
墮	-11.5124
谨	-11.5125
矩陣	-11.5125
代碼	-11.5127
病情	-11.5129
體育館	-11.5129
塌	-11.5139
1861	-11.514
〉、〈	-11.514
巴比伦	-11.514
垦	-11.5141
难民	-11.5149
高速铁路	-11.5149
mini	-11.5151
mark	-11.5152
進駐	-11.5153
激進	-11.5156
账	-11.5157
新四军	-11.5157
pol	-11.5165
忽必烈	-11.5174
志願	-11.5175
鄭成功	-11.5178
破裂	-11.518
綜	-11.5182
典礼	-11.5183
車廠	-11.5184
非常重要	-11.5185
糊	-11.5188
栋	-11.5189
標記	-11.5189
侶	-11.519
陝西	-11.5191
筹备	-11.5192
撞击	-11.5192
終身	-11.5202
arch	-11.5203
緊密	-11.5204
劲	-11.5206
暹	-11.5207
调节	-11.5214
巡演	-11.5217
一連串	-11.5222
虧	-11.5222
兀	-11.5223
猛烈	-11.5224
法规	-11.5227
轄區	-11.5231
增援	-11.5231
烃	-11.5238
蔚	-11.5238
缪	-11.5239
濤	-11.5239
魁北克	-11.5239
匀	-11.5239
憾	-11.5239
碗	-11.5239
毕业生	-11.524
環保	-11.524
无穷	-11.5244
永乐	-11.5249
接駁	-11.525
垮	-11.5255
侣	-11.5255
憤	-11.5256
深圳市	-11.5257
约占	-11.5262
陶器	-11.5262
tom	-11.5265
手稿	-11.5266
虾	-11.5271
壩	-11.5271
publi	-11.5271
虔	-11.5272
耆	-11.5272
介面	-11.5273
剧情	-11.528
普通话	-11.528
牧師	-11.5282
条款	-11.5286
炮兵	-11.5286
腫	-11.5288
擲	-11.5288
叱	-11.5288
啦	-11.5288
缝	-11.5288
慨	-11.5288
攝氏	-11.5292
肖像	-11.5294
出入口	-11.5295
戌	-11.5304
鬧	-11.5304
纜	-11.5304
交汇	-11.5305
沁	-11.5305
视觉	-11.5307
金額	-11.5312
指標	-11.5313
洽	-11.5321
临床	-11.5324
gar	-11.5325
遺體	-11.5327
反复	-11.5328
硬體	-11.533
固体	-11.5333
局限	-11.5335
甄	-11.5338
贷款	-11.5339
登记	-11.5339
每秒	-11.534
褐色	-11.534
中国大陸	-11.5342
嵌入	-11.5347
礦物	-11.5351
絡	-11.5351
慢性	-11.5351
毕业后	-11.5352
滯	-11.5354
嗎	-11.5354
惹	-11.5354
贖	-11.5354
希腊语	-11.536
着陆	-11.5363
奉命	-11.5365
簧	-11.537
氨基酸	-11.537
赫鲁晓夫	-11.5371
滥	-11.5371
匾	-11.5371
講述	-11.5372
師團	-11.5382
應付	-11.5386
堯	-11.5387
pan	-11.5389
甲烷	-11.5391
意识到	-11.5391
强迫	-11.5396
颁	-11.5397
class	-11.5404
鳳凰	-11.5404
諷刺	-11.5404
鞏固	-11.5404
凭借	-11.5405
絕大多數	-11.5407
衔	-11.541
应用程序	-11.5411
开创	-11.5414
路徑	-11.5418
锌	-11.5421
冻	-11.5421
滲	-11.5421
晃	-11.5421
車路士	-11.5421
声调	-11.5424
手术	-11.5426
bra	-11.5428
1866	-11.5437
1885	-11.5437
緻	-11.5437
黜	-11.5438
淚	-11.5438
敗給	-11.5438
欣賞	-11.5439
侍郎	-11.5441
種種	-11.5442
更换	-11.5448
質數	-11.5449
委员长	-11.545
闰	-11.5455
协商	-11.5456
手槍	-11.5458
英皇	-11.5458
履行	-11.5462
毫无	-11.5463
焰	-11.5468
全国重点文物保护单位	-11.5471
潛艇	-11.5472
委托	-11.5473
独裁	-11.5474
內陸	-11.5475
拉丁語	-11.548
1887	-11.5484
虑	-11.5486
沼	-11.5487
斯洛伐克	-11.5487
樟	-11.5487
俯	-11.5488
直轄市	-11.5488
飞船	-11.549
立法會議員	-11.549
否则	-11.5495
框	-11.5498
晋升	-11.5502
第十三	-11.5503
濁	-11.5504
amd	-11.5505
艰	-11.5505
单曲	-11.5508
经费	-11.5509
激进	-11.551
清洗	-11.5511
攜	-11.5511
祂	-11.5521
繩	-11.5521
虛構	-11.5522
冶金	-11.5532
內政部	-11.5532
2.7	-11.5532
沂	-11.5538
盎	-11.5538
信念	-11.5545
社会学	-11.5547
所用的	-11.555
销量	-11.555
撲	-11.5555
靡	-11.5556
國民革命軍	-11.5556
广义	-11.5557
press	-11.5557
製品	-11.5557
收益	-11.5559
封閉	-11.556
命運	-11.5562
胡適	-11.5563
贏	-11.5567
参谋	-11.5569
吞吐量	-11.5572
煽	-11.5572
聂	-11.5572
百分之	-11.5573
奇幻	-11.5574
貨物	-11.5574
困境	-11.5575
歌舞	-11.5584
鑽	-11.5585
總監	-11.5587
注射	-11.5587
嫌	-11.5588
槟	-11.5589
嵩	-11.5589
岱	-11.5589
戍	-11.559
鑒	-11.559
干擾	-11.5591
修筑	-11.5597
传媒	-11.56
溯	-11.5605
神圣罗马帝国	-11.5606
吟	-11.5606
刘少奇	-11.5607
歷經	-11.5622
醋	-11.5623
睡眠	-11.5623
江流域	-11.5624
陇	-11.5624
補給	-11.5625
录制	-11.5632
百貨	-11.5634
多项式	-11.564
協商	-11.564
鋼琴	-11.5643
参赛	-11.5648
畔	-11.5657
瘋	-11.5657
維也納	-11.5657
三分之二	-11.5657
隕石	-11.5657
滿洲	-11.5663
东欧	-11.5671
型机车	-11.5672
1889	-11.5682
攻破	-11.5691
尖沙咀	-11.5691
艱	-11.5692
会谈	-11.5692
繪製	-11.5693
光碟	-11.5693
武術	-11.5695
交涉	-11.5708
滚	-11.5708
糾	-11.5709
鐸	-11.5709
緩慢	-11.571
努尔哈赤	-11.571
http	-11.571
奥尔良	-11.571
辩论	-11.5711
圆形	-11.5716
香港電台	-11.5717
内陆	-11.5723
縫	-11.5725
胡耀邦	-11.5726
狩	-11.5726
皮肤	-11.5727
青衣	-11.5727
囚禁	-11.5728
論壇	-11.5731
1884	-11.5731
孩	-11.5733
歷任	-11.5736
富豪	-11.5737
預定	-11.5738
斷層	-11.5741
印度洋	-11.5743
紮	-11.5743
諱	-11.5743
處決	-11.5744
病例	-11.5748
万亩	-11.5748
尸	-11.5757
偵	-11.5758
刻意	-11.576
冷戰	-11.576
骗	-11.5761
不列顛	-11.5761
仆	-11.5761
說服	-11.5762
存放	-11.5765
嗜	-11.5778
婿	-11.5778
棣	-11.5779
緝	-11.5795
轰	-11.5813
猿	-11.583
笼	-11.583
愉	-11.583
沧	-11.583
釐	-11.583
晏	-11.583
煩	-11.5831
睦	-11.5848
堰	-11.5849
弯	-11.5864
捨	-11.5882
穎	-11.5882
斧	-11.5882
汾	-11.5884
敷	-11.59
菸	-11.5917
λ	-11.5935
碍	-11.5935
兇	-11.5935
矛	-11.5935
倖	-11.5935
鈉	-11.5953
腊	-11.5969
耿	-11.5971
搏	-11.5988
о	-11.5988
蕴	-11.6005
妄	-11.6006
繫	-11.6039
雾	-11.6041
谣	-11.6041
茹	-11.6058
颖	-11.606
硒	-11.6112
厌	-11.6112
沦	-11.6113
凿	-11.6113
彙	-11.6128
@	-11.613
棵	-11.6166
蝶	-11.6183
姦	-11.6184
鈣	-11.6202
羚	-11.6202
飼	-11.6238
胰	-11.6256
挡	-11.6257
旬	-11.6274
闵	-11.6276
滬	-11.6276
脏	-11.628
携	-11.6316
鈔	-11.6329
誦	-11.633
奠	-11.6345
壢	-11.6347
酪	-11.6384
洩	-11.6385
祷	-11.6385
硕	-11.6399
袖	-11.6401
兌	-11.6421
郝	-11.644
霄	-11.644
璧	-11.644
萃	-11.6458
渗	-11.6459
绣	-11.6459
諭	-11.646
緬	-11.6477
熵	-11.6477
暢	-11.6487
坟	-11.6496
斡	-11.6497
爛	-11.6514
腎	-11.6514
蚊	-11.6532
塚	-11.6532
夭	-11.6533
滞	-11.6533
鹹	-11.6533
妨	-11.6551
犀	-11.6551
傘	-11.6589
钓	-11.6589
窑	-11.6589
餓	-11.6589
傣	-11.6589
帥	-11.6593
販	-11.6607
捍	-11.6627
苛	-11.6627
笙	-11.6646
饒	-11.6646
皓	-11.6647
姻	-11.6653
棘	-11.6664
挤	-11.6665
岑	-11.6665
焕	-11.6684
涡	-11.6702
啊	-11.6703
哉	-11.6703
圳	-11.6719
诊	-11.672
厘	-11.6735
涛	-11.674
璋	-11.6741
喘	-11.6759
哨	-11.6779
卸	-11.6793
撕	-11.6798
尧	-11.6798
肽	-11.6836
噪	-11.6852
蕩	-11.6875
膝	-11.6895
雉	-11.6895
γ	-11.6913
贼	-11.6914
钧	-11.6914
π	-11.6933
竊	-11.6933
綏	-11.6934
笨	-11.6953
誅	-11.6953
帐	-11.6953
嬰	-11.6972
敛	-11.6972
驰	-11.6991
禎	-11.6992
陛	-11.6995
妈	-11.7031
陡	-11.7031
笠	-11.705
祚	-11.7051
憶	-11.7065
酱	-11.707
晤	-11.707
賺	-11.7089
稠	-11.709
卯	-11.709
擇	-11.7105
辑	-11.7108
厦	-11.7113
の	-11.715
衆	-11.7169
锥	-11.7169
誇	-11.7169
褲	-11.7169
捧	-11.7169
詐	-11.7169
侖	-11.7209
硝	-11.7247
乍	-11.7269
浚	-11.7269
瞻	-11.727
臘	-11.7287
胥	-11.7291
ó	-11.7309
傭	-11.7309
裙	-11.731
够	-11.7314
礙	-11.7349
瀕	-11.735
摸	-11.735
閻	-11.7352
稷	-11.7366
飢	-11.737
殆	-11.7371
匣	-11.739
浊	-11.739
臥	-11.739
鋁	-11.7411
蒼	-11.7411
潼	-11.7411
盔	-11.7411
и	-11.7431
沾	-11.7432
轩	-11.7452
衢	-11.7452
愁	-11.7452
ö	-11.7472
叹	-11.7473
媒	-11.7521
悠	-11.7533
隅	-11.7534
篆	-11.7554
顛	-11.7555
炯	-11.7555
悦	-11.7575
栓	-11.7637
擱	-11.7658
稜	-11.7659
賄	-11.7659
琉	-11.7675
刮	-11.7679
衫	-11.7679
腥	-11.768
沽	-11.7701
疹	-11.7721
闖	-11.7722
ー	-11.7722
刪	-11.7726
吗	-11.7744
豚	-11.7755
繹	-11.7763
綴	-11.7763
】	-11.7763
煥	-11.7785
苟	-11.7785
徙	-11.7805
【	-11.7806
弈	-11.7848
梗	-11.7848
朽	-11.7848
佗	-11.787
爸	-11.787
剥	-11.787
衞	-11.787
腕	-11.7891
膛	-11.7934
潟	-11.7934
雯	-11.7955
攤	-11.7955
竺	-11.7956
鄒	-11.7976
聶	-11.7977
闲	-11.7977
曜	-11.7977
邏	-11.7977
諜	-11.7998
菁	-11.7998
疯	-11.7999
娄	-11.7999
贩	-11.7999
灶	-11.7999
邹	-11.7999
枕	-11.8
彝	-11.8016
赌	-11.802
癸	-11.8042
蒜	-11.8042
跪	-11.8043
驼	-11.8043
巳	-11.8063
肾	-11.8085
淤	-11.8085
碩	-11.8103
萎	-11.8107
瀛	-11.8107
皋	-11.8108
諫	-11.8108
帅	-11.8118
н	-11.8129
綽	-11.8129
竿	-11.8151
恥	-11.8151
噬	-11.8151
贿	-11.8151
澜	-11.8173
嘎	-11.8195
刃	-11.8195
磺	-11.8195
帛	-11.8196
汴	-11.8196
雏	-11.8197
蛙	-11.8217
粥	-11.8218
咎	-11.8218
镶	-11.8239
懲	-11.8239
酉	-11.8239
霹	-11.8239
硼	-11.8261
豎	-11.8261
刹	-11.8284
邢	-11.8306
遏	-11.8307
渾	-11.8308
隼	-11.8328
蠟	-11.8328
咤	-11.8328
喙	-11.835
琛	-11.8351
竇	-11.8372
檬	-11.8373
谕	-11.8373
闹	-11.8373
•	-11.8394
禦	-11.8395
咽	-11.8417
楓	-11.8418
í	-11.8418
懼	-11.8419
雛	-11.844
脾	-11.8441
扑	-11.8463
椰	-11.8485
赔	-11.8486
逗	-11.8486
ä	-11.8486
讷	-11.8508
膳	-11.8508
竖	-11.8508
鴉	-11.8528
挪	-11.8529
崑	-11.8531
釷	-11.8531
惰	-11.8554
柑	-11.8554
厲	-11.8554
酚	-11.8554
栈	-11.8554
铃	-11.8577
绎	-11.8577
峭	-11.8577
菇	-11.8599
奢	-11.86
佚	-11.86
伞	-11.8623
坠	-11.8623
攬	-11.8624
^	-11.8645
萝	-11.8646
朕	-11.8647
兑	-11.8669
屑	-11.8669
瓯	-11.8669
±	-11.8692
畝	-11.8692
炬	-11.8692
甬	-11.8714
檳	-11.8715
橄	-11.8715
榔	-11.8738
羟	-11.8739
駒	-11.8739
唤	-11.8739
冉	-11.874
瞄	-11.8785
挥	-11.8802
淘	-11.8809
蘊	-11.8856
嘆	-11.8879
簿	-11.888
烦	-11.888
鎳	-11.8903
蔑	-11.8903
浏	-11.8903
铀	-11.8903
爷	-11.8903
〇	-11.8924
摺	-11.8926
驿	-11.8927
孵	-11.8927
昼	-11.895
溺	-11.8951
釘	-11.8974
陋	-11.8975
掘	-11.8993
侬	-11.9022
瑾	-11.9023
誼	-11.9045
哩	-11.9046
鈞	-11.9048
胱	-11.907
狸	-11.907
р	-11.907
隘	-11.9071
稚	-11.9071
е	-11.9094
坍	-11.9094
鞅	-11.9094
缠	-11.9094
垒	-11.9117
廬	-11.912
歧	-11.9126
緒	-11.9135
综	-11.9135
樱	-11.9142
泵	-11.9142
谍	-11.9142
莆	-11.9143
栽	-11.9162
靶	-11.9166
狙	-11.9167
壺	-11.9167
閔	-11.9167
愤	-11.9192
剃	-11.9192
婴	-11.9215
肛	-11.924
钥	-11.924
榕	-11.924
钩	-11.924
砷	-11.9264
鈦	-11.9264
卉	-11.9265
縛	-11.9265
鍊	-11.9289
姨	-11.9289
軼	-11.9289
琰	-11.9313
夥	-11.9313
麾	-11.9314
祕	-11.9338
ο	-11.9338
豁	-11.9339
纖	-11.9361
謨	-11.9363
聆	-11.9363
匙	-11.9363
撼	-11.9363
蜡	-11.9363
斃	-11.9388
麒	-11.9388
聿	-11.9388
苔	-11.9388
崁	-11.9412
缮	-11.9413
绒	-11.9415
鋰	-11.9438
烂	-11.9463
暱	-11.9463
烘	-11.9463
戮	-11.9463
阎	-11.9464
菩	-11.9485
塢	-11.9513
诛	-11.9515
瞿	-11.954
嬪	-11.9563
鹵	-11.9564
澱	-11.9564
癒	-11.9588
ン	-11.9589
荔	-11.9613
莖	-11.9613
証	-11.9614
颠	-11.9614
讳	-11.9614
缆	-11.9639
锂	-11.964
砸	-11.964
蟻	-11.964
籤	-11.9664
蒐	-11.9665
咀	-11.9665
瑤	-11.9665
敞	-11.9691
妝	-11.9691
钞	-11.9691
绅	-11.9716
鉑	-11.9716
謎	-11.9716
δ	-11.9716
骆	-11.9717
諒	-11.9717
阐	-11.974
泣	-11.9742
倩	-11.9743
铯	-11.9767
幂	-11.9768
枣	-11.9793
繆	-11.9794
妒	-11.9794
隧	-11.981
荫	-11.982
靼	-11.982
鑿	-11.9845
ε	-11.9872
葫	-11.9872
汲	-11.9872
溜	-11.9872
扔	-11.9872
帧	-11.9873
錐	-11.9897
濮	-11.9897
谟	-11.9898
廈	-11.9918
糯	-11.9923
寰	-11.9924
毋	-11.9924
恺	-11.9924
饿	-11.9924
吵	-11.995
谏	-11.9952
釣	-11.9975
络	-11.9977
谅	-11.9978
鉅	-12.0002
彪	-12.0024
鑰	-12.0029
洼	-12.0029
侏	-12.0056
淇	-12.0056
厨	-12.0056
赎	-12.0082
勻	-12.0082
捆	-12.0082
薰	-12.0083
泾	-12.0083
瑙	-12.0108
蜥	-12.0108
莒	-12.0109
蔥	-12.0135
謬	-12.0135
蔭	-12.0136
枫	-12.0136
廁	-12.0136
耻	-12.0137
嶽	-12.0162
盼	-12.0163
堀	-12.0189
霆	-12.0216
襪	-12.0216
鉀	-12.0216
拦	-12.0216
畲	-12.0217
甦	-12.027
氙	-12.027
艳	-12.0271
淄	-12.0271
靴	-12.0271
湄	-12.0298
с	-12.0298
粹	-12.032
窃	-12.0325
沅	-12.0325
葱	-12.0352
匈	-12.0352
瑛	-12.0352
嘱	-12.0352
驕	-12.0353
繡	-12.0353
鞏	-12.0379
醣	-12.038
醚	-12.038
瘧	-12.0406
啓	-12.0407
泼	-12.0407
诵	-12.0408
沮	-12.0434
拷	-12.0435
柜	-12.0435
煞	-12.0462
埕	-12.0462
毓	-12.0462
阪	-12.0463
閥	-12.0484
穹	-12.049
倦	-12.049
亏	-12.049
к	-12.049
渥	-12.049
逻	-12.049
璽	-12.049
绛	-12.0517
哮	-12.0517
垫	-12.0518
毯	-12.0518
歉	-12.053
肋	-12.0545
裤	-12.0546
诈	-12.0546
鰭	-12.0573
泸	-12.0574
昧	-12.0575
蕉	-12.06
蟬	-12.0601
锑	-12.0601
暮	-12.0602
恕	-12.063
楞	-12.063
槃	-12.0631
攸	-12.0658
ν	-12.0658
謊	-12.0658
饑	-12.0658
毙	-12.0659
躁	-12.0686
兜	-12.0686
攏	-12.0687
篷	-12.0714
瀏	-12.0714
灸	-12.0714
冗	-12.0715
荃	-12.0741
驯	-12.0743
泪	-12.0743
卦	-12.0768
笃	-12.0771
唸	-12.0799
憩	-12.08
苷	-12.08
酥	-12.08
樵	-12.0801
鳍	-12.0828
扯	-12.0829
蕊	-12.0829
铎	-12.0829
栅	-12.0829
孀	-12.0829
氡	-12.0857
歪	-12.0857
錒	-12.0857
瀨	-12.0857
皂	-12.0858
饥	-12.0915
锤	-12.0915
奚	-12.0915
珪	-12.0916
梳	-12.0916
芷	-12.0916
湊	-12.0943
芹	-12.0945
竞	-12.0967
犁	-12.0969
婷	-12.0973
拌	-12.0973
枋	-12.0973
鳩	-12.0973
囑	-12.0974
嘗	-12.0999
悄	-12.1003
蚕	-12.1003
薦	-12.103
粽	-12.1032
厉	-12.1087
嬴	-12.109
澀	-12.1119
鄱	-12.112
甥	-12.1149
瀋	-12.115
楔	-12.115
汙	-12.1179
孢	-12.1179
裘	-12.1179
埤	-12.118
頑	-12.118
咪	-12.118
翟	-12.118
敖	-12.1203
咏	-12.1208
飄	-12.1208
咐	-12.1209
丐	-12.1238
螢	-12.1268
疟	-12.1269
錶	-12.1269
峪	-12.1269
媚	-12.1269
擄	-12.1269
綢	-12.1298
憐	-12.1299
牒	-12.13
绰	-12.1329
賠	-12.1329
箕	-12.1329
馨	-12.1359
惱	-12.136
檸	-12.1389
伶	-12.1389
燭	-12.1419
儉	-12.1419
孺	-12.1419
ω	-12.1419
霉	-12.1419
鲨	-12.145
晦	-12.145
醜	-12.145
俸	-12.1451
戛	-12.1451
懋	-12.1451
纤	-12.1479
纱	-12.148
嘯	-12.1481
墊	-12.1481
嫉	-12.1481
妆	-12.1481
涿	-12.1481
倘	-12.1511
簇	-12.1511
τ	-12.1511
恤	-12.1511
蔗	-12.1541
鯉	-12.1542
諷	-12.1572
è	-12.1573
飘	-12.1573
稼	-12.1574
峇	-12.1604
鎌	-12.1604
潑	-12.1604
袜	-12.1635
沱	-12.1635
宦	-12.1657
筛	-12.1666
吠	-12.1666
憎	-12.1667
扈	-12.1667
漕	-12.1667
溧	-12.1667
柵	-12.1697
焊	-12.1698
茜	-12.1728
揆	-12.1729
賤	-12.1729
抨	-12.1759
戳	-12.176
炫	-12.176
愧	-12.176
筠	-12.1761
毆	-12.1791
妊	-12.1792
鈺	-12.1792
岷	-12.1792
逵	-12.1793
钊	-12.1794
氹	-12.1823
荼	-12.1823
鑲	-12.1823
颅	-12.1824
尝	-12.1824
删	-12.184
吓	-12.1856
剖	-12.1866
涯	-12.1883
悍	-12.1886
喃	-12.1887
槐	-12.1887
曙	-12.1887
壶	-12.1887
颐	-12.1887
誡	-12.1887
钉	-12.1887
哆	-12.1887
庾	-12.1919
馈	-12.1919
○	-12.1919
岔	-12.1919
酗	-12.1919
佃	-12.192
瑁	-12.192
罹	-12.1949
秩	-12.1949
屿	-12.1949
胖	-12.195
羧	-12.195
涪	-12.195
轎	-12.1951
掷	-12.1983
杞	-12.1983
躺	-12.1984
蠢	-12.2015
螂	-12.2048
拙	-12.2048
挾	-12.2048
翡	-12.2048
臼	-12.208
叮	-12.208
惩	-12.208
暇	-12.208
瓮	-12.2081
鵰	-12.2081
骂	-12.2081
彤	-12.2112
詛	-12.2112
痘	-12.2113
谊	-12.2143
輿	-12.2143
鄙	-12.2145
赢	-12.2174
儘	-12.2174
荐	-12.2177
莓	-12.2178
媳	-12.2179
鈹	-12.2211
в	-12.2211
蒿	-12.2212
芥	-12.2245
濂	-12.2245
擢	-12.2245
臧	-12.2245
渴	-12.2276
呆	-12.2277
襯	-12.2277
鞘	-12.231
僻	-12.231
т	-12.231
绸	-12.2311
轅	-12.2312
槿	-12.2344
逍	-12.2344
冢	-12.2377
陨	-12.2378
樑	-12.241
艷	-12.241
闯	-12.2411
ρ	-12.2411
匆	-12.2411
ú	-12.2444
缚	-12.2445
缉	-12.2445
鹘	-12.2445
剔	-12.2479
啸	-12.2479
贷	-12.2512
迂	-12.2513
汐	-12.2546
ι	-12.2546
咳	-12.2546
奘	-12.2546
鱗	-12.2547
脅	-12.2579
绞	-12.2581
摊	-12.2581
沌	-12.2581
姪	-12.2614
魄	-12.2615
耦	-12.2648
碲	-12.2649
鳌	-12.2649
吒	-12.2649
麽	-12.2683
鋅	-12.2683
镭	-12.2683
糙	-12.2718
戟	-12.2718
玳	-12.2719
豈	-12.2719
壤	-12.274
堕	-12.2753
驴	-12.2787
陌	-12.2788
灑	-12.2788
苓	-12.2788
紗	-12.2788
澎	-12.282
ë	-12.2822
い	-12.2823
灼	-12.2823
鶯	-12.2823
舵	-12.2823
▌	-12.2823
巖	-12.2823
唾	-12.2858
昊	-12.2859
蕨	-12.2892
偃	-12.2893
镓	-12.2893
齣	-12.2893
л	-12.2893
俭	-12.2894
鞠	-12.2928
颶	-12.2928
轼	-12.2929
鄴	-12.293
邯	-12.293
扳	-12.2964
娟	-12.2964
谜	-12.2999
妍	-12.2999
鬚	-12.2999
倆	-12.2999
咨	-12.3
僭	-12.3
迥	-12.3035
樺	-12.307
珲	-12.3071
鈕	-12.3071
顽	-12.3072
廂	-12.3097
鉤	-12.3106
菠	-12.3106
巩	-12.3106
輾	-12.3107
褚	-12.3107
焘	-12.3107
嬌	-12.3143
瀉	-12.3143
襟	-12.3144
隴	-12.3144
拐	-12.3179
檻	-12.3179
磐	-12.3179
φ	-12.3179
炙	-12.3179
驛	-12.3179
茫	-12.3179
韬	-12.3179
婢	-12.318
壕	-12.318
楨	-12.3216
柩	-12.3218
芋	-12.3252
黯	-12.3252
祺	-12.3252
谬	-12.3253
滸	-12.3253
覓	-12.3289
鲤	-12.3289
篩	-12.3289
猷	-12.3289
狠	-12.3289
蚌	-12.329
鸮	-12.329
褐	-12.3322
钮	-12.3325
捏	-12.3325
誣	-12.3325
沐	-12.3326
搁	-12.3326
葆	-12.3326
龚	-12.3361
馏	-12.3362
汛	-12.3362
訶	-12.3363
晖	-12.3364
兮	-12.3399
辗	-12.3399
駱	-12.3436
拂	-12.3436
婭	-12.3436
鸠	-12.3437
籽	-12.3437
纺	-12.3473
郢	-12.3473
霑	-12.3473
氓	-12.3474
桧	-12.3474
嬉	-12.3474
肴	-12.3474
陂	-12.3511
箴	-12.3511
畑	-12.3511
诠	-12.3511
揽	-12.3511
邕	-12.3511
熏	-12.3512
羯	-12.3512
嶄	-12.3548
頤	-12.3549
捞	-12.3549
瀾	-12.355
蔔	-12.3586
糟	-12.3586
晝	-12.3587
渦	-12.3624
溼	-12.3624
阱	-12.3625
惕	-12.3625
荧	-12.3662
轿	-12.3663
牲	-12.3663
瑕	-12.3663
軀	-12.37
鹊	-12.37
稟	-12.3701
窒	-12.3701
姥	-12.3701
衮	-12.3701
择	-12.3737
摹	-12.3739
鎂	-12.3739
矯	-12.3777
浒	-12.3777
嫔	-12.3777
骏	-12.3778
漱	-12.3816
糞	-12.3816
寢	-12.3816
軾	-12.3854
褶	-12.3855
媛	-12.3855
鳞	-12.3855
桀	-12.3855
扼	-12.3855
绪	-12.3882
恬	-12.3893
撈	-12.3893
産	-12.3893
謗	-12.3894
衬	-12.3894
唔	-12.3895
弩	-12.3895
攔	-12.3932
芮	-12.3932
烴	-12.3932
瞞	-12.3932
磯	-12.3933
鞑	-12.3933
掖	-12.3935
磋	-12.3972
癱	-12.3972
揉	-12.3972
賃	-12.3973
酌	-12.3973
惧	-12.3974
膚	-12.401
聳	-12.4011
蠕	-12.4011
锻	-12.4011
鋂	-12.4011
昨	-12.4011
萱	-12.405
雒	-12.4051
滔	-12.4052
飓	-12.409
燦	-12.4091
玺	-12.4091
邳	-12.4091
熹	-12.4129
镁	-12.413
拢	-12.4131
侃	-12.4131
圩	-12.4131
烽	-12.4131
弋	-12.417
遁	-12.4171
骄	-12.4171
靂	-12.421
顎	-12.421
丫	-12.4211
惶	-12.4212
潞	-12.4213
蓟	-12.425
餵	-12.4251
巔	-12.4251
悶	-12.4251
躬	-12.4251
滦	-12.4251
泌	-12.4276
韌	-12.4291
絞	-12.4291
臀	-12.4291
潢	-12.4292
慷	-12.4292
洱	-12.4292
钡	-12.4332
痴	-12.4332
蠶	-12.4333
陝	-12.4333
鸚	-12.4334
鷺	-12.4372
κ	-12.4372
鈽	-12.4373
傻	-12.4373
凋	-12.4373
琐	-12.4413
馴	-12.4413
珥	-12.4414
粱	-12.4414
旌	-12.4454
膩	-12.4455
诃	-12.4456
漓	-12.4496
勛	-12.4496
笈	-12.4496
潍	-12.4496
翊	-12.4497
頡	-12.4497
伺	-12.4497
※	-12.4538
舫	-12.4538
ス	-12.4538
駭	-12.4539
裹	-12.4572
筍	-12.4579
巽	-12.4579
ī	-12.4579
礫	-12.4579
駝	-12.458
洮	-12.458
亳	-12.458
铲	-12.4621
渚	-12.4621
癮	-12.4621
鴿	-12.4621
赚	-12.4622
饋	-12.4663
訝	-12.4663
撓	-12.4664
燊	-12.4664
崧	-12.4664
彧	-12.4664
攘	-12.4664
矚	-12.4705
ا	-12.4705
舷	-12.4705
吩	-12.4706
餡	-12.4706
柬	-12.4706
弛	-12.4706
膑	-12.4706
肘	-12.4706
捻	-12.4706
诬	-12.4707
俑	-12.4747
砚	-12.4748
鋦	-12.4748
榨	-12.4748
暈	-12.4748
沭	-12.4748
祜	-12.4749
耍	-12.479
俐	-12.479
笋	-12.4791
锰	-12.4792
魅	-12.4827
玟	-12.4833
滄	-12.4833
歎	-12.4834
綺	-12.4876
骰	-12.4876
斂	-12.4876
坞	-12.4876
峯	-12.4876
訣	-12.4877
奄	-12.4919
ō	-12.4919
鹭	-12.4919
⁄	-12.4921
鵡	-12.4921
詭	-12.4962
諺	-12.4963
窘	-12.4963
谎	-12.4963
睾	-12.5006
垩	-12.5006
鍛	-12.5006
晕	-12.5006
曬	-12.5006
践	-12.5006
厥	-12.5049
瘓	-12.505
晒	-12.505
懈	-12.505
懇	-12.505
璞	-12.505
龔	-12.505
麝	-12.505
剎	-12.5092
眺	-12.5093
氖	-12.5093
嗅	-12.5093
踩	-12.5094
貂	-12.5094
錘	-12.5137
璐	-12.5137
桨	-12.5138
尬	-12.5138
珞	-12.5138
孽	-12.5181
兖	-12.5181
銥	-12.5182
镕	-12.5182
婁	-12.5182
怜	-12.5183
膺	-12.5183
栱	-12.5226
熾	-12.5226
愷	-12.5228
劭	-12.5231
瞭	-12.524
巒	-12.5271
巍	-12.5271
邺	-12.5272
挨	-12.5272
茱	-12.5315
俚	-12.5315
樁	-12.5315
燮	-12.5316
熄	-12.5316
虜	-12.5355
跤	-12.536
桅	-12.536
埼	-12.5361
圃	-12.5361
闐	-12.5361
茉	-12.5361
〜	-12.5361
躯	-12.5361
澧	-12.5362
慌	-12.5362
鸽	-12.5406
幡	-12.5406
璇	-12.5406
熬	-12.5406
娛	-12.545
陞	-12.5451
遽	-12.5452
瞎	-12.5452
晁	-12.5496
螳	-12.5497
鑼	-12.5497
蟾	-12.5497
暉	-12.5497
雳	-12.5497
蛛	-12.5497
榻	-12.5498
呀	-12.5498
郃	-12.5499
叟	-12.5543
逕	-12.5543
寥	-12.5543
戡	-12.5543
闕	-12.5588
蛾	-12.5589
韧	-12.5589
璜	-12.5589
巅	-12.5589
涝	-12.5589
桩	-12.5589
萼	-12.559
琮	-12.559
阙	-12.559
阀	-12.5627
恢	-12.5632
桔	-12.5635
鍺	-12.5635
惇	-12.5636
賂	-12.5636
荥	-12.564
舆	-12.5681
饲	-12.5681
鉍	-12.5682
薑	-12.5682
鹦	-12.5682
叭	-12.5728
鍍	-12.5728
鎢	-12.5728
饷	-12.5729
淦	-12.573
怠	-12.573
讽	-12.5768
鱷	-12.5775
睞	-12.5775
轶	-12.5775
ē	-12.5776
虏	-12.5818
伎	-12.5822
殯	-12.5823
毘	-12.5823
遴	-12.5823
颍	-12.5823
唆	-12.5824
鍀	-12.587
脖	-12.587
吼	-12.587
挠	-12.587
祉	-12.587
鈮	-12.587
镧	-12.587
诫	-12.5871
訛	-12.5871
瑩	-12.5871
儂	-12.5917
贮	-12.5918
趟	-12.5918
胀	-12.5918
摒	-12.5918
鄞	-12.5918
怯	-12.5919
畸	-12.5965
孛	-12.5965
顫	-12.5965
琥	-12.5965
曠	-12.5966
夔	-12.5966
脹	-12.6013
蘑	-12.6013
钨	-12.6014
跩	-12.6014
锯	-12.6014
呤	-12.6061
煬	-12.6064
槳	-12.611
洒	-12.6111
誹	-12.6111
踐	-12.6153
涩	-12.6159
啶	-12.6159
濠	-12.616
翦	-12.6161
撐	-12.6205
驟	-12.6207
癖	-12.6208
靳	-12.6208
撇	-12.6208
壠	-12.6208
瑋	-12.6208
睢	-12.6208
傍	-12.6255
釔	-12.6257
锶	-12.6257
疍	-12.6258
瑣	-12.6258
遐	-12.6258
碉	-12.6258
餉	-12.6258
鼐	-12.6259
輻	-12.6301
艮	-12.6305
摧	-12.6306
釉	-12.6306
柘	-12.6307
甩	-12.6307
歆	-12.6307
恼	-12.6307
à	-12.6307
祇	-12.6352
攪	-12.6356
豔	-12.6356
η	-12.6357
弔	-12.6357
髻	-12.6357
羁	-12.6358
嘌	-12.6406
殭	-12.6406
â	-12.6406
钛	-12.6407
滁	-12.6407
嫻	-12.6407
澈	-12.6407
莪	-12.6407
苞	-12.6407
亢	-12.6407
瀚	-12.6407
郴	-12.6407
忻	-12.6408
氐	-12.6408
忆	-12.6452
迄	-12.6454
髒	-12.6456
抖	-12.6457
烛	-12.6457
鴕	-12.6457
乒	-12.6457
赂	-12.6457
臻	-12.6457
蚁	-12.6457
徭	-12.6458
耽	-12.6459
滙	-12.6506
鹃	-12.6507
м	-12.6508
羔	-12.6508
贻	-12.6508
劈	-12.6508
桢	-12.6508
嵇	-12.6508
昱	-12.6513
彗	-12.6555
蔓	-12.6557
裳	-12.6558
窯	-12.6558
铬	-12.6558
翘	-12.6558
舺	-12.6558
羰	-12.6558
か	-12.6558
奭	-12.6559
俩	-12.6559
瘫	-12.6559
钵	-12.6559
砹	-12.656
宕	-12.6608
芸	-12.6609
鬍	-12.6609
沥	-12.6609
夯	-12.6609
鐮	-12.661
踞	-12.661
淅	-12.661
歙	-12.661
樽	-12.6611
螯	-12.666
箔	-12.666
蕙	-12.666
錇	-12.6661
ū	-12.6661
焙	-12.6661
僖	-12.6661
澡	-12.6661
譏	-12.6661
镰	-12.6661
叡	-12.6661
羈	-12.6662
鉭	-12.6712
ô	-12.6712
ˋ	-12.6712
吡	-12.6712
θ	-12.6764
炔	-12.6764
腭	-12.6816
藓	-12.6816
鉻	-12.6816
湍	-12.6816
鏢	-12.6816
冼	-12.6817
凑	-12.6817
摻	-12.6868
幺	-12.6868
皿	-12.6869
綾	-12.6869
捣	-12.687
杠	-12.692
镍	-12.6921
摯	-12.6921
飪	-12.6921
掙	-12.6921
椿	-12.6973
粪	-12.6974
儁	-12.6976
訟	-12.7018
锺	-12.7027
喂	-12.7028
勐	-12.703
麼	-12.7071
瀑	-12.7077
蛤	-12.708
窖	-12.7081
柠	-12.7081
俾	-12.7081
碌	-12.7081
龛	-12.7081
筷	-12.7134
岚	-12.7134
谤	-12.7134
珂	-12.7134
崴	-12.7135
愍	-12.7135
浜	-12.7135
羹	-12.7188
彷	-12.7188
醴	-12.7188
絨	-12.7188
ん	-12.7189
瞰	-12.7189
顱	-12.719
煜	-12.719
濬	-12.7191
諮	-12.7242
聾	-12.7242
鉲	-12.7242
ラ	-12.7242
撮	-12.7243
瀆	-12.7243
紊	-12.7243
诅	-12.7243
碇	-12.7243
痰	-12.7243
釗	-12.7245
鉈	-12.7297
柚	-12.7297
し	-12.7298
竄	-12.7298
钋	-12.7352
昕	-12.7352
ト	-12.7352
鱀	-12.7353
ˊ	-12.7353
婪	-12.7353
д	-12.7353
蛟	-12.7354
殴	-12.7354
柿	-12.7408
た	-12.7408
訥	-12.7408
葺	-12.7408
琢	-12.7408
絮	-12.7463
嗽	-12.7463
穫	-12.7463
銦	-12.7463
睽	-12.7463
赓	-12.7464
檜	-12.7464
梆	-12.7464
峒	-12.7464
旷	-12.7519
塹	-12.7519
嫦	-12.7519
糜	-12.752
韜	-12.7522
觅	-12.7575
秤	-12.7575
檯	-12.7575
瑰	-12.7575
飆	-12.7575
掺	-12.7576
拇	-12.7576
哇	-12.7576
リ	-12.7578
肤	-12.763
皱	-12.7631
錳	-12.7631
烙	-12.7632
鱲	-12.7632
恃	-12.7632
筝	-12.7632
闷	-12.7634
黴	-12.7688
紓	-12.7688
泻	-12.7688
韃	-12.7689
瞳	-12.7689
浇	-12.7689
棧	-12.7689
匱	-12.7689
痪	-12.7689
嚮	-12.769
叩	-12.769
腻	-12.7745
嚼	-12.7746
醃	-12.7746
佟	-12.7746
秃	-12.7746
鋸	-12.7746
碾	-12.7746
諦	-12.7746
疵	-12.7747
嵐	-12.7802
餚	-12.7803
袞	-12.7803
坳	-12.7803
醯	-12.7803
櫚	-12.7803
喧	-12.7803
鵲	-12.7803
憫	-12.7803
釁	-12.7804
猬	-12.786
娩	-12.7861
羡	-12.7861
徘	-12.7861
啄	-12.7861
悯	-12.7862
痊	-12.7919
瞒	-12.7919
嵊	-12.7919
鎚	-12.7919
梢	-12.7919
猝	-12.7919
磊	-12.7919
徊	-12.7919
娠	-12.7919
薨	-12.7919
謁	-12.7919
颌	-12.792
刁	-12.792
蒯	-12.7921
诰	-12.7974
豌	-12.7977
謇	-12.7977
媲	-12.7977
疤	-12.7977
鑫	-12.7977
と	-12.7977
覲	-12.7978
曳	-12.7978
涓	-12.7978
圻	-12.7978
谿	-12.7979
胁	-12.8033
昵	-12.8036
涕	-12.8036
ル	-12.8036
挣	-12.8036
窺	-12.8037
跻	-12.8037
阆	-12.8037
袒	-12.8037
兗	-12.8038
曝	-12.809
ç	-12.8096
芎	-12.8096
苇	-12.8096
俟	-12.8096
佯	-12.8097
岌	-12.8098
琊	-12.8098
錸	-12.8155
貯	-12.8155
搗	-12.8155
嫂	-12.8156
嶠	-12.8156
曇	-12.8156
啡	-12.8214
镀	-12.8214
甌	-12.8215
脷	-12.8215
ل	-12.8215
у	-12.8215
榭	-12.8215
蹴	-12.8215
卅	-12.8276
腌	-12.8276
鈰	-12.8276
寞	-12.8335
桦	-12.8335
鵑	-12.8335
懶	-12.8336
イ	-12.8336
銪	-12.8336
簾	-12.8336
猖	-12.8336
蝇	-12.8396
貽	-12.8396
賑	-12.8396
羥	-12.8396
秧	-12.8396
耸	-12.8396
嘻	-12.8397
褻	-12.8397
螞	-12.8397
蜿	-12.8397
辕	-12.8398
涸	-12.8458
狡	-12.8458
り	-12.8458
黍	-12.8458
懦	-12.8459
阗	-12.8519
驢	-12.8519
釵	-12.852
帘	-12.852
瀧	-12.852
枉	-12.852
珈	-12.852
殤	-12.8578
氘	-12.8581
篠	-12.8582
輟	-12.8582
膾	-12.8582
勺	-12.8583
娼	-12.8644
蝉	-12.8644
ア	-12.8645
楣	-12.8645
ㄧ	-12.8646
韭	-12.8706
侷	-12.8707
疮	-12.8707
榈	-12.8707
鋨	-12.8707
谔	-12.8707
岂	-12.8708
諤	-12.8708
馥	-12.8708
谒	-12.8708
僳	-12.8708
荻	-12.8708
羣	-12.8769
轍	-12.877
⋯	-12.8771
涧	-12.8771
薈	-12.8834
耒	-12.8834
蜒	-12.8834
肄	-12.8834
幔	-12.8835
筵	-12.8835
藕	-12.8898
坵	-12.8898
咖	-12.8898
鑾	-12.8898
嗲	-12.8898
嘧	-12.8898
ø	-12.8898
な	-12.8898
岬	-12.8899
弒	-12.8899
怛	-12.8899
挚	-12.8899
洵	-12.8899
矶	-12.8899
鄯	-12.8901
宸	-12.8962
菅	-12.8963
う	-12.8963
萤	-12.8963
楹	-12.8963
鑀	-12.8963
贱	-12.8964
氾	-12.8964
撻	-12.8964
穢	-12.8964
罔	-12.9027
棗	-12.9028
く	-12.9028
斟	-12.9028
嘔	-12.9028
佣	-12.9028
婺	-12.9028
敍	-12.9028
蒨	-12.9028
蹈	-12.9028
赁	-12.9028
忱	-12.9028
揣	-12.9028
誥	-12.9029
頃	-12.9089
嘩	-12.9093
呕	-12.9093
佼	-12.9093
匮	-12.9093
蠡	-12.9093
俶	-12.9094
г	-12.9094
痢	-12.9094
傈	-12.9094
箏	-12.9158
抉	-12.9158
鷗	-12.9159
矗	-12.9159
钴	-12.9159
瀝	-12.9159
阡	-12.9159
哗	-12.9159
恳	-12.9159
蟠	-12.9159
拮	-12.916
顷	-12.9218
祯	-12.9223
蔬	-12.9224
嗓	-12.9225
诽	-12.9225
渎	-12.9225
賬	-12.9225
睐	-12.9225
掣	-12.9226
曦	-12.9226
馀	-12.9226
乖	-12.9226
骤	-12.9291
蜴	-12.9291
み	-12.9292
«	-12.9292
詣	-12.9292
粲	-12.9292
渺	-12.9292
≤	-12.9292
蚂	-12.9293
睹	-12.9356
漬	-12.9358
蕪	-12.9359
漩	-12.9359
铋	-12.9359
蹲	-12.936
瘡	-12.9426
闍	-12.9426
亟	-12.9427
銣	-12.9427
讶	-12.9427
蟒	-12.9427
蚓	-12.9427
挟	-12.9427
祆	-12.9494
й	-12.9495
锣	-12.9495
俏	-12.9495
閑	-12.9495
昶	-12.9496
忏	-12.9563
鰓	-12.9563
奬	-12.9563
ñ	-12.9563
驸	-12.9564
燧	-12.9564
锈	-12.9564
舶	-12.9629
翹	-12.9631
膨	-12.9632
妳	-12.9632
疼	-12.9632
剷	-12.9632
栩	-12.9632
汨	-12.9634
齦	-12.9701
吶	-12.9701
氪	-12.9702
驊	-12.9702
繇	-12.9703
餃	-12.9771
镐	-12.9771
ê	-12.9771
莹	-12.9771
絃	-12.9771
嵋	-12.9771
铂	-12.9772
昀	-12.9772
緋	-12.9772
泓	-12.9772
禿	-12.9772
疚	-12.9772
颤	-12.9772
匝	-12.9772
鳄	-12.9841
哺	-12.9841
蝎	-12.9841
ク	-12.9841
隍	-12.9841
铵	-12.9842
钼	-12.9842
妲	-12.9842
逮	-12.9843
晟	-12.9844
湮	-12.9912
褫	-12.9912
帑	-12.9912
鉬	-12.9912
п	-12.9913
莺	-12.9913
砀	-12.9913
辮	-12.9913
鑭	-12.9913
馅	-12.9913
唁	-12.9913
儋	-12.9914
曄	-12.9918
虢	-12.9982
俳	-12.9983
瞩	-12.9984
诡	-12.9984
š	-12.9984
冪	-12.9984
啼	-12.9985
衅	-12.9985
檄	-12.9986
琵	-13.0056
霰	-13.0056
佘	-13.0056
屎	-13.0056
蝸	-13.0056
ŋ	-13.0056
噁	-13.0056
に	-13.0056
褪	-13.0056
莘	-13.0056
驪	-13.0056
撾	-13.0056
漪	-13.0056
搅	-13.0058
纣	-13.0061
啞	-13.0128
潇	-13.0128
醍	-13.0128
醐	-13.0128
鐳	-13.0128
釤	-13.0129
蔷	-13.0129
傢	-13.0129
ß	-13.0129
å	-13.0129
熒	-13.0129
诣	-13.0129
槓	-13.0129
灿	-13.0129
鶻	-13.013
厕	-13.02
濛	-13.0201
癲	-13.0201
犍	-13.0201
魟	-13.0201
絳	-13.0202
帷	-13.0203
絹	-13.0204
闾	-13.0204
拗	-13.0272
頹	-13.0275
佤	-13.0275
禀	-13.0275
鬣	-13.0276
掀	-13.0327
滘	-13.0348
骡	-13.0349
瘠	-13.0349
蚩	-13.0349
淝	-13.0349
羨	-13.0349
瘾	-13.0349
掏	-13.0349
瑯	-13.035
窪	-13.035
沔	-13.0352
彿	-13.0423
紜	-13.0423
鏽	-13.0424
陲	-13.0424
―	-13.0424
儼	-13.0424
涇	-13.0425
鈍	-13.0425
薊	-13.0425
ζ	-13.0498
氬	-13.0499
菏	-13.0499
皺	-13.0499
浣	-13.0499
谚	-13.0499
瑭	-13.0499
噩	-13.05
驃	-13.05
繕	-13.05
鸾	-13.05
恿	-13.0501
紇	-13.0503
氚	-13.0574
锷	-13.0574
鸞	-13.0574
卞	-13.0574
屁	-13.0575
叻	-13.0575
鬃	-13.0575
榷	-13.0575
辍	-13.0575
咄	-13.0576
輒	-13.0576
畹	-13.0578
浬	-13.065
栎	-13.065
郅	-13.065
矫	-13.0651
鰲	-13.0651
媧	-13.0651
钕	-13.0651
颚	-13.0651
駢	-13.0651
峴	-13.0652
拚	-13.0652
嵯	-13.0652
貘	-13.0652
弑	-13.0653
煦	-13.0727
绮	-13.0728
擂	-13.0728
孰	-13.0728
鐿	-13.0728
瀰	-13.0728
扒	-13.0728
雹	-13.0728
蛻	-13.0728
芾	-13.0729
†	-13.0801
桁	-13.0805
煲	-13.0805
綬	-13.0805
獗	-13.0806
撿	-13.0806
垢	-13.0806
炽	-13.0806
浔	-13.0806
髦	-13.0806
胄	-13.0808
牡	-13.0882
嫖	-13.0883
揀	-13.0883
揪	-13.0883
邛	-13.0883
矾	-13.0883
ま	-13.0884
罄	-13.0884
鯤	-13.0884
菟	-13.0884
绶	-13.0885
鳃	-13.0962
籬	-13.0962
煇	-13.0962
鏟	-13.0962
斛	-13.0963
鴛	-13.0963
鴦	-13.0963
辫	-13.0964
鰻	-13.1041
я	-13.1041
轭	-13.1041
涤	-13.1042
躋	-13.1042
蜑	-13.1042
б	-13.1042
鈷	-13.1121
蠔	-13.1122
銨	-13.1122
悚	-13.1122
纶	-13.1123
槌	-13.1202
昴	-13.1202
钌	-13.1202
捩	-13.1202
筏	-13.1203
澗	-13.1203
赈	-13.1203
歹	-13.1203
饺	-13.1203
醮	-13.1203
玮	-13.1204
凳	-13.1283
藜	-13.1283
霾	-13.1283
鮭	-13.1283
懒	-13.1283
簷	-13.1284
囉	-13.1284
隈	-13.1284
銃	-13.1284
辙	-13.1285
梟	-13.1285
靚	-13.1285
滌	-13.1285
碁	-13.1364
鏗	-13.1365
鮪	-13.1365
砵	-13.1365
痹	-13.1365
櫓	-13.1366
蠅	-13.1366
尷	-13.1366
葦	-13.1366
鏞	-13.1366
锚	-13.1366
逅	-13.1366
ㄨ	-13.1366
侮	-13.1367
琨	-13.1367
濑	-13.1443
閹	-13.1447
疽	-13.1448
坻	-13.1448
裨	-13.1448
軛	-13.1448
婕	-13.1448
娑	-13.1448
æ	-13.1448
湟	-13.1448
鄢	-13.1449
壑	-13.1449
錨	-13.1449
弁	-13.145
勰	-13.153
煊	-13.1531
燙	-13.1532
恙	-13.1532
錮	-13.1532
蕲	-13.1532
帚	-13.1532
呵	-13.1532
燥	-13.1615
馱	-13.1616
弭	-13.1616
鎬	-13.1616
覃	-13.1616
哑	-13.1617
眩	-13.1617
踵	-13.1699
儷	-13.17
鋯	-13.17
脐	-13.1701
慑	-13.1701
祗	-13.1701
朦	-13.1701
邈	-13.1701
煒	-13.1703
腓	-13.178
敝	-13.1784
沫	-13.1785
¬	-13.1785
崂	-13.1786
き	-13.1786
粑	-13.1786
る	-13.1786
懺	-13.1786
筱	-13.1786
忿	-13.1786
囂	-13.1787
鎧	-13.1787
脩	-13.1787
癫	-13.1787
珮	-13.1789
錼	-13.1872
郗	-13.1872
岀	-13.1873
镌	-13.1873
濡	-13.1873
皝	-13.1874
逞	-13.1874
帜	-13.1958
蚵	-13.1959
涟	-13.1959
匕	-13.1959
訢	-13.196
汜	-13.1961
蚤	-13.2046
鸳	-13.2047
鈈	-13.2047
髅	-13.2047
佰	-13.2047
シ	-13.2047
盱	-13.2047
爻	-13.2047
馭	-13.2048
鑣	-13.2135
鸯	-13.2135
讹	-13.2135
咆	-13.2135
秽	-13.2135
»	-13.2135
骊	-13.2135
妤	-13.2136
穰	-13.2136
砦	-13.2136
蟑	-13.2136
縻	-13.2137
顗	-13.2137
蝗	-13.2138
≥	-13.2224
漯	-13.2224
錕	-13.2224
伉	-13.2225
艏	-13.2225
譙	-13.2225
贲	-13.2226
掳	-13.2227
剋	-13.2313
龕	-13.2314
脯	-13.2314
蝠	-13.2314
囪	-13.2314
阇	-13.2314
詬	-13.2314
腑	-13.2315
飙	-13.2315
疱	-13.2405
υ	-13.2405
哄	-13.2405
ό	-13.2405
蹦	-13.2406
觐	-13.2406
鸥	-13.2406
蜓	-13.2406
麂	-13.2406
鎘	-13.2406
蜃	-13.2406
痺	-13.2406
澆	-13.2406
仡	-13.2407
乂	-13.2408
钒	-13.2408
幟	-13.2495
貳	-13.2496
昺	-13.2497
杵	-13.2497
鸢	-13.2497
钝	-13.2497
ˇ	-13.2498
箍	-13.2498
璟	-13.2498
ッ	-13.2498
屹	-13.2498
笺	-13.2498
綸	-13.2499
绢	-13.2499
諏	-13.2499
纥	-13.2499
窥	-13.2589
湳	-13.2589
颓	-13.259
敎	-13.259
饉	-13.259
龢	-13.259
邃	-13.259
畠	-13.2591
缢	-13.2591
鄲	-13.2591
嘛	-13.2593
疡	-13.2683
茗	-13.2683
鏑	-13.2684
鑪	-13.2684
徕	-13.2684
炖	-13.2684
榘	-13.2684
炊	-13.2684
腋	-13.2684
憚	-13.2685
晗	-13.2685
蠍	-13.2777
燬	-13.2777
癢	-13.2777
铢	-13.2778
脇	-13.2778
ド	-13.2778
缽	-13.2778
蹶	-13.2778
靄	-13.2778
颉	-13.2778
尻	-13.2778
骞	-13.2778
稹	-13.2873
孪	-13.2873
朮	-13.2873
珅	-13.2873
や	-13.2873
磴	-13.2873
娲	-13.2874
峦	-13.2874
絶	-13.2874
眙	-13.2874
踝	-13.2874
酝	-13.2874
讥	-13.2874
紂	-13.2967
谯	-13.2968
瘍	-13.2968
碚	-13.2969
鼬	-13.2969
崽	-13.2969
榛	-13.2969
亘	-13.2969
ə	-13.2969
昐	-13.2969
驹	-13.2969
茸	-13.2969
鹗	-13.2969
ら	-13.297
糠	-13.297
薙	-13.2971
娇	-13.2971
グ	-13.2973
霓	-13.3065
橇	-13.3066
鹫	-13.3066
洙	-13.3066
钍	-13.3066
ά	-13.3066
笏	-13.3067
ㄚ	-13.3067
汰	-13.3067
潁	-13.3067
睫	-13.3067
醞	-13.3067
闓	-13.3068
誨	-13.3069
辐	-13.316
獼	-13.3163
剽	-13.3164
ь	-13.3164
槲	-13.3164
悌	-13.3164
は	-13.3165
縊	-13.3165
涮	-13.3165
騫	-13.3165
鎗	-13.3166
靓	-13.3166
お	-13.3262
擎	-13.3262
蛹	-13.3262
豺	-13.3263
篙	-13.3263
莢	-13.3263
猾	-13.3263
ن	-13.3263
þ	-13.3263
臆	-13.3264
扛	-13.3264
溅	-13.3362
咭	-13.3363
墻	-13.3363
砾	-13.3363
亵	-13.3363
荟	-13.3363
ロ	-13.3363
雫	-13.3363
阕	-13.3363
朐	-13.3364
蘚	-13.3364
麴	-13.3364
揄	-13.3364
恍	-13.3364
燾	-13.3366
牯	-13.3464
毡	-13.3464
脓	-13.3464
甯	-13.3464
蜻	-13.3464
が	-13.3464
潦	-13.3464
凄	-13.3464
僮	-13.3465
馃	-13.3465
钚	-13.3465
漾	-13.3465
邇	-13.3465
郦	-13.3465
囿	-13.3465
垛	-13.3466
钫	-13.3466
勗	-13.3467
宙	-13.3554
钰	-13.3566
χ	-13.3566
槛	-13.3566
陉	-13.3566
锟	-13.3566
蹂	-13.3566
钷	-13.3566
`	-13.3566
鍇	-13.3566
挹	-13.3567
幀	-13.3567
骥	-13.3567
盂	-13.3567
璘	-13.3567
莅	-13.3567
窜	-13.3567
鍩	-13.3567
勣	-13.3569
墉	-13.3669
禺	-13.3669
咕	-13.3669
琬	-13.3669
癡	-13.3669
稗	-13.3669
∞	-13.3669
あ	-13.3669
焓	-13.3669
阉	-13.3669
澍	-13.367
碣	-13.367
垓	-13.367
燼	-13.367
苴	-13.367
锴	-13.367
璉	-13.3772
墘	-13.3773
爹	-13.3773
蜚	-13.3773
爍	-13.3773
硤	-13.3773
朊	-13.3773
銖	-13.3773
ر	-13.3774
簫	-13.3774
頜	-13.3774
爰	-13.3774
殡	-13.3774
淖	-13.3775
讖	-13.3776
啤	-13.3875
佾	-13.3877
荖	-13.3878
紡	-13.3878
ί	-13.3879
燉	-13.3879
鎔	-13.3879
嚐	-13.3879
て	-13.3879
閭	-13.388
澶	-13.388
詰	-13.388
讒	-13.388
硯	-13.3881
椁	-13.3883
拯	-13.3983
滷	-13.3985
昰	-13.3985
镖	-13.3985
豉	-13.3985
嚎	-13.3985
缙	-13.3985
コ	-13.3985
邙	-13.3985
骇	-13.3986
贅	-13.3986
晾	-13.3986
翎	-13.3987
羿	-13.409
錠	-13.4091
黻	-13.4092
灝	-13.4092
瀟	-13.4092
觴	-13.4092
綦	-13.4093
∈	-13.4093
蜍	-13.4093
َ	-13.4093
銓	-13.4093
沣	-13.4093
カ	-13.4093
藐	-13.4093
鐨	-13.4093
鏐	-13.4094
烨	-13.4094
撑	-13.4199
芍	-13.42
焯	-13.4201
蔴	-13.4201
腮	-13.4201
輋	-13.4201
ニ	-13.4201
さ	-13.4201
殃	-13.4201
猥	-13.4202
疇	-13.4202
琏	-13.4202
蛊	-13.4202
鮫	-13.4202
鿫	-13.4202
刎	-13.4203
筮	-13.4203
酈	-13.431
嚣	-13.4311
颊	-13.4311
з	-13.4311
噹	-13.4311
餌	-13.4311
č	-13.4311
佇	-13.4311
唭	-13.4311
鉉	-13.4311
蘸	-13.4312
訃	-13.4312
呐	-13.4313
驭	-13.4314
翌	-13.4376
ㄇ	-13.4421
鈇	-13.4422
査	-13.4422
膿	-13.4422
懾	-13.4422
掸	-13.4422
鷸	-13.4422
逛	-13.4423
稔	-13.4423
钯	-13.4423
を	-13.4423
胭	-13.4423
盞	-13.4423
箫	-13.4423
佞	-13.4424
嵬	-13.4425
轲	-13.4426
挛	-13.4534
旃	-13.4534
閨	-13.4534
糸	-13.4534
鳐	-13.4534
嚕	-13.4535
徠	-13.4535
罂	-13.4535
鳖	-13.4535
顼	-13.4535
锢	-13.4535
陟	-13.4535
驤	-13.4535
沓	-13.4536
骁	-13.4536
攒	-13.4536
戾	-13.4536
甕	-13.4647
頰	-13.4648
つ	-13.4648
媾	-13.4648
枇	-13.4648
銮	-13.4648
蜗	-13.4648
瘀	-13.4648
矜	-13.4648
擷	-13.4648
搓	-13.4649
诀	-13.4649
殇	-13.4649
揶	-13.4649
獠	-13.4649
骈	-13.4649
閤	-13.465
詆	-13.4763
栾	-13.4763
獾	-13.4763
咯	-13.4763
鎵	-13.4763
钗	-13.4763
鋇	-13.4763
●	-13.4763
擘	-13.4763
槎	-13.4764
鏷	-13.4878
詮	-13.4878
谛	-13.4879
昙	-13.4879
マ	-13.488
烁	-13.488
郫	-13.488
レ	-13.488
偈	-13.488
饵	-13.488
梶	-13.488
砥	-13.488
鳶	-13.488
蔻	-13.488
囤	-13.4881
竑	-13.4881
嘅	-13.4881
禛	-13.4881
翩	-13.4994
玖	-13.4996
塽	-13.4997
宓	-13.4997
粿	-13.4997
杷	-13.4997
刍	-13.4997
鏘	-13.4997
嗟	-13.4997
フ	-13.4997
疣	-13.4997
铷	-13.4998
泮	-13.4998
颛	-13.4998
鑥	-13.4998
棻	-13.4998
隽	-13.4999
隗	-13.4999
涞	-13.5116
鷲	-13.5116
酐	-13.5116
吝	-13.5116
腈	-13.5116
枭	-13.5116
簪	-13.5116
盯	-13.5116
ы	-13.5116
诂	-13.5117
秣	-13.5118
玑	-13.5118
窿	-13.5236
濞	-13.5237
銫	-13.5237
旻	-13.5237
焖	-13.5237
氩	-13.5238
欒	-13.5238
褂	-13.5238
玷	-13.5238
譬	-13.5352
腱	-13.5358
麋	-13.5358
烬	-13.5359
謔	-13.5359
様	-13.5359
燎	-13.5359
輓	-13.5359
椴	-13.5359
倣	-13.5359
薔	-13.5359
圜	-13.536
絆	-13.536
渍	-13.536
痉	-13.5481
翱	-13.5481
え	-13.5482
撃	-13.5482
邾	-13.5482
彊	-13.5482
艉	-13.5482
嗩	-13.5482
遶	-13.5482
恣	-13.5482
淬	-13.5482
蜕	-13.5482
و	-13.5482
緹	-13.5482
î	-13.5483
钜	-13.5483
謫	-13.5483
藹	-13.5483
赧	-13.5483
闔	-13.5484
俺	-13.5484
邗	-13.5485
骅	-13.5485
瑷	-13.5607
缎	-13.5607
謚	-13.5607
貔	-13.5607
覬	-13.5607
脍	-13.5607
坌	-13.5607
瑗	-13.5607
覦	-13.5607
鸵	-13.5607
烫	-13.5607
嘶	-13.5608
淩	-13.5608
髏	-13.5608
憬	-13.5608
オ	-13.5608
鄺	-13.5608
鈎	-13.5608
诒	-13.5608
喋	-13.5609
垠	-13.5609
椭	-13.5619
瘟	-13.569
茘	-13.5729
娱	-13.5732
閡	-13.5733
柞	-13.5733
苳	-13.5733
澹	-13.5733
譁	-13.5733
銩	-13.5733
詒	-13.5733
蛰	-13.5733
ミ	-13.5734
軋	-13.5734
痫	-13.5734
蔘	-13.5734
х	-13.5734
も	-13.5734
ي	-13.5734
桉	-13.5734
徳	-13.5734
盏	-13.5734
钳	-13.5735
玫	-13.5735
芻	-13.586
讣	-13.5861
晷	-13.5861
辻	-13.5862
墀	-13.5862
廡	-13.5862
れ	-13.5862
滎	-13.5862
÷	-13.5862
珩	-13.5862
贓	-13.5862
飭	-13.5863
綑	-13.5863
頫	-13.5863
袤	-13.5863
淒	-13.5863
辄	-13.5863
舂	-13.5863
麿	-13.5863
籙	-13.5864
髹	-13.5988
唧	-13.599
姒	-13.599
痲	-13.5991
邰	-13.5991
茴	-13.5991
杼	-13.5991
孖	-13.5991
泷	-13.5992
诟	-13.5992
璨	-13.5992
釹	-13.5992
寛	-13.5992
鍆	-13.5992
癣	-13.5992
萇	-13.5992
茧	-13.5992
岫	-13.5992
م	-13.5992
吁	-13.5992
û	-13.5992
夙	-13.5992
テ	-13.5992
嗚	-13.5993
耘	-13.5993
驍	-13.5993
惋	-13.5993
竣	-13.6121
磡	-13.6121
沩	-13.6122
麩	-13.6122
缕	-13.6123
洄	-13.6123
頊	-13.6123
镛	-13.6123
龈	-13.6123
酣	-13.6123
タ	-13.6123
ч	-13.6124
█	-13.6124
萘	-13.6124
埴	-13.6124
礽	-13.6124
莿	-13.6124
ㄜ	-13.6124
骠	-13.6124
锭	-13.6124
撣	-13.6124
讧	-13.6125
揖	-13.6256
蟆	-13.6256
銻	-13.6256
趴	-13.6257
岘	-13.6257
綵	-13.6257
珑	-13.6257
蠱	-13.6258
曷	-13.6258
殞	-13.6258
瑀	-13.626
菽	-13.6389
亶	-13.639
鋤	-13.6391
鸊	-13.6391
淌	-13.6392
甪	-13.6392
ジ	-13.6392
霏	-13.6392
杲	-13.6392
讞	-13.6392
釙	-13.6392
闺	-13.6393
铨	-13.6393
谗	-13.6393
牦	-13.6394
勖	-13.6396
鲧	-13.6527
ㄛ	-13.6528
洶	-13.6528
砧	-13.6528
邡	-13.6528
鷉	-13.6529
礬	-13.6529
傚	-13.6529
镉	-13.6529
郯	-13.6529
綻	-13.6529
ı	-13.6529
匐	-13.6529
殮	-13.6529
ύ	-13.6529
ム	-13.6529
娴	-13.653
眈	-13.653
澂	-13.653
劻	-13.653
拭	-13.653
錚	-13.6531
哙	-13.6538
耜	-13.6666
蟄	-13.6667
嫪	-13.6667
喆	-13.6667
癇	-13.6667
蹊	-13.6667
痒	-13.6667
仝	-13.6667
堇	-13.6667
螭	-13.6668
锄	-13.6668
鶚	-13.6668
孿	-13.6668
祟	-13.6668
噠	-13.6668
茁	-13.6668
こ	-13.6668
绫	-13.6668
緲	-13.6668
砻	-13.6668
庑	-13.6668
赘	-13.6668
璠	-13.6668
伕	-13.6668
鉗	-13.6669
軫	-13.6671
爨	-13.6671
犛	-13.6674
賁	-13.6674
釧	-13.6807
啉	-13.6807
恽	-13.6808
乩	-13.6808
荳	-13.6808
饕	-13.6808
𰻞	-13.6808
锗	-13.6808
竅	-13.6808
鞣	-13.6808
闇	-13.6809
☆	-13.6809
郓	-13.6809
¥	-13.6809
磬	-13.6809
蒽	-13.6809
廝	-13.6809
馗	-13.6809
瓏	-13.6809
諳	-13.681
迤	-13.681
粳	-13.681
灞	-13.681
曖	-13.6811
惫	-13.6811
嗪	-13.6951
毐	-13.6951
刨	-13.6951
迩	-13.6951
嶋	-13.6951
眜	-13.6951
靛	-13.6951
廍	-13.6951
浈	-13.6952
塭	-13.6952
怂	-13.6952
ʔ	-13.6952
憊	-13.6952
泠	-13.6952
跛	-13.6952
糅	-13.6952
璁	-13.6952
鈁	-13.6952
顔	-13.6952
釩	-13.6952
滂	-13.6952
櫥	-13.6952
∶	-13.6952
縉	-13.6952
奐	-13.6952
氈	-13.6952
胪	-13.6953
脛	-13.6953
瓚	-13.6953
圀	-13.7095
豢	-13.7095
銹	-13.7096
牴	-13.7096
鱉	-13.7096
孳	-13.7096
歿	-13.7096
甾	-13.7096
樗	-13.7096
↔	-13.7096
←	-13.7096
髯	-13.7097
囍	-13.7097
篱	-13.7097
儕	-13.7097
坯	-13.7097
訌	-13.7097
昉	-13.7097
妞	-13.7098
埭	-13.7098
诋	-13.7098
谶	-13.7098
饬	-13.7099
炀	-13.7101
渤	-13.7212
牺	-13.7242
袱	-13.7242
­	-13.7242
紈	-13.7243
ा	-13.7243
逑	-13.7243
繃	-13.7243
嶇	-13.7243
聋	-13.7243
瑚	-13.7243
箋	-13.7243
铈	-13.7243
荚	-13.7243
嚈	-13.7243
糰	-13.7243
舔	-13.7244
歳	-13.7244
佢	-13.7244
镂	-13.7244
俎	-13.7244
菈	-13.7244
颢	-13.7244
寐	-13.7244
紘	-13.7245
譴	-13.7246
郤	-13.7247
晰	-13.7388
ㄝ	-13.7391
飩	-13.7391
唑	-13.7392
鎶	-13.7392
牍	-13.7392
钐	-13.7392
鹳	-13.7392
坷	-13.7392
魷	-13.7393
邽	-13.7393
鹀	-13.7393
仞	-13.7393
咁	-13.7393
醌	-13.7393
愕	-13.7393
拣	-13.7394
ㄩ	-13.7396
塱	-13.7543
焗	-13.7543
壟	-13.7543
嬅	-13.7544
濺	-13.7544
す	-13.7544
缭	-13.7544
ب	-13.7544
炆	-13.7544
̍	-13.7544
芫	-13.7544
皎	-13.7545
キ	-13.7545
咱	-13.7545
胧	-13.7545
驮	-13.7545
瓢	-13.7545
晔	-13.7545
拽	-13.7545
褓	-13.7545
涣	-13.7545
毌	-13.7546
溟	-13.7546
驥	-13.7547
餛	-13.7696
攫	-13.7697
轆	-13.7697
铮	-13.7697
鹮	-13.7697
啮	-13.7698
膈	-13.7698
ψ	-13.7698
榄	-13.7698
鉝	-13.7698
罡	-13.7698
呋	-13.7698
ち	-13.7698
吮	-13.7698
铠	-13.7698
ъ	-13.7698
軻	-13.7698
だ	-13.7698
懊	-13.7698
纓	-13.7698
嘢	-13.7699
狒	-13.7699
僥	-13.7699
謐	-13.7699
渙	-13.7701
捶	-13.7854
乓	-13.7854
湃	-13.7854
箇	-13.7854
♭	-13.7854
禰	-13.7855
黟	-13.7855
扉	-13.7855
痞	-13.7855
闿	-13.7855
縷	-13.7855
笞	-13.7856
阖	-13.7858
溱	-13.7858
□	-13.7864
炁	-13.8012
恂	-13.8012
铑	-13.8013
̇	-13.8013
哼	-13.8013
訇	-13.8013
리	-13.8013
壅	-13.8014
馍	-13.8014
赉	-13.8014
膊	-13.8014
巿	-13.8014
谪	-13.8015
黠	-13.8016
凈	-13.8016
萣	-13.8172
樾	-13.8173
啃	-13.8173
捺	-13.8174
鍔	-13.8174
彫	-13.8174
焜	-13.8174
瓒	-13.8174
枷	-13.8174
朧	-13.8174
搔	-13.8174
虱	-13.8174
堃	-13.8174
禕	-13.8175
嶝	-13.8175
咫	-13.8175
玕	-13.8175
琇	-13.8175
蓼	-13.8175
𨧀	-13.8175
宥	-13.8175
嘟	-13.8175
幌	-13.8175
ㄋ	-13.8175
慟	-13.8176
冑	-13.8177
磕	-13.8177
暐	-13.8178
汊	-13.8179
秭	-13.818
黥	-13.818
囓	-13.8337
铍	-13.8337
樛	-13.8338
蜆	-13.8338
蠣	-13.8338
्	-13.8338
獭	-13.8338
喫	-13.8338
阈	-13.8338
眞	-13.8338
瑠	-13.8338
鹛	-13.8338
锕	-13.8338
荽	-13.8338
ã	-13.8338
詡	-13.8339
蟀	-13.8339
拴	-13.8339
俨	-13.834
猕	-13.834
堉	-13.834
侂	-13.834
孑	-13.834
辎	-13.8341
涎	-13.8342
藔	-13.8502
螈	-13.8504
ㄥ	-13.8504
躉	-13.8504
堺	-13.8505
殁	-13.8505
獐	-13.8505
櫟	-13.8505
匍	-13.8505
噓	-13.8505
瞪	-13.8506
犒	-13.8506
畴	-13.8506
鉕	-13.8506
袂	-13.8506
慚	-13.8506
倔	-13.8506
蹬	-13.8506
摶	-13.8506
瘴	-13.8507
兢	-13.8673
璀	-13.8673
衕	-13.8673
阑	-13.8673
踊	-13.8674
鬩	-13.8674
閲	-13.8674
≠	-13.8674
鈀	-13.8674
≈	-13.8674
睁	-13.8674
钺	-13.8675
帙	-13.8675
ł	-13.8675
楂	-13.8675
袈	-13.8676
瞧	-13.8676
炜	-13.8676
畯	-13.8676
隰	-13.8677
嗇	-13.8678
輦	-13.8846
י	-13.8846
ʻ	-13.8847
メ	-13.8847
绚	-13.8847
钬	-13.8847
稞	-13.8847
́	-13.8847
ḥ	-13.8847
荞	-13.8847
亙	-13.8847
鴟	-13.8847
谑	-13.8847
臍	-13.8847
ś	-13.8847
磔	-13.8848
锆	-13.8848
プ	-13.8848
緞	-13.8848
箓	-13.8848
憨	-13.8848
珙	-13.8848
窰	-13.8852
蘋	-13.9021
蹇	-13.9021
輜	-13.9021
琤	-13.9022
燻	-13.9022
毽	-13.9022
娣	-13.9022
嘿	-13.9022
釕	-13.9022
骯	-13.9022
惮	-13.9022
汹	-13.9022
睪	-13.9022
チ	-13.9022
膦	-13.9022
詼	-13.9022
岖	-13.9022
ð	-13.9023
绊	-13.9023
搪	-13.9023
®	-13.9023
ù	-13.9023
牘	-13.9023
砈	-13.9023
珣	-13.9023
濯	-13.9023
铪	-13.9023
繭	-13.9023
繚	-13.9023
睬	-13.9023
眶	-13.9023
堑	-13.9023
剁	-13.9024
猗	-13.9024
鏖	-13.9024
楫	-13.9025
觞	-13.9199
慤	-13.9199
鐫	-13.92
鮎	-13.92
䓬	-13.92
エ	-13.9201
囱	-13.9201
钪	-13.9201
擰	-13.9201
琺	-13.9201
筊	-13.9201
攣	-13.9201
厩	-13.9201
せ	-13.9201
僉	-13.9201
洹	-13.9201
έ	-13.9201
雋	-13.9202
箸	-13.9202
赡	-13.9202
逋	-13.9202
鉢	-13.9203
銑	-13.9206
逖	-13.9381
蔺	-13.9382
瑄	-13.9382
皙	-13.9382
榫	-13.9382
濉	-13.9382
璿	-13.9382
蕎	-13.9382
絀	-13.9382
磾	-13.9382
佥	-13.9382
闼	-13.9382
噌	-13.9382
嶂	-13.9383
榖	-13.9383
銠	-13.9383
錡	-13.9383
ž	-13.9383
£	-13.9383
惺	-13.9383
疸	-13.9383
鿬	-13.9383
綝	-13.9384
縝	-13.9384
樫	-13.9384
肱	-13.9385
ц	-13.9567
秆	-13.9567
涠	-13.9567
苜	-13.9567
镨	-13.9567
弢	-13.9568
パ	-13.9568
繽	-13.9568
尅	-13.9568
阂	-13.9568
ウ	-13.9568
ή	-13.9568
箝	-13.9568
籲	-13.9568
癬	-13.9568
け	-13.9569
蚶	-13.9569
萩	-13.9569
赃	-13.9569
诩	-13.9571
犊	-13.9571
ㄑ	-13.9572
瑈	-13.9752
蓿	-13.9756
喹	-13.9756
顓	-13.9756
痙	-13.9756
鄔	-13.9756
ひ	-13.9756
觊	-13.9756
觎	-13.9756
腴	-13.9757
拈	-13.9757
喱	-13.9757
釓	-13.9757
閎	-13.9757
诙	-13.9757
贍	-13.9757
贄	-13.9758
砭	-13.9758
灃	-13.9758
诘	-13.9758
掾	-13.9758
脲	-13.9758
鎏	-13.9759
庠	-13.9759
閂	-13.976
璩	-13.9762
呦	-13.9946
獒	-13.9947
轧	-13.9948
镳	-13.9948
瀘	-13.9948
鬻	-13.9948
蜢	-13.9949
臏	-13.9949
籀	-13.9949
鹬	-13.9949
ş	-13.9949
肼	-13.9949
赳	-13.9949
ナ	-13.9949
痤	-13.9949
า	-13.9949
踴	-13.9949
诲	-13.9949
鎝	-13.9949
蟥	-13.995
ノ	-13.995
彘	-13.995
蟋	-13.995
鞦	-13.995
鐒	-13.995
潯	-13.995
呜	-13.9951
<	-13.9983
栢	-14.0144
騾	-14.0144
篾	-14.0144
髀	-14.0144
衹	-14.0145
芡	-14.0145
鲱	-14.0145
跗	-14.0145
貅	-14.0145
斝	-14.0145
蛀	-14.0145
で	-14.0145
س	-14.0145
ì	-14.0145
ャ	-14.0145
衎	-14.0145
褥	-14.0145
鹑	-14.0146
韆	-14.0146
鬨	-14.0146
凜	-14.0146
顒	-14.0147
夤	-14.0147
鲫	-14.0147
𨨏	-14.0147
瓘	-14.0148
珉	-14.0342
鄜	-14.0344
渌	-14.0344
筐	-14.0344
搐	-14.0344
缨	-14.0344
迢	-14.0345
茯	-14.0345
颙	-14.0345
嬗	-14.0345
đ	-14.0345
痔	-14.0345
戸	-14.0345
楸	-14.0345
ʼ	-14.0345
わ	-14.0345
菓	-14.0345
徇	-14.0346
琿	-14.0346
豨	-14.0346
蠹	-14.0346
碛	-14.0346
郧	-14.0346
奂	-14.0346
衊	-14.0346
撬	-14.0347
坨	-14.0347
ㄓ	-14.0348
ㄕ	-14.0349
涔	-14.0548
鹈	-14.0548
玘	-14.0548
驄	-14.0548
詁	-14.0548
栉	-14.0548
裱	-14.0548
捅	-14.0548
鳝	-14.0548
泯	-14.0549
隹	-14.0549
卍	-14.0549
ガ	-14.0549
鉸	-14.0549
樋	-14.0549
恫	-14.0549
悝	-14.0549
脣	-14.0549
钤	-14.0549
呱	-14.055
橱	-14.055
圮	-14.055
蓀	-14.055
啖	-14.055
悸	-14.055
訐	-14.055
沆	-14.055
蹋	-14.0551
鬟	-14.0551
擧	-14.0755
蠲	-14.0756
哌	-14.0756
仵	-14.0756
箧	-14.0757
晞	-14.0757
ξ	-14.0757
蕈	-14.0757
餾	-14.0757
ɔ	-14.0757
睛	-14.0757
倬	-14.0757
罘	-14.0757
睇	-14.0757
轸	-14.0758
ː	-14.0758
胳	-14.0758
熠	-14.0758
愫	-14.0758
暧	-14.0758
慄	-14.0758
雎	-14.0758
酆	-14.0758
耙	-14.0758
蘅	-14.0758
襁	-14.0759
翳	-14.0759
葭	-14.0759
ф	-14.076
癥	-14.076
埗	-14.0762
辇	-14.0968
鱈	-14.0969
痈	-14.0969
蒞	-14.097
瓠	-14.097
訖	-14.097
鏵	-14.097
蹼	-14.097
鉞	-14.097
哋	-14.097
黝	-14.097
枱	-14.097
謄	-14.097
煨	-14.097
嘘	-14.097
翕	-14.097
鸻	-14.097
荤	-14.097
め	-14.097
バ	-14.097
≡	-14.097
姗	-14.0971
祛	-14.0971
ɑ	-14.0971
啜	-14.0971
་	-14.0971
烩	-14.0971
燁	-14.0971
鳗	-14.0971
豸	-14.0971
臚	-14.0971
戕	-14.0973
禵	-14.0973
瘁	-14.0973
雩	-14.1184
蓓	-14.1186
藁	-14.1186
嗆	-14.1187
嘜	-14.1187
鳔	-14.1187
緘	-14.1187
嬸	-14.1187
莠	-14.1187
鼹	-14.1187
魨	-14.1187
鴯	-14.1188
⋅	-14.1188
廨	-14.1188
鯀	-14.1188
閼	-14.1188
饨	-14.1188
簸	-14.1188
扪	-14.1188
ㄌ	-14.1188
ワ	-14.1188
勅	-14.1188
縈	-14.1188
ṣ	-14.1188
闌	-14.1188
荪	-14.1188
榧	-14.1188
傩	-14.1188
鵜	-14.1188
萜	-14.1188
眨	-14.1189
蜈	-14.1189
詧	-14.119
厓	-14.119
徨	-14.1191
闋	-14.1191
挞	-14.1408
纾	-14.1408
圉	-14.1409
喾	-14.1409
惘	-14.1409
鲈	-14.1409
鍶	-14.1409
歴	-14.1409
躏	-14.1409
孃	-14.141
र	-14.141
ǎ	-14.141
ć	-14.141
ブ	-14.141
鴞	-14.141
晩	-14.141
ダ	-14.141
아	-14.141
谧	-14.141
ㄠ	-14.141
侥	-14.141
仃	-14.141
獺	-14.141
礴	-14.141
苕	-14.141
勱	-14.141
癟	-14.141
砺	-14.1411
炕	-14.1411
菰	-14.1411
鏊	-14.1411
嗤	-14.1411
厮	-14.1412
铰	-14.1413
謖	-14.1414
ㄐ	-14.1415
ㄗ	-14.1417
ㄙ	-14.1419
嵙	-14.1635
侈	-14.1635
枸	-14.1635
嘈	-14.1636
頼	-14.1636
噻	-14.1636
肮	-14.1636
蛎	-14.1636
垄	-14.1636
咲	-14.1636
嶷	-14.1636
鐠	-14.1637
掐	-14.1637
鉨	-14.1637
嚟	-14.1637
ˈ	-14.1637
ず	-14.1637
咙	-14.1637
捡	-14.1637
ㄢ	-14.1637
濊	-14.1637
ع	-14.1637
э	-14.1637
ィ	-14.1637
阋	-14.1637
潺	-14.1637
ㄏ	-14.1637
遑	-14.1637
蝌	-14.1637
猩	-14.1637
緱	-14.1638
サ	-14.1638
苎	-14.1638
劢	-14.1638
噱	-14.1638
猊	-14.1638
込	-14.1638
砒	-14.1638
窈	-14.1638
郾	-14.1639
卟	-14.1866
瘩	-14.1868
赭	-14.1868
錀	-14.1868
〞	-14.1868
卽	-14.1868
僰	-14.1869
畬	-14.1869
蘄	-14.1869
卐	-14.1869
ò	-14.1869
舛	-14.1869
犸	-14.1869
钽	-14.1869
擀	-14.1869
セ	-14.1869
ㄉ	-14.1869
葩	-14.1869
鳕	-14.1869
勷	-14.1869
ý	-14.1869
埙	-14.1869
嚳	-14.1869
鲟	-14.1869
聃	-14.1869
𨭆	-14.187
∧	-14.187
モ	-14.187
ろ	-14.187
牂	-14.187
っ	-14.187
ă	-14.187
乜	-14.187
湣	-14.187
犢	-14.187
蓆	-14.187
矇	-14.187
讫	-14.187
溆	-14.187
璣	-14.1871
祢	-14.1871
缜	-14.1871
ㄣ	-14.1871
啲	-14.1871
孱	-14.1871
铿	-14.1872
卬	-14.1873
圯	-14.1873
ㄒ	-14.1876
楙	-14.2103
ゑ	-14.2104
簋	-14.2106
纍	-14.2107
槻	-14.2107
皰	-14.2107
嚏	-14.2107
刈	-14.2107
蒴	-14.2107
∀	-14.2107
鄄	-14.2107
ハ	-14.2107
罟	-14.2107
蛭	-14.2107
儺	-14.2107
佉	-14.2108
燔	-14.2108
ュ	-14.2108
坩	-14.2108
蜷	-14.2108
よ	-14.2108
嘹	-14.2108
惚	-14.2108
粧	-14.2108
銬	-14.2108
闥	-14.2108
窣	-14.2109
ร	-14.2109
鄠	-14.2109
蚣	-14.2109
玠	-14.2109
罌	-14.211
濘	-14.211
諍	-14.2111
侑	-14.2112
妫	-14.235
缄	-14.2351
ɛ	-14.2351
铣	-14.2351
蔼	-14.2351
扦	-14.2351
钆	-14.2351
硏	-14.2351
忤	-14.2351
惭	-14.2351
儆	-14.2352
臾	-14.2352
菘	-14.2352
嗔	-14.2352
忡	-14.2352
崢	-14.2352
悴	-14.2352
铛	-14.2352
ㄅ	-14.2352
鼷	-14.2352
崤	-14.2352
捱	-14.2352
貉	-14.2352
贰	-14.2352
ṭ	-14.2352
♯	-14.2352
漣	-14.2352
铟	-14.2352
狎	-14.2352
蛄	-14.2352
蚪	-14.2353
芗	-14.2353
妣	-14.2353
灏	-14.2353
蕤	-14.2353
貊	-14.2353
蹠	-14.2353
韪	-14.2353
槨	-14.2353
冇	-14.2354
愎	-14.2354
俅	-14.2355
禑	-14.2357
絢	-14.26
酞	-14.2601
鸕	-14.2601
ж	-14.2601
尕	-14.2601
遒	-14.2601
ビ	-14.2601
鶉	-14.2601
ו	-14.2601
د	-14.2602
碴	-14.2602
鲑	-14.2602
趵	-14.2602
佶	-14.2602
∨	-14.2602
饅	-14.2602
嫣	-14.2602
鞮	-14.2602
揍	-14.2602
栃	-14.2602
杙	-14.2602
碓	-14.2602
铉	-14.2602
绷	-14.2602
瞽	-14.2602
廸	-14.2602
蕻	-14.2602
喔	-14.2602
逹	-14.2603
咗	-14.2603
馒	-14.2603
碭	-14.2606
谘	-14.2606
炘	-14.2856
腩	-14.2856
怖	-14.2857
啻	-14.2857
饗	-14.2857
埂	-14.2857
腧	-14.2857
嬋	-14.2857
驷	-14.2858
苾	-14.2858
褔	-14.2858
骧	-14.2858
镯	-14.2858
铊	-14.2858
ě	-14.2858
堝	-14.2858
窍	-14.2858
姫	-14.2858
峤	-14.2858
猞	-14.2858
鋱	-14.2858
玆	-14.2858
櫸	-14.2858
嵴	-14.2858
ก	-14.2859
贽	-14.2859
瞥	-14.2859
迺	-14.2859
ɕ	-14.2859
祧	-14.2859
砰	-14.2859
悫	-14.2859
憔	-14.2859
滹	-14.2859
驩	-14.2859
薮	-14.2859
骜	-14.2859
椽	-14.286
柢	-14.286
鱿	-14.286
鬬	-14.2861
虺	-14.3116
俁	-14.3119
殓	-14.312
栻	-14.312
謾	-14.312
舯	-14.3121
燄	-14.3121
ш	-14.3121
廪	-14.3121
ه	-14.3121
ت	-14.3121
┃	-14.3121
ِ	-14.3121
じ	-14.3121
璦	-14.3122
枞	-14.3122
鍰	-14.3122
剡	-14.3122
棂	-14.3122
凛	-14.3122
抟	-14.3122
鈸	-14.3122
镠	-14.3122
鬲	-14.3122
ㄘ	-14.3131
犼	-14.3388
鲠	-14.3391
垌	-14.3391
紺	-14.3391
蟜	-14.3391
杓	-14.3391
螫	-14.3391
铌	-14.3391
洭	-14.3391
ㄆ	-14.3391
鄣	-14.3391
韫	-14.3391
俪	-14.3391
笆	-14.3391
ğ	-14.3391
絛	-14.3392
熨	-14.3392
顥	-14.3392
丏	-14.3392
飒	-14.3392
迸	-14.3392
ボ	-14.3392
袴	-14.3392
溏	-14.3392
崆	-14.3392
鉿	-14.3392
馕	-14.3392
槤	-14.3393
谌	-14.3393
ㄭ	-14.3393
闱	-14.3393
胯	-14.3393
泺	-14.3393
餞	-14.3394
軔	-14.3666
橢	-14.3668
斫	-14.3668
苧	-14.3669
迨	-14.3669
藺	-14.3669
惣	-14.3669
醪	-14.3669
蝮	-14.3669
鈧	-14.3669
讼	-14.3669
杳	-14.3669
鸨	-14.3669
ج	-14.3669
痍	-14.3669
鉚	-14.3669
豊	-14.3669
劊	-14.3669
鯰	-14.3669
주	-14.3669
嶸	-14.367
貍	-14.367
愨	-14.367
ㄍ	-14.367
禳	-14.367
嚷	-14.367
淼	-14.367
徂	-14.367
峄	-14.367
懽	-14.367
臬	-14.367
霭	-14.367
鹞	-14.367
莜	-14.3671
犄	-14.3671
牝	-14.3671
騁	-14.3671
鸱	-14.3671
粕	-14.3954
虬	-14.3954
璃	-14.3954
咩	-14.3954
秈	-14.3955
鱸	-14.3955
痂	-14.3955
臃	-14.3955
跷	-14.3955
埸	-14.3955
ǣ	-14.3955
煅	-14.3955
鷂	-14.3955
胫	-14.3955
ة	-14.3955
籁	-14.3955
槭	-14.3955
湜	-14.3955
嚥	-14.3955
呻	-14.3956
埡	-14.3956
ư	-14.3956
榊	-14.3956
蓥	-14.3956
暄	-14.3956
饯	-14.3956
郛	-14.3961
萸	-14.4247
ツ	-14.4248
丼	-14.4248
鲇	-14.4248
藷	-14.4248
ょ	-14.4248
戦	-14.4249
蓑	-14.4249
莧	-14.4249
塬	-14.4249
鯛	-14.4249
ʃ	-14.4249
遨	-14.4249
ɪ	-14.4249
琶	-14.4249
ق	-14.4249
ば	-14.4249
蛸	-14.4249
鯡	-14.4249
窠	-14.425
洸	-14.425
糍	-14.425
葷	-14.425
峠	-14.425
绯	-14.425
焱	-14.425
อ	-14.425
滏	-14.425
恸	-14.425
礪	-14.425
ㄔ	-14.4254
础	-14.4548
廩	-14.455
苋	-14.4551
鳟	-14.4551
鹄	-14.4551
न	-14.4551
锵	-14.4551
淙	-14.4552
鵪	-14.4552
鐽	-14.4552
ゴ	-14.4552
嘸	-14.4552
睜	-14.4552
浯	-14.4552
ἀ	-14.4552
捎	-14.4552
〝	-14.4552
仟	-14.4552
√	-14.4552
嗶	-14.4552
鱒	-14.4552
椋	-14.4553
祔	-14.4553
窕	-14.4553
鍅	-14.4553
竦	-14.4553
柝	-14.4554
鏤	-14.4554
鎣	-14.4556
⟩	-14.4557
⟨	-14.4557
镑	-14.4861
豳	-14.4861
狁	-14.4862
璈	-14.4863
顳	-14.4863
闫	-14.4863
枳	-14.4864
蚴	-14.4864
鱘	-14.4864
䥑	-14.4864
ゆ	-14.4864
掰	-14.4864
廄	-14.4864
啬	-14.4864
ㄊ	-14.4864
樨	-14.4864
蔵	-14.4864
跖	-14.4864
噜	-14.4864
啥	-14.4864
伝	-14.4864
ё	-14.4864
撩	-14.4865
肓	-14.4865
啾	-14.4865
崚	-14.4865
酊	-14.4865
鄮	-14.4865
唬	-14.4865
凫	-14.4865
粄	-14.4865
谙	-14.4865
鲢	-14.4865
捫	-14.4865
ㄈ	-14.4865
倜	-14.4865
鶘	-14.4865
垭	-14.4865
堞	-14.4865
哦	-14.4865
垸	-14.4866
ズ	-14.4866
槊	-14.4866
罽	-14.4866
楯	-14.4866
狻	-14.4866
惲	-14.4867
幄	-14.4867
鎦	-14.4867
衽	-14.4868
颱	-14.518
闳	-14.5183
凪	-14.5185
拏	-14.5185
蚜	-14.5186
薌	-14.5186
祏	-14.5186
伋	-14.5186
鈐	-14.5186
瘸	-14.5186
蝨	-14.5186
毎	-14.5186
蹺	-14.5186
颯	-14.5186
デ	-14.5186
莼	-14.5186
秸	-14.5186
鄚	-14.5187
摑	-14.5187
钇	-14.5187
嵗	-14.5187
犷	-14.5187
汎	-14.5187
鵠	-14.5187
硃	-14.5187
ك	-14.5187
ㄞ	-14.5187
び	-14.5187
闈	-14.5187
榎	-14.5187
砟	-14.5187
ف	-14.5188
鼩	-14.5188
洺	-14.5188
陘	-14.5188
枹	-14.5188
ㄟ	-14.5188
覡	-14.5188
唢	-14.5188
ง	-14.5188
塲	-14.5188
韞	-14.5188
庖	-14.5188
ั	-14.5188
増	-14.5188
邠	-14.5189
谴	-14.5189
甑	-14.519
俣	-14.519
廛	-14.5191
獬	-14.5191
徬	-14.5193
泚	-14.5193
浞	-14.5516
ㄫ	-14.5518
颞	-14.5518
尪	-14.5519
懵	-14.5519
凰	-14.5519
僞	-14.5519
嗡	-14.5519
蝰	-14.5519
薤	-14.552
嫘	-14.552
铱	-14.552
儸	-14.552
鲶	-14.552
纛	-14.552
佺	-14.552
殛	-14.552
浍	-14.552
เ	-14.552
ㄤ	-14.552
锇	-14.552
驁	-14.552
痧	-14.552
垟	-14.552
त	-14.5521
跸	-14.5521
驺	-14.5521
鸫	-14.5521
昪	-14.5521
柊	-14.5521
ṇ	-14.5521
関	-14.5521
珏	-14.5521
咧	-14.5521
暠	-14.5521
寔	-14.5521
賡	-14.5521
冏	-14.5522
绽	-14.5523
蹙	-14.5524
纫	-14.5525
祎	-14.5525
巂	-14.5863
皴	-14.5863
ほ	-14.5864
ʿ	-14.5864
籼	-14.5864
ń	-14.5865
攙	-14.5865
椪	-14.5865
ï	-14.5865
蛞	-14.5865
蝓	-14.5865
嫚	-14.5865
捒	-14.5865
曱	-14.5865
甴	-14.5865
ㄖ	-14.5865
ĝ	-14.5865
橚	-14.5866
蛉	-14.5866
ㄡ	-14.5866
溘	-14.5866
舢	-14.5866
滓	-14.5866
涑	-14.5866
幗	-14.5866
蚝	-14.5866
蚋	-14.5867
寳	-14.5867
畈	-14.5867
菖	-14.5868
绾	-14.5869
崛	-14.6972
隕	-14.779
跆	-14.9159
苹	-14.966
堊	-15.0741
溉	-15.0741
礎	-15.1327
淆	-15.196
挝	-15.2616
犧	-15.3337
皈	-15.4103
郸	-15.4939
筲	-15.6848
萄	-15.7958
穌	-15.9208
靺	-15.9209
蝙	-16.0638
鰂	-16.2303
骼	-16.2312
蜘	-16.6804
渲	-16.6804
稣	-17.0134
蝴	-17.0138
鹕	-17.5085
熜	-17.5086
潽	-17.5087
鹌	-17.5088
暅	-17.5089
俬	-17.509
┬	-17.5091
犽	-17.5092
鄩	-17.5093
鸂	-17.5094
鶒	-17.5095
鍙	-17.5096
𥙿	-17.5097
猁	-17.5098
乭	-17.5099
醱	-17.51
篝	-17.5101
疙	-17.5102
𡒉	-17.5103
狓	-17.5104
㺢	-17.5105
㹢	-17.5106
仫	-17.5107
鶓	-17.5108
馄	-17.5109
狽	-17.511
傕	-17.5111
躪	-17.5112
崃	-17.5113
刽	-17.5114
衚	-17.5115
餮	-17.5116
鹋	-17.5117
鸸	-17.5118
裟	-17.5119
譞	-17.512
慫	-17.5121
鯓	-17.5122
憧	-17.5123
纭	-17.5124
倻	-17.5125
蚯	-17.5126
駙	-17.5127
尴	-17.5128
邂	-17.5129
嚨	-17.513
崭	-17.5131
螃	-17.5132
骷	-17.5133
鹉	-17.5134
艋	-17.5135
饪	-17.5136
闆	-17.5137
肪	-17.5138
儡	-17.5138
圾	-17.5139
鞨	-17.5139
