<unk>	0
<s>	0
</s>	0
,	-3.11433
的	-3.5927
。	-3.79135
▁	-4.08173
、	-4.57833
年	-4.7142
在	-4.83388
.	-4.99601
和	-5.21113
(	-5.31303
是	-5.35758
中	-5.50356
人	-5.52125
月	-5.57221
"	-5.57668
有	-5.59601
大	-5.63677
了	-5.66544
▁##	-5.67792
)	-5.73376
="	-5.76543
日	-5.79863
為	-5.90409
一	-5.94863
上	-5.98392
以	-5.98977
为	-6.01824
不	-6.06668
《	-6.09955
c	-6.12796
被	-6.1698
「	-6.18351
doc	-6.18429
>	-6.18693
“	-6.19071
而	-6.19411
與	-6.23109
之	-6.2365
於	-6.26489
:	-6.27724
;	-6.27771
地	-6.30172
·	-6.31164
》	-6.31601
等	-6.32488
1	-6.32596
他	-6.32672
及	-6.34909
斯	-6.40159
其	-6.44359
3	-6.4822
到	-6.48924
-	-6.49989
下	-6.52571
也	-6.53322
後	-6.54303
名	-6.54787
/	-6.5492
出	-6.55779
西	-6.55965
2	-6.56575
子	-6.58722
新	-6.60459
由	-6.60943
高	-6.61507
于	-6.61715
多	-6.61734
山	-6.61906
但	-6.62066
法	-6.63001
所	-6.63567
zh	-6.64244
會	-6.64612
」	-6.6722
后	-6.67475
与	-6.67811
南	-6.69487
德	-6.69761
三	-6.70474
4	-6.70702
市	-6.70765
克	-6.72442
家	-6.72473
前	-6.73402
5	-6.73905
”	-6.74188
時	-6.75166
用	-6.755
性	-6.76177
分	-6.76197
7	-6.77403
生	-6.79269
?	-6.79498
者	-6.8073
部	-6.81159
天	-6.81905
或	-6.82779
文	-6.84068
對	-6.8422
至	-6.84279
10	-6.84673
外	-6.85529
特	-6.86208
org	-6.86406
水	-6.86814
wiki	-6.87105
▁id	-6.87469
://	-6.87591
https	-6.87798
wikipedia	-6.87895
▁<	-6.87915
▁url	-6.87996
▁title	-6.88015
urid	-6.88038
▁categories	-6.88053
6	-6.88137
▁</	-6.88197
),	-6.885
國	-6.89281
海	-6.89676
都	-6.90053
道	-6.90487
可	-6.91173
=""	-6.91408
对	-6.93641
自	-6.93975
小	-6.94108
長	-6.94362
尔	-6.94438
8	-6.94736
公	-6.95881
力	-6.96039
18	-6.96045
9	-6.96053
金	-6.96563
州	-6.9673
成	-6.96739
王	-6.97114
安	-6.97444
拉	-6.9867
会	-6.98788
s	-6.99453
位	-6.99686
入	-7.01249
国	-7.01263
本	-7.02972
里	-7.03568
化	-7.04408
城	-7.04984
行	-7.06172
並	-7.07565
將	-7.07651
政府	-7.07775
时	-7.08468
此	-7.0903
向	-7.09278
明	-7.09434
區	-7.09567
北	-7.09954
利	-7.11339
就	-7.11502
区	-7.11599
面	-7.11702
任	-7.11968
加	-7.12996
12	-7.13712
可以	-7.14053
军	-7.15014
元	-7.15953
軍	-7.16177
并	-7.17224
制	-7.1742
原	-7.18928
四	-7.19929
重	-7.20029
次	-7.20061
同	-7.21059
作	-7.21693
最	-7.21983
长	-7.22368
省	-7.22615
定	-7.23413
二	-7.23857
全	-7.24107
來	-7.24438
因	-7.24794
主	-7.25498
事	-7.25664
更	-7.259
爾	-7.26134
格	-7.26381
11	-7.26594
林	-7.26997
将	-7.27397
平	-7.27445
19	-7.2782
使用	-7.28126
如	-7.28613
體	-7.28702
使	-7.28875
正	-7.28954
香港	-7.29514
=	-7.29768
日本	-7.29949
d	-7.31197
个	-7.31203
學	-7.31453
比	-7.3151
教	-7.31987
中国	-7.31992
县	-7.32073
度	-7.32093
東	-7.32347
)。	-7.33361
手	-7.33892
科	-7.34717
量	-7.34808
光	-7.35485
体	-7.35562
民	-7.358
起	-7.35992
方	-7.36076
士	-7.36385
学	-7.36501
路	-7.36878
内	-7.36896
以及	-7.37231
物	-7.37384
尼	-7.37522
包括	-7.37527
河	-7.37782
美	-7.37867
流	-7.38518
代	-7.38657
米	-7.38667
內	-7.39771
立	-7.40268
工	-7.40354
台	-7.41076
神	-7.41128
要	-7.4152
能	-7.42424
来	-7.42425
布	-7.4249
這	-7.42601
理	-7.42717
派	-7.43046
各	-7.43192
合	-7.43382
曾	-7.43539
巴	-7.43737
戰	-7.44072
即	-7.44089
首	-7.4416
东	-7.44744
從	-7.45598
从	-7.46053
石	-7.46182
又	-7.46365
音	-7.46621
清	-7.46682
b	-7.46861
m	-7.47509
相	-7.47625
y	-7.48399
回	-7.49054
政	-7.49151
通	-7.4924
建	-7.49278
阿	-7.49408
第	-7.4946
其中	-7.50146
五	-7.50181
星	-7.50458
17	-7.50524
古	-7.50685
意	-7.50817
n	-7.51017
局	-7.5186
0	-7.51887
得	-7.52152
卡	-7.52357
馬	-7.52877
20	-7.52987
器	-7.53085
15	-7.53085
則	-7.53119
李	-7.53309
江	-7.5354
已	-7.54166
發	-7.5424
兩	-7.55442
期	-7.5551
機	-7.55814
數	-7.55817
数	-7.55973
a	-7.56348
16	-7.56501
場	-7.56581
受	-7.56716
交	-7.56737
因此	-7.56978
g	-7.5725
世	-7.57304
個	-7.57394
其他	-7.57506
主要	-7.58233
马	-7.58697
共	-7.58747
亦	-7.59008
商	-7.59583
院	-7.61373
女	-7.61519
族	-7.61689
一个	-7.61741
心	-7.61972
这	-7.62541
周	-7.62552
式	-7.62552
口	-7.6301
称	-7.63093
改	-7.63231
語	-7.64045
無	-7.64156
指	-7.6448
两	-7.65049
研究	-7.65341
英	-7.65393
線	-7.65452
t	-7.65814
官	-7.66057
信	-7.66103
公司	-7.66137
太	-7.66238
球	-7.66297
语	-7.66371
反	-7.66626
p	-7.67201
兵	-7.67202
白	-7.67446
国家	-7.67451
大学	-7.68103
率	-7.68353
中國	-7.68431
稱	-7.69183
一個	-7.69252
第一	-7.6945
文化	-7.69722
集	-7.69863
型	-7.70241
字	-7.70625
書	-7.70667
波	-7.71141
14	-7.71308
好	-7.71336
站	-7.71486
當	-7.71519
夫	-7.71645
o	-7.71942
史	-7.71951
約	-7.72475
e	-7.72531
美國	-7.73204
基	-7.73752
號	-7.74765
武	-7.74955
战	-7.75268
著	-7.75665
該	-7.76197
)、	-7.76291
成為	-7.7635
系	-7.76378
发	-7.76546
13	-7.7679
達	-7.76794
校	-7.77075
世界	-7.77195
人口	-7.77216
列	-7.79111
f	-7.79285
先	-7.79348
r	-7.79634
开	-7.79861
接	-7.79882
六	-7.80164
花	-7.80322
身	-7.80408
罗	-7.81052
”。	-7.8127
代表	-7.81278
亞	-7.81383
亚	-7.81529
把	-7.81573
宗	-7.81576
情	-7.81859
形	-7.82038
机	-7.82206
线	-7.82256
八	-7.82265
之一	-7.82816
界	-7.82854
羅	-7.83223
k	-7.83514
收	-7.83562
一些	-7.83744
级	-7.84108
l	-7.84322
书	-7.84394
非	-7.84964
開始	-7.85243
部分	-7.85308
=1	-7.85542
開	-7.85713
車	-7.85767
動	-7.86017
她	-7.86116
色	-7.86739
電	-7.86977
近	-7.87131
百	-7.87334
常	-7.87953
說	-7.88006
」,	-7.88261
空	-7.88327
未	-7.88341
死	-7.88544
工作	-7.88635
取	-7.88689
总	-7.88881
美国	-7.89089
30	-7.89142
它	-7.8939
保	-7.8942
朝	-7.89702
塔	-7.89831
万	-7.90201
今	-7.90636
隊	-7.90858
少	-7.90976
港	-7.91215
政治	-7.91266
成立	-7.91324
過	-7.91344
點	-7.91555
动	-7.91625
达	-7.91675
縣	-7.92151
年代	-7.9245
x	-7.92648
提	-7.92751
地区	-7.93324
才	-7.93418
他的	-7.93455
老	-7.93545
便	-7.93576
國家	-7.93684
该	-7.93828
去	-7.93982
号	-7.94086
片	-7.94123
曲	-7.94272
大學	-7.94321
华	-7.945
社	-7.94773
无	-7.94818
像	-7.95068
中心	-7.95495
那	-7.95501
田	-7.95842
經	-7.95937
可能	-7.96339
当	-7.96433
打	-7.96552
城市	-7.96972
權	-7.9705
每	-7.97054
formula	-7.97329
哈	-7.97564
九	-7.97633
”,	-7.97813
▁在	-7.97847
總	-7.98025
开始	-7.98044
修	-7.98097
u	-7.98191
解	-7.98261
普	-7.98302
師	-7.98597
电	-7.99158
台灣	-7.99356
成为	-7.99478
吉	-7.99529
中的	-8.00779
萬	-8.0084
」。	-8.01208
说	-8.01427
轉	-8.01726
则	-8.01818
表示	-8.02036
傳	-8.02285
再	-8.02396
中央	-8.02593
党	-8.02635
處	-8.02639
管	-8.02772
门	-8.02844
座	-8.03214
福	-8.03273
第二	-8.0351
点	-8.03549
伊	-8.03607
進	-8.03801
認為	-8.03909
十	-8.04199
只	-8.04214
初	-8.0435
半	-8.04373
沙	-8.04494
维	-8.05114
門	-8.05167
还	-8.05623
汉	-8.06123
應	-8.06223
木	-8.06234
教育	-8.06738
地區	-8.06798
客	-8.06971
落	-8.07117
均	-8.07219
我	-8.07242
火	-8.07296
種	-8.07321
真	-8.07569
不同	-8.07721
華	-8.07827
張	-8.07993
直	-8.08083
當時	-8.08407
场	-8.08496
令	-8.08802
正式	-8.0887
除	-8.08879
論	-8.08983
帝	-8.09432
进	-8.09651
因為	-8.09696
土	-8.09831
千	-8.09928
过	-8.09951
25	-8.09968
氣	-8.10382
往	-8.10525
变	-8.10588
治	-8.10719
曼	-8.10758
頭	-8.10871
仍	-8.10951
很	-8.10954
登	-8.11048
群	-8.11112
推	-8.11604
段	-8.11737
深	-8.11785
他們	-8.11899
發展	-8.11901
義	-8.11925
例如	-8.11946
七	-8.12241
属	-8.12298
也是	-8.12693
支持	-8.12842
i	-8.13002
居	-8.13178
品	-8.13292
較	-8.13431
经	-8.13651
選	-8.1366
歌	-8.13841
着	-8.13863
看	-8.14007
景	-8.14228
府	-8.14228
演	-8.14641
镇	-8.14748
感	-8.14799
h	-8.15059
w	-8.15059
密	-8.15273
放	-8.15375
黨	-8.15557
一般	-8.1561
re	-8.1574
人民	-8.15944
沒有	-8.16068
处	-8.16367
進行	-8.16393
低	-8.16496
所有	-8.16661
约	-8.16846
le	-8.17023
但是	-8.17393
洛	-8.17451
雷	-8.1752
蘭	-8.17763
島	-8.17901
占	-8.18078
勒	-8.18184
种	-8.18254
瓦	-8.18417
经济	-8.18601
間	-8.18699
师	-8.18882
支	-8.19237
50	-8.19742
變	-8.20181
由於	-8.20296
報	-8.20329
維	-8.20631
故	-8.20783
賽	-8.20893
封	-8.21385
實	-8.21426
防	-8.21539
图	-8.21629
射	-8.21699
权	-8.21778
病	-8.22016
強	-8.22149
村	-8.22262
通过	-8.22264
伯	-8.22315
知	-8.2233
版	-8.22443
传	-8.22644
氏	-8.22814
員	-8.23132
唐	-8.23155
言	-8.23179
湖	-8.23266
案	-8.23338
al	-8.23342
臺灣	-8.23522
方面	-8.23648
室	-8.23748
漢	-8.24115
认为	-8.24481
张	-8.2497
源	-8.251
阳	-8.25273
他们	-8.25293
23	-8.25425
做	-8.25772
实	-8.25798
越	-8.25958
工程	-8.25966
索	-8.26044
自己	-8.26057
存	-8.26287
24	-8.2639
青	-8.26617
連	-8.2682
进行	-8.26829
威	-8.27071
自由	-8.27213
寫	-8.27391
思	-8.27471
風	-8.27562
发展	-8.27795
之後	-8.27856
纳	-8.27942
没有	-8.27977
事件	-8.28015
气	-8.28019
佛	-8.28045
精	-8.28068
奇	-8.28435
值	-8.2866
北京	-8.28667
塞	-8.28892
类	-8.28986
er	-8.29014
托	-8.29108
团	-8.29219
v	-8.29605
黑	-8.2987
由于	-8.3028
宋	-8.30295
论	-8.30438
角	-8.30491
存在	-8.305
造	-8.30742
给	-8.31074
食	-8.31165
-{	-8.31287
副	-8.31299
運	-8.3134
給	-8.31397
英國	-8.31541
還	-8.31768
表	-8.31792
队	-8.31792
鄉	-8.31834
40	-8.31864
早	-8.32128
泰	-8.32135
通常	-8.3224
世纪	-8.32276
置	-8.32518
船	-8.32612
管理	-8.32622
需要	-8.32852
圖	-8.32982
視	-8.32991
建立	-8.33064
受到	-8.33151
微	-8.33152
業	-8.33225
21	-8.33324
报	-8.3366
转	-8.33807
陳	-8.33931
车	-8.34331
委	-8.34393
生活	-8.34455
納	-8.34456
查	-8.34615
守	-8.34666
航	-8.34771
見	-8.34875
写	-8.34934
增	-8.35078
堂	-8.35158
底	-8.35214
000	-8.35443
章	-8.35457
季	-8.35565
》,	-8.35605
整	-8.35732
提供	-8.3586
核	-8.35968
所以	-8.36204
屬	-8.36275
樂	-8.36285
兰	-8.36338
%	-8.36392
带	-8.36616
头	-8.36704
en	-8.36892
想	-8.37054
要求	-8.37627
目	-8.37675
引	-8.37918
22	-8.38141
聖	-8.382
劇	-8.3832
讓	-8.38419
黃	-8.38568
》、《	-8.38665
黄	-8.38978
上的	-8.39161
助	-8.3924
丹	-8.3948
川	-8.39621
苏	-8.39719
程	-8.39786
作品	-8.39795
同時	-8.39978
员	-8.39987
單	-8.39995
&	-8.40179
奥	-8.40215
作为	-8.40266
級	-8.40357
社會	-8.40425
26	-8.4048
步	-8.40504
节	-8.4053
展	-8.40736
行政	-8.40752
攻	-8.40769
时期	-8.40792
皇	-8.40846
an	-8.40851
风	-8.4087
强	-8.4109
第三	-8.41624
姆	-8.41631
甲	-8.41743
失	-8.41747
丁	-8.41752
上海	-8.41775
系统	-8.42006
目前	-8.42091
龍	-8.42188
留	-8.42402
志	-8.42436
系統	-8.42459
團	-8.42482
愛	-8.4262
超	-8.43143
經濟	-8.43411
森	-8.43437
配	-8.43608
節	-8.44038
層	-8.44118
形成	-8.44125
具有	-8.44355
許多	-8.44399
产	-8.44402
走	-8.44434
且	-8.44544
血	-8.44672
主义	-8.44802
現	-8.44887
永	-8.44896
素	-8.44957
最高	-8.45031
_	-8.45502
复	-8.45513
母	-8.45597
電影	-8.45609
移	-8.45635
升	-8.45643
成功	-8.45973
就是	-8.46074
国际	-8.46246
堡	-8.46373
:“	-8.46399
職	-8.46422
in	-8.46462
康	-8.46537
聯	-8.46592
這些	-8.46692
迪	-8.46875
应	-8.46931
运	-8.46971
野	-8.47078
然而	-8.4709
酸	-8.47204
游	-8.47315
國際	-8.47489
產	-8.47582
極	-8.47708
夏	-8.47855
考	-8.47887
件	-8.4804
富	-8.48259
裝	-8.48388
恩	-8.4841
宁	-8.4846
28	-8.48556
類	-8.48682
皮	-8.48687
位于	-8.48721
具	-8.48815
60	-8.48897
现	-8.49162
这个	-8.49187
边	-8.49199
時期	-8.49219
希	-8.49253
若	-8.49268
出現	-8.49403
提出	-8.49404
()	-8.49459
依	-8.49476
觀	-8.49652
这些	-8.4973
擊	-8.49986
命	-8.50147
组	-8.50207
端	-8.50213
排	-8.50311
学院	-8.50336
送	-8.50395
祖	-8.50403
ch	-8.50445
帶	-8.50487
世紀	-8.50584
短	-8.50655
革命	-8.50698
設	-8.50777
末	-8.50839
藏	-8.51095
同时	-8.51106
话	-8.51239
社会	-8.51259
司	-8.51398
裡	-8.51424
交通	-8.5192
剧	-8.51972
控制	-8.52018
春	-8.52054
27	-8.52117
ar	-8.52318
時間	-8.52444
郡	-8.52663
殺	-8.52686
只有	-8.52698
选	-8.52788
哥	-8.52821
京	-8.52932
增加	-8.52971
籍	-8.52973
作為	-8.53171
公里	-8.53252
摩	-8.5329
組	-8.53478
90	-8.53651
草	-8.53658
词	-8.537
都是	-8.53739
70	-8.5376
抗	-8.53768
业	-8.53906
较	-8.53987
記	-8.54001
j	-8.5419
民族	-8.54207
獎	-8.54406
寺	-8.54407
班	-8.54505
服	-8.54536
印度	-8.54547
大量	-8.5457
聲	-8.55157
運動	-8.55238
st	-8.55279
票	-8.55319
设	-8.5541
余	-8.55457
質	-8.55564
境	-8.55625
ro	-8.55715
架	-8.55773
告	-8.55836
足	-8.55855
z	-8.55909
根	-8.55978
完成	-8.5602
英国	-8.56075
萨	-8.56285
卫	-8.56414
關	-8.56444
嘉	-8.56454
同年	-8.56656
80	-8.56777
這個	-8.56825
位於	-8.56963
地方	-8.56997
间	-8.57015
街	-8.57021
质	-8.5714
求	-8.57185
獲得	-8.57244
胡	-8.57558
後來	-8.57743
▁(	-8.57746
結	-8.57805
博	-8.58065
梅	-8.58101
得到	-8.58149
條	-8.5831
任何	-8.58636
组织	-8.58674
干	-8.58687
另外	-8.58723
離	-8.5873
当时	-8.58732
全国	-8.58772
自然	-8.58804
專	-8.58911
造成	-8.59145
邊	-8.59176
声	-8.59466
延	-8.59574
發現	-8.59715
如果	-8.59903
甚至	-8.60123
视	-8.60251
投	-8.60269
始	-8.60451
份	-8.60586
非常	-8.60681
致	-8.60719
也有	-8.60925
29	-8.6096
之后	-8.60962
鐵	-8.61111
問題	-8.61206
乐	-8.61339
稱為	-8.6137
油	-8.61383
獲	-8.61478
单	-8.61521
此外	-8.6161
除了	-8.61648
主義	-8.61697
加入	-8.61699
运动	-8.62018
兴	-8.62044
效	-8.62148
基本	-8.62185
政策	-8.62454
赫	-8.62664
一直	-8.62693
因为	-8.62885
铁路	-8.6289
算	-8.63081
述	-8.63087
接受	-8.63347
股	-8.63454
}-	-8.63461
条	-8.63529
龙	-8.6357
酒	-8.63592
卻	-8.63672
停	-8.63679
假	-8.63683
义	-8.63731
影響	-8.63917
典	-8.64031
然	-8.64165
奧	-8.64264
降	-8.6435
例	-8.64508
》(	-8.64583
話	-8.64848
学校	-8.649
雅	-8.64904
红	-8.64945
历史	-8.64972
律	-8.65045
友	-8.65139
詞	-8.65252
战争	-8.65278
形式	-8.65326
望	-8.65471
问题	-8.65521
极	-8.65529
親	-8.65536
鎮	-8.65594
岛	-8.65653
li	-8.65752
果	-8.65807
:「	-8.65982
域	-8.66012
。”	-8.66168
宣	-8.66269
委员会	-8.66508
容	-8.66656
包	-8.66695
圣	-8.66922
松	-8.66972
导	-8.67014
宗教	-8.67015
款	-8.67025
關係	-8.67528
判	-8.67561
秀	-8.67564
晚	-8.67644
組織	-8.67752
秦	-8.67869
层	-8.6795
活	-8.67987
直接	-8.68001
務	-8.68064
广	-8.68107
僅	-8.68264
歲	-8.68293
牛	-8.68344
蒙	-8.68366
隆	-8.68469
差	-8.68474
影	-8.68537
专	-8.68551
资	-8.68757
亡	-8.6878
導	-8.68956
承	-8.69079
方式	-8.69122
批	-8.69346
施	-8.69601
诺	-8.69654
照	-8.69684
劉	-8.69738
赛	-8.69934
設計	-8.69984
蘇	-8.70075
编	-8.7012
臺	-8.70139
温	-8.70277
离	-8.7032
牌	-8.70452
出版	-8.7051
資	-8.70667
象	-8.70833
合作	-8.70849
害	-8.70947
▁s	-8.70954
發生	-8.70976
仅	-8.71069
建筑	-8.71091
桥	-8.71125
鲁	-8.71241
ri	-8.71429
雖然	-8.71729
止	-8.71885
音樂	-8.7189
乡	-8.7195
生物	-8.71961
房	-8.72129
自己的	-8.72344
法国	-8.72359
良	-8.72361
技术	-8.7238
完全	-8.72382
主席	-8.72413
记	-8.72452
歐	-8.72496
衛	-8.72496
遠	-8.72701
职	-8.72731
根据	-8.7279
时间	-8.72794
仁	-8.72875
很多	-8.7298
興	-8.73115
la	-8.73198
期間	-8.73242
许多	-8.73251
玉	-8.73262
作用	-8.73324
旗	-8.73436
连	-8.73518
紅	-8.73529
諾	-8.73588
调	-8.73641
关	-8.73648
左	-8.73962
領	-8.73982
别	-8.73999
见	-8.74022
供	-8.74062
住	-8.74534
根據	-8.74653
散	-8.74874
熱	-8.74918
远	-8.7492
不能	-8.75044
is	-8.75175
费	-8.7525
昌	-8.75259
装	-8.75347
料	-8.75426
已经	-8.75548
or	-8.75658
盛	-8.75673
园	-8.75704
制度	-8.75731
消	-8.75788
莱	-8.75817
刻	-8.75996
艾	-8.76054
出现	-8.76059
朱	-8.76108
廣	-8.76116
朗	-8.76117
歷史	-8.76202
中華民國	-8.76275
溪	-8.76402
埃	-8.76602
梁	-8.76698
科学	-8.76731
調	-8.76797
取得	-8.7687
營	-8.7719
充	-8.77218
限	-8.77259
最後	-8.77361
领	-8.77458
功	-8.77467
弗	-8.77595
航空	-8.77624
店	-8.77635
语言	-8.77729
彈	-8.77823
項	-8.77852
击	-8.77981
之前	-8.78154
費	-8.78184
總統	-8.78196
——	-8.78305
別	-8.78425
戶	-8.78486
盟	-8.78522
奖	-8.78556
民主	-8.78682
戰爭	-8.78783
人的	-8.78902
活動	-8.79126
」(	-8.79245
100	-8.79301
峰	-8.79305
谷	-8.79305
皆	-8.79502
何	-8.79609
板	-8.79895
宣布	-8.80028
使得	-8.80049
宮	-8.80133
方法	-8.80224
2005	-8.80319
早期	-8.80321
尾	-8.80382
跟	-8.80402
議	-8.80511
潮	-8.80681
蒂	-8.8075
二十	-8.80752
直到	-8.80787
探	-8.80799
已經	-8.8081
31	-8.80944
这一	-8.81074
退	-8.8112
署	-8.81127
利用	-8.81128
法律	-8.81178
德国	-8.81506
邦	-8.81719
備	-8.81797
復	-8.81829
改革	-8.81873
而且	-8.81956
斯特	-8.81968
me	-8.81986
一次	-8.82088
参	-8.82352
莫	-8.82495
尚	-8.82634
快	-8.82853
陵	-8.82884
办	-8.82944
園	-8.83129
平均	-8.83139
注	-8.83369
遊戲	-8.83375
2000	-8.83384
陈	-8.8363
联	-8.83643
切	-8.83934
关系	-8.84001
gt	-8.84017
薩	-8.84215
男	-8.84235
se	-8.84337
观	-8.84636
ra	-8.8477
项	-8.84813
刊	-8.84842
不同的	-8.85025
魯	-8.85081
元素	-8.85202
產生	-8.85254
洲	-8.85257
乘	-8.85319
重新	-8.85424
創	-8.85542
篇	-8.85551
父	-8.8557
救	-8.85757
地位	-8.85834
工业	-8.85873
发现	-8.85936
陽	-8.8596
製	-8.86317
學生	-8.86381
th	-8.86407
大部分	-8.86417
毛	-8.8646
預	-8.86792
歐洲	-8.86849
隨	-8.86866
on	-8.87068
臣	-8.87076
务	-8.87115
爱	-8.87364
证	-8.87458
中华人民共和国	-8.87469
35	-8.87552
孫	-8.87613
到了	-8.8769
滿	-8.87716
附	-8.8804
皇帝	-8.88112
瑞	-8.88133
略	-8.88316
以上	-8.88321
舊	-8.88442
畫	-8.88514
勝	-8.88539
香	-8.88552
重要	-8.88574
洋	-8.88587
发生	-8.88627
法國	-8.88898
获得	-8.88952
終	-8.88973
察	-8.88986
擔任	-8.89044
警	-8.89208
決定	-8.89311
思想	-8.89329
刘	-8.89387
岁	-8.89425
追	-8.89591
決	-8.89607
]]	-8.89682
版本	-8.89777
通過	-8.89859
[[	-8.89879
禮	-8.89902
待	-8.90033
難	-8.9018
影响	-8.90198
時代	-8.90224
首次	-8.90277
對於	-8.90306
罪	-8.90407
服務	-8.90487
顿	-8.90529
伦	-8.90532
印	-8.90545
设计	-8.90611
期间	-8.90703
俄	-8.90733
示	-8.90757
學校	-8.90802
為了	-8.90841
兼	-8.90961
不過	-8.90985
勢	-8.91026
並且	-8.91124
el	-8.91201
前往	-8.91208
雨	-8.91342
两个	-8.91342
速	-8.91362
雙	-8.91372
活动	-8.91474
人物	-8.91475
故事	-8.91724
標	-8.9178
編	-8.91838
决	-8.91977
据	-8.92386
灣	-8.92498
逃	-8.92509
帝國	-8.92712
序	-8.92792
辦	-8.92883
2004	-8.92981
樓	-8.93101
易	-8.93106
杜	-8.93275
夜	-8.93465
画	-8.93482
lt	-8.93502
会议	-8.93583
卷	-8.93586
洪	-8.93636
屆	-8.93684
網	-8.93687
含	-8.93716
杀	-8.93802
播	-8.93854
2010	-8.94003
奉	-8.94032
讀	-8.94126
認	-8.945
以下	-8.94695
或者	-8.94829
功能	-8.94834
飛	-8.9489
擁有	-8.94936
宫	-8.94946
語言	-8.94964
席	-8.94979
结	-8.95137
模	-8.95142
館	-8.95235
压	-8.95281
溫	-8.9532
议	-8.95349
錄	-8.9538
態	-8.9545
茶	-8.95503
us	-8.95508
全球	-8.95599
te	-8.95791
es	-8.95906
他在	-8.95949
角色	-8.96065
忠	-8.96145
沿	-8.96168
善	-8.96206
建築	-8.96256
2006	-8.96391
岸	-8.96455
雲	-8.96472
右	-8.96514
》。	-8.96578
命名	-8.96629
征	-8.96742
后来	-8.9677
铁	-8.9683
热	-8.96848
委員會	-8.96914
蒙古	-8.97
頓	-8.97082
满	-8.97121
这种	-8.97141
原因	-8.97476
你	-8.97546
欧	-8.97562
总统	-8.97588
包含	-8.97597
让	-8.97599
獨立	-8.97675
益	-8.97688
持	-8.97764
農	-8.97808
电影	-8.97896
楼	-8.97924
仍然	-8.98017
詩	-8.9806
能力	-8.98242
霍	-8.9825
拿	-8.98259
是由	-8.98291
穿	-8.98474
俗	-8.98487
ta	-8.98542
需	-8.98591
君	-8.98623
學院	-8.98672
選舉	-8.98733
库	-8.98828
+	-8.98941
位置	-8.9896
介	-8.98972
輕	-8.98974
參	-8.98996
智	-8.99045
暴	-8.99166
靈	-8.99216
倫	-8.99232
德國	-8.99284
雪	-8.99321
南京	-8.99333
進入	-8.99362
标	-8.99577
唯一	-8.99586
聚	-8.99587
必	-8.99593
圍	-8.99676
2008	-8.99686
ma	-8.99941
露	-9.00114
證	-9.00158
環	-9.00269
计划	-9.00395
兩個	-9.00477
营	-9.00494
附近	-9.00497
lo	-9.00629
女性	-9.00655
产生	-9.00712
共同	-9.00868
禁	-9.00901
歸	-9.01073
性的	-9.01131
推出	-9.01163
诗	-9.01219
系列	-9.01266
特別	-9.01325
換	-9.01502
電視	-9.01517
私	-9.0155
魏	-9.01574
38	-9.01614
叶	-9.01758
一种	-9.01759
植物	-9.01855
西班牙	-9.01859
分子	-9.01909
侯	-9.01914
護	-9.0198
称为	-9.02162
中共	-9.0218
佔	-9.02236
眾	-9.02391
45	-9.02409
眼	-9.02412
(),	-9.02454
37	-9.0249
届	-9.02574
|	-9.02625
獨	-9.0268
安全	-9.02823
欧洲	-9.02849
ing	-9.02947
2007	-9.0303
遺	-9.03045
决定	-9.03201
隔	-9.03206
组成	-9.03221
雄	-9.03261
de	-9.03263
音乐	-9.034
64	-9.03574
裁	-9.03743
傳統	-9.03782
術	-9.03847
”(	-9.03863
居民	-9.03877
北部	-9.03913
云	-9.03966
麗	-9.04107
历	-9.04195
36	-9.04387
句	-9.04488
骨	-9.04525
肉	-9.04601
套	-9.04624
网	-9.04743
泉	-9.05005
一起	-9.0503
岩	-9.05041
艦	-9.05088
科學	-9.05128
傷	-9.05193
不少	-9.05245
迁	-9.05305
32	-9.05319
▁a	-9.05425
学生	-9.05503
宜	-9.05651
进入	-9.05804
麥	-9.05821
吳	-9.05935
葉	-9.05973
尊	-9.05999
新的	-9.06
徐	-9.06033
渡	-9.06036
另一	-9.06083
確	-9.06149
帕	-9.06168
指出	-9.06287
旋	-9.06396
希望	-9.06427
2012	-9.06516
是在	-9.06577
出生	-9.06675
最大的	-9.06714
°	-9.06758
!	-9.06823
息	-9.06879
寶	-9.06925
魔	-9.07071
敗	-9.07152
喜	-9.07164
破	-9.0719
南部	-9.07218
固	-9.07236
双	-9.07315
建设	-9.0735
十二	-9.07562
公共	-9.0758
惠	-9.076
幾	-9.07652
相同	-9.07715
独立	-9.07774
再次	-9.07794
创	-9.07847
随	-9.07867
换	-9.08018
斷	-9.08021
众	-9.08033
組成	-9.08116
碼	-9.08163
琴	-9.0819
'	-9.08295
地理	-9.08308
at	-9.0836
壓	-9.08368
參與	-9.08393
這種	-9.08486
麦	-9.08635
结构	-9.08736
一種	-9.08864
描述	-9.08883
ne	-9.08885
據	-9.08909
现代	-9.09229
魚	-9.09267
無法	-9.0927
48	-9.09272
帝国	-9.09276
情況	-9.09301
墓	-9.09329
苏联	-9.0935
異	-9.09542
_1	-9.09573
餘	-9.096
归	-9.09643
宝	-9.09703
足球	-9.09799
测	-9.09824
的人	-9.09959
殿	-9.09995
按	-9.10059
廷	-9.10152
爭	-9.10167
節目	-9.1017
还有	-9.10247
ur	-9.10251
2009	-9.10399
几	-9.10473
47	-9.10477
2003	-9.10632
人類	-9.10743
舉行	-9.10752
唱	-9.10909
予	-9.11075
拥有	-9.11155
备	-9.11166
参加	-9.11254
。」	-9.11388
遷	-9.11407
39	-9.11432
地球	-9.11485
家庭	-9.11499
萊	-9.11747
徒	-9.11763
2011	-9.11784
分別	-9.11812
磁	-9.11993
途	-9.12013
最终	-9.12107
載	-9.12113
亲	-9.12151
共有	-9.12156
中文	-9.12169
教授	-9.12172
某	-9.12234
戴	-9.1225
等人	-9.12296
現代	-9.12301
孔	-9.12523
协	-9.12643
75	-9.12758
王朝	-9.12807
00	-9.12818
不是	-9.12819
許	-9.12833
65	-9.12834
激	-9.12901
确	-9.13028
死亡	-9.1309
一定	-9.131
偏	-9.13139
會議	-9.13141
馆	-9.13291
享	-9.13306
生产	-9.13355
il	-9.13454
获	-9.13476
最終	-9.13578
理论	-9.13622
菲	-9.13665
橋	-9.13689
育	-9.13769
導致	-9.13891
一位	-9.13991
炮	-9.14072
官方	-9.14115
34	-9.14222
na	-9.14226
ce	-9.14235
庫	-9.14246
的主要	-9.14467
諸	-9.14563
羅馬	-9.14644
幕	-9.14664
部份	-9.14671
农	-9.14687
土地	-9.1471
难	-9.14812
33	-9.14908
机构	-9.14995
招	-9.15112
靠	-9.1512
技術	-9.15138
吴	-9.15168
围	-9.15195
陸	-9.1522
屋	-9.15277
繁	-9.1532
人士	-9.15574
急	-9.15588
婚	-9.1563
第四	-9.15637
至今	-9.15638
製作	-9.15695
材	-9.15704
址	-9.15779
每年	-9.15823
毒	-9.15834
2014	-9.1584
mo	-9.15877
成員	-9.15929
慶	-9.16086
什	-9.16208
西方	-9.16257
陆	-9.16272
55	-9.16286
有些	-9.16324
目的	-9.16352
郎	-9.16354
预	-9.16383
遊	-9.16399
读	-9.16414
適	-9.16427
了一	-9.16482
驻	-9.16537
藝	-9.16601
▁b	-9.16621
it	-9.16638
速度	-9.16679
原子	-9.16688
珠	-9.16724
絕	-9.16739
刑	-9.1676
冠	-9.16776
來自	-9.16836
互	-9.17036
▁p	-9.17056
結果	-9.17159
冰	-9.17185
鐵路	-9.17258
年至	-9.17296
沃	-9.17412
意大利	-9.17487
撤	-9.17509
亂	-9.17628
輪	-9.1763
洞	-9.177
藝術	-9.177
計劃	-9.17701
控	-9.17742
游戏	-9.17783
2013	-9.17785
有關	-9.17992
500	-9.18005
引起	-9.18006
用于	-9.18078
军事	-9.18123
拜	-9.18241
▁f	-9.18242
艺术	-9.18373
2020	-9.18389
疑	-9.18484
环	-9.18546
弱	-9.18583
倒	-9.18596
相關	-9.18663
」、「	-9.18756
面积	-9.18758
mi	-9.1883
呼	-9.18876
导致	-9.18978
完	-9.18995
冷	-9.19065
虎	-9.19121
98	-9.19139
車站	-9.19186
▁《	-9.19188
临	-9.19229
久	-9.19255
圈	-9.19415
ba	-9.19418
槍	-9.19618
第一次	-9.19888
犯	-9.19929
分析	-9.19956
流行	-9.19988
免	-9.20034
缺	-9.20074
衣	-9.2018
am	-9.20357
佛教	-9.20453
借	-9.20487
研	-9.20548
之間	-9.206
坐	-9.20668
分布	-9.20725
▁m	-9.20797
零	-9.21009
楊	-9.21124
耶	-9.21189
录	-9.21215
巡	-9.21218
vi	-9.2123
監	-9.21253
超過	-9.21257
ter	-9.21281
症	-9.21391
樹	-9.21488
46	-9.21548
庄	-9.21843
自治	-9.21904
譯	-9.21933
di	-9.21983
传统	-9.22015
最后	-9.22038
全部	-9.22038
亮	-9.22055
授	-9.22057
滅	-9.22103
2019	-9.22162
加上	-9.22204
ho	-9.22219
诸	-9.22237
2016	-9.22252
礼	-9.22297
对于	-9.22324
贝	-9.22383
硬	-9.2254
76	-9.22677
44	-9.22702
生產	-9.22749
86	-9.22841
分别	-9.22877
乌	-9.23009
学家	-9.23047
1990	-9.23052
49	-9.23086
服务	-9.23098
芬	-9.23118
甘	-9.2313
孙	-9.23131
99	-9.23139
倍	-9.23177
户	-9.23193
理論	-9.23213
晉	-9.23316
榮	-9.23326
混	-9.23405
姓	-9.23419
95	-9.23478
2015	-9.23549
協	-9.23813
监	-9.23815
暗	-9.2391
培	-9.24004
屬於	-9.24142
舉	-9.24259
一世	-9.24294
乃	-9.24382
優	-9.24403
養	-9.24463
念	-9.24472
繼	-9.24483
液	-9.24691
十分	-9.24718
最佳	-9.24758
菜	-9.24896
味	-9.24943
no	-9.24969
却	-9.25033
罗马	-9.25048
as	-9.25051
旧	-9.25188
最大	-9.25512
迎	-9.25594
鄭	-9.25644
背	-9.25657
楚	-9.25723
为了	-9.25734
家族	-9.2574
二世	-9.25742
势	-9.25863
竹	-9.25875
候	-9.25938
學家	-9.25945
认	-9.25947
终	-9.26051
池	-9.2606
歷	-9.26198
▁of	-9.26266
护	-9.26446
烈	-9.2647
反對	-9.26515
休	-9.26528
捕	-9.26564
麻	-9.26629
独	-9.26665
2018	-9.26714
秘	-9.26724
动物	-9.26764
之间	-9.2686
朝鲜	-9.26976
文字	-9.26981
晋	-9.2699
旅	-9.27009
必須	-9.27014
否	-9.27054
2017	-9.27075
限制	-9.27075
督	-9.27083
开发	-9.27226
精神	-9.27248
英文	-9.27281
統治	-9.27336
并且	-9.2735
2002	-9.27384
齐	-9.27416
ic	-9.27467
發行	-9.27484
烏	-9.27484
當地	-9.27493
左右	-9.27502
虽然	-9.27503
重要的	-9.27571
68	-9.27623
仙	-9.27625
只是	-9.27768
細	-9.27812
59	-9.27902
信息	-9.27928
翼	-9.27972
关于	-9.27984
它们	-9.28062
87	-9.2813
时代	-9.28135
方向	-9.28142
89	-9.28152
67	-9.2816
数据	-9.28188
85	-9.28258
—	-9.28275
請	-9.28328
售	-9.2835
领导	-9.28415
井	-9.28595
断	-9.28601
個人	-9.28613
負責	-9.28653
▁formula	-9.28674
灵	-9.2868
結束	-9.28706
秋	-9.28738
著名的	-9.288
文學	-9.28807
厂	-9.28834
冠軍	-9.28872
都有	-9.29034
議員	-9.29047
策	-9.2906
巨	-9.2919
程度	-9.2922
42	-9.29236
多次	-9.29241
取代	-9.29277
軍事	-9.29364
和平	-9.2937
最初	-9.29382
順	-9.29521
88	-9.2956
瑪	-9.29568
去世	-9.29575
58	-9.2962
ti	-9.29636
計	-9.29718
ed	-9.29809
在此	-9.29889
叫	-9.29899
測	-9.29912
杨	-9.29921
标准	-9.2996
保护	-9.29979
1980	-9.30212
顺	-9.30248
補	-9.30379
振	-9.30479
74	-9.30488
相當	-9.30673
主持	-9.30705
電子	-9.30749
▁g	-9.30776
co	-9.30778
司令	-9.30807
”、“	-9.3085
突	-9.30863
基础	-9.30907
大型	-9.31019
统治	-9.31019
廳	-9.31022
駐	-9.3115
發表	-9.31158
荷	-9.31203
200	-9.31266
處理	-9.31318
行為	-9.31323
積	-9.31429
兒	-9.31438
2001	-9.31482
奏	-9.31486
77	-9.31554
不久	-9.31585
43	-9.31695
状	-9.31707
並不	-9.3179
居住	-9.31793
現在	-9.31835
保持	-9.31873
万人	-9.31972
公路	-9.31982
透過	-9.32003
们	-9.32106
担任	-9.32121
繼續	-9.32187
赤	-9.32279
採用	-9.32309
科技	-9.32334
96	-9.32427
著名	-9.32478
氧化	-9.32492
积	-9.32746
bo	-9.32769
聯盟	-9.32895
我们	-9.32911
其它	-9.33023
陣	-9.33076
集中	-9.33104
ca	-9.33134
阻	-9.33282
丽	-9.33297
透	-9.33298
評	-9.33299
藥	-9.33324
树	-9.33351
陰	-9.33391
們	-9.33393
內容	-9.33409
庆	-9.33547
66	-9.33614
56	-9.33745
開發	-9.33968
捷	-9.33979
工業	-9.34166
狀	-9.34223
舞	-9.34231
遭到	-9.34276
57	-9.34303
嚴	-9.34361
属于	-9.34398
寧	-9.34432
越南	-9.34524
糖	-9.34557
演出	-9.3457
葬	-9.34571
菌	-9.34626
不可	-9.34685
弹	-9.34687
军队	-9.34779
69	-9.35095
文学	-9.35232
ol	-9.3528
敵	-9.35425
迷	-9.35516
作家	-9.35526
54	-9.35545
刺	-9.35552
样	-9.35595
计	-9.35753
伐	-9.35839
反对	-9.35928
妹	-9.35929
紀	-9.3594
巴士	-9.35967
衰	-9.35996
覺	-9.36032
79	-9.36069
牧	-9.36098
坦	-9.36166
程序	-9.36218
态	-9.36258
78	-9.36306
da	-9.36328
古代	-9.36437
反应	-9.36498
绝	-9.36603
統	-9.36637
跨	-9.36693
范	-9.36719
现在	-9.36827
外交	-9.3687
来自	-9.36887
廠	-9.37015
▁the	-9.37033
遭	-9.37052
比賽	-9.37069
圓	-9.37112
抵	-9.37125
它的	-9.37219
頂	-9.37269
97	-9.3731
53	-9.37391
术	-9.37404
名稱	-9.37477
一名	-9.37502
資料	-9.37529
審	-9.37566
黎	-9.37685
單位	-9.3769
赵	-9.37698
崇	-9.37763
分為	-9.37806
蔡	-9.3781
讲	-9.37812
標準	-9.37879
辛	-9.38023
陶	-9.38178
机场	-9.3831
澳	-9.38314
郭	-9.38393
著作	-9.38449
飞	-9.38527
億	-9.38567
的一个	-9.38724
叛	-9.38782
普通	-9.38783
孝	-9.38802
遇	-9.38815
娜	-9.38914
加拿大	-9.38964
基地	-9.38984
立法	-9.39046
是否	-9.39071
定义	-9.39102
苦	-9.39179
燕	-9.39213
法院	-9.39227
全國	-9.3926
還有	-9.39299
价	-9.39306
但在	-9.39373
專輯	-9.39413
准	-9.39475
豐	-9.39497
昭	-9.39604
啟	-9.39608
字母	-9.39616
佩	-9.39625
貝	-9.39627
优	-9.39718
澳門	-9.39749
境内	-9.39753
载	-9.39757
成员	-9.39833
最多	-9.39863
矿	-9.39952
及其	-9.39993
顶	-9.4
樣	-9.40032
講	-9.40037
顯示	-9.40037
動物	-9.40142
晶	-9.4015
un	-9.40275
有一	-9.40294
结束	-9.40351
1999	-9.40369
爲	-9.40417
價	-9.40432
是一个	-9.40439
敏	-9.40506
的重要	-9.40549
願	-9.4058
耳	-9.40598
br	-9.4068
药	-9.40723
胜	-9.40733
市場	-9.40733
任命	-9.40763
弟	-9.40902
肯	-9.40968
天主教	-9.41078
炸	-9.41136
轻	-9.41143
采用	-9.41151
答	-9.41213
三年	-9.41245
西北	-9.4133
天津	-9.41447
傑	-9.41456
si	-9.41487
适	-9.41562
最早	-9.41634
sa	-9.41667
普遍	-9.4167
异	-9.41676
模式	-9.4178
參加	-9.41794
电子	-9.41825
御	-9.41853
佳	-9.41875
簡	-9.41904
隨著	-9.41952
太陽	-9.41976
ad	-9.42006
52	-9.421
掌	-9.42128
當中	-9.42183
q	-9.42338
so	-9.42437
东北	-9.42447
申	-9.4249
更多	-9.42501
羽	-9.42549
斯坦	-9.42597
乱	-9.42606
幼	-9.42648
主任	-9.42739
各地	-9.42772
ha	-9.42787
鱼	-9.42832
达到	-9.42882
新聞	-9.42946
經過	-9.42947
灭	-9.43034
初期	-9.43036
茨	-9.43166
卢	-9.43204
举行	-9.43357
付	-9.43376
折	-9.43406
伴	-9.43446
藍	-9.43503
臨	-9.43503
概	-9.43624
舍	-9.4368
材料	-9.43691
浪	-9.43726
这样	-9.43741
檢	-9.43763
碑	-9.43799
ge	-9.43814
建造	-9.43836
裔	-9.43894
柱	-9.4391
区域	-9.43973
的研究	-9.43985
信仰	-9.44021
设立	-9.44094
ck	-9.44099
人类	-9.44108
负责	-9.44194
結構	-9.44213
能夠	-9.44327
1949	-9.44329
豪	-9.44343
距	-9.44381
歌曲	-9.44399
po	-9.44419
1997	-9.44461
沉	-9.44549
是指	-9.44568
定義	-9.44616
力量	-9.44878
一年	-9.44938
同意	-9.44966
津	-9.45135
1998	-9.45209
議會	-9.45225
2021	-9.4526
国王	-9.4539
小說	-9.45431
审	-9.45455
发表	-9.45457
西南	-9.45509
遗	-9.45579
柯	-9.45669
埃及	-9.45717
召	-9.45739
財	-9.45804
慢	-9.4582
be	-9.45961
逐漸	-9.46153
应用	-9.46331
範圍	-9.46422
集团	-9.46444
伤	-9.46449
分为	-9.46497
共和国	-9.46523
聽	-9.46603
侧	-9.46604
克斯	-9.46657
巴黎	-9.46691
設有	-9.46731
於是	-9.46752
柏	-9.46807
炎	-9.46818
名為	-9.46836
區域	-9.46852
解放	-9.46873
这是	-9.47011
鼓	-9.47027
细胞	-9.47071
負	-9.471
儒	-9.47165
首都	-9.47203
蘇聯	-9.47243
機構	-9.47252
聯合	-9.47267
呈	-9.47267
商業	-9.4742
收入	-9.47458
联合	-9.47461
汇	-9.47474
84	-9.47493
艺	-9.47505
側	-9.47551
pa	-9.47574
偶	-9.47612
銀	-9.47666
书记	-9.4769
中学	-9.47832
西部	-9.47834
题	-9.47915
凡	-9.47921
厚	-9.4794
hans	-9.47958
超过	-9.47969
原本	-9.47986
病毒	-9.48038
天文	-9.48049
随着	-9.48062
举	-9.48079
蓋	-9.48097
不再	-9.48106
人員	-9.48148
紫	-9.48213
杰	-9.48254
2022	-9.48271
特殊	-9.48302
基督教	-9.48323
父親	-9.48367
环境	-9.48399
彭	-9.48427
顯	-9.48509
采	-9.48599
伍	-9.48604
祭	-9.48604
學者	-9.48608
平方公里	-9.48628
行動	-9.4863
遂	-9.48761
某些	-9.48788
检	-9.48861
我們	-9.48874
批准	-9.48888
文件	-9.48922
细	-9.49016
核心	-9.49032
清朝	-9.49045
方案	-9.49117
逐	-9.49179
济	-9.49185
奪	-9.49255
物理	-9.49344
集團	-9.49349
保留	-9.49421
或是	-9.49424
吃	-9.49454
94	-9.49651
戈	-9.49691
构	-9.49777
亞洲	-9.49835
年起	-9.49842
严	-9.49873
电视	-9.49929
中山	-9.49931
餐	-9.4997
62	-9.4998
環境	-9.50015
童	-9.50194
動畫	-9.50241
化学	-9.503
大臣	-9.5034
to	-9.5035
回到	-9.50414
齊	-9.50447
当地	-9.50512
桑	-9.50548
斗	-9.50558
則是	-9.5064
人们	-9.50753
养	-9.50757
返	-9.50785
因而	-9.50806
另	-9.50813
曹	-9.50816
第五	-9.50854
紀念	-9.50923
do	-9.50966
-1	-9.51096
桂	-9.51105
72	-9.5116
指挥	-9.51179
避	-9.51221
各種	-9.5123
贵	-9.51301
南方	-9.51338
乙	-9.51391
结果	-9.5142
南北	-9.5142
人员	-9.51516
经过	-9.51595
企业	-9.51623
统	-9.51648
劃	-9.51706
宇	-9.51753
启	-9.51771
83	-9.51789
如此	-9.51826
為主	-9.51865
伏	-9.51898
醫	-9.5193
軍隊	-9.51985
高度	-9.52008
租	-9.52015
其後	-9.52081
平原	-9.521
十六	-9.52151
青年	-9.52193
佐	-9.52199
很大	-9.52201
辽	-9.52219
領導	-9.52399
羊	-9.52424
湖南	-9.52468
农业	-9.52474
300	-9.52526
電腦	-9.52547
跑	-9.52587
改為	-9.52666
数学	-9.52773
阿拉伯	-9.52849
网络	-9.52897
勞	-9.52897
韓	-9.52941
惡	-9.52979
移民	-9.52987
os	-9.53003
特色	-9.53076
医	-9.53121
之外	-9.53165
粉	-9.53224
機場	-9.5327
替	-9.53275
继续	-9.5341
莎	-9.53451
各种	-9.53461
懷	-9.53471
綫	-9.53534
轮	-9.53593
1950	-9.53607
增长	-9.53618
ia	-9.53664
攻擊	-9.53723
93	-9.53798
這是	-9.53814
ve	-9.53917
威廉	-9.53917
旁	-9.53964
減	-9.53966
并不	-9.53997
身份	-9.54019
提高	-9.5402
貨	-9.5404
額	-9.5411
兹	-9.54132
援	-9.54157
敬	-9.54192
只能	-9.54214
訴	-9.54255
湘	-9.54298
有限公司	-9.5437
实现	-9.54402
十年	-9.54412
方言	-9.54427
珍	-9.54463
反應	-9.54475
基礎	-9.54547
部队	-9.5456
高等	-9.54582
昆	-9.54587
武器	-9.54618
宿	-9.54622
显	-9.54707
▁w	-9.54729
um	-9.54812
the	-9.54842
圆	-9.54923
63	-9.54953
统一	-9.55023
撒	-9.55048
祥	-9.55064
等等	-9.55129
联邦	-9.5514
逐渐	-9.55153
ir	-9.55184
博士	-9.55263
雕	-9.55275
球隊	-9.55303
海軍	-9.55373
徑	-9.55382
計畫	-9.55384
君主	-9.5539
赴	-9.55462
勇	-9.55486
);	-9.55492
许	-9.555
fi	-9.55624
处理	-9.55628
92	-9.55665
内容	-9.55701
相关	-9.55768
默	-9.55783
彩	-9.55797
續	-9.55965
四川	-9.5598
曾經	-9.56056
41	-9.56061
凱	-9.56099
侵	-9.56154
82	-9.56212
有效	-9.56279
背景	-9.56288
接近	-9.56338
[	-9.56345
俄罗斯	-9.56353
委员	-9.56372
继	-9.56375
1970	-9.56415
壁	-9.56544
]	-9.56557
既	-9.56583
规定	-9.56587
的方式	-9.56649
hk	-9.56663
痛	-9.56884
银行	-9.56929
執行	-9.57094
以外	-9.57127
將軍	-9.57236
争	-9.57239
id	-9.57253
題	-9.57296
行星	-9.57375
公民	-9.57415
▁历史	-9.57446
tw	-9.57449
甚	-9.57494
ss	-9.57495
準	-9.57518
ng	-9.57549
空间	-9.57585
保護	-9.57634
参与	-9.57643
銷	-9.57796
一樣	-9.57808
墨	-9.57828
以來	-9.57903
技	-9.57912
輸	-9.57998
亦有	-9.58021
输	-9.58131
製造	-9.58166
佈	-9.58213
塘	-9.58214
纪	-9.5823
本身	-9.58237
以前	-9.58255
表現	-9.58355
責	-9.58378
賣	-9.58387
51	-9.58426
比如	-9.58475
辭	-9.58495
曆	-9.58497
而在	-9.58539
媒體	-9.58562
陷	-9.58686
奈	-9.58737
道路	-9.58828
请	-9.58881
无法	-9.58896
衡	-9.58905
銀行	-9.58937
用於	-9.58967
函数	-9.58976
面積	-9.5898
縮	-9.59127
舉辦	-9.59134
知道	-9.59165
希臘	-9.59216
钱	-9.59295
訊	-9.59324
可能是	-9.59363
5%	-9.59382
美洲	-9.59388
被称为	-9.59399
能量	-9.59475
朝鮮	-9.59475
她的	-9.59501
聯賽	-9.59537
小说	-9.59577
项目	-9.59601
《》	-9.59719
幸	-9.59737
额	-9.59756
hi	-9.59805
割	-9.59869
怀	-9.59933
並在	-9.60009
染	-9.60014
播出	-9.60082
週	-9.60115
仔	-9.60175
改變	-9.6019
的地方	-9.60278
脱	-9.60283
et	-9.60318
不得	-9.60353
儿	-9.60358
訂	-9.60459
東京	-9.60485
;}-	-9.6059
試	-9.60608
补	-9.60728
台北	-9.60871
概念	-9.60881
尖	-9.60931
▁in	-9.60948
趙	-9.60972
一座	-9.61008
茲	-9.6102
ni	-9.61086
韩国	-9.61146
福建	-9.61158
纪念	-9.6116
新加坡	-9.6133
識	-9.61392
败	-9.61401
返回	-9.61439
剛	-9.61442
襲	-9.61459
发行	-9.61477
午	-9.61496
不會	-9.61522
鸟	-9.61532
文章	-9.61532
謀	-9.61552
談	-9.61554
操作	-9.6163
利亚	-9.61644
希腊	-9.61646
注意	-9.61666
等地	-9.6176
植	-9.61792
年底	-9.61811
嚴重	-9.61852
随后	-9.61868
表面	-9.61875
紀錄	-9.61882
出了	-9.61893
ga	-9.61962
問	-9.62002
儀	-9.62039
范围	-9.62041
va	-9.62127
记载	-9.62145
以来	-9.62167
问	-9.62167
之下	-9.62173
迅速	-9.62226
中國大陸	-9.62227
丘	-9.62253
滑	-9.62271
ation	-9.6229
宽	-9.62292
刀	-9.6236
公園	-9.62411
▁生平	-9.62429
構	-9.62436
拓	-9.62471
類似	-9.62595
元年	-9.62646
1996	-9.62657
避免	-9.62685
袁	-9.62691
筆	-9.6279
選擇	-9.62839
出任	-9.62893
评	-9.62918
批評	-9.62958
兄弟	-9.62973
橫	-9.63013
模型	-9.63034
綠	-9.63038
▁co	-9.63096
中共中央	-9.6311
sh	-9.63122
革	-9.63126
描	-9.63202
国务院	-9.63241
穆	-9.63243
美元	-9.63327
灰	-9.63376
建成	-9.63409
的新	-9.63443
世界上	-9.6351
命令	-9.6351
錢	-9.63514
1945	-9.63558
變化	-9.63648
资源	-9.63679
生命	-9.63708
拍	-9.6373
部隊	-9.63909
迫	-9.64017
ac	-9.64034
十一	-9.64065
興建	-9.64142
能够	-9.64164
漫	-9.64208
塑	-9.64223
〉	-9.64245
記載	-9.64281
〈	-9.64315
藤	-9.64338
广州	-9.64526
比較	-9.64531
而是	-9.6455
得以	-9.64595
厅	-9.64658
情况	-9.64677
for	-9.64766
四年	-9.64771
俄羅斯	-9.64776
容易	-9.64861
毁	-9.64911
径	-9.64912
停止	-9.64931
尺	-9.64935
設立	-9.64979
译	-9.65024
調查	-9.65025
pe	-9.65055
恢复	-9.65073
緊	-9.65097
拉斯	-9.65129
慈	-9.65141
新闻	-9.65152
按照	-9.65157
毛泽东	-9.6523
創作	-9.65283
国民	-9.65367
▁歷史	-9.6537
夺	-9.65487
規	-9.65489
改为	-9.65516
he	-9.65525
必须	-9.65541
它們	-9.65567
勃	-9.65725
瑟	-9.65773
工具	-9.658
公园	-9.65818
國王	-9.65825
郑	-9.65864
不过	-9.66015
浮	-9.66072
的作品	-9.66088
频	-9.66162
银	-9.66183
1994	-9.66186
空間	-9.66258
块	-9.66285
▁h	-9.66297
之間的	-9.66311
北方	-9.66337
")	-9.66345
1960	-9.66348
基金	-9.66351
是一個	-9.66382
学习	-9.66385
sp	-9.66392
蛋白	-9.66412
中學	-9.66453
採	-9.66461
交易	-9.66475
禁止	-9.66481
因素	-9.66495
旅游	-9.66553
謝	-9.66614
直至	-9.66638
妻子	-9.66639
觉	-9.66705
失去	-9.66725
巨大	-9.66737
沒	-9.6676
大陸	-9.66812
产业	-9.6692
貴	-9.66941
之间的	-9.66948
基因	-9.66991
男性	-9.67006
表演	-9.67006
比例	-9.67022
商业	-9.67032
变化	-9.67107
訪	-9.67173
ver	-9.67226
责	-9.67359
主張	-9.6736
气候	-9.6736
汗	-9.67365
碳	-9.67369
相對	-9.67509
浦	-9.67509
尼亞	-9.67538
盡	-9.67554
浙江	-9.6772
掉	-9.67722
這樣	-9.67729
一度	-9.67756
支援	-9.67758
and	-9.67786
冬	-9.67818
牙	-9.67838
同盟	-9.67943
委員	-9.67945
的影響	-9.68097
▁i	-9.6813
事務	-9.68136
单位	-9.68138
水平	-9.6816
金融	-9.68182
尤	-9.68182
找	-9.68183
1995	-9.68204
比较	-9.68225
非洲	-9.68226
苗	-9.6827
莉	-9.68298
荣	-9.68314
下的	-9.68345
天皇	-9.68387
震	-9.68452
敌	-9.68481
而言	-9.68521
特定	-9.68542
61	-9.6857
玄	-9.68584
劳	-9.68618
昂	-9.68631
利亞	-9.68657
市场	-9.68714
教堂	-9.68774
使用的	-9.68808
愿	-9.6889
坡	-9.68917
谋	-9.69009
葛	-9.69012
尽管	-9.69068
_2	-9.69068
氧	-9.69147
如下	-9.69182
......	-9.6925
庙	-9.69253
扎	-9.69277
淮	-9.69325
约翰	-9.69339
辖	-9.69359
轄	-9.69389
應用	-9.69406
持續	-9.6945
ex	-9.69578
玛	-9.69584
覆	-9.69681
裂	-9.69748
选举	-9.69763
为主	-9.69767
幣	-9.69779
河南	-9.6979
實驗	-9.69832
化學	-9.69915
燃	-9.69916
堅	-9.69919
国内	-9.69968
徽	-9.7001
简	-9.70109
也可以	-9.70118
▁e	-9.70189
艘	-9.70294
冲	-9.70359
泽	-9.70369
也不	-9.70396
貿易	-9.70397
卓	-9.70443
旦	-9.70492
相对	-9.70563
恐	-9.70565
萬人	-9.70595
舰	-9.70657
紙	-9.70687
公開	-9.70701
一段	-9.70732
絲	-9.70763
制作	-9.70815
亨利	-9.70827
患	-9.70864
1992	-9.70901
岭	-9.7093
大会	-9.71
路線	-9.7101
入侵	-9.71014
奴	-9.7127
蔣	-9.7137
习	-9.71417
三个	-9.71443
猶	-9.71474
姐	-9.715
經常	-9.71516
公元	-9.71531
埔	-9.71548
規定	-9.71552
int	-9.71552
秒	-9.71622
过程	-9.71629
交流	-9.71643
被稱為	-9.71664
心理	-9.71685
ll	-9.7173
以色列	-9.71748
契	-9.71769
相似	-9.71774
行为	-9.71797
比赛	-9.71833
毀	-9.71845
产品	-9.71846
暫	-9.71892
锡	-9.71895
缩	-9.71919
扬	-9.71945
寬	-9.71968
一系列	-9.71968
尼亚	-9.71969
发布	-9.72018
建議	-9.72055
ut	-9.72058
全面	-9.72136
铜	-9.72141
岳	-9.7222
ph	-9.72272
大小	-9.72274
类似	-9.72365
肥	-9.72367
豆	-9.72369
幹	-9.72412
韩	-9.72419
警察	-9.72421
有关	-9.72426
不足	-9.72432
su	-9.72458
规	-9.72483
此后	-9.72505
未能	-9.72513
逝世	-9.72531
十三	-9.72566
快速	-9.7261
的政治	-9.72719
改名	-9.72796
累	-9.72837
撰	-9.72888
一切	-9.72965
賴	-9.73017
恒	-9.73039
丰	-9.73044
宣佈	-9.73086
習	-9.73088
金屬	-9.73094
健	-9.73196
殖民地	-9.73209
軟	-9.73248
财	-9.73269
這一	-9.73417
二年	-9.73452
統一	-9.73534
公元前	-9.73614
▁de	-9.73628
撞	-9.73669
海外	-9.73697
主要是	-9.73788
的影响	-9.73834
绿	-9.73843
1991	-9.73862
國民	-9.73863
盐	-9.7387
制造	-9.73895
往往	-9.73969
距離	-9.74004
搭	-9.74019
三個	-9.74058
年間	-9.74089
教會	-9.74222
▁d	-9.74307
者的	-9.74395
亿	-9.7442
条件	-9.74471
▁1	-9.74519
芳	-9.74549
日軍	-9.74583
霸	-9.74631
促	-9.74732
發動	-9.74863
仿	-9.74909
投票	-9.74947
宇宙	-9.74969
州市	-9.7497
役	-9.75103
盤	-9.7514
努	-9.75175
才能	-9.75195
计算	-9.75253
多年	-9.75269
ul	-9.75305
企業	-9.75346
中華人民共和國	-9.75346
三十	-9.75371
映	-9.754
列表	-9.75455
紧	-9.75472
ap	-9.75506
计算机	-9.7553
市民	-9.75556
划	-9.75573
歌手	-9.75648
取消	-9.75699
討	-9.75749
op	-9.7575
十五	-9.75766
年度	-9.75787
纸	-9.75805
更加	-9.75824
一样	-9.75947
困	-9.7604
1993	-9.7605
敦	-9.76066
產品	-9.76092
離開	-9.76099
学者	-9.76103
莊	-9.76169
▁k	-9.76227
ent	-9.76234
广泛	-9.76263
生涯	-9.76325
联盟	-9.76432
整个	-9.76458
起源	-9.76498
小時	-9.76521
领域	-9.76554
十八	-9.76573
成了	-9.76598
地下	-9.766
祝	-9.76635
危	-9.76677
唱片	-9.76786
主角	-9.76832
頒	-9.7692
鹿	-9.76921
海军	-9.76933
欲	-9.76972
輔	-9.77052
公尺	-9.77052
畢業	-9.77144
榜	-9.77232
赞	-9.77283
街道	-9.77302
续	-9.77382
吸引	-9.77389
屏	-9.77389
鳥	-9.7739
知名	-9.77393
如何	-9.77397
).	-9.7744
英語	-9.7748
软件	-9.77488
人們	-9.77503
看到	-9.77524
化的	-9.77533
81	-9.77546
孟	-9.77547
機關	-9.77551
大多数	-9.77601
皇家	-9.77611
以後	-9.77652
排名	-9.77655
真正	-9.77666
純	-9.77759
作者	-9.7778
工人	-9.77809
盖	-9.77883
有所	-9.77893
阴	-9.77916
似	-9.77918
爭議	-9.77982
贸易	-9.78052
艇	-9.78123
1989	-9.78141
咸	-9.78154
擴	-9.78187
番	-9.78204
方程	-9.78229
執	-9.78261
议会	-9.78277
盘	-9.78283
九龍	-9.78366
即使	-9.78396
第十	-9.78417
三角	-9.78431
路易	-9.78446
岡	-9.78465
是一種	-9.78513
聯邦	-9.78515
剂	-9.78523
邻	-9.78577
以后	-9.78585
谢	-9.78707
储	-9.78763
物質	-9.78827
勤	-9.78866
整個	-9.78871
ke	-9.78912
十四	-9.78912
需求	-9.78961
聞	-9.7897
▁=	-9.78993
憲	-9.79016
疾病	-9.791
年间	-9.79158
ci	-9.79189
玩	-9.79225
同一	-9.79229
东南	-9.79232
寒	-9.79265
海拔	-9.79289
共和國	-9.79299
重大	-9.79314
码	-9.79314
伯特	-9.79442
妻	-9.79449
夢	-9.79453
windows	-9.79457
達到	-9.79496
重建	-9.79539
180	-9.79573
险	-9.79683
妃	-9.7972
湾	-9.79758
开放	-9.79763
第二次	-9.79776
孩子	-9.79814
並於	-9.79932
繪	-9.79933
投入	-9.80062
乾	-9.80106
『	-9.80148
爆發	-9.802
壽	-9.80204
ja	-9.80213
400	-9.80264
缺乏	-9.80286
』	-9.8031
体育	-9.80383
妮	-9.8042
消息	-9.80436
戲	-9.80439
选择	-9.80501
漫畫	-9.80518
表明	-9.80524
剩	-9.80581
學習	-9.80604
儘管	-9.80611
大多	-9.80676
听	-9.80739
至少	-9.80784
程式	-9.80785
廣東	-9.80787
戒	-9.80823
遜	-9.8085
严重	-9.80924
抗日	-9.80983
专业	-9.80992
屯	-9.81011
泥	-9.81038
海洋	-9.81084
形象	-9.81136
下降	-9.81208
插	-9.81232
的一部分	-9.8125
報告	-9.81269
再度	-9.81332
維持	-9.81343
膜	-9.81422
▁&	-9.81459
頻	-9.81486
重庆	-9.81567
税	-9.81583
遵	-9.81612
弦	-9.81612
鬼	-9.81614
相互	-9.8163
隨後	-9.81682
▁st	-9.81712
權力	-9.818
斯基	-9.81861
藩	-9.81911
洗	-9.81913
鏡	-9.81914
媒体	-9.81914
飛機	-9.81939
關於	-9.81943
總督	-9.81944
也就是	-9.81952
是中国	-9.81962
主教	-9.81982
同樣	-9.8205
計算	-9.82123
第一个	-9.82199
中華	-9.82212
幻	-9.82221
國立	-9.82277
大約	-9.82326
三世	-9.82327
荒	-9.82349
爆发	-9.82447
宪法	-9.82479
郊	-9.82487
出口	-9.82489
相信	-9.82505
截	-9.82544
泊	-9.82545
五年	-9.82555
亿元	-9.82571
父亲	-9.82628
年前	-9.82655
幾乎	-9.82716
哲学	-9.82716
廟	-9.82736
海岸	-9.82816
部长	-9.82818
穩定	-9.8282
戰鬥	-9.82839
範	-9.82839
还是	-9.82893
个人	-9.82906
團體	-9.82966
太空	-9.83025
▁n	-9.83026
飲	-9.83042
今天	-9.83096
完整	-9.83104
留下	-9.83107
柴	-9.8323
分類	-9.83284
文明	-9.83296
食物	-9.83303
歧	-9.8343
合成	-9.83438
粒子	-9.83523
狄	-9.836
瓜	-9.83651
修改	-9.83681
複	-9.8379
发动	-9.83921
荷蘭	-9.83952
主題	-9.84014
man	-9.84046
扩	-9.84119
裕	-9.84149
制定	-9.84161
明朝	-9.84209
開放	-9.8423
山东	-9.84274
例子	-9.84275
凌	-9.84292
执行	-9.84342
币	-9.84348
顆	-9.84352
分裂	-9.84396
靖	-9.84403
尤其是	-9.84454
拔	-9.84468
夫人	-9.84471
驗	-9.84491
pro	-9.84535
過程	-9.84545
集合	-9.84545
部落	-9.8457
稅	-9.84576
沈	-9.84591
減少	-9.84659
太子	-9.84669
騎	-9.84716
货	-9.84738
总理	-9.84814
際	-9.8482
并在	-9.84869
乾隆	-9.84906
固定	-9.84915
風格	-9.84955
负	-9.84962
史上	-9.85003
過去	-9.85025
劍	-9.8503
提升	-9.85058
覽	-9.85086
作出	-9.85099
王國	-9.8512
研究所	-9.85207
吸	-9.85221
刚	-9.85222
稿	-9.8525
名称	-9.85361
亭	-9.85363
賓	-9.85422
揚	-9.85424
盧	-9.85451
之中	-9.85532
繼承	-9.85603
阿尔	-9.85622
杯	-9.85637
隻	-9.85648
ie	-9.85663
墙	-9.85676
廢	-9.85745
澤	-9.85759
建立了	-9.85774
婦	-9.85792
電視台	-9.85816
有人	-9.85817
鬥	-9.85856
改善	-9.85881
是以	-9.85897
迹	-9.85906
泛	-9.85931
皇后	-9.85961
細胞	-9.85968
隧道	-9.85977
降低	-9.86041
顧	-9.86072
健康	-9.86132
台湾	-9.8615
在香港	-9.86193
天下	-9.86198
僧	-9.86221
棋	-9.8625
不斷	-9.86321
和其他	-9.86337
兒子	-9.86373
森林	-9.864
被迫	-9.86408
柏林	-9.86437
貌	-9.86534
跳	-9.86534
证明	-9.86582
一部	-9.86583
填	-9.86648
显示	-9.86711
德里	-9.86717
第六	-9.8672
梯	-9.86733
燒	-9.86735
历史上	-9.86785
-2	-9.86814
解釋	-9.8684
長期	-9.8689
球員	-9.86907
廣播	-9.86953
小时	-9.86959
壇	-9.86966
首先	-9.86978
柳	-9.86992
顾	-9.8702
ns	-9.87043
深圳	-9.87056
先后	-9.87077
截至	-9.87083
耀	-9.87192
中部	-9.87235
符	-9.87272
不断	-9.87274
擊敗	-9.87302
勢力	-9.87478
目標	-9.87481
安排	-9.87493
涉	-9.87518
1988	-9.87537
保守	-9.87541
里斯	-9.87583
高速	-9.87727
废	-9.8775
曾在	-9.87756
內的	-9.87757
正在	-9.87774
中国大陆	-9.87775
須	-9.8779
內部	-9.8788
董事	-9.87897
一致	-9.87952
任务	-9.87967
大陆	-9.87969
卜	-9.87978
緣	-9.87979
戰後	-9.88023
熟	-9.88026
创作	-9.88029
相比	-9.88045
指揮	-9.8806
母親	-9.88136
出來	-9.88136
飾	-9.8815
石油	-9.88153
庭	-9.88158
翻	-9.88192
競	-9.88256
的方法	-9.88269
靜	-9.88296
平台	-9.8838
也被	-9.88444
物质	-9.88573
爵	-9.8858
大多數	-9.88591
葡萄牙	-9.88622
宾	-9.88649
民国	-9.88652
lu	-9.88653
協會	-9.88697
拳	-9.88735
提到	-9.88738
化合物	-9.88808
設施	-9.88862
原住民	-9.88868
國內	-9.88919
原始	-9.88927
ip	-9.88956
哲學	-9.88985
公主	-9.89037
诉	-9.89057
大會	-9.89075
焦	-9.89236
凯	-9.89296
数量	-9.89305
購	-9.8931
協助	-9.89338
飞机	-9.8936
喀	-9.89413
枪	-9.89527
搜	-9.89558
自行	-9.89586
齡	-9.89645
学科	-9.89655
占领	-9.89656
古典	-9.89667
甸	-9.89735
旨	-9.89738
礦	-9.89767
階	-9.89773
–	-9.89801
▁"	-9.89821
一帶	-9.8984
而成	-9.89842
約翰	-9.89875
那些	-9.89941
确定	-9.89987
ig	-9.90005
密度	-9.90032
是一种	-9.90201
wa	-9.90208
bi	-9.90285
行动	-9.90293
谈	-9.90311
隋	-9.90333
河流	-9.90349
连接	-9.90507
夷	-9.90539
com	-9.90707
坑	-9.90718
怪	-9.90778
士兵	-9.90783
政权	-9.90816
找到	-9.90849
仲	-9.90955
很快	-9.90984
怒	-9.90986
閉	-9.91049
特别	-9.9109
per	-9.91101
朋友	-9.91142
汪	-9.91156
裏	-9.91198
幅	-9.91212
识	-9.91224
廈	-9.91259
第一個	-9.91299
高雄	-9.9134
琳	-9.91383
煤	-9.91409
又稱	-9.91419
擔	-9.91419
蓝	-9.91499
横	-9.91558
实行	-9.9158
名字	-9.91707
司法	-9.91713
闻	-9.91815
蒸	-9.91834
領域	-9.91835
現象	-9.91861
涅	-9.91895
感到	-9.91905
耗	-9.91921
薄	-9.91982
tu	-9.92072
腐	-9.92106
練	-9.92132
影片	-9.92172
表现	-9.92178
階段	-9.92227
狀態	-9.92249
社会主义	-9.92273
所有的	-9.92324
利益	-9.92349
中国共产党	-9.92528
串	-9.92561
we	-9.92562
1986	-9.9259
盃	-9.92609
协议	-9.92644
太平洋	-9.92664
ru	-9.92747
雙方	-9.92753
十字	-9.92848
吐	-9.92983
重点	-9.9299
实验	-9.9301
承認	-9.93016
阵	-9.93042
抽	-9.9308
效果	-9.93127
河北	-9.93135
内部	-9.9316
誤	-9.93165
起来	-9.9319
mp	-9.93192
也在	-9.93197
国会	-9.93226
提名	-9.93269
悉	-9.93293
都市	-9.93362
逆	-9.93384
感染	-9.93427
150	-9.93524
经常	-9.93556
辞	-9.93567
战役	-9.93586
几乎	-9.93608
俘	-9.9363
投降	-9.93632
风格	-9.93707
依然	-9.93709
恶	-9.93722
解決	-9.93787
配合	-9.93864
tion	-9.93867
轨道	-9.93974
毕业	-9.93979
都會	-9.9398
政權	-9.94018
網路	-9.94052
數學	-9.94056
笑	-9.94065
镜	-9.94093
孩	-9.94111
常見	-9.94211
人民政府	-9.94257
塊	-9.94311
减	-9.94329
床	-9.94371
这里	-9.94373
腳	-9.94403
毫米	-9.94429
韓國	-9.9446
相当	-9.94468
乳	-9.94468
报告	-9.94498
項目	-9.94503
混合	-9.94531
經營	-9.94564
1985	-9.94611
蓮	-9.94684
玩家	-9.947
长江	-9.9475
捐	-9.94803
冊	-9.9481
變成	-9.94811
寄	-9.94839
夏季	-9.9494
搬	-9.94993
金属	-9.9501
合并	-9.95012
近代	-9.95015
合併	-9.95021
amp	-9.95068
条约	-9.95111
女子	-9.95122
用户	-9.95491
並沒有	-9.95628
憶	-9.95654
寿	-9.95682
溶	-9.95739
综合	-9.9582
疏	-9.95838
今日	-9.95851
國會	-9.9589
英雄	-9.95899
理解	-9.95978
星期	-9.96037
數量	-9.96082
ry	-9.9609
衝	-9.96136
拒絕	-9.96159
担	-9.96167
钢	-9.96185
險	-9.96251
解决	-9.96278
试	-9.96279
▁t	-9.96298
释	-9.96298
涉及	-9.96325
企	-9.96326
連接	-9.96338
1979	-9.96339
卿	-9.96437
十九	-9.96584
簡稱	-9.96642
记录	-9.96702
罕	-9.96725
潭	-9.96753
一家	-9.96848
下令	-9.96907
*	-9.96914
高速公路	-9.96925
先生	-9.9712
博物馆	-9.97172
展開	-9.97194
丝	-9.97267
併	-9.97268
憲法	-9.97284
應該	-9.97346
閩	-9.97363
fa	-9.97369
體育	-9.97396
陀	-9.97493
con	-9.975
董	-9.97515
日起	-9.97522
機會	-9.97528
廣泛	-9.97605
引擎	-9.97617
資訊	-9.9762
偉	-9.97683
正常	-9.9776
笔	-9.97809
规模	-9.97839
兩人	-9.979
孤	-9.9797
▁re	-9.97974
权力	-9.97988
符合	-9.98055
西藏	-9.98209
的时候	-9.98265
的名字	-9.98318
1982	-9.98377
宏	-9.98422
脫	-9.98451
天然	-9.98521
贝尔	-9.98563
條約	-9.9857
粒	-9.9861
任期	-9.98633
出席	-9.98653
播放	-9.98662
尽	-9.98701
藉	-9.98707
含有	-9.98755
釋	-9.98763
然後	-9.98783
_3	-9.98786
进行了	-9.98788
說法	-9.98859
徵	-9.98879
廣州	-9.98888
崎	-9.98905
邮	-9.98907
食品	-9.9897
舒	-9.98972
～	-9.98974
鳳	-9.99164
1987	-9.99279
條件	-9.99295
太平	-9.99335
學術	-9.9944
每个	-9.9946
旺	-9.99461
少數	-9.9947
仪	-9.99473
上述	-9.99495
汽车	-9.99511
im	-9.9957
任務	-9.9958
波斯	-9.99588
價值	-9.99606
于是	-9.99613
情况下	-9.99674
继承	-9.99701
tra	-9.99727
特征	-9.99775
首相	-9.99775
前身	-9.99776
還是	-9.99818
兄	-9.99875
曰	-9.99911
纽约	-9.99928
揭	-9.9995
當選	-9.99973
雖	-9.99996
廊	-10.0005
殖民	-10.0008
硫	-10.0015
匯	-10.0018
陸軍	-10.0019
成本	-10.002
尋	-10.0026
大樓	-10.0033
然后	-10.0033
没	-10.0035
改变	-10.0035
量子	-10.0038
晨	-10.0041
解释	-10.0046
类型	-10.0046
連續	-10.0052
儲	-10.0067
違	-10.0071
1978	-10.0082
▁由於	-10.0095
有限	-10.0098
授予	-10.01
國民黨	-10.01
民眾	-10.0107
实际	-10.011
鄧	-10.0127
▁ma	-10.0127
保存	-10.0135
此時	-10.014
紐約	-10.0141
法案	-10.0148
措施	-10.0148
克里	-10.0151
融	-10.0155
600	-10.0161
鄰	-10.0167
net	-10.0167
特性	-10.0172
状态	-10.0172
飛行	-10.0172
束	-10.0174
运行	-10.0174
大约	-10.0178
課	-10.0178
医学	-10.0191
濟	-10.0194
實際	-10.0194
调查	-10.0197
譜	-10.0204
妇	-10.021
列車	-10.0213
1984	-10.0216
民國	-10.0224
东部	-10.0225
多个	-10.0241
賞	-10.0241
800	-10.0245
引入	-10.0246
迴	-10.0251
贡	-10.0253
儿子	-10.0261
稳定	-10.0263
教宗	-10.0264
wi	-10.0264
呂	-10.0264
治療	-10.0266
雜誌	-10.0275
毫	-10.0275
构成	-10.0276
最早的	-10.0282
观点	-10.0285
操	-10.0295
演員	-10.0304
延伸	-10.0306
规划	-10.0309
广播	-10.031
災	-10.0311
分类	-10.0312
基督	-10.0312
全市	-10.0318
悲	-10.0322
自身	-10.0322
纯	-10.0325
討論	-10.0335
東北	-10.0336
隱	-10.0338
英语	-10.0341
質量	-10.0345
叔	-10.0345
上帝	-10.0347
静	-10.0349
际	-10.0357
▁v	-10.0362
闭	-10.0366
go	-10.0369
潘	-10.0372
吾	-10.0373
流域	-10.0378
擬	-10.0379
1983	-10.038
纵	-10.0386
軌道	-10.0388
长期	-10.0392
驅	-10.0396
澳洲	-10.0406
饰	-10.041
召开	-10.0413
潛	-10.0413
1946	-10.0415
恢復	-10.0417
浩	-10.042
康熙	-10.0422
半島	-10.0424
批评	-10.0429
册	-10.0434
未來	-10.0439
辅	-10.0448
婚姻	-10.0453
民間	-10.0457
城区	-10.046
十七	-10.046
ber	-10.0461
來說	-10.0462
籌	-10.0471
太阳	-10.0483
產業	-10.0487
来源	-10.0487
坊	-10.0503
冠军	-10.0508
质量	-10.0511
損	-10.0513
氯	-10.052
离开	-10.0522
绘	-10.0523
癌	-10.0524
蛇	-10.053
用來	-10.0531
建設	-10.0531
长沙	-10.0534
曾经	-10.0536
燈	-10.0544
佔領	-10.0549
朝廷	-10.0549
知识	-10.0561
腹	-10.0562
侍	-10.0565
郵	-10.0565
地震	-10.0566
堆	-10.0568
殘	-10.0572
課程	-10.0575
證明	-10.0583
現時	-10.0587
节目	-10.059
峡	-10.06
而不是	-10.06
拍攝	-10.0601
秘密	-10.0602
傅	-10.0604
日军	-10.0608
並非	-10.0613
簽	-10.0615
白色	-10.0623
多數	-10.0624
赖	-10.0624
道德	-10.0624
群島	-10.0654
估	-10.0657
帮助	-10.0657
允许	-10.0662
本地	-10.0663
成就	-10.0665
吞	-10.0666
1958	-10.0669
桃	-10.0672
ka	-10.0675
1%	-10.0676
常用	-10.0677
1940	-10.0678
市区	-10.0682
驱	-10.0684
链	-10.0688
起來	-10.0689
熊	-10.0691
它是	-10.0691
性质	-10.0694
投资	-10.0698
拒绝	-10.0701
亚洲	-10.0702
努力	-10.0704
距离	-10.0704
般	-10.0705
目标	-10.0708
将军	-10.0716
意义	-10.0721
hant	-10.0721
作戰	-10.0725
最低	-10.0726
虛	-10.0726
氣候	-10.0733
协会	-10.0741
性質	-10.0748
下辖	-10.0748
修建	-10.0749
互相	-10.0753
医院	-10.0754
本土	-10.0756
部门	-10.0761
pu	-10.0769
机关	-10.0772
日至	-10.0775
忽	-10.0776
客家	-10.0776
第七	-10.0783
骑	-10.0789
唯	-10.0793
tv	-10.0799
狼	-10.0804
逊	-10.0804
稻	-10.0807
平面	-10.0809
韦	-10.0814
ste	-10.0815
巴西	-10.0817
pi	-10.0818
波兰	-10.0822
軌	-10.0823
聯合國	-10.0826
湯	-10.0829
演唱會	-10.0833
弘	-10.0836
简称	-10.0836
運輸	-10.0836
拟	-10.0839
王国	-10.084
ab	-10.084
ot	-10.085
进攻	-10.0852
ine	-10.0854
尉	-10.0857
cn	-10.0859
由此	-10.0863
公布	-10.0864
憑	-10.0864
战斗	-10.0875
棒	-10.0881
伦敦	-10.0881
統計	-10.0884
吸收	-10.0885
已有	-10.0891
麼	-10.0896
飞行	-10.09
哲	-10.0902
撤销	-10.0908
券	-10.0914
柔	-10.0915
進攻	-10.0917
摄	-10.0918
總理	-10.092
貫	-10.0922
酶	-10.0922
的概念	-10.0925
▁and	-10.0928
實施	-10.093
遣	-10.0937
崩	-10.0943
设备	-10.095
地形	-10.0953
统计	-10.0964
汽車	-10.0965
1937	-10.0967
彰	-10.0969
訓練	-10.0976
1981	-10.0985
衝突	-10.0985
瑞典	-10.0986
son	-10.0995
匈牙利	-10.0998
all	-10.1003
冒	-10.1009
卫星	-10.1009
大幅	-10.101
訓	-10.1011
資源	-10.1017
源自	-10.102
先後	-10.103
聘	-10.1034
坚	-10.104
涵	-10.1052
odice	-10.1054
來源	-10.1056
中原	-10.1057
匹	-10.1059
访	-10.106
120	-10.106
設置	-10.106
现象	-10.1063
查理	-10.1067
月初	-10.1068
倫敦	-10.1072
輝	-10.1074
旗下	-10.1075
退出	-10.1077
惟	-10.1081
反映	-10.1084
鹽	-10.1085
扶	-10.1092
幫助	-10.1102
誉	-10.1103
从而	-10.1109
了解	-10.1113
私人	-10.1114
乘客	-10.1115
tt	-10.1115
唐朝	-10.1116
塞尔	-10.1123
記錄	-10.1124
品牌	-10.1125
1948	-10.1131
紐	-10.1132
年初	-10.1135
手段	-10.1136
成績	-10.1136
忍	-10.1144
伊朗	-10.1145
博物館	-10.1147
用途	-10.1148
减少	-10.1148
理想	-10.115
進一步	-10.1151
町	-10.1162
提供了	-10.1168
1920	-10.117
机车	-10.1188
寻	-10.1191
改造	-10.1192
ps	-10.1195
生成	-10.1195
结合	-10.1196
熙	-10.1197
体系	-10.1197
1930	-10.1199
英格蘭	-10.1199
阶段	-10.1205
剑	-10.1206
而非	-10.1209
复杂	-10.121
婆	-10.121
軟體	-10.1217
戰役	-10.1223
鋼	-10.1225
醫院	-10.1227
半岛	-10.1231
枝	-10.1243
建议	-10.1254
脑	-10.1255
陕	-10.1258
汤	-10.1258
考古	-10.126
肺	-10.1262
恆星	-10.1263
一同	-10.1267
-{}-	-10.1269
屈	-10.127
準備	-10.1272
举办	-10.1282
樂團	-10.1283
明顯	-10.1292
3%	-10.1293
多個	-10.1294
地面	-10.1296
誠	-10.1299
上升	-10.13
隐	-10.1303
農業	-10.1307
蛋	-10.1309
劑	-10.1311
烧	-10.1314
扮演	-10.1315
人數	-10.1317
进一步	-10.1318
奔	-10.1321
缘	-10.1322
決賽	-10.1323
逼	-10.1325
武汉	-10.1326
新疆	-10.1327
湖北	-10.1329
另一方面	-10.1329
ard	-10.1332
梦	-10.1348
賽事	-10.1348
谱	-10.1348
做出	-10.135
灾	-10.1352
狗	-10.1352
来说	-10.1352
臺北	-10.1354
承认	-10.1358
卑	-10.1359
行政区划	-10.1363
标志	-10.1366
ion	-10.137
鐘	-10.1374
蜀	-10.1378
成都	-10.1379
的時候	-10.1379
au	-10.1381
凝	-10.1382
争议	-10.1384
腔	-10.1386
押	-10.1389
文物	-10.1389
立即	-10.139
土耳其	-10.1393
瑞士	-10.1394
華人	-10.1402
領土	-10.1404
持续	-10.1413
現今	-10.1415
銅	-10.142
商品	-10.1422
数字	-10.1427
软	-10.1429
欢	-10.1434
联合国	-10.1436
公开	-10.1437
獄	-10.1439
韋	-10.1446
指定	-10.1447
原理	-10.1448
粹	-10.1459
濱	-10.1461
戀	-10.1461
校区	-10.1462
每個	-10.1468
分配	-10.147
同样	-10.1477
障	-10.1495
ect	-10.1495
淡	-10.15
杭州	-10.1507
知識	-10.1516
也會	-10.1517
添	-10.1518
蕭	-10.1518
教育部	-10.152
此时	-10.152
冯	-10.1526
敢	-10.1533
下午	-10.1535
北京市	-10.1539
但他	-10.1543
分鐘	-10.1549
乔	-10.1557
綱	-10.156
推動	-10.1564
規劃	-10.1573
教会	-10.1578
玻璃	-10.158
表达	-10.1585
起义	-10.1586
鼻	-10.1587
分支	-10.159
武帝	-10.1591
烟	-10.1598
抑	-10.1599
兩種	-10.1603
’	-10.1606
虚	-10.1606
枚	-10.161
投資	-10.161
基於	-10.1617
=2	-10.1627
溫度	-10.1629
拆	-10.163
結合	-10.1635
狂	-10.1637
通用	-10.164
广东	-10.1644
箱	-10.1649
跡	-10.1653
蟲	-10.1661
丰富	-10.1671
宪	-10.1673
醫學	-10.1675
斜	-10.1676
定律	-10.169
劳动	-10.1694
克拉	-10.1698
过程中	-10.1703
破壞	-10.1704
访问	-10.1714
联系	-10.1715
爆	-10.172
迦	-10.1723
览	-10.1723
耕	-10.1734
...	-10.1736
残	-10.1738
1941	-10.1739
东西	-10.1748
潜	-10.175
氢	-10.1754
意義	-10.1757
用来	-10.1757
倉	-10.1762
吕	-10.1765
奶	-10.1766
1000	-10.1767
魂	-10.1778
帶來	-10.1781
展示	-10.1783
各自	-10.1784
棉	-10.1785
700	-10.1791
职业	-10.1794
线路	-10.1799
螺	-10.1805
即位	-10.1807
俊	-10.1809
翁	-10.1813
航天	-10.1814
港口	-10.1825
纷	-10.1828
设置	-10.1829
共产党	-10.1836
猛	-10.1836
尚未	-10.1836
註	-10.1837
公爵	-10.1837
管辖	-10.1842
窗	-10.1848
修正	-10.1862
mm	-10.1863
阶	-10.1865
歡	-10.1867
觀察	-10.1867
发射	-10.1871
小型	-10.1874
▁to	-10.1875
球場	-10.1876
族群	-10.1877
定理	-10.1877
辨	-10.1884
1956	-10.1887
確定	-10.1889
稍	-10.1895
灌	-10.1896
境內	-10.1896
兒童	-10.1899
廉	-10.1901
1975	-10.191
後期	-10.1914
雜	-10.1923
mar	-10.1924
愈	-10.1927
江西	-10.1932
得知	-10.1936
特徵	-10.1937
稀	-10.1939
父母	-10.1941
大致	-10.1941
2%	-10.1941
基于	-10.1943
合法	-10.1944
缓	-10.1947
推行	-10.1951
差異	-10.1953
斯拉夫	-10.1956
強調	-10.1959
最重要的	-10.1959
出来	-10.1965
派遣	-10.1966
福州	-10.1977
挑	-10.1978
墨西哥	-10.1983
1952	-10.1984
常见	-10.1989
1947	-10.199
主權	-10.1991
一条	-10.1997
另有	-10.1997
縱	-10.1999
对象	-10.201
碟	-10.2016
两种	-10.2023
运输	-10.2027
奠	-10.2031
颁	-10.2031
向量	-10.2034
民進黨	-10.204
營運	-10.2041
ii	-10.2043
频道	-10.2044
不滿	-10.2046
欣	-10.2048
砲	-10.2051
恐怖	-10.2051
業務	-10.2057
繞	-10.206
ts	-10.206
运营	-10.2063
削	-10.2063
方便	-10.2064
汽	-10.207
西安	-10.2071
列车	-10.2072
实施	-10.2075
绕	-10.2076
茂	-10.208
ell	-10.208
tor	-10.2094
法官	-10.2096
廣告	-10.21
矛盾	-10.21
作战	-10.2103
碎	-10.2104
暂	-10.2108
ly	-10.2108
1939	-10.2112
賢	-10.2112
韻	-10.2112
1966	-10.2117
錫	-10.2124
歷史上	-10.2126
提出了	-10.2126
立法會	-10.2126
旬	-10.2128
6%	-10.2129
绪	-10.2132
_4	-10.2136
定居	-10.2136
春秋	-10.2141
泡	-10.2144
針對	-10.2145
胎	-10.2149
彼得	-10.2152
鋒	-10.2169
嶺	-10.2173
最後一	-10.2182
只要	-10.2183
沿海	-10.219
創造	-10.2195
火山	-10.2197
職業	-10.2199
准备	-10.22
旅客	-10.2201
uni	-10.2202
記者	-10.2211
连续	-10.2212
芝	-10.2214
事業	-10.2215
ea	-10.2217
当选	-10.2219
形成了	-10.2221
保障	-10.2222
获得了	-10.2223
買	-10.2226
數據	-10.2227
议员	-10.2236
報導	-10.2237
獵	-10.2238
獅	-10.2247
忌	-10.2247
印刷	-10.2252
緩	-10.2255
报道	-10.2258
演奏	-10.2258
贊	-10.2259
民主黨	-10.2259
行政院	-10.2261
理事	-10.2263
污染	-10.2264
破坏	-10.2267
旅行	-10.2274
規模	-10.2281
160	-10.2283
空軍	-10.2289
4%	-10.2291
宣传	-10.2292
用作	-10.2295
患者	-10.2295
母亲	-10.2297
‘	-10.2299
多种	-10.23
pl	-10.2305
突破	-10.2306
妙	-10.2309
实际上	-10.2311
電台	-10.2316
誕	-10.2325
征服	-10.2325
表達	-10.233
倾	-10.2333
主张	-10.2335
頁	-10.2342
湿	-10.2346
应该	-10.2349
der	-10.235
签	-10.2352
又称	-10.2356
迈	-10.2358
失敗	-10.2361
冬季	-10.2362
凤	-10.2366
购	-10.2374
遍	-10.238
伟	-10.2383
响	-10.2385
处于	-10.2385
爆炸	-10.2392
詳	-10.2395
析	-10.2396
指示	-10.2396
疆	-10.2398
试图	-10.2399
牆	-10.24
学术	-10.2408
胜利	-10.241
演化	-10.2412
演唱	-10.2413
狀況	-10.2429
女兒	-10.2431
设有	-10.2438
織	-10.2439
戏	-10.2441
官員	-10.2442
類型	-10.2444
堪	-10.2446
萧	-10.247
雍	-10.2471
饮	-10.2484
泳	-10.2488
夕	-10.2492
軸	-10.2501
氨	-10.2501
钟	-10.2512
坛	-10.2517
杂	-10.2517
腦	-10.2535
括	-10.2539
涌	-10.2546
抱	-10.2555
纲	-10.2559
锋	-10.2568
暖	-10.2568
贯	-10.258
犬	-10.2581
響	-10.2582
伽	-10.2606
濃	-10.2649
偷	-10.2649
斥	-10.2652
粗	-10.2666
讯	-10.2674
轴	-10.27
錯	-10.2708
执	-10.2725
销	-10.2754
筹	-10.2769
寸	-10.2786
沟	-10.2791
虫	-10.2809
棄	-10.2809
乎	-10.283
貓	-10.2838
珊	-10.2839
氫	-10.2843
兆	-10.2856
鼠	-10.2856
厄	-10.2861
驚	-10.2865
鮮	-10.2865
歇	-10.2882
损	-10.2883
疫	-10.2894
龄	-10.29
胶	-10.2904
鼎	-10.2917
卵	-10.2921
仇	-10.2926
彌	-10.2926
麟	-10.2952
孕	-10.2961
壤	-10.2976
档	-10.2979
怕	-10.2979
勳	-10.2979
竞	-10.2983
朴	-10.2997
閱	-10.301
掘	-10.3028
針	-10.3041
攝	-10.3042
坪	-10.3068
殖	-10.3068
袭	-10.307
梵	-10.3081
賀	-10.3081
邓	-10.3085
幽	-10.3086
罰	-10.309
卖	-10.3108
坎	-10.3108
幫	-10.311
验	-10.3116
譽	-10.313
獻	-10.3137
遼	-10.3139
襄	-10.3184
邑	-10.3184
训	-10.3193
獸	-10.3202
磨	-10.3203
醇	-10.3207
壘	-10.3207
馮	-10.3216
针	-10.3225
巧	-10.3233
鲜	-10.3243
姬	-10.3248
岗	-10.327
煙	-10.3284
献	-10.3309
沖	-10.3316
舟	-10.3329
劫	-10.3385
巫	-10.3389
苑	-10.3394
慧	-10.3397
輛	-10.3398
狱	-10.3412
筑	-10.3425
彻	-10.3426
嫁	-10.3435
膠	-10.3445
闽	-10.3449
疾	-10.346
邪	-10.3505
閣	-10.3512
壮	-10.3514
喪	-10.3524
麵	-10.3533
脚	-10.3566
屠	-10.3574
尿	-10.3594
恆	-10.3607
斤	-10.3613
鍵	-10.3652
讨	-10.368
耐	-10.3683
亨	-10.3685
翌	-10.3693
己	-10.3701
賦	-10.3707
斐	-10.3736
甫	-10.3745
慕	-10.3749
忙	-10.3755
猩	-10.376
订	-10.3769
些	-10.3772
誓	-10.3779
擾	-10.3788
竟	-10.3793
颗	-10.3793
肌	-10.3794
锦	-10.3807
埋	-10.3812
鎖	-10.3812
忆	-10.3817
錦	-10.3822
巢	-10.3884
宰	-10.3885
轟	-10.3889
诞	-10.3899
吹	-10.3904
催	-10.3928
豫	-10.3932
抚	-10.3943
辯	-10.3987
蜂	-10.3992
勋	-10.3996
肃	-10.4045
赋	-10.4055
賈	-10.4061
课	-10.4068
斑	-10.4085
趨	-10.41
醒	-10.411
鸡	-10.413
哪	-10.4134
厦	-10.4139
页	-10.4155
毅	-10.4164
娘	-10.4164
漁	-10.417
披	-10.4189
銜	-10.4189
溝	-10.4194
键	-10.4201
敘	-10.4204
衔	-10.4209
轨	-10.4218
邁	-10.4219
~	-10.4229
雌	-10.4239
辟	-10.4244
励	-10.4254
薪	-10.4289
雞	-10.429
祿	-10.431
翠	-10.4325
猎	-10.4335
胸	-10.434
丙	-10.434
忘	-10.4345
徹	-10.435
脊	-10.4375
韵	-10.4376
逢	-10.438
辰	-10.4411
嗣	-10.4416
阪	-10.4416
酷	-10.4421
詢	-10.4442
牲	-10.4451
鉴	-10.4462
託	-10.4462
姊	-10.4462
龐	-10.4467
究	-10.4471
污	-10.4477
株	-10.4482
辩	-10.4483
恰	-10.4529
陪	-10.4534
叙	-10.4534
叉	-10.455
貢	-10.4565
薛	-10.457
练	-10.4606
桓	-10.4612
隸	-10.4616
拼	-10.4627
漸	-10.4628
跃	-10.4648
渐	-10.4652
嘴	-10.4664
寓	-10.4669
灯	-10.4674
冕	-10.4675
掛	-10.468
貞	-10.469
畢	-10.4698
雀	-10.4706
宴	-10.4732
砂	-10.4737
宅	-10.4738
拖	-10.4742
递	-10.478
′	-10.4785
é	-10.4801
嶼	-10.4802
织	-10.4804
贾	-10.4817
逸	-10.4833
髮	-10.4833
詹	-10.4838
惯	-10.4838
豹	-10.4848
烯	-10.4849
哀	-10.4865
喬	-10.4888
躍	-10.4907
嫌	-10.4929
庇	-10.4945
猜	-10.4956
肖	-10.4983
崔	-10.4983
诚	-10.4988
蜜	-10.5005
函	-10.5015
冈	-10.5015
鄂	-10.502
吏	-10.5047
粤	-10.5053
遞	-10.5059
寮	-10.5069
箭	-10.5072
误	-10.5075
掠	-10.5075
玻	-10.5107
摧	-10.5113
滨	-10.5118
帥	-10.5118
渠	-10.5124
润	-10.5168
矩	-10.5184
循	-10.5188
胞	-10.5188
抄	-10.519
{	-10.52
邀	-10.5227
頗	-10.5229
趋	-10.5229
貧	-10.5251
慎	-10.5256
瓷	-10.5267
炭	-10.529
卸	-10.5295
浓	-10.5301
辉	-10.5306
庸	-10.5312
违	-10.5328
畜	-10.5328
溯	-10.5334
赏	-10.5357
飯	-10.5374
偵	-10.5391
恭	-10.5401
樞	-10.5413
搖	-10.5418
α	-10.543
剪	-10.5435
賜	-10.5447
垂	-10.5455
伪	-10.5475
姑	-10.5475
吨	-10.5482
魁	-10.5498
腺	-10.5498
抓	-10.5532
磷	-10.5532
募	-10.5537
缅	-10.5555
勸	-10.5566
殷	-10.5583
袋	-10.5584
讚	-10.5584
慰	-10.5601
贫	-10.5601
恨	-10.5612
漏	-10.5612
鴻	-10.5618
殼	-10.5624
绍	-10.5628
挖	-10.5629
媒	-10.563
冀	-10.5646
错	-10.5652
禪	-10.5659
硕	-10.5664
娶	-10.567
囚	-10.567
趁	-10.5681
苯	-10.5682
胺	-10.5693
迅	-10.5697
姚	-10.5699
惜	-10.5716
净	-10.5716
揮	-10.5717
欽	-10.5733
踏	-10.5733
雇	-10.5739
壯	-10.574
滾	-10.5751
蹟	-10.5751
脂	-10.5757
弥	-10.5757
謂	-10.5764
脈	-10.5767
帽	-10.5769
禽	-10.5786
丧	-10.5792
睡	-10.5792
框	-10.5804
壞	-10.5808
旱	-10.5821
扣	-10.5833
喷	-10.5833
蕃	-10.5838
擅	-10.5839
糧	-10.585
喇	-10.5868
觸	-10.5873
亩	-10.588
拘	-10.588
帖	-10.5892
瑜	-10.5903
盈	-10.5904
籃	-10.5904
氟	-10.5916
檔	-10.5919
买	-10.5927
弃	-10.593
阁	-10.5962
隶	-10.5967
貼	-10.5975
怎	-10.5992
禦	-10.5999
滋	-10.6017
夸	-10.6017
矮	-10.6023
徙	-10.6034
僚	-10.6035
烷	-10.6065
脉	-10.6076
妥	-10.6083
掩	-10.6095
纹	-10.6095
阮	-10.6095
淨	-10.6095
浸	-10.6101
廖	-10.6101
粵	-10.6108
娃	-10.6143
焚	-10.6149
翔	-10.6161
祠	-10.6186
详	-10.6186
轰	-10.6198
挂	-10.621
擦	-10.621
阅	-10.6211
菩	-10.6211
劣	-10.6216
喻	-10.6235
銘	-10.6241
煌	-10.6247
碧	-10.6259
贤	-10.6271
卒	-10.6302
趕	-10.6308
淺	-10.6327
舌	-10.634
帅	-10.637
茅	-10.637
疊	-10.6377
贺	-10.6413
丸	-10.6414
噴	-10.6414
駛	-10.6426
奎	-10.6426
邵	-10.6426
蒋	-10.6432
診	-10.6432
穷	-10.6439
碰	-10.6451
伸	-10.6468
掃	-10.647
堤	-10.6489
贈	-10.6495
姿	-10.6501
诏	-10.6507
趣	-10.6517
蓬	-10.652
驾	-10.652
鍾	-10.652
衍	-10.6524
肅	-10.6532
颇	-10.6533
麓	-10.6539
栗	-10.6539
么	-10.654
拱	-10.6545
鑑	-10.6546
邱	-10.6551
俠	-10.6552
遲	-10.6558
腿	-10.6558
紹	-10.6563
係	-10.6603
汀	-10.6615
顏	-10.6618
尹	-10.6621
桌	-10.6634
郁	-10.6641
丞	-10.6647
碩	-10.6647
戚	-10.6653
摇	-10.6698
→	-10.6698
罷	-10.6704
狮	-10.671
昇	-10.6711
霞	-10.6736
噸	-10.6769
勁	-10.6782
擺	-10.6788
盜	-10.6795
逾	-10.6801
坝	-10.6808
龜	-10.6808
蓄	-10.6814
毗	-10.6814
撫	-10.6821
肝	-10.6821
×	-10.684
罚	-10.6847
悬	-10.6859
膨	-10.6899
跌	-10.6925
鑽	-10.6944
瓶	-10.6951
怡	-10.6964
仓	-10.6984
窮	-10.6998
緬	-10.7004
詔	-10.7004
纬	-10.7011
琉	-10.7012
沪	-10.7023
紋	-10.7024
嵌	-10.7037
鷹	-10.705
囊	-10.705
伙	-10.7063
遮	-10.7063
禹	-10.7076
潤	-10.7077
芒	-10.7097
暨	-10.7097
毕	-10.7108
虹	-10.711
碱	-10.711
噶	-10.711
擁	-10.7131
甜	-10.7137
汝	-10.7143
腾	-10.7143
駁	-10.7143
扰	-10.7144
績	-10.7164
赐	-10.7177
販	-10.7197
勾	-10.7197
豬	-10.7211
埠	-10.7211
怨	-10.7224
玲	-10.7231
铺	-10.7251
冶	-10.7251
臟	-10.7252
吧	-10.7252
惊	-10.7265
杆	-10.7292
澄	-10.7299
氮	-10.7319
谓	-10.7357
潔	-10.736
莲	-10.736
罢	-10.7374
仰	-10.7376
搞	-10.7408
彪	-10.7408
齒	-10.7408
艙	-10.7415
昔	-10.7422
絡	-10.7428
熔	-10.7463
锁	-10.747
邨	-10.7471
够	-10.7474
札	-10.7477
壳	-10.7491
阔	-10.7505
渔	-10.7505
濕	-10.7505
糊	-10.7505
赶	-10.7512
牵	-10.7525
猫	-10.7533
況	-10.7535
浙	-10.754
滩	-10.7547
霧	-10.7547
辆	-10.7567
闊	-10.7624
彙	-10.7624
酵	-10.7624
媽	-10.7631
倡	-10.7648
傾	-10.7651
驶	-10.7659
贴	-10.768
欠	-10.7709
彼	-10.7715
辱	-10.7716
汶	-10.773
悟	-10.7737
淵	-10.7737
搶	-10.7744
屍	-10.7744
梨	-10.7751
凉	-10.7751
葵	-10.7752
漳	-10.7773
穴	-10.778
鸿	-10.7786
禅	-10.7794
钦	-10.7801
庞	-10.7808
珀	-10.7808
圭	-10.7823
蒲	-10.783
債	-10.7837
屿	-10.7837
冥	-10.7852
祈	-10.7866
慘	-10.788
篮	-10.7887
腰	-10.7887
窄	-10.7895
兽	-10.7902
铅	-10.7924
涂	-10.7945
凭	-10.7945
虐	-10.7953
緒	-10.7954
舱	-10.7959
崖	-10.796
窟	-10.796
荃	-10.7967
誌	-10.798
扇	-10.7982
勘	-10.7996
禧	-10.8003
虽	-10.8015
懸	-10.8033
翰	-10.804
挥	-10.8042
盗	-10.8055
茵	-10.807
拒	-10.8082
猴	-10.8084
呎	-10.8085
朵	-10.8091
説	-10.8098
弄	-10.8099
剿	-10.8113
繩	-10.8114
臂	-10.8121
侨	-10.8135
閃	-10.8165
笛	-10.8166
殊	-10.817
償	-10.818
蕾	-10.8203
攜	-10.8225
僑	-10.827
迟	-10.8292
潰	-10.83
墾	-10.8315
醉	-10.833
悼	-10.8353
挺	-10.836
凰	-10.836
譚	-10.8375
寇	-10.8375
鴉	-10.8383
纽	-10.8418
齿	-10.8421
曉	-10.8437
践	-10.8444
喝	-10.8452
爪	-10.8459
宦	-10.8474
礁	-10.8475
緯	-10.8505
允	-10.8507
藻	-10.8521
偽	-10.8528
庚	-10.8573
惨	-10.859
滚	-10.859
庶	-10.8598
扫	-10.8605
倭	-10.8621
姜	-10.8621
碍	-10.8637
嫩	-10.8637
赦	-10.8668
晓	-10.8683
斬	-10.8699
瀑	-10.8699
辐	-10.8731
硝	-10.8738
奸	-10.8746
塗	-10.8746
仕	-10.8754
叠	-10.8754
拥	-10.8767
荡	-10.8777
肩	-10.8785
牽	-10.8793
梭	-10.8794
蹤	-10.8801
橡	-10.8809
贞	-10.8817
匠	-10.8825
$	-10.8826
漆	-10.8834
肢	-10.8841
畏	-10.8857
芙	-10.8857
憂	-10.8857
畔	-10.8865
饭	-10.888
欄	-10.8881
昏	-10.8896
崛	-10.8912
弓	-10.8921
铸	-10.8928
盾	-10.8929
棕	-10.8937
肇	-10.8944
穩	-10.8953
盲	-10.8961
鏈	-10.8961
坏	-10.8967
療	-10.8973
禄	-10.8993
煮	-10.8993
慣	-10.9007
淑	-10.9009
朔	-10.9017
砖	-10.9025
鬆	-10.9026
携	-10.9034
劝	-10.9041
巷	-10.9041
扭	-10.9049
眠	-10.9058
桐	-10.9066
帮	-10.9072
鹤	-10.9082
狹	-10.909
脏	-10.9098
奮	-10.9114
駕	-10.9115
询	-10.9131
漂	-10.9131
韶	-10.9139
撥	-10.9139
鲍	-10.9139
炼	-10.9156
黏	-10.9172
粮	-10.9188
爬	-10.9205
汕	-10.9213
履	-10.9213
须	-10.922
寨	-10.923
澎	-10.9238
嬰	-10.9246
#	-10.9254
络	-10.9262
荊	-10.9296
菊	-10.9296
築	-10.9319
腓	-10.9321
咒	-10.9362
丑	-10.9363
赠	-10.9371
貪	-10.9379
抢	-10.9387
鳴	-10.9388
駿	-10.9396
霜	-10.9396
荆	-10.9396
辣	-10.9405
渤	-10.9413
逝	-10.9415
荐	-10.9421
杭	-10.9421
帆	-10.9421
糕	-10.9421
腸	-10.9421
赣	-10.9422
摆	-10.9429
鈴	-10.943
欺	-10.9438
歉	-10.9438
煉	-10.9455
懂	-10.9455
妖	-10.9472
械	-10.9473
央	-10.9485
吻	-10.9489
−	-10.9506
措	-10.9512
痕	-10.9514
迄	-10.9523
偿	-10.9531
纤	-10.9531
杉	-10.9539
詠	-10.9557
棲	-10.9557
寡	-10.9565
汁	-10.9566
纺	-10.9583
・	-10.9584
崗	-10.959
溃	-10.9591
握	-10.9616
吊	-10.9616
捉	-10.9616
泌	-10.9642
輯	-10.9648
娱	-10.9651
亥	-10.9659
俱	-10.9659
琪	-10.9668
綜	-10.9689
匪	-10.9728
扑	-10.9729
肆	-10.9737
攀	-10.9737
涼	-10.9746
渊	-10.9798
栖	-10.9798
罩	-10.9807
虞	-10.9832
跋	-10.9842
眉	-10.9842
筒	-10.9851
绥	-10.9867
弧	-10.9877
臉	-10.9886
憤	-10.9895
债	-10.9904
铭	-10.993
胃	-10.9931
薦	-10.9939
坂	-10.9974
寅	-10.9991
佑	-11.0002
雁	-11.0002
釣	-11.001
酮	-11.0019
帳	-11.0037
绵	-11.0046
漠	-11.0069
淳	-11.0073
狭	-11.0073
触	-11.0074
晴	-11.009
燥	-11.0091
穀	-11.01
恋	-11.01
薇	-11.0136
夾	-11.0154
爐	-11.0154
睛	-11.0163
黛	-11.0191
苹	-11.0191
垣	-11.0199
霖	-11.0199
婉	-11.02
芽	-11.02
躲	-11.0209
辜	-11.0209
椎	-11.0218
鸭	-11.0218
栽	-11.0273
洁	-11.0273
栏	-11.03
阜	-11.0309
庵	-11.0309
颱	-11.0328
粟	-11.0336
勉	-11.0337
鸣	-11.0355
牢	-11.0355
矣	-11.0374
顷	-11.0374
棠	-11.0391
懿	-11.0392
猪	-11.0402
扁	-11.0448
氛	-11.0457
誘	-11.0458
鹰	-11.0476
牟	-11.0485
琼	-11.0486
剖	-11.0486
庐	-11.0504
頃	-11.0504
尸	-11.0513
歼	-11.0522
擋	-11.0523
晤	-11.0532
顛	-11.0533
翅	-11.0541
賭	-11.0542
β	-11.0561
閒	-11.057
輩	-11.057
粘	-11.0579
焰	-11.0579
弊	-11.058
噪	-11.0608
侶	-11.0608
蔬	-11.0617
纖	-11.0618
苻	-11.0618
暑	-11.0636
櫃	-11.0637
倪	-11.0665
紛	-11.0674
喉	-11.0675
膽	-11.0684
拨	-11.0712
烤	-11.0732
寵	-11.077
酬	-11.078
哭	-11.0789
戎	-11.0799
齋	-11.0799
颜	-11.0844
竣	-11.0906
а	-11.0907
纂	-11.0916
舜	-11.0935
兔	-11.0935
騰	-11.0936
钠	-11.0965
遙	-11.0984
芭	-11.0985
祀	-11.1013
悔	-11.1014
奋	-11.1033
擠	-11.1034
塌	-11.1044
誰	-11.1044
簧	-11.1054
饶	-11.1063
塵	-11.1064
淀	-11.1064
丛	-11.1074
椅	-11.1083
椒	-11.1083
诊	-11.1083
犹	-11.1087
丈	-11.1098
鈾	-11.1102
啤	-11.1103
铝	-11.1114
剌	-11.1162
堵	-11.1163
渝	-11.1172
坤	-11.1183
鶴	-11.1193
鮑	-11.1203
盒	-11.1213
聰	-11.1213
懼	-11.1213
滴	-11.1234
瘤	-11.1234
賊	-11.1243
衷	-11.1243
糾	-11.1274
浅	-11.1274
撲	-11.1274
秉	-11.1284
泄	-11.1284
葡	-11.1294
矢	-11.1294
沛	-11.1304
裸	-11.1304
蝶	-11.1305
竭	-11.1314
槽	-11.1314
瑰	-11.1325
邸	-11.1345
棚	-11.1345
鞋	-11.1355
杏	-11.1356
鋪	-11.1365
薯	-11.1366
贸	-11.1374
踪	-11.1385
爽	-11.1386
皖	-11.1406
唇	-11.1427
豚	-11.1437
惑	-11.1448
灘	-11.1458
呢	-11.1467
鸦	-11.1478
夥	-11.1479
滕	-11.1489
屢	-11.1489
袍	-11.1489
狐	-11.151
凸	-11.151
臭	-11.152
愚	-11.153
踐	-11.1541
硅	-11.1541
咀	-11.1541
謙	-11.1551
締	-11.1561
峽	-11.1572
嘛	-11.1572
沼	-11.1593
蘿	-11.1604
輿	-11.1634
戊	-11.1645
羌	-11.1645
匈	-11.1655
鞏	-11.1656
僱	-11.1656
仗	-11.1676
礙	-11.1719
溥	-11.1719
濁	-11.173
訟	-11.174
刪	-11.1751
滇	-11.1761
銳	-11.1762
諮	-11.1762
捲	-11.1762
涛	-11.1782
彥	-11.1793
浏	-11.1794
彝	-11.1804
黔	-11.1804
狩	-11.1815
摘	-11.1815
颠	-11.1836
暢	-11.1858
繳	-11.1858
拯	-11.1858
峻	-11.1889
籲	-11.189
禍	-11.1911
酯	-11.1911
匿	-11.1912
饼	-11.1912
‧	-11.1923
蓉	-11.1933
濫	-11.1955
諷	-11.1955
桿	-11.1955
荀	-11.1955
淫	-11.1966
慮	-11.1974
柄	-11.1988
乏	-11.2008
殉	-11.2009
锐	-11.2009
蟹	-11.2019
膚	-11.2031
彎	-11.2031
桶	-11.2031
碘	-11.2032
稽	-11.2042
祐	-11.2042
渭	-11.2074
沫	-11.2075
肠	-11.2075
廂	-11.2086
鴨	-11.2097
况	-11.2103
鑄	-11.2108
胀	-11.2119
稳	-11.2122
绩	-11.2123
盆	-11.2129
刷	-11.2162
烹	-11.2163
蝕	-11.2174
蝠	-11.2174
瀏	-11.2174
о	-11.2186
懲	-11.2229
贷	-11.2229
淆	-11.223
炒	-11.2252
琦	-11.2263
巩	-11.2274
浴	-11.2274
侠	-11.2275
騙	-11.2286
挫	-11.2296
夹	-11.2308
峙	-11.2342
脹	-11.2353
卦	-11.2364
鎊	-11.2364
妓	-11.2364
玫	-11.2364
拋	-11.2387
傲	-11.2387
闪	-11.241
炳	-11.2421
酋	-11.2421
勵	-11.2443
挽	-11.2454
聂	-11.2454
頌	-11.2489
蔽	-11.2512
厲	-11.2523
倚	-11.2523
滙	-11.2524
谦	-11.2534
剥	-11.2535
鹼	-11.2535
删	-11.2547
遥	-11.2547
蘆	-11.258
棟	-11.2581
貶	-11.2593
晰	-11.2604
謹	-11.2616
哇	-11.2616
汐	-11.2627
漿	-11.2628
騷	-11.2639
鞍	-11.265
喊	-11.2674
奕	-11.2674
閥	-11.2685
闲	-11.2697
賠	-11.2697
褐	-11.2708
隙	-11.2708
σ	-11.2721
忒	-11.2721
谐	-11.2732
諡	-11.2756
陝	-11.2767
牡	-11.2767
芦	-11.2767
}	-11.277
愤	-11.2779
闸	-11.2779
軒	-11.2791
侄	-11.2802
餅	-11.2827
綁	-11.285
乞	-11.285
嫡	-11.2873
垃	-11.2898
翡	-11.2898
踢	-11.2898
谁	-11.2932
誼	-11.2933
羚	-11.2945
岐	-11.2945
拾	-11.2957
湛	-11.2957
寂	-11.297
橄	-11.297
蔭	-11.2994
敖	-11.3029
砍	-11.303
胚	-11.303
\	-11.303
垒	-11.3042
愉	-11.3078
鯨	-11.3078
胆	-11.3102
殲	-11.3113
堰	-11.3114
飽	-11.3114
墟	-11.3138
瓊	-11.3139
ā	-11.3139
宙	-11.315
悖	-11.3151
龟	-11.3175
迭	-11.3176
茄	-11.3176
犁	-11.3187
脆	-11.32
畅	-11.3212
荔	-11.3225
奢	-11.3249
枢	-11.3272
抬	-11.3274
莽	-11.3274
畿	-11.3286
胖	-11.3299
籤	-11.3299
諧	-11.3299
挝	-11.3299
旭	-11.3311
斋	-11.3311
廿	-11.3311
婴	-11.3323
墅	-11.3335
蝙	-11.3348
螢	-11.3349
褒	-11.3373
淋	-11.3373
鲸	-11.3387
─	-11.3398
赔	-11.3411
醛	-11.3411
棺	-11.3423
凍	-11.3423
鹏	-11.3436
瑚	-11.3449
纠	-11.3461
鵝	-11.3461
凶	-11.3473
忧	-11.3474
梓	-11.3486
淹	-11.3486
塢	-11.3487
朋	-11.3497
棍	-11.3499
榆	-11.3524
厭	-11.3524
剝	-11.3537
鞭	-11.3537
匡	-11.355
磡	-11.3563
酿	-11.3563
溉	-11.3576
謠	-11.3588
膏	-11.3601
慾	-11.3601
裴	-11.3652
阐	-11.3652
疲	-11.3665
崙	-11.3665
閘	-11.3678
侦	-11.3691
頸	-11.3716
炉	-11.3716
孚	-11.3717
蔗	-11.3729
芯	-11.3729
蕉	-11.373
渴	-11.3743
帜	-11.3755
罹	-11.3768
抨	-11.3768
擲	-11.3807
厉	-11.3833
傀	-11.3833
肚	-11.3846
磅	-11.3847
膀	-11.3859
貿	-11.3885
橘	-11.3899
罐	-11.3912
聊	-11.3925
娅	-11.3926
鯊	-11.3926
沸	-11.3926
谭	-11.3952
莖	-11.3952
郝	-11.3965
虜	-11.3965
焉	-11.399
掀	-11.3992
抛	-11.3992
窩	-11.4005
敕	-11.4045
漲	-11.4058
萌	-11.4086
爺	-11.4098
咬	-11.4099
湧	-11.4099
蚀	-11.4112
孜	-11.4112
舆	-11.4125
鬱	-11.4139
蛛	-11.4139
疇	-11.4139
μ	-11.418
祁	-11.4193
髓	-11.4193
肤	-11.4193
凹	-11.4206
瑙	-11.4207
櫻	-11.4207
蝦	-11.4207
阀	-11.4233
讽	-11.4234
氦	-11.4234
苷	-11.4234
釜	-11.4234
橙	-11.4247
鹅	-11.4248
祺	-11.4248
趾	-11.4248
勿	-11.4261
锅	-11.4261
瘦	-11.4261
魅	-11.4288
颈	-11.4302
俞	-11.4329
鉛	-11.433
衙	-11.4343
诱	-11.4343
滤	-11.4344
墜	-11.4357
您	-11.4382
吁	-11.4385
譴	-11.4412
篡	-11.444
畴	-11.444
抹	-11.444
饥	-11.4454
宵	-11.4454
谊	-11.4482
樸	-11.4482
淞	-11.4495
嘲	-11.4524
醜	-11.4524
蔓	-11.4538
谴	-11.4538
疼	-11.4566
钾	-11.4566
虏	-11.458
夠	-11.4603
劾	-11.4607
寝	-11.4608
骚	-11.4622
腊	-11.4635
驳	-11.4636
淪	-11.4637
侗	-11.4637
疗	-11.4647
筋	-11.4651
丕	-11.4665
幢	-11.4665
敲	-11.4665
舅	-11.4679
穗	-11.4679
и	-11.468
缸	-11.4693
闢	-11.4693
熹	-11.4694
窝	-11.4708
н	-11.4723
惩	-11.4736
杖	-11.4736
卧	-11.4736
樑	-11.4737
谥	-11.4765
牺	-11.4793
纏	-11.4793
扮	-11.4805
骸	-11.4808
嚇	-11.4823
叢	-11.4837
梧	-11.485
萍	-11.4866
缀	-11.4866
胤	-11.4866
窦	-11.4881
脸	-11.4895
á	-11.4924
辈	-11.4939
巾	-11.4954
〔	-11.4954
渣	-11.4968
苍	-11.4968
〕	-11.4968
牠	-11.4982
涨	-11.4982
馳	-11.4983
恪	-11.4997
蠻	-11.4997
莞	-11.4997
舶	-11.4997
瞭	-11.4997
楷	-11.4998
贬	-11.5012
惧	-11.5012
臘	-11.5024
貸	-11.5027
钻	-11.5041
鵬	-11.5042
籠	-11.5056
俾	-11.5056
腎	-11.5057
閏	-11.5071
浆	-11.5071
罵	-11.5071
厝	-11.5086
汞	-11.5086
枯	-11.51
斌	-11.5101
菱	-11.5116
妾	-11.5116
禾	-11.5146
琅	-11.516
篤	-11.516
曝	-11.5175
稚	-11.519
氰	-11.5205
煎	-11.5206
卤	-11.5206
磚	-11.522
贪	-11.5221
绑	-11.5235
宛	-11.5249
睿	-11.525
犧	-11.525
艮	-11.5265
砌	-11.5265
缔	-11.5265
喚	-11.5266
鍋	-11.5266
渦	-11.528
颂	-11.5295
僕	-11.5296
榴	-11.531
泗	-11.5311
濒	-11.5311
偕	-11.5325
斩	-11.5326
晷	-11.5326
墳	-11.5326
咨	-11.5341
盪	-11.5341
欖	-11.5357
棱	-11.5372
聪	-11.5385
墩	-11.5387
僵	-11.5433
醬	-11.5433
闡	-11.5433
丟	-11.5463
廓	-11.5463
е	-11.5464
榕	-11.5479
蚌	-11.5479
撐	-11.5494
蛮	-11.5494
厢	-11.5495
冤	-11.551
酰	-11.551
祇	-11.551
彦	-11.5524
瑶	-11.5541
苓	-11.5554
檐	-11.5556
瓣	-11.5556
阎	-11.5571
饱	-11.5572
屡	-11.5603
樊	-11.5634
贛	-11.5649
楠	-11.565
羞	-11.565
壹	-11.5665
蹄	-11.5665
毓	-11.5666
禱	-11.5666
慌	-11.5681
娥	-11.5682
钙	-11.5698
裹	-11.5713
│	-11.5729
彬	-11.5729
壬	-11.5744
浑	-11.5744
碗	-11.5744
р	-11.5745
宠	-11.576
尘	-11.5761
芜	-11.5761
仑	-11.5792
佬	-11.5809
ü	-11.5824
瞬	-11.5824
摔	-11.5824
紳	-11.584
綿	-11.584
壟	-11.584
吋	-11.5841
檀	-11.5856
骼	-11.5873
缴	-11.5888
廚	-11.5904
骤	-11.5904
祸	-11.592
缪	-11.592
抒	-11.5936
坞	-11.5953
釀	-11.5953
擒	-11.5969
弼	-11.5985
羲	-11.5985
垦	-11.5985
茎	-11.5985
墮	-11.6002
邯	-11.6017
眷	-11.6034
悅	-11.6034
舖	-11.605
账	-11.6051
虧	-11.6066
烃	-11.6067
溴	-11.6067
詮	-11.6083
攔	-11.6099
肿	-11.6099
濾	-11.6099
塾	-11.61
谨	-11.6115
缝	-11.6115
隕	-11.6116
戌	-11.6132
峨	-11.6148
丢	-11.6148
绳	-11.6149
譬	-11.6149
矽	-11.6149
嗎	-11.6165
慨	-11.6165
虔	-11.6165
溢	-11.6165
兀	-11.6198
匀	-11.6198
泼	-11.6198
侣	-11.6199
惹	-11.6214
驟	-11.6214
堯	-11.6215
甄	-11.6215
啦	-11.6215
腫	-11.6215
匾	-11.6231
纜	-11.6248
劲	-11.6264
暹	-11.6265
糟	-11.6265
滥	-11.6281
饲	-11.6282
憾	-11.6282
洽	-11.6298
鬧	-11.6298
濤	-11.6298
闰	-11.6298
叱	-11.6315
艷	-11.6315
虾	-11.6315
垮	-11.6332
醣	-11.6332
晃	-11.6364
沁	-11.6365
锌	-11.6366
贏	-11.6377
吟	-11.6382
悠	-11.6398
淚	-11.6399
艰	-11.6433
緻	-11.6433
贖	-11.6449
俯	-11.645
冻	-11.645
栋	-11.6466
蔚	-11.6467
讼	-11.6467
盎	-11.6467
滲	-11.6483
槟	-11.6484
醋	-11.6501
沂	-11.6517
滯	-11.6518
棣	-11.6518
紡	-11.6518
嵩	-11.6535
耆	-11.6535
傍	-11.6552
黜	-11.6553
鑒	-11.6553
樟	-11.657
諱	-11.657
靡	-11.6604
鐸	-11.6605
岱	-11.6621
嗜	-11.6622
紮	-11.6639
緝	-11.6655
祂	-11.6657
虑	-11.6671
瘋	-11.669
壩	-11.6708
艱	-11.6708
敷	-11.6725
陇	-11.6725
煩	-11.6743
煽	-11.6743
仆	-11.6743
穎	-11.676
戍	-11.6761
捨	-11.6777
乒	-11.6778
λ	-11.6778
晏	-11.6778
沧	-11.6795
睦	-11.6796
弯	-11.6796
с	-11.6796
縫	-11.6796
斧	-11.6813
绸	-11.6813
‰	-11.6813
猿	-11.6813
兇	-11.6866
汾	-11.6883
笼	-11.6884
飼	-11.6884
谣	-11.6918
婿	-11.6919
蕴	-11.692
妄	-11.6937
袖	-11.6952
凿	-11.6955
姦	-11.6973
耿	-11.6973
骗	-11.6973
硒	-11.6991
矛	-11.7009
仄	-11.7009
雾	-11.7027
搏	-11.7045
鈉	-11.7045
壢	-11.7063
茹	-11.7063
繫	-11.7097
釐	-11.7099
绣	-11.7117
禺	-11.7118
闵	-11.7136
滬	-11.7153
@	-11.7172
佣	-11.719
侮	-11.7208
倖	-11.7209
璃	-11.7226
棵	-11.7227
菸	-11.7227
挡	-11.7245
睹	-11.7245
幟	-11.7264
沦	-11.7282
撑	-11.7282
厌	-11.7282
垄	-11.73
萃	-11.7301
璧	-11.7337
兌	-11.7337
颖	-11.7338
霄	-11.7338
誦	-11.7338
鈔	-11.7375
坟	-11.7393
諭	-11.7393
箕	-11.7412
洩	-11.7413
祯	-11.743
璋	-11.7449
鈣	-11.745
哉	-11.7468
蚊	-11.7469
祷	-11.7469
笙	-11.7469
焕	-11.7488
熵	-11.7506
钓	-11.7506
犀	-11.7507
傘	-11.7525
蜘	-11.7525
妨	-11.7544
捍	-11.7544
皓	-11.7545
胰	-11.7563
к	-11.7564
塚	-11.7582
挤	-11.7601
窑	-11.7601
琵	-11.7601
鹹	-11.7601
厘	-11.7614
圳	-11.7617
尧	-11.7619
夭	-11.764
渗	-11.7658
肽	-11.7659
岑	-11.7659
涡	-11.7678
啊	-11.7696
雉	-11.7697
棘	-11.7697
滞	-11.7716
蕩	-11.7716
饒	-11.7716
哨	-11.7716
贼	-11.7716
爛	-11.7716
铉	-11.7717
帐	-11.7735
斡	-11.7736
姻	-11.7747
苛	-11.7754
陡	-11.7755
酪	-11.7755
γ	-11.7774
陛	-11.7793
钧	-11.7832
π	-11.7833
誅	-11.7851
餓	-11.7852
撕	-11.7852
驰	-11.7852
賺	-11.7872
笨	-11.7872
笠	-11.7911
綏	-11.795
竊	-11.7951
膝	-11.797
卯	-11.799
擇	-11.8025
ö	-11.805
衆	-11.8069
傣	-11.807
锥	-11.807
酱	-11.807
祚	-11.8089
褲	-11.809
衫	-11.809
椭	-11.811
愁	-11.813
侖	-11.813
辑	-11.8146
稷	-11.8187
浚	-11.819
胥	-11.819
敛	-11.8211
】	-11.8211
叹	-11.8231
禎	-11.8231
稠	-11.8231
乍	-11.8251
誇	-11.8251
捧	-11.8251
【	-11.8251
臻	-11.827
妈	-11.8271
裙	-11.8271
殆	-11.8291
臥	-11.8312
詐	-11.8312
瞻	-11.8313
閻	-11.8331
灶	-11.8332
潼	-11.8353
轩	-11.8353
匣	-11.8353
ó	-11.8374
摸	-11.8436
镑	-11.8457
傭	-11.8477
衢	-11.8478
の	-11.8478
沾	-11.8498
擱	-11.8498
蒼	-11.8519
鋁	-11.8519
稜	-11.8519
栓	-11.854
飢	-11.854
盔	-11.854
瘟	-11.8582
т	-11.8582
悦	-11.8603
煥	-11.8624
苟	-11.8645
驼	-11.8645
缆	-11.8646
刮	-11.8666
繹	-11.8666
雯	-11.8686
曜	-11.8709
弈	-11.8709
腥	-11.8709
篆	-11.8709
浊	-11.871
攤	-11.8773
梗	-11.8773
闖	-11.8794
疹	-11.8795
贩	-11.8816
吗	-11.8816
邹	-11.8836
隅	-11.8837
腕	-11.8838
賄	-11.8838
朽	-11.8859
竿	-11.8859
枕	-11.8859
榄	-11.886
疯	-11.888
瀕	-11.8881
綴	-11.8881
跪	-11.8902
諜	-11.8902
娄	-11.8924
衞	-11.8924
刹	-11.8925
汴	-11.8945
邏	-11.8945
爸	-11.8968
巳	-11.8968
癸	-11.8968
в	-11.8968
鄒	-11.8989
蒜	-11.899
膛	-11.899
聶	-11.9011
恥	-11.9033
澜	-11.9033
竺	-11.9034
沽	-11.9055
淤	-11.9056
萎	-11.9056
镶	-11.9077
赌	-11.9078
豎	-11.9078
檬	-11.9078
菁	-11.9078
潟	-11.9099
諫	-11.9099
炯	-11.9121
贿	-11.9122
峭	-11.9122
霹	-11.9144
磺	-11.9145
綽	-11.9145
蝴	-11.9145
ー	-11.9146
咎	-11.9166
粥	-11.9167
竇	-11.9187
蛙	-11.9189
刃	-11.9189
崑	-11.9189
隼	-11.9189
佗	-11.9211
乓	-11.9211
皋	-11.9233
噬	-11.9234
谕	-11.9234
瀛	-11.9256
酉	-11.9323
琛	-11.9323
椰	-11.9346
遏	-11.9347
í	-11.9347
硼	-11.9347
渾	-11.9348
栈	-11.9392
脾	-11.9415
膳	-11.9415
咽	-11.9415
摺	-11.9415
雏	-11.9415
挪	-11.9435
闹	-11.9437
帛	-11.9437
雛	-11.9438
ä	-11.9438
朕	-11.9458
咤	-11.946
讷	-11.9461
酚	-11.9461
嘎	-11.9461
绎	-11.9483
±	-11.9483
楓	-11.9507
逗	-11.953
兑	-11.9552
竖	-11.9576
侈	-11.9576
菇	-11.9577
幌	-11.9598
瓯	-11.9599
甬	-11.96
肾	-11.9623
戳	-11.9623
蠟	-11.9623
铃	-11.9623
檳	-11.9623
鈞	-11.9623
屑	-11.9646
冉	-11.9646
坠	-11.9646
萝	-11.9646
柑	-11.9646
伞	-11.9646
橢	-11.9646
炬	-11.9647
佚	-11.9669
侬	-11.967
攬	-11.967
蘊	-11.9717
л	-11.9717
惰	-11.974
駒	-11.9741
釷	-11.9763
嘆	-11.9764
邢	-11.9764
榔	-11.9764
陋	-11.9787
烦	-11.9787
驿	-11.9787
霆	-11.9788
•	-11.981
簿	-11.9811
淘	-11.9812
鎳	-11.9835
ο	-11.9835
琶	-11.9835
^	-11.9859
釘	-11.9882
唤	-11.9883
羟	-11.9883
铀	-11.9906
畝	-11.9907
〇	-11.9921
鋰	-11.993
樱	-11.9931
哩	-11.9955
瞄	-11.9955
皈	-11.9955
靶	-11.9979
隘	-11.9979
狙	-11.9979
胱	-11.9979
综	-11.9996
蔑	-12.0003
廬	-12.0027
鞅	-12.0027
狸	-12.0027
壺	-12.0027
缠	-12.0052
钥	-12.0052
肛	-12.0053
閔	-12.0076
莆	-12.0076
埗	-12.0081
卉	-12.01
鍊	-12.0101
昼	-12.0125
姨	-12.0125
泵	-12.0126
谍	-12.0126
剃	-12.015
烘	-12.015
喙	-12.015
聿	-12.0174
縛	-12.0175
嫻	-12.0199
祕	-12.0199
砷	-12.0199
溺	-12.0223
暱	-12.0224
琰	-12.0225
鈦	-12.0249
謨	-12.025
爷	-12.0273
苔	-12.0274
軼	-12.0274
绒	-12.0298
溜	-12.0299
瞿	-12.0322
証	-12.0323
○	-12.0324
蜡	-12.0324
麾	-12.0348
斃	-12.0348
钩	-12.0348
缮	-12.0348
烂	-12.0374
嬪	-12.0399
骆	-12.0399
δ	-12.0399
豁	-12.0399
孵	-12.0399
戮	-12.0424
瑾	-12.0424
崁	-12.0449
謎	-12.0449
匙	-12.0475
撼	-12.05
鹵	-12.05
诛	-12.0549
敞	-12.0577
锂	-12.0577
鉑	-12.0578
蟻	-12.0603
钞	-12.0627
绅	-12.0628
讳	-12.0629
铯	-12.0629
澱	-12.0654
錐	-12.0654
荫	-12.068
糯	-12.0681
勻	-12.0681
倩	-12.0705
靼	-12.0706
蒐	-12.0706
諒	-12.0707
聆	-12.0732
妒	-12.0732
麒	-12.0732
癒	-12.0732
ε	-12.0758
帧	-12.0783
瑤	-12.0784
寰	-12.081
餾	-12.0811
吵	-12.0837
幂	-12.0837
鑿	-12.0862
谟	-12.0864
恺	-12.0864
鉅	-12.0889
妝	-12.089
泣	-12.089
谏	-12.089
盼	-12.089
砸	-12.089
枣	-12.0916
廁	-12.0916
毋	-12.0943
ン	-12.0943
泾	-12.0969
扔	-12.0969
汲	-12.0996
枫	-12.0996
鑰	-12.1023
謬	-12.1023
侏	-12.1024
蜥	-12.105
洼	-12.1051
耻	-12.1077
淇	-12.1077
莒	-12.1077
诵	-12.1077
捆	-12.1077
甦	-12.1077
鉀	-12.1104
赎	-12.1131
坍	-12.1158
濮	-12.1158
繆	-12.1158
薰	-12.1158
驕	-12.1158
葫	-12.1186
蔥	-12.1186
ν	-12.1213
繡	-12.1213
隧	-12.1225
窃	-12.124
沅	-12.124
泪	-12.1241
靴	-12.1241
襪	-12.1268
埕	-12.1295
拦	-12.1295
蟬	-12.1296
厨	-12.1296
煞	-12.1296
艳	-12.1296
瑛	-12.1322
篷	-12.1323
垫	-12.1323
瘧	-12.135
湄	-12.1351
裤	-12.1351
葱	-12.1378
泸	-12.1406
倦	-12.1406
謊	-12.1406
绛	-12.1407
攸	-12.1407
畲	-12.1434
亏	-12.1462
啓	-12.1462
嶽	-12.149
暮	-12.149
肋	-12.149
渥	-12.1491
淄	-12.1518
拷	-12.1518
逻	-12.1519
昧	-12.1519
穹	-12.1519
楞	-12.1519
璽	-12.152
嘱	-12.1547
饑	-12.1547
沮	-12.1547
毙	-12.1575
渲	-12.1575
槃	-12.1576
柜	-12.1603
扯	-12.1604
孢	-12.1604
樵	-12.1629
奚	-12.1632
攏	-12.1661
锑	-12.1661
拌	-12.1661
孀	-12.1689
灸	-12.169
嘗	-12.1717
恕	-12.1718
栅	-12.1718
枋	-12.1718
躁	-12.1718
鳍	-12.1718
笃	-12.1747
錶	-12.1747
唸	-12.1747
郸	-12.1774
冗	-12.1775
驯	-12.1776
喘	-12.1776
毯	-12.1804
醚	-12.1805
酥	-12.1805
堀	-12.1833
湊	-12.1834
饿	-12.1834
珪	-12.1834
憩	-12.1834
兜	-12.1834
婷	-12.1863
囑	-12.1863
蚕	-12.1921
锤	-12.1922
咪	-12.1922
瀨	-12.1951
蕊	-12.1951
裘	-12.1951
芹	-12.1951
鰭	-12.1951
錒	-12.1951
嬴	-12.1981
诈	-12.1981
梳	-12.201
翟	-12.201
皂	-12.201
悄	-12.201
咏	-12.2039
楔	-12.204
憐	-12.204
埤	-12.2069
鄱	-12.2069
ω	-12.207
芷	-12.2098
甥	-12.2099
疟	-12.2099
瀋	-12.2099
擄	-12.21
τ	-12.21
檸	-12.21
俸	-12.2128
澀	-12.2159
咐	-12.2159
粽	-12.216
峪	-12.2188
孺	-12.2188
汙	-12.2189
纱	-12.2189
馨	-12.2189
妆	-12.2189
鑭	-12.219
媚	-12.2249
歪	-12.225
惱	-12.2281
飄	-12.2281
頑	-12.2281
綢	-12.231
鳩	-12.2311
霉	-12.2311
氡	-12.2311
鰂	-12.2341
戛	-12.2341
绰	-12.2342
嘯	-12.2342
儉	-12.2342
燭	-12.2342
飘	-12.2371
揆	-12.2371
恤	-12.2371
铎	-12.2403
嫉	-12.2403
峇	-12.2434
倘	-12.2464
袜	-12.2465
尝	-12.2496
è	-12.2496
晦	-12.2527
稼	-12.2557
筛	-12.2559
钊	-12.2588
溧	-12.2589
颐	-12.2589
伶	-12.259
丐	-12.259
荼	-12.259
墊	-12.2621
潑	-12.2652
沱	-12.2684
扈	-12.2684
柵	-12.2684
壶	-12.2684
轎	-12.2684
哆	-12.2684
妊	-12.2685
杞	-12.2715
吓	-12.2716
憎	-12.2716
懋	-12.2716
鯉	-12.2716
氹	-12.2716
毆	-12.2716
鲨	-12.2716
岷	-12.2747
悍	-12.2748
鎌	-12.278
钉	-12.278
筠	-12.2811
挾	-12.2812
茜	-12.2812
氙	-12.2812
庾	-12.2812
颅	-12.2813
漕	-12.2843
賤	-12.2844
曙	-12.2844
瑁	-12.2845
鑲	-12.2875
簇	-12.2876
愧	-12.2876
巖	-12.2876
佃	-12.2876
秩	-12.2907
酗	-12.2909
濂	-12.2909
ρ	-12.2941
螂	-12.2941
羧	-12.2941
彤	-12.2942
瓮	-12.2973
暇	-12.2973
焊	-12.2973
鈺	-12.2973
牒	-12.2974
叮	-12.2974
蒿	-12.2974
襯	-12.2974
槐	-12.2974
誡	-12.3006
涪	-12.3006
臼	-12.3006
逵	-12.3038
柝	-12.3039
喃	-12.3039
吠	-12.304
儘	-12.3066
岔	-12.3071
骂	-12.3105
赢	-12.3132
拙	-12.3138
痘	-12.3138
詛	-12.3171
躺	-12.3171
ι	-12.3171
馈	-12.3171
鞘	-12.3172
莓	-12.3172
涿	-12.3172
槿	-12.3204
臧	-12.3204
谅	-12.3205
媳	-12.3205
擢	-12.3237
鄙	-12.3238
鹘	-12.3271
鵰	-12.3271
呆	-12.3272
靺	-12.3272
涯	-12.3273
匆	-12.3304
僻	-12.3305
鈹	-12.3305
轅	-12.3305
逍	-12.3305
蠢	-12.3305
堃	-12.3305
绞	-12.3305
掷	-12.3305
吒	-12.3305
陨	-12.334
奘	-12.334
芥	-12.3373
冢	-12.3373
炫	-12.3441
豈	-12.3441
ú	-12.3441
啸	-12.3441
迂	-12.3475
鞨	-12.3476
咳	-12.3509
堕	-12.351
缚	-12.3544
魄	-12.3579
д	-12.3579
耦	-12.358
脅	-12.3611
紗	-12.3613
鄴	-12.3614
鋅	-12.3614
镭	-12.3614
樺	-12.3614
鶯	-12.3614
м	-12.3649
碲	-12.3649
扳	-12.3683
剔	-12.3683
糙	-12.3684
玳	-12.3684
▌	-12.3685
驴	-12.3718
轼	-12.3719
陌	-12.3719
戟	-12.3719
偃	-12.3753
灼	-12.3753
齣	-12.3754
舵	-12.3754
摊	-12.3789
迥	-12.3789
麽	-12.3789
鞠	-12.3824
蕨	-12.3825
颶	-12.3859
褚	-12.3859
闯	-12.386
镓	-12.386
瀉	-12.386
ë	-12.386
い	-12.386
昊	-12.3896
灑	-12.3896
谜	-12.3896
鬚	-12.3896
顽	-12.3931
鱗	-12.3931
缉	-12.3931
猷	-12.3932
菠	-12.3932
僭	-12.3967
倆	-12.3968
俭	-12.3968
姪	-12.3968
唾	-12.3968
黯	-12.4004
驛	-12.404
炙	-12.404
焘	-12.4075
襟	-12.4075
磐	-12.4076
娟	-12.4076
芋	-12.4076
鉤	-12.4112
鲤	-12.4113
輾	-12.4113
篩	-12.4113
沌	-12.4114
壕	-12.4149
滸	-12.4149
妍	-12.4149
鈕	-12.4149
堊	-12.4149
檻	-12.4149
晖	-12.4185
氓	-12.4185
鸮	-12.4185
珲	-12.4185
捏	-12.4186
嬌	-12.4186
鳌	-12.4223
钮	-12.4223
韬	-12.4223
婢	-12.4223
茫	-12.4223
慄	-12.4223
拐	-12.4259
誣	-12.426
龚	-12.4296
沐	-12.4297
柩	-12.4333
辗	-12.4334
桧	-12.4334
隴	-12.4335
肴	-12.4335
楨	-12.4335
谬	-12.4371
拂	-12.4372
汛	-12.4372
溼	-12.4372
搁	-12.4372
籽	-12.4372
駱	-12.4409
陂	-12.441
婭	-12.441
兮	-12.441
馏	-12.441
弩	-12.4447
晝	-12.4447
鹊	-12.4447
揽	-12.4448
阱	-12.4448
瀾	-12.4484
郢	-12.4484
訶	-12.4485
覓	-12.4485
霑	-12.4485
※	-12.4486
箴	-12.4486
邕	-12.4561
瑕	-12.4561
嶄	-12.4562
蔔	-12.4562
衮	-12.4562
荧	-12.4562
择	-12.4596
扼	-12.46
稟	-12.46
鸠	-12.46
軀	-12.46
産	-12.4601
嬉	-12.4638
熏	-12.4638
矯	-12.4638
浒	-12.4638
漱	-12.4674
恬	-12.4676
诠	-12.4676
捞	-12.4677
頤	-12.4677
寢	-12.4715
掖	-12.4715
窒	-12.4715
葆	-12.4716
桀	-12.4716
揉	-12.4716
糞	-12.4716
狠	-12.4716
昨	-12.4753
羯	-12.4754
癱	-12.4754
軾	-12.4755
惕	-12.4793
唔	-12.4793
鎂	-12.4793
褶	-12.4794
炀	-12.4794
衬	-12.4794
滔	-12.483
姥	-12.4832
摹	-12.4833
謗	-12.4833
酌	-12.4871
轿	-12.4872
嫔	-12.4872
撈	-12.4873
玺	-12.491
賃	-12.4911
烴	-12.4911
萱	-12.4912
鞑	-12.4951
磋	-12.4951
鋂	-12.4951
芮	-12.4952
磯	-12.4991
κ	-12.4991
飓	-12.4991
顎	-12.4991
筍	-12.4991
弋	-12.5031
鳞	-12.5031
媛	-12.5031
絞	-12.5031
燦	-12.5031
蠕	-12.5031
雒	-12.5031
镁	-12.5031
ī	-12.5032
惶	-12.507
聳	-12.5071
韌	-12.5071
洱	-12.5072
慷	-12.5111
俑	-12.5111
瞞	-12.5112
骄	-12.5112
靂	-12.5112
圩	-12.5112
φ	-12.5112
烽	-12.5151
躬	-12.5152
勛	-12.5152
潢	-12.5152
侃	-12.5152
у	-12.5152
邳	-12.5192
潞	-12.5192
旌	-12.5192
痴	-12.5193
诃	-12.5193
骏	-12.5194
拢	-12.5233
粱	-12.5234
迺	-12.5234
蓟	-12.5274
鹦	-12.5275
锻	-12.5275
珥	-12.5275
钡	-12.5275
琐	-12.5315
膩	-12.5315
蠶	-12.5316
臀	-12.5357
丫	-12.5357
餵	-12.5357
鸚	-12.5398
遁	-12.5398
凋	-12.5398
彧	-12.5399
癮	-12.5399
駭	-12.544
傻	-12.544
巔	-12.544
漓	-12.544
燊	-12.5481
巽	-12.5481
頡	-12.5482
馴	-12.5482
翊	-12.5482
滦	-12.5523
悶	-12.5523
駝	-12.5566
伺	-12.5566
崧	-12.5566
餡	-12.5567
歎	-12.5567
诬	-12.5607
亳	-12.5607
奄	-12.5607
耍	-12.5608
訝	-12.5608
铲	-12.5608
渚	-12.5609
捻	-12.5609
跆	-12.5609
肘	-12.565
撓	-12.565
潍	-12.5651
吩	-12.5651
矚	-12.5651
赚	-12.5651
洮	-12.5651
饋	-12.5651
榨	-12.5652
笋	-12.5652
鷺	-12.5693
巍	-12.5693
鋦	-12.5694
礫	-12.5694
ス	-12.5694
沭	-12.5736
攘	-12.5736
峯	-12.5738
膑	-12.5739
厥	-12.5778
柬	-12.578
鹭	-12.578
斂	-12.5822
鵡	-12.5822
瘓	-12.5823
膺	-12.5824
锰	-12.5824
詭	-12.5866
俐	-12.5867
睾	-12.5867
垩	-12.5867
祜	-12.5867
骰	-12.5867
懇	-12.591
麝	-12.591
滄	-12.591
孽	-12.591
鍛	-12.591
眺	-12.5954
谎	-12.5954
巒	-12.5954
窘	-12.5954
貂	-12.5954
ō	-12.5954
諺	-12.5955
茱	-12.5955
暈	-12.5998
晒	-12.5998
曬	-12.5998
婁	-12.5999
鴿	-12.5999
龔	-12.6041
舷	-12.6042
栱	-12.6042
澧	-12.6042
剎	-12.6043
璐	-12.6086
尬	-12.6086
晕	-12.6087
兖	-12.6087
舫	-12.6087
阙	-12.6131
懈	-12.6131
錘	-12.6132
踩	-12.6132
嗅	-12.6132
銥	-12.6132
劭	-12.6173
跤	-12.6176
逕	-12.6177
茉	-12.6177
訣	-12.6177
桨	-12.6177
愷	-12.6221
闐	-12.6221
戡	-12.6221
綺	-12.6221
毘	-12.6222
俚	-12.6222
砚	-12.6266
圃	-12.6266
瞎	-12.6266
躯	-12.6266
鸽	-12.6267
熬	-12.6267
娛	-12.631
郃	-12.6312
镕	-12.6312
弛	-12.6312
陞	-12.6312
埼	-12.6312
樁	-12.6312
螳	-12.6312
暉	-12.6313
熾	-12.6313
筲	-12.6358
遽	-12.6358
祉	-12.6358
珞	-12.6403
桅	-12.6403
挨	-12.6403
雳	-12.6404
鑼	-12.6404
薑	-12.6404
邺	-12.6404
哮	-12.6404
熄	-12.645
燮	-12.645
寥	-12.645
晁	-12.645
ا	-12.645
幡	-12.6495
韧	-12.6496
鍺	-12.6496
〜	-12.6496
г	-12.6496
桔	-12.6496
荥	-12.6541
闕	-12.6542
萼	-12.6542
伎	-12.6542
桩	-12.6543
鈽	-12.6543
淦	-12.6543
呀	-12.6588
琮	-12.6589
畑	-12.6589
巅	-12.6589
璞	-12.6589
惇	-12.659
恢	-12.6632
洒	-12.6636
涝	-12.6636
蟾	-12.6636
璇	-12.6637
鎢	-12.6637
鈮	-12.6637
榻	-12.6683
颍	-12.6683
鍍	-12.6683
璜	-12.6683
п	-12.6684
癖	-12.6684
ē	-12.6684
賂	-12.6684
怜	-12.673
怯	-12.6731
儂	-12.6731
鍀	-12.6731
怠	-12.6731
й	-12.6731
⁄	-12.6731
镧	-12.6732
焙	-12.6778
遴	-12.6779
轶	-12.6779
鉍	-12.6779
訛	-12.6826
贮	-12.6826
唆	-12.6826
叭	-12.6826
疍	-12.6826
诫	-12.6827
挠	-12.6874
趟	-12.6874
跩	-12.6875
畸	-12.6875
恼	-12.6875
孛	-12.6918
鄞	-12.6921
锯	-12.6922
鱷	-12.6922
曠	-12.6923
睞	-12.6923
琥	-12.6923
殯	-12.6971
煬	-12.6971
叟	-12.6971
瀚	-12.6972
摒	-12.702
呤	-12.702
饷	-12.702
氖	-12.702
濠	-12.702
â	-12.702
啶	-12.7069
顫	-12.7069
鼐	-12.7069
撇	-12.7069
à	-12.7069
吼	-12.7069
钨	-12.7069
η	-12.7069
笈	-12.7069
涩	-12.707
槳	-12.7118
夔	-12.7118
睢	-12.7118
誹	-12.7118
髻	-12.7118
釔	-12.7118
碉	-12.7119
蘑	-12.7119
殭	-12.712
豔	-12.7168
か	-12.7168
裳	-12.7168
锶	-12.7168
甩	-12.7169
壠	-12.7217
遐	-12.7217
瑩	-12.7217
脖	-12.7217
鹃	-12.7217
羔	-12.7218
翦	-12.7218
鴕	-12.7218
攪	-12.7218
苞	-12.7266
钵	-12.7267
嘌	-12.7267
髒	-12.7267
羁	-12.7267
蚁	-12.7267
莪	-12.7267
氐	-12.7267
瑋	-12.7268
钛	-12.7268
劈	-12.7268
輻	-12.7315
歆	-12.7316
釉	-12.7317
砹	-12.7317
舺	-12.7317
郴	-12.7318
ô	-12.7318
叡	-12.7318
樽	-12.7366
昱	-12.7367
烛	-12.7368
赂	-12.7368
铬	-12.7368
亢	-12.7368
鬍	-12.7369
錇	-12.7369
彗	-12.7413
靳	-12.7417
瑣	-12.7418
俩	-12.7419
宕	-12.7419
ˋ	-12.7419
澈	-12.742
弔	-12.742
翘	-12.747
鐮	-12.747
絨	-12.747
抖	-12.747
羰	-12.7471
奭	-12.752
羈	-12.752
炔	-12.7521
徭	-12.7521
θ	-12.7522
芸	-12.7522
嵇	-12.7522
淅	-12.7572
窯	-12.7572
夯	-12.7572
踞	-12.7573
鉭	-12.7573
ū	-12.7574
椿	-12.7624
冼	-12.7625
桢	-12.7625
沥	-12.7625
煜	-12.7625
鉻	-12.7677
腭	-12.7677
皿	-12.7678
餉	-12.7729
箔	-12.7729
歙	-12.7729
筷	-12.773
ˊ	-12.773
湍	-12.7781
澡	-12.7781
耽	-12.7782
譏	-12.7782
螯	-12.7782
摻	-12.7782
蕙	-12.7782
吡	-12.7782
僖	-12.7782
锺	-12.7834
掙	-12.7834
贻	-12.7835
儁	-12.7835
飪	-12.7835
凑	-12.7835
綾	-12.7887
黍	-12.7888
崴	-12.7888
捣	-12.7888
龛	-12.7888
し	-12.7888
瘫	-12.794
痰	-12.7941
糜	-12.7941
勐	-12.7941
鏢	-12.7941
碌	-12.7941
顱	-12.7941
柠	-12.7941
愍	-12.7994
摯	-12.7995
粪	-12.7995
羹	-12.7995
镰	-12.7995
彷	-12.7995
镍	-12.7995
珂	-12.8048
窖	-12.8049
藓	-12.8049
幺	-12.8049
浜	-12.8103
杠	-12.8104
帘	-12.8104
憫	-12.8104
瞰	-12.8158
釗	-12.8158
诅	-12.8158
檯	-12.8158
鉈	-12.8158
濬	-12.8158
滁	-12.8159
嫦	-12.8159
瀆	-12.8212
蛟	-12.8212
紊	-12.8213
柚	-12.8213
絮	-12.8213
鱀	-12.8213
た	-12.8213
柿	-12.8213
鉲	-12.8214
蛤	-12.8214
я	-12.8214
葺	-12.8268
撮	-12.8268
婪	-12.8269
碇	-12.8269
旷	-12.8323
梆	-12.8324
谤	-12.8324
恃	-12.8324
喂	-12.8324
飆	-12.8324
б	-12.8324
韜	-12.8378
赓	-12.8378
塹	-12.8379
竄	-12.838
泻	-12.838
觅	-12.838
掺	-12.8436
闷	-12.8436
忻	-12.8436
钋	-12.8436
ん	-12.8437
殴	-12.8437
浇	-12.8492
秤	-12.8492
穫	-12.8492
瞳	-12.8492
拇	-12.8493
檜	-12.8493
聾	-12.8493
皱	-12.8493
訥	-12.8493
ラ	-12.8493
岚	-12.8549
黴	-12.8549
啄	-12.8549
腻	-12.8549
嚮	-12.8549
韃	-12.8549
筝	-12.855
銦	-12.855
疵	-12.8606
鵲	-12.8606
烙	-12.8606
諦	-12.8606
餚	-12.8606
叩	-12.8607
錳	-12.8607
诰	-12.866
碾	-12.8663
鱲	-12.8664
睽	-12.8664
秃	-12.8664
ь	-12.8664
醃	-12.8665
棧	-12.872
謇	-12.872
羡	-12.8721
鋸	-12.8721
琢	-12.8722
ト	-12.8722
涓	-12.8722
袞	-12.8722
昕	-12.8722
謁	-12.8779
蒯	-12.8779
嗽	-12.8779
窺	-12.878
梢	-12.878
嚼	-12.878
佟	-12.878
涧	-12.878
豌	-12.878
紓	-12.8781
リ	-12.8781
曳	-12.8838
兗	-12.8838
坳	-12.8838
鎚	-12.8838
ル	-12.8838
猬	-12.8839
喧	-12.8839
醴	-12.884
胁	-12.8891
嵐	-12.8892
佯	-12.8896
釁	-12.8896
峒	-12.8897
刁	-12.8897
琊	-12.8897
娠	-12.8897
猝	-12.8897
疤	-12.8897
醯	-12.8897
圻	-12.8955
磊	-12.8956
颌	-12.8956
櫚	-12.8956
徘	-12.8956
昵	-12.8956
痊	-12.8957
娩	-12.8957
痪	-12.9015
跻	-12.9015
媲	-12.9016
鑫	-12.9016
徊	-12.9016
簾	-12.9016
薨	-12.9016
嶠	-12.9018
瞒	-12.9073
榭	-12.9075
啡	-12.9075
耸	-12.9076
覲	-12.9076
阆	-12.9076
甌	-12.9076
镀	-12.9076
谿	-12.9077
猖	-12.9136
苇	-12.9136
芎	-12.9137
岌	-12.9196
曇	-12.9196
脷	-12.9197
挣	-12.9197
寞	-12.9197
ㄧ	-12.9197
ç	-12.9197
匱	-12.9197
枉	-12.9197
蝇	-12.9197
腌	-12.9197
俟	-12.9257
鈰	-12.9257
袒	-12.9258
蹴	-12.9258
嫂	-12.9318
珈	-12.9318
狡	-12.9319
鵑	-12.9319
懦	-12.938
蜿	-12.938
岂	-12.938
柘	-12.9381
驢	-12.9381
螞	-12.9381
ア	-12.9381
う	-12.9381
辕	-12.9381
銪	-12.9442
瀧	-12.9442
貯	-12.9443
錸	-12.9443
桦	-12.9443
ل	-12.9443
馥	-12.9443
卅	-12.9502
坵	-12.9505
谔	-12.9505
褻	-12.9505
勺	-12.9505
搗	-12.9505
阗	-12.9505
羥	-12.9505
釵	-12.9505
膾	-12.9506
輟	-12.9506
撻	-12.9506
懶	-12.9506
幔	-12.9567
賑	-12.9568
秧	-12.9568
藕	-12.9568
涸	-12.9568
侷	-12.9568
韭	-12.9568
疮	-12.9568
諤	-12.9568
鋨	-12.9569
谒	-12.9631
燧	-12.9631
忱	-12.9694
弒	-12.9694
筵	-12.9694
篠	-12.9695
肄	-12.9695
鄯	-12.9695
氘	-12.9695
岬	-12.9695
玟	-12.9695
娼	-12.9695
耒	-12.9695
嗲	-12.9696
貽	-12.9696
薈	-12.9758
宸	-12.9758
蠡	-12.9759
鑾	-12.9759
僳	-12.9759
穢	-12.9759
な	-12.976
怛	-12.976
«	-12.976
鑀	-12.976
ø	-12.976
殤	-12.9821
楹	-12.9823
嘧	-12.9823
洵	-12.9823
轍	-12.9823
蜒	-12.9824
馀	-12.9824
萤	-12.9824
榈	-12.9825
棗	-12.9888
菅	-12.9888
咖	-12.9888
贱	-12.9888
羣	-12.9889
と	-12.9889
蚩	-12.989
挚	-12.9953
楣	-12.9953
睐	-12.9954
渎	-12.9954
蝉	-12.9954
哗	-12.9954
蛾	-12.9954
矶	-12.9954
蒨	-12.9954
罔	-12.9954
箏	-12.9955
斟	-13.0018
曦	-13.0019
恳	-13.0019
氾	-13.002
⋯	-13.002
钴	-13.002
痢	-13.002
く	-13.0021
亟	-13.0086
渺	-13.0086
蚂	-13.0086
≤	-13.0087
賬	-13.0087
俶	-13.0087
抉	-13.0087
嘩	-13.0152
掣	-13.0152
嘔	-13.0152
婺	-13.0152
嵊	-13.0152
驸	-13.0152
傈	-13.0153
讶	-13.0153
矗	-13.0153
敍	-13.0153
粲	-13.0153
揣	-13.0218
俏	-13.0219
詣	-13.022
悯	-13.022
蜴	-13.022
蟒	-13.022
漬	-13.0221
誥	-13.0221
匮	-13.0286
呕	-13.0287
漩	-13.0287
嘻	-13.0288
佼	-13.0288
乖	-13.0354
蕪	-13.0355
挟	-13.0355
昶	-13.0355
蹲	-13.0355
瀝	-13.0355
瘡	-13.0356
妳	-13.0356
奬	-13.0356
イ	-13.0356
蚓	-13.0356
蹈	-13.0423
诽	-13.0423
拮	-13.0424
銣	-13.0424
緋	-13.0424
り	-13.0425
栩	-13.0492
吶	-13.0492
鷗	-13.0493
铋	-13.0493
锈	-13.0493
赁	-13.0493
み	-13.0493
锣	-13.0494
驪	-13.0562
阡	-13.0562
镐	-13.0563
ê	-13.0563
屎	-13.0563
繇	-13.0629
蟠	-13.0632
湮	-13.0632
泓	-13.0633
ы	-13.0633
嗓	-13.0633
褫	-13.0633
昀	-13.0702
哺	-13.0702
匝	-13.0702
荻	-13.0702
莘	-13.0703
驊	-13.0703
曄	-13.0703
钼	-13.0703
絃	-13.0703
汨	-13.0703
馅	-13.0703
辮	-13.0703
逮	-13.0771
砀	-13.0773
剷	-13.0773
忏	-13.0773
禿	-13.0773
灿	-13.0773
隍	-13.0773
啞	-13.0774
餃	-13.0774
颤	-13.0774
鰓	-13.0774
鶻	-13.0775
翹	-13.0844
嵋	-13.0845
鉬	-13.0845
疚	-13.0845
閑	-13.0845
齦	-13.0845
铂	-13.0846
闍	-13.0915
衅	-13.0916
唁	-13.0916
浬	-13.0916
莺	-13.0916
蝎	-13.0916
莹	-13.0917
褪	-13.0917
晟	-13.0917
啼	-13.0917
ŋ	-13.0917
窪	-13.0917
屁	-13.0917
搅	-13.0917
ñ	-13.0917
漯	-13.0917
儋	-13.0918
醐	-13.0988
醍	-13.0989
帷	-13.0989
祆	-13.099
撾	-13.099
妲	-13.099
冪	-13.099
帑	-13.099
漪	-13.099
ク	-13.099
沔	-13.1061
濛	-13.1062
虢	-13.1062
熒	-13.1062
癲	-13.1063
釤	-13.1063
魟	-13.1063
ß	-13.1063
槓	-13.1063
俳	-13.1135
诡	-13.1135
絳	-13.1136
犍	-13.1136
鳄	-13.1136
に	-13.1136
瞩	-13.1136
傢	-13.1136
铵	-13.1136
栎	-13.1136
ζ	-13.1137
纣	-13.1208
羨	-13.1209
瑯	-13.1209
儼	-13.121
鸾	-13.121
彿	-13.121
佘	-13.121
噁	-13.121
霰	-13.121
š	-13.121
蝸	-13.1211
矫	-13.1283
禀	-13.1283
掏	-13.1284
诣	-13.1284
浣	-13.1284
―	-13.1285
絹	-13.1285
紜	-13.1285
鏽	-13.1285
拗	-13.1285
淝	-13.1285
皺	-13.136
陲	-13.136
骡	-13.136
å	-13.136
瘠	-13.136
紇	-13.1361
咄	-13.1361
輒	-13.1433
锷	-13.1434
鬣	-13.1434
瑭	-13.1435
芾	-13.1435
媧	-13.1435
嵯	-13.1436
绮	-13.1436
颚	-13.1436
榷	-13.1507
扒	-13.1512
孰	-13.1512
鬃	-13.1512
噩	-13.1512
檄	-13.1512
钕	-13.1512
鰲	-13.1513
闾	-13.1513
卞	-13.1513
貘	-13.1513
纶	-13.1586
佤	-13.1588
頹	-13.1588
畹	-13.1588
†	-13.1588
拚	-13.1589
髦	-13.1589
嫖	-13.1589
綬	-13.1589
鐳	-13.1589
峴	-13.1589
恿	-13.1589
驃	-13.1589
滘	-13.1589
煦	-13.159
氬	-13.1666
罄	-13.1666
叻	-13.1666
繕	-13.1666
鈍	-13.1666
撿	-13.1666
鐿	-13.1667
薊	-13.1744
獗	-13.1745
邛	-13.1745
鸞	-13.1745
氚	-13.1745
脩	-13.1745
揪	-13.1746
擂	-13.1822
鯤	-13.1823
浔	-13.1823
凳	-13.1823
揀	-13.1823
菏	-13.1823
菟	-13.1823
藜	-13.1823
鳃	-13.1824
瀰	-13.1824
ま	-13.1824
弑	-13.1902
辍	-13.1902
涤	-13.1902
蔷	-13.1902
绶	-13.1902
躋	-13.1902
籬	-13.1903
谚	-13.1903
斛	-13.1903
歹	-13.1903
æ	-13.1903
辫	-13.1903
鴛	-13.1905
鴦	-13.1905
鏟	-13.1982
涕	-13.1982
悚	-13.1982
矾	-13.1982
蛻	-13.1982
蜑	-13.1983
厕	-13.1983
з	-13.1983
昴	-13.1983
駢	-13.1983
煇	-13.2062
辙	-13.2063
煒	-13.2063
桁	-13.2063
懒	-13.2063
鈈	-13.2063
饺	-13.2063
蠔	-13.2064
琨	-13.2064
筏	-13.2064
鈷	-13.2064
钌	-13.2064
轭	-13.2064
玮	-13.2065
銃	-13.2144
錨	-13.2144
湟	-13.2144
瘾	-13.2145
梟	-13.2145
裨	-13.2226
炽	-13.2226
潇	-13.2226
鏞	-13.2226
垢	-13.2226
隈	-13.2226
砵	-13.2227
澗	-13.2227
軛	-13.2227
ㄨ	-13.2227
邈	-13.2227
銨	-13.2227
鰻	-13.2227
坻	-13.2308
锚	-13.2309
煲	-13.2309
疽	-13.2309
囉	-13.231
葦	-13.231
帚	-13.231
鮪	-13.231
壑	-13.231
¬	-13.231
呵	-13.231
濑	-13.2311
砦	-13.239
赈	-13.2391
閹	-13.2392
υ	-13.2392
踵	-13.2392
馱	-13.2393
靚	-13.2393
勰	-13.2393
蕲	-13.2393
»	-13.2393
痹	-13.2393
珮	-13.2393
鄢	-13.2475
鏗	-13.2476
簷	-13.2476
眩	-13.2476
蠅	-13.2477
捩	-13.2477
婕	-13.2477
尷	-13.2477
恙	-13.2477
煊	-13.2477
覃	-13.2478
郅	-13.2559
霾	-13.2561
胄	-13.2561
脐	-13.2561
弁	-13.2561
る	-13.2561
鎬	-13.2561
逅	-13.2561
き	-13.2561
弭	-13.2561
槌	-13.2562
蚵	-13.2562
鋯	-13.2562
錮	-13.2562
筱	-13.2645
濡	-13.2645
雹	-13.2646
撃	-13.2646
佰	-13.2647
氪	-13.2647
鮭	-13.2647
岀	-13.2647
汜	-13.2732
滌	-13.2732
哑	-13.2732
祗	-13.2733
鸳	-13.2733
皝	-13.2733
ч	-13.2734
鎧	-13.2734
涇	-13.2819
敝	-13.2819
朦	-13.282
涟	-13.282
粑	-13.282
郗	-13.2821
崂	-13.2906
蚤	-13.2906
馭	-13.2907
燙	-13.2907
镌	-13.2908
譙	-13.2908
碁	-13.2908
鸯	-13.2908
ό	-13.2908
髅	-13.2908
剋	-13.2908
爻	-13.2908
儷	-13.2908
穰	-13.2908
忿	-13.2994
縻	-13.2995
囂	-13.2996
鑣	-13.2996
顗	-13.2996
ˇ	-13.2997
掳	-13.3085
慑	-13.3085
逞	-13.3085
龕	-13.3085
シ	-13.3085
秽	-13.3085
哄	-13.3085
錕	-13.3085
骊	-13.3086
匕	-13.3086
閤	-13.3174
澆	-13.3175
贲	-13.3176
蟑	-13.3176
窥	-13.3176
蜃	-13.3176
х	-13.3176
腑	-13.3176
馗	-13.3177
蝗	-13.3265
貳	-13.3265
屹	-13.3266
飙	-13.3266
蜓	-13.3267
麂	-13.3267
鎘	-13.3267
伉	-13.3267
钒	-13.3268
諏	-13.3357
昺	-13.3358
纥	-13.3358
咆	-13.3358
讹	-13.3358
鸥	-13.3358
仡	-13.3358
詬	-13.3358
脯	-13.3359
邃	-13.3359
稗	-13.3359
痺	-13.3359
綸	-13.3359
訢	-13.336
绢	-13.345
饉	-13.3451
囪	-13.3451
湳	-13.3451
钝	-13.3451
箍	-13.3451
ə	-13.3451
懺	-13.3451
觐	-13.3451
乂	-13.3451
榘	-13.3451
疱	-13.3451
錼	-13.3452
阇	-13.3452
炊	-13.3543
峦	-13.3543
腋	-13.3543
笺	-13.3544
蠍	-13.3544
珅	-13.3544
癫	-13.3544
疡	-13.3544
龢	-13.3545
颉	-13.3545
鑪	-13.3545
墉	-13.3545
杵	-13.3545
蹶	-13.3636
醮	-13.3637
娇	-13.3637
缢	-13.3638
尻	-13.3638
颓	-13.3638
憚	-13.3638
茗	-13.3638
鄲	-13.3639
ら	-13.3639
璟	-13.3639
晗	-13.3639
ッ	-13.3639
磴	-13.3733
亘	-13.3733
畠	-13.3733
稹	-13.3734
蹦	-13.3734
脇	-13.3734
讥	-13.3734
炖	-13.3734
妤	-13.3734
●	-13.3734
孪	-13.3734
娲	-13.3734
榛	-13.3735
≥	-13.3735
盱	-13.3826
擎	-13.3828
ㄚ	-13.3829
酝	-13.3829
醞	-13.3829
薙	-13.383
昐	-13.383
碚	-13.383
∼	-13.383
墻	-13.3831
や	-13.3831
鏑	-13.3831
踝	-13.3831
闓	-13.3925
鹗	-13.3927
涮	-13.3927
ド	-13.3927
騫	-13.3927
谯	-13.3927
燬	-13.3927
蛹	-13.3928
癢	-13.3928
潁	-13.3928
糠	-13.3928
悌	-13.4023
誨	-13.4024
驹	-13.4024
靓	-13.4024
豺	-13.4024
朮	-13.4024
汰	-13.4024
莢	-13.4025
ά	-13.4025
猾	-13.4025
崽	-13.4025
鎗	-13.4025
茸	-13.4025
骞	-13.4025
潦	-13.4026
槲	-13.4026
霓	-13.4026
グ	-13.4028
扛	-13.4123
艏	-13.4123
靄	-13.4123
瘍	-13.4124
缽	-13.4124
徕	-13.4124
铢	-13.4124
蘚	-13.4124
澍	-13.4124
絶	-13.4124
て	-13.4124
`	-13.4124
þ	-13.4124
縊	-13.4125
篙	-13.4125
挹	-13.4125
恍	-13.4223
雫	-13.4223
钫	-13.4223
钍	-13.4224
臆	-13.4224
淖	-13.4224
朐	-13.4224
揄	-13.4224
郦	-13.4224
鼬	-13.4225
阕	-13.4225
燾	-13.4323
锴	-13.4323
甯	-13.4324
亵	-13.4324
荟	-13.4325
囿	-13.4325
麴	-13.4325
砾	-13.4325
毡	-13.4325
咭	-13.4325
嵬	-13.4326
钷	-13.4326
槛	-13.4326
漾	-13.4326
娑	-13.4326
が	-13.4326
紂	-13.4425
勣	-13.4426
剽	-13.4427
笏	-13.4427
睫	-13.4427
橇	-13.4427
蜻	-13.4428
洙	-13.4428
莅	-13.4428
璉	-13.4528
骥	-13.4529
勗	-13.4529
硯	-13.4529
蹂	-13.453
鍩	-13.453
閭	-13.453
χ	-13.453
垛	-13.453
頜	-13.453
凄	-13.4531
獼	-13.4531
琬	-13.4531
沣	-13.4531
钰	-13.4633
幀	-13.4633
癡	-13.4634
璘	-13.4634
爹	-13.4634
簫	-13.4634
ί	-13.4634
朊	-13.4634
盂	-13.4634
溅	-13.4635
咕	-13.4635
苴	-13.4635
あ	-13.4635
脓	-13.4635
馃	-13.4635
焓	-13.4635
鹫	-13.4635
殡	-13.4737
牯	-13.4738
陉	-13.4739
昰	-13.4739
讒	-13.4739
荖	-13.4739
鸢	-13.474
滷	-13.474
澶	-13.474
爰	-13.474
さ	-13.474
锟	-13.474
垓	-13.474
錠	-13.474
眙	-13.4842
羿	-13.4844
窜	-13.4844
钚	-13.4845
佾	-13.4845
噹	-13.4846
邙	-13.4846
爍	-13.4846
缙	-13.4846
硤	-13.4846
ر	-13.4846
僮	-13.4846
ن	-13.4847
瀟	-13.4847
刎	-13.4847
墘	-13.4952
烨	-13.4953
琏	-13.4953
碣	-13.4953
綦	-13.4953
嚎	-13.4953
嚐	-13.4953
燉	-13.4954
沓	-13.4954
蜚	-13.4954
鎔	-13.4954
黻	-13.4954
は	-13.4954
َ	-13.4954
蘸	-13.4954
竑	-13.5059
邇	-13.5061
銓	-13.5062
椁	-13.5062
觴	-13.5062
蜗	-13.5062
鉉	-13.5062
蜍	-13.5062
嚕	-13.5062
ロ	-13.5062
カ	-13.5062
鈇	-13.5062
嶂	-13.5063
芍	-13.5063
灝	-13.5063
蔴	-13.5063
讖	-13.5063
豉	-13.5063
轲	-13.5064
鏐	-13.5064
阉	-13.5172
蛊	-13.5172
鐨	-13.5172
盞	-13.5172
銖	-13.5172
贅	-13.5172
筮	-13.5172
詰	-13.5172
稔	-13.5172
呐	-13.5172
唭	-13.5173
∞	-13.5173
胭	-13.5173
晾	-13.5173
翎	-13.5173
藐	-13.5173
箫	-13.5282
骈	-13.5282
査	-13.5283
逛	-13.5283
掸	-13.5283
攒	-13.5283
ニ	-13.5283
骇	-13.5283
ㄇ	-13.5283
訃	-13.5283
佇	-13.5284
鷸	-13.5284
钯	-13.5284
腮	-13.5284
輋	-13.5284
陟	-13.539
嚣	-13.5393
殇	-13.5394
猥	-13.5394
颊	-13.5395
驭	-13.5395
懾	-13.5395
銮	-13.5395
矜	-13.5395
を	-13.5396
鋇	-13.5396
膿	-13.5396
饵	-13.5396
佞	-13.5396
č	-13.5396
镖	-13.5396
枇	-13.5396
糸	-13.5507
酈	-13.5507
骁	-13.5508
罂	-13.5509
顼	-13.5509
昙	-13.5509
揶	-13.5509
挛	-13.5509
驤	-13.5509
偈	-13.551
诀	-13.551
瘀	-13.551
殃	-13.551
お	-13.551
つ	-13.551
∈	-13.551
焯	-13.5624
搓	-13.5624
鷲	-13.5624
钗	-13.5624
塽	-13.5624
鳐	-13.5624
レ	-13.5624
褂	-13.5625
餌	-13.5626
戾	-13.5626
咯	-13.5739
鍇	-13.574
獾	-13.574
砥	-13.574
棻	-13.574
詆	-13.574
徠	-13.574
擘	-13.574
刍	-13.5741
郫	-13.5741
嘅	-13.5741
鎵	-13.5741
杷	-13.5741
頰	-13.5741
宓	-13.5857
翩	-13.5857
媾	-13.5857
囤	-13.5857
颛	-13.5857
玖	-13.5858
隽	-13.5858
吝	-13.5858
诂	-13.5858
鳖	-13.5858
谛	-13.5858
铷	-13.5858
槎	-13.5858
锢	-13.5858
薔	-13.5858
擷	-13.5859
烁	-13.5859
秣	-13.5859
禛	-13.5859
鑥	-13.5859
閨	-13.5977
甕	-13.5977
鏘	-13.5977
燎	-13.5977
謔	-13.5977
旻	-13.5977
玷	-13.5977
涞	-13.5978
簪	-13.5978
鿫	-13.5978
燼	-13.6097
隗	-13.6097
鎶	-13.6097
コ	-13.6097
玑	-13.6097
銫	-13.6097
烫	-13.6098
泮	-13.6098
圜	-13.6098
獠	-13.6098
淬	-13.6098
渍	-13.6098
濞	-13.6098
鮫	-13.6098
遶	-13.6098
梶	-13.6099
徳	-13.6219
髏	-13.622
様	-13.622
栾	-13.622
鸵	-13.622
腈	-13.622
酐	-13.6221
俺	-13.6335
鏷	-13.6342
粿	-13.6342
翱	-13.6342
麋	-13.6342
烬	-13.6343
欒	-13.6343
赧	-13.6343
邾	-13.6343
貔	-13.6343
脍	-13.6343
痉	-13.6343
嗩	-13.6343
窿	-13.6343
î	-13.6343
藹	-13.6343
椴	-13.6344
ц	-13.6344
焖	-13.6344
輓	-13.6344
枭	-13.6344
謫	-13.6466
锄	-13.6467
闺	-13.6467
闔	-13.6467
垠	-13.6468
盯	-13.6468
嘶	-13.6468
蔻	-13.6468
钜	-13.6468
嗟	-13.6468
م	-13.6468
マ	-13.6469
و	-13.6469
腱	-13.6469
诒	-13.647
喋	-13.6593
銩	-13.6594
絆	-13.6594
飭	-13.6594
鳶	-13.6594
瑗	-13.6594
袤	-13.6594
坌	-13.6595
眈	-13.6595
鈎	-13.6595
璨	-13.6595
û	-13.6595
÷	-13.6595
憬	-13.6595
柞	-13.6595
钳	-13.6595
茘	-13.6596
蜕	-13.6596
覬	-13.6596
彊	-13.672
閡	-13.6721
夙	-13.6721
廡	-13.6722
綑	-13.6722
苳	-13.6723
惋	-13.6723
頫	-13.6723
寛	-13.6723
淒	-13.6723
盏	-13.6723
茧	-13.6723
墀	-13.6723
謚	-13.6723
譁	-13.6723
フ	-13.6723
邰	-13.6723
え	-13.6723
癣	-13.6724
オ	-13.6724
蔘	-13.6724
淩	-13.6724
骅	-13.6847
揖	-13.6851
驍	-13.6851
恣	-13.6851
軋	-13.6852
ㄜ	-13.6852
辄	-13.6852
鄺	-13.6852
缕	-13.6852
テ	-13.6853
缎	-13.6853
萇	-13.6853
讣	-13.6853
龈	-13.6853
緹	-13.6853
沩	-13.6853
鍆	-13.6853
ミ	-13.6853
舂	-13.6853
覦	-13.6854
芻	-13.6854
贓	-13.6854
澹	-13.6854
珩	-13.6982
杼	-13.6982
岫	-13.6983
艉	-13.6983
瑷	-13.6984
拭	-13.6984
痲	-13.6984
诟	-13.6984
锭	-13.6984
麩	-13.6984
蛰	-13.6984
礽	-13.6984
れ	-13.6985
岘	-13.6985
釹	-13.6985
莿	-13.6985
唧	-13.6985
埴	-13.6985
骠	-13.6985
泷	-13.6985
孖	-13.7116
铨	-13.7116
髹	-13.7117
桉	-13.7117
郓	-13.7117
疣	-13.7117
萘	-13.7117
瑀	-13.7118
曷	-13.7118
耘	-13.7118
も	-13.7118
詒	-13.7118
鲧	-13.7251
讧	-13.7251
甪	-13.7252
菽	-13.7252
祟	-13.7252
酣	-13.7252
洄	-13.7252
镛	-13.7252
蠱	-13.7253
賁	-13.7253
洶	-13.7253
辻	-13.7253
珑	-13.7253
綵	-13.7253
伕	-13.7253
霏	-13.7253
タ	-13.7253
銻	-13.7253
ㄛ	-13.7253
耜	-13.7386
劻	-13.7388
殮	-13.7388
澂	-13.7389
嗚	-13.7389
綻	-13.7389
娴	-13.7389
谗	-13.7389
蟆	-13.7389
ф	-13.7389
郯	-13.739
ύ	-13.739
礬	-13.739
滎	-13.739
ム	-13.739
牦	-13.739
頊	-13.739
姒	-13.739
邡	-13.739
鶚	-13.739
茴	-13.739
绫	-13.739
ジ	-13.7391
淌	-13.7391
勖	-13.7391
痫	-13.7391
趴	-13.7391
鈀	-13.7391
瓚	-13.7391
哙	-13.7391
撣	-13.7527
仝	-13.7528
庑	-13.7528
杲	-13.7528
邗	-13.7528
甾	-13.7528
讞	-13.7528
廝	-13.7528
傚	-13.7528
歳	-13.7529
ı	-13.7529
錚	-13.7529
闇	-13.7529
緲	-13.7529
諳	-13.7529
歿	-13.753
爨	-13.753
孳	-13.7666
鋤	-13.7667
犛	-13.7668
喆	-13.7668
磬	-13.7668
¥	-13.7669
赘	-13.7669
砧	-13.7669
恽	-13.7669
谶	-13.7669
銹	-13.7669
荳	-13.7669
嗪	-13.767
荚	-13.767
痒	-13.767
鈁	-13.767
饕	-13.767
蹊	-13.767
牴	-13.767
ψ	-13.767
璠	-13.767
竅	-13.767
圀	-13.767
嫪	-13.767
こ	-13.767
癇	-13.767
跛	-13.767
𰻞	-13.767
灞	-13.767
曖	-13.767
惫	-13.7671
亶	-13.7803
鉗	-13.7809
璁	-13.7811
诋	-13.7811
迩	-13.7811
镉	-13.7811
胪	-13.7812
顔	-13.7812
奐	-13.7812
軫	-13.7812
縉	-13.7812
豢	-13.7812
髯	-13.7812
塭	-13.7812
糰	-13.7812
眜	-13.7812
糅	-13.7812
瓏	-13.7812
ʔ	-13.7812
ي	-13.7813
↔	-13.7813
砻	-13.7813
☆	-13.7813
泠	-13.7813
蟄	-13.7813
堇	-13.7813
訌	-13.7813
坯	-13.7813
缭	-13.7813
噠	-13.7813
孿	-13.7813
袱	-13.7955
锗	-13.7956
釧	-13.7956
粳	-13.7956
俎	-13.7956
镂	-13.7957
迤	-13.7957
饬	-13.7957
囍	-13.7957
­	-13.7957
鞣	-13.7957
茁	-13.7957
釙	-13.7957
樗	-13.7957
佢	-13.7957
蒽	-13.7958
铈	-13.7958
阖	-13.7958
啉	-13.7958
麿	-13.7958
倣	-13.7958
氈	-13.7958
毐	-13.7958
刨	-13.7958
匐	-13.7958
浈	-13.7958
紘	-13.8101
溟	-13.8102
紈	-13.8103
瓢	-13.8103
埭	-13.8103
篱	-13.8104
櫥	-13.8104
妞	-13.8104
郤	-13.8104
∶	-13.8104
颢	-13.8104
怂	-13.8104
濺	-13.8104
э	-13.8104
ъ	-13.8105
嬅	-13.8105
胧	-13.8105
←	-13.8105
だ	-13.8105
脛	-13.8105
ा	-13.8105
繃	-13.8105
嘟	-13.8105
舔	-13.8106
ㄝ	-13.8252
殞	-13.8252
飩	-13.8253
鹀	-13.8253
靛	-13.8253
焗	-13.8253
喫	-13.8253
拽	-13.8253
愕	-13.8253
寐	-13.8254
ㄩ	-13.8254
钐	-13.8254
軻	-13.8254
炆	-13.8254
坷	-13.8255
唑	-13.8404
攫	-13.8404
晔	-13.8404
闿	-13.8404
廍	-13.8405
魷	-13.8405
塱	-13.8405
滂	-13.8405
咁	-13.8405
驥	-13.8405
毌	-13.8405
皎	-13.8405
菈	-13.8405
仞	-13.8405
拣	-13.8405
褓	-13.8405
嶇	-13.8405
鉝	-13.8405
す	-13.8405
啮	-13.8406
儕	-13.8406
鱉	-13.8406
ち	-13.8406
嚈	-13.8406
邽	-13.8407
乩	-13.8407
驮	-13.8558
轆	-13.8558
餛	-13.8558
鹮	-13.8558
昉	-13.8559
憊	-13.8559
箇	-13.8559
渙	-13.8559
鹳	-13.8559
狒	-13.8559
聋	-13.856
嘢	-13.856
ш	-13.856
キ	-13.856
凈	-13.8561
溱	-13.8714
訇	-13.8715
涣	-13.8715
釩	-13.8715
哼	-13.8715
吮	-13.8715
冑	-13.8715
纓	-13.8715
禰	-13.8715
铮	-13.8716
芫	-13.8716
呋	-13.8716
ب	-13.8716
咱	-13.8716
牍	-13.8716
捶	-13.8716
縷	-13.8716
谪	-13.8873
謐	-13.8873
炁	-13.8873
笞	-13.8873
ㄋ	-13.8873
嶋	-13.8873
虱	-13.8873
蟀	-13.8873
黠	-13.8873
捺	-13.8874
恂	-13.8874
ㄥ	-13.8874
箓	-13.8874
♭	-13.8874
醌	-13.8874
瑄	-13.8874
铑	-13.8874
玕	-13.9033
磕	-13.9034
嶝	-13.9034
黟	-13.9035
鍔	-13.9035
膈	-13.9035
閲	-13.9035
啃	-13.9035
禕	-13.9036
鹛	-13.9036
萣	-13.9036
ã	-13.9036
̍	-13.9036
敎	-13.9036
리	-13.9036
暐	-13.9036
僥	-13.9036
黥	-13.9036
懊	-13.9037
樾	-13.9197
湃	-13.9199
侂	-13.9199
箋	-13.9199
铠	-13.9199
璀	-13.9199
俨	-13.9199
慚	-13.9199
猕	-13.9199
瓒	-13.9199
扉	-13.9199
罡	-13.9199
拴	-13.9199
殁	-13.9199
𨧀	-13.9199
樛	-13.9199
ḥ	-13.9199
獭	-13.92
्	-13.92
枷	-13.92
蓼	-13.92
瘴	-13.92
汊	-13.92
焜	-13.9201
铍	-13.9201
涎	-13.9364
孑	-13.9365
琇	-13.9365
躉	-13.9365
鴟	-13.9365
鞦	-13.9365
倔	-13.9366
慟	-13.9366
膊	-13.9366
瞪	-13.9366
搔	-13.9366
ł	-13.9366
袈	-13.9366
蹬	-13.9366
咫	-13.9367
藔	-13.9367
秭	-13.9368
嗇	-13.9531
畯	-13.9533
衕	-13.9533
囓	-13.9533
隰	-13.9534
炜	-13.9534
蘋	-13.9534
緞	-13.9534
踊	-13.9535
袂	-13.9535
楂	-13.9535
韆	-13.9535
濯	-13.9535
岖	-13.9535
眞	-13.9535
绚	-13.9535
痞	-13.9535
輦	-13.9536
≈	-13.9536
嘿	-13.9536
≠	-13.9536
磔	-13.9536
蜆	-13.9536
詡	-13.9536
荽	-13.9536
鬩	-13.9536
阑	-13.9537
赉	-13.9537
窰	-13.9702
帙	-13.9705
琤	-13.9706
骯	-13.9707
亙	-13.9707
朧	-13.9707
旃	-13.9707
猗	-13.9707
壅	-13.9708
憨	-13.9708
湫	-13.9708
獐	-13.9708
谑	-13.9708
锕	-13.9708
钬	-13.9708
プ	-13.9708
剁	-13.9708
堉	-13.9708
荞	-13.9708
錡	-13.9709
锆	-13.9709
鮎	-13.988
繚	-13.9881
臍	-13.9882
搪	-13.9882
兢	-13.9882
绊	-13.9883
釕	-13.9883
瞧	-13.9883
銑	-13.9883
珙	-13.9883
鏖	-13.9883
阈	-13.9883
堺	-13.9883
觞	-13.9883
έ	-13.9883
疸	-13.9883
螈	-13.9883
摶	-13.9883
蠣	-13.9883
宥	-13.9883
詼	-13.9883
牘	-13.9883
鉕	-13.9883
钺	-13.9883
睪	-13.9883
ð	-13.9883
铪	-13.9884
ś	-13.9884
膦	-13.9884
娣	-13.9884
蹇	-13.9884
眶	-13.9884
珣	-13.9885
輜	-14.006
汹	-14.0061
拈	-14.0061
稞	-14.0061
櫓	-14.0061
苜	-14.0061
囱	-14.0062
睁	-14.0062
け	-14.0062
箸	-14.0062
エ	-14.0062
י	-14.0062
洹	-14.0062
楫	-14.0062
チ	-14.0062
噓	-14.0062
メ	-14.0062
繭	-14.0062
█	-14.0062
彫	-14.0062
®	-14.0062
̇	-14.0062
せ	-14.0062
燻	-14.0062
毽	-14.0062
闼	-14.0062
絀	-14.0062
榫	-14.0063
钪	-14.0063
匍	-14.0063
筊	-14.0063
慤	-14.0241
琺	-14.0241
肱	-14.0242
佥	-14.0242
灃	-14.0243
磾	-14.0243
蓿	-14.0243
濉	-14.0243
觎	-14.0243
箝	-14.0243
涠	-14.0243
擰	-14.0243
£	-14.0244
惺	-14.0244
觊	-14.0244
ž	-14.0244
ʻ	-14.0244
榖	-14.0244
璿	-14.0244
đ	-14.0244
ή	-14.0244
逖	-14.0244
噌	-14.0244
銠	-14.0245
栢	-14.0245
辎	-14.0245
睬	-14.0245
弢	-14.0427
犒	-14.0428
蚶	-14.0428
逋	-14.0428
馍	-14.0428
僉	-14.0428
櫟	-14.0428
閂	-14.0428
瑠	-14.0428
诘	-14.0428
ㄑ	-14.0429
繽	-14.0429
皙	-14.0429
秆	-14.0429
わ	-14.0429
氩	-14.0429
癬	-14.0429
镨	-14.0429
尅	-14.0429
ウ	-14.0429
ì	-14.0429
螭	-14.043
綝	-14.0431
閎	-14.0616
脲	-14.0616
萩	-14.0616
诩	-14.0617
鎏	-14.0617
赡	-14.0617
ξ	-14.0617
ù	-14.0617
厩	-14.0617
蟋	-14.0617
贄	-14.0617
蕎	-14.0617
ノ	-14.0618
衹	-14.0618
砈	-14.0618
雋	-14.0618
ひ	-14.0618
赃	-14.0618
惮	-14.0618
巿	-14.0619
臏	-14.0619
庠	-14.0619
蔺	-14.0619
璩	-14.0808
呜	-14.0808
鐫	-14.0808
涔	-14.0808
镳	-14.0809
掾	-14.0809
顓	-14.0809
瀘	-14.081
腴	-14.081
鉢	-14.081
蠹	-14.081
鲫	-14.081
诙	-14.081
踴	-14.081
赳	-14.081
彘	-14.081
髀	-14.081
痤	-14.081
鹬	-14.081
籀	-14.081
悸	-14.081
鹑	-14.081
攣	-14.081
蟥	-14.0811
犊	-14.0812
獒	-14.1004
诲	-14.1004
琿	-14.1005
轧	-14.1005
喹	-14.1005
瘁	-14.1006
喱	-14.1006
蒞	-14.1006
凜	-14.1006
𨨏	-14.1006
嬗	-14.1006
贍	-14.1006
潯	-14.1006
籙	-14.1006
斝	-14.1006
鳝	-14.1006
衎	-14.1006
鐒	-14.1006
س	-14.1006
坨	-14.1007
訐	-14.1007
鬨	-14.1007
樫	-14.1007
呦	-14.1202
蛀	-14.1204
迢	-14.1205
縝	-14.1205
阂	-14.1205
鬻	-14.1205
晞	-14.1205
筐	-14.1205
熠	-14.1205
荤	-14.1205
ㄕ	-14.1205
堑	-14.1205
徇	-14.1206
蕈	-14.1206
鄜	-14.1206
ャ	-14.1206
で	-14.1206
ʼ	-14.1206
夤	-14.1206
菓	-14.1206
褥	-14.1206
ş	-14.1206
貅	-14.1206
撬	-14.1207
芡	-14.1207
顒	-14.1207
篾	-14.1208
葭	-14.1406
啖	-14.1407
豨	-14.1408
豸	-14.1408
ㄓ	-14.1409
裱	-14.1409
郧	-14.1409
酆	-14.1409
呱	-14.1409
恫	-14.1409
瑈	-14.1409
鹈	-14.1409
悝	-14.141
蜢	-14.141
樋	-14.141
癥	-14.141
茯	-14.141
騾	-14.141
沆	-14.141
橱	-14.141
蹋	-14.141
钤	-14.141
鲱	-14.141
轸	-14.141
鉸	-14.141
痔	-14.141
鬟	-14.1411
碛	-14.1411
䓬	-14.1411
瓘	-14.1411
驄	-14.1412
ж	-14.1412
颙	-14.1413
<	-14.1448
圮	-14.1615
捅	-14.1616
詧	-14.1616
戕	-14.1617
愫	-14.1617
仵	-14.1617
箧	-14.1617
襁	-14.1618
栉	-14.1618
睇	-14.1618
耙	-14.1618
鿬	-14.1618
謄	-14.1618
枱	-14.1618
嘘	-14.1618
パ	-14.1618
戸	-14.1618
卍	-14.1619
ナ	-14.1619
祛	-14.1619
ɔ	-14.1619
痙	-14.1619
脣	-14.1619
雎	-14.1619
́	-14.1619
ː	-14.1619
楸	-14.1619
燁	-14.1619
翳	-14.162
厓	-14.1829
蘅	-14.1829
臚	-14.183
辇	-14.183
缨	-14.183
姗	-14.183
搐	-14.183
鵜	-14.1831
奂	-14.1831
痈	-14.1831
暧	-14.1831
傩	-14.1831
鲈	-14.1831
鄔	-14.1831
バ	-14.1831
隹	-14.1831
哋	-14.1831
跗	-14.1831
ˈ	-14.1831
煨	-14.1831
ɑ	-14.1831
啜	-14.1831
鱈	-14.1831
า	-14.1831
鸻	-14.1832
錀	-14.1832
倬	-14.1832
鏵	-14.1832
鉞	-14.1832
泯	-14.1832
礴	-14.1832
衊	-14.1832
擧	-14.2044
蓓	-14.2045
玘	-14.2045
渌	-14.2047
ㄐ	-14.2047
仃	-14.2047
詁	-14.2047
眨	-14.2048
鍶	-14.2048
鯀	-14.2048
瓠	-14.2048
翕	-14.2048
雩	-14.2048
珉	-14.2048
蜈	-14.2048
荪	-14.2048
鴞	-14.2048
縈	-14.2048
胳	-14.2048
徨	-14.2048
挞	-14.2048
罘	-14.2048
璣	-14.2048
嗆	-14.2048
ṣ	-14.2049
饨	-14.2049
黝	-14.2049
∧	-14.2049
ㄌ	-14.2049
潺	-14.2049
아	-14.2049
ć	-14.2049
め	-14.2049
ガ	-14.2049
勱	-14.2049
簸	-14.2049
込	-14.2049
ワ	-14.2049
ǎ	-14.2049
嘜	-14.2049
闌	-14.2049
⋅	-14.2049
砭	-14.2049
よ	-14.2049
炕	-14.2049
嚟	-14.2049
榧	-14.2049
萜	-14.205
闋	-14.2264
圉	-14.2268
ㄗ	-14.2269
謖	-14.2269
ㄙ	-14.2269
砺	-14.2269
谧	-14.2269
藁	-14.2269
喾	-14.2269
纾	-14.227
砒	-14.227
侥	-14.227
鳔	-14.227
蠲	-14.227
鳗	-14.227
孃	-14.227
廨	-14.227
捡	-14.227
遑	-14.227
肼	-14.227
哌	-14.2271
噱	-14.2271
濊	-14.2271
厮	-14.2271
サ	-14.2271
ㄣ	-14.2271
セ	-14.2271
掐	-14.2271
蹼	-14.2271
≡	-14.2271
菰	-14.2271
鏊	-14.2271
铰	-14.2271
ダ	-14.2271
烩	-14.2271
燔	-14.2271
ブ	-14.2271
र	-14.2271
癟	-14.2272
鼹	-14.2272
劢	-14.2272
ṭ	-14.2272
扪	-14.2272
閼	-14.2273
纍	-14.2491
訖	-14.2494
嘈	-14.2496
嗤	-14.2496
躏	-14.2497
ㄒ	-14.2497
獺	-14.2497
噻	-14.2497
悴	-14.2497
蓀	-14.2497
肮	-14.2497
鉨	-14.2497
窈	-14.2498
緘	-14.2498
蛎	-14.2498
郾	-14.2498
ㄅ	-14.2498
晩	-14.2498
緱	-14.2498
魨	-14.2498
莠	-14.2498
ㄢ	-14.2498
苎	-14.2498
犢	-14.2498
嬸	-14.2498
ィ	-14.2498
ず	-14.2499
歴	-14.2499
阋	-14.2499
猊	-14.2499
鐠	-14.2499
瘩	-14.2499
□	-14.2722
溆	-14.2728
菘	-14.2729
祢	-14.2729
卬	-14.2729
僰	-14.2729
牂	-14.273
枸	-14.273
卐	-14.273
蘄	-14.273
卽	-14.273
嵙	-14.273
惘	-14.2731
鲟	-14.2731
咙	-14.2731
嶷	-14.2731
喔	-14.2731
𨭆	-14.2731
犸	-14.2731
勅	-14.2731
苕	-14.2731
ㄉ	-14.2731
圯	-14.2731
ё	-14.2731
っ	-14.2731
貉	-14.2731
勷	-14.2731
〞	-14.2731
湣	-14.2731
暄	-14.2732
刈	-14.2732
ò	-14.2732
鄠	-14.2965
濘	-14.2966
鄄	-14.2966
楙	-14.2966
孱	-14.2967
憔	-14.2967
禵	-14.2967
狓	-14.2967
簋	-14.2968
闥	-14.2968
冇	-14.2968
啲	-14.2968
贰	-14.2968
貊	-14.2968
蚣	-14.2968
ㄠ	-14.2968
狎	-14.2968
嚏	-14.2968
儺	-14.2968
罟	-14.2969
蒴	-14.2969
銬	-14.2969
惚	-14.2969
埙	-14.2969
铿	-14.2969
鳕	-14.2969
∨	-14.2969
槻	-14.2969
ه	-14.2969
モ	-14.2969
钽	-14.2969
皰	-14.2969
ă	-14.2969
卟	-14.2969
∀	-14.2969
栃	-14.2969
ュ	-14.2969
ㄏ	-14.2969
畬	-14.2969
諍	-14.297
ゑ	-14.2974
舛	-14.3205
蜷	-14.321
愎	-14.3211
谘	-14.3211
薮	-14.3212
贽	-14.3212
忡	-14.3212
杓	-14.3212
韪	-14.3212
钆	-14.3212
佉	-14.3212
嘹	-14.3212
嚳	-14.3212
讫	-14.3212
咗	-14.3212
咲	-14.3212
玠	-14.3213
鶉	-14.3213
♯	-14.3213
蛄	-14.3213
蝌	-14.3213
铣	-14.3213
ろ	-14.3213
坩	-14.3213
鲑	-14.3213
崢	-14.3213
漣	-14.3213
俅	-14.3213
逹	-14.3213
鼷	-14.3213
蛭	-14.3213
儆	-14.3213
蓆	-14.3214
碭	-14.3457
杙	-14.346
蕻	-14.346
忤	-14.3461
椽	-14.3461
槨	-14.3461
矇	-14.3461
铟	-14.3462
妣	-14.3462
怖	-14.3462
鞮	-14.3462
崤	-14.3462
碴	-14.3462
酞	-14.3462
铛	-14.3462
趵	-14.3462
揍	-14.3462
扦	-14.3463
蔼	-14.3463
馒	-14.3463
擀	-14.3463
ý	-14.3463
妫	-14.3463
粧	-14.3463
ビ	-14.3463
缄	-14.3463
饅	-14.3463
姫	-14.3463
ɛ	-14.3463
鸕	-14.3463
蕤	-14.3463
绷	-14.3464
瞽	-14.3464
侑	-14.3464
殓	-14.3464
碓	-14.3464
臾	-14.3464
罌	-14.3468
灏	-14.3716
惭	-14.3717
赭	-14.3717
镯	-14.3717
滹	-14.3717
迸	-14.3718
釓	-14.3718
褔	-14.3718
嗔	-14.3718
镠	-14.3718
啻	-14.3718
葩	-14.3719
尕	-14.3719
鱿	-14.3719
虬	-14.3719
腩	-14.3719
驷	-14.3719
蹠	-14.3719
ɕ	-14.3719
乭	-14.3719
峤	-14.3719
遒	-14.3719
嫣	-14.3719
ع	-14.3719
抟	-14.3719
腧	-14.3719
捱	-14.3719
嵴	-14.3719
柢	-14.3719
堝	-14.3719
苾	-14.3719
窣	-14.372
炘	-14.372
祧	-14.372
骜	-14.372
驩	-14.372
嬋	-14.3721
鬲	-14.3979
虺	-14.3979
俁	-14.398
ㄘ	-14.398
鲠	-14.3981
棂	-14.3981
凛	-14.3981
淼	-14.3981
騁	-14.3981
廪	-14.3981
硏	-14.3981
饗	-14.3981
璦	-14.3981
缜	-14.3981
燄	-14.3982
猁	-14.3982
砰	-14.3982
猞	-14.3982
迨	-14.3982
佶	-14.3982
秈	-14.3982
鬬	-14.3982
ハ	-14.3982
鋱	-14.3982
铊	-14.3982
་	-14.3982
じ	-14.3982
鎝	-14.3982
┃	-14.3982
ِ	-14.3982
芗	-14.3982
泺	-14.3983
蚪	-14.3983
ょ	-14.3983
埂	-14.3983
栻	-14.3984
鸨	-14.4251
谌	-14.4252
杳	-14.4252
ו	-14.4252
惣	-14.4252
軔	-14.4252
ㄭ	-14.4252
儸	-14.4252
垌	-14.4252
骧	-14.4252
崆	-14.4252
韫	-14.4252
鸊	-14.4252
溏	-14.4252
豊	-14.4252
顥	-14.4252
ก	-14.4252
ㄆ	-14.4252
螫	-14.4252
ğ	-14.4253
鷉	-14.4253
ج	-14.4253
蟜	-14.4253
د	-14.4253
塬	-14.4253
丏	-14.4253
絛	-14.4253
ě	-14.4253
飒	-14.4253
俪	-14.4253
馕	-14.4254
洭	-14.4254
犼	-14.4256
懽	-14.4516
嚷	-14.4525
禑	-14.4526
淙	-14.4529
鉚	-14.4529
瞥	-14.4529
ㄔ	-14.4529
絢	-14.453
斫	-14.453
蝮	-14.453
莜	-14.453
ร	-14.453
槭	-14.453
鈸	-14.453
槤	-14.453
闱	-14.453
鸱	-14.453
枞	-14.453
牝	-14.453
貍	-14.453
嚥	-14.453
霭	-14.453
玆	-14.453
劊	-14.453
鯰	-14.453
臃	-14.453
醪	-14.453
鯛	-14.4531
鹞	-14.4531
窍	-14.4531
臬	-14.4531
笆	-14.4531
胯	-14.4531
ㄍ	-14.4531
剡	-14.4531
藺	-14.4532
郛	-14.4811
埡	-14.4813
滏	-14.4814
蓥	-14.4815
謾	-14.4815
犄	-14.4815
粕	-14.4815
窠	-14.4815
捎	-14.4815
咩	-14.4815
饯	-14.4815
痂	-14.4815
峄	-14.4815
悫	-14.4815
騭	-14.4816
ư	-14.4816
ば	-14.4816
紺	-14.4816
跷	-14.4816
愨	-14.4816
ʃ	-14.4816
苧	-14.4816
煅	-14.4816
恸	-14.4816
餞	-14.4816
주	-14.4816
ǣ	-14.4816
乜	-14.4816
铌	-14.4816
ツ	-14.4817
鉿	-14.4817
鄣	-14.4817
鏤	-14.4818
础	-14.5107
榊	-14.5109
葷	-14.5109
峠	-14.5109
睜	-14.5109
痍	-14.5109
蛸	-14.5109
戦	-14.5109
萸	-14.511
嗶	-14.511
ت	-14.511
洸	-14.511
胫	-14.511
ɪ	-14.511
丼	-14.511
櫸	-14.511
鵪	-14.511
藷	-14.511
鱸	-14.511
莧	-14.5111
禳	-14.5111
礪	-14.5111
⟨	-14.5111
⟩	-14.5111
鍰	-14.5112
呻	-14.5409
廩	-14.5411
绯	-14.5411
埸	-14.5411
樨	-14.5411
锵	-14.5411
鎣	-14.5412
徂	-14.5412
舯	-14.5412
毎	-14.5412
椋	-14.5412
蚋	-14.5412
尪	-14.5412
〝	-14.5412
窕	-14.5413
嵗	-14.5413
竦	-14.5413
啬	-14.5413
莼	-14.5413
鐽	-14.5413
菖	-14.5413
苋	-14.5413
ㄊ	-14.5413
ἀ	-14.5413
仟	-14.5413
√	-14.5413
糍	-14.5413
増	-14.5414
嶸	-14.5414
鳟	-14.5414
嘸	-14.5414
鯡	-14.5414
楯	-14.5417
幄	-14.5722
罽	-14.5724
槊	-14.5724
肓	-14.5724
䥑	-14.5724
闫	-14.5724
蔵	-14.5724
聃	-14.5725
籁	-14.5725
鶘	-14.5725
堞	-14.5725
掰	-14.5725
枳	-14.5725
熨	-14.5725
蓑	-14.5725
噜	-14.5725
凫	-14.5725
鷂	-14.5725
绽	-14.5725
伝	-14.5725
庖	-14.5725
ㄞ	-14.5725
ة	-14.5725
鲇	-14.5725
啥	-14.5726
酊	-14.5726
鱘	-14.5726
捫	-14.5726
鲢	-14.5726
哦	-14.5726
ズ	-14.5726
ك	-14.5726
浯	-14.5726
ゆ	-14.5726
เ	-14.5726
न	-14.5726
焱	-14.5726
蹺	-14.5726
跖	-14.5726
狻	-14.5726
狁	-14.5727
蚴	-14.5727
闳	-14.604
邠	-14.6042
绾	-14.6045
鄮	-14.6045
廛	-14.6045
暠	-14.6046
伋	-14.6047
秸	-14.6047
愆	-14.6047
拏	-14.6047
寔	-14.6047
粄	-14.6047
唢	-14.6047
甑	-14.6047
ゴ	-14.6047
獬	-14.6048
颯	-14.6048
ㄈ	-14.6048
鲶	-14.6048
唬	-14.6048
犷	-14.6048
遨	-14.6048
韞	-14.6048
頼	-14.6048
垸	-14.6048
陘	-14.6048
顳	-14.6048
デ	-14.6048
蚜	-14.6048
˥	-14.6048
铱	-14.6048
崚	-14.6048
僞	-14.6048
汎	-14.6048
覡	-14.6048
廸	-14.6048
泚	-14.6048
び	-14.6048
璈	-14.6048
鹄	-14.6048
ㄡ	-14.6048
豳	-14.6048
榎	-14.6049
砟	-14.6049
嫚	-14.6049
谙	-14.6049
锝	-14.6049
ف	-14.6049
洺	-14.6049
賡	-14.6049
锇	-14.6049
瘸	-14.6049
鈧	-14.6049
撩	-14.6049
蚝	-14.6049
惲	-14.605
蹙	-14.6052
纫	-14.6371
浞	-14.6374
駡	-14.6375
跸	-14.6379
衽	-14.6379
俣	-14.6379
垭	-14.6379
徬	-14.6379
廄	-14.638
祔	-14.638
畀	-14.638
溘	-14.6381
讴	-14.6381
त	-14.6381
鄚	-14.6381
懵	-14.6381
佺	-14.6381
薌	-14.6381
痧	-14.6381
鱒	-14.6381
ق	-14.6382
อ	-14.6382
ㄖ	-14.6382
ㄤ	-14.6382
柊	-14.6382
驺	-14.6382
枹	-14.6382
浍	-14.6382
鸫	-14.6382
纛	-14.6382
ʿ	-14.6382
ṇ	-14.6382
驁	-14.6382
鼩	-14.6382
钇	-14.6382
鵠	-14.6382
薤	-14.6382
ㄫ	-14.6382
ㄟ	-14.6383
摑	-14.6383
咧	-14.6383
鈐	-14.6383
袴	-14.6724
嫘	-14.6724
皴	-14.6725
鍅	-14.6725
湜	-14.6725
殛	-14.6726
蝰	-14.6726
涑	-14.6726
蝓	-14.6726
橚	-14.6726
鏌	-14.6726
滓	-14.6726
侪	-14.6726
蛞	-14.6726
ń	-14.6726
ĝ	-14.6726
ר	-14.6726
捒	-14.6726
א	-14.6726
蛉	-14.6726
ï	-14.6727
寳	-14.6727
祏	-14.6727
螅	-14.6727
凪	-14.6727
塲	-14.6727
踰	-14.6727
岙	-14.6727
舢	-14.6727
椪	-14.6727
畈	-14.6727
嘓	-14.6727
倜	-14.6728
瀬	-14.6728
巂	-14.6728
ि	-14.7082
啾	-14.7083
œ	-14.7083
冏	-14.7083
ُ	-14.7084
€	-14.7084
ْ	-14.7084
˩	-14.7084
礎	-15.2812
萄	-15.8818
穌	-16.0069
稣	-17.0994
鹕	-17.5946
熜	-17.5947
潽	-17.5948
暅	-17.5949
俬	-17.595
┬	-17.5951
鹌	-17.5952
犽	-17.5953
鄩	-17.5954
鸂	-17.5955
鶒	-17.5956
鍙	-17.5957
𥙿	-17.5958
醱	-17.5959
仫	-17.596
𡒉	-17.5961
篝	-17.5962
疙	-17.5963
㺢	-17.5964
㹢	-17.5965
鶓	-17.5966
鴯	-17.5967
馄	-17.5968
狽	-17.5969
傕	-17.597
躪	-17.5971
崃	-17.5972
衚	-17.5973
餮	-17.5974
刽	-17.5975
鹋	-17.5976
鸸	-17.5977
裟	-17.5978
譞	-17.5979
慫	-17.598
鯓	-17.5981
憧	-17.5982
纭	-17.5983
倻	-17.5984
駙	-17.5985
蚯	-17.5986
尴	-17.5987
邂	-17.5988
嚨	-17.5989
崭	-17.599
螃	-17.5991
骷	-17.5992
艋	-17.5993
鹉	-17.5994
饪	-17.5995
闆	-17.5996
儡	-17.5997
圾	-17.5998
肪	-17.5998
